!
"
#
##0
##1
##10
##11
##12
##13
##14
##15
##16
##17
##18
##19
##2
##20
##21
##22
##23
##24
##25
##26
##27
##28
##29
##3
##30
##31
##32
##33
##34
##35
##36
##37
##38
##39
##4
##40
##41
##42
##43
##44
##45
##46
##47
##48
##49
##5
##50
##51
##52
##53
##54
##55
##56
##57
##58
##59
##6
##60
##61
##62
##63
##64
##65
##66
##67
##68
##69
##7
##70
##71
##72
##73
##74
##75
##76
##77
##78
##79
##8
##80
##81
##82
##83
##84
##85
##86
##87
##88
##89
##9
##90
##91
##92
##93
##94
##95
##96
##97
##98
##99
$
%
&
'
(
)
*
+
,
-
.
/
0
00
000
001
003
004
006
009
01
010
0140
015
02
024
03
031
038
04
049
05
06
069
07
08
080
09
1
10
100
1000
10000
1001
1002
1003
1004
1005
1006
1006976
1007
1008
1009
101
1010
1011
1012
1013
1014
1015
1016
1017
1018
1019
102
1020
1021
1022
1023
1024
1025
1026
1027
1028
1029
103
1030
1031
1032
1033
1034
1035
1036
1037
1038
1039
104
1040
1041
1042
1043
1044
1045
1046
1047
1048
1049
105
1050
1051
1052
1053
1054
1055
1056
1057
1058
1059
106
1060
1061
1062
1063
1064
1065
1066
1067
1068
1069
107
1070
1071
1072
1073
1074
1075
1076
1077
1078
1079
108
1080
1081
1082
1083
1084
1085
1086
1087
1088
1089
109
1090
1091
1092
1093
1094
1095
1096
1097
1098
1099
11
110
1100
1101
1102
1103
1104
1105
1106
1107
1108
1109
111
1110
1111
1112
1113
1114
1115
1116
1117
1118
1119
112
1120
1121
1122
1123
1124
1125
1126
1127
1128
1129
113
1130
1131
1132
1133
1134
1135
1136
1137
1138
1139
114
1140
1141
1142
1143
1144
1145
1146
1147
1148
1149
115
1150
1151
1152
1153
1154
1155
1156
1157
1158
1159
116
1160
1161
1162
1163
1164
1165
1166
1167
1168
1169
117
1170
1171
1172
1173
1174
1175
1176
1177
1178
1179
118
1180
1181
1182
1183
1184
1185
1186
1187
1188
1189
119
1190
1191
1192
1193
1194
1195
1196
1197
1198
1199
12
120
1200
1201
1202
1203
1204
1205
1206
1207
1208
1209
121
1210
1211
1212
1213
1214
1215
1216
1217
1218
1219
122
1220
1221
1222
1223
1224
1225
1226
1227
1228
1229
123
1230
1231
1232
1233
1234
1235
1236
1237
1238
1239
124
1240
1241
1242
1243
1244
1245
1246
1247
1248
1249
125
1250
1251
1252
1253
1254
1255
1256
1257
1258
1259
126
1260
1261
1262
1263
1264
1265
1266
1267
1268
1269
127
1270
1271
1272
1273
1274
1275
1276
1277
1278
1279
128
1280
1281
1282
1283
1284
1285
1286
1287
1288
1289
129
1290
1291
12915
1292
1293
1294
1295
1296
1297
1298
1299
13
130
1300
1301
1302
1303
1304
1305
1306
1307
1308
1309
131
1310
1311
1312
1313
1314
1315
1316
1317
1318
1319
132
1320
1321
1322
1323
1324
1325
1326
1327
1328
1329
133
1330
1331
1332
1333
1334
1335
1336
1337
1338
1339
134
1340
1341
1342
1343
1344
1345
1346
1347
1348
1349
135
1350
1351
1352
1353
1354
1355
1356
1357
1358
1359
136
1360
1361
1362
1363
1364
1365
1366
1367
1368
1369
137
1370
1371
1372
1373
1374
1375
1376
1377
1378
1379
138
1380
1381
1382
1383
1384
1385
1386
1387
1388
1389
139
1390
1391
1392
1393
1394
1395
1396
1397
1398
1399
14
140
1400
1401
1402
1403
1404
1405
1406
1407
1408
1409
141
1410
1411
1412
1413
1414
1415
1416
1417
1418
1419
142
1420
1421
1422
1423
1424
1425
1426
1427
1428
1429
143
1430
1431
1432
1433
1434
1435
1436
1437
1438
1439
144
1440
1441
1442
1443
1444
1445
1446
1447
1448
1449
145
1450
1451
1452
1453
1454
1455
1456
1457
1458
1459
146
1460
1461
1462
1463
1464
1465
1466
1467
1468
1469
147
1470
1471
1472
1473
1474
1475
1476
1477
1478
1479
148
1480
1481
1482
1483
1484
1485
1486
1487
1488
1489
149
1490
1491
1492
1493
1494
1495
1496
1497
1498
1499
15
150
1500
1501
1502
1503
1504
1505
1506
1507
1508
1509
151
1510
1511
1512
1513
1514
1515
1516
1517
1518
1519
152
1520
1521
1522
1523
1524
1525
1526
1527
1528
1529
153
1530
1531
1532
1533
1534
1535
1536
1537
1538
1539
154
1540
1541
1542
1543
1544
1545
1546
1547
1548
154836
1549
155
1550
1551
1552
1553
1554
1555
1556
1557
1558
1559
156
1560
1561
1562
1563
1564
1565
1566
1567
1568
1569
157
1570
1571
1572
1573
1574
1575
1576
1577
1578
1579
158
1580
1581
1582
1583
1584
1585
1586
1587
1588
1589
159
1590
1591
1592
1593
1594
1595
1596
1597
1598
1599
16
160
1600
1601
1602
1603
1604
1605
1606
1607
1608
1609
161
1610
1611
1612
1613
1614
1615
1616
1617
1618
1619
162
1620
1621
1622
1623
1624
1625
1626
1627
1628
1629
163
1630
1631
1632
1633
1634
1635
1636
1637
1638
1639
164
1640
1641
1642
1643
1644
1645
1646
1647
1648
1649
165
1650
1651
1652
1653
165300
1654
1655
1656
1657
1658
1659
166
1660
1661
1662
1663
1664
1665
1666
1667
1668
1669
167
1670
1671
1672
1673
1674
1675
1676
1677
1678
1679
168
1680
1681
1682
1683
1684
1685
1686
1687
1688
1689
169
1690
1691
1692
1693
1694
1695
1696
1697
1698
1699
17
170
1700
1701
1702
1703
1704
1705
1706
1707
1708
1709
171
1710
1711
1712
1713
1714
1715
1716
1717
1718
1719
172
1720
1721
1722
1723
1724
1725
1726
1727
1728
1729
173
1730
1731
1732
1733
1734
1735
1736
1737
1738
1739
174
1740
1741
1742
1743
1744
1745
1746
1747
1748
1749
175
1750
1751
1752
1753
1754
1755
1756
1757
1758
1759
176
1760
1761
1762
1763
1764
1765
1766
1767
1768
1769
177
1770
1771
1772
1773
1774
1775
1776
1777
1778
1779
178
1780
1781
1782
1783
1784
1785
178551
1786
1787
1788
1789
179
1790
1791
1792
1793
1794
1795
1796
1797
1798
1799
18
180
1800
1801
1802
1803
1804
1805
1806
1807
1808
1809
181
1810
1811
1812
1813
1814
1815
1816
1817
1818
1819
182
1820
1821
1822
1823
1824
1825
1826
1827
1828
1829
183
1830
1831
1832
1833
1834
1835
1836
1837
1838
183838
1839
184
1840
1841
1842
1843
1844
1845
1846
1847
1848
1849
185
1850
1851
1852
1853
1854
1855
1856
1857
1858
1859
186
1860
1861
1862
1863
1864
1865
1866
1867
1868
1869
187
1870
1871
1872
1873
1874
1875
1876
1877
1878
1879
188
1880
1881
1882
1883
1884
1885
1886
1887
1888
1889
189
1890
1891
1892
1893
1894
1895
1896
1897
1898
1899
19
190
1900
1901
1902
1903
1904
1905
1906
1907
1908
1909
191
1910
1911
1912
1913
1914
1915
1916
1917
1918
1919
192
1920
1921
1922
1923
1924
1925
1926
1927
1928
1929
193
1930
1931
1932
1933
1934
1935
1936
1937
1938
1939
194
1940
1941
1942
1943
1944
1945
1946
1947
1948
1949
195
1950
1951
1952
1953
1954
1955
1956
1957
1958
1959
196
1960
1961
1962
1963
1964
1965
1966
1967
1968
1969
197
1970
19700601
1971
1972
1973
1974
1975
1976
1977
1978
1979
198
1980
1981
1982
1983
1984
1985
1986
1987
1988
1989
199
1990
1991
1992
1993
1994
1995
1996
1997
1998
1999
2
20
200
2000
2001
2002
2003
2004
2005
2006
2007
2008
2009
20090179778
201
2010
2011
2012
2013
2014
2015
2016
2017
2018
2019
202
2020
2021
2022
2023
2024
203
2030
2034
2036
204
2049
205
2050
2059
206
2060
2063
2064
2065
2066
2068
207
2070
2074
2075
2077
208
2081
209
2091
2092
2095
21
210
2100
2107
2108
2109
211
2112
2114
2115
212
2121
2127
213
2133
214
215
2150
2153
2157
216
2162
217
218
2182
219
2190
2195
22
220
2200
221
2211
222
223
224
2243
225
226
2263
227
2271
228
229
23
230
2300
231
2314
232
23245604
233
2331
234
2345
235
2350
236
237
238
2384
239
24
240
2400
241
2410
242
243
244
245
2450
246
247
248
249
25
250
2500
251
252
253
254
255
256
257
258
259
26
260
261
262
263
264
265
266
267
268
269
27
270
271
272
273
274
275
276
2763
277
278
279
28
280
2800
281
282
283
284
285
286
287
288
289
29
290
2901
291
292
293
294
295
296
297
298
299
3
30
300
3000
301
302
303
304
305
306
307
308
309
31
310
3100
311
312
3125
313
314
315
316
317
318
319
32
320
3200
321
322
323
324
325
326
327
328
329
33
330
331
332
333
334
335
336
337
338
339
34
340
3406
341
342
343
344
345
346
347
348
349
35
350
3500
351
352
353
354
355
356
357
358
359
36
360
3600
361
362
363
364
365
366
367
368
369
37
370
371
372
373
374
375
376
377
378
379
38
380
381
382
383
384
385
386
387
388
389
39
390
391
392
393
394
395
396
397
398
399
4
40
400
4000
401
402
403
404
405
406
407
408
409
41
410
411
41118800
412
413
414
415
416
417
418
419
42
420
421
422
423
424
425
426
427
428
429
43
430
431
432
433
434
435
436
437
438
439
44
440
441
442
443
444
445
446
447
448
449
45
450
4500
451
452
453
454
455
456
457
458
459
46
460
461
462
463
464
465
466
467
468
469
47
470
471
472
473
474
475
476
477
478
479
48
480
481
482
483
484
485
486
487
488
489
49
490
491
492
493
494
495
496
497
498
499
5
50
500
5000
501
502
503
504
505
506
507
508
509
51
510
511
512
513
514
515
516
517
518
519
52
520
521
522
523
524
525
526
527
528
5280
529
53
530
531
532
533
534
535
536
537
538
539
54
540
541
542
543
544
545
546
547
548
549
55
550
5500
551
552
553
554
555
556
557
558
559
56
560
561
562
563
564
565
566
567
568
569
57
570
571
572
573
574
575
576
577
578
579
58
580
581
582
583
584
585
586
587
588
589
59
590
591
592
593
594
595
596
597
598
599
6
60
600
6000
601
602
603
604
605
606
607
608
609
61
610
611
612
613
614
615
616
617
61728
618
619
62
620
621
622
623
624
625
626
627
628
629
63
630
631
632
633
634
635
636
637
638
639
64
640
641
642
643
644
645
646
647
648
649
65
650
651
652
653
654
655
656
657
658
659
66
660
661
662
663
664
665
666
667
668
669
67
670
671
672
673
6736
674
675
676
677
678
679
68
680
681
682
683
684
685
686
687
688
689
69
690
691
692
693
694
695
696
697
698
699
7
70
700
7000
701
702
703
704
705
706
707
708
709
71
710
711
712
713
714
715
716
717
718
719
72
720
721
722
723
724
725
726
727
728
729
73
730
731
732
7328
733
734
735
736
737
738
739
74
740
741
742
743
744
745
746
747
748
749
75
750
7509
751
752
753
754
755
756
757
758
759
76
760
761
762
763
764
765
766
767
768
769
77
770
771
772
773
774
775
776
777
778
779
78
780
781
782
783
784
785
786
787
788
789
79
790
791
792
793
794
795
796
797
798
799
8
80
800
8000
801
802
803
804
805
806
807
808
809
81
810
811
812
813
814
815
816
817
818
819
82
820
821
822
823
824
825
826
827
828
829
83
830
831
832
833
834
835
836
837
838
839
84
840
841
842
843
844
845
846
847
848
849
85
850
851
852
853
854
855
856
857
858
859
86
860
861
862
863
864
865
866
867
868
869
87
870
871
872
873
874
875
876
877
878
879
88
880
881
882
883
884
885
886
887
888
889
89
890
891
892
893
894
895
896
897
898
899
9
90
900
9000
901
902
903
904
905
906
907
908
909
91
910
911
912
913
914
915
916
917
918
919
92
920
921
922
923
924
925
926
927
928
929
93
930
931
93118800
932
933
934
935
936
937
938
939
94
940
941
942
943
944
945
946
947
948
949
95
950
951
952
953
954
955
956
957
958
959
96
960
961
962
963
964
965
966
967
968
969
97
970
971
972
973
974
975
976
977
978
9781134520626
979
98
980
981
982
983
984
985
9859
986
987
988
989
99
990
991
992
993
994
995
996
997
998
999
9999
:
;
<
=
>
?
@
[
\
]
^
_
`
a
aa
ab
aba
ababa
abandon
abandoned
abashed
abay
abbreviate
abc
abcd
abeba
abebe
aberra
abeyance
abide
ability
abir
abiy
ablaze
able
abnormal
abominable
aboriginal
abort
about
above
abraham
abridged
abrupt
abs
absence
absent
absolute
absolutely
absolution
absolved
absorb
abstain
abstract
abu
abundance
abundant
abuse
abyssinia
abyssinian
abyssinica
abyssinie
ac
acade
academic
academy
accelerate
accent
accept
acceptable
acceptance
accepted
access
accessed
accessible
accident
accidental
accomplish
accordance
according
account
accounting
acid
acquired
acre
acronym
across
act
action
actions
activated
active
activist
activities
activity
acts
actually
ad
adam
add
added
addicted
adding
addis
addition
additional
address
adela
adj
adjacent
administration
adv
advanced
advances
adventistarchives
adventures
advice
ae
aethiopica
afar
affaires
affairs
affcom
africa
african
africana
africanus
afrique
afroasiatic
after
ag
again
against
agaw
age
agency
agreement
agu
ahead
ahmad
ai
aid
aids
ain
air
airlines
airport
aise
aklilu
aksum
aksumite
al
ala
alan
alemu
alexander
alfred
algae
algeria
ali
align
aligned
aljazeera
alkali
all
alla
allah
allen
allied
allium
allow
allowed
allowing
allows
almost
alone
along
alpha
alphabet
already
also
alternative
alumniportal
always
am
amaranthus
amazon
ambassador
ambedkar
amd
america
american
americana
amhara
amharic
ammad
amnesty
among
amount
ams
an
analog
analysis
anatomy
ancient
and
andre
andrew
andrews
anfray
angel
angelfire
angles
angry
animal
animation
anna
annales
anne
annex
anniversary
anno
annual
another
ansi
answer
answers
anthony
anthropological
anthropology
anti
antiquities
antonio
any
apart
app
appeal
appear
appearance
appears
appendix
apple
application
applications
applied
applies
apply
approved
approx
apr
apre
april
ar
arab
arabia
arabian
arabic
aravot
arc
arccos
archaeological
archaeology
arche
architecture
archive
archived
archives
are
area
areas
argentina
argument
arguments
aristotle
arithmetic
armenia
armenian
armenians
armeniatv
armenpress
armnewstv
arnold
around
arranged
arrow
art
arthur
arti
article
articles
artists
arts
artsakh
as
ascii
ash
asia
asked
asp
aspect
aspx
assembly
assessment
assign
assigned
assistance
associated
association
astm
at
atlantic
atlas
atle
attached
attempt
attention
attracting
au
auckland
audio
aug
augsto
august
augusto
augustus
australia
australian
author
authority
automatically
autumn
available
average
aviation
award
away
awi
ax
axis
axum
ay
ayele
azerbaijan
b
ba
baby
babylon
babylonian
back
background
bad
bae
baek
bafa
bahru
bala
ball
ban
banana
bangla
banigilade
bank
baptist
bar
baraan
barbara
barcelona
base
based
bash
basic
basil
basiliad
basis
battle
bb
bbc
bc
bce
bd
be
bear
bebe
became
because
beckingham
become
becoming
bed
been
before
begin
beginning
beh
behind
beijing
being
beja
bekele
belief
believe
believed
bell
below
ben
benefits
benjamin
berbere
berlin
bernard
best
bet
better
between
beyond
bibcode
bible
biblical
bibliography
big
biggest
bih
bill
bilong
bin
binary
binom
bio
biography
biology
birds
birth
birthday
bit
bits
biyddd
bl
black
blackwell
blame
blank
block
blocked
blocks
blog
blogspot
blood
blue
bmatrix
bn
bo
board
bob
bodies
body
boeing
boldsymbol
book
books
borders
born
bos
bosnia
boston
both
bottom
bourges
box
boy
br
brain
branch
brassica
brazil
break
breasted
breeds
bremen
brereton
brian
bridge
brief
briggs
bright
brill
bring
britannica
british
broad
broadcast
broadcasting
bronze
brooks
bros
brother
brothers
brought
brown
bruce
bryce
bs
buddhism
budge
buffer
bug
build
building
built
bukhari
bulletin
burden
bureau
buried
burn
bus
business
but
butler
button
buttons
buxton
by
byte
bytes
c
ca
cable
cache
caesar
caffer
cairo
calculus
calendar
california
call
called
cambridge
came
camel
camp
campaign
campbell
can
canada
canal
candidates
cannot
cap
capable
capacity
capital
caption
car
carbon
care
carried
carsten
carter
case
cases
castanhoso
castelli
cat
category
catholic
catid
cattle
caudatus
cause
caused
causes
cbs
cc
cd
cdc
cdli
cdot
cdots
ce
cee
celebrated
celebrates
celebration
cell
cells
cement
census
center
central
centre
century
certain
cf
cfrac
cgi
ch
challenge
challenges
chance
change
changes
changing
channel
chap
chapel
chapter
chapters
character
characteristic
characteristics
characters
charles
chart
charter
chat
cheat
check
cheesman
chemical
chemistry
cheon
chi
chicago
chicken
chief
child
children
chile
china
chinese
choir
chojnacki
choose
chosen
chris
christ
christian
christianity
christians
christmas
christopher
chromosome
chronicle
chronicles
chronique
chronology
church
churches
cia
cid
circle
circuit
circuits
cit
cite
cities
citizen
citrullus
city
civil
cl
claim
claims
clarendon
clarinet
clark
clarke
class
classical
classification
claude
cle
clean
clear
clematis
click
client
climate
clio
close
clothes
club
cm
cms
cn
cnn
co
coast
code
codes
codex
coffee
col
cole
collaboration
collected
collection
collections
college
collins
colon
color
colorado
colors
colour
columbia
column
columns
com
combination
combine
come
coming
command
commandery
commands
commentary
commercial
commission
committed
committee
common
commonly
commons
communication
communications
communist
communities
community
compact
company
comparative
compare
compared
comparison
compiled
complain
complete
complex
component
components
composition
comprehensive
computer
computers
computing
concept
concepts
concerning
concrete
condition
conditions
conf
conference
configuration
conflict
congress
connect
connected
connection
connections
connor
conquest
consequences
considered
consisting
consists
constitution
construction
container
containing
contains
contemporaine
contemporary
content
contents
contest
context
continent
continue
continued
continuity
contract
contribute
contribution
contributors
control
controls
convention
conversation
conversion
cook
cooper
cooperation
coordinates
copenhagen
copy
copyright
core
coronavirus
corporation
corps
corpus
correct
correspondence
corresponding
cos
could
council
count
countries
country
county
course
court
cov
cover
covering
covid
crai
crash
crc
create
created
creation
creative
crime
criminal
crisis
criteria
critical
crore
cross
crummey
crystal
csa
cucumis
cultural
culture
cultures
cuneiform
cup
cups
current
currently
currey
curse
cursor
cushitic
cut
cv
cøllø
d
da
dae
daigle
daily
daniel
dans
dark
das
data
database
date
dates
daughter
david
davidovits
davies
davis
dawn
day
dayo
days
db
dc
de
dead
death
dec
december
decimal
decision
declaration
decline
dedicated
default
defect
deficiency
define
defined
defines
definition
degree
dei
del
della
delta
democracy
democratic
demographic
den
denmark
denomination
denominations
density
department
depth
der
des
desalegn
descartes
deschamps
describe
describes
describing
description
design
designations
designed
desktop
despite
destiny
destroy
destroyed
detailed
details
determination
determine
determined
deutsche
deutschland
develop
developed
development
device
devices
dh
di
diabetes
diagnosis
diagram
dialog
diaspora
dictionary
did
die
died
diego
difference
different
difficult
diggers
digital
digits
dilijan
dimension
dimensional
diplomacy
diplomatic
direct
direction
director
directories
directory
discipline
discourse
discover
discussion
discussions
disease
diseases
disk
disks
disney
display
displayed
displaying
displays
displaystyle
disputed
dissertation
distance
distribution
district
dition
diversity
division
djibouti
dk
dl
dna
do
doc
docs
doctor
document
documents
dodecandra
does
dog
doi
domain
domains
dominique
don
donald
done
door
doors
doresse
dossiers
dotawo
dots
double
douglas
dover
down
download
dq
dr
dragon
draw
drawing
dream
drive
drives
drug
drugs
drum
drunk
druzhby
dry
ds
dt
du
due
duet
during
dw
dx
dy
dyb
dynamic
dynasty
e
ea
each
earliest
early
earth
easily
east
eastern
easy
eat
ebc
ecfe
ecology
economic
economics
economy
ed
edinburgh
edison
edit
edited
editing
edition
editor
editors
editrice
eds
edu
education
educational
edward
edwards
effect
effective
effects
egg
egypt
egyptian
ehret
ehrlich
ei
either
el
elam
elected
elections
electric
electricity
electromagnetic
electronic
electronics
element
elements
elisabeth
elizabeth
ell
elsevier
em
eminem
eminent
emperor
empire
emptied
empty
en
enables
encrypted
encyclopaedia
encyclopedia
encyclopædia
end
ends
enemy
energy
eng
engage
engineer
engineering
engineers
england
english
enlightenment
ent
enter
entered
entertainment
entities
entity
entry
envelope
environment
eotc
epic
episode
eprdf
equal
equivalent
era
eric
eritrea
eritrean
error
es
esat
esp
especially
essays
est
establish
established
establishment
establishments
estimates
et
etc
etcsl
eth
ethics
ethio
ethiocrown
ethiomedia
ethiopia
ethiopian
ethiopianorthodox
ethiopianreporter
ethiopians
ethiopic
ethiopie
ethioreaders
ethnic
ethnicity
ethnologue
ethpress
etv
eu
eucalyptus
euronews
europa
europe
european
evangelical
even
event
events
ever
every
everyone
everything
evidence
evil
evolution
ex
example
examples
except
exchange
exchanging
executable
execute
executed
execution
exist
existing
expand
expansion
expected
expedition
experience
explain
explorer
export
exposition
express
expression
extension
external
extract
extraordinary
eye
eyes
ez
f
face
facebook
faces
fact
factbook
factor
facts
failure
faith
fall
false
family
famous
farmers
fast
fasting
father
fathers
fco
fe
fear
feature
features
feb
february
fed
federacio
federal
federation
feel
feeling
fellowship
female
ff
fi
ficifolius
field
fifa
fifty
fight
figure
figures
fiji
file
filename
files
fill
filled
film
final
finance
financial
find
fine
fire
firm
first
five
fixed
fl
flag
fleming
flight
floating
flood
floppy
flour
flow
flower
flowers
fly
flying
fm
fo
focus
folder
folk
follow
followed
following
font
food
foot
football
footballforfriendship
for
force
forces
ford
foreign
form
format
formation
former
forms
formula
forthcoming
forum
forward
foster
found
foundation
four
fourier
fourth
fr
frac
frame
franc
france
francis
franco
frank
franz
frayne
frederick
free
freedom
freetyping
french
frequency
frequently
friedrich
friends
friendship
from
fruit
ftp
fu
full
function
functionality
functioning
functions
fund
fundamentals
funding
futbol
futebol
futuh
future
fuzzy
g
ga
gain
gallery
game
gamma
gandhi
garden
garlic
gaza
gazette
gazprom
gb
gc
gce
gcse
gdp
ge
geez
geezedit
gen
gene
general
generally
generated
generation
genesis
genet
genetic
genetics
genocide
geoffrey
geographic
geographical
geography
geometric
geometry
geopolymer
george
german
germany
gerrard
get
getachew
gets
getting
ghana
gi
gif
gift
gilgamesh
ginger
girl
girls
girma
give
given
gives
glam
glass
global
glorious
glossary
gmail
gnome
gnu
go
goals
god
goes
going
golan
gold
golden
gondar
gone
good
google
gordon
gospel
goto
gov
governance
government
gr
graduate
grafiche
grand
granted
graphic
graphical
graphics
gre
great
greater
greatest
greece
greek
green
ground
group
groups
growing
growth
gstatic
gu
guardian
guide
guidelines
guinea
guinness
guitar
guk
gutenberg
guy
gyptischen
h
ha
haba
habesha
hachalu
had
hadith
haffajee
haile
hailemariam
hailu
hakluyt
half
hall
hamblin
hammond
han
hand
handbook
haplogroup
harar
hard
hardware
harold
harper
harrassowitz
harrison
harry
harvard
has
hassan
hat
hatchepsut
have
haven
having
hay
he
head
health
heart
hebrew
height
heights
held
hello
help
helped
henry
henze
her
herald
here
heritage
heroes
herzegovina
heywet
hi
high
higher
highlands
hildebrand
hill
him
himself
hinidi
his
histoire
historian
historic
historical
histories
history
hittites
hiv
hl
ho
hold
holding
holiness
hollywood
holy
home
homo
hon
honor
honorary
honoree
hope
horizontal
horn
horse
host
hot
hour
hours
house
houses
housing
how
however
htm
html
http
https
hubert
human
hundessa
hundred
hunters
huntingford
hypotenuse
hyw
i
ian
ibm
ibn
ice
ich
icon
icons
id
ide
idea
ideas
identified
identifies
identify
identity
idiot
ie
iec
ieee
ieeecs
if
ih
ii
iii
il
illustrated
image
images
imf
immanuel
immediately
immune
impact
imperial
implement
implementation
import
importance
important
improve
improved
in
ina
inc
include
included
includes
including
increase
increased
increasing
independence
independent
index
india
indian
indicate
indicates
indigenous
individual
industrial
inf
influence
info
infobox
information
infowikimedia
infty
inidi
initiative
innocent
innovation
input
inscriptions
inside
insights
instead
institut
institute
institutions
instruction
instructions
instruments
int
intangible
integrated
intelligence
intelligent
intended
interaction
interactive
intercourse
interest
interesting
interface
interfaces
intermediate
internal
international
internationale
internazionale
internet
interpretation
interpreted
interrupt
interview
intitle
into
introduce
introduction
invalid
invisible
involve
involvement
ionizing
ios
ip
ipa
ipad
iphone
ipl
iprage
irabi
iran
iranica
ireland
iron
is
isbn
islam
islamic
island
islands
iso
isr
israel
israeli
issn
issue
issues
it
italian
italiana
italiano
italic
italy
itel
item
itemid
items
iti
its
itself
itunes
iucn
iv
ix
j
ja
jack
jackson
jacques
james
jan
january
japan
jason
java
jawar
je
jean
jerry
jerusalem
jesus
jewish
jews
ji
jk
jo
joan
job
johann
johannes
john
johnson
joined
joint
jones
jose
joseph
journal
journalist
journalists
jpg
jr
jstor
ju
juan
jul
jules
julien
julius
july
jump
jun
june
just
justice
justification
k
ka
kale
kant
karthala
katherine
ke
kebede
keep
keeps
kel
kenneth
kenya
kernel
key
keyboard
keyboards
keys
ki
kids
kill
killed
kim
kind
king
kingdom
kings
kish
kitchen
km
knesset
know
knowledge
known
knut
ko
korea
kristos
ku
l
la
label
labour
lack
lake
lalibela
lambda
lan
lancet
land
lands
lang
language
languages
lapsley
large
larger
largest
larsa
las
laser
last
lat
late
later
latest
latin
launch
launches
lauren
law
lawi
laws
layers
lazy
ldots
le
leader
leaders
leadership
leading
league
learn
learning
least
leave
led
lee
leeds
left
legacy
legal
legend
legends
legitimate
leibniz
leiden
leishmaniasis
lemma
lemon
length
leo
lepage
leq
les
leslau
less
lesson
lessons
let
letter
letters
level
levine
lewis
lg
li
liberia
liberty
library
libya
license
lie
life
light
like
lim
limit
limited
limits
line
linear
lines
lingua
linguistic
linguistics
link
linked
linkend
links
linux
lion
list
listen
listing
lists
lit
literacy
literary
literature
little
live
livelihood
liverani
liverpool
lives
living
ln
lo
lobo
local
located
location
log
logic
logical
logo
lon
london
long
longer
look
loop
lord
los
lose
loss
lost
lot
louis
love
loves
low
lozano
lpg
lt
ltd
lu
luca
lucy
luigi
luis
lupus
luther
lutheran
ly
m
ma
maan
machine
machines
macmillan
madagascar
made
madrid
magazine
magic
magnetism
mail
main
major
make
makes
making
male
man
management
manager
manner
manual
many
maori
map
maps
mar
march
marcus
mari
maria
mariam
marie
mario
mark
marks
markup
martin
mary
maryland
mas
mass
massachusetts
master
match
matches
material
materials
math
mathbf
mathcal
mathematical
mathematicians
mathematics
mathrm
matrix
matter
matthias
max
may
mays
mb
mbox
mc
mcgraw
md
me
mean
meaning
means
measure
measured
measurement
meat
mec
mechanical
mechanics
media
mediamax
medical
medicinal
medicine
medieval
meditations
medium
meet
meeting
meets
mekane
member
members
membership
memory
men
menelik
mengistu
mennonite
mention
menu
menus
mere
meroitic
meserete
mesopotamia
message
messages
met
meta
metaphysics
method
metropolitan
mexico
mey
mezmur
mg
mi
michael
michelangelo
microbiol
microprocessor
microsoft
mid
middle
mie
mieroop
might
migration
miguel
military
millennium
million
milton
min
mind
minister
ministry
minor
minutes
mipela
mirror
mission
missionaries
missionary
missions
mit
mk
mkidusan
ml
mlive
mm
mn
mo
mobile
mockler
mode
model
models
modem
modern
modeth
modify
mohamed
mohammed
molla
molvaer
moment
mondon
money
monitor
month
months
monti
monty
moon
moral
more
morning
morphology
morris
mortality
moscow
moses
most
mostly
mother
motion
motivation
mount
mountain
mountbatten
mouse
mouth
move
moved
movement
moving
mp
mr
ms
msgid
msgstr
mu
much
muh
muhammad
multiple
mulu
municipal
munro
murder
museum
music
musical
musician
muslim
muslims
must
mv
mwh
my
mystery
mythology
n
na
nabla
nai
nale
name
named
names
narmer
narrated
nas
nasa
natco
nathaniel
nation
national
nationalism
nationalities
nations
native
nato
natural
nature
navarro
nbsp
nd
ndez
ne
near
necessary
need
needed
needs
neg
negative
neglected
net
netherlands
network
networking
networks
never
new
newi
news
newsid
newsletter
newspaper
newton
next
ng
nga
ni
nicholson
nick
nido
niebuhr
nigali
nigeria
night
nights
nile
nine
nineteenth
nl
nm
no
nobel
node
non
nor
nordic
normal
norman
north
northern
norway
norwegian
not
note
notes
nothing
noun
nov
novel
november
novembre
now
nt
nu
nubia
nubian
num
number
numbers
numeric
numerical
nus
nut
nw
nwy
ny
nya
nytimes
o
oau
obelisk
object
objects
observer
occupied
occurs
ocean
oclc
october
odoros
oecd
of
off
office
official
ofi
often
ogot
oil
ois
oklahoma
ola
old
oldest
oliver
ologique
olopade
olympic
omar
omega
on
once
one
onepage
ones
oneself
onion
onions
online
only
onthisday
oosterhout
op
open
opening
operating
operation
operational
operations
opinion
opportunities
opportunity
opposed
opposite
opposition
optics
option
options
or
oral
order
oregon
org
organisation
organization
organizations
organize
organized
organizing
ori
oriental
orientalia
origin
original
originally
origins
oro
oromo
orthodox
os
oscar
osce
other
others
oti
otto
our
out
outline
output
outside
over
overseas
own
owner
ox
oxford
p
pa
pacific
package
page
pages
paid
painting
pakistan
pal
palace
palenile
palestine
palestinian
palette
palgrave
pali
pan
pankhurst
panther
paper
papers
par
para
paradise
paraguay
parent
paris
park
part
partial
participants
participate
participation
particular
parts
party
passed
passes
past
paswan
patent
patents
path
pathways
patient
pattern
paul
pausanias
pbs
pdf
pe
peace
pearce
penguin
pennsylvania
pentecostal
people
peoples
pepper
per
percent
perf
perform
performance
performed
performing
period
periodic
permanently
permission
persecution
persee
perseus
persian
person
personal
personalities
persons
perspective
pertaining
peter
pg
pharaoh
pharma
phi
philadelphia
philip
philosophical
philosophy
phonetic
photo
photograph
photographs
php
phr
phrase
physical
physics
phytolacca
pi
picture
pictures
pid
piece
pierre
pig
pink
pioneer
pioneers
pixel
pixels
pl
pla
place
places
plain
plan
planet
plant
plants
platforms
play
players
please
plo
plos
plus
pm
pmc
pmid
png
po
podcast
poem
poems
point
points
poisonous
polandball
policy
polish
political
politicians
politics
poor
pop
pope
popular
population
populations
por
port
portal
portion
portugal
portuguese
position
possible
post
postscript
pot
potential
potter
pour
poverty
power
pp
ppp
pq
pr
practice
practices
praise
prc
pre
prehistory
prentice
preparation
prescript
present
presentation
presented
president
press
pressed
pressure
prevent
previous
previously
priest
priests
primary
prime
prince
princes
princeton
principles
prinile
print
printed
printer
printing
private
prize
probably
problem
problems
procedure
procedures
proceedings
process
processes
processing
processor
produced
product
production
products
professional
professor
profile
program
programming
programs
progress
project
projects
promote
promotion
proof
properties
property
prophets
proposal
prospects
protect
protection
protestant
protestants
protests
protocol
protocols
provide
provided
providing
province
prunier
prunus
pt
pu
public
publication
publications
publique
published
publisher
publishers
publishing
puf
pull
punctuation
punt
puntland
purpose
purposes
put
px
python
q
qr
quantity
quarterfinal
que
queen
question
quick
quiet
quote
qwerty
r
ra
rabies
race
radiation
radical
radio
raf
rain
raised
rale
ram
random
range
ranger
rard
ras
rate
rather
ratio
ration
raw
rawi
ray
raya
raymond
rd
re
reach
read
readable
reading
ready
real
reason
reasoning
reasons
receive
received
receiving
recent
recognition
recognized
reconstruction
record
records
red
redir
ref
referee
reference
references
referred
refers
reform
refs
regard
region
regional
regions
registered
regular
regulation
reidulf
reign
related
relation
relations
relationship
relationships
relative
release
released
releases
religion
religions
religious
remains
remember
reminder
remote
remove
renaissance
rene
reo
reply
report
reporter
reports
represent
representation
representative
representatives
representing
represents
republic
request
required
res
research
reserved
resistance
resolution
resource
resources
respect
response
responsible
rest
restart
restoration
restored
result
results
retrieved
return
returns
reuters
rev
reveals
reverse
review
reviews
revisited
revolution
revues
rex
rez
rezensionen
rfc
rhett
rho
ri
rich
richard
right
rightarrow
rights
rilly
rise
river
rk
ro
road
robert
roc
rock
roger
roi
role
rom
roma
roman
romanized
rome
room
root
round
roundhay
rousseau
routine
routines
routledge
row
royal
rpm
rs
rtyq
ru
rubenson
rule
rulers
rules
ruling
run
running
runs
rupert
rural
russia
russian
ruth
ryholt
s
sa
sad
safety
saharan
sahih
said
saint
saints
salt
same
samuel
san
sarah
sars
sativa
saturday
satyagraha
sauce
save
saved
say
says
sbacchi
scale
scan
scene
schistosomiasis
school
schools
sci
science
sciences
scientific
scientist
scientists
scotland
screen
script
se
sea
search
season
seattle
sebastia
sec
second
secondary
secret
section
secular
security
see
seed
seen
selam
selassie
select
selected
selection
self
semitic
sen
senate
send
sends
seneca
sense
sensitive
sent
sep
separate
september
sequence
sequences
series
serve
server
serves
service
services
session
set
setminus
sets
setting
settings
settlement
seven
seventeenth
several
sex
sexual
sgml
shaft
shall
shape
shaped
share
sharing
shaw
she
sheet
shi
shiferaw
shift
shincheonji
shiraaz
short
shortcut
shot
should
show
shows
si
sib
sick
sickness
side
sie
siegbert
sig
sign
signal
signals
significance
significant
sil
similar
simmer
simon
simple
simulation
sin
since
sing
singer
singers
single
sio
sir
sister
sistine
site
sites
situation
six
size
skills
skin
slang
slave
slavery
sleeping
slightly
slovenia
slow
small
smaller
smart
smell
smith
snow
so
soap
soccer
social
socialization
societa
societies
society
software
sol
sola
solanum
solomon
somali
somalia
somaliland
some
someone
something
sometimes
son
song
songs
sons
soul
sound
source
sources
sous
south
southern
sovereign
space
spaces
spain
spanish
speak
speaking
speaks
special
species
specific
specified
specify
spectator
spectrum
speech
speed
spell
spencer
spend
spirit
splash
sport
sports
spread
spreadsheet
spring
springer
sqrt
square
srcid
st
stable
staff
stand
standard
standards
stands
stanford
stanislaw
stanley
star
stars
start
started
starting
state
statehood
statement
statements
states
station
statistical
statistics
statue
status
stay
steiner
step
stephen
steps
steven
still
stm
stockholm
stone
stones
stop
storage
store
stored
storia
stories
storing
story
strata
strategy
street
strength
strict
string
strong
structural
structure
structures
stuart
student
students
studies
studios
study
stx
style
su
sub
subject
submitted
substance
substances
success
successful
such
sudan
sugar
sui
suite
sum
sumerian
summer
sun
sunday
super
superior
support
supporting
sur
surface
survey
susa
susan
suspension
sutton
sven
svg
sw
swa
sweden
swedish
swift
switzerland
sylvia
symbol
symbols
synonym
synonymous
syntax
syria
system
systematic
systems
t
ta
tabernacle
table
tables
tactical
taddesse
tag
tags
taiwan
take
taken
taking
talk
tamrat
tan
tana
tape
tar
targets
task
tasks
tauris
taylor
tb
tbn
tbol
tcp
te
teacher
teachers
teaching
team
teaspoon
technical
technology
tehran
telegraph
telephone
television
tell
temple
temporarily
temporary
ten
tenagari
term
terminal
terminate
terminated
termination
terms
territories
territory
terrorism
tesla
test
testament
testimony
tewahedo
tewodros
texas
text
textbook
textrm
texts
tfrac
th
than
thanks
that
the
thearadaonline
theater
theguardian
their
them
theme
then
theological
theology
theory
thepeoplehistory
there
these
theta
thetahealing
they
things
think
thinking
thiopie
thiopien
third
thirteenth
thirty
this
thomas
those
though
thought
thousand
threatened
three
through
thucydides
thumb
thus
thz
ti
tico
tigray
tigrina
tilahun
time
times
tired
title
to
today
together
tom
tome
tongue
too
took
tools
top
topic
toponymic
toronto
torsten
total
tour
toward
town
towns
tplf
tr
trade
tradition
traditional
traditions
training
trans
transactions
transfer
translated
translating
translation
translator
transmission
transmit
transmitted
transport
travel
travels
treated
treatment
treaty
tree
trevor
tribune
tropical
truck
true
trumpet
trust
truth
ts
tsar
tsehai
tsunami
tu
tube
tuesday
turkey
turkish
turn
tusculanum
tv
twenty
twice
twitter
two
tyldesley
type
types
typewriter
typically
typing
u
ua
uefa
ugarit
uhlig
uk
ukgmc
ulink
ullendorff
un
unable
und
under
understanding
une
unesco
unicode
unification
union
unique
unit
united
units
universal
universe
universities
university
unix
unknown
unsd
unstats
unt
until
up
update
updates
upgrade
upload
uploads
upon
upper
ups
uranium
urban
url
uruguay
us
usa
usage
usaid
use
used
user
username
users
uses
using
usually
ut
utc
utilities
uu
uwc
uzbek
v
va
vahag
value
values
van
vanadzor
varepsilon
variable
variables
variation
various
varphi
ve
vec
ved
vel
verb
verlag
version
vert
vertical
very
veterinarians
vi
via
vidailhet
video
vietnam
view
viewed
views
vii
viii
vil
village
violence
virginia
virtual
virus
visible
vision
visit
visual
vmatrix
vo
voelpel
vogue
voice
vol
vols
volume
volumes
volunteers
von
vote
votes
vs
vw
w
wa
waiting
wales
wallis
walt
walter
wanik
want
war
warfare
warner
wars
was
wash
washington
watch
water
wave
wax
way
wayback
ways
we
weather
web
webarchive
website
week
weight
well
wenige
went
were
wereda
west
western
what
when
where
whereas
whether
which
while
white
whiteway
who
whole
whose
why
wi
wide
widely
widgets
width
wiesbaden
wiki
wikicamp
wikicamps
wikiclub
wikiclubs
wikiconference
wikigap
wikimapia
wikimedia
wikipedia
wikipedians
wikt
wiktionary
wiley
will
william
williams
wilson
wind
window
windows
wine
winstanley
winter
wisit
with
within
without
witness
wm
wmam
wochi
wodros
wolde
wolf
wolfgang
wolfram
wollo
woman
women
won
wongel
wood
word
wordpress
words
work
worker
working
works
workshops
world
worldcup
worm
worse
worship
would
wp
wright
write
writer
writers
writing
writings
written
ws
wto
wwdr
www
wynn
x
xi
xiii
xl
xlt
xml
xvi
xx
xy
xyz
y
ya
yale
yang
yatewlid
yc
ye
year
years
yebanigilade
yebe
yek
yemi
yeo
yeol
yerevan
yesus
yet
yi
yo
york
you
young
your
youth
youtube
yu
z
za
zar
zare
zaza
zazaki
zea
zealand
zehabesha
zelenskyy
zero
zeta
zewde
zone
zoom
zu
zur
{
|
}
~
¡
£
¥
§
©
«
¬
­
®
¯
°
±
²
³
´
µ
¶
·
¸
º
»
¼
½
¿
×
æ
ð
ðe
ðu
÷
ø
þ
ħ
ı
ŋ
ſ
ƒ
ȝ
ȷ
ə
ɹ
ɻ
ɽ
ɾ
ʀ
ʃ
ʔ
ʲ
ʼ
ʽ
ʾ
ʿ
ˈ
ˌ
ː
˝
̀
́
̂
̃
̄
̆
̇
̈
̊
̋
̌
̓
̔
̛
̡
̣
̥
̦
̧
̨
̮
̱
̲
̸
͂
͟
͡
α
αιθιοπι
β
γ
δ
ε
ει
ζ
η
θ
ι
κ
κυ
λ
μ
με
ν
να
ξ
ο
π
πο
ρ
ς
σ
σι
τ
ται
το
υ
φ
χ
χριστο
ψ
ω
ων
ϕ
ϙ
ϛ
ϝ
ϟ
ϵ
ϻ
а
б
в
г
године
д
е
з
и
к
л
м
н
на
о
п
р
с
са
санџак
се
т
у
ш
је
ґ
՛
՜
՝
՞
ա
աբուլաձե
ազատ
ազգային
ազդեցության
ազիզբեկյան
ազիզբեկյանը
ազիզբեկյանն
ազնիւ
աին
ալավերդու
ալեքսեյ
ակնկալիքով
ակնկալվում
ակնհայտ
ակումբ
ակումբական
ակումբականները
ակումբականների
ակումբականներին
ակումբականներից
ակումբականներն
ակումբը
ակումբի
ակումբներ
ակումբները
ակումբների
ակումբներում
ակումբում
ակտիվ
ակտիվիստների
ակտիվորեն
ակտիվություն
ակտիվությունը
աղբյուրներ
աղբյուրների
աղվերան
աղվերանում
ամառային
ամբողջ
ամբողջական
ամեն
ամենաակտիվ
ամենամեծ
ամենամյա
ամենաշատ
ամենը
ամերիկյան
ամիս
ամիսը
ամիսների
ամյակը
ամյակի
ամյակին
ամն
ամսագրում
ամսական
ամսին
ամսից
ամսվա
ամփոփել
ամփոփիչ
ամփոփում
ամփոփվել
այդ
այդպիսով
այժմ
այլ
այլն
այլև
այլևս
այն
այնուհետև
այնպես
այնտեղ
այնքան
այս
այսուհետ
այսպիսով
այստեղ
այսօր
այվազյան
այվազյանը
այցելել
այցելուները
անգամ
անգլ
անգլերեն
անգլերենի
անգլերենից
անդամ
անդամագրվել
անդամագրվելու
անդամակցության
անդամը
անդամի
անդամին
անդամից
անդամներ
անդամները
անդամների
անդամներին
անդամներից
անդամության
անդամությունը
անդամությունից
անդրադառնալով
անդրադարձ
անդրադարձել
անդրադարձը
անել
անընդհատ
անկախ
անկյուն
անհատական
անհատներ
անհրաժեշտ
անհրաժեշտության
անհրաժեշտությունը
անձ
անձանց
անձը
անձի
անձինք
անձիք
անձնական
անմիջական
անմիջապես
աննա
անունից
անունները
անուշ
անվան
անվանակարգեր
անց
անցած
անցել
անցկացման
անցկացնել
անցկացնելու
անցկացվել
անցկացվեց
անցկացվում
անցկացրել
աշակերտներ
աշակերտները
աշակերտների
աշակերտներին
աշխատակազմի
աշխատակազմին
աշխատակից
աշխատակիցներ
աշխատակիցները
աշխատակիցների
աշխատանք
աշխատանքային
աշխատանքը
աշխատանքի
աշխատանքին
աշխատանքներ
աշխատանքները
աշխատանքների
աշխատանքներին
աշխատանքներն
աշխատել
աշխատելու
աշխատում
աշխարհագրության
աշխարհամասի
աշխարհի
աշխարհով
աշխարհում
աշնանային
աշոտ
աուդիտ
աուդիտի
աչքի
ապա
ապագա
ապագայի
ապահովել
ապահովելու
ապահովված
ապր
ապրիլ
ապրիլի
աջակցել
աջակցութեամբ
աջակցությամբ
աջակցություն
առ
առանձին
առանց
առաջ
առաջադրել
առաջադրման
առաջադրում
առաջադրված
առաջադրվել
առաջատար
առաջարկ
առաջարկած
առաջարկել
առաջարկեց
առաջարկը
առաջարկի
առաջարկներ
առաջարկները
առաջարկություններ
առաջարկվել
առաջարկվեց
առաջացել
առաջիկա
առաջիկայում
առաջին
առաջինը
առաջնային
առավել
առավելություն
առավոտ
առթիվ
առիթ
առկա
առկայությունը
առմամբ
առնելով
առնչվող
առնվազն
առջև
առցանց
ասում
ավագ
ավանդական
ավանդույթ
ավարտական
ավարտին
ավարտից
ավարտվել
ավարտվեց
ավել
ավելացնել
ավելացնում
ավելի
ավելին
ավետիսյան
ավետիսյանը
ավետիսյանի
ավտոմատ
արա
արագ
արամ
արարատ
արգամ
արդեն
արդյո
արդյունավետ
արդյունք
արդյունքներ
արդյունքները
արդյունքների
արդյունքներին
արդյունքում
արեւմտահայերէն
արեւմտահայերէնը
արեւմտահայերէնի
արթուր
արժանահավատ
արժանի
արձանագրեց
արձանագրության
արձանագրությանը
արձանագրություն
արձանագրությունը
արձանագրությունները
արձանագրվեց
արմաթ
արման
արմեն
արմենուհի
արմինե
արշակ
արշակունյաց
արշավ
արշավը
արշավի
արշավին
արված
արվեստ
արվեստի
արտակարգ
արտահերթ
արտասահմանյան
արտաքին
արցախի
արցախում
արփինե
արևածագի
արևելյան
արևիկ
արևմտահայերեն
արևմտահայերենով
աֆրիկա
աֆքոմը
աֆքոմի
աֆքոմին
բ
բազմաթիվ
բազմալեզու
բաժանված
բաժանվել
բաժնի
բաղդասարյան
բաղդասարյանը
բաղդասարյանին
բաղկացած
բայթ
բայթի
բայց
բան
բանավոր
բանկը
բանկի
բավականին
բարելավել
բարելավելու
բարելավեցի
բարելավման
բարելավվել
բարձր
բարձրագույն
բարձրացնել
բարձրացված
բաց
բացակայության
բացակայում
բացառիկ
բացառությամբ
բացի
բացմանը
բացում
բացվել
բեռնել
բեռնված
բեռնվել
բերել
բերում
բերված
բեքարյան
բեքարյանը
բեքարյանի
բեքարյանին
բժշկական
բյորնի
բնականոն
բնակավայրերում
բնության
բնույթ
բոդիլ
բոլոր
բոլորը
բոլորին
բովանդակային
բովանդակության
բովանդակություն
բովանդակությունը
բուն
բրյուսովի
գ
գաբրիելյան
գաբրիելյանը
գալ
գալու
գալուստ
գաղափարախոսության
գաղափարը
գաղափարներ
գայանե
գարրի
գերազանց
գերմաներեն
գիտական
գիտակրթական
գիտելիք
գիտելիքի
գիտելիքներ
գիտելիքները
գիտելիքների
գիտելիքներով
գիտություն
գիրք
գլամ
գլխավոր
գլխավորությամբ
գհկ
գյուլբենկյան
գյուղերի
գյուղի
գյումրու
գնահատել
գնահատման
գնահատում
գնային
գոհար
գորիսի
գործադիր
գործընթացը
գործընթացի
գործընթացին
գործընթացների
գործընթացում
գործընկեր
գործիչների
գործիք
գործիքները
գործիքների
գործիքներին
գործնական
գործող
գործողությունների
գործում
գործունեության
գործունեությանը
գործունեություն
գործունեությունը
գործունեությունն
գույքի
գտնել
գտնում
գտնվել
գտնվեցին
գտնվող
գտնվում
գրադարանի
գրած
գրական
գրականության
գրանցման
գրանցված
գրանցվել
գրասենյակ
գրասենյակը
գրասենյակի
գրասենյակում
գրավոր
գրեթե
գրել
գրելով
գրելու
գրիգորյան
գրիգորյանը
գրիգորյանի
գրողների
գրում
գրված
գրվել
գրքեր
գրքերի
գրքի
դ
դա
դադարեցման
դադարեցնել
դադարեցնելու
դադարում
դաթո
դահլիճում
դառնալ
դառնալու
դառնում
դաս
դասախոսների
դասարանի
դասընթաց
դասընթացը
դասընթացի
դասընթացին
դասընթացից
դասընթացներ
դասընթացները
դասընթացների
դասընթացներին
դասընթացներն
դասին
դավթյան
դավթյանը
դավիթ
դարձավ
դարձել
դարձնել
դարձնելու
դդմաշենի
դե
դեկտ
դեկտեմբեր
դեկտեմբերի
դեմ
դեպի
դեպքում
դեռ
դեռևս
դեսպանությունը
դերը
դիմակներ
դիմել
դիմելու
դիմում
դիմումը
դիմումի
դիմումներ
դիմումները
դիմումների
դիտարկվելու
դիտել
դիտողությունները
դիտողությունների
դիրքորոշումը
դու
դուրս
դուք
դպրոց
դպրոցի
դպրոցների
դպրոցում
դրա
դրական
դրամ
դրամաշնորհի
դրանից
դրանց
դրանցից
դրանք
դրությամբ
դրության
ե
եզրակացության
եզրակացություն
եզրակացությունը
եթե
ելնելով
ելույթ
ելույթը
ելույթի
ելույթներ
եկավ
եկել
եղանակով
եղել
եմ
են
ենգոյան
ենթակետի
ենք
եպհ
եռօրյա
ես
եվրոպայի
երաժշտական
երբ
երգեր
երգի
երեխաները
երեխաների
երեխաներին
երեք
երեքը
երիտասարդական
երիտասարդության
երկար
երկիր
երկիրը
երկու
երկուսը
երկրի
երկրների
երկրներից
երկրներում
երկրորդ
երկրորդը
երկօրյակ
երկօրյակը
երկօրյակի
երկօրյակին
երրորդ
երևան
երևանը
երևանի
երևանյան
երևանում
եւ
եք
զաբել
զանազան
զարգարյան
զարգարյանը
զարգարյանի
զարգարյանին
զարգացման
զարգացմանը
զարգացնել
զարգացնելու
զարգացումը
զբաղվում
զբոսանք
զեկուցող
զում
զրուցել
է
էի
էին
էինք
էլ
էլեկտրոնային
էլեն
էն
էներգախնայողության
էջ
էջը
էջից
էջում
էր
ը
ընդ
ընդառաջ
ընդգրկված
ընդլայնել
ընդլայնում
ընդհանուր
ընդունել
ընդունելով
ընդունման
ընդունում
ընդունումը
ընդունվել
ընդունվեց
ընդունվում
ընթանում
ընթացակարգով
ընթացիկ
ընթացող
ընթացքը
ընթացքի
ընթացքին
ընթացքում
ընկած
ընկերներ
ընկերության
ընկերությունը
ընկերությունների
ընտանիքի
ընտրել
ընտրելու
ընտրեց
ընտրության
ընտրություն
ընտրությունը
ընտրությունն
ընտրում
ընտրված
ընտրվել
ընտրվելու
ընտրվեց
ընտրվեցին
ընտրվում
ըստ
թ
թամարա
թանգարան
թանգարանային
թանգարանը
թանգարանի
թանգարաններ
թանգարանների
թարգմանել
թարգմանելու
թարգմանության
թարգմանություն
թարգմանություններ
թարգմանությունները
թարգմանում
թարգմանչական
թարխանյանի
թարմացնենք
թե
թեկնածու
թեկնածության
թեկնածությունը
թեկնածությունն
թեկնածուներ
թեկնածուները
թեկնածուների
թեկնածուներին
թեկնածուներից
թեմա
թեմայի
թեմային
թեմայով
թեման
թեմաներ
թեմաները
թեմաների
թեմաներով
թեմատիկ
թեմատիկայի
թեմատիկայով
թիմ
թիմային
թիմերի
թիմը
թիմի
թիմում
թիվ
թիվը
թումանյանի
թույլ
թվական
թվականի
թվականին
թվով
թվում
ժամ
ժամանակ
ժամանակակից
ժամանակահատվածում
ժամանցային
ժամը
ժամկետը
ժամկետների
ժամկետում
ժողովի
ի
իբրև
իկօմ
իհարկե
իմ
իմանալ
ին
ինձ
ինչ
ինչը
ինչի
ինչպե
ինչպես
ինչպէս
ինչպիսի
ինչպիսիք
ինստիտուտի
ինտելեկտուալ
ինտերնետ
ինքը
ինքնուրույն
ինքս
ինֆորմացիա
ինֆորմացիան
իջևանի
իսկ
իսպանական
իր
իրադարձությունների
իրազեկման
իրականացման
իրականացնել
իրականացնելու
իրականացնում
իրականացումը
իրականացված
իրականացվել
իրականացվեց
իրականացվող
իրականացվում
իրականացրած
իրականացրել
իրավաբանական
իրավական
իրավիճակների
իրավիճակում
իրավունք
իրավունքի
իրավունքները
իրավունքների
իրավունքներին
իրեն
իրենց
իրենք
իրինա
ից
լ
լայն
լավ
լավագույն
լեզու
լեզուական
լեզուների
լեզուներով
լեզվական
լեզվի
լեզվից
լեզվով
լենան
լեռնապատի
լիբանանի
լիլիթ
լինել
լինելը
լինելով
լինելու
լինեն
լինի
լինում
լիովին
լուծարման
լուծման
լուծումներ
լուսաբանման
լուսանկար
լուսանկարել
լուսանկարիչ
լուսանկարներ
լուսանկարները
լուսանկարների
լուսանկարչական
լուսո
լսել
լրացել
լրացնել
լրացնելուց
լրացուցիչ
լևոն
խաղ
խաղաղության
խաղեր
խաղերի
խաղի
խաչատրյանական
խաչատրյանի
խթանել
խմբագիր
խմբագիրներ
խմբագիրները
խմբագիրների
խմբագիրներին
խմբագիրներից
խմբագրաթոն
խմբագրաթոնը
խմբագրաթոնի
խմբագրաթոնին
խմբագրաթոններ
խմբագրական
խմբագրել
խմբագրելը
խմբագրելու
խմբագրման
խմբագրող
խմբագրությամբ
խմբագրում
խմբագրումներ
խմբագրումները
խմբագրումների
խմբակային
խմբային
խմբերը
խմբերի
խմբերին
խմբի
խնդիրներ
խնդիրները
խնդիրների
խնդիրներին
խնդրել
խնդրի
խնդրում
խոշորագույն
խոսել
խոսեց
խոսող
խոսվել
խոսվեց
խորագրով
խորապես
խորհդրի
խորհուրդ
խորհուրդը
խորհուրդն
խորհրդի
խորհրդին
խումարյանը
խումբ
խումբը
խուրշուդյան
խուրշուդյանը
խուրշուդյանի
խուրշուդյանին
խրախուսական
ծախսերը
ծաղկաձոր
ծաղկաձորում
ծանոթանալ
ծանոթանալու
ծանոթանում
ծանոթացան
ծանոթացել
ծանոթացնել
ծանուցել
ծանուցում
ծանուցվել
ծառայության
ծառայություններ
ծավալը
ծավալի
ծավալով
ծավալվեց
ծննդյան
ծրագիր
ծրագիրը
ծրագիրն
ծրագրեր
ծրագրերը
ծրագրերի
ծրագրի
ծրագրին
կ
կա
կազմակերպած
կազմակերպել
կազմակերպելով
կազմակերպելու
կազմակերպիչները
կազմակերպիչների
կազմակերպման
կազմակերպութիւն
կազմակերպութիւնը
կազմակերպության
կազմակերպությանը
կազմակերպությանն
կազմակերպություն
կազմակերպությունը
կազմակերպությունից
կազմակերպությունն
կազմակերպություններ
կազմակերպությունների
կազմակերպությունում
կազմակերպում
կազմակերպումը
կազմակերպչական
կազմակերպված
կազմակերպվել
կազմակերպվեց
կազմակերպվում
կազմել
կազմի
կազմով
կազմված
կազմվել
կախված
կամ
կամավոր
կամավորական
կամավորներ
կամավորները
կամավորների
կամավորներին
կայանալիք
կայացնում
կայացվեց
կայացրել
կայացրեց
կայքի
կայքում
կան
կանայք
կանանց
կանաչ
կանոնադրական
կանոնադրությամբ
կանոնադրության
կանոնադրություն
կանոնադրությունը
կանոնակարգ
կանոնակարգը
կանոնակարգի
կանոները
կանոնները
կանոններին
կանցկացվի
կապ
կապակցությամբ
կապը
կապի
կապված
կառավարման
կառույցի
կառույցների
կառուցվածքը
կատարած
կատարել
կատարելով
կատարելու
կատարման
կատարում
կատարված
կատարվել
կատարվելու
կատարվեց
կար
կարապետյան
կարգանիշ
կարգավիճակի
կարգը
կարգով
կարելի
կարեն
կարեւոր
կարիք
կարծում
կարճ
կարող
կարողացել
կարողությունների
կարևոր
կարևորագույն
կարևորելով
կարևորության
կարևորությունը
կարևորվեց
կացության
կացվել
կբարելավեն
կեղծ
կենտրոն
կենտրոնական
կենտրոնի
կես
կետ
կետերը
կետերի
կետը
կետի
կետով
կերպ
կերպով
կը
կին
կիսվել
կից
կիւլպէնկեան
կլիմայական
կլինի
կհրավիրվեն
կմեկնարկի
կյանքը
կյանքի
կյանքին
կյանքում
կշարունակեն
կոդ
կողբի
կողմ
կողմերը
կողմէ
կողմից
կոնֆերանս
կոնֆերանսը
կոչ
կորոնավիրուսային
կորոնավիրուսի
կունենա
կուրսի
կսովորեն
կստանան
կստեղծեն
կտա
կրելու
կրթական
կրթության
կրթություն
կրկին
հ
հագեցած
հազար
հակիրճ
հակոբ
հակոբյան
հակոբյանը
հակոբյանի
հաղթող
հաղթողները
հաղորդակցման
հաղորդակցության
հաղորդում
հաճախ
հաճելի
համագործակցել
համագործակցությամբ
համագործակցության
համագործակցություն
համագործակցությունը
համագործակցությունների
համագումար
համագումարի
համաժողով
համաժողովը
համաժողովի
համաժողովին
համաժողովն
համալսարանի
համալրել
համալրելու
համալրվել
համակարգիչների
համակարգող
համակարգողի
համակարգողներ
համակարգողները
համակարգողների
համակարգչից
համաձայն
համայնք
համայնքային
համայնքը
համայնքի
համայնքների
համայնքում
համաշխարհային
համապատասխան
համավարակի
համավարակով
համատեղ
համար
համարվում
համացանցի
համացանցում
հայ
հայաստան
հայաստանը
հայաստանի
հայաստանին
հայաստանից
հայաստանյան
հայաստանն
հայաստանում
հայատառ
հայերեն
հայերենի
հայերենով
հայերի
հայկ
հայկազ
հայկական
հայոց
հայտ
հայտարարություն
հայտարարությունը
հայտարարում
հայտարարված
հայտերը
հայտերի
հայտը
հայտնել
հայտնեց
հայտնեցին
հայտնի
հանգստյան
հանդեպ
հանդես
հանդիպել
հանդիպման
հանդիպմանը
հանդիպող
հանդիպում
հանդիպումը
հանդիպումն
հանդիպումներ
հանդիպումների
հանդիպումներին
հանդիսանում
հանձնաժողով
հանձնաժողովը
հանձնաժողովի
հանձնաժողովին
հանձնաժողովն
հանձնաժողովում
հանձնարարել
հանձնել
հանրագիտարան
հանրագիտարանը
հանրագիտարանի
հանրագիտարանում
հանրային
հանրայնացնել
հանրապետության
հանրապետությունում
հանրության
հանրություն
հաշվետվության
հաշվետվություն
հաշվետվությունները
հաշվետվությունների
հաշվի
հաշվիչ
հաջող
հաջողությամբ
հաջողություն
հաջորդ
հասանելի
հասարակական
հասարակության
հասկանալ
հաստատել
հաստատեց
հաստատման
հաստատմանը
հաստատություններ
հաստատությունների
հաստատում
հաստատումը
հաստատված
հաստատվեց
հասցե
հասցեին
հասցեում
հավասար
հավաստագիր
հավաստագրեր
հավաք
հավաքել
հավաքը
հավաքի
հավելում
հավելվածի
հատկապես
հատոր
հատուկ
հատվածում
հարաբերակցությամբ
հարգելի
հարթակ
հարթակը
հարթակի
հարթակների
հարթակներում
հարթակում
հարկ
հարությունյան
հարությունյանը
հարությունյանի
հարուստ
հարստացնել
հարց
հարցազրույց
հարցազրույցը
հարցազրույցի
հարցեր
հարցերը
հարցերի
հարցերին
հարցերից
հարցերն
հարցերով
հարցը
հարցի
հարցին
հարցով
հարցում
հացիկի
հաւաք
հենց
հեշտ
հեռ
հեռավար
հեռուստաընկերության
հեռուստաընկերություն
հետ
հետագա
հետագայում
հետաքրքիր
հետաքրքրող
հետաքրքրություն
հետաքրքրված
հետո
հետքերով
հետևել
հետևյալ
հերթական
հիմա
հիման
հիմնադրամ
հիմնադրամը
հիմնադրամի
հիմնադրամից
հիմնադրման
հիմնադրվել
հիմնական
հիմնականում
հիմնարկութեան
հիմնարկության
հիմունքներով
հիմք
հին
հինգ
հինգերորդ
հիշատակման
հիշեցրեց
հիշում
հկ
հհ
հմտություններ
հմտությունները
հմտություններին
հյուրանոցի
հյուրերը
հյուրերին
հյուրընկալել
հյուրընկալվել
հնարավոր
հնարավորինս
հնարավորություն
հնարավորություններ
հնարավորությունները
հնարավորություններին
հնչեցին
հնվ
հոգանոց
հոգի
հոգին
հոգում
հոդված
հոդվածը
հոդվածի
հոդվածներ
հոդվածները
հոդվածների
հոդվածներից
հոդվածներն
հոդվածներով
հոդվածներում
հոդվածում
հոկտ
հոկտեմբեր
հոկտեմբերի
հովանավոր
հովանավորներ
հովհաննես
հովհաննիսյան
հորիզոնականը
հուլ
հուլիս
հուլիսի
հուն
հունիս
հունիսի
հունվար
հունվարի
հուշարձաններ
հուշարձանները
հուշարձանների
հռիփսիմե
հստակ
հրաշալի
հրապարակել
հրապարակման
հրապարակվել
հրավեր
հրավիրել
հրավիրում
հրավիրված
հրավիրվում
ձայն
ձայների
ձեզ
ձեռնպահ
ձեռք
ձեռքբերումները
ձեր
ձմեռային
ձնծաղիկ
ձևաչափի
ձևաչափով
ձևավորված
ձևավորվել
ձևի
ձևով
ղ
ղազարյան
ղազարյանը
ղեկավար
ղեկավարը
ղեկավարվելով
ղուլյան
ղուկասյան
ղուկասյանը
ղուկասյանի
ճամբար
ճամբարական
ճամբարականները
ճամբարականների
ճամբարականներին
ճամբարային
ճամբարը
ճամբարի
ճամբարին
ճամբարների
ճամբարում
ճանաչվել
ճիշտ
մ
մաթևոսյան
մաթևոսյանը
մաղթում
մամուլի
մայ
մայիս
մայիսի
մայիսին
մանրամասն
մաս
մասը
մասի
մասին
մասից
մասն
մասնագետները
մասնագետների
մասնագիտական
մասնագիտությունների
մասնակից
մասնակիցներ
մասնակիցները
մասնակիցների
մասնակիցներին
մասնակիցներից
մասնակիցներն
մասնակիցներով
մասնակցած
մասնակցային
մասնակցել
մասնակցելու
մասնակցեց
մասնակցեցին
մասնակցի
մասնակցութիւնը
մասնակցությամբ
մասնակցության
մասնակցություն
մասնակցությունը
մասնակցում
մասնաճյուղերի
մասնաճյուղի
մասնավորապես
մարատ
մարդիկ
մարդկային
մարդկանց
մարդու
մարզային
մարզերի
մարզի
մարզիչ
մարզիչները
մարզիչների
մարզում
մարզպետարանի
մարի
մարիամ
մարիամը
մարմինների
մարմնի
մարսելա
մարտ
մարտի
մեդիա
մեդիայի
մեզ
մեզնից
մեթոդներով
մեծ
մեծամասնությամբ
մեկ
մեկը
մեկի
մեկին
մեկն
մեկնաբանում
մեկնարկել
մեկնարկեց
մեկնարկը
մեկնարկից
մեկնել
մենք
մեջ
մետա
մեր
մերի
մէջ
մը
մի
միաժամանակ
միաձայն
միայն
միանալ
միասին
միասնական
միացած
միացել
միմյանց
մինասյան
մինասյանը
մինչ
մինչև
միշտ
միության
միջազգային
միջավայր
միջավայրում
միջմշակութային
միջնակարգ
միջոց
միջոցառման
միջոցառմանը
միջոցառում
միջոցառումը
միջոցառումից
միջոցառումներ
միջոցառումները
միջոցառումների
միջոցառումներին
միջոցառումներից
միջոցներ
միջոցների
միջոցներով
միջոցով
միջև
միտված
միրզոյանը
միրզոյանի
միևնույն
մկրտչյան
մկրտչյանը
մկրտչյանի
մկրտչյանին
մհեր
մյուս
մնացած
մնացականյան
մնացականյանը
մշակել
մշակման
մշակութային
մշակում
մշակույթի
մշակված
մշտական
մշտապես
մոնիկա
մոսիկյանը
մոտ
մոտիվացիայի
մոտիվացիան
մուլտֆիլմերի
մուրադյանը
մրցանակաբաշխությունը
մրցանակներ
մրցույթ
մրցույթը
մրցույթի
մրցույթին
յի
յոթերորդ
յուրահատուկ
յուրաքանչյուր
յուրաքանչյուրը
յօդուածներու
յօդուածներուն
ն
նա
նաեւ
նախ
նախագահ
նախագահը
նախագահի
նախագահին
նախագահող
նախագահողը
նախագահողի
նախագիծ
նախագիծը
նախագիծն
նախագծեր
նախագծերը
նախագծերի
նախագծերին
նախագծերով
նախագծերում
նախագծի
նախագծին
նախագծում
նախաձեռնել
նախաձեռնութիւնը
նախաձեռնությամբ
նախաձեռնության
նախաձեռնությունը
նախապատրաստական
նախապես
նախատեսում
նախատեսված
նախատեսվում
նախարարության
նախկին
նախկինում
նախնական
նախորդ
նախքան
նամակ
նամակը
նամակով
նարեկ
նարինե
նաև
նելլի
ներակումբական
ներակումբային
ներառել
ներառյալ
ներառում
ներառված
ներգրավել
ներգրավելով
ներգրավելու
ներգրավված
ներգրավվել
ներդրում
ներդրումը
ներդրումն
ներդրումներ
ներդրումների
ներկա
ներկայացման
ներկայացնել
ներկայացնելով
ներկայացնելու
ներկայացնի
ներկայացնող
ներկայացնում
ներկայացում
ներկայացուցիչ
ներկայացուցիչներ
ներկայացուցիչները
ներկայացուցիչների
ներկայացուցիչներին
ներկայացուցչի
ներկայացված
ներկայացվել
ներկայացվեց
ներկայացվեցին
ներկայացվում
ներկայացրած
ներկայացրել
ներկայացրեց
ներկայացրեցին
ներկայացրին
ներկայությունը
ներկայումս
ներկաների
ներկաներին
ներս
ներսում
ներքին
ներքո
ներքոնշյալ
նիստ
նիստերի
նիստը
նիստի
նիստին
նիստում
նկատմամբ
նկարագրելուն
նկարիչների
նկարներ
նման
նմանատիպ
նյութեր
նյութերը
նյութը
նշանակալի
նշել
նշելով
նշենք
նշեց
նշում
նշված
նշվում
նոյ
նոյեմբեր
նոյեմբերի
նոր
նորայր
նորեկ
նորեկներ
նորեկների
նորեկներին
նորընտիր
նորվեգիայի
նորվեգիայից
նորվեգիան
նույն
նույնիսկ
նույնպես
նչ
նպաստել
նպատակ
նպատակը
նպատակն
նպատակները
նպատակների
նպատակով
նվեր
նվերներ
նվիրել
նվիրելու
նվիրված
նրա
նրան
նրանց
նրանցից
նրանք
շ
շաբաթ
շաբաթական
շաբաթը
շաբաթվա
շաբաթօրյա
շահենյանը
շահերի
շահինյան
շահինյանը
շահումյանի
շատ
շատերը
շարժման
շարունակական
շարունակել
շարունակելով
շարունակելու
շարունակում
շարունակվել
շարունակվում
շարք
շարքը
շենք
շիրակի
շնորհակալություն
շնորհիվ
շուշան
շուրջ
շվեդիայի
շվեյցարիայի
շրջանակներում
շրջանակում
շրջանում
շփման
շփվել
ո
ոգևորությամբ
ոլորտի
ոլորտին
ոլորտում
ողջ
ողջամիտ
ոմանք
ոչ
ոսկանյանի
ով
ովքեր
որ
որակը
որակի
որակյալ
որակով
որը
որի
որին
որից
որն
որոնց
որոնցից
որոնք
որոշ
որոշակի
որոշեց
որոշմամբ
որոշման
որոշում
որոշումը
որոշումներ
որոշումների
որոշվել
որոշվեց
որով
որում
որպես
որպեսզի
որտեղ
որևէ
ու
ուզում
ուժերով
ուիքի
ուիքիմետիա
ուիքիփետիա
ուիքիփետիայի
ուիքիփետիան
ուղարկել
ուղարկելու
ուղարկվել
ուղեցույց
ուղղել
ուղղեցին
ուղղությամբ
ուղղված
ուղևորությունների
ում
ունեին
ունեն
ունենա
ունենալ
ունենալով
ունենալու
ունենում
ուներ
ունեցած
ունեցան
ունեցավ
ունեցել
ունեցող
ունի
ուշ
ուշադրություն
ուսանող
ուսանողներ
ուսանողները
ուսանողների
ուսանողներին
ուսանողներն
ուսումնական
ուսումնասիրել
ուսումնասիրության
ուսուցիչ
ուսուցիչները
ուսուցիչների
ուսուցիչներին
ուսուցման
ուսուցողական
ուսուցումը
ուսուցչական
ուսուցչի
ուստի
ուրախ
ուրեմն
չալաբյանի
չափորոշիչներում
չեն
չենք
չէ
չէին
չէր
չի
չկա
չկայացվեց
չնայած
չորս
չորրորդ
չունենալու
չունի
պակաս
պահանջ
պահանջներին
պահանջով
պահել
պահին
պահպանել
պահպանելով
պահպանման
պայմանագրի
պայմանավորված
պայմանավորվածություն
պայմաններում
պաշտոնական
պաշտպանության
պատանիների
պատասխան
պատասխանատու
պատասխանել
պատասխանի
պատասխաններ
պատերազմի
պատկեր
պատճառներով
պատճառով
պատմական
պատմել
պատմող
պատմության
պատմություն
պատմությունը
պատմում
պատշաճ
պատվավոր
պատրաստ
պատրաստել
պատրաստման
պատրաստում
պատրաստվել
պարագայում
պարբերաբար
պարզ
պարզապես
պարունակող
պարտադիր
պարտականությունները
պարտականությունների
պետական
պետությունների
պետք
պիտի
պլան
պլանը
պլանի
պողոսյան
պողոսյանը
պրակտիկայի
պրակտիկան
ջանքերով
ջերմ
ջոկատավարների
ռադիո
ռազմավարական
ռազմավարության
ռեժիմի
ռեպորտաժ
ռուս
ռուսերեն
ռուսերենից
ս
սա
սակայն
սահականուշ
սահակյանի
սահմանել
սահմանված
սարգիս
սարգսյան
սարգսյանը
սարգսյանի
սարո
սարոյանի
սեմինար
սեմինարը
սեմինարի
սեպտ
սեպտեմբեր
սեպտեմբերի
սեպտեմբերին
սեփական
սիրել
սիրելի
սիրով
սիրում
սխալները
սկզբին
սկզբում
սկզբունքները
սկզբունքներին
սկզբունքով
սկիզբ
սկսած
սկսել
սկսեցին
սկսնակ
սկսում
սկսվել
սյուզի
սյուզին
սննդի
սողոմոն
սողոմոնյան
սողոմոնյանը
սողոմոնյանին
սովետական
սովորաբար
սովորել
սովորելու
սովորեցի
սովորեցին
սովորեցնել
սովորեցնում
սովորեցրել
սովորում
սոցիալական
սույն
սուսաննա
սուսաննան
սպասել
սպորտային
ստանալ
ստանալու
ստանում
ստացած
ստացան
ստացել
ստացվել
ստեղծագործությունների
ստեղծած
ստեղծել
ստեղծելով
ստեղծելու
ստեղծեցին
ստեղծման
ստեղծում
ստեղծված
ստեղծվել
ստեղծվում
ստեփանակերտի
ստորև
ստուգել
ստուգման
ստուգվել
սփիւռքի
սևակ
վ
վահագն
վայր
վարդան
վարդիթեր
վարդուհի
վարել
վարելու
վարչական
վեր
վերաբերյալ
վերաբերող
վերաբերում
վերաբերվում
վերահսկիչ
վերահսկող
վերահսկողական
վերբեռնել
վերբեռնվել
վերնագրով
վերոնշյալ
վերջին
վերջինը
վերջինիս
վերջիններիս
վերջիններս
վերջինս
վերջնաժամկետը
վերջնաժամկետն
վերջնական
վերջում
վերստուգող
վեց
վեցերորդ
վիկի
վիկտորինա
վիճակը
վիճակի
վիոլլա
վիքի
վիքիակումբ
վիքիակումբականները
վիքիակումբականների
վիքիակումբը
վիքիակումբի
վիքիակումբին
վիքիակումբներ
վիքիակումբները
վիքիակումբների
վիքիակումբներում
վիքիակումբում
վիքիամիս
վիքիբառարանում
վիքիդասարանը
վիքիդասընթաց
վիքիդասընթացը
վիքիդասընթացի
վիքիդասընթացներ
վիքիդասընթացների
վիքիդարանում
վիքիթիմ
վիքիխմբագիր
վիքիխմբագիրներ
վիքիխմբագիրների
վիքիխմբագրմամբ
վիքիխմբագրման
վիքիհամայնքը
վիքիհամայնքի
վիքիհարթակներում
վիքիճամբար
վիքիճամբարը
վիքիճամբարի
վիքիճամբարին
վիքիճամբարներ
վիքիճամբարների
վիքիճամբարներում
վիքիճամբարում
վիքիմեդիա
վիքիմեդիայի
վիքիմեդիացիներին
վիքին
վիքինախագծերի
վիքինախագծերին
վիքինախագծերում
վիքիշաբաթ
վիքիշարժման
վիքիշարժմանը
վիքիպահեստ
վիքիպահեստում
վիքիպեդիա
վիքիպեդիայի
վիքիպեդիային
վիքիպեդիայից
վիքիպեդիայում
վիքիպեդիան
վիքիպեդիաների
վիքիպեդիաներից
վիքիպեդիաներում
վիքիպեդիացիների
վիքիպեդիստների
վիքիտվյալներ
վիքիտվյալների
վիքիտվյալներում
վմհ
վորքշոփ
վորքշոփը
վորքշոփի
վորքշոփին
վորքշոփներ
վորքշոփները
վորքշոփներին
վորքշոփներից
վրա
վրայ
տ
տալ
տալիս
տալու
տակ
տանը
տավուշի
տարածաշրջանային
տարածաշրջանի
տարածաշրջանում
տարածելու
տարածմանը
տարածումը
տարածքի
տարածքում
տարբեր
տարբերակը
տարբերակի
տարբերակով
տարեդարձի
տարեկան
տարեկանից
տարի
տարին
տարիների
տարիներին
տարիքային
տարիքի
տարվա
տեխնիկական
տեխնոլոգիաների
տեղ
տեղադրել
տեղադրում
տեղադրվել
տեղական
տեղափոխման
տեղեկատվական
տեղեկատվության
տեղեկատվություն
տեղեկատվությունը
տեղեկացնել
տեղեկացնում
տեղեկացրեց
տեղեկություն
տեղեկություններ
տեղի
տեղն
տեղում
տեսազանգ
տեսազանգերի
տեսազանգի
տեսական
տեսակետը
տեսահոլովակներ
տեսանկյունից
տեսնել
տեր
տերտերյան
տերտերյանը
տերտերյանի
տիգրան
տիրապետող
տիրապետում
տիրույթում
տղամարդկանց
տնօրեն
տնօրենը
տնօրենի
տուն
տվել
տվեց
տվյալ
տվյալների
տրամադրել
տրամադրելու
տրամադրվել
տրվել
տրվեց
տրվում
տևական
տևել
տևեց
տևողությամբ
ր
րդ
րոպե
ց
ցանկ
ցանկանում
ցանկացած
ցանկեր
ցանկերից
ցանկը
ցանկի
ցանկից
ցանկություն
ցանկում
ցեղասպանության
ցեղասպանությունը
ցույց
ցուցաբերել
ւ
փակ
փաստաթղթերի
փետ
փետրվար
փետրվարի
փետրվարին
փիլիպոսյան
փիլիպոսյանը
փիլիպոսյանի
փիլիպոսյանին
փիլիպսյանը
փնտրում
փոխանցել
փոստի
փորձ
փորձառու
փորձել
փորձը
փորձի
փորձով
փուլ
փուլը
փուլի
փուլին
փուլով
փուլում
փոփոխության
փոփոխություններ
փոփոխությունները
փոփոխությունների
փոքր
փոքրիկ
ք
քաղաքական
քաղաքի
քաղաքների
քաղաքում
քայլերը
քայլերի
քան
քանակը
քանակով
քանզի
քանի
քարվաճառի
քարտուղար
քարտուղարի
քեզ
քնարկելով
քննարկել
քննարկելով
քննարկելու
քննարկեցին
քննարկման
քննարկմանը
քննարկմանն
քննարկում
քննարկումը
քննարկումներ
քննարկումները
քննարկումների
քննարկումներին
քննարկվել
քննարկվեց
քննարկվեցին
քննարկվող
քննել
քո
քոլեջում
քվեարկել
քվեարկությամբ
քվեարկության
քվերակության
քվերակությունների
քվորումն
օ
օգնական
օգնել
օգնությամբ
օգնում
օգոստոս
օգոստոսի
օգստ
օգտագործել
օգտագործելով
օգտագործման
օգտագործումը
օգտակար
օգտին
օգտվելու
օլեսյա
օնլայն
օտար
օր
օրակարգ
օրակարգային
օրակարգը
օրակարգի
օրակարգում
օրենք
օրենքով
օրեր
օրերի
օրերին
օրը
օրինակ
օրինական
օրինակով
օրն
օրվա
օրվան
օֆլայն
ֆակուլտետի
ֆեյսբուքյան
ֆեյսբուքում
ֆիլմերի
ֆինանսական
ֆինանսատնտեսական
ֆորմալ
ֆորումի
ֆրանսերեն
և
ևս
։
֊
֑
֔
֖
֗
֙
֫
ְ
ֲ
ִ
ֵ
ֶ
ַ
ָ
ֹ
ֻ
ּ
ֽ
ׁ
ׂ
א
ב
ג
ד
ה
ו
ז
ח
ט
י
יח
ך
כ
ל
ם
מ
ן
נ
ס
ע
ף
פ
ץ
צ
ק
ר
ש
ת
،
ء
ا
اء
اب
اة
ات
اد
اس
اع
ال
الا
الز
الس
الص
الق
الل
الله
الن
ام
ان
اه
او
اي
ب
بن
ة
ت
ث
ج
ح
خ
د
ذ
ر
ز
س
سورة
ش
ص
صلى
ض
ط
ظ
ع
عليه
غ
ـ
ف
ق
ك
ل
لا
لط
م
محمد
ن
ه
و
وا
وت
ور
وس
وسلم
ول
ون
ى
ي
يد
يل
يم
ين
يه
ً
ٌ
ٍ
َ
ُ
ِ
ّ
ْ
ٓ
ٔ
ٕ
٨
ٰ
ٱل
ٱلل
ڪ
ۖ
ۗ
ۚ
۞
۟
ۡ
ۢ
ۤ
ۥ
ۦ
۬
ۭ
ܐ
ܵ
ं
ख
त
द
न
ब
भ
य
र
ल
व
ष
स
ह
़
ा
ि
ी
ु
े
्
ন
ম
য
র
স
়
া
ি
ী
ু
ে
্
ు
ุ
࿇
ု
္
년
ሀ
ሀላፊ
ሀላፊነት
ሀመርሾልድ
ሀሙስ
ሀሜተኛ
ሀሜት
ሀምሌ
ሀምሳ
ሀሣቡ
ሀሣቡን
ሀሣብ
ሀሣቦች
ሀሣዊ
ሀረ
ሀረም
ሀረሞች
ሀረሪ
ሀረር
ሀረርጌ
ሀረግ
ሀሪንግተን
ሀሰተኛ
ሀሰት
ሀሰን
ሀሳቡ
ሀሳቡን
ሀሳብ
ሀሳቦች
ሀሳቦችን
ሀሳን
ሀቅ
ሀበሻ
ሀበሻት
ሀቢብ
ሀብተ
ሀብተወልድ
ሀብቱ
ሀብቱን
ሀብታም
ሀብታሞች
ሀብታቸው
ሀብት
ሀብትና
ሀብቶች
ሀብቷን
ሀና
ሀንጋሪ
ሀንጋርኛ
ሀከም
ሀኪም
ሀኪሞች
ሀዊኝ
ሀዋሳ
ሀውልት
ሀውልቶች
ሀውስ
ሀዘን
ሀዘንሽ
ሀያ
ሀያላን
ሀያል
ሀያልነት
ሀይ
ሀይለማሪያም
ሀይለማርያም
ሀይለስላሴ
ሀይለኛ
ሀይሉ
ሀይል
ሀይሎች
ሀይማኖታዊ
ሀይማኖት
ሀይማኖቶች
ሀይሮግሊፍ
ሀይቅ
ሀይቆች
ሀይዌይ
ሀይድሮጅን
ሀደሌኤላ
ሀደሪኛ
ሀዲስ
ሀዲያ
ሀዲይኛ
ሀዲዱ
ሀዲድ
ሀዳኒሽ
ሀድሰን
ሀገረ
ሀገሩ
ሀገሩን
ሀገሪቱ
ሀገሪቱን
ሀገሪቷን
ሀገራት
ሀገራትን
ሀገራቸዉን
ሀገራቸው
ሀገራቸውን
ሀገራችን
ሀገራችንን
ሀገራዊ
ሀገር
ሀገርና
ሀገርን
ሀገሮች
ሀጋር
ሀጢአት
ሀጫሉ
ሀፍረተ
ሀፍረት
ሁ
ሁለ
ሁለተኛ
ሁለተኛም
ሁለተኛዋ
ሁለተኛው
ሁለተኛውም
ሁለተኛውና
ሁለተኛውን
ሁለቱ
ሁለቱም
ሁለቱን
ሁለቱንም
ሁለቴ
ሁለት
ሁለትዮሽ
ሁለንተናዊ
ሁለገብ
ሁሉ
ሁሉም
ሁሉን
ሁሉንም
ሁላ
ሁላቸው
ሁላቸውም
ሁላችሁ
ሁላችን
ሁላችንም
ሁላችንንም
ሁላክ
ሁሌ
ሁሌም
ሁል
ሁልጊዜ
ሁልጊዜም
ሁማ
ሁም
ሁሰይን
ሁሴን
ሁቨር
ሁቱ
ሁነታ
ሁነት
ሁነኛ
ሁነው
ሁና
ሁናቴ
ሁኔታ
ሁኔታም
ሁኔታና
ሁኔታን
ሁኔታው
ሁኔታውን
ሁኔታዎች
ሁኔታዎችን
ሁን
ሁንዴሳ
ሁንጋሪያ
ሁኖ
ሁኖርና
ሁኖች
ሁከት
ሁክ
ሁዋን
ሁድ
ሁድን
ሂ
ሂሊየም
ሂላሪ
ሂል
ሂማላያ
ሂሩት
ሂሮሺማ
ሂሳባዊ
ሂሳብ
ሂስቶሪያ
ሂስፓኒክ
ሂትለር
ሂትለርና
ሂና
ሂንዱኢዝም
ሂንዲ
ሂክሶስ
ሂክሶስም
ሂክሶስን
ሂወት
ሂዝሮው
ሂያጅ
ሂደቱ
ሂደቱን
ሂደት
ሂደትን
ሂደቶች
ሂደው
ሂዱ
ሂዳ
ሂድ
ሂዶ
ሂጃብ
ሂጅሪያ
ሂጅራ
ሂፕ
ሃ
ሃላፊ
ሃላፊነት
ሃሌ
ሃልዮ
ሃመርኛ
ሃሙራቢ
ሃሚልተን
ሃማስ
ሃምሣ
ሃምሳ
ሃምፕሻየር
ሃሞን
ሃሣብ
ሃረግ
ሃሩን
ሃሪ
ሃሪም
ሃሪሰን
ሃር
ሃርቪ
ሃርዲንግ
ሃርድዌር
ሃርፎች
ሃርፐር
ሃሮልድ
ሃሰት
ሃሳቡ
ሃሳቡን
ሃሳባዊ
ሃሳብ
ሃሳብን
ሃሳቦች
ሃሳቦችን
ሃቅ
ሃበሻ
ሃቢሩ
ሃብሃብ
ሃብታም
ሃብታምና
ሃብት
ሃብቶች
ሃትሸፕሱት
ሃኒባል
ሃና
ሃናን
ሃን
ሃንስ
ሃንዩል
ሃንጋሪ
ሃንጋሪና
ሃኪም
ሃዋርያት
ሃዋርያው
ሃዋርድ
ሃዋይ
ሃው
ሃውልት
ሃውልቶች
ሃውስ
ሃውስን
ሃውኪንግ
ሃዘን
ሃዘጋ
ሃያ
ሃያላት
ሃያሲ
ሃይ
ሃይለ
ሃይለመስቀል
ሃይለኛ
ሃይሉ
ሃይሉን
ሃይላቸውን
ሃይላንድ
ሃይል
ሃይልን
ሃይሎች
ሃይሎችን
ሃይማኖቱ
ሃይማኖቱን
ሃይማኖታቸው
ሃይማኖታቸውን
ሃይማኖታዊ
ሃይማኖት
ሃይማኖትና
ሃይማኖትን
ሃይማኖቶች
ሃይማኖቶችን
ሃይሮግሊፍ
ሃይሮግሊፎች
ሃይቅ
ሃይቲ
ሃይድሮጅን
ሃዲስ
ሃዲያ
ሃዲድ
ሃጅ
ሃገረ
ሃገሩ
ሃገሩን
ሃገራት
ሃገራችን
ሃገር
ሃገሮች
ሃጫሉ
ሃፋጄ
ሃፌዝ
ሃፕ
ሃፕሎይድ
ሄ
ሄሊኮፕተር
ሄሊዮስ
ሄሌና
ሄልሲንኪ
ሄራልድ
ሄራክሌስ
ሄራክሌውፖሊስ
ሄርሚኖን
ሄርሚዮን
ሄርበርት
ሄርኩሌስ
ሄርጸጎቪና
ሄሮድስ
ሄሮድስም
ሄሮድያስ
ሄሮዶተስ
ሄሮዶቱስ
ሄሮዶቶስ
ሄሲዮድ
ሄስቲንግስ
ሄስፔሩስ
ሄነሪ
ሄንሪ
ሄንዝ
ሄኖክ
ሄክታር
ሄዋን
ሄይስ
ሄደ
ሄደች
ሄደን
ሄደዋል
ሄደው
ሄዱ
ሄዳ
ሄድኩ
ሄዶ
ሄዷል
ሄጄ
ሄግል
ህ
ህሊና
ህሊናችን
ህሊናዊ
ህሊናው
ህላዌ
ህልሜ
ህልም
ህልቁ
ህልው
ህልውና
ህመሙ
ህመሙን
ህመም
ህመምተኞች
ህመሞች
ህብረ
ህብረተሠብ
ህብረተሰቡ
ህብረተሰቡን
ህብረተሰብ
ህብረቱ
ህብረቱን
ህብረት
ህብረትና
ህብረትን
ህብስት
ህትመት
ህትመቶች
ህንደኬ
ህንዲ
ህንዳዊ
ህንድ
ህንድን
ህንጻ
ህንጻው
ህንጻዎች
ህንፃ
ህንፃዎች
ህክምና
ህወሃት
ህወሓት
ህዋ
ህዋሥ
ህዋሳት
ህዋሳትን
ህዋስ
ህዝበ
ህዝቡ
ህዝቡም
ህዝቡን
ህዝባዊ
ህዝብ
ህዝብና
ህዝብን
ህዝቦች
ህዝቦችን
ህዝቦቿ
ህያው
ህይወቱ
ህይወቱን
ህይወታቸው
ህይወታቸውን
ህይወት
ህይወትን
ህይወቷ
ህዳር
ህዳሴ
ህገ
ህገወጥ
ህጉ
ህጉን
ህጋዊ
ህግ
ህግና
ህግን
ህግጋት
ህግጋትን
ህጎች
ህጎችን
ህጻኑ
ህጻኑን
ህጻናት
ህጻናትን
ህጻን
ህፃኑ
ህፃናት
ህፃን
ሆ
ሆሄያት
ሆለታ
ሆላንድ
ሆላንድኛ
ሆል
ሆሜር
ሆም
ሆሞ
ሆሣዕና
ሆሩስ
ሆሪ
ሆራ
ሆሬሽዮ
ሆር
ሆርስ
ሆርካም
ሆሳዕና
ሆሴ
ሆስኒ
ሆስፒታሉ
ሆስፒታል
ሆስፒታሎች
ሆብስ
ሆተፒብሬ
ሆቴል
ሆነ
ሆነህ
ሆነላቸው
ሆነም
ሆነበት
ሆነባት
ሆነብኝ
ሆነች
ሆነና
ሆነን
ሆነዋል
ሆነው
ሆኑ
ሆኑና
ሆና
ሆናለች
ሆናችሁ
ሆን
ሆንሁ
ሆንን
ሆንኩ
ሆንዱራስ
ሆንግ
ሆኖ
ሆኖም
ሆኖአል
ሆኖዋል
ሆኗል
ሆኜ
ሆካይዶ
ሆዜ
ሆያ
ሆዬ
ሆይ
ሆደ
ሆዱ
ሆዱን
ሆዳም
ሆዴ
ሆዴን
ሆድ
ሆድና
ሆድን
ሆፕ
ለ
ለሀምሳ
ለሀገሩ
ለሀገሪቱ
ለሀገራቸው
ለሀገር
ለሀጥአን
ለሁለተኛ
ለሁለተኛና
ለሁለተኛው
ለሁለቱ
ለሁለቱም
ለሁለት
ለሁሉ
ለሁሉም
ለሂሳብ
ለሂያጅ
ለሃያ
ለሃይማኖት
ለህልም
ለህመም
ለህትመት
ለህዝቡ
ለህዝብ
ለህይወት
ለህግ
ለሆነ
ለሆነው
ለሆኑ
ለሆኑት
ለሆዱ
ለሆዳም
ለሆዴ
ለሆድ
ለለውጥ
ለሊት
ለላሙ
ለላም
ለላቲን
ለሌለው
ለሌላ
ለሌላቸው
ለሌላው
ለሌላዎች
ለሌሎቹ
ለሌሎች
ለሌሎችም
ለሌባ
ለልብ
ለልዑል
ለልዩ
ለልጁ
ለልጃቸው
ለልጅ
ለልጆቹ
ለልጆቻቸው
ለልጆች
ለልጇ
ለሎሌው
ለሐዋርያት
ለሕትመት
ለሕክምና
ለሕክምናው
ለሕዝቡ
ለሕዝብ
ለሕዝቦቹ
ለሕይወት
ለሕግ
ለሕፃን
ለመሄድ
ለመሄድና
ለመሆኑ
ለመሆናቸው
ለመሆን
ለመለካት
ለመለኮት
ለመለወጥ
ለመለየት
ለመለያየት
ለመላክ
ለመላው
ለመላጣ
ለመልቀቅ
ለመልካም
ለመሔድ
ለመመለስ
ለመመልከት
ለመመሥረት
ለመመረቅ
ለመመርመር
ለመመስረት
ለመሙላት
ለመማር
ለመምረጥ
ለመምራት
ለመምሰል
ለመምታት
ለመሥራት
ለመረዳት
ለመሪካሬ
ለመሬት
ለመርዳት
ለመሰብሰብ
ለመሰየም
ለመሰደድ
ለመሳል
ለመሳሰሉት
ለመሳብ
ለመሳተፍ
ለመስማማት
ለመስማት
ለመስራት
ለመስቀል
ለመስበር
ለመስበክ
ለመስጠት
ለመስፋፋት
ለመሸሽ
ለመሸከም
ለመሸጥ
ለመሸፈን
ለመሻር
ለመቀላቀል
ለመቀመጥ
ለመቀበል
ለመቀነስ
ለመቀየር
ለመቀይር
ለመቀጠል
ለመቃብር
ለመቃኘት
ለመቃወም
ለመቅረብ
ለመቅረፍ
ለመቅደሱ
ለመቅዳት
ለመቆም
ለመቆየት
ለመቆጣጠር
ለመቋቋም
ለመበቀል
ለመበተን
ለመባል
ለመብላት
ለመብረር
ለመተርጎም
ለመተንበይ
ለመተንተን
ለመተካት
ለመተው
ለመተግበር
ለመታማት
ለመታተም
ለመታየት
ለመታደግ
ለመታገል
ለመትከል
ለመቶ
ለመነ
ለመነኩሴ
ለመነው
ለመነጋገር
ለመኑት
ለመኑኝ
ለመናገር
ለመናገርና
ለመንከባከብ
ለመንገር
ለመንግሥቱ
ለመንግሥት
ለመንግስት
ለመንጠቅ
ለመንፈሳዊ
ለመንፈስ
ለመኖሪያ
ለመኖር
ለመከላከል
ለመከላከልና
ለመከልከል
ለመከራ
ለመከራሽ
ለመከተል
ለመከታተል
ለመከፋፈል
ለመኪና
ለመክተብ
ለመክፈል
ለመክፈት
ለመወሰን
ለመወከል
ለመወያየት
ለመወዳደር
ለመወጣት
ለመዋጋት
ለመውለድ
ለመውረር
ለመውረስ
ለመውሰድ
ለመውጋት
ለመውጣት
ለመዘርጋት
ለመዛወር
ለመዝመት
ለመዝገበ
ለመዞር
ለመያዝ
ለመደልደል
ለመደመር
ለመደምሰስ
ለመደራደር
ለመደበቅ
ለመደገፍ
ለመዳን
ለመድረስ
ለመጀመሪያ
ለመጀመር
ለመጀመርያ
ለመጀመርያው
ለመገልበጥ
ለመገመት
ለመገርሰስ
ለመገናኘት
ለመገንባት
ለመገንዘብ
ለመገደብ
ለመጋፈጥ
ለመግለጥ
ለመግለጽ
ለመግለፅ
ለመግባባት
ለመግባት
ለመግታት
ለመግዛት
ለመግደል
ለመግጠም
ለመግፋት
ለመጎብኘት
ለመጓዝ
ለመጠቀም
ለመጠቆም
ለመጠበቅ
ለመጠብቅ
ለመጠየቅ
ለመጠጥ
ለመጣል
ለመጣው
ለመጥራት
ለመጥቀም
ለመጥቀስ
ለመጥበስ
ለመጥፋት
ለመጨመር
ለመጨረስ
ለመጨረሻ
ለመጨበጥ
ለመጫወት
ለመጻፍ
ለመጽሀፍ
ለመጽሐፍ
ለመፃፍ
ለመፈለግ
ለመፈተሽ
ለመፈተን
ለመፈጸም
ለመፈጽም
ለመፈፀም
ለመፍረድ
ለመፍታት
ለመፍጠር
ለሙሉ
ለሙሴ
ለሙት
ለሙዚቃ
ለሚለው
ለሚሉ
ለሚሉት
ለሚመለከት
ለሚመጡ
ለሚመጣው
ለሚስቱ
ለሚስት
ለሚሻው
ለሚቀጥለው
ለሚቀጥሉት
ለሚቆሙበት
ለሚቆጠሩ
ለሚታኒ
ለሚነግርህ
ለሚኖሩ
ለሚከተሉት
ለሚወዱት
ለሚያየው
ለሚያደርጉ
ለሚያደርጉት
ለሚያጎነብሱትና
ለሚደረገው
ለሚደፉት
ለሚገኘው
ለሚገኙ
ለሚፈልጉ
ለማ
ለማህበራዊ
ለማለት
ለማለፍ
ለማልማት
ለማመልከት
ለማመስገን
ለማመን
ለማምለጥ
ለማምረት
ለማምጣት
ለማሟላት
ለማረም
ለማረጋገጥ
ለማረጋጋት
ለማረፍ
ለማራዘም
ለማርካት
ለማርያም
ለማሰልጠን
ለማሰራጨት
ለማሳለፍ
ለማሳመን
ለማሳተም
ለማሳካት
ለማሳወቅ
ለማሳየት
ለማሳደስ
ለማሳደግ
ለማስለቀቅ
ለማስላት
ለማስመለስ
ለማስመዝገብ
ለማስረከብ
ለማስረዳት
ለማስቀመጥ
ለማስቀረት
ለማስቀጠል
ለማስቆም
ለማስተላለፍ
ለማስተማር
ለማስተናገድ
ለማስተካከል
ለማስተዋል
ለማስተዋወቅ
ለማስተዳደር
ለማስታረቅ
ለማስታወስ
ለማስከበር
ለማስወገድ
ለማስወጣት
ለማስደሰት
ለማስገበር
ለማስገባት
ለማስገኘት
ለማስጠበቅ
ለማስጠንቀቅ
ለማስፈራራት
ለማስፈታት
ለማስፈን
ለማስፈጸም
ለማስፋት
ለማስፋፋት
ለማሸነፍ
ለማሸጋገር
ለማሻሻል
ለማቃለል
ለማቃጠል
ለማቅረብ
ለማቆም
ለማቆየት
ለማቋረጥ
ለማቋቋም
ለማበረታታት
ለማባረር
ለማብረድ
ለማብራራት
ለማብዛት
ለማታ
ለማታለል
ለማትረፍ
ለማነጻጸር
ለማናቸውም
ለማን
ለማንም
ለማንሳት
ለማንሻ
ለማንቀሳቀስ
ለማንበብ
ለማንኛውም
ለማኝ
ለማከማቸት
ለማከም
ለማከናወን
ለማካሄድ
ለማካተት
ለማካፈል
ለማክሸፍ
ለማክበር
ለማወቅ
ለማወቅና
ለማዋል
ለማውረድ
ለማውጣት
ለማዎቅ
ለማዘጋጀት
ለማዛወር
ለማየት
ለማያውቁሽ
ለማያውቅ
ለማያያዝ
ለማይሰጥ
ለማደራጀት
ለማደስ
ለማደናቀፍ
ለማዳ
ለማዳበር
ለማዳን
ለማዳከም
ለማድረስ
ለማድረግ
ለማገልገል
ለማገናኘት
ለማገዝ
ለማገዶ
ለማግለል
ለማግባት
ለማግኘት
ለማግኘትና
ለማጎልበት
ለማጠናከር
ለማጠን
ለማጠንከር
ለማጣት
ለማጥመድ
ለማጥራት
ለማጥቃት
ለማጥናት
ለማጥፋት
ለማጽደቅ
ለማጽዳት
ለማፈን
ለማፋጠን
ለማፍረስ
ለም
ለምለም
ለምሣሌ
ለምሥራቅ
ለምሳለ
ለምሳሌ
ለምሳሌም
ለምስራቅ
ለምስክር
ለምኑ
ለምን
ለምንድነው
ለምኖ
ለምዕራብ
ለምዳ
ለምድ
ለምድር
ለምዶ
ለምግብ
ለምግብነት
ለምጨን
ለምጽ
ለሞት
ለሞኝ
ለሠላሳ
ለሠራተኛ
ለሥላሣ
ለሥልጣን
ለሥራ
ለሥነ
ለሦስተኛ
ለሦስት
ለረዥም
ለረጅም
ለሩሲያ
ለራሱ
ለራሳቸው
ለራሴ
ለራስ
ለራስህ
ለራበው
ለራት
ለርሱ
ለርሱም
ለርስት
ለርስዎ
ለርሷ
ለሮማ
ለሮማውያን
ለሮሜ
ለሰለባ
ለሰላማዊ
ለሰላም
ለሰማው
ለሰማይ
ለሰሜን
ለሰሪው
ለሰባት
ለሰው
ለሰውም
ለሰውነቱ
ለሰውዬው
ለሰዎች
ለሰዎችም
ለሰጠ
ለሰጠው
ለሱ
ለሳቸው
ለሳይንሳዊ
ለሳይንስ
ለሴ
ለሴማዊ
ለሴት
ለሴትና
ለሴቶች
ለስለስ
ለስላሳ
ለስላሳና
ለስምንት
ለስራ
ለስኮትላንድ
ለስዊድን
ለስድስት
ለሶስተኛ
ለሶስት
ለሷ
ለሸማው
ለሹመት
ለሹም
ለሺ
ለሽንት
ለሽያጭ
ለቀላል
ለቀመ
ለቀማ
ለቀሪው
ለቀቀ
ለቀቀው
ለቀቁ
ለቀን
ለቀንዳም
ለቀው
ለቀደሙት
ለቀዳማዊ
ለቀድሞ
ለቀድሞው
ለቀጣዩ
ለቀጣይ
ለቁርባ
ለቁርጥማት
ለቁስል
ለቁንጫ
ለቁጥር
ለቂጡ
ለቃ
ለቃል
ለቄሳር
ለቅመው
ለቅስፈት
ለቅሶ
ለቅቀው
ለቅቆ
ለቅንቅን
ለቅኝ
ለቅዱስ
ለቅድስት
ለቆ
ለቆማጣ
ለቆሮንጦስ
ለቆዳ
ለቋል
ለቋንቋው
ለበለጠ
ለበረከት
ለበርካታ
ለበስ
ለበሽታ
ለበሽታው
ለበአል
ለበዓሉ
ለበዓል
ለበጋ
ለበግ
ለበጎ
ለቡዲስም
ለቡድኑ
ለቢቢሲ
ለባህላዊ
ለባለ
ለባለቤቱ
ለባለጌ
ለባልንጀራው
ለባሏ
ለባርነት
ለባሰው
ለባሽ
ለባቢሎን
ለባእድ
ለቤተ
ለቤተሰቡ
ለቤተሰቦቻቸው
ለቤተክርስቲያን
ለቤቱ
ለቤት
ለብልህ
ለብልቦ
ለብሔራዊ
ለብሪቲሽ
ለብሪታኒያው
ለብሪታንያ
ለብርሃን
ለብሰው
ለብሳ
ለብሶ
ለብቻ
ለብቻቸው
ለብቻው
ለብዙ
ለብዙዎቹ
ለብዙዎች
ለቦታው
ለተለያየ
ለተለያዩ
ለተመረጡ
ለተመሳሳይ
ለተራ
ለተራበ
ለተሻረ
ለተሾመ
ለተቀማጭ
ለተቀማጮቹም
ለተቅማጥ
ለተበደለ
ለተባለ
ለተባለው
ለተባበሩት
ለተከታታይ
ለተከታዩ
ለተከታዮቹ
ለተወለዱ
ለተወሰነ
ለተወሰኑ
ለተግባራዊ
ለተጨማሪ
ለተፈጥሮ
ለታላቁ
ለታላቋ
ለታሪክ
ለቴዎድሮስ
ለት
ለትልቅ
ለትምህርት
ለትምሕርት
ለትርፍ
ለትኋን
ለትንሽ
ለትኩሳት
ለትውልድ
ለቻይና
ለችግር
ለችፌ
ለኀጢአት
ለኃጢአት
ለኅትመት
ለነ
ለነርሱ
ለነሱ
ለነበረው
ለነበሩት
ለነቢዩ
ለነብዩ
ለነአቶ
ለነዚህ
ለነዳጅ
ለነገ
ለነገረኛ
ለነገር
ለነጻነት
ለነፋስ
ለነፍሱ
ለነፍስ
ለኑሮ
ለኒህ
ለኒው
ለናቱ
ለናንተ
ለኔ
ለኔም
ለንባብ
ለንብ
ለንቦች
ለንደን
ለንደንን
ለንጉሠ
ለንጉሡ
ለንጉሣዊ
ለንጉሥ
ለንጉሥነቱ
ለንጉሱ
ለንጉስ
ለንግሥት
ለንግድ
ለንፉግ
ለኛ
ለኛም
ለአሁኑ
ለአህያ
ለአለም
ለአላህ
ለአላህም
ለአሕዛብ
ለአመታት
ለአሚባ
ለአማርኛ
ለአሜሪካ
ለአሜሪካውያን
ለአምላክ
ለአምሥት
ለአምስት
ለአሣ
ለአሥራ
ለአሦር
ለአረመኔ
ለአራት
ለአርባ
ለአሳድ
ለአስራ
ለአስር
ለአቅመ
ለአበባ
ለአባለዘር
ለአባቱ
ለአባት
ለአብ
ለአብርሃም
ለአብርሃምና
ለአብነት
ለአብዛኛው
ለአብዛኞቹ
ለአቶ
ለአነስተኛ
ለአናባቢው
ለአንበሳ
ለአንባቢ
ለአንባቢያን
ለአንተ
ለአንዱ
ለአንዳንድ
ለአንድ
ለአካለ
ለአካባቢ
ለአካባቢው
ለአካድ
ለአውሮፓ
ለአየር
ለአይሁድ
ለአይሁዶች
ለአይን
ለአዲሱ
ለአዲስ
ለአዳም
ለአገልጋይ
ለአገልግሎት
ለአገሩ
ለአገሪቱ
ለአገራቸው
ለአገራችን
ለአገር
ለአጎንባሾች
ለአጠቃላይ
ለአጭር
ለአጼ
ለአፈ
ለአፍ
ለአፍሪካ
ለአፍንጫ
ለኡሩክ
ለኢስላም
ለኢብራሂምም
ለኢትዮጵያ
ለኢትዮጵያና
ለኢትዮጵያውያን
ለኢየሱስ
ለኢጣሊያ
ለኣንድ
ለኤሌክትሪክ
ለኤልዛቤት
ለኤልያስ
ለኤርትራ
ለእርሱ
ለእርስዎ
ለእርሷ
ለእርሻ
ለእሱ
ለእሳት
ለእስልምና
ለእስራኤል
ለእስር
ለእሷ
ለእበጥ
ለእባብ
ለእብለት
ለእነርሱ
ለእነርሱም
ለእነሱም
ለእነዚህ
ለእነዚያ
ለእናቱ
ለእናት
ለእናንተ
ለእናንተም
ለእኔ
ለእኔም
ለእንስሳት
ለእንስሶች
ለእንጀራ
ለእንግሊዝ
ለእንግሊዝኛ
ለእንግዳ
ለእንጨት
ለእኛ
ለእውነት
ለእያንዳንዱ
ለእጅ
ለእግሩ
ለእግር
ለእግዚአብሄር
ለእግዚአብሔር
ለእግዜር
ለኦሮምኛ
ለኦሮሞ
ለከሳሽ
ለከብት
ለከብቶች
ለከተማ
ለከተማዋ
ለከተማው
ለከት
ለከፋ
ለከፍተኛ
ለካ
ለካህናት
ለካህን
ለካም
ለካስ
ለካናዳ
ለክለቡ
ለክርስትና
ለክርስቶስ
ለክብር
ለክፉ
ለክፋት
ለኮማ
ለኮምፒውተር
ለኮምፕዩተር
ለኮሶ
ለዅሉ
ለወለደሽ
ለወልድ
ለወረራ
ለወሬ
ለወርቅ
ለወሰደው
ለወሲብ
ለወባ
ለወተት
ለወታደራዊ
ለወታደር
ለወናፍ
ለወንዝ
ለወንድ
ለወንድሙ
ለወንዶች
ለወደፊቱ
ለወደፊቱም
ለወደፊት
ለወዳጁ
ለወዳጅ
ለወዳጅነት
ለወዳጅኝነት
ለወገን
ለወጠ
ለወጠው
ለወጡ
ለወጡም
ለወጣቶች
ለወጥ
ለወፍ
ለዋሽንግተን
ለዋና
ለዋንጫ
ለው
ለውሃ
ለውስጥ
ለውሻ
ለውትድርና
ለውክሽነሪው
ለውዝ
ለውይይት
ለውድቀት
ለውድድሩ
ለውጠኝ
ለውጠው
ለውጡ
ለውጡን
ለውጥ
ለውጥና
ለውጥን
ለውጦታል
ለውጦች
ለውጦችን
ለውጭ
ለዑር
ለዓለም
ለዓመታት
ለዓማርኛ
ለዓማርኛው
ለዓይን
ለዓፄ
ለዕለት
ለዕይታ
ለዘለቄታ
ለዘለቄታዊ
ለዘለዓለሙ
ለዘለዓለም
ለዘላለሙ
ለዘላለም
ለዘመቻ
ለዘመኑ
ለዘመናት
ለዘመናዊ
ለዘመናዊው
ለዘሩ
ለዘር
ለዘብተኛ
ለዘይት
ለዚሁ
ለዚሁም
ለዚህ
ለዚህም
ለዚያ
ለዚያም
ለዚያው
ለዛ
ለዝናም
ለዝናብ
ለዝንብ
ለዞራስተር
ለየመን
ለየራሳቸው
ለየቅል
ለየብቻ
ለየብቻቸው
ለየት
ለዩኒኮድ
ለዩናይትድ
ለዩኔስኮ
ለዩክሬን
ለያንዳንዱ
ለያዕቆብ
ለያፌት
ለይ
ለይስሐቅ
ለይተው
ለይቶ
ለዮሴፍ
ለደህና
ለደህንነት
ለደም
ለደርግ
ለደቀ
ለደቡብ
ለደብረ
ለደጃዝማች
ለዳርቻው
ለዳኛ
ለዳዊት
ለዳግማዊት
ለዴሞክራሲ
ለድሀ
ለድህነት
ለድሆች
ለድመት
ለድምጹ
ለድርጅቱ
ለድንገተኛ
ለድንግል
ለድኻዎች
ለዶ
ለዶክተሩ
ለጀርመን
ለጀግንነቱ
ለጃንሆይ
ለጃፓን
ለጆሮ
ለገሠ
ለገሰ
ለገበሬ
ለገበሬወች
ለገበሬዎች
ለገበታ
ለገበያ
ለገብርኤል
ለገና
ለገንዘብ
ለገዛ
ለገዳሙ
ለገዳዴ
ለጉም
ለጉበት
ለጉብኝት
ለጉንዳን
ለጉንፋን
ለጊዜ
ለጊዜው
ለጊፋታ
ለጋ
ለጋስ
ለጋሽ
ለጋብቻ
ለጋዜጠኞች
ለጌታ
ለጌታው
ለግል
ለግማሽ
ለግሪክ
ለግብር
ለግብርና
ለግብጽ
ለግብፅ
ለግንባታ
ለግዕዙ
ለግዕዝ
ለግዛቱ
ለግጦሽ
ለጎረቤቱ
ለጎን
ለጐን
ለጓሮ
ለጠላት
ለጠቅላላ
ለጠቅላይ
ለጠጠር
ለጣልያን
ለጣዖት
ለጤቤስ
ለጤና
ለጤንነት
ለጥ
ለጥምቀት
ለጥርስ
ለጥቁር
ለጥቂት
ለጥቅም
ለጥናቱ
ለጥናት
ለጥንታዊ
ለጥፍ
ለጦር
ለጦርነቱ
ለጦርነት
ለጨረሰው
ለጸሎት
ለጸጉር
ለጻድቃን
ለጽሑፍ
ለጽድቅ
ለጾም
ለፈረስ
ለፈረንሣይ
ለፈረንሳይ
ለፈሪ
ለፈርዖን
ለፈጠረው
ለፊልሙ
ለፊት
ለፋርስ
ለፋሲካ
ለፍልስጤማውያን
ለፍርድ
ለፍቅር
ለፍትህ
ለፍየል
ለፍጥረቱ
ለፓናማ
ለፕሬዚዳንትነት
ለፕሬዝዳንትነት
ሉ
ሉሉ
ሉሉቢ
ሉላያ
ሉሌ
ሉል
ሉሙምባ
ሉማ
ሉሲ
ሉሳካ
ሉቃ
ሉቃስ
ሉቃስና
ሉተራን
ሉተር
ሉአላዊነት
ሉኩስ
ሉክ
ሉክሰምበርጊሽ
ሉክሰምበርግ
ሉክሳምቡርግ
ሉዊ
ሉዊስ
ሉዊዚያና
ሉዊያ
ሉዐላዊ
ሉዐላዊነት
ሉዓላዊ
ሉዓላዊነት
ሉዝ
ሉያ
ሉዲም
ሉድ
ሉድቪግ
ሉዶልፍ
ሉጋላንዳ
ሉጋል
ሉጋልባንዳ
ሉጋልባንዳና
ሉጋይድ
ሉግ
ሉግን
ሉግዱስ
ሉጠር
ሊ
ሊሄድ
ሊሆኑ
ሊሆን
ሊለካ
ሊለዋውጥ
ሊል
ሊመለስ
ሊመልስ
ሊመስል
ሊመጣ
ሊሙ
ሊሚትድ
ሊማ
ሊም
ሊሞት
ሊሠራ
ሊረዳ
ሊረዳው
ሊረጋገጥ
ሊሰማ
ሊሰሩ
ሊሰራ
ሊሰጡ
ሊሰጥ
ሊሱባ
ሊሴ
ሊስት
ሊስትሮ
ሊሸነፍ
ሊቀ
ሊቀመንበር
ሊቀመጡ
ሊቀመጥ
ሊቀበለው
ሊቀበሉ
ሊቀበሉት
ሊቀበል
ሊቀየሩ
ሊቀይር
ሊቁ
ሊቃነ
ሊቃውንተ
ሊቃውንቱ
ሊቃውንት
ሊቅ
ሊቅና
ሊቆም
ሊቆች
ሊቆይ
ሊቆጠር
ሊበሉ
ሊበላ
ሊበራል
ሊበር
ሊበን
ሊቢኩስ
ሊቢያ
ሊባሉ
ሊባል
ሊባኖስ
ሊባኖስን
ሊባያ
ሊብያ
ሊቨርፑል
ሊቪንግስተን
ሊተላለፍ
ሊተረጎም
ሊተር
ሊተካ
ሊቱዌኒያ
ሊታሰብ
ሊታወቁ
ሊታወቅ
ሊታዩ
ሊታይ
ሊትመን
ሊትማን
ሊትር
ሊትዌኒያ
ሊነሳ
ሊነብ
ሊነብብ
ሊነክስ
ሊኑክስ
ሊኒያር
ሊን
ሊንከን
ሊንከንን
ሊንክ
ሊንደን
ሊንጎናውያን
ሊንጎኔስ
ሊኖረው
ሊኖሩ
ሊኖሩት
ሊኖራቸው
ሊኖር
ሊከሰት
ሊኩርጉስ
ሊኩድ
ሊካሄድ
ሊካተቱ
ሊክተንስታይን
ሊኾን
ሊወሰድ
ሊወስድ
ሊወክል
ሊወድቅ
ሊወጣ
ሊውል
ሊዘንብ
ሊዝበን
ሊያ
ሊያልፍ
ሊያርፍ
ሊያሳይ
ሊያስተምር
ሊያስተሰርይ
ሊያስከትሉ
ሊያስከትል
ሊያስፋፉት
ሊያንስ
ሊያዩ
ሊያይ
ሊያደርስ
ሊያደርጉ
ሊያደርጉት
ሊያደርግ
ሊያድር
ሊያድነን
ሊያድን
ሊያገለግል
ሊያገኙ
ሊያገኝ
ሊያጣ
ሊይዙ
ሊይዙት
ሊይዝ
ሊዮ
ሊዮናርዶ
ሊዮን
ሊዮፖልድ
ሊዮፖልድቪል
ሊደረስበት
ሊደረግ
ሊደርስ
ሊደርስበት
ሊደርሺፕ
ሊጀመር
ሊገለጥ
ሊገመት
ሊገቡ
ሊገባ
ሊገኙ
ሊገኝ
ሊገዙ
ሊገድለው
ሊገድሉት
ሊገድል
ሊጉ
ሊጉርኛ
ሊጉን
ሊግ
ሊጝ
ሊጠቀም
ሊጠቅም
ሊጠፉ
ሊጠፋ
ሊጣል
ሊጥ
ሊጥል
ሊጻፍ
ሊፈቱ
ሊፈታ
ሊፈጠር
ሊፈጥር
ሊፒት
ላ
ላሁ
ላህ
ላህያ
ላለ
ላለው
ላለፈ
ላለፈው
ላለፉት
ላሉ
ላሉት
ላሊበላ
ላሊበላን
ላላቸው
ላላወቀው
ላልሆኑ
ላልተወሰነ
ላሎ
ላመሉ
ላሚ
ላማ
ላሜድ
ላም
ላምብ
ላሞች
ላሪ
ላርሳ
ላርሳን
ላሳርሽ
ላስ
ላስታ
ላሽክት
ላቀው
ላቅ
ላባ
ላባርና
ላብ
ላብራቶሪ
ላቫል
ላቭ
ላቭሮቭ
ላቲቪያ
ላቲቲውድ
ላቲን
ላትቪያ
ላንበሳ
ላንተ
ላንቺ
ላንካ
ላንዱ
ላንድ
ላንግሏ
ላንግረ
ላኛ
ላከ
ላከች
ላከኝ
ላከው
ላኩ
ላኩልኝ
ላኩት
ላኩዋቸው
ላኪ
ላካቸው
ላክ
ላክነው
ላክን
ላክኸኝ
ላኮኒያ
ላዋይ
ላው
ላውራ
ላዎስ
ላዕላይ
ላዕላይነቱ
ላዕላይነቱን
ላዕላይነት
ላዩ
ላይ
ላይሆን
ላይም
ላይቤሪያ
ላይቭሊሁድ
ላይና
ላይን
ላይኛ
ላይኛው
ላደረገው
ላደረጉት
ላዲን
ላዲኖ
ላድርግ
ላገር
ላጋሽ
ላጋሽን
ላጣሪው
ላፈኛ
ላፍ
ላፍቶ
ላፍቶን
ላፓዝ
ላፕላስ
ሌ
ሌሊቱን
ሌሊት
ሌሊትና
ሌላ
ሌላም
ሌላን
ሌላኛው
ሌላኛውን
ሌላዉ
ሌላው
ሌላውም
ሌላውን
ሌላውንም
ሌላዎች
ሌላዎችም
ሌላዎችን
ሌሎቹ
ሌሎቹም
ሌሎቹን
ሌሎች
ሌሎችም
ሌሎችን
ሌሎችንም
ሌስተር
ሌሶቶ
ሌባ
ሌባና
ሌባን
ሌባው
ሌብነት
ሌብኒትዝ
ሌብኒዝ
ሌቦር
ሌቦች
ሌቪን
ሌቫንት
ሌተና
ሌተናንት
ሌት
ሌኒኒስም
ሌኒኒስት
ሌኒኒዝም
ሌኒን
ሌኒንግራድ
ሌን
ሌክ
ሌዊ
ሌውኪፖስ
ሌዎን
ሌዮኔ
ሌዮን
ሌዲ
ሌጌዎን
ሌጎስ
ል
ልሂቃን
ልሔም
ልመና
ልሙት
ልማት
ልማትና
ልማትን
ልማቶችን
ልማዱ
ልማዳዊ
ልማድ
ልማድና
ልማዶች
ልማዶችን
ልምምድ
ልምምዶች
ልምምዶችን
ልምድ
ልምዶች
ልምዶችን
ልምጭ
ልሣናት
ልሳነ
ልሳናት
ልሳን
ልስልስ
ልቀት
ልቀትን
ልቀቶች
ልቃቂት
ልቅ
ልቅሶ
ልቅሶና
ልቆ
ልበ
ልበልሃ
ልቡ
ልቡና
ልቡን
ልቢ
ልባም
ልባሞች
ልባቸው
ልባችሁ
ልባዊ
ልቤ
ልቤን
ልብ
ልብሰ
ልብሱ
ልብሱም
ልብሱን
ልብሱንም
ልብሳቸውን
ልብሴን
ልብስ
ልብስም
ልብስና
ልብስን
ልብሶች
ልብሶችን
ልብሷን
ልብነ
ልብን
ልብኽ
ልብወለድ
ልቦለድ
ልቦለዶች
ልቦና
ልቧ
ልታዩ
ልታደርጉ
ልትሆን
ልትመጡ
ልትቀዳ
ልትደርቅ
ልናገር
ልኡል
ልከናል
ልከው
ልካ
ልኬት
ልኬቶች
ልኬቶችን
ልክ
ልክክ
ልክፈት
ልክፍት
ልኮ
ልኳል
ልውውጠ
ልውውጥ
ልዑለ
ልዑሉ
ልዑላን
ልዑል
ልዑካን
ልዑክ
ልዕለ
ልዕልት
ልዕልና
ልዝብ
ልየው
ልዩ
ልዩነቱ
ልዩነቱን
ልዩነት
ልዩነትን
ልዩነቶች
ልዩነቶችን
ልይ
ልዮ
ልደታ
ልደት
ልደቷ
ልድያ
ልድያውያን
ልጁ
ልጁም
ልጁን
ልጂቱ
ልጃቸው
ልጃቸውን
ልጃችን
ልጃገረድ
ልጃገረዶች
ልጄ
ልጄን
ልጅ
ልጅህ
ልጅም
ልጅስ
ልጅሽ
ልጅቷን
ልጅነት
ልጅና
ልጅን
ልጅንም
ልጅኽ
ልጅዋ
ልጅዋን
ልጆቹ
ልጆቹም
ልጆቹን
ልጆቻቸው
ልጆቻቸውም
ልጆቻቸውን
ልጆቻችን
ልጆቼ
ልጆች
ልጆችም
ልጆችና
ልጆችን
ልጆችንም
ልጆቿ
ልጆቿን
ልጇ
ልጇም
ልጇን
ልግመኛ
ልግሥና
ልጓም
ልጡ
ልጥ
ልጥፍ
ልፋ
ልፋት
ሎ
ሎሌ
ሎሌና
ሎሌው
ሎሌዎች
ሎሚ
ሎሚና
ሎሜ
ሎምባርዶች
ሎምኒኒ
ሎረንስ
ሎሬት
ሎሬንሶ
ሎሬንዞ
ሎርድ
ሎሳንጅለስ
ሎስ
ሎቦ
ሎቭ
ሎንዶን
ሎንግ
ሎንግቲውድ
ሎንጎ
ሎንጎባርዲ
ሎእ
ሎክ
ሎው
ሎውረንስ
ሎዛ
ሎይን
ሎይድ
ሎጂክ
ሎጅ
ሎጊ
ሎጋሪዝም
ሎግ
ሎጎምቲ
ሎጎስ
ሎጎግራም
ሎጥ
ሏ
ሐ
ሐለብ
ሐለብን
ሐሊብ
ሐላሌ
ሐላብ
ሐመልማል
ሐመር
ሐሙስ
ሐማዚ
ሐምሌ
ሐምራዊ
ሐሣዊ
ሐረ
ሐረሪ
ሐረር
ሐረርን
ሐረርጌ
ሐረግ
ሐረጎች
ሐረፕሼኪ
ሐሩር
ሐራነት
ሐራን
ሐር
ሐርቤ
ሐርብ
ሐሰተኛ
ሐሰተኛዎች
ሐሰት
ሐሳቡን
ሐሳባዊነት
ሐሳብ
ሐሳቦች
ሐሳቦችን
ሐሴት
ሐቅ
ሐበሻ
ሐበሽ
ሐብለ
ሐብታም
ሐብት
ሐቱሳሽ
ሐቱሺሊ
ሐቲ
ሐና
ሐናን
ሐንቲሊ
ሐንቲሊን
ሐኪሙ
ሐኪም
ሐኪሞች
ሐዋ
ሐዋርያ
ሐዋርያት
ሐዋርያትም
ሐዋርያትን
ሐዋርያዊ
ሐዋርያዊት
ሐዋርያው
ሐውልቱ
ሐውልት
ሐውልቶች
ሐውልቶችና
ሐዘን
ሐይማኖት
ሐይቁ
ሐይቅ
ሐይቅን
ሐይቆች
ሐይክ
ሐዲስ
ሐዲድ
ሐጂ
ሐገሪቱ
ሐገራት
ሐገር
ሑ
ሑራውያን
ሑርኛ
ሑዚያ
ሑዚያን
ሒ
ሒሳብ
ሓ
ሓሊዞናውያን
ሓልፋ
ሓምሌ
ሓረግ
ሓርነት
ሓሳብ
ሓሳቦች
ሓበሻ
ሓኖ
ሓኪም
ሓኪሞች
ሓውልቱ
ሓውልቱን
ሓውልት
ሓደ
ሓዲስ
ሓጎስ
ሔ
ሔሩ
ሔት
ሔኖክ
ሔዋን
ሔዋንን
ሔደ
ሔደው
ሔዱ
ሔዶ
ሕ
ሕሊና
ሕልሙን
ሕልም
ሕልውና
ሕልውናው
ሕመም
ሕማም
ሕሽሚ
ሕብረተሰብ
ሕብረት
ሕብረትን
ሕትመት
ሕንዳዊ
ሕንዳውያን
ሕንድ
ሕንድና
ሕንዶች
ሕንጻ
ሕንጻና
ሕንጻው
ሕንጻዎች
ሕንጻዎችን
ሕንፃ
ሕንፃዎች
ሕንፃዎችን
ሕክምና
ሕዋሳት
ሕዋስ
ሕዝቅኤል
ሕዝበ
ሕዝቡ
ሕዝቡም
ሕዝቡን
ሕዝቡንም
ሕዝባቸው
ሕዝባዊ
ሕዝብ
ሕዝብም
ሕዝብና
ሕዝብን
ሕዝቦቹ
ሕዝቦቼ
ሕዝቦች
ሕዝቦችን
ሕያዋን
ሕያው
ሕይወቱ
ሕይወቱን
ሕይወታቸው
ሕይወታቸውን
ሕይወቴ
ሕይወቴና
ሕይወት
ሕይወትም
ሕይወትና
ሕይወትን
ሕይወቷን
ሕይዋን
ሕዳር
ሕገ
ሕገጋት
ሕጉ
ሕጉን
ሕጋዊ
ሕጋዊነት
ሕግ
ሕግም
ሕግና
ሕግን
ሕግጋት
ሕጎች
ሕጻኑን
ሕጻናት
ሕጻን
ሕፃኑ
ሕፃኑን
ሕፃናት
ሕፃናትን
ሕፃን
ሖ
ሖር
መ
መሀላ
መሀል
መሀመድ
መሀንዲስ
መሀንዲሶች
መሀከል
መሃሉ
መሃላ
መሃል
መሃመድ
መሃቪሃረ
መሃቪሃረውን
መሃንዲስ
መሃንዲሶች
መሃንድስ
መሃከል
መሄዱ
መሄዱን
መሄዳቸውን
መሄድ
መሄጃ
መህዙም
መሆኑ
መሆኑና
መሆኑን
መሆኑንም
መሆኑንና
መሆናቸው
መሆናቸውን
መሆናችሁን
መሆኔን
መሆን
መሆንን
መሆኗ
መሆኗን
መለሠው
መለሰ
መለሰለት
መለሰላቸው
መለሰችለት
መለሰው
መለሱ
መለሱለት
መለሳቸው
መለስ
መለስተኛ
መለከት
መለከቶች
መለኪያ
መለኪያዎች
መለካት
መለክ
መለኮታዊ
መለኮታዊት
መለኮት
መለኰታዊ
መለወስ
መለወጥ
መለወጫ
መለዋወጥ
መለዋወጫ
መለየት
መለያ
መለያየት
መለዮ
መለጠፊያ
መለጠፍ
መላ
መላላጫ
መላልሶ
መላመድ
መላምታችን
መላምት
መላምቶች
መላሽ
መላቀቅ
መላእክቱ
መላእክቱን
መላእክት
መላእክትም
መላእክትን
መላኩ
መላክ
መላክተኛ
መላክተኛነት
መላው
መላውን
መላዕክት
መላጣ
መል
መልህቅ
መልመጃ
መልሰው
መልሰውም
መልሱ
መልሱን
መልሳ
መልሳችሁ
መልስ
መልሶ
መልሶም
መልሶች
መልሷል
መልቀቁን
መልቀቂያ
መልቀቅ
መልበስ
መልአከ
መልአኩ
መልአኩም
መልአኩን
መልአክ
መልእክተኛ
መልእክተኛው
መልእክተኛዬን
መልእክተኞች
መልእክቱ
መልእክት
መልእክቶች
መልከ
መልከዓ
መልኩ
መልኩን
መልካ
መልካሙ
መልካሙን
መልካም
መልካምም
መልካምን
መልኬ
መልክ
መልክተኛ
መልክተኛን
መልክተኞች
መልክት
መልክና
መልክአ
መልክዐ
መልክዓ
መልኮች
መልኳ
መልዕክተኛ
መልዕክተኛው
መልዕክተኞች
መልዕክቱ
መልዕክቱን
መልዕክት
መልዕክትን
መልዕክቶች
መልዕክቶችን
መሐለቅ
መሐላ
መሐል
መሐመድ
መሐንዲስ
መሐንዲሶች
መሓረቡን
መሓረቤን
መመለሱን
መመለስ
መመለሻ
መመላለስ
መመላለሻ
መመልከት
መመሥረት
መመረቂያ
መመረት
መመረጥ
መመሪያ
መመሪያዎች
መመሪያዎችን
መመራመር
መመራት
መመርመሪያ
መመርመር
መመስረት
መመስረትን
መመናመን
መመኘት
መመዝገብ
መመደብ
መመገብ
መሙላት
መማሪያ
መማር
መማርያ
መምህሩ
መምህሩን
መምህራን
መምህራንን
መምህር
መምህርነት
መምህርና
መምህሮች
መምረጥ
መምሪያ
መምሪያዎች
መምራት
መምሬ
መምሰል
መምበርቱ
መምታት
መምቻ
መምኅር
መምኅሮች
መምከር
መምጣቱ
መምጣቱን
መምጣታቸውን
መምጣት
መምጣቷን
መሞታቸውን
መሞት
መሞትን
መሞከር
መሠለ
መሠላቸው
መሠረተ
መሠረተው
መሠረቱ
መሠረቱን
መሠረታዊ
መሠረት
መሠራት
መሠከረ
መሢህ
መሢሕ
መሣሪያ
መሣሪያና
መሣሪያው
መሣሪያውን
መሣሪያዎች
መሣሪያዎችን
መሣርያ
መሣፍንት
መሥመር
መሥሪያ
መሥራቱ
መሥራት
መሥራች
መሥራችና
መሥራቾች
መሥርተው
መሥዋዕት
መረቁ
መረቁን
መረቅ
መረባቸውን
መረብ
መረቦች
መረን
መረንሬ
መረዳት
መረዳትና
መረጃ
መረጃና
መረጃን
መረጃው
መረጃውን
መረጃዎች
መረጃዎችን
መረገጫ
መረጋጋት
መረጠ
መረጠች
መረጠው
መረጡ
መረጣ
መረጣቸው
መሪ
መሪብሬ
መሪብታዊ
መሪነት
መሪና
መሪካሬ
መሪወች
መሪዋ
መሪው
መሪዎች
መሪዎችም
መሪዎችና
መሪዎችን
መሪያቸው
መሪያቸውን
መራ
መራመድ
መራራ
መራር
መራቅ
መራቆት
መራባት
መራቸው
መራዊ
መራጭ
መራጮች
መሬቱ
መሬቱን
መሬት
መሬትና
መሬትን
መሬቶች
መሬቶችን
መር
መርሀ
መርሃ
መርሃግብር
መርህ
መርሆ
መርሆተፕሬ
መርሆች
መርሆችን
መርሆዎች
መርሐ
መርማሪ
መርምሮ
መርሰኸምሬ
መርሳቱ
መርስዔ
መርሻ
መርቀው
መርቆሬዎስ
መርበትበት
መርተዋል
መርታለች
መርቷል
መርኅ
መርኆች
መርነፈሬ
መርከበኛ
መርከበኛው
መርከበኞች
መርከቡ
መርከቢቱ
መርከብ
መርከቦች
መርከቦችን
መርከቧ
መርኩሪ
መርካቶ
መርኸፐሬ
መርዋ
መርዓዊ
መርዕድ
መርዛማ
መርዛም
መርዝ
መርየም
መርዳት
መርድ
መርጃ
መርገጫ
መርገጫዎች
መርገጫዎችን
መርጠን
መርጠዋል
መርጠው
መርጡለ
መርጦ
መርጧል
መርጨት
መርፌ
መሮጥ
መሰለ
መሰለሽ
መሰለኝ
መሰለው
መሰላል
መሰላቸው
መሰል
መሰመር
መሰማት
መሰረተ
መሰረተች
መሰረቱ
መሰረቱን
መሰረታቸው
መሰረታዊ
መሰረት
መሰረቶች
መሰራት
መሰርታዊ
መሰቃ
መሰብሰቢያ
መሰብሰብ
መሰናከል
መሰናክል
መሰናክሎች
መሰናዶ
መሰንቆ
መሰንጠቅ
መሰከረ
መሰደድ
መሰጠት
መሲህ
መሲሊም
መሲሕ
መሳ
መሳለቂያ
መሳል
መሳም
መሳሪያ
መሳሪያወች
መሳሪያዎች
መሳሪያዎችን
መሳርያ
መሳሳት
መሳቢያ
መሳብ
መሳተፍ
መሳካት
መሳያ
መሳይ
መሳፍርት
መሳፍንቱ
መሳፍንት
መስ
መስህብ
መስህብነቱ
መስህቦች
መስለ
መስለም
መስለው
መስላ
መስል
መስሎ
መስሎሽ
መስሎት
መስሏት
መስሏቸው
መስመሩ
መስመሩን
መስመር
መስመርና
መስመርን
መስመሮቹ
መስመሮች
መስመሮችን
መስማማቱን
መስማማት
መስማት
መስረቅ
መስሪያ
መስሪያነት
መስራቱ
መስራት
መስራትን
መስራቹ
መስራች
መስራችና
መስራቾች
መስርተዋል
መስርተው
መስርቶ
መስርቷል
መስቀለኛ
መስቀሉ
መስቀሉን
መስቀሉንም
መስቀል
መስቀልና
መስቃን
መስበር
መስተንግዶ
መስተካከል
መስተዋት
መስተዳደር
መስተዳድር
መስተዳድሮች
መስተጋብር
መስተጓጎል
መስተጻምር
መስታወት
መስኖ
መስከረም
መስኩ
መስኪአጝ
መስክ
መስክሯል
መስኮብ
መስኮብኛ
መስኮት
መስኮቶች
መስኮች
መስዋእትነት
መስዋዕት
መስዋዕትነት
መስዑድ
መስጂድ
መስገድ
መስጊድ
መስጊዶች
መስጠቱ
መስጠቱን
መስጠት
መስጠትን
መስጫ
መስጴጦምያ
መስጴጦምያን
መስፈሪያ
መስፈርቱ
መስፈርት
መስፈርቶች
መስፈርቶችን
መስፋፋቱን
መስፋፋት
መስፋፋትን
መስፍን
መሶብ
መሸርሸር
መሸሻ
መሸሽ
መሸነፍ
መሸከም
መሸጥ
መሸጫ
መሸፈን
መሸፈኛ
መሺካ
መሻሻል
መሻገር
መሽ
መሽቶ
መሽጎ
መሾም
መቀለብ
መቀላቀል
መቀሌ
መቀመጥ
መቀመጫ
መቀመጫቸው
መቀመጫቸውን
መቀመጫው
መቀመጫውን
መቀመጫዎች
መቀምር
መቀስቀስ
መቀበሉ
መቀበሉን
መቀበል
መቀበሪያው
መቀበያ
መቀባት
መቀነስ
መቀነስና
መቀነት
መቀንጠስ
መቀዛቀዝ
መቀየሪያ
መቀየር
መቀደስ
መቀጠል
መቀጠያ
መቁረጥ
መቁረጫ
መቁጠሪያ
መቁጠር
መቃ
መቃም
መቃብሩ
መቃብሩን
መቃብር
መቃብሮች
መቃወም
መቃጠል
መቃጠሪያ
መቃጣት
መቄዶን
መቄዶንያ
መቅሠፍት
መቅረብ
መቅረት
መቅረጽ
መቅዘን
መቅደላ
መቅደሱ
መቅደሱን
መቅደስ
መቅደስም
መቅደስና
መቅደስን
መቅደሶች
መቅደጃ
መቅዳት
መቅጃ
መቅጠር
መቅጫ
መቆለፊያ
መቆሚያ
መቆም
መቆምን
መቆራረጥ
መቆርቆሩ
መቆየቱ
መቆየት
መቆጠሩ
መቆጠሪያ
መቆጠብ
መቆጣጠሪያ
መቆጣጠር
መቋሚያ
መቋረጥ
መቋቋም
መቋጠር
መቐለ
መበለት
መበላሸት
መበተን
መበታተን
መባ
መባሉ
መባል
መባረር
መባባስ
መባቻ
መባዓ
መባዛት
መብለጥ
መብላት
መብል
መብረር
መብረቅ
መብራት
መብራትን
መብራቶች
መብቱ
መብቱን
መብታቸው
መብታቸውን
መብት
መብትና
መብትን
መብቶች
መብቶችና
መብቶችን
መብዛት
መተላለፉ
መተላለፊያ
መተላለፍ
መተማ
መተማመን
መተርጎም
መተባበር
መተንበይ
መተንፈስ
መተኛት
መተከል
መተኪያ
መተካት
መተኮስ
መተው
መተዳደሪያ
መተግበሪያ
መተግበር
መቱ
መታ
መታሰሪያው
መታሰር
መታሰቢያ
መታሰቢያነት
መታተም
መታቸው
መታወቂያ
መታወቂያና
መታወቂያው
መታወቂያዎች
መታወቅ
መታወክ
መታው
መታዘዝ
መታየት
መታገል
መታገስ
መታጠቢያ
መታጠብ
መት
መትረየስ
መትቶ
መትጋት
መቶ
መቶኛ
መቸ
መቸም
መቻሉ
መቻሉን
መቻል
መቻቻል
መቼ
መቼም
መቼት
መች
መኃል
መነመነ
መነሳት
መነሻ
መነሻነት
መነሻና
መነሻው
መነሻዎች
መነቃቃት
መነን
መነኩሴ
መነኮሰች
መነኮሳት
መነኮሳትን
መነኮሴ
መነኮስ
መነጋገሪያ
መነጋገር
መነጋገርያ
መነጣጠል
መነጽር
መነጽሮች
መኒ
መና
መናኸሪያ
መናወጥ
መናገሩ
መናገር
መናገሻ
መናፈሻ
መናፍስት
መናፍስትን
መናፍቃን
መናፍቃንን
መናፍቅ
መን
መንስኤ
መንስዔ
መንሸራተት
መንቀሳቀስ
መንቀጥቀጥ
መንበረ
መንበሩ
መንበር
መንበሮች
መንቱሆተፒ
መንቱሆተፕ
መንታ
መንትሌ
መንከባከብ
መንኩሳ
መንካት
መንኮራኩር
መንኮራኲር
መንኲራኩር
መንዝ
መንደሩ
መንደሩን
መንደር
መንደርደሪያ
መንደሮች
መንደሮችን
መንደፍ
መንዳት
መንጃ
መንገሪያ
መንገር
መንገሻ
መንገደኛ
መንገደኛው
መንገደኞች
መንገደኞችን
መንገደኞችንና
መንገዱ
መንገዱን
መንገዳቸውን
መንገድ
መንገድህን
መንገድም
መንገድና
መንገድን
መንገዶች
መንገዶችን
መንጋ
መንጋዎች
መንጋጋ
መንግ
መንግሥተ
መንግሥቱ
መንግሥቱም
መንግሥቱን
መንግሥታት
መንግሥታትና
መንግሥታትን
መንግሥታቸው
መንግሥታዊ
መንግሥት
መንግሥትም
መንግሥትና
መንግሥትን
መንግሥቶች
መንግስተ
መንግስቱ
መንግስቱን
መንግስታት
መንግስታትን
መንግስታቸው
መንግስታቸውን
መንግስታዊ
መንግስት
መንግስትና
መንግስትን
መንግስቶች
መንጠብጠብ
መንፈሱ
መንፈሳዊ
መንፈስ
መንፈስን
መንፈቅለ
መኖ
መኖሩ
መኖሩን
መኖሪያ
መኖሪያቸው
መኖሪያቸውን
መኖሪያው
መኖሪያዎች
መኖራቸው
መኖራቸውን
መኖር
መኖርን
መኖርያ
መኖኩሴ
መኝታ
መከላከል
መከላከያ
መከልከል
መከረው
መከሩት
መከራ
መከራን
መከራዋን
መከራውን
መከር
መከሰት
መከበር
መከተል
መከተብ
መከታ
መከታተል
መከንጃ
መከፈል
መከፈት
መከፋፈል
መኩሪያ
መኩርያ
መኪና
መኪናን
መኪናው
መኪናዎች
መኪናዎችን
መኪንሊ
መኪኖች
መካ
መካሄድ
መካሪ
መካነ
መካኒካል
መካን
መካከለኛ
መካከለኛው
መካከል
መካከልም
መካካል
መካድ
መክሊት
መክሰስ
መክብብ
መክተቢያ
መክተቢያዎች
መክተብ
መክተት
መክተፍ
መክዘ
መክፈል
መክፈት
መክፈቻ
መክፈያ
መኮነን
መኮንን
መኮንንን
መኮንኖች
መኮንኖችና
መኮንኖችን
መኰንን
መኳንንቱ
መኳንንቱም
መኳንንቱና
መኳንንት
መኳንንትና
መኳንንትን
መኳንንቶች
መኳያ
መኸር
መኻል
መኻከል
መኾኑ
መኾኑን
መኾናችኹ
መኾን
መወለድ
መወሐድ
መወሰኑን
መወሰን
መወሰኛ
መወሰድ
መወያየት
መወዳደር
መወገድ
መወጣጫ
መዋ
መዋል
መዋሸት
መዋቅራዊ
መዋቅር
መዋቅሮች
መዋቅሮችን
መዋኛ
መዋእል
መዋዕሉ
መዋዕሉም
መዋዕላቸው
መዋዕል
መዋዕሎች
መዋደድ
መዋጋት
መዋጮ
መውለድ
መውረድ
መውሰድ
መውደቅ
መውደድ
መውጋት
መውጣቱን
መውጣት
መውጣትን
መውጫ
መዐከል
መዓልቲ
መዓልት
መዓርገ
መዓት
መዓዛ
መዘምራን
መዘርዘር
መዘርጋት
መዘክር
መዘዙ
መዘዝ
መዘጋት
መዘጋጀት
መዘግየት
መዛሙርቱ
መዛሙርቱም
መዛሙርቱን
መዛሙርቱንም
መዛሙርቴ
መዛሙርት
መዛሙርትኽ
መዛባት
መዛወር
መዛግብት
መዛግብትና
መዝ
መዝሀብ
መዝለል
መዝሙረ
መዝሙሩ
መዝሙር
መዝሙሮች
መዝናናት
መዝናኛ
መዝገበ
መዝገበቃላት
መዝገብ
መዝገቦች
መዝገቦችም
መዝገቦችን
መዝጊያ
መዝጋት
መዝግቦ
መዝግቦት
መዝግቧል
መዝፈን
መዝፈንና
መዞር
መዠመሪያ
መዥገር
መያዙ
መያዙን
መያዛቸው
መያዝ
መያዣ
መያዣዎች
መያያዣ
መይ
መደመር
መደምደሚያ
መደረጉ
መደረጉን
መደረግ
መደርደር
መደበቅ
መደበኛ
መደበኛው
መደቡ
መደባለቅ
መደባት
መደብ
መደብር
መደቦች
መደነስ
መደገፍ
መዲና
መዳረሻ
መዳብ
መዳኒቶች
መዳን
መዳከም
መዳፍ
መድሀኒቱ
መድሀኒት
መድሃኒ
መድሃኒታዊ
መድሃኒት
መድሃኒቶች
መድሃኒቶችን
መድሃኔ
መድህን
መድልዎ
መድሐኒት
መድማት
መድረሱን
መድረስ
መድረሻ
መድረክ
መድረክን
መድረኮች
መድረኮችን
መድብለ
መድብል
መድኀኒት
መድኀኔ
መድኃኒታችን
መድኃኒት
መድኃኒቶች
መድኃኒቶችን
መድኃኒዓለም
መድኃኔ
መድኃኔዓለም
መድኅን
መድን
መድየንም
መድፈር
መድፍ
መድፎች
መዶሻ
መጀመሩን
መጀመሪያ
መጀመሪያው
መጀመራቸውን
መጀመር
መጀመርያ
መጀመርያው
መጀመርያውን
መገለል
መገለጥ
መገለጫ
መገለጫዎች
መገልበጥ
መገልገያ
መገልገያዎች
መገመት
መገረዝ
መገርሳ
መገበያያ
መገባደጃ
መገናኘት
መገናኛ
መገንባት
መገንዘብ
መገንጠል
መገንጠልን
መገኘቱ
መገኘቱን
መገኘታቸው
መገኘት
መገኘትን
መገኛ
መገዛት
መገደል
መጉመጃ
መጉዳት
መጋለጥ
መጋረጃ
መጋራት
መጋቢ
መጋቢት
መጋባት
መጋዝ
መጋገሪያ
መጋገር
መጋጠሚያ
መጋፈጥ
መግለጫ
መግለጫን
መግለጫው
መግለጫዎች
መግለጽ
መግለፅ
መግል
መግቢያ
መግባባት
መግባቱ
መግባቱን
መግባት
መግነጢሳዊ
መግነጢስ
መግዛት
መግዣ
መግደላዊት
መግደል
መግጠም
መግፋት
መጎብኘት
መጎጥ
መጓዝ
መጓጓቱን
መጓጓዣ
መጠለያ
መጠላለፍ
መጠሪያ
መጠሪያው
መጠሪያዎች
መጠራት
መጠርያ
መጠቀሙ
መጠቀሙን
መጠቀሚያ
መጠቀም
መጠቀምና
መጠቀምን
መጠበቂያ
መጠበቅ
መጠነ
መጠነኛ
መጠኑ
መጠኑም
መጠኑን
መጠናቸው
መጠናናት
መጠናከር
መጠን
መጠንቀቅ
መጠንና
መጠንን
መጠኖች
መጠየቅ
መጠይቅ
መጠጊያ
መጠጣት
መጠጥ
መጠጥን
መጠጦች
መጡ
መጣ
መጣሁ
መጣህ
መጣላቸው
መጣል
መጣስ
መጣበት
መጣች
መጣና
መጣን
መጣኹ
መጣያ
መጣጤ
መጣጥፉን
መጣጥፍ
መጣጥፎች
መጣጥፎችን
መጣጭ
መጥለቅለቅ
መጥምቁ
መጥረቢያ
መጥራት
መጥቀስ
መጥበስ
መጥበሻ
መጥተኽ
መጥተዋል
መጥተው
መጥተውም
መጥታ
መጥቶ
መጥቷል
መጥቷልና
መጥቻለሁ
መጥቼ
መጥፋት
መጥፎ
መጦር
መጨመር
መጨመርና
መጨመርን
መጨረስ
መጨረሻ
መጨረሻና
መጨረሻው
መጨረሻውም
መጨረሻውን
መጨረቫና
መጨፍጨፍ
መጪው
መጫን
መጫወት
መጫወቻ
መጫፈ
መጭ
መጭው
መጸለይ
መጻህፍት
መጻህፍትን
መጻሕፍቱ
መጻሕፍቱን
መጻሕፍት
መጻሕፍትና
መጻሕፍትን
መጻፊያ
መጻፍ
መጻፍና
መጽሀፉ
መጽሀፍ
መጽሀፍት
መጽሀፎች
መጽሀፎችን
መጽሃፉ
መጽሃፉን
መጽሃፍ
መጽሃፍት
መጽሃፎች
መጽሄት
መጽሐፈ
መጽሐፉ
መጽሐፉን
መጽሐፋቸው
መጽሐፍ
መጽሐፍም
መጽሐፍት
መጽሐፍትን
መጽሐፍን
መጽሐፎች
መጽሓፋቸው
መጽሓፍ
መጽሓፍት
መጽሔት
መጽሔቶች
መጽናኛ
መጾም
መፀው
መፃህፍት
መፃሕፍት
መፃፍ
መፅሀፉ
መፅሀፍ
መፅሃፍ
መፅሄት
መፅሐፍ
መፅሔት
መፈለጊያ
መፈለግ
መፈራረቅ
መፈተሽ
መፈተኛ
መፈንቅለ
መፈንቅል
መፈንዳት
መፈክር
መፈጠሩን
መፈጠር
መፈጸሚያ
መፈጸም
መፍለቂያ
መፍረስ
መፍራት
መፍሰስ
መፍቀድ
መፍታት
መፍትሄ
መፍትሄዎች
መፍትሄዎችን
መፍትሔ
መፍቻ
መፍጠሩ
መፍጠሪያ
መፍጠር
ሙ
ሙሀመድ
ሙሃመድ
ሙህራን
ሙሉ
ሙሉቀን
ሙሉነህ
ሙሉነት
ሙሉው
ሙሉውን
ሙሉጌታ
ሙላቱ
ሙላት
ሙላቶች
ሙላው
ሙል
ሙልሙል
ሙልጭ
ሙሐመድ
ሙሐማድ
ሙምባይ
ሙርሲ
ሙርሲሊ
ሙርሲኛ
ሙርቲ
ሙርጥ
ሙሳ
ሙሳም
ሙሴ
ሙሴም
ሙሴና
ሙሴን
ሙስሊሙ
ሙስሊሙን
ሙስሊም
ሙስሊሞች
ሙስሊሞችን
ሙስታፋ
ሙስና
ሙስዓብ
ሙስዓብን
ሙሶሊኒ
ሙሶሎኒ
ሙሽሪት
ሙሽሪኮች
ሙሽራ
ሙሽራው
ሙሽካውያን
ሙሾ
ሙቀቱ
ሙቀት
ሙቀጫ
ሙቅ
ሙባሊት
ሙባራክ
ሙተቂ
ሙታን
ሙታንን
ሙት
ሙኒክ
ሙን
ሙንዱ
ሙአለ
ሙአማር
ሙከራ
ሙከራወች
ሙከራው
ሙከራውን
ሙከራዎች
ሙከራዎችን
ሙኪሽ
ሙዋታሊ
ሙዚቀኛ
ሙዚቀኞች
ሙዚቃ
ሙዚቃን
ሙዚቃዊ
ሙዚቃው
ሙዚቃውን
ሙዚቃዎች
ሙዚቃዎችን
ሙዚየም
ሙዚየሞች
ሙዝ
ሙያ
ሙያተኞች
ሙያቸውን
ሙያን
ሙያዊ
ሙያው
ሙያውን
ሙያዎች
ሙጃ
ሙጃሂድ
ሙጋቤ
ሙግት
ሙጦሊብ
ሙጫ
ሙፍቲ
ሚ
ሚሊ
ሚሊሜትር
ሚሊሻ
ሚሊሻዎች
ሚሊኒየም
ሚሊየን
ሚሊዮን
ሚሊዮኖች
ሚላን
ሚላኖ
ሚሌሲያን
ሚሌኒየም
ሚል
ሚልተን
ሚልክ
ሚልክያስ
ሚልየን
ሚልዮን
ሚሚ
ሚሜ
ሚሥጥረ
ሚሩጸ
ሚሪና
ሚሪያም
ሚሲሲፒ
ሚሲዮናዊ
ሚሲዮን
ሚሲዮኖች
ሚሳኤል
ሚሳኤሎች
ሚሳይል
ሚስማር
ሚስተር
ሚስቱ
ሚስቱም
ሚስቱን
ሚስታቸው
ሚስታቸውን
ሚስቴ
ሚስት
ሚስትህ
ሚስትህን
ሚስትና
ሚስትን
ሚስቶቻቸው
ሚስቶች
ሚስዮናውያን
ሚስዮን
ሚስጥራዊ
ሚስጥር
ሚሻ
ሚሼል
ሚሾ
ሚባሉ
ሚታኒ
ሚቸል
ሚኒ
ሚኒሊክ
ሚኒስተር
ሚኒስቴሩ
ሚኒስቴሩን
ሚኒስቴር
ሚኒስቴርነት
ሚኒስቴሮች
ሚኒስትሩ
ሚኒስትሩን
ሚኒስትር
ሚኒስትርነት
ሚኒስትሮች
ሚኒስትሮችና
ሚና
ሚናስ
ሚናዎች
ሚን
ሚንስቴር
ሚንስትር
ሚንስትርነት
ሚንግ
ሚካሂል
ሚካኢሎ
ሚካኤል
ሚካኤልም
ሚካኤልና
ሚካኤልን
ሚካኤሎ
ሚካያ
ሚክያስ
ሚዛኑ
ሚዛኑን
ሚዛናዊ
ሚዛን
ሚዛንን
ሚያ
ሚያዚያ
ሚያዝያ
ሚዲ
ሚዲያ
ሚዲያን
ሚዲያዎች
ሚዳቋ
ሚድራሽ
ሚድያ
ሚዶ
ሚጌል
ሚግ
ሚግማቅ
ሚጥሚጣ
ሚፔላ
ማ
ማህሙድ
ማህበረ
ማህበረሰቡ
ማህበረሰቡን
ማህበረሰባዊ
ማህበረሰብ
ማህበረሰብን
ማህበረሰቦች
ማህበረሰቦችን
ማህበሩ
ማህበራት
ማህበራዊ
ማህበራዊና
ማህበር
ማህበርን
ማህተም
ማህደረ
ማህደር
ማህዲ
ማህፀን
ማህፉዝ
ማለቂያ
ማለቱ
ማለቱን
ማለታቸው
ማለቴ
ማለት
ማለትም
ማለትን
ማለዳ
ማለዳም
ማለፉን
ማለፊያ
ማለፍ
ማሊ
ማሊክ
ማላዊ
ማላይኛ
ማላጅ
ማሌ
ማሌኛ
ማሌዥያ
ማል
ማልማት
ማልቀስ
ማልታ
ማልኮም
ማልደው
ማልዲቭስ
ማልጥጥቃዊ
ማልፎይ
ማልፎይን
ማሎቲ
ማሎት
ማሕበረሰብ
ማሕበረሰቦች
ማሕበር
ማሕተም
ማሕፀን
ማመላለሻ
ማመልከት
ማመልከቻ
ማመስገን
ማመን
ማመንጫ
ማመንጫዎች
ማሙሽ
ማሚ
ማማ
ማማረር
ማማሰል
ማማት
ማማከር
ማማዎች
ማምለክ
ማምለጥ
ማምሉክ
ማምረት
ማምረቻ
ማምጣት
ማሞ
ማሞቅ
ማሟላት
ማሟያ
ማሠልጠን
ማሠልጠኛ
ማሠራጫ
ማሠብ
ማረሚያ
ማረም
ማረስ
ማረሻ
ማረን
ማረኝ
ማረከ
ማረከና
ማረከው
ማረኩ
ማረኩት
ማረጃዋን
ማረጋገጥ
ማረጋገጫ
ማረፊያ
ማረፊያው
ማረፊያዎች
ማሩ
ማሩን
ማሩኝ
ማሪ
ማሪን
ማሪኖ
ማሪኢፖል
ማሪያ
ማሪያም
ማሪያምን
ማሪያና
ማሪዮ
ማራ
ማራቶን
ማራኪ
ማራዘሚያ
ማራዶና
ማሬኖ
ማር
ማርሊ
ማርልኝ
ማርሱስ
ማርሲ
ማርስ
ማርሻል
ማርሽ
ማርቆስ
ማርቆስና
ማርቆስን
ማርባት
ማርቭል
ማርቱ
ማርቲን
ማርታ
ማርች
ማርከስ
ማርከው
ማርኩስ
ማርኬስ
ማርክ
ማርክሲስም
ማርክሲስት
ማርክስ
ማርኮ
ማርኮሚር
ማርኮኒ
ማርያም
ማርያምም
ማርያምና
ማርያምን
ማርያምንና
ማርዬ
ማርዱክ
ማርጋሬት
ማሰልጠን
ማሰልጠኛ
ማሰማት
ማሰሪያ
ማሰሪያው
ማሰራት
ማሰራጨት
ማሰራጫ
ማሰራጫዎች
ማሰር
ማሰሮ
ማሰባሰብ
ማሰብ
ማሲንቆ
ማሲፍ
ማሳ
ማሳለፍ
ማሳመን
ማሳሰቢያ
ማሳተም
ማሳቹሴትስ
ማሳካት
ማሳወቂያ
ማሳወቅ
ማሳየት
ማሳያ
ማሳይ
ማሳደድ
ማሳደጊያ
ማሳደግ
ማሳጠር
ማስላት
ማስመለስ
ማስመዝገብ
ማስረከብ
ማስረዳት
ማስረጃ
ማስረጃዎች
ማስሩቅ
ማስቀመጥ
ማስቀመጫ
ማስቆም
ማስተላለፊያ
ማስተላለፍ
ማስተማሪያነት
ማስተማር
ማስተማርያ
ማስተር
ማስተርስ
ማስተናገድ
ማስተካከል
ማስተካከያ
ማስተዋል
ማስተዋወቅ
ማስተዳደር
ማስታወስ
ማስታወሻ
ማስታወሻን
ማስታወሻዎች
ማስታወቂያ
ማስታወቂያዎች
ማስታወቂያዎችን
ማስታገሻ
ማስነሳት
ማስከበር
ማስክ
ማስወገድ
ማስወገጃ
ማስወጣት
ማስገባት
ማስገኘት
ማስገደድ
ማስጠበቅ
ማስጠንቀቂያ
ማስፈራሪያ
ማስፈንጠር
ማስፈጸም
ማስፋፋት
ማሸነፉ
ማሸነፍ
ማሻሻል
ማሻሻያ
ማሻሻያዎች
ማሻሻያዎችን
ማሽላ
ማሽቆልቆል
ማሽተት
ማሽን
ማሽንን
ማሽኖች
ማቀዝቀዣ
ማቁላላት
ማቃጠል
ማቅ
ማቅለጥ
ማቅለጫ
ማቅረብ
ማቆሚያ
ማቆም
ማቆር
ማቆየት
ማቆያ
ማቋረጥ
ማቋረጫ
ማቋቋሚያ
ማቋቋም
ማበልጸግ
ማበረታታት
ማበረታቻ
ማበርከት
ማበጥ
ማቡግ
ማባረር
ማባከን
ማባዛት
ማባዛትን
ማብላት
ማብረድ
ማብሪያ
ማብራሪያ
ማብራራት
ማብሰል
ማብቂያ
ማብቃት
ማብዛት
ማተሚያ
ማታ
ማታለል
ማቴ
ማቴዎስ
ማቴዎስም
ማቴዎስና
ማት
ማትረፍ
ማትሪክስ
ማትካል
ማትያስ
ማቻከል
ማኀበራዊ
ማኀበር
ማኅበረ
ማኅበረሰብ
ማኅበረሰቦች
ማኅበሩ
ማኅበሩን
ማኅበራት
ማኅበራዊ
ማኅበር
ማኅበርም
ማኅበርን
ማኅተመ
ማኅተም
ማኅተሞች
ማኅደረ
ማኅደር
ማነሳሳት
ማነስ
ማነው
ማነፅ
ማኑ
ማኑስ
ማኑኤል
ማኒ
ማኒላ
ማኒሽቱሹ
ማኒኪስም
ማናማልቴል
ማናቸው
ማናቸውም
ማናቸውንም
ማናጓ
ማናፈሻ
ማኔቶን
ማኔጅመንት
ማኔጦን
ማን
ማንም
ማንምም
ማንሳት
ማንቀላፋት
ማንበብ
ማንበብና
ማንተክተክ
ማንቸስተር
ማንችስተር
ማንነቱ
ማንነቱን
ማንነታቸው
ማንነታቸውን
ማንነት
ማንነትን
ማንን
ማንንም
ማንኛው
ማንኛውም
ማንኛውንም
ማንኪያ
ማንዴላ
ማንዴልብሮት
ማንጋ
ማንጋጠጥ
ማንግ
ማንጎ
ማንጓጓቱን
ማኖር
ማእረጉን
ማእረግ
ማእበል
ማእከላት
ማእከላዊ
ማእከል
ማእዘን
ማእድ
ማእድን
ማኦ
ማከማቻ
ማከም
ማከናወን
ማከዶን
ማከፋፈያ
ማካ
ማካሄድ
ማካተት
ማካካሻ
ማካው
ማካፈል
ማኬባ
ማክ
ማክሊን
ማክሚላን
ማክሮን
ማክሰኞ
ማክስ
ማክስዌል
ማክበር
ማክታብ
ማክዶናልድ
ማክፈር
ማኮብኮቢያ
ማወቁ
ማወቂያ
ማወቅ
ማወቅና
ማዊ
ማዋሃድ
ማዋል
ማዋስ
ማዋዕል
ማው
ማውረድ
ማውራት
ማውሮ
ማውስ
ማውንባተን
ማውጣት
ማውጫ
ማዕረጉ
ማዕረጉን
ማዕረጋቸውን
ማዕረግ
ማዕረግን
ማዕረጎች
ማዕርግ
ማዕቀብ
ማዕቀቦች
ማዕቀፍ
ማዕበሉን
ማዕበል
ማዕበሎች
ማዕከለኛ
ማዕከሉ
ማዕከላት
ማዕከላዊ
ማዕከላዊነት
ማዕከል
ማዕከልነት
ማዕከልና
ማዕከሎች
ማዕዘኑ
ማዕዘናት
ማዕዘን
ማዕዘኖቹ
ማዕዘኖች
ማዕድ
ማዕድናት
ማዕድን
ማዕድኖች
ማዖሪ
ማዘርስ
ማዘንጊያ
ማዘንጊያም
ማዘንጊያን
ማዘዙን
ማዘዝ
ማዘጋጀት
ማዘጋጃ
ማዞሪያ
ማየ
ማየት
ማያ
ማያያዝ
ማያያዣ
ማይ
ማይሌ
ማይል
ማይልስ
ማይን
ማይክ
ማይክል
ማይክሮ
ማይክሮሶፍት
ማይጨው
ማደሪያ
ማደራጀት
ማደር
ማደናገሪያው
ማደን
ማደግ
ማዲሰን
ማዳመጥ
ማዳበር
ማዳን
ማዳከም
ማዳይ
ማዳጋስካር
ማዴ
ማድረስ
ማድረጉ
ማድረጉን
ማድረጋቸው
ማድረግ
ማድረግና
ማድረግን
ማድሪድ
ማድነቅ
ማዶ
ማጀቢያ
ማጀት
ማጄላን
ማጅራት
ማጆር
ማገልገል
ማገናኘት
ማገዶ
ማገጃ
ማገገሚያ
ማጉረስ
ማጉስ
ማጉያ
ማጊር
ማጋል
ማጋነን
ማጋኖ
ማግ
ማግለል
ማግሥት
ማግስት
ማግባት
ማግኑስ
ማግኒዥየም
ማግኔት
ማግኘቱ
ማግኘት
ማግኛ
ማግኝት
ማጎልበት
ማጎር
ማጎግ
ማጓጓዝ
ማጓጓዣ
ማጠራቀሚያ
ማጠራቀም
ማጠር
ማጠቃለያ
ማጠብ
ማጠናከር
ማጣሪያ
ማጣራት
ማጣቀሻ
ማጣቀሻዎች
ማጣት
ማጥመድ
ማጥቃት
ማጥበቅ
ማጥናት
ማጥፊያ
ማጥፋቱ
ማጥፋት
ማጫ
ማጫወቻ
ማጭበርበር
ማጭድ
ማጽዳት
ማፋጨት
ማፍረስ
ማፍራት
ማፍሰስ
ማፑቶ
ሜ
ሜልካ
ሜም
ሜሪ
ሜሪላንድ
ሜሪዳ
ሜርኩሪ
ሜሮዳክ
ሜሲ
ሜተር
ሜታ
ሜታል
ሜትር
ሜትሮ
ሜትሮች
ሜትሮፖሊታን
ሜኒስ
ሜናኽም
ሜን
ሜካኒካል
ሜካኒክስ
ሜክሲካዊ
ሜክሲኮ
ሜክሲኮን
ሜየር
ሜይ
ሜይል
ሜይን
ሜዲተራኒያን
ሜዲትራኒያን
ሜዲቺ
ሜዲካል
ሜዳ
ሜዳሊያ
ሜዳማ
ሜዳው
ሜዳዎች
ሜዳዎችን
ሜዳይ
ሜድቬዴቭ
ሜድትራኒያን
ሜዶን
ሜጀር
ሜጄር
ሜጋ
ም
ምሁሩ
ምሁራን
ምሁራኖች
ምሁራዊ
ምሁር
ምህረቱ
ምህረት
ምህረትን
ምህንድስና
ምህንድስናና
ምህንድስናን
ምህዋር
ምህዳራዊ
ምህዳር
ምህጻረ
ምላሱ
ምላሱን
ምላስ
ምላሷ
ምላሽ
ምላጭ
ምልልስ
ምልምሎች
ምልከታ
ምልክቱ
ምልክቱም
ምልክቱን
ምልክት
ምልክትም
ምልክትና
ምልክትን
ምልክቶቹ
ምልክቶች
ምልክቶችና
ምልክቶችን
ምልጃ
ምሑር
ምሕረት
ምሕረትን
ምሣሌ
ምሥረታ
ምሥራቁ
ምሥራቃዊ
ምሥራቅ
ምሥራቅና
ምሥር
ምሥክሮች
ምሥጢራዊ
ምሥጢር
ምረቃ
ምሩቅ
ምራቅ
ምርመራ
ምርመራው
ምርመራዎች
ምርምር
ምርምርና
ምርምሮች
ምርቃት
ምርቱ
ምርቱን
ምርታማ
ምርታማነት
ምርት
ምርትና
ምርትን
ምርቶች
ምርቶችን
ምርከኞች
ምርኩዙን
ምርኩዝ
ምርኮ
ምርኮኞች
ምርጡ
ምርጥ
ምርጫ
ምርጫን
ምርጫዋ
ምርጫው
ምርጫውን
ምርጫዎች
ምርጫዎችን
ምሰሶ
ምሰሶዎች
ምሳ
ምሳሌ
ምሳሌው
ምሳሌዎች
ምሳሌዎችን
ምሳሌያዊ
ምሳው
ምስ
ምስሉ
ምስሉን
ምስል
ምስልና
ምስልን
ምስሎች
ምስሎችን
ምስረታ
ምስራቃዊ
ምስራቅ
ምስር
ምስስል
ምስኪኑ
ምስኪን
ምስክር
ምስክርነቱን
ምስክርነት
ምስክሮች
ምስክሮችን
ምስጉን
ምስጋና
ምስጋናን
ምስጢሩን
ምስጢራዊ
ምስጢር
ምስጢሮች
ምስጥ
ምሽት
ምሽጉን
ምሽግ
ምሽጎች
ምሽጎችን
ምቀኛ
ምቀኝነትን
ምታ
ምታት
ምት
ምትኩ
ምትኬ
ምትክ
ምቹ
ምች
ምቾት
ምኅረት
ምኋር
ምነው
ምኑ
ምኑን
ምኒሊክ
ምኒልክ
ምኒልክም
ምኒልክና
ምኒልክን
ምና
ምናሌ
ምናልባት
ምናልባትም
ምናሴ
ምናባዊ
ምናን
ምኔ
ምን
ምንሊክ
ምንም
ምንምን
ምንስ
ምንባብ
ምንትዋብ
ምንቸት
ምንነቱ
ምንነት
ምንንም
ምንኛ
ምንአልባትም
ምንዛሪ
ምንዳ
ምንድር
ምንድነው
ምንድን
ምንጃር
ምንጊዜ
ምንጊዜም
ምንግዜም
ምንጣፍ
ምንጩ
ምንጭ
ምንጭም
ምንጭና
ምንጭን
ምንጮች
ምንጮችን
ምኞት
ምኢን
ምእመናን
ምእራብ
ምእራፍ
ምእተ
ምእት
ምከረው
ምከር
ምኩራብ
ምክሩ
ምክር
ምክርና
ምክሮች
ምክትላቸው
ምክትል
ምክነት
ምክኒያቱም
ምክኒያት
ምክንየት
ምክንያቱ
ምክንያቱም
ምክንያቱን
ምክንያታዊ
ምክንያት
ምክንያትም
ምክንያቶች
ምኵራብ
ምዕ
ምዕመናን
ምዕራቡ
ምዕራባዊ
ምዕራባዊው
ምዕራባውያን
ምዕራብ
ምዕራፍ
ምዕራፍና
ምዕራፎች
ምዕተ
ምዕት
ምዕጤ
ምዝገባ
ምየንማ
ምደባ
ምድረ
ምድሩ
ምድሪቱ
ምድሪቱን
ምድራዊ
ምድር
ምድርም
ምድርና
ምድርን
ምድሮች
ምድብ
ምድቦች
ምድያም
ምድጃ
ምግቡ
ምግቡን
ምግባረ
ምግባሩ
ምግባራዊ
ምግባር
ምግባቸው
ምግባቸውን
ምግብ
ምግብነት
ምግብና
ምግብን
ምግቦች
ምግቦችን
ምጣኔ
ምጣድ
ምጥ
ምጽራይም
ምጽአት
ምጽዋ
ምጽዋት
ምፅዋ
ሞ
ሞሀመድ
ሞለኪል
ሞለኪሎች
ሞላ
ሞላላ
ሞላው
ሞል
ሞልቶ
ሞልቷል
ሞልዶቫ
ሞልዶቭኛ
ሞሐመድ
ሞረድ
ሞሪስ
ሞሪታኒያ
ሞሪታንያ
ሞሪንጋ
ሞራ
ሞር
ሞርሞን
ሞርስ
ሞርጌስ
ሞሮኮ
ሞሳሕ
ሞስኮ
ሞስኮን
ሞሶሕ
ሞሼ
ሞሾቭጸ
ሞቃታማ
ሞቃት
ሞቃዲሾን
ሞቅ
ሞቡቱ
ሞባይል
ሞተ
ሞተር
ሞተሮች
ሞተች
ሞተና
ሞተዋል
ሞተው
ሞቱ
ሞቱን
ሞታቸው
ሞት
ሞትሁ
ሞትም
ሞትና
ሞትን
ሞቶ
ሞቶር
ሞቷ
ሞቷል
ሞቷልና
ሞቷን
ሞቼ
ሞኒተር
ሞናኮ
ሞንሮቪያ
ሞንተምሳፍ
ሞንቴ
ሞንቴኔግሮ
ሞንትጎመሪ
ሞንጎሊያ
ሞንጎልያ
ሞንጎሎች
ሞኝ
ሞኝነት
ሞኝና
ሞኞች
ሞከረ
ሞከሩ
ሞክረዋል
ሞክረው
ሞክሮ
ሞክሯል
ሞክሼ
ሞክሼዎች
ሞክሼዎችን
ሞዐ
ሞዓ
ሞዛምቢክ
ሞዱል
ሞዲ
ሞዴል
ሞዴሎች
ሞዴት
ሞድ
ሞጁል
ሞገሳ
ሞገሴ
ሞገስ
ሞገዱ
ሞገድ
ሞገዶች
ሞገዶችን
ሞግዚት
ሞግዚትነት
ሞጣ
ሞፈር
ሟች
ሠ
ሠለስተ
ሠላም
ሠላሣ
ሠላሳ
ሠሌዳ
ሠልፍ
ሠሎሞን
ሠሙዶችም
ሠምራ
ሠምራም
ሠረቀ
ሠረዝ
ሠረገላ
ሠረገሎች
ሠሩ
ሠሪ
ሠሪዎች
ሠራ
ሠራሽ
ሠራተኛ
ሠራተኞች
ሠራተኞችን
ሠራዊቱ
ሠራዊቱን
ሠራዊት
ሠራዊትና
ሠራዊቶች
ሠርተዋል
ሠርተው
ሠርቶ
ሠርቷል
ሠርግ
ሠርጣን
ሠርፀ
ሠናይት
ሠኔ
ሠንጠረዥ
ሠው
ሠውት
ሠዎች
ሠዓሊ
ሠይፍ
ሠፈረ
ሠፈረኞች
ሠፈሩ
ሠፈሩበት
ሠፈር
ሠፈሮች
ሠፊ
ሠፍረው
ሡ
ሡልጣን
ሢ
ሢማ
ሢሶ
ሣ
ሣህለ
ሣህሌ
ሣህራ
ሣልሳዊ
ሣምንታት
ሣምንት
ሣራ
ሣር
ሣባ
ሣንቲም
ሣውዲ
ሣጥን
ሤ
ሤራ
ሥ
ሥላሴ
ሥላሴም
ሥላሴን
ሥልጠና
ሥልጣኑ
ሥልጣኑን
ሥልጣናት
ሥልጣናትን
ሥልጣናቸው
ሥልጣናቸውን
ሥልጣኔ
ሥልጣን
ሥልጣንና
ሥልጣንን
ሥልጣኖች
ሥም
ሥሥ
ሥሩ
ሥሩም
ሥሩን
ሥራ
ሥራት
ሥራቸው
ሥራቸውን
ሥራን
ሥራዊቱ
ሥራዊቱን
ሥራዊት
ሥራዊቶች
ሥራው
ሥራውን
ሥራዎቹ
ሥራዎቻቸው
ሥራዎቻቸውን
ሥራዎች
ሥራዎችም
ሥራዎችን
ሥራዬ
ሥር
ሥርአተ
ሥርአት
ሥርወ
ሥርዐተ
ሥርዐት
ሥርዐቶች
ሥርዓተ
ሥርዓቱ
ሥርዓቱን
ሥርዓት
ሥርዓትና
ሥርዓትን
ሥርዓቶች
ሥርዓቶችን
ሥርጭት
ሥሮቹ
ሥሮች
ሥነ
ሥነጽሑፍ
ሥንክሳር
ሥውር
ሥዑል
ሥዕለ
ሥዕላዊ
ሥዕል
ሥዕሎቹ
ሥዕሎች
ሥዩመ
ሥዩም
ሥያሜ
ሥያንግ
ሥያው
ሥጋ
ሥጋም
ሥጋና
ሥጋን
ሥጋዊ
ሥጋዋን
ሥጋው
ሥጋውን
ሥጋዬ
ሥጋዬን
ሥጦታ
ሥፍራ
ሥፍራው
ሥፍራውን
ሥፍራዎች
ሦ
ሦሥተኛ
ሦሥተኛው
ሦሥት
ሦስተኛ
ሦስተኛዋ
ሦስተኛው
ሦስተኛውም
ሦስተኛውን
ሦስቱ
ሦስቱም
ሦስቱን
ሦስቱንም
ሦስት
ረ
ረሀብ
ረሃብ
ረሐብ
ረመዳን
ረመጥ
ረሱ
ረሱል
ረሳ
ረስታ
ረሺድ
ረሽ
ረሽነው
ረቂቃን
ረቂቅ
ረቡዕ
ረቢ
ረቢዎች
ረብሻ
ረታ
ረን
ረንሰነብ
ረዘም
ረዣዥም
ረዥሙ
ረዥም
ረዲ
ረዲየላሁ
ረዳ
ረዳት
ረዳትነት
ረዳቶች
ረዳን
ረድተዋል
ረድቷል
ረድኤት
ረድፍ
ረጃጅም
ረጅሙ
ረጅሙን
ረጅም
ረጅምና
ረገድ
ረገድም
ረገዶች
ረገጣ
ረጋ
ረግረጋማ
ረግጦ
ረጨት
ረጨኑ
ሩ
ሩሃማ
ሩህሩህ
ሩሚ
ሩማን
ሩም
ሩሲያ
ሩሲያን
ሩሲያኛ
ሩሲያዊ
ሩሲያዊው
ሩሲያውያን
ሩስ
ሩስኛ
ሩስያ
ሩስድክ
ሩሶ
ሩቅ
ሩብ
ሩቦች
ሩት
ሩን
ሩካቤ
ሩዋንዳ
ሩዋድ
ሩዝ
ሩዝቬልት
ሩድራይግ
ሩጫ
ሩጫው
ሩፋኤል
ሩፋኤልን
ሪ
ሪሊ
ሪል
ሪሙሽ
ሪም
ሪታ
ሪቺ
ሪቻርድ
ሪችመንድ
ሪናል
ሪከርድ
ሪከርድስ
ሪካ
ሪክተር
ሪኮ
ሪያል
ሪዮ
ሪድ
ሪፋት
ሪፐብሊካን
ሪፐብሊካኖች
ሪፐብሊክ
ሪፐብሊክና
ሪፐብሊክን
ሪፐብሊኮች
ሪፑብሊክ
ሪፑብሊክን
ሪፖርተር
ሪፖርት
ሪፖርቶች
ራ
ራህዲ
ራሆተፕ
ራሌይ
ራማ
ራምሴ
ራምሴስ
ራምቦ
ራሱ
ራሱም
ራሱን
ራሱንም
ራሳቸው
ራሳቸውን
ራሳችን
ራሳችንን
ራሳችኹ
ራሳችኹን
ራሴ
ራሴን
ራስ
ራስህ
ራስህን
ራስታዎች
ራስታፋራይ
ራስን
ራስኽ
ራስኽን
ራስወርቅ
ራሶች
ራሷ
ራሷን
ራሽያ
ራቀኝ
ራቁ
ራቅ
ራቢ
ራቢን
ራባት
ራብ
ራብዕ
ራት
ራእ
ራእይ
ራውንድ
ራዕ
ራዕይ
ራዕዮች
ራዜና
ራያ
ራይሆልት
ራይት
ራይትስ
ራይን
ራዲየስ
ራዲዮ
ራዲዮን
ራዳ
ራጅ
ራጉኤል
ራግቢ
ራግው
ራፋኤል
ራፐር
ራፕ
ራፕሶዲ
ሬ
ሬማ
ሬሳ
ሬሳው
ሬሳውን
ሬስ
ሬስቶራንት
ሬት
ሬናል
ሬንጅ
ሬክታንግል
ሬዛ
ሬዩንዮን
ሬያ
ሬያን
ሬይ
ሬይን
ሬዲንግ
ሬዲየስ
ሬዲዮ
ሬድ
ሬድዮ
ሬጅመንት
ሬገን
ሬጋን
ሬጌ
ሬፐብሊክ
ሬፑብሊክ
ር
ርህራሄ
ርምጃ
ርሱ
ርሱም
ርሱን
ርሱንም
ርስ
ርስቱን
ርስት
ርስትን
ርስቶች
ርሷ
ርሷም
ርሾ
ርቀቱ
ርቀቱን
ርቀት
ርቀትን
ርቀው
ርቃ
ርቆ
ርቢ
ርብ
ርብርብ
ርብቃ
ርቱዕ
ርት
ርእሰ
ርእስ
ርእደት
ርኩሳን
ርኩስ
ርካሽ
ርዕሰ
ርዕስ
ርዕሶች
ርዕሶችን
ርዕይ
ርዕዮተ
ርዕዮት
ርዕደት
ርዝመቱ
ርዝመታቸው
ርዝመት
ርዝመትና
ርዝማኔ
ርዳታ
ርጉሙ
ርጉም
ርግብ
ሮ
ሮሊንግ
ሮል
ሮሙሉስ
ሮማ
ሮማርዮ
ሮማኒያ
ሮማን
ሮማንስ
ሮማንቲክ
ሮማንኛ
ሮማንያ
ሮማዊ
ሮማዊው
ሮማውያን
ሮማውያንን
ሮማይስጥ
ሮሜ
ሮም
ሮሲኒ
ሮስ
ሮበርት
ሮበርትስ
ሮቢን
ሮቤ
ሮቤል
ሮቤርቶ
ሮቹ
ሮቻ
ሮቻምቤው
ሮናልድ
ሮናልዶ
ሮን
ሮኬት
ሮክ
ሮዘቨልት
ሮዛ
ሮዝ
ሮያል
ሮዳም
ሮዴዚያ
ሮዴዢያ
ሮዴዥያ
ሮድ
ሮድስ
ሮዶስ
ሮጀር
ሮጀርስ
ሮጠ
ሮጦ
ሯጭ
ሯጮች
ሰ
ሰለ
ሰለላሁ
ሰለሞን
ሰለባ
ሰለባዎች
ሰሊጥ
ሰላሌ
ሰላማ
ሰላማን
ሰላማዊ
ሰላማዊና
ሰላም
ሰላምታ
ሰላምና
ሰላምን
ሰላሳ
ሰላይ
ሰላዮች
ሰላድንጋይ
ሰላጣ
ሰላጤ
ሰላጤው
ሰሌኔ
ሰሌዳ
ሰልና
ሰልፈኞች
ሰልፍ
ሰልፎች
ሰልፎችን
ሰሎሜ
ሰሎሞናዊ
ሰሎሞን
ሰሎሞንም
ሰሎሞንን
ሰመራ
ሰመርኸት
ሰመንሬ
ሰመንካሬ
ሰመጠ
ሰሙ
ሰሚ
ሰማ
ሰማሪዎን
ሰማርያን
ሰማን
ሰማንያ
ሰማእታት
ሰማዕታት
ሰማዕታትን
ሰማዕት
ሰማዕትነት
ሰማያት
ሰማያትን
ሰማያዊ
ሰማይ
ሰማይና
ሰማይን
ሰሜናዊ
ሰሜናዊው
ሰሜን
ሰም
ሰምራ
ሰምተው
ሰምታ
ሰምታችዃል
ሰምቶ
ሰምቻለሁ
ሰምና
ሰሞን
ሰረኽ
ሰረዘ
ሰረዝ
ሰረገላ
ሰሩ
ሰሪ
ሰራ
ሰራሽ
ሰራተኛ
ሰራተኞች
ሰራተኞችን
ሰራዊቱ
ሰራዊቱን
ሰራዊት
ሰራዊቶች
ሰራየ
ሰር
ሰርሊፍ
ሰርሎይን
ሰርቆ
ሰርቢያ
ሰርብኛ
ሰርቦች
ሰርቨር
ሰርቪስ
ሰርተዋል
ሰርተው
ሰርታለች
ሰርቶ
ሰርቷል
ሰርቻለሁ
ሰርከስ
ሰርኪዩት
ሰርዝ
ሰርዞ
ሰርዴስ
ሰርዶ
ሰርገኛ
ሰርጉ
ሰርጉን
ሰርጌ
ሰርጌይ
ሰርግ
ሰርጎ
ሰርጓጅ
ሰርጥ
ሰርጸ
ሰርጾ
ሰሳ
ሰስ
ሰቀላችሁት
ሰቀል
ሰቀነንሬ
ሰቅል
ሰቅናይል
ሰቆጣ
ሰቆጣን
ሰበረ
ሰበር
ሰበሰበ
ሰበቃ
ሰበብ
ሰበካ
ሰቡ
ሰቢ
ሰባ
ሰባሪ
ሰባራ
ሰባስቲያን
ሰባተኛ
ሰባተኛው
ሰባቱ
ሰባቱም
ሰባቱን
ሰባቱንም
ሰባት
ሰባትቤት
ሰባኪ
ሰባኪዎች
ሰብ
ሰብለ
ሰብለን
ሰብል
ሰብሎች
ሰብረው
ሰብሮ
ሰብሳቢ
ሰብሳቢነት
ሰብስበው
ሰብስቤ
ሰብስቦ
ሰብታ
ሰብአ
ሰብአዊ
ሰብአዊት
ሰብአዊነት
ሰብአዊና
ሰብእ
ሰብዓዊ
ሰቨን
ሰቲት
ሰነበቱ
ሰነዱ
ሰነድ
ሰነዶች
ሰነዶችን
ሰነጅ
ሰነፍ
ሰኑስረት
ሰናክሬም
ሰናኽተንሬ
ሰናዖር
ሰናይ
ሰናይት
ሰናፍጭ
ሰኔ
ሰኔና
ሰን
ሰንሰለታማ
ሰንሰለት
ሰንሰለቶች
ሰንበሌጥ
ሰንበት
ሰንበትን
ሰንቡሌ
ሰንደቅ
ሰንዳፋ
ሰንጋ
ሰንጠረዡ
ሰንጠረዥ
ሰንጥቆ
ሰኞ
ሰኞን
ሰአሊ
ሰአሊው
ሰአታት
ሰአት
ሰአትም
ሰከንድ
ሰካ
ሰካራም
ሰክተው
ሰኮንድ
ሰኸምሬ
ሰኸምሬኹታዊ
ሰኸምካሬ
ሰኸቀንሬ
ሰኸተፒብሬ
ሰኻኤንሬ
ሰወች
ሰወችን
ሰዉ
ሰዋሰዋዊ
ሰዋሰው
ሰዋስው
ሰዋጀንሬ
ሰዋጅካሬ
ሰው
ሰውሃን
ሰውም
ሰውነቱ
ሰውነቱን
ሰውነታቸው
ሰውነታቸውን
ሰውነታችን
ሰውነታችንን
ሰውነቴ
ሰውነት
ሰውነትን
ሰውነትኽ
ሰውነቷ
ሰውና
ሰውን
ሰውንም
ሰውየ
ሰውየው
ሰውየውን
ሰውዬ
ሰውዬው
ሰውዬውም
ሰውዬውን
ሰዎቹ
ሰዎቹም
ሰዎቹን
ሰዎች
ሰዎችም
ሰዎችና
ሰዎችን
ሰዎችንም
ሰዐ
ሰዐት
ሰዐወ
ሰዒድ
ሰዓሊ
ሰዓቱ
ሰዓታት
ሰዓት
ሰዓትም
ሰዓቶች
ሰዕድ
ሰየመው
ሰየሙ
ሰየሙት
ሰየማቸው
ሰይመውታል
ሰይሞታል
ሰይንት
ሰይድ
ሰይጣናዊ
ሰይጣን
ሰይጣንም
ሰይጣንን
ሰይፈ
ሰይፉ
ሰይፉን
ሰይፍ
ሰይፍና
ሰደደው
ሰደዱት
ሰደዳቸው
ሰዴ
ሰዶ
ሰዶማዊ
ሰዶማዊነት
ሰዶማውያን
ሰዶም
ሰጀፋካሬ
ሰገላዊ
ሰገል
ሰገሩ
ሰገራ
ሰገባህ
ሰገነት
ሰገደ
ሰገዱለት
ሰገድ
ሰጋጆቹም
ሰጎን
ሰጠ
ሰጠሁት
ሰጠች
ሰጠነው
ሰጠው
ሰጡ
ሰጡት
ሰጣት
ሰጣቸው
ሰጥተዋል
ሰጥተዋቸው
ሰጥተው
ሰጥተውታል
ሰጥታ
ሰጥታለች
ሰጥቶ
ሰጥቶታል
ሰጥቷል
ሰጥቷቸዋል
ሰጥቼ
ሰጧቸው
ሰጪ
ሰጪዎች
ሰጭ
ሰጭዎች
ሰፈረ
ሰፈረኞች
ሰፈሩ
ሰፈራ
ሰፈራዎች
ሰፈር
ሰፈሮች
ሰፈሮችን
ሰፊ
ሰፊና
ሰፊው
ሰፊውን
ሰፋ
ሰፋሪዎች
ሰፋፊ
ሰፍረዋል
ሰፍረው
ሰፍሮ
ሰፍነግ
ሰፍነጎች
ሰፍያህ
ሰፕቴምበር
ሱ
ሱለይማን
ሱሊቫን
ሱሌይማን
ሱልጣኑ
ሱልጣኔቱ
ሱልጣኔታዊ
ሱልጣኔት
ሱልጣን
ሱልጣኖች
ሱመራዊ
ሱመር
ሱመርን
ሱመርኛ
ሱሙ
ሱሙላኤል
ሱሙኤል
ሱማሌ
ሱረቱ
ሱሪ
ሱሪናም
ሱራ
ሱር
ሱሰኒዮስ
ሱሰንዮስ
ሱሰኛ
ሱሳ
ሱሳን
ሱስ
ሱስን
ሱስንዮስ
ሱቅ
ሱባርቱ
ሱባርቱን
ሱባኤ
ሱባዔ
ሱብሃነሁ
ሱቱኤል
ሱኒ
ሱናሚ
ሱናክ
ሱን
ሱንግ
ሱውን
ሱዝዳል
ሱዳናዊ
ሱዳን
ሱዳንና
ሱዳንን
ሱፍ
ሱፐር
ሱፐርላቲቭ
ሲ
ሲሄዱ
ሲሄድ
ሲሆነው
ሲሆኑ
ሲሆን
ሲለቁ
ሲለቅ
ሲለን
ሲለኝ
ሲለካ
ሲለወጥ
ሲለው
ሲለግም
ሲለግስ
ሲሉ
ሲሉት
ሲሊ
ሲላቢክ
ሲላት
ሲላቸው
ሲል
ሲልም
ሲልቪያ
ሲሏት
ሲሏቸው
ሲመለሱ
ሲመለስ
ሲመለከቱ
ሲመለከቱት
ሲመለከት
ሲመልሱ
ሲመልስ
ሲመሠረት
ሲመረመር
ሲመረምር
ሲመረቅ
ሲመረጥ
ሲመሩ
ሲመራ
ሲመሰረት
ሲመሽ
ሲመታ
ሲመክሩት
ሲመጡ
ሲመጣ
ሲሙሩም
ሲሚንቶ
ሲሚንቶዎች
ሲማ
ሲማሩ
ሲማር
ሲማሽኪ
ሲም
ሲምቢሮ
ሲሞላ
ሲሞላቸው
ሲሞላው
ሲሞቱ
ሲሞት
ሲሞን
ሲሞከር
ሲሞክሩ
ሲሞክር
ሲሠሩ
ሲሠራ
ሲረዱ
ሲረዳ
ሲሬ
ሲር
ሲርብ
ሲሮጡ
ሲሮጥ
ሲሰላ
ሲሰሙ
ሲሰማ
ሲሰምጥ
ሲሰሩ
ሲሰራ
ሲሰራበት
ሲሰባ
ሲሰኝ
ሲሰደዱ
ሲሰጡ
ሲሰጥ
ሲሲፒ
ሲሳሱ
ሲሳተፉ
ሲሳይ
ሲሳይን
ሲስማሙ
ሲስሟት
ሲስተም
ሲስተምስ
ሲስተሞች
ሲስጥ
ሲስፋፋ
ሲሶ
ሲሸልስ
ሲሸሽ
ሲሸጥ
ሲሸፍን
ሲሻር
ሲሻገር
ሲሾሙ
ሲሾም
ሲቀላቀል
ሲቀመጡ
ሲቀመጥ
ሲቀማጠል
ሲቀረው
ሲቀሩ
ሲቀር
ሲቀርቡ
ሲቀርብ
ሲቀበሉ
ሲቀበል
ሲቀነስ
ሲቀናጣ
ሲቀንስ
ሲቀዘቅዝ
ሲቀየር
ሲቀድም
ሲቀጥል
ሲቃ
ሲቃረብ
ሲቃጠል
ሲቆዩ
ሲቆይ
ሲቆጠሩ
ሲቆጠር
ሲቆጡት
ሲቆጣ
ሲቆጣጠር
ሲቋቋም
ሲበሉ
ሲበሉት
ሲበላ
ሲበር
ሲበስል
ሲበዘበዝ
ሲበዛ
ሲበጠበጥ
ሲቢሊን
ሲባሉ
ሲባል
ሲቪል
ሲተላለፍ
ሲተረጎም
ሲተረጐም
ሲተርክ
ሲተኙ
ሲተካ
ሲተገበር
ሲቲ
ሲታመም
ሲታመን
ሲታተሙ
ሲታወቅ
ሲታወጅ
ሲታዩ
ሲታይ
ሲታገሉ
ሲታጠቁ
ሲታጣ
ሲቸገር
ሲቻል
ሲችሉ
ሲችል
ሲነሡ
ሲነሱ
ሲነሳ
ሲነበብ
ሲነገር
ሲነጋ
ሲነጋገሩ
ሲነግሩት
ሲነግስ
ሲነጻጸር
ሲነፃፀር
ሲኑሄ
ሲኒ
ሲኒማ
ሲና
ሲናትራ
ሲናድ
ሲናገሩ
ሲናገር
ሲን
ሲንቀሳቀሱ
ሲንን
ሲንጋፖር
ሲንጸባረቅ
ሲኖረው
ሲኖሩ
ሲኖሩበት
ሲኖሩት
ሲኖሩዋቸው
ሲኖራት
ሲኖራቸው
ሲኖር
ሲኖዶስ
ሲኦል
ሲከላከሉ
ሲከራከሩ
ሲከሰት
ሲከሰከስ
ሲከታተሉ
ሲከናወን
ሲከዳ
ሲከፈት
ሲኩሉስ
ሲኪሊያ
ሲኪሌውስ
ሲካሄድ
ሲካኑስ
ሲካፈል
ሲክዮን
ሲኮራ
ሲኼዱ
ሲኼድ
ሲኾኑ
ሲኾን
ሲወለዱ
ሲወለድ
ሲወልስ
ሲወረወር
ሲወሩ
ሲወራ
ሲወር
ሲወርዱ
ሲወርድ
ሲወሳ
ሲወስደው
ሲወስዱ
ሲወስድ
ሲወበራ
ሲወክል
ሲወዳደር
ሲወድቁ
ሲወድቅ
ሲወጉ
ሲወጡ
ሲወጣ
ሲዋረድ
ሲዋርድ
ሲዋጉ
ሲዋጋ
ሲውል
ሲዘምቱ
ሲዘረዘሩ
ሲዘረዝሩ
ሲዘረዝር
ሲዘረጋ
ሲዘረፍ
ሲዘዋወር
ሲዘጋጅ
ሲዞር
ሲያለቅስ
ሲያልቅ
ሲያልፉ
ሲያልፍ
ሲያመልጡ
ሲያመልጥ
ሲያማ
ሲያረጅ
ሲያረጋግጥ
ሲያር
ሲያርፉ
ሲያርፍ
ሲያሳዩ
ሲያሳይ
ሲያስረዳ
ሲያስቀምጡ
ሲያስቡ
ሲያስተምር
ሲያስፈልግ
ሲያሸንፍ
ሲያቀርቡ
ሲያቀርብ
ሲያበቃ
ሲያባራ
ሲያተኩር
ሲያታልሏት
ሲያትል
ሲያነብ
ሲያከትም
ሲያካሂዱ
ሲያኮበኩብ
ሲያወራ
ሲያወርዱት
ሲያወርድ
ሲያወድም
ሲያወጡት
ሲያውቁ
ሲያውቅ
ሲያዘጋጁ
ሲያዝን
ሲያዩ
ሲያዩት
ሲያደርገው
ሲያደርጉ
ሲያደርግ
ሲያድጉ
ሲያድግ
ሲያገለግሉ
ሲያገለግል
ሲያገኘው
ሲያገኙ
ሲያገኝ
ሲያጠፋ
ሲያጡ
ሲዬራ
ሲይዘው
ሲይዙ
ሲይዝ
ሲደመሩ
ሲደመር
ሲደረግ
ሲደርሱ
ሲደርስ
ሲደርቅ
ሲደጋገም
ሲዲ
ሲዲቅ
ሲዳላ
ሲዳማ
ሲዳማን
ሲዳማዎች
ሲዳሞ
ሲዳሩ
ሲድኒ
ሲዶና
ሲዶን
ሲጀመር
ሲጀምሩ
ሲጀምር
ሲገለበጥ
ሲገለጽ
ሲገል
ሲገልጹ
ሲገልጽ
ሲገመት
ሲገቡ
ሲገባ
ሲገባቸው
ሲገናኝ
ሲገኙ
ሲገኝ
ሲገዙ
ሲገዛ
ሲገደሉ
ሲገደል
ሲገድሉ
ሲገድል
ሲግመንድ
ሲግማ
ሲግናል
ሲጎ
ሲጎርፍ
ሲጎበኙ
ሲጎበኝ
ሲጎድል
ሲጓዙ
ሲጓዝ
ሲጠሉት
ሲጠራ
ሲጠቀሙ
ሲጠቀሙበት
ሲጠቀም
ሲጠቀሱ
ሲጠቀስ
ሲጠቅስ
ሲጠባ
ሲጠባበቁ
ሲጠብቁ
ሲጠና
ሲጠናቀቅ
ሲጠየቁ
ሲጠየቅ
ሲጠይቀው
ሲጠይቁ
ሲጠይቅ
ሲጠጋ
ሲጠግብ
ሲጠግኑት
ሲጠጡ
ሲጠጣ
ሲጠፋ
ሲጣሉ
ሲጣላ
ሲጥለው
ሲጥሉ
ሲጥል
ሲጨመሩ
ሲጨመር
ሲጨምር
ሲጨርሱ
ሲጨርስ
ሲጫወቱ
ሲጮህ
ሲጸልይ
ሲጻፉ
ሲጻፍ
ሲጽፉ
ሲጽፍ
ሲፃፍ
ሲፈለግ
ሲፈልጉ
ሲፈልግ
ሲፈራ
ሲፈስ
ሲፈታ
ሲፈነዳ
ሲፈጠር
ሲፈጥሩ
ሲፈጥር
ሲፈጸም
ሲፈጽሙ
ሲፈፀም
ሲፓራ
ሳ
ሳሁሬ
ሳሃራ
ሳሃራን
ሳህለወርቅ
ሳህራን
ሳህራዊ
ሳህን
ሳህኖች
ሳሆ
ሳሆኛ
ሳለ
ሳለህ
ሳለች
ሳለን
ሳለኹ
ሳለኽ
ሳሉ
ሳሊም
ሳላ
ሳላም
ሳላችኹ
ሳላይ
ሳሌም
ሳል
ሳልማን
ሳልሳዊ
ሳልቫዶር
ሳሎን
ሳመን
ሳመው
ሳሙ
ሳሙና
ሳሙኤል
ሳሚ
ሳሚኛ
ሳማ
ሳም
ሳምሪ
ሳምራዊ
ሳምራዊት
ሳምራዊው
ሳምሰንግ
ሳምሱ
ሳምሶን
ሳምባ
ሳምብ
ሳምንቱ
ሳምንታት
ሳምንታዊ
ሳምንት
ሳሞትራቄ
ሳሞአ
ሳሞዓ
ሳሞጤስ
ሳሩ
ሳራ
ሳር
ሳርንስት
ሳርኮዚ
ሳርጀንት
ሳርጎን
ሳርጎንን
ሳሮን
ሳሲት
ሳቁ
ሳቅ
ሳበ
ሳቢ
ሳቢያ
ሳባ
ሳቤቅ
ሳብ
ሳተላይት
ሳተላይቶች
ሳተርን
ሳቱርን
ሳታውቅ
ሳታይ
ሳት
ሳትሆን
ሳትራ
ሳትቀበል
ሳትን
ሳትያግራሃ
ሳን
ሳንሱር
ሳንስክሪት
ሳንቃ
ሳንባ
ሳንቲ
ሳንቲም
ሳንቲሞች
ሳንቲያጎ
ሳንታ
ሳንቶ
ሳንቶስ
ሳንኸንሬ
ሳንደርስ
ሳንድዊች
ሳንጃክ
ሳአድኢኮፍ
ሳኦል
ሳኪር
ሳካዎች
ሳክሰን
ሳክስ
ሳክሶን
ሳክሶኖች
ሳክሶፎን
ሳወታ
ሳው
ሳውል
ሳውዝ
ሳውዲ
ሳውድ
ሳዑዲ
ሳየው
ሳያልፍ
ሳያቀስ
ሳያት
ሳያውቀው
ሳያውቁ
ሳያውቅ
ሳያዩ
ሳያይ
ሳያደርጉ
ሳያገኙ
ሳያገኝ
ሳያጠናቅቅ
ሳይ
ሳይሆኑ
ሳይሆን
ሳይለምድ
ሳይለይ
ሳይሉ
ሳይል
ሳይመለሱ
ሳይመን
ሳይመጣ
ሳይሞት
ሳይርቅ
ሳይሰሙ
ሳይሰማ
ሳይሰጡ
ሳይሰጥ
ሳይሳካ
ሳይቀሩ
ሳይቀር
ሳይቀይሩ
ሳይቀጣጠሩ
ሳይቃጠል
ሳይቆዩ
ሳይቆይ
ሳይበላ
ሳይበላሽ
ሳይቤሪያ
ሳይተኛ
ሳይታሰብ
ሳይታወቅ
ሳይቸግር
ሳይችል
ሳይነካ
ሳይናገር
ሳይንሳዊ
ሳይንሳዊና
ሳይንስ
ሳይንስና
ሳይንስን
ሳይንቲስት
ሳይንቲስቶች
ሳይንት
ሳይኖረው
ሳይኖሩ
ሳይኖራቸው
ሳይኖር
ሳይከፍል
ሳይክል
ሳይኾን
ሳይወሰን
ሳይወድ
ሳይዘጋ
ሳይደርሱ
ሳይደርስ
ሳይደርስበት
ሳይደርቅ
ሳይዳ
ሳይገሉ
ሳይገቡ
ሳይገባ
ሳይጠሩት
ሳይጠቀም
ሳይጠቅም
ሳይጠቅስ
ሳይጠፋ
ሳይጨምር
ሳይጨርስ
ሳይፈርስ
ሳይፈጠር
ሳይፍቅ
ሳዱቃ
ሳዲ
ሳዳም
ሳዳት
ሳድሳን
ሳድሳዊ
ሳጋ
ሳግሞው
ሳጣ
ሳጥኑ
ሳጥን
ሳጥኖች
ሴ
ሴል
ሴልሲየስ
ሴሎች
ሴሎችን
ሴሚራሚስ
ሴማዊ
ሴማዊው
ሴማውያን
ሴም
ሴራ
ሴራው
ሴሮሕ
ሴሰኛ
ሴሲል
ሴሶስትሪስ
ሴባስቶፖል
ሴቪንግ
ሴተኛ
ሴቱ
ሴቲቱ
ሴቲቱም
ሴት
ሴትም
ሴትና
ሴትን
ሴትየዋ
ሴትየዋም
ሴትዮ
ሴትዮዋ
ሴቶቹ
ሴቶቹም
ሴቶች
ሴቶችም
ሴቶችና
ሴቶችን
ሴቷ
ሴናተሮች
ሴናት
ሴኔተር
ሴኔት
ሴኔጋል
ሴንተር
ሴንቲ
ሴንቲሜትር
ሴንቲግሬድ
ሴንት
ሴንትራል
ሴንጋን
ሴንግሆር
ሴኩ
ሴኩላሪዝም
ሴኬም
ሴክተር
ሴኮንድ
ሴየራ
ሴይር
ሴይንት
ሴዳር
ሴፕቴምበር
ስ
ስሄድ
ስህተት
ስህተትን
ስህተቶች
ስሆን
ስለ
ስለሆነ
ስለሆነም
ስለሆነች
ስለሆነና
ስለሆኑ
ስለላ
ስለሌለ
ስለሌለበት
ስለሌለው
ስለሌላቸው
ስለመሆኑ
ስለመጡ
ስለመጣ
ስለሚሄድ
ስለሚሆነው
ስለሚሆኑ
ስለሚሆን
ስለሚል
ስለሚመስል
ስለሚመጣ
ስለሚመጣው
ስለሚቆጠር
ስለሚባል
ስለሚታመን
ስለሚታወቅ
ስለሚታይ
ስለሚቻል
ስለሚችሉ
ስለሚችል
ስለሚኖሩ
ስለሚያምን
ስለሚያሳይ
ስለሚገባ
ስለሚገኙ
ስለሚገኝ
ስለማይታወቅ
ስለማይቻል
ስለማይችሉ
ስለማይችል
ስለማይኖር
ስለምን
ስለራሱ
ስለርሱ
ስለሰጡ
ስለሱ
ስለሺ
ስለተቻለ
ስለተገኘ
ስለት
ስለነሱ
ስለነበረ
ስለነበረች
ስለነበረና
ስለነበረው
ስለነበሩ
ስለነበሩት
ስለነበሩዋቸውና
ስለነበራት
ስለነበራቸው
ስለነበር
ስለነዚህ
ስለኢትዮጵያ
ስለኣሉ
ስለኣልሆነ
ስለኣልሆኑ
ስለኣቀረቡ
ስለእርሱ
ስለእኛ
ስለእግዚአብሔር
ስለው
ስለዚሁ
ስለዚህ
ስለዚህም
ስለዚያ
ስለዚያው
ስለጀመሩ
ስለገባ
ስለጉዳዩ
ስለጎርን
ስለፈለገ
ስለፈጠሩ
ስሊም
ስላለ
ስላለበት
ስላለባቸው
ስላለብን
ስላለው
ስላሉ
ስላሉት
ስላላት
ስላላቸው
ስላልሆነ
ስላልሆኑ
ስላልተገኘ
ስላልቻለ
ስላልቻሉ
ስላልነበረ
ስላልነበረው
ስላልነበሩ
ስላልነበራቸው
ስላልነበር
ስላልወደደ
ስላልወደዱ
ስላሴ
ስላስገቡዋቸው
ስላቪክ
ስላቫዊ
ስላቭኛ
ስላቸው
ስላንጋ
ስላወቀ
ስላዩ
ስላይን
ስላደረገ
ስላደረገው
ስላደረጉ
ስላደረጉት
ስላገኘ
ስላገኙ
ስሌቱ
ስሌት
ስሌትን
ስሌቶች
ስል
ስልማናሶር
ስልምናሶር
ስልሳ
ስልቱ
ስልታዊ
ስልት
ስልትን
ስልቶች
ስልቶችን
ስልቻ
ስልቻውን
ስልኬት
ስልክ
ስልክና
ስልኮች
ስልጠና
ስልጢኛ
ስልጣኑ
ስልጣኑን
ስልጣናቸው
ስልጣናቸውን
ስልጣኔ
ስልጣኔን
ስልጣኔዎች
ስልጣን
ስልጣንና
ስልጣንን
ስልጤ
ስልጤኛ
ስሎቫኪያ
ስሎቬኒያ
ስሕተት
ስሕተቶች
ስሕተቶችን
ስመ
ስመለስ
ስመንኽካሬ
ስመጣ
ስመጥር
ስሙ
ስሙም
ስሙት
ስሙን
ስሙንም
ስሚስ
ስሚዝ
ስማ
ስማቸው
ስማቸውም
ስማቸውን
ስሜ
ስሜም
ስሜቱ
ስሜቱን
ስሜታዊ
ስሜት
ስሜትን
ስሜቶች
ስሜኑ
ስሜናዊ
ስሜን
ስሜንና
ስም
ስምህ
ስምህን
ስምም
ስምምነቱ
ስምምነቱን
ስምምነት
ስምምነትን
ስምምነቶች
ስምምነቶችን
ስምሽ
ስምና
ስምን
ስምንተኛ
ስምንተኛው
ስምንቱ
ስምንት
ስምዖን
ስምዖንም
ስምዖንና
ስምዖንን
ስምጥ
ስሞቹ
ስሞቻቸው
ስሞች
ስሞችን
ስሟ
ስሟን
ስረ
ስሩ
ስሪ
ስሪት
ስሪቶች
ስራ
ስራት
ስራቸው
ስራቸውን
ስራና
ስራን
ስራወች
ስራወችን
ስራዋ
ስራዋን
ስራው
ስራውም
ስራውን
ስራዎቹ
ስራዎቹን
ስራዎች
ስራዎችና
ስራዎችን
ስራጅ
ስር
ስርቆት
ስርአተ
ስርአት
ስርአትን
ስርወ
ስርዐት
ስርዓተ
ስርዓቱ
ስርዓቱን
ስርዓታቸው
ስርዓት
ስርዓትን
ስርዓቶች
ስርዓቶችን
ስርየት
ስርጭት
ስርጭትን
ስርፀት
ስሱ
ስስ
ስቀለው
ስቃይ
ስቅለት
ስበላ
ስበር
ስበት
ስባሪ
ስባቱ
ስባት
ስብ
ስብሃት
ስብሐተ
ስብሐት
ስብረት
ስብሰባ
ስብሰባቸውን
ስብሰባው
ስብሰባውን
ስብሰባዎች
ስብስቡ
ስብስባ
ስብስብ
ስብስብን
ስብስቦች
ስብስቦችን
ስብእና
ስብከቱ
ስብከት
ስብዕና
ስብጥር
ስቦ
ስቧል
ስተርሊንግ
ስተርን
ስቱዋርት
ስቱዲዮ
ስቱዲዮስ
ስቲል
ስቲቨን
ስቲቭ
ስቲግማ
ስታሊን
ስታምፎርድ
ስታር
ስታቲስቲካዊ
ስታቲስቲክስ
ስታትስቲክስ
ስታንሊ
ስታንዳርድ
ስታንፎርድ
ስታዩ
ስታይ
ስታይል
ስታደርግ
ስታዲየም
ስታዲየሞች
ስቴል
ስቴሽን
ስቴት
ስቴትስ
ስቴትስን
ስቴቶች
ስቴክ
ስቴፈን
ስቴፕ
ስትሄድ
ስትሆን
ስትላቸው
ስትል
ስትመለስ
ስትሞት
ስትሪት
ስትሪፕ
ስትራቦን
ስትራቴጂ
ስትራቴጂካዊ
ስትራቴጂክ
ስትሬት
ስትሰማ
ስትሰጥ
ስትቀርብ
ስትቀዳጅ
ስትባል
ስትታወቅ
ስትናገር
ስትኖር
ስትኾን
ስትወልድ
ስትወልድበት
ስትወጣ
ስትይዝ
ስትጀምር
ስትገባ
ስትገናኝ
ስትገኝ
ስትጠራ
ስቶ
ስቶን
ስቶክ
ስኅተት
ስነ
ስነምግባር
ስነስርዓት
ስነጽሑፍ
ስነፈሩ
ስኒ
ስናር
ስናስብ
ስናን
ስናካፍል
ስናይ
ስናደርግ
ስኔፕ
ስንሄድ
ስንል
ስንመለስ
ስንመለከት
ስንመረምር
ስንመጣ
ስንቅ
ስንብት
ስንቱ
ስንቱን
ስንት
ስንኞች
ስንክሳር
ስንኳ
ስንደምር
ስንዱ
ስንዴ
ስንገባ
ስንግ
ስንጠቀም
ስንጥር
ስንጥቅ
ስንፍና
ስእለት
ስእሉ
ስእል
ስእሎች
ስኩል
ስኩዌር
ስኩየር
ስካር
ስካን
ስኬላር
ስኬታማ
ስኬታም
ስኬት
ስኬቶች
ስክሪን
ስክሪፕት
ስኮላርሺፕ
ስኮሺያ
ስኮት
ስኮትላንዳዊ
ስኮትላንድ
ስኮትላንድን
ስኳር
ስዊስ
ስዊትዘርላንድ
ስዊዘርላንድ
ስዊድናዊ
ስዊድን
ስዊድንን
ስዊድንኛ
ስዊድኛ
ስዊፍት
ስዋሰው
ስዋኒከር
ስዋዚላንድ
ስዌቢ
ስዌኖ
ስው
ስውር
ስዎች
ስዓት
ስዕሉ
ስዕሉን
ስዕል
ስዕሎች
ስዩም
ስያሜ
ስያሜን
ስያሜዋን
ስያሜው
ስያሜውን
ስያሜዎች
ስያሜያቸውን
ስደበው
ስደተኛ
ስደተኞች
ስደተኞችን
ስደቱ
ስደት
ስደትን
ስደዱልኝ
ስደድ
ስድሳ
ስድስተኛ
ስድስተኛው
ስድስቱ
ስድስቱን
ስድስት
ስድብ
ስገባ
ስገዱ
ስገድ
ስጋ
ስጋት
ስጋቶች
ስጋቸውን
ስጋና
ስጋን
ስጋው
ስጋውን
ስግላ
ስግደት
ስጠን
ስጠኝ
ስጠው
ስጡ
ስጡት
ስጡኝ
ስጣቸው
ስጥ
ስጦታ
ስጦታና
ስጦታን
ስጦታው
ስጦታውን
ስጦታዎች
ስጦታዎችን
ስፈናጠር
ስፊ
ስፋቱ
ስፋታቸው
ስፋት
ስፋትና
ስፋቶች
ስፋቷ
ስፌት
ስፍራ
ስፍራን
ስፍራው
ስፍራዎች
ስፍራዎችን
ስፍር
ስፍን
ስፒኖዛ
ስፒዲ
ስፓኒሽ
ስፓኒሽኛ
ስፓንያ
ስፓንያውያን
ስፓይሩሊና
ስፔስ
ስፔሻሊስት
ስፔሻላይዝድ
ስፔን
ስፔንሰር
ስፖርተኛ
ስፖርቲንግ
ስፖርት
ስፖርቶች
ስፖንሰር
ሶ
ሶሃባዎች
ሶላት
ሶላትን
ሶላትንም
ሶል
ሶልዤኒትሲን
ሶሐቦች
ሶማሊላንድ
ሶማሊያ
ሶማሊያን
ሶማሌ
ሶማሌላንድ
ሶማሌዎች
ሶማልኛ
ሶማልያ
ሶምሶን
ሶሪያ
ሶሪያን
ሶሬ
ሶርስ
ሶርብኛ
ሶርያ
ሶርያና
ሶርያን
ሶሲዮሎጂ
ሶሳይቲ
ሶስ
ሶስተኛ
ሶስተኛዋ
ሶስተኛው
ሶስተኛውን
ሶስቱ
ሶስት
ሶሻሊስት
ሶሻሊዝም
ሶቅራጠስ
ሶበከምሳፍ
ሶበክሆተፕ
ሶበክነፈሩ
ሶቪየት
ሶቪየቶች
ሶቪዬት
ሶቭየት
ሶኒ
ሶንበፍ
ሶከር
ሶዲየም
ሶዶ
ሶጁኒ
ሶፊያ
ሶፋ
ሶፋና
ሶፍትዌር
ሶፍትዌሮች
ሶፍትዌሮችን
ሶፕራኖ
ሷ
ሷሊህን
ሷይቩስ
ሷዴሽ
ሸ
ሸሆኔ
ሸለምጥማጥ
ሸለምጥማጦች
ሸለቆ
ሸለቆን
ሸለቆው
ሸለቆዎች
ሸሚዝ
ሸማ
ሸማኔ
ሸማን
ሸምበቆ
ሸምጋይነት
ሸረሪት
ሸርሙጣ
ሸርሙጣን
ሸርጣን
ሸሮቾ
ሸሸ
ሸሹ
ሸሺ
ሸሽተው
ሸሽቶ
ሸቀጥ
ሸቀጦች
ሸበሌ
ሸበል
ሸንበቆ
ሸንኖንግ
ሸንኮራ
ሸንጎ
ሸኪ
ሸካ
ሸክ
ሸክላ
ሸክላዎች
ሸክሙ
ሸክሙን
ሸክም
ሸኮኛ
ሸኽ
ሸዋ
ሸዋረጋ
ሸዋን
ሸይኽ
ሸይጣን
ሸድዋሰት
ሸገር
ሸጠ
ሸጠው
ሸፈነ
ሸፍኖ
ሹ
ሹሊ
ሹል
ሹልጊ
ሹመት
ሹመትና
ሹሚ
ሹማምንት
ሹማምንቶች
ሹም
ሹምና
ሹሞች
ሹሩባ
ሹራብ
ሹሻን
ሹቡር
ሹባር
ሹታርና
ሹትሩክ
ሹን
ሹክሹክታ
ሹዐይብን
ሹዳያ
ሹፋት
ሺ
ሺህ
ሺሊንግ
ሺሕ
ሺሞን
ሺራዝ
ሺስቶሶማ
ሺናሻ
ሺን
ሺንዞ
ሺኖዳ
ሺኪቡ
ሺካጎ
ሺዎች
ሺፈራው
ሻ
ሻህ
ሻለቃ
ሻለቃው
ሻለቃዎች
ሻለቆች
ሻሊም
ሻሎም
ሻማ
ሻማሽ
ሻም
ሻምሺ
ሻምበል
ሻምፒዮና
ሻምፒዮን
ሻሩ
ሻሩሄንን
ሻሩማ
ሻሩም
ሻርል
ሻርማ
ሻርካሊሻሪ
ሻሮን
ሻሱ
ሻሸመኔ
ሻሽ
ሻንጋይ
ሻንግ
ሻንጣ
ሻኛ
ሻኩር
ሻካራ
ሻካናካ
ሻውሃው
ሻውሽታታር
ሻውካንግ
ሻዕቢያ
ሻይ
ሻዱኒ
ሻዶ
ሻጝ
ሻጭ
ሼ
ሼህ
ሼር
ሼክ
ሼክስፒር
ሼኽ
ሼዲ
ሽ
ሽህ
ሽለላ
ሽላየር
ሽል
ሽልማቱ
ሽልማቱን
ሽልማት
ሽልማትን
ሽልማቶች
ሽልማቶችን
ሽማግሌ
ሽማግሌና
ሽማግሌዎች
ሽምቅ
ሽምብራ
ሽምግልና
ሽረት
ሽረው
ሽሬ
ሽር
ሽርምፕ
ሽርክ
ሽሮ
ሽሽት
ሽቅብ
ሽበት
ሽባ
ሽባውን
ሽብሩ
ሽብር
ሽብርተኛ
ሽብርተኝነት
ሽብርተኝነትን
ሽብርተኞች
ሽቦ
ሽቦው
ሽቦዎች
ሽቱ
ሽታ
ሽታው
ሽቶ
ሽንብራ
ሽንት
ሽንኩርቱን
ሽንኩርት
ሽንኩርትና
ሽንፈት
ሽንፈትን
ሽከታ
ሽኩቻ
ሽኩዳድ
ሽክርክር
ሽኮኮ
ሽያጩን
ሽያጭ
ሽያጮች
ሽጂ
ሽጉጣቸውን
ሽጉጥ
ሽጉጦች
ሽግግር
ሽፈራው
ሽፋኑ
ሽፋን
ሽፍታ
ሽፍቶች
ሾ
ሾላ
ሾመ
ሾመው
ሾሙ
ሾሙት
ሾሞ
ሾሟቸው
ሾተልን
ሾው
ሾጣጣ
ሾፐናውር
ቀ
ቀለል
ቀለሙ
ቀለማት
ቀለም
ቀለምን
ቀለሞቹ
ቀለሞቹን
ቀለሞች
ቀለሞችና
ቀለሞችን
ቀለበት
ቀለበቶች
ቀለብ
ቀለጣ
ቀላ
ቀላሉ
ቀላል
ቀላልና
ቀላቅሎ
ቀላቢ
ቀላዋጭ
ቀልበኛ
ቀልብ
ቀልደኛ
ቀልድ
ቀልድና
ቀልዶች
ቀልጣፋ
ቀልጣፋና
ቀመሩ
ቀመር
ቀመሮች
ቀሚስ
ቀማኝ
ቀማው
ቀረ
ቀረሁ
ቀረርቶ
ቀረሽ
ቀረበ
ቀረበች
ቀረበና
ቀረቡ
ቀረቡና
ቀረብ
ቀረች
ቀረነ
ቀረጡን
ቀረጥ
ቀረጸ
ቀረጻ
ቀረፀ
ቀረፃ
ቀረፋ
ቀሩ
ቀሪ
ቀሪው
ቀሪውን
ቀሪዎቹ
ቀራንዮ
ቀራጭ
ቀራጮችና
ቀር
ቀርሳ
ቀርቀሃ
ቀርበዋል
ቀርበው
ቀርባ
ቀርባለች
ቀርቦ
ቀርቦም
ቀርቧል
ቀርተዋል
ቀርተው
ቀርታለች
ቀርቶ
ቀርቶብኝ
ቀርቷል
ቀርጤስ
ቀርጾ
ቀርፋፋ
ቀሳውስቱ
ቀሳውስት
ቀስ
ቀስመዋል
ቀስቃሽ
ቀስተ
ቀስተኛ
ቀስት
ቀስትን
ቀበሌ
ቀበሌኛ
ቀበሌኞች
ቀበሌዎች
ቀበሌዎችና
ቀበሌዎችን
ቀበሌያት
ቀበሩት
ቀበሮ
ቀበሮው
ቀበሮዎች
ቀበሮዎችን
ቀበቶ
ቀበና
ቀበኛ
ቀበጥ
ቀባሪ
ቀብራቸው
ቀብራቸውም
ቀብር
ቀብሮ
ቀቲ
ቀትር
ቀነሰ
ቀነኒሳ
ቀኑ
ቀኑም
ቀኑን
ቀና
ቀናተኛ
ቀናት
ቀናትን
ቀናቶች
ቀናቸው
ቀኔ
ቀን
ቀንም
ቀንሶ
ቀንሷል
ቀንበር
ቀንና
ቀንን
ቀንደ
ቀንዱ
ቀንዳውጣ
ቀንድ
ቀንድን
ቀንዶች
ቀንዷ
ቀኖች
ቀኖና
ቀኖናዊ
ቀኛዝማች
ቀኝ
ቀኝና
ቀወት
ቀዉለሙን
ቀውስ
ቀውሶች
ቀዝቀዝ
ቀዝቃዛ
ቀዝቃዛው
ቀየረ
ቀየረው
ቀየሩ
ቀየሩት
ቀዩ
ቀያሽ
ቀይ
ቀይረው
ቀይራ
ቀይር
ቀይሮ
ቀይሯል
ቀይና
ቀደመ
ቀደመው
ቀደሙ
ቀደም
ቀደምቱ
ቀደምት
ቀደምትነት
ቀዳሚ
ቀዳሚው
ቀዳሚውን
ቀዳሚዎቹ
ቀዳማዊ
ቀዳማዊት
ቀዳሽ
ቀዳዳ
ቀዳዳዎች
ቀዳዶች
ቀዳጅ
ቀዳገል
ቀድመው
ቀድማ
ቀድሞ
ቀድሞም
ቀድሞው
ቀድሞውኑ
ቀድሞውንም
ቀዶ
ቀጄላ
ቀጋ
ቀጠለ
ቀጠለች
ቀጠሉ
ቀጠረ
ቀጠሮ
ቀጠና
ቀጠናዎች
ቀጠን
ቀጣዩ
ቀጣይ
ቀጣይነት
ቀጤ
ቀጥ
ቀጥለዋል
ቀጥለው
ቀጥለውም
ቀጥላ
ቀጥላለች
ቀጥል
ቀጥሎ
ቀጥሎም
ቀጥሎና
ቀጥሏል
ቀጥሯል
ቀጥተኛ
ቀጥታ
ቀጥኜ
ቀጫጭን
ቀጭኔ
ቀጭኔዎች
ቀጭን
ቀፎ
ቁ
ቁልል
ቁልቁለት
ቁልቁሉ
ቁልቁል
ቁልቋል
ቁልቢ
ቁልቢጥ
ቁልጭ
ቁልፉ
ቁልፍ
ቁልፎች
ቁመህ
ቁመተ
ቁመቱ
ቁመቱም
ቁመት
ቁመና
ቁማር
ቁም
ቁምነገር
ቁምነገሮች
ቁምጥና
ቁምፊ
ቁምፊዎች
ቁረይሾች
ቁረጥ
ቁራ
ቁራኛ
ቁራጭ
ቁርስ
ቁርበት
ቁርባን
ቁርኝት
ቁርአን
ቁርአንን
ቁርኣን
ቁርኣንን
ቁርጠት
ቁርጠኛ
ቁርጠኝነት
ቁርጥ
ቁርጥራጭ
ቁርጥራጮች
ቁሱ
ቁሳቁስ
ቁሳቁሶች
ቁሳቁሶችን
ቁሳዊ
ቁስ
ቁስል
ቁስልን
ቁስቋም
ቁስን
ቁስጥንጥንያ
ቁሶች
ቁሶችን
ቁባት
ቁቤ
ቁና
ቁናዎቹ
ቁናዎች
ቁንዶ
ቁንጥጫ
ቁንጫ
ቁንጮ
ቁጠራ
ቁጠባ
ቁጡ
ቁጣ
ቁጣህን
ቁጣን
ቁጥሩ
ቁጥሩም
ቁጥሩን
ቁጥራቸው
ቁጥር
ቁጥርም
ቁጥርና
ቁጥርን
ቁጥሮቹ
ቁጥሮች
ቁጥሮችን
ቁጥቋጦ
ቁጥቋጦች
ቁጥቋጦዎች
ቁጥጥር
ቁጥጥርን
ቁጭ
ቁጭት
ቁጭትና
ቁፋሮ
ቁፍ
ቂ
ቂል
ቂልን
ቂሙን
ቂም
ቂርሎስ
ቂርቆስ
ቂሮስ
ቂሳርያ
ቂስጣና
ቂጡ
ቂጡን
ቂጣ
ቂጣም
ቂጥ
ቂጥም
ቂጥኛም
ቂጥኝ
ቂጧን
ቂፍ
ቃ
ቃለ
ቃለምልልስ
ቃሉ
ቃሉም
ቃሉን
ቃሉንም
ቃላቱ
ቃላት
ቃላትና
ቃላትን
ቃላቶች
ቃላቸውን
ቃሌ
ቃሌን
ቃል
ቃልህ
ቃልም
ቃልቻ
ቃልና
ቃልን
ቃልኪዳን
ቃሎች
ቃረህ
ቃሪያ
ቃርያ
ቃሲም
ቃታ
ቃትና
ቃና
ቃኘው
ቃኝ
ቃካሬ
ቃዓ
ቃይንም
ቃጠሎ
ቃጣር
ቃጫ
ቃጫማ
ቃጫዎች
ቃጭል
ቄ
ቄሣር
ቄሣሮች
ቄራ
ቄርሎስ
ቄሱ
ቄሳር
ቄሳውንት
ቄስ
ቄስና
ቄሶች
ቄኔዝ
ቄኔዝና
ቄንጥ
ቄጠማ
ቄጤማ
ቅ
ቅሉ
ቅሌምንጦስ
ቅሌት
ቅል
ቅልቅል
ቅልና
ቅልውጥ
ቅልጥ
ቅልጥም
ቅልጥፍና
ቅመማ
ቅመም
ቅመሞች
ቅመሱ
ቅማል
ቅማንት
ቅረቢ
ቅሪተ
ቅሪት
ቅሪቶች
ቅራኔ
ቅሬታ
ቅር
ቅርሱ
ቅርሱን
ቅርስ
ቅርስነት
ቅርስና
ቅርሶች
ቅርሶችና
ቅርሶችን
ቅርበት
ቅርቡ
ቅርብ
ቅርንጫፉ
ቅርንጫፍ
ቅርንጫፎቹ
ቅርንጫፎች
ቅርንጫፎችን
ቅርንፉድ
ቅርጫት
ቅርጹ
ቅርጹም
ቅርጹን
ቅርጻ
ቅርጽ
ቅርጽና
ቅርጽን
ቅርጾች
ቅርጾችን
ቅርፅ
ቅርፊት
ቅሮይሶስ
ቅስቀሳ
ቅስት
ቅበሩኝ
ቅበሩዋቸው
ቅባት
ቅቤ
ቅቤና
ቅቤውን
ቅብብል
ቅብዐ
ቅነሳ
ቅነጥጥቅ
ቅና
ቅናት
ቅኔ
ቅኔው
ቅኔዎች
ቅን
ቅንብር
ቅንነት
ቅንድብ
ቅንጅበራሂ
ቅንጅት
ቅንጣት
ቅንጣቶች
ቅንጭብ
ቅንፍ
ቅኝ
ቅኝት
ቅኝቶች
ቅዋሜ
ቅዘን
ቅዝምዝም
ቅዝቃዛ
ቅዝቃዜ
ቅዠት
ቅየሳ
ቅያሶች
ቅይጥ
ቅደም
ቅዱሱ
ቅዱሱን
ቅዱሳት
ቅዱሳን
ቅዱሳንን
ቅዱሳዊ
ቅዱስ
ቅዱስም
ቅዱስና
ቅዱስን
ቅዱስንም
ቅዳ
ቅዳሜ
ቅዳም
ቅዳሴ
ቅድመ
ቅድመኞቹ
ቅድሚያ
ቅድማያት
ቅድማያቶች
ቅድም
ቅድሳት
ቅድስተ
ቅድስት
ቅድስና
ቅድስናን
ቅጂ
ቅጂው
ቅጂዎች
ቅጅ
ቅጠሉ
ቅጠሉም
ቅጠሉን
ቅጠላ
ቅጠል
ቅጠልና
ቅጠሎቹ
ቅጠሎች
ቅጠሎችን
ቅጣቱን
ቅጣት
ቅጣትን
ቅጣቶች
ቅጥ
ቅጥልጥል
ቅጥሎቹ
ቅጥረኛ
ቅጥረኞች
ቅጥር
ቅጥሯ
ቅጥያ
ቅጥያዎች
ቅጥፈት
ቅጦች
ቅጽ
ቅጽል
ቅጽሎች
ቅጽር
ቅጽበታዊ
ቅጽበት
ቅጾች
ቅፅ
ቅፅል
ቅፅሎች
ቅፅበት
ቅፍርናሖም
ቆ
ቆለጥ
ቆላ
ቆላማ
ቆላና
ቆሎ
ቆመ
ቆመች
ቆመዋል
ቆመው
ቆሙ
ቆማ
ቆማጣ
ቆም
ቆምጬ
ቆምጬን
ቆሞ
ቆሟል
ቆረቆረ
ቆረጠው
ቆሩ
ቆራሬ
ቆራርጦ
ቆራጣ
ቆራጥ
ቆራጥነት
ቆራጭ
ቆራጭነት
ቆርሶ
ቆርቆሮ
ቆርኪ
ቆርኬ
ቆርጠን
ቆርጠው
ቆርጦ
ቆሮ
ቆሮንቶስ
ቆሮንጦስ
ቆሰሉ
ቆስለዋል
ቆስለው
ቆስሎ
ቆስሏል
ቆስጠንጢኖስ
ቆስጣ
ቆሻሻ
ቆሻሻዎች
ቆሻሻዎችን
ቆቅ
ቆቡን
ቆቤን
ቆብ
ቆቦ
ቆንስላ
ቆንጆ
ቆንጫጫ
ቆንጽላ
ቆየ
ቆየች
ቆዩ
ቆይ
ቆይተዋል
ቆይተው
ቆይታ
ቆይታለች
ቆይታቸው
ቆይታው
ቆይቶ
ቆይቶም
ቆይቷል
ቆዳ
ቆዳን
ቆዳው
ቆዳውን
ቆጠራ
ቆጣሪ
ቆጣቢ
ቆጥ
ቆጥሮ
ቆጥቦ
ቆጮ
ቆጵሮስ
ቆጶስ
ቆፋሪዎቹ
ቆፋሪዎች
ቆፍ
ቆፍሮ
ቈርሶም
ቈንዳሚር
ቊ
ቊራጮች
ቊጥር
ቊጥቋጥ
ቋ
ቋል
ቋሚ
ቋሚና
ቋራ
ቋት
ቋንቋ
ቋንቋም
ቋንቋቸው
ቋንቋቸውም
ቋንቋቸውን
ቋንቋችን
ቋንቋነት
ቋንቋና
ቋንቋን
ቋንቋወች
ቋንቋው
ቋንቋውም
ቋንቋውን
ቋንቋዎቻቸው
ቋንቋዎች
ቋንቋዎችም
ቋንቋዎችና
ቋንቋዎችን
ቋንጣ
ቋጠሮ
ቋጥኝ
ቋጥኞች
ቍልፍ
ቍልፎች
ቍርስራሽ
ቍርባን
ቍርጥራጮች
ቍጣ
ቍጥሩ
ቍጥራዊ
ቍጥር
ቍጥሮች
ቐ
ቕ
ቜ
በ
በሀ
በሀሌ
በሀምሌ
በሀረር
በሀሰት
በሀሳብ
በሀበሻ
በሀንጋሪ
በሀዘን
በሀያ
በሀይሉ
በሀይል
በሀይማኖት
በሀይቲ
በሀዲያ
በሀገረ
በሀገሩ
በሀገሪቱ
በሀገሪቷ
በሀገራቱ
በሀገራቸው
በሀገራችን
በሀገር
በሁለተኛ
በሁለተኛው
በሁለቱ
በሁለቱም
በሁለት
በሁለትዮሽ
በሁሉ
በሁሉም
በሁንጋሪያ
በሁዋላ
በሁዳዴ
በሂሳብ
በሂትለር
በሂንዱኢዝም
በሂክሶስ
በሂደት
በሃላ
በሃሙራቢ
በሃሳብ
በሃዋይ
በሃያ
በሃያኛው
በሃይል
በሃይማኖታዊ
በሃይማኖት
በሃይቲ
በሃገሪቱ
በሃገራችን
በሃገር
በሄሊኮፕተር
በሄራክሌውፖሊስ
በሄሮዶቶስ
በሄንሪ
በሄደ
በሄደበት
በሄድኩበት
በህልሙ
በህመም
በህብረተሰቡ
በህብረቱ
በህብረት
በህንድ
በህክምና
በህዋላ
በህዝበ
በህዝቡ
በህዝባዊ
በህዝብ
በህይወቱ
በህይወቴ
በህይወት
በህይወቷ
በህዳር
በህገ
በህግ
በህጻንነታቸው
በሆላ
በሆላንድ
በሆሜር
በሆስፒታሉ
በሆታ
በሆነ
በሆነበት
በሆነችው
በሆነው
በሆኑ
በሆኑበት
በሆኑት
በሆዴ
በለሊት
በለስ
በለስላሳ
በለን
በለንደን
በለወጡ
በለው
በለጋ
በለጠ
በለፈለፉ
በሉ
በሉቃስ
በሉት
በሉክሰምበርግ
በሉዊ
በሊ
በሊቀ
በሊቃውንት
በሊቢያ
በሊባኖስ
በሊብያ
በሊቨርፑል
በሊዝ
በሊጉ
በሊግ
በሊፒት
በላ
በላህ
በላሊበላ
በላርሳ
በላስ
በላቲን
በላት
በላቸው
በላን
በላው
በላዩ
በላያቸው
በላያችን
በላይ
በላይቤሪያ
በላይነህ
በላይኛ
በላይኛው
በላጋሽ
በላጭ
በሌ
በሌለበት
በሌለው
በሌሉበት
በሌሊት
በሌሊትም
በሌላ
በሌላም
በሌላቸው
በሌላኛው
በሌላው
በሌላውም
በሌሎቹ
በሌሎች
በሌሎችም
በሌባ
በሌቦር
በሌኒንግራድ
በል
በልማት
በልማድ
በልሳነ
በልቡ
በልባቸው
በልባቸውም
በልባችኹ
በልብ
በልብሴ
በልተህ
በልተው
በልታ
በልቶ
በልኩ
በልክ
በልዑል
በልዩ
በልዩነት
በልደት
በልድያ
በልጁ
በልጃቸው
በልጅ
በልጅነቱ
በልጅነታቸው
በልጅነቴ
በልጅነት
በልጅነቷ
በልጆቹ
በልጆቻቸው
በልጆች
በልግ
በሎሚ
በሎርድ
በሎስ
በሎች
በሎንዶን
በሎንግ
በሐመር
በሐምሌ
በሐረሪ
በሐረር
በሐረርጌ
በሐሰት
በሐሳብ
በሐቱሳሽ
በሐቲ
በሐዋርያት
በሐዘን
በሐይማኖት
በሐይቁ
በሐይቅ
በሐዲስ
በሑራውያን
በሒሳብ
በሕልሙ
በሕልም
በሕብረት
በሕንዳዊ
በሕንድ
በሕክምና
በሕዝቡ
በሕዝብ
በሕዝብም
በሕይወቱ
በሕይወታቸው
በሕይወቴ
በሕይወት
በሕገ
በሕጉ
በሕጋዊ
በሕግ
በሕግም
በሕፃንነቱ
በሗላ
በመ
በመሀል
በመሃሉ
በመሃል
በመሄዱ
በመሄድ
በመሆኑ
በመሆኑም
በመሆኑና
በመሆናቸው
በመሆን
በመሆንም
በመሆንዋ
በመሆኗ
በመለካት
በመለኮቱ
በመለኮት
በመለወጥ
በመለዋወጥ
በመለየት
በመለገስ
በመለጠፍ
በመላ
በመላእክት
በመላክ
በመላው
በመላዕክት
በመልቀቅ
በመልአኩ
በመልካም
በመልክዓ
በመመለስ
በመመልከት
በመመሥረት
በመመርመር
በመመርኮዝ
በመመስረት
በመመኘት
በመመገቢያ
በመመገብ
በመማረክ
በመማር
በመምህርነት
በመምረጥ
በመምራት
በመምሰል
በመምታት
በመምጣቱ
በመምጣት
በመሞቱ
በመሞከር
በመሠረተ
በመሠረቱ
በመሠዊያው
በመሣርያዎች
በመሥራት
በመረዳት
በመረጃ
በመረጃና
በመሪ
በመሪነት
በመሪያቸው
በመሬት
በመርህ
በመርታት
በመርከቡ
በመርከብ
በመርዘሙ
በመርዝ
በመርዳት
በመርገጥ
በመርፌ
በመሰለ
በመሰረቱ
በመሰብሰብ
በመሳሰሉ
በመሳሰሉት
በመሳሳት
በመሳብ
በመሳተፍ
በመሳፍንት
በመስመር
በመስማማት
በመስራቱ
በመስራት
በመስቀሉ
በመስቀል
በመስቃን
በመስበር
በመስበክ
በመስታወት
በመስከረም
በመስኩ
በመስክ
በመስኮት
በመስጋት
በመስጠቱ
በመስጠት
በመስጴጦምያ
በመስፋፋቱ
በመስፋፋት
በመሸ
በመሸም
በመሸሽ
በመሸነፉ
በመሸጥ
በመሻር
በመሻት
በመሻገር
በመሾም
በመቀላቀል
በመቀሌ
በመቀመጡ
በመቀመጥ
በመቀበል
በመቀባት
በመቀነሱ
በመቀነስ
በመቀናጀት
በመቀየር
በመቀያየር
በመቀጠል
በመቀጠልም
በመቀጠር
በመቀጣጠል
በመቁረጥ
በመቁጠር
በመቃብሩ
በመቃብር
በመቃወም
በመቅረብ
በመቅረጽ
በመቅደላ
በመቅደሱ
በመቅደስ
በመቅደስም
በመቆም
በመቆየት
በመቆጣጠር
በመቆፈር
በመባሉ
በመባል
በመባልም
በመብላት
በመብረር
በመተላለፍ
በመተማ
በመተርጎም
በመተባበር
በመተንተን
በመተካት
በመተው
በመተግበር
በመታየቱ
በመታገዝ
በመትከል
በመቶ
በመቶው
በመቶውን
በመቶዎች
በመቻሉ
በመቻቻል
በመነሳት
በመነካካት
በመነጋገር
በመናገር
በመናገሻ
በመንቀሳቀስ
በመንበረ
በመንዝ
በመንደራቸው
በመንደር
በመንደፍ
በመንገዱ
በመንገድ
በመንገድም
በመንግሥተ
በመንግሥቱ
በመንግሥት
በመንግስቱ
በመንግስት
በመንፈሱ
በመንፈሳዊ
በመንፈስ
በመንፈስም
በመንፈቅለ
በመኖሩ
በመኖሪያ
በመኖራቸው
በመኖር
በመከላከል
በመከላከያ
በመከራ
በመከር
በመከተል
በመከታተል
በመከፋፈል
በመኪና
በመካ
በመካሄድ
በመካከለኛ
በመካከለኛው
በመካከሉ
በመካከላቸው
በመካከላቸውም
በመካከላችሁ
በመካከላችን
በመካከላችኹ
በመካከል
በመካድ
በመክበብ
በመክፈል
በመክፈት
በመኾን
በመወለዱ
በመወርወር
በመወሰን
በመወሰዱ
በመወከል
በመወጣት
በመዋል
በመዋዋል
በመዋጋት
በመውረር
በመውሰድ
በመውሰድና
በመውደቃቸው
በመውጣት
በመዘዋወር
በመዝመት
በመዝሙረ
በመዝሙር
በመዝናኛ
በመዝገብ
በመዝገቦች
በመዝፈን
በመዞር
በመዠመሪያ
በመያዙ
በመያዛቸው
በመያዝ
በመደመር
በመደበኛ
በመደበኛነት
በመደበኛው
በመደባለቅ
በመደገፍ
በመዲና
በመዲናዋ
በመድረስ
በመድረኩ
በመድረክ
በመድፍ
በመዶሻ
በመጀመሪያ
በመጀመሪያው
በመጀመሪያዎቹ
በመጀመር
በመጀመርያ
በመጀመርያው
በመገምገም
በመገናኘት
በመገናኛ
በመገንባት
በመገንዘብ
በመገኘቱ
በመገኘታቸው
በመገኘት
በመገደብ
በመጊዶ
በመጋራት
በመጋቢት
በመጋደል
በመግለጽ
በመግባት
በመግዛት
በመግደል
በመግፋት
በመጎብኘት
በመጓዝ
በመጠቀም
በመጠቆም
በመጠበቅ
በመጠባበቅ
በመጠኑ
በመጠኑም
በመጠን
በመጠየቅ
በመጠጣት
በመጠጥ
በመጡ
በመጣ
በመጣል
በመጣመር
በመጣስ
በመጣበት
በመጣው
በመጣፍ
በመጥምቁ
በመጥራት
በመጥቀስ
በመጥበሻ
በመጥፎ
በመጨመር
በመጨረሻ
በመጨረሻም
በመጨረሻው
በመጨረሻዎቹ
በመጫን
በመጫኛ
በመጫወት
በመጻፉ
በመጻፍ
በመጽሃፉ
በመጽሐፈ
በመጽሐፉ
በመጽሐፋቸው
በመጽሐፍ
በመፃፍ
በመፈለግ
በመፈረም
በመፈራረቅ
በመፈንቅለ
በመፈንዳቷ
በመፈጠሩ
በመፈጸም
በመፍራት
በመፍታት
በመፍጠሩ
በመፍጠር
በሙሉ
በሙሳ
በሙሴ
በሙስሊም
በሙስሊሞች
በሙስና
በሙስዓብ
በሙቀት
በሙቅ
በሙታን
በሙት
በሙኒክ
በሙከራ
በሙዚቃ
በሙዚቃው
በሙያው
በሚሆኑ
በሚሆን
በሚሆንበት
በሚለው
በሚሉ
በሚሉት
በሚሊዮን
በሚሊዮኖች
በሚል
በሚመለከት
በሚመራው
በሚመሳሰል
በሚመስል
በሚመጣ
በሚመጣው
በሚሠራበት
በሚሰራበት
በሚሰጠው
በሚስማማ
በሚስማር
በሚስቱ
በሚስጥር
በሚቀጥለው
በሚቀጥሉት
በሚባለው
በሚባሉ
በሚባሉት
በሚባል
በሚታኒ
በሚታወቀው
በሚታየው
በሚታይበት
በሚችል
በሚነሳበት
በሚኖሩ
በሚኖሩበት
በሚኖሩት
በሚኖር
በሚኖርበት
በሚከተለው
በሚከተለውም
በሚከተሉት
በሚካሄደው
በሚካኤል
በሚኾን
በሚወስደው
በሚያሳይ
በሚያስደንቅ
በሚያዚያ
በሚያዝያ
በሚያደርገው
በሚያደርጉት
በሚያገኙት
በሚደረገው
በሚደረጉ
በሚደረግ
በሚገባ
በሚገኘው
በሚገኙ
በሚገኙት
በሚገኝ
በሚገኝበት
በሚጠራ
በሚጠራው
በሚጠብቅ
በሚፈለገው
በሚፈልጉ
በማ
በማህበረሰቡ
በማህበረሰብ
በማህበራዊ
በማህበር
በማለቱ
በማለታቸው
በማለት
በማለዳ
በማለፍ
በማሊ
በማመን
በማምለጥ
በማምረት
በማምራት
በማምጣት
በማረም
በማረጋገጥ
በማረፍ
በማሪ
በማራቶን
በማር
በማርቆስ
በማርች
በማሰማት
በማሰራት
በማሰራጨት
በማሰር
በማሰሮ
በማሰባሰብ
በማሰብ
በማሳተም
በማሳቹሴትስ
በማሳወቅ
በማሳየት
በማሳደግ
በማሳጠር
በማስላት
በማስመሰል
በማስመስል
በማስመዝገብ
በማስመጣት
በማስረዘም
በማስረዳት
በማስረጃ
በማስቀመጥ
በማስቆጠር
በማስተላለፍ
በማስተማር
በማስተባበር
በማስተናገድ
በማስተካከል
በማስተዋል
በማስተዋወቅ
በማስተዳደር
በማስታወስ
በማስታወቂያ
በማስወገድ
በማስገባት
በማስገደድ
በማስፋፋት
በማሸነፍ
በማሻሻል
በማሻገር
በማቀናጀት
በማቀድ
በማቃጠል
በማቅረባቸው
በማቅረብ
በማቆም
በማቋረጥ
በማቋቋም
በማበር
በማበርከት
በማባረር
በማብራራት
በማብዛት
በማተሚያ
በማተኮር
በማታ
በማቴዎስ
በማኅበረሰቡ
በማኅበሩ
በማኅበራዊ
በማነሳሳት
በማነጽ
በማናቸውም
በማኔቶን
በማኔጦን
በማን
በማንም
በማንሳት
በማንቀሳቀስ
በማንበብ
በማንኛውም
በማንጎራጎር
በማእከላዊ
በማእዱ
በማከም
በማከናወን
በማካሄድ
በማካተት
በማካፈል
በማክበር
በማወቅ
በማወጅ
በማዋሃድ
በማዋል
በማዋሐድ
በማውገዝ
በማውጣት
በማዎዳደር
በማዕረግ
በማዕበል
በማዕከሉ
በማዕከላዊ
በማዕድን
በማዘጋጀት
በማዘጋጃ
በማዛወር
በማየ
በማየት
በማያሻማ
በማያያዝ
በማይታወቅ
በማይችሉበት
በማይችል
በማይክል
በማይጨው
በማደራጀት
በማደን
በማደግ
በማዳቀል
በማዳበር
በማዳጋስካር
በማድረስ
በማድረጉ
በማድረጋቸው
በማድረግ
በማድረግና
በማድሪድ
በማጁንጋ
በማጅራት
በማገልገል
በማገናኘት
በማግ
በማግሥቱ
በማግስቱ
በማግስቱም
በማግባት
በማግኘቱ
በማግኘታቸው
በማግኘት
በማጠናቀቅ
በማጠናከር
በማጣመር
በማጣቀስ
በማጣቱ
በማጣት
በማጥቃት
በማጥናት
በማጥፋት
በማጭበርበር
በማፅደቅ
በማፈን
በማፈንዳት
በማፈግፈግ
በማፍረስ
በማፍራት
በሜምፊስ
በሜሪላንድ
በሜክሲኮ
በሜይ
በሜዲቴራኔያን
በሜዲትራኒያን
በሜዳ
በሜዳው
በሜድትራኒያን
በምህንድስና
በምላሹ
በምላሹም
በምላሽ
በምልክት
በምሥራቁ
በምሥራቃዊ
በምሥራቅ
በምሥራቅና
በምሥጢር
በምርመራ
በምርምር
በምርኮ
በምርጥ
በምርጫ
በምርጫው
በምሳሌ
በምሳሌያዊ
በምስራቃዊ
በምስራቅ
በምስር
በምስጢር
በምሽት
በምቀኝነት
በምትባለው
በምትባል
በምትኩ
በምትካቸው
በምትክ
በምትገኘው
በምትገኝ
በምትገኝበት
በምቾት
በምን
በምንም
በምኞት
በምእራብ
በምክሩ
በምክር
በምክትል
በምክንያት
በምኵራብም
በምዕራቡ
በምዕራባዊ
በምዕራባዊው
በምዕራባውያን
በምዕራብ
በምዕራብም
በምዕራብያውያን
በምዕራፍ
በምድረ
በምድሪቱ
በምድራችን
በምድር
በምድርም
በምግባር
በምግብ
በምጣኔ
በምጽዋ
በሞላ
በሞላው
በሞልዶቫ
በሞረድ
በሞሪታንያ
በሞሮኮ
በሞስኮ
በሞቀ
በሞተበት
በሞቱ
በሞት
በሞንቴቪዴዎ
በሞንጎሊያውያን
በሞንጎልያ
በሞጣ
በሠላሳ
በሠራተኛ
በሠራዊቱ
በሠራዊት
በሠፊው
በሢማ
በሣር
በሤራ
በሥላሴ
በሥልጣኑ
በሥልጣን
በሥሩ
በሥራ
በሥራና
በሥርዓተ
በሥርዓት
በሥነ
በሥውር
በሥዕል
በሥያ
በሥጋ
በሥፍራው
በሦስተኛ
በሦስተኛው
በሦስተኛውም
በሦስቱ
በሦስት
በረሀ
በረሃ
በረሃማ
በረሃብ
በረሃዎች
በረሓ
በረረ
በረሩ
በረራ
በረራው
በረራውን
በረራዎች
በረራዎችን
በረቂቅ
በረቅ
በረት
በረንታ
በረንዳ
በረከቱ
በረከት
በረከትን
በረካ
በረዥም
በረዳት
በረድ
በረዶ
በረጃጅም
በረጅም
በረጨኑ
በሩ
በሩሲያ
በሩሲያኛ
በሩስያ
በሩሶ
በሩቅ
በሩን
በሩዋንዳ
በሩጫ
በሪ
በሪሁን
በሪል
በሪቻርድ
በሪችሞንድ
በሪዮ
በራ
በራሂ
በራሂዎች
በራሪ
በራሱ
በራሱም
በራሳቸው
በራስ
በራስታፋራይ
በራስዋ
በራስገዝ
በራሶ
በራሷ
በራእይ
በራይሆልት
በራይን
በራዲዮ
በራጅ
በራፍ
በሬ
በሬህን
በሬን
በሬው
በሬውን
በሬዎች
በሬዲዮ
በሬድዮ
በር
በርሃ
በርሊን
በርማ
በርሜል
በርሱ
በርሱም
በርሱና
በርሳቸው
በርሳቸውም
በርሳችሁ
በርሳችን
በርሳችኹ
በርስ
በርሷ
በርሷም
በርቀት
በርበሬ
በርበሬና
በርበሬውን
በርበሮች
በርባንን
በርታ
በርቶ
በርናርድ
በርን
በርከት
በርካታ
በርካቶች
በርዕሰ
በርድዝ
በርጊዮን
በርግጥ
በርግጥም
በርግጫ
በሮማ
በሮማን
በሮማው
በሮማውያን
በሮማይስጥ
በሮሜ
በሮም
በሮበርት
በሮች
በሮያል
በሰላማዊ
በሰላም
በሰላምና
በሰላሳ
በሰሌዳ
በሰሎሞን
በሰሙ
በሰማ
በሰማሽ
በሰማች
በሰማንያ
በሰማዕትነት
በሰማያት
በሰማያትና
በሰማያዊ
በሰማይ
በሰማይም
በሰማይና
በሰሜኑ
በሰሜናዊ
በሰሜናዊው
በሰሜን
በሰሜንና
በሰም
በሰሩት
በሰር
በሰባ
በሰባተኛው
በሰባት
በሰብአዊ
በሰብዓዊ
በሰናዖር
በሰኔ
በሰንሰለት
በሰንበት
በሰንበትም
በሰከንድ
በሰወች
በሰው
በሰውም
በሰውነቱ
በሰውነታችን
በሰውነት
በሰዎች
በሰዎችም
በሰዓት
በሰይፍ
በሰጠው
በሰጡት
በሰፈሩት
በሰፊ
በሰፊው
በሱ
በሱሉልታ
በሱመራዊ
በሱመራውያን
በሱመር
በሱመርና
በሱመርኛ
በሱቁጥራ
በሱናክ
በሱዳን
በሱዳንም
በሲሲሊ
በሲቪል
በሲና
በሲንጋፖር
በሲአይኤ
በሲኪሊያ
በሲክዮን
በሲዬራ
በሲዲ
በሲዳማ
በሲዳሞ
በሳሙና
በሳምራዊውም
በሳምንቱ
በሳምንት
በሳር
በሳርጎን
በሳቅ
በሳባ
በሳቸው
በሳን
በሳንስክሪት
በሳንቲያጎ
በሳንታ
በሳንዠርመን
በሳዑዲ
በሳይቤሪያ
በሳይንሳዊ
በሳይንስ
በሳይንስና
በሴማዊ
በሴም
በሴራ
በሴት
በሴቶች
በሴኔት
በሴኔጋል
በሴንት
በሴኬም
በሴፕቴምበር
በስህተት
በስለላ
በስለት
በስልክ
በስልጣኔ
በስልጣን
በስሕተት
በስመ
በስሙ
በስሙም
በስማቸው
በስማቸውም
በስሜ
በስሜታዊነት
በስሜት
በስሜኑ
በስሜን
በስም
በስምምነት
በስምንተኛው
በስምንት
በስምኽ
በስሩ
በስሪ
በስራ
በስራው
በስርዓት
በስርጭት
በስሱ
በስቅላት
በስበት
በስብሰባ
በስብሰባው
በስተ
በስተመጨረሻ
በስተመጨረሻም
በስተምሥራቅ
በስተምስራቅ
በስተምዕራብ
በስተሰሜን
በስተቀር
በስተቀኝ
በስተኋላ
በስተደቡብ
በስተጀርባ
በስተግራ
በስታሊን
በስታንፎርድ
በስኅተት
በስነ
በስንት
በስካር
በስኮትላንድ
በስኳር
በስዊስ
በስዊዘርላንድ
በስዊድን
በስውር
በስዕሉ
በስዕል
በስደት
በስድሳ
በስድስተኛው
በስድስት
በስድብ
በስጋ
በስጦታ
በስፋቱ
በስፋት
በስፍራው
በስፓኒሽ
በስፓኒሾች
በስፓንያውያን
በስፔን
በስፖርት
በሶ
በሶማሊያ
በሶማሌ
በሶሪያ
በሶርያ
በሶርያም
በሶርያና
በሶስተኛ
በሶስተኛው
በሶስቱ
በሶስት
በሶብላ
በሶቪየት
በሶቪዬት
በሶቭየት
በሶዶ
በሶፍትዌር
በሷ
በሷዴሽ
በሸንጎ
በሸክላ
በሸዋ
በሹመት
በሺ
በሺህ
በሺዎች
በሺዓ
በሻህ
በሻሽ
በሻንግ
በሽልማት
በሽመና
በሽር
በሽብርተኝነት
በሽቦ
በሽተኛ
በሽተኛው
በሽተኞች
በሽታ
በሽታን
በሽታወች
በሽታው
በሽታውን
በሽታዎች
በሽታዎችን
በሽቶች
በሽንት
በሽያጭ
በሽጉጥ
በሾኽ
በቀለ
በቀለማት
በቀለም
በቀላሉ
በቀላል
በቀል
በቀመር
በቀረበ
በቀረበው
በቀረቡት
በቀሪው
በቀር
በቀርቀሃ
በቀስ
በቀስታ
በቀበሌ
በቀን
በቀንድ
በቀኖና
በቀኙ
በቀኜ
በቀኝ
በቀዝቃዛ
በቀዝቃዛው
በቀይ
በቀደመው
በቀደሙት
በቀደምት
በቀደደው
በቀዳሚ
በቀዳሚነት
በቀዳማዊ
በቀዳማይ
በቀዳዳ
በቀድሞ
በቀድሞዋ
በቀድሞው
በቀዶ
በቀጠሮ
በቀጣዩ
በቀጣይ
በቀጣይነት
በቀጣዮቹ
በቀጥተኛ
በቀጥታ
በቀጥታም
በቀጭኑ
በቁ
በቁመቱ
በቁመት
በቁመናው
በቁም
በቁምራን
በቁራን
በቁርአን
በቁርኣን
በቁርዓን
በቁሱ
በቁስ
በቁስቋም
በቁስጥንጥንያ
በቁቤ
በቁና
በቁጣ
በቁጥር
በቁጥጥሩ
በቁጥጥራቸው
በቁጥጥር
በቁፋሮ
በቂ
በቂርሎስ
በቃ
በቃለ
በቃሉ
በቃላት
በቃል
በቃሏ
በቃሬዛ
በቃኝ
በቅሎ
በቅርበት
በቅርቡ
በቅርቡም
በቅርብ
በቅርብም
በቅቤ
በቅብጢ
በቅተዋል
በቅታለች
በቅቷል
በቅኔ
በቅን
በቅንነት
በቅንነትና
በቅንጦት
በቅኝ
በቅደም
በቅዱሳን
በቅዱስ
በቅድመ
በቅድሚያ
በቅድስት
በቅጡ
በቅጣት
በቅጥልጥል
በቅጽል
በቅጽበት
በቆላ
በቆሎ
በቆሎውን
በቆራጥነት
በቆሮንቶስ
በቆሮንጦስ
በቆሻሻ
በቆዩበት
በቆዳ
በቆጂ
በቆጵሮስ
በቋሚ
በቋሚነት
በቋንቋ
በቋንቋቸው
በቋንቋው
በበለጠ
በበላበት
በበላይ
በበላይነት
በበረሃ
በበረዶ
በበሩ
በበራፍ
በበሬ
በበርሊን
በበርካታ
በበሽታ
በበሽታው
በበቂ
በበቅሎ
በበነጋው
በበኩሉ
በበኩላቸው
በበዓሉ
በበዓል
በበዙ
በበዛበት
በበገና
በበጋ
በበጋው
በበግ
በበጎ
በቡልጋ
በቡልጋሪያ
በቡሩሻንዳ
በቡሬ
በቡርቱጋል
በቡርጂ
በቡና
በቡኪንግሃም
በቡዲስም
በቡድኑ
በቡድን
በቢላዋ
በቢቡኝ
በቢቢሲ
በቢጫ
በባሃይ
በባህሉ
በባህላዊ
በባህላዊው
በባህል
በባህረ
በባህሪያቸው
በባህር
በባለቤቱ
በባለቤትነት
በባሌ
በባልቲክ
በባልንጀራዋ
በባሕላዊ
በባሕር
በባሪያ
በባርነት
በባቡር
በባቢሎን
በባንቱ
በባንክ
በባንጃ
በባንግላዴሽ
በባኪንግሃም
በባዕድ
በባይዛንታይን
በባዮሎጂ
በባዶ
በቤልጂየም
በቤልጅግ
በቤተ
በቤተመንግስት
በቤተሰቡ
በቤተሰብ
በቤተክርስቲያኑ
በቤተክርስቲያን
በቤቱ
በቤቱም
በቤታቸው
በቤት
በቤንሻንጉል
በቤጂንግ
በብሄራዊ
በብሄር
በብሉይ
በብሔረሰቡ
በብሔሩ
በብሔራዊ
በብረት
በብሪቲሽ
በብሪታኒያ
በብሪታንያ
በብራና
በብራዚል
በብር
በብርሃኑ
በብርሃን
በብርሃንና
በብርሌ
በብርቱ
በብርቱካን
በብርጭቆ
በብቃት
በብቸኝነት
በብናኝ
በብዔል
በብዙ
በብዙወች
በብዙዎቹ
በብዙዎች
በብዛት
በብዛትም
በብድር
በብፁዕ
በቦሊቪያ
በቦምብ
በቦስተን
በቦስኒያ
በቦታ
በቦታቸው
በቦታው
በቦነስ
በቨርጂኒያ
በቪክቶሪያ
በቪዲዮ
በቫቲካን
በቫይረሱ
በቬትናም
በቬክተር
በተ
በተለመደ
በተለመደው
በተለምዶ
በተለምዶው
በተለቀቀው
በተለየ
በተለያየ
በተለያዩ
በተለይ
በተለይም
በተለፒኑ
በተላበሰ
በተልባ
በተመለሰ
በተመለሱበት
በተመለከተ
በተመሠረተ
በተመሠረተበት
በተመረጡ
በተመረጡት
በተመራ
በተመሰረተው
በተመሳሳዩ
በተመሳሳይ
በተመሳሳይም
በተመስጦ
በተመድ
በተመጣጣኝ
በተማሪዎች
በተሞላ
በተሞላበት
በተሟላ
በተሠሩ
በተሠራ
በተሠራው
በተረፈ
በተረፈም
በተረፉት
በተራ
በተራራ
በተራራው
በተራሮች
በተራቸው
በተራው
በተርታ
በተሰሎንቄ
በተሰራ
በተሰበሰቡ
በተሰበሰቡበት
በተሰኘ
በተሰኘው
በተሰኙ
በተሰጠው
በተሳሳተ
በተሳሳቱ
በተሳካ
በተስፋ
በተሻለ
በተሻሻለ
በተቀመጠው
በተቀመጡ
በተቀረጸው
በተቀረጹ
በተቀበሉት
በተቃራኒ
በተቃራኒው
በተቃዋሚ
በተቋሙ
በተቋቋመው
በተባለ
በተባለበት
በተባለች
በተባለችው
በተባለው
በተባሉ
በተባሉት
በተባበሩት
በተተኮሰ
በተቻለ
በተነሱ
በተነሳ
በተነሳበት
በተነሳው
በተናቸው
በተናጠል
በተናጥል
በተንቀሳቃሽ
በተንኮል
በተአምር
በተከላካይነት
በተከሰተ
በተከሰተው
በተከበረው
በተከታታይ
በተከታዩ
በተካሄደ
በተካሄደበት
በተካሄደው
በተክለ
በተወለደ
በተወለደበት
በተወለደች
በተወለዱ
በተወለዱበት
በተወሰነ
በተወሰነው
በተወሰኑ
በተወሰደው
በተወዳጅ
በተዋህዶ
በተዋሕዶ
በተዋረድ
በተዋናይነት
በተውጣጡ
በተዓምር
በተዘዋዋሪ
በተዘጋጀ
በተዘጋጀው
በተዛመደ
በተያዘ
በተያዘው
በተያያዘ
በተያያዙ
በተደረገ
በተደረገበት
በተደረገው
በተደረጉ
በተደጋጋሚ
በተገለጸው
በተገነባው
በተገናኘ
በተገኘ
በተገኘው
በተገኙ
በተገኙበት
በተገኙት
በተጉለትና
በተግባረ
በተግባራዊ
በተግባር
በተግባርም
በተጓዳኝ
በተጠቀሰው
በተጠቀሱት
በተጨማሪ
በተጨማሪም
በተጨባጩ
በተጨባጭ
በተጨናነቀ
በተጻራሪ
በተጻፈ
በተጻፈበት
በተጻፈው
በተፈለገ
በተፈለገው
በተፈሪ
በተፈጠረ
በተፈጠረው
በተፈጥሮ
በተፈጥሮው
በተፈጸመ
በተፈጸመው
በቱሪዝም
በቱርክ
በቱቦው
በቱዶር
በቲቤር
በቲዎሬቲካል
በቲያትር
በታህሳስ
በታላላቅ
በታላቁ
በታላቅ
በታላቋ
በታማኝነት
በታሪኩ
በታሪካዊ
በታሪክ
በታሪክና
በታቦር
በታቦቱ
በታተመ
በታተመው
በታች
በታችም
በታችኛ
በታችኛው
በታኅሣሥ
በታንክ
በታንኳ
በታንኳዪቱ
በታንዛኒያ
በታንግ
በታክሲ
በታወቀው
በታወጀበት
በታዋቂ
በታዋቂው
በታዕካ
በታይም
በታይፕራይተር
በታዳጊ
በታጂኪስታን
በቴሌቪዥን
በቴሌቭዥን
በቴሌግራም
በቴምዝ
በቴአትር
በቴክሳስ
በቴክኖሎጂ
በቴወድሮስ
በቴዎድሮስ
በት
በትህትና
በትላልቅ
በትልልቅ
በትልቁ
በትልቅ
በትሕትና
በትምህርቱ
በትምህርታቸው
በትምህርት
በትረ
በትራንስፖርት
በትር
በትርጉም
በትርፍ
በትብብር
በትናንሹ
በትናንሽ
በትንሣኤ
በትንሳኤ
በትንሹ
በትንሹም
በትንሽ
በትንሿ
በትንቢተ
በትእምርተ
በትእዛዝ
በትኩሱ
በትክክለኛ
በትክክለኛው
በትክክል
በትዊተር
በትውልድ
በትውፊት
በትውፊቶቹ
በትዕዛዝ
በትዕግስት
በትዳር
በትጋት
በትግራይ
በትግርኛ
በትጥቅ
በቶሎ
በቶሪኖ
በቶኪዮ
በቶክዮ
በቸነፈር
በቻለ
በቻርልስ
በቻንስለር
በቻይና
በቻይናዊ
በቻይንኛ
በችሎት
በችኮላ
በችግር
በኀይል
በኀጢአት
በኃላ
በኃላፊነት
በኃይሉ
በኃይል
በኅብረት
በኅዋ
በኅዳር
በኋለ
በኋለኛ
በኋለኛው
በኋለኞቹ
በኋላ
በኋላም
በኋላው
በኋል
በኋሥያ
በኋንግ
በነሀሴ
በነሐሴ
በነሐስ
በነርሱ
በነሱ
በነቃ
በነበረ
በነበረበት
በነበረችበት
በነበረችው
በነበረው
በነበሩ
በነበሩበት
በነበሩት
በነበራት
በነበራቸው
በነቢዩ
በነቢያት
በነቢይ
በነብዩ
በነነዌ
በነዚሁ
በነዚህ
በነዚህም
በነዚያ
በነዳጅ
በነገሠ
በነገሡ
በነገሥታት
በነገሩ
በነገራችን
በነገር
በነገሮች
በነጋታው
በነጠላ
በነጥብ
በነጩ
በነጭ
በነጻ
በነጻነት
በነፃ
በነፃነት
በነፋስ
በነፍሰ
በነፍስ
በኑሮ
በኒ
በኒሁ
በኒህ
በኒሎቲክ
በኒሺ
በኒካራጓ
በኒው
በኒውተን
በኒውዮርክ
በኒጄር
በኒፑር
በናሚቢያ
በናምሩድ
በናራ
በናራም
በናሽናል
በናዚ
በናዚዎች
በናዝሬት
በናይል
በናይሮቢ
በናይጄሪያ
በናፖሊዮን
በኔ
በኔታንያሁ
በኔዘርላንድ
በኔዘርላንድስ
በኔፓል
በኔፕቱን
በን
በንስሀ
በንቃት
በንቅያ
በንባብ
በንብረት
በንዲህ
በንዴት
በንድፈ
በንጉሠ
በንጉሡ
በንጉሣዊ
በንጉሣዊው
በንጉሥ
በንጉሥነት
በንጉሱ
በንጉስ
በንጋልኛ
በንግሥተ
በንግሥት
በንግስት
በንግድ
በንግድና
በንግግሩ
በንጥረ
በንጹህ
በንጹሕ
በንፁህ
በንፋስ
በኖህ
በኖረበት
በኖሩት
በኖርማንዲ
በኖርዌይ
በኖቬምበር
በኖኅ
በኗሪ
በኛ
በአ
በአሁኑ
በአሁን
በአሁኗ
በአህመድ
በአህያ
በአህጉሪቱ
በአህጉራዊ
በአለማችን
በአለም
በአለምአቀፍ
በአለቃ
በአለት
በአሉ
በአላህ
በአላህና
በአላላኽ
በአላስካ
በአሌክሳንደር
በአል
በአልካላይ
በአልጄሪያ
በአልጋ
በአልፕስ
በአሕዛብ
በአመቱ
በአመት
በአመዛኙ
በአመጽ
በአማራ
በአማርና
በአማርኛ
በአማርኛም
በአማርኛና
በአማርኛው
በአማካኝ
በአማካይ
በአሜሪካ
በአሜሪካና
በአሜሪካን
በአሜሪካዊው
በአሜሪካው
በአሜሪካውያን
በአሜሪካዎች
በአምላካችን
በአምላክ
በአምስተኛው
በአምስቱ
በአምስት
በአምባ
በአምክንዮ
በአሞራውያን
በአሥራ
በአሥራዎቹ
በአሥር
በአሦር
በአሦርና
በአረመኔ
በአረመኔዎች
በአረማይክ
በአረቢኛ
በአረቢያ
በአረብ
በአረብኛ
በአረቦች
በአረንጓዴ
በአረፍተ
በአሪዞና
በአራማያ
በአራማይስጥ
በአራም
በአራራት
በአራተኛ
በአራተኛው
በአራቱ
በአራታ
በአራት
በአራዳ
በአር
በአርሜኒያ
በአርሲ
በአርበኝነት
በአርበኞች
በአርባ
በአርክቲክ
በአርያም
በአርጀንቲና
በአርጎስ
በአርጎብኛ
በአርፋክስድ
በአሰላ
በአሳ
በአሳድ
በአስመራ
በአስራ
በአስር
በአስተማሪነት
በአስተዳደር
በአስቸኳይ
በአስቸጋሪ
በአሸናፊነት
በአሸዋ
በአሹር
በአቅራቢያው
በአበሳሰል
በአበሻ
በአበበ
በአቡነ
በአቡጊዳ
በአቢሲኒያ
በአቢዶስ
በአባ
በአባልነት
በአባቱ
በአባታቸው
በአባቴ
በአባት
በአባይ
በአቤ
በአብ
በአብላጫ
በአብርሃማዊ
በአብርሃም
በአብዛሀኛው
በአብዛሃኛው
በአብዛኛው
በአብዛኛዎቹ
በአብዛኞቹ
በአብያተ
በአብዮቱ
በአብዮታዊ
በአብዮት
በአቲካ
በአቴና
በአትላንቲክ
በአትላንታ
በአትክልቱ
በአትክልት
በአቶ
በአነስተኛ
በአነጋገር
በአኑራደፑረ
በአናቶሊያ
በአንስተኛ
በአንተ
በአንታርክቲካ
በአንኮበር
በአንደኛ
በአንደኛው
በአንዱ
በአንዱም
በአንዲት
በአንዳንድ
በአንዳንዶች
በአንድ
በአንድነት
በአንገቱ
በአንግሎ
በአንጻሩ
በአንጻራዊ
በአንፃሩ
በአንፃራዊ
በአእምሮ
በአከባቢው
በአካሉ
በአካላዊ
በአካል
በአካባቢ
በአካባቢዉ
በአካባቢው
በአካባቢያቸው
በአካድ
በአካድኛ
በአክሬ
በአክሱም
በአክሲስ
በአክሻክ
በአክብሮት
በአወቃቀር
በአዊ
በአዋሽ
በአዋን
በአዋጅ
በአውራጃው
በአውርስያ
በአውሮጳ
በአውሮጳውያን
በአውሮፓ
በአውሮፓና
በአውሮፓውያን
በአውሮፕላን
በአውስትሪያ
በአውስትራሊያ
በአውስትራልያ
በአዕምሮ
በአዞቭ
በአየር
በአየርላንድ
በአይሁድ
በአይሁዶች
በአይርላንድ
በአይስላንድ
በአይነ
በአይን
በአደራ
በአደባባይ
በአደን
በአደጋ
በአደጋው
በአዲሱ
በአዲስ
በአዲሶቹ
በአዳል
በአዳማ
በአዳም
በአዳዲስ
በአድማስ
በአድዋ
በአዶልፍ
በአገልግሎት
በአገሩ
በአገሪቱ
በአገሪቷ
በአገራቸው
በአገራችን
በአገሬው
በአገር
በአገው
በአጋንንት
በአጋጣሚ
በአግባቡ
በአጎራባች
በአጠቃላይ
በአጠገቡ
በአጭሩ
በአጭር
በአጼ
በአፄ
በአፈ
በአፈር
በአፈታሪክ
በአፉ
በአፋር
በአፍ
በአፍሪቃ
በአፍሪቃውያን
በአፍሪካ
በአፍሪካና
በአፍሮ
በአፍንጫው
በአፍጋኒስታን
በአፕል
በአፖሎ
በኡማ
በኡሩክ
በኡራጓይ
በኡር
በኡጋሪት
በኡጋንዳ
በኢ
በኢህአዴግ
በኢራቅ
በኢራን
በኢሲን
በኢሳይያስ
በኢስላማዊ
በኢስላም
በኢስታንቡል
በኢቢኤስ
በኢቤሪያ
በኢብራሂም
በኢቦላ
በኢትዮ
በኢትዮዽያ
በኢትዮጲያ
በኢትዮጵያ
በኢትዮጵያም
በኢትዮጵያና
በኢትዮጵያዊያን
በኢትዮጵያውያን
በኢትዮጵያየሚነገር
በኢንተርኔት
በኢንዱስትሪ
በኢንዶኔዥያ
በኢንግላንድ
በኢኮኖሚ
በኢኮኖሚክስ
በኢኮኖሚው
በኢኮኖሚያዊ
በኢየሩሳሌም
በኢየሩሳሌምም
በኢየሱስ
በኢያሱ
በኢጣሊያ
በኢጣልያ
በኣሁኑ
በኣለማወቅ
በኣለው
በኣለፉት
በኣሉ
በኣሉት
በኣማርኛ
በኣሥራ
በኣራት
በኣነሰ
በኣነሱ
በኣንድ
በኣንድና
በኣደረጉት
በኣዲስ
በኤላም
በኤሌክትሪክ
በኤልዛቤት
በኤልያስ
በኤሪ
በኤሪዱ
በኤርትራ
በኤርትራም
በኤርትራና
በኤብላ
በኤትሩስክኛ
በኤችአይቪ
በኤካላቱም
በኤድስ
በኤድዋርድ
በኤጲስቆፖሳዊ
በኤፍራጥስ
በኤፕሪል
በእ
በእለተ
በእለቱ
በእለት
በእልልታ
በእልቂት
በእምነቱ
በእምነታቸው
በእምነት
በእሥራት
በእራሱ
በእርሱ
በእርሳቸው
በእርስ
በእርሻ
በእርቅ
በእርጅና
በእርጋታ
በእርግዝና
በእርግጠኝነት
በእርግጡ
በእርግጥ
በእርግጥም
በእርጥብ
በእሱ
በእሳተ
በእሳት
በእሳትም
በእሳትና
በእስላም
በእስልምና
በእስራት
በእስራኤል
በእስራኤልና
በእስር
በእስኩቴስ
በእስክንድርያ
በእስያ
በእስያና
በእስፓንኛ
በእስፓንያ
በእስፓኝ
በእሷ
በእሾህ
በእቅዱ
በእብራይስጥ
በእቴጌ
በእነ
በእነርሱ
በእነርሱም
በእነሱ
በእነዚህ
በእነዚያ
በእናቱ
በእናታቸው
በእናት
በእናቷ
በእናንተ
በእናንተስ
በእኔ
በእኔም
በእንስሳ
በእንስሳት
በእንቁላል
በእንቅርት
በእንቅስቃሴ
በእንቅስቃሴው
በእንቆቅልሽ
በእንደራሴነት
በእንደዚህ
በእንዲህ
በእንዶድ
በእንጀራ
በእንግሊዘኛ
በእንግሊዘኛው
በእንግሊዝ
በእንግሊዝና
በእንግሊዝኛ
በእንግሊዝኛም
በእንግሊዝኛው
በእንግሊዞች
በእንግላንድ
በእንግድነት
በእንጦጦ
በእንጨት
በእንፋሎት
በእኛ
በእኩል
በእኩልነት
በእውር
በእውቀቱ
በእውቀት
በእውነተኛ
በእውነቱ
በእውነት
በእውኑ
በእዚሁ
በእዚህ
በእዚህም
በእየሩሳሌም
በእየሱስ
በእያንዳንዱ
በእያንዳንዷ
በእደ
በእድሜ
በእጁ
በእጃቸው
በእጄ
በእጅ
በእጅህ
በእጅጉ
በእግሩ
በእግራቸው
በእግር
በእግዚአብሔር
በእግዚአብሔርም
በእግዚአብሔርና
በእጥፍ
በእጩነት
በእጽዋት
በእፃዊ
በኦሎምፒክ
በኦሞ
በኦሪት
በኦርቶዶክስ
በኦሮሚያ
በኦሮምኛ
በኦሮሞ
በኦስትሪያ
በኦሺያኒያ
በኦቨን
በኦቶማን
በኦክስፎርድ
በኦክቶበር
በኦድዮ
በኦገስት
በኦጋዴን
በኦፊሴል
በከበሮ
በከባቢ
በከባድ
በከብቱ
በከብት
በከተማ
በከተማዋ
በከተማው
በከተማይቱ
በከተሞች
በከነዓን
በከንቱ
በከንፈሬ
በከንፈር
በከፊሉ
በከፊል
በከፊልም
በከፋ
በከፍተኛ
በከፍተኛው
በከፍታ
በኩላሊት
በኩል
በኩልም
በኩራት
በኩር
በኩሻራ
በኩሽ
በኩሽቲክ
በኩበት
በኩባ
በኩፋሌ
በኪሽ
በኪነ
በኪንግስተን
በኪየቭ
በካህናት
በካሊፎርኒያ
በካልኩለስ
በካሜሩን
በካምብሪጅ
በካሪቢያን
በካራን
በካራንዱኒያሽ
በካሬ
በካርል
በካርታ
በካርናክ
በካርዱንያሽ
በካሳ
በካሳውያን
በካስፒያን
በካቢኔ
በካቶሊክ
በካነሽ
በካናዳ
በካውካሰስ
በካውካሶስ
በካይሮ
በካፋ
በኬልቲካ
በኬልቶች
በኬሚስትሪ
በኬሚካል
በኬበክ
በኬብሮን
በኬኒያ
በኬኔሴት
በኬንሲንግተን
በኬንታኪ
በኬንያ
በኬንያም
በኬክሮስ
በኬጢያውያን
በኬጥኛ
በኬጥያውያን
በኬፕ
በክ
በክለቡ
በክልሉ
በክልል
በክልሎች
በክረምት
በክራር
በክራይሚያ
በክሬዲት
በክርስቲያን
በክርስቲያኖች
በክርስትና
በክርስቶስ
በክቡር
በክብ
በክብረ
በክብሩ
በክብር
በክብርና
በክብደት
በክፉ
በክፋት
በክፍለ
በክፍል
በክፍሎች
በክፍያ
በኮሌጅ
በኮሎምቢያ
በኮሎራዶ
በኮሎኔል
በኮመንዌልዝ
በኮሚኒስት
በኮምፒውተር
በኮምፒዩተር
በኮምፕዩተር
በኮምፕዩተርና
በኮምፕዩተሮችና
በኮሞዲቲ
በኮሪያ
በኮሪይኛ
በኮርያ
በኮሮና
በኮሮናቫይረስ
በኮቪድ
በኮነነኝ
በኮንሰርቫቲቭ
በኮንሶ
በኮንግረስ
በኮንግሬስ
በኮንጎ
በኰሙኒስት
በኲሩ
በኲር
በኾነ
በኾነው
በዃላ
በዃላም
በዃላዬ
በወህኒ
በወለጋ
በወሊድ
በወላይታ
በወልቃይት
በወልድ
በወሎ
በወረረ
በወረረበት
በወረረችበት
በወረሩበት
በወረራ
በወረቀት
በወረደ
በወረደበት
በወረዱ
በወረዳ
በወረዳዋ
በወረዳው
በወሬ
በወር
በወርሃ
በወርልድ
በወርቁ
በወርቅ
በወርቅና
በወሰዳቸው
በወሲብ
በወቅቱ
በወተት
በወታደራዊ
በወታደር
በወታደርነት
በወንዙ
በወንዙዋ
በወንዝ
በወንዱ
በወንድ
በወንድሙ
በወንድማማችነት
በወንድማማቾች
በወንድሟ
በወንዶች
በወንጀል
በወንጌላት
በወንጌል
በወንጌልም
በወንፊት
በወደቀበት
በወገራ
በወገኖቻቸው
በወጉ
በወጡ
በወጣ
በወጣበት
በወጣቱ
በወጣትነቱ
በወጣትነታቸው
በወጣትነት
በወጣው
በወጥ
በዉስጡ
በዊንሶር
በዊኪ
በዊኪፔድያ
በዋልታ
በዋርሳው
በዋሺንግተን
በዋሻ
በዋሻው
በዋሽንግተን
በዋነኛነት
በዋነኝነት
በዋና
በዋናነት
በዋናነትም
በዋናው
በዋጋ
በዌልስ
በዌስት
በዌስትሚኒስተር
በውሀ
በውሃ
በውሃው
በውሉ
በውል
በውርስ
በውሳኔ
በውሳኔው
በውስጡ
በውስጡም
በውስጣቸው
በውስጣቸውም
በውስጣዊ
በውስጥ
በውስጧ
በውሸት
በውሻ
በውቅያኖስ
በውቅያኖሶች
በውትድርና
በውኃ
በውነት
በውኑ
በውክልና
በውክሽኔሪ
በውይይት
በውድማ
በውድድሩ
በውጊያ
በውግያ
በውግያው
በውጤቱም
በውጪ
በውጭ
በዐል
በዐልጋ
በዐሥራ
በዐረብኛ
በዐዋጅ
በዐዲስ
በዐፄ
በዑር
በዑባ
በዑደቱ
በዓለ
በዓለሙ
በዓለም
በዓሉ
በዓሉን
በዓላት
በዓላትን
በዓላቸው
በዓል
በዓልን
በዓመቱ
በዓመታት
በዓመታዊ
በዓመት
በዓመጽ
በዓማርኛ
በዓማርኛና
በዓማርኛው
በዓረብኛ
በዓባይ
በዓታ
በዓየር
በዓይነቱ
በዓይነት
በዓይኑ
በዓይን
በዓፄ
በዕለተ
በዕለቱ
በዕለቱም
በዕለት
በዕርሻ
በዕብራውያን
በዕብራይስጡ
በዕብራይስጥ
በዕብራይስጥም
በዕብራይስጥና
በዕውቀት
በዕውነት
በዕውኑ
በዕዝራ
በዕደ
በዕድሜ
በዘልማድ
በዘመቻ
በዘመነ
በዘመነሉቃስ
በዘመኑ
በዘመኑም
በዘመናት
በዘመናቸው
በዘመናችን
በዘመናዊ
በዘመናዊቷ
በዘመናዊው
በዘረኝነት
በዘር
በዘርፉ
በዘውዱ
በዘውድ
በዘይት
በዘዴ
በዘጌ
በዘጠነኛው
በዘጠና
በዘጠኝ
በዘፈቀደ
በዘፈኖቹ
በዘፍጥረት
በዙ
በዙሪያቸው
በዙሪያችን
በዙሪያዋ
በዙሪያው
በዙሪያውም
በዙፋኑ
በዙፋን
በዚ
በዚሁ
በዚሁም
በዚህ
በዚህም
በዚህች
በዚህና
በዚህን
በዚህኛው
በዚች
በዚችም
በዚያ
በዚያም
በዚያች
በዚያችም
በዚያን
በዚያው
በዚያውም
በዛ
በዛም
በዛምቢያ
በዛሬ
በዛሬዋ
በዛሬው
በዛሬይቷ
በዛብህ
በዛን
በዛንዚባር
በዛው
በዛግሮስ
በዛፍ
በዛፎች
በዜማ
በዜሮ
በዜና
በዜጎች
በዝ
በዝሆን
በዝምታ
በዝምድና
በዝርዝሩ
በዝርዝር
በዝቅ
በዝቅተኛ
በዝተው
በዝናብ
በዝግመተ
በዝግታ
በዝግጅት
በዞራስተር
በዞኑ
በዠኔቭ
በየ
በየሕዝቡም
በየመን
በየመንደሩ
በየመንገዱ
በየምንጩ
በየራሳቸው
በየሳምንቱ
በየስፍራው
በየቀኑ
በየቤቱ
በየብስ
በየቦታው
በየተራ
በየተራው
በየተባበሩት
በየት
በየትም
በየትኛው
በየትኛውም
በየነ
በየንጥረ
በየአመቱ
በየአራት
በየአይነቱ
በየአገሩ
በየኢትዮጵያ
በየከተማው
በየካቲት
በየክፍሉ
በየወሩ
በየወቅቱ
በየወንዙ
በየዓመቱ
በየዕለቱ
በየዘመናቱ
በየጁ
በየጊዜ
በየጊዜው
በየጎኑ
በየጥቂቱ
በዩቱብ
በዩኒቨርሲቲ
በዩኒቨርሲቲው
በዩኒኮድ
በዩናይትድ
በዩኔስኮ
በዩኤስ
በዩኬ
በዩክራይን
በዩክሬን
በያመቱ
በያምኻድ
በያን
በያንዳንዱ
በያዕቆብ
በያዘ
በያዘበት
በያዘው
በያዙት
በያይነቱ
በይ
በይሁዳ
በይር
በይበልጥ
በይዘቱ
በይፋ
በይፋት
በይፋዊ
በዮሐንስ
በዮም
በዮርዳኖስ
በዮሴፉስ
በዮሴፍ
በዮናስ
በደ
በደሃራይ
በደህና
በደህንነት
በደሉ
በደሌ
በደል
በደመ
በደመነፍስ
በደመና
በደሙ
በደማስቆ
በደማቅ
በደም
በደምብ
በደረሰ
በደረሰበት
በደረሰው
በደረሱ
በደረሱበት
በደረቅ
በደረት
በደረጃ
በደራሲ
በደራሲነት
በደርዘን
በደርግ
በደሴ
በደሴቱ
በደሴቲቱ
በደሴቶቹ
በደስታ
በደቂቃ
በደቃቁ
በደቡቡ
በደቡባዊ
በደቡባዊው
በደቡብ
በደቡብና
በደብረ
በደብረታቦር
በደብተራ
በደን
በደንብ
በደንደስ
በደጃዝማች
በደጄ
በደጅ
በደጋ
በደጋፊ
በደፈጣ
በዱላ
በዱር
በዱባይ
በዲ
በዲሞክራሲ
በዲሴምበር
በዲስትሪክቱ
በዲባቶ
በዲዝኒ
በዲያስፖራ
በዲዮዶሮስ
በዲጂታል
በዲግሪ
በዲፕሎማ
በዲፕሎማሲ
በዳ
በዳሞት
በዳቦ
በዳንኤል
በዳኛ
በዳዊት
በዳይሬክተርነት
በዳገት
በዳግማዊ
በዴላዌር
በዴሳ
በዴንማርክ
በድ
በድህረ
በድህነት
በድል
በድሎ
በድመት
በድምሩ
በድምቀት
በድምጽ
በድምፃዊነት
በድምፅ
በድረ
በድሬዳዋ
በድርሰት
በድርቅ
በድርጅቱ
በድርጊቱ
በድሮ
በድሮው
በድስት
በድብ
በድብቅ
በድን
በድንቅ
በድንበር
በድንኳን
በድንገተኛ
በድንገት
በድንጋዩ
በድንጋይ
በድንጋዮቹ
በድንጋጤ
በድንግልና
በድጅ
በድጋሚ
በድጋሜ
በድፍረት
በዶ
በዶሮ
በዶንባስ
በዶክተሩ
በዶክተር
በጀልባ
በጀመረበት
በጀመሩበት
በጀርመናዊ
በጀርመናዊው
በጀርመናውያን
በጀርመን
በጀርመንና
በጀርመንኛ
በጀርመኖች
በጀት
በጀነት
በጀግንነት
በጁላይ
በጁን
በጂ
በጂኦግራፊያዊ
በጃማይካ
በጃቫ
በጃቸው
በጃኑዋሪ
በጃን
በጃንዋሪ
በጃፓን
በጃፓንኛ
በጄ
በጄምስ
በጄነራል
በጄኔራል
በጄኔቫ
በጅ
በጅማ
በጅምላ
በጅሮንድ
በጅቡቲ
በጆሃንስበርግ
በጆርጅ
በጆሮ
በጆን
በጆንሰን
በገሃድ
በገለዓድ
በገሊላ
በገሌ
በገሐድ
በገመድ
በገበታ
በገበያ
በገበያም
በገቢ
በገቢር
በገባ
በገባበት
በገባው
በገነት
በገና
በገንዘቡ
በገንዘብ
በገዛ
በገዛው
በገዢው
በገደል
በገዳሙ
በገጠሪቱ
በገጠር
በገጽ
በገፍ
በጉልበቱ
በጉልበት
በጉም
በጉራጌ
በጉባኤ
በጉባኤው
በጉባዔው
በጉታውያን
በጉዞው
በጉዲፈቻ
በጉዳዩ
በጉዳይ
በጉድጓድ
በጉጉት
በጉግል
በጊዛ
በጊዜ
በጊዜው
በጊዜውም
በጊዜያዊ
በጊዜያዊነት
በጊፋታ
በጋ
በጋሊያ
በጋሊፖሊ
በጋልባ
በጋማል
በጋምቤላ
በጋሞ
በጋሞጎፋ
በጋራ
በጋርዮሽ
በጋሻው
በጋብቻ
በጋና
በጋን
በጋው
በጋዛ
በጋዜጠኝነት
በጋዜጣ
በጌ
በጌምድር
በጌሤም
በጌራራ
በጌባል
በጌታ
በጌታችን
በጌዴኦ
በግ
በግለሰብ
በግሉ
በግላቸው
በግላዊ
በግል
በግልጥ
በግልጽ
በግልፅ
በግማሽ
በግምት
በግምጃ
በግሪል
በግሪንዊች
በግሪኩ
በግሪክ
በግሪክም
በግሪክና
በግሪክኛ
በግሪኮች
በግራ
በግራኝ
በግራው
በግርማዊ
በግርግም
በግስበት
በግሸን
በግቢው
በግብ
በግብረ
በግብር
በግብርና
በግብጻውያን
በግብጽ
በግብጽና
በግብጽኛ
በግብጾች
በግብፅ
በግና
በግንቡ
በግንባሩ
በግንባራቸውም
በግንባር
በግንባታ
በግንብ
በግንቦት
በግእዝ
በግዕዙ
በግዕዝ
በግዕዝና
በግዕዝኤዲት
በግዛቱ
በግዛታቸው
በግዛት
በግዝፈቱ
በግዞት
በግዳጅ
በግዴታ
በግድ
በግድያ
በግድግዳው
በግጥም
በግጭቱ
በግፍ
በጎ
በጎመን
በጎረቤት
በጎራዴ
በጎርጎርያን
በጎርጎርዮስ
በጎርፍ
በጎሳ
በጎች
በጎነት
በጎኑ
በጎን
በጎንደር
በጎንደርና
በጎዳና
በጎድጓዳ
በጎጃም
በጎጆሰን
በጓሮ
በጓደኞቹ
በጓደኞች
በጕድጓድ
በጠላት
በጠላትነት
በጠመንጃ
በጠማማ
በጠራ
በጠቅላላ
በጠቅላላው
በጠቅላይ
በጠበቀ
በጠባብ
በጠብ
በጠንካራ
በጠዋት
በጠጅ
በጠጠር
በጠፈር
በጠፍጣፋ
በጡረታ
በጢስ
በጣሊያን
በጣሊያኖች
በጣልኛ
በጣልያ
በጣልያናዊ
በጣልያን
በጣም
በጣምም
በጣት
በጣና
በጤቤስ
በጤና
በጤግሮስ
በጤፍ
በጥሊሞስ
በጥልቀት
በጥልቁ
በጥልቅ
በጥምረት
በጥምቀት
በጥሩ
በጥራት
በጥሬ
በጥር
በጥርሷ
በጥቁር
በጥቂቱ
በጥቂት
በጥቃቅን
በጥቃቱ
በጥቅሉ
በጥቅል
በጥቅም
በጥቅምት
በጥበቡ
በጥበብ
በጥባጭ
በጥብቅ
በጥናቱ
በጥናት
በጥንቃቄ
በጥንተ
በጥንቱ
በጥንታዊ
በጥንታዊት
በጥንታዊው
በጥንት
በጥንቶቹ
በጥንቷ
በጥያቄ
በጥይት
በጥግ
በጥፊ
በጥፋት
በጦር
በጦርነቱ
በጦርነት
በጨለማ
በጨረር
በጨረቃ
በጨርቅ
በጨቅላ
በጨዋታ
በጨው
በጫካ
በጫጩት
በጭራሽ
በጭቃ
በጭብጨባ
በጭነት
በጭንቀት
በጭንቅ
በጭካኔ
በጳውሎስ
በጳጉሜ
በጳጳሱ
በጳጳስ
በጸሎተ
በጸሎቱ
በጸሎት
በጸሎትና
በጸብ
በጸጋ
በጸጥታ
በጻፈው
በጻፉት
በጽሁፍ
በጽህፈት
በጽላቱ
በጽላት
በጽሑፉ
በጽሑፍ
በጽሑፎቹ
በጽሕፈት
በጽሞና
በጽርዕ
በጽኑ
በጽናት
በጽድቅ
በጾም
በጾምና
በጾታ
በፀሐይ
በፀሓይ
በፀረ
በፈለጉት
በፈረሱ
በፈረስ
በፈረንሣይ
በፈረንሳዊው
በፈረንሳዩ
በፈረንሳይ
በፈረንሳይና
በፈረንሳይኛ
በፈርዖኑ
በፈርዖን
በፈሳሽ
በፈቃደኝነት
በፈቃዱ
በፈቃዳቸው
በፈቃድ
በፈተና
በፈነዳው
በፈንታቸው
በፈንታው
በፈንጣጣ
በፈጠሩት
በፈጠራ
በፈጣሪ
በፈጣን
በፊሊፒንስ
በፊላደልፊያ
በፊልሙ
በፊልም
በፊልፒንስ
በፊተኛው
በፊቱ
በፊቱም
በፊታቸው
በፊታችን
በፊታውራሪ
በፊት
በፊትህ
በፊትም
በፊትና
በፊትኽ
በፊንላንድ
በፊንቄ
በፊውዳል
በፊዚክስ
በፊደሉ
በፊደል
በፊደልነት
በፋ
በፋራን
በፋርስ
በፋርስኛ
በፋሲል
በፋሲልደስ
በፋሲካ
በፋሺስት
በፋና
በፋይናንስ
በፌስቡክ
በፌብሩዋሪ
በፌደራል
በፌዴራል
በፌዴሬሽን
በፍልስጤም
በፍልስጥኤም
በፍልስፍና
በፍልስፍናው
በፍሎሪዳ
በፍራንሲስ
በፍራፍሬ
በፍርሀት
በፍርሃት
በፍርስራሽ
በፍርድ
በፍቅር
በፍታ
በፍትህ
በፍትሐ
በፍቼ
በፍጥነት
በፍጹም
በፍጹምም
በፍጹምነት
በፍፁም
በፎሞራውያን
በፎርት
በፑቲን
በፒ
በፒራሚዱ
በፓሪስ
በፓርላማ
በፓርላማው
በፓርቲው
በፓሲፊክ
በፓስፊክ
በፓተንት
በፓኪስታን
በፓፓ
በፔሩ
በፔታይን
በፔንታጎን
በፕላቶ
በፕሬስ
በፕሬዚደንት
በፕሬዚደንትነት
በፕሬዚዳንቱ
በፕሬዚዳንት
በፕሬዚዳንትነት
በፕሬዝዳንቱ
በፕሬዝዳንት
በፕሮቴስታንት
በፕሮፌሰር
በፖለቲካ
በፖለቲካዊ
በፖለቲካው
በፖሊስ
በፖላንድ
በፖሎኝ
በፖርቱጋል
በፖርቱጋልኛ
በፖርት
በፖርትላንድ
በፖርቶ
በፖስታ
በፖቶማክ
ቡ
ቡሀ
ቡሃላ
ቡሃሪ
ቡሄ
ቡሊ
ቡላ
ቡሌ
ቡልኮ
ቡልጋ
ቡልጋሪያ
ቡልጋርኛ
ቡረት
ቡሩ
ቡሩንዲ
ቡራቡሬ
ቡራኬ
ቡራዩ
ቡሬ
ቡር
ቡርና
ቡርኪና
ቡርያሽ
ቡርጂ
ቡርጅ
ቡርጊባ
ቡሲሪስ
ቡሲሪስን
ቡሽ
ቡሽቲ
ቡቃያ
ቡታን
ቡታጅራ
ቡችላ
ቡኒ
ቡና
ቡናማ
ቡናሮቲ
ቡናና
ቡናን
ቡኪንግሃም
ቡክ
ቡክስ
ቡኮው
ቡኻሪ
ቡኻሪና
ቡዝ
ቡዲስም
ቡዲስት
ቡዲስቶች
ቡዲዝም
ቡዳ
ቡድሂዝም
ቡድኑ
ቡድኑን
ቡድን
ቡድንና
ቡድንን
ቡድንንና
ቡድኖቹ
ቡድኖች
ቡድኖችን
ቡጁምቡራ
ቡጢ
ቢ
ቢሄድ
ቢሄድም
ቢሆኑ
ቢሆኑም
ቢሆን
ቢሆንም
ቢሆንና
ቢለምነው
ቢለን
ቢለንም
ቢለኝ
ቢለው
ቢለግስ
ቢሉ
ቢሉም
ቢሉት
ቢሊሩቢን
ቢሊየነሮች
ቢሊየን
ቢሊዮን
ቢላ
ቢላል
ቢላት
ቢላቸው
ቢላዋ
ቢል
ቢልም
ቢልዮን
ቢሎንግ
ቢሏት
ቢሏቸው
ቢመራው
ቢመስሉም
ቢመስልም
ቢመታ
ቢመጡ
ቢመጣ
ቢመጣም
ቢሞቱ
ቢሞት
ቢሞክሩም
ቢሠራ
ቢሠርቅ
ቢረሳ
ቢረዝም
ቢረዳዳ
ቢራ
ቢራቢሮ
ቢራቱ
ቢሮ
ቢሮውን
ቢሮዎች
ቢሮዎችን
ቢሮጥ
ቢሰረቅ
ቢሰሩ
ቢሰርቀው
ቢሰርቅ
ቢሰበሰብ
ቢሰብር
ቢሰጠን
ቢሰጡ
ቢሰጡት
ቢሰጡን
ቢሰጥ
ቢሰጥም
ቢሳሳት
ቢሳው
ቢስ
ቢስነት
ቢሶ
ቢሸከም
ቢሸፍት
ቢሻሜል
ቢሻን
ቢሾፍቱ
ቢቀር
ቢቀይር
ቢቂላ
ቢቆይም
ቢቆጠርም
ቢቆጡት
ቢቆጥሩ
ቢቈርጥ
ቢበላ
ቢበር
ቢበዛ
ቢቡኝ
ቢቢሲ
ቢባል
ቢባልም
ቢብሊዮግራፊ
ቢብሊዮጤኬ
ቢብሎግራፊ
ቢተልስ
ቢተኙ
ቢተኛ
ቢተፉ
ቢታለብ
ቢታስብም
ቢታንያ
ቢታወቅም
ቢታይም
ቢት
ቢትልስ
ቢትወደድ
ቢቸና
ቢቻልም
ቢች
ቢችሉም
ቢችልም
ቢነሣ
ቢነሳ
ቢነገርም
ቢነግሩት
ቢነግድ
ቢናገሩ
ቢናገሩት
ቢናገር
ቢን
ቢንቁ
ቢንት
ቢንያም
ቢንግ
ቢንጫጫ
ቢኖረው
ቢኖረውም
ቢኖሩ
ቢኖሩም
ቢኖሩት
ቢኖራትም
ቢኖራቸው
ቢኖራቸውም
ቢኖር
ቢኖርም
ቢኖርዎ
ቢከራይ
ቢከፍቱት
ቢኮ
ቢኾኑ
ቢኾን
ቢወልዱ
ቢወርወር
ቢወስድ
ቢወቅጡት
ቢወክል
ቢወድቅ
ቢወጡም
ቢዘገይ
ቢዛንታይን
ቢዝነስ
ቢያመልጥ
ቢያምርህ
ቢያምኑም
ቢያሳውር
ቢያሳይም
ቢያስቀምጡት
ቢያቃጥል
ቢያቋረጥ
ቢያብር
ቢያብጥ
ቢያተርፍ
ቢያናግሩህ
ቢያንስ
ቢያንቀላፋ
ቢያኖር
ቢያወሩ
ቢያውቀው
ቢያዩኝ
ቢያደርጉም
ቢያደርግ
ቢያደርግም
ቢያገኘው
ቢያገኛቸው
ቢያገኝም
ቢያጋድል
ቢያጐድል
ቢያጡ
ቢያጥር
ቢይዙት
ቢደልሉት
ቢደረግ
ቢዴል
ቢገቡ
ቢገባ
ቢገኙም
ቢገኝ
ቢገኝም
ቢገደል
ቢገድለው
ቢገድል
ቢግ
ቢጎዳ
ቢጠሩ
ቢጠፉ
ቢጠፋ
ቢጠፋም
ቢጣሉ
ቢጤ
ቢጥሉ
ቢጥሉለት
ቢጫ
ቢጫው
ቢፈለግ
ቢፈልጉ
ቢፈልጉም
ቢፈታ
ቢፈነጭ
ቢፈጠር
ባ
ባሁኑ
ባሃማስ
ባህሉ
ባህሉን
ባህላቸው
ባህላዊ
ባህላዊና
ባህል
ባህልና
ባህልን
ባህሎች
ባህሎችን
ባህረ
ባህረስላጤ
ባህሩ
ባህሪ
ባህሪው
ባህሪዎች
ባህሪያቱ
ባህሪያት
ባህሪያትን
ባህሪያቸው
ባህሪያቸውን
ባህሪይ
ባህሬን
ባህር
ባህርን
ባህርያት
ባህርይ
ባህርዳር
ባህታ
ባህታዊ
ባህያ
ባለ
ባለሀብት
ባለሀብቶች
ባለሁለት
ባለሃብት
ባለመሆኑ
ባለመስማማታቸው
ባለመብት
ባለመቻሉ
ባለመቻላቸው
ባለመኖሩ
ባለሙሉ
ባለሙያ
ባለሙያው
ባለሙያዎች
ባለሙያዎችን
ባለማወቅ
ባለማግኘቱ
ባለማግኘታቸው
ባለሞያዎች
ባለሟል
ባለሟሎች
ባለሥልጣናት
ባለሥልጣን
ባለሥልጣኖች
ባለስልጣናት
ባለስልጣናትን
ባለስልጣን
ባለስልጣኖች
ባለቅኔ
ባለቅኔና
ባለቅኔው
ባለበት
ባለባቸው
ባለቤቱ
ባለቤቱም
ባለቤቱን
ባለቤታቸው
ባለቤት
ባለቤትም
ባለቤትነት
ባለቤትና
ባለቤቶች
ባለቤቷ
ባለቤቷን
ባለብዙ
ባለታሪክ
ባለትዳር
ባለትዳርና
ባለች
ባለችው
ባለንብረት
ባለአንድ
ባለእዳ
ባለዉ
ባለው
ባለውለታ
ባለድርሻ
ባለጌ
ባለጌን
ባለጠጋ
ባለጠግነት
ባለጸጋ
ባለፀጋ
ባለፈ
ባለፈው
ባለፈውና
ባለፉት
ባሉ
ባሉበት
ባሉት
ባሊ
ባላ
ባላምባራስ
ባላባት
ባላባቶች
ባላባቶችን
ባላት
ባላቸው
ባላገር
ባሌ
ባል
ባልሆነ
ባልሆኑ
ባልሞላ
ባልሽ
ባልተጠበቀ
ባልቲክ
ባልታወቀ
ባልታዊ
ባልቴት
ባልትና
ባልቻ
ባልነው
ባልና
ባልንጀራ
ባልንጀራህን
ባልንጀሮች
ባልወጣሽ
ባልዋ
ባልዋለበት
ባልዋን
ባልደረባ
ባልደረባው
ባልደረቦቹ
ባልደረቦቻቸው
ባልደረቦች
ባሏ
ባሏን
ባሕላዊ
ባሕል
ባሕሎች
ባሕረ
ባሕሩ
ባሕሪ
ባሕሪይ
ባሕሬን
ባሕር
ባሕርና
ባሕርን
ባሕርያተ
ባሕርያት
ባሕርይ
ባሕርዮች
ባሕታዊ
ባመድ
ባማኮ
ባሠሩት
ባረንቱ
ባረከ
ባረከው
ባረፈበት
ባሩድ
ባሪ
ባሪያ
ባሪያው
ባሪያውን
ባሪያዎች
ባሪያዎችን
ባራታርና
ባራቴሪ
ባራክ
ባራክስ
ባሬ
ባር
ባርሴሎና
ባርቡዳ
ባርባራ
ባርቤዶስ
ባርነት
ባርነትን
ባርኔጣ
ባርከር
ባርካ
ባርየ
ባርያ
ባርያና
ባርያን
ባርያዎች
ባርዮች
ባርዱስ
ባሮ
ባሮቹን
ባሮች
ባሮን
ባሮክ
ባሰ
ባሲሊካ
ባሳ
ባሳተመው
ባሳተሙት
ባሳየው
ባሳዩት
ባስ
ባስሊዮስ
ባስሊዮስል
ባስልዮስ
ባስተላለፈው
ባስከተለው
ባስኬት
ባስኬቶ
ባሻ
ባሻር
ባሻገር
ባቀረበው
ባቄላ
ባቡር
ባቡሮች
ባቢሌ
ባቢሎናውያን
ባቢሎን
ባቢሎንና
ባቢሎንን
ባቤል
ባብ
ባብዛኛው
ባቲ
ባታ
ባትሆንም
ባትሪ
ባችለር
ባነር
ባነሰ
ባኒ
ባን
ባንባ
ባንተ
ባንቱ
ባንቲ
ባንቺ
ባንኩ
ባንክ
ባንክን
ባንኮች
ባንዱ
ባንዲራ
ባንዲራውን
ባንዲራዎች
ባንዳ
ባንዳር
ባንዳንድ
ባንዳዎች
ባንድ
ባንድነት
ባንዶች
ባንጃ
ባንግ
ባንግላዲሽ
ባንግላዴሽ
ባንጻሩ
ባእድ
ባኩ
ባኩስ
ባካሄደው
ባካሄዱት
ባካባቢው
ባካፋ
ባክቴሪያ
ባክቴሪያዎች
ባክትሪያ
ባወቀ
ባወጣው
ባው
ባዕድ
ባዘጋጀው
ባዝላት
ባዝል
ባየ
ባየር
ባየው
ባዩ
ባያድለኝ
ባዬ
ባይ
ባይሆኑም
ባይሆን
ባይሆንም
ባይሩ
ባይበላሽ
ባይታወቅም
ባይቻልም
ባይችልም
ባይነስ
ባይነት
ባይነግድ
ባይናከሱ
ባይኖረውም
ባይኖራቸውም
ባይኖር
ባይኖርም
ባይኾን
ባይወለድ
ባይወልድ
ባይዛንታይን
ባይደን
ባይገኝም
ባይጠጣ
ባዮሎጂ
ባዮች
ባዮግራፊ
ባደረበት
ባደረባቸው
ባደረገ
ባደረገበት
ባደረገችው
ባደረገው
ባደረጉበት
ባደረጉት
ባደረጋቸው
ባደረግንለት
ባዳ
ባድር
ባዶ
ባዶነት
ባጃ
ባገሩ
ባገራችን
ባገር
ባገኘው
ባገኙት
ባገኝ
ባገደደ
ባግዳድ
ባጠቃላይ
ባጭሩ
ባፋ
ባፍ
ባፕቲስት
ቤ
ቤሉ
ቤሊዝ
ቤላ
ቤላሩስ
ቤል
ቤልጂየም
ቤልጅክ
ቤልጅግ
ቤሎ
ቤርሳቤ
ቤርሳቤህ
ቤርድ
ቤርጎሊዮ
ቤሮሶስ
ቤሲክ
ቤስጳስያን
ቤተ
ቤተልሔም
ቤተመቅደስ
ቤተመቅደሶች
ቤተመንግሥት
ቤተመንግስት
ቤተመንግስቶች
ቤተመጻሕፍት
ቤተሠቡ
ቤተሠብ
ቤተሠቦች
ቤተሰቡ
ቤተሰቡን
ቤተሰባቸው
ቤተሰብ
ቤተሰብን
ቤተሰቦቹ
ቤተሰቦቹን
ቤተሰቦቻቸው
ቤተሰቦች
ቤተሰቦችን
ቤተከርስቲያን
ቤተክርስቲያኑ
ቤተክርስቲያን
ቤተክርስቲያንም
ቤተክርስቲያንና
ቤተክርስቲያንን
ቤተክርስቲያኖች
ቤተክርስትያን
ቤተክርስትያንን
ቤቱ
ቤቱም
ቤቱስ
ቤቱን
ቤቱንም
ቤታ
ቤታቸው
ቤታቸውን
ቤታችን
ቤታዊ
ቤቴ
ቤቴል
ቤቴን
ቤቴንም
ቤት
ቤትም
ቤትና
ቤትን
ቤትኽ
ቤቶቹ
ቤቶች
ቤቶችና
ቤቶችን
ቤቶችንም
ቤቷ
ቤቷን
ቤኒቶ
ቤኒን
ቤናዚር
ቤኔዲክት
ቤን
ቤንታም
ቤንች
ቤንችኛ
ቤንዚን
ቤንዝ
ቤንጃሚን
ቤንጋሊ
ቤንጋል
ቤዛ
ቤዝ
ቤይ
ቤይጂንግ
ቤጂንግ
ቤጃ
ቤጊን
ቤጌምድር
ብ
ብሄረ
ብሄረሰብ
ብሄረሰቦች
ብሄረሰቦችና
ብሄረሰቦችን
ብሄረስቦችና
ብሄራዊ
ብሄር
ብሄሮች
ብለህ
ብለሽ
ብለን
ብለዉ
ብለዋል
ብለዋቸው
ብለው
ብለውታል
ብለውት
ብሉ
ብሉይ
ብሊክ
ብላ
ብላለች
ብላስኮን
ብላበት
ብላታ
ብላቴና
ብላቴን
ብላችሁ
ብላችኹ
ብላክ
ብሌን
ብልሀት
ብልሃት
ብልህ
ብልህነት
ብልሹ
ብልሽት
ብልት
ብልትን
ብልቶች
ብልጥ
ብልጫ
ብልጭ
ብልጽግና
ብልፅግና
ብሎ
ብሎም
ብሎታል
ብሎት
ብሎን
ብሎኖች
ብሎአል
ብሏል
ብሏልና
ብሏታል
ብሏቸው
ብሐራዊ
ብሔረሰቡ
ብሔረሰብ
ብሔረሰቦች
ብሔረሰቦችና
ብሔሩ
ብሔራዊ
ብሔር
ብሔርተኝነት
ብሔርተኞች
ብሔርና
ብሔሮች
ብረታ
ብረታብረት
ብረት
ብረትና
ብረቶች
ብሩ
ብሩህ
ብሩስ
ብሩነይ
ብሩን
ብሩኖ
ብሩክ
ብሪስኬት
ብሪቲሽ
ብሪታኒካ
ብሪታኒያ
ብሪታን
ብሪታንያ
ብሪታንያን
ብሪቶኑም
ብሪን
ብሪያን
ብሪያንድ
ብሪጅ
ብራ
ብራሰልስ
ብራቲስላቫ
ብራና
ብራናዎች
ብራውን
ብራዚሊያ
ብራዚላዊ
ብራዚል
ብራዛቪል
ብራያን
ብራድፎርድ
ብሬመን
ብሬስ
ብሬክ
ብሬዥኔቭ
ብር
ብርሀን
ብርሃነ
ብርሃኑ
ብርሃናት
ብርሃናዊ
ብርሃኔ
ብርሃን
ብርሃንም
ብርሃንና
ብርሃንን
ብርሌ
ብርቁ
ብርቅ
ብርቅና
ብርቅዬ
ብርብራ
ብርቱ
ብርቱካናማ
ብርቱካን
ብርኃን
ብርና
ብርንዶ
ብርእ
ብርድ
ብርጋዴር
ብርጌድ
ብርጭቆ
ብሮስ
ብሮይልድ
ብሮድካስቲንግ
ብሳና
ብስለት
ብስል
ብስራት
ብስኩት
ብስክሌት
ብስጭት
ብሻው
ብቁ
ብቃቱ
ብቃቱን
ብቃት
ብቃትና
ብቅ
ብቅል
ብታሰናክልኽ
ብታውቅ
ብታይ
ብታደርግ
ብታገባት
ብታገኝ
ብትሆን
ብትሆንም
ብትል
ብትሞት
ብትኾኑ
ብትኾን
ብትወድስ
ብትፈታት
ብቸና
ብቸኛ
ብቸኛዋ
ብቸኛው
ብቻ
ብቻቸውን
ብቻና
ብቻዋን
ብቻውን
ብቻዬን
ብኋላ
ብናኝ
ብኔ
ብንል
ብንወስድ
ብንያም
ብኖን
ብክለት
ብክለትን
ብዕር
ብዘት
ብዙ
ብዙሀን
ብዙሃን
ብዙም
ብዙኃን
ብዙነሽ
ብዙን
ብዙወች
ብዙው
ብዙውን
ብዙዎቹ
ብዙዎቹም
ብዙዎቹን
ብዙዎች
ብዙዎችም
ብዙዎችን
ብዛቱ
ብዛታቸው
ብዛት
ብዛትም
ብዛትና
ብዛቷ
ብዜታቸው
ብዜት
ብዝሃነት
ብየ
ብዪ
ብያኔ
ብዬ
ብይ
ብይን
ብድር
ብድግ
ብጉር
ብጉንጅ
ብግነት
ብጡል
ብጣሽ
ብጥብጥ
ብጫ
ብጹዕ
ብፁዓን
ብፁዕ
ብፁዕነታቸው
ቦ
ቦህዳን
ቦሊቪያ
ቦሊቫር
ቦሌ
ቦል
ቦልሼቪኮች
ቦልግ
ቦሎ
ቦሎኔዝ
ቦሎኛ
ቦምብ
ቦምቦች
ቦረና
ቦሩ
ቦሪስ
ቦራ
ቦር
ቦርሳ
ቦርዴ
ቦርድ
ቦስተን
ቦስኒያ
ቦብ
ቦተም
ቦታ
ቦታም
ቦታቸው
ቦታቸውን
ቦታና
ቦታን
ቦታወች
ቦታዋ
ቦታው
ቦታውን
ቦታዎች
ቦታዎችን
ቦቴጎ
ቦት
ቦትስዋና
ቦነስ
ቦናንዛ
ቦናፓርት
ቦን
ቦንብ
ቦንድ
ቦካሳ
ቦክ
ቦዘኔ
ቦዩስ
ቦይ
ቦይንግ
ቦዲ
ቦዲቲ
ቦጋለ
ቦግ
ቧ
ቧንቧ
ቧንቧዎች
ቨ
ቨርዴ
ቨርድ
ቨርጂኒያ
ቨርጂን
ቩ
ቪ
ቪሃረ
ቪላ
ቪል
ቪልሄልም
ቪሳ
ቪተርቦ
ቪታሚን
ቪቴርቦ
ቪትገንስታይን
ቪንሰንት
ቪክቶሪያ
ቪክቶር
ቪክቶርያ
ቪዚጎቶች
ቪዛ
ቪዲዮ
ቪድ
ቪድዮ
ቫሊ
ቫሌንሲያ
ቫሌንስ
ቫሳል
ቫሳሎ
ቫቲካን
ቫን
ቫንዳሉስ
ቫንዳሎች
ቫይረሱ
ቫይረሱን
ቫይረስ
ቫይረሶች
ቫይታሚን
ቫዮሊን
ቬለ
ቬርኖን
ቬሱቪዩስ
ቬትናም
ቬትናምኛ
ቬነስ
ቬኒስ
ቬኔዝዌላ
ቬክተር
ቬክተሮች
ቬዳ
ቬጋስ
ቭ
ቭላንደርኛ
ቭላዲሚር
ቭላድሚር
ቮ
ቮልታ
ቮልቴጅ
ቮልቴጆች
ቮልት
ቮልዩም
ቮልዲሚር
ቮልድሞርት
ቮልጋ
ቮን
ቮየጀር
ተ
ተሃድሶ
ተለመደ
ተለመደው
ተለማ
ተለቀቀ
ተለቀቁ
ተለቅ
ተለቋል
ተለት
ተለወጠ
ተለዋዋጭ
ተለዋዋጭነት
ተለዋጭ
ተለውጠዋል
ተለውጦ
ተለውጧል
ተለየ
ተለየች
ተለዩ
ተለያየ
ተለያዩ
ተለያይተው
ተለያይቶ
ተለይተዋል
ተለይተው
ተለይቶ
ተለይቷል
ተለጠፈ
ተለጣጭ
ተለፒኑ
ተላለፈ
ተላላፊ
ተላልፏል
ተላም
ተላከ
ተላኩ
ተላጭታ
ተል
ተልሙድ
ተልባ
ተልኑስ
ተልእኮ
ተልእኮው
ተልእኮውን
ተልእኮዎች
ተልከዋል
ተልከው
ተልኮ
ተልኳል
ተልዕኮ
ተሐድሶ
ተመለሠ
ተመለሡ
ተመለሰ
ተመለሰች
ተመለሰና
ተመለሱ
ተመለሱና
ተመለስ
ተመለከተ
ተመላላሽ
ተመላሽ
ተመልሰዋል
ተመልሰው
ተመልሰውም
ተመልሳ
ተመልሶ
ተመልሷል
ተመልከቱ
ተመልከት
ተመልካቹ
ተመልካች
ተመልካቾች
ተመልካቾችን
ተመልክተናል
ተመልክተዋል
ተመልክተው
ተመልክቶ
ተመልክቷል
ተመመ
ተመሠረተ
ተመሠረተች
ተመሠረቱ
ተመሠርቶ
ተመሣሣይ
ተመሣሣይነት
ተመሥርቶ
ተመረቀ
ተመረቁ
ተመረቅሁ
ተመረጠ
ተመረጡ
ተመሪው
ተመራማሪ
ተመራማሪወች
ተመራማሪው
ተመራማሪዎቹ
ተመራማሪዎች
ተመራቂ
ተመራጭ
ተመራጭነት
ተመርምሯል
ተመርቀዋል
ተመርቀው
ተመርቆ
ተመርቋል
ተመርተው
ተመርቶ
ተመርኩዞ
ተመርጠዋል
ተመርጠው
ተመርጦ
ተመርጧል
ተመሮጥ
ተመሰረተ
ተመሰረተች
ተመሳሳይ
ተመሳሳይነት
ተመስርተዋል
ተመስርቶ
ተመስርቷል
ተመስገን
ተመስጦ
ተመተው
ተመታ
ተመትቶ
ተመቶ
ተመካሪው
ተመካከር
ተመክሮ
ተመዘገበ
ተመዝግበዋል
ተመዝግቦ
ተመዝግቧል
ተመደቡ
ተመድበዋል
ተመድበው
ተመድቦ
ተመድቧል
ተመጣጣኝ
ተማምኖ
ተማረ
ተማረከ
ተማረኩ
ተማሩ
ተማሪ
ተማሪነት
ተማሪና
ተማሪወች
ተማሪው
ተማሪዎቹ
ተማሪዎች
ተማሪዎችና
ተማሪዎችን
ተማርከዋል
ተማርከው
ተማርኮ
ተማሮች
ተማትቶ
ተማከሩ
ተማክረው
ተምረዋል
ተምረው
ተምራ
ተምር
ተምሮ
ተምሯል
ተምሳሌታዊ
ተምሳሌት
ተሞላ
ተሞልቶ
ተሞተ
ተሞክሮ
ተሞክሯል
ተሟጋች
ተሟጋችና
ተሟግቶ
ተሟጦ
ተሠረዘ
ተሠሩ
ተሠራ
ተሠርተዋል
ተሠርተው
ተሠርቶ
ተሠርቷል
ተሣፋሪዎች
ተረሸኑ
ተረሽነው
ተረት
ተረትና
ተረቶች
ተረችነት
ተረከበ
ተረከቡ
ተረክበው
ተረዱ
ተረዳ
ተረድተው
ተረድቶ
ተረጋገጠ
ተረጋግጦ
ተረጋግጧል
ተረፈ
ተራ
ተራማጅ
ተራራ
ተራራማ
ተራራማና
ተራራና
ተራራን
ተራራው
ተራራውን
ተራራዎች
ተራሮች
ተራሮችና
ተራሮችን
ተራኪ
ተርሴስ
ተርታ
ተርታውን
ተርትና
ተርጉመው
ተርጉሞታል
ተርጓሚ
ተርጓሚዎች
ተርፈዋል
ተርፈው
ተርፎ
ተርፎም
ተሰልፈው
ተሰሚነት
ተሰማ
ተሰማሩ
ተሰማርተዋል
ተሰማርተው
ተሰማርቶ
ተሰማርቷል
ተሰማኝ
ተሰምቶም
ተሰረዘ
ተሰረየችልኽ
ተሰራ
ተሰራጨ
ተሰራጭተው
ተሰራጭቶ
ተሰራጭቷል
ተሰርቀው
ተሰርተው
ተሰርቶ
ተሰርዟል
ተሰቀለ
ተሰቅሎ
ተሰበረ
ተሰበሰቡ
ተሰባሪ
ተሰባስበው
ተሰባብሮ
ተሰብሮ
ተሰብስበው
ተሰብስቦ
ተሰኪ
ተሰወረ
ተሰየመ
ተሰየመች
ተሰየሙ
ተሰይሞ
ተሰይሟል
ተሰደዋል
ተሰደው
ተሰደደ
ተሰደዱ
ተሰጠ
ተሰጠው
ተሰጡ
ተሰጣቸው
ተሰጥተዋል
ተሰጥቶ
ተሰጥቶታል
ተሰጥቶት
ተሰጥቷል
ተሰጥቷታል
ተሰጥቷቸዋል
ተሰጥቷቸው
ተሰጥኦ
ተሳላሚዎች
ተሳቢ
ተሳተ
ተሳተፉ
ተሳታፊ
ተሳታፊዎች
ተሳትፈዋል
ተሳትፈውበታል
ተሳትፎ
ተሳትፎን
ተሳትፏል
ተሳናት
ተሳክቶለታል
ተሳክቶለት
ተሳፋሪዎች
ተሳፍረው
ተስማሙ
ተስማሚ
ተስማማ
ተስማምተዋል
ተስማምተው
ተስማምታለች
ተስማምቶ
ተስማምቷል
ተስቦ
ተስተካክሎ
ተስተውሏል
ተስፋ
ተስፋን
ተስፋዬ
ተስፋፉ
ተስፋፋ
ተስፋፍቶ
ተስፋፍቷል
ተሸለሙ
ተሸላሚ
ተሸላሚዎች
ተሸልመዋል
ተሸልሟል
ተሸነፈ
ተሸነፈና
ተሸነፉ
ተሸናፊው
ተሸንፈው
ተሸንፎ
ተሸንፏል
ተሸከመ
ተሸካሚ
ተሸካሚዎች
ተሸክመኽ
ተሸክመው
ተሸክማ
ተሸክሞ
ተሸጠ
ተሸፍነዋል
ተሸፍኖ
ተሸፍኗል
ተሹመዋል
ተሹመው
ተሹሞ
ተሻለ
ተሻሽሎ
ተሻሽሏል
ተሻገረ
ተሻገሩ
ተሻገር
ተሻጋሪ
ተሻግረው
ተሻግሮ
ተሽረው
ተሽከርካሪ
ተሽከርካሪው
ተሽከርካሪዎች
ተሽከርካሪዎችን
ተሾመ
ተሾሙ
ተቀላቀለ
ተቀላቀለች
ተቀላቀሉ
ተቀላቅለዋል
ተቀላቅለው
ተቀላቅላለች
ተቀላቅሎ
ተቀላቅሏል
ተቀመጠ
ተቀመጠች
ተቀመጡ
ተቀመጥ
ተቀማጭ
ተቀምጠዋል
ተቀምጠው
ተቀምጠውም
ተቀምጣ
ተቀምጣለች
ተቀምጦ
ተቀምጧል
ተቀረጸ
ተቀራራቢ
ተቀርጸው
ተቀርጾ
ተቀቅሎ
ተቀበለ
ተቀበለች
ተቀበለው
ተቀበሉ
ተቀበሉት
ተቀበል
ተቀበሏቸው
ተቀበረ
ተቀበሩ
ተቀቡ
ተቀባ
ተቀባይ
ተቀባይነት
ተቀባይነትን
ተቀባዮች
ተቀብለዋል
ተቀብለው
ተቀብላ
ተቀብላለች
ተቀብሎ
ተቀብሏል
ተቀብረዋል
ተቀብሮ
ተቀብሯል
ተቀብተው
ተቀብቶ
ተቀነሰ
ተቀነባበረ
ተቀነባብሮ
ተቀናቃኝ
ተቀናቃኞች
ተቀን
ተቀየረ
ተቀየሩ
ተቀይሮ
ተቀይሯል
ተቀደስ
ተቀዳሚ
ተቀዳጀ
ተቀዳጀች
ተቀዳጁ
ተቀጠለ
ተቀጠረ
ተቀጠሩ
ተቀጡ
ተቀጣ
ተቀጣሪ
ተቀጣይ
ተቀጣጣይ
ተቀጥረው
ተቀጥሮ
ተቃራኒ
ተቃራኒዎች
ተቃርቧል
ተቃርኖ
ተቃቅፈው
ተቃወመ
ተቃወሙ
ተቃወሙት
ተቃዋሚ
ተቃዋሚዎቻቸው
ተቃዋሚዎች
ተቃዋሚዎችን
ተቃውመዋል
ተቃውመው
ተቃውሞ
ተቃውሞዎች
ተቃውሞዎችን
ተቃውሟል
ተቃጠለ
ተቃጠሉ
ተቃጥለዋል
ተቃጥሎ
ተቅማጥ
ተቆረቆረች
ተቆርቋሪ
ተቆርጦ
ተቆርጧል
ተቆጠረ
ተቆጠረች
ተቆጠሩ
ተቆጣጠረ
ተቆጣጠረች
ተቆጣጠሩ
ተቆጣጣሪ
ተቆጣጥሮ
ተቆጣጥሯል
ተቆጥረዋል
ተቆጥሮ
ተቆጥሯል
ተቆጥቶ
ተቈጠረለት
ተቋሙ
ተቋሙን
ተቋማት
ተቋማትና
ተቋማትን
ተቋማዊ
ተቋም
ተቋሞች
ተቋረጠ
ተቋርጦ
ተቋርጧል
ተቋቁመው
ተቋቁሞ
ተቋቁሟል
ተቋቋመ
ተቋቋሙ
ተበላሽቶ
ተበተነ
ተበተኑ
ተበታተነ
ተበታትነው
ተበትነው
ተበትኖ
ተበደረ
ተበዳሪ
ተበድሎ
ተበድረዋል
ተበድሮ
ተባለ
ተባለች
ተባሉ
ተባረረ
ተባረሩ
ተባበረ
ተባበሩ
ተባባሉ
ተባባሪ
ተባብረዋል
ተባብረው
ተባብሮ
ተባብሷል
ተባእት
ተባዕት
ተባይ
ተብለዋል
ተብለው
ተብላ
ተብላለች
ተብላም
ተብሎ
ተብሎም
ተብሏል
ተብማን
ተብቃቂ
ተብዬ
ተተ
ተተረጎመ
ተተርጉመዋል
ተተርጉሞ
ተተርጉሟል
ተተናገረ
ተተኩ
ተተኩሶ
ተተኪ
ተተኪነት
ተተኪው
ተተካ
ተተካች
ተተክሎ
ተተክተዋል
ተተክተው
ተተክቶ
ተተክቷል
ተተኮሰ
ተተኲሶ
ተተወ
ተቸግሮ
ተቺ
ተቺዎች
ተቻለ
ተችሏል
ተችተዋል
ተችቷል
ተነሡ
ተነሣ
ተነሣና
ተነሥ
ተነሥተው
ተነሥታ
ተነሥቶ
ተነሥቶም
ተነሥቷል
ተነሱ
ተነሳ
ተነሳስተው
ተነሳሽነት
ተነሳች
ተነስ
ተነስተን
ተነስተዋል
ተነስተው
ተነስታ
ተነስቶ
ተነስቷል
ተነስቼ
ተነሽ
ተነቀለ
ተነቅለው
ተነባቢ
ተነባቢውን
ተነከስኩኝ
ተነገረ
ተነጋሪዎች
ተነጋገሩ
ተነግሯል
ተነጠቀ
ተነጥለው
ተነጥሎ
ተናባቢ
ተናካሽ
ተናደ
ተናደው
ተናደደ
ተናገረ
ተናገረች
ተናገሩ
ተናገራቸው
ተናገር
ተናገርህ
ተናገርኩ
ተናጋሪ
ተናጋሪው
ተናጋሪዎቹ
ተናጋሪዎች
ተናግረዋል
ተናግረው
ተናግራ
ተናግራለች
ተናግሮ
ተናግሯል
ተንቀሳቃሽ
ተንቀሳቅሰዋል
ተንቀሳቅሷል
ተንተርሶ
ተንታ
ተንታኝ
ተንታኞች
ተንኮለኛ
ተንኮል
ተንኰል
ተንጋሎ
ተንጠልጠል
ተንጠልጥላ
ተንጣሎ
ተንጣጣ
ተኙ
ተኛ
ተኛው
ተኝተው
ተኝታ
ተኝቶ
ተአምረ
ተአምራት
ተአምራትን
ተአምር
ተኣምራት
ተከለ
ተከለከለ
ተከለክሏል
ተከሉ
ተከላ
ተከላካይ
ተከል
ተከልክሎ
ተከልክሏል
ተከሠተ
ተከሠቱ
ተከራከሩ
ተከራካሪ
ተከራክረዋል
ተከራክሯል
ተከራይቶ
ተከሰተ
ተከሰው
ተከስተዋል
ተከስቶ
ተከስቷል
ተከስክሶ
ተከሶ
ተከሷል
ተከበረ
ተከባ
ተከብሮ
ተከብሯል
ተከቦ
ተከተለ
ተከተለኝ
ተከተለው
ተከተሉ
ተከተሉት
ተከተላት
ተከተላቸው
ተከተል
ተከተሎ
ተከታታይ
ተከታታዮች
ተከታትለዋል
ተከታትለው
ተከታትሎ
ተከታትሏል
ተከታዩ
ተከታዩም
ተከታይ
ተከታይና
ተከታዮቹ
ተከታዮቻቸው
ተከታዮች
ተከትለው
ተከትላ
ተከትሎ
ተከትሎም
ተከትሏል
ተከናወነ
ተከናውኗል
ተከዜ
ተከፈለ
ተከፈለች
ተከፈተ
ተከፈቱ
ተከፋፈለ
ተከፋፈሉ
ተከፋፍለው
ተከፋፍሎ
ተከፋፍሏል
ተከፍለዋል
ተከፍላ
ተከፍላለች
ተከፍሎ
ተከፍሏል
ተከፍቶ
ተኩላ
ተኩል
ተኩስ
ተኩሶ
ተካ
ተካሂደዋል
ተካሂዶ
ተካሂዷል
ተካሄደ
ተካሄዷል
ተካልኝ
ተካተዋል
ተካቷል
ተካፋይ
ተካፋዮች
ተካፍለዋል
ተክለ
ተክለሃይማኖት
ተክለማርያም
ተክለወልድ
ተክለጻድቅ
ተክሉ
ተክሉን
ተክሌ
ተክል
ተክሎ
ተክሎች
ተክተው
ተክቶ
ተክቷል
ተኮር
ተኮሰ
ተኮሰች
ተኲላ
ተኳሽ
ተወ
ተወለደ
ተወለደች
ተወለዱ
ተወለዶ
ተወላጁ
ተወላጅ
ተወላጅና
ተወላጆች
ተወላጆችን
ተወልደ
ተወልደው
ተወልዳ
ተወልዶ
ተወልጄ
ተወረረች
ተወረሰ
ተወራራሽ
ተወርዋሪ
ተወርውሮ
ተወሰነ
ተወሰደ
ተወሰዱ
ተወስነው
ተወስኖ
ተወስኗል
ተወስደዋል
ተወስደው
ተወስዶ
ተወስዷል
ተወካይ
ተወካዮች
ተወው
ተወያዩ
ተወያይተዋል
ተወደደ
ተወዳዳሪ
ተወዳዳሪነት
ተወዳዳሪዎቹ
ተወዳዳሪዎች
ተወዳድረዋል
ተወዳድሮ
ተወዳጁ
ተወዳጅ
ተወዳጅነት
ተወዳጅነትና
ተወዳጅነትን
ተወዳጅና
ተወዳጆች
ተወገብ
ተወገደ
ተወገዱ
ተወጋ
ተወግደዋል
ተወግዶ
ተወግዷል
ተወጥተዋል
ተወጥቷል
ተዉ
ተዉት
ተዉአቸው
ተዋሃደች
ተዋህደዋል
ተዋህደው
ተዋህዶ
ተዋልዶ
ተዋሕደው
ተዋሕዶ
ተዋርዶ
ተዋበች
ተዋናይ
ተዋናይት
ተዋናይነት
ተዋናዮች
ተዋንያን
ተዋወለ
ተዋዋለ
ተዋዋሉ
ተዋውሎ
ተዋደዱ
ተዋጉ
ተዋጊ
ተዋጊዎች
ተዋጊዎችን
ተዋጋ
ተዋግተዋል
ተዋግተው
ተዋግታለች
ተዋግቶ
ተዋግቷል
ተው
ተውሂድ
ተውለት
ተውላጠ
ተውሳከ
ተውሳክ
ተውኔት
ተውኔቶች
ተውጦ
ተውፊት
ተዓምራት
ተዓምር
ተዕለት
ተዘረዘረ
ተዘረጋ
ተዘራ
ተዘርዝረዋል
ተዘርግቶ
ተዘርግቷል
ተዘርፎ
ተዘዋወረ
ተዘዋዋሪ
ተዘዋውሮ
ተዘገበ
ተዘጋ
ተዘጋጀ
ተዘጋጁ
ተዘጋጅተዋል
ተዘጋጅቶ
ተዘጋጅቷል
ተዘግቧል
ተዘግተው
ተዘግቶ
ተዛመደ
ተዛማጅ
ተዛማጅነት
ተዛምዶ
ተዛወረ
ተዛወረች
ተዛወሩ
ተዛውረው
ተዛውሮ
ተዝካር
ተያዘ
ተያዘና
ተያዙ
ተያያዙት
ተያያዥ
ተያያዥነት
ተያይዘው
ተያይዞ
ተይዘዋል
ተይዘው
ተይዛ
ተይዞ
ተይዟል
ተደማምሮ
ተደማጭነት
ተደምሮ
ተደምስሶ
ተደረጀ
ተደረጁ
ተደረገ
ተደረጉ
ተደራራቢ
ተደራሽ
ተደራሽነት
ተደራጅቷል
ተደርሶበት
ተደርሷል
ተደርገዋል
ተደርገው
ተደርጋ
ተደርጎ
ተደርጎለታል
ተደርጐ
ተደርጓል
ተደሰቱ
ተደቅቀው
ተደቅቆ
ተደባልቆ
ተደብቀው
ተደብቃ
ተደብቆ
ተደብድቦ
ተደነቀ
ተደነቁ
ተደነገገ
ተደጋጋሚ
ተደጋግሞ
ተደግፎ
ተደፋ
ተደፍቶ
ተዳምሮ
ተዳሩ
ተዳክሞ
ተዳፋት
ተድላ
ተድቅቆ
ተድባበ
ተጀመረ
ተጀምሮ
ተጀምሯል
ተገለበጠ
ተገለጠ
ተገለጸ
ተገልባጭ
ተገልብጦ
ተገልጦ
ተገልጾ
ተገልጿል
ተገመተ
ተገምቷል
ተገረሙ
ተገረሙና
ተገቢ
ተገቢውን
ተገነዘበ
ተገነዘቡ
ተገናኘ
ተገናኙ
ተገናኝተው
ተገናኝቶ
ተገን
ተገንብተዋል
ተገንብቶ
ተገንብቷል
ተገንዝቦ
ተገንጣይ
ተገንጣዮች
ተገንጥለው
ተገንጥላ
ተገንጥሎ
ተገኘ
ተገኘች
ተገኙ
ተገኝ
ተገኝተዋል
ተገኝተው
ተገኝቶ
ተገኝቷል
ተገዙ
ተገዛ
ተገዢ
ተገዢው
ተገዥ
ተገዦች
ተገደለ
ተገደለች
ተገደለና
ተገደሉ
ተገደዋል
ተገደው
ተገደደ
ተገደዱ
ተገድለዋል
ተገድሎ
ተገዶ
ተገዷል
ተጉለት
ተጉዘዋል
ተጉዘው
ተጉዞ
ተጉዟል
ተጋላጭ
ተጋላጭነት
ተጋቡ
ተጋባዥ
ተጋብተው
ተጋብዘው
ተጋብዞ
ተጋዳይ
ተጋድሎ
ተጋጭተው
ተግሣጽ
ተግሳጽ
ተግባሩ
ተግባራቱ
ተግባራት
ተግባራትን
ተግባራቸው
ተግባራቸውን
ተግባራዊ
ተግባር
ተግባርም
ተግባሮች
ተግባቢ
ተግባብቶ
ተግደርዳሪ
ተግዳሮት
ተግዳሮቶች
ተጎልባች
ተጎድቷል
ተጎጂው
ተጎጂዎች
ተጓዘ
ተጓዙ
ተጓዥ
ተጓዦች
ተጓዳኝ
ተጠልፎ
ተጠመቀ
ተጠመቁ
ተጠምቀው
ተጠምደው
ተጠሪ
ተጠራ
ተጠራጣሪ
ተጠርተዋል
ተጠርተው
ተጠርቶ
ተጠርቷል
ተጠርጣሪ
ተጠርጥረው
ተጠቀመ
ተጠቀሙ
ተጠቀም
ተጠቂ
ተጠቃሚ
ተጠቃሚነት
ተጠቃሚው
ተጠቃሚውን
ተጠቃሚዎች
ተጠቃሚዎችን
ተጠቃሽ
ተጠቃሾች
ተጠቅልሎ
ተጠቅመን
ተጠቅመዋል
ተጠቅመው
ተጠቅመውበታል
ተጠቅሞ
ተጠቅሞበታል
ተጠቅሟል
ተጠቅሰዋል
ተጠቅሶ
ተጠቅሷል
ተጠበቁ
ተጠባባቂ
ተጠብቀው
ተጠብቆ
ተጠነቀቀ
ተጠናቀቀ
ተጠናቆ
ተጠናቋል
ተጠናክሯል
ተጠንቀቁ
ተጠንቀቅ
ተጠንቶ
ተጠየቀ
ተጠያቂ
ተጠያቂነት
ተጠያቂው
ተጠይቀው
ተጠጋ
ተጠግቶ
ተጣለ
ተጣሉ
ተጣማሪ
ተጣምረው
ተጣባቂ
ተጨመረ
ተጨመረች
ተጨመሩ
ተጨማሪ
ተጨማሪው
ተጨምረው
ተጨምሮ
ተጨምሯል
ተጨረሰ
ተጨባጩ
ተጨባጩን
ተጨባጭ
ተጨንቀው
ተጨንቆ
ተጨዋቾች
ተጨፈጨፉ
ተጫነ
ተጫዋቹ
ተጫዋች
ተጫዋቾ
ተጫዋቾቹ
ተጫዋቾች
ተጫዋቾችን
ተጫውተዋል
ተጫውታለች
ተጫውቷል
ተጭነዋል
ተጭነው
ተጭኖ
ተጻራሪ
ተጻፈ
ተጻፉ
ተጽኖ
ተጽእኖ
ተጽእኖዎች
ተጽዕኖ
ተጽፈዋል
ተጽፈው
ተጽፎ
ተጽፏል
ተጽፏልና
ተፃፈ
ተፅእኖ
ተፅእኖዎች
ተፅዕኖ
ተፅፎ
ተፅፏል
ተፈላጊ
ተፈላጊነት
ተፈልቶ
ተፈልፍለው
ተፈረመ
ተፈረደበት
ተፈረደባቸው
ተፈሪ
ተፈሪን
ተፈራ
ተፈራረመ
ተፈራረሙ
ተፈራርመዋል
ተፈራርመው
ተፈራርሟል
ተፈርቶ
ተፈርዶበታል
ተፈርዶበት
ተፈርዶባቸው
ተፈቀደ
ተፈቀደለት
ተፈቀደላት
ተፈቀዱ
ተፈቅዷልን
ተፈተነ
ተፈቱ
ተፈታ
ተፈቷል
ተፈወሱ
ተፈጠረ
ተፈጠሩ
ተፈጥረዋል
ተፈጥሮ
ተፈጥሮን
ተፈጥሮአዊ
ተፈጥሮዋዊ
ተፈጥሯል
ተፈጥሯዊ
ተፈጭቶ
ተፈጸመ
ተፈጽሞ
ተፈጽሟል
ተፈፀመ
ተፈፃሚ
ተፈፅሟል
ተፋህ
ተፋሰስ
ተፋቱ
ተፎካካሪ
ቱ
ቱሉ
ቱሉዝ
ቱማሉ
ቱም
ቱሪስቶች
ቱሪስቶችን
ቱሪዝም
ቱሪዝምና
ቱሬ
ቱር
ቱርኩ
ቱርኪክ
ቱርካና
ቱርካዊ
ቱርክ
ቱርክመኒስታን
ቱርክን
ቱርክኛ
ቱርኮች
ቱርኮችም
ቱርኮችን
ቱስኩስ
ቱብ
ቱቦ
ቱቫሉ
ቱቱ
ቱትሞስ
ቱኒዚያ
ቱን
ቱአጣ
ቱኩልቲ
ቱዊ
ቱዊስኮን
ቱዋጣ
ቱይረድ
ቱዲያ
ቱድሐሊያ
ቱዶር
ቱፋህ
ቱፓክ
ቲ
ቲል
ቲማቲም
ቲም
ቲሞር
ቲራስ
ቲርሚዚ
ቲቤር
ቲቤታዊ
ቲቤት
ቲቪ
ቲታኖች
ቲት
ቲዎሪ
ቲዩብ
ቲያትር
ቲፊናቅ
ቲፎን
ቲፕ
ታ
ታህሳስ
ታህታይ
ታላላቅ
ታላላቆቹ
ታላቁ
ታላቁን
ታላቅ
ታላቅነት
ታላቅና
ታላቋ
ታልሙን
ታሑርዋይሊ
ታሕታይ
ታመመ
ታመነ
ታመው
ታሚልኛ
ታማ
ታማሚ
ታማስላለች
ታማኝ
ታማኝነታቸውን
ታማኝነት
ታማኝና
ታማኞች
ታምሩ
ታምራት
ታምራዊ
ታምር
ታምናለች
ታምኖ
ታሞ
ታሠሩ
ታሠበ
ታረቁ
ታሩሕሹን
ታሪከኛ
ታሪኩ
ታሪኩን
ታሪካቸው
ታሪካቸውን
ታሪካዊ
ታሪካዊና
ታሪካዊው
ታሪኬ
ታሪክ
ታሪክም
ታሪክና
ታሪክን
ታሪኮች
ታሪኮችና
ታሪኮችን
ታሪኳ
ታራ
ታራን
ታርሷል
ታርቆ
ታርክ
ታርዶ
ታሰረ
ታሰሩ
ታሳጭ
ታስረዋል
ታስረው
ታስሮ
ታስሯል
ታስባለች
ታስቦ
ታስቧል
ታስተምራለች
ታስታውቅ
ታሸታለች
ታሸንፋለች
ታሽኬንት
ታቃፊ
ታቅዶ
ታባሪ
ታባሪና
ታቦር
ታቦርን
ታቦተ
ታቦቱ
ታቦቱን
ታቦታት
ታቦት
ታቦትና
ታቦትን
ታተመ
ታተሙ
ታታርኛ
ታታሮች
ታትመዋል
ታትሞ
ታትሟል
ታቸር
ታቹ
ታች
ታችኛ
ታችኛው
ታኅሣሥ
ታኒስ
ታና
ታናሹ
ታናሽ
ታናናሽ
ታን
ታንቆ
ታንክ
ታንኮች
ታንኳ
ታንኳዪቱ
ታንዛኒያ
ታንዛንያ
ታንድራ
ታንጋኒካ
ታንግ
ታንጎ
ታከለ
ታከብረዋለች
ታከብራለች
ታኪቱስ
ታካኪ
ታክሲ
ታክሲላ
ታክስ
ታክቲክ
ታኮ
ታወር
ታወቀ
ታወቁ
ታወጀ
ታዊ
ታዋቂ
ታዋቂነቱ
ታዋቂነት
ታዋቂነትን
ታዋቂና
ታዋቂው
ታዋናና
ታው
ታውቀዋል
ታውቁ
ታውቃለህ
ታውቃለኽ
ታውቃላችሁ
ታውቃላችኹ
ታውቅ
ታውቆ
ታውቋል
ታውን
ታዖ
ታዘዘ
ታዘዙ
ታዛቢ
ታዛቢዎች
ታዛዥ
ታዛዦች
ታዝበው
ታየ
ታየኝ
ታየው
ታዩ
ታያለኽ
ታያቸው
ታዬ
ታይ
ታይላንድ
ታይም
ታይምስ
ታይምዝ
ታይሥዌ
ታይተዋል
ታይተው
ታይቶ
ታይቶም
ታይቷል
ታይዋን
ታይዋንን
ታይፕ
ታይፕራይተር
ታደለ
ታደርጋለች
ታደርጋለኽ
ታደርጋላችኹ
ታደርግ
ታደሰ
ታዲያ
ታዳሚዎች
ታዳሽ
ታዳጊ
ታዴዎስ
ታድመው
ታድሶ
ታድያ
ታጂኪስታን
ታጅበው
ታጅቦ
ታገለ
ታገለግላለች
ታገስ
ታገኛለች
ታገኛለኽ
ታገኛላችሁ
ታጉል
ታጋ
ታጋይ
ታጋዮች
ታግዞ
ታግዶ
ታግዷል
ታጠቅ
ታጠበች
ታጣ
ታጣቂ
ታጣቂዎች
ታጥቆ
ታጥቦ
ታጨች
ታፈሰ
ታፈስ
ታፍኖ
ቴ
ቴህራን
ቴሌ
ቴሌስኮፕ
ቴሌቪዝን
ቴሌቪዥን
ቴሌቭዥን
ቴሌኮሙኒኬሽን
ቴሌኮም
ቴሌግራም
ቴሌግራፍ
ቴልጌልቴልፌልሶር
ቴምብሮች
ቴምዝ
ቴራ
ቴሬሳ
ቴሬዛ
ቴርጋማ
ቴስላ
ቴቲ
ቴኒስ
ቴኔ
ቴንደርሎይን
ቴአትር
ቴክ
ቴክሳስ
ቴክኒካል
ቴክኒክ
ቴክኒኮች
ቴክኖሎጂ
ቴክኖሎጂን
ቴክኖሎጂው
ቴክኖሎጂዎች
ቴክኖሎጂዎችን
ቴወድሮስ
ቴወድሮስን
ቴዎድሮስ
ቴዎድሮስም
ቴዎድሮስና
ቴዎድሮስን
ቴዎዶር
ቴዎዶስዮስ
ቴዎፍሎስ
ቴያትር
ቴይለር
ቴዮዶር
ቴዲ
ቴፒ
ት
ትሁት
ትሁን
ትሂጃለሽ
ትሄዳለህ
ትሄዳለች
ትህትና
ትሆናለች
ትሆን
ትለብሰው
ትለኛለህ
ትለው
ትለፋ
ትሉ
ትላለህ
ትላለች
ትላለኽ
ትላላችኹ
ትላልቅ
ትላንት
ትላንትና
ትል
ትልልቅ
ትልም
ትልስ
ትልቁ
ትልቁም
ትልቁን
ትልቅ
ትልቅነት
ትልቅና
ትልቋ
ትልን
ትሎች
ትሕትና
ትመራ
ትመራለች
ትመስላለች
ትመና
ትመጣለች
ትማራለች
ትም
ትምሀርት
ትምህርተ
ትምህርቱ
ትምህርቱን
ትምህርታቸውን
ትምህርታዊ
ትምህርቴን
ትምህርት
ትምህርትም
ትምህርትና
ትምህርትን
ትምህርቶች
ትምህርቶችን
ትምህርቷን
ትምሕርቱን
ትምሕርታቸውን
ትምሕርት
ትምርት
ትምባሆ
ትምነት
ትምና
ትምጣ
ትሞታለች
ትሥሥር
ትረስት
ትረካ
ትረካዎች
ትሩማን
ትሩታይፕ
ትሩፋት
ትሪ
ትሪሊዮን
ትሪስተን
ትሪቶን
ትራምፔት
ትራምፕ
ትራስ
ትራንስ
ትራንስኒስትሪያ
ትራንስፎርመር
ትራንስፎርሜሽን
ትራንስፖርት
ትራፊክ
ትሬቤታ
ትር
ትርምስ
ትርንጎ
ትርኢት
ትርኢቶች
ትርዒት
ትርዒቶች
ትርጉሙ
ትርጉሙም
ትርጉሙን
ትርጉም
ትርጉምም
ትርጉምና
ትርጉሞች
ትርጉሞችን
ትርጎሜ
ትርጒም
ትርጓሜ
ትርጓሜን
ትርጓሜው
ትርጓሜውም
ትርጓሜዎች
ትርጕም
ትርፉ
ትርፋማ
ትርፍ
ትሮይ
ትሰራለች
ትሰጣለች
ትስስር
ትስብዕት
ትቀምሽ
ትቀበላላችኹ
ትቅደም
ትቆማለች
ትቢያ
ትባላለች
ትባል
ትብስ
ትብብር
ትቦ
ትተን
ትተዋል
ትተው
ትተውት
ትታ
ትታወቃለች
ትታወቅ
ትታገማለች
ትታጠቅ
ትቶ
ትቼ
ትችላለህ
ትችላለች
ትችላላችሁ
ትችት
ትችያለሽ
ትናንሽ
ትናንት
ትናገራለች
ትን
ትንሣኤ
ትንሳኤ
ትንሳዔ
ትንሹ
ትንሹም
ትንሹን
ትንሽ
ትንሿ
ትንበያ
ትንቢተ
ትንቢት
ትንቢቶች
ትንተና
ትንታኔ
ትንንሽ
ትንኝ
ትንኞችን
ትንኮሳ
ትንጉ
ትንግርት
ትንፋሽ
ትኖራለች
ትኣምን
ትእምርተ
ትእምርት
ትእቢት
ትእዛዙን
ትእዛዛት
ትእዛዝ
ትእግስተኛ
ትእግስት
ትከል
ትከሻ
ትከናነበው
ትኩረቱ
ትኩረቱን
ትኩረት
ትኩረትና
ትኩረትን
ትኩሳት
ትኩሳትና
ትኩስ
ትኬት
ትክል
ትክክለኛ
ትክክለኛነት
ትክክለኛና
ትክክለኛው
ትክክለኛውን
ትክክለኛዎቹን
ትክክል
ትኳቦ
ትኵር
ትኹን
ትኾናላችኹ
ትወልዳለች
ትወስዳለች
ትወና
ትወዳለች
ትወዳለኽን
ትወዳላችኹ
ትወጣለች
ትዉልድ
ትዊተር
ትዋሰናለች
ትዌይን
ትውልደ
ትውልዱ
ትውልዳቸው
ትውልድ
ትውልድን
ትውልዶች
ትውስታ
ትውፊቱ
ትውፊታዊ
ትውፊት
ትውፊቶች
ትዕምርተ
ትዕዛዙ
ትዕዛዙን
ትዕዛዛት
ትዕዛዝ
ትዕዛዝን
ትዕዛዞች
ትዕይንት
ትዕይንቶች
ትዕግሥት
ትዕግስት
ትዘክረዋለች
ትዝ
ትዝታ
ትዝታን
ትዞራለች
ትይዛለች
ትይዩ
ትዳራቸው
ትዳር
ትገባለች
ትገናኝ
ትገኛለች
ትጉ
ትጉኀን
ትጋራለች
ትጋት
ትግሉ
ትግሉን
ትግል
ትግልና
ትግሎች
ትግረ
ትግሪኛ
ትግራዋይ
ትግራይ
ትግራዮች
ትግሬ
ትግሬዎች
ትግርኛ
ትግርኛና
ትግበራ
ትጠራ
ትጠራለች
ትጠብቃለች
ትጠፋለች
ትጥቅ
ትፈልጋለች
ትፈልጋላችኹ
ቶ
ቶለሚ
ቶሎ
ቶሎሚ
ቶሎሳ
ቶማስ
ቶማስም
ቶሜ
ቶም
ቶራ
ቶሮንቶ
ቶሽ
ቶቤል
ቶቤጎ
ቶኒ
ቶን
ቶንጋ
ቶንግ
ቶኪዮ
ቶካዶች
ቶክ
ቶክዮ
ቶድ
ቶጎ
ቶፋ
ቶፕ
ቷ
ቸ
ቸሃ
ቸል
ቸልተኝነት
ቸር
ቸርቺል
ቸርችል
ቸርነት
ቸብ
ቸን
ቸንግ
ቸኪያ
ቸክ
ቸኮለ
ቸኮላታ
ቸኮል
ቸኮስሎቫኪያ
ቸዋሲ
ቸው
ቹ
ቺ
ቺሌ
ቺምፓንዚ
ቺንግ
ቺክን
ቺዝ
ቺያንግ
ቻ
ቻለ
ቻለች
ቻሉ
ቻምበር
ቻርለስ
ቻርለስን
ቻርሊ
ቻርልስ
ቻርተር
ቻርጅ
ቻርጆች
ቻቬዝ
ቻቱራንጋ
ቻቴው
ቻናል
ቻናሎች
ቻንስለር
ቻው
ቻይ
ቻይነኛ
ቻይና
ቻይናና
ቻይናን
ቻይናዊ
ቻይናውያን
ቻይናዎች
ቻይንኛ
ቻድ
ቻግኒ
ቼ
ቼልሲ
ቼክ
ቼኮስሎቫኪያ
ቼኮዝሎቫኪያ
ቼዝ
ች
ችለዋል
ችለው
ችላ
ችላለች
ችሎ
ችሎታ
ችሎታቸው
ችሎታቸውን
ችሎታና
ችሎታን
ችሎታው
ችሎታውን
ችሎታዎች
ችሎት
ችሎአል
ችሏል
ችቦ
ችኩል
ችኹ
ችግሩ
ችግሩን
ችግር
ችግርም
ችግርና
ችግርን
ችግሮች
ችግሮችም
ችግሮችን
ችግኝ
ችጎሊ
ችጎይ
ቾ
ኀ
ኀበ
ኀዘን
ኀይለ
ኀይል
ኀጢአተኛ
ኀጢአተኛዎች
ኀጢአተኛዎችን
ኀጢአት
ኀጢአትን
ኀጢአትኽ
ኁፉ
ኃ
ኃላፊ
ኃላፊነቱን
ኃላፊነት
ኃላፊነቶች
ኃላፊዎች
ኃሣብ
ኃብተ
ኃብት
ኃያላት
ኃያላን
ኃያል
ኃይለ
ኃይለማሪያም
ኃይለማርያም
ኃይለሥላሴ
ኃይለስላሴ
ኃይለኛ
ኃይሉ
ኃይሉን
ኃይላት
ኃይሌ
ኃይል
ኃይልም
ኃይልና
ኃይልን
ኃይሎች
ኃይሎችን
ኃይማኖታዊ
ኃይማኖት
ኃጢአተኛ
ኃጢአት
ኃጢኣት
ኅ
ኅሊና
ኅልው
ኅልውነት
ኅልውና
ኅልዮቱ
ኅልዮት
ኅልዮቶች
ኅሩይ
ኅብረ
ኅብረተሠባዊ
ኅብረተሠብ
ኅብረተሠቦች
ኅብረተሰብ
ኅብረት
ኅብረትን
ኅብር
ኅብስት
ኅዋ
ኅዙናን
ኅይል
ኅዳር
ኅግጋት
ኆኄያት
ኆኅተ
ኆኅት
ኈ
ኋ
ኋለኛ
ኋለኞቹ
ኋላ
ኋላም
ኋላቀር
ኋሥያ
ኋንዳን
ኋንግ
ኋይ
ነ
ነሀሴ
ነህ
ነህምያ
ነህሲ
ነህና
ነሐሴ
ነሐስ
ነሕሴት
ነመዳውያን
ነመድ
ነሣ
ነሥቶ
ነሪካሬ
ነርስ
ነርቭ
ነሱ
ነሱት
ነሲቡ
ነሲብ
ነሺሊ
ነሻ
ነሽ
ነቀል
ነቀምት
ነቀርሳ
ነቀፋ
ነቁጣ
ነቅሎ
ነቅቶ
ነበልባል
ነበረ
ነበረበት
ነበረባት
ነበረባቸው
ነበረብኝ
ነበረች
ነበረችና
ነበረና
ነበረን
ነበረኝ
ነበረው
ነበሩ
ነበሩበት
ነበሩት
ነበሩና
ነበሩዋቸው
ነበራት
ነበራቸው
ነበር
ነበርሽ
ነበርና
ነበርን
ነበርኩ
ነበሯት
ነበሯቸው
ነቢሪራው
ነቢዩ
ነቢያት
ነቢያትም
ነቢያትን
ነቢይ
ነባሪ
ነባራዊ
ነባር
ነብሬ
ነብር
ነብታዊሬ
ነብኑኒ
ነብካውሬ
ነብዩ
ነብዩም
ነብዩን
ነብያት
ነብያችን
ነብይ
ነት
ነች
ነነዌ
ነን
ነኘይኝ
ነኛው
ነኝ
ነኝና
ነአኩቶ
ነከሰኝ
ነከስ
ነክ
ነኽ
ነኽበት
ነኽን
ነዉ
ነዋ
ነዋሪ
ነዋሪዎቹ
ነዋሪዎች
ነዋሪዎችን
ነዋሪዎቿ
ነዋይ
ነዌ
ነው
ነውር
ነውና
ነውን
ነውጥ
ነውጦች
ነዎት
ነዓኩቶ
ነይ
ነዳይ
ነዳጅ
ነዳጆች
ነድፎ
ነዶ
ነጀሚብሬ
ነጂ
ነገ
ነገሌ
ነገሠ
ነገሠች
ነገሡ
ነገሥቱ
ነገሥቱም
ነገሥቱን
ነገሥታቱ
ነገሥታት
ነገሥታትም
ነገሥታትና
ነገሥታትን
ነገሥት
ነገሥትነት
ነገረ
ነገረኛ
ነገረኝ
ነገረው
ነገሩ
ነገሩት
ነገሩን
ነገራቸው
ነገሬ
ነገሬን
ነገር
ነገርህን
ነገርም
ነገርን
ነገርኩት
ነገርዃችኹ
ነገርግን
ነገሮች
ነገሮችም
ነገሮችን
ነገሰ
ነገስቱ
ነገስቱን
ነገስታት
ነገስት
ነገዎ
ነገደ
ነገድ
ነገዶቹም
ነገዶች
ነጉሥ
ነጋ
ነጋሪ
ነጋሪት
ነጋሲ
ነጋሶ
ነጋሽ
ነጋዴ
ነጋዴዎች
ነጋዴዎችና
ነጋድራስ
ነጌቲቭ
ነግ
ነግህ
ነግሦ
ነግረውት
ነግሰዋል
ነግስት
ነግሶ
ነጎዱ
ነጎዳ
ነጎድጓድ
ነጠላ
ነጠቅ
ነጠብጣቦች
ነጣ
ነጣቂ
ነጥሎ
ነጥሮን
ነጥቀው
ነጥቆ
ነጥብ
ነጥብና
ነጥብን
ነጥቦች
ነጥቦችን
ነጨሪኸት
ነጩ
ነጫጭ
ነጭ
ነጭና
ነጮች
ነጸብራቅ
ነጻ
ነጻነቱን
ነጻነታቸውን
ነጻነት
ነጻነትና
ነጻነትን
ነጻነቶች
ነጻነቷን
ነጻና
ነፀብራቅ
ነፃ
ነፃነታቸውን
ነፃነት
ነፃነትና
ነፃነትን
ነፃነቶች
ነፃነቶችን
ነፃነቷን
ነፃው
ነፈሪርካሬ
ነፈር
ነፈርሆተፕ
ነፈርካሬ
ነፋሱ
ነፋስ
ነፋስም
ነፋሶች
ነፍሰ
ነፍሱ
ነፍሱን
ነፍሱንም
ነፍሳት
ነፍሳትን
ነፍሳቸውን
ነፍሴ
ነፍሴን
ነፍስ
ነፍስን
ነፍሶች
ነፍይ
ነፍጠኛ
ነፍጥ
ነፕቲዩን
ኑ
ኑረዋል
ኑሩ
ኑሪ
ኑር
ኑርዳጋል
ኑሮ
ኑሮን
ኑሮአቸውን
ኑሮው
ኑሮውን
ኑሯል
ኑሯቸው
ኑሯቸውን
ኑስ
ኑቢያ
ኑቢያን
ኑቢያውያን
ኑባሬ
ኑብያ
ኑና
ኑን
ኑንጋል
ኑዋዳ
ኑዌር
ኑዛዜ
ኑግ
ኒ
ኒል
ኒሎቲክ
ኒራሕ
ኒራሪ
ኒሳ
ኒስካነን
ኒሸሹ
ኒሺ
ኒሻን
ኒሻው
ኒቆዲሞስ
ኒታይ
ኒነጨር
ኒኑርታ
ኒኑስ
ኒኑዓ
ኒኛ
ኒኪታ
ኒካራጓ
ኒክ
ኒክሰን
ኒኮላ
ኒኮላስ
ኒኮላይ
ኒው
ኒውስ
ኒውተን
ኒውትሮን
ኒውዚላንድ
ኒውዮርክ
ኒያ
ኒያላ
ኒያል
ኒዬሬሬ
ኒይያህ
ኒዮ
ኒዮሊቲክ
ኒዮን
ኒጄር
ኒፑር
ኒፑርን
ና
ናሁ
ናልባንዲያን
ናሑንተ
ናሓሪን
ናሓራይም
ናሓራይን
ናሙ
ናሙና
ናሙናዎች
ናሚቢያ
ናም
ናምሩድ
ናምሩድና
ናምሩድን
ናሩሂቶ
ናራ
ናራም
ናር
ናርመር
ናርሲሲሳዊ
ናርቦን
ናርጋ
ናሰር
ናሲር
ናስ
ናስር
ናሶ
ናሽናል
ናቡ
ናቡከደነጾር
ናቡከደነፆር
ናቫሮ
ናቲኮ
ናታን
ናታንያሁ
ናታኮ
ናት
ናትና
ናትናኤል
ናቶ
ናቸዉ
ናቸው
ናቸውና
ናችሁ
ናችኹ
ናችው
ናኒ
ናኒና
ናና
ናንሲ
ናንሼ
ናንጂንግ
ናኦድ
ናኮር
ናኮርን
ናኮችታንክ
ናኮኮ
ናዋር
ናዋትል
ናው
ናውሩ
ናዖድ
ናዚ
ናዚዎች
ናዝሬት
ናይ
ናይል
ናይሎ
ናይሮቢ
ናይስ
ናይት
ናይትሮጅን
ናይትስ
ናይዴው
ናይጄሪያ
ናደው
ናዲን
ናዳ
ናጊብ
ናጋሳኪ
ናጝ
ናፍቆት
ናፒየር
ናፖሊ
ናፖሊዎን
ናፖሊዮን
ናፖሌዎን
ናፖሌዮን
ኔ
ኔህሩ
ኔል
ኔልሰን
ኔሮ
ኔሮን
ኔስቶራዊ
ኔሽን
ኔሽንስ
ኔቫዳ
ኔታንያሁ
ኔትሬብኮ
ኔትወርክ
ኔትዎርክ
ኔቶ
ኔዘርላንድ
ኔዘርላንድስ
ኔያንደርታል
ኔጋቲቭ
ኔፐር
ኔፓል
ኔፕቱን
ን
ንም
ንሥር
ንሴት
ንስሀ
ንስሐ
ንስሓ
ንስር
ንስንሱን
ንሽ
ንቀት
ንቁ
ንቃ
ንቃተ
ንቅናቄ
ንቅናቄን
ንቡረ
ንባብ
ንብ
ንብረቱ
ንብረቱም
ንብረቱን
ንብረታቸውን
ንብረት
ንብረትን
ንብረቶች
ንብረቶችን
ንብብር
ንቦች
ንት
ንና
ንኝ
ንኡስ
ንክሩማ
ንክሩማህ
ንክሻ
ንክኪ
ንዋየ
ንዋያተ
ንዋይ
ንዑስ
ንዩ
ንዩክሌር
ንዮን
ንድፈ
ንድፍ
ንጃመና
ንገሥታት
ንገረን
ንገረኝ
ንገረው
ንገሩኝ
ንጉሠ
ንጉሡ
ንጉሡም
ንጉሡን
ንጉሣቸው
ንጉሣቸውን
ንጉሣዊ
ንጉሣዊው
ንጉሤ
ንጉሥ
ንጉሥም
ንጉሥነቱን
ንጉሥነት
ንጉሥና
ንጉሦች
ንጉሰ
ንጉሱ
ንጉሱም
ንጉሱን
ንጉሳችን
ንጉሳዊ
ንጉሴ
ንጉስ
ንጉሶች
ንጉዛት
ንጋ
ንጋት
ንጋትና
ንግሥ
ንግሥተ
ንግሥቱ
ንግሥቲቱ
ንግሥቲቱን
ንግሥት
ንግሥና
ንግርተኛ
ንግሱ
ንግስ
ንግስቲቱ
ንግስት
ንግስና
ንግድ
ንግድም
ንግድን
ንግዶች
ንግግሩ
ንግግሩን
ንግግራቸው
ንግግር
ንግግርን
ንግግሮች
ንግግሮችን
ንጣፍ
ንጣፎች
ንጥረ
ንጥረነገር
ንጥረነገሮች
ንጥር
ንጹህ
ንጹሐን
ንጹሕ
ንጽጽር
ንፁህ
ንፅህና
ንፅፅር
ንፉግ
ንፋስ
ንፋስና
ንፍሮ
ንፍቀ
ንፍጥ
ኖ
ኖህ
ኖም
ኖሞች
ኖረ
ኖረች
ኖረዋል
ኖረው
ኖሩ
ኖራ
ኖራለች
ኖር
ኖርማን
ኖርማኖች
ኖርስ
ኖርስኛ
ኖርዌይ
ኖርዌይኛ
ኖርዝ
ኖሮ
ኖሮት
ኖሮኽ
ኖሯል
ኖስ
ኖቤል
ኖቪ
ኖቫ
ኖቬምበር
ኖቭጎሮድ
ኖቮ
ኖት
ኖቶች
ኖኅ
ኖኖ
ኖክስ
ኖዊዮማጉስ
ኖዕል
ኗሪ
ኗሪዎቹ
ኗሪዎች
ኘ
ኘን
ኘንግ
ኙ
ኚ
ኛ
ኛነገ
ኛን
ኛዉ
ኛዋ
ኛው
ኛውም
ኛውና
ኛውን
ኜ
ኝ
ኞ
ኞኞ
አ
አሀኝ
አሀድ
አሁ
አሁም
አሁኑ
አሁኑኑ
አሁን
አሁንም
አሁኗ
አሃ
አሃዝ
አሃዞች
አሃዳዊ
አሃድ
አህመድ
አህመድን
አህሞስ
አህባሽ
አህባሾች
አህያ
አህያን
አህዮች
አህጉሩ
አህጉራት
አህጉራዊ
አህጉር
አህጉሮች
አሆተፕሬ
አለ
አለሁ
አለህ
አለመሆኑ
አለመሆኑን
አለመሆን
አለመመጣጠን
አለመረጋጋት
አለመስማማት
አለመቻሉ
አለመቻል
አለመኖሩ
አለመኖሩን
አለመኖር
አለመገኘቱ
አለመግባባት
አለመግባባቶች
አለሙ
አለሙን
አለሚቱ
አለማቀፋዊ
አለማችን
አለማኑስ
አለማዊ
አለማየሁ
አለማየሁን
አለማድረግ
አለም
አለምነህ
አለምን
አለምአቀፍ
አለሞች
አለሽ
አለቀ
አለቀሰ
አለቀሰች
አለቀሱ
አለቁ
አለቃ
አለቃም
አለቃቸው
አለቃነት
አለቃና
አለቃን
አለቃው
አለቃውም
አለቃውን
አለቃዎች
አለቃዎችም
አለቃዎችና
አለቃዬ
አለቆቹ
አለቆች
አለቆችም
አለበለዚያ
አለበሱት
አለበት
አለባበስ
አለባት
አለባቸው
አለብህ
አለብን
አለብኝ
አለት
አለቻት
አለቻቸው
አለች
አለችኝ
አለችዉ
አለችው
አለና
አለን
አለንጋ
አለኝ
አለኝታ
አለዉ
አለው
አለውና
አለዚያ
አለይሂ
አለፈ
አለፉ
አሉ
አሉላ
አሉም
አሉምኒ
አሉበት
አሉባቸው
አሉታዊ
አሉት
አሉና
አሉን
አሉኝ
አሉዋምና
አሉዋት
አሉዋቸው
አሊ
አሊን
አሊያህ
አሊያም
አሊጋዝ
አሊፍ
አላህ
አላህም
አላህና
አላህን
አላለም
አላለፈም
አላለፉም
አላሉም
አላላኽ
አላላኽን
አላልፍም
አላመኑም
አላመጣም
አላማ
አላማቸው
አላማው
አላምነውም
አላምጦ
አላስተዋሉም
አላስካ
አላስፈላጊ
አላቂ
አላቋረጠም
አላባ
አላባማ
አላት
አላቸዉ
አላቸው
አላቸውም
አላችሁ
አላችኹ
አላነበባችኹምን
አላኒያ
አላን
አላወቀም
አላወቁም
አላዋቂ
አላውቀውም
አላውቃቸውም
አላውቅም
አላየሁም
አላደረገም
አላገኘ
አላገኘም
አላገኙም
አላግባብ
አላፊ
አሌ
አሌክሳንደር
አሌክሳንድሪያ
አሌክሳንድር
አሌክስ
አሌፍ
አሌፖ
አል
አልሀረሪ
አልሀበሺ
አልሆነም
አልሆነችም
አልሆኑም
አልላክንም
አልመለሰም
አልመንድ
አልመጣም
አልመጣኹም
አልማን
አልማዝ
አልሜዳ
አልሞዳድ
አልሰጠም
አልሰጠውም
አልሰጡም
አልሰጥም
አልቀረም
አልቀሩም
አልቀበልም
አልቃሹ
አልቃሽ
አልቅሶ
አልቆ
አልቆየም
አልበላም
አልበሙ
አልበሙን
አልበም
አልበሞች
አልበሞችን
አልበሟ
አልበርት
አልበኝነት
አልቢዮን
አልባ
አልባሳት
አልባኒያ
አልባንስ
አልቤርቶ
አልብስ
አልብሶ
አልቦ
አልቫ
አልቫሬዝ
አልቫሮ
አልተለወጠም
አልተረጋገጠም
አልተሳካም
አልተቀበለም
አልተቀበሉም
አልተቀበሉትም
አልተቻለም
አልተቻለውም
አልተከናወነም
አልተደረገም
አልተገኘም
አልተገኙም
አልተጠቀመም
አልተፈቀደም
አልተፈጠረም
አልታወቀም
አልታየም
አልቶ
አልቻለም
አልቻለችም
አልቻሉም
አልቻልኩም
አልችልም
አልነበረም
አልነበረበትም
አልነበረኝም
አልነበረውም
አልነበሩም
አልነበራትም
አልነበራቸውም
አልነው
አልን
አልኩ
አልኩት
አልኩና
አልኬሚ
አልኮሆል
አልኮል
አልኳቸው
አልኽ
አልወደደም
አልወድም
አልወድሽ
አልወጣ
አልወጣም
አልዓዛር
አልዓዛርን
አልዩ
አልያም
አልደፈረም
አልድሪን
አልጀብራ
አልጄሪያ
አልጄሪያን
አልገባም
አልጋ
አልጋወራሽ
አልጋው
አልጋውን
አልጫ
አልፈለገም
አልፈለጉም
አልፈልግም
አልፈራም
አልፈቀደም
አልፈዋል
አልፈው
አልፋ
አልፋቤት
አልፋቤትና
አልፋቤቶች
አልፍሬድ
አልፎ
አልፎም
አልፎንሶ
አልፏል
አልፕስ
አሎ
አሏህ
አሏት
አሏቸው
አሐዱ
አሔ
አሕመድ
አሕሞስ
አሕዛብ
አመ
አመለከተ
አመለካከታቸው
አመለካከታቸውን
አመለካከት
አመለካከቶች
አመለጠ
አመለጠኝ
አመለጡ
አመሉ
አመላላሽ
አመላካች
አመል
አመልማሎ
አመልካች
አመልክቷል
አመሏ
አመሩ
አመራ
አመራረጥ
አመራር
አመራሮች
አመር
አመርቂ
አመሰራረት
አመሰገነ
አመሰገነች
አመሰግናለሁ
አመተ
አመቱ
አመቱን
አመታት
አመታትን
አመታቸው
አመታዊ
አመት
አመትና
አመቶች
አመቷ
አመቺ
አመቻችቷል
አመነ
አመነምሃት
አመኑ
አመኒ
አመንሆተፕ
አመንቲው
አመንን
አመንዝራ
አመክንዮ
አመዳም
አመዳይ
አመዴ
አመድ
አመድነት
አመድና
አመጋገብ
አመጡ
አመጡለት
አመጡት
አመጣ
አመጣት
አመጣች
አመጣው
አመጣጡ
አመጣጡም
አመጣጥ
አመጣጥን
አመጸ
አመጸኛ
አመጸኞቹን
አመጸኞች
አመጹ
አመጹን
አመጽ
አመፁ
አመፅ
አሙ
አሙሩ
አሙና
አሙናም
አሙን
አሚ
አሚር
አሚኑም
አሚና
አሚን
አማላጅ
አማላጅነት
አማልክት
አማረ
አማረሽን
አማረኛ
አማራ
አማራት
አማራን
አማራው
አማራዎች
አማራጭ
አማር
አማርና
አማርኛ
አማርኛን
አማሮች
አማቱ
አማቲ
አማት
አማቹ
አማች
አማችን
አማኑኤል
አማኒት
አማና
አማን
አማኝ
አማኞች
አማካሪ
አማካሪና
አማካሪዎች
አማካሪዎችን
አማካኝ
አማካኝነት
አማካይ
አማካይነት
አማዞኖች
አማያ
አማፂ
አሜሪካ
አሜሪካና
አሜሪካን
አሜሪካዊ
አሜሪካዊት
አሜሪካዊው
አሜሪካዊያን
አሜሪካውያን
አሜሪካውያንን
አሜሪካዎች
አሜባ
አሜን
አም
አምላከ
አምላኩ
አምላኩን
አምላኪ
አምላኪነት
አምላካቸው
አምላካችን
አምላካዊ
አምላኬ
አምላክ
አምላክህ
አምላክህን
አምላክም
አምላክን
አምልኩ
አምልኩኝ
አምልክ
አምልኮ
አምልኮተ
አምልኮት
አምልጠው
አምልጦ
አምሐራ
አምሓራ
አምሣ
አምሥተኛ
አምሥተኛው
አምሥት
አምራች
አምራቾች
አምራፌል
አምርሮ
አምሳ
አምሳሉ
አምሳል
አምሳያ
አምስተርዳም
አምስተኛ
አምስተኛዋ
አምስተኛው
አምስተኛውን
አምስቱ
አምስቱም
አምስቱን
አምስት
አምበል
አምበር
አምበሳ
አምበሶች
አምበድካር
አምቡላንስ
አምቢሳ
አምባ
አምባላጌ
አምባር
አምባሰል
አምባሳደር
አምባሳደሮች
አምባሳዶር
አምባን
አምባው
አምባዎች
አምባገነኑ
አምባገነናዊ
አምባገነናዊው
አምባገነን
አምባገነንነት
አምባጓሮ
አምቦ
አምኃ
አምኅራ
አምነስቲ
አምነን
አምነው
አምና
አምናለሁ
አምኖ
አምኗል
አምክንዮ
አምክንዮአዊ
አምደ
አምደኛ
አምዴ
አምድ
አምዶች
አምጡ
አምጡልኝ
አምጣ
አምጥተው
አምጥቶ
አምጥቷል
አምጪ
አምጭ
አምጸው
አምፊቢያን
አምፑል
አምፖል
አሞሌ
አሞራ
አሞራዊ
አሞራዊው
አሞራውያን
አሞራውያንን
አሞራዎች
አሞን
አሠራ
አሠራሩ
አሠራር
አሠርተዋል
አሣ
አሣል
አሣብ
አሣን
አሥመራ
አሥረኛው
አሥሩ
አሥራ
አሥር
አሥርተ
አሥርታት
አሦራዊ
አሦራውያን
አሦር
አሦርን
አሦርኛ
አረ
አረመኔ
አረመኔነት
አረመኔዎች
አረመኔያዊ
አረማዊ
አረማይስጥ
አረማይክ
አረም
አረሞች
አረቄ
አረቢያ
አረቢያን
አረባዊ
አረብ
አረብኛ
አረብያ
አረቦች
አረቦችን
አረንጓዴ
አረንጓዴው
አረካ
አረደ
አረገ
አረገዘች
አረጋ
አረጋቹህለት
አረጋዊ
አረጋይ
አረጋገጠ
አረጋገጡ
አረጋግጠዋል
አረጋግጦ
አረጋግጧል
አረፈ
አረፈች
አረፈና
አረፈው
አረፉ
አረፋ
አረፍተ
አረፍተነገር
አሩባ
አሪ
አሪስጣጣሊስ
አሪዞና
አሪዩስ
አሪያኒስም
አሪያን
አሪፍ
አራሚ
አራማውያን
አራማያ
አራማይስጥ
አራማጅ
አራማጆች
አራም
አራራት
አራስ
አራሽ
አራተኛ
አራተኛዋ
አራተኛው
አራተኛውም
አራተኛውን
አራቱ
አራቱም
አራቱን
አራታ
አራታን
አራት
አራዊት
አራዊትና
አራዊትን
አራያ
አራዳ
አራዴዎን
አራድ
አራጋው
አራጣ
አራፋት
አራፓሆ
አራፕ
አራፕኻ
አሬራ
አሬን
አር
አርል
አርመሽው
አርመኒያ
አርመናዊ
አርመን
አርሚ
አርማ
አርማታ
አርማዳ
አርማጭሆ
አርሜኒያ
አርሜንኛ
አርም
አርምስትሮንግ
አርሞንኤም
አርሪዳ
አርሰር
አርሲ
አርሴማ
አርስ
አርሶ
አርቀም
አርቆ
አርበ
አርበኛ
አርበኛው
አርበኞቹ
አርበኞች
አርበኞችና
አርበኞችን
አርቢት
አርባ
አርብ
አርብቶ
አርቦሬ
አርተር
አርቲስቲክ
አርቲስት
አርቲስቶች
አርቲስቶችን
አርታኢ
አርታኢዎች
አርት
አርትሮስፒራ
አርትስ
አርነት
አርኑዋንዳ
አርኖልድ
አርአያ
አርእስት
አርኪሜድስ
አርኪቴክት
አርኪኦሎጂስቶች
አርካንሳው
አርካይቭ
አርክ
አርክቲክ
አርክቴክት
አርክቴክቶች
አርክቴክቸር
አርዋዲ
አርዋድ
አርዓድ
አርዕስት
አርዘ
አርያን
አርያኖች
አርድ
አርጀንቲና
አርጀንቲናዊ
አርገን
አርገው
አርጉስ
አርግዟል
አርጎ
አርጎባ
አርጎባዎች
አርጎብኛ
አርጎብኛን
አርፈዋል
አርፈው
አርፋለች
አርፋክስድ
አርፎ
አርፏል
አሮስቶ
አሮባት
አሮን
አሮጊት
አሮጌ
አሮጌው
አሰላ
አሰላለፍ
አሰልቺ
አሰልጣኙ
አሰልጣኝ
አሰልጣኞች
አሰሙ
አሰማ
አሰማራ
አሰሩት
አሰሪ
አሰራር
አሰርተዋል
አሰርተው
አሰሳ
አሰቃቂ
አሰበ
አሰበች
አሰቡ
አሰባሰብ
አሰባስቦ
አሰብ
አሰተያየት
አሰገድ
አሰግድ
አሰጣጥ
አሰፋ
አሰፋፈር
አሱል
አሲድ
አሳ
አሳለፈ
አሳላፊ
አሳልፈዋል
አሳልፈው
አሳልፋለች
አሳልፎ
አሳልፏል
አሳማ
አሳማኝ
አሳም
አሳምነው
አሳሳል
አሳሳቢ
አሳስበዋል
አሳስቢ
አሳስቧል
አሳሽ
አሳቢ
አሳብ
አሳተመ
አሳተሙ
አሳታሚ
አሳታሚው
አሳትመዋል
አሳትሞ
አሳትሟል
አሳወቀ
አሳወቁ
አሳውም
አሳውቋል
አሳዛኝ
አሳየ
አሳየን
አሳየኝ
አሳየው
አሳዩ
አሳያቸው
አሳዬ
አሳይ
አሳይተዋል
አሳይታ
አሳይታለች
አሳይቶ
አሳይቷል
አሳዳሪ
አሳዳጊ
አሳድ
አሳድሯል
አሳድን
አሳግርት
አሳጥሮ
አሳፋሪ
አስ
አስለቅቀው
አስሊ
አስመለሰ
አስመለሰው
አስመለሱ
አስመልክቶ
አስመራ
አስመሳይ
አስመስለው
አስመስሎ
አስመዘገበ
አስመዝግበዋል
አስመዝግቧል
አስመጥተው
አስመጪ
አስማ
አስማተኛ
አስማት
አስረስ
አስረከበ
አስረከቡ
አስረካቢ
አስረካቢው
አስረካቢዎች
አስረካቢዎችን
አስረው
አስረዳ
አስረድቷል
አስረግጦ
አስራ
አስራተ
አስራት
አስር
አስርቱ
አስርት
አስቀመጠ
አስቀመጠው
አስቀመጡ
አስቀመጡት
አስቀምጥ
አስቀምጦ
አስቀምጦታል
አስቀምጧል
አስቀረ
አስቀረጸ
አስቀያሚ
አስቀድመው
አስቀድማ
አስቀድማችኹ
አስቀድሜ
አስቀድሞ
አስቀጠለ
አስቂኝ
አስበው
አስባ
አስባለሁ
አስቤ
አስብ
አስቦ
አስተላለፈ
አስተላለፉ
አስተላላፊ
አስተላልፈዋል
አስተላልፏል
አስተማማኝ
አስተማረ
አስተማረች
አስተማረው
አስተማሩ
አስተማሪ
አስተማሪና
አስተማሪው
አስተማሪዎች
አስተማራቸው
አስተማሮች
አስተምህሮ
አስተምህሮት
አስተምህሮው
አስተምረዋል
አስተምር
አስተምሮ
አስተምሯል
አስተርጓሚ
አስተሳሰቡ
አስተሳሰብ
አስተሳሰብን
አስተሳሰቦች
አስተሳስብ
አስተሳስቦች
አስተባባሪ
አስተባባሪነት
አስተናጋጁ
አስተናጋጅ
አስተናጋጆችን
አስተናግዳለች
አስተኔ
አስተኔዎች
አስተካከለ
አስተካካይ
አስተካክሎ
አስተዋሉ
አስተዋወቀ
አስተዋውቀዋል
አስተዋውቋል
አስተዋይ
አስተዋይነት
አስተዋጦ
አስተዋጽኦ
አስተዋጽዖ
አስተዋጾ
አስተዋፅኦ
አስተዋፅዖ
አስተዋፆ
አስተውል
አስተያየታቸውን
አስተያየት
አስተያየቶች
አስተዳደሩ
አስተዳደራዊ
አስተዳደር
አስተዳደርና
አስተዳደርን
አስተዳደሮች
አስተዳደግ
አስተዳዳሪ
አስተዳዳሪነት
አስተዳዳሪው
አስተዳዳሪዎች
አስተዳድረዋል
አስታራቂ
አስታወቀ
አስታወቀች
አስታወቁ
አስታዋሽ
አስታውሱ
አስታውሳለሁ
አስታውስ
አስታውቀዋል
አስታውቃለች
አስታውቋል
አስታጥቄ
አስቴር
አስትሮኖሚ
አስትሮይድ
አስቸኳይ
አስቸገረ
አስቸጋሪ
አስቻለ
አስችሎታል
አስችሏል
አስችሏታል
አስችሏቸዋል
አስነሡ
አስነሣው
አስነሳ
አስነስቶ
አስነስቷል
አስናፈር
አስከ
አስከሬኑ
አስከሬን
አስከበረ
አስከባሪ
አስከተለ
አስከትለዋል
አስከትለው
አስከትሎ
አስከትሏል
አስከናዝ
አስከፊ
አስኪያጅ
አስኪያጅነት
አስክሬን
አስኳል
አስወሩብኝ
አስወድ
አስወገደ
አስወገዱ
አስወግደው
አስወግዶ
አስወጡ
አስወጣ
አስወጣቸው
አስወጥቶ
አስወጪ
አስዋን
አስያ
አስደሳች
አስደናቂ
አስደንጋጭ
አስጀመረ
አስገራሚ
አስገበረ
አስገቡ
አስገባ
አስገብተዋል
አስገብተው
አስገብተውት
አስገብቶ
አስገኘ
አስገኝቷል
አስገደደው
አስገደዳቸው
አስገዳጅ
አስገድዶ
አስጊ
አስጠርተው
አስጠንቅቀዋል
አስጨረሱ
አስጨናቂ
አስጸያፊ
አስፈለገ
አስፈላጊ
አስፈላጊነቱ
አስፈላጊነት
አስፈላጊው
አስፈላጊውን
አስፈሪ
አስፈጻሚ
አስፈፃሚ
አስፈፃሚው
አስፋ
አስፋልት
አስፋው
አስፋፉ
አስፋፋ
አስፋፍቷል
አስፍረዋል
አስፍረውታል
አስፍሮታል
አስፍሯል
አሶሳ
አሶሳን
አሸር
አሸባሪ
አሸባሪዎች
አሸብር
አሸተን
አሸነፈ
አሸነፈች
አሸነፈና
አሸነፈው
አሸነፈውና
አሸነፉ
አሸነፉት
አሸነፉዋቸው
አሸነፋቸው
አሸነፋቸውና
አሸናፊ
አሸናፊነት
አሸናፊው
አሸናፊዎች
አሸን
አሸንዳ
አሸንፈዋል
አሸንፈው
አሸንፋ
አሸንፋለች
አሸንፎ
አሸንፏል
አሸዋ
አሸዋማ
አሹር
አሻ
አሻራ
አሻራቸውን
አሻራዎች
አሻሮ
አሻሽል
አሻቅቦ
አሻንቲ
አሻንጉሊት
አሻግሬ
አሻግሮ
አሻፈረኝ
አሽ
አሽሊ
አሽከር
አሽኩር
አሾካ
አቀላጥፈው
አቀላጥፎ
አቀማመጡ
አቀማመጣዊ
አቀማመጥ
አቀማመጥና
አቀማመጥን
አቀረበ
አቀረበላቸው
አቀረበች
አቀረቡ
አቀራረብ
አቀበት
አቀባበል
አቀባይ
አቀነባባሪ
አቀኑ
አቀና
አቀናባሪ
አቀናባሪዎች
አቀንቃኝ
አቀንቃኞች
አቀዝቅዞ
አቀፉ
አቀፋዊ
አቀፍ
አቁመው
አቁማዳ
አቁም
አቁሞ
አቃቂ
አቃቢነት
አቃቤ
አቃታቸው
አቃጠለ
አቃጠሉ
አቃጠሉት
አቃፊ
አቅመ
አቅሙ
አቅማ
አቅማዳ
አቅም
አቅምን
አቅሟ
አቅራቢ
አቅራቢነት
አቅራቢያ
አቅርበዋል
አቅርበው
አቅርቡልኝ
አቅርባለች
አቅርቦ
አቅርቦት
አቅርቦትን
አቅርቦቶች
አቅርቧል
አቅቶይ
አቅቷቸው
አቅኑ
አቅንተው
አቅድ
አቅዶ
አቅጣጫ
አቅጣጫዊ
አቅጣጫው
አቅጣጫውን
አቅጣጫዎች
አቅፍ
አቅፎ
አቆመ
አቆመው
አቆሙ
አቆስጣ
አቆጣጠር
አቆጣጠርን
አቆጣጠሮች
አቋሙን
አቋማቸው
አቋም
አቋሞች
አቋረጠ
አቋራጭ
አቋርጠው
አቋርጦ
አቋርጧል
አቋቁመዋል
አቋቁመው
አቋቁሟል
አቋቋመ
አቋቋመች
አቋቋሙ
አቋቋም
አበላሉ
አበላሽ
አበል
አበረታቷል
አበረከተ
አበራ
አበርክተዋል
አበርክቷል
አበሳሰል
አበሻ
አበቃ
አበቃቀሉ
አበበ
አበበን
አበባ
አበባም
አበባና
አበባን
አበባው
አበባዎች
አበባዬ
አበቦቹ
አበቦች
አበቦችን
አበው
አበይት
አበደ
አበደረ
አበዳሪ
አበድሪኝ
አበጋዙ
አበጋዝ
አበጋዞች
አበጠ
አቡ
አቡሊድስ
አቡል
አቡም
አቡበከር
አቡበክር
አቡበክርም
አቡነ
አቡና
አቡን
አቡካዶ
አቡድ
አቡጊዳ
አቢ
አቢማኤል
አቢሜሌክ
አቢሲኒካ
አቢሲኒያ
አቢሲኒያውያን
አቢሳሬ
አቢን
አቢያ
አቢይ
አቢዶስ
አባ
አባላ
አባላቱ
አባላቱን
አባላት
አባላትም
አባላትን
አባላቶች
አባል
አባልነት
አባልና
አባሎች
አባረረው
አባረረውና
አባረሩት
አባረራቸው
አባሪ
አባርሮ
አባስ
አባባ
አባባሉ
አባባል
አባተ
አባቱ
አባቱና
አባቱን
አባታቸው
አባታቸውን
አባታችን
አባታችንም
አባታችኹ
አባቴ
አባቴን
አባት
አባትም
አባትና
አባትን
አባትኽንና
አባቶቻቸው
አባቶቻችን
አባቶቻችኹ
አባቶች
አባቶችና
አባቷ
አባቷን
አባና
አባወራ
አባዜ
አባያ
አባይ
አባይን
አባዲር
አባድር
አቤ
አቤል
አቤሴሎም
አቤቱ
አቤቱታ
አቤት
አቤቶ
አቤይ
አብ
አብላጫ
አብላጫውን
አብልጦ
አብም
አብረሃ
አብረህ
አብረን
አብረዋቸው
አብረው
አብረውት
አብራ
አብራም
አብራሪ
አብራሪው
አብራሪዎቹ
አብራሪዎች
አብራሪዎችና
አብራኝ
አብርሀም
አብርሃ
አብርሃማዊ
አብርሃም
አብርሃምና
አብርሃምን
አብርሐም
አብርዬ
አብሮ
አብሮት
አብሯቸው
አብስ
አብሶ
አብሽ
አብቅቶ
አብቅቷል
አብነት
አብን
አብካዝያ
አብዛኛዉ
አብዛኛው
አብዛኛውን
አብዛኛዎቹ
አብዛኛዎቹን
አብዛኞቹ
አብዛኞቹን
አብዛኞች
አብዝተው
አብዝቶ
አብያተ
አብያተክርስቲያናት
አብዬ
አብይ
አብዮቱ
አብዮታዊ
አብዮት
አብዮቶች
አብደላ
አብደላህ
አብደል
አብዱ
አብዱላ
አብዱላሂ
አብዱላህ
አብዱል
አብዱልከሪም
አብዱሏህ
አብዲ
አብዲሳ
አብድ
አብጃድ
አብጃዶች
አብጋር
አብጋሮስ
አቦ
አቧራ
አቪቭ
አቪዬሽን
አቫሪስ
አቬንቲኑስ
አተላ
አተም
አተሞች
አተረጓጎም
አተረፈ
አተር
አተርን
አቲከም
አታ
አታላይ
አታመንዝር
አታምኑኝም
አታቱርክ
አታነሳም
አታውሰው
አታውቁም
አታውቁምና
አታውቁምን
አታውቅም
አታውጧት
አታደፍርሽብኝ
አታድርግ
አታጋራ
አታግባን
አቴና
አት
አትሁን
አትላስ
አትላንቲክ
አትላንታ
አትሌቲክ
አትሌቲክስ
አትሌቲኮ
አትሌት
አትሌቶች
አትመስክር
አትመኝ
አትም
አትሞትም
አትሥሩ
አትረሳ
አትርሳ
አትርፏል
አትስረቅ
አትስጠው
አትቀበልም
አትቆረጠምም
አትበለው
አትበላ
አትበል
አትበይ
አትበድል
አትችሉም
አትችልም
አትናቴዎስ
አትናገር
አትንገር
አትከልክለው
አትክልት
አትክልትና
አትክልቶች
አትዋል
አትዘለውም
አትግደል
አትጠነቀቁምን
አትጠገብ
አትጥላ
አትጥራ
አትጨነቁ
አትጫወት
አትጮህም
አትፍረዱ
አትፍረድ
አትፍሩ
አትፍራ
አትፍታ
አቶ
አቶሚክ
አቶማዊ
አቶም
አቸፈር
አቻ
አቻዎቻቸው
አቼቤ
አኅጉር
አኅጽሮተ
አነ
አነሡ
አነሣ
አነር
አነሰው
አነሱ
አነሳ
አነሳሳ
አነሳስ
አነሳስቷል
አነሳሽ
አነሳሽነት
አነስ
አነስተኛ
አነቀው
አነጋገሩ
አነጋገር
አነጋገሮች
አነጋጋሪ
አኑም
አኑራደፑረ
አኒሜሽን
አኒታ
አኒዩስ
አኒዮ
አና
አናላይሲስ
አናሎግ
አናሲሞስ
አናሳ
አናሳዎች
አናባቢ
አናባቢዎች
አናቱ
አናቲ
አናት
አናቶሊያ
አናቶሊያን
አናናስ
አናውቅም
አናጝ
አናጢ
አኔ
አን
አንሣ
አንሥቶ
አንሪ
አንሰግድም
አንሳ
አንስተኛ
አንስተው
አንስታይ
አንስታይን
አንስት
አንስቶ
አንስቶች
አንስቷል
አንሺ
አንሻን
አንሻንን
አንቀላፋ
አንቀላፋች
አንቀሳቀሰ
አንቀሳቃሽ
አንቀጽ
አንቀጾች
አንቀፅ
አንቀፆች
አንቅቲፊ
አንቆ
አንበሣ
አንበሳ
አንበሳውም
አንበሴ
አንበሶች
አንበጣ
አንባቢ
አንባቢው
አንባቢዎች
አንባብያን
አንብብ
አንተ
አንተም
አንተስ
አንተነህ
አንተን
አንተው
አንተፍ
አንቱ
አንቲ
አንቲጋ
አንታርክቲካ
አንታዮስ
አንቴና
አንት
አንትሮፖሎጂ
አንቶኒ
አንቶኒዮ
አንቶን
አንቺ
አንቺም
አንቺን
አንች
አንችልም
አንከሻ
አንከሻና
አንኩስ
አንካራ
አንኮ
አንኮበር
አንኳ
አንኳር
አንዋር
አንደ
አንደማንቱኑም
አንደበተ
አንደበቱ
አንደበት
አንደኛ
አንደኛዋ
አንደኛው
አንደኛውን
አንደዜ
አንዱ
አንዱም
አንዱና
አንዱን
አንዱንም
አንዲሁም
አንዲቱ
አንዲት
አንዲትም
አንዳርጋቸው
አንዳቸው
አንዳቸውም
አንዳች
አንዳችም
አንዳንዱ
አንዳንዱን
አንዳንዴ
አንዳንዴም
አንዳንድ
አንዳንድም
አንዳንዶቹ
አንዳንዶቹም
አንዳንዶቹን
አንዳንዶች
አንዴ
አንድ
አንድህዋሴ
አንድላይ
አንድም
አንድምታ
አንድሪው
አንድሬ
አንድሬስ
አንድነት
አንድነትና
አንድነትን
አንድን
አንድንም
አንድዋ
አንድያ
አንዶም
አንዶራ
አንዶች
አንዷ
አንዷን
አንጀለስ
አንጀት
አንጂ
አንጃዎች
አንጄሎ
አንጄሎም
አንጄሎን
አንገብጋቢ
አንገቱ
አንገቱን
አንገታቸውን
አንገት
አንገቷን
አንጋፋ
አንጋፋው
አንግሊካን
አንግል
አንግሎ
አንግሪ
አንግቤ
አንጎለላ
አንጎላ
አንጎል
አንጎት
አንጓ
አንጠፍ
አንጥረኛ
አንጥፉልኝ
አንጸባራቂ
አንጻራዊ
አንጻራዊነት
አንጻር
አንጾኪያ
አንፃራዊ
አንፃራዊነት
አንፃር
አንፈልግም
አኖ
አኖረ
አኖረው
አኖሩ
አኗኗር
አእላፋት
አእላፍ
አእምሮ
አእዋፍ
አከራካሪ
አከርካሪ
አከበረ
አከበሩ
አከበባውን
አከባበር
አከባቢ
አከባቢው
አከባቢዎች
አከባቢዎችን
አከተመ
አከናወነ
አከናወኑ
አከናውኗል
አከፋፈል
አኩሪ
አኩሱም
አኪሂቶ
አኪቫ
አካሂደዋል
አካሂዷል
አካሄደ
አካሄዱ
አካሄድ
አካለ
አካሉ
አካሉን
አካላቱ
አካላት
አካላትን
አካላቶች
አካላቸው
አካላዊ
አካላዊነት
አካል
አካልና
አካልን
አካሎች
አካባቢ
አካባቢን
አካባቢዋ
አካባቢው
አካባቢውን
አካባቢዎች
አካባቢዎችን
አካባቢያዊ
አካትቷል
አካቶ
አካቷል
አካውንት
አካዳሚ
አካዳውያን
አካዴሚ
አካድ
አካድን
አካድኛ
አካድኛን
አካፈሉ
አክሊሉ
አክሊሉን
አክሊል
አክልበ
አክራ
አክራሪ
አክሱማውያን
አክሱም
አክሲዮን
አክስት
አክሻክ
አክብረው
አክብር
አክብሮት
አክቲቪስት
አክቲቪስቶች
አክቲቭ
አክንባሎ
አኳኋን
አኳያ
አኹን
አኹንም
አወ
አወላለድ
አወል
አወረደ
አወረድን
አወሩ
አወራ
አወርድ
አወቀ
አወቁ
አወቃቀር
አወንታዊ
አወዛጋቢ
አወይ
አወደመ
አወዳደቅ
አወጀ
አወጀች
አወጁ
አወጡ
አወጡት
አወጣ
አወጣቸው
አወጣች
አወጣና
አወጣው
አወጣጥ
አዉራሪ
አዊ
አዊብሬ
አዊዲ
አዋህዶ
አዋለ
አዋሉ
አዋላጅ
አዋልድ
አዋርድ
አዋርድስ
አዋሳ
አዋሳኝ
አዋሽ
አዋቂ
አዋቂወች
አዋቂዎች
አዋበል
አዋን
አዋጀ
አዋጁ
አዋጁን
አዋጅ
አዋጆች
አው
አውለዋል
አውል
አውልቀው
አውልቆ
አውሎ
አውሩኑስ
አውራ
አውራሪ
አውራሪስ
አውራጃ
አውራጃው
አውራጃውን
አውራጃዎች
አውራጅ
አውሬ
አውሬዎች
አውርስያ
አውርደው
አውርዶ
አውሮጳ
አውሮጳዊ
አውሮጳውያን
አውሮፓ
አውሮፓና
አውሮፓን
አውሮፓዊ
አውሮፓውያን
አውሮፕላኑ
አውሮፕላን
አውሮፕላኖች
አውሮፕላኖችን
አውሳብዮስ
አውስትሪያ
አውስትራሊያ
አውስትራልያ
አውቀሽው
አውቀው
አውቃለሁ
አውቆ
አውታረ
አውታረመረብ
አውታር
አውታሮች
አውት
አውቶሞቢል
አውቶቡስ
አውኒ
አውን
አውንስ
አውአሎም
አውደ
አውድ
አውድማ
አውድሟል
አውጀዋል
አውጆ
አውጇል
አውግስጢኖስ
አውግስጦስ
አውግዘዋል
አውግዟል
አውጣ
አውጥተዋል
አውጥተው
አውጥቶ
አውጥቷል
አውጥቼ
አውጪ
አውጪው
አውጪዎች
አውጭ
አውጭው
አውጭዎች
አዎ
አዎን
አዎንታዊ
አዒሻ
አዕላፍ
አዕምሮ
አዕዋፋት
አዕዋፍ
አዘል
አዘርባይጃን
አዘርኛ
አዘነ
አዘነች
አዘና
አዘውትረው
አዘዘ
አዘዘው
አዘዙ
አዘዛቸው
አዘዞ
አዘገጃጀት
አዘጋጀ
አዘጋጁ
አዘጋጅ
አዘጋጅተዋል
አዘጋጅተው
አዘጋጅተውት
አዘጋጅቶ
አዘጋጅቷል
አዘጋጅነት
አዘጋጆች
አዙሪት
አዙራድ
አዛምድ
አዛርያስ
አዛባ
አዛኒያ
አዛኝ
አዛወረ
አዛወረው
አዛወሩ
አዛውሮ
አዛውንት
አዛውንቶች
አዛዡ
አዛዥ
አዛዥነት
አዛዥና
አዛዦች
አዛጋጆች
አዜብ
አዝሎ
አዝመራ
አዝሙድ
አዝማሚያ
አዝማሪ
አዝማሪዎች
አዝማች
አዝማችነት
አዝማቾች
አዝማድ
አዝነው
አዝናኝ
አዝኖ
አዝዞ
አዞ
አዞረ
አዞዎች
አየ
አየሁ
አየሁት
አየለ
አየሩ
አየር
አየርላንድ
አየርላንድን
አየርና
አየርን
አየች
አየነ
አየነው
አየና
አየን
አዩ
አያ
አያለሁ
አያለኹ
አያሌ
አያሌው
አያልቅ
አያልቅም
አያልፍም
አያመጣም
አያማርጥም
አያምርም
አያምኑም
አያምንም
አያሟግት
አያሳይም
አያስጥል
አያስጥልም
አያስፈልገውም
አያስፈልጋቸውም
አያስፈልግም
አያሻግር
አያቅም
አያባራ
አያቱ
አያቱን
አያታቸው
አያቴ
አያት
አያቶቹ
አያቶቻቸው
አያቶች
አያቷ
አያና
አያንስም
አያኩም
አያውቁም
አያውቅ
አያውቅም
አያዝ
አያያዝ
አያይም
አያይዞ
አያደምቅ
አያደርጉም
አያደርግም
አያደቅ
አያዳግትም
አያድርም
አያድን
አያድንም
አያገቡም
አያገኝም
አያጣም
አይ
አይሁኑ
አይሁን
አይሁዳዊ
አይሁዳዊው
አይሁዳውያን
አይሁዳውያንና
አይሁድ
አይሁድም
አይሁድና
አይሁድን
አይሁዶች
አይሁዶችን
አይሄድም
አይህ
አይሆኑም
አይሆንም
አይለቀቅም
አይለቅ
አይለቅም
አይለወጥም
አይለይም
አይሉም
አይሊል
አይላንድ
አይል
አይልም
አይመለስ
አይመለስም
አይመለከትም
አይመልሰውም
አይመሳሰሉም
አይመስለኝም
አይመስለውም
አይመስልም
አይመችም
አይመን
አይመጣም
አይሙት
አይምሰላችኹ
አይምታህ
አይሞላም
አይሞትም
አይሠራም
አይረሳም
አይረስ
አይረባ
አይረባም
አይረን
አይሪሽ
አይሬስ
አይርላንድ
አይርላንድን
አይርላንድኛ
አይርት
አይርገምህ
አይሮፕላን
አይሰማ
አይሰማም
አይሰረቅ
አይሰሩም
አይሰራም
አይሰበሩ
አይሰዱ
አይሰጠም
አይሰጡም
አይሰጥም
አይስ
አይስላንድ
አይስላንድኛ
አይስማሙም
አይስማማም
አይሸሸግም
አይቀሩም
አይቀሬ
አይቀር
አይቀርም
አይቀርምና
አይቀርብም
አይቀበሉም
አይቀበልም
አይቅሙ
አይቆምም
አይቆጠረም
አይቆጠሩም
አይቆጠርም
አይበለጡም
አይበሉም
አይበላ
አይበላም
አይበልጥም
አይበር
አይበቃም
አይበጁ
አይባልም
አይብ
አይቪ
አይቮሪ
አይተህ
አይተርፈው
አይተርፍ
አይተናል
አይተን
አይተዋል
አይተዋት
አይተው
አይተውም
አይቲዮፒያ
አይታ
አይታረስ
አይታስብም
አይታሽም
አይታወቁም
አይታወቅም
አይታይም
አይታደርም
አይታገሉም
አይታፈስ
አይቶ
አይቶት
አይቷል
አይቻለሁ
አይቻልም
አይቼ
አይችሉም
አይችልም
አይኅ
አይነ
አይነር
አይነሳ
አይነሳም
አይነተኛ
አይነቱ
አይነት
አይነትና
አይነቶች
አይነቶችም
አይነቶችን
አይነድም
አይነግሩ
አይነጩለትም
አይኑ
አይኑን
አይና
አይናገርም
አይናፍቅም
አይኔ
አይኔን
አይን
አይንስታይን
አይንን
አይኖረውም
አይኖርም
አይኖች
አይከሰስ
አይከበርም
አይከብዳትም
አይከድን
አይከፍትም
አይኮመጥጥም
አይኹን
አይኾንም
አይወልዱ
አይወርሱ
አይወዱ
አይወዱም
አይወድም
አይወድቅም
አይወጡም
አይወጣም
አይውልም
አይዘሉ
አይዘነጉም
አይዘንሃወር
አይዘንብም
አይዛክ
አይዞህ
አይደለሁም
አይደለህም
አይደለም
አይደለምና
አይደለምን
አይደለችም
አይደለንም
አይደለኹም
አይደሉም
አይደሉምና
አይደሉምን
አይደላችሁም
አይደል
አይደረግም
አይደርስም
አይደፍር
አይድ
አይድን
አይዶ
አይጀስታ
አይገ
አይገማም
አይገቡም
አይገባህም
አይገባም
አይገባበትም
አይገባትም
አይገባቸውም
አይገባኝ
አይገባውም
አይገኙም
አይገኝ
አይገኝለትም
አይገኝም
አይገድ
አይገድም
አይጊያሌዎስ
አይጎዳ
አይጎዳም
አይጓዝም
አይጠ
አይጠራም
አይጠቅምም
አይጠቅስም
አይጠብቅም
አይጠጣም
አይጠፋም
አይጣላም
አይጥ
አይጥለው
አይጥላህ
አይጦች
አይጨምርም
አይጫንም
አይጮህም
አይፈልግም
አይፈሩም
አይፈራም
አይፈርድም
አይፈቀድም
አዮን
አዮዲን
አደም
አደረ
አደረሰ
አደረሱ
አደረጃጀት
አደረገ
አደረገች
አደረገና
አደረገኝ
አደረገው
አደረጉ
አደረጉላቸው
አደረጉት
አደረጉዋቸው
አደረጋት
አደረጋቸው
አደረግን
አደረጓት
አደሩ
አደራ
አደራረግ
አደራችሁ
አደራውን
አደራጅቷል
አደሬ
አደር
አደርገዋለሁ
አደርጉ
አደርጋለሁ
አደርጋለኹ
አደሮች
አደባባይ
አደብ
አደነቁ
አደን
አደንዛዥ
አደንጓሬ
አደይ
አደገ
አደገች
አደገኛ
አደገኛና
አደጉ
አደጋ
አደጋን
አደጋው
አደጋዎች
አደጋዎችን
አደግ
አደፍርስ
አዱ
አዱኛ
አዱክ
አዱክን
አዲ
አዲሱ
አዲሱን
አዲሲቱን
አዲስ
አዲሶቹ
አዲሷ
አዲዳስ
አዲግራት
አዳ
አዳል
አዳልን
አዳሙ
አዳማ
አዳም
አዳምም
አዳምስ
አዳምና
አዳምን
አዳሪ
አዳራሹ
አዳራሽ
አዳራሾች
አዳሲ
አዳብ
አዳብረዋል
አዳብሯል
አዳነ
አዳኒያ
አዳኝ
አዳኞች
አዳዲ
አዳዲስ
አዳድ
አዳድን
አዳጋች
አዴላ
አድ
አድልዎ
አድሚራል
አድማ
አድማሱ
አድማሳዊ
አድማስ
አድማቸውን
አድማጮች
አድራሻ
አድራጊ
አድራጊነት
አድራጊው
አድራጊዎች
አድራጎት
አድርሰኝ
አድርሰዋል
አድርሰው
አድርሷል
አድርገህ
አድርገሽ
አድርገን
አድርገኝ
አድርገዋል
አድርገው
አድርገውታል
አድርገውት
አድርጉ
አድርጋ
አድርጋለች
አድርጋችሁ
አድርጋችኹ
አድርጌ
አድርግ
አድርግላቸው
አድርጎ
አድርጎታል
አድርጎት
አድርጐ
አድርጓል
አድርጓልና
አድርጓታል
አድርጓቸዋል
አድሮ
አድስ
አድባራት
አድባር
አድቬንቲስት
አድነን
አድነኝ
አድነው
አድናቂ
አድናቂዎቹ
አድናቂዎች
አድናቆት
አድናቆትን
አድን
አድኖ
አድዋ
አድያም
አድገዋል
አድገው
አድጎ
አድጓል
አዶ
አዶልፍ
አጀማመር
አጀንዳ
አጃ
አገለለ
አገለገለ
አገለገሉ
አገላለጽ
አገልጋዩም
አገልጋያቸው
አገልጋይ
አገልጋዮች
አገልግለዋል
አገልግላለች
አገልግሎቱ
አገልግሎቱን
አገልግሎት
አገልግሎትን
አገልግሎቶች
አገልግሎቶችን
አገልግሏል
አገመኝ
አገረ
አገሩ
አገሩም
አገሩን
አገሩዋ
አገሪቱ
አገሪቱን
አገሪቷ
አገሪቷን
አገራት
አገራቸው
አገራቸውን
አገራቸውንም
አገራችን
አገራችንን
አገራዊ
አገሬ
አገሬው
አገር
አገርም
አገርና
አገርን
አገሮቹን
አገሮች
አገሮችና
አገሮችን
አገሯ
አገቡ
አገባ
አገባሁ
አገባቡ
አገባብ
አገባት
አገባች
አገናኝ
አገኘ
አገኘሁ
አገኘች
አገኘና
አገኘን
አገኘው
አገኘውና
አገኙ
አገኙት
አገኛቸው
አገኝተዋል
አገኝተው
አገኝቶ
አገኝቷል
አገው
አገውኛ
አገዎች
አገዛዙ
አገዛዝ
አገዛዝን
አገዛዞች
አገዳ
አጉሊ
አጉል
አጉልቶ
አጉም
አጉርሱኝ
አጊጥ
አጋ
አጋማሽ
አጋር
አጋርነት
አጋሮ
አጋሮቹ
አጋሮቻቸው
አጋሮች
አጋሮቿ
አጋታ
አጋንንታዊ
አጋንንት
አጋንንትም
አጋንንትን
አጋዘን
አጋዥ
አጋዥነት
አጋጠመው
አጋጣሚ
አጋጣሚም
አጋጣሚዎች
አጋጥሟታል
አግላይ
አግልሎ
አግሎ
አግባ
አግባብ
አግብተው
አግብታ
አግብቶ
አግታ
አግኝ
አግኝተናል
አግኝተዋል
አግኝተው
አግኝታለች
አግኝቶ
አግኝቷል
አግዓዝያን
አግዳሚ
አግድም
አግዷል
አጎራባች
አጎሬሳና
አጎበር
አጎቱ
አጎታቸው
አጎታቸውን
አጎት
አጓት
አጛሽ
አጠ
አጠራሩ
አጠራር
አጠራሮች
አጠራጣሪ
አጠር
አጠቃ
አጠቃላዩ
አጠቃላይ
አጠቃሎ
አጠቃቀሙ
አጠቃቀም
አጠቃቀምና
አጠቃቀምን
አጠባበቅ
አጠናቀቀ
አጠናቀቁ
አጠናቀዋል
አጠናቀው
አጠናቋል
አጠናከረ
አጠናክሮ
አጠያያቂ
አጠገቡ
አጠገባቸው
አጠገቤ
አጠገብ
አጠጣው
አጠፉ
አጠፉት
አጠፋ
አጠፋቸው
አጠፋው
አጡ
አጣ
አጣምሮ
አጣሪ
አጣራር
አጣብቂኝ
አጣዳፊ
አጣጣሚ
አጤ
አጥ
አጥማጁ
አጥማጅ
አጥማጆች
አጥሩ
አጥሩን
አጥር
አጥቂ
አጥቢ
አጥቢዎች
አጥቢያ
አጥባቂ
አጥባቂነት
አጥባቂዎች
አጥብቀህ
አጥብቀው
አጥብቃ
አጥብቆ
አጥቦ
አጥተዋል
አጥታለች
አጥነት
አጥናፍሰገድ
አጥንተዋል
አጥንተው
አጥንቱ
አጥንት
አጥንቶ
አጥንቶች
አጥንቷል
አጥኚ
አጥኚዎች
አጥኝ
አጥኝወች
አጥኝው
አጥኝዎች
አጥጋቢ
አጥፊ
አጥፍተው
አጥፍቶ
አጥፍቷል
አጦጢስ
አጨዋወቱ
አጫወተ
አጫዋች
አጫዋቾች
አጫጭር
አጭሩ
አጭር
አጸና
አጸደቀ
አጸድ
አጻጻፉ
አጻጻፍ
አጼ
አጼው
አጽም
አጽቄ
አጽናኝ
አጽናፈ
አጽንተው
አጽድቋል
አፀደ
አፀደቀ
አፃፃፍ
አፄ
አፅም
አፅንዖት
አፅድቋል
አፈ
አፈረሰው
አፈሩ
አፈራረሰ
አፈር
አፈታሪካዊ
አፈታሪክ
አፈታሪኮች
አፈነዳ
አፈነዳች
አፈና
አፈንዲ
አፈወርቂ
አፈወርቅ
አፈገፈገ
አፈጣጠር
አፈጻጸም
አፈፃፀም
አፉ
አፉን
አፊፋኖስ
አፋር
አፋርኛ
አፋሮች
አፋቸው
አፋን
አፋኝ
አፋዊ
አፋፍ
አፌ
አፌን
አፍ
አፍህ
አፍልቶ
አፍሪቃ
አፍሪቃን
አፍሪቃዊ
አፍሪቃዊው
አፍሪቃው
አፍሪቃውያን
አፍሪካ
አፍሪካኑስ
አፍሪካና
አፍሪካን
አፍሪካንስ
አፍሪካዊ
አፍሪካውያን
አፍራሽ
አፍርሶ
አፍርተው
አፍርቷል
አፍሮ
አፍቀራ
አፍቃሪ
አፍና
አፍንጫ
አፍንጫና
አፍንጫው
አፍጋኒስታን
አፍጣጭ
አፎት
አፎች
አፐር
አፐፒ
አፒል
አፒስ
አፒስን
አፒያ
አፓርታማ
አፓርታይድ
አፕ
አፕላ
አፕል
አፕሪል
አፖሎ
ኡ
ኡላም
ኡልትራ
ኡልድ
ኡሙ
ኡማ
ኡማሩ
ኡምቤርቶ
ኡሩካጊና
ኡሩክ
ኡሩክና
ኡሩክን
ኡሩጓይ
ኡሪ
ኡራርቱ
ኡራኑስ
ኡራጓያዊ
ኡራጓይ
ኡር
ኡርን
ኡርዱ
ኡርዱኩጋ
ኡሰርካሬ
ኡሰይድ
ኡስማን
ኡባሊት
ኡቦ
ኡቱ
ኡኑግ
ኡኒቨርሲቲዎች
ኡን
ኡዝቤኪስታን
ኡደት
ኡጋንዳ
ኡግሪክ
ኡጹር
ኡፕሳላ
ኢ
ኢህራም
ኢህአዴግ
ኢህአዴግን
ኢሉ
ኢሉማ
ኢሉም
ኢሉሹማ
ኢሉባቦር
ኢሉና
ኢሊ
ኢሊሹ
ኢሊኖይ
ኢሊያ
ኢሊፕ
ኢላ
ኢላህ
ኢላማ
ኢል
ኢልግ
ኢልግን
ኢሎን
ኢሕአዴግ
ኢሚረመሻው
ኢሚቲ
ኢሚግሬሽን
ኢማሙ
ኢማሙም
ኢማም
ኢማኑኤል
ኢማን
ኢሜይል
ኢምራን
ኢምንት
ኢምፓላ
ኢምፓየር
ኢምፔሪያሊዝም
ኢምፔሪያል
ኢሥባት
ኢሪሹም
ኢራሽናል
ኢራቅ
ኢራቅን
ኢራናዊ
ኢራን
ኢር
ኢርካብ
ኢርጉን
ኢሮብ
ኢሲስ
ኢሲን
ኢሲንን
ኢሳ
ኢሳቅ
ኢሳት
ኢሳያስ
ኢሳይያስ
ኢስላማዊ
ኢስላም
ኢስላምን
ኢስማዒልም
ኢስተር
ኢስታንቡል
ኢስታይዎን
ኢስቴዎን
ኢስቶኒያ
ኢሺ
ኢሻር
ኢሽቢ
ኢሽታር
ኢቂሻም
ኢቢ
ኢቢን
ኢቤሩስ
ኢቤሪያ
ኢቤራውያን
ኢብሉል
ኢብራሂም
ኢብራሂምም
ኢብኑ
ኢብን
ኢብኮ
ኢቫን
ኢተር
ኢቱ
ኢቲ
ኢቲቪ
ኢታሉስ
ኢታሊክ
ኢታሎ
ኢት
ኢትቢራ
ኢትዮ
ኢትዮወርድ
ኢትዮዽያ
ኢትዮጲስ
ኢትዮጲያ
ኢትዮጲያዊ
ኢትዮጵስት
ኢትዮጵያ
ኢትዮጵያም
ኢትዮጵያና
ኢትዮጵያን
ኢትዮጵያንና
ኢትዮጵያኖች
ኢትዮጵያዊ
ኢትዮጵያዊት
ኢትዮጵያዊው
ኢትዮጵያዊያን
ኢትዮጵያው
ኢትዮጵያውያን
ኢትዮጵያውያንም
ኢትዮጵያውያንን
ኢትዮፒክ
ኢነርጂ
ኢኒ
ኢናቆስ
ኢናና
ኢን
ኢንሳይክሎፒዲያ
ኢንስቲትዩት
ኢንሹራንስ
ኢንሹሺናክ
ኢንቨስት
ኢንቨስትመንት
ኢንቬስትመንት
ኢንተለጀንስ
ኢንተራፕት
ኢንተራፕቶች
ኢንተር
ኢንተርናሽናል
ኢንተርኔት
ኢንተርኔትን
ኢንተርፕራይዝ
ኢንተርፕራይዞች
ኢንቲፋዳ
ኢንታንጀብል
ኢንች
ኢንክ
ኢንዛኩና
ኢንደስትሪ
ኢንዱስትሪ
ኢንዱስትሪው
ኢንዱስትሪዎች
ኢንዲራ
ኢንዲያና
ኢንዲያን
ኢንዴክስ
ኢንዶ
ኢንዶኔዥያ
ኢንጂነሪንግ
ኢንጂነር
ኢንጂኔር
ኢንጅነር
ኢንጋይዎን
ኢንግሊዝኛ
ኢንግላንድ
ኢንፎርሜሽን
ኢኖቬሽን
ኢኩኑም
ኢኩን
ኢካሮስ
ኢኮኖሚ
ኢኮኖሚስት
ኢኮኖሚን
ኢኮኖሚክ
ኢኮኖሚክስ
ኢኮኖሚዋ
ኢኮኖሚው
ኢኮኖሚዎች
ኢኮኖሚያዊ
ኢኮኖሚያዊና
ኢኳቶሪያል
ኢው
ኢዘንበርግ
ኢዛቤል
ኢዛና
ኢየሩሳሌም
ኢየሩሳሌምም
ኢየሩሳሌምን
ኢየሱስ
ኢየሱስም
ኢየሱስን
ኢየሱስንም
ኢዩኤል
ኢያሪኮ
ኢያሱ
ኢያሱም
ኢያሱና
ኢያሱን
ኢያን
ኢዮ
ኢዮቤልዩ
ኢዮብ
ኢዮአስ
ኢደማ
ኢዲ
ኢዲና
ኢዲናም
ኢዲን
ኢዳዱ
ኢድሪሚ
ኢድሪስ
ኢግሪሽ
ኢግናጦስ
ኢጣሊያ
ኢጣሊያን
ኢጣሊያኖች
ኢጣልያ
ኢጣልያዊው
ኢፒቅ
ኣ
ኣሁን
ኣሁንም
ኣለ
ኣለመኖር
ኣለበት
ኣለባቸው
ኣለው
ኣሉ
ኣሉት
ኣልቦ
ኣልነበረም
ኣልፎ
ኣሏቸው
ኣመዳደብ
ኣማራጭ
ኣማርኛ
ኣሜሪካ
ኣምስት
ኣሠራር
ኣሥር
ኣረጋ
ኣራት
ኣስተማማኝ
ኣስተሳሰብ
ኣስተዋጽዖ
ኣስተዳደር
ኣስተጋባሪ
ኣስቸጋሪ
ኣስያ
ኣስፈላጊ
ኣሸናፊ
ኣቀረቡ
ኣቅርበዋል
ኣቆጣጠር
ኣቈጣጠር
ኣበራ
ኣበበ
ኣበባ
ኣቢሲኒካ
ኣባሎ
ኣብ
ኣብርሃም
ኣብሻ
ኣብዛኛው
ኣቶ
ኣኃዛት
ኣኃዛዊ
ኣኃዝ
ኣኃዞች
ኣን
ኣንበሳ
ኣንደኛ
ኣንደኛው
ኣንዱ
ኣንዱን
ኣንዳንድ
ኣንዳንዶቹ
ኣንድ
ኣንድን
ኣንጀት
ኣከታተብ
ኣከታተቦች
ኣካል
ኣክሊሉ
ኣክሱም
ኣዋርድ
ኣያሌ
ኣያስፈልግም
ኣያና
ኣይቀርም
ኣይቻልም
ኣይችሉም
ኣይደለም
ኣይደሉም
ኣይጽፍም
ኣይፎን
ኣይፓድ
ኣደረጉ
ኣደገኛ
ኣዲስ
ኣዳም
ኣዳዲስ
ኣድርገዋል
ኣድርገው
ኣድርጎ
ኣገር
ኣገሮች
ኣገኘ
ኣገው
ኣገዳ
ኣግኝተዋል
ኣግኝቷል
ኣጠቃቀም
ኣጠቃቀሞች
ኣጣርድ
ኣጻጻፍ
ኣፋን
ኣፕል
ኤ
ኤለን
ኤሉ
ኤሊ
ኤሊሳ
ኤሊዛቤት
ኤሊያስ
ኤላማዊ
ኤላማዊው
ኤላማውያን
ኤላማውያንን
ኤላም
ኤላምና
ኤላምን
ኤላምኛ
ኤላይዛ
ኤላጋባሉስ
ኤሌትሮመግነጢሳዊ
ኤሌክትሪክ
ኤሌክትሮ
ኤሌክትሮኒክ
ኤሌክትሮኒክስ
ኤሌክትሮን
ኤሌክትሮኖች
ኤል
ኤልሞዳድ
ኤልሣቤጥ
ኤልሳቤጥ
ኤልዛቤት
ኤልዛቤትን
ኤልያስ
ኤልያስን
ኤሎሄ
ኤሎሄይካ
ኤሚ
ኤሚል
ኤማጥያ
ኤም
ኤምባሲ
ኤምባሲዎችን
ኤምኔም
ኤምፒተስ
ኤረን
ኤሪሞን
ኤሪሹም
ኤሪባ
ኤሪባም
ኤሪክ
ኤሪው
ኤሪዱ
ኤራ
ኤር
ኤርምያስ
ኤርትራ
ኤርትራና
ኤርትራን
ኤርትራዊ
ኤርትራዊያን
ኤርትራውያን
ኤርትራውያንን
ኤርነስት
ኤርኔስቶ
ኤርፖርት
ኤሲ
ኤሴክስ
ኤስ
ኤስቶኒያ
ኤስኤስአር
ኤስያዊ
ኤስፔራንቶ
ኤሹህ
ኤሹሕ
ኤሽታር
ኤሽኑና
ኤሽኑናን
ኤቂውረውስ
ኤቢ
ኤቤር
ኤብላ
ኤብላን
ኤብሮ
ኤቦር
ኤቪዬሽን
ኤታ
ኤታና
ኤት
ኤች
ኤችአይቪ
ኤችኤምኤስ
ኤነታርዚ
ኤና
ኤናም
ኤናናቱም
ኤን
ኤንሊል
ኤንመርካር
ኤንመርካርና
ኤንመባራገሲ
ኤንመተና
ኤንሲ
ኤንሻኩሻና
ኤንኪ
ኤንድ
ኤንጂን
ኤንግልስ
ኤአናቱም
ኤከር
ኤኩር
ኤክሲጅዮስ
ኤክስ
ኤክስትራ
ኤክስቼከር
ኤክስፖርት
ኤኳዶር
ኤውላጥ
ኤውሮፕስ
ኤውስጣቴዎስ
ኤዎስጣጤዎስ
ኤይርክ
ኤይድ
ኤደሣ
ኤደን
ኤዲሰን
ኤዲሶን
ኤዲፐሳዊ
ኤዲፐስ
ኤድመንድ
ኤድስ
ኤድስን
ኤድስዮስ
ኤድዋርድ
ኤድዋርዶ
ኤዶም
ኤዶምያስ
ኤጀርሳ
ኤጀንሲ
ኤጀንሲዎች
ኤጂዩ
ኤግዚቢሽን
ኤጠር
ኤጭ
ኤጲስ
ኤፌ
ኤፌሶን
ኤፍ
ኤፍራጥስ
ኤፍሬም
ኤፍሲ
ኤፑኽ
ኤፓርቲ
ኤፕሪል
እ
እሁድ
እሄዳለሁ
እህል
እህልን
እህሎች
እህቱ
እህቴ
እህት
እህቶቹ
እህቶች
እህቷ
እህና
እለ
እለምናችዃለኹ
እለምንኻለኹ
እለብስ
እለተ
እለት
እላለሁ
እላለኹ
እላቸዋለሁ
እላችኋለሁ
እላችዃለኹ
እላችዃለኹና
እላንተ
እላዩ
እላይ
እሌኒ
እልህ
እልል
እልም
እልቂት
እልባት
እልካለሁ
እልካለኹ
እልኻለኹ
እልፍ
እልፍኝ
እልፍኞች
እሑድ
እመ
እመልሳለሁ
እመርታ
እመርጣለሁ
እመቤታችን
እመቤታችንም
እመቤቴ
እመቤት
እመት
እመኑ
እመጣለሁ
እመጣለኹ
እሙን
እሚሆነው
እሚለው
እሚል
እሚባለው
እሚባል
እሚያሳየው
እማ
እማሆይ
እማማ
እማኝ
እማኞች
እማያቁት
እም
እምላለሁ
እምሩ
እምቅ
እምቢ
እምባ
እምብርት
እምብዛም
እምቧይ
እምነ
እምነቱ
እምነቱን
እምነታቸው
እምነታቸውን
እምነት
እምነትና
እምነትን
እምነቶች
እምነቶችን
እምንለው
እምዬ
እሞታለሁ
እሞክራለሁ
እሥራት
እሥራኤል
እረታ
እረኛ
እረኛው
እረኞች
እረኞችና
እረድ
እረፍት
እሩቅ
እሪ
እሪያ
እሪያዎች
እራሱ
እራሱን
እራሳቸው
እራሳቸውን
እራሳቸውንም
እራሴን
እራስ
እራስን
እራስክን
እራስዋ
እራሷ
እራሷን
እራቱ
እራት
እርማት
እርም
እርምጃ
እርምጃው
እርምጃዎች
እርምጃዎችን
እርሱ
እርሱም
እርሱና
እርሱን
እርሱንም
እርሳስ
እርሳቸው
እርሳቸውም
እርሳቸውን
እርስ
እርስበርሳቸው
እርስዋ
እርስዋም
እርስዎ
እርስዎም
እርሷ
እርሷም
እርሷን
እርሻ
እርሻን
እርሻዎች
እርሾ
እርቀት
እርቃኑን
እርቅ
እርባታ
እርባታን
እርከን
እርከኖች
እርካብ
እርካብቱም
እርካታ
እርዳታ
እርዳታን
እርድ
እርጅና
እርጉዝ
እርጉጥ
እርጋታ
እርግማን
እርግብ
እርግዝና
እርግጠኛ
እርግጥ
እርግጥኛ
እርግፍ
እርጎ
እርጥበታማ
እርጥበት
እርጥብ
እርፍ
እሰር
እሰብር
እሰብክ
እሰከ
እሰጠዋለሁ
እሰጣለሁ
እሱ
እሱም
እሱና
እሱን
እሱንም
እሱው
እሳቤ
እሳተ
እሳቱ
እሳቱም
እሳቱን
እሳት
እሳትም
እሳትና
እሳትን
እሳቸው
እሳቸውም
እሳቸውን
እሴት
እሴቶች
እሴቶችን
እስላማዊ
እስላማዊው
እስላም
እስላሞች
እስሌማን
እስልምና
እስልምናን
እስመ
እስማኤል
እስረኛ
እስረኛው
እስረኛውን
እስረኞች
እስረኞችን
እስራት
እስራኤላዊያን
እስራኤላውያን
እስራኤላውያንን
እስራኤል
እስራኤልና
እስራኤልን
እስር
እስቲ
እስቴ
እስቴት
እስቴትስ
እስትንፋሰ
እስትንፋስ
እስከ
እስከሆነ
እስከሆነበት
እስከመቼ
እስከመጨረሻው
እስከሚቻል
እስከማለት
እስከሞተበት
እስከነ
እስከአሁን
እስከዚህ
እስከዚያ
እስከዚያው
እስከዛሬ
እስከዳር
እስኩቴስ
እስኪ
እስኪሆን
እስኪመለስ
እስኪመጣ
እስኪቀርብ
እስኪወጣ
እስኪያልፍ
እስኪያወጣ
እስኪደረስ
እስኪደርስ
እስኪገባ
እስካሁን
እስካሁንም
እስካልወደደ
እስክ
እስክሪን
እስክስታ
እስክንድር
እስክንድርያ
እስያ
እስያና
እስያን
እስያዊ
እስጢፋኖስ
እስጢፋኖስም
እስጢፋኖስን
እስፊንክስ
እስፓንኛ
እስፓንያ
እስፓንያውያን
እስፓኝ
እስፔሊንግ
እስፔሊንጎች
እስፖርት
እሷ
እሷም
እሷን
እሸቱ
እሸቱን
እሸቴ
እሸት
እሺ
እሼር
እሽመ
እሽቢ
እሽታር
እሾህ
እቃ
እቃወች
እቃወችን
እቃው
እቃውን
እቃዎች
እቃዎችን
እቅዱ
እቅዱን
እቅድ
እቅድና
እቅዶች
እቅፍ
እበላዋለሁ
እበላው
እበት
እባላለሁ
እባብ
እባብን
እባቦች
እባካችሁ
እባክህ
እባክዎ
እባጭ
እቤቱ
እቤት
እቤትዎ
እብራይስጥ
እብስ
እብኒ
እብናት
እብን
እብደት
እብድ
እብድና
እብዶች
እቲሳ
እታች
እቴ
እቴጌ
እትም
እትዬ
እቶን
እችላለሁ
እኅቱ
እኅቱን
እኅታቸው
እኅቴ
እኅት
እነ
እነሆ
እነሆም
እነማን
እነማይ
እነርሱ
እነርሱም
እነርሱን
እነርሱንም
እነሱ
እነሱም
እነሱን
እነሴ
እነብሴ
እነኚህ
እነኚህም
እነኚህን
እነኝህን
እነዚሁ
እነዚህ
እነዚህም
እነዚህን
እነዚህንም
እነዚያ
እነዚያም
እነዚያን
እነዚያንም
እኑስ
እኑሶች
እኒሁ
እኒህ
እኒህም
እኒህን
እኒየው
እኒያ
እና
እናም
እናምናለን
እናርጅ
እናቀርባለን
እናቱ
እናቱም
እናቱን
እናቲቱ
እናታቸው
እናታችን
እናቴ
እናቴም
እናቴን
እናት
እናትና
እናትን
እናትኽን
እናትዋ
እናትዋን
እናቶቻችን
እናቶች
እናቷ
እናቷን
እናነባለን
እናንተ
እናንተም
እናንተስ
እናንተን
እናንተንም
እናውቃለን
እናውጋ
እናያለን
እናደርጋለን
እናድርግ
እናገራለሁ
እናገራለኹ
እናገኘዋለን
እናገኛለን
እኔ
እኔም
እኔስ
እኔና
እኔን
እኔንም
እኔው
እን
እንሂድ
እንሄዳለን
እንሆ
እንሆም
እንለዋለን
እንላለን
እንመለከታለን
እንመልከት
እንሞክራለን
እንሥሣት
እንሥራ
እንረዳለን
እንሰማለን
እንሰሳ
እንሰሳት
እንሰት
እንሰጣለን
እንስ
እንስላል
እንስራ
እንስራዋን
እንስራው
እንስሳ
እንስሳት
እንስሳትም
እንስሳትን
እንስሳቶች
እንስሳው
እንስሳዎች
እንስሶች
እንስት
እንሶስላ
እንሽላሊት
እንሽላሊቶች
እንቁ
እንቁላሉን
እንቁላል
እንቁላሎቹን
እንቁላሎች
እንቁራሪት
እንቁራሪቶች
እንቅልፍ
እንቅርት
እንቅስቃሴ
እንቅስቃሴና
እንቅስቃሴን
እንቅስቃሴው
እንቅስቃሴውን
እንቅስቃሴዎች
እንቅስቃሴዎችን
እንቅጥቅጥ
እንቅፋት
እንቅፋትን
እንቆቅልሽ
እንበላለን
እንበል
እንበረም
እንቢ
እንባ
እንብላ
እንብላው
እንብርት
እንብዛም
እንቦሳ
እንቦጭ
እንቧይ
እንት
እንትን
እንችላለን
እንናገራለን
እንኖራለን
እንከተላለን
እንከን
እንኩ
እንኩዋን
እንኪያስ
እንካ
እንክርዳድ
እንክብካቤ
እንኮይ
እንኳ
እንኳን
እንኳንስ
እንኺድ
እንወዳለን
እንውሰድ
እንዚራን
እንዝርት
እንይ
እንደ
እንደሆነ
እንደሆነም
እንደሆነች
እንደሆነና
እንደሆኑ
እንደሆኑና
እንደሆን
እንደሌለ
እንደሌለበት
እንደሌለው
እንደሌላት
እንደሌላቸው
እንደሌሎቹ
እንደሌሎች
እንደልቡ
እንደልብ
እንደመሆኑ
እንደመሆናቸው
እንደመሆኖ
እንደመሆኗ
እንደመጡ
እንደመጣ
እንደሚሄዱ
እንደሚሄድ
እንደሚሆኑ
እንደሚሆን
እንደሚለቁ
እንደሚለን
እንደሚለው
እንደሚሉ
እንደሚሉት
እንደሚል
እንደሚሠራ
እንደሚረዳ
እንደሚሰሩ
እንደሚሰራ
እንደሚሰጥ
እንደሚሻ
እንደሚሻል
እንደሚቀጣ
እንደሚቀጥል
እንደሚቆይ
እንደሚበልጥ
እንደሚባለው
እንደሚተላለፍ
እንደሚተርከው
እንደሚተርክ
እንደሚታሠብ
እንደሚታወቀው
እንደሚታወቅ
እንደሚታየው
እንደሚታይ
እንደሚቻለው
እንደሚቻል
እንደሚችሉ
እንደሚችል
እንደሚናገሩ
እንደሚናገሩት
እንደሚኖረው
እንደሚኖሩ
እንደሚኖራቸው
እንደሚኖር
እንደሚከተለው
እንደሚካሄድ
እንደሚወስድ
እንደሚውል
እንደሚዘጋ
እንደሚያመለክተው
እንደሚያመለክቱት
እንደሚያሳየው
እንደሚያሳዩት
እንደሚያስረዳው
እንደሚያስቡት
እንደሚያስተምሩት
እንደሚያስፈልግ
እንደሚያደርጉ
እንደሚያደርግ
እንደሚያገለግሉ
እንደሚያገለግል
እንደሚይዝ
እንደሚደረገው
እንደሚደረግ
እንደሚደርስ
እንደሚገልጸው
እንደሚገባ
እንደሚገኙ
እንደሚገኝ
እንደሚጓዝ
እንደሚጠቀም
እንደሚጠቁሙት
እንደሚጽፍ
እንደሚፈልግ
እንደሚፈጥር
እንደማለት
እንደማንኛውም
እንደማያውቅ
እንደማይሆን
እንደማይቀር
እንደማይቻል
እንደማይችሉ
እንደማይችል
እንደምትሰጥ
እንደምናየው
እንደምን
እንደምንም
እንደምንረዳ
እንደምንረዳው
እንደምክንያት
እንደሞቱ
እንደራሴ
እንደራሴነት
እንደራሴው
እንደርሱ
እንደርታ
እንደሰው
እንደሱ
እንደስራው
እንደቀጠለ
እንደቅደም
እንደቆመ
እንደቆዩ
እንደተለመደው
እንደተመለሰ
እንደተመለከተው
እንደተመሠረተ
እንደተመነው
እንደተሰሩ
እንደተሰራ
እንደተሰጠው
እንደተሰጣቸው
እንደተቀበለ
እንደተባለ
እንደተባለው
እንደተተረጎመ
እንደተተከሉ
እንደተነገረው
እንደተናገረው
እንደተናገሩት
እንደተወለደ
እንደተወለዱ
እንደተዘገበው
እንደተጀመረ
እንደተገለጸው
እንደተገኘ
እንደተጠቀሰው
እንደተጠበቀ
እንደተጻፈ
እንደተጻፈና
እንደተጻፈው
እንደታተመ
እንደታየ
እንደቻለ
እንደነ
እንደነሱ
እንደነበረ
እንደነበረች
እንደነበረና
እንደነበረው
እንደነበሩ
እንደነበሩት
እንደነበራት
እንደነበራቸው
እንደነበር
እንደነበርም
እንደነበርና
እንደነዚህ
እንደኔ
እንደንበር
እንደኖረ
እንደኖሩ
እንደኛው
እንደእግዚአብሔር
እንደወረደ
እንደወርቅ
እንደወጣ
እንደዋለ
እንደዋነኛ
እንደው
እንደውም
እንደዘገበው
እንደዘገቡት
እንደዚሁ
እንደዚሁም
እንደዚህ
እንደዚህም
እንደዚያ
እንደዚያው
እንደዛ
እንደዛፉ
እንደየ
እንደያዘ
እንደደረሰ
እንደደረሱ
እንደጀመረ
እንደጀመሩ
እንደገለጸው
እንደገለጹት
እንደገለፁት
እንደገቡ
እንደገባ
እንደገና
እንደገናም
እንደገደለ
እንደጨረሰ
እንደጫማ
እንደጻፈ
እንደጻፈው
እንደፈለገ
እንዲ
እንዲሁ
እንዲሁም
እንዲሄዱ
እንዲሄድ
እንዲህ
እንዲህም
እንዲሆነው
እንዲሆኑ
እንዲሆን
እንዲለቁ
እንዲለቅ
እንዲለዩ
እንዲሉ
እንዲል
እንዲልክ
እንዲመለሱ
እንዲመለስ
እንዲመልሱ
እንዲመሠረት
እንዲመረምር
እንዲመሩ
እንዲመራ
እንዲመሰረት
እንዲመሰርቱ
እንዲመስል
እንዲመች
እንዲመጡ
እንዲመጣ
እንዲማሩ
እንዲማር
እንዲሞት
እንዲሠለጥኑ
እንዲሠሩ
እንዲሠራ
እንዲረዳ
እንዲረዳው
እንዲሰሙ
እንዲሰማ
እንዲሰሩ
እንዲሰራ
እንዲሰደዱ
እንዲሰጠው
እንዲሰጡ
እንዲሰጡት
እንዲሰጣቸው
እንዲሰጥ
እንዲሰፍሩ
እንዲሳተፉ
እንዲስማማ
እንዲስፋፋ
እንዲሻሻል
እንዲቀላቀል
እንዲቀመጡ
እንዲቀመጥ
እንዲቀሩ
እንዲቀር
እንዲቀርቡ
እንዲቀርብ
እንዲቀበሉ
እንዲቀበል
እንዲቀንስ
እንዲቀየር
እንዲቀይር
እንዲቀጥሉ
እንዲቀጥል
እንዲቆሙ
እንዲቆም
እንዲቆዩ
እንዲቆይ
እንዲቆጣጠሩ
እንዲቆጣጠር
እንዲቋቋም
እንዲባል
እንዲተላለፍ
እንዲተኩ
እንዲተካ
እንዲተካው
እንዲተዉ
እንዲተው
እንዲተዳደር
እንዲታሰሩ
እንዲታሰር
እንዲታተም
እንዲታወቅ
እንዲታዩ
እንዲታይ
እንዲቻል
እንዲችሉ
እንዲችል
እንዲነሱ
እንዲነሳ
እንዲነግስ
እንዲናገሩ
እንዲናገር
እንዲንቀሳቀስ
እንዲኖረው
እንዲኖሩ
እንዲኖሩት
እንዲኖራት
እንዲኖራቸው
እንዲኖር
እንዲከበር
እንዲከተሉ
እንዲከተቡ
እንዲከተብ
እንዲከትብ
እንዲከፈል
እንዲካሄድ
እንዲኾኑ
እንዲኾን
እንዲወርድ
እንዲወስዱ
እንዲወስድ
እንዲወክሉ
እንዲወድቅ
እንዲወገድ
እንዲወጡ
እንዲወጣ
እንዲዋሃዱ
እንዲውለበለብ
እንዲውል
እንዲዘጋ
እንዲዘጋጅ
እንዲዛወሩ
እንዲዛወር
እንዲየውም
እንዲያ
እንዲያልፍ
እንዲያመልጡ
እንዲያመልጥ
እንዲያመጣ
እንዲያም
እንዲያርፍ
እንዲያስተላልፉ
እንዲያስተዳድሩ
እንዲያስተዳድር
እንዲያቀርቡ
እንዲያቀርቡላቸው
እንዲያቀርብ
እንዲያቆም
እንዲያው
እንዲያውም
እንዲያውቀው
እንዲያውቅ
እንዲያዩ
እንዲያደርጉ
እንዲያደርግ
እንዲያድግ
እንዲያገለግሉ
እንዲያገለግል
እንዲያገባ
እንዲያገኙ
እንዲያገኝ
እንዲያጠና
እንዲያጠፋ
እንዲይዙ
እንዲይዝ
እንዲደረግ
እንዲደርሱ
እንዲደርስ
እንዲዳረስ
እንዲድን
እንዲጀመር
እንዲጀምር
እንዲገቡ
እንዲገባ
እንዲገባው
እንዲገነቡ
እንዲገነባ
እንዲገነዘቡ
እንዲገናኙ
እንዲገኙ
እንዲገኝ
እንዲገዙ
እንዲገዛ
እንዲገደሉ
እንዲገደል
እንዲጓዙ
እንዲጓዝ
እንዲጠራ
እንዲጠቀሙ
እንዲጠቀሙበት
እንዲጠቀም
እንዲጠቅም
እንዲጠበቁ
እንዲጠበቅ
እንዲጠብቁ
እንዲጠብቅ
እንዲጠፉ
እንዲጠፋ
እንዲጣል
እንዲጨምር
እንዲጸኑ
እንዲጻፍ
እንዲፈቱ
እንዲፈታ
እንዲፈነዳ
እንዲፈጠሩ
እንዲፈጠር
እንዲፈጥር
እንዲፈጸም
እንዳ
እንዳሁላ
እንዳለ
እንዳለበት
እንዳለባቸው
እንዳለብን
እንዳለብኝ
እንዳለች
እንዳለን
እንዳለው
እንዳለውና
እንዳለጌታ
እንዳለፈ
እንዳለፉት
እንዳሉ
እንዳሉት
እንዳላት
እንዳላቸው
እንዳልሆነ
እንዳልራቀ
እንዳልነበረ
እንዳልነበረው
እንዳልነበር
እንዳልካቸው
እንዳመለከተው
እንዳሠራ
እንዳረፈ
እንዳረፉ
እንዳሳዩት
እንዳስረዳው
እንዳስተላለፉት
እንዳስተማረ
እንዳሸነፈ
እንዳሸነፈው
እንዳሸነፋቸው
እንዳቆመ
እንዳባቱ
እንዳትሄድ
እንዳትናገር
እንዳኖሩት
እንዳወጣ
እንዳየ
እንዳየነው
እንዳዩ
እንዳያልቅ
እንዳያዩ
እንዳያደርጉ
እንዳይሄድ
እንዳይሆኑ
እንዳይሆን
እንዳይሉህ
እንዳይመለስ
እንዳይሞት
እንዳይሰጥ
እንዳይሸጥ
እንዳይበላ
እንዳይተላለፍ
እንዳይኖረው
እንዳይኖር
እንዳይኾን
እንዳይወጣ
እንዳይደለ
እንዳይደርስባቸው
እንዳይደርቅ
እንዳይገቡ
እንዳይገባ
እንዳይጠቀሙ
እንዳይጠፋ
እንዳይፈጠር
እንዳደረገ
እንዳደረገው
እንዳደረጉ
እንዳደርግ
እንዳገለገለ
እንዳገሩ
እንዳገኘ
እንዳገኘው
እንዳገኙ
እንዳጋጣሚ
እንዳጠናቀረው
እንዳጠፋ
እንዳጠፋው
እንዴ
እንዴት
እንዴትስ
እንዴው
እንድ
እንድሁም
እንድርማሚት
እንድርያስ
እንድታውቅ
እንድታገኝ
እንድትሆን
እንድትመልስ
እንድትሰጥ
እንድትቀላቀል
እንድትቀበል
እንድትናገሩ
እንድትኖር
እንድትኾኑ
እንድትወጣ
እንድትገባ
እንዶድ
እንጀራ
እንጀራም
እንጀራችንን
እንጀራና
እንጀራን
እንጀራው
እንጀራውን
እንጀራዎች
እንጂ
እንጃ
እንጅ
እንጅባራ
እንጆሪ
እንጆሬ
እንገሩን
እንገር
እንገነዘባለን
እንገዛለን
እንጉርጉሮ
እንጉዳይ
እንግሊዘኛ
እንግሊዛዊ
እንግሊዛዊቷ
እንግሊዛዊው
እንግሊዛውያን
እንግሊዝ
እንግሊዝን
እንግሊዝኛ
እንግሊዝኛና
እንግሊዝኛን
እንግሊዝኛው
እንግሊዝኛውን
እንግሊዞቹ
እንግሊዞች
እንግላንድ
እንግልት
እንግዲ
እንግዲህ
እንግዲያስ
እንግዲያው
እንግዲያውስ
እንግዳ
እንግዳና
እንግዴህ
እንግዶች
እንጎቻ
እንጠቀማለን
እንጠቀምበታለን
እንጠብቃለን
እንጠብቅ
እንጣጥ
እንጦጦ
እንጨቱ
እንጨት
እንጨቶች
እንጽፋለን
እንፈልጋለን
እንፋሎት
እኖ
እኖር
እኚህ
እኛ
እኛም
እኛስ
እኛን
እኛንም
እኝህ
እኤአ
እከከኝ
እከክ
እኩለ
እኩሌታ
እኩል
እኩልነት
እኩልነትን
እኩልዮሽ
እኩልዮሾች
እኩያ
እኩይ
እኮ
እኼዳለኹ
እኼዳለኹና
እወቀኝ
እወቁ
እወቁኝ
እወቅ
እወዳለሁ
እወዳለኹ
እዉነተኛ
እውር
እውርን
እውቀቱ
እውቀታቸው
እውቀት
እውቀትና
እውቀትን
እውቀቶች
እውቀቶችን
እውቀናና
እውቅ
እውቅና
እውቅናን
እውነተኛ
እውነተኛው
እውነተኞች
እውነቱ
እውነቱን
እውነታ
እውነታው
እውነታዎች
እውነት
እውነትም
እውነትነቱ
እውነትነት
እውነትና
እውነትን
እውን
እዘኑለት
እዘአ
እዚሁ
እዚሁም
እዚህ
እዚህም
እዚያ
እዚያም
እዚያው
እዛ
እዛም
እዛው
እዝ
እዝራ
እዝነት
እዞም
እዣኛ
እዤን
እዥ
እየሄደ
እየሄደች
እየሄዱ
እየሆነ
እየሆኑ
እየመራ
እየመቱ
እየመጡ
እየመጣ
እየሞተ
እየሠራ
እየሩሳሌም
እየሩሳሌምን
እየሮጡ
እየሰማ
እየሰሩ
እየሰራ
እየሰበከ
እየሰበከና
እየሰጠ
እየሰጡ
እየሰፋ
እየሱስ
እየሱስን
እየቀነሰ
እየቀነሱ
እየቆየ
እየበሉ
እየበረታ
እየበዙ
እየበዛ
እየተለመደ
እየተመለከቱ
እየተመራ
እየተማረ
እየተስፋፋ
እየተሻሻለ
እየተቀየረ
እየተበላሸ
እየተባለ
እየተባለም
እየተባለች
እየተባሉ
እየተባባሉ
እየተናገረ
እየተናገሩ
እየተከተሉ
እየተከታተለ
እየተካሄደ
እየተዘዋወረ
እየተዘዋወሩ
እየተዘጋጀ
እየተደረጁ
እየተደረገ
እየተዳከመ
እየተጓዘ
እየተጠቀመ
እየተጠቀሙ
እየተጠቀሙበት
እየተጠናከረ
እየተጠጋ
እየተጫወቱ
እየታወቀ
እየታየ
እየኖረ
እየኖሩ
እየወሰደ
እየወደቀ
እየወገንህ
እየወጡ
እየወጣ
እየዋለ
እየዘመተ
እየዞረ
እየዞሩ
እየደረሰ
እየደከመ
እየዳበረ
እየገባ
እየገዙ
እየገዛ
እየገፋ
እየጎለመሰ
እየጎላ
እየጎዱ
እየጠጡ
እየጠጣ
እየጠፋ
እየጨመረ
እየጨመሩ
እየጮኸ
እየጮኹ
እየጻፉ
እየፈለገ
እየፈለገው
እየፈለጉ
እየፈወሰ
እየፈጠረ
እዩ
እዩኝ
እያለ
እያለም
እያለቀሰች
እያለች
እያለው
እያሉ
እያልን
እያልኩ
እያልክ
እያመራ
እያሰበ
እያሱ
እያሱን
እያሳሳቀ
እያሳየ
እያስተማረ
እያስተማሩ
እያስተዳደሩ
እያስፋፉ
እያስፋፋ
እያሽቆለቆለ
እያቀረቡ
እያነሱ
እያንዳንዱ
እያንዳንዱም
እያንዳንዱን
እያንዳንዳቸው
እያንዳንዷን
እያወቁ
እያወጡ
እያየ
እያየኋት
እያዩ
እያደረገ
እያደረጉ
እያደር
እያደገ
እያደገች
እያደጉ
እያገለገለ
እያገላበጡ
እያገኘ
እያጡ
እዬዬ
እይ
እይታ
እዮም
እዮብ
እዮዋስ
እደ
እደለ
እደጁ
እዳ
እዳሪ
እዳዋ
እዳው
እዳውን
እድ
እድለ
እድለኛ
እድሉ
እድሉን
እድላም
እድላቸው
እድል
እድልን
እድሎች
እድሜ
እድሜና
እድሜዋ
እድሜው
እድሜያቸው
እድሪስ
እድር
እድሳት
እድገቱ
እድገታቸው
እድገት
እድገትና
እድገትን
እድገቶች
እድፍ
እጀ
እጀታ
እጁ
እጁን
እጁንም
እጃቸው
እጃቸውን
እጄ
እጄን
እጅ
እጅህን
እጅና
እጅን
እጅኽን
እጅዋን
እጅጉ
እጅጉን
እጅግ
እጅግም
እጆች
እጇን
እገሌ
እገዛ
እገዳ
እገዳን
እገዳዎች
እግረ
እግረኛ
እግረኛን
እግረኞች
እግሩ
እግሩን
እግራቸው
እግራቸውን
እግሬን
እግር
እግርህን
እግሮቹ
እግሮቻቸው
እግሮች
እግዚ
እግዚአብሄር
እግዚአብሄርን
እግዚአብሔር
እግዚአብሔርም
እግዚአብሔርና
እግዚአብሔርን
እግዚአብሔርንም
እግዚእ
እግዜር
እግዜርን
እግዝእትነ
እጠብቃለሁ
እጢ
እጢስ
እጢዎች
እጣ
እጣልያ
እጣን
እጥረት
እጥፍ
እጦት
እጨጌ
እጩ
እጩነት
እጩዎች
እጮኛ
እጸ
እጸድቅ
እጽ
እጽዋት
እጾች
እፀ
እፅ
እፅዋት
እፈልጋለሁ
እፍ
እፍረት
እፎይታ
ኦ
ኦሃዮ
ኦሊምፒክ
ኦሊምፒክስ
ኦሊቨር
ኦላንድ
ኦል
ኦልድ
ኦሎም
ኦሎምፒክ
ኦማር
ኦማን
ኦሜጋ
ኦሞ
ኦሞቲክ
ኦሞአዊ
ኦሟዊ
ኦሤትያ
ኦሪት
ኦሪትን
ኦሪጂናል
ኦሪጅናል
ኦራንጉታን
ኦሬንጅ
ኦሬክ
ኦር
ኦርሊንስ
ኦርላንዶ
ኦርቪል
ኦርቶዶክስ
ኦርቶዶክስና
ኦርኬስትራ
ኦርደር
ኦርጋኒክ
ኦርጦፖሊስ
ኦሮሚያ
ኦሮምኛ
ኦሮምኛን
ኦሮምኛውን
ኦሮሞ
ኦሮሞወች
ኦሮሞዎች
ኦሲሪስ
ኦሲሪስን
ኦሳካ
ኦሳጉ
ኦስሎ
ኦስቲን
ኦስትሪያ
ኦስካር
ኦባማ
ኦቦቴ
ኦቨር
ኦቭ
ኦቶማን
ኦቶማኖች
ኦቾሎኒ
ኦነሲሞስ
ኦነግ
ኦና
ኦን
ኦንላይን
ኦኩስ
ኦክላሆማ
ኦክሲጅን
ኦክስጅን
ኦክስፎርድ
ኦክታቭ
ኦክቶበር
ኦወን
ኦዝዋልድ
ኦይለር
ኦይል
ኦዳ
ኦዴፓ
ኦድዮ
ኦገስት
ኦጊጌስ
ኦጋዴን
ኦጋዴንን
ኦግስቲን
ኦጦ
ኦፊር
ኦፊሴላዊ
ኦፊሴላዊው
ኦፍ
ኦፐሬሽን
ኦፔራ
ኦፕሬሽን
ኦፕሬተር
ኦፕሬቲንግ
ኦፕቲክ
ኧ
ኧረ
ኧርል
ከ
ከሀረር
ከሀዲ
ከሀዲሱ
ከሀገሩ
ከሀገሪቱ
ከሀገር
ከሁለተኛ
ከሁለተኛው
ከሁለቱ
ከሁለቱም
ከሁለት
ከሁሉ
ከሁሉም
ከሁላችን
ከሃምሳ
ከሃያ
ከሃይማኖት
ከሄደ
ከሄዱ
ከህንድ
ከህንጻው
ከህዝቡ
ከህዝብ
ከህዳር
ከህግ
ከሆላንድ
ከሆነ
ከሆነበት
ከሆነች
ከሆነችው
ከሆነና
ከሆነው
ከሆኑ
ከሆኑት
ከሆንክ
ከሆድ
ከለላ
ከለር
ከለቀቀ
ከለቀቁ
ከለንደን
ከለከለ
ከለከሉ
ከሉክሰምበርግ
ከሉጋል
ከሊቀ
ከሊቢያ
ከሊባኖስ
ከሊብያ
ከሊፋ
ከላሊበላ
ከላም
ከላርሳ
ከላቲኑ
ከላቲን
ከላውዴዎን
ከላዩ
ከላይ
ከላይኛ
ከላይኛው
ከላጋሽ
ከሌለ
ከሌለው
ከሌሊቱ
ከሌላ
ከሌላቸው
ከሌላኛው
ከሌላው
ከሌሎቹ
ከሌሎች
ከሌሎችም
ከልቡ
ከልብ
ከልብስ
ከልኩ
ከልክ
ከልክለው
ከልዑል
ከልዩ
ከልደት
ከልጁ
ከልጃቸው
ከልጅ
ከልጅነቱ
ከልጅነት
ከልጅነቷ
ከልጆቻቸው
ከልጇ
ከልጓም
ከሐለብ
ከሐምሌ
ከሐረር
ከሐበሻ
ከሐቲ
ከሐዲ
ከሔሩ
ከሕንዳዊ
ከሕንድ
ከሕዝቡ
ከሕዝብ
ከሕገ
ከሕጉ
ከሕግ
ከመ
ከመሃል
ከመሄዳቸው
ከመሄድ
ከመሆኑ
ከመሆኑም
ከመሆናቸው
ከመሆናቸውም
ከመሆን
ከመሆኗ
ከመለየት
ከመላእክት
ከመላው
ከመልክተኛ
ከመመለሱ
ከመማቀቅ
ከመምህር
ከመምጣቱ
ከመምጣታቸው
ከመሞቱ
ከመሞታቸው
ከመሠረቱት
ከመረመሩ
ከመሪው
ከመሬት
ከመርነፈሬ
ከመርከብ
ከመሰራቱ
ከመሳሰሉት
ከመሳተፍ
ከመስመር
ከመስቀል
ከመስከረም
ከመስጠቱ
ከመስጠት
ከመስጴጦምያ
ከመቀሌ
ከመቃብሩ
ከመቃብር
ከመቅደላ
ከመቅደስ
ከመብላት
ከመቶ
ከመቶው
ከመቼውም
ከመነሻው
ከመነኮሱ
ከመናገር
ከመንበሩ
ከመንትነይ
ከመንደር
ከመንገድ
ከመንግሥቱ
ከመንግሥት
ከመንግስት
ከመንፈስ
ከመኖር
ከመካ
ከመካከለኛ
ከመካከለኛው
ከመክተብ
ከመኳንንቱ
ከመኳንንት
ከመወለዱ
ከመውደቅ
ከመያዝ
ከመደረጉ
ከመደበኛው
ከመዲና
ከመዳብ
ከመድረሱ
ከመድረሷ
ከመጀመሩ
ከመጀመሪያ
ከመጀመሪያው
ከመጀመሪያዎቹ
ከመጀመርያ
ከመጀመርያው
ከመጋቢት
ከመግባቱ
ከመጠቀም
ከመጠን
ከመጡ
ከመጡት
ከመጣ
ከመጣው
ከመጨረሻ
ከመጻፍ
ከመጽሐፈ
ከመጽሐፍ
ከመፈለግ
ከመፈጠሩ
ከመፈጸም
ከመፍሳት
ከመፍታት
ከሙሉ
ከሙሴ
ከሙስሊም
ከሙታን
ከሙዚቃ
ከሚሆኑት
ከሚለው
ከሚሉ
ከሚሉት
ከሚል
ከሚመራው
ከሚመጣው
ከሚሞት
ከሚሰጡት
ከሚስቱ
ከሚባለው
ከሚባሉ
ከሚባሉት
ከሚባል
ከሚታወቀው
ከሚታወቁ
ከሚታወቁት
ከሚታዩ
ከሚችሉ
ከሚኖሩ
ከሚኖሩበት
ከሚኖሩባቸው
ከሚኖሩት
ከሚኖርባቸው
ከሚያዝያ
ከሚገባው
ከሚገኘው
ከሚገኙ
ከሚገኙት
ከሚገኝ
ከሚጎበኙ
ከሚጠራው
ከሚጠቀሱት
ከሚጠፋ
ከማህበረሰቡ
ከማለት
ከማል
ከማሪ
ከማር
ከማርያም
ከማስተማር
ከማተሚያ
ከማናቸውም
ከማን
ከማንም
ከማንኛውም
ከማእድ
ከማዕከላዊ
ከማየ
ከማየት
ከማያውቁት
ከማይጨው
ከማድረጉ
ከማድረጉም
ከማድረግ
ከማግኘቱ
ከማግኘት
ከማጎግ
ከሜሪ
ከሜክሲኮ
ከሜዳ
ከምሥራቅ
ከምርጫው
ከምስራቅ
ከምስር
ከምሽቱ
ከምባታ
ከምባትኛ
ከምትባል
ከምትገኘው
ከምኒልክ
ከምኔው
ከምን
ከምንም
ከምኵራብ
ከምዕራቡ
ከምዕራብ
ከምድረ
ከምድር
ከምግብ
ከምጣዱ
ከምጽዋ
ከሞላ
ከሞስኮ
ከሞተ
ከሞተች
ከሞቱ
ከሞቱት
ከሞት
ከሞትኩ
ከሞኝ
ከሠላሳ
ከሠሩት
ከሠራዊቱ
ከሠይጣን
ከሥላሴ
ከሥልጣናቸው
ከሥልጣን
ከሥራ
ከሥነ
ከሥጋ
ከሥጋዋ
ከሥፍራው
ከሦስቱ
ከሦስት
ከረሜላ
ከረት
ከረንት
ከረጅም
ከረጢት
ከረጢትም
ከሩሲያ
ከሩስያ
ከሩቅ
ከሩብ
ከሪም
ከራሱ
ከራሳቸው
ከራሴ
ከራስ
ከራያ
ከራይን
ከርመው
ከርሞ
ከርሱ
ከርሱም
ከርሳቸው
ከርሷ
ከርሷም
ከርቀት
ከርቤ
ከርከሚሽ
ከርከሬሻ
ከርከሮ
ከሮማ
ከሮማንስ
ከሮማውያን
ከሮማይስጥ
ከሮሜ
ከሮም
ከሮጡለት
ከሰሃራ
ከሰላ
ከሰላሳ
ከሰል
ከሰሎሞን
ከሰሙ
ከሰማይ
ከሰሜኑ
ከሰሜን
ከሰም
ከሰራ
ከሰራቸው
ከሰራዊቱ
ከሰርቢያ
ከሰባ
ከሰባቱ
ከሰባት
ከሰነዱ
ከሰናዖር
ከሰኔ
ከሰኞ
ከሰኸምሬ
ከሰወች
ከሰዋል
ከሰው
ከሰውነት
ከሰዎች
ከሰዓት
ከሰይጣን
ከሰዱቃውያን
ከሰጠ
ከሰጠው
ከሰጡት
ከሰፈረበት
ከሱ
ከሱመር
ከሱም
ከሱዳን
ከሲዳማ
ከሳምንቱ
ከሳምንት
ከሳር
ከሳርጎን
ከሳቁለት
ከሳቴ
ከሳቸው
ከሳንስክሪት
ከሳይንስ
ከሳጥኑ
ከሴ
ከሴማዊ
ከሴም
ከሴት
ከሴቶች
ከሴኔጋል
ከሴንት
ከስላሴ
ከስልሳ
ከስልጣናቸው
ከስልጣን
ከስሙ
ከስሜን
ከስም
ከስምንት
ከስሞች
ከስሩ
ከስራ
ከስር
ከስነ
ከስንዴ
ከስካንዲናቪያ
ከስኮትላንድ
ከስዊድን
ከስዕሉ
ከስደት
ከስድስቱ
ከስድስት
ከስጋ
ከስፓንያ
ከስፔን
ከሶ
ከሶማሊያ
ከሶማሌ
ከሶሪያ
ከሶርያ
ከሶስቱ
ከሶስት
ከሶቪየት
ከሶቭየት
ከሶዶ
ከሷ
ከሸክላ
ከሸዋ
ከሸፈ
ከሺህ
ከሻርካሊሻሪ
ከሽንት
ከቀላል
ከቀመድ
ከቀረቡት
ከቀረጥ
ከቀሪው
ከቀራጮችና
ከቀሰሙ
ከቀበለው
ከቀትር
ከቀኑ
ከቀን
ከቀኝ
ከቀዘነ
ከቀዝቃዛ
ከቀዝቃዛው
ከቀይ
ከቀደመው
ከቀደሙት
ከቀደምት
ከቀዳሚው
ከቀዳማዊ
ከቀድሞ
ከቀድሞው
ከቀጠለ
ከቀጥተኛ
ከቁረይሽ
ከቁርባን
ከቁርኣን
ከቁስ
ከቁናዎቹ
ከቁንጫ
ከቁጥጥር
ከቃሉ
ከቃል
ከቄስ
ከቅርብ
ከቅኔ
ከቅኝ
ከቅዱሳን
ከቅዱስ
ከቅድመ
ከቅድስት
ከቆሙት
ከቆየ
ከቆየች
ከቆዩ
ከቆዳ
ከቆጥ
ከበለስ
ከበለጠ
ከበሉ
ከበላ
ከበረ
ከበረረ
ከበሬ
ከበርቴ
ከበርካታ
ከበሮ
ከበሽታ
ከበሽታው
ከበቆሎ
ከበበ
ከበቡት
ከበባ
ከበትር
ከበኒ
ከበው
ከበዓሉ
ከበደ
ከበድ
ከበፊቱ
ከቡልጋሪያ
ከባህላዊ
ከባህል
ከባህር
ከባለ
ከባለቤቱ
ከባለቤታቸው
ከባላምባራስ
ከባልሽ
ከባልዋ
ከባሏ
ከባሕሩ
ከባሕር
ከባርነት
ከባርዱስ
ከባሮቹ
ከባቄላ
ከባቢ
ከባቢሎን
ከባእድ
ከባድ
ከባድና
ከቤልጂየም
ከቤተ
ከቤተሠቡ
ከቤተሰቡ
ከቤተሰቦቻቸው
ከቤተክርስቲያኑ
ከቤተክርስቲያን
ከቤቱ
ከቤቱም
ከቤት
ከቤትሽ
ከብሉይ
ከብሔረሰቡ
ከብሔራዊ
ከብረት
ከብሪቲሽ
ከብሪታኒያ
ከብሪታንያ
ከብራዚል
ከብር
ከብርሃን
ከብርቱካን
ከብርንዶ
ከብርድ
ከብቱን
ከብት
ከብቶች
ከብቶችን
ከብዙ
ከብዙዎች
ከብዛታቸው
ከቦታ
ከቦታው
ከቦዝ
ከቨርጂኒያ
ከቫይረሱ
ከቭላድሚር
ከተለመደው
ከተለመዱት
ከተለቀቀ
ከተለየ
ከተለያየ
ከተለያዩ
ከተመለሰ
ከተመለሱ
ከተመሠረተ
ከተመሠረተበት
ከተመረቀ
ከተመረቁ
ከተመረጠ
ከተመረጡ
ከተመረጡት
ከተመሰረተ
ከተማ
ከተማም
ከተማረ
ከተማረከ
ከተማሩ
ከተማቸው
ከተማቸውን
ከተማነት
ከተማና
ከተማን
ከተማዋ
ከተማዋም
ከተማዋን
ከተማው
ከተማውን
ከተማዎች
ከተማዎችን
ከተማይቱ
ከተማይቱን
ከተሞቹ
ከተሞች
ከተሞችና
ከተሞችን
ከተሠራ
ከተረዳ
ከተረገመ
ከተረጋገጠ
ከተረፉት
ከተራ
ከተራራ
ከተራራው
ከተሰራ
ከተሰደዱ
ከተሰጠ
ከተሰጠው
ከተሰጣቸው
ከተስፋፋ
ከተሸነፈ
ከተሸነፉ
ከተሾሙ
ከተቀላቀሉ
ከተቀመጠ
ከተቀመጡ
ከተቀመጡት
ከተቀረው
ከተቀበለ
ከተቀበሉ
ከተቀበሉት
ከተቀበሩበት
ከተቀየረ
ከተቃራኒ
ከተቆረጠ
ከተቋቋመ
ከተቋቋሙት
ከተባለ
ከተባለች
ከተባለው
ከተባሉ
ከተባሉት
ከተባረሩ
ከተባበሩት
ከተተከለ
ከተቻለ
ከተነሣ
ከተነሱ
ከተነሳ
ከተናገረ
ከተከበረ
ከተከተተ
ከተከታታይ
ከተከታዩ
ከተካሄደው
ከተካሄዱ
ከተወለደ
ከተወለዱት
ከተወሰነ
ከተወሰኑ
ከተወሰዱት
ከተዘረዘሩት
ከተያዘ
ከተያዙ
ከተያዙት
ከተደረገ
ከተደረገው
ከተደረጉ
ከተጀመረ
ከተገነባ
ከተገኘ
ከተገኘው
ከተገኙ
ከተገኙት
ከተገደለ
ከተጓዙ
ከተጠቀሰው
ከተጠቀሱት
ከተጠናቀቀ
ከተጫወታቸው
ከተጻፉ
ከተፈለገ
ከተፈረመ
ከተፈሪ
ከተፈጠረ
ከተፈጠሩ
ከተፈጥሮ
ከተፈጸመ
ከተፈፀመ
ከቱርክ
ከቱርክኛ
ከቱዋጣ
ከቲቤር
ከታህሳስ
ከታላላቅ
ከታላቁ
ከታላቅ
ከታላቋ
ከታሪካዊ
ከታሪክ
ከታተመ
ከታች
ከታችኛ
ከታችኛው
ከታኅሣሥ
ከታናናሾቹ
ከታወቀ
ከታወቁት
ከታወጀ
ከታዋቂ
ከታየ
ከታዩት
ከታይላንድ
ከቴዎድሮስ
ከት
ከትላልቅ
ከትልቁ
ከትምህርት
ከትሿዮ
ከትንሽ
ከትውልድ
ከትውፊት
ከትዳር
ከትግራይ
ከቶ
ከቶሪኖ
ከቶቤል
ከቻለ
ከቻይና
ከኅዳር
ከኋላ
ከኋላው
ከነ
ከነልጆቹ
ከነሐሴ
ከነሐስ
ከነሠራዊቱ
ከነርሱ
ከነርሱም
ከነሱ
ከነሱም
ከነቃ
ከነበረ
ከነበረበት
ከነበረችበት
ከነበረው
ከነበሩ
ከነበሩበት
ከነበሩት
ከነበራቸው
ከነቢዩ
ከነቢያት
ከነብዩ
ከነኚህ
ከነዓናዊ
ከነዓናውያን
ከነዓን
ከነዓንን
ከነዚሁ
ከነዚህ
ከነዚህም
ከነዚያ
ከነገሠ
ከነገሡት
ከነገሩ
ከነገር
ከነገደ
ከነጭ
ከነጮች
ከነጻነት
ከነፋስ
ከኑግ
ከኒህ
ከኒነጨር
ከኒው
ከኒውተን
ከኒውዮርክ
ከኒፑር
ከናርመር
ከናታቸው
ከናት
ከናቷ
ከናንተ
ከናዋትል
ከናዚ
ከናዝሬት
ከኔ
ከኔቶ
ከኔዘርላንድ
ከንቡ
ከንባታ
ከንቱ
ከንቱነት
ከንቲባ
ከንጉሠ
ከንጉሡ
ከንጉሣዊ
ከንጉሥ
ከንጉሱ
ከንጉስ
ከንግሥተ
ከንግሥት
ከንግስት
ከንግግር
ከንፈር
ከንፋስ
ከኖህ
ከኖረ
ከኖሩ
ከኖሩት
ከኖርስኛ
ከኖኅ
ከኗሪ
ከኛ
ከአ
ከአሁኑ
ከአሁን
ከአህመድ
ከአህያ
ከአለሙ
ከአለም
ከአለቃ
ከአለት
ከአላህ
ከአላቢዋ
ከአልጋ
ከአሕዛብ
ከአመት
ከአማራ
ከአማርኛ
ከአማርኛው
ከአሜሪካ
ከአሜሪካን
ከአምላክ
ከአምስቱ
ከአምስት
ከአምባ
ከአሞራውያን
ከአሥራ
ከአሥር
ከአሦር
ከአሦርኛ
ከአረብ
ከአረብኛ
ከአሪያን
ከአራቱ
ከአራታ
ከአራት
ከአርባ
ከአርፋክስድ
ከአስራ
ከአስር
ከአስርቱ
ከአሹር
ከአበበ
ከአቡነ
ከአቢሜሌክ
ከአባ
ከአባልነት
ከአባቱ
ከአባታቸው
ከአባታችን
ከአባቴ
ከአባት
ከአባቷ
ከአባይ
ከአብ
ከአብራም
ከአብርሃም
ከአብዛኞቹ
ከአብዮቱ
ከአትላንቲክ
ከአትክልት
ከአቶ
ከአናቱ
ከአንተ
ከአንተም
ከአንቺ
ከአንደኛው
ከአንዱ
ከአንዲት
ከአንዳችም
ከአንዳንድ
ከአንድ
ከአከባቢው
ከአካል
ከአካባቢ
ከአካባቢው
ከአካባቢያቸው
ከአካድ
ከአክሱም
ከአክሻክ
ከአዋሽ
ከአዋን
ከአውሮጳ
ከአውሮፓ
ከአውስትራሊያ
ከአየር
ከአየርላንድ
ከአያቱ
ከአይሁድ
ከአይን
ከአደጋ
ከአዲሱ
ከአዲስ
ከአዳል
ከአዳም
ከአድማስ
ከአድዋ
ከአገልግሎት
ከአገሩ
ከአገሪቱ
ከአገራቸው
ከአገር
ከአጎራባች
ከአጎቱ
ከአጠቃላይ
ከአጭር
ከአጼ
ከአፈ
ከአፈር
ከአፉ
ከአፋር
ከአፍ
ከአፍሪቃ
ከአፍሪካ
ከኡሩክ
ከኡር
ከኢሲን
ከኢሳት
ከኢስላም
ከኢስታንቡል
ከኢትዮ
ከኢትዮጲያ
ከኢትዮጵያ
ከኢትዮጵያውያን
ከኢየሩሳሌም
ከኢየሩሳሌምም
ከኢየሱስ
ከኢያሱ
ከኢጣልያ
ከኣለው
ከኣሉት
ከኣንድ
ከኤላም
ከኤሌክትሪክ
ከኤርትራ
ከኤብላ
ከኤች
ከኤፍራጥስ
ከኤፕሪል
ከእ
ከእለታት
ከእመቤታችን
ከእምነቱ
ከእምነት
ከእርሱ
ከእርሱም
ከእርሷ
ከእርሻ
ከእሱ
ከእሳቱ
ከእሳት
ከእስልምና
ከእስራኤል
ከእስር
ከእስኩቴስ
ከእስክንድርያ
ከእስያ
ከእስፓንኛ
ከእስፓንያ
ከእብራይስጥ
ከእቴጌ
ከእነርሱ
ከእነርሱም
ከእነሱ
ከእነዚህ
ከእነዚህም
ከእናቱ
ከእናታቸው
ከእናቴ
ከእናት
ከእናንተ
ከእናንተም
ከእኔ
ከእኔም
ከእንስሳ
ከእንስሳት
ከእንቁላል
ከእንቅልፉ
ከእንቅልፌ
ከእንጀራ
ከእንግሊዝ
ከእንግሊዝኛ
ከእንግሊዝኛው
ከእንግሊዞች
ከእንግዲህ
ከእንጦጦ
ከእንጨት
ከእኛ
ከእውነት
ከእዚህ
ከእዚያ
ከእዚያም
ከእየሱስ
ከእያንዳንዱ
ከእጁ
ከእጅ
ከእግዚአብሔር
ከኦሪት
ከኦርቶዶክስ
ከኦርጦፖሊስ
ከኦሮሚያ
ከኦሮሞ
ከኦስትሪያ
ከኦቶማን
ከኦክቶበር
ከከለዳውያን
ከከበረ
ከከበሩ
ከከባቢ
ከከባቢው
ከከባድ
ከከተማ
ከከተማዋ
ከከተማው
ከከነዓን
ከከፍተኛ
ከኩሽ
ከኪሽ
ከኪዙዋትና
ከካህናት
ከካም
ከካራን
ከካርቱም
ከካቶሊክ
ከካናዳ
ከካዛሉ
ከኬብሮን
ከኬንያ
ከኬጢያውያን
ከኬጥያውያን
ከክ
ከክልሉ
ከክልል
ከክርስትና
ከክርስቶስ
ከክፉ
ከኮምፒውተር
ከኮንጎ
ከኹለቱ
ከኹለት
ከኾነ
ከኾንኹ
ከኾንኽ
ከዅሉ
ከወ
ከወህኒ
ከወለደች
ከወለደችለት
ከወለዱ
ከወላይታ
ከወላጆቹ
ከወላጆቻቸው
ከወልድ
ከወሎ
ከወረሩ
ከወረዱ
ከወረዳው
ከወራት
ከወርቅ
ከወሰደ
ከወተት
ከወታደራዊ
ከወንዙ
ከወንዝ
ከወንዱ
ከወንድ
ከወንድሙ
ከወንድም
ከወንድሞቹ
ከወይዘሮ
ከወደ
ከወደቀ
ከወዴት
ከወገቡ
ከወገብ
ከወጡ
ከወጣ
ከወጣቱ
ከወጣች
ከወጥ
ከዋለ
ከዋለበት
ከዋሻ
ከዋሻው
ከዋሽንግተን
ከዋና
ከዋናው
ከዋክብት
ከዌልስ
ከው
ከውሀ
ከውሃ
ከውሃው
ከውርዴ
ከውስጡ
ከውስጥ
ከውሻ
ከውቅያኖስ
ከውኃ
ከውኃው
ከውድድሩ
ከውጪ
ከውጭ
ከውጭው
ከዐሥራ
ከዐፄ
ከዑር
ከዓለማት
ከዓለማችን
ከዓለም
ከዓመታት
ከዓመት
ከዓቢዩ
ከዓፄ
ከዕለታት
ከዕብራውያን
ከዕብራይስጥ
ከዘላለም
ከዘመቻ
ከዘመነ
ከዘመኑ
ከዘመናት
ከዘመናዊ
ከዘመናዊው
ከዘመን
ከዘመዱ
ከዘመድ
ከዘር
ከዘአበ
ከዘይት
ከዘጠና
ከዘጠኙ
ከዘጠኝ
ከዘፈነ
ከዙሪክ
ከዙፋኑ
ከዙፋናቸው
ከዚ
ከዚሁ
ከዚህ
ከዚህም
ከዚች
ከዚያ
ከዚያህ
ከዚያም
ከዚያስ
ከዚያች
ከዚያን
ከዚያው
ከዛ
ከዛም
ከዛሬ
ከዛሬው
ከዛፍ
ከዝሆን
ከዝቅተኛ
ከዝናብ
ከዝንጀሮ
ከዞኑ
ከዥብ
ከየመን
ከየት
ከየትኛው
ከየትኛውም
ከየካቲት
ከዩኒቨርሲቲ
ከዩኒኮድ
ከዩናይትድ
ከዩኤስ
ከዩክሬን
ከያሉበት
ከያምኻድ
ከያንዳንዱ
ከያዕቆብ
ከያዘ
ከያዘው
ከያዙ
ከያዙት
ከያፌት
ከይሁዳ
ከዮሐንስ
ከዮርዳኖስ
ከዮቅጣን
ከዮናስ
ከደም
ከደረሰ
ከደረሰው
ከደረሱ
ከደረሱት
ከደረቀ
ከደረቁም
ከደረቱ
ከደረቷ
ከደርግ
ከደሴ
ከደሴቱ
ከደቀ
ከደቡባዊ
ከደቡብ
ከደብረ
ከደጃዝማች
ከዱሩ
ከዱር
ከዱባይ
ከዲያብሎስ
ከዲያና
ከዳ
ከዳሞት
ከዳር
ከዳቦ
ከዳኑብ
ከዳንጉን
ከዳኛ
ከዳዊት
ከዳግማዊ
ከዴላ
ከዴንማርክ
ከድህነት
ከድል
ከድረ
ከድሮ
ከድሮው
ከድተው
ከድንጋይ
ከድንግል
ከዶ
ከዶክተሩ
ከጀመረ
ከጀመረበት
ከጀመሩ
ከጀርመናዊው
ከጀርመን
ከጀርባው
ከጁላይ
ከጁን
ከጃንሆይ
ከጃፓን
ከጅማ
ከጅምሩ
ከጅረት
ከጅቡቲ
ከጅብ
ከጆን
ከገሊላ
ከገመዱ
ከገሙ
ከገበያ
ከገቡ
ከገቡት
ከገባ
ከገብስ
ከገነት
ከገንዘብ
ከገንፎ
ከገዙ
ከገዙት
ከገዛ
ከገደለ
ከገደለው
ከገደሉ
ከገዳሙ
ከገጠር
ከገጽ
ከጉራጌ
ከጉታውያን
ከጉድጓድ
ከጊልጋመሽ
ከጊዜ
ከጊዜው
ከጋሜር
ከጋሞ
ከጋራ
ከጋብቻ
ከጋን
ከጋዛ
ከጋዜጠኞች
ከጋጥ
ከጌታ
ከጌታችን
ከጌታው
ከግል
ከግማሽ
ከግምት
ከግሪኩ
ከግሪክ
ከግሪክኛ
ከግሪኮች
ከግራ
ከግራኝ
ከግብር
ከግብርና
ከግብጽ
ከግብጽኛ
ከግብፅ
ከግንቡ
ከግንቦት
ከግንዱ
ከግዕዙ
ከግዕዝ
ከግዛቱ
ከግዛት
ከጎረቤቱ
ከጎረቤት
ከጎረቤቶቿ
ከጎኑ
ከጎን
ከጎንደር
ከጎጃም
ከጓደኞቻቸው
ከጠላት
ከጠላቶቹ
ከጠቅላላ
ከጠቅላላው
ከጠቅላይ
ከጠዋቱ
ከጠፋ
ከጣሊያን
ከጣልኛ
ከጣልያን
ከጣና
ከጣኦት
ከጤቤስ
ከጤና
ከጤፍ
ከጥላሁን
ከጥልቅ
ከጥሩ
ከጥሬ
ከጥር
ከጥርስ
ከጥቁር
ከጥቂት
ከጥቅሙ
ከጥቅም
ከጥቅምት
ከጥንቱ
ከጥንታዊ
ከጥንታዊው
ከጥንት
ከጥዋሁ
ከጥጃዋና
ከጥፋት
ከጦር
ከጦርነቱ
ከጦርነት
ከጦጣ
ከጧቱ
ከጨለማ
ከጨረር
ከጨረሰ
ከጨረሱ
ከጨረቃ
ከጨዋታ
ከጭቃ
ከጭነት
ከጮኸ
ከጳጳሱ
ከጻፈው
ከጻፉት
ከፀሐይ
ከፀደቀ
ከፈለ
ከፈለገ
ከፈረስ
ከፈረንሣይ
ከፈረንሳይ
ከፈረንሳይና
ከፈረንሳይኛ
ከፈሪሳውያን
ከፈሪሳውያንም
ከፈሪሳውያንና
ከፈርዖን
ከፈሰሰ
ከፈሳሽ
ከፈስ
ከፈተ
ከፈተች
ከፈቱ
ከፈቷት
ከፈን
ከፈጣሪ
ከፈጸመ
ከፈጸሙ
ከፊል
ከፊር
ከፊተኛው
ከፊቱ
ከፊት
ከፊንቄ
ከፊደሉ
ከፋ
ከፋህ
ከፋርስ
ከፋሲል
ከፋሺስት
ከፋኛ
ከፋይ
ከፋፋይ
ከፋፍሎ
ከፍ
ከፍለ
ከፍልስጤም
ከፍሎ
ከፍራፍሬ
ከፍቅር
ከፍተኛ
ከፍተኛው
ከፍተኛውን
ከፍተዋል
ከፍተው
ከፍታ
ከፍታን
ከፍታው
ከፍትፍቱ
ከፍቶ
ከፍቷል
ከፍና
ከፍንጅ
ከፍጥረት
ከፑንት
ከፓሪስ
ከፓርላማ
ከፓኪስታን
ከፖለቲካ
ከፖለቲካው
ከፖሊስ
ከፖርቱጋል
ከፖርትላንድ
ኩ
ኩሊጅ
ኩላሊት
ኩላባ
ኩል
ኩሎምብ
ኩሩ
ኩሪ
ኩራቱ
ኩራት
ኩሬ
ኩርባ
ኩርድኛ
ኩሳ
ኩስ
ኩስቲስ
ኩሺ
ኩሺቲክ
ኩሻዊ
ኩሻውያን
ኩሽ
ኩሽቲክ
ኩበት
ኩባ
ኩባባ
ኩባንያ
ኩባንያው
ኩባንያዎች
ኩባንያዎችን
ኩባያ
ኩቲክ
ኩታ
ኩነት
ኩነቶች
ኩነኔ
ኩነይፎርም
ኩና
ኩናማ
ኩኔይፎርም
ኩንታል
ኩኦምሚንታንግ
ኩክ
ኩወይት
ኩዊንስ
ኩዌት
ኩዌትን
ኩዱር
ኩግባው
ኩፉ
ኩፋ
ኩፋሌ
ኩፍ
ኩፍኝ
ኩፐር
ኪ
ኪልቅያ
ኪሎ
ኪሎሜትር
ኪሎግራም
ኪሜ
ኪሜራውያን
ኪም
ኪምብሪ
ኪሩቤል
ኪሪባስ
ኪራይ
ኪርታ
ኪርጊዝስታን
ኪሮስ
ኪሱ
ኪሳራ
ኪሴ
ኪሺዳ
ኪሽ
ኪሽን
ኪሽንና
ኪባኪ
ኪቲም
ኪታብ
ኪት
ኪቶ
ኪነ
ኪነት
ኪነይ
ኪኒሼ
ኪን
ኪንሻሳ
ኪንታሮት
ኪንና
ኪንዲ
ኪንዳቱ
ኪንግ
ኪንግደም
ኪኝ
ኪው
ኪዙዋትና
ኪየቫን
ኪየቭ
ኪያር
ኪዳነ
ኪዳነወልድ
ኪዳኑ
ኪዳኑን
ኪዳኔ
ኪዳን
ኪዳንም
ኪዳንና
ኪዳንን
ኪጋሊ
ኪግ
ኪፑር
ካ
ካሁኑ
ካህኑ
ካህናቱ
ካህናቱም
ካህናቱን
ካህናት
ካህናትና
ካህን
ካለ
ካለመኖር
ካለቀ
ካለቀሰ
ካለቀሱ
ካለበት
ካለባቸው
ካለች
ካለችበት
ካለንደር
ካለው
ካለፈ
ካለፈው
ካለፉት
ካሉ
ካሉበት
ካሉት
ካሊ
ካሊቃ
ካሊፎርኒያ
ካላብሪያ
ካላት
ካላቸው
ካላችሁ
ካላንደር
ካላየ
ካሌ
ካሌብ
ካሌንደር
ካሌንዳር
ካሌንጂን
ካልሆነ
ካልሆነም
ካልሆኑ
ካልመከሩለት
ካልመጠጡት
ካልሞተ
ካልሲ
ካልሲየም
ካልሺየም
ካልቡም
ካልቪን
ካልቻለ
ካልነሱት
ካልነፈጉት
ካልናቁ
ካልን
ካልኩለስ
ካልኩለስን
ካልኩሌተር
ካልኩሌተሮች
ካልዕ
ካልዘለሉ
ካልዘራ
ካልደፈረሰ
ካልጋ
ካልጫረ
ካመዱ
ካመድ
ካመጣ
ካሙዙ
ካሚላ
ካሚዮን
ካሜሩን
ካሜራ
ካሜሮን
ካሜሴኑስ
ካም
ካምቤል
ካምቦ
ካምቦብላስኮን
ካምቦዲያ
ካምና
ካምፓስ
ካምፓኒ
ካምፕ
ካምፖች
ካሞስ
ካሣ
ካሣም
ካሣን
ካሣዊ
ካሣውን
ካሣውያን
ካሥኛ
ካረጁ
ካረጋገጡ
ካረፈ
ካረፉ
ካሩም
ካሪቡ
ካሪቢያን
ካራ
ካራምቻንድ
ካራን
ካራንዱኒያሽ
ካራጁ
ካሬ
ካር
ካርል
ካርሎስ
ካርቦን
ካርቦንዳይኦክሳይድ
ካርተር
ካርቱም
ካርቱሽ
ካርቱን
ካርታ
ካርታው
ካርታዎች
ካርት
ካርቶን
ካርዲናል
ካርድ
ካርግ
ካሮ
ካሮሉስ
ካሮላይና
ካሮል
ካሮት
ካሳ
ካሳሁን
ካሳለፈ
ካሳም
ካሳቫ
ካሳዊ
ካሳውያን
ካሳውያንን
ካሳዬ
ካሴት
ካስት
ካስትል
ካስትሮ
ካስቶርን
ካስፈለገ
ካስፒያን
ካሸር
ካሸነፈ
ካሸነፉ
ካሻሮ
ካሽቲሊያሹ
ካሽቲሊያሽ
ካቀረበው
ካበቁ
ካበቃ
ካቢኔ
ካባ
ካባቱ
ካባት
ካብ
ካብካቡ
ካቦ
ካቲ
ካቲው
ካቲዎች
ካታላንኛ
ካታሎግ
ካቴድራል
ካትሪን
ካቶሊካዊ
ካቶሊካዊነት
ካቶሊክ
ካቶሊኮች
ካነሽ
ካነሽን
ካነፈሬ
ካና
ካናል
ካናሪ
ካናዳ
ካናዳዊ
ካናዳውያን
ካን
ካንሰር
ካንሳስ
ካንተ
ካንተር
ካንት
ካንቶን
ካንቶኖች
ካንቺ
ካንዱ
ካንድ
ካንጀት
ካንገት
ካንጋሮ
ካንግ
ካካለለ
ካካው
ካካዎ
ካክሪሜ
ካወጀ
ካወጣው
ካውንስል
ካውንቲ
ካውካሰስ
ካዎ
ካዕባን
ካዛሉ
ካዛሉን
ካዛቩቡ
ካዛክስታን
ካዛክኛ
ካዝና
ካይ
ካይርብሬ
ካይሮ
ካይካይ
ካደ
ካደረበት
ካደረገ
ካደረጉ
ካደረጉት
ካደረጋቸው
ካዳሽማን
ካድሬዎች
ካገለገሉ
ካገር
ካገባ
ካገኘ
ካገኙ
ካገኙት
ካጠናቀቀ
ካጠናቀቁ
ካጣ
ካጥር
ካፈራቻቸው
ካፉ
ካፊር
ካፌ
ካፍ
ካፒታሊዝም
ካፒታል
ካፒቴን
ካፒቶል
ካፕ
ካፕቴን
ካፖርት
ኬ
ኬላ
ኬል
ኬልቄዶን
ኬልቲክ
ኬልቴስ
ኬልቶች
ኬሚስትሪ
ኬሚካላዊ
ኬሚካል
ኬሚካሎች
ኬሚካሎችን
ኬሚካዊ
ኬማል
ኬር
ኬርከጋርድ
ኬብሮን
ኬቮርክ
ኬቲን
ኬኒያ
ኬኒያዊ
ኬኔዝ
ኬኔዲ
ኬን
ኬንታኪ
ኬንት
ኬንትሮስ
ኬንያ
ኬንያታ
ኬክ
ኬክሮስ
ኬክት
ኬዝ
ኬዞች
ኬጢ
ኬጢያውያን
ኬጥኛ
ኬጥያውያን
ኬፕ
ክ
ክህሎት
ክህሎቶች
ክህነት
ክህደት
ክለርክ
ክለሳ
ክለቡ
ክለቡን
ክለብ
ክለቦች
ክሊኒክ
ክሊንተን
ክላሚዶሞናስ
ክላረንስ
ክላርኔት
ክላርክ
ክላሲካል
ክላስ
ክላውዲዩስ
ክላውድ
ክሌስም
ክሌዎፓትራ
ክሌይ
ክልሉ
ክልሉን
ክልላዊ
ክልል
ክልልና
ክልልን
ክልሎች
ክልሎችን
ክልስ
ክልሶች
ክልክል
ክሎሪን
ክሎቪስ
ክሎድ
ክሎዶሚር
ክምር
ክምችት
ክምችቶች
ክረምቱ
ክረምቱን
ክረምት
ክረምትና
ክረምትን
ክሩስቼቭ
ክሩስቾቭ
ክሩዝ
ክሩድ
ክሪስ
ክሪስቲ
ክሪስቲያን
ክሪስታል
ክሪስታቮ
ክሪስቶፈር
ክሪኬት
ክሪክ
ክራር
ክራኑስ
ክራውፎርድ
ክራይ
ክራይሚያ
ክሬም
ክሬምሊን
ክሬዚ
ክሬዮል
ክሬዲት
ክር
ክርስቲያኑ
ክርስቲያኑን
ክርስቲያኒቱ
ክርስቲያናት
ክርስቲያናትን
ክርስቲያናቸው
ክርስቲያናችን
ክርስቲያናዊ
ክርስቲያን
ክርስቲያንም
ክርስቲያንና
ክርስቲያንን
ክርስቲያኖች
ክርስቲያኖችን
ክርስትና
ክርስትናን
ክርስትያናት
ክርስትያን
ክርስትያኖች
ክርስቶስ
ክርስቶስም
ክርስቶስና
ክርስቶስን
ክርክም
ክርክሩ
ክርክሩን
ክርክር
ክርክሮች
ክሮምዌል
ክሮሞሶም
ክሮሞሶሞች
ክሮስ
ክሮች
ክሮኒኮን
ክሮኖስ
ክሮኖስን
ክሮኤሽኛ
ክሮኤሽያ
ክሮፍት
ክሱ
ክስ
ክስተቱ
ክስተት
ክስተቶች
ክስተቶችና
ክስተቶችን
ክሶች
ክበባት
ክበብ
ክበቦች
ክቡራን
ክቡር
ክባዊ
ክብ
ክብረ
ክብሩ
ክብሩን
ክብሪት
ክብራን
ክብር
ክብርም
ክብርት
ክብርና
ክብርን
ክብደቱ
ክብደታቸው
ክብደት
ክቦች
ክትባት
ክትባቶች
ክትብቁስ
ክትትል
ክትፎ
ክንዋኔ
ክንውን
ክንውኖች
ክንድ
ክንዶች
ክንፉ
ክንፍ
ክንፎች
ክወና
ክዋሜ
ክዳን
ክዶ
ክፈል
ክፉ
ክፉም
ክፉን
ክፉኛ
ክፉው
ክፉውን
ክፉዎች
ክፋቱ
ክፋት
ክፋትን
ክፋይ
ክፍለ
ክፍለሀገር
ክፍለመደብ
ክፍለስፍን
ክፍለአለም
ክፍለዘመናት
ክፍለዘመን
ክፍሉ
ክፍላተ
ክፍላቸውን
ክፍላገሩ
ክፍላገራት
ክፍላገር
ክፍላገሮች
ክፍሌ
ክፍል
ክፍልም
ክፍልና
ክፍልን
ክፍልፋይ
ክፍልፋዮች
ክፍሎቹ
ክፍሎቹን
ክፍሎች
ክፍሎችን
ክፍተት
ክፍተቶች
ክፍተኛ
ክፍት
ክፍያ
ክፍያዎች
ክፍፍል
ክፍፍልን
ክፍፍሎች
ኮ
ኮለምቢያ
ኮለን
ኮሊንስ
ኮሊክ
ኮላ
ኮሌራ
ኮሌጁ
ኮሌጅ
ኮሌጆች
ኮልፌ
ኮሎምበስ
ኮሎምቢያ
ኮሎምቦ
ኮሎራዶ
ኮሎኔል
ኮሎዶጎምር
ኮመንዌልዝ
ኮሙኒኬሽን
ኮሚሲዮን
ኮሚሽነር
ኮሚሽኑ
ኮሚሽን
ኮሚቴ
ኮሚቴው
ኮሚቴዎች
ኮሚኒስት
ኮሚኒቲ
ኮሚኒኬሽን
ኮሚክስ
ኮማ
ኮሜሩስ
ኮሜት
ኮሜዲ
ኮም
ኮምቦልቻ
ኮምጣጤ
ኮምፒውተር
ኮምፒውተሮች
ኮምፒዩተር
ኮምፒዩተሮች
ኮምፕሌክስ
ኮምፕዩተሩ
ኮምፕዩተራይዝ
ኮምፕዩተራይዝድ
ኮምፕዩተር
ኮምፕዩተርና
ኮምፕዩተሮች
ኮምፕዩተሮችና
ኮሞ
ኮሞሮስ
ኮሞዲቲ
ኮረማሽ
ኮረሪማ
ኮረብታ
ኮረብታማ
ኮረብታዎች
ኮረብቶች
ኮረንቲ
ኮሪቱስ
ኮሪያ
ኮሪያን
ኮሪያኛ
ኮሪይኛ
ኮሪጎሃና
ኮር
ኮርማክ
ኮርሲካ
ኮርስ
ኮርሶች
ኮርሶችን
ኮርትኒ
ኮርቻ
ኮርቻውን
ኮርያ
ኮርዶባ
ኮርፖሬሽን
ኮሮናቫይረስ
ኮሳይን
ኮስሞሎጂ
ኮስታ
ኮስት
ኮሶ
ኮሶበር
ኮሶቮ
ኮበለለ
ኮባ
ኮቪድ
ኮቲ
ኮታ
ኮቴ
ኮቴሃሬ
ኮት
ኮናይረ
ኮን
ኮንራድ
ኮንሰርቶች
ኮንስታንቲን
ኮንስትራክሽን
ኮንሶ
ኮንሶኛ
ኮንቬንሽን
ኮንቲኔንታል
ኮንታ
ኮንትራት
ኮንክሪት
ኮንኮርድ
ኮንዶም
ኮንግ
ኮንግረስ
ኮንጎ
ኮንፈረንስ
ኮንፌዴሬሽን
ኮንፍረንስ
ኮከቡ
ኮከብ
ኮከቦች
ኮካ
ኮክ
ኮኮብ
ኮኮነት
ኮይሻ
ኮድ
ኮዶች
ኮፊ
ኮፍያ
ኮፐር
ኮፒ
ኮፒራይት
ኮፕት
ኰሙኒስም
ኰሙኒስት
ኲ
ኲል
ኲልና
ኲሰርሰቴም
ኳ
ኳሪ
ኳስ
ኳስና
ኳሶቹ
ኳሶቹን
ኳሶች
ኳሶችን
ኳታር
ኳድራቲክ
ኵ
ኸ
ኸሊፋ
ኸርማን
ኸርበርት
ኸንቲ
ኸንጀር
ኸጛል
ኹ
ኹለተኛ
ኹለተኛውም
ኹለተኛውንም
ኹለቱ
ኹለቱም
ኹለቱን
ኹለቱንም
ኹለት
ኹሉ
ኹታዊ
ኹታዊሬ
ኹኑ
ኹኔታ
ኹኔታዎች
ኺ
ኺዱ
ኺድ
ኺድና
ኺጂ
ኻ
ኻሙዲ
ኻስ
ኻና
ኻአንኽሬ
ኻውባው
ኻዎሰሬ
ኼ
ኼደ
ኼደኽ
ኼደው
ኼዱ
ኼዳችኹ
ኼዶ
ኼዶም
ኽ
ኽያን
ኾ
ኾነ
ኾነች
ኾነኽ
ኾነው
ኾኑ
ኾናችኹ
ኾንኹ
ኾንኽ
ኾኖ
ኾኗል
ኾኗልና
ኾኜ
ዀ
ዃለኛዎች
ዃላ
ዅሉ
ዅሉም
ዅሉን
ዅሉንም
ዅላችኹ
ዅልጊዜ
ወ
ወህኒ
ወህይ
ወለሉ
ወለላ
ወለል
ወለምታ
ወለባ
ወለተ
ወለደ
ወለደች
ወለደችለት
ወለዱ
ወለዳቸው
ወለድ
ወለዶች
ወለጋ
ወሊሶ
ወሊድ
ወላይታ
ወላይትኛ
ወላዲተ
ወላጅ
ወላጆቹ
ወላጆቻቸው
ወላጆቻቸውን
ወላጆች
ወላጆችና
ወላጆቿ
ወላፈን
ወሌ
ወልቃይት
ወልደ
ወልደመድኅን
ወልደሚካኤል
ወልደማርያም
ወልደሥላሴ
ወልደሰማዕት
ወልደዋል
ወልደየስ
ወልደያ
ወልደገብርኤል
ወልደጊዮርጊስ
ወልዳ
ወልዴ
ወልድ
ወልድም
ወልድን
ወልዶ
ወሎ
ወሎና
ወሎን
ወሓካ
ወመኔ
ወመንፈስ
ወመዝገበ
ወምስል
ወምበሬ
ወምበር
ወረ
ወረረ
ወረረች
ወረሩ
ወረራ
ወረራው
ወረራውን
ወረራዎች
ወረራዎችን
ወረርሽኝ
ወረሰ
ወረሰው
ወረሱ
ወረቀት
ወረቀቶች
ወረቀቶችን
ወረቅት
ወረቱን
ወረደ
ወረደች
ወረደነት
ወረዱ
ወረዳ
ወረዳችን
ወረዳነት
ወረዳዋ
ወረዳው
ወረዳዎች
ወረዳዎችና
ወረዳዎችን
ወረድ
ወሩ
ወሩፋኤል
ወራሪ
ወራሪዎች
ወራሹ
ወራሹን
ወራሽ
ወራሽነት
ወራሽና
ወራሾች
ወራት
ወራትም
ወራትን
ወራቸው
ወራጅ
ወሬ
ወሬኛ
ወሬዎች
ወር
ወርልድ
ወርረው
ወርሮ
ወርሶ
ወርቁ
ወርቁን
ወርቃማ
ወርቃማው
ወርቄ
ወርቅ
ወርቅነህ
ወርቅና
ወርቅን
ወርኃ
ወርና
ወርውረው
ወርውሮ
ወርደው
ወርድ
ወርዶ
ወርጂ
ወሮ
ወሮች
ወሰለም
ወሰነ
ወሰነች
ወሰኑ
ወሰን
ወሰንን
ወሰኖች
ወሰደ
ወሰደች
ወሰደው
ወሰዱ
ወሰዱት
ወሰዳት
ወሰዳቸው
ወሰድን
ወሰድኩ
ወሲባዊ
ወሲብ
ወሳኝ
ወስብሐት
ወስነዋል
ወስነው
ወስኖ
ወስኗል
ወስደን
ወስደዋል
ወስደው
ወስዳ
ወስዶ
ወስዷል
ወስጄ
ወስጥ
ወስፋት
ወስፌ
ወሻ
ወሽመት
ወሽመጥ
ወቄት
ወቅቱ
ወቅታዊ
ወቅት
ወቅትም
ወቅቶች
ወቅዱስ
ወባ
ወብራ
ወተቱን
ወተት
ወታደሩ
ወታደሩን
ወታደራዊ
ወታደራዊው
ወታደር
ወታደርነት
ወታደርና
ወታደሮቹ
ወታደሮቹን
ወታደሮች
ወታደሮችና
ወታደሮችን
ወታደሮቿን
ወትሮ
ወቹ
ወኒ
ወና
ወናግ
ወኔ
ወን
ወንበር
ወንበሮች
ወንበዴ
ወንበዴዎች
ወንዙ
ወንዙን
ወንዝ
ወንዝና
ወንዝን
ወንዞቹ
ወንዞች
ወንዞችን
ወንዱ
ወንዴዘር
ወንድ
ወንድሙ
ወንድሙም
ወንድሙን
ወንድሙንም
ወንድማማች
ወንድማማችነት
ወንድማማቾች
ወንድማቸው
ወንድማቸውን
ወንድማችን
ወንድማችውን
ወንድሜ
ወንድም
ወንድምሽ
ወንድምና
ወንድሞቹ
ወንድሞቹም
ወንድሞቹን
ወንድሞቼ
ወንድሞች
ወንድሞችና
ወንድሞችን
ወንድሟ
ወንድና
ወንድወሰን
ወንዶቹ
ወንዶቹም
ወንዶች
ወንዶችም
ወንዶችና
ወንዶችን
ወንጀለኛ
ወንጀል
ወንጀሎች
ወንጌሉን
ወንጌላት
ወንጌላዊ
ወንጌላዊት
ወንጌላውያን
ወንጌል
ወንጌልን
ወንጌልንም
ወንጌሎች
ወንግሥት
ወንፊት
ወከፍ
ወኪል
ወኪሎች
ወካይ
ወክለው
ወክሎ
ወወልድ
ወዘተ
ወዘተርፈ
ወዘት
ወዝ
ወዩስ
ወያነ
ወያኔ
ወይ
ወይም
ወይራ
ወይስ
ወይና
ወይናደጋ
ወይኔ
ወይን
ወይንም
ወይንስ
ወይኖ
ወይዘሪት
ወይዘሮ
ወይዴ
ወይጦ
ወይፈን
ወይፈንን
ወዮ
ወዮለት
ወዮላቸው
ወዮላችኹ
ወደ
ወደሆነው
ወደሆኑ
ወደላይ
ወደሌላ
ወደሌላው
ወደሎንዶን
ወደመሬት
ወደሚለው
ወደሚባል
ወደሚገባው
ወደሚገኘው
ወደሚገኝ
ወደምትባል
ወደምትገኘው
ወደምዕራብ
ወደምድር
ወደር
ወደርሱ
ወደርሷ
ወደሰማይ
ወደሰሜን
ወደሱ
ወደሽ
ወደቀ
ወደቀች
ወደቀና
ወደቁ
ወደብ
ወደብን
ወደቦች
ወደቦችን
ወደተለያዩ
ወደታች
ወደኋላ
ወደነሱ
ወደነበረበት
ወደነበረው
ወደነዚህ
ወደኔ
ወደኛ
ወደአዲስ
ወደአገሩ
ወደአገራቸው
ወደኢትዮጵያ
ወደእግዚአብሔር
ወደውጭ
ወደዘለዓለም
ወደዚሁ
ወደዚህ
ወደዚያ
ወደዚያው
ወደደ
ወደዱ
ወደገሊላ
ወደገዢው
ወደጊዜ
ወደጎን
ወደጠፈር
ወደፊት
ወደፊትም
ወዲህ
ወዲህም
ወዲያ
ወዲያም
ወዲያና
ወዲያው
ወዲያውም
ወዲያውኑ
ወዳለ
ወዳለበት
ወዳለችው
ወዳለው
ወዳሉ
ወዳሉበት
ወዳቂ
ወዳንተ
ወዳድ
ወዳድነት
ወዳጁ
ወዳጃችን
ወዳጄ
ወዳጅ
ወዳጅህን
ወዳጅነት
ወዳጆ
ወዳጆቹ
ወዳጆች
ወዴት
ወዴትም
ወድመዋል
ወድማለች
ወድሟል
ወድቀዋል
ወድቀው
ወድቃ
ወድቄ
ወድቆ
ወድቋል
ወድያው
ወድያውኑ
ወዶ
ወገራ
ወገብ
ወገኑ
ወገኔ
ወገን
ወገንና
ወገኖቹ
ወገኖቻቸው
ወገኖቻችን
ወገኖቼ
ወገኖች
ወገኖችና
ወገኖችን
ወገዳማት
ወጉ
ወጋ
ወጋምቢክ
ወጋው
ወጋየሁ
ወጋገን
ወጋፍ
ወግ
ወግስ
ወግቶ
ወግና
ወጎች
ወጎችን
ወጠጤ
ወጡ
ወጣ
ወጣሁ
ወጣቱ
ወጣቱን
ወጣት
ወጣትነት
ወጣቶቹ
ወጣቶች
ወጣቶችና
ወጣቶችን
ወጣች
ወጣችኹ
ወጣና
ወጥ
ወጥመድ
ወጥሽ
ወጥተን
ወጥተዋል
ወጥተው
ወጥታ
ወጥታችኹ
ወጥቶ
ወጥቷል
ወጥቼ
ወጥነት
ወጥን
ወጪ
ወጪት
ወጪን
ወጪው
ወጪውን
ወጪዎች
ወጪዎችን
ወጭ
ወፈር
ወፍ
ወፍራም
ወፍጮ
ወፎች
ወፎችም
ወፎችን
ዉ
ዉሀ
ዉሃ
ዉስጥ
ዉበት
ዉኃ
ዉጤት
ዉጪ
ዉጭ
ዊ
ዊለር
ዊሊያም
ዊሊያምስ
ዊል
ዊልሄልም
ዊልሰን
ዊልክስ
ዊልያም
ዊቴሊዩስ
ዊና
ዊንስተን
ዊንስታንሊ
ዊንዘር
ዊንዶውስ
ዊንጌት
ዊኪ
ዊኪፔዲያ
ዊኪፔድያ
ዊክፔዲያ
ዋ
ዋህካሬ
ዋህድ
ዋለ
ዋለች
ዋሉ
ዋሊስ
ዋል
ዋልተር
ዋልታ
ዋልት
ዋልያ
ዋሚ
ዋሚን
ዋሪ
ዋራድ
ዋርም
ዋርነር
ዋርካ
ዋርፍ
ዋሳ
ዋስ
ዋስትና
ዋሺንግተን
ዋሺንግቶን
ዋሻ
ዋሻወች
ዋሻው
ዋሻውን
ዋሻዎች
ዋሽንት
ዋሽንግተን
ዋሽንግተንን
ዋቅ
ዋቅላሚ
ዋቅላሚዎች
ዋቢ
ዋት
ዋቶ
ዋነኛ
ዋነኛው
ዋነኞቹ
ዋነኩ
ዋና
ዋናተኛ
ዋናዋ
ዋናው
ዋናውን
ዋናዎቹ
ዋን
ዋንኛው
ዋንዛ
ዋንገም
ዋንጫ
ዋንጫን
ዋንጫውን
ዋንጫዎች
ዋንጫዎችን
ዋው
ዋዛ
ዋዛድ
ዋዜማ
ዋዝንቢት
ዋየል
ዋየሎች
ዋዩ
ዋይ
ዋይላቃዋቃ
ዋይልድ
ዋይት
ዋይድ
ዋዲ
ዋጅካሬ
ዋጋ
ዋጋቸውን
ዋጋና
ዋጋን
ዋጋወች
ዋጋው
ዋጋውም
ዋጋውን
ዋጋዎች
ዋግ
ዋግነር
ዋጫጫ
ዌ
ዌልስ
ዌልሽ
ዌር
ዌስተርን
ዌስቲነገሀውስ
ዌስት
ዌስትሚኒስተር
ዌብ
ዌብሳይት
ዌብሳይቶች
ዌይ
ው
ውሀ
ውሀና
ውሀን
ውሀውም
ውሁድ
ውሃ
ውሃም
ውሃና
ውሃን
ውሃው
ውሃውን
ውህደት
ውህደትን
ውህድ
ውህዶች
ውለታ
ውለዋል
ውለው
ውሉ
ውሉን
ውላ
ውል
ውልደት
ውሎ
ውሎች
ውሎችን
ውሏል
ውሐ
ውሑድ
ውሕደት
ውም
ውረድ
ውረጅ
ውርስ
ውርንጫ
ውርንጭላዋ
ውርደት
ውርዴ
ውሰድ
ውሰጥ
ውሱን
ውሳኔ
ውሳኔን
ውሳኔው
ውሳኔውን
ውሳኔዎች
ውሳኔዎችን
ውስብስብ
ውስብስብነት
ውስተ
ውስት
ውስን
ውስንነት
ውስጠ
ውስጠኛው
ውስጡ
ውስጡን
ውስጣቸው
ውስጣዊ
ውስጥ
ውስጥም
ውስጥና
ውሸታም
ውሸት
ውሻ
ውሻን
ውሻውን
ውሻዎች
ውሽማ
ውሽት
ውሾች
ውቃ
ውቅር
ውቅሮ
ውቅያኖስ
ውቅያኖስና
ውቅያኖስን
ውቅያኖሶች
ውበት
ውበትና
ውበቷ
ውቤ
ውቤም
ውቤን
ውብ
ውትድርና
ውኃ
ውኃው
ውን
ውንም
ውንጀላ
ውእቱ
ውክሉ
ውክልና
ውክሽነሪ
ውክፔዲያ
ውክፔድያ
ውዝዋዜ
ውዝግብ
ውዝግቦች
ውዥንብር
ውይ
ውይም
ውይይት
ውደዱ
ውደድ
ውዳሴ
ውዴ
ውድ
ውድመት
ውድማ
ውድሩ
ውድር
ውድቀት
ውድቀትን
ውድቀቶች
ውድቅ
ውድነህ
ውድነት
ውድዋርድ
ውድድሩ
ውድድሩም
ውድድሩን
ውድድር
ውድድርም
ውድድርን
ውድድሮች
ውድድሮችን
ውጊያ
ውጊያው
ውጊያዎች
ውግዘት
ውግያ
ውግያዎች
ውጡ
ውጣ
ውጤቱ
ውጤቱም
ውጤቱን
ውጤታማ
ውጤታቸው
ውጤት
ውጤትን
ውጤቶቹ
ውጤቶች
ውጤቶችን
ውጥ
ውጥረቱ
ውጥረት
ውጪ
ውጫዊ
ውጭ
ውጭም
ውፍረቱ
ውፍረት
ዎ
ዎለድ
ዎቮካ
ዎቹ
ዎቹም
ዎች
ዐ
ዐለይሂ
ዐለፈ
ዐሊ
ዐል
ዐልጋ
ዐልጋኽን
ዐልፎ
ዐመፃ
ዐማት
ዐማኑኤል
ዐምር
ዐምሳ
ዐምስት
ዐምደ
ዐምድ
ዐሥሩ
ዐሥራ
ዐሥር
ዐረብኛ
ዐረገ
ዐረፈ
ዐረፉ
ዐረፍተ
ዐርሽ
ዐርብ
ዐሰበ
ዐሳማ
ዐሳባቸውን
ዐሳብ
ዐቢይ
ዐባይ
ዐብረው
ዐብደላህ
ዐንሁ
ዐንሃ
ዐእማድ
ዐዋቂ
ዐዋጅ
ዐውቀው
ዐውቃለኹ
ዐውቃለኹና
ዐውቆ
ዐይነ
ዐይነት
ዐይን
ዐይንኽ
ዐይኖቹን
ዐይኖች
ዐደራ
ዐዲሱን
ዐዲስ
ዐግ
ዐጥንት
ዐጭር
ዐጼ
ዐፄ
ዑ
ዑለማኦች
ዑመር
ዑመይር
ዑምበርቶ
ዑር
ዑርን
ዑርኤል
ዑስማን
ዑባ
ዑዝበክ
ዑዝበክስታን
ዑደቱ
ዑደት
ዑደቶች
ዒ
ዒላማ
ዒሳ
ዒሳም
ዒዛና
ዓ
ዓለሙ
ዓለሙን
ዓለማት
ዓለማችን
ዓለማዊ
ዓለማየሁ
ዓለም
ዓለምና
ዓለምን
ዓለምአቀፍ
ዓለቃ
ዓለት
ዓለቶች
ዓሊ
ዓሊም
ዓላማ
ዓላማቸው
ዓላማው
ዓላማውን
ዓላማዎች
ዓላማዎችን
ዓመተ
ዓመቱ
ዓመቱን
ዓመታት
ዓመታትም
ዓመታትን
ዓመታቸው
ዓመታዊ
ዓመት
ዓመትም
ዓመትን
ዓመቶቹ
ዓመቶች
ዓመቷ
ዓመጽ
ዓመፅ
ዓሚር
ዓማርኛ
ዓማርኛና
ዓማርኛን
ዓማርኛው
ዓማርኛውን
ዓም
ዓምደ
ዓምድ
ዓምዶች
ዓሣ
ዓሣውን
ዓረብ
ዓረብኛ
ዓረፈ
ዓረፈና
ዓረፉ
ዓረፍተ
ዓርብ
ዓርፎ
ዓሳ
ዓቀፍ
ዓቢይ
ዓባል
ዓባይ
ዓት
ዓኢሻ
ዓክልበ
ዓውደ
ዓዓ
ዓየር
ዓይነ
ዓይነተኛ
ዓይነቱ
ዓይነት
ዓይነትና
ዓይነቶቹ
ዓይነቶች
ዓይነቶችን
ዓይኑ
ዓይኑን
ዓይናቸው
ዓይን
ዓይንን
ዓይኖቹ
ዓይኖቻቸው
ዓይኖች
ዓድም
ዓድዋ
ዓጼ
ዓጽም
ዓፄ
ዔ
ዔሳው
ዔቦር
ዕ
ዕለተ
ዕለቱ
ዕለቱን
ዕለታት
ዕለታዊ
ዕለት
ዕለትም
ዕልቂት
ዕመት
ዕምሩ
ዕምነት
ዕምዬ
ዕረፍቱ
ዕረፍታቸው
ዕረፍት
ዕርቅ
ዕርዳታ
ዕርገት
ዕቃ
ዕቃውን
ዕቃዎች
ዕቃዎችን
ዕቅድ
ዕቅዶች
ዕብ
ዕብራን
ዕብራውያን
ዕብራውያንን
ዕብራይስጥ
ዕትም
ዕንቁ
ዕንቁላል
ዕንቁጣጣሽ
ዕንባ
ዕንጨት
ዕኩይ
ዕወቁ
ዕውር
ዕውሮች
ዕውቀቱን
ዕውቀታቸው
ዕውቀት
ዕውቀትና
ዕውቀትን
ዕውቀቶች
ዕውቅ
ዕውቅና
ዕውቅናን
ዕውነተኛ
ዕውነት
ዕውን
ዕዝ
ዕዝራ
ዕይታ
ዕዳ
ዕድ
ዕድሉ
ዕድላቸው
ዕድል
ዕድሜ
ዕድሜው
ዕድሜያቸው
ዕድገት
ዕጅ
ዕጅግ
ዕጣ
ዕጣን
ዕጥፍ
ዕጩ
ዕጽ
ዕጽዋት
ዕፀ
ዕፁብ
ዕፅ
ዕፅዋት
ዖ
ዘ
ዘሃራ
ዘለለ
ዘለለው
ዘለቀ
ዘለቀና
ዘለቀን
ዘለቄታዊ
ዘለበት
ዘለንስኪ
ዘለዓለም
ዘላለማዊ
ዘላለም
ዘላቂ
ዘላቂነት
ዘላን
ዘላኖች
ዘሌንስኪ
ዘሌዋውያን
ዘልሳን
ዘልቀው
ዘልቆ
ዘልቋል
ዘሎ
ዘመተ
ዘመቱ
ዘመቻ
ዘመቻን
ዘመቻው
ዘመቻውን
ዘመቻዎች
ዘመቻዎችን
ዘመነ
ዘመኑ
ዘመኑም
ዘመኑን
ዘመናት
ዘመናትን
ዘመናቸው
ዘመናቸውን
ዘመናዊ
ዘመናዊት
ዘመናዊነት
ዘመናዊና
ዘመናዊው
ዘመናዊውን
ዘመን
ዘመንም
ዘመንና
ዘመንን
ዘመኖች
ዘመኗ
ዘመደ
ዘመዱ
ዘመዱን
ዘመዳቸው
ዘመዴ
ዘመድ
ዘመድና
ዘመድን
ዘመዶቹ
ዘመዶቻቸው
ዘመዶቼ
ዘመዶች
ዘመዶቿን
ዘሚካኤል
ዘማሪ
ዘማች
ዘማቾች
ዘምባባ
ዘምተው
ዘምቶ
ዘረ
ዘረኛ
ዘረኝነት
ዘረጋ
ዘረፈ
ዘሩ
ዘሩን
ዘሪ
ዘሪሁን
ዘራቸው
ዘራይጥ
ዘራፊ
ዘሬ
ዘር
ዘርቶ
ዘርን
ዘርአ
ዘርዓ
ዘርጋ
ዘርግተው
ዘርግቶ
ዘርፈ
ዘርፉ
ዘርፉን
ዘርፍ
ዘርፎ
ዘርፎች
ዘርፎችን
ዘሮቹ
ዘሮች
ዘሮችን
ዘበሰማያት
ዘበናይ
ዘበኛ
ዘበኛን
ዘበኞች
ዘቢብ
ዘቢድ
ዘባራቂ
ዘኊልቊ
ዘነበ
ዘነበወርቅ
ዘነብ
ዘና
ዘንበል
ዘንባባ
ዘንቦብሽ
ዘንድ
ዘንድም
ዘንድሮ
ዘንድሮም
ዘንዶ
ዘንዶውን
ዘንጋዳ
ዘንግ
ዘአካላት
ዘአካል
ዘኢትዮጵያ
ዘእምነገደ
ዘእስክንድርያ
ዘካ
ዘካሪያስ
ዘካርያስ
ዘካንም
ዘኬውን
ዘወር
ዘወትር
ዘዋሪ
ዘው
ዘውዱ
ዘውዱን
ዘውዲቱ
ዘውዲቱን
ዘውዳቸውን
ዘውዴ
ዘውድ
ዘውዶች
ዘውግ
ዘዬ
ዘዬዎች
ዘይ
ዘይላ
ዘይቤ
ዘይቤዎች
ዘይቤዎችን
ዘይቱ
ዘይቱን
ዘይት
ዘይትና
ዘይድ
ዘዳ
ዘዳግም
ዘዴ
ዘዴን
ዘዴወች
ዘዴው
ዘዴውን
ዘዴዎች
ዘዴዎችን
ዘድንግል
ዘድንግልን
ዘገምተኛ
ዘገበ
ዘገበው
ዘገቡ
ዘገባ
ዘገባው
ዘገባዎች
ዘገየ
ዘጉባኤ
ዘጋ
ዘጋቢ
ዘጋቢዎች
ዘጌ
ዘግበዋል
ዘግበውታል
ዘግቦት
ዘግቧል
ዘግተው
ዘግቼ
ዘግናኝ
ዘግይቶ
ዘጠነኛ
ዘጠነኛዋ
ዘጠነኛው
ዘጠና
ዘጠኙ
ዘጠኙም
ዘጠኝ
ዘጥ
ዘጸ
ዘጸአት
ዘፈኑ
ዘፈኑን
ዘፈን
ዘፈኖቹ
ዘፈኖች
ዘፈኖችን
ዘፋኝ
ዘፋኝና
ዘፋኞች
ዘፍ
ዘፍኖ
ዘፍጥ
ዘፍጥረት
ዙ
ዙህ
ዙረህ
ዙሩ
ዙሪክ
ዙሪያ
ዙሪያም
ዙሪያና
ዙሪያው
ዙሪያውን
ዙር
ዙርያ
ዙሮ
ዙበይር
ዙዙ
ዙፋኑ
ዙፋኑን
ዙፋናቸው
ዙፋናቸውን
ዙፋን
ዚ
ዚህ
ዚላንድ
ዚምባብዌ
ዚንክ
ዚኪር
ዚውስ
ዚዳንታ
ዚገም
ዛ
ዛህ
ዛልፓ
ዛምቢያ
ዛሪቁም
ዛሬ
ዛሬማ
ዛሬም
ዛሬን
ዛሬው
ዛር
ዛሮች
ዛቢያ
ዛባባ
ዛብ
ዛት
ዛቻ
ዛንዚባር
ዛክስን
ዛዛኪኛ
ዛይ
ዛይር
ዛይሴ
ዛይን
ዛገ
ዛገሢ
ዛጉዬ
ዛጎል
ዛፉ
ዛፍ
ዛፎች
ዛፎችን
ዜ
ዜለንስኪ
ዜማ
ዜማና
ዜማን
ዜማው
ዜማዎቹ
ዜማዎች
ዜማዎችን
ዜሮ
ዜቡል
ዜታ
ዜና
ዜናዊ
ዜናዎች
ዜናዎችን
ዜኖን
ዜውስ
ዜጋ
ዜጋዎች
ዜግነቱ
ዜግነት
ዜጎች
ዜጎችን
ዝ
ዝሆን
ዝሆንም
ዝሆኖች
ዝላይ
ዝሙት
ዝማሜ
ዝማሬ
ዝማሬና
ዝም
ዝምሪ
ዝምብ
ዝምተኛ
ዝምታ
ዝምድና
ዝረፍ
ዝርዝሩ
ዝርዝሩን
ዝርዝር
ዝርዝርና
ዝርዝሮች
ዝርያ
ዝርያወች
ዝርያው
ዝርያዎች
ዝርያዎችን
ዝርዮች
ዝርጋታ
ዝርግ
ዝርፊያ
ዝቃጭ
ዝቅ
ዝቅተኛ
ዝቅተኛው
ዝቋላ
ዝባላ
ዝባድ
ዝብርቅርቅ
ዝነኛ
ዝነኛው
ዝና
ዝናም
ዝናር
ዝናቡ
ዝናባማ
ዝናብ
ዝናብና
ዝናብን
ዝናቸው
ዝናን
ዝናኛ
ዝናው
ዝንባሌ
ዝንብ
ዝንቦች
ዝንጀሮ
ዝንጀሮች
ዝንጀሮና
ዝንጅብል
ዝንጉርጉር
ዝንጣፊ
ዝክረ
ዝዋይ
ዝውውር
ዝጋ
ዝግ
ዝግመተ
ዝግባ
ዝግን
ዝግጁ
ዝግጅቱ
ዝግጅቱን
ዝግጅት
ዝግጅቶች
ዝግጅቶችን
ዞ
ዞረ
ዞረው
ዞራ
ዞራስተር
ዞር
ዞሮ
ዞን
ዞንና
ዞኖች
ዞዓር
ዠ
ዠመረ
ዠመር
ዠምሬ
ዠምሮ
ዠበቡ
ዠበቡም
ዠበቡን
ዠበብ
ዠበብተኞችንና
ዠበቦች
ዠብደኛ
ዠኔቭ
ዡ
ዡል
ዢ
ዣ
ዣን
ዣክ
ዤ
ዥ
ዥረት
ዥብ
ዥንጉርጉር
ዥዋዥዌ
ዥዎ
ዥዕ
ዦ
ዦርዥ
ዦሮ
ዦንግ
ዦው
ዧንሡ
የ
የሀምሌ
የሀረም
የሀረሪ
የሀረር
የሀሰት
የሀበሻ
የሀብታም
የሀብት
የሀንጋሪ
የሀዘን
የሀይል
የሀይማኖት
የሀዲስ
የሀዲያ
የሀድሰን
የሀገሩ
የሀገሩን
የሀገሪቱ
የሀገሪቱን
የሀገራቸውን
የሀገራችን
የሀገር
የሀጢአት
የሁለተኛ
የሁለተኛው
የሁለቱ
የሁለቱም
የሁለቱን
የሁለት
የሁለትዮሽ
የሁሉ
የሁሉም
የሁሉንም
የሁላቸው
የሁላችንም
የሁማዉ
የሂሳብ
የሂስፓኒያ
የሂንዱ
የሂክሶስ
የሂፕ
የሃሙራቢ
የሃሞን
የሃረሪ
የሃርድዌር
የሃሳብ
የሃቢሩ
የሃብት
የሃትሸፕሱት
የሃን
የሃንዴሳ
የሃውኪንግ
የሃያ
የሃያኛው
የሃይል
የሃይማኖቱ
የሃይማኖት
የሃይማኖትና
የሃይሮግሊፍ
የሃይቲ
የሃይናን
የሃይድሮጅን
የሃገሪቱ
የሃገር
የሄራክሌስ
የሄርኩሌስ
የሄንሪ
የሄኖክ
የሄይቲ
የሄደው
የሄዱት
የህሊና
የህልውና
የህመም
የህብረተሰቡ
የህብረተሰቡን
የህብረተሰብ
የህብረት
የህትመት
የህንዳዊ
የህንድ
የህክምና
የህወሃት
የህወሓት
የህዋ
የህዝቡ
የህዝቡን
የህዝብ
የህዝብን
የህይወቱ
የህይወት
የህግ
የህጻናት
የህፃናት
የሆሊዉድ
የሆሊውድ
የሆላንድ
የሆሣዕና
የሆስፒታሉ
የሆብስ
የሆነ
የሆነበት
የሆነች
የሆነችው
የሆነችውን
የሆነና
የሆነን
የሆነው
የሆነውን
የሆኑ
የሆኑበት
የሆኑት
የሆኑትን
የሆናቸው
የሆንዱራስ
የሆኖ
የሆድ
የለ
የለህ
የለህም
የለመነ
የለመኑትን
የለመደ
የለመደች
የለማኝ
የለም
የለምና
የለምን
የለሽ
የለቀቀ
የለቀቁ
የለቀቁት
የለቅሶ
የለበሰ
የለበሰው
የለበሱ
የለበትም
የለባቸውም
የለብህም
የለብንም
የለብኝም
የለንም
የለንደን
የለንደንን
የለኝም
የለው
የለውም
የለውምና
የለውጥ
የለጥ
የሉል
የሉም
የሉቃስ
የሉተራን
የሉትም
የሉክሰምበርግ
የሉዊዚያና
የሉዎ
የሉድ
የሊ
የሊሙ
የሊቀ
የሊቃውንት
የሊበራል
የሊቢያ
የሊባኖስ
የሊብያ
የሊትዌኒያ
የሊንከን
የሊኩድ
የሊግ
የሊፒት
የላሊበላ
የላም
የላሞች
የላርሳ
የላስታ
የላቀ
የላቁ
የላባርና
የላቲኑን
የላቲን
የላቲንን
የላት
የላትም
የላቸውም
የላችሁም
የላከ
የላከኝ
የላከኝን
የላከው
የላከውን
የላኩት
የላኮታ
የላውድ
የላይ
የላይቤሪያ
የላይኛ
የላይኛው
የላይኛውን
የላጋሽ
የላጭን
የላፕላስ
የሌለ
የሌለበት
የሌለባት
የሌለባቸው
የሌለው
የሌለውን
የሌሉት
የሌሊት
የሌላ
የሌላት
የሌላትን
የሌላቸው
የሌላቸውን
የሌላው
የሌላውን
የሌሎቹ
የሌሎቹን
የሌሎች
የሌሎችን
የሌሏቸው
የሌስተር
የሌበር
የሌባ
የሌባን
የሌት
የሌኒን
የሌዊ
የልመና
የልማት
የልሲን
የልቡ
የልቡን
የልባቸውን
የልብ
የልብህን
የልብስ
የልብነ
የልብና
የልዑል
የልዕልት
የልዩ
የልዩነት
የልደት
የልድያ
የልጁ
የልጁን
የልጅ
የልጅነት
የልጆቹ
የልጆቻቸው
የልጆች
የልጇ
የልጇን
የልጥ
የሎሌ
የሎሎቲክ
የሎሚ
የሎርድ
የሎስ
የሎንዶን
የሐመልማል
የሐመር
የሐማዚ
የሐረሩ
የሐረሪ
የሐረር
የሐረርጌ
የሐር
የሐሰት
የሐሳብ
የሐበሻ
የሐቱሳሽ
የሐቲ
የሐንቲሊ
የሐዋ
የሐዋርያት
የሐዋርያው
የሐዘን
የሐይቁ
የሐዲስ
የሐገሪቱ
የሑራውያን
የሒሳብ
የሔሩ
የሕሽሚ
የሕብረቱ
የሕብረት
የሕንዱ
የሕንዳዊ
የሕንድ
የሕንጻ
የሕንፃ
የሕክምና
የሕዝቡ
የሕዝቡን
የሕዝባዊ
የሕዝብ
የሕዝብና
የሕያዋን
የሕያው
የሕይወት
የሕይዋን
የሕገ
የሕግ
የሕፃናት
የመሃል
የመሆን
የመለኪያ
የመለኮት
የመለወጥ
የመላ
የመላእክት
የመላው
የመላውን
የመላዕክት
የመልሶ
የመልእክት
የመልከ
የመልካም
የመልክዓ
የመሐመድ
የመመለስ
የመመረቂያ
የመማሪያ
የመማር
የመምህራን
የመምረጥ
የመሠለ
የመሠረተ
የመሠረተው
የመሠረቱ
የመሠረቱት
የመሠረት
የመሣሪያ
የመረብ
የመረዳት
የመረጃ
የመረጠን
የመረጡት
የመሩ
የመሩት
የመሪነት
የመሪዎች
የመራ
የመራቢያ
የመራው
የመሬት
የመሬትን
የመርከብ
የመርዌ
የመርዝ
የመርየም
የመርገጫ
የመሰለ
የመሰሉ
የመሰረተ
የመሰረተው
የመሰረቱ
የመሰረት
የመሰብሰብ
የመሰናዶ
የመሳሪያ
የመሳሰሉ
የመሳሰሉት
የመሳሰሉትን
የመሳብ
የመሳፍንት
የመስ
የመስመር
የመስማት
የመስቀል
የመስቃን
የመስታወት
የመስኖ
የመስከረም
የመስክ
የመስጂድ
የመስጠት
የመስጴጦምያ
የመቀበል
የመቀነስ
የመቀየር
የመቃብር
የመቄዶን
የመቄዶንያ
የመቅደላ
የመቅደሱን
የመቆጣጠር
የመቋቋም
የመብራት
የመብት
የመተላለፊያ
የመተማመን
የመተሩበት
የመተንፈሻ
የመታሰቢያ
የመታው
የመቶ
የመቻቻል
የመነሻ
የመነነ
የመነኩሴ
የመነጨ
የመነጨው
የመናገር
የመን
የመንበረ
የመንዝ
የመንደሩ
የመንደር
የመንደሮቹ
የመንገደኞች
የመንገድ
የመንጋ
የመንግሥተ
የመንግሥቱ
የመንግሥቱን
የመንግሥታት
የመንግሥት
የመንግሥትን
የመንግስቱ
የመንግስቱን
የመንግስት
የመንግስትን
የመንፈሳዊ
የመንፈስ
የመኖሩ
የመኖሪያ
የመኖር
የመኖርያ
የመኝታ
የመከላከል
የመከላከያ
የመከራ
የመከፋፈል
የመኪና
የመካ
የመካከለኛ
የመካከለኛው
የመካከል
የመክተቢያ
የመክፈቻ
የመኮንን
የመኮንኖች
የመኳንንት
የመወሰን
የመዋቅር
የመውጣት
የመዝሙር
የመዝናኛ
የመዝገበ
የመዝገቦች
የመያዝ
የመደመር
የመደብ
የመዲና
የመዳብ
የመዳን
የመድረክ
የመድበለ
የመድኃኒት
የመጀመሪያ
የመጀመሪያወቹ
የመጀመሪያዋ
የመጀመሪያዋን
የመጀመሪያው
የመጀመሪያውና
የመጀመሪያውን
የመጀመሪያዎቹ
የመጀመሪያዎቹን
የመጀመርያ
የመጀመርያው
የመጀመርያውን
የመገበያያ
የመገናኛ
የመገንጠል
የመገጣጠሚያ
የመግለጽ
የመግለፅ
የመግቢያ
የመግባቢያ
የመግባት
የመግነጢስ
የመግዛት
የመግደል
የመጓጓዣ
የመጠቀም
የመጠበቅ
የመጠባበቂያ
የመጠን
የመጠጥ
የመጡ
የመጡት
የመጡትን
የመጣ
የመጣበት
የመጣች
የመጣን
የመጣው
የመጣውም
የመጣውን
የመጥረቢያ
የመጥበሻ
የመጥፋት
የመጨረሻ
የመጨረሻዋ
የመጨረሻው
የመጨረሻውን
የመጨረሻዎቹ
የመጻሕፍት
የመጻፊያ
የመጽሃፉ
የመጽሃፉን
የመጽሐፉ
የመጽሐፍ
የመጽሐፍት
የመፀው
የመፈንቅለ
የመፍትሄ
የመፍጠር
የሙሉ
የሙሴ
የሙሴን
የሙስሊሙን
የሙስሊም
የሙስሊሞች
የሙስና
የሙስዓብ
የሙሶሊኒ
የሙሽራ
የሙቀት
የሙታን
የሙት
የሙከራ
የሙዚቃ
የሙዝ
የሙያ
የሙጋል
የሚ
የሚሄደው
የሚሄዱ
የሚሄድ
የሚሆነው
የሚሆነውን
የሚሆኑ
የሚሆኑት
የሚሆኑትን
የሚሆን
የሚሆንበት
የሚለምን
የሚለበስ
የሚለኝ
የሚለካ
የሚለካው
የሚለካውም
የሚለዉ
የሚለዉን
የሚለው
የሚለውም
የሚለውን
የሚለውንም
የሚለየው
የሚለዩት
የሚለያዩ
የሚለያይ
የሚለይ
የሚለይበት
የሚለይበትን
የሚሉ
የሚሉም
የሚሉሽን
የሚሉት
የሚሉትን
የሚላከው
የሚላኩ
የሚሌሲያን
የሚል
የሚልን
የሚሏቸው
የሚሏቸውን
የሚመለስ
የሚመለከተው
የሚመለከቱ
የሚመለከት
የሚመላለሱ
የሚመላለስ
የሚመረተው
የሚመረቱ
የሚመረጠው
የሚመረጡት
የሚመሩ
የሚመሩት
የሚመራ
የሚመራው
የሚመራውን
የሚመሰክሩ
የሚመሰክር
የሚመሳሰሉ
የሚመሳሰል
የሚመስለው
የሚመስሉ
የሚመስል
የሚመስሏቸው
የሚመነጨው
የሚመነጩ
የሚመነጭ
የሚመክር
የሚመክተው
የሚመዝን
የሚመደቡ
የሚመደብ
የሚመጡ
የሚመጡት
የሚመጣ
የሚመጣው
የሚመጣውን
የሚመጥን
የሚማሩት
የሚሞት
የሚሠሩ
የሚሠሩት
የሚሠራ
የሚሠራው
የሚሠራውን
የሚረዝም
የሚረዱ
የሚረዳ
የሚረዳቸው
የሚሰላው
የሚሰማ
የሚሰማው
የሚሰሩ
የሚሰሩት
የሚሰራ
የሚሰራበት
የሚሰራው
የሚሰራውም
የሚሰራጭ
የሚሰርቀውን
የሚሰኘው
የሚሰጠው
የሚሰጠውም
የሚሰጠውን
የሚሰጡ
የሚሰጡት
የሚሰጡዋቸውን
የሚሰጣቸው
የሚሰጥ
የሚሰጥም
የሚሰጥበት
የሚሳተፉ
የሚሳኤል
የሚስማሙ
የሚስማማ
የሚስቡ
የሚስብ
የሚስቱ
የሚስቱን
የሚስታቸውን
የሚስት
የሚስኪቶ
የሚሸጠው
የሚሸጥ
የሚሸፍነው
የሚሸፍን
የሚሹ
የሚሻ
የሚሻለውን
የሚሻል
የሚሻውን
የሚሽር
የሚሽከረከሩ
የሚሽከረከር
የሚሾሙት
የሚቀመጡ
የሚቀመጥ
የሚቀር
የሚቀርበው
የሚቀርቡ
የሚቀርብ
የሚቀሰቅስ
የሚቀበለው
የሚቀበሉ
የሚቀበሉት
የሚቀበል
የሚቀይር
የሚቀጥለው
የሚቀጥለውን
የሚቀጥል
የሚቃረን
የሚቃወሙ
የሚቃወሙት
የሚቃወም
የሚቆም
የሚቆይ
የሚቆጠረው
የሚቆጠሩ
የሚቆጠር
የሚቆጣጠረው
የሚቆጣጠር
የሚበሉ
የሚበሉት
የሚበላ
የሚበላው
የሚበልጠው
የሚበልጡ
የሚበልጥ
የሚበር
የሚበቃ
የሚበቅለው
የሚበቅል
የሚበዙት
የሚበዛው
የሚበጀውን
የሚባለው
የሚባለውን
የሚባሉ
የሚባሉት
የሚባሉትን
የሚባል
የሚተላለፈው
የሚተላለፉ
የሚተላለፍ
የሚተረጉም
የሚተች
የሚተኛ
የሚተካከል
የሚተዳደረው
የሚተዳደሩ
የሚተዳደር
የሚተገበር
የሚተጉ
የሚተጋ
የሚታመነው
የሚታመን
የሚታመንበት
የሚታሰበው
የሚታሰብ
የሚታተም
የሚታኒ
የሚታወስ
የሚታወቀው
የሚታወቀውን
የሚታወቁ
የሚታወቁት
የሚታወቁትን
የሚታወቅ
የሚታወቅበት
የሚታዘዙ
የሚታየው
የሚታዩ
የሚታዩት
የሚታዩትን
የሚታይ
የሚታይበት
የሚቻለው
የሚቻል
የሚችለው
የሚችለውን
የሚችሉ
የሚችሉበት
የሚችሉት
የሚችሉትን
የሚችል
የሚችልን
የሚነሱ
የሚነሳ
የሚነሳው
የሚነበብ
የሚነኩ
የሚነካ
የሚነዳ
የሚነገረው
የሚነገሩ
የሚነገሩት
የሚነገር
የሚነገርለት
የሚነገርላት
የሚኒስትሮች
የሚናገረው
የሚናገረውን
የሚናገሩ
የሚናገሩት
የሚናገሩትን
የሚናገር
የሚናገርበት
የሚንቀሳቀሱ
የሚንቀሳቀስ
የሚንጠለጠሉበት
የሚኖረው
የሚኖረውን
የሚኖሩ
የሚኖሩበት
የሚኖሩባት
የሚኖሩት
የሚኖሩትን
የሚኖራቸውን
የሚኖር
የሚኖርበት
የሚኖርባት
የሚከለክል
የሚከላከል
የሚከርመውም
የሚከሰተው
የሚከሰቱ
የሚከሰት
የሚከበረው
የሚከበር
የሚከበርበት
የሚከተለው
የሚከተለውን
የሚከተሉ
የሚከተሉት
የሚከተሉትን
የሚከተል
የሚከተበው
የሚከተቡት
የሚከታተለው
የሚከታተል
የሚከትበው
የሚከናወነው
የሚከናወን
የሚከፈለው
የሚከፈል
የሚከፍለው
የሚከፍል
የሚከፍት
የሚካሄደው
የሚካሄደውን
የሚካሄድ
የሚካለል
የሚካኤል
የሚክድ
የሚኾን
የሚወለድ
የሚወልደውን
የሚወረስ
የሚወሰነው
የሚወሰን
የሚወሰደው
የሚወሰዱ
የሚወስነው
የሚወስኑት
የሚወስን
የሚወስደው
የሚወስደውን
የሚወስዱ
የሚወስዱት
የሚወስድ
የሚወክለው
የሚወክሉ
የሚወክሉት
የሚወክል
የሚወደው
የሚወደውን
የሚወደድ
የሚወዱ
የሚወዱትን
የሚወዳደር
የሚወድ
የሚወጉበት
የሚወጋ
የሚወጡ
የሚወጡበት
የሚወጡት
የሚወጣ
የሚወጣው
የሚወጣውን
የሚውለው
የሚውሉ
የሚውሉት
የሚውል
የሚዘልቅ
የሚዘጋጀው
የሚዘጋጁ
የሚዘጋጅ
የሚዘግብ
የሚዛመዱ
የሚዛመድ
የሚያህሉ
የሚያህል
የሚያልፈው
የሚያልፉ
የሚያልፍ
የሚያሕሉ
የሚያሕል
የሚያመለክተው
የሚያመለክቱ
የሚያመለክት
የሚያመላክተው
የሚያመላክት
የሚያመልኩ
የሚያመነጭ
የሚያመጡ
የሚያመጣ
የሚያመጣው
የሚያምር
የሚያምነው
የሚያምኑ
የሚያምኑት
የሚያምን
የሚያረጋግጥ
የሚያርፈው
የሚያርፉ
የሚያርፍ
የሚያሰኝ
የሚያሳልፉት
የሚያሳርፈው
የሚያሳስብ
የሚያሳትፍ
የሚያሳዝን
የሚያሳየው
የሚያሳዩ
የሚያሳዩት
የሚያሳይ
የሚያስረዳ
የሚያስቀምጥ
የሚያስቀዝነውን
የሚያስቡ
የሚያስተላልፍ
የሚያስተምረው
የሚያስተምሩ
የሚያስተምር
የሚያስተናግደው
የሚያስተውል
የሚያስተዳድሩ
የሚያስተዳድር
የሚያስታውስ
የሚያስችለው
የሚያስችለውን
የሚያስችሉ
የሚያስችላቸው
የሚያስችል
የሚያስከትለው
የሚያስከትለውን
የሚያስከትል
የሚያስደንቅ
የሚያስገርም
የሚያስገነዝብ
የሚያስገድድ
የሚያስፈልገው
የሚያስፈልገውን
የሚያስፈልጉ
የሚያስፈልጉትን
የሚያስፈልጋቸውን
የሚያስፈልግ
የሚያቀርቡ
የሚያቀርብ
የሚያበረታታ
የሚያበራ
የሚያተኩረው
የሚያተኩረውም
የሚያተኩር
የሚያትት
የሚያንስ
የሚያንጸባርቅ
የሚያንፀባርቅ
የሚያኖር
የሚያከብሩ
የሚያከብር
የሚያከናውን
የሚያካትት
የሚያክሉ
የሚያክል
የሚያኽል
የሚያወራው
የሚያወግዝ
የሚያወጣ
የሚያዋርድ
የሚያውቀው
የሚያውቁ
የሚያውቁት
የሚያውቅ
የሚያውቅና
የሚያዝ
የሚያዩት
የሚያያዝ
የሚያያይዝ
የሚያይ
የሚያዮን
የሚያደርሱ
የሚያደርስ
የሚያደርገው
የሚያደርገውን
የሚያደርጉ
የሚያደርጉት
የሚያደርጉትን
የሚያደርጋቸው
የሚያደርግ
የሚያድነው
የሚያድን
የሚያድግ
የሚያገለግለው
የሚያገለግሉ
የሚያገለግል
የሚያገባ
የሚያገናኘው
የሚያገናኝ
የሚያገኘው
የሚያገኙት
የሚያገኝ
የሚያግዙ
የሚያግዝ
የሚያጠቃ
የሚያጠቃልል
የሚያጠኑ
የሚያጠና
የሚያጠናው
የሚያጠግብ
የሚያጠፋ
የሚያፍር
የሚይዘው
የሚይዙ
የሚይዙት
የሚይዝ
የሚደረገው
የሚደረገውን
የሚደረጉ
የሚደረግ
የሚደረግለት
የሚደረግበት
የሚደርሰው
የሚደርሰውን
የሚደርሱ
የሚደርስ
የሚደገፈው
የሚደገፉ
የሚደግፉ
የሚደግፍ
የሚዲያ
የሚዳስስ
የሚዳቋ
የሚድያ
የሚጀምረው
የሚጀምር
የሚገ
የሚገልጸው
የሚገልጹ
የሚገልጽ
የሚገልፅ
የሚገመተው
የሚገመቱ
የሚገመት
የሚገርመው
የሚገርም
የሚገቡ
የሚገቡበት
የሚገቡት
የሚገባ
የሚገባበት
የሚገባቸው
የሚገባቸውን
የሚገባው
የሚገባውን
የሚገነቡ
የሚገናኙ
የሚገናኙበት
የሚገኘው
የሚገኘውም
የሚገኘውና
የሚገኘውን
የሚገኙ
የሚገኙበት
የሚገኙት
የሚገኙትን
የሚገኛኙ
የሚገኝ
የሚገኝበት
የሚገኝበትን
የሚገኝባቸው
የሚገኝና
የሚገኝን
የሚገዙ
የሚገዛ
የሚገዛው
የሚገድል
የሚጋሩት
የሚግማቅ
የሚጎዳ
የሚጓዘው
የሚጓዙ
የሚጓዝ
የሚጠሉ
የሚጠሉትን
የሚጠላ
የሚጠሩ
የሚጠሩት
የሚጠራ
የሚጠራው
የሚጠራውን
የሚጠርግ
የሚጠቀመው
የሚጠቀሙ
የሚጠቀሙበት
የሚጠቀሙባቸው
የሚጠቀሙት
የሚጠቀም
የሚጠቀምበት
የሚጠቀሰው
የሚጠቀሱ
የሚጠቀስ
የሚጠቁሙ
የሚጠቁም
የሚጠቅመው
የሚጠቅሙ
የሚጠቅም
የሚጠቅሱት
የሚጠበቀው
የሚጠበቅ
የሚጠብቀው
የሚጠብቁ
የሚጠብቅ
የሚጠይቀውን
የሚጠይቅ
የሚጠጉ
የሚጠጉት
የሚጠጋ
የሚጠጋበት
የሚጠጋውን
የሚጠጣ
የሚጠጣው
የሚጣል
የሚጣፍጥ
የሚጥል
የሚጥር
የሚጨምር
የሚጫወተው
የሚጫወቱ
የሚጫወቱት
የሚጫወት
የሚጮኽ
የሚጻፈው
የሚጻፉ
የሚጻፍበት
የሚጽፉ
የሚጽፉት
የሚፈለገውን
የሚፈልቅ
የሚፈልገው
የሚፈልገውን
የሚፈልጉ
የሚፈልጉት
የሚፈልጉትን
የሚፈልግ
የሚፈረጅ
የሚፈራ
የሚፈርደውን
የሚፈሰው
የሚፈስ
የሚፈስስ
የሚፈቅድ
የሚፈታ
የሚፈጠረው
የሚፈጠረውን
የሚፈጠሩ
የሚፈጠር
የሚፈጥረው
የሚፈጥሩት
የሚፈጥር
የሚፈጸመው
የሚፈጸሙ
የሚፈጸም
የሚፈጽም
የማህበረሰቡ
የማህበረሰብ
የማህበራዊ
የማህበር
የማለዳ
የማሊ
የማላዊ
የማሌዢያ
የማልታ
የማረሻ
የማሪ
የማሪና
የማራቶን
የማር
የማርሃሺ
የማርሻል
የማርቆስ
የማርቱ
የማርቲን
የማርክሲዝም
የማርክስ
የማርያም
የማርያምን
የማሰብ
የማሳቹሴትስ
የማስተላለፍ
የማስተማሪያ
የማስተማር
የማስተርስ
የማስተናገድ
የማስተዋወቅ
የማስተዳደር
የማስታወቂያ
የማስታውሰው
የማስወገድ
የማስጠንቀቂያ
የማስፋፋት
የማሸነፍ
የማሻሻል
የማሻሻያ
የማሽላ
የማሽን
የማቅረብ
የማቋቋም
የማባዛት
የማተሚያ
የማታ
የማታድግ
የማቴዎስ
የማትሪክስ
የማኅበሩ
የማኅበራዊ
የማኅበር
የማነ
የማነው
የማኑፋክቸሪንግ
የማኒሽቱሹ
የማናቸውም
የማን
የማንም
የማንበብ
የማንቹ
የማንነት
የማንንም
የማንኛውም
የማእዘን
የማክ
የማወቅ
የማወጅ
የማው
የማውጣት
የማውጫ
የማዕረግ
የማዕከላዊ
የማዕዘን
የማዕደን
የማዕድን
የማዖሪ
የማዘጋጀት
የማዘጋጃ
የማየት
የማያልቅ
የማያልፍ
የማያስብ
የማያስተኛ
የማያስፈልግ
የማያቋርጥ
የማያበድር
የማያባራ
የማያንሱ
የማያዋጣ
የማያውቀው
የማያውቁ
የማያውቁት
የማያውቁትን
የማያውቅ
የማያደርግ
የማያድግ
የማያጠግብ
የማይሆን
የማይለዋወጥ
የማይለዩ
የማይለይ
የማይል
የማይመለስ
የማይመልስ
የማይመስል
የማይመቱት
የማይሞት
የማይረሳ
የማይረባ
የማይሰማ
የማይሰራ
የማይሰጥ
የማይስማማ
የማይቀር
የማይቀበሉ
የማይቀበል
የማይቀና
የማይበላ
የማይበልጥ
የማይበቅል
የማይባሉ
የማይባል
የማይተማመኑ
የማይተርፍ
የማይታመን
የማይታወቁ
የማይታወቅ
የማይታዩ
የማይታይ
የማይቻል
የማይችሉ
የማይችሉት
የማይችሉትን
የማይችል
የማይናቅ
የማይንቀሳቀሱ
የማይከርመውም
የማይከፍል
የማይካድ
የማይክል
የማይክሮሶፍት
የማይዘልቅ
የማይደርሱበትን
የማይዳሰሱ
የማይድን
የማይገባ
የማይገናኝ
የማይገኙ
የማይገኝ
የማይጠፋ
የማይጨበጥ
የማይጽፍ
የማይፈርስ
የማደርገው
የማደርገውን
የማዳን
የማዳጋስካር
የማድረግ
የማድጋ
የማገልገል
የማግኘት
የማጎግ
የማጠራቀም
የማጣቀሻ
የማጣት
የማጥናት
የማጥፋት
የማጫ
የሜሪላንድ
የሜርኩሪ
የሜትሮፖሊታን
የሜክሲኮ
የሜዲትራኒያን
የሜዳ
የሜዶን
የም
የምህረት
የምህንድስና
የምለው
የምላስ
የምልክት
የምሥራቃዊ
የምሥራቅ
የምሥራች
የምሥጢር
የምረቃ
የምረታ
የምርመራ
የምርምር
የምርት
የምርጫ
የምሳሌያዊ
የምስሉ
የምስል
የምስረታ
የምስራቃዊ
የምስራቅ
የምስራች
የምስር
የምስክር
የምስጋና
የምሽት
የምበላው
የምታወጣው
የምታደርገውን
የምትለምኑትን
የምትለብሰው
የምትለው
የምትል
የምትመራ
የምትስቅ
የምትባለው
የምትባል
የምትታወቀው
የምትታወቅ
የምትኖረው
የምትኖር
የምትከናነበው
የምትወደው
የምትገኘው
የምትገኘውን
የምትገኝ
የምትጠባ
የምኒልክ
የምኒልክን
የምናውቀው
የምናየው
የምናይበት
የምናገኘው
የምናገኘውን
የምናገኛቸው
የምን
የምንለካበት
የምንለው
የምንላቸው
የምንማራቸው
የምንረዳው
የምንትዋብ
የምንግዜም
የምንጠቀምበት
የምንጭ
የምእራብ
የምክር
የምክትል
የምወደ
የምዕመናን
የምዕራቡ
የምዕራባዊ
የምዕራባውያን
የምዕራባውያንን
የምዕራብ
የምዕራብያውያን
የምዕተ
የምየንማ
የምድሩን
የምድር
የምድርን
የምድያም
የምግብ
የምጣኔ
የምጣዱ
የምጥ
የምጽራይም
የሞላ
የሞላለት
የሞላበት
የሞላው
የሞልዶቫ
የሞሪሸስ
የሞሪንጋ
የሞራል
የሞሮኮ
የሞሮኮው
የሞሳሕ
የሞስኮ
የሞቀ
የሞባይል
የሞተ
የሞተር
የሞተው
የሞተውም
የሞተውን
የሞቱ
የሞቱት
የሞቱትን
የሞታቸው
የሞት
የሞንጎሊያ
የሞንጎሊያውያን
የሞኝ
የሞኝን
የሞከሩት
የሞክሼዎች
የሞዴት
የሞገዱ
የሞገድ
የሞጣ
የሟቹ
የሟች
የሠለጠነ
የሠላም
የሠላሳ
የሠሩ
የሠሩት
የሠራ
የሠራበት
የሠራተኛ
የሠራተኞች
የሠራዊቱ
የሠራዊት
የሠራው
የሠንጠረዡ
የሠንጠረዥ
የሠው
የሠፈሩ
የሠፈሩት
የሣር
የሣባ
የሣውዲ
የሥላሴ
የሥልጣኔ
የሥልጣን
የሥሩ
የሥሩም
የሥራ
የሥራዎች
የሥርወ
የሥርዓተ
የሥርዓት
የሥነ
የሥነምግባር
የሥዕል
የሥያ
የሥያንግ
የሥጋ
የሥግር
የሦስት
የረር
የረሳ
የረቂቅ
የረዘመ
የረዥም
የረዳ
የረጅም
የረገበ
የረጋ
የሩሲያ
የሩሲያን
የሩሲያው
የሩስ
የሩስያ
የሩስያን
የሩሶ
የሩቅ
የሩዋንዳ
የሩጫ
የሪቻርድ
የሪዮ
የሪፎርም
የሪፐብሊኩ
የሪፐብሊካን
የራሱ
የራሱን
የራሱንም
የራሳቸው
የራሳቸውን
የራሴን
የራስ
የራስህን
የራስን
የራስዋ
የራሷ
የራሷን
የራሺያ
የራቀ
የራይት
የራዲዮ
የራግው
የራፕ
የሬሳ
የሬዲዮ
የሬጌ
የርሱ
የርሱን
የርስ
የርስት
የርሷ
የርቀት
የርቢ
የርዋንዳ
የርዕዮተ
የርዝመት
የሮማ
የሮማኒያ
የሮማን
የሮማንስ
የሮማው
የሮማውያን
የሮማይስጥ
የሮሜ
የሮም
የሮቢን
የሮኬት
የሮክ
የሮያል
የሰለሞናዊው
የሰለሞን
የሰለጠነ
የሰለጠኑ
የሰሊጥ
የሰላማዊ
የሰላም
የሰላምና
የሰሌዳ
የሰሎሞን
የሰሎሞንን
የሰሙት
የሰሙትም
የሰሙትን
የሰማ
የሰማሁት
የሰማሁትን
የሰማርያ
የሰማው
የሰማውን
የሰማዕታት
የሰማዕታትና
የሰማዕትነት
የሰማዩ
የሰማዩን
የሰማያዊ
የሰማይ
የሰማይና
የሰሜኑ
የሰሜናዊ
የሰሜን
የሰሩ
የሰራ
የሰራተኛ
የሰራተኞች
የሰራዊቱ
የሰራዊቱን
የሰራው
የሰርቢያ
የሰርቬይ
የሰርጉ
የሰርግ
የሰባቱ
የሰባት
የሰብለ
የሰብል
የሰብታ
የሰብአዊ
የሰብዓዊ
የሰነድ
የሰናዖር
የሰንበት
የሰዋሰው
የሰው
የሰውም
የሰውነት
የሰውነትን
የሰውን
የሰዎች
የሰዎችን
የሰዓት
የሰይጣን
የሰደደ
የሰዶም
የሰጠ
የሰጠኝ
የሰጠኸኝን
የሰጠው
የሰጠውን
የሰጡ
የሰጡት
የሰጡትን
የሰፈረ
የሰፈረበት
የሰፈረው
የሰፈሩ
የሰፈሩት
የሰፈራ
የሰፋ
የሱ
የሱልጣኔቱ
የሱመር
የሱመርና
የሱመርን
የሱሙኤል
የሱማሌ
የሱስን
የሱቁጥራ
የሱናክ
የሱን
የሱዌዝ
የሱዳን
የሱፍ
የሲ
የሲሚንቶ
የሲማሽኪ
የሲስተም
የሲሸልስ
የሲቢሊን
የሲቪል
የሲኒ
የሲኒማ
የሲና
የሲን
የሲንጋፖር
የሲኖ
የሲኪም
የሲክ
የሲዲ
የሲዲም
የሲዳማ
የሲዳሞ
የሳሆ
የሳላ
የሳመን
የሳሙኤል
የሳምራውያን
የሳምባ
የሳምንቱ
የሳምንት
የሳር
የሳርማትያ
የሳርጎን
የሳባ
የሳባውያን
የሳተላይት
የሳቸው
የሳን
የሳንስክሪት
የሳንባ
የሳክራሜንቶ
የሳውዲ
የሳዑዲ
የሳይበር
የሳይቤሪያ
የሳይንሳዊ
የሳይንስ
የሳይንስና
የሴልቲክ
የሴልጁክ
የሴሚቲክ
የሴማዊ
የሴም
የሴራ
የሴሮሕ
የሴት
የሴትና
የሴትን
የሴቶች
የሴቶችን
የሴቷን
የሴኔጋል
የሴንት
የሴኬም
የሴጥሩን
የስህተት
የስለላ
የስላቪክ
የስላቭ
የስሌት
የስልክ
የስልጠና
የስልጣኔ
የስልጣን
የስልጤ
የስሙ
የስሙም
የስሚዝ
የስሜት
የስሜን
የስም
የስምምነት
የስምንተኛ
የስምንት
የስምዖን
የስምጥ
የስራ
የስርጭት
የስቅለት
የስበት
የስብ
የስብራት
የስብሰባ
የስብስብ
የስቱዲዮ
የስታትስቲክስ
የስታንፎርድ
የስቴቱ
የስቶክ
የስነ
የስነምግባር
የስነፅሁፍ
የስንዴ
የስኮትላንድ
የስኮትስ
የስኳር
የስዊስ
የስዊዘርላንድ
የስዊዝ
የስዊድን
የስው
የስዕል
የስያሜው
የስደተኛ
የስደተኞች
የስደት
የስድስት
የስድብን
የስጋ
የስፋት
የስፓንያ
የስፔሻሊስት
የስፔኑ
የስፔን
የስፖርት
የሶማሊያ
የሶማሊያን
የሶማሌ
የሶማልያ
የሶሪያ
የሶሪያን
የሶርያ
የሶርያን
የሶስተኛው
የሶስት
የሶስትዮሽ
የሶሻሊስት
የሶሻሊዝም
የሶቅራጠስ
የሶቪየት
የሶቪዬት
የሶቬት
የሶቭየት
የሶኖራን
የሶፍትዌር
የሷ
የሷሶን
የሸማ
የሸማቾች
የሸረሪት
የሸሪፍ
የሸተውን
የሸክላ
የሸዋ
የሸዋን
የሸዋው
የሹ
የሹልጊ
የሹመት
የሹም
የሹን
የሺ
የሺህ
የሺመቤት
የሺእመቤት
የሺጥላ
የሻምሺ
የሻታውኳ
የሻንጋይ
የሻንግ
የሻዕቢያ
የሻይ
የሼክስፒርን
የሽልማት
የሽመና
የሽምቅ
የሽሮ
የሽብር
የሽቦ
የሽቦው
የሽንት
የሽንኩርት
የሽከታ
የሽግግር
የሽፈራው
የሾህ
የሾመው
የሾርባ
የሾጣጣ
የቀለለ
የቀለም
የቀልድ
የቀመር
የቀረ
የቀረበ
የቀረበው
የቀረበውን
የቀረቡ
የቀረቡት
የቀረቡትን
የቀረው
የቀረውን
የቀረጥ
የቀሩት
የቀሩትም
የቀሩትን
የቀርታግና
የቀርከሃ
የቀስት
የቀበሌ
የቀበረ
የቀበሮ
የቀበሮዎች
የቀበጠች
የቀብሩ
የቀብር
የቀነቀነ
የቀን
የቀንድ
የቀኝ
የቀዘቀዘ
የቀዝቃዛው
የቀየረው
የቀይ
የቀደመ
የቀደመው
የቀደመውን
የቀደሙት
የቀዳሚው
የቀዳማዊ
የቀድሞ
የቀድሞዋ
የቀድሞው
የቀድሞውን
የቀዶ
የቀጠለ
የቀጠለው
የቀጥታ
የቀጭኔ
የቁልቋል
የቁም
የቁረይሽ
የቁራ
የቁርአን
የቁርኣን
የቁሱ
የቁሳቁስ
የቁስ
የቁስል
የቁስጥንጥንያ
የቁሶች
የቁሶችን
የቁቤ
የቁነና
የቁንጅና
የቁጠባ
የቁጣ
የቁጥር
የቁጥሮች
የቁጥጥር
የቂርሎስ
የቂጣ
የቂጥኝ
የቃለ
የቃሉ
የቃሉን
የቃላት
የቃል
የቃይንም
የቄሳር
የቄስ
የቅሌምንጦስ
የቅማንት
የቅሪተ
የቅርስ
የቅርብ
የቅርጫት
የቅርጽ
የቅርፅ
የቅባት
የቅብጢ
የቅብጥ
የቅኔ
የቅንጅት
የቅንጦት
የቅኝ
የቅየሳ
የቅደም
የቅዱሳት
የቅዱሳን
የቅዱስ
የቅዳሴ
የቅድመ
የቅድስት
የቅድስና
የቅጂ
የቅጠሉ
የቅጠሉም
የቅጣት
የቅጥር
የቅጽል
የቅጽሎች
የቆ
የቆላ
የቆመ
የቆመው
የቆሙ
የቆሙት
የቆሞሮስ
የቆርቆሮ
የቆሻሻ
የቆየ
የቆየች
የቆየው
የቆየውን
የቆዩ
የቆዩበት
የቆዩት
የቆዳ
የቆጡን
የቆጵሮስ
የቋራ
የቋንቋ
የቋንቋው
የቋንቋዎች
የበለስ
የበለጠ
የበለጡ
የበለጸገ
የበለጸገች
የበለጸጉ
የበለፀገ
የበለፀገች
የበለፀጉ
የበሉት
የበላ
የበላይ
የበላይነት
የበላይነትን
የበረሃ
የበረራ
የበረዶ
የበራ
የበሬ
የበርሊን
የበርማ
የበርበሬ
የበርካታ
የበሰለ
የበሰበሰ
የበሽታ
የበሽታው
የበሽታውን
የበቀል
የበቁ
የበቁት
የበቃ
የበቃው
የበቅሎ
የበቆሎ
የበታች
የበኒ
የበኩሉን
የበኩር
የበዓሉ
የበዓል
የበዛ
የበዛበት
የበይነመረብ
የበደሉንን
የበጀት
የበጋ
የበጌምድር
የበግ
የበጎ
የበጢሕ
የቡልጋሪያ
የቡሩሻንዳ
የቡሩንዲ
የቡርቱጋል
የቡርና
የቡርጎኝ
የቡና
የቡዲስም
የቡዳ
የቡድሂስት
የቡድሂዝም
የቡድኑ
የቡድን
የቢለን
የቢራ
የቢሮ
የቢቡኝ
የቢቢሲ
የቢዛንታይን
የቢዝነስ
የቢጫ
የባሃይ
የባህላቸውን
የባህላዊ
የባህል
የባህልና
የባህረ
የባህር
የባለ
የባለቤትነት
የባለብዙ
የባለጌ
የባሌ
የባል
የባልቲክ
የባልቴት
የባልንጀራህን
የባልካን
የባሏን
የባሕል
የባሕር
የባሪያ
የባራታርና
የባርነት
የባርያ
የባርዮች
የባሮ
የባሰ
የባሳን
የባስሊዮስ
የባስኬት
የባቡር
የባቢሎኒያ
የባቢሎን
የባቢሎንም
የባቢሎንን
የባትሪ
የባችለር
የባንቱ
የባንኩ
የባንክ
የባንግላዴሽ
የባእድ
የባይዛንታይን
የባዶ
የቤ
የቤላሩስ
የቤልጂየም
የቤልጂግ
የቤልጅግ
የቤሲክ
የቤተ
የቤተመቅደስ
የቤተሠቡ
የቤተሠብ
የቤተሰቡ
የቤተሰብ
የቤተክህነት
የቤተክርስቲያኑ
የቤተክርስቲያን
የቤቱ
የቤቱን
የቤት
የቤኒን
የቤንች
የቤንዚን
የቤንጋሊ
የቤጃ
የብሄረሰቡ
የብሄራዊ
የብሄር
የብሉይ
የብልጽግና
የብሔረሰቡ
የብሔሩ
የብሔራዊ
የብሔር
የብረታ
የብረታብረት
የብረት
የብረትና
የብሪቲሽ
የብሪታኒያ
የብሪታንያ
የብሪታንያው
የብሪታንያውያን
የብራና
የብራዚል
የብር
የብርሃን
የብርሃንና
የብርሃንን
የብርቱካን
የብርዕ
የብርጭቆ
የብሳና
የብስክሌት
የብብቷን
የብናኝ
የብዙ
የብዙዎች
የብድር
የቦሊቪያ
የቦምብ
የቦርድ
የቦብ
የቦታ
የቦታው
የቦትስዋና
የቦነስ
የቦይንግ
የቧንቧ
የቨርምላንድ
የቨርጂኒያ
የቪክቶሪያ
የቪዚጎቶች
የቪዲዮ
የቫቲካን
የቫይረሱ
የቫይረስ
የቫይታሚን
የቫይድነር
የቬርሳይ
የቬትናም
የቬኒስ
የቬክተር
የቭላድሚር
የቮላፒውክ
የቮልቴጅ
የተ
የተሃድሶ
የተለመደ
የተለመደው
የተለመዱ
የተለመዱት
የተለማ
የተለቀቀ
የተለቀቀው
የተለወሰ
የተለወጠ
የተለየ
የተለየና
የተለዩ
የተለያየ
የተለያዩ
የተለፒኑ
የተላለፈ
የተላለፉ
የተላበሰ
የተላበሱ
የተላከ
የተላከው
የተላኩ
የተላኩት
የተላክሁ
የተልባ
የተሐድሶ
የተመለሰ
የተመለሱ
የተመለከተ
የተመለከቱ
የተመላ
የተመልካቹ
የተመሠረተ
የተመሠረተበት
የተመሠረተችው
የተመሠረተው
የተመሠረተውን
የተመሠረቱ
የተመረቀ
የተመረቁ
የተመረኮዘ
የተመረጠ
የተመረጠው
የተመረጡ
የተመረጡት
የተመረጡትን
የተመራ
የተመራው
የተመሰረተ
የተመሰረተች
የተመሰረተችው
የተመሰረተው
የተመሰረቱ
የተመሰረቱት
የተመሰከረላቸው
የተመሰገኑ
የተመሳሳይ
የተመታበት
የተመታው
የተመቻቸ
የተመኘ
የተመዘገበ
የተመዘገበው
የተመዘገቡ
የተመዘገቡት
የተመደበው
የተመደቡ
የተመደቡት
የተመድ
የተመጣጠነ
የተማረ
የተማረከው
የተማረው
የተማሩ
የተማሩት
የተማሪ
የተማሪዎች
የተማከለ
የተምር
የተሞሉ
የተሞላ
የተሞላበት
የተሟላ
የተሠማሩ
የተሠሩ
የተሠሩት
የተሠራ
የተሠራበት
የተሠራው
የተሠራውን
የተሠየመው
የተረከቡት
የተረዱ
የተረዱት
የተረዳው
የተረጋገጠ
የተረጋገጠው
የተረጋገጡ
የተረጋጋ
የተረፈ
የተረፈው
የተረፈውን
የተረፈውንም
የተረፉ
የተረፉት
የተራ
የተራራ
የተራሮች
የተራቀቀ
የተራቀቁ
የተራዘመ
የተሰማሩ
የተሰማቸውን
የተሰረቀ
የተሰሩ
የተሰሩት
የተሰራ
የተሰራው
የተሰራውን
የተሰቀለ
የተሰቀለበት
የተሰበረበት
የተሰበሰበው
የተሰበሰበውን
የተሰበሰቡ
የተሰነጸጸው
የተሰናዳ
የተሰኘ
የተሰኘች
የተሰኘችው
የተሰኘው
የተሰኘውን
የተሰኙ
የተሰኙት
የተሰኙትን
የተሰወረ
የተሰየመ
የተሰየመው
የተሰየመውን
የተሰየሙ
የተሰጠ
የተሰጠው
የተሰጠውን
የተሰጡ
የተሰጡት
የተሰጡትን
የተሰጣቸው
የተሰጣቸውን
የተሳለ
የተሳሰረ
የተሳሳተ
የተሳሳቱ
የተሳተ
የተሳተፈ
የተሳተፉ
የተሳነው
የተሳካ
የተሳፈሩበት
የተስበረ
የተስተካከለ
የተስፋ
የተስፋፋ
የተስፋፋው
የተሸለመውን
የተሸለሙ
የተሸሸገ
የተሸጠ
የተሸጠው
የተሸፈነ
የተሸፈኑ
የተሻለ
የተሻለች
የተሻለው
የተሻለውን
የተሻሉ
የተሻሻለ
የተሻሻለው
የተሻሻሉ
የተሾመ
የተሾመው
የተሾሙ
የተሾሙት
የተሾሙትን
የተቀላቀለ
የተቀላቀለው
የተቀላቀሉ
የተቀመመ
የተቀመጠ
የተቀመጠበት
የተቀመጠው
የተቀመጠውን
የተቀመጡ
የተቀመጡት
የተቀመጡትን
የተቀረው
የተቀረውን
የተቀረጸ
የተቀረጸበት
የተቀረጸው
የተቀረጹ
የተቀረጹት
የተቀረፀው
የተቀሩት
የተቀሩትን
የተቀራረበ
የተቀበለ
የተቀበለው
የተቀበሉ
የተቀበሉት
የተቀበረ
የተቀበረው
የተቀቡ
የተቀባ
የተቀነባበረ
የተቀነባበረው
የተቀናቀነ
የተቀናበረ
የተቀናበረው
የተቀናጀ
የተቀየረ
የተቀየረው
የተቀደሠ
የተቀደሰ
የተቀደሰች
የተቀደሱ
የተቀዳ
የተቀዳጀችው
የተቃረበ
የተቃርኖ
የተቃኘ
የተቃዋሚ
የተቃውሞ
የተቃጠለ
የተቃጠሉ
የተቆረጠ
የተቆራኘ
የተቆራኙ
የተቆጣጠረው
የተቋሙ
የተቋቋመ
የተቋቋመው
የተቋቋሙት
የተበላሸ
የተበተኑትን
የተበታተኑ
የተበከለ
የተባለ
የተባለለት
የተባለች
የተባለችው
የተባለችውን
የተባለው
የተባለውን
የተባሉ
የተባሉት
የተባሉትን
የተባረከ
የተባረክሽ
የተባበረ
የተባበሩት
የተባባሪ
የተባእት
የተባእትን
የተባዛ
የተብራራ
የተብቃቃ
የተተረጎመ
የተተረጎመው
የተተካው
የተተገበረ
የተትረፈረፈ
የተቸገሩ
የተቻለው
የተቻላቸውን
የተነሡት
የተነሣ
የተነሣው
የተነሱ
የተነሱት
የተነሳ
የተነሳው
የተነሳውን
የተነደፈው
የተነደፉ
የተነገረ
የተነገረው
የተናቀ
የተናባቢ
የተናደደው
የተናገረ
የተናገረው
የተናገረውን
የተናገሩበት
የተናገሩት
የተናገሩትን
የተናጋሪዎቹ
የተንሰራፋ
የተንሰራፋውን
የተንቀሳቀሱ
የተንቀሳቃሽ
የተንጋደደ
የተኛ
የተከለከለ
የተከለከለው
የተከለከሉ
የተከማቸ
የተከሠተ
የተከሠተው
የተከሰሱ
የተከሰተ
የተከሰተው
የተከሰተውን
የተከሰቱ
የተከሰቱት
የተከበረ
የተከበረው
የተከበሩ
የተከበበ
የተከበበች
የተከተለ
የተከተለው
የተከተሉት
የተከተፈ
የተከታዩ
የተከናወነ
የተከናወነው
የተከፈለ
የተከፈተ
የተከፈተው
የተከፋፈለ
የተከፋፈለው
የተከፋፈሉ
የተኩስ
የተካሄደ
የተካሄደበት
የተካሄደው
የተካሄደውን
የተካተተ
የተካተተው
የተካተቱ
የተካተቱት
የተካው
የተክሉ
የተክል
የተወለደ
የተወለደበት
የተወለደች
የተወለደችው
የተወለደው
የተወለዱ
የተወለዱበት
የተወለዱት
የተወለዱትም
የተወረሰ
የተወረሰው
የተወረወረ
የተወሰነ
የተወሰነው
የተወሰነውን
የተወሰኑ
የተወሰኑት
የተወሰደ
የተወሰደው
የተወሰደውን
የተወሰዱ
የተወሳሰበ
የተወሳሰቡ
የተወከለ
የተወከለው
የተወካዮች
የተወደደ
የተወደደው
የተወደዱ
የተወዳጅ
የተወጋ
የተዋሃደ
የተዋሃዱ
የተዋህዶ
የተዋሕዶ
የተዋቀረ
የተዋቀረው
የተዋጣለት
የተዋጣላቸው
የተውጣጡ
የተዘረዘረው
የተዘረዘሩት
የተዘረጋ
የተዘረጋው
የተዘገበው
የተዘገቡት
የተዘጉ
የተዘጋጀ
የተዘጋጀው
የተዘጋጀውን
የተዘጋጁ
የተዛመደ
የተዛመዱ
የተዛመዱት
የተዛባ
የተዛወረ
የተያዘ
የተያዘው
የተያዙ
የተያያዘ
የተያያዘው
የተያያዙ
የተደረሰ
የተደረደሩ
የተደረጀ
የተደረጀው
የተደረገ
የተደረገበት
የተደረገበትን
የተደረገባቸው
የተደረገው
የተደረገውን
የተደረጉ
የተደረጉት
የተደራጀ
የተደራጀው
የተደራጁ
የተደበቀ
የተደነቀ
የተደገፈ
የተደገፉ
የተዳረች
የተድባበ
የተጀመረ
የተጀመረበት
የተጀመረው
የተጀመረውን
የተገለጠ
የተገለጠው
የተገለጸው
የተገለጹት
የተገላቢጦሽ
የተገመተ
የተገረደፈ
የተገነቡ
የተገነቡት
የተገነባ
የተገነባው
የተገነባውን
የተገነዘቡት
የተገናኘ
የተገናኘው
የተገናኙ
የተገናኙት
የተገኘ
የተገኘበት
የተገኘች
የተገኘው
የተገኘውን
የተገኙ
የተገኙበት
የተገኙት
የተገዛው
የተገደለ
የተገደለው
የተገደሉ
የተገደሉት
የተገደበ
የተጋለጠ
የተጋለጡ
የተጋራ
የተጋነነ
የተግባር
የተጎዱ
የተጎዱትን
የተጎዳ
የተጎዳው
የተጓዘው
የተጓዙ
የተጠላ
የተጠራ
የተጠራቀመ
የተጠቀመ
የተጠቀመበት
የተጠቀመው
የተጠቀሙበት
የተጠቀሙት
የተጠቀሰ
የተጠቀሰው
የተጠቀሰውን
የተጠቀሱ
የተጠቀሱት
የተጠቀሱትን
የተጠቁ
የተጠቃ
የተጠቃሚ
የተጠቃሚዎችን
የተጠቃውን
የተጠበሰ
የተጠበቀ
የተጠበቀው
የተጠበቁ
የተጠነሰሰው
የተጠናቀቀ
የተጠናቀቀው
የተጠናከረ
የተጠጋ
የተጣለበት
የተጣለው
የተጣለውን
የተጣመመ
የተጣራ
የተጨመረው
የተጫነ
የተጫወተ
የተጫወተው
የተጻፈ
የተጻፈለት
የተጻፈበት
የተጻፈበትን
የተጻፈው
የተጻፈውን
የተጻፉ
የተጻፉት
የተጻፉትን
የተፃፈ
የተፃፈው
የተፃፈውና
የተፃፉ
የተፈለፈ
የተፈለፈለ
የተፈረመ
የተፈረደባቸው
የተፈሪ
የተፈቀደ
የተፈታ
የተፈጠረ
የተፈጠረበት
የተፈጠረው
የተፈጠረውን
የተፈጠሩ
የተፈጠሩት
የተፈጥሮ
የተፈጨ
የተፈጸመ
የተፈጸመው
የተፈፀመው
የቱ
የቱማል
የቱሩኩ
የቱሪስት
የቱሪዝም
የቱርኪክ
የቱርክ
የቱርክን
የቱርክኛ
የቱርኮች
የቱትሞስ
የቱኒዚያ
የቱን
የቱዋጣ
የቲማቲም
የቲራስ
የቲቤት
የቲያትር
የቲገርናቅ
የታላቁ
የታላቅ
የታላቋ
የታመመ
የታመሙትን
የታመቀ
የታመነ
የታማኝ
የታሪካዊ
የታሪክ
የታሪክና
የታራ
የታሰረ
የታሰሩ
የታሰሩት
የታሰበ
የታሰበው
የታቀደ
የታቀደው
የታቀደውን
የታቦር
የታቦት
የታተመ
የታተመው
የታተሙ
የታችኛ
የታችኛው
[...]
