!
"
#
##0
##1
##10
##11
##12
##13
##14
##15
##16
##17
##18
##19
##2
##20
##21
##22
##23
##24
##25
##26
##27
##28
##29
##3
##30
##31
##32
##33
##34
##35
##36
##37
##38
##39
##4
##40
##41
##42
##43
##44
##45
##46
##47
##48
##49
##5
##50
##51
##52
##53
##54
##55
##56
##57
##58
##59
##6
##60
##61
##62
##63
##64
##65
##66
##67
##68
##69
##7
##70
##71
##72
##73
##74
##75
##76
##77
##78
##79
##8
##80
##81
##82
##83
##84
##85
##86
##87
##88
##89
##9
##90
##91
##92
##93
##94
##95
##96
##97
##98
##99
$
%
&
'
(
)
*
+
,
-
.
/
0
00
000
00027
001
002
003
0045
008
01
0162
018
02
020
028
03
030
04
0440
05
051
0554
06
0617
062
0682
07
072
08
09
1
10
100
1000
10000
100000
101
102
102398
103
104
105
106
107
108
1080
109
1094
11
110
111
112
113
114
115
1156
116
1160
117
118
119
12
120
121
122
123
124
125
126
127
128
129
1296
13
130
1300
131
132
133
134
135
136
137
138
139
14
140
1400
141
1417
142
143
1430
1433
1438
144
1447
1448
145
1458
146
147
1472
1476
148
1480
149
15
150
1500
1505
151
152
153
154
1549
155
1558
156
1564
157
1579
158
1582
1586
159
16
160
1600
161
162
1623
163
164
165
166
167
1678
168
1680
17
170
1700
1701
1705
171
172
173
174
175
1753
1754
1756
1758
176
1760
1762
1763
1764
177
1775
1779
178
1781
1785
1789
179
1790
1794
1795
1796
1797
1798
1799
18
180
1800
1802
1804
1805
1806
1807
1808
1809
181
1810
1811
1812
1813
1815
1816
1817
1819
182
1820
1822
1823
1824
1825
1826
1827
1828
1829
183
1830
1831
1832
1833
1834
1835
1836
1837
1838
1839
184
1840
1841
1842
1843
1844
1845
1846
1847
1848
1849
185
1850
1851
1852
1853
1854
1855
1856
1857
1858
1859
186
1860
1861
1862
1863
1864
1865
1866
1867
1868
1869
187
1870
1871
1872
1873
1874
1875
1876
1877
1878
1879
188
1880
1881
1882
1883
1884
1885
1886
1887
1888
1889
189
1890
1891
1892
1893
1894
1895
1896
1897
1898
1899
19
190
1900
1901
1902
1903
1904
1905
1906
1907
1908
1909
191
1910
1911
1912
1913
1914
1915
1916
1917
1918
1919
192
1920
1921
1922
1923
1924
1925
1926
1927
1928
1929
193
1930
1931
1932
1933
1934
1935
1936
1937
1938
1939
194
1940
1941
1942
1943
1944
1945
1946
1947
1948
1949
195
1950
1951
1952
1953
1954
1955
1956
1957
1958
1959
196
1960
1961
1962
1963
1964
1965
1966
1967
1968
1969
197
1970
1971
1972
1973
1974
1975
1976
1977
1978
1979
198
1980
1981
1982
1983
1984
1985
1986
1987
1988
1989
199
1990
1991
1992
1993
1994
1995
1996
1997
1998
1999
2
20
200
2000
2001
2002
2003
2004
2005
2006
2007
2008
2009
201
2010
2011
2012
2013
2014
2015
2016
2017
2018
2019
202
2020
2021
2022
2023
203
2030
204
205
206
207
208
209
21
210
211
212
213
214
215
216
217
218
219
22
220
221
223
224
225
2254
226
227
228
229
23
230
2300
231
232
233
234
235
236
237
238
239
24
240
241
242
243
244
245
246
247
248
2481
249
25
250
2500
251
252
253
254
255
256
257
258
259
26
260
261
262
263
264
265
266
267
268
269
27
270
271
272
273
274
275
276
277
278
279
28
280
281
282
283
284
285
286
287
288
289
29
290
291
292
293
2931
294
295
296
297
298
299
3
30
300
3000
30000
301
302
303
304
305
306
307
308
309
31
310
311
312
313
314
315
316
3163
317
318
319
32
320
321
322
323
324
325
326
327
328
329
33
330
331
332
333
334
335
336
337
338
339
34
340
341
342
34260
34293
343
344
345
346
347
348
349
35
350
351
352
353
354
355
356
357
358
359
36
360
361
362
363
364
365
366
368
369
37
370
372
373
375
376
379
38
380
381
382
384
385
386
387
39
390
394
399
4
40
400
401
402
403
404
407
408
41
410
411
415
416
417
418
42
420
421
424
425
426
428
429
43
430
431
433
434
435
436
44
440
449
45
450
452
453
455
456
458
46
460
463
464
468
47
471
472
475
478
479
48
480
482
483
484
486
488
489
49
490
491
492
493
497
499
5
50
500
50000
501
502
503
505
507
509
51
512
514
515
518
52
520
521
53
530
53049
533
535
537
54
544
549
55
550
551
553
556
56
560
569
57
570
571
576
577
578
58
580
582
59
590
592
597
6
60
600
6000
605
608
61
613
614
615
619544
62
626
63
630
634
64
641
643
645
65
650
652
655
66
661
664
669
67
670
68
680
682
688
69
693
694
697
699
7
70
700
7000
70425
708
71
717
72
720
724
729
73
74
742
75
750
753
7555
76
7625
77
770
775
78
780
789
79
790
7903
8
80
800
8000
808
81
812
817
82
827
83
834246
84
840
846
848
85
850
85218
854
856
86
8601
861
87
872
87901
88
88009
89
896
898
9
90
900
900894
901
904524
91
910
911
92
93
93683
939
94
95
950
951
952
953
95696
957
958
96
960
963
97
975
978
98
98085
9876
98799
99
991
:
;
<
=
>
?
@
\
^
_
`
a
aa
aakhmedova
aaronsohnia
abandoned
abbr
abbreviata
abbreviatum
abc
abendsonne
aberrans
abies
ability
able
ablk
ablo
ablon
ablona
ablono
aboa
abondolo
abortiva
about
above
aboveclass
abovestyle
abraham
abs
abstract
abtei
abusefilter
abusefilters
ac
acacallis
acacia
acad
academy
acampe
acanthephippium
acaulis
accept
accepted
accepting
accepts
access
accessdate
accessed
accessibility
accessible
accordingly
account
accounts
accused
aceras
acerba
acerifolia
achieved
achievements
acianthera
acianthus
acicularis
acineta
acinonyx
aciopea
ackerman
ackermania
acmopyle
aconitoides
acostaea
acriopsis
acrochaene
acrolophia
across
acta
actinostrobus
action
actions
activate
active
activities
activity
actm
actualdateboundariesproperties
aculeata
aculeaticarpa
acuminata
acuminatipetala
acuminatum
acuminatus
acuta
acutiflora
acutifolia
ada
adac
adamantinensis
adams
adans
adansonia
add
addclass
added
adding
addition
additional
address
addresses
addrow
adds
adelphe
adenocarpa
adenocheilae
adenochila
adenoncos
adjust
adm
admin
administrators
admins
adnata
adrianae
advance
advanced
advancedsearch
adventures
advocate
aegean
aegirtica
aemula
aerangis
aeranthes
aerial
aerides
aesculapii
aesculus
af
afar
affect
affected
affecting
affects
affiliate
affiliates
affine
affinis
afghanistan
afr
aframomum
africa
african
africana
africano
africanus
afrikaans
after
afternoon
afterwards
afzel
ag
again
against
agama
aganisia
agapornis
agathis
age
ageimpl
agenda
aglaia
aglossorrhyncha
ago
agric
agricola
agricolan
agriculture
agriotherium
agrostophyllum
ahead
aiello
ailanthus
ailurarctos
ailuropoda
ailurus
aims
air
airport
aiton
ajania
ak
akarere
ako
al
alainii
alaska
alata
alatum
alba
albania
albertiana
albicaulis
albida
albiflora
albopurpurea
alborosea
album
alcedo
alcoquiana
aldasoro
alemania
alettiin
alexander
alexandrae
algeria
ali
alibertia
alibertis
aliciae
align
alismatifolia
all
allegro
allen
allenii
allg
allocate
allow
allowed
allows
allpropertyclaims
allsnaks
almost
alnifolia
alnus
aloisii
alongside
alopex
alp
alpestre
alpestris
alphabet
alpina
alpinia
alpinum
alpinus
alps
already
also
alstroemeria
alt
alta
altar
altensteinia
alter
although
alticola
altigena
altissima
alto
altstadt
alueen
alvaradoa
alvaroi
always
am
amabilis
amaliae
amalraj
amanensis
amanita
amazonica
ambassador
amber
ambigua
amboinensis
ambon
ambrensis
ame
amer
america
american
americana
americanus
americas
ames
amesiana
amesianum
amesiella
amitostigma
amk
amoena
among
amount
amparoana
amplectens
amplexicaulis
amplifolia
amsterdam
an
ana
anacamptis
anacardiaceae
analysis
anathallis
anatolica
anceps
anchorencode
ancipitia
ancistrochilus
ancistrorhynchus
and
andelnans
anden
anderson
andersson
anderssonii
andra
andre
andreetta
andreettae
andrews
andringitrana
androcorys
androglossini
android
andy
ane
anexos
anfiteatro
anfracta
anfractum
angela
angeli
angle
angolensis
angraecopsis
angraecum
angulata
anguloa
angulosa
angusta
angustata
angustifolia
angustifolius
angustilabia
angustilabris
animal
animated
animation
ankara
ann
annae
annamensis
annona
announce
announced
announcement
announcements
annual
annulata
anodorhynchus
anoectochilus
anomala
another
ansellia
ansicht
answer
antarctica
antennata
antennifera
anthoceros
anthodiscus
anthracina
anthrax
anthropophora
anti
antill
antilla
antiochiana
antioquiensis
antiquity
any
anyone
anything
aonyx
aorchis
apex
apg
aphelandra
aphrodite
aphylla
api
apicula
apiculata
apifera
apis
apoda
apollinaire
apollo
apologies
apologize
aporoides
apostasia
app
appear
appearance
appeared
appears
appendicula
appendiculata
appendimpl
appendqualifiers
appendsnaks
applanata
applicable
applicants
application
applications
apply
appreciate
appreciated
approach
approaches
appropriate
approximately
apr
april
apulica
ar
ara
arabian
arabic
arachniformis
arachnis
arachnites
arachnitiformis
arachnitis
aral
aralia
aramaic
araneola
aranifera
arashiyama
aratinga
araucaria
arbitrary
arbor
arborea
arborescens
arbuscula
arch
archive
arctata
arctic
arctodus
arctos
arctotherium
arcuata
ardo
are
area
areas
aren
arenaria
arenas
arenes
arenicola
arenosa
arethusa
arfakensis
arg
argentaria
argentata
argentea
argentina
argname
argolica
args
argsi
argskey
argsname
argtables
argtableval
argument
arguments
aria
ariasii
arini
aristata
arizonica
ark
arkisto
armandii
armenia
armeniaca
armenian
arms
army
arn
arnaldoa
arnold
aromatica
around
arq
arr
arranensis
arrange
array
arrival
arrives
ars
art
arthur
article
articles
articulata
artists
arts
arunachal
arundinacea
arxiv
as
ascendens
ascidieria
ascocenda
ascocentrum
ascoglossum
asema
asemanseutu
asia
asian
asiat
ask
asked
asking
asks
aspasia
aspects
aspera
asperata
asperula
aspidogyne
assam
assamese
assertnotnull
assign
assigned
assistance
associate
association
aster
asteriscus
asti
astronium
astronomy
asv
at
athletes
athrotaxis
atlantica
atra
atrata
atropurpurea
atropurpureum
atrorubens
attacus
attaviria
attend
attended
attention
attenuata
atthis
attica
attingens
attr
attribute
attributes
atwood
atwoodii
au
aubl
auct
aucuparia
audience
audio
auf
aug
august
aulosepalum
aurantiaca
aurantiacum
aurantiacus
aurata
aurea
aurelia
aureum
auriculata
aurita
aurora
aurorae
aus
austral
australasica
australe
australia
australiensis
australis
austria
austrobaileya
author
authors
auto
autofill
automagical
automated
automatic
automatically
autovalue
autumnalis
auxopus
av
availability
available
aveniformis
aver
average
averrhoa
averyanova
aveyronensis
avicennia
avis
aviv
avoid
award
aware
aymoninii
ayuntamiento
az
azerbaijani
azerbaiya
azurea
b
ba
babel
baby
back
background
backtranslate
backward
bad
badia
bahamensis
bahi
bahia
bahiensis
bahir
bahorucensis
bailey
baill
baker
bakh
bal
balance
balanops
balansae
baleares
balf
balfouriana
baliensis
balkan
ballatrix
ballet
balsamea
balsamorhiza
ban
band
banghamii
bangii
bank
banks
banksia
banksii
banner
bans
baobab
baptista
bar
barb
barbae
barbata
barbatus
barbosella
barbulata
bare
barkeri
barkeria
barlia
barneby
baron
baronii
barretto
barriers
barros
bars
bartholina
bartl
base
based
baseline
baseresult
basestyle
basi
basic
basilika
basiphyllaea
basis
baskervilla
bassel
bastianii
bat
bateman
batemannia
bates
bathiei
battandieri
battle
baumann
baumanniana
bay
bbg
be
beach
bear
beautiful
because
becc
beccarii
becerra
beck
become
bee
been
beethoven
before
begin
beginning
begins
begun
behalf
behavior
behaviour
beheimatet
behind
behrii
bei
beih
beijing
beilstein
being
beinn
beissn
belfort
belg
bell
bella
bellied
bells
beloglottis
belongs
below
belowclass
belowstyle
ben
bengal
bengali
benin
benn
bennettii
benth
bentham
benthamia
benzingii
ber
bergia
bergonii
bergtocht
beringei
berkenzwam
berli
berlin
bernaysii
bertolonii
bertoloniiformis
berwa
beshanzuensis
best
bet
beta
better
betula
betulinus
between
beyond
beyrichii
beyrodtiana
bg
bhatta
bhattacharjee
bhutan
bhutanica
bi
biancae
bianch
bibliographic
bicalliata
bicallosa
bicallosum
bicarinata
bicolor
bicornis
bicornuta
bicornutum
bidentata
bidupensis
bidwillii
bieb
bifalcis
bifida
biflora
bifolia
bifrenaria
big
bigger
biggest
bijdr
bilineata
billed
billion
billy
biloba
bilobulata
bilunulata
bimucronata
bingen
binotia
biographies
biol
biology
bipinnata
bipinnula
bird
birgit
birthday
biscutella
bishop
bismarck
bissei
bit
biv
bivalvis
bjo
bl
black
blanco
blank
blatt
blaubeuren
blender
bletia
bletilla
bleyensis
blick
block
blocker
blocks
bloem
bloemknoppen
blog
blue
blues
blume
blumea
blumei
blumenzeitung
bn
bnf
bo
board
boat
bock
boda
body
bodyclass
bodystyle
bog
bogor
bogoriensis
boiss
bojer
bokchoonara
bol
bolivia
boliviana
boliviensis
bolus
bolusiana
bomarea
bomb
bombyliflora
bonasia
bonn
bonnet
bonpl
bonplandia
book
bookmark
bookseries
bookseriesentity
bookseriesissue
bookseriesvolume
boolean
borbonica
border
borealis
borhidi
borneense
borneensis
borneo
bornm
bornmuelleri
borough
bosna
bosnia
bosser
boston
bot
botanic
both
bots
botsuana
botswana
bottom
boundaries
bouvardia
box
boxes
boy
bprecision
br
bra
braccata
brachiata
brachiatum
brachiloba
brachionidium
brachycalyx
brachycarpa
brachyceras
brachychiton
brachycolumna
brachypetalum
brachypeza
brachystele
bracteata
bracteatus
bracteosa
bractescens
brade
bradea
bradei
bradypus
branch
brand
brandegee
bras
brasil
brasiliense
brasiliensis
brassavola
brassia
brassii
brazil
brazilian
break
breaking
breaks
breda
bremek
brenesia
brenesii
brenneri
breton
brevicaulis
breviflora
brevifolia
brevilabris
brevipedunculata
brevipes
brevipetala
brevis
breviscapa
bridge
bridson
brieger
brighter
brighton
bring
brit
britannica
british
britton
broken
bromheadia
brongniart
brooklyn
broughtonia
brown
browne
brownii
brownleea
browser
browsers
bru
brumalis
brunnea
brunnescens
brussels
brutia
bryceana
bs
bst
bstructure
btable
bu
bubo
bucarest
buch
buchananii
buchtienia
buchtienii
budapest
budget
bug
bugesera
bugs
bugzilla
build
builder
building
built
buitenzorg
bulbocodioides
bulbophylloides
bulbosa
bulgaria
bull
bullock
bungeana
bunker
burera
burg
burkart
burm
burmanniana
burns
burseraceae
burtii
buruensis
burundi
busasamana
bush
business
but
butantan
butcheri
button
buttons
buzau
bvalue
bw
by
byl
byrne
c
ca
cabassous
cabo
cacatua
cacatuidae
cache
cached
cadellia
cadetia
caerulea
caesarea
caesia
caespitosa
caffer
cake
caladenia
calantha
calanthe
calanthoides
calatayud
calathea
calcarata
calceolaris
calceolus
calcicola
calculatedage
caldensis
caleana
calendar
california
californica
californicus
call
called
calliantha
calling
callitris
callitropsis
callosum
calocedrus
caloglossa
calophylla
calophylleae
calophyllum
calopogon
caluromys
calypso
calypsus
calyptrochilum
cambridge
camera
cameroon
camp
campacci
campaign
campanulata
campbell
campbellii
campestris
campos
campylocentrum
campynemanthe
camus
can
canad
canada
canadensis
canadian
canal
canaliculata
canaliculatum
canariensis
canary
cancel
candica
candida
candidacy
candidate
candidates
candidum
candollei
caniceps
caniche
canis
canna
cannot
cant
canterbury
canthium
caparaoensis
cape
capensis
capillaris
capital
capitata
capitol
caprina
captcha
caption
captions
capuron
caracal
caraipa
card
cardamomum
cardinalis
cardiophylla
cards
caribaea
caribbean
carica
caricifolia
carinata
carinifera
carlottae
carnea
carnevali
carnivora
carnosifolia
carnosula
carolinensis
carpathians
carr
carrera
carrii
carsonii
caryocar
casa
casasia
case
cases
cassipourea
cast
castanea
castillo
castle
castro
casualis
casuarina
cat
catalan
catalaunica
catalpa
catambiguousgeochains
catarina
catasetum
cate
catedral
categori
categoria
categorie
categories
categorizebyplace
category
categorylinkstoentitieswithmissinglabel
categorynameprefix
categoryunknowndeathdate
catentity
catentityid
cathcartii
cathedral
catling
catma
catmain
catmore
catopuma
cattleya
catwikibaseerror
caucaea
caucasica
caucasus
cauda
caudata
caudatum
caudatus
caularthron
caulescens
cauliflora
caused
cav
cayman
cazorlensis
cc
cd
ce
ceciliae
cedrus
cee
ceiling
celebensis
celebica
celebration
cell
cells
cembra
cembroides
cemetery
cenisia
center
centeralt
centers
central
centralbl
centralnotice
centre
centro
centroame
cephalanthera
cephalantheropsis
cephalanthus
cephalonica
cephalotes
cerastes
ceratandra
ceratostylis
ceremonies
ceremony
ceriagrion
cerina
cernua
certain
cesmeensis
cest
cf
cgi
ch
cha
chacoensis
chaetophractus
chair
challenge
cham
chamaecostus
chamaegastrodia
chamaemespilus
chameleon
champaca
chan
chance
change
changed
changer
changes
changing
channel
chapaensis
chapm
character
characters
charge
charlesworthii
charlotte
chartacea
charter
charts
chase
chaubardia
check
checking
checks
checktype
cheers
cheeseman
chehaibar
cheilocostus
cheirostylis
chelonistele
chemistry
chen
cheng
chensiensis
cherry
chestermanii
chev
chevalieri
chi
chiapas
chiapensis
chicago
chicken
child
chile
chiloglottis
chilopogon
chiloschista
chimaera
china
chinensis
chinese
chiriquensis
chiron
chiroptera
chlamyphorus
chloraea
chlorantha
chlorina
chlorocebus
chloroleuca
chlorops
chobe
chocoensis
chocolate
choice
chondrorhyncha
choose
choosing
chopin
chorraum
chosen
christ
christchurch
christenson
christensonii
christmas
christopher
chron
chrysantha
chrysanthemum
chrysobalanus
chrysocycnis
chrysoglossum
chrysolepis
chto
chugach
church
chysis
chytroglossa
ci
ciliaris
ciliata
ciliatus
cilicica
ciliolata
cinderella
cinerea
cingulata
cinnabarina
cinnabarinum
cinnamomum
circa
circle
circumflexa
circumstance
circumstances
cirrhaea
cirrhopetalum
citation
citations
cite
citeref
citharexylum
cities
citoid
citrina
citrus
city
civilians
ckbr
cke
ckel
ckoerner
clade
claim
claims
claimspropertyid
clandestina
clareae
clarke
clarkei
class
clausa
clavata
clavicornis
clavigera
clear
clearer
cleisocentron
cleisostoma
cleistes
cleistogama
clem
clemensiae
click
clicked
clicking
clifford
cliftonii
climat
climate
clock
cloes
cloesii
clone
cloneoptions
close
clouds
clowesia
clowesii
club
clusia
clusiella
cluster
cm
cmp
cn
cneoraceae
co
coast
coat
coccinea
coccineorchis
coccineum
cochinchinensis
cochleanthes
cochlearis
cochleata
cochlioda
cocos
code
codemirror
codonorchis
codonosiphon
coelia
coeloglossa
coelogyne
coerulea
coffee
cog
cogn
coilostylis
coleman
colemanii
colenso
colla
collaborate
collapsed
colleagues
college
colleyi
collina
cologne
colombia
colombiana
colon
colony
color
colorata
colossus
colour
colspan
colubrina
columbia
column
columnaris
columns
com
comayaguensis
comber
combine
combined
come
comet
comfortable
coming
comm
command
commands
commas
comme
commemo
comment
comments
commit
committee
common
commons
commonsmedia
communicate
communication
communis
communities
community
communityhealth
comosa
compact
compacta
compan
companion
compare
comparettia
comparison
compat
competition
complaints
complete
completed
completely
complex
composita
composite
compressa
compressicaulis
computer
comu
con
concat
concatenated
concava
conceptual
concerns
concert
concinna
concolor
condition
condorensis
conduct
conference
conferta
config
configuration
confirmed
conflict
conflicting
conflicts
confusa
confusum
congesta
congo
congratulations
congressus
conjunction
connata
conopsea
conradiae
conran
cons
consensus
consider
consideration
consistent
conspersa
constraints
constricta
constructive
consultation
consultations
contact
contacts
contain
containing
contains
content
contentlanguagecode
contents
contes
contest
context
continue
contorta
contr
contribute
contributing
contributions
contributor
contributors
control
controlled
convallariiforme
conversation
conversations
convert
converted
convexa
convoluta
cook
cookie
cooperation
cooperi
coord
coordinate
coordinates
coordinatespec
coordinator
coords
copied
copper
copy
copyargstosnaks
copyright
copyto
coracias
corallorhiza
cordata
cordem
cordifera
cordifolia
cordigera
cordilabia
core
coreana
coriacea
coriophora
coripatae
corneliana
cornelius
corner
corneri
corniculata
cornuta
cornutula
coronaria
coronarium
coronavirus
correa
correct
corrected
corrections
correctly
correll
corresponding
corse
corsia
corticicola
coryanthes
corybas
corycium
corylus
corymborkis
corymbosa
corythornis
cosmic
cosmos
costaricense
costaricensis
costata
costus
cot
could
coulteri
count
counting
countries
country
countryentity
countryentityid
countryflags
countryoptions
county
couple
course
court
cover
covid
cp
crabronifera
cracens
craib
crassa
crassicaule
crassicaulis
crassicornis
crassiflora
crassifolia
crassifolium
crassilabia
cream
create
created
creating
creation
creative
creek
cremasta
cremastra
crenata
crenulata
crete
cretensis
cretica
crew
cribb
crimea
crinita
crinitum
crispa
crispum
cristalensis
cristata
cristatum
cristatus
cristo
criteria
critical
croacia
croatia
croatii
crocodeilanthe
crocodiliceps
croix
crop
cropped
cross
crossing
cruciforme
cruenta
cruz
cryptantha
cryptarrhena
cryptocentrum
cryptomeria
cryptonanus
cryptophoranthoides
cryptostylis
cs
csa
csd
cseremisz
css
csstext
ctenanthe
ctenolophon
cu
cuatrec
cuba
cubensis
cucullata
cucullatus
cuisine
culminicola
cultivar
cultural
culture
cumi
cundinamarcae
cuneata
cunn
cunninghamia
cunninghamii
cup
cupania
curcuma
curranii
current
currententity
currently
cursor
cursoring
curtisii
curviflora
cuspidata
cuspidatus
cusset
custom
customize
customizing
customtitle
cut
cv
cy
cyanaeorchis
cyanea
cyanika
cyathigerum
cyclochila
cyclopogon
cycnoches
cygnus
cylindrica
cymbidiella
cymbidifolia
cymbidium
cynaroides
cynocephalus
cynorkis
cypelligera
cypripedioides
cypripedium
cyprus
cyrtopodium
cyrtostylis
czech
d
da
dabeshanensis
dacrydium
dactylorhiza
dahlem
dahlia
daiss
dalatensis
dalessandroi
dallas
dallol
dalstro
dalstroemii
dalzell
dame
damselfly
dan
dance
dancers
dances
danesch
daniel
dansk
dar
dark
dart
darwin
das
dasyphylla
dasypus
data
datacell
datastyle
datatype
datatypes
datavalue
date
dateclaims
dateofcreation
dateofpublication
datepart
dates
david
day
dayanum
days
daytime
dc
dd
de
dea
dead
deadline
dear
death
debilis
debruyneara
debt
debussy
dec
december
decide
decidua
decimal
decipiens
decision
declaration
decora
decrease
decumbens
decurrens
decussata
deepcopy
default
defaults
define
definitions
deg
degrees
del
delavayi
delay
delete
deleted
deletion
delforge
delhierroi
delicatula
delile
delivered
delivery
delphinensis
delta
deltoglossa
deltoidea
dem
demissa
demo
democracy
demonstration
den
dendrobium
dendrochilum
dendrohyrax
dendrophylax
deningeri
denis
denmark
denny
densa
densata
densiflora
densiflorum
densiflorus
dentata
dentatum
denticulata
denticulatum
dentifera
denudata
department
depauperata
depend
dependens
depending
dependvalue
deploy
deployed
deploying
deployment
deployments
deppei
deprecated
der
dera
derby
des
descent
described
describing
description
descriptions
descriptive
desde
desf
desierto
design
designed
designers
desired
desktop
desna
detail
details
detected
detecting
determine
determined
deutschland
deva
develop
developed
developer
developers
development
device
devices
devillers
devoniana
dewildei
di
dialog
dialogs
diamonds
dianica
dichaea
dichotoma
dichroma
dichromanthus
dictionary
did
didactylus
didelphis
didn
didyma
didymoplexis
die
diels
dietr
diff
differ
difference
different
difficult
diffs
diffy
digital
digitata
dil
dilatata
dili
diliff
dimidia
diminuta
dimocarpus
diodia
diplocaulobium
diplotricha
dipodium
dipterocarpus
dir
direct
direction
directional
directly
disa
disable
disabled
disambig
disambiguation
disaster
disc
dischorensis
discifera
discoidea
discolor
discophylla
discover
discuss
discussion
discussions
disperis
display
displayed
displaying
displays
displaytitle
disruption
dissemination
distance
distans
disticha
distichum
distribute
district
diuris
div
divaricata
diverse
diversity
dji
dk
dlya
dm
dmitry
dms
dna
do
doc
dockrill
dockrillia
document
documentary
documentation
documents
dod
dodekanensis
dodii
dodson
dodsoniana
dodsonii
does
doesn
dog
doi
doing
dolens
dolichopus
doltsopa
dom
domain
dombeya
domestica
domin
domingensis
domingoa
dominican
don
done
donepairs
dong
donn
doritaenopsis
doritis
doteli
double
dowiana
down
downie
dozen
dprecision
dr
dracontia
dracula
draft
drafting
drafts
drag
dragging
dragon
drakaea
drake
drakensberg
drawing
draws
dream
dresden
dressler
dresslerella
dressleri
dressleria
driessenii
drinking
drone
drop
dropdown
dropped
druce
drumana
drumm
drummondii
dryadum
drymoanthus
drymoda
drymophila
drz
dsb
dsc
dsee
dstructure
dtable
du
duartei
dubia
ducampopinus
ducke
duckeella
duclouxii
due
duisburg
dumort
dunst
dunstervillei
dunstervilleorum
duperreana
duplex
duque
dura
durand
durangensis
duranta
during
durio
dusenii
dusk
dutch
dutra
dutrae
dvalue
dyke
dyris
e
each
eagle
eared
earina
earlier
early
earth
easier
easily
east
eastern
easy
eat
eating
eau
eburnea
eburneum
ec
ecalcarata
ecallosa
echinacea
echinata
echinocarpa
eclipse
econ
ecornuta
ecuador
ecuadorana
ecuadorense
ecuadorensis
ed
edentulum
edinburgh
edison
edit
edited
editing
edition
editor
editors
edits
eds
edt
eduardogobi
education
educational
edulis
edvard
edward
edwards
edłoga
edłoha
eea
een
eesti
effect
effects
effort
effusa
egertonianum
egg
egret
ehem
eiffel
eight
einer
either
ejo
ekmanii
el
ela
elata
elatine
elatior
elatum
elatus
election
elections
electricity
electronics
elegans
elegantula
element
elements
eleonorae
eleorchis
elephants
elettaria
eli
eliasii
eligible
elina
elitre
elizabeth
elleanthus
elliottii
elliptica
ellis
elmeri
elmna
elo
elongata
elongatia
elongatum
elongatus
else
elseif
em
email
emarginata
emaus
embreea
embreei
emeiensis
emergency
empty
emu
en
enable
enabled
enabling
enallagma
enciclopedia
enclosed
encourage
encyclia
encyclopedia
encyclopædia
end
endangered
endara
ende
ending
endl
endodesmia
endres
endresii
ends
enemy
energy
enforce
enforceable
enforcement
engagement
engelm
engelmannii
engine
engineer
engineerguy
engineering
engl
england
engler
english
enhance
enhancement
enjoy
enobarbia
enpa
ensata
ensifolia
ensure
entities
entity
entityid
entityoptions
entriestolookupcategory
entry
environment
environments
eo
ephippium
epibator
epiblastus
epidendrum
epigeneium
epipactis
epipactoides
epiphyticus
epipogium
episcopalis
epistephium
eps
equestris
equi
equinum
equus
er
erecta
erectiflora
eria
ericales
erinacea
eriochilus
eripov
eritrea
erl
ermita
ernestii
ernstia
erosa
error
errors
erubescens
eruption
erythroxantha
es
esa
escapepattern
escobar
escobariana
escobarii
esmeralda
esmeraldae
esocast
espan
especially
especie
espejo
essential
esserteauiana
est
estado
estados
estatal
estonia
estonian
estradae
estrellensis
et
etc
etela
ethiopia
ethnologue
etlingera
eu
eugenii
eulophia
eulophiella
eumecocaulon
euphronia
eupomatia
eupomatiaceae
eurocantica
europa
europe
european
europeans
eurychone
euterpe
euxina
eva
evaluate
evaluated
evaluation
evalwikimediaorg
evelyniana
even
evening
evenodd
event
events
eventually
ever
every
everybody
everyone
everything
evidence
evolution
evrardii
ex
exaltata
example
examples
excavata
excelsa
except
excited
excude
exercise
exigua
exilis
eximia
exist
existent
existing
exists
exoplanets
expanded
expanding
expandspecialsqualifiers
expandtemplate
expansa
expansum
expect
expected
experience
experienced
experiences
experiment
experimental
experiments
explains
explanata
explorer
exploring
expo
express
expression
extended
extension
extensively
external
extra
eye
eyed
eylesii
ez
f
fa
faberi
fabiobarrosii
fabrei
fabri
facade
facebook
facilitating
factor
facts
fagaceae
fagales
faint
fairy
falcata
falcatifolium
falcatus
falcon
fallax
falls
false
falsely
famberhorst
family
familya
familycolor
fan
faq
far
fargesii
fargs
farinosa
farjon
farm
farmer
farreri
fasciata
fasciculata
fashion
fassett
faster
fastest
fastigiata
fastuosa
fat
fauriei
favorite
fawc
fci
fdc
fe
feature
featured
features
feb
february
federation
feedback
feel
feels
felder
feldweg
felis
female
feminism
femlabels
fenno
fenzl
ferdinandii
ferox
ferr
ferruginea
ferrum
ferus
festival
festivals
fete
few
fff
fg
fi
field
fields
fifa
fig
filamentosa
file
fileexporter
fileimporter
files
filifolia
filiformis
fill
filled
film
filter
filterbylanguage
filterbyrank
filtercapitalof
filtered
filteredclaims
fimbriata
fimbriatum
final
finally
find
findclaimsbyvalue
findings
finds
finet
finished
finisterrae
finland
finlaysoniana
finnisch
finnish
finno
fire
fireworks
firma
firmiana
first
fisch
fish
fishing
fissa
fitzg
fitzgeraldii
five
fix
fixed
fixing
fl
flabellata
flabelliformis
flac
flaccida
flag
flagbegindate
flagellaris
flagimage
flagimagestatement
flags
flagstarttime
flammea
flava
flaveola
flavescens
flavicans
flaviflora
flavum
fleischm
fleischmannii
flexilis
flexuosa
flickingeria
flickr
flight
float
floor
flora
floribunda
florida
floridana
floridanus
florin
florum
flow
flower
flowers
flu
fluminensis
fly
fm
fo
focke
focus
focused
foetida
fog
foldats
folders
foliata
foliosa
folk
folklore
follow
following
follows
font
fontstyle
food
fooentity
footage
footnotes
for
forbes
forbesii
force
forcipata
fordii
forest
form
formal
format
formatcommonsmedia
formatdatavalue
formatentityid
formatexternalid
formatnum
formatplacewithqualifiers
formatproperty
formatpropertydefault
formatpropertywithmostrecentclaimandindicator
formatrefs
formatsnak
formatstatement
formatstatementdefault
formatted
formattedclaims
formattedstatement
formatter
formattest
formatting
formaturlimpl
formaturlsingle
formdate
formerly
formicifera
formosa
formosana
formosanus
formula
formulæ
forrester
forrestii
forssk
forst
fort
fortress
fortunae
fortunella
forum
forward
foster
fosteri
found
foundation
fountain
fouquieria
four
fowlie
fps
fr
fract
fractal
fractiflexa
fragilis
fragrans
frame
frameless
franc
france
franch
francisco
frankfurt
frantsii
frapp
fraseri
free
freedom
freezes
freiburg
freight
french
frequently
frey
frhdkazan
frica
friday
friedmann
friendly
fritillary
fritz
frog
from
front
fru
fruit
fruticosa
fu
fuchsii
fuciflora
fuente
fukuy
fulgens
full
fullname
fully
fulva
func
function
functionality
functions
functiontocall
fund
fundamental
funding
funds
funerea
funk
funkiella
furcatipetala
furcifera
fusca
fuscata
fusiformis
future
g
ga
gadget
gadgets
gaertn
gagnep
gakenke
gala
galanga
galaxy
galeandra
galearis
galeata
galeatum
galeola
galeotti
galeottiana
galerita
galictis
galleries
gallery
gallica
gamble
game
games
gandhi
gap
garay
garayana
garayi
garcinieae
gard
garden
gardens
gardner
gardneri
gardnerianum
garganica
gart
garten
gas
gasabo
gastrochilus
gate
gather
gathering
gatsibo
gaudich
gaussen
gautierensis
gave
gawl
gay
ge
gear
geelvinkensis
geerinck
gehrtii
gel
gelaltar
geminata
gemma
gen
gender
gene
general
generate
generated
geniculata
geniez
genitivusmonthesnm
genitivusmonthesom
gentryi
genus
genychila
genyorchis
geo
geobot
geographical
geography
geophyte
george
georgei
georgia
georgii
gerais
gerardiana
gerlach
german
germanii
germany
gert
get
getabovebelowcolspan
getargnums
getargs
getattr
getboolean
getcategory
getcode
getcontentlanguage
getcurrentframe
getcurrenttitle
getdate
getelementlink
getentity
getlabel
getlabelwithlang
getlangcode
getmetatable
getparameters
getparent
getparentsinboundariessnakimpl
getpeopleaswikitext
getpersonnameaslabel
getpropertydatatype
getpropertyparams
gets
getsingle
getsinglestringqualifiervalue
getsitelink
getsourcingcircumstances
gettimeboundariesfromqualifier
getting
gettitle
getuserfunction
gewo
ggbo
ghana
gharakhanyan
ghillanyi
gi
giant
gibbosa
gibbs
gibbsiae
gicumbi
gif
gigantea
giganteum
gigas
gilbertoi
gilli
ginkgo
giovanni
girl
gisagara
gishari
githaginea
give
given
giving
gj
gje
gjellerupii
gl
glaberrima
glabra
glabrata
glabrescens
glabrum
glacensis
glaciar
glacier
gladioliflora
glandulifera
glanduligera
glandulosa
glass
glauca
glaucescens
glaziovii
gleason
glider
global
globalframe
globe
globifera
globosa
globosus
glomera
glossary
glossodia
glumacea
glumaceum
glutinosa
gmatch
gmelinii
gnd
go
goal
goals
god
godferyana
going
gold
golden
golesta
gomesa
gomphichis
gonc
gone
gongora
gonza
gonzalezii
good
goodflag
goodyera
goodyeroides
google
gora
gordonia
gorie
gorilla
got
goupia
gov
govenia
governing
government
gp
gr
gra
grab
gracile
gracilenta
gracilicaulis
gracilinanus
gracilipes
gracilis
gracilisepala
gracillima
gracillimum
gradually
graeca
graham
grahamii
graminea
graminifolia
graminifolium
graminoides
grammatik
grammatophyllum
gran
grand
grande
grandiflora
grandiflorum
grandiflorus
grandifolia
grandis
granitica
graniticola
grant
granted
grants
granulosa
graphs
grasshopper
grateful
gratiosa
gravend
graveolens
gray
grayumii
great
greater
greece
green
greenm
greenw
greenwoodiana
greetings
greggii
gregorii
gregory
gren
grether
greuter
grey
griechenland
griff
griffithii
griseb
grisebach
grisebachiana
gro
grossa
ground
group
groupcell
groups
groupstyle
groupwidth
grown
growth
gsater
gsub
gu
guadalajara
guadeloupe
guangxi
guarantee
guard
guarianthe
guaruba
guatemala
guatemalensis
guerrero
guettarda
gui
guiana
guianensis
guide
guidelines
guihaia
guilandinae
guillaumin
guimaraensii
guinea
gulo
gumprechtii
gustavii
guttata
guy
guyana
gymnadenia
gymnopedie
h
ha
habenaria
haberi
hackathon
had
haematochila
hagsatera
hagsateri
hainan
hainanensis
hairy
haiti
haitiensis
hakka
halan
halconensis
halepensis
halesia
half
halford
halia
halisten
hall
halle
hallier
halloween
hallstatt
ham
hamata
hamburg
hamburger
hamelia
hamer
hamilton
hamiltonii
hamwe
han
hance
hand
handel
handle
handling
hands
hangout
hanno
hannover
hapalorchis
haploclathra
happen
happens
happy
har
harassment
harbour
hard
haren
harju
harms
harpago
harpophylla
harrowiana
hartwegii
harv
harveyana
has
hasadditionalqualifiers
hash
hashim
haslamii
haspreferred
hasselblatt
hassk
hassl
hasta
hastata
hastifera
hatch
hatschbachii
hauman
hauptbahnhof
haus
hausdu
hautz
have
haven
having
hawk
hawkes
hayata
hayekii
hd
hdr
he
head
headed
header
headings
health
healthy
hear
heart
hebes
hebrew
hedl
hedychium
heide
heikkila
heikola
heilig
heiligengrabe
heiliggrabkapelle
heininen
helarctos
held
heldreichii
helenae
heliconia
heliconiscapa
helios
helle
helleborine
heller
helleri
hello
helmutii
help
helped
helper
helpful
helping
helps
helsingfors
helsinki
helvi
hemipilia
hemirhoda
hemisphaerica
hemisphere
hemsl
hend
henrici
henricii
henriquezia
henry
henryi
her
herae
herb
herbacea
herbst
hercegovina
here
heringeri
heritage
hermans
herminium
hernandezii
heron
herrerae
hertel
herzegovina
herzogii
hespenh
het
heterophylla
hexalectris
hexandra
hexisea
hi
hians
hickelii
hidden
hide
hiern
hieroglyphica
higgins
high
highlands
highlight
highlighted
highlighting
highlights
highly
highway
hiidenvartin
hiisi
hil
hill
hillii
hills
him
himalaica
himalaya
himalayan
himalayana
himalayas
himantoglossum
himoriara
hindi
hintonella
hirsuta
hirsutissima
hirta
hirtella
hirth
hirtz
hirtzii
his
hispanica
hispaniola
hispida
hispidus
hist
histo
historia
historians
historic
historical
history
hle
hlist
ho
hochr
hochst
hodgsonii
hoehne
hoehnea
hoehnei
hoeijeri
hoffmannseggiana
hohenlohii
holcoglossum
hold
hole
holma
hologlossa
holophylla
holoserica
holosericea
holothrix
holstii
holttum
home
homolepis
honduras
hondurensis
honey
hong
hook
hooker
hookeri
hookeriana
hope
hopefully
hopper
horichiana
horned
horse
hortus
host
hostdelimeterposition
hosted
hosting
hoststartposition
hotel
houlletia
hour
hourmin
hours
house
houtteana
hovercards
how
however
hr
hrsg
hs
hsb
hti
html
htmlbuilder
http
https
hu
hubb
hubble
hubblecast
huber
huds
hudson
hue
huegelii
hughes
hugo
hujala
human
humb
humbertii
humblotii
humilis
hummingbird
hundreds
hung
hunga
hungarian
hungary
hunt
hunting
huntleya
hupehensis
huye
hy
hybrid
hybrida
hydropiper
hyemalis
hygrophila
hylophila
hypo
i
ia
ibigwi
ice
iceland
iceliensis
icon
icons
ictonyx
id
ida
idahoensis
idea
idealab
ideas
identified
identifiers
ieg
if
ig
iglesia
ignea
ignore
ignoreblank
iguapensis
ii
iii
iiroinen
ik
il
ilhas
ill
illyrica
ilmarinen
im
image
imageclass
imageleft
images
imagestyle
imbricata
img
imitans
immaculata
immature
immediate
immense
impact
imperialis
implemented
implements
import
important
imported
impression
impressions
improve
improved
improvement
improvements
improving
in
ina
inaequalis
incana
incantata
incarnata
incertae
include
included
includemetatable
includes
including
inclusive
increase
increased
increases
incubacea
ind
indarctos
indes
index
indexed
india
indian
indiana
indic
indica
indicate
indicating
indices
indicus
indifferens
individual
individuals
indo
ined
inen
inflata
info
infoboks
infobox
infocardclass
infocardtemplate
infokas
inform
information
informed
informkesto
infrastructure
ingramii
initial
initially
initiative
initpos
inline
innenansicht
innenraum
inodora
inornata
input
insectifera
insert
inserted
inserter
insertfromsnak
inserting
inside
insignis
inspector
inspire
inst
instead
institut
instructions
insularis
intara
integra
integrated
integrilabia
intended
interact
interest
interested
interface
interlanguage
intermedia
intermedium
intermedius
internal
international
internationalis
internet
interwiki
intgr
into
intonsa
intricata
introduce
introduction
intuitive
invalid
invariant
inversed
inversion
investigates
investigations
invisa
invisible
invitation
invite
invited
inviting
invoke
invoked
involuta
involved
involvement
io
ios
iota
ip
ipairs
iprage
ipsea
ira
iran
irc
iricolor
irrorata
irwiniana
is
isabelia
isabellinus
isaoara
isbn
isbns
iscapital
iscountry
isempty
isfaha
isfemale
isinstanceof
isinversed
isla
island
islandia
islands
islas
ismatchlanguage
ismatchunit
isn
isnew
isnotempty
iso
isochilus
ispol
isqualifierfound
israel
israelitica
isranked
isrc
iss
issn
issue
issues
ist
istanbul
istestpage
isunion
isvalidrank
it
ita
italian
italic
italica
italictitle
italie
italy
iteka
item
items
iterator
its
itself
iv
iva
ivanovo
ix
ixora
iz
j
ja
jaatila
jack
jacq
jacquinia
jacquiniella
jaguar
jahrb
jaliscana
jalisco
jamaica
jamaicensis
james
jamesonii
jan
janak
jane
janeiro
janetiae
january
japan
japanese
japonica
japonicum
japonicus
jarae
jard
java
javanica
javanicum
javascript
jbwr
je
jean
jeanes
jeanette
jenmanii
jenny
jesup
jesupiae
jesupii
jesupiorum
jethrobt
jewish
jezoensis
ji
jimburae
jimenezii
jimii
jin
jo
job
jobs
joe
joensuu
joensuun
johan
johann
johanna
johannes
johannis
johanss
john
johnson
johnsonii
johnst
johnstonii
join
joining
joka
joki
jones
jordanensis
jorullensis
josephi
jost
jostii
journal
jpeg
jpg
jr
js
jst
ju
juan
jubatus
juha
jukoff
juliancomment
july
jumellea
jumelleana
jun
juncifolia
june
juninensis
juniperus
juss
just
juva
juvenile
jv
k
ka
kadavoor
kaempferia
kageyo
kairinen
kaisa
kaiyr
kak
kalela
kalopissii
kamerunensis
kamonyi
kaneh
kangaroos
kaniensis
kaohsiung
kapelle
karama
karcher
kareniae
karhula
karinainen
karjalan
karl
karongi
karst
kartano
kartanon
kartanossa
karttapalvelu
kasarmi
kashan
kastanje
katangensis
katedralskolan
katego
kategooria
kategori
kategoria
kategorie
kategorija
kategorio
kateqoriya
kath
katie
kattelus
kaukola
kaunissaari
kaupungin
kaupunginosien
kaupunki
kautskyi
kawakamii
kayea
kayonza
kb
kbd
ke
keay
keegan
keen
keep
keeping
kefermarkt
kegeliella
kegelii
keller
kemijoki
kenya
ker
kerrii
kesiya
keski
keteleeria
kew
key
keyboard
keyvalue
ki
kia
kibirizi
kicukiro
kieli
kielmeyera
kielten
kievica
kigali
kigoma
kinabaluensis
kinazi
kind
kindly
king
kingfisher
kingianum
kingiella
kingii
kinihira
kintikkala
kipa
kirche
kirchspiel
kirehe
kirjala
kirjallisuuden
kirkii
kirkko
kirkonkyla
kirov
kirovska
kittr
kiveinen
kivija
kiyomizu
kk
klabatensis
klein
kleinii
klinika
kloster
klotzsch
kmeria
know
knowledge
knowles
known
knownflag
ko
kobus
kobuski
koch
koehleri
koellensteinia
koelreuteria
kogda
koi
koivisto
koivula
kolponomos
komi
kong
koord
kopenhagen
koraiensis
korea
korean
koreana
kores
korfu
kornick
korpela
korpi
korth
koski
kosterm
koti
kotisivut
kotschyana
kotschyi
kra
kraenzl
kraenzlinella
krameri
krause
kremlin
kreodanthus
kretzschmar
kreutz
kruger
krull
ku
kuggbo
kuhlhasseltia
kuhlm
kukola
kultela
kumar
kunnes
kunst
kunstleri
kunth
kuntze
kurala
kurz
kurzweil
kustannus
kuuskoski
kv
kwangsiensis
kwazulu
kyla
kyoto
kyrenia
kyrgyz
l
la
laakso
label
labeled
labelledby
labels
labelslangcode
labiata
labill
lacaena
lacaita
lacerda
laciniata
lack
lactea
lady
laelia
laeta
laevigata
laevis
lagarophyta
lagerstam
lagerstroemia
lago
lagopus
laguna
lahti
lake
lam
lamarck
lamb
lamellaris
lamellata
lamiales
lammi
lanata
lancea
lanceana
lanceolata
lanceolatus
lancifolia
lancilabris
lancipetala
land
landing
landscape
landschaftspark
lang
langcode
langentity
langentityid
language
languages
lanka
lankesteri
lankkinen
lantana
lantz
laos
lappalainen
lapponica
lapse
lar
large
larger
larix
larsen
las
lasiocarpa
lasioglossa
lasiorhiza
lasiotus
last
lasts
lat
latakiana
late
later
latex
latiflora
latifolia
latifolium
latilabris
latin
latipetala
latisepala
latispatha
latitude
lauara
laubenfels
launch
launched
laurensis
laurifolia
laurina
lauterbach
law
lawsonii
laxa
laxiflora
laxiflorum
laxifolia
layardii
lb
lbe
lder
le
lead
leading
leaf
leafl
learn
learned
learning
least
leave
leaving
lebanon
lebrunia
lecanorchis
led
ledermannii
left
leg
legacy
legs
leh
lehm
lehmanniana
lehmannii
lehnwo
leiden
leinakkala
leiophylla
lem
lembit
len
length
leningrad
lenta
leo
leochilus
leontoglossa
leopardus
lepanthes
lepanthopsis
lepida
leppa
leptantha
leptochila
leptotes
leptotifolia
lepus
leroy
les
less
lesser
let
lets
letter
letters
leucantha
leuconeura
lewis
lewisiae
lex
leyte
leytensis
lez
li
liard
libani
libocedrus
library
libraryutil
lica
licania
license
licensed
lichen
lichenophila
life
light
lighthouse
lignosa
ligulata
liitto
like
likely
lilacina
liliiflora
lilijae
lilium
lilla
lima
limba
limbata
limit
limitation
limitations
limited
limprichtii
lin
lincoln
lincz
linden
lindeniana
lindenii
lindl
lindley
lindleyalis
lindleyana
lindleyanum
lindleyi
line
linearifolia
linearifolium
linearis
lineata
linen
lines
ling
lingua
linguistic
linguistica
linguistics
link
linked
linking
links
linn
linna
linnaea
linnaeus
lion
lions
liparis
liquidambar
liquidthreads
liriodendron
lissochiloides
list
listcell
listed
listera
listnum
listnums
listofcountries
listofprofessions
lists
listtext
listtotext
litensis
literary
lithocarpus
little
liu
live
livia
livida
lix
lizard
ljubljana
ll
llamachoi
llave
ller
lmen
lmener
lmos
ln
lo
loa
load
loaddata
loaded
loading
lobata
lobos
local
located
locatie
location
loch
lockhartia
locomotive
lodd
loddigesii
lodo
loefgr
log
logged
logic
logo
logos
loheri
loimaan
lojae
lon
london
londonoi
long
longa
longaeva
longer
longibracteata
longicalcarata
longicauda
longicaulis
longicornu
longiflora
longifolia
longifolium
longilabris
longiloba
longipedicellata
longipedunculata
longipes
longipetala
longipetiolata
longiracemosa
longirepens
longisepala
longispicata
longissima
longitude
lontra
look
looking
looks
lorenae
lorenz
loreziana
los
lose
lost
lot
lour
lov
love
loves
lovozero
low
lower
lowiana
lowii
loxodonta
lp
lr
lt
lu
lua
luaargs
lucida
lucidum
lucis
lucksom
ludwig
lueddemannia
lueddemanniana
luer
luerorum
lugens
luisia
lum
luma
lumholtzii
lunata
lune
lunulata
luokka
luolavuori
luostarinma
lupus
lusitanica
lutea
luteocilium
luteola
lutra
lutreolina
luvulla
luzon
luzuriaga
lv
lviv
lvm
lyallii
lycalopex
lycaste
lyciensis
lycomormium
lycopodioides
lydia
lynx
lyonii
lz
m
ma
maakuntaportaali
maanpa
maarian
maas
maastricht
mabbett
maboroensis
mac
macbr
macedonia
macedonian
macedonica
machine
macodes
macra
macrantha
macranthum
macranthus
macrobulbon
macrocarpa
macrolepis
macrophylla
macrophyllus
macrostachya
macrostylis
macuconensis
maculata
maculatum
maculosa
madag
madagascar
madagascariensis
made
madeira
madisonii
madonna
madrid
maduroi
maek
mag
magic
magnifica
magniflora
magnipetala
magnolia
magnoliopsida
maguire
maguirei
magyarorsza
mahurea
mai
mail
mailing
mailto
main
maingayi
mainly
mainsnak
mainsnakdatavaluevalue
mainsnakdatavaluevalueunit
maintain
maintenance
maire
majalis
major
make
makegeneralcategories
makes
makgadikgadi
making
makino
mal
mala
malabarica
malachantha
malachite
maladroxiensis
malawi
malaxis
malay
malaya
malayalam
malayan
malayanus
malaysia
male
malesherbia
mall
malline
mallnitz
malmeana
malmquistiana
malo
malta
maluku
mammea
mammosa
man
manabina
manager
manali
mandonii
mangaly
manif
mann
mannheim
manniella
mannii
mansf
mantis
manual
manually
many
map
maplandia
maps
maquilingensis
mar
maranta
marathi
marcantonio
march
marche
margin
marginata
mari
maria
mariae
marila
marina
marine
marinum
maritima
maritimus
mark
marked
marker
market
markku
marks
marmorata
marmosa
marmosops
mars
marseille
marshallia
marsupialis
mart
martelli
martes
martiana
martin
martinezii
martius
marttilan
marula
marumbyana
masam
mascula
masdevallia
masonry
mass
massmessage
mast
mastersiana
match
matchestitle
material
materials
math
mathematical
mathematics
mati
mating
mattbo
matter
matthewsii
matti
maunula
maurice
mausoleo
max
maxillaria
maxillariella
maxim
maxima
maximartinezii
maximowiczii
may
maybe
mayr
mazz
mazzetti
mb
mbazi
mccann
mcgregorii
md
me
meadow
mean
meaningful
means
meant
meantime
mearnsii
measurement
meded
media
mediawiki
medinae
mediocarinata
medit
mediterranean
medium
medusa
medusagyne
meen
meet
meeting
meetings
meets
meiracyllium
meisn
melachila
melanocaulon
melanoleuca
meleagris
meles
melhania
meliaceae
melki
melodija
melogale
melursus
mem
member
members
membracidoides
memoized
memorial
men
mendozae
menezes
mens
mentosa
menu
menus
mer
mercury
merfeld
merge
mergeargs
meridana
meridionale
meridionalis
merops
merr
merrill
merrillii
merry
mesadenella
mesadenus
message
messages
mesua
met
meta
metaargs
metaargskey
metasequoia
metatable
metro
metsa
mexican
mexicana
mexico
mey
mez
mezquita
mg
mga
mhnt
mhr
mi
michael
michelia
micholitzianum
michx
micrantha
micranthum
microblephara
microchila
microchilus
microglossa
micropetala
microphylla
microphyta
microscopica
microstrobos
microtis
mid
middle
mig
might
miguelii
mikael
mike
militaris
military
mill
milleri
million
miltonia
miltoniopsis
mimosa
min
minahassae
minas
minax
mindanaensis
mindanao
mini
miniata
miniatum
minima
minimize
minimus
minor
minus
minuta
minutalis
minutes
minuticauda
minutiflora
minutissima
miq
mirabilis
miranda
mirongo
misc
misera
miss
missing
mission
missouri
mit
mitragyna
mitt
mitte
mitteilungen
mitterbach
miut
mk
mm
mma
mn
mo
mobile
mocoana
mod
mode
model
models
modern
modes
modesta
modifying
module
modules
moduleurl
modulewikidata
moeda
moisio
mollis
molloy
monasterio
monastery
monday
money
mongolia
mongolian
monitor
monitoring
monkey
monobook
monodelphis
monogr
monolinguallangtemplate
monolingualtext
monomeria
monophylla
monophyllum
monosepalum
monostylis
monotremata
montana
montanum
montanus
montbe
montbeliard
montezumae
month
monthg
monthgm
monthgom
monthly
months
monticola
montis
montreal
montrouz
montserratensis
mood
moon
moore
mooreana
moorei
mora
more
moreargumentsexist
morenoi
morganii
morii
morinda
morio
morisii
moritzii
mormodes
mormolyca
mornicola
morning
morocco
morren
morrisonicola
morus
moscosoa
moscow
moscu
mosmetro
mosque
most
mostly
motd
moth
motion
mougeotii
mount
mountain
mountains
mouse
move
moved
movement
movementcharter
movie
moving
mozambique
mozart
mp
mpumalanga
mr
ms
msg
mt
mu
much
mucronata
mucronatum
muell
muelleri
muganza
mugo
muhanga
mukarange
muko
mukura
mult
multi
multiclavia
multiflora
multilingual
multiple
munch
mundo
munich
municipal
mural
murama
murambi
murexoidea
muricata
muricaudata
mus
musa
musanze
muscicola
muscosa
muscosum
museo
museum
musha
music
musicians
must
mustela
mute
mutel
mutta
mw
my
myanmar
mylanguage
mylly
myllykyla
myoxanthus
myrmechila
myrmechis
myrmecodia
myrmecophila
myrticola
myrtifolia
mysorensis
mystacidium
mythology
myths
mytnik
myv
n
na
naantalin
naar
nach
nacht
nachtr
nacional
nadeaud
nagam
nagaoka
nagelii
naithani
nakai
nakkila
name
named
names
namespace
namespaces
namibia
naming
nan
nana
napintzae
narcissus
narrow
nasa
nasirolmolk
nasuta
nat
natal
nation
national
nationalmuseum
nations
native
natl
natural
nature
naturhist
nauclea
nav
navbar
navbox
navboxes
navigate
navigation
navigationsleiste
navy
nazca
nb
nbg
nc
nchen
nd
nde
ndefaultlanguage
ne
near
nearly
neas
nebula
necessary
nectarifera
ned
neditors
need
needed
needs
nees
negadensis
neglecta
neglectum
neilgherrensis
nelson
nelsonii
nematoceras
nemba
nemorosa
nen
neocaledonica
neocogniauxia
neofelis
neofinetia
neomoorea
neotatea
neottia
neottianthe
neovison
nepal
nepalensis
nephelaphyllum
nervilia
nervosa
nes
nesolagus
nestoridae
net
network
neudecker
neudeckeri
neuwiedia
new
newclaim
newclaims
newcomers
newer
newest
newline
newly
newoptions
newparentsnaks
newplacesindex
newplacestr
news
newsletter
next
nextlabel
nextwikitext
nez
nfelder
nfra
ng
ngc
ngoma
ngororero
ngvik
nh
ni
nich
nicholls
nick
nicobar
nidus
niesch
niesseniae
nig
niger
nigeria
night
nigra
nigrescens
nigripes
nigritella
nikka
nil
nilargs
nilargskey
nile
nipponica
nir
nis
nissue
nitens
nitida
nivalis
nivea
niveoglobula
niveum
nkele
nl
nm
nn
nnumberofpages
no
nobilis
nocat
nocoord
node
nodes
nodosa
noeditsection
noja
nolinks
nom
nominate
nominated
nominations
nominativeyear
non
none
nonus
noon
nord
nordeste
nordic
nordmanniana
normal
normativetitle
noroeste
noronha
norte
north
northeast
northeastern
northern
northwards
northwest
norway
not
notable
note
notes
nothing
nothofagus
nothosubsp
notice
notifications
notified
notify
notizbl
notoc
notre
notul
notylia
nov
nova
novalue
november
now
nowrap
nowrapitems
np
npages
npera
nr
nster
nta
ntirage
nu
nubigena
nuciferum
nuda
nudicaulis
num
number
numbered
numberofpages
numbers
numeric
numida
nummi
nummularia
nums
nutans
nutt
nuttallii
nuytsia
nv
nvolume
nw
ny
nya
nyabihu
nyagatare
nyagisozi
nyamagabe
nyamasheke
nyamiyaga
nyange
nyanza
nyarugenge
nyaruguru
nykya
nzst
o
oasis
oaxaca
oaxacana
obama
oberonia
object
objective
oblanceolata
oblast
obliquipetala
obliquus
oblonga
oblongifolia
obovata
obscura
obtusa
obtusifolia
oc
occidentale
occidentalis
occupation
occurrence
ocean
ochnaceae
ochracea
ochreata
ochroleuca
oct
octavioi
october
octomeria
octopus
od
odd
oddeven
odobeniceps
odontoglossum
odontorrhynchus
odorata
odoratissima
odoratum
oerst
oerstedii
oeste
oesterr
oestrifera
of
off
offer
offered
office
official
officinalis
officinarum
offline
often
oga
ogg
ogv
oh
ohwi
oj
oja
oktober
ol
olbiensis
old
oli
oligantha
oligotricha
oliv
olivacea
olivat
oliver
oliveriana
ollila
olor
olszewski
olympic
olympics
om
ombuds
ombudsperson
omegaifera
omeiensis
omissa
on
onagriceps
once
oncidium
one
ones
ongoing
oni
online
only
oocarpa
oojs
ooui
op
open
opened
opening
opera
operation
operator
ophelma
ophioglossoides
ophiopogonoides
ophrys
opinions
opossum
opportunities
opportunity
oppositifolia
opt
option
optional
optionalarg
options
opus
or
orbicularis
orch
orchadian
orchi
orchid
orchidaceae
orchidee
orchideen
orchids
orchis
order
ordered
orders
oreadum
oreophila
org
organization
organize
organized
organizing
orgel
orientalis
orig
origargs
origargsargname
original
orion
orleanesia
ormerod
ornata
ornatum
ornithocephalus
ornithochilus
orobanchoides
orphancat
orqui
orquideologia
ortega
ortegae
orthoceras
ortiz
os
osa
osaka
oscitans
osiris
osmanica
ost
osteospermum
ot
otava
other
others
otherwise
otia
otostylis
otrs
otto
ou
ouest
ougrienne
our
out
outdated
output
outreach
outside
outtype
ovalifolia
ovalis
ovata
ovatilabia
over
overlay
overview
overwritten
ovis
own
oxyglossa
oxyrrhynchos
oxyrrhynchossubsp
oy
p
pa
pabst
pabstii
pacher
pachyglossa
pachyphylla
pachyphyllum
pachyphyta
pachypodium
pachystachys
pacific
pacifica
pad
padding
page
pageara
pages
pageviews
pagos
pai
paid
painting
pair
pairs
paisaje
pakainen
pal
palace
palacio
palawan
palawanensis
palawensis
pale
pallasiana
pallens
pallescens
pallida
pallidiflavens
pallidiflora
pallidus
palmeri
palo
paludosa
palustris
pamukkale
pan
panama
panamensis
panattensis
pandurata
panduratum
panduripetala
panero
pangong
paniculata
paniculatum
panisea
pano
panora
panorama
panoramic
panormitana
pans
panthera
pantherina
pantl
pap
paphinia
paphiopedilum
papilio
papilionacea
papilionanthe
papillosa
papillosum
pappila
papuacedrus
papuana
papuanum
papuligera
papuma
papyrifera
par
parade
paradoxa
paraensis
paragraph
paragraphs
paraguay
param
parameter
parameters
params
parana
paranaensis
paranapiacabensis
paraphalaenopsis
parasitica
pardalina
pardipes
parent
parententities
parententitiesi
parentoptions
parentsnak
parentsnaks
parentsnaksi
pargs
paris
parish
parishii
park
parl
parliament
parma
parque
parscal
parse
parseclaim
parsedec
parsedflagstarttime
parsedms
parsedtime
parseiso
parser
parsetimefromsnak
part
partial
participants
participate
participated
participating
participation
particular
particularly
partim
partner
parts
party
parva
parviflora
parviflorum
parviflorus
parvifolia
parvifolium
parvilabris
parvula
parvulum
pass
passed
passionis
password
passwords
past
paste
patens
path
pathways
patrol
patrono
pattern
patula
pauciflora
pauciflorus
paul
paulara
paulensis
paulo
pauloensis
paulownia
paulus
pav
pave
pavetta
pawn
paxton
paz
pb
pc
pcall
pdf
pdt
pdx
pe
peace
pearce
pearl
pectinata
pectinatum
pedersen
pedilochilus
pedunculata
peel
pellucida
pen
pencil
pendens
pendula
penduliflora
penicillata
penins
peninsula
pensilis
pentapetes
pentas
people
peperomioides
pequenas
per
pera
percentage
performance
performed
performing
period
peristeria
perm
permian
permission
permissions
permyak
peroupavae
perplexum
perpusilla
perrier
perrieri
perry
pers
perse
persian
person
personal
personname
personnametoauthorname
personnametoresponsiblename
peru
peruv
peruviana
peruvianum
petelotii
peter
petersiana
petiolaris
petiolata
petit
petri
petropolitana
pett
peyrotii
pez
pfarrkirche
pfavii
pfennig
pfg
pfisteri
pfitzer
pflanzenr
pframe
phabricator
phacochoerus
phaius
phalaenopsis
pharia
phase
philander
philipp
philippe
philippinense
philippinensis
philippines
phoenix
pholcoidea
pholidota
photo
photographic
photos
php
phragmipedium
phreatia
phrygia
phyllocladus
physalis
phytologia
phytotax
pia
piano
picea
picta
pictus
piece
pieces
pied
pieris
pierre
pikku
pileata
pileatum
pilifera
pilosa
pilosissima
pilot
pilulifera
pinaster
pinceana
pinea
pinetorum
pinheiro
pink
pinsapo
pintscher
pinus
piperia
piptoporus
piran
piratiningana
pirotta
pisinna
pit
pita
pitka
pityphyllum
pk
pl
place
placed
placeentity
placeid
places
plain
plaindata
plains
plan
planch
planet
planned
planning
plans
plant
plantaginea
plantilla
plantsman
platanthera
platforms
platychila
platypetala
platyphylla
platyptera
platystele
platystylis
playing
plays
plaza
please
pleased
plectorrhiza
pleione
pleurothallis
pleurothalloides
plicata
plionarctos
ploceus
plocoglottis
plumosa
plural
pm
pmids
png
pnt
po
podocarpus
podochilus
poe
poeciloneuron
poepp
pogonia
pogoniopsis
pohjanmaan
pohjois
pohl
point
poir
police
policy
polis
polish
pollinensis
polonia
polyantha
polycarpa
polycycnis
polygonoides
polyphon
polyphylla
polystachya
pomatocalpa
pond
ponderosa
pone
ponerorchis
pont
ponthieva
pop
popayanensis
popul
popular
populate
populatedatafromclaims
populatesourcedataimpl
populifolia
popups
por
poroda
porodoy
porody
porphyrea
porroglossum
pors
porsch
porsche
port
portal
portentosa
portilla
portillae
portland
porto
portoi
portrait
portugal
portuguese
pos
posadarum
position
positions
positive
possible
possibleage
possiblebookseriesentityid
possum
possums
post
posted
poster
postfix
postfixdelimeterposition
posting
postponed
posts
potaninii
potential
potentially
pour
pouteria
powellii
power
pozhva
pozoi
pp
ppelberg
pr
pradesh
praecipua
praecox
praemorsa
praetermissa
prague
praha
prasanthk
prasophyllum
pre
precision
predefinic
predloga
predloz
prefer
preference
preferences
preferids
preferred
prefix
prefixes
prefixtable
prefsection
prehistory
prepare
preparing
preprocessargs
preprocesssinglearg
present
presentation
presentations
preserve
preset
presets
president
presl
press
presser
pressing
presumably
prev
prevent
preview
previews
previous
previously
prevlabel
prey
pride
pridgeon
primary
prince
principal
pringlei
print
prionailurus
prior
priorities
prioritize
privacy
private
privigna
prizes
probably
problem
problems
proboscidea
proc
procavia
procera
process
processes
processitem
prodr
produce
product
productivity
prof
professions
professionscategories
professionslist
program
progress
project
projects
projecttocheck
prolifera
promille
promontorii
pronolagus
prop
properties
property
propertyentity
propertyid
propertyids
propertyparams
propertyparamskey
propertyselector
propinqua
proportion
proposal
proposals
propose
proposed
prorepentia
prospect
prosthechea
prostrata
protea
proteaceae
protected
protection
protest
prototype
prototypes
protracta
prov
provide
provided
providedlabel
provides
providing
provincialis
pruinosa
pruinosus
prunus
ps
psephotus
pseuderanthemum
pseuderia
pseudoanatolica
pseudoapulica
pseudobertolonii
pseudocymbiformis
pseudofennica
pseudolaelia
pseudospeculum
pseudostrobus
pseudovanilla
psilantha
psittacidae
psittacina
psittacorum
psittaculidae
psittrichasiidae
pst
psyche
psychilis
psychopsis
psychotria
pt
pteroglossa
pterostylis
pu
pubentity
puberula
pubescens
pubipetala
publ
public
publication
publish
published
publisher
publishing
pudel
pudelya
pudica
puerto
puesta
pugioniformis
pula
pulchella
pulchellum
pulchellus
pulcherrima
pulchra
pulchrum
pullei
puma
pumila
pumilio
pumilum
pump
punctata
punctatum
punctulata
pungens
pupulin
purpose
purposes
purpurascens
purpurata
purpurea
purpurella
purpureum
purpusii
pursh
pusilla
pusillus
put
puttemansii
puusta
puzzle
px
pygmaea
pygmy
pyha
pyo
pyramidalis
pyrenees
pyrifolia
pyrrhula
pywikibot
q
qian
qnotlaterthan
qnotsoonerthan
qqq
quadrifolia
quadriloba
quadrilobum
quadripunctata
quadrivalvis
qualifier
qualifierid
qualifierids
qualifierpropertyid
qualifiers
qualifiervalue
quality
quant
quantity
quarter
que
queen
queensland
queer
quekettia
question
questions
quick
quickly
quiddity
quiina
quiinaceae
quisqueya
quisqueyana
quisumb
quito
quotation
quotations
r
ra
rabei
racemosa
racine
radialis
radiata
radicans
radio
radiosa
raf
rahi
railway
rainbow
raision
rakennettu
rakennus
ralfr
rami
ramifera
ramonensis
ramosa
ramosii
ramuana
ramulosa
ran
randaiensis
randii
range
rank
ranta
rao
ras
rathaus
rather
ratio
rauschert
rauvola
ravel
rawrule
rawrulepattern
raznovidnosti
rb
rchb
rd
re
reach
read
readability
readers
reading
ready
real
really
rearrange
reason
rec
recchia
receive
received
receives
recent
recently
rechingeri
recognize
recommend
recommendations
recommended
recondita
reconst
record
recorded
recruiting
recueil
recurva
recurvata
red
redesigned
redirect
redirected
redirects
reduce
reduced
reedii
ref
refanchor
refanchoryear
reference
references
referencing
reflection
reflexa
refracta
refreshed
reg
regalis
regarding
regardless
regards
regel
regex
regexp
regexps
regia
regina
reginae
region
regions
regis
registered
registration
regnellii
regni
regular
rehder
reichenbach
reichenbachiana
reina
reinhard
reinholdii
reinw
reipubl
reka
rekoinen
relate
related
relatively
release
released
releases
relevant
reliable
reliably
religion
religiosa
remain
remaining
remains
remember
remera
reminder
remota
removal
remove
removed
removing
renanthera
renderaboverow
renderbelowrow
rendered
rendernavbar
renderreferenceimpl
rendersource
rendertrackingcategories
rendle
renessaince
reniformis
renz
renzii
rep
repens
repert
repetitions
replace
replaced
replacement
reply
report
reported
reports
repository
represented
reptans
republic
request
requested
requests
require
required
requirements
requires
res
research
reserva
reserve
resinosa
resolution
resources
respond
responded
response
responsible
rest
restore
restored
restrepia
restrepioides
result
resultclaims
resultlist
resultproperty
resultresultproperty
results
resultwikitext
resupinata
ret
reticulata
retroflexa
return
returns
retusa
retusus
rev
reverse
reverting
review
revision
revisions
revisionslider
revoluta
rex
rez
rfc
rhamnaceae
rhellicani
rhinerrhiza
rhipogonum
rhizanthella
rhodochila
rhodostephane
rhombifolia
rhombilabia
rhomboglossa
rhyncholaelia
rhynchophreatia
rhynchostele
rhynchostylis
rhytionanthos
ri
ria
rica
rich
richard
richardiana
richteri
ricii
rico
rid
ride
ridl
ridleyi
ridsdale
riga
right
rights
rigida
rigidula
riihikoski
rijks
rimbachii
rimbaud
ring
ringens
rio
riparia
risso
ristima
risto
river
rja
rk
rka
rm
rma
rme
rn
rnberg
rnste
ro
road
roadmap
rob
robbr
robert
robin
robinsonii
robiquetia
robusta
robustum
robyns
rock
rocket
rodr
rodrigoi
rodriguesii
rodriguezia
roei
roem
roezlii
rogers
rohtang
roi
role
roles
rolfe
rolfeana
rolfei
roll
rolling
roma
roman
romero
ronald
roof
room
root
roraimae
rosa
roscoe
roscoea
roscoeana
rose
rosea
roseoalba
roseum
rosillo
rostellata
rostock
rostrata
rostratum
rotating
rotunda
rotundata
rotundifolia
rotundifolius
rouge
round
rouse
rovdyr
rover
row
rowargs
rowclass
rownums
rows
rowspan
rowstyle
roxb
roxburghii
roy
royal
royen
rr
rra
rsa
rt
rter
rterverzeichnis
ru
ruan
rubavu
rubella
rubens
rubescens
rubicaulis
rubra
ruckeri
rudbeckia
rudis
rudolfiella
rudolfii
rue
ruedi
ruellia
rufa
rufescens
rugarama
rugendabari
rugosa
ruhango
ruiz
rukomo
rule
rules
rulindo
rumani
run
runa
rungweensis
running
runs
rupestris
rupicola
rupp
rus
rusby
rusbyi
ruscifolia
rusia
rusizi
russia
russian
russianfem
rutaceae
rutk
rutsiro
ruunala
ruutila
rvi
rwamagana
rwanda
rwimbogo
ry
rydb
rzedowskii
s
sa
sabal
sabiniana
sablon
sabu
sabulosa
saccata
saccatum
saccifera
saccoglossum
saccolabium
sacculata
safe
safety
sagittata
saint
sakai
sakha
sala
salar
salazar
salicifolia
salisb
salpistele
salvador
salvatore
salzburg
salzmannii
sambiranoensis
same
san
sanchezii
sancta
sanctae
sancti
sand
sandbox
sanderae
sanderiana
sanguinea
santa
santiago
santo
santorin
santuario
sapindaceae
sapindus
saponaria
saratoi
sarawak
sarawakensis
sarcochilus
sarcoglottis
sarcophylla
sarcostoma
sardegna
sardinia
sargentiana
sassafras
sastre
satellite
saturday
satyrium
sauleda
saundersiana
saurocephala
sauroglossum
saut
save
saved
saving
savukeidas
saw
saxicola
say
says
sc
scabra
scalaris
scale
scan
scandens
scansor
scaphosepalum
scaphyglottis
scaposa
scariosa
scelochilus
schedul
schedule
scheduled
schelpe
scheme
schemedelimeterposition
schiedeana
schiedeella
schilleriana
schimperi
schinopsis
schinz
schlechter
schlechteri
schlechteriana
schlimii
schloss
schlossgarten
schltdl
schltr
schmidtianum
schmidtii
scho
scholarship
scholarships
schomburgkia
schott
schrankia
schreb
schrenkiana
schudelii
schuit
schult
schultzei
schulze
schulzei
schum
schumann
schunkei
schutzgeb
schweinf
schweinfurthianum
schweinfurthii
schwetzingen
sci
science
sclerophylla
scolopax
scope
scopulina
scopulorum
scortechinii
scotland
scott
scottish
screen
screens
screenshot
scripts
scriptum
scrolling
scrugli
sculpture
scuticaria
se
sea
seamless
search
searches
seats
seattle
sebastian
sec
secc
second
secondary
seconds
sect
section
sections
secunda
secundiflora
securepoll
security
sedis
see
seed
seehawer
seeking
seem
seen
seidenf
seidenfadenii
seitenschiff
selbyana
select
selectclaims
selected
selectedsnakes
selecting
selection
selector
selectorsstring
selenitepala
self
selfclosing
sellowii
selskab
semperflorens
sempervirens
sen
send
sending
senghas
sent
sep
separate
separated
separator
seppa
september
septentrionalis
sequences
ser
seranica
serapias
series
seriz
serotina
serpens
serpentilingua
serra
serrata
serrulata
sertifera
sertularioides
serve
server
service
sessiliflora
sessilis
session
sessions
set
setaceus
setigera
setmetatable
setosa
setting
settings
seudun
seven
several
sevilla
sgrabarczuk
sh
shah
shan
shanghai
share
shared
sharing
shark
shaw
sheet
sherff
sheviak
shift
shim
shinjuku
ship
shirasawa
shiraz
shop
short
shortcut
shorter
shortly
shot
should
shouldn
show
showcase
showed
showing
shown
shows
si
sia
siamensis
siberia
sibirica
sichuan
sicilia
sicula
side
sided
sidney
siebold
sieboldii
sievekingia
sigmoidea
sign
signed
significant
significantly
signs
sijm
sijmii
sikkim
sikkimensis
sillankorva
sillanpa
silva
silvae
silvana
silver
silverstonei
silvestrii
simarouba
simaroubaceae
simia
similar
similis
simo
simon
simondii
simone
simple
simpler
simplex
simpliciglossa
simplified
sims
sin
since
sinense
sinensis
singapore
singers
single
sinor
sinuata
siprage
sirirugsa
sister
site
sitelink
sitelinks
sites
sitewide
sitiaca
situations
six
size
sizes
sjabloon
sk
ska
skabelon
skeptrostachys
sketch
ski
skills
skin
skinneri
skins
sko
sks
sky
skyline
sl
sla
slender
slider
slightly
slope
sloth
sloths
slovenia
slow
slower
slowly
sm
small
smaller
smaragdina
smartphone
smartphones
smith
smithatris
smithii
smooth
sn
snak
snakpropertyid
snaks
snaktype
snow
so
sobaka
sobaki
sobralia
soc
social
socie
society
sodiroi
software
sol
solanaceae
solano
solar
solium
solomon
some
someone
somero
something
sometimes
somevalue
somewhere
son
sonata
sond
sonda
song
soo
soon
sophora
sophronitis
soratana
sorbus
sordida
soria
sororcula
sororia
sorry
sort
sorvasto
sossusvlei
soto
sotoana
souliei
sound
source
sourceentity
sourceid
sources
south
southeast
southeastern
southern
southwest
sp
space
spacex
spach
spacing
spaeth
spain
spam
span
spanish
spannageliana
sparseconcat
sparsiflora
spathilabia
spathoglottis
spathulata
spathuliformis
spathulipetala
spatulata
spb
speak
speaking
spec
special
species
specific
specifically
specified
speciosa
speciosum
speciosus
specklinia
specprinter
spectabilis
speculum
speed
speedy
sphegodes
spicata
spicatum
spicatus
spider
spilotantha
spinning
spinosa
spiral
spiralis
spiranthes
spit
spiti
spitzelii
splendens
splendida
split
splitcoord
splitparam
spondias
spotted
sprache
spread
spreng
spring
sprint
spruce
spruceana
sprucei
spruneri
spumans
spuria
sq
squamata
squamosa
square
squarrosa
squez
squirrel
sr
src
sri
ssa
ssp
st
stabilized
stack
stadium
staff
stage
stamariaara
stampa
standard
standards
standl
standleyi
stanhopea
stapf
star
stars
start
startboundaries
started
starting
starts
state
statedas
statement
statements
statementvalue
states
static
station
statistics
statue
status
stay
steam
stelis
stella
stellaris
stellata
stellilabium
sten
stenia
stenoglossa
stenopetala
stenophylla
stenoptera
stenorrhynchos
stenosepala
stenostachya
step
stephen
sterby
stereosandra
stermark
steud
steven
stevens
stevensonii
steward
stewards
steyerm
steyermarkii
stictophylla
stift
stiftskirche
still
stimson
stipulatum
stl
stockholm
stop
stopped
stor
stored
stories
storm
story
str
strategy
straussii
stream
street
strelitzia
streptopetala
striata
striatum
stricta
strigopidae
string
strings
striolata
striped
strix
stro
strobus
strodt
strong
strpages
structure
strupifolia
strvalue
sts
stsci
stuartiana
studied
studies
study
style
styleratio
styles
styling
stylobasium
stylosa
styraciflua
su
sua
suarezii
suaveolens
sub
subclausa
subconcolor
subfamily
subgenus
subgroup
subheader
subheaderrowclass
subheaderstyle
subject
submission
submit
submitted
subnulla
subpage
subpages
subrule
subrules
subscribe
subscription
subsection
subsp
substitute
substring
subtilis
subtitle
subtribe
subtribus
subulata
subway
suc
successful
such
sud
suda
sudan
sudeste
suez
sugar
suggest
suggested
suggestions
sugira
suitable
sul
sulawesi
sulcata
sulphurea
sum
sumatra
sumatrana
sumatranus
sumatrensis
summarizes
summary
summerh
summerhayesiana
sun
sunda
sunday
sunnanberg
sunrise
sunset
suojoki
suomalaisen
suomen
sup
superba
superbiens
suppl
supplies
support
supported
supporting
supports
sur
surame
sure
surface
suriana
suriname
surinamensis
survey
survival
sustainability
sustainable
sutherland
sutingara
suðurland
sv
sverdlovsk
svg
sw
swallow
swan
swaziland
sweden
swedish
sweet
swift
swingle
switch
switching
switzerland
syda
sylvatica
sylvestre
sylvestris
sylvilagus
symb
symbols
symphony
symplocos
syn
synagogue
sync
syncerus
syncing
synonym
syntax
syriacus
syst
system
systems
syva
szablon
szechuanica
szl
szlach
szlo
szo
t
ta
tab
table
tables
tablet
tablets
tablevalue
tabs
tabuliformis
taeda
taeniophyllum
tag
tagname
tags
tahitensis
tail
tailed
tainia
taipei
taitensis
taiwan
taiwanensis
taiwaniana
tak
take
taken
takes
taking
takım
tales
talk
talking
tallgren
talpinaria
tamandua
tamil
tamme
tanaka
tang
tango
tanila
tankervilleae
tanzania
tap
tapirus
taprobanis
tara
taras
target
tarkiainen
tarnovo
tartu
tarvasjoki
tarvo
task
taskforce
tasman
tasmania
tatar
tate
taubenheim
taxodium
taxon
tay
taylor
taylorii
tbl
td
te
teach
teaguei
team
teams
teau
tech
technical
technology
tecunumanii
teerijoki
tehera
tel
telescope
tell
temp
temperature
templat
template
templatedata
templates
temple
templo
temporary
ten
tenebrosa
tenella
tenellum
tennant
tenompokense
tentaculata
tenthredinifera
tenue
tenuicaulis
tenuiflora
tenuifolia
tenuis
tenuissima
teocote
teres
teretifolia
term
terminal
terms
ternary
terrestris
tersch
teschner
test
testacea
tested
testing
tests
tetragona
tetramicra
teuscheria
texana
text
tf
th
thai
thailand
thailandica
thalia
than
thank
thanks
that
thatta
the
theatre
thecostele
their
thekkady
thelymitra
them
theme
themselves
then
theobroma
there
these
they
thibetanus
thibetica
thiele
thienii
thing
things
think
thinking
this
thomas
thomsonii
those
thouars
though
thought
thoughts
thread
three
thrixspermum
throated
through
throughout
throwerror
thrush
thudufushi
thumb
thumbnail
thumbnails
thunb
thunbergia
thunbergii
thunia
thursday
thwaites
thylamys
ti
tibet
tibetan
ticoglossum
tidiedval
tidy
tidyval
tie
tied
tiegh
tiger
tigrina
tigrinum
tigris
till
time
timelapse
times
tipo
tipularia
tirage
tirveng
title
titlecell
titleclass
titlecolspan
titledelimeterposition
titlegroup
titlerow
titlestyle
titletext
titlewerepresent
tl
tln
to
tobago
toboolean
toc
tocright
tod
today
todo
toed
together
toggle
toimintansa
tokachii
tokyo
tolumnia
tolypeutes
tomentosa
tommila
tong
tonga
tonkinensis
tonumber
too
tool
toolbar
tools
tooltip
top
topic
topics
torano
torminalis
toronto
torr
torricellensis
torta
tortilis
tortuosa
toscano
tostring
tostringsnak
totable
total
totextwithtip
touch
tour
towards
tower
towikibaseentityidsnak
town
toxicodendron
tp
tr
tra
tracking
tracks
traffic
trail
trailer
trailing
train
training
trains
trans
transforming
transhyrcana
transiens
transit
transition
translatable
translate
translated
translatenext
translates
translatewiki
translathon
translating
translation
translations
translator
translators
translucida
transparens
transport
transvaal
traunsteineri
trav
travel
tre
tree
trees
tremarctos
trevor
trevoria
triage
trial
triandra
triangularis
trias
tribe
tribus
tricallosa
tricarinata
tricephala
triceratops
trichocentrum
trichoglossus
trichoglottis
trichophora
trichosalpinx
trichotosia
tricolor
tridens
tridentata
trier
trifida
trifurcata
trigonidium
triloba
trilobata
trim
trimen
trinervia
trinidad
trip
tripetala
triphora
triplet
tripletpos
tripletstr
tripletunit
triplicata
trisetella
tristis
trizek
trojani
trollii
troodi
trop
tropical
tropidia
trubetsky
truck
true
trulla
trullifera
trullifolia
trummid
truncata
truncatus
truncicola
trust
trustees
try
trying
ts
tscheremissische
tscheremissischen
tsi
tso
tsubotae
tt
tta
tte
tu
tuber
tuberculata
tuberculatum
tuberculatus
tuberosa
tuerckheimii
tuesday
tuesdays
tukurate
tul
tulipifera
tumba
tunguraguae
tunisia
tuomarla
turcomanica
turcz
turfosa
turkey
turkish
turkmenistan
turku
turn
turned
turner
turnera
turning
turun
tuyama
tv
twice
twitter
two
ty
type
types
typica
typing
typography
tyteca
u
uboundary
ucoc
udm
uganda
ugrians
ugric
ugrische
ugristarum
uhd
uhlu
ui
uk
ukiuvaŋmiut
uko
ukraine
ukrainian
ul
uliginosa
ultra
umbellata
umbelliformis
umbilicata
umblicata
umbonata
umbrosa
ume
umeda
umurenge
un
uncata
uncatum
uncia
unciferia
uncinata
unclosed
und
under
underside
understand
understanding
understood
undo
unduavica
undulata
undulatum
unexpected
unfortunately
unguiculata
unicolor
unicornis
unidos
uniflora
unifolia
union
unique
unit
united
unitentity
unitplural
univ
universal
universe
university
unknown
unless
unnamed
unregistered
unspecified
unsubscribe
until
up
upcoming
update
updated
updates
upiaq
upload
uploading
uploads
uploadwizard
upon
upper
upright
ups
ur
uralic
uralica
urb
urban
urdu
urgent
uri
uribei
uricomponents
url
urls
urocyon
urogallus
ursavus
ursinus
ursula
ursus
urvilleana
us
usability
usage
usd
use
used
useful
user
username
users
uses
using
uss
ustring
usual
usually
usuan
utc
utel
utilis
utriculata
uvaria
uyuni
v
va
vagans
vaginata
vaginatum
vahe
vahl
vainio
val
valerioi
valeton
valid
valida
validate
valle
valley
vallunen
valpperi
vals
value
values
valuetofind
van
vanamo
vancouver
vanda
vandalism
vandewegheara
vandopsis
vangueria
vanhakyla
vanilla
vanoverberghii
vanuatu
var
vares
vargasii
variabilis
variable
variegata
variegatum
variegatus
various
varnent
varnum
varres
varsinais
vartsala
vasconica
vasquezii
vcard
ve
vector
veg
vega
veidne
veitchii
velay
veleziana
veliko
vell
velutina
velutinum
venez
venezuela
venezuelana
venezuelensis
venno
venosa
vent
ventricosa
ventricosum
venulosa
venus
venusta
vep
veracruz
veratrifolia
verboonenii
verdc
verecunda
verkossa
verm
vernixia
vernixioidea
vernonia
verrucosa
verruculosa
versicolor
version
versions
verticillata
verticordia
very
vesi
vespertilio
vestita
vestitum
vetus
vi
via
vicina
victoria
video
viduata
vietnam
vietnamensis
view
viewer
viewing
views
vii
viii
vik
viktor
village
villas
villosa
villosum
villu
vilmorinii
vilu
vinacea
vini
vinn
violacea
violaceomaculata
virens
virescens
virgata
virginalis
virginiana
viridiflora
viridis
virtual
visbeck
viscosa
visible
visit
vista
visual
visualeditor
visualeditordid
visually
vit
vitellina
vitiensis
vittata
vlei
vo
vogel
vogeliana
voice
vol
volcanes
volcano
volume
volunteer
volunteering
volunteers
von
vorator
vorlage
vote
voters
voting
voznik
vp
vro
vs
vulcanica
vulgaris
vulpes
vuonna
vuoteen
w
wa
waechter
wageneri
wagneri
wagons
wait
waiting
walking
wall
wallace
walleri
wallich
wallichiana
wallichii
wallisii
walp
walpers
walravens
wang
wangii
want
wanted
wanting
wants
war
wardii
wariana
warm
warmingia
warrakkk
warriors
warsaw
warscewiczii
warsz
warszewiczii
was
washington
watch
watching
watchlist
watchlists
water
watson
watubyaye
waves
way
ways
wbstatus
wc
wds
we
wear
weaver
web
webb
weber
weberbaueriana
weberi
webm
website
wedd
wednesday
week
weekly
weeks
weibchen
weight
weitzman
welcome
welcoming
well
wells
welsh
welteri
welw
welwitschii
wendl
wendlandii
wendtii
wenker
went
wenzelii
were
werneri
wernham
west
westc
western
whale
what
whatamidoing
whatever
when
where
whether
which
whichever
while
white
whitespace
who
whole
why
widdringtonia
wide
wider
width
wien
wiesbaden
wiese
wight
wiki
wikibase
wikibooks
wikidata
wikidataselectors
wikieval
wikifunctions
wikigap
wikimania
wikimedia
wikimedians
wikipedia
wikipedians
wikipedias
wikiproject
wikis
wikisource
wikisources
wikitech
wikitext
wikiversity
wikivoyage
wikivoyages
wiktionaries
wild
wildpark
wilhering
will
willd
williams
williamsii
willing
willis
wilson
wilsonii
win
window
windows
wing
winged
winners
winter
wish
wishes
wishlist
witch
witches
with
within
without
wittm
wm
wmde
wmf
wmru
wo
wolfgang
woman
women
won
wong
wood
woolly
word
words
work
workboard
worked
workflow
working
worklist
works
world
would
wow
wps
wpwp
wrapinurl
wrapper
wrapperextraargs
wrappers
wrayi
wright
wrightii
write
writing
written
wroclaw
wrong
wsoy
wsw
wu
wullschlaegelia
www
x
xantholeuca
xeno
xerophila
xi
xii
xiii
ximenae
xiv
xix
xls
xv
xvi
xvii
xviii
xx
xxi
xylobium
xytriophora
y
yamam
yangshuo
yauaperyensis
year
years
yekt
yellow
yemen
yes
yet
yiddish
ying
yla
yle
yliopisto
yliopiston
ympa
yo
yoania
york
you
young
your
youtube
ypirangae
yto
ytto
ytya
yu
yucatanensis
yue
yuko
yulania
yunnan
yunnanense
yunnanensis
yyyy
z
za
zaglossus
zambia
zaragoza
zaratananae
zealand
zebrina
zedoaria
zelenkoa
zenii
zentrale
zero
zerumbet
zeuxine
zh
zhang
zhurn
zimbabue
zimbabwe
zingiber
zinnia
ziyaretiana
zollingeri
zonata
zone
zones
zoo
zoom
zootrophion
zotero
zovalis
zr
zu
zucc
zum
zunagensis
zur
zygopetalum
zygosepalum
zygostates
{
|
}
~
§
«
¬
­
®
°
±
²
³
¶
·
¹
»
¼
½
×
æ
ı
ł
ŋ
ə
ʻ
ʼ
ˈ
ˌ
ː
˝
ˮ
̀
́
̂
̃
̄
̆
̇
̈
̉
̊
̋
̌
̓
̔
̛
̞
̣
̦
̧
̨
̩
͂
ͅ
͡
α
ε
ει
η
θ
θε
ι
και
μ
μω
ν
ο
ου
πα
προ
ρ
ς
σου
τ
το
τοι
τυπο
τω
υ
ω
а
аа
ааронсония
абаза
абдоминеа
абиу
абрам
абраммыс
абрамович
абсолют
абу
абужык
абуо
абхазияын
абьячои
авг
август
августа
августын
авджылар
авиценния
авокадо
авра
аврае
австралия
австралияын
австрия
австрияко
австрияын
австроцедрус
авто
автобус
автобуссэз
автовокзал
автомобиллез
автономия
автономно
автономного
автономныи
автор
автореф
автотуи
авьяэзло
ага
аган
аганисия
агатис
агбан
агглютинативных
агентство
агератум
аглая
аглосоринка
агния
агростофиллум
агры
агын
ад
ада
адамантиния
адана
адзва
адзз
адззало
адззам
адззамо
адззан
адззас
адззат
адззи
адззис
адззисо
адззо
адззы
адззывны
адззыл
адззылан
адззыны
адилджеваз
админ
административно
адольф
адрес
адресу
адресыс
адриатика
адрия
адроризон
адыг
адыяман
азбука
азербаи
азии
азимина
азия
азияись
азияко
азияло
азиясо
азиясянь
азияын
азияыс
азияя
азов
аи
ак
академии
академик
акакаллис
акампе
акант
акантефиппиум
акв
акермания
аки
аккузативын
акмопиле
акостэа
акриопсис
акролофия
акрорхис
акрохэне
аксараи
аксе
аксу
акте
актиноиддэз
актиностробус
актуальные
акушер
акчаабат
акчадаг
акьюрт
ал
аламания
аланму
аластаро
алатырев
алачам
алаш
алгебра
але
алевтина
александр
александрович
александровна
алексеевич
алексеевна
алексеи
алетеи
алеут
алжирись
алжирын
али
алинь
аллея
алмаз
алмаззэз
алмус
алнаш
алтаи
алтенштаи
алтингия
алтындаг
алуджра
алфавит
альберт
альбина
альбом
альварадоа
альманах
альпа
альпиния
альпинияыс
альпинияэз
альстре
альтернативному
альтернативныи
альфа
альфе
аляска
аляскаись
аляскаын
ам
ама
амазон
амасра
амасья
амбарелла
амбрелла
амбулатория
амезиелла
америка
америкаись
америкаын
амерорхис
амитостигма
амомум
амон
амстел
амстердам
амстердамын
амулеттэз
амур
амурись
ан
ана
анадолу
анакамптис
анактувук
анализ
анализа
анализу
ананьинса
ананьинсало
ананьинсаыс
анастасия
анаталлис
анатолии
анатольевич
анатольевна
анбур
анбурись
анбуро
анбуроо
анбурс
анбурын
ангел
ангеллэз
англ
англии
англияын
ангола
ангрекопсис
ангрекум
ангулоа
андалусия
андорра
андреевич
андреевна
андреи
андров
андрокорис
андроно
андырын
анектохил
анкара
анкараись
анкудинова
анна
аннона
аннонаыс
аннонаэз
анонимныи
ансамбль
анселлия
анталья
антарктида
антарктика
антилла
антипинск
антогониюм
антонии
антонина
антония
антропология
антропотип
антти
анфалов
анцистроринхус
анцистрохилус
анча
аныб
ань
анькытш
ао
аорхис
апачи
апельсин
апеннин
апенниннэз
аплектрум
апоростилис
апостасия
апостол
апостоллэз
апостроф
аппендикула
апр
апрель
апрельын
апреля
аптека
ар
ара
араб
араббез
арабия
араза
аразаи
аракамуния
араклы
арал
аралия
аралияыс
аралияэз
арапгир
араукария
арахнис
арахнитис
аргания
аргентина
аргентинаын
аргумент
аргументов
ардануч
ардахан
ардешен
ареал
ареальные
арелдия
арестуи
аретуса
аризона
аризонаись
арифметика
аркм
аркман
аркмас
аркмико
аркмис
аркмисо
аркмо
аркмыны
арктикасянь
арлыд
армия
армияын
армяна
армяннэз
арнас
арт
артвин
артеев
арти
артип
артипо
артист
артм
артмо
артова
арторима
артто
артукаи
артур
артісь
арундина
архави
архангел
архангельск
археологгез
археология
архив
архива
архивные
архивын
архипелаг
архипов
архипович
архитектор
архитекторрез
архитектура
архитектурн
ас
асалан
асало
асаліссес
асалісьыс
асаслан
асвеськ
асвесько
асвидзо
асвужья
асвына
аси
аскадо
аскеркуэз
аскоглоссум
аскоддя
аскодь
аскодьо
аскодя
аскодял
аскодяо
аскоцентрум
асладор
аслам
асланым
асланыс
аслас
аслат
аслыныс
аслыс
асмоз
асмоза
асмознаныс
асмознас
асо
аспект
аспекты
аспектын
аспиидогине
аспиранталіс
аспирантураын
аспондасис
ассам
ассим
ассиныс
ассис
ассистенто
асср
ассьыныс
ассяма
ассямао
асторья
астра
астраханскои
астрахань
астрониум
астрономия
асфальт
асфальта
асфальтируи
асцидиерия
асш
асъюралан
асъюрало
асыв
асыввыв
асыввывлань
асыввывся
асыввывсянь
асыввывылас
асыввыл
асыввылас
асыввыло
асыввылын
асывланись
асывланьо
асывланьын
асывланяс
асывнас
асыл
ась
асьным
асьнымо
асьныс
асьнысо
асьныт
асьс
асьсо
ат
атемои
атлантика
атлас
атласісь
атмосфераись
атрибутивные
атрибуту
атротаксис
атс
атшапо
ауксопус
аулосепалум
афанасьев
афанасьева
афанасьевич
афганистан
афганистанын
афеландра
афиллорхис
афина
афрамомум
африка
африкаись
африкало
африкаын
аффикссэз
аффирматив
аффирмативын
аффрикатаэс
афшин
афьонкарахисар
ахария
ахлат
ацераторхис
ациантера
ациантус
ацинета
ачым
ачыс
ашкале
ашмарин
ашмаринские
ашхабад
ашын
ашынас
аэропорт
аэропорттэз
ая
аяния
аянісь
аяш
б
ба
баб
бабако
бабин
бабина
багджылар
баддюв
баддя
бадь
бадьо
бадья
баж
бажин
бажина
бажинаын
бажинчи
бажо
база
базар
базифиллэа
баи
баиль
баит
баитан
баитны
баито
баитсьо
баитт
баитчо
баитіко
баитіссез
баитісь
баку
бакупари
бакырке
бала
балаган
баландин
баландина
баланопс
балкан
балл
балтика
балты
балуев
балыкесир
бальзам
бальзамориза
бальса
баля
балязина
баляэз
баляэзо
баляэсо
банан
банк
банкс
баннерная
баннернои
баобаб
бар
бараксанов
баран
барано
бараншор
барбоселла
барбродрия
барда
баркерия
барсук
бартолина
бартын
бас
баскервилла
баскетбол
баскетболист
баскиль
басни
баснисо
басниын
басо
басс
бассеи
баталова
батман
батуев
батшамья
батюррезо
бахреи
бахчелиэвлер
бачев
бачман
башкыр
башкырму
башкырмуись
башкырмул
башкырмуын
башкыррез
баяндин
баяндина
баят
бдін
бе
без
безлично
безличных
безносиков
безносикова
безносов
безопасность
беи
бек
беларуссэз
беларусь
белгия
белицер
бело
белоглоттис
белое
белоево
белых
бельде
беляев
беляк
бен
бентамия
берг
бергало
берго
берд
бердас
бердо
бердын
бердісь
бере
берег
берегитны
березники
березовка
беринг
берлин
берри
берся
берсянас
берсясо
берсятор
берсяторрез
берсяыс
берт
берто
бертч
бертчис
бертіс
беседы
бесерман
беспруд
бессалько
бешикташ
би
биа
биармия
библиотека
библиотекаэз
библия
бивидзан
бигнаи
бизнес
биледжик
билимби
билингвов
бинге
бинотия
биобиблиогр
биографии
биография
биология
бипиннула
бипур
биреджик
бириба
бисерова
бискаи
битлис
бифренари
бичирок
бияс
бка
благоволенне
благодарим
благодарностью
благоев
благословит
бланко
блетилла
блетия
ближаи
блог
блокланд
бо
боболь
бог
боголюб
бои
бокао
бокситтэз
бол
более
боливи
боливия
боливияын
боло
болу
больни
больнича
больше
большим
большое
большои
бомарея
бондюг
боннетия
бор
борва
борганика
борис
борисович
борисовна
борисовчи
бормото
бормотов
бормотовчи
бормотовчилань
бормотовчисянь
борнео
борнеоись
борчка
босна
боснаись
босьт
босьтам
босьтас
босьтасьо
босьтны
босьто
босьтіс
босьтісо
боталов
боталова
ботаника
ботаническии
ботов
боябат
бпл
бражкин
бразив
бразивын
бразили
брамовка
брассавола
брассия
братислава
братиславско
браунлея
брахионидиум
брахистеле
брахихитон
бревер
бретань
бригада
брит
бритму
бритмуын
бромао
бромхэдия
бронза
бронзаись
бругтония
брэмия
бу
бувардия
бугесера
будапешт
будапештын
будем
будет
буджак
будут
будущего
будым
буждо
буи
буква
буквар
букваррез
букварь
буланык
булач
булгара
буллеи
бульбофиллум
бумага
бур
бура
буражык
буракодь
бурдо
бурдур
бурера
буржык
буржыка
бурзера
буркодь
буркывья
бурлыкина
бурмо
бурнеттия
буро
буров
бурса
бурсьо
бурт
бурхеллия
буря
бурят
бус
бусасамана
бутан
бутанын
бутанісь
бухтиения
бушене
бы
бывкаэз
быд
быдкодь
быдлаись
быдлао
быдлаын
быдлунся
быдм
быдмам
быдмас
быдмассэз
быдмассэзл
быдмассэзло
быдмассэзісь
быдмис
быдмо
быдмыны
быдне
быдныс
быдо
быдс
быдса
быдсо
быдсяма
быдт
быдто
быдчужо
быдыс
быдысло
быков
был
была
были
былись
было
быльно
быро
быт
быттьо
бытшкасян
бытшо
бытын
быть
бытьт
бытьто
бюджет
бюи
бюллетень
бюллетеня
бюро
бюроын
в
ва
вавидзан
вавидзано
вавидзаныс
вавидзанін
вавилин
вавилон
вад
вадо
вадор
вадорын
вадорыс
вадты
вадывел
важ
важв
важгорт
важжык
важм
важмоз
важно
важся
важты
важыб
важын
важынжык
важынся
важынсянь
важысянь
ваза
ваи
ваись
вакка
вакфыкебир
вал
вала
валаужом
вале
валеи
валентин
валентина
валериевна
валерии
валерьевич
валерьяновна
валуннэз
вальд
валько
вальков
вам
вами
вампи
ван
вангерия
ванда
вандопсис
ванеев
ванеева
ваниль
ванись
вания
вануату
ванха
ванысо
вань
ваньын
ванял
вао
ваок
вап
вар
варавва
варганов
вариант
вариантах
варианттэз
вариететтэз
вариссуо
вармингия
варсинаи
варт
вартл
вартласо
вартло
вартлыны
варыш
варяыс
вас
васарамяки
васе
василеи
василии
василь
васильев
васильевич
васильевна
васо
вассало
вась
васька
васькин
васькина
васюк
васютов
ватикан
ваувтся
ваувтырао
вах
вахрушева
вачкис
вачкись
вачкисьо
вачкисян
вачо
ваш
ваше
вашем
ваши
вашингтон
ваших
вашо
ваыс
ваысло
ваэз
ваэзло
ваэзо
ваэсо
ваюканінын
ваявны
ваяло
вв
введение
ввез
ввезло
ввезо
вверху
ввес
ввесо
вво
ввода
ввуж
ввужсо
вгтрк
вдруг
ве
вевд
вевдо
вевто
вевттисьо
вевтть
вевттьо
вевттьывло
вевттьыло
вевья
вегетативно
ведомости
веж
вежа
вежаи
вежалун
вежалуннэз
вежалунся
вежам
вежаты
вежашор
вежис
вежись
вежласико
вежлась
вежласьо
вежласян
вежны
вежо
вежсис
вежсь
вежсьо
вежсьы
вежсьыл
вежсьыло
вежын
вез
везо
везувии
веи
век
века
веке
веккез
веккезо
веккезся
векло
векнит
векнитик
веко
веков
векся
вексянь
вектор
векын
вел
велал
велало
велва
велвало
велвао
велико
великобритания
вело
велта
вель
вельвичия
венгерскои
венде
венесуэла
венесуэлаын
вень
веньдін
веньл
вепс
вепт
вепто
вера
вербена
верд
верданін
вердас
вердо
вердчанін
веретя
веретяэз
верещагин
верещагина
верит
верм
вермам
вермас
вермасо
вермась
вермасьо
вермис
вермись
вермисьл
вермо
вермы
вернония
веро
версии
версия
вертикаль
вертикордия
вертюсва
вертюсваись
вертюсвасянь
вертюсваын
веруи
верх
верхнего
верхнеи
верховн
вершинин
вершининісь
верюсва
весляна
веслянало
веслянао
весна
весо
вестник
весыва
весым
весь
веськ
веськавны
веськал
весько
веськыт
веськыта
веськытвыв
веськытланьсянь
веськыттэз
весьт
весьто
весьтын
вет
ветеринар
ветл
ветла
ветлан
ветлана
ветло
ветлывл
ветлыны
ветлі
ветліс
ветлісо
ветын
вехма
веч
вешт
вешто
вештісо
вешшо
веществоэз
взавод
взаимодеи
взглядам
ви
вид
вида
виддэз
видеть
виджо
видз
видза
видзаи
видзан
видзана
видзантор
видзанін
видзаніннэз
видззез
видзин
видзис
видзисо
видзиссез
видзись
видзисьо
видзны
видзо
видзсь
видзсьо
видлал
видрингтония
видъе
видын
видыс
виж
вижаи
визе
виззез
виззя
виззяв
виззяорда
визин
визиндор
визиныс
визир
визиррез
визиррезын
визирсаи
визирын
визирыс
визулын
визыввез
визывтан
визывто
визылын
визь
визьо
визьыс
вии
вик
вики
викиданные
викиданных
викикод
викимарафоне
викимедиа
викимедии
википедии
википедия
виктор
виктория
викторович
вилесов
вились
виль
вильгорт
вильмоз
вильпашия
вильса
вильыб
вилюи
вин
вина
винакераншор
виника
винитны
виноват
винсент
вио
вир
виргинияись
вирнамяки
вис
висер
виско
висо
виссэз
виссэзо
вись
висьт
висьтав
висьтавны
висьтавто
висьтал
висьтала
висьталантор
висьталас
висьтало
висьталіс
висьтас
висьтась
висьтасьо
висьттэз
висьтъяс
висян
вит
вита
виталии
витальевна
витдас
вито
витсен
витязева
вифания
вифлеем
вифлеемын
вич
вича
вичкодор
вичкося
вичку
вичкуись
вичкуся
вичкуын
вичкуыс
вичкуэз
виччись
виччисьны
вичын
вишера
виял
вк
вка
вклад
включает
включая
включить
вко
вкп
вл
владимир
владимирович
владимировна
влань
вланяс
власов
власовна
власти
власть
влась
влияние
вло
вместе
вмыс
внас
внести
внизу
внимание
вны
вня
во
воас
вовл
вовло
вовлісо
вовлісь
вовлісьо
вовпа
вог
вогул
водзын
водные
водь
вож
вожасянінын
вожжез
вожжезо
вожжезісь
вожжес
вожжэс
вожо
вожт
вожыс
вожьясянгыжаэз
возвращаем
возвращает
возможно
возможности
возможность
возник
возрастом
возрождение
вои
воиннэз
воиннэзл
вок
вокзал
вол
воланьын
волга
волгадор
волгало
волгао
волгоград
волегов
волеи
воллез
воллемия
волна
воло
вологда
волок
волонте
волосись
волоссез
волось
волосьл
волосьын
волся
воль
вольвог
вольвыл
волько
волькыт
волькыткодь
волькытін
волькытіннэз
волькытінын
вольмыс
вольфрам
волья
воля
волі
вомын
вон
вонас
вонл
воннэс
воо
вопроса
вопросам
вопросов
вопросу
вопросы
воробье
ворота
ворсантор
воспользуи
восток
восточно
восточным
восточных
вося
восянь
вот
вотка
воткаын
вото
воч
воын
воыс
воысло
воэз
воэзо
воэзся
воэзсянь
воэзын
вояс
впан
впо
впом
враггез
враггезл
врам
врангель
времен
времени
временная
время
вс
вса
всао
все
всеволожск
всего
всеи
всем
всероссии
всех
всин
вск
вско
всо
встреч
встреча
встрече
встречи
встречу
вступ
всьы
всьыто
всю
вся
всянь
всяняс
вт
втан
вто
втюя
втюяын
ву
вудж
вуджан
вуджанао
вуджис
вуджны
вуджо
вуж
вужа
вужжез
вужжезісь
вужжес
вужись
вужкыв
вужкывсянь
вужнаныс
вужпас
вужпасл
вужъя
вужья
вузавл
вузал
вузалан
вузало
вузась
вузасьо
вузасян
вузасянін
вузовского
вуктыл
вула
вулкан
вулшлегелия
вум
вун
вундало
вуно
вур
вурд
вурлам
вурло
вуровчи
вуровчиын
вурун
вуруно
вцик
вчи
вчиво
вчиыс
вш
вшо
вшор
въе
вы
выбор
выборам
выборах
выборов
выборы
выбрать
выв
вывлань
вывланьо
вывода
выводить
вывся
вывсянь
вывтыр
выделены
вызов
вызова
вызывает
выи
выл
выланыс
вылас
выло
вылын
вылына
вылынанас
вылынао
вылынаыс
вылынаэз
вылынжык
вылынмыс
вылыно
вылынін
вылынінко
вылынінын
вылынінісь
вылыс
выль
выльгорт
выльгортын
выльтыдор
выльыб
вылісь
вымысшор
вын
вына
вынаджык
вынажык
вынао
вынва
вынвао
выннэз
вынсь
вынсьо
выныс
вып
выпуск
выпускники
выражение
выражения
выс
выселок
выск
выскажите
высказать
высшего
выходит
вычегда
вье
вьетнам
вьетнамись
вьетнамын
вятка
вятти
вяхяе
вяхяхеи
вячеслав
вячеславович
г
га
гаага
габов
гаваи
гаврив
гавриковск
гаврил
гаврилович
гагарин
гагарина
гагра
гагшор
гаж
гажа
гажав
гажамыс
гажжез
гажо
гажт
гажто
газ
газет
газета
газетаись
газетало
газетаын
газетаэз
газетаэзын
газзэз
газиантеп
газиосманпаша
газпром
гаи
гаинчи
гаити
гакенке
галактикало
галдина
галеандра
галеарис
галеола
галерея
галилеяись
галин
галина
галя
галямыс
галясо
галяшор
галяяма
гамора
гане
ганн
гантман
гар
гараж
гардения
гари
гаронн
гарри
гартчо
гаршыэз
гасабо
гасис
гастродия
гастрохилус
гасяс
гатсибо
гашк
гаын
гва
гвадиана
гватемала
гватемалаись
гватемалаын
гвиана
гвинея
гвинеяын
гг
гггг
ггез
ггезо
ггезын
ггес
ггесо
гда
где
ге
геббез
гебсе
гевсиманск
гедихиум
гедихиуммез
геликония
геликонияыс
гемерек
генеалогия
генерал
гениорхис
генипа
геннадии
геннадьевна
генри
гень
географические
география
геология
геометрия
георгиевско
георгии
георгина
герасимова
гербера
герман
германии
германия
героес
герои
герс
герскан
герсканысло
герунддэз
герцеговина
герцеговинако
герцеговинаын
герцена
герценовские
геттарда
ги
гибралтар
гибрид
гибридвла
гибриддэз
гиж
гижало
гижан
гижаннэз
гижис
гижисо
гижиссез
гижиссезлісь
гижись
гижны
гижо
гижсь
гижсьо
гиз
гиккел
гимала
гималаи
гималаись
гималаяын
гимнадения
гимназия
гинкго
гиресун
гисагара
гись
гичумби
гишари
гишш
гишшаннэз
гл
главн
главно
глагол
глагольное
глаз
глазов
гласных
глен
глиптостробус
гло
глобальное
глобальных
гломера
глоссодия
гляденса
гляденсало
глян
гмелин
го
гов
говения
говк
говор
говора
говорах
говоре
говоры
говск
год
года
годдэз
годдэзо
годнас
годо
годов
годового
годовои
годся
годсянь
году
годы
годысло
гожся
гожум
гожумнас
гожумо
гожумсо
гожумся
гожумсянь
гожумыс
гоз
гозъя
голев
головина
голосов
голосование
голосовании
голосования
голосующим
гомфихис
гонгора
гондурас
гондурасын
гончаррезл
гор
гора
горадзуль
горал
гордеев
гордина
гордония
горзыны
горизонт
горизонталь
горизонты
горки
горкии
горница
горо
город
города
городе
городище
городского
горт
гортас
гортвидзан
гортвидзаннэз
гортлу
гортлуд
гортлудсяняс
гортлудчи
гортлудын
гортлудыс
гортныс
горто
гортся
гортсянь
горттэз
горттэс
гортын
гортысь
гортісь
горчаков
горын
горькии
горько
гос
госиздат
господин
государственн
государственно
государственного
государственное
государственнои
государственности
государственныи
государство
государстволо
готов
гоу
гр
гра
грабежова
гравии
гравия
град
гракар
грало
грамматика
грамматикаын
грамматикаэз
грамматике
грамматики
грамматическии
грамматофиллум
грамота
границы
граничито
гранты
граф
графика
графит
грезд
грездас
грезддэз
грезддэзас
грезддэзын
грезддэзісь
грезддэс
грездко
грездл
грездло
грездо
грездс
грездсис
грездсо
грездсянь
грездсяняс
грездын
грездыс
грездысл
грездісь
греи
гремячо
греххез
греххезсянь
грешит
грешниккез
гриб
грибанов
грибановко
грибова
грива
григории
григорьевич
григорьевна
гризли
гризон
гришинчи
гро
гроне
гронинген
грузия
грузияын
грумичама
грунтісь
групп
группа
группаись
группао
группаын
группе
группы
грут
грэс
гскоу
гсо
гтрк
гу
гуа
гуаи
гуарианте
губаха
губернатор
губернии
губерния
губернияись
губерниял
губернские
губерняись
гудаута
гуди
гул
гулыд
гуляев
гумагаэз
гумагаэзын
гумагэз
гумирия
гуна
гунаэз
гупия
гурин
гуринын
гусь
гуся
гусялны
гут
гуткулантшак
гущин
гчужо
гъяс
гым
гын
гыриссез
гырись
гырисьжык
гырисьм
гырисьо
гыс
гысло
гыч
гэс
гюдюл
гюмюшхане
гюнге
гюнеи
гюрюн
д
да
дав
даваи
давгава
давид
давидл
давны
давсон
давыдов
давыдова
даг
дагестан
даж
даже
даись
дак
дакридиум
дактилориза
дал
далль
дало
дальн
дам
даман
дан
данилова
данилович
данмарк
данног
данного
данное
данные
данныи
данным
данных
дао
дар
дарга
даренде
дас
даса
дасвит
даскык
дасморт
дасо
дась
дасянь
дат
дата
датив
даты
дать
дача
даын
два
двап
две
движение
движением
движению
движения
двор
двори
двуж
двух
двуязычия
двылын
дд
ддельно
ддь
ддьо
ддэзо
ддэс
де
дебрецен
девинын
деврек
девята
дего
дед
деддэзным
дедеруи
деепричассе
деи
декаб
декабрь
декабря
декабсянь
декабын
декан
декоративно
делавеи
делам
делемень
деление
дело
делоэз
дельта
демин
демография
ден
дена
дендробиум
дендрофилакс
дендрохилум
денизли
денисов
день
деньга
департ
департамент
депо
депутат
депутаттэз
депутаттэзл
дербент
дереванно
деревенск
деревенькина
деревенькинаын
деревня
деревняас
деревняись
деревняс
деревнясянь
деревняын
деревняэз
дерябин
десятичнои
дет
деятельности
деятельность
дж
джаботикаба
джаг
джамболан
джан
джанса
джанын
джеи
джекфрут
дженыт
дженыта
дженытвог
дженытныра
дженьыд
джжез
джись
джлісь
джо
джодж
джсо
джуба
джуджыта
джуджытін
джуджытіннэз
джуджытінсянь
джума
джыдж
джын
джынви
джыно
джынсо
джынся
джыншар
джыншарас
джыншарын
джынъя
джынын
дз
дза
дзар
дзарнь
дзарпас
дзарпассэз
дзеб
дзебаніннэз
дзебл
дзебны
дзебо
дзебсь
дзебсьо
дзебсянін
дзебсяніннэз
дзельгорт
дзельпальникись
дзержинск
дзеско
дзескытіно
дззез
дзиб
дзибья
дзик
дзир
дзирдаммо
дзирыт
дзл
дзлун
дзны
дзо
дзодзоггез
дзоль
дзольгорт
дзольгортсянь
дзоля
дзор
дзоридз
дзоридза
дзоридзало
дзоридззез
дзув
дзуввес
дзулэя
дзыв
дзыс
дзыт
дзыто
дзыттэз
ди
диалект
диалекта
диалектами
диалектах
диалекте
диалектнои
диалекто
диалектов
диалектологии
диалектология
диалектсо
диалекттэз
диалекттэзл
диалекттэзло
диалекттэзын
диалекттэзісь
диалекттэсо
диалекты
диалектын
диалектыс
диалектісь
диалог
диаметрын
диахронии
диво
дивриги
дивья
дидимоплексис
дизель
дизельма
дик
димитриев
димокарпус
дин
диодия
диплокаулобиум
диплом
дипломо
диподиум
диптерокарп
директор
дис
диса
дискография
дискотекаэз
дискуссии
диспансер
дисперис
диссертация
дись
дит
дито
дитч
диурис
дихапеталум
дихромантус
дихэа
диярбакыр
дк
дкодьсьо
дкоста
длаас
длао
длап
длапо
длас
длаті
длаын
для
длі
дмалан
дмаланнэз
дмало
дмд
дмитриевич
дмитриевна
дмитрии
дн
дна
днавны
днаись
днал
днало
дналісь
днасянь
днаын
дне
дно
дны
дныс
дныск
дныско
днысо
дня
до
добавьте
добро
доброго
добрыи
добрянка
дов
доганшехир
дод
додз
додонаэа
доз
доззэз
дозмо
дои
докл
докладов
доклады
доктор
документах
документация
долг
долгоев
долготы
долже
должен
должник
должно
должны
долина
доломиттэз
дом
домбея
домингоа
доминикан
домна
домовище
домышт
дон
дона
донладор
донсо
доп
дополнительного
дополнительные
дополнительныи
допускает
допустимые
дор
дорас
дорезын
дори
дорись
доритэноппсис
дорланяс
дорло
дорнас
доро
доров
доровиков
дорович
дорожн
доронин
доррезсянь
дорсис
дорся
дорсян
дорсяна
дорсянь
дорсянін
дорсяо
доръям
дорын
дорьян
дорьяніннэз
достижения
доступен
доступны
доцент
доценто
дошкольниккез
дпо
дпыр
дпырись
дпырся
др
дракс
дракула
дракэа
драма
драматург
драматургия
древнеи
древнекоми
древнепермскои
древности
дренируи
дреслерелла
дреслерия
дриаделла
дримода
дро
дрофа
дрсу
друг
другие
другими
других
другои
дружба
дса
дсао
дск
дсо
дсянь
дто
дубассэз
дубровина
дубровка
дугд
дугдасо
дугдо
дугды
дугдывто
дуд
дудіыс
дук
дукеелла
дума
думаи
дуна
дунне
дурангоись
дуранта
дуриан
дуро
дуров
дут
духовная
душанбе
дч
дчан
дчана
дчанажыко
дчанкыв
дчанним
дчаннимлісь
дчанниммез
дчанниммес
дчо
дчыны
дъю
дъяс
дын
дынас
дыно
дынсянь
дынын
дынынжык
дынісь
дыр
дыра
дыржык
дыри
дырна
дырни
дырья
дыс
дысло
дысь
дысьлы
дысьяс
дыш
дь
дьяконов
дьяшор
дюздже
дюттясьл
ді
діасе
дік
діккез
діла
ділаын
дін
дінын
діоккез
діс
дісо
дісь
діэз
дія
е
евангелле
евгении
евгеньевна
евразия
евразияись
евразияын
евреи
европа
европаас
европаись
европало
европао
европаса
европаын
европеи
европы
евсин
евтерпе
ег
егемен
египет
египетло
египетын
его
егор
егоров
егорова
егорович
егоровна
ед
едэма
ее
ежаа
ежеквартально
ежели
ез
езл
езло
езо
езісь
екатерина
екатеринбург
еларна
елена
елизавета
елькин
ельцова
ема
емаэз
емва
емваль
емдін
емдіно
емдінын
емдінісь
емен
ен
енвевт
енвевтын
енимахалле
енисеи
енишехир
енл
енмам
ено
енот
епанов
епархия
епископ
ер
ера
еринь
ермак
ермаков
ермов
ерусалим
ерчи
ес
если
есо
есть
етрао
етш
етша
етшажык
етшажыко
етшао
етшыс
ефимович
ефремов
ешты
еще
ж
жа
жаг
жаго
жак
жакиния
жакключ
жако
жаков
жакова
жаковл
жалан
жалеи
жанров
жар
жас
жась
жва
жваыс
жваэз
жданов
жде
же
жеб
желанне
жеребцов
жеффреи
жжез
живая
живе
животных
жизни
жизнь
жланяс
жо
жонок
жонь
жоньвидз
жсяняс
жугд
жугдо
жугдіс
жуков
жумеллея
журнал
журналист
журналын
жык
жын
жыс
з
за
забоев
забоева
забудьте
завдзо
завершение
завершится
завет
завод
заводас
заводдэз
заводдэзо
заводл
заводын
заводыс
заглавную
заголовками
заголовков
заголовком
заголовку
заголовок
задано
заж
заи
заимствованных
заинтересованных
заказник
закон
законник
законодательство
законын
зал
заменить
занимаи
занстад
зао
заозерье
зап
запальник
записи
записки
запись
заповедь
заполле
заполнив
запольчо
запт
запто
заптыны
зара
заречн
зарни
зарниа
заря
заслуженн
затем
затон
зауроглоссум
захария
заэз
заявки
заявление
заявлении
заявления
заявок
званне
зве
звезда
звир
згальник
здесь
здно
здоров
здравствуи
зе
зевксина
зеи
зеланд
зеландия
зеландияись
зеландын
зеленеч
земли
земство
земствол
зепта
зептале
зептамукань
зер
ззэз
зи
зигопеталум
зигостатес
зиле
зиль
зимстан
зинаида
зинко
зия
зияын
зк
зко
зколасся
зколасісь
зкостса
зл
зло
злодеи
знамя
знании
знания
знахарство
значение
значении
значения
значенне
значит
зо
зобга
зов
зовка
зон
зона
зонао
зонаын
зонгулдак
зонка
зоночка
зонсо
зоныс
зоология
зоотрофион
зор
зорало
зорамис
зорамм
зораммо
зорамо
зоро
зоя
зсо
зт
зто
зуа
зубов
зувт
зула
зъя
зъяин
зыкин
зым
зын
зына
зырана
зырян
зыряна
зырянал
зырянало
зыряналісь
зырянао
зырянаыс
зыряне
зыряно
зырянов
зырянскии
зырянских
зырянско
зырянского
зырянском
зыс
зысло
зьведи
зэв
зэло
зэр
зэра
зэрны
зэррез
зэррезо
зю
зюзьдинсаыс
зюзьдын
зюзьдынісь
зюзьдін
зюзьдінса
зяб
зяи
зі
зісь
и
иа
иаков
ибер
ибн
ив
иван
иванов
иванова
иванович
ивановна
иваново
ивановчи
иванчина
иванчинаын
ивр
иврит
иву
ивучовчи
иг
иган
игорь
игушев
ид
идеи
идеология
идея
ие
иерусалим
иерусалимись
иерусалимын
ижевск
ижкар
ижкарын
ижма
ижора
ижын
из
изабелия
избавит
избирательная
избирателя
извесняк
извесняккез
известно
извесь
извинения
извините
изгарьян
изд
изданиях
изданне
издательство
иззэз
изи
изкар
изменении
изменения
изменениях
измерение
измир
измит
изо
изображение
изображением
изображения
изобразительно
изов
израиль
изучение
изучении
изучению
изучения
изшом
изшомо
изъюр
изъюров
изъя
изъяшор
изьва
изьватас
ии
иисус
иисуса
иисусл
ик
икако
икиздере
ико
иксора
ил
илама
иланг
или
ились
илич
иллича
иллои
илля
иллялун
илляся
илляын
илпои
иль
ильин
ильинична
ильинско
ильиных
ильич
ильича
ильче
илья
им
имаи
имбирь
имбу
имеет
имеи
имели
имен
имени
именне
именно
именное
именных
императив
императивын
империя
империяын
имя
ин
инвожо
инга
ингл
инглиш
инд
инда
индии
индикатив
индия
индияын
индо
индокитаи
индонезия
индонезияын
индустрия
индустрияын
инжир
инмыс
инновации
инновационные
иннэз
ино
инспекция
институт
института
институттэз
институтын
инструкции
инструмент
инструменталь
инструменты
инта
интерес
интересно
интерессэз
интересуи
интересы
интернат
интернет
интернете
интерфеи
инувиалуит
инуит
инуктитут
инфинит
инфинитив
инфо
информ
информатика
информации
информационно
информационного
информационныи
информацию
информация
инфракласс
инфраструктура
инь
иньва
иньваи
иньваланьын
иньвало
иньвао
иньвенса
иньвенско
иньд
иньдо
инька
инькалун
инькаэз
инькаэс
иньпо
иньыс
инюпиак
инюпиаккез
инюпиатун
иоан
иоанн
иода
ион
иона
иордан
иосиф
ип
ипатов
ир
ирак
иракын
иран
иранын
ирвел
ирвин
ирвингия
ирина
ириссез
иркут
ирму
ирмуын
ирны
ирод
иртыш
ирыштон
ис
исаев
исаков
исаковка
искандер
искилип
искра
искусства
искусство
ислам
исланд
исо
исохеи
исохилус
испани
испир
испои
использовались
использование
использованию
использования
использовать
используется
используи
использующих
испр
исраэль
иссез
исследования
исследователи
исследуи
ист
истанбул
истер
истомин
истомина
истории
историк
историко
историческая
историческии
историческо
история
историяо
источник
источники
исыв
исывло
ись
ит
итака
итакаись
итали
италия
италья
итальяко
итальян
итальяын
итан
итас
итассэз
ито
итоги
итсьо
иттассэз
итч
итчан
итчо
итчыны
итяранта
итяхарью
иуда
иудаизм
иудеи
иультин
их
ихтиология
ичо
июль
июля
июнь
июня
ия
ияли
к
ка
кабарга
кабарда
кавак
кавказ
кавказын
кавказісь
кавпатори
кага
кагеи
кагыргын
кад
кадакыв
кадакыввез
кадакывл
кадакывло
кадакыла
кадакылын
кадакылісь
кадас
каддэз
каддэзо
кадетия
каджжезо
кадколас
кадлыддян
кадо
кадров
кадс
кадсо
кадся
кадсянь
кадсяэзо
кадыке
кадын
кадыс
кадьякісь
кадісь
кажд
каждои
каждые
каждыи
кажитчис
кажым
каз
казан
казанцев
казань
казаньын
казаринов
казаринчи
казаринчиын
казах
казахстан
казаххез
казнал
казуарина
казым
казьм
казьмо
казьтывсь
казьтывсьо
казьтыл
казьтылан
казьтыланін
казьтыло
казьтышт
казьтыштны
казьтышто
казьтісян
казял
казяло
каи
каиафа
как
какаду
какадуэз
какие
каколанмяки
какскерта
кал
калаалит
каладения
каланте
калат
калатея
кале
калеана
каледжик
каледония
каледонияын
календарь
календаря
каликова
калимантан
калина
калинин
калининград
калиновка
калиновкас
калипсо
калиптрохилум
калитчис
калифорния
калифорнияись
калкандере
каллистефус
каллитрис
каллитропсис
калмык
калмыкия
калмыкму
кало
калопанакс
калопогон
калофилл
калоцедрус
калсаи
каляты
кам
кама
камаи
камакатыт
камако
камало
камао
камасинісь
камашор
камаысло
камгорт
камгэс
камелия
каменка
камоньи
кампании
кампания
кампилоцентрум
кампинема
камск
камско
камского
камчатка
камчаткаись
кан
канада
канадаись
канадаын
канал
каналан
канализация
каналлэз
канамовчи
канарісь
канаын
кангал
канд
кандидат
кандидатам
кандидатов
кандидатуру
кандидаты
кане
канева
канин
канистел
канкар
канкаро
канкаррез
канкарын
канкарыс
канкыв
канл
канло
канму
канмуас
канмуко
канмуло
канмуо
канмуын
канмуыс
канмуэз
канмуэзло
канмуэзся
канна
каннаыс
каннез
каннет
канта
кантабрия
кантиум
канысло
кань
каньяст
канюков
као
капустин
кар
кара
карабюк
караваев
карагаи
карадениз
каракочан
каральвеем
карама
караман
карамбола
каранда
карас
карассэз
караулит
карачаево
карачаи
караязы
карбас
карбассис
карбасын
карвуджо
каргы
кардор
карел
карелия
карело
карзо
кариб
карика
карина
каринаи
кариокар
карись
каркоместа
каркытш
каркытшл
каркытшло
каркытшо
каркытшшезісь
каркытшын
каркытшысло
карл
карло
карлыова
кармазин
карманова
карму
кармуас
кармул
кармуын
каро
кародз
карок
кароккез
кароккезын
кароксянь
карокын
каронги
карп
карпов
карповись
карпом
карпоммез
карпомыс
карппез
карпу
карпуньшор
каррез
каррезын
каррезыс
карс
карса
карск
карсо
карст
карсянь
карта
картавывсо
картавыл
картвелму
картина
картка
картов
картор
карторрез
карточках
карточке
карточки
карточкои
карты
каруна
карч
карчи
карчинск
карчо
карчои
карчояс
карчсис
карш
каршо
каршыяка
карын
карыны
карыс
карысл
карысло
карьер
карьера
карьяла
касасия
каспи
кассян
кассяна
кастамону
кастанопсис
кастилля
касту
кастуын
касянь
кат
катаев
каталоге
катальпа
катарина
катасетум
категори
категории
категорию
категория
категорияэз
категорија
категорія
кати
каттлеелла
каттлея
катть
катшасин
катыла
катыт
катытас
катытын
катытынжык
катькар
катэгорыя
каукэа
каулартрон
каури
кафедра
кафедрао
кафедраын
кафедры
ках
кахраманмараш
качества
качестве
качествоэз
кашник
кашпальник
каын
каыс
каэз
каэрла
каян
кби
кв
квадрат
кваи
кваркыш
квартал
кварца
квать
кватьдас
кватя
квилл
квиллсо
квинсленд
квиррез
квож
квт
кг
ке
кебан
кебра
кебраты
кегелиелла
кеж
кежо
кеи
кекеттия
кекур
кельмаков
кельмакович
кельт
кельчи
кельчиюр
кемалие
кемальпаша
кемах
кемие
кемпбелл
кер
керал
керало
керам
керамзит
керан
керас
кержаккез
керико
керис
керисо
керись
керит
керку
керкуас
керкуись
керкул
керкуным
керкуок
керкуын
керкуыс
керкуэз
керкуэзын
керкуэзісь
керкуэс
керкуэсо
керло
кермод
керны
керо
керрез
керсис
керсьыны
керт
керто
керчомья
кески
кескин
кескуста
кескустао
кетелеерия
кетелеерияыс
кетов
кефалинияись
кечиэрен
кечы
кешью
кжыка
ки
кибиризи
кигали
кигиж
кигома
кии
кил
киликияись
килис
километр
километра
километрася
кимина
киминск
киминчи
киминчиись
кимна
кин
кинази
кинаись
кинихира
кинко
кинл
кинло
киннэз
кино
киномыччалан
кио
кипарис
кипас
кипасныс
кипод
киподтуи
кипонісь
кипр
кипрушева
кирехе
киров
кирово
кировск
кирпи
кирпич
киршин
киссь
киссьо
кись
киськав
киськалісо
кисьт
кисьто
китаи
кич
кичукиро
кишерть
киын
киэз
кияса
ккез
ккезо
ккиля
ккоті
кл
клавдия
класс
классификация
класслы
классо
классув
классъяслы
классын
классэз
классэзын
классянь
классісь
клеи
клематепистефиум
клементин
климат
климатын
климатыс
климатысло
климентьевич
климов
кловесия
клуб
клубо
клубын
клузия
ключ
ключи
ключчез
ключыс
ключьюр
км
кмерия
кмыс
кн
книга
книгаэз
книги
книжн
книжное
кнц
князев
княззез
князь
ко
кобот
кобуши
ков
кова
коваль
ковсис
ковско
ковчи
ковыляи
когда
код
коддьо
кодекс
кодекса
кодз
кодзув
кодифицируи
кодонорхис
кодоносифон
кодь
кодьо
кодя
коелиопсис
коелия
коелоглоссум
кожва
кожваын
кожов
кожуун
козань
козвовчи
козин
козиннэз
козлов
кои
коилостилис
кок
кока
коккез
кокнит
кокнита
коко
коколь
кокомус
коксинеорхис
кокт
коктуи
коку
кокушка
кокшага
кол
кола
колана
коланао
колас
коласаныс
коласо
колассэз
коласын
коласісь
коласіь
колва
колдовство
колегов
коли
колис
количество
коллег
коллеги
колледж
коллектив
коллективизируи
колна
коло
колорадоись
колубрина
колумби
колумбия
колумбияын
колхоз
колхоззэз
колхозк
колхозл
колхозло
колхозник
колхозо
колхозс
колхозын
колхозыс
колхозісь
колыма
коль
кольо
кольттез
кольть
кольтьваял
кольчис
кольчо
кольчуг
кольчурин
кольчч
кольччас
кольччис
кольччисо
кольччо
кольччы
колям
коляссэз
коліс
ком
команда
команде
командои
команды
комбинат
коми
коминас
комио
комиссии
комиссия
комиссияын
комитет
комитета
комиын
комиэз
комиэзк
комиэзко
комиэзл
комиэзлань
комиэзло
комиэзо
комиэзсянь
комиэзісь
комиэс
комиэсло
комиэсо
комментариев
комментарии
комментариями
коммерческо
коммуна
коммунао
коммунаын
коммунаэз
коммунизм
комои
компания
компареттия
компас
компаса
компасом
компенсацию
комперия
комплекс
комплексын
композитор
компьютер
комсомол
комсомольско
комын
кона
конан
конанын
конаныс
конго
конгресса
конда
кондилаго
кондо
конец
конкурс
конкурса
конкурсе
конкурсу
конкурсы
коновалов
консонантизма
консонантных
константин
константинович
константиновна
конституция
конструкцияэз
консультации
консультация
контекст
контексте
континент
континентас
континентвывся
континенттэз
континентісь
контора
контроль
конф
конференции
конференция
конца
концепция
кончитчас
конъюнктив
коньчи
коньшин
конья
конюхов
кооператив
координат
координатами
координатаэз
координаты
коп
копись
копск
копская
кор
кора
кораббез
корабль
корабсо
кораллориза
коран
корас
кордон
кордьюло
кореи
корея
кореяись
кореяын
кориантес
корибас
коримборкис
корис
корись
корициум
корко
корлан
корнелиус
корны
коро
корои
короле
король
корпполаи
корпус
корректируи
корректно
корректнои
корсия
корча
корче
корчовня
корыс
корья
коса
косинса
косинско
косинского
коскаись
коски
кослан
косма
космо
космогония
космос
коснырева
косовко
косогор
косогорсянь
коссез
коста
костарева
костарика
костарикаын
кострома
костус
костуссэз
косуля
кось
косьва
коськ
коськкез
косьм
косьмо
косьто
косья
косясян
косясянын
кот
котельникова
котельнич
котлас
кото
которая
которое
которои
котором
которые
которыи
которых
котша
котыр
котырвыв
котырись
котырло
котыро
котыррез
котырув
котырын
коть
кохлеантес
кохлиода
кохмо
коча
кочасянь
кочаын
коче
кочев
кочевскии
кочевского
кошшат
кошшо
кошшыны
коҥго
кпао
крагсиу
краеведение
краеведения
краеведческие
краи
краси
красиньк
красинько
красн
красная
красно
краснобаи
красновишерск
красногорье
краснодар
красное
краснокамск
краснококшаи
краснояр
красныи
краткии
кратких
краткое
края
кремастра
кремпф
креодантус
крепостит
кресення
крессяна
крестьяна
крив
кривзо
кривоще
кривощекова
кривощековои
кривчи
крии
криптарена
криптомерия
криптостилис
криптоцентрум
кристалл
кристо
кристос
крит
критик
критика
критиккез
кроме
крохалев
крув
крут
крута
крутик
крутоборка
крыкале
ксан
ксандар
ксе
ксилобиум
ксис
ксу
ксун
ксуэз
ксь
ксьо
ксян
ксяннэз
ксянын
ксяс
кт
кта
ктамыс
ктан
ктас
ктенанте
ктенолофон
кто
кты
ктыны
ктіс
ктіссез
ктісь
ку
куба
кубаись
кубаын
кубометра
кув
кува
куваас
кувало
кувао
кувеи
кувны
кувт
куделька
кудым
кудымкар
кудымкарас
кудымкарись
кудымкарлань
кудымкаро
кудымкарсянь
кудымкарын
кудымов
куеда
куж
кужись
кужо
кузакова
кузнецов
кузнецова
кузь
кузьва
кузьвог
кузьжык
кузьжыко
кузькеро
кузьма
кузьмо
кузьныра
кузьо
кузьта
кузя
кузянас
кузяныс
кузяо
кузяс
кузяыс
куи
куим
куима
куимдас
куимись
куимо
куина
кук
куканнез
кукань
кукола
кукушка
кул
кула
кулан
кулачит
куло
култер
куль
кульпо
культ
культур
культура
культурал
культураныс
культурасо
культураын
культураэз
культуре
культурно
культурного
культурное
культурнои
культурном
культурныи
культуры
куліс
кумкват
кун
кунгур
куниб
кунинкоя
куннингамия
куньыштлыны
купаи
купальна
купальнича
купаниопсис
купер
купечл
купр
купро
купуасу
кур
курала
куратов
куратова
курд
курианкуя
курила
куркума
куркумаэз
куро
курорт
курорттэз
курс
курсе
курсивное
курссэз
куруджашиле
курык
курьенмяки
курья
курьякер
курьяэз
кус
кусо
куссэзло
куст
кустави
кут
кутны
куто
кутор
кутра
кутчис
кутчисис
кутш
куч
кучев
кучева
кучик
кучикборддэз
кучиккез
кучишока
куш
кушакасис
кушамо
кушб
кушин
кушман
кушманов
кушню
кушнюр
кушты
куштыв
куэз
кфх
кчимдін
къарачаи
къямыс
кыбрысджык
кыв
кываркмо
кывб
кывбо
кывбур
кывбуррез
кывбурреза
кывбуррезо
кывбуррес
кывбуръяс
кывв
кыввез
кыввезко
кыввезло
кыввезлісь
кыввезо
кыввезын
кыввезісь
кыввесо
кыввидзись
кывво
кывз
кывзо
кывзыны
кыви
кывко
кывкуд
кывкуддэз
кывл
кывлад
кывладын
кывладісь
кывло
кывлісь
кывнас
кывны
кывныс
кывнысо
кывс
кывсис
кывсо
кывсянь
кывт
кывто
кывтор
кывтуялан
кывтуяліссез
кывтуялісь
кывтыт
кывтытас
кывтытын
кывтытынжык
кывтэчас
кывтэчассэз
кывтэчасын
кывчуко
кывъяс
кывья
кыдз
кыдзза
кыдззакар
кыдззез
кыдззес
кыдзи
кыдзись
кыдзко
кыдзкодььо
кыдзо
кыдзпу
кыдзсо
кыдзы
кыдзыс
кыдзыси
кыдзысло
кыз
кыза
кызыл
кызылджахамам
кызылырмак
кызь
кыи
кык
кыка
кыкдас
кыкись
кыккласса
кыкнан
кыкнанныс
кыко
кыкодзпинняэз
кыксостава
кыксувда
кыксюраэз
кыкъямыс
кыкьямыс
кыкьямыса
кыл
кыланым
кыланыс
кылас
кыло
кылын
кылыс
кыліс
кылісь
кым
кымо
кын
кындзи
кынмо
кынмы
кыно
кыным
кынымк
кынымко
кынымо
кынь
кыр
кырас
кыраса
кырассэз
кыргызстан
кырз
кыри
кыркларели
кырныш
кыро
кыршехир
кырыккале
кырымало
кыс
кыскалан
кыскало
кыскисо
кыско
кыскыны
кыссьо
кыссян
кысъял
кысъяліс
кысянь
кыт
кыта
кыто
кытсо
кытч
кытчо
кытш
кытшас
кытшись
кытшко
кытшл
кытшланьо
кытшло
кытшо
кытшсо
кытшшез
кытшын
кытшыс
кытшыско
кытшысло
кытшыслісь
кыті
кытісь
кыш
кышавны
кышал
кышаланнэз
кышасьо
кышка
кыы
кюменлаксо
кютахья
кючюкчекмедже
кягытхане
кярсямяки
кярсямякиын
кяхяри
л
ла
лаборатория
лавка
лавкаэз
лавр
лавсте
лавттаранта
лагерстре
лад
ладик
ладо
ладор
ладорас
ладорись
ладорко
ладорл
ладорло
ладоро
ладоррез
ладорсис
ладорсо
ладорсянь
ладорсяняс
ладорын
ладорыс
лажмало
лажмыт
лажмытжык
лажмыто
лажмытін
лажмытіннэз
лажмытінын
лажмытіныс
лазарь
лаи
лакэна
ламберт
ламми
лан
лана
лангсат
ландшафт
ландшафттэз
ландшафтыс
ланись
ланка
лант
лантаноиддэз
лань
ланься
ланьтас
ланьын
ланьынжык
ланяс
ланін
ланіннэз
лаос
лаосын
лап
лапажерия
лапо
лапоо
лапсыррез
лариса
лас
лассэз
лат
латвия
латин
латынь
латышева
лауреат
лаэз
лб
лва
лвел
лгария
лгарияко
лдап
лдо
ле
лебедев
леву
лег
легенда
легко
ледник
леи
леканорхис
лексика
лексике
лексики
лексико
лексикография
лексикология
лексических
лелия
леман
лена
ленин
ленина
ленингр
ленинград
ленинградского
ленинск
ленинско
леновка
лента
леонид
леонидовна
леопард
лепантес
лепантопсис
лептотес
лес
леса
лесников
лесно
лесопилка
лесопильн
леспромкоз
лесхоз
лет
летию
летия
летка
летопись
летува
лецебург
ли
либо
либоцедрус
лив
ливан
лидерства
лидия
лиедонперя
лието
лиетоын
ликания
ликасте
ликвидамбар
ликиангись
ликомормиум
лилия
лимерова
лимодорум
лимон
лингвист
лингвистика
лингвистическии
лингвистического
лингвисттэз
лингвокультурологическии
линия
липарис
лирика
лирике
лириодендрон
лириодендроныс
лисвеннез
лисвень
лисвеньыс
лисвеня
листбок
листбоккез
листера
лись
лисьвень
лит
литераторы
литература
литературало
литературалы
литературао
литературасо
литератураын
литературе
литературн
литературно
литературного
литературы
литокарпус
лихаче
лихтенштаи
лица
лицеи
лич
личи
лков
лленштаи
ллэз
лля
ло
лоан
лоас
лоасо
лобанов
лобанова
лобоз
лов
лова
ловзис
ловзь
ловзяс
лови
лович
ловна
ловпу
ловпуыс
ловпуэз
ловто
ловья
лог
логинов
логотип
лодыгин
лои
лоис
лоисо
лок
локализованного
локальных
локас
локкез
локны
локостус
локс
локсо
локсянь
локт
локтан
локтас
локто
локтіс
локтісо
локтіссез
локтісь
локхартия
локын
локыс
лоло
лолог
лолым
лолісь
ломоватовса
лонган
лондон
лондонын
лонтісян
лоны
лоо
лопан
лопва
лопвало
лорд
лори
лориэз
лофопиксис
лоч
лочсаи
лпк
лсянь
лу
лугово
луда
луддэз
лудыкова
луеддемания
лужиков
луз
луза
луздор
лузса
лузуриага
луизия
лук
лука
лукои
лума
лун
лунас
лунвыв
лунвывся
лунвывсянь
лунвывсяыс
лунвывсяэс
лунвыл
лунвылас
лунвыло
лунвылын
лунвылынжык
лунегов
лунланьо
лунланьын
лунланьынжык
лунлыддян
луннас
луннэз
луннэзо
луннэс
луно
лунся
лунсянь
лунсяньуказ
лунцзян
луным
луныс
лунь
луолавуори
луп
лупьинса
лупьинского
лупья
лусон
лучше
лучших
лы
лыа
лыаись
лыао
лыаэз
лыд
лыддико
лыддисис
лыддисо
лыддиссьо
лыддись
лыддисьо
лыддь
лыддьо
лыддьоо
лыддьыны
лыддян
лыддяна
лыддянс
лыддянсо
лыддянын
лыддісьо
лыдм
лыдним
лыдниммез
лыдниммес
лыдпас
лыдпассэз
лыдпасыс
лыдын
лыдыс
лыдян
лыжмытін
лыи
лыись
лым
лыммезо
лымнас
лымо
лымыс
лымья
лымьявны
лын
лыны
лыс
лыса
лысин
лысинвидзан
лысиныс
лыско
лысло
лысъя
лысь
лысьва
лысьо
лытва
лытваись
лытка
лыткин
лыткина
лыэз
лыюров
ль
льбашы
льге
льгым
льдас
льдін
льжык
лькласса
лькуп
льник
льо
льреи
льсин
льсянь
льто
льын
льыс
лэбо
лэбт
лэбто
лэбтыны
лэбтісо
лэбтісьо
лэдз
лэдзан
лэдзанын
лэдзанін
лэдзасо
лэдзис
лэдзисо
лэдзись
лэдзны
лэдзо
лэдзч
лэдзчан
лэдзчис
лэдзчисьо
лэдзчо
лэдзчыл
лэдзчыны
лэпт
лэпто
лэт
лэтка
лэчыт
люб
любимов
любимова
любит
любитіс
любнан
любнанын
любнанісь
любовь
любом
людеи
люди
людизия
людмила
люция
ля
лягаи
лягушапасько
ляк
ляля
лялямшор
лямпа
лямпаэз
лямпаэзо
лямпин
лянсикескус
лянсиранта
ляпинчи
ляпко
ляпкыт
ляпыд
ляпыдпон
ляс
ляшев
лі
ліньто
ліс
лісо
лісь
лісьо
м
ма
маакунта
маболо
маволь
маг
магадан
магазин
магазиннэз
маггез
магистраль
магия
магнолия
магнолияыс
магнолияэз
мадагаскар
мадагаскарын
мадеи
маджа
мадматын
мадонна
мадрид
мадьяр
мадьярму
мадьярмуись
мадьярмуко
мадьярмуын
мадьяррезло
мадьяррезлісь
маегов
мазгирт
маи
макамлыкл
макар
макарихал
макаров
макарпальник
макарья
македон
македония
македонісь
мако
макодес
максаковка
максиллария
максимино
максимов
максимович
максимовск
максимум
макся
малазгирт
малаи
малакка
малаксис
малатья
малая
малимиут
малимиуттэз
малкарму
мало
малог
малх
малые
малых
мальва
мальзербия
мальпигия
мальта
мальцев
мальцева
мальчов
мам
мамак
мамкыв
мамл
мамлысь
маммез
маммея
мамныд
мамным
мамныс
мамныт
мамо
мамп
мамыд
мамыс
мамыт
мана
манасты
манастыр
манастырка
манастырын
манго
мангостан
мандач
маниса
манниелла
манпя
манси
мансии
мансиэз
маньси
маньсиэз
мао
мар
маракуи
маранг
маранта
марапальник
мараты
маратыын
маргарита
мардин
марена
мари
мариа
марии
мариму
маримуын
марина
марино
марис
мариэз
мария
мариял
марковна
марокко
мароккоын
март
марта
марте
мартин
мартинес
мартсянь
мартти
марттила
мартын
мартынов
марула
марфа
маршаллия
маршрут
маршруттэз
марьянои
мас
масдеваллия
маскаль
маску
масленича
маслов
масс
массаэз
массив
массиввез
массон
мастер
мастерск
мастерство
мась
мат
матвеев
матвеевна
матвеи
математика
математикао
материал
материалам
материалах
материале
материаллэз
материалов
материалы
материк
мато
матфеи
матын
матынжык
матыно
матьвеи
маті
матісь
мачка
машина
машинакер
машинакеран
машинаэз
маын
маыс
маэз
мая
маяк
маяка
мбази
мгу
мгыжаэз
мд
мдоу
мдін
ме
мебель
мега
мегафон
мед
медаль
медальо
медб
медбо
медбур
медбура
медбы
медваж
медважся
медводдза
медвыло
медвылын
медвылісь
медвына
медгырись
медгырисьо
медджуджыт
меддона
меддонаыс
меддорись
медиа
медиаын
медицина
медицинаын
медко
медкузь
медкузьо
медлажмыт
медле
медматын
медматыно
медматісь
медоддза
медодз
медодза
медодзза
медодззаись
медпаськыт
медпоснит
медпункт
медпыдын
медпыдыніныс
медрадеи
медся
медт
медто
медтом
медузагина
медуна
медучо
медш
медшо
медшоныт
медыджыт
медыджыто
медыджыттэз
медыджытыс
медыжыт
медылын
медылісь
межаасьо
межадор
межд
междометие
между
междунар
международн
международная
международного
международнои
международныи
международным
межень
межрегион
межрегиональнои
мездо
мезм
мезмо
мезмыт
мезозои
мезолит
мезуя
меи
мек
меко
мексика
мексикаись
мексикаын
мексико
мелантиум
мелия
меллиля
мельник
мельнича
мельничамы
мельничаэз
мельнично
мелюкинск
мелюкинчи
мелюкинчиись
мелюкинчиын
мелюхин
мен
менам
менделеева
мендерес
менее
менчим
меным
мергеллез
мергель
меридиан
мерия
меркурии
мерсин
меря
меряи
месаденелла
месаденус
месопота
месопотамия
месопотамияын
мессия
места
местах
местаын
местаыс
местаэз
местаэзын
месте
меститчо
местное
место
местоименне
месудие
месяц
месяца
мета
металл
металлэз
метасеквои
метеорология
метка
меткам
метками
метод
методика
методики
методист
методическ
методическии
методическое
методическои
методы
меток
метр
метра
метрао
метрася
метсямяки
метшк
метшко
мехоношин
меч
мечеть
меччез
мешо
ми
мигвашор
мидз
мие
миетои
мижуе
мижуи
мии
микале
микаль
микаэль
миков
микол
микола
микробиота
микрокахрис
микрораи
микростробос
микротис
микротопониммез
микрохилус
микунь
микушев
микушева
милиция
милле
миллион
миллиона
миллионся
милуи
мильтониопсис
мильтония
мин
мина
минерал
минераллэз
мини
минимум
минин
министерство
министр
министро
миннэз
миннэзо
минск
минут
минута
минэз
мио
миое
миоксантус
мионъе
мир
мира
мире
мирись
мирмекодия
мирмекофила
мирмехила
мирмехис
мирсис
мирт
мирын
мис
мисеч
мисо
мистацидиум
мись
миськавны
миськал
миськало
миськасись
миськассьо
мисьны
митинчи
митрагина
митровск
митровчи
митрок
митрокмыс
митроксянь
митрокын
митя
митяво
митяын
мифология
михаи
михаил
михаэль
михелия
мича
мичм
мичмо
мичоаканісь
мичурин
миш
мишарин
мишка
мия
миян
миянл
миянло
мк
мка
мко
мл
млн
мло
млрд
мм
ммез
ммезло
ммезныс
ммезнысо
ммезын
ммес
ммесо
мммм
ммэз
мнас
мне
мнение
мнением
мно
многие
множественно
множественного
мо
мобильник
мобильниккез
мов
мог
моггез
могильник
могись
могли
могут
могысь
модзга
модуль
модус
модусл
модусло
можаев
можга
может
можете
можно
моз
мозын
мои
моисеи
мок
мокша
мокшамыс
молдаваннэз
молдова
молодежью
молодцов
молотов
момбин
момент
мон
монако
монастыр
монгол
монди
монография
монодора
моносепалум
монтесума
мор
мордва
мордваэз
мордовия
мордовскии
мордін
море
моринда
мормодес
мормолика
моро
мороженои
морозов
морос
морт
мортко
мортл
мортло
мортлісь
морто
мортс
мортсо
мортся
мортт
морттэз
морттэзо
мортыс
мортыст
мортысь
мортыт
мортін
мортіна
мортінас
мортінс
морфологизируи
морфология
мосин
москва
москви
москвин
москвина
москвинаас
москвинаись
москвинао
москвинаын
москвинаыс
мотовилиха
моу
мошегова
мошшез
мпика
мпуамыс
мрамор
мрамора
мс
мсис
мсо
мсь
мсьо
мсянь
мт
мтло
мторрез
мтс
мтф
му
муас
мувевд
мувевдо
мувывтор
мувывторись
мувывторнас
мувывторо
мувывторрез
мувывторсис
мувывторсо
мувывторын
мувывторыс
мувывторысло
муганза
мугла
мугыркись
мудреччез
мудурну
мужик
мужиккез
муз
музеи
музыка
музыкант
муи
муись
мук
муканнез
мукань
мукаранге
муко
мукура
мул
муло
мумераи
мун
муна
мунам
мунамо
мунан
мунас
муниципал
муниципалитетл
мунны
муно
мунт
мунто
муным
мунік
муніко
муніс
мунісо
муо
муп
мупон
мупытшк
мупытшся
мурама
мурамби
муратлы
мурм
мурман
мурмар
мурмо
муро
мурт
муртало
мус
мусанзе
мусанов
мусиннэз
мусиннэзз
мусиннэс
мусир
мусис
мускус
мускыт
мусо
мусюр
мусюрло
мусюррез
мусюрыс
муткыльтан
муторись
муторын
мутша
мутшак
муувтся
муфлон
муханга
муш
муша
мушар
мушо
муын
муыс
муысло
муэз
муэзо
муэзын
муэзісь
муэс
муэсо
муюгыт
мшор
мъяс
мы
мывкыд
мыг
мыго
мыи
мылва
мылдін
мыльк
мыля
мымда
мымдак
мымдако
мын
мынта
мынтыны
мынэм
мыр
мырддьо
мыртыю
мыс
мыса
мысаин
мысло
мысовско
мысовского
мыссэз
мыссэза
мыссэзло
мыссэзо
мыссэзісь
мысын
мысь
мыся
мыт
мытарь
мытын
мыччавны
мыччал
мыччалам
мыччалан
мыччаланнэз
мыччалано
мыччалас
мыччало
мыччаліс
мыччалісо
мыччасис
мыччасьл
мыччасьо
мыччисис
мыччисьо
мью
мьянма
мьянмаись
мьянмаын
мюнямяки
мяги
мяликкяля
мянтюмяки
н
на
набои
навигация
нагладь
нагорно
награда
наградаэз
над
надеев
надежда
нажил
название
названии
названию
названия
назорянин
наи
наиболее
наибольшее
наибольшеи
наименовании
налимашор
налимов
наллыхан
нало
нам
намерениях
нами
нанаи
наниэз
нансе
нантали
нанталиын
нань
напалков
напоминаем
например
напрямую
наречие
наречия
нарман
народ
народа
народдэзл
народн
народная
народно
народного
народнои
народныи
народов
народы
нарьянамар
нарьянмар
нас
населе
население
населения
наследие
наследия
наставники
настольнои
настоящее
настрои
настроить
насянь
наталья
нато
натрияо
натьт
натьто
наук
наука
наукаын
наукаэз
наукаясса
науки
науклеа
наумковидззез
науч
научн
научная
научно
научного
научное
научнои
научныи
научных
нахова
нахты
национал
национальн
национальная
национально
национальные
национальныи
национальных
нация
нач
начала
начале
начало
началось
начальник
начать
начертание
начкыл
наш
наша
наше
нашего
нашеи
нашу
наын
наыс
наэз
ная
нгома
нгорореро
ндриан
ндру
не
неб
небзьо
небо
небоын
небула
небыд
небыт
небыта
невада
неважын
неверен
невна
невунка
невшехир
невылын
невылына
негатив
негативын
негдыэз
него
недели
недель
неделю
неделя
недерланд
недыр
нежели
нежык
неи
неизвестно
неизвестныи
нек
некин
неко
некокнит
некоторые
некоторых
некрасов
некрасова
некрут
некытш
нельки
нельма
нем
нема
нематоцерас
немба
немдін
немецкая
немецком
немеч
немечму
немечмуко
немечмуын
немеччез
немын
нен
ненын
нео
необентамия
необходимое
необходимости
необязательные
неокаллитропсис
неоконьоксия
неолит
неомурея
неоттианте
неоттия
неофинетия
непал
непалын
нервилия
нердва
несколько
несо
несторрез
нет
нетерпением
нето
неувидия
неужели
нефедьев
нефть
нечаев
нечаева
нешоча
неыджыт
неылын
неясыть
нжык
нжыка
нжыксо
ни
нига
нигде
нигрителла
ниже
нижнеи
нижнетагильск
нижно
нижнь
низь
нии
ник
ника
никарагуа
никита
никитин
никитина
никитинск
никкез
никкезо
никкесо
никл
нико
николаев
николаевич
николаевна
николаи
никонов
никсар
никыс
нил
нилло
нилогов
нилогова
ним
нима
нимао
нимвежлас
нимвежлассэс
нимись
нимкоддез
нимкодь
нимкодял
нимле
нимлунаэз
ниммез
ниммезісь
ниммес
нимо
нимс
нимсо
нимсянь
нимт
нимтамо
нимто
нимын
нимыс
нимянь
нин
нина
нинко
нинмараск
нинпу
нинпуа
нинпуаин
нипан
ниппон
ниппонын
ниппоныс
ниппонісь
нись
нитш
них
нич
ния
нк
нка
нкар
нко
нл
нму
нн
нно
нного
нному
нные
нныи
нным
нныс
ннысло
ннысо
нных
ннэз
ннэзын
ннюр
ння
нняс
нняся
но
нов
нова
новак
новая
новгород
новгорт
новгортсянь
нови
нович
новна
ново
нового
новое
новои
новосе
новосибирск
новостеи
новости
новость
новочеркасскись
новсиаи
новск
новчи
новчиись
новчиын
новые
новыи
новых
нозои
нокташор
ном
номинацияын
нонен
норвег
норвегын
норд
нордман
нормаэз
нормируи
норт
носаволь
носим
носков
нотилия
нотофагус
нохчо
нояб
ноября
ноябсянь
ноябын
нп
нса
нсари
нск
нт
нтипинчи
нтипинчиись
нтипинчиын
нтипинчиыс
ну
нуан
нув
нуждаи
нужно
нуль
нумер
нумми
нуо
нц
нчи
нъе
ны
ныв
нывка
нывкаэз
ныд
ные
ныи
ныись
нык
ныл
ныло
нылісь
ным
нымс
нын
ныр
ныра
ныс
нысся
нысянь
ныт
нытва
нытваись
ныын
нь
ньабиху
ньагатаре
ньагисози
ньамагабе
ньамашек
ньамии
ньанге
ньанза
ньаругенге
ньаругуру
ньк
ньковск
ньо
ньчи
ньшор
ньыв
ньыввез
ньывокаин
ньывпу
ньывпуыс
ньын
ньыс
нью
ньюфаундлендісь
нэ
нэм
нэмын
ню
нювчим
нюж
нюжал
нюжало
нюжо
нюи
нюк
нюр
нюрвыв
нюррез
нюррезло
нюррезо
нюррезісь
нюррес
нюрсаи
нюрсяло
нюрьяин
ня
нядэи
нямыр
нянь
няньп
няргванда
нять
нятьо
ні
ніи
нісь
нія
о
оания
оао
об
обва
обваись
обваын
обвинительыс
обвинса
обдор
оберония
обеспечен
обеспечению
обеспечения
обеспечить
обкомын
обл
области
областнои
область
областьо
обновле
обновление
обновления
обновлениями
обоих
оборин
обособленное
образ
образов
образование
образования
образом
обратнои
обратную
обращения
обско
обсудить
обсуждение
обсуждении
обсуждению
обсуждения
обсуждениях
обу
обучения
общ
общего
общеи
общества
общественное
общие
общность
объект
объекта
объектов
объявление
объявления
обычаи
обычно
обязанности
обязательного
ов
оваджык
ович
овичло
овл
овлан
овло
овлы
овм
овмо
овны
овто
ог
оглу
оглы
ого
ограничения
огырчи
од
ода
одань
одз
одзжык
одзжыкся
одзза
одззася
одззаыс
одзись
одзлань
одзланься
одзо
одзті
одзын
одзынпукалісь
один
одиссеи
одиссеяыс
одна
одного
однои
одонтоглоссум
одонторинхус
одыб
оз
озгат
озе
ознакомьтесь
озо
озъяго
озыр
озісь
ои
ок
ока
окал
оката
океан
океаниияын
океания
океанияын
океаннэз
океано
океансянь
океансяняс
океанын
океаныс
окинаваись
около
окрисполком
окрисполкомын
окроноын
округ
округа
округись
окружком
окружкомын
окружного
оксалис
окт
октас
октассаи
октасшор
октомерия
октыль
октыльсорд
октяб
октябрь
октября
октябско
октябся
октябсянь
октябын
ол
ола
олан
олано
олансо
олантуи
оланшыэз
оланын
оланыс
оланін
оланіннэз
оланіннэзын
оланіннэзісь
оланіннэс
оланінын
олас
оласо
оле
олег
олимп
оллез
оллезын
оло
олту
олур
олык
оль
ольга
ольпась
ольын
ольыс
оля
олім
оліс
олісо
оліссез
оліссезл
оліссезло
оліссезісь
оліссес
оліссесо
олісь
олісьыс
ом
омен
омо
омра
он
она
онас
ондатрао
онду
оне
онза
они
онисько
онк
онко
онл
онлаи
онло
онлісь
оннэз
оннэзко
оннэзо
оннэзын
оннэзісь
оно
онолва
онолвало
ономастика
онс
онсис
онсо
онсянь
онтон
онцидиум
оныл
онын
оныс
онысл
онысло
оньков
онісь
ооо
оп
опера
оператор
описание
определе
определение
определения
опрос
опроса
оптатив
опубликован
опубликованы
опыт
опыта
опытных
ор
орган
организаторов
организации
организация
организовать
органнэз
органнэзло
органов
орд
орда
орден
орджоникидзе
орду
ордч
ордча
ордчо
ордым
ордын
оре
орегон
оренбург
оригинального
орикето
ориниеми
орипя
орисабаись
орк
орлеанезия
орнамент
орнитохилус
орнитоцефалус
оро
ороччез
орс
орсан
орсаннэз
орсантор
орсл
орсны
орсо
орсісь
ортаке
ортчо
оружие
орфографии
орфографическо
орфография
орхидея
орхидеяэз
орхис
орьясмяки
оса
осадочно
осе
осипов
ослица
ослицал
осман
османджык
османие
основа
основе
основно
основные
основным
основоположниках
основы
особенности
особенностях
оссис
оссь
оссьо
ост
оставить
остапова
остеоспермум
остров
острова
островвез
островско
осудит
ось
осько
осьт
осьта
осьтны
осьто
осьтіс
осьтісо
от
отаин
отан
отбора
отбору
отв
отва
ответить
ответы
отвечаи
отвечают
отдел
отделения
отделенне
отдельных
оте
отзывам
отзывами
отзывов
отзывом
отзывы
отир
отирись
отирко
отиркостись
отирл
отирло
отирлісь
отиро
отиррез
отиррезо
отиррезоо
отирс
отирсо
отирсянь
отирт
отирто
отирын
отирыс
отирыско
отирысло
отирыслісь
откань
открыт
открытым
отличник
отношение
отношении
отношенне
отображаемыи
отображается
отображение
отображения
отображено
отобраны
отправлено
отрицательные
отс
отсавны
отсал
отсало
отсалісь
отсасян
отсо
отче
отчет
отын
оф
официал
официальн
официально
официальныи
оформления
оформленного
офрис
оханн
оханно
охна
охота
охотск
охра
оча
очакыв
очень
очерк
очерки
очеркъяс
ош
ошибка
ошибками
ошибочнои
ошк
ошкан
ошканпассэз
ошкар
ошкис
ошкыс
ошмаотывла
ошмарин
ошшез
ошшор
ошшорись
ошыб
ошыбас
ошыбск
ошыбын
ошыс
п
па
павел
паветта
павинкату
павк
павко
павлович
павловна
павловния
павлу
падеж
падежас
падежжез
падежлісь
падежнои
падеи
паджга
падмо
пазар
пазары
паи
пакистан
пакистанын
пакмо
палаззя
пале
палеозо
палеозои
палеолит
паликуреа
палкин
палливаха
палу
паль
палькояг
пальма
пальмаэз
пальник
пальникшор
пальшин
пам
памилле
памир
памирсянь
памяти
памятники
память
панама
панамаын
панда
панин
панисеа
пання
панов
панорама
пансио
пантавны
пантал
панталам
панталамо
панталан
пантасис
пантасисо
пантась
пантасьло
пантасьны
пантасьо
пантелеев
пантелеи
паныт
панытын
пань
паньнам
паньныд
паньным
паньныс
паньсис
паньсьыс
паньт
панюков
папа
папаи
папилионанте
папинсари
папуа
папуацедрус
пар
парадигамаэсо
паразитаксус
параи
параллель
параметр
параметра
параметрах
параметре
параметров
параметром
параметррез
параметры
парафалэнопсис
париж
парк
парккез
парламент
парламента
парма
пармадо
пармаи
пармаись
пармаын
парных
партициппез
партия
партиял
партне
партшкола
пару
парфия
парч
паршак
паршакова
парья
пас
паса
паси
пасинлер
пассифлора
пассэз
пассэзо
пасха
паськ
паськало
паськаліс
пасько
паськыт
паськыта
паськытаыс
паськытаэзын
паськытвог
паськытку
пасьт
пасьта
пасьтал
пасьтаыс
патагонияись
патрукын
паттинен
паттиненын
пафиния
пафиопедилум
паханиеми
пахарь
пахиподиум
пахистахис
пахистома
пахифиллум
пахорукова
паша
пашня
пашо
пггпу
пгпу
пе
пед
педагог
педагогика
педагогическ
педилохилус
педо
педукинчи
педуниверситет
педуниверситетын
педучилище
пезмо
пеи
пекла
пеклаыб
пеклаыбас
пеклаыбчи
пеклаыбын
пекуи
пеленаэз
пелтола
пелым
пелысь
пель
пелькытшшез
пельняннез
пельнянь
пельо
пельш
пельшер
пельшо
пеля
пелідз
пелідззез
пелідзыс
пемыт
пемытжык
пенелопало
пенелопаыс
пенсионеррез
пенсия
пентас
пер
перв
первая
перво
первого
первомаи
первосвященник
первосвященниккез
первуись
перевести
перевод
перевода
переводе
переводом
перед
передае
переи
перем
перемись
перемл
перемо
перемсянь
перемын
переписи
перепись
переподготовки
пересмотра
пересмотреть
пересмотру
период
периоддэз
перистерия
перков
перм
перма
пермистика
пермск
пермская
пермские
пермскии
пермских
пермско
пермского
пермскои
пермь
пермяк
пермяки
пермяккез
пермяккезло
пермяккезо
пермяков
пермяна
пермянао
пермяцк
пермяцкая
пермяцкие
пермяцкии
пермяцких
пермяцко
пермяцкого
пермяцкои
пермяцком
перна
пернаэз
перно
персона
персоналии
персоналиях
персоналияэз
перспективы
пертек
перу
перуын
першин
перым
перымса
перыта
перытаыс
пес
пескан
песне
песня
песо
пессико
пессисо
пессьо
пестро
пет
петан
петаніннэз
петас
петасо
петассэз
петбор
петер
петербург
петербургскии
петербургского
петк
петко
петны
пето
петр
петра
петракар
петракарын
петров
петрова
петрович
петровна
петровои
петрозаводск
петроско
петрушин
петрыне
петт
петук
петуко
петухов
петшо
петыковчи
петырлун
петькамыс
петяло
петіс
петісо
печатаи
печать
печора
печораись
печорало
печораын
печораыс
печорско
пешло
пешлыны
пешни
пешнигорт
пешнигортын
пешнигортісь
пеще
пещерно
пидз
пидзо
пижма
пизись
пизь
пии
пиипаноя
пик
пикан
пиканісь
пикисари
пикродендрон
пиктовка
пилат
пилипин
пилипинын
пилито
пильгеродендрон
пим
пимовск
пимпальник
пимсянь
пинь
пиньо
пиня
пионер
пиперия
пипу
пипуа
пир
пиренаэз
пирита
пирканма
пируи
писатели
писатель
писать
пискаволь
пистик
писто
письменности
письменность
письмо
письмоэз
питер
питерын
питифиллум
питкямяки
питькыр
питькырасьто
питю
пихлаяниеми
пичик
пичипашня
пиян
пиянк
пиянл
пияннэз
пк
пка
пко
пл
план
плана
планета
планетаэз
планируем
планирует
планируется
пласттэз
платантера
платистеле
плато
платте
пле
плевроталлис
плеи
плекоглоттис
плитаэз
плотина
плотникова
площадка
площадь
плюс
пмк
по
победа
поблагодарить
поведения
поверье
повести
повесть
повесь
повзис
повзь
повзьо
поводу
поволжья
погоддя
погониопсис
погония
погост
погостын
погубитны
под
пода
подавать
подавидзиссез
подангис
подаок
подаэз
подаэзло
поддержка
поддержку
поддя
поддяч
поддячо
поделились
поделитесь
поделиться
подз
поди
подо
подокарп
подостемум
подохилус
подписаться
подписи
подпись
подпишитесь
подразделенне
подробнее
подробности
подробную
подсо
подстанция
подстраницы
подтвердили
подув
подувъяс
подход
подыс
подяновчи
пое
пож
пожалуи
пожва
пожваись
пожвасянь
пожваын
пожваыс
пожвинск
пожевляна
пожелания
пожеланиях
пожо
пожум
пожума
пожумаин
пожуммез
пожумыс
пожым
поз
позагорт
поздеев
поздісь
позис
позитив
позиции
позтыкеро
позь
позьо
позяна
пои
поиск
пока
покаво
показ
покат
покаттэз
покаттэзо
покаттэзын
покаттэс
покатын
покча
покшал
пол
полва
поле
полевои
поликлиника
полилингвизм
полистахия
политик
политика
политикаын
политики
политику
политов
полифем
полифемыс
полицикнис
полиция
полициял
полному
полныи
поло
половина
положенне
получаи
получать
получение
получения
полученные
полученным
полученных
получит
получитны
получить
полуянов
пользователеи
польска
польшаын
полюс
полюсо
полюссэз
полюсыс
поляк
поляккез
поляна
пом
пома
помал
помало
помаліс
помас
помасьо
помело
померанец
помка
помланьын
помо
помочь
помощи
помощь
помощью
помсис
помсянь
помын
пон
понд
понда
пондам
пондан
пондас
пондасо
пондо
понды
пондыл
пондіс
пондісо
понерорхис
понлы
поннэз
пономаре
пономарева
понтиева
понтии
пончо
понъяс
понять
понісь
поп
попанволь
попечителеи
попечители
попов
попова
поппез
поппезл
попугаи
пора
пори
пороге
порода
породаэз
породаэзо
породаэзісь
породои
породы
пороззэз
порознюр
пором
поромит
порошволь
порошвольо
порошвольын
порошволяс
порошин
порошовчи
порроглоссум
порссез
порссезо
порсь
порсьвидзан
порськок
порсьшыррез
порт
портал
портр
портса
порттэз
португал
португали
порча
порыш
порядок
пос
посад
посадас
посаддэз
посаддэзын
посадкодь
посадлун
посадму
посадмуас
посадмуись
посадмук
посадмул
посадмуло
посадмулон
посадмуо
посадмуын
посадмуысл
посадмуэз
посадо
посадс
посадсянь
посадсяняс
посадын
посадыс
посадісь
посвящ
посвяще
посвященная
посвященнои
посвященные
посе
посеи
поселенне
поселок
поселье
посетите
поскольку
после
последние
послелог
посмотреть
посмотрите
поснит
поснитжык
поснитик
пособие
посок
пософ
посса
поссаи
поссовет
поссэз
пост
постановке
построи
потанин
потласьо
потребкотыр
поттер
потш
похье
похьян
похьянма
похьянмаын
поче
почему
починок
почта
почтал
почти
поэзии
поэзия
поэзияын
поэма
поэмаяс
поэт
поэтика
поэтому
поэттэз
пп
пр
правда
праве
праведниккез
правее
правил
править
правленне
правои
правописание
правописания
правоприменения
православно
праздник
празднуи
празьник
празьниккез
практ
практикум
практическои
прасофиллум
преамбула
преданиях
предикативная
предикативного
предикативное
предикативные
предложение
предложении
предложения
предложениям
предложенне
предложил
предмет
предметтэзлісь
предназначен
предоставить
предоставлена
предоставление
предприятие
предприятте
представителеи
представители
представительство
представить
представлены
предстоящих
президент
президента
президенттэз
президиум
преимущественно
премия
премияо
премьер
преображенне
преподавания
пресвят
пресса
префикс
префикссэз
при
приведены
привет
приглашаем
приглашение
придаш
прие
прикамье
прикамья
приключенне
прилагательно
прилагательного
прилагательное
прилагательные
прилагательных
приматтэз
применение
применению
применения
применены
применяется
применяи
пример
примере
примерно
примеры
примит
принимает
принимаются
принципы
принял
приняли
принятии
принятия
принять
природа
присоединиться
присоединяи
приставка
пристежжез
притоккез
притча
приход
причассе
про
проблема
проблемаэз
проблеме
проблемы
проверка
проверьте
провинция
провинцияэз
провинча
прогласо
проголосовали
проголосовать
проголосуи
программа
программаэз
программы
продлится
продолжить
продуктаэз
продукция
проект
проекта
проектах
проекте
проектов
проекту
проекты
проживало
проза
прозаик
прозаын
прои
произведении
произведениях
произношения
происходит
происхождения
прокаже
прокод
прокопьевич
прокурор
пролавер
промзона
промкомбинат
промысе
промысловых
промышленн
промышленно
промышленность
промышленносьын
пронин
пророк
прос
просвещение
просвещения
просит
просмотр
проспект
простехеа
простит
просто
простое
простоты
пространстве
пространство
протея
протоиерея
проф
профессионального
профессия
профессор
профессора
профилактории
проходит
процент
процесс
процесса
процессе
прочитаи
прошлое
пруд
пруддор
пруддорсянь
пруддэз
пруддэза
пруддэзын
прю
псевдерия
псевдованиль
псевдолелия
псевдэрантемум
психилис
психопсис
психотрия
пт
пта
птероглосса
птеростилис
пу
публикуи
пув
пугаче
пудель
пуделя
пузым
пуи
пуись
пукал
пукало
пукаліс
пуксипи
пуксис
пуксисо
пуксь
пуксьо
пуксьыны
пуксяло
пукт
пуктан
пуктас
пукто
пукты
пуктыны
пуктысь
пуктысьяс
пуктыт
пуктыто
пуктіко
пуктісь
пуласан
пунегов
пунегова
пункт
пункттэз
пунктуация
пункты
пуо
пуов
пуово
пуоккез
пурсаклар
пурт
пурток
пурттэз
пусо
пустыняын
путеводитель
пути
путин
путь
пушка
пуыс
пуэз
пуэзло
пуяс
пывсян
пыд
пыдди
пыдо
пыдын
пыдына
пыдынаын
пыдынаыс
пыжжез
пыжи
пызан
пызанок
пызаныт
пым
пынарбашы
пыр
пыран
пыранін
пырас
пыржык
пыри
пырис
пырисо
пырло
пырны
пыро
пырся
пырт
пыртан
пыртасо
пыртны
пырто
пыртчис
пыртіс
пыртісо
пырья
пыстин
пысто
пыстогов
пыстогова
пытшк
пытшкас
пытшкись
пытшко
пытшкын
пытшкыс
пыш
пышшис
пышшо
пышшыны
пьеса
пьесаяс
пьяноборса
пюхяранта
пяи
пяскювуори
пятигор
пятигорланьо
пятница
пять
пяя
після
р
ра
рабкооп
работа
работает
работать
работают
работе
работник
работои
работу
работы
рабочая
рабочеи
раваттула
раваттуланполку
равенала
равл
равма
равнистула
равны
рад
радде
радеи
радения
радио
радиоо
радиосы
радиош
радиусыс
радостев
радуи
рады
раевскии
раз
разбои
развитие
развитии
развитию
развития
разговорник
разделах
разделе
разделов
разделы
разин
разинланяс
различие
различных
размера
размещения
размыслов
разно
разновидности
разнообразие
разных
разработке
разработки
разь
разьсико
разьсис
разьсь
разьсьо
раи
раин
раиса
раись
рака
ракашо
ракашор
ракета
ракин
рал
ралан
рало
раліссез
рамках
рампаша
ран
ранаэз
ранее
раныс
рапас
рас
распарсить
располагается
располагающаяся
распутин
рассказы
расслабленн
рассмотрение
рассыхаев
ратегова
ратификации
рацилим
рб
рбия
рбияись
рбияко
рбияын
рбо
рва
рвамагана
рват
рватска
рватскако
рватскаын
рвидз
рвидзан
рвимбого
рвож
рвыв
рг
ргнф
рд
рдан
рдеи
рдкурья
рдны
рдор
рдормыси
рдорувт
ре
реабилитируи
реализации
реализацию
ревизия
революция
рег
регион
региональнои
региональные
региональныи
региональных
регионас
регионл
регионнэз
регионнэзын
регионов
регионсянь
регионын
регионісь
регистрируи
ред
редактирование
редактируи
редактор
редактораліс
редакторо
редакторов
редакционного
редакционныи
редакция
режим
режиссе
режиссер
результат
результатам
результатах
результаты
реи
реки
рекомендации
ректас
ректор
религия
рельеф
рельефын
рельефыс
рем
ремера
ремеслоэз
ремонт
рен
ренантера
ренессанс
реп
репрессируи
республик
республика
республикаас
республикаись
республикако
республикал
республикало
республиканскии
республиканскои
республикао
республикаын
республикаыс
республикаэз
республике
республики
республико
рестрепиелла
рестрепия
ресурссэз
ресурсы
рефахие
реформа
рец
речи
речка
речно
речь
решадие
решение
решения
решитіс
ри
рига
ригаись
ридз
ризантелла
ризе
ризофора
рик
рика
рим
римма
римск
рин
рина
риннэз
риннэзсянь
рино
ринс
ринсянь
ринхолелия
ринхостилис
ринхофреатия
риныс
ринісь
рипогонум
рисков
риссез
рисуи
рись
рисьжык
ритионантос
ритма
рк
рка
ркань
рко
ркодь
ркодьын
ркодя
ркодяс
ркута
рлань
рланьыс
рло
рлун
рлэдзо
рм
рмо
рму
рмыс
рна
рнагора
рнагорако
рнагораын
рнас
рнера
рни
рникузя
рникузяись
рникузяло
рникузяын
рникузяэз
рникузяэзын
рникузяэс
рнитан
рнитаннэз
рнитаннэзісь
рнитано
рнитаныс
рнитанісь
рнитны
рнито
рнитор
рниторрез
рниын
рниыс
рно
рны
ро
ров
рованиеми
ровно
рогов
род
родановса
родановсало
родановсалісь
родина
родно
родного
родное
родняыс
родригезия
родства
рождения
роза
рок
роккез
роли
роль
ром
рома
роман
романова
романшор
ромбандеева
ромыния
рон
ронан
ронанло
ронансо
роскоя
россии
россия
россияись
роста
ростилис
ростов
рохир
роч
роча
рочев
рочева
рочись
рочму
рочмуас
рочмуись
рочмуын
рочо
рочов
рочовын
рочсял
рочсяло
роччез
роччезк
роччезко
роччезло
роччезлісь
роччезо
рочческо
рпа
рпилитан
рпиэз
рпода
рподало
рпромхоз
рпункт
ррез
ррезко
ррезло
ррезо
ррезын
ррезісь
ррес
рс
рса
рсаи
рских
рсо
рсфср
рсьо
рся
рсял
рсяло
рсянь
рсяньыс
рсяняс
рсяо
рт
ртавто
ртал
рталан
рталанао
рталланнэзо
ртало
ртан
ртана
ртас
ртаса
ртасо
ртасын
ртасыс
ртасян
ртехникум
ртк
рткеран
рткеро
ртни
ртны
рто
ртов
ртокын
ртпаськ
ртсис
рттуи
ртуть
ртч
ртчис
ртчо
ртыдін
ртыла
ртышто
ртя
рті
ртіс
ртісь
ртіыс
ру
руанда
руандаись
руандаын
руб
рубаву
рубеже
рублеи
рув
рувт
ругарама
ругендабари
руд
руда
рудак
рудало
рудаэз
рудбекия
руденко
рудз
рудзо
рудкаи
рудо
рудова
рудолфиелла
руи
руководства
руководстве
руководство
руководству
рукомо
рулиндо
румелияись
румынскии
руносмяки
руохонпя
русизи
руско
русская
русские
русскии
русских
русско
русского
русскои
русском
русскоязычных
русу
русь
рута
рутсиро
руханго
руч
руччез
руыс
руысло
руыслісь
руэллия
рф
рхоз
рхозл
рчои
рччалат
рша
ршор
ръя
ръяг
ръяс
ръясті
ры
рыб
рыжык
рын
рынжык
рыс
рыссянь
рысісь
рыт
рытвыв
рытвывлань
рытвывланьын
рытвывся
рытвывсянь
рытвыл
рытвылас
рытвыласжык
рытвыло
рытвылын
рытвылынжык
рытвылісь
рытнас
рытся
рытъяв
рью
рья
рьяин
рьяись
рьян
ря
ряд
ряду
рянтямяки
с
са
саам
сабал
савво
савие
савин
савина
савинские
саво
сад
саддэз
садик
садиккез
садиккезо
садит
садын
сажин
сажина
сазонов
саи
сакар
сакарья
саккоглоссум
саксеготея
салак
салахутдинов
сало
салонен
салпистеле
салым
сальвадор
сальвадорын
сальник
сам
самара
самарянин
сами
самков
само
самого
самод
самодии
самои
самоле
самосознание
самоучитель
самсун
сан
сана
санамыс
санатории
санджактепе
сандр
санитария
санкт
санс
сантиметрао
сантол
сао
сапиндус
сапо
саподилла
сапота
сар
сараи
сарамяки
саранск
саратов
саридз
саридздын
саридззез
саридзись
саридзло
саридзо
саридзс
саридзсянь
саридзын
саридзыс
саристо
саркоглоттис
саркостома
саркохилус
саров
саррез
сарск
сарство
сарчик
сас
сассафрас
сатава
сатакунта
сатама
сатириум
сафранболу
саха
сахалин
сахалинісь
сахар
саяннэз
саяс
саясжык
сб
сбербанкл
сборник
св
сва
свадьба
свало
сваль
свао
сведения
свел
свердлов
свердловск
светлана
светлича
светличаын
сви
свидетеллез
сво
свободных
свое
своеи
своем
свои
своим
своих
свою
свывся
свяжитесь
связанные
связи
связь
свят
сгу
сделать
сдін
се
себен
себя
север
севера
севере
северно
северного
севернои
северных
северо
сегодня
седегов
седьмая
сеи
сек
секвои
секов
сековын
секретар
секретарал
сектор
секторрез
секундао
секунды
секц
села
селения
селенне
селина
селиш
сель
сельков
сельпо
сельпол
сельск
сельско
сельсовет
сельсоветл
сельсоветло
сельсовето
сельсоветс
сельсоветсо
сельсоветтэз
сельсоветтэзісь
сельсоветтэс
сельсоветтэсо
сельсоветын
сельсоветісь
сельхозартель
сем
семантика
семантическии
семе
семен
семенович
семеновна
семик
семинар
семинария
семит
семын
семья
сене
сентяб
сентябрь
сентября
сентябсянь
сентябын
сенчив
сенчимыс
сенькашор
сеньчиво
сеньчимы
сеня
сенямыс
сенясянь
сер
сера
серал
серам
серапиас
серафим
серва
сервер
серга
сергеевич
сергеевск
сергеи
сергина
сердитов
серебренниккез
серегов
середине
сери
серия
серкополом
серкыв
серкыввез
серкыввезо
серкыввес
серкывез
серпас
серпасал
серпасало
серпасалісь
серпаскывъяс
серпассэз
серпасыс
серти
сертифера
сессии
сет
сетан
сетас
сетл
сетны
сето
сетчан
сеть
сетіс
сетісо
сеши
си
сиб
сибало
сибир
сибирись
сибирын
сибирьо
сибо
сива
сивас
сивашор
сивекингия
сивиле
сиво
сивухин
сиг
сид
сидо
сидоров
сидя
сизим
сизима
сизимо
сизимок
сизов
сизь
сизьо
сиирт
сикким
сикоку
сикт
сиктын
силаи
силин
силькан
симаруба
симбир
символ
симо
симпелев
симплокос
симпозиум
симпозиума
син
сина
сингаж
сингажо
синджан
синдор
синнэз
синониммез
синоп
синтаксис
синтаксические
синто
синхронии
синхронныи
сио
сира
сиренаэзлісь
сиренаэс
сиреник
сири
сирчери
сис
система
системасянь
систематика
системе
системы
ситкаись
сия
сияло
ск
ска
сказка
сказки
сказуемо
сказуемого
сказуемое
скандинав
скансси
скафиглоттис
скафоцефалум
ская
сква
скваись
сквао
сквасянь
скваын
скептростахис
ские
скии
ским
ских
ско
скобки
ского
скои
ском
скриптов
скульптор
скульптура
скутикария
скуш
слава
славаын
славян
славяна
сладор
сладорись
сладорын
сланеччез
след
следите
следует
следующие
следующии
следующим
следующих
слепо
сло
слобода
слободско
слов
слова
словак
словакму
словами
словарь
словаря
словен
словения
словенско
словенскоын
слово
слог
слоггезныс
слого
сложн
сложно
сложное
сложные
слоупись
слуга
слугаэз
слугаэзл
службаэз
службы
служит
случае
случаи
случаях
см
смерти
сметанина
сми
смилакс
смирись
смитатрис
смогли
смогут
сможем
сму
смяки
снагорт
снагортсянь
снеч
снимаи
снит
сны
со
соавт
соавторстве
собак
собака
собаки
собачка
собиранию
собор
собралия
собрание
собраны
события
сов
совдор
совдорись
совет
совета
совете
советло
советск
советско
советское
советтэз
советтэза
советтэзын
советын
совещаи
совещание
совкар
современная
современного
современное
современнои
современном
современность
современные
современныи
современных
совсо
совхоз
совхозл
совхозыс
согласен
согласно
согласных
согласование
соглашаюсь
согом
сод
содержания
содержит
содло
содо
содт
содтас
содтаса
содтасо
содтассэз
содтасыс
содто
сожалению
создание
создании
создания
сои
сок
соколов
соксо
соликамск
соликамско
солнечно
соломон
солым
солымын
соль
сомали
сомеро
сомероланьын
сонкои
сообщение
сообщении
сообщения
сообществ
сообщества
сообществам
сообществами
сообществах
сообществе
сообщество
сообществом
соответствуют
соответствующеи
сопонко
сопоставительная
сора
сорал
сорассэз
сорась
сорасьо
сорлаласо
сорлало
сорласясо
сорма
соро
сорттэз
сос
сосновка
соссян
сост
состав
состава
составители
составитель
составное
состоит
состоится
состома
состояние
состоянне
сосьва
сот
сотеросантус
сото
сотч
сотчан
софора
софронитис
софронов
сохранение
социализм
социально
социальнои
социальные
социолингвистика
сочи
сочинении
союз
союзл
союзло
союзын
спас
спасибо
спасит
спаситель
спасов
спатоглоттис
спб
специализированных
специалист
специальнось
спецкурсу
спецкурсысь
спилотанта
спирантес
спиридон
списков
список
спк
спорова
спорт
спортзал
спорто
способ
способы
справочник
справочнике
справочно
спу
спутниккез
спутниккес
сравнении
среди
средиземно
средства
средствами
сретенск
ссало
ссез
ссезл
сск
ссо
ссср
ссылка
ссылками
ссылки
ссылку
ссылок
ссэз
ссэза
ссэзло
ссэзо
ссэзсянь
ссэзын
ссэзісь
ссэс
ссянь
ст
ста
став
ставрополь
стадион
стал
сталин
сталь
стан
стандарт
стандартная
стандартныи
станнэз
становление
станхопея
станция
стараи
старица
старича
старниеми
староста
старцев
статеи
статистика
статистическии
статус
статуса
стать
статье
статьи
статья
статьяэз
статьяэс
статьяяс
ства
ствие
ствии
ствия
ство
ствол
стволо
ствоын
ствоэз
ствоэзколасся
ствует
ствующих
сте
стевениелла
стелис
стеллилабиум
стения
стенкату
стеноптера
стеноринхос
степ
степан
степанл
степанов
степанович
степановна
степановчи
степени
степись
степпез
стер
стереосандра
стеркулия
стес
стефан
стили
стилистика
стилистические
стиль
стильо
стиля
стиракс
стихотворения
стихотворенне
сто
стоит
столов
стомяки
страданне
стран
страна
страниц
страница
страницах
странице
страницу
страницы
страны
стратегии
стратегия
стрелитция
стреча
стречалун
строганов
строгановвез
строгановвезло
строгановвесло
строгановых
строенне
строи
строит
строительство
строито
строитчан
строитчо
строка
строки
строку
строшн
структура
структураэз
структурн
студентов
студенттэз
студентъяслы
стуи
су
суббота
субботин
субвид
субвиддэз
субкотыр
субкотырись
субкотыррез
сублапоноид
субтропикся
субувтыр
субувтыррез
субувтырын
субчуко
субъект
субъекто
субэтнос
сувда
сувт
сувто
сувтчан
сувтчанін
суго
суд
судан
судз
судзан
судзо
судит
судл
судноэз
суздаль
сук
сукмо
суко
суксун
сулавны
сулал
сулалан
сулало
сулаліс
сульфата
суматра
суматраись
сумах
сунтар
суоми
суомиись
суомись
суомиын
суомиыс
супервын
супонеи
сур
сура
сургут
суриана
суринам
сурия
сурияын
сусачок
суспу
суспуа
суспуыс
сутш
суффикс
суффикса
суффикссэз
суффикссэзл
суффикссэзло
суффикссэзо
суффикссэзын
суффиксся
суффиксын
суффиксісь
сучок
сушехри
существительно
существительных
существует
сущности
сфера
сферасо
сфераын
сфере
схинопсис
сциадопитис
сцилла
счастье
сша
съяс
сы
сыб
сыбо
сывью
сыись
сык
сыко
сыктгу
сыктыв
сыктывд
сыктывдін
сыктывдінкар
сыктывдінса
сыктывдінын
сыктыви
сыктывк
сыктывкар
сыктывкарас
сыктывкаре
сыктывкарись
сыктывкаро
сыктывкарса
сыктывкарскии
сыктывкарско
сыктывкарского
сыктывкарсянь
сыктывкарын
сыктылсал
сыктылыс
сыл
сылан
сылва
сыло
сыліко
сыліс
сылісь
сым
сымда
сын
сыо
сырчик
сыс
сыскин
сысольск
сыспу
сыспуэз
сысся
сыстеров
сысянь
сычуань
сыын
сь
сьерра
ська
сьл
сьмо
сьо
сьто
сьыв
сьыл
сьыланкыв
сьыланкыввез
сьыло
сьыліссез
сьылісь
сьыт
сэ
сэк
сэки
сэкся
сэксянь
сэн
сэп
сэпо
сэсся
сэт
сэто
сэтч
сэтчин
сэтчо
сэтш
сэтшо
сэті
сэтісь
сю
сюаньл
сюжет
сюзев
сюзь
сюзьва
сюзьпозъя
сюи
сюлько
сюр
сюра
сюраныр
сюрмене
сюрны
сюро
сюрс
сюрсво
сюрсвоын
сюрсо
сюрсся
ся
сяк
сял
сялан
сялана
сяло
сяліс
сян
сяннэз
сянь
сяняс
сяо
сяр
сяркилахти
сідз
сідзж
сідзжо
сідзк
сідзко
сідзту
сіи
сім
сісь
сісьмо
січилья
січильяись
сія
т
та
таблицу
таблицы
таблича
табличаын
таво
таджикистан
таи
таиланд
таиландын
так
такая
также
таким
таксодиум
таксофоннэз
таксьо
талант
таллинн
таллиннын
талун
талуння
там
тамара
тамарилло
тамбов
тамо
тампере
тамперентие
тан
тана
танжело
танзания
танка
таннэз
таннэс
таннэсо
тано
тановка
тансо
танін
таніннэз
тапир
тар
тарабаи
тарабукин
тараканов
тараканова
тарас
тарвасъе
таррез
тарсус
тас
таскаев
тасманияын
тасо
тат
татар
татара
татарского
татарстан
тато
татч
татчо
татшо
татьяна
таті
татіссез
татісь
тау
тах
ташка
тверь
творчестве
творчество
творчествоын
твоя
тдруг
те
театр
театрын
театыро
тез
тезисы
текирдаг
текман
текостеле
текст
текста
тексте
текстов
текстом
тексттэз
тексту
текстыс
текущии
тел
тела
теле
телевиденне
телевидз
телевизор
телевизоро
телеграммаэз
телеканаллэз
телемах
телерадиокомпания
телефон
телефоннэз
телимитра
телишиста
тем
тема
тематика
теме
теминология
температураыс
тенассеримісь
тенденции
тентюков
теории
теория
теофраста
тепебашы
теперь
теплоухов
терджан
теремок
терентьев
терия
термаль
терме
термин
терминнэз
терминология
термины
терраса
территориальное
территория
территорияыс
террор
терясравтела
тесь
тетраклинис
тетрамикра
теушерия
тех
техас
техасісь
техника
техникум
техническои
технология
течение
теш
тжык
тжыко
ти
тибет
тибетын
тибетісь
тигр
тик
тикоглоссум
тила
тима
тиман
тимин
тимина
тимофеев
тимофеева
тимофеевич
тимушев
тимшор
тинбурну
тип
типа
типо
типография
типулария
тиражыс
титул
тичок
тка
тко
ткодь
ткодьо
ткодьыс
ткодя
ткоста
ткузя
ткузяо
тл
тла
тлаасик
тлаасисо
тлаасьо
тлаасьто
тлаасянінын
тлан
тланл
тланло
тлано
тланын
тланысло
тлао
тласа
тлаын
тло
тлыны
тліс
тлісо
тліссез
тліссесо
тлісь
тлісьо
тлісьыс
тмо
тмоз
тмоза
тмымдао
тн
тнас
тно
тны
тныто
то
товарищ
товаррез
того
тодиль
тодильн
тодильно
тожо
тои
ток
токат
токкеранін
токо
токсикодендрон
толстои
толумния
толь
только
толіссес
том
томах
томва
томжык
томжыккез
томзанония
томмез
томмезл
томов
томп
томпо
томшор
тонна
тонья
тоо
топ
топиноя
тополь
топоним
топонимии
топонимика
топонимическии
топонимия
топониммез
топыт
топыта
топытаыс
тор
торгов
торгово
тори
торись
торксьо
торлопов
торлопова
торо
торок
торокан
тороканнэз
тороккез
тороккесо
торопов
торрез
торреи
торрес
торсо
торся
тортум
торф
торъя
торын
торыс
торья
торьяло
торьясьо
тосья
тотар
тотара
тотарал
тотарму
тотьмянин
тотэлн
точки
тпо
тпыр
тпырись
тр
трабзон
традиции
традиционная
традиционно
традиционнои
традиционныи
традиция
традицияэз
трак
тракт
трактор
трактсянь
трактсяняс
транспорт
транспортын
трасса
тре
тревория
третьего
третьяков
три
тригонидиум
тригония
триксспермум
тринидад
трипано
трисетелла
трифонова
трифора
трихоглоттис
трихосалпинкс
трихотосия
трихоцентрум
трияс
тро
тропидия
тропик
тростник
трошев
трубинов
трубиншор
трудов
труды
тсо
тсьо
тся
тсянь
тт
ттамо
ттамоо
ттинген
ттингер
тто
ттор
ттэз
ттэзло
ттэзо
ттэзын
ттэс
ттэсо
ттяс
ту
туберкуле
тубыз
туввез
тувтан
тувто
тувтор
тувторрез
тувтчо
тувья
тудо
туе
туи
тукаче
тукачов
тукачовись
тулан
туланыс
тулыс
тулыснас
тулысодз
тулысся
тулысш
тульо
тумба
тунбергия
тунгуска
тунджели
тундра
тундраын
туния
тупицын
тупицына
тупка
тупо
тури
туризм
туримоль
туримы
турист
туриэз
туркин
турку
туркуас
туркуись
туркуо
туркусянь
туркуын
турпан
турун
туруна
туруннэз
турунсял
турунъю
турхал
турцияын
турышев
тусяпу
тут
туявны
туял
туялан
туяло
туяліко
туяліс
туялісо
туяліссез
туяліссес
туялісь
тч
тчан
тчанін
тчас
тчи
тчик
тчико
тчис
тчисо
тчиссез
тчиссезк
тчиссезл
тчиссесо
тчись
тчо
тчы
тчывл
тчывлісо
тчыліс
тчыны
тчыныт
тчыто
тш
тшак
тшаккез
тшакляшор
тшакыс
тшакьявны
тшакьял
тшко
тшо
тшокто
тшуп
тшупо
тшыг
тшыгсянь
тшыксьо
ты
тыашор
тыва
тываын
тыдал
тыдалана
тыдало
тыдо
тыла
тылавыл
тым
тымсер
тын
тынис
тыпуа
тыпыв
тыр
тыра
тыргора
тырис
тырло
тырмо
тыро
тыррез
тырт
тырто
тыртчо
тыс
тысло
тысяча
тысячелетия
тыш
тышкась
тышкасьо
тышкасян
тыын
тыыс
тыэз
тыэзо
тыэзся
ть
тэ
тэлля
тэн
тэнат
тэнчит
тэныт
тэрмасьо
тэч
тэчас
тэчасын
тэчись
тэчло
тэчо
тэчсьо
тюмень
тюрк
тюрки
тюркия
тюркияись
тюркиял
тюркияын
тюрьма
тюрьмаын
тянь
ті
тіи
тік
тіко
тікся
тікыс
тілаын
тіс
тісо
тіссез
тіссезо
тіссезісь
тісь
тісьло
тісьо
тісьыс
тіян
у
убеждениям
убрать
уважаемые
уважением
увария
увд
увдо
уведомления
увеличить
увт
увтас
увтат
увто
увтсит
увтын
увтыр
увтырвыв
увтырись
увтырл
увтыро
увтыррез
увтыррезло
увтыртан
увтыртанао
увтырын
увтырыс
увтісь
увья
угодде
угор
угорские
угорскии
угорским
угорских
угорского
угорское
угорскои
угпи
угров
угроведение
угроведения
угроведов
угры
уд
ударник
удгу
удж
уджав
уджавны
уджаин
уджаиннэз
уджаиннэс
уджаиныс
уджал
уджалан
уджало
уджалік
уджаліс
уджалісо
уджаліссез
уджаліссезло
уджаліссезлісь
уджалісь
уджалісьо
уджберго
уджжез
уджи
уджкериссез
уджкерись
уджкерисьыс
уджл
уджло
уджнысо
уджо
уджсо
уджсянь
уджтас
уджъяс
уджын
уджыс
удм
удму
удмуись
удмурт
удмуртму
удмуртмуын
удмуртология
удмуртск
удмуртскии
удмуртского
удмуртскои
удмурттэз
удмурттэзл
удмурттэзло
удо
удобном
удора
удораса
удорасянь
удораын
удэгеэз
уезд
уездо
уездын
уездісь
ужга
уже
узбеккез
узис
узнаи
узнать
уи
уилсон
указ
указания
указаннои
указатель
указать
уква
уклад
укп
украина
украинаын
украинса
украины
ул
улица
улича
уличаэз
уло
улус
улучшении
улучшения
улъя
улын
улынжык
улынін
улыс
уль
ульсо
ульянов
ульяновск
уляше
уляшев
улісь
улісянь
ум
умбу
умо
умолчанию
ун
уна
унаби
унавося
унажык
унажыкнас
унажыко
унажыкс
унажыксо
унажыкыс
унаи
унаись
унакодь
уналао
унао
унапо
унасувда
унасяло
универсального
универсальныи
университет
университета
университетас
университетл
университетсянь
университеттэз
университетын
университетісь
унифицированное
уничтожаи
уничтожитны
унья
употребление
употребления
управлению
управления
управленне
упражнении
упражненне
ур
урал
урала
уралистика
урало
уралои
уралсвязьинформ
уральским
уральских
уралісь
урасьо
урго
урд
урдун
уржа
уржум
урман
уро
уроккез
урусвуори
урью
урьюгорт
урьюгортын
урьюгортыс
урья
урядник
усва
усикавпунки
усикавпункиын
усима
усис
ускар
ускюдар
условиях
усолле
успенне
успешно
уссе
уссури
устав
устава
уставе
уставись
установить
устно
устных
усть
усь
усьва
уськ
усько
усьны
усьо
усян
усянін
утверждение
утверждении
утверждения
утев
утрехт
утробин
утробина
утьва
ууммармиутун
уфа
ухта
уч
участвовать
участвуи
участие
участием
участию
участия
участков
участково
участник
участники
участников
участниц
участок
участокись
уче
учеб
учебник
учебно
учебное
учен
ученого
ученые
ученыи
училище
учителю
учкись
учкисьыс
учо
ушак
ушаков
уэльс
уявны
уялан
уяло
уялісь
ф
фабер
фабрика
фадеев
фадеева
фаи
факс
факсыс
факультет
факультета
факультетын
фалса
фалькатифолиум
фалэнопсис
фамилии
фамилле
фанера
фап
фарж
фарисеи
фатих
фаунасо
фаунаэз
фаюс
фгрениантус
фе
феаккез
февр
февраль
февральын
февраля
федерал
федеральн
федерального
федерации
федерация
федерацияись
федерациял
федерацияло
федерацияын
федина
федорович
федосеев
федосеева
федот
федотло
федурин
федюне
феи
фенакоспермум
феодор
ферма
фермеррезло
фестиваллез
фестиваль
фестивальын
фигура
фиджи
физалис
физика
фиксируи
филезия
филиал
филиалысло
филиппин
филиппова
филлант
филлокладус
филол
филологии
филологические
филологических
филологического
филологическои
филология
философия
филфакись
фильм
фильммез
фин
финансовую
финанссэз
финму
финмуись
финмуын
финн
финно
финнэз
финск
финских
финско
финского
фирмиана
фирсов
фицрои
флагман
флексия
фликингерия
флорида
флоридаись
фокиения
фолидота
фольклор
фольклорнои
фольклорын
фона
фонд
фонда
фонем
фонетика
фонетики
фонетические
фонетических
фонология
форма
формаа
формат
формате
формаын
формаэз
формаэзнысо
формаэзын
формирование
фортеця
форум
форума
форуме
фосфориттэз
фото
фотосфера
фр
фрагмипедиум
фразеологическии
фразеология
фразер
франс
франско
франсуз
франсузму
франсузмуын
франции
франция
француз
французском
фрискала
фролов
фролова
фролову
фрунзе
фукьерия
фундамент
функиелла
функции
функционально
функционер
функционирование
функционирования
функцию
функция
фындыклы
х
хабар
хабаров
хабенария
хавза
хагсатера
хаи
хакас
хакасия
хакасму
хаккяри
хала
халебісь
халезия
халинен
халиненсянь
халиненын
халиско
халфети
хамелия
хамелофитон
хаммарбия
хамэгастродия
хамэкостус
хан
ханнез
ханты
хантыи
хапалорхис
характера
характеристика
харибда
харин
харитту
харла
хартвег
хартум
харью
хаске
хассельблаттко
хатаи
хатанзеи
хафик
хаята
хеи
хекимхан
хексалектрис
хексисея
хелонистеле
хельсинки
хельсинкиын
хем
хемипилия
хемшин
хенрикезия
херминиум
хиденвартти
хилоглоттис
хилопогон
хилосхиста
химантоглоссум
химия
химияись
хинтонелла
хирвенсало
хирвикоски
хисис
хитроглосса
хлорида
хлорэя
хо
ходе
хозат
хозяи
хозяинл
хозяиннэз
хозяинова
хозяшев
хоккаи
хоккеист
холкоглоссум
холотрикс
холь
хондроринха
хонсю
хопа
хор
хорасан
хорошев
хорошо
хотели
хотите
хочет
хр
хрестоматия
хризантэма
хризобаланус
хризолепис
хрисоглоссум
хрисосикнис
христиана
христианизация
христос
христоса
христосаэзло
христосл
христосло
хромцов
хуаншанись
хубэи
художественно
художественного
художников
худяев
хуи
хуллетия
хунтлеи
хутор
хухкола
хх
хыныс
хэи
хяме
хіх
хііі
ц
царму
цармуко
цбс
цвет
цвета
цев
целевои
цели
целогина
цель
целью
ценности
центр
цератандра
цератостилис
цератохилус
цератоцентрон
цефалантера
цефалантеропсис
цефалантус
цех
цианэорхис
цивилизация
цикла
циклоннэз
циклопогон
циклопыс
цикнохес
цимбидиум
цинния
цинорхис
циприпедиум
цирропеталум
циррхея
циртоподиум
циртостилис
цитарексилум
цк
цо
цы
цыбин
цыпанов
ч
ча
чав
чавкан
чаво
чагин
чадз
чадзо
чадзчои
чаели
чазе
чаи
чалдыран
чамлыдере
чамлыхемшин
чанаккале
чанкая
чанкыры
чаняыб
чао
чапкис
чапкыны
чар
чаршамба
час
часеелла
часо
часовенка
часовня
часословасын
частеи
части
частица
частности
часто
часть
чат
че
чебоксары
чебурашка
чедядь
чекен
чел
человек
челяба
челяде
челядь
челядькерку
челядьл
челядьло
челядьо
челядьс
челядьсад
челядьсаддэз
челядьсо
челядьыс
чем
чена
чепецк
чер
чердын
чердынсянь
через
чери
чериавл
чериавло
чериавны
чериал
чериало
черикыи
черимои
чериэз
черкесму
черкесскои
чернецов
черных
черо
черрез
черско
ческо
ческоко
четин
четыре
чеусов
чехму
чечулин
чечч
чеччис
чеччы
чи
чибьян
чив
чивзо
чиганнэз
чигас
чикманов
чикмановын
чикув
чикыш
чили
чилим
чилимдін
чилиын
чими
чин
чина
чинны
чино
чиновниккез
чинтан
чинто
чинын
чир
чирз
чирзыны
чирк
чирко
чирков
чирковволок
чирско
чиртулов
числа
числительно
число
чистале
чисто
чись
чит
чита
читателеи
чиуауа
чиуауаись
чиялтыме
чкар
чладор
член
членам
членами
членов
члены
чло
чн
чо
чов
човпана
човъю
чожа
чожжык
чои
чомо
чомор
чоморто
чомору
чоморыс
чорм
чормо
чорум
чорыт
чорыта
чорыттэсо
чорытыс
чочком
чочкомжык
чочкомкач
чочкомо
чп
чтение
чтении
чтения
что
чтобы
чу
чубаровчи
чубук
чуваш
чувашеи
чуваши
чувашии
чувашму
чувашскии
чувашского
чувашскои
чувашшез
чугаев
чугаи
чугра
чуд
чудо
чудоэз
чудь
чудьыск
чуж
чужан
чужанвуж
чужанвужа
чужанвужжез
чужанвужжес
чужанвужнысо
чужанін
чужи
чужис
чужмо
чужо
чужья
чуи
чук
чукло
чукмыс
чуко
чукотка
чукыле
чукыль
чукыльшор
чукыльын
чукыльыс
чукыля
чул
чулал
чулало
чуло
чумани
чунь
чунькытш
чуньнас
чуньо
чуприянов
чупров
чупчи
чурак
чус
чусва
чут
чутоккез
чутсо
чутыс
чуть
чучк
чучко
чуша
ччез
чыб
чывк
чын
чышк
чьаника
чьяпас
ш
ша
шаблон
шаблона
шаблонах
шаблоннэз
шаблонов
шаблоны
шавшат
шагаи
шаги
шадрин
шаер
шаи
шалам
шалпазары
шамары
шамаста
шамастана
шамшураэз
шанись
шанлыурфа
шантар
шань
шаньшор
шапка
шар
шаргунао
шаркан
шаркышла
шарло
шаттез
шать
шахов
шваи
швед
шведму
шведмуко
шведмуын
швеи
шебинкарахисар
шебрало
шев
шед
шедас
шедло
шедны
шедо
шедов
шедоваын
шедт
шедтан
шедтассэз
шедтассэзісь
шедто
шедтыны
шедтіс
шедіс
шее
шенген
шенкая
шерефликочхисар
шестаков
шесть
шиделла
шие
шиликова
шипичинчи
ширину
ширины
широты
шис
шишли
шк
шка
шкар
шкатуи
шкаэз
школ
школа
школаись
школал
школао
школас
школаын
школаэз
школаэзын
школе
школьн
школьника
шл
шляховои
шм
шмо
шня
шо
шог
шогавны
шогал
шогді
шогм
шогманін
шогманіннэз
шогмис
шогмо
шого
шогья
шои
шом
шома
шомбургкия
шомкор
шомло
шомысов
шонало
шоналыштло
шонд
шонді
шондігорт
шонділо
шондіыс
шондіюр
шонт
шонто
шоныт
шоныткодь
шонытыс
шор
шордын
шори
шорин
шорок
шорпальник
шоррез
шорша
шоча
шочжыка
шоччисьо
шоччисян
шочыника
шпренгер
шри
шрифта
шт
штас
штаттэз
штаттэзын
шти
штиприя
штиптар
што
шу
шуам
шуан
шуаннэз
шуаннэзлісь
шуаннэзын
шуаннэсо
шуано
шуаныс
шуас
шуасо
шубашкар
шубашкарись
шувл
шувлісо
шуис
шуисо
шулаи
шулак
шулаксянь
шульга
шульгавыв
шульгаланьсянь
шум
шума
шумашыэз
шумилов
шуны
шуо
шупкасо
шупкисьо
шупко
шурало
шусис
шусисо
шусь
шусьо
шусьыны
шуте
шутов
шшо
шы
шывынсь
шывынсьо
шым
шыннял
шыо
шыпас
шыпасо
шыпассэз
шыпасісь
шыпурттэз
шыр
шырнак
шырсьыны
шырсянін
шышыбар
шыыс
шыэз
шыэзся
шыэзсянь
шыэсо
шь
щ
щедов
щербаков
щербакова
ъ
ы
ыа
ыб
ыббез
ыбо
ыбулт
ыв
ыввез
ыввезо
ыввезын
ывмы
ывны
ывса
ыг
ыгдыр
ыд
ыджы
ыджыд
ыджыдвидз
ыджыдвидзись
ыджыт
ыджытва
ыджытволь
ыджытжык
ыджыткодь
ыджыто
ыджытся
ыджытшор
ыдпел
ыж
ыжда
ыждананас
ыждао
ыждаыс
ыждо
ыждывло
ык
ыко
ыл
ыла
ылас
ылдызели
ылнаын
ыло
ылсіь
ылчи
ылыдз
ылын
ылына
ылынаын
ылынжык
ылынкодь
ылыс
ылысь
ылісь
ын
ындыр
ыны
ыо
ыр
ырг
ырго
ыркыт
ырлы
ыро
ыс
ысл
ысло
ыспарта
ыст
ыстасо
ысто
ысттэз
ыстыны
ыстіс
ыстісяннэз
ысь
ысяло
ыт
ытшкись
ытшкисян
ых
ыысло
ь
э
эарина
эбен
эвенкиэз
эвеннэз
эвлери
эвпоматия
эвра
эг
эгеида
эд
эдирне
эдуард
эжва
эжваи
эжвало
эжвао
эз
эза
эзо
эзысе
эзісь
эи
эквадор
эквадорын
экватор
экваторсянь
экземпляр
экологическая
экологического
экология
экономика
экономикаын
экономического
эксаи
эл
элатина
электровезл
электрон
электронная
элемент
элемента
элементы
элеорхис
элетария
элиста
эллада
элладаын
эллин
элмадаг
эль
эльбистан
эльбрус
элязыг
эм
эманим
эманимло
эманимыс
эмбрееа
эмбур
эмо
эмторыс
эн
эна
энгельманн
энергетика
энергия
эно
энсу
энцикл
энцикли
энциклопедии
энциклопедическии
энциклопедия
энциклопедияын
энія
эол
эолыс
эпибластус
эпигениум
эпидемиология
эпидендрум
эпипактис
эпипогиум
эпос
эпоса
эпохи
эра
эрангис
эрантес
эрао
эрася
эрбаа
эрегли
эрзинджан
эрзурум
эрзя
эриаксис
эридес
эрик
эриохилус
эритроксил
эрия
эрман
эрмитажын
эс
эск
эскимос
эскипазар
эскишехир
эско
эсмералда
эсп
эспанне
эспання
эспанняись
эспанняло
эспанняын
эспанняыс
эсся
эст
эстму
эстмуись
эстмуын
эсто
эстонии
эсті
эт
эта
этадз
этал
этапам
этася
этасянь
этатшо
этеля
эти
этим
этимесгут
этимологическии
этимология
этих
этна
этническая
этническое
этногенез
этнограф
этнографии
этнографическии
этнография
этнограффез
этногруппаэз
этнокультура
этнокультурное
этнокультурные
этнокультуры
этнолингвистическии
этнология
этноним
этнос
этносло
это
этого
этои
этом
этому
этот
эттш
эттшо
эту
этшажык
этшшо
этіи
этія
этіясянь
эулофиелла
эуфорбия
эуфрония
эфиопия
эфиро
эфлани
эхинацея
эш
эшо
ю
юал
юан
юар
юасян
юасяннэз
юбилеи
юва
юг
юган
югд
югдо
югдыны
юго
югов
югослав
югославияын
югра
югры
югыд
югыдъяг
югыт
югытас
югьяліс
юдор
юдорся
южно
южо
юк
юкан
юканінын
юко
юковчи
юксь
юксьо
юктал
юл
юли
юло
юль
юльын
юляне
юм
юнга
юннань
юннаттэз
юны
юнь
юньнанись
юньнань
юньын
юо
юок
юоккез
юпик
юр
юра
юравны
юракыв
юракывло
юрал
юралан
юрало
юраліс
юраліссез
юраліссезлісь
юралісь
юралісьо
юралісьыс
юрбит
юрбитны
юрбытан
юрбытны
юрбыто
юри
юрии
юрина
юринаын
юркар
юркин
юрккяля
юрла
юсаи
юсвадор
юсвадорись
юсо
юсси
юстиция
юсуфели
юсь
юсьва
юсьваись
юсьвало
юсьваын
юсьвинск
юсьвинскии
юсьвинско
юсянь
ютланд
юхнин
юшков
юшкова
юын
юыс
юысло
юэз
юэзло
юэзо
юэзын
юэзісь
юэс
юэсо
я
яборов
ябыр
ябыровчи
ябыровчись
ябыровчиын
ява
яваись
явлениях
является
являи
явно
яг
яггез
ягдор
ягдорыс
яго
ягын
ягыс
ядендрон
ядьва
ядьвао
яз
язык
языка
языкам
языками
языках
языке
языки
языков
языковая
языковые
языкознание
языкознании
языкознания
языку
язьва
язьвин
язьвинса
язьвинсало
язьвинсаыс
язьвинскии
язьвинских
язьвинско
язьвинского
язьвинцев
яи
як
якимова
яков
якови
яковлев
яковлевич
якусимаись
якут
якутму
якутмуын
якутск
якуттэз
якушев
якярля
ялова
ям
ямаи
ямал
ян
яна
янаи
янв
январ
январсянь
январын
января
янессари
янл
яно
янс
янсал
янсало
янсо
янчер
япони
япония
японияын
яр
яран
яране
яраннэз
яраннэзло
ярашшуте
яренск
ярков
ярманкаэз
ярославль
яс
ясли
ясн
ясно
ясыс
ятка
ятско
яуре
яфетическая
яхонтов
ячеек
ячеи
і
іи
ісь
іі
ііі
ј
җ
ҡалып
һ
ӄу
ӄумыт
ӈ
ӈопои
әты
ԁ
ԃ
ԅ
ԇ
ԉ
ԋ
ԍ
ԏ
կաղապար
ְ
ִ
ַ
ָ
ֹ
ּ
ב
ה
י
ם
ן
ע
ק
ר
ת
תבנית
،
ا
الگو
تصنيف
رده
زمرہ
قالب
معلومات
ٔ
ٰ
ی
ँ
ं
क
ग
च
ज
जनक
ट
त
द
न
भट
म
य
र
व
श
स
ह
ा
ी
ु
े
्
ং
ট
ধ
ন
ব
বন
ম
য
র
ল
়
া
ি
ূ
ে
্
க
ட
ப
ய
ர
ற
ழ
வ
ா
ி
ீ
ு
்
ം
ദ
ല
ി
െ
്
จ
ต
น
บ
ร
ล
ว
ส
อ
ั
ิ
ี
ุ
ู
แม
่
้
์
თარგი
분류
틀
​
‌
‍
‎
–
—
―
‘
’
“
”
†
•
…
‰
′
″
‹
›
⁄
№
←
→
↓
↔
↷
−
≤
⌘
③
④
⑦
▲
▼
☉
☾
♀
♂
✍
✔
⟨
⟩
ⲁ
ⲓ
ⲣ
ⲫ
ⲱ
⺀
⺄
⺆
⺈
⺊
⺌
⺕
⺝
⺸
⺼
⿰
⿱
⿲
⿳
⿴
⿵
⿶
⿷
⿸
⿹
⿺
⿻
《
》
「
」
〢
の
オ
キ
ク
コ
ツ
ナ
フ
ホ
ユ
ロ
ー
㇁
㇂
㇄
㇇
㇈
㇉
㇓
㐁
㐄
㐅
㐌
㐫
㐬
㐭
㐮
㐱
㑒
㒵
㒸
㒼
㓁
㓞
㔾
㕛
㕣
㖾
㘝
㚅
㚇
㚔
㚘
㝉
㝡
㝴
㝵
㞋
㞢
㞷
㠩
㠭
㠯
㡀
㡭
㡿
㢲
㢴
㣇
㣺
㥯
㪅
㫄
㫐
㫒
㫺
㬅
㬎
㬥
㬰
㲋
㳄
㷠
㸒
㸚
㸦
㼌
㼲
㽞
㿟
䀠
䂞
䍃
䏍
䒑
䖍
䖒
䖝
䖵
䙴
䚻
䜌
䝿
䡛
䧹
䪞
一
丁
丂
七
丄
丅
丆
万
丈
三
上
下
丌
不
与
丏
丐
丑
专
且
丕
世
丘
丙
业
东
丞
丢
丣
两
严
並
丨
丩
个
丫
丬
中
丮
丰
丱
串
丵
丶
丷
丸
丹
为
主
丽
丿
乀
乂
乃
久
乆
乇
么
义
之
乌
乍
乎
乏
乐
乑
乔
乖
乗
乘
乙
乚
乛
乜
九
乞
也
习
乡
乳
乾
亀
亅
了
亇
予
争
事
二
亍
于
亏
亐
云
互
亓
五
井
亘
亚
亜
亞
亟
亠
亡
亢
交
亥
亦
产
亨
亩
享
京
亭
亮
亯
亰
亲
亳
亶
亷
人
亻
亼
亾
仁
今
介
仌
从
仐
仑
仒
仓
仔
仕
他
付
仝
代
令
以
任
企
伊
伏
伐
休
会
伯
但
位
何
佘
余
作
你
佥
使
來
侈
侌
侖
侯
侵
便
保
俞
信
修
倉
倍
倒
候
倠
做
備
僉
僕
儿
兀
允
兂
元
兄
充
兆
兇
先
光
兊
克
兌
免
兑
兒
兓
兔
党
兜
兟
入
全
兩
兪
八
公
六
兮
兰
共
关
兵
其
具
典
兹
兼
冀
冂
冃
冄
内
冈
冉
冊
冋
册
再
冎
冏
冐
冒
冓
冖
冗
冘
军
农
冝
冠
冡
冥
冫
冬
冷
几
凡
凢
凵
凶
凷
凸
凹
出
函
凾
刀
刁
刂
刃
刄
刅
分
切
刍
刑
刕
刖
列
刘
则
初
別
利
别
到
制
刺
則
削
剌
前
剡
剽
劉
力
功
加
劦
动
助
劫
劳
劵
勃
勇
勉
勒
動
務
勞
勤
勹
勺
勻
勾
勿
匀
匂
包
匆
匈
匊
匋
匍
匕
化
北
匚
匝
匡
匪
匱
匸
匹
区
医
匽
匿
區
十
卂
千
卄
卅
卆
升
午
卉
半
卌
华
卑
卒
卓
单
卖
南
卜
卝
卞
占
卡
卢
卣
卤
卦
卩
卪
卬
卯
印
危
即
却
卵
卷
卸
卻
厂
厃
厄
历
厈
厉
厌
厓
厘
厚
原
厤
厥
厨
厭
厲
厶
厷
厸
去
厼
厽
叀
参
參
叅
又
叉
及
友
双
反
叐
发
叒
叔
叕
取
受
叚
叜
叟
口
古
句
另
叩
只
召
可
台
叱
史
右
叵
号
司
叹
吂
各
吅
合
吉
吊
吋
同
名
后
吏
向
吕
君
吝
吞
否
含
启
吳
吴
吹
吾
呂
呆
呈
告
员
呙
周
呼
命
咅
和
咎
咠
咢
咨
咸
咼
哀
品
哉
員
哥
哲
唐
商
啇
問
啚
啬
啻
善
喜
喬
單
喿
嗇
噩
嚴
囊
囗
囘
囙
囚
四
回
囟
因
囧
囬
困
囱
囷
固
国
圂
圅
國
圍
圓
土
圡
圣
圥
在
圭
地
圶
圼
坐
坒
坚
坴
垂
垔
垚
埀
埋
城
埶
執
基
堂
堅
堆
堇
堯
場
塞
墨
壘
士
壬
壯
声
壳
壴
壹
壺
壽
夂
处
夅
夆
备
夊
夋
夌
复
夏
夒
夕
外
夗
夘
多
夜
夢
大
夨
天
太
夫
夬
夭
央
失
夲
头
夷
夸
夹
夻
夾
奂
奄
奇
奈
奉
奎
奏
奐
契
奓
奔
奚
奞
奠
奢
奥
奭
女
奴
奻
好
如
妄
妙
妟
妥
妻
妾
姑
委
姜
威
娄
婁
婆
婴
嬰
嬴
子
孑
孔
孕
孖
字
存
孚
孛
孝
孟
季
孤
学
孫
孱
學
宀
宁
宂
它
宅
宇
守
安
宋
完
宏
宓
宗
官
定
宛
宜
宝
客
宣
室
宮
宰
害
家
容
宾
宿
寄
寅
密
富
寒
察
實
寧
審
寫
寬
寮
寸
对
寺
寻
寽
対
寿
封
尃
射
将
將
專
尉
尊
尋
尌
對
小
少
尒
尓
尔
尖
尗
尚
尞
尢
尣
尤
尧
尨
尭
就
尸
尹
尺
尻
尼
尽
尾
尿
局
居
屆
屈
屋
屎
屏
屑
展
屖
屚
属
屠
屡
屬
屮
屯
屰
山
屵
屾
岁
岂
岑
岡
岩
岳
岸
峯
島
崇
崑
崔
崖
崙
崩
嵬
嶲
巂
巛
川
州
巟
巠
巢
巤
工
左
巧
巨
巩
巫
差
己
已
巳
巴
巷
巸
巽
巾
巿
帀
市
布
师
希
帚
帛
帝
带
師
席
帶
常
干
平
年
幵
并
幷
幸
幺
幻
幼
幽
幾
广
広
庄
床
底
店
庚
府
度
庫
庭
庶
康
庸
廉
廌
廛
廟
廣
廩
廴
延
廷
建
廾
廿
开
弁
弃
弄
弇
弋
式
弓
弔
引
弗
弘
弜
弟
弥
弦
弱
張
強
强
彊
彌
彎
彐
彑
当
彔
录
彖
彗
彡
形
彥
彦
彧
彭
影
彳
役
彼
往
待
律
後
徑
徒
得
徙
從
復
微
徵
德
心
忄
必
忌
忍
志
忝
忠
忩
快
念
忽
忿
思
怠
怡
急
怱
恆
恒
恩
恭
息
悉
患
悤
悲
悶
情
惠
惡
惢
愁
愈
意
愛
感
慈
慧
慮
憂
憲
應
戀
戈
戉
戊
戋
戌
戍
戎
成
我
戒
戔
或
戚
戠
戢
截
戲
戶
户
戹
戼
戾
房
所
扁
扇
手
扌
才
打
托
执
承
抗
折
抜
拉
拍
拜
拿
掌
推
提
損
摩
撤
擊
攝
支
攴
攵
收
攸
改
放
政
敄
敏
敕
敖
敗
教
敝
敞
敢
散
敦
敫
敬
数
敷
數
斂
文
斉
斊
斗
料
斤
斥
斩
斬
斯
新
方
於
施
斿
旁
旋
族
无
旡
既
旣
日
旦
旧
旨
早
旬
旱
旲
时
旾
昆
昇
昌
昍
明
昏
易
昔
昗
昜
星
春
昬
是
昱
昴
昷
時
晃
晉
晋
晏
普
景
晶
智
暑
暴
曇
曜
曩
曰
曲
曳
更
曷
書
曹
曼
曾
替
最
朁
會
月
有
朋
服
朔
朕
朗
望
朝
期
木
朩
未
末
本
札
朮
术
朱
朵
朶
朿
杀
杏
杜
束
条
来
東
杲
杳
松
板
析
林
枚
果
枝
枲
枼
某
柔
查
柬
柰
柴
栄
栗
格
桀
桑
桼
梁
條
梟
梨
棘
棠
棥
森
楚
業
楽
榮
樂
樊
樓
標
模
欠
次
欣
欮
欲
欶
欽
款
歆
歇
歛
止
正
此
步
武
歨
歪
歮
歯
歰
歲
歴
歷
歸
歹
歺
死
殳
段
殷
殸
殹
殺
殻
殿
毀
毋
毌
母
每
毒
比
毕
毚
毛
毳
氏
氐
民
气
氣
水
氵
氶
氷
永
氺
氾
求
汝
汞
江
沃
沓
沙
沝
河
況
泉
法
波
泣
泥
泰
洛
津
洪
活
派
流
浦
浪
浮
海
消
淡
淮
清
渚
渠
港
湯
滿
漸
灣
火
灬
灭
灰
灵
灷
炅
炎
炏
炗
炙
炭
為
烈
烏
烝
焉
無
焦
焱
然
煞
熊
熏
燕
營
燮
爪
爫
爭
爯
爰
爱
爲
爵
父
爻
爽
爾
爿
片
牙
牚
牛
牜
牟
牢
牧
牪
特
牽
犀
犬
犭
犮
狂
狄
狊
独
狺
猋
猒
猪
献
獻
玄
率
玉
王
玟
玨
珎
班
現
球
琴
瑟
瑩
環
瓜
瓦
甘
甚
生
産
用
甫
甬
田
由
甲
申
电
甶
男
甸
甹
画
甾
畀
界
畏
畐
留
畜
畟
畢
畧
畨
番
畫
異
畱
當
畺
畾
疊
疋
疌
疑
疒
疾
癶
癸
癹
登
發
白
百
皀
皃
的
皆
皇
皋
皐
皕
皮
皷
皿
盃
盆
盇
盈
益
盍
盎
监
盒
盖
盛
盡
監
盤
盧
目
直
相
盾
省
眇
眉
看
眔
眞
真
眷
眼
眾
着
睘
睪
睿
瞏
瞢
瞿
矍
矛
矞
矢
矣
知
矦
短
石
砲
破
碎
磊
磨
示
礻
礼
神
祟
票
祭
禀
禁
福
禸
禹
禺
离
禽
禾
禿
秀
秃
秉
秋
科
秒
秝
秦
移
程
稟
穀
穌
穴
究
穹
空
穿
突
窄
窒
立
竒
竜
竝
竟
章
童
竹
笑
笠
第
筆
等
答
箕
算
箴
節
篇
篤
篭
米
类
粉
粛
粟
粤
粦
粲
粵
糞
糸
糹
系
約
納
素
索
紫
累
細
絜
絫
絲
続
維
綿
線
縣
總
繁
繇
纍
纟
缶
网
罒
罔
罕
罗
罙
罡
罢
罪
署
罷
羅
羊
羌
羍
美
羔
羕
羗
羞
羡
羣
群
義
羲
羸
羽
翁
翏
習
翕
翟
翠
翼
老
耂
考
者
耆
而
耎
耑
耒
耳
耴
耶
耷
聂
聊
聖
聚
聶
聿
肀
肃
肅
肉
肖
肙
肥
肩
肯
育
肴
胃
背
胡
胥
能
脊
脩
腐
膚
臣
臤
臧
自
臬
臭
臯
臱
至
致
臺
臼
臽
臾
臿
舀
舂
舄
與
興
舉
舌
舍
舛
舜
舞
舟
航
般
艮
良
色
艸
艹
艾
芒
芔
芬
芮
花
芳
芺
芻
苔
苗
苟
若
苦
英
茶
茸
荅
草
荒
荣
荼
莆
莧
莫
莲
莽
菆
菊
菐
菜
華
萬
落
葉
著
葛
董
葵
蒙
蒦
蒲
蒼
蓋
蓬
蓺
蔑
蔡
蕉
蕭
薄
薛
薦
薰
藍
藏
藥
蘭
虍
虎
虐
虒
虔
處
虖
虗
虘
虚
虛
虜
虞
號
虫
虽
蚤
蚩
蜀
蜜
蟲
蠡
血
行
衍
衛
衣
衤
表
衮
衰
袁
袞
褭
褱
襄
襲
襾
西
覀
要
覃
見
規
覓
覧
親
覽
见
角
解
言
訁
訇
計
記
訪
詹
語
誩
諸
議
讠
谷
豆
豈
豊
豐
豕
豖
豙
象
豦
豩
豪
豸
貇
貝
貞
貟
負
貢
貧
貪
貫
責
貳
貴
買
費
賁
資
賈
賏
賓
賔
賛
賞
賢
賣
質
賴
賽
贊
贝
贡
责
贯
贲
贵
赖
赞
赤
赦
走
越
趙
足
路
蹇
蹋
身
躬
車
軍
軎
軟
輦
輪
车
辛
辜
辟
辥
辰
辱
農
辵
辶
边
达
过
近
连
迷
追
退
送
逆
逐
通
速
造
逢
連
逮
進
遀
遂
過
道
達
遣
適
遷
選
遺
邊
邑
邕
那
邦
邪
郎
部
郭
都
鄉
鄞
酉
酋
配
酒
酓
釆
采
里
重
野
量
金
釒
鋒
錢
錦
錫
钅
長
镸
长
門
閃
閉
開
閏
閑
閒
間
閔
閵
閻
闌
门
问
间
闷
阑
阜
阝
阿
附
降
陳
隆
隊
隋
隡
隨
隱
隶
隹
隺
隻
隼
隽
难
雀
雁
集
雈
雋
雍
雐
雔
雙
雚
雜
雝
離
難
雨
雩
雪
雲
零
雷
需
霍
霜
霝
霞
霸
靈
靑
青
非
靡
面
靣
革
韋
韦
韭
韯
韱
音
頁
頃
項
須
頗
頡
頻
顛
页
風
颱
风
飛
飞
食
飠
養
饣
首
香
馬
馮
駦
驅
马
骨
高
髟
鬥
鬯
鬲
鬼
魚
魯
鮮
鯉
鱼
鲁
鳥
鳳
鴨
鸟
鹵
鹿
麃
麗
麥
麦
麻
黃
黄
黍
黎
黑
黒
黨
黹
黽
黾
鼎
鼓
鼠
鼻
齊
齋
齐
齒
齿
龍
龙
龜
龟
龠
龰
龱
龴
龵
龶
龷
龸
龹
ꚋ
ꚏ

者
艹
️
ﺍ
ﻞ
ﻟ
ﻨ
ﻴ
﻿
，
／
：
？
￼
🌐
🎉
👩
📲
🗓
🚀
🜨
𠀁
𠀃
𠀆
𠀉
𠀎
𠀐
𠁁
𠁣
𠂆
𠂇
𠂈
𠂉
𠂊
𠂋
𠂎
𠂒
𠂔
𠂛
𠂡
𠂢
𠂤
𠂬
𠂭
𠂹
𠃊
𠃋
𠃌
𠃍
𠃎
𠃑
𠃓
𠃔
𠃜
𠄌
𠄎
𠄠
𠄢
𠆢
𠆥
𠇍
𠈌
𠌵
𠓜
𠔉
𠔥
𠔼
𠔽
𠔿
𠕀
𠕁
𠕋
𠘧
𠘨
𠙻
𠙼
𠚏
𠚒
𠚤
𠚪
𠣏
𠤎
𠤕
𠥓
𠦄
𠦑
𠦝
𠧒
𠧗
𠧪
𠩺
𠪚
𠫓
𠫔
𠫤
𠬛
𠬝
𠬞
𠬢
𠬤
𠬶
𠮛
𠮦
𠮷
𠯑
𠱠
𠳮
𠷎
𡈼
𡉀
𡉵
𡌥
𡍮
𡏳
𡕒
𡕩
𡕰
𡖅
𡗗
𡗜
𡘆
𡘤
𡧱
𡨄
𡩧
𡬠
𡭽
𡰣
𡰥
𡰪
𡰯
𡰱
𡷈
𡸁
𡿨
𡿩
𡿪
𡿺
𢀖
𢀛
𢀩
𢁙
𢆉
𢆰
𢆶
𢇁
𢇇
𢉖
𢌬
𢌿
𢏚
𢑑
𢑚
𢖻
𢙣
𢛳
𢦏
𢦒
𢧵
𢼄
𢾕
𣁋
𣄼
𣅀
𣅽
𣍘
𣎳
𣎵
𣏋
𣏼
𣗥
𣥂
𣥖
𣦵
𣦼
𣧄
𣪊
𣪠
𣬉
𣳾
𣶒
𤇾
𤊽
𤐫
𤓰
𤔔
𤕨
𤣩
𤰇
𤰔
𤰞
𤴓
𤴔
𤽄
𥁑
𥁕
𥃦
𥃩
𥃭
𥇡
𥑟
𥘅
𥘈
𥝢
𥫗
𥱡
𦈢
𦉪
𦉬
𦉼
𦍌
𦍒
𦎧
𦐇
𦓔
𦔮
𦘒
𦙃
𦚏
𦣝
𦣞
𦣻
𦥑
𦥔
𦥯
𦨉
𦭝
𦰩
𧆞
𧈧
𧘇
𧰨
𧴪
𧴮
𧵩
𧾷
𨸏
𨾴
𩙿
𩠐
𩫏
𩵋
𪉷
𪜀
𪟽
𪠲
𪩲
𫇦
𫔭
𫜸
𫝀
𫠣
𫠩
𫢉
𫥞
𫩏
𫩠
𫪡
𫲽
𫶧
𬀷
𬐘
𬗌
𬙙
𬛸
𬜯
𬟩
𬯁
𬴘
𬺻
𬼉
𬼖
𭀰
𭁈
𭁨
𭅰
𭑈
𭕄
𭗼
𭤨
𭥫
𭻾
𮅕
𮊿
𮍌
𮍏
𮓗
𮥼
𮧮
廾
𰀁
𰀄
𰀈
𰀉
𰀕
𰀠
𰀡
𰀢
𰀪
𰁜
𰃮
𰆊
𰆘
𰋙
𰕎
𰢴
𰧭
𰯲
00--
000--
01--
02--
03--
04--
05--
06--
07--
08--
09--
100--
123--
134--
16--
160--
168--
170--
362--
37--
39--
41--
42--
44--
45--
46--
47--
49--
50--
51--
52--
54--
55--
56--
58--
59--
60--
61--
62--
63--
64--
65--
66--
68--
69--
70--
71--
72--
73--
74--
76--
77--
78--
79--
80--
81--
82--
83--
86--
87--
88--
90--
91--
92--
93--
96--
98--
99--
a--
aa--
ab--
aba--
abr--
abu--
abys--
ac--
acan--
acanth--
acer--
acicu--
acro--
acti--
actu--
acu--
acuminat--
acuti--
ad--
aden--
adenot--
adm--
ado--
adria--
adu--
advan--
ae--
aeo--
aerid--
aerido--
aethi--
af--
afge--
ag--
agat--
aik--
ail--
air--
ak--
aka--
al--
ala--
alas--
albi--
albo--
aleu--
alex--
alge--
alho--
all--
aloif--
alu--
alue--
am--
ama--
amani--
amaz--
ambr--
amp--
amphi--
ampu--
amygda--
an--
ana--
anchor--
anci--
ancy--
and--
angu--
angust--
anka--
ann--
anth--
aor--
ap--
aphy--
app--
apul--
ar--
arach--
are--
arg--
args--
ari--
aris--
art--
arund--
as--
asco--
ascog--
aspa--
aspl--
astr--
asuk--
at--
atje--
atro--
atta--
au--
aure--
auricu--
aus--
austros--
auto--
av--
ay--
az--
b--
ba--
bach--
bad--
bag--
bal--
balaen--
ban--
bapt--
bar--
bat--
bau--
bavi--
bay--
be--
beau--
bell--
ben--
ber--
berg--
bes--
bi--
bibl--
big--
bina--
bio--
bipin--
bl--
blep--
blo--
bo--
bob--
bol--
boni--
bor--
bou--
bovi--
bow--
bowm--
box--
br--
bra--
brach--
brachy--
bre--
bren--
brevi--
brevifo--
bro--
broa--
bru--
bryop--
bu--
bub--
buc--
bucc--
budd--
bulb--
bur--
burch--
burk--
burn--
but--
bw--
by--
c--
ca--
cac--
caf--
cal--
calam--
calca--
calce--
caled--
cali--
calo--
caly--
calypt--
calyptor--
came--
can--
cap--
capr--
car--
cara--
cari--
carici--
carn--
carnos--
caro--
carp--
carpa--
cas--
cat--
category--
cau--
cav--
ce--
cedar--
cele--
cen--
cer--
cera--
cerato--
ceri--
cesp--
ch--
cha--
chal--
champion--
char--
che--
chi--
chlo--
cho--
chor--
chowd--
chry--
chryso--
chy--
ci--
cili--
cine--
cinn--
circu--
cla--
clar--
clau--
clavi--
cle--
cli--
clu--
clusio--
co--
cocc--
coch--
cochle--
col--
coll--
com--
con--
concen--
cond--
confi--
conos--
cora--
cord--
corn--
coro--
corru--
corsi--
cory--
corymb--
cost--
cou--
cra--
cras--
crassi--
cratoxy--
cre--
cri--
cro--
crow--
cru--
cruci--
cry--
crypt--
cu--
cucu--
cune--
cunicu--
cup--
cur--
curt--
curvi--
cy--
cya--
cyan--
cyathi--
cyc--
cyclo--
cyclog--
cyg--
cymb--
cypho--
cyrt--
cyu--
czer--
d--
da--
dacty--
dal--
dama--
dams--
dan--
dark--
darkslate--
day--
de--
debo--
dedi--
defi--
den--
der--
des--
desti--
deve--
di--
dia--
diap--
dic--
dicty--
dina--
dioi--
dip--
dipl--
dipter--
dis--
disp--
disper--
dist--
do--
dolabr--
doli--
dolich--
dor--
doro--
dos--
dou--
down--
dr--
drac--
dro--
drya--
du--
dus--
dyna--
e--
ec--
ecal--
echi--
ed--
egi--
ein--
eis--
ek--
el--
ele--
elep--
elli--
ellips--
em--
en--
ensi--
eo--
ep--
ephe--
epid--
epip--
er--
ere--
erici--
erio--
eru--
ery--
eryth--
erythro--
es--
esca--
est--
et--
etymo--
eu--
eupho--
euphr--
euro--
eury--
ex--
exc--
expand--
expli--
f--
fa--
fai--
fal--
falci--
fami--
far--
fe--
ferd--
fern--
fet--
fi--
fici--
file--
fili--
filterby--
fimb--
fin--
fis--
fl--
fla--
flam--
flav--
fli--
flo--
flor--
floscu--
flu--
fly--
fo--
fol--
foli--
for--
format--
forni--
fos--
fove--
fr--
frag--
frank--
frantsuz--
frauen--
fre--
fri--
fry--
fu--
ful--
fulv--
fur--
furfu--
fusc--
g--
ga--
gala--
gale--
galp--
gamm--
gar--
garb--
gas--
gastr--
gau--
ge--
gel--
gene--
geo--
ger--
gera--
germ--
get--
gi--
gib--
gil--
gill--
gl--
gla--
gladi--
gli--
glo--
globi--
globu--
gloc--
glor--
glos--
glosso--
glypt--
go--
gobi--
gong--
gor--
gou--
gr--
gra--
graci--
gracili--
gre--
grin--
gro--
gru--
gu--
gua--
guana--
guang--
gui--
gunn--
gutt--
gwa--
gy--
gymn--
gymnoc--
h--
ha--
haan--
haem--
hage--
hal--
ham--
han--
hapl--
har--
harri--
has--
he--
hed--
hedw--
hein--
hel--
heli--
heliop--
helmi--
hemi--
hene--
henn--
henri--
her--
hesp--
heu--
hi--
hih--
hiiden--
hima--
hin--
hind--
hipp--
hippoc--
hir--
ho--
hoch--
hof--
hoffm--
hol--
holl--
holly--
holo--
homo--
horiz--
hs--
hu--
humi--
hutchin--
hy--
hyacin--
hydro--
hyper--
i--
ia--
ibi--
ica--
id--
iden--
if--
ig--
igu--
ii--
ik--
il--
illu--
illus--
iloman--
im--
imag--
imbri--
implem--
in--
ina--
inc--
inde--
indo--
infi--
ingr--
inop--
inte--
inter--
inva--
inve--
inyu--
io--
iono--
ip--
ir--
iri--
irr--
is--
isch--
iso--
iss--
it--
iv--
izve--
j--
ja--
jan--
janow--
jau--
je--
jen--
jo--
jou--
ju--
juli--
jun--
jur--
juu--
jy--
k--
ka--
kaga--
kais--
kal--
kali--
kall--
kam--
kan--
kansallis--
kansallispu--
kar--
kara--
kare--
kari--
karo--
kaul--
kay--
kaŋ--
ke--
ker--
kha--
kho--
ki--
kiga--
kimi--
kin--
kina--
kino--
kir--
kirk--
kk--
klu--
kna--
ko--
kohl--
kokk--
kol--
kor--
koro--
kou--
koz--
kre--
kreuz--
kri--
kru--
kry--
ku--
kuh--
kul--
kunn--
kv--
ky--
kymen--
l--
la--
lab--
lace--
lahden--
lam--
lamel--
lan--
lanc--
lanceo--
lang--
lap--
lapp--
las--
lat--
lati--
lau--
lave--
law--
laxi--
le--
lee--
leg--
lei--
leio--
lem--
leo--
lep--
lepid--
lept--
les--
leu--
leuco--
li--
lia--
ligu--
lill--
lin--
lind--
list--
lite--
lithop--
ll--
llam--
llen--
lo--
lobu--
lodge--
long--
longi--
lop--
lori--
lox--
lu--
luin--
luis--
luni--
luon--
lute--
lutr--
luv--
lux--
luxem--
ly--
lyci--
m--
ma--
maakun--
mac--
mackinn--
macropo--
mag--
magal--
magda--
magni--
mai--
mainsnak--
mal--
mamm--
mammu--
man--
mangost--
mar--
maran--
mari--
marien--
maroc--
masc--
matu--
mau--
maur--
max--
me--
meas--
medi--
mega--
megalo--
mel--
mela--
melano--
meli--
mell--
melops--
mem--
men--
mer--
mes--
met--
mi--
mic--
mich--
micro--
microglos--
mid--
mild--
min--
minimi--
mira--
mit--
mix--
mm--
mo--
moi--
mol--
moll--
molu--
mon--
mona--
mono--
monop--
mori--
morr--
mos--
mosc--
motor--
mou--
mu--
multi--
muni--
mur--
mus--
mw--
my--
n--
na--
nan--
nar--
nau--
nav--
navicu--
naz--
nc--
nd--
ne--
nebl--
nebu--
nec--
nega--
nema--
nemet--
neo--
neoc--
neohi--
neop--
neor--
nephr--
neriif--
neu--
neur--
new--
ng--
ni--
nig--
nigri--
nigro--
niti--
nko--
nm--
nn--
no--
nocti--
nor--
nord--
nov--
nty--
nu--
num--
ny--
nya--
nyabi--
nyaka--
nycte--
nymp--
nz--
nza--
o--
ob--
obe--
obl--
obo--
obscu--
oc--
occu--
ocel--
och--
ochr--
oct--
od--
odo--
odon--
odonto--
oka--
ol--
oli--
oly--
om--
on--
op--
ophi--
or--
orbicu--
oreo--
org--
ori--
orni--
ornith--
orp--
orth--
os--
ot--
otop--
ou--
out--
ova--
ovati--
over--
ovi--
ox--
oxpe--
oxy--
oy--
p--
pa--
paarden--
pachy--
page--
pal--
palo--
pamp--
pampat--
pan--
pap--
par--
para--
parahybu--
parat--
parav--
parsetime--
parvi--
pauci--
pay--
pe--
pedi--
pein--
pele--
pell--
pelt--
pen--
penta--
per--
pesc--
peu--
pfl--
pha--
pho--
phoeni--
phr--
phu--
phy--
phyll--
pi--
pic--
pictu--
pihla--
pil--
pilos--
pin--
pio--
piri--
pis--
pit--
pl--
plac--
plat--
platy--
play--
ple--
plec--
pleio--
pleuroth--
pluri--
po--
poas--
pocu--
podil--
poeci--
pogo--
poh--
pol--
poli--
poly--
polyo--
polyst--
polytri--
pona--
por--
pos--
pr--
pra--
prac--
prat--
pre--
prim--
prin--
prio--
probo--
prom--
pros--
prot--
prun--
ps--
pseu--
pseudo--
pseudod--
psik--
psil--
psit--
psitta--
psittacu--
pt--
pter--
pu--
pubi--
pue--
pulv--
pulver--
pun--
punc--
puncticu--
pur--
purpureo--
px--
py--
pygma--
pyri--
q--
qu--
quadr--
quadri--
qui--
quin--
quinquangu--
quinque--
quinquene--
r--
ra--
rag--
rah--
raim--
rait--
rakennuk--
ramo--
ran--
rau--
rauk--
rave--
raz--
re--
rec--
ref--
rei--
reim--
render--
reni--
rep--
res--
reser--
ret--
rhaphi--
rhe--
rhino--
rhizop--
rho--
rhodo--
rhomb--
rhombo--
rhync--
rhyncho--
ri--
rigi--
rio--
rk--
ro--
rond--
ros--
rou--
rr--
rt--
ru--
rubi--
rubr--
rubro--
rud--
rudi--
ruga--
rump--
ruon--
rus--
rve--
rwa--
ry--
s--
sa--
saar--
saba--
sac--
sacc--
sacha--
sad--
sagi--
sal--
salt--
salv--
sambu--
samo--
san--
sar--
sarco--
saty--
sau--
sauvage--
sc--
scabr--
sch--
scha--
sche--
schi--
schiz--
schwe--
sci--
scin--
sclero--
sco--
scop--
se--
sea--
sele--
sell--
semi--
sep--
ser--
serru--
ses--
seychel--
sh--
sha--
sher--
shi--
sho--
shu--
shy--
si--
sica--
sie--
siege--
siki--
sil--
sill--
silv--
simpli--
simu--
sin--
sipho--
sit--
siu--
sk--
sky--
sl--
slate--
sloven--
sm--
smit--
so--
sol--
son--
sp--
spat--
spathu--
spe--
spha--
sphaer--
sphaero--
spi--
spin--
spo--
squ--
sr--
st--
sta--
stac--
stan--
stand--
star--
ste--
stein--
stel--
steli--
ster--
stic--
stip--
sto--
str--
strobi--
stu--
sty--
su--
sub--
subulif--
suf--
sukk--
sum--
sun--
suom--
sup--
super--
suri--
sute--
suu--
sv--
sven--
sw--
sy--
syd--
symp--
syn--
t--
ta--
takas--
tamm--
tan--
tap--
tava--
te--
tec--
teh--
tei--
tel--
ten--
tenui--
teollisuus--
tesse--
tetra--
th--
the--
thi--
thom--
thor--
thy--
thyrsi--
ti--
tigr--
time--
tju--
to--
toi--
toim--
tor--
tort--
tovo--
tr--
tra--
trans--
tre--
tri--
tria--
trich--
trid--
trif--
trig--
trin--
tristi--
troc--
tru--
trun--
ts--
tt--
tu--
tur--
turb--
turk--
turr--
twe--
ty--
tyle--
type--
tyrr--
u--
ubu--
ul--
umb--
umu--
un--
unci--
uni--
unix--
up--
ur--
urop--
urti--
us--
usam--
uss--
uti--
utu--
utverzh--
uu--
v--
va--
val--
van--
var--
vasc--
ve--
ver--
verb--
vern--
verru--
verruco--
verschaf--
vertici--
vest--
vey--
vi--
via--
vic--
vie--
vil--
vill--
vir--
viridi--
vo--
vodo--
vody--
vol--
vul--
vuor--
vuot--
w--
wa--
wal--
wald--
was--
water--
waw--
we--
wei--
wel--
wen--
wettste--
whe--
wi--
wich--
wid--
wiki--
wil--
wilkin--
win--
wit--
wo--
wogu--
wol--
wool--
wu--
wy--
x--
xan--
xanth--
xen--
xerop--
xi--
xx--
y--
ya--
yam--
yan--
ye--
yli--
yo--
yu--
z--
za--
ze--
zen--
zi--
zon--
zor--
zu--
δ--
η--
μ--
ν--
π--
ρ--
ρα--
τ--
а--
аб--
аве--
авс--
австр--
авто--
автомати--
аги--
агро--
ад--
аде--
адъект--
ази--
ак--
акаде--
аки--
акла--
акти--
акча--
акшу--
ал--
алба--
але--
алж--
али--
аллю--
аль--
ам--
ан--
ана--
анто--
антро--
анф--
ар--
ара--
аркт--
арт--
арх--
архе--
ас--
асте--
асыв--
ась--
ат--
ата--
атама--
атмо--
аф--
афр--
ах--
аэрод--
б--
ба--
баб--
баде--
баж--
баи--
бал--
бале--
баля--
бан--
банн--
бар--
бара--
бас--
бата--
бах--
баш--
бе--
без--
бел--
белх--
бес--
би--
биб--
библи--
бигно--
бла--
благо--
благов--
благос--
бли--
бо--
боб--
бог--
бое--
бол--
большин--
бом--
бор--
бос--
бра--
брах--
бри--
бу--
бул--
бур--
бус--
бух--
бы--
быд--
быт--
в--
ва--
вад--
важ--
вал--
ван--
вая--
ве--
ведерни--
веж--
вежъ--
вел--
вен--
вени--
верхневычегод--
вет--
веш--
ви--
видз--
виз--
виза--
вики--
виль--
вин--
вир--
вис--
виччи--
вклю--
вл--
влад--
владив--
внеш--
вну--
во--
вод--
вож--
воз--
возв--
вок--
вол--
вос--
вот--
вс--
все--
всь--
вт--
ву--
вуж--
вуза--
вун--
вхо--
вы--
выб--
выв--
выд--
выпол--
выста--
вяр--
вят--
г--
га--
гав--
гаж--
газ--
гал--
гали--
гар--
гах--
гва--
ге--
генди--
географи--
географиче--
геор--
гераль--
ги--
гидро--
гиж--
гл--
гла--
гле--
глу--
го--
голо--
гор--
гос--
гр--
гра--
граж--
граммати--
грамматиче--
грез--
грец--
гри--
грин--
гу--
гуандун--
губер--
губи--
гудыр--
гума--
гумани--
гусель--
гы--
гыр--
гю--
гюзе--
гюл--
гюр--
д--
да--
дав--
дал--
дальне--
дан--
дас--
дву--
дд--
де--
девя--
деми--
дерев--
дет--
дж--
дз--
ди--
дик--
дин--
дк--
дли--
дма--
дми--
дмитрие--
дна--
днас--
до--
доб--
доба--
дод--
доз--
дозор--
док--
доку--
долла--
дополни--
дор--
древ--
древне--
друж--
дты--
ду--
дуб--
дур--
духов--
дч--
дъ--
ды--
дь--
дья--
дю--
ді--
е--
ев--
евро--
ег--
ед--
еже--
ежегод--
ез--
еле--
ели--
ель--
еме--
ен--
ени--
ер--
ес--
ефр--
ешил--
ж--
жа--
жан--
же--
жем--
жо--
жу--
з--
за--
заб--
заверш--
зам--
зап--
зарег--
зах--
захар--
защ--
зая--
зву--
зе--
зеле--
земл--
зи--
зим--
зко--
зл--
зна--
зо--
зоб--
зуа--
зуе--
зум--
зык--
зыр--
зь--
зэл--
зю--
зюз--
и--
иа--
ив--
ива--
иг--
ид--
идентиф--
ие--
из--
избира--
избран--
изве--
изз--
изо--
изоб--
ик--
ил--
или--
иль--
им--
ин--
инициа--
инклю--
интернац--
ину--
инфик--
ип--
ир--
ирсяні--
ис--
иско--
испа--
исполни--
исполь--
исследователь--
ит--
их--
ичето--
к--
ка--
каба--
кабар--
кабь--
кад--
казьты--
кал--
кале--
кам--
кама--
кан--
кань--
кап--
капу--
кар--
карма--
кас--
кат--
катыд--
катыт--
каф--
кв--
ке--
кеп--
кер--
ки--
кинемато--
кино--
кир--
кирил--
кис--
кисло--
кл--
км--
кн--
ко--
ков--
код--
коз--
козь--
козьна--
кок--
коко--
кол--
ком--
коми--
кон--
кондин--
кондиц--
конк--
конст--
конт--
коп--
кор--
коро--
коррес--
кост--
кот--
котели--
котлови--
коце--
кош--
крае--
краси--
кре--
кри--
кро--
кру--
ку--
кудик--
куз--
кузе--
кузь--
куим--
кук--
кул--
кунде--
кур--
кустар--
куч--
куш--
кче--
кы--
кыб--
кыв--
кык--
кыр--
кыс--
кыт--
кытш--
кю--
кө--
л--
ла--
лаж--
лап--
лас--
лат--
лах--
ле--
леж--
лексиче--
лели--
лес--
лесоза--
ли--
лиме--
лип--
лит--
ло--
лов--
локаль--
ломоно--
лу--
луд--
лун--
лучш--
лы--
лыд--
лым--
ль--
лэ--
лэба--
лэдз--
лю--
ля--
ляп--
ляч--
лі--
м--
ма--
мав--
мава--
маг--
мак--
мал--
мале--
мам--
ман--
мана--
мар--
мас--
мах--
маш--
ме--
мед--
меж--
межвузов--
мен--
мер--
мерку--
меро--
мест--
мет--
мете--
ми--
мик--
микро--
мир--
мис--
митя--
мих--
мк--
много--
мо--
мод--
мол--
молдав--
мон--
мор--
морт--
морфологиче--
моско--
мош--
мпу--
мс--
мт--
му--
муг--
мугыр--
мук--
мульти--
мун--
мус--
муссо--
мут--
муто--
мух--
мъ--
мы--
мыр--
мыс--
мыч--
мяг--
мяен--
н--
на--
наблю--
нады--
наз--
наи--
нап--
напра--
нас--
насе--
нач--
нверді--
нге--
не--
неб--
недо--
нек--
нен--
нефе--
нефте--
ни--
нидер--
ниж--
нижне--
нил--
ним--
нк--
нка--
нл--
нн--
но--
норм--
нт--
ну--
нуж--
нь--
ньаби--
ньак--
ньару--
ню--
нюр--
нюраи--
ня--
нянь--
нятяи--
ні--
о--
об--
обико--
обл--
обоз--
обособле--
обра--
обрабо--
обре--
общест--
обществе--
объ--
объя--
обы--
обязатель--
ов--
овчин--
ог--
огу--
од--
ож--
оже--
оз--
озна--
ок--
ока--
окончатель--
ол--
олі--
ом--
он--
оно--
оп--
опц--
ор--
ос--
осо--
от--
отз--
относи--
отнош--
отоб--
отсут--
оф--
офор--
охан--
охо--
охотн--
оцен--
ош--
оши--
ошиб--
п--
па--
паз--
пал--
пам--
пан--
пант--
пар--
пара--
пас--
паш--
пе--
пед--
пез--
пен--
пене--
пер--
пере--
переве--
пес--
пет--
пета--
печ--
пи--
пиг--
пил--
пин--
пинь--
пип--
пир--
пис--
пит--
пл--
пла--
пле--
пло--
плот--
по--
пов--
пове--
под--
пода--
поже--
поз--
пол--
полу--
поль--
пом--
пон--
поня--
поп--
поро--
пос--
посе--
поч--
поэти--
пр--
пра--
правитель--
пре--
пред--
предваритель--
предикатив--
предлагае--
предложе--
предпо--
през--
прес--
при--
приве--
приволж--
прину--
про--
прове--
производ--
проф--
психо--
птице--
пу--
публи--
пук--
пыр--
пя--
пяр--
р--
ра--
рад--
радио--
раз--
разде--
разрабо--
ран--
рас--
расхо--
рах--
рве--
рд--
рдз--
ре--
реш--
ри--
рих--
рк--
рни--
ро--
роби--
род--
рож--
рол--
рос--
росо--
роч--
рс--
рт--
ртма--
рто--
ру--
руга--
руд--
румын--
рун--
руса--
рух--
рч--
ры--
рыт--
ря--
с--
са--
саи--
сак--
сал--
сан--
сар--
сб--
све--
свети--
сви--
сво--
связ--
се--
северно--
сем--
семантиче--
сему--
сес--
сет--
си--
син--
синтакси--
синтаксиче--
сип--
сир--
ск--
ска--
ско--
сла--
слу--
служ--
см--
со--
соб--
соблю--
собстве--
сов--
совпа--
согласо--
соз--
сол--
соответ--
сор--
сос--
сот--
сохр--
соц--
соци--
социокульту--
соче--
спе--
спец--
спис--
спо--
спорт--
срав--
сред--
средне--
ст--
ста--
сте--
сто--
стра--
стре--
стру--
студ--
студен--
су--
суб--
субстанти--
субфам--
сул--
сула--
султан--
сун--
супер--
сут--
сух--
сущ--
сцен--
съ--
сы--
сь--
сьо--
сэ--
сю--
ся--
сі--
т--
та--
таб--
тага--
так--
тан--
тар--
тарабае--
тас--
твор--
творче--
те--
теат--
теле--
тематиче--
теоретиче--
терри--
тех--
ти--
тихо--
тка--
тл--
тла--
тн--
то--
тол--
том--
тор--
точ--
точн--
тр--
традиц--
транс--
трапез--
требо--
трофим--
трошо--
тт--
ту--
тузл--
туи--
тума--
тун--
тупиц--
тупыль--
туркмен--
турц--
тш--
тшу--
тъ--
ты--
тыж--
тыр--
ть--
тэ--
тюл--
тюрк--
тяти--
ті--
у--
уве--
уган--
уд--
уда--
удж--
удоб--
уз--
уи--
ук--
ул--
ули--
улу--
улучш--
уль--
ум--
ун--
уна--
универсаль--
упра--
управл--
ур--
урал--
ураль--
уро--
ус--
уст--
утка--
уч--
учре--
учрежде--
ф--
фа--
фак--
фал--
фар--
фаси--
фе--
физ--
фил--
фило--
филф--
фин--
фир--
фло--
фон--
фор--
фото--
фр--
францин--
фре--
фу--
функц--
фут--
х--
ха--
хан--
хар--
харито--
хас--
хасан--
хен--
хер--
хим--
хир--
хо--
хр--
ху--
хуан--
худ--
худож--
художестве--
хун--
хю--
ц--
цар--
це--
цер--
цик--
цы--
ч--
ча--
чал--
чанг--
чар--
час--
че--
человече--
чемп--
чер--
чере--
черке--
чет--
чи--
чикш--
чо--
чу--
чуд--
чук--
чь--
ш--
ша--
шаб--
шама--
шан--
шап--
шар--
шах--
шахин--
шве--
ше--
шен--
шер--
шех--
ши--
шир--
шл--
шляпин--
шо--
шом--
шор--
шоч--
шт--
шу--
шы--
шыпи--
шыр--
шь--
щелья--
щу--
ы--
ыа--
ыб--
ыв--
ыж--
ыжда--
ык--
ыл--
ын--
ыс--
ыся--
ыт--
э--
эг--
эд--
эз--
эзі--
эк--
экс--
экспер--
эл--
эле--
элект--
элле--
эль--
эм--
эмир--
эн--
эп--
эпох--
эс--
эск--
эт--
этно--
ю--
ювяск--
юж--
юк--
юл--
юлиан--
юно--
юр--
юрь--
юрье--
я--
яб--
яг--
язы--
як--
ям--
ян--
япон--
яр--
яра--
ярмар--
і--
ก--
ต--
--0
--00
--02
--06
--1
--14
--15
--17
--2
--20
--27
--3
--30
--33
--35
--4
--48
--5
--50
--55
--56
--57
--6
--60
--62
--7
--78
--79
--8
--80
--84
--85
--9
--906
--94
--97
--98
--a
--aag
--aara
--abia
--abium
--able
--abyo
--ac
--aca
--acea
--aceae
--acensis
--aceum
--ach
--achya
--achys
--ack
--aco
--ad
--ado
--adt
--ae
--aea
--aei
--aense
--aensis
--age
--aging
--agus
--ah
--ai
--ain
--ais
--aja
--ak
--aka
--al
--ala
--ald
--ale
--ales
--alis
--alix
--all
--ally
--als
--alum
--alus
--alyx
--am
--ama
--ami
--amnus
--an
--ana
--ance
--and
--ang
--ange
--angis
--ani
--ania
--anica
--anii
--ann
--annii
--ano
--anoja
--ans
--ant
--antha
--anthum
--anthus
--anum
--anus
--ao
--ap
--ar
--ara
--ard
--ardia
--ardii
--are
--arg
--args
--ari
--aris
--arium
--aro
--arpa
--arpus
--arum
--ary
--aryum
--as
--ast
--astrum
--at
--ata
--ate
--ated
--athon
--atic
--atii
--ation
--atory
--atum
--atus
--au
--ave
--avi
--aw
--ax
--ay
--aya
--ayi
--azi
--azine
--aße
--b
--ba
--bach
--bae
--bahn
--bau
--be
--bea
--bi
--bia
--bis
--bium
--ble
--blue
--bo
--bos
--box
--bre
--brick
--bris
--bulb
--bum
--bus
--by
--bya
--c
--ca
--cal
--calyx
--carpa
--carpus
--cat
--ccensis
--ccus
--ce
--cea
--ceae
--ced
--cens
--censis
--centrum
--ces
--ceum
--ceus
--ch
--cher
--chila
--cho
--cia
--cinae
--cio
--ck
--cki
--ckii
--cks
--class
--cle
--co
--cola
--crats
--cs
--ct
--cta
--ctea
--cteatum
--ctm
--ctus
--cula
--culosa
--cum
--cus
--d
--da
--daceae
--dae
--dalis
--dam
--dara
--date
--dbo
--de
--ded
--denia
--des
--dh
--di
--dia
--dianum
--dianus
--dii
--dina
--dis
--dit
--dium
--do
--dom
--donia
--doxa
--dra
--dron
--ds
--dum
--dus
--dy
--e
--ea
--eae
--eana
--ebeya
--ect
--ecta
--ed
--ee
--eet
--ef
--ei
--ein
--ek
--ekeri
--el
--ele
--ell
--ella
--elliana
--elphys
--em
--ema
--emanii
--ement
--emi
--emia
--emii
--emma
--emon
--en
--ena
--enaea
--ence
--ene
--enge
--enia
--enii
--enopsis
--ens
--ense
--ensii
--ensis
--ent
--enta
--entrum
--eorum
--ep
--epala
--ephala
--er
--era
--erae
--erara
--eras
--erby
--ere
--erg
--eri
--eriana
--eris
--erma
--ermum
--ern
--erolepis
--eropetala
--ers
--ersii
--ert
--erted
--erum
--erus
--erv
--eryx
--es
--escens
--ese
--esii
--ess
--est
--et
--eta
--etala
--etalum
--ete
--eti
--etia
--etii
--ets
--ett
--ettia
--ettii
--euca
--eum
--eus
--ev
--eve
--ew
--ex
--exa
--ey
--eya
--eyana
--eyi
--ez
--ezii
--f
--fa
--fen
--fer
--fera
--ferum
--ff
--fi
--fighting
--fii
--flies
--florus
--folia
--ft
--ful
--fusion
--g
--ga
--gae
--gai
--ganii
--ganthum
--gara
--gbo
--ge
--gei
--gensis
--ger
--gera
--geri
--ges
--ght
--gi
--gia
--gii
--gillum
--ging
--gio
--gis
--gium
--gle
--glossa
--gna
--go
--gon
--gorod
--green
--gs
--gu
--gus
--gy
--gyne
--h
--ha
--hae
--haki
--he
--heca
--heila
--hen
--hena
--hes
--hi
--hia
--hii
--hila
--hing
--hiza
--hl
--ho
--hof
--holm
--hora
--hs
--ht
--hus
--hya
--hylax
--hylla
--hyllum
--hyllus
--hysa
--hyta
--hyton
--hytum
--hyus
--i
--ia
--iaca
--iaceae
--iae
--ial
--ian
--iana
--ianthus
--ianum
--ianus
--ias
--iation
--ic
--ica
--icaceae
--icae
--ical
--icaule
--iceps
--ich
--icia
--icio
--icit
--ick
--icki
--icky
--ico
--icola
--icolle
--icruris
--icta
--icum
--icus
--id
--idae
--ide
--idens
--ides
--idia
--idium
--idum
--ie
--ieae
--iella
--iemi
--ien
--iense
--iensis
--ier
--iera
--ieri
--ies
--if
--ifera
--iferum
--ifies
--iflora
--ifolia
--iformes
--iformis
--ifrons
--ig
--iga
--igera
--igma
--igue
--ii
--iidae
--ija
--ik
--ika
--ike
--ikel
--iki
--il
--ila
--ilabia
--ilabium
--ilabre
--iliensis
--ilis
--ilobum
--ilu
--ilum
--ilus
--ily
--ima
--imilis
--imum
--imus
--in
--ina
--inae
--ine
--ing
--ingia
--ingii
--ini
--iniana
--inianum
--inii
--ino
--inoi
--ins
--inum
--inus
--inya
--io
--ioi
--ioides
--iola
--ion
--ional
--ions
--iopsis
--ior
--iorum
--ipa
--ipes
--ipetala
--ipetalum
--ipula
--iqua
--ique
--ir
--ire
--is
--iscapa
--ische
--ise
--isia
--isii
--ism
--iso
--ist
--isto
--it
--ita
--ite
--itia
--itive
--ito
--itta
--ittu
--itum
--itus
--ity
--ium
--ius
--ive
--ix
--ixta
--iya
--iye
--ization
--ize
--ized
--j
--ja
--jk
--k
--ka
--kala
--ke
--key
--kh
--ki
--kii
--kin
--kirche
--kkala
--ko
--kola
--kov
--ks
--kt
--ku
--kulla
--ky
--l
--la
--labia
--lacis
--lae
--laea
--lagus
--lan
--larioides
--lax
--lay
--lbae
--lbon
--lcar
--ld
--ldii
--le
--lea
--lei
--lepis
--ler
--leri
--les
--lf
--lho
--li
--lia
--liae
--lii
--lis
--lised
--list
--lk
--lky
--ll
--lla
--llata
--lle
--llea
--llia
--llio
--lloi
--llum
--llus
--lm
--lo
--loba
--lobum
--loides
--lora
--lorum
--ls
--luoto
--lus
--ly
--m
--ma
--maa
--mae
--man
--mata
--mba
--mbe
--mbi
--mbo
--mbu
--me
--ment
--mi
--mia
--mii
--ming
--mis
--mmica
--mnia
--mo
--morpha
--mot
--ms
--mt
--mu
--mum
--n
--na
--nae
--nal
--nas
--nata
--nce
--ncha
--nchus
--nd
--nda
--ndo
--ndum
--ne
--nea
--neae
--nelliana
--nema
--ner
--neri
--ng
--nga
--nge
--ngensis
--ngi
--ngia
--ngii
--ngo
--nha
--ni
--nia
--niae
--nica
--nicum
--nicus
--nieri
--nifolia
--nii
--nin
--ning
--nio
--nis
--nk
--nko
--nne
--nnen
--no
--nogo
--nosa
--nost
--noy
--nquensis
--ns
--nse
--nsii
--nsis
--nsk
--nt
--nte
--ntha
--nthe
--nthum
--nthus
--ntia
--ntrum
--nts
--nu
--num
--nums
--nus
--ny
--nykh
--nyx
--o
--oa
--obum
--ocarpus
--occus
--ock
--oda
--odactyla
--odes
--odon
--oe
--oense
--oensis
--oglossa
--ogyne
--oi
--oideae
--oides
--ois
--ok
--ol
--ola
--olata
--ole
--olm
--oma
--omia
--on
--ona
--onaea
--onensis
--onia
--oniana
--onii
--only
--onta
--ontidae
--oo
--oon
--opetalum
--ophora
--ophylla
--ophyllum
--ophyta
--ops
--opsis
--or
--ora
--ore
--orei
--orensis
--oria
--oris
--orium
--ormes
--ormis
--orpha
--ors
--orum
--orus
--ory
--oryctes
--os
--osa
--osii
--ossa
--osum
--osus
--ot
--ota
--otica
--oto
--ottis
--ous
--ov
--ova
--ow
--owia
--owii
--oxys
--oy
--oya
--p
--pa
--pe
--pes
--petala
--ph
--pha
--phala
--phalus
--phora
--phus
--phylla
--phyllum
--phys
--phyta
--pi
--picua
--ping
--pis
--po
--pogon
--ps
--psis
--pt
--pta
--pter
--ptera
--pur
--pus
--q
--r
--ra
--rae
--raea
--rara
--rata
--rate
--ratum
--rb
--rche
--rcus
--rd
--rdi
--re
--rea
--red
--rei
--ren
--rence
--rensis
--reum
--rey
--rf
--rg
--rhiza
--ri
--ria
--ries
--rifolia
--rii
--rima
--ris
--rium
--rix
--rk
--rl
--rla
--rmiut
--rn
--rna
--rne
--rnis
--ro
--roa
--rod
--roi
--ron
--rophylla
--rophyllum
--ros
--rpa
--rpha
--rpus
--rs
--rt
--rta
--rtii
--ru
--rum
--rv
--ry
--rya
--s
--sa
--saari
--sae
--sbo
--sby
--scens
--sche
--schen
--sches
--se
--seite
--sema
--ses
--sh
--si
--sia
--siana
--sifolia
--sii
--sila
--sima
--sion
--sis
--sischen
--sive
--sja
--sk
--ska
--skirche
--sma
--sna
--snak
--soides
--son
--sonia
--sonii
--sor
--spis
--ss
--ssa
--sse
--ssima
--sso
--st
--sta
--stein
--stele
--sti
--sto
--style
--stylis
--sum
--sus
--suu
--sy
--t
--ta
--tacus
--tae
--tal
--tala
--talis
--talo
--talum
--tamp
--tan
--tana
--tanica
--tans
--tas
--tation
--tatus
--te
--tea
--ted
--tei
--tensis
--ter
--tera
--teri
--tes
--tex
--th
--tha
--thaceae
--thae
--thera
--thoides
--thum
--thus
--ti
--tia
--tiae
--tiana
--tica
--tics
--tidae
--tifolia
--tii
--tila
--tilis
--tina
--tinae
--ting
--tini
--tio
--tion
--tions
--tipetala
--tis
--tissima
--tive
--tle
--tly
--tm
--to
--tolo
--ton
--tonia
--tor
--tory
--tr
--tro
--trum
--ts
--tti
--ttu
--tu
--tum
--ture
--turquoise
--tus
--ty
--tyla
--tyle
--tylis
--tylus
--tz
--tzi
--u
--ua
--uatum
--ub
--uca
--ud
--ue
--uense
--uensis
--uer
--ues
--ug
--uga
--ugh
--uis
--ul
--ula
--ularis
--ulata
--ulatum
--ulatus
--ule
--ulifera
--ulis
--ulla
--um
--uma
--un
--ung
--uo
--up
--ur
--ura
--ure
--us
--usa
--usii
--ut
--ute
--utea
--utia
--utii
--utum
--uum
--uur
--uva
--ux
--uz
--v
--va
--ve
--ved
--vik
--ving
--vis
--vo
--vu
--vuori
--w
--wa
--wae
--way
--we
--wi
--work
--wp
--ws
--x
--xa
--xis
--y
--ya
--yae
--yanum
--yara
--ye
--yensis
--yi
--ykh
--ylis
--ylus
--yn
--yne
--yo
--yon
--ys
--ytes
--yus
--yx
--z
--za
--ze
--zei
--zel
--zi
--zia
--ziae
--zii
--zo
--zy
--ı
--ł
--ə
--α
--ε
--ν
--οι
--ς
--υ
--а
--аба
--ав
--ава
--авл
--авны
--авшие
--аг
--агач
--агы
--адн
--ае
--аем
--ает
--аи
--аин
--аись
--ак
--ака
--аккез
--ако
--ал
--ала
--алан
--аллез
--ало
--аль
--альн
--альная
--аліс
--алісо
--ам
--амбо
--ами
--амо
--ан
--ана
--ане
--ание
--ании
--анин
--ания
--анло
--анне
--анные
--аннэз
--ано
--анов
--аныс
--ань
--аньын
--аняс
--анін
--ао
--апов
--ар
--ард
--ари
--арова
--ас
--асо
--асян
--ат
--ата
--атели
--ато
--атор
--атора
--ать
--аться
--ах
--ация
--ач
--аш
--аын
--аыс
--аэз
--ая
--б
--ба
--бан
--башы
--бе
--би
--бно
--бо
--бок
--в
--ва
--вание
--ве
--вез
--вен
--вес
--вест
--ви
--вии
--вик
--вич
--вка
--вл
--вло
--вліс
--вна
--вно
--вны
--во
--вог
--вои
--вом
--вт
--вто
--ву
--вчи
--вчиын
--вы
--выв
--вывло
--вывся
--вын
--выс
--вых
--г
--га
--гал
--ган
--гар
--гаю
--гве
--ге
--гез
--ген
--ги
--гии
--гин
--гия
--го
--гов
--грезд
--гу
--гы
--гья
--д
--да
--ддэз
--де
--джа
--джак
--дже
--джык
--дзся
--дия
--дки
--до
--дор
--дорыс
--ду
--ды
--дым
--дын
--дь
--дэз
--дэс
--дэсо
--дю
--е
--еба
--ев
--ева
--евич
--евна
--ег
--еев
--ез
--еззэз
--еи
--ек
--ел
--ела
--ели
--елла
--ель
--ельл
--ельн
--ельно
--ельных
--еля
--ем
--ен
--ена
--енгера
--енеи
--ение
--ении
--ения
--енко
--енн
--енне
--енно
--енных
--ент
--ентия
--ены
--ень
--ер
--ере
--ери
--еро
--ес
--есн
--ество
--ет
--ета
--етаэз
--етта
--ец
--еццез
--еч
--ея
--ж
--жа
--жаи
--же
--жи
--жите
--жн
--жно
--жык
--жыка
--жыккезо
--жым
--жье
--з
--за
--зация
--зд
--зе
--зза
--зи
--зл
--зо
--зы
--зь
--зэз
--зэс
--зян
--и
--ив
--ига
--ид
--ие
--ием
--из
--изм
--ии
--ик
--ика
--ике
--ики
--иккез
--ико
--икт
--ил
--ила
--им
--има
--имо
--ин
--ина
--инас
--инаын
--иная
--инг
--инск
--ины
--иныс
--ио
--ир
--ира
--иро
--ирования
--ированы
--ировать
--ируи
--ис
--исо
--ист
--ись
--ит
--ите
--ить
--иться
--итіс
--иус
--их
--ица
--ицко
--ич
--ическ
--ические
--ических
--ию
--ия
--иян
--ияо
--иях
--ияын
--к
--ка
--каева
--кар
--кату
--кая
--ке
--кез
--кезл
--кезо
--кезын
--кенття
--кер
--кес
--кесо
--кет
--ки
--кин
--ких
--ккез
--кль
--ко
--ков
--кодь
--корья
--кс
--ку
--куя
--кции
--л
--ла
--лан
--лань
--ланьо
--ланьын
--ланяс
--лар
--лас
--лаын
--ле
--ление
--лением
--лении
--ления
--лер
--лес
--ли
--лизм
--лизма
--лин
--лина
--лио
--лия
--лка
--лла
--лли
--ло
--лог
--логи
--лт
--лу
--лум
--лун
--лы
--лын
--лыны
--лысь
--ль
--льн
--льно
--льныи
--лэз
--ля
--ляет
--лять
--лісь
--м
--ма
--ман
--маш
--мба
--мбо
--ме
--мез
--мезо
--мер
--мес
--ми
--мила
--мо
--моз
--му
--муын
--мы
--мыс
--мяки
--н
--на
--нак
--нал
--нан
--наныс
--нас
--ная
--нг
--нга
--нда
--ндже
--нди
--не
--нев
--нер
--неч
--ни
--ние
--нии
--ник
--ним
--нит
--ния
--нка
--нкуя
--нма
--нмяки
--нн
--нне
--нни
--нния
--нно
--нное
--нные
--ннэз
--но
--нов
--ного
--ное
--нои
--ном
--ности
--ность
--нпаша
--нс
--нско
--нском
--нт
--нта
--нтие
--нтов
--ную
--нцев
--ны
--ные
--ныи
--ным
--ными
--ныс
--нысо
--ных
--нь
--ньи
--нэз
--нэзло
--нэзлісь
--нэзо
--нэзын
--нэс
--нэсо
--ню
--нюр
--ня
--няс
--няя
--о
--ов
--ова
--ование
--овании
--ования
--ованнои
--овая
--ович
--овка
--овления
--овна
--ово
--овое
--овои
--овса
--овск
--овско
--овчи
--овчиыс
--ог
--ого
--ография
--од
--ое
--оев
--ои
--ок
--оккез
--ол
--ом
--он
--ор
--ос
--оя
--п
--па
--пан
--пе
--пез
--пи
--по
--пов
--поз
--пон
--пс
--пья
--р
--ра
--рает
--рама
--рация
--рви
--ре
--рев
--рез
--резо
--рес
--ресо
--ри
--рин
--рит
--рия
--рк
--рн
--ро
--рого
--рт
--ру
--руи
--ря
--с
--са
--саи
--сал
--сало
--сат
--саыс
--се
--сев
--сез
--сезко
--сезл
--сезло
--сезо
--сес
--си
--силта
--сис
--ск
--ская
--ски
--ские
--скии
--ских
--ско
--ского
--ское
--скои
--ском
--скую
--со
--сов
--сон
--ст
--ствуи
--сти
--стики
--сты
--сть
--су
--сь
--сьо
--сэз
--сэзын
--сэс
--ся
--сял
--сяло
--сянь
--сяняс
--сяо
--сяс
--т
--та
--тала
--тало
--тан
--тас
--тации
--таш
--таэз
--те
--теи
--тепе
--тер
--ти
--тив
--тие
--тии
--тика
--тин
--тина
--тическ
--тия
--тки
--тл
--тн
--то
--тов
--тор
--тр
--тта
--ттэз
--ту
--туи
--тус
--тч
--тчо
--тъяс
--ты
--тыл
--ть
--ться
--тэз
--тэзло
--тэзо
--тэзын
--тэс
--тэсо
--тят
--ті
--тіс
--у
--уа
--ув
--увт
--уг
--уга
--ужо
--уи
--ук
--ул
--ула
--ули
--улт
--ум
--ун
--уне
--уп
--упно
--ур
--ура
--урт
--уры
--ус
--ут
--уха
--уш
--ую
--ф
--фа
--фон
--х
--ха
--хаузен
--хез
--хилус
--хин
--хисар
--хо
--хов
--хт
--хья
--ц
--ца
--цать
--це
--цев
--ции
--ция
--цко
--цов
--цы
--ч
--ча
--чан
--че
--ческ
--чи
--чик
--чин
--чис
--чих
--чиыс
--чка
--чно
--чное
--чными
--чо
--чомъя
--чужо
--чыны
--ш
--ша
--шан
--ше
--шез
--ши
--шин
--шиха
--шко
--шно
--шо
--шор
--ще
--щиков
--щина
--ъ
--ъе
--ъю
--ъя
--ъяс
--ъяслы
--ы
--ыб
--ыв
--ывл
--ывло
--ыг
--ыд
--ые
--ыз
--ыи
--ык
--ыл
--ыле
--ыло
--ыліс
--ым
--ыми
--ын
--ыны
--ыр
--ыра
--ыс
--ыск
--ыско
--ысл
--ысло
--ыслісь
--ыссез
--ыссянь
--ысь
--ыт
--ых
--ыч
--ыш
--ышт
--ышто
--ыштіс
--ь
--ьви
--ьд
--ье
--ьи
--ька
--ько
--ьл
--ьн
--ьно
--ьного
--ьны
--ьные
--ьных
--ьо
--ьск
--ьскии
--ьсо
--ьши
--ьын
--ью
--ья
--ьял
--ьян
--э
--эз
--эзло
--эзо
--эзын
--эс
--эсо
--ю
--юи
--юк
--юм
--юр
--юрт
--ют
--юта
--ющих
--я
--яд
--яет
--яи
--яись
--як
--яки
--яккез
--ял
--яло
--ямяки
--ян
--янка
--яннэз
--янь
--яс
--ясянь
--ят
--ятия
--ять
--ях
--яч
--яш
--яын
--яэ
--яэз
--і
--ік
--іко
--ін
--інас
--іннэз
--іно
--інын
--іс
--ісо
--іссез
--ісь
--ісьо
--іт
--ія
--ה
--י
--ם
--ر
--ن
