!
"
#
##0
##1
##10
##11
##12
##13
##14
##15
##16
##17
##18
##19
##2
##20
##21
##22
##23
##24
##25
##26
##27
##28
##29
##3
##30
##31
##32
##33
##34
##35
##36
##37
##38
##39
##4
##40
##41
##42
##43
##44
##45
##46
##47
##48
##49
##5
##50
##51
##52
##53
##54
##55
##56
##57
##58
##59
##6
##60
##61
##62
##63
##64
##65
##66
##67
##68
##69
##7
##70
##71
##72
##73
##74
##75
##76
##77
##78
##79
##8
##80
##81
##82
##83
##84
##85
##86
##87
##88
##89
##9
##90
##91
##92
##93
##94
##95
##96
##97
##98
##99
$
%
&
'
(
)
*
+
,
-
.
/
0
00
000
000472
00047334
001
002
003
004
005
006
006857
007
009602
01
010
011
012
015
016
02
020
021
02134
023
024
027807
028
029
03
030
0304
032
035
038
038409
04
040
041
045
049
05
050
051
0528
054
057
058
06
060
061
062
064
067
0681
069
07
070
071
072
077
079
08
080
084
086
089
09
090
0919972404
092
0921
0921975827
093
0932
094
097
098
1
10
100
1000
10000
1001
101
1011
1013
1017
102
1020
1021
103
1039
104
105
106
1060
107
107191287881850793662
108
109
11
110
1100
111
1110
112
1122
113
114
115
1150
1158
116
117
118
1182
1187
119
1192
12
120
1200
1201
121
1212
1218
122
1220
123
1235
124
1243
1249
125
1250
1258
126
1260
1267
127
1278
128
1286
1287
129
1291
13
130
1300
13000
1304
131
132
133
134
135
1350
136
137
138
1386
1389
139
1390
1397
14
140
1400
141
142
143
1434
144
145
1450
1453
1458
146
147
1471
1472
1474
1475
148
1488
149
1492
1493
1494
1498
15
150
1500
15000
1502
1506
1507
1509
151
1511
1513
1514
1515
1516
1517
1519
152
1521
1522
1523
1524
1525
1526
153
1531
1536
1537
1538
1539
154
1547
155
1550
1556
156
1563
1565
1568
1569
157
1571
1573
1574
1575
1577
1579
158
1581
1589
159
1594
1595
1598
16
160
1600
1602
161
1610
1612
1617
1618
1619
162
1629
163
1631
1632
1638
164
1640
1643
1644
1648
165
1652
1657
1659
166
1665
1667
167
1670
168
1682
1683
1686
169
1693
17
170
1700
1708
171
1712
1715
1717
172
1723
1724
1728
173
1732
1735
174
1740
1748
175
1750
1752
1757
1759
176
1763
1767
1768
1769
177
1772
1774
1776
1778
178
1783
1788
179
1791
1793
1795
1798
18
180
1800
18000
1802
1804
1806
1807
1808
1809
181
1810
1811
1812
1814
1815
1816
1818
1819
182
1820
1821
1822
1823
1824
1825
1826
1828
183
1830
1831
1833
1834
1835
1837
1838
1839
184
1840
1841
1842
1844
1845
1846
1847
1848
1849
185
1850
1851
1853
1854
1855
1856
1857
1858
1859
186
1860
1861
1862
1863
1864
1865
1866
1867
1868
187
1870
1871
1872
1873
1874
1875
1876
1877
1878
1879
188
1880
1882
1884
1885
1886
1887
1888
1889
189
1890
189027
1891
1892
1893
1894
1895
1896
1897
1898
1899
19
190
1900
19000
1901
1902
1903
1904
1905
1906
1907
1908
1909
191
1910
1911
1912
1913
1914
1915
1916
1917
1918
1919
192
1920
1921
1922
1923
1924
1925
1926
1927
1928
1929
193
1930
1931
1932
1933
1934
1935
1936
1937
1938
1939
194
1940
1941
1942
1943
1944
1945
1946
1947
1948
1949
195
1950
1951
1952
1953
1954
1955
1956
1957
1958
1959
196
1960
1961
1962
1963
1964
1965
1966
1967
1968
1969
197
1970
1971
1972
1973
1974
1975
1976
1977
1978
1979
198
1980
1981
1982
1983
1984
1985
1986
1987
1988
1989
199
1990
1991
1992
1993
1994
1995
1996
1997
1998
1999
2
20
200
2000
20000
2001
2002
2003
20034
2004
20045
2005
2006
2007
2008
2009
201
2010
2011
2012
2013
2014
2015
2016
2017
2018
2019
202
2020
2021
2022
2024
2025
203
2030
2035
204
2045
2049
205
2050
206
207
208
209
21
210
2100
211
212
213
2135
214
215
216
217
218
219
22
220
2200
221
222
223
224
225
2250
226
227
228
229
23
230
2300
231
232
233
234
235
237
238
239
24
240
2400
241
242
243
244
245
246
247
248
249
25
250
2500
251
252
253
254
255
256
257
258
259
26
260
2600
261
262
263
264
265
266
267
268
269
27
270
2700
271
272
273
274
275
276
2760
277
278
279
28
280
281
282
283
284
2841
285
286
287
289
29
290
291
292
293
294
295
296
297
298
299
3
30
300
3000
301
3013
302
303
3039
304
305
306
307
308
309
31
310
3100
311
312
313
314
315
316
3166
317
318
319
32
320
3200
321
322
323
324
325
326
327
328
329
33
330
3300
33014
331
332
333
334
335
3350
336
337
338
339
34
340
341
342
343
344
345
346
3467
347
348
349
35
350
3500
351
352
353
354
355
356
357
358
359
36
360
3600
362
363
364
365
366
367
3672
368
369
37
370
371
372
373
374
375
376
377
378
379
38
380
3800
382
383
384
385
386
387
388
389
39
390
391
392
393
394
395
396
397
398
399
4
40
400
4000
40000
401
402
40220
403
4030
404
405
405813
406
407
408
409
41
410
412
413
414
415
416
417
418
419
42
420
4200
421
422
423
424
425
426
427
429
43
430
431
432
433
434
435
436
437
438
439
44
440
441
442
443
444
445
446
447
448
449
45
450
4500
451
452
454
456
458
459
46
460
461
462
463
464
466
467
468
469
47
470
472
473
474
477
478
48
480
4800
481
483
484
485
486
487
489
49
490
491
49250
493
495
496
498
499
5
50
500
5000
50000
501
502
503
506
507
508
509
51
510
5106
513
514
515
516
517
518
519
5193
52
520
521
523
524
525
526
527
529
53
530
531
532
533
537
538
54
540
541
542
543
546
549
55
550
5500
55000
551
552
553
554
555
557
558
56
560
562
563
564
565
566
569
57
570
571
573
575
576
577
578
579
58
580
581
583
585
586
588
589
59
590
592
593
594
596
597
599
6
60
600
6000
60000
601
602
603
604
605
606
608
609
61
610
611
612
614
615
616
617
618
618725
62
620
621
621043
621053
621220
622
623
627
628
629
63
630
632
6322
636
637
638
64
640
641
641751
642
644
645
648
649
65
650
6500
651
652
653
654
65454381
655
656
657
658
66
660
661
662
664
665
667
669
67
670
671
673
675
676
677
678
68
680
682
684699
685
687
6889
689
69
690
691
692
694
695
699
7
70
700
7000
702
704
705
706
707
709
71
710
711
713
714
716
717
718
72
720
721
722
723
724
726
727
728
729
73
730
731
733
736
74
741
742
743
744
74494
745
746
747
748
749
75
750
751
752
755
7560
757
758
759
76
760
761
763
765
768
77
770
776
777
778
779
78
780
781
782
785
787
788
789
79
790
791
796
797
798
799
8
80
800
8000
801
802
805
81
810
814
815
816
817
818
819
82
820
823
825
827255
828
83
830
831
832
833
835
836
837
8370037
838
84
840
843
847
848
85
850
851
852
856
857
858
86
860
861
862
8621033
8621227
8621245
8621277
8621325
8621600
863
864
867
869
87
870
8700
871
872
874
875
876
879
88
880
881
882
885
887
8888
89
891
894
895
896
9
90
900
9000
903
905
909
91
911
912
914
915
917
918
92
920
921
923
924
927
93
930
931
935
936
94
940
943
946
947
948
949
95
950
952
955
956
959
96
960
961
962
964
965
966
967
968
969
97
970
973
974
976
978
979
98
980
982
984
988
99
990
992
994
995
996
998
9981632
999
:
;
<
=
>
?
@
\
^
_
`
a
aa
aalang
aalng
aan
aangal
aankoms
aar
aarbaniyia
aarciriya
aarcyawe
aarpaniya
aarpes
aarpesu
aarpeysu
aartay
aaw
aawranche
ab
aba
abaracia
abaw
abc
abdel
abdelaziz
abdrabbuh
abdul
abdulla
abdullah
abdullahi
abeba
abia
abidjan
aboshow
abra
abu
abuhacu
abuja
abura
abus
abutura
abuturaman
abuture
ac
acaar
academy
accion
acic
acing
action
actk
acyatocu
ad
ada
adam
adama
adamawa
adams
adana
adas
adaw
add
addclass
addis
addisababa
addo
addu
addul
administracio
administrative
administrativo
ado
adolf
adow
adu
ae
aegean
aerial
aeropuerto
af
affairs
afghan
afghanistan
afhan
africa
african
afrika
afro
afuhan
afuhanh
afwerki
ag
aga
agadez
age
agil
agong
agreement
agrika
aguh
ah
aha
ahaarciho
ahmad
ahmadzai
ahmed
ahn
ahuhan
ahurika
ahuyrika
ahweyrika
ai
aids
ain
air
airport
aji
ajiman
ajmmc
ak
aka
akapa
akatiya
akay
akayeyhu
akenting
aki
akihito
aking
aknting
akora
akosombo
akosumu
aksu
akufo
akuru
akwa
al
ala
alam
alan
alang
alanga
alanng
alapo
alaska
alassane
alaw
alax
albania
albert
aldisio
alexander
alexandre
algeria
ali
aliali
alif
alimika
alipai
alix
aliyev
aljungic
all
almazbek
alnag
alng
along
alpha
already
alsani
alsng
also
alt
alua
alumi
alvarado
alvaro
am
ama
amacuro
aman
amancyaw
amansutankwo
amanwan
amaytsa
amazonas
amecu
ameenah
america
american
amerika
amey
ameylika
ameyrika
ameysi
amherst
ami
amia
aming
amir
amirica
amirika
amirikau
amis
amizmiz
amlahang
amrika
amsterdam
amuhara
amusutotan
an
ana
anadolia
anak
anambra
anan
ananaq
anaq
anasolay
anay
ancen
ancient
ancya
ancyaar
ancyeyn
ancyueyn
and
andes
andorra
andre
andrej
andrew
andry
andrzej
ang
angal
angalan
angan
angcoh
angela
angeles
angelica
anghwey
ango
angola
angri
angtika
angu
ani
animaanu
animanu
anina
aninag
anisa
anisokiya
anjeyn
anjeyng
ankara
anker
ankera
ankng
ankora
ankra
ankracyu
ankrakunghekwo
ankuniya
anles
anman
annan
annaq
annobo
annopntaw
ano
anona
anpaar
anpurorawri
anq
anrife
anrihuy
ansi
ansor
ansu
anta
antananarivo
antare
antaresung
antawr
antigua
antika
antikataw
antikwa
antilles
antis
antisu
antong
antongniaw
antonia
antonio
antungriaw
antusng
antweypu
anu
anukowiki
anux
anzen
anzoa
ao
aotearoa
aotili
aow
apa
apan
apartheidsignenglishafrikaans
apas
apec
apepa
apeyar
api
apiting
apomey
apot
april
apu
apuhac
apuhacu
apunsu
apure
aputu
aputul
aputura
aputure
aqapawan
ar
arab
arabia
arabu
aragua
arami
aramutu
aran
arapo
arapowan
arasuka
arawako
arawey
arcan
archange
archive
arci
arcir
arciriya
arcu
are
arena
arentoju
areriyano
argentina
argentinatbrinah
args
argtables
argtableval
argument
arguments
arhudatong
ari
arihu
arimika
aring
aripay
arisan
arisansyang
aristito
ariyasu
arlan
arlang
armada
armenia
armenian
arms
army
aroharihwa
arpahiya
arpaniya
arpesu
arpey
arpeys
arpeyssan
arroz
ars
arsauti
arsu
arthur
article
aruba
aruh
arumi
arung
arupo
arusha
aryeyn
as
asamu
asanti
asapu
asaw
asayto
asean
asem
ashgabat
ashraf
asi
asia
asiaco
asika
asiroay
asiya
asmara
aso
asoring
asp
aspx
assad
assembleia
assembly
assigned
association
asu
asug
asumara
at
atabapo
atak
atambayev
atamukus
atayal
atayewiki
ateras
aterassanmay
atg
atikas
atiponi
atiponito
atisu
atitoran
atolan
atoll
atomine
atomo
atonan
atongniaw
atu
atua
atuman
au
auckland
audsa
aug
august
augustus
auinfe
aumn
aung
ausion
australia
australian
austria
autili
auto
autonomous
autostrada
avaza
avebury
avenue
aviyani
avus
aw
awaar
awade
awah
award
awards
awco
awcow
awcuarkayti
awi
awkowey
awmaar
awmn
awmo
awmun
awniya
awpan
awpiang
awpirici
awran
awrangto
awringpiko
awrinpiko
awromo
aws
awse
awsiyongtikuo
awsiyungtikwo
awsman
awsmantikwo
awsuka
awsyon
awsyong
awsyonti
awsyung
awsyungtikwo
awtariya
awticya
awtili
awtingcya
awtiri
awto
awtongpayeywa
awtsa
awtuman
awwanpo
awweyn
awyun
awyunhuwe
awyunhwe
awyunkay
axir
ay
ayacucho
ayang
ayar
ayarran
ayawniya
ayci
aycinena
aycinhay
aycu
aycya
aydhwa
ayhamayt
ayhamayte
ayhamayto
aying
ayitoye
ayko
aykuo
aykwo
aylan
ayma
aymannyo
aymanuayray
aymiar
aynoko
aypora
ayran
ayrkang
ayrlan
ayrlang
ayrun
aysaniya
aytehwa
ayti
aytohuwa
aytohuwataw
aytohwa
ayu
ayubu
ayuen
ayug
ayus
aywey
ayyadma
ayyeyko
az
azati
azerbaijan
azhar
aziz
azul
azur
b
ba
baa
baan
baang
babale
babau
babaw
babirun
babo
babuda
babuy
bachelet
baciq
backtranslate
baday
bag
baga
bagah
baghdad
bah
bahama
bahamacungdaw
bahrain
bahu
bai
bais
baka
bakan
bakdan
bakdash
baki
bakic
baking
bakir
baku
bakuci
bakuciku
bakudang
bala
balas
balay
baldwin
bale
baleba
bali
balin
baliq
balkans
balmoral
balo
baltic
balun
balung
bam
bamako
bamir
bamirkawyueyn
ban
banah
banard
banaw
banda
bandar
banday
bandundu
bang
banggo
bangladesh
bango
bangui
bani
banita
bank
banner
bantu
bapounou
baqa
barack
barah
barakah
baran
baraq
baraw
barbados
barbuda
barcelona
bari
barig
barinas
baro
baron
barquisimeto
barrow
bartholomew
baru
barukawan
bas
basaw
base
bashar
bashir
basier
baso
basotho
basra
basrah
basu
bat
batas
batawiya
bateen
batken
battle
batto
batul
bau
bauchi
baun
baw
bawa
bawah
bawan
bay
baya
bayan
baybara
baycukang
bayelsa
baykei
baykey
bayrami
baytasiyang
bazaar
bazil
bb
bbalay
bbale
bbali
bbalo
bbaraw
bbari
bbarig
bbaro
bbaruy
bbatas
bbc
bbetun
bbeyhing
bbgay
bbilun
bbiqan
bbiqun
bbiyan
bbiyax
bbnaqi
bbragan
bbrahan
bbreenux
bbrigan
bbrigun
bbrihan
bbrihuc
bbrihun
bbriun
bbriwan
bbriyan
bbriyun
bbrnux
bbsuring
bbtaqun
bbtasil
bbtasun
bbtunux
bbukung
bbulan
bbunga
bbungu
bburah
bburigun
bbuun
bbuwax
bbuway
bbuyu
bc
bcbiciq
bcingan
bd
bdg
bduduy
be
beach
been
beenux
begawan
bege
begu
behavior
behege
behing
beirut
beji
bekoku
beku
bekui
bel
belah
belarus
belas
belgie
belgium
belguim
beling
belize
bell
bella
bellen
bello
beluh
bemba
benac
benba
benda
benin
benue
berah
beraha
beras
berdimuhamedow
berih
berlin
bern
bernard
bernardo
beroh
betaq
beti
betur
between
bey
beya
beyah
beyaq
beyax
beycu
beyeh
beyhing
beyhung
beyke
beyki
beyluh
beymeycyo
beynan
beyo
beyring
beytaq
beytasiyang
beyuq
beywi
bf
bfee
bftb
bgala
bgeyac
bghur
bgihun
bgihur
bgiya
bglah
bgrah
bgrigan
bgrigang
bgu
bgulah
bgurah
bhandari
bhangan
bhangi
bhangun
bhege
bheniq
bhgay
bhngil
bhni
bhniq
bhraun
bhrawan
bhring
bhutan
bhuway
bi
biafra
bib
bibi
bic
bici
biciq
bicun
biden
bidhya
bihung
bika
bikaw
bilaq
bin
binaw
binbo
bingfang
bingfangkongri
bingfangkori
bingyueyn
binti
bioko
biqan
biqi
biqun
birac
birat
bird
biru
birus
bisi
bissau
bitaq
bitaqidas
biya
biyah
biyaq
biyaw
biyax
biyaxqpruhan
biyi
biyoq
biyu
biyuk
biyuq
bkaric
bkgan
bkgun
bkiluh
bkiyan
bkn
bksuy
bkug
bkui
bkun
bkurah
bkuwan
bkuy
black
blacks
blagoevgrad
blahan
blaiq
blangaw
blank
blayaq
blbalay
blbale
blbil
blbilaq
blblbalay
blbul
blbun
blebil
blebun
blequn
bleyaq
blhuy
blica
blin
bling
bliqan
bliqun
block
blog
blue
bluhing
bluqun
blurb
bm
bmirkawyueyn
bn
bnadas
bnakui
bnaqi
bnaqig
bnaqir
bnaqui
bnaquy
bnarah
bnari
bnarig
bnaruy
bnatas
bnbari
bnbil
bnbrigan
bnbung
bnbur
bncingan
bnegay
bnege
bnegrahan
bnetaq
bneysa
bneytaq
bnga
bngehur
bngerux
bngrux
bngwan
bnhangan
bniqan
bnjh
bnka
bnkeyan
bnkgan
bnkiyan
bnkuwan
bnlingan
bnnatas
bnqanan
bnrahan
bnrbulan
bnrigan
bnrihan
bnriwan
bnriyan
bnrnahan
bnsiyaq
bnsyaqan
bntakan
bntaqan
bntasan
bnuh
bnuhun
bnuhur
bnuwar
bnuway
boake
bobo
bobode
bobodeheran
bobona
boer
bogota
bokusing
bolivar
bolivariana
bolivia
bolkiah
bolung
bomba
bonaire
bongo
boo
book
bor
borno
bornu
boru
borut
bos
bosna
bosnia
bosnian
bot
both
botswana
bottom
boubacar
bounnhang
bouteflika
bouterse
bow
bowkax
bowqah
bowqax
bowru
bowxi
bowyak
bowyaq
box
boxing
boyak
bqana
bqanan
bqanay
bqani
bqanun
bqerus
bqilan
bqrus
bra
brabant
brah
brahan
brahaw
brahim
brahun
branaw
bratan
brax
brayaw
brazil
brazilkana
brazzaville
brbil
brbiru
brbul
brcurrent
breenun
breenux
breenx
brenuh
brenux
brexan
brhengin
bridgetown
brigade
brigan
brigi
brigitte
brigun
brihan
brihuc
brihut
brinah
brisan
british
briwan
briyan
briyun
brkovic
brnahan
brnahun
brnux
brocade
brown
brqni
bruenuh
bruenux
bruling
brunei
brunguy
bruno
brunswick
brunux
bruru
brussels
bruwa
bruwan
bs
bsbu
bsiyag
bsiyaq
bsiyat
bsiyaw
bsiyo
bsnawan
bsngan
bsraan
bsrux
bsu
bsuring
btakan
btaqan
btasan
btasi
btasil
btaw
bterun
btr
btran
btraw
btriq
btug
btuku
btulan
btunux
btv
bu
buan
bubu
bubul
bubun
bubuy
buc
buca
bucio
buckingham
bucun
bucyo
budi
budo
budoya
buga
bugan
buhari
building
bujar
buji
bujoku
bukai
bukay
bukio
buklavu
bukuh
bukun
bukung
bukungh
bukuy
bukyo
bulawayo
bulbul
bulgaria
bulongti
bunakui
buner
bung
bunga
bungan
bungbung
bungerux
bungi
bungka
bungkyoku
bungu
bungun
bunkyoku
bunu
bunuh
bunun
bununcu
bunung
burah
burahkyo
burapakalan
burigan
burkhalter
burkina
burma
buru
burundi
burux
bus
bushmen
busi
busig
busu
busuq
busyueynjyueyn
but
buta
butawya
butay
butayi
butun
buty
buuc
buun
buut
buwa
buwah
buwan
buwarung
buwax
buway
buwihur
buyas
buykuy
buyu
bwarung
bwihur
by
byo
byoing
byoying
c
ca
caan
cabrera
cacu
cadu
cafe
cafey
cahotay
cahtay
cai
caicun
caid
cain
cairo
cakis
cakojweypu
caks
cakung
cakus
cakwan
calabar
calasiv
calavi
caldero
cale
called
camac
camaguey
camay
cambia
cambodia
cambridge
cameron
cameroon
cameroonian
camo
can
canada
canadian
canan
canberra
canc
cancincyang
cancu
cancung
cang
cangbin
cangcwan
cangiyuen
cangjn
cangkwan
cangmyeyn
cangnaw
cangpey
cangpin
cangping
cangpinsyang
cangryang
cangsi
cangsu
cangtaw
cangwu
cangyey
cangyi
caniyueyn
cankwo
canmocang
canmus
canpasay
canpi
canpin
canping
canpisi
canpisihe
canpisim
canrwey
canryang
cans
cansu
cansun
canterbury
canto
cantoci
cantowri
canwan
canwu
canye
canyey
canyi
canyiyen
canyiyeyn
canyiyueyn
canyon
cap
cape
capin
capita
capital
caporocyey
caputwowa
carabobo
caracas
carapaycyung
carercun
cari
caribbean
carifey
cariman
carl
carlos
cartes
caruya
carvalho
casen
cases
casing
castillo
castro
cata
categories
category
cathedral
catherine
cato
catp
caturanwoweyci
cau
causen
causyenci
caw
cawahoci
cawan
cawc
cawci
cawco
cawcrung
cawcyaw
cawhe
cawi
cawis
cawju
cawpiye
cawsan
cawsi
cawsng
cawsu
cawsyeynsu
cawtun
cawtung
cawwa
cawyering
cawyueyn
cay
cayamavana
caycen
cayciar
caycing
caycng
caycngbu
caycung
caye
cayhu
cayin
cayingun
cayingwen
caykwang
cayo
caysng
caytwan
caytyeynci
cayyeytan
cayyow
cbeyo
cbiuaw
cbiyaw
cbuwan
cc
ccamac
ccan
ccbu
ccbuwan
ccci
ccco
cccow
cceka
ccentan
cchiya
ccida
ccka
cckonghkwo
cckulan
ccng
ccngtang
ccsen
cctv
ccu
ccyang
cdp
cduray
ce
cealalupalantdlu
ceawreyacu
ceb
cecyang
cehwang
cejenri
ceka
ceko
cekokorumuhu
celtic
cen
cenc
cenca
cencacikuan
cencakwan
cencayen
cence
cenci
cencu
cencung
cencya
cencyaw
cenfa
cenfu
cenfuncu
ceng
cenga
cengcen
cengco
cengcu
cengfu
cenghu
cengpen
cengsu
cengtang
cenhun
cenhwa
cenkan
cenkang
cenko
cenkozenmin
cenkung
cenkwo
cenma
cenming
cenpaw
cenpucay
cenpucaywusyen
cenri
cense
censipaw
censo
censu
census
censusan
censusiyang
censusyan
censusyang
centan
centang
center
centered
centi
central
centre
centroccidental
centu
cenwun
cenyueyn
cenyueynkwo
cepucay
cere
cerkaso
ceroh
cerro
cesay
cesing
ceso
cesu
ceswey
ceta
cetiney
cey
ceyci
ceydi
ceyfancyun
ceyfang
ceyjyuenju
ceyn
ceynsu
ceynsusyang
ceyntuey
cfa
cfg
cgi
ch
chabubul
chad
chakraval
chalami
chana
chang
change
changwat
charles
charlie
chatham
check
checktype
chedin
chemins
chenkung
chenkwangaw
cheya
chhlong
chi
chiazzese
chicago
chief
chile
chin
china
chinese
ching
chira
chisinau
chivarvaran
chiya
chn
chngiyun
cho
chre
christ
christian
chu
chua
chui
chun
chung
chungcen
chungkang
church
chuy
chuykwan
ci
cia
ciakowenccu
ciamengan
cian
cianata
ciang
ciansusiang
ciansusiyang
ciansyang
ciar
ciarcis
ciaropi
ciasacoran
ciataw
ciaton
ciau
ciauton
ciaw
ciay
ciban
cibarbaran
cican
cicang
cice
cicehuy
ciceywa
cici
cicih
cicijen
cicikasutonanko
cicin
cicincuc
cicing
cicinhuy
cicinhwe
cicis
cico
cicohwe
ciconging
cicotaw
cicu
cicuh
cicweyn
cicya
cicyangting
cicyeyn
cicyi
cid
cida
cidatayay
ciduan
cien
cienko
ciensusiyang
ciey
cifa
cifong
cifu
cifucipir
cifung
cigkingal
cigtru
cih
cihafayan
cihakay
cihalaay
ciho
cihong
cihow
cihu
cihung
cihurosu
cihuwa
cihwa
cihwang
cihwasu
ciida
ciip
cijan
cijang
cikan
cikasuwan
cikau
cikeliwan
cikep
cikmey
ciko
cikoracosu
cikow
ciku
cikuh
cikuku
cikuwopay
cikuyo
cikwan
cilalongay
cilamitay
cilangasan
cilapuk
ciliksay
cilinoci
cilo
cilu
cimey
cimi
cimoarman
cimu
cin
cinaw
cinay
cinbulan
cinca
cincau
cincaw
cinceensan
cincen
cinceyn
cinci
cincicenso
cincina
cinciti
cinciweci
cincng
cincngen
cincngju
cincns
cincnsu
cincta
cincu
cincuta
cincyang
cincyey
cincyeyn
cinen
cinenti
cinenzu
cineya
cineyya
cineyyapisor
cineyyawan
cinfung
cinfungckwag
cinfungsyang
cing
cingcang
cingcaw
cingcen
cingcensu
cingci
cingcicyu
cingcihoco
cingcing
cingcitaw
cingciti
cingcng
cingcns
cingcnsu
cingcu
cingcunsu
cingcyen
cingguan
cinghe
cinghung
cinging
cingjong
cingko
cingkwan
cingmaw
cingmay
cingmin
cingnuwan
cingpaw
cingpawcyu
cingpin
cingping
cingpu
cingru
cingsan
cingsang
cingsen
cingsi
cingsun
cingsutun
cingswey
cingtan
cingtay
cingtiko
cingting
cingtoar
cingtong
cingtongci
cingtu
cingueytuey
cingwan
cingwang
cingwatay
cingxi
cingying
cingyu
cingzong
cinjcng
cinjon
cinjong
cinjongyey
cinjucng
cinjung
cinjungyey
cinkang
cinkhulan
cinko
cinmimon
cinminmon
cinminmong
cinnawa
cinnen
cinoyawsay
cinpang
cinpay
cinpen
cinpin
cinping
cinpu
cinputang
cinpyawsay
cinpyen
cinpyenwusyen
cinrong
cinsan
cinsanri
cinsbu
cinsiancian
cinsibu
cinso
cinsu
cinsutantingpaw
cinsyasa
cinsyasas
cintacong
cintaw
cintay
cinun
cinwang
cinwangkwo
cinyang
cinzon
cinzong
ciolon
cion
ciong
cioron
cipanya
cipenfa
cipeyci
cipik
ciping
cipiq
cipnfa
cipu
cipuca
ciputang
ciputi
cipuwa
cipuypuyan
cirakayan
cirakesay
ciran
cirarokohay
circis
cirifu
cirimacaluo
ciripunan
cirnikohu
ciro
cirongpo
ciropu
ciru
cirun
cirung
cirupa
ciruyingpeng
cisa
cisan
cise
ciseketi
cisen
cisey
cisi
cising
cisiteyn
cistwan
cisu
cisutwan
ciswanci
cisyang
cita
citakang
citan
citar
citaw
citay
citekudan
citi
cities
citing
cits
citu
cituciyaw
citucongcyaw
citucyaw
citucyawtu
citudu
citupa
citusincyaw
citutu
cituwan
citwan
city
ciu
ciudad
ciuli
ciun
ciung
ciusinlun
ciwa
ciwan
ciwang
ciwas
ciway
ciwidian
ciwidiyan
ciwil
ciwkangan
ciya
ciyaci
ciyacong
ciyacuni
ciyak
ciyakang
ciyalepi
ciyan
ciyang
ciyans
ciyanssyang
ciyari
ciyarimantan
ciyaropihay
ciyaru
ciyasu
ciyaw
ciyawc
ciyawcu
ciyawcya
ciyawfa
ciyawhuwe
ciyawifa
ciyawkeri
ciyawkouncucu
ciyawkwang
ciyawriyotaw
ciyawtung
ciyawyi
ciyawyu
ciyawyui
ciyayen
ciye
ciyek
ciyen
ciyensu
ciyensusiyang
ciyey
ciyeyn
ciyeyns
ciyi
ciyibangcalay
ciyife
ciyo
ciyow
ciyu
ciyuk
ciyungtaw
ciyunjen
ciyuntaw
cizan
cjancyueyn
cjankeyuey
cjanskang
cji
cka
ckau
ckceka
ckcka
claq
class
classes
clear
clemencia
client
clinton
clokah
clouds
cm
cmbu
cmcamac
cmcudu
cmebu
cmepiq
cmeriq
cmi
cmikn
cmikul
cmikun
cmin
cmingti
cminhwa
cminti
cmiyu
cmiyuk
cmka
cmneriq
cmu
cmuca
cmucac
cn
cnbu
cnbuwan
cnc
cncbuwan
cnce
cnci
cncin
cncu
cncuci
cncusesan
cncutang
cncyawhi
cncyun
cndulay
cndung
cnduray
cneriq
cnfaweyenfe
cnfu
cnfuaman
cng
cngc
cngcangryu
cngce
cngci
cngcihwang
cngcishan
cngcn
cngco
cngcu
cngcucyu
cngcweyn
cngcyaw
cngcyu
cngcyuen
cngcyueyn
cngfu
cnghu
cnghwa
cngkong
cngkung
cngkungcn
cngmeyco
cngpaw
cngpeyn
cngpn
cngpyeyn
cngri
cngring
cngseyng
cngsu
cngsyey
cngtan
cngtang
cngti
cngtong
cngtu
cngtunanru
cngtwan
cngweyn
cngweynkwo
cngyeyn
cngyeynko
cngyeynkwo
cngyi
cngyueyn
cngyueynkwo
cnhdilan
cnhwu
cnica
cning
cniyuk
cnje
cnjyueyn
cnkwan
cnkwosu
cnn
cnngcan
cnoko
cnpilan
cnru
cns
cnseyn
cnseyng
cnsyeyn
cntan
cntang
cnton
cnyey
cnying
cnyueyn
cnyueynkwo
cnyusan
co
coan
coast
coat
cobo
cocang
cofe
cohen
cohesu
cojedes
cokan
coko
cokotaru
colang
coleh
coleiro
collage
college
colombia
colon
color
colorado
colored
columbia
com
commission
commissioner
common
commonwealth
community
compact
compagnie
companion
company
compare
comparedisplay
comparelink
compareurl
comprehensive
con
concanmopu
concu
concyaw
condamine
conde
confa
confamincu
confaminko
confazemin
confazenmin
confe
confederation
confekonhoko
configuration
conflict
cong
congcan
congcang
congcay
congcen
congci
congcin
congcing
congcingnantaw
congcinpeytaw
congco
congcu
congcya
congcyang
congcyaw
congcyeyn
congcyu
congdasing
congdong
congdongc
congfang
conggiying
conghesing
conghesu
congho
conghua
conghuamingkuo
conghuwa
conghwa
conghwazenming
conghwe
congiueyn
congiyueyn
congjenko
congkang
congkong
congkongyey
congkuo
congkuotalu
congkwang
congkwo
congli
congmayoi
congmeco
congmeyco
congmeycyo
congnan
congo
congpu
congri
congring
congsan
congsayrweyya
congse
congsenci
congseykaypey
congsi
congsin
congsingru
congsng
congsngtay
congsring
congsu
congsuci
congsuki
congsuring
congsyaw
congtayri
congte
congteng
congti
congtong
congtongcu
congtu
congtung
congwen
congwunpaw
congya
congyan
congyang
congyey
congyi
congyiyen
congyiyeyn
congzunko
conihuci
conjyaw
conko
conkon
conli
conmeyco
conpu
conri
consci
consey
consin
containing
conte
content
conton
conwen
conweytu
conyan
cook
copay
copenhagen
corang
cori
cork
coro
coronavirus
corozal
correa
cose
coseng
coseyng
cosin
cosinkwo
cosisyang
costa
cosu
coswey
cosweycya
cote
cotocu
cotohu
cotong
cou
council
countess
country
county
cov
covell
covid
cow
cowan
cowci
cpang
cpen
cpiqan
cpncuyi
cpuncuyi
cpurwotwohaysya
create
createlink
creek
cri
crimea
cristobal
croatia
crop
cropped
cross
cruz
csan
csdamat
csenci
csi
csiasu
css
csu
csyas
csyun
ctaw
ctn
ctu
ctv
cu
cuan
cuancn
cuansu
cuay
cuba
cubeyo
cubu
cubus
cuc
cucan
cucawye
cucay
cucayswo
cuce
cuceka
cucen
cuceng
cuceyn
cuci
cucian
cucin
cuciyo
cuciyocang
cuciyow
cucng
cucngtang
cucong
cucu
cucucen
cucuci
cucucunghu
cucucuy
cucucyu
cucuko
cucung
cucungtang
cucuring
cucusng
cucusu
cucweyn
cucyaw
cucyawcwo
cucyo
cucyocang
cucyotwe
cucyow
cucyuan
cucyueyn
cudi
cudu
cuen
cufanc
cuguk
cuho
cuhu
cuhuy
cuhwa
cui
cuikonghkwo
cujan
cujen
cujyoday
cujyosay
cukan
cuke
cuko
cukocu
cukong
cukotiti
cuku
cukuo
cukwo
culin
culiu
culture
cumana
cumebu
cumey
cumi
cumin
cuming
cumingti
cuminmong
cumintang
cuminti
cun
cuna
cunan
cunci
cuncian
cuncu
cunfu
cung
cungcang
cungcanri
cungcaw
cungcen
cungcgn
cungci
cungcisuhan
cungciyaw
cungcng
cungco
cungcu
cungcyaw
cungcyawhwe
cungfang
cungfey
cungfu
cungheng
cunghu
cunghwa
cunghwamin
cunghwaminkwo
cungiyuen
cungkang
cungke
cungko
cungku
cungkwang
cungkwe
cungkwo
cungmeycow
cungow
cungpaw
cungpen
cungpingweci
cungri
cungryu
cungs
cungsan
cungsanru
cungsci
cungsen
cungsin
cungsing
cungsu
cungtang
cungte
cungto
cungtu
cungtung
cungtungc
cungtuwan
cungyang
cungyen
cungyiyueyn
cungyuey
cungyueysi
cungyyueyn
cunhu
cunje
cunjusyang
cunra
cuns
cunsen
cunsipaw
cunsu
cunswe
cuntaw
cuntung
cuntwe
cuntwetay
cuo
cuonghwa
cuongri
cuonhuwajinminkonheko
cuonhuwamiko
cupan
cupang
cupen
cupey
cupin
cupite
cupn
cupyaw
cuqi
curacao
curi
curin
curing
curo
current
curu
curung
curyawku
curyeyn
cus
cusan
cusangsyang
cusen
cusepey
cushman
cusi
cusin
cusing
cusingcngcyu
cusingco
cusitwan
cusu
cusuwin
cusyasu
cusyey
cusyun
cusyunwang
cutang
cutaru
cutaw
cutawcineyya
cutay
cuteyeyn
cuti
cutting
cutu
cutung
cutyawmu
cuuri
cuuxal
cuuxan
cuw
cuwana
cuwawa
cuwawacu
cuwawataw
cuway
cuwayi
cuwekawfayen
cuwen
cuwey
cuweyhuy
cuweyn
cuweytuy
cuwonhuwaminko
cuwonhuwaminkuwo
cux
cuxal
cuxan
cuy
cuyaw
cuye
cuyen
cuyencongsing
cuyey
cuyeyn
cuyi
cuyice
cuyn
cuyo
cuyohwa
cuyomawyi
cuyopaw
cuyosencang
cuyosu
cuyotang
cuzan
cuzancuyen
cwan
cwanc
cwanceng
cwanciafeyi
cwancirayi
cwancn
cwancng
cwancu
cwancung
cwang
cwangci
cwangcwo
cwangcya
cwangpey
cwangsin
cwangtay
cwanko
cwanmey
cwanpu
cwanpwo
cwanri
cwans
cwansu
cwantong
cwanweyn
cwanye
cwanyey
cwanyeyhwa
cwanyun
cwe
cwekaw
cwemn
cwen
cwencweyn
cwencyo
cwenkear
cwenkoarhanko
cwenpankongcu
cwey
cweyhwa
cweymin
cweyn
cweyncyo
cweynhwangwey
cweynko
cweynkwo
cweynmin
cweyro
cweyrwan
cweysay
cweysu
cwi
cwin
cwintaw
cwo
cwocya
cwosisyang
cwow
cwoyey
cwoyi
cwu
cwucyuceyncwumatay
cy
cya
cyaci
cyaco
cyacowwan
cyacu
cyading
cyafaruofubay
cyahuna
cyaiseyn
cyakang
cyako
cyakong
cyakongyey
cyakung
cyakweyca
cyamaar
cyamey
cyamin
cyamong
cyamung
cyan
cyana
cyanantra
cyanata
cyanatikwo
cyanatra
cyang
cyangcun
cyangcuyun
cyangcyun
cyanghu
cyangkun
cyangyeyntaw
cyangyu
cyanirong
cyanpey
cyansusen
cyapiar
cyapong
cyaporongri
cyarepihay
cyari
cyarihunia
cyaripasuweyri
cyarisiya
cyariwan
cyaropi
cyaropihay
cyarun
cyasi
cyasin
cyaspalwoweyci
cyatancya
cyatayci
cyatayki
cyatayrung
cyatayrungniya
cyati
cyaw
cyawcong
cyawcung
cyawcungkwo
cyawcya
cyawcyu
cyawi
cyawjangkwo
cyawkewen
cyawkowen
cyawkwen
cyawmin
cyawming
cyawpan
cyawpansan
cyawpaw
cyawpay
cyawryo
cyawryotaw
cyawrywotaw
cyawso
cyawsyang
cyawtang
cyawti
cyawting
cyawtong
cyawtongpu
cyawtongwang
cyawtu
cyawtung
cyawu
cyawyi
cyawyiso
cyawyu
cyawyupu
cyawyus
cyayawmu
cyaye
cyayi
cye
cyen
cyernopor
cyey
cyeyci
cyeycng
cyeyfang
cyeyhwancyu
cyeyhwang
cyeyk
cyeyko
cyeykslwofak
cyeymong
cyeymu
cyeyn
cyeynca
cyeynceng
cyeyncng
cyeyncu
cyeyncupay
cyeyncyaw
cyeyncyey
cyeynjn
cyeynkang
cyeynkun
cyeynkwo
cyeynmi
cyeynping
cyeynrima
cyeynrong
cyeyns
cyeynso
cyeynsu
cyeynswo
cyeyntuy
cyeynyey
cyeysu
cyeysyueysyaw
cyeyti
cyeytwan
cyeyyeyn
cyi
cying
cyng
cyo
cyoc
cyocang
cyoci
cyocinsan
cyoco
cyocu
cyocuy
cyocuya
cyoka
cyokajnminkonghekwo
cyokamingkoku
cyokaminkoku
cyokoku
cyokwo
cyolonghwantasyeyn
cyomawyi
cyopang
cyorin
cyoring
cyoro
cyorokay
cyoson
cyosu
cyosuci
cyotan
cyotuy
cyotwe
cyow
cyowqanwoweyci
cyoyen
cyprus
cyu
cyuan
cyucang
cyucin
cyucu
cyuey
cyueyn
cyueynping
cyueynri
cyuhewa
cyuhuncyo
cyuhwa
cyuiping
cyukoku
cyukuku
cyun
cyuncenghu
cyuncey
cyuncong
cyuncu
cyuncuc
cyuncucuanc
cyuncunghu
cyuncuriseyn
cyuncwang
cyuncyu
cyunfang
cyungcenyen
cyunkwan
cyunpingcong
cyuns
cyunstanwey
cyunsu
cyuntaw
cyunti
cyuntwan
cyuntwey
cyunwang
cyunyueytwey
cyunzun
cyupin
cyupu
cyurepu
cyuropu
cyus
cyusu
cyutaw
cyuyu
cyworu
czech
czechia
d
da
daah
daalang
daan
dabur
dacangsu
dacik
dacikihuey
daciksuweyay
dacko
dacng
dada
dadal
dadan
dadaw
dadowacen
dadus
daerah
dafan
dafu
dagun
dah
daha
dahaka
dai
daigako
daihiyo
daily
daka
dakangko
dakis
dakus
dalah
dalang
dalia
dalih
daling
dalma
dama
damac
damat
damay
damayan
dame
damit
dan
danadanaw
danan
dandannau
dang
dangal
dangar
dangaw
dangcan
danger
dangi
dani
daniel
danilo
dankanicya
danke
dankeycu
dankwa
dansangniya
dantay
danun
dapa
dapil
dar
dara
daran
daranfu
dardo
daren
darin
darmeseq
dart
daru
das
dasfapu
data
database
datong
daun
dauqpusan
dave
david
davugele
daw
dawa
dawarey
dawkiya
day
daya
dayaw
daybingyan
dayhyo
dayhyocu
dayhyotuy
dayi
daymur
days
dbukung
dc
dcik
dciway
dd
ddaan
ddaha
ddamac
ddangi
ddapa
ddaun
ddaunnaqmpah
ddayaw
ddayo
ddeyngki
ddeyngsya
ddeynsya
ddgiya
ddgiyaq
ddha
ddheran
ddhiya
ddhuq
ddidun
ddilan
ddili
ddilun
ddima
ddiyax
ddiyu
ddiyun
ddjiyun
ddngusan
ddnuuy
ddooyan
ddoran
ddoras
ddoyun
ddriq
ddriwan
ddrudan
ddsun
ddulan
dduli
ddulun
dduma
ddupun
dduuy
dduwa
dduwi
ddwiyaq
ddxgal
ddxral
ddyagun
de
dea
dealang
december
default
defense
deheran
deheya
dehu
dehug
dehuk
dehung
dehuq
del
delgado
delta
dembrax
democra
democracy
democratic
demography
demqeepah
deng
denis
denki
denmark
density
denu
departamento
departamentos
department
dependencia
dependencias
depending
deputies
der
deran
deriq
derrick
des
desert
desktopdefault
desun
deutsches
development
devi
dewan
deyhing
deyhu
deyki
deylu
deyn
deyncucyaw
deyngki
deynjanji
deynki
deyntay
deyr
dga
dgarung
dgehing
dgeun
dgitaq
dgiya
dgiyag
dgiyaq
dgiyat
dgp
dgril
dgring
dgyaqan
dh
dha
dhaal
dhaalu
dhabi
dhaka
dhakangkwo
dhantay
dhapnsnakan
dhaq
dhaya
dhehuk
dhekan
dheki
dheknu
dhekunu
dhenu
dhequy
dhera
dheran
dheya
dhiq
dhiya
dhiyaq
dhok
dhoq
dhq
dhqan
dhqi
dhqun
dhquy
dhug
dhuk
dhung
dhuq
dhut
dhyaan
di
diana
diario
dias
didensya
didier
die
dieyn
diff
dige
dihekoay
diingdong
dikidiki
dili
dima
dinaw
dingtung
diro
disin
display
displayed
district
distrito
ditu
div
divided
division
divisions
diya
diyan
diyaqx
diyax
diyu
diyun
djilun
djima
djineljepan
djiun
djiyan
djiyun
djumulj
dkawyueyn
dkeyso
dkiyig
dklwaan
dkoka
dkuhan
dkuhun
dlaqi
dlih
dlutut
dma
dmadaha
dmahur
dmai
dmamux
dmanga
dmatan
dmatun
dmaus
dmay
dmaya
dmayaw
dmayi
dmayo
dmbbiyax
dmdn
dmdul
dmdun
dmeeda
dmgiyal
dmhaw
dmi
dmka
dmkuh
dmnayo
dmndun
dmnudul
dmnuwi
dmoi
dmoyi
dmpciyuk
dmpgxiyux
dmqeepah
dmqpah
dmqsurux
dmririh
dmtip
dmudu
dmudug
dmudul
dmudun
dmui
dmurun
dmutuc
dmuuy
dmuwi
dmux
dmuy
dmuyi
dna
dnamux
dnayaw
dnayo
dndilan
dndlang
dndulan
dngan
dngaun
dngedang
dngiyah
dngsan
dngus
dngusan
dngusun
dnhekan
dnhqan
dni
dnii
dnijil
dniyi
dnjiyan
dnkuhan
dnlulan
dnlungan
dnmuwi
dnnayo
dnngeyan
dnngsan
dnngusan
dnni
dnoi
dnooyan
dnoyan
dnudul
dnurun
dnuuy
dnuwi
dnwiyal
dnyagan
dnyangan
dnyawan
do
doba
doc
doccyu
docname
docpage
docpagebase
docspace
doctitle
documentation
dodoma
dodon
does
doesn
dogs
doha
dohoq
doi
doicu
doku
dokyo
dollar
dolores
domburi
domingo
dominica
dominican
domung
don
donald
dong
dongburi
dongpay
dongsuay
donkuan
dooyan
dooyun
doras
dori
doriq
doriyang
dos
doun
dow
dowmung
downtown
dowras
dowriq
doyicu
dpa
dpd
dpr
dpun
dqduda
dqeras
dqiyaq
dqras
dqridin
dqrijil
dr
draan
draghi
drakensberg
draki
dralendren
dramane
drdowras
drenthe
dri
driq
drisaw
drnux
drodux
drudan
druma
drumut
drus
drxal
dsan
dsaw
dsc
dsdesun
dsediq
dseediq
dseeiq
dseejiq
dsi
dska
dsnaw
dspac
dspriq
dsun
dtnhiqan
dtuwa
du
dualang
dubai
dublin
duchy
duda
dudux
duer
duhan
duhun
duhung
dukayrahe
duke
duku
dukuricu
dulacn
duma
dumoi
dumu
duna
dung
dungal
dungan
dungfangs
dunghwa
dungus
dunii
duq
durang
duray
durham
duri
duril
during
duriq
duso
duterte
duuy
duwa
duwan
duwi
duwiyaq
dux
duyawan
dvd
dwangkwo
dweriq
dwiya
dwiyaq
dxal
dxga
dxgal
dxgan
dxgang
dxganl
dxgar
dxhal
dxrak
dxral
dxran
dyagan
dyagun
dyaun
dyawan
dyawyuey
dyeyn
dyiya
e
ealang
east
eastern
ebonyi
ecbiyaw
economic
ecuador
ecyun
edaan
edgar
edirne
edit
edition
editlink
editors
edo
edu
eduardo
edward
eediq
eefa
eelu
eelug
eesti
efi
efong
ega
egibuto
ego
egu
eguw
egypt
eigo
eing
eire
either
eiti
eiug
eiyah
ekan
ekiti
ekuo
ekwo
el
elalang
elbegdorj
elealang
election
eleelug
elektrine
elelug
elih
elizabeth
ellen
ellice
ellu
else
elseif
elu
elue
elug
elung
eluos
eluoscu
eluosreynpan
eluosreynpang
eluossuweyay
eluostikuo
eluw
elwos
elysee
em
embahang
embanah
embarux
embbarig
embbgay
embbiyax
embbrax
embgala
embhgay
embiyax
emblaiq
emblem
embrax
embrhibung
embrinah
embulang
emburux
emca
emdaan
emduwa
emirates
emkingal
emkingan
emmm
emnuda
emomali
empahun
empahung
empajiq
empatas
empcbu
empdayaw
empdhuq
empdudu
empdudug
empdudul
empdxgal
emperor
empeuyas
empgarang
empgraka
empheytay
emphing
emphpah
emphuma
empitu
empklaw
empklawa
emppais
empprngaw
empqita
empqlahan
empqlahang
empqpah
empqsurux
emprajing
empricuh
emprigaw
empriyux
emprngaw
empruway
empsal
empsaping
empsapuh
empsgaaw
empsramal
empsruway
emptabug
emptanseyn
emptdxgal
emptgesa
emptgsa
emptqsurux
emptsa
emptsamac
emptsamat
emptsapuh
emptucing
emptusa
emptutuy
empusal
empusan
empusl
empuyas
empyuntung
emu
en
enbiyax
enbukun
enbukuy
enbuyas
enca
encyarasay
end
enda
endaan
ended
endha
endhiya
endhyaan
enduk
enduwa
endwaun
engativa
england
english
eniq
enkingal
enlaxan
enpdudu
enpdudun
enpgawu
enpqpah
enric
enrique
ensaan
entong
enugu
env
envfuncs
environment
eo
epay
epitu
epusal
equatorial
er
ercitwan
erdog
ereynpan
eritrea
erkwato
erkwo
erkwoto
ernest
eros
erpensung
error
errows
ertumankwo
eru
eruc
erug
erurru
erut
erwos
es
eseisil
eseisilklwaan
eshira
esisil
esore
esparta
essebsi
esser
estadi
estado
estados
esteban
estonia
estonian
estudios
eswatini
et
etc
ethiopia
etuman
etumantikwo
etv
eu
euda
eugo
euqun
eurasia
eurobarometer
europe
european
eustatius
euuqun
euyas
euyn
evarist
evaristo
evo
ex
executive
exist
exists
exotique
expecttype
experiment
experimental
export
eyah
eyeayug
eyeyayung
eyga
eygo
eyhu
eyki
eykoku
eyn
eyngkay
eyu
eyux
eyyo
f
fa
faadhippolhu
faafu
faan
fac
facan
facancucu
facangpu
face
facebook
fact
factbook
facu
fafokod
fai
faiho
fako
fakong
fakow
fakuo
fakuwan
fakwan
fakwey
fakwo
falco
false
family
fan
fanaw
fancin
fancukn
fanfasisu
fanfupai
fang
fangafangasan
fangtueybay
fanrunteynwo
fanten
fantikang
fantuwe
fantwe
fantwey
fantweypay
fanwun
farabundo
farance
farang
faranke
faransi
farari
farc
fargs
fari
faring
farm
faro
faryu
faryui
fasing
fasis
fasistang
faso
fassi
fasu
faswey
fataan
fatahe
fateyn
fateyncang
fateynci
fating
fato
fattah
faueyn
faure
faustin
fayen
fayez
fayi
fayu
fayuan
fayuey
fayueyn
fayui
fazen
fb
fc
fce
fdc
fe
feb
february
feco
fecow
fecwe
federal
federales
federated
feingtaw
felidhe
felipe
fen
fenc
feng
fengbin
fengrin
fenlang
fenli
fense
fer
ferdinand
fergana
feripin
feriping
fernando
fey
feyco
feycow
feycowo
feycwo
feyi
feylipu
feylyuping
feynici
feyripu
feyryaw
feyryuping
feys
feysyo
feytinan
ff
fields
fifa
fiji
fijian
file
filip
filipe
final
finland
first
fku
flag
flederik
flevoland
flickr
flood
florida
fm
fmln
fncong
fng
fo
fociyaw
focya
focyaw
fofung
foifotina
fomosa
fong
fongcinghuwa
font
fontakrta
fontvieille
foo
food
foot
for
foraman
forangsowa
force
forces
foreign
format
formosa
fororita
fororosu
fort
forworuns
fota
found
four
fowfung
fowraman
fr
framan
frame
franc
france
francis
francisco
frank
franse
fransi
frcyakel
fredensborg
frederik
free
friesland
frieten
frites
from
front
fruit
fses
ft
ftuciau
fu
fua
fuad
fucen
fucis
fucongtong
fucungtung
fucuntung
fucyaw
fucyeyn
fudafudak
fuerza
fuerzas
fuifotina
fujairah
fula
fulatimir
fuli
fullurl
fulufuluan
fumin
fun
funafuti
function
functions
fund
funes
fung
fungcaw
fungpin
fungping
fungpinsyang
fungri
fungrin
fungrincn
fungteyeyn
funpu
funri
funsu
fuo
furadimir
fure
furi
furisyang
furu
furusi
furuwang
fus
fuscang
fushe
fusin
fusing
fusingci
fusingcyu
fusingsiyang
futa
fute
fuuyey
fuwakuo
fuwu
fuwuyey
fuxing
fuyuan
fuyueyncang
fylke
g
ga
gaa
gaadhoo
gaafu
gaaw
gaba
gabon
gad
gaga
gaing
gakac
gakat
gako
galan
galerie
gali
galiq
gallen
gamba
gambia
gamil
gan
gana
gang
gao
gapluban
gara
garun
gas
gasil
gaso
gasoring
gasu
gasuc
gata
gauffres
gaul
gawada
gaya
gayan
gaykoku
gayom
gayus
gbayang
gbihur
gbiyan
gbiyuk
gburah
gdema
gdp
gdregan
ge
geasuc
geayus
gedang
geheti
geingob
gelderland
gelu
geluq
gemeenten
gemuk
generate
generated
generates
geneva
genus
geograph
george
georges
georgetown
georgia
gerard
german
germanic
germany
gerunpu
gerwald
get
getargs
getenvironment
geyki
gg
ggaya
gggiyaq
ggqiyan
ggtgut
ghak
ghali
ghana
ghani
ghanzi
gheran
gheti
ghhaw
ghiyan
gi
giang
gic
gicyo
gif
giing
gikai
gikay
gilbert
giman
gimun
ging
ginghang
ginghangcya
gingko
gingku
gini
ginko
gino
gion
giorgi
gipu
girang
girl
gis
gisang
gisborne
gisu
gita
gitu
giuseppe
given
giyin
giying
gje
gjorge
gkawas
gkuwak
glahan
glahang
glang
glekan
gliqun
global
globe
gluban
gmaalu
gmaaw
gmahun
gmalan
gmalu
gmao
gmaran
gmarang
gmaxan
gmaxun
gmayo
gmayus
gmbarah
gmbari
gmbarig
gmbarsah
gmbaruy
gmbgurah
gmburah
gmdara
gmealu
gmeelug
gmeeluk
gmeyu
gmgurah
gmimax
gmlu
gmlux
gmnruus
gmqi
gmquring
gmriq
gmruus
gmtange
gmtu
gmukan
gmukun
gmutange
gmutu
gmuuruy
gnaalu
gnaaw
gnao
gnassingbe
gnayus
gnbalui
gnbarui
gnbaruy
gnbbaruy
gnbegah
gnbgurah
gnbrigan
gnburah
gncyayeyfu
gnealu
gneayus
gneegan
gneeluk
gnhiyi
gnhuway
gni
gnkla
gnlangan
gnlekan
gnluban
gnmaxan
gnp
gnrangan
gntange
gntngayun
gntuan
gntuwan
gnutu
gnya
gnyusa
gnyusan
go
gobiidae
gokang
gokosyo
golden
gombe
gomu
gongku
goodluck
google
gora
gore
goro
gov
government
gqian
gqiyan
grace
grammy
grand
granger
graz
great
greece
green
greenland
greenwich
gri
grig
grimaldi
grkaan
groningen
ground
gruusun
grybauskaite
gsak
gsiling
gsilul
gsilung
gsiyaw
gsm
gssiyaw
gsub
gsyuey
gtaan
gtgut
gtngayun
gtuan
gtuun
gu
gua
guaira
guakwo
guans
guanshan
guatemala
guez
guija
guillermo
guine
guinea
guineatang
guk
gukuc
gukul
gukut
gumahan
gumahun
gumao
gumaran
gunbarui
gunbe
gungu
guofong
gupun
gupuq
gurbanguly
gurib
gustaf
guyana
guyux
gwang
gweru
gwynedd
gxal
gxali
gygaya
gying
gyo
gyusan
h
ha
haa
haan
habsburg
habuk
habun
habung
haci
hacidensiyo
hacideynsyo
haciliwan
hacining
hacong
hacu
hadhdhunmathi
hadi
hadun
hadur
hafa
hagay
hage
hague
hahuy
hai
haipa
hairi
haisia
haiti
haitutuan
haji
haka
hakase
hakasey
hakasw
hakaw
hakka
hako
hakoku
hakow
hakwo
hali
hallywood
halung
halusipun
hama
hamad
hamat
hamayto
hamid
hamilton
hamo
han
hana
hanac
hancan
hancaw
hancu
hancwan
hancyang
handal
handay
hang
hanga
hangal
hangan
hangang
hangciya
hanggong
hangkoku
hangkong
hangkwo
hangna
hangpan
hangqung
hangqungmuceyn
hangseyn
hangseyng
hangsyeyn
hangyun
hanhan
hani
hanji
hanjoku
hank
hanko
hankoku
hankwo
hanoi
hanpa
hanpu
hanryeynse
hanryo
hans
hansa
hansi
hansu
hansweyceng
hantay
hantaypay
hantaytang
hanten
hanyi
hapa
hapen
haploid
hapusupaw
harac
harald
harare
harawan
haraypucyey
harcourt
hari
harifa
harihwa
hariri
harung
haruq
harvard
has
hasak
hasako
hasakocu
hasakohanko
hasan
hasang
hasaryuco
hashim
hasim
hasimu
hasin
hassan
hassanal
hata
hatacu
hatami
hatay
haten
hati
haticia
haticiau
hatikiristo
hatipu
hatlongcow
haumi
haun
haut
haute
havana
have
haw
hawaii
hawan
hawana
hawhan
hawke
hawko
hawmi
hawsacu
hawse
hawta
hawtng
hay
haya
hayan
hayanseyn
hayansin
haycing
hayciyun
hayciyunciti
haycung
haycyun
hayhwang
hayi
hayiti
haykan
haykwan
haykyo
hayo
haypa
haypaw
haypin
haypingmeyn
hayri
hayroing
hayrwo
haysan
haysenkung
haysiya
haysya
haysyang
haytaw
haytay
hayte
hayti
haytung
haytwan
haytwansyang
hayung
haywan
hayway
hayya
hayyang
hayyangsing
hayyu
hayyun
hbalo
hbanga
hbangal
hbangan
hbangang
hbaraw
hbarawbi
hbaro
hbkan
hbngan
hbragan
hbraw
hbun
hcc
hchg
hci
hcian
hciyan
hciyu
hciyun
hcwo
hdagan
hdi
hdlun
hdrus
hduran
he
heading
heads
health
hean
hecong
hecongkwo
hecu
hecwo
hedai
hehay
hehwansan
hehwanyingru
hei
hejn
heko
heku
helen
hellas
helsinki
hen
heneng
heng
henga
hengac
hengak
henkwan
henri
henry
heping
hepingseyi
hepingtow
her
heran
herang
hercegovina
herczegh
here
herna
heroncian
hery
herzegovina
hesin
heswey
hetai
hetay
hetong
hetur
hetyeyn
hewu
hey
heya
heyeyn
heyhay
heyi
heyidapa
heyori
heyrongcyang
heysan
heysu
heyta
heytay
heytey
heyto
hfa
hfacntang
hgalan
hgalang
hghaw
hginuk
hgnkawas
hhangan
hhaqun
hhbangan
hhbaraw
hheytay
hhiti
hhiya
hhiyi
hhmtur
hhnang
hhqilan
hhqulan
hhreeyan
hhreyan
hhriqan
hhtur
hhuda
hhunac
hhuqil
hhuriq
hhwaun
hi
hiang
hiay
hici
hicyo
hida
hidaw
hido
hidoyi
higgins
high
highlands
hii
hika
hikoki
hikozio
hikozo
hikozoi
hili
hill
hillary
himba
himi
himoti
hin
hindustani
hinet
hing
hini
hinoki
hio
hiong
hiqur
hirang
hiriyo
hirsch
hirui
hirun
hiryo
his
history
historylink
hiti
hiv
hiy
hiya
hiyi
hiyisediq
hiyozun
hiyug
hjilan
hjilun
hjiqun
hk
hkawas
hkawasmaxal
hki
hkwasan
hkwo
hl
hla
hlama
hlang
hlayan
hlc
hler
hlidan
hlitan
hliyan
hlmadac
hlmadan
hlmaun
hlun
hma
hmaan
hmaduc
hmadut
hmanguc
hmaqun
hmbragan
hmdhik
hmediq
hmeri
hmeru
hmeruc
hmetun
hmetur
hmgluq
hmici
hmili
hmiru
hmiti
hmjil
hmjiyal
hmkan
hmkawas
hmkun
hmlama
hmlinas
hmneru
hmnrinas
hmnru
hmqangaw
hmrapas
hmrinas
hmringas
hmru
hmrunas
hmtan
hmtun
hmtur
hmuc
hmuma
hmuneru
hmuril
hmurinas
hmuru
hmuruc
hmut
hmuuc
hmuwa
hmuya
hn
hna
hnan
hnang
hnapuy
hnari
hnasun
hnbangan
hnbaraw
hnbragan
hnci
hncian
hnciyan
hncun
hndan
hndanan
hndayu
hndre
hndu
hndure
hne
hneng
hneru
hng
hngak
hngakan
hngan
hngedun
hnghengak
hngka
hngkaas
hngkawa
hngkawan
hngkawas
hngkawasan
hngkaws
hngkwas
hngkwasa
hngkwasan
hngkwasaw
hngkwsan
hngri
hnhangan
hnhru
hni
hnian
hnici
hnigal
hnigan
hnini
hniti
hniwan
hniyan
hniygan
hnkawan
hnkawas
hnkwasa
hnkwasan
hnlayan
hnlidan
hnlitan
hnmaan
hnmtul
hnpucing
hnpure
hnpuyan
hnqilan
hnqulan
hnraan
hnranan
hnreyan
hnridan
hnriqan
hnriyan
hnruan
hnruwan
hnteran
hntiyan
hntur
hnturan
hnuma
hnyaan
hnyegan
hnygan
hnyigan
hnyuwan
ho
hoan
hocin
hoco
hocongkwo
hocu
hocwey
hocwo
hoeing
hoeyng
hofer
hoihutina
hoing
hoko
hokoku
hoku
hokwo
hollande
holo
homa
homeni
homerinicki
homung
hon
honduras
honeng
honey
hong
hongcing
hongcingcyu
hongcyun
honghay
hongho
honghuy
hongkansu
hongke
hongko
hongkong
hongpaw
hongping
hongso
hongsun
hongsurin
hongsuring
hongsyang
hongtang
hongti
hongtulasu
hongturasu
hongyey
hontulas
hontulasu
honung
honyaw
hopey
hopi
hopin
hoping
horacio
horan
horanyi
horato
hori
horicu
horitaw
horiterisi
horitorisi
horizontal
hororita
horsong
horti
hosay
hosaykowena
hosaykoweyna
hosi
hosto
hosu
hoswenzun
hosweynjn
hotel
hoten
hotong
hou
house
housing
how
howaar
hown
howrung
hoyi
hoyin
hoying
hpingcyu
hpucing
hpuniq
hputing
hpuyan
hpuyun
hqulan
hqulang
hqulun
hr
hra
hraan
hraanhidaw
hragan
hran
hranan
hrang
hrayan
hrenang
hreyan
hri
hridan
hridun
hrinas
hriqan
hritan
hrnasan
hrnasi
hrnasun
hrpasan
hrpasun
hru
hruaan
hruan
hrus
hruun
hruwan
hrvatska
hteran
hterun
hti
htin
htiyan
htiyun
htm
html
htngay
htngayan
htran
htranan
htrun
http
https
hturan
hu
hua
hualeys
hualien
hualienkang
huan
huancing
huayko
hubalo
hubaro
hucaw
huco
hucong
hucongtong
hucu
hucumin
hucwang
hucyeyn
huda
hudaw
hueyi
hueyri
hug
huho
huhus
huinhuy
hujetay
huji
hujn
hukay
hukin
huku
hukucusi
hukusng
hukusoto
hulin
huling
hululeyy
hulumali
huma
human
humeru
hun
huna
hunac
hunag
hunan
hunankwo
hunat
huncu
hune
hung
hungary
hungci
hunghay
hungring
hungs
hungswey
hungul
hungun
hungyari
hunhungaz
huni
huniti
hunran
hunri
hunyegan
hunyi
huopi
huopicicing
huow
hupey
huping
hupo
huqil
hura
huraan
huran
huri
hurico
huring
huripu
huru
husan
husin
husincyu
husing
husingtang
hussain
hussein
husu
husuhuy
hutaw
huti
hutu
huu
huuye
huvadhu
huwa
huwac
huwajen
huwase
huwasiaw
huway
huwayi
huwe
huwey
huwu
huwuyey
huy
huya
huyan
huycangjn
huyci
huyi
huyingri
huykaw
huykwan
huynici
huyri
huyripin
huyriping
huyrong
huyruhong
huyryu
huyse
huytan
huytoar
huyyi
hwa
hwaan
hwaang
hwacan
hwaccmo
hwaci
hwacu
hwacyu
hwadung
hwadungcungku
hwaens
hwajen
hwajn
hwajun
hwakang
hwakangyeyn
hwako
hwakong
hwakung
hwakuy
hwakwan
hwakwo
hwalein
hwaling
hwamakusuta
hwami
hwan
hwancing
hwancyaw
hwancyo
hwang
hwangan
hwangcin
hwangcn
hwangcu
hwangcuyey
hwangcya
hwangcyaw
hwangkong
hwangkongtong
hwangmocyu
hwangrong
hwangs
hwangsen
hwangso
hwangsong
hwangsu
hwangti
hwangyu
hwanheru
hwanhoming
hwanhuy
hwaning
hwaningru
hwanringrun
hwansi
hwansu
hwantwe
hwantwetang
hwanwey
hwapaw
hwarang
hwarankohusk
hwaransi
hwarasi
hwarensen
hwareyn
hwareynsu
hwareyseyn
hwari
hwaring
hwarkong
hwaro
hwaryeyn
hwasa
hwasang
hwasi
hwasin
hwasing
hwasisu
hwasngtun
hwasocang
hwasu
hwaswey
hwasyang
hwasyuey
hwaten
hwating
hwatung
hwatungcungku
hwatyeyn
hwawun
hway
hwayang
hwayen
hwayeyn
hwayi
hwayu
hwazun
hwazuncen
hwe
hweco
hweho
hwehu
hwehwa
hwen
hwenantosu
hwencu
hwenin
hwepang
hweri
hweriping
hwey
hweyen
hweyenkwo
hweyhe
hweyi
hweynadopotaw
hweyryu
hweyyeyn
hweyyi
hweyyueyn
hwi
hwinuk
hwo
hwoarsutan
hwocu
hwocyeyn
hwocyu
hwohaysyeyn
hwokuy
hwokwo
hwon
hwopan
hwopi
hwoping
hworwen
hwosan
hwosantaw
hwotonconsing
hwotong
hwou
hwoyun
hwun
hwunran
hwuy
hyaan
hyaun
hyes
hyhiyi
hyhuya
hyo
hyugan
hyundai
i
ia
iads
ian
ias
ibadan
iban
ibom
ibrahim
ibuh
iburasin
ican
ice
iceland
ici
iciban
icibang
icicanye
icil
icilun
icin
icing
icirun
icj
icl
icon
icrun
icu
id
ida
idankiya
idas
idass
idaw
idia
ido
idriss
ids
ie
ieb
iesa
if
ifanss
igi
ignacio
igor
ihey
ihownang
ihuey
ihunang
ihuwe
ihwe
ihwey
ii
iicil
iii
iing
iiyax
iiyux
ij
ikayfa
ikayhwa
ikenarina
iko
iku
ila
ilan
ilang
ilc
ilham
ilisin
ilorin
ima
image
imah
imamu
imeyryeyci
imf
img
imi
imo
imperial
in
ina
inago
inagu
inc
income
incu
independence
independent
independentista
index
india
indian
indonesia
indu
indunisia
indunisiya
induyang
information
ing
ingaku
ingcu
ingcun
ingcyo
ingeseyting
inggaku
inggran
inghang
ingin
ingkay
ingko
ingkoku
ingkoran
ingkosey
ingkuo
ingkwo
ingkwosyey
inglwensantaw
ingni
ingnuito
ingnuyito
ingnyeyn
ingnyoto
ingpa
ingpang
ingpay
ingpicu
ingri
ingsacu
ingsu
ingsyong
ingti
ingtian
ingtikwo
ingtu
ingtuciyaw
ingtuho
ingtunisiya
ingtuyan
ingtuyang
ingu
ingwun
ingyang
ingye
ingyi
ingyu
ingyui
inhan
inhang
inhe
ini
inibaka
inina
inipntena
inko
inkwo
inni
innyoto
ino
inpay
inri
insacu
institute
instituto
inswa
international
intian
into
intro
introduce
intu
intucyaw
intukyo
intunisiya
intuyang
inu
invariant
inyeycya
inyuey
iohannis
ipa
ipairs
ipang
ipaw
ipen
ipiriya
ipnsauti
iporito
ipulasinnasir
ipuni
iq
ira
irake
irako
irakori
iran
irang
iraq
iraqi
ire
ireland
irelangd
iri
iricwin
irifaningc
irih
iril
irin
iring
iririya
iris
irisapay
iriyaw
iryaw
is
isa
isaetipan
isaias
isawalian
isayasu
isek
iserey
isi
isil
ising
iskanta
iskantatani
islael
islam
islamkyo
islan
islancyaw
island
islands
islang
islangcyaw
iso
isopiya
isore
israel
israeli
isran
isranciau
isranciyaw
israncyaw
israngcyaw
israngcyawfa
isrankyo
issoufou
istanpaw
isu
isuciya
isulanciyaw
isuopiya
isupaniaula
isuran
isuranciau
isuranciyaw
isurancyaw
isurankyo
isutora
isutoriya
iswey
it
ita
itali
italia
italian
italiana
italy
itari
itno
itong
its
itu
iu
iueyn
iupingic
ivano
ivanov
ivoire
ivory
iwan
iwangnwoweyci
iwannisewili
iwil
ix
ixey
ixwey
iya
iyah
iyang
iyawcangyey
iyax
iye
iyen
iyi
iyu
iyueyn
iyueync
iyug
iyuh
iyuk
iyuq
iyux
izetbegovic
izukan
izzaddin
j
ja
jaber
jack
jacob
jacques
jacya
jakarta
jalabad
jamaica
james
jamhuri
jan
jang
jangkwo
janryaw
january
japan
japanese
jardin
java
javatuan
jawa
jay
jayryaw
jaysang
je
jean
jejen
jeking
jen
jenay
jenaya
jencen
jencong
jencwan
jencyueyn
jeng
jengmin
jenmin
jenming
jentan
jentaw
jenyueyn
jenyueynkuo
jersey
jerusalem
jetay
jey
jeyjay
jeyking
jeykusakworuhu
jeyn
jeyng
jeyngseykay
jeynseykay
jeyseykay
ji
jiday
jidayi
jidujyao
jigawa
jigme
jikang
jikeyng
jilan
jilung
jima
jimmy
jimu
jimubu
jin
jinay
jinaysiyan
jing
jingay
jingjaw
jingkuo
jinjya
jinping
jinsan
jinsankowtayrang
jinsbu
jioji
jipu
jipun
jiq
jiras
jiru
jisacu
jisayan
jitay
jitayi
jiteyng
jiyagan
jiyan
jiyax
jiyey
jiyi
jiyu
jiyuhwa
jiyun
jiyung
jjilun
jjilung
jjiyan
jjiyun
jn
jnay
jnaykawnug
jnaykawnung
jnaysyang
jncay
jncwan
jncweyn
jncyu
jncyuan
jncyueyn
jncyun
jncyusu
jngming
jnjyueyn
jnko
jnmin
jnmincyun
jnming
jnmingkonghkuo
jnminmincu
jnmintang
jnminweyn
jnrey
jns
jnseykay
jnso
jntaw
jnwen
jnwu
jnyeyn
jnyueyn
jo
joan
joco
jodo
jofo
johannes
john
johnson
joho
jojo
joko
joku
jonathan
jong
jongho
jongryang
jongyu
jonis
jordan
jordanian
joro
jos
jose
joseph
jotaw
jotay
jovenel
jow
jowang
joyce
jp
jpaw
jpeg
jpg
jr
jrman
jsp
jtaw
jtay
ju
juan
juarman
juba
jucya
jucyaw
jueyteyn
juga
jugoslavija
jujo
juken
jukyo
july
jun
jund
jung
jungci
junhwaci
junming
jupaw
jupun
juryan
jutomir
juwan
juwanti
juwas
jwan
jwanti
jwesu
jweten
jwey
jweys
jweysu
jweyswey
jweysweysyang
jweytey
jweyteyn
jweytyeyn
jweyyeyn
jwi
jwo
jyaw
jyawton
jyeynseykay
jyeytan
jyo
jyoco
jyu
jyueynming
jyueynsn
jyujika
k
ka
kaadaadaan
kaafu
kaalang
kaap
kaar
kaarma
kaarrowacu
kaba
kabang
kabange
kabaran
kabila
kabore
kabukuy
kacaar
kacideynsyo
kacike
kacing
kaciyari
kacuko
kacuni
kadadax
kadi
kadu
kaduna
kadxgal
kafando
kafe
kafey
kafu
kagame
kagi
kahabu
kahangan
kahngkawas
kahoci
kahuy
kahwe
kai
kaifa
kaifan
kaigi
kaiko
kaiserreich
kaiyana
kaji
kajoku
kaka
kakawas
kakawtorowey
kakiya
kaknxalan
kala
kalac
kalantuawsan
kalat
kalgan
kaljulaid
kallang
kalwo
kama
kamoku
kampala
kampuchea
kan
kana
kanabale
kanada
kanadun
kanakanahu
kanakanav
kanal
kanalan
kanana
kanao
kanata
kanbu
kancng
kancu
kandang
kanem
kaner
kanfan
kang
kangcyu
kanggo
kangkang
kangki
kangko
kangkow
kangkuo
kangkwan
kangkwo
kangkwokunghekwo
kangpos
kangqow
kangre
kangring
kangtuhu
kangwan
kangwo
kangyi
kani
kanimoci
kanko
kankoku
kankow
kanlan
kanna
kano
kanpala
kanpera
kanpiya
kanpyuta
kanpyutar
kanran
kanrancyow
kanringtang
kansas
kanseyng
kantaha
kantan
kantau
kantaw
kanteyng
kanting
kanusi
kanychok
kao
kapanan
kapi
kapinta
kapira
kapore
kapus
kara
karabobo
karac
karag
karak
karakarpak
karakas
karancyo
karang
karapai
karapakes
karat
karc
kareyngko
kareyria
kari
kariayrlan
kariba
karic
karimohu
karingku
karipa
kariwan
karkaraly
karkhu
karkohu
karl
karolina
karoroan
karos
karowara
karowehwari
karulu
karux
kasa
kasai
kasamangsu
kasay
kasaymu
kaseejiq
kasi
kasnpgan
kasucu
kasuga
kasuiyi
kata
katanga
katatipul
katen
katey
kathmandu
katipu
katiya
katmantu
katori
katr
katse
katsina
katu
katur
kauciya
kavalan
kavaran
kaviyangan
kaw
kawa
kawabata
kawara
kawas
kawcang
kawci
kawcin
kawcing
kawcingtay
kawcinwun
kawcong
kawcyajencong
kawcyaso
kawcyasor
kawcyaswo
kawhong
kawkeci
kawku
kawkuse
kawkuswey
kawmen
kawmencu
kawnas
kawping
kawri
kawring
kawru
kawsacu
kawsu
kawsukonglu
kawsukongru
kawsyon
kawsyung
kawsyungsu
kawte
kawten
kawteyey
kawti
kawtng
kawtu
kawtun
kawtung
kawtungfayen
kawyen
kawyeyn
kawyi
kawyuey
kawyueyn
kay
kaya
kayarto
kaycay
kaycyo
kaydang
kaye
kayes
kayfa
kaygi
kayhwa
kayhwacong
kayhwang
kayi
kaying
kayk
kayke
kaykey
kaykeycu
kaykeyswey
kayko
kaykwang
kaynaya
kayo
kayro
kayrt
kayrte
kayrwo
kaysan
kaysay
kayta
kaytakran
kaytang
kayu
kayyana
kayying
kazakh
kazakhstan
kazangiljan
kb
kbaka
kbaqeh
kbaraw
kbayan
kbbaro
kbberih
kbekui
kbekuy
kbeyax
kbeyhing
kbgrahi
kbhalo
kbhbrawan
kbheni
kbhug
kbiyax
kbkiyan
kbkuy
kblehun
kblux
kbragan
kbrawan
kbrexun
kbrwahi
kbsiyaq
kbsuran
kbuhu
kbuhug
kbukuy
kbunuh
kburux
kbusan
kbusuran
kbyaxan
kcbeyo
kcherus
kci
kciway
kck
kcka
kckaq
kcrkumu
kcugun
kcurux
kcyu
kda
kdadax
kdakar
kdalah
kdang
kdari
kddiyax
kdere
kdesan
kdesun
kdha
kdhaan
kdhaun
kdhu
kdjiyax
kdka
kdkaran
kdkarun
kdkilan
kdngu
kdrumuc
kdusan
ke
keayug
kebalan
kebbi
keci
kedang
keegu
keeki
keelgan
keelih
keelug
keeman
kegaku
keguy
keha
kei
keke
kela
kelgan
keller
kemin
keming
ken
kenakeri
keng
kengpo
kenko
kennedy
kenri
kensa
kensat
kensateng
kenu
kenya
kenyata
kenyatta
kepal
kepi
keponi
kepri
kepute
keri
keriaweryu
kerin
kerri
kerry
kersti
keru
kerung
kerunpiya
kerwoaysiya
kesa
kesacu
kesan
kesi
kesn
kessiyaw
kesu
kesun
keswey
kesyuey
kete
keu
keudus
keungat
kexil
key
keyaku
keyeyn
keyjay
keyjaybu
keyjayswey
keyjayti
keykaku
keyng
keynggi
keyngkyo
keyngkyoing
keyngkyoso
keyngpo
keyngpu
keyngri
keyngsa
keynpo
keynri
keynsa
keypo
keysacu
keysakuwan
keytey
keyun
keyword
kezai
kg
kgalang
kgayaw
kgayus
kgelu
kgelug
kgglu
kghak
kgkingal
kglan
kgrahur
kgsilung
kgurahan
kha
khabu
khaimah
khalid
khalifa
khama
khbaraw
khbragan
khbug
khe
khesar
khilan
khilang
khmer
khmuc
khni
khnu
khoikhoi
khoisan
khpan
khrinas
khrnasun
khu
khubaro
khuni
khwan
khwayun
ki
kia
kiay
kibale
kibi
kicu
kida
kidal
kido
kiem
kiev
kihilang
kii
kiicu
kiinu
kiisug
kiji
kika
kikay
kikayi
kiki
kikya
kilda
kim
kimi
kin
kina
kinal
kinayiman
kind
kindu
kineyng
king
kinga
kingak
kingal
kingan
kingdom
kingl
kingmong
kingmung
kingpay
kining
kiniyeyn
kinnga
kinngal
kinngan
kinshasa
kiokai
kiosanto
kipu
kir
kiray
kiri
kiring
kirisito
kiristo
kiristokyo
kirito
kiro
kirowokoro
kisa
kisacu
kisiya
kiska
kisya
kiuwan
kivu
kiwaan
kiwi
kiy
kiya
kiyadaw
kiyaka
kiyakana
kiyaku
kiyami
kiyan
kiyani
kiyanun
kiyasa
kiyaso
kiyau
kiyi
kiyig
kiyoiku
kiyokai
kiyokay
kiyosanto
kiyumi
kjiyax
kk
kka
kkaalang
kkana
kkarac
kkari
kkaru
kkatu
kkatur
kkawas
kkbiyax
kkdesn
kkdesun
kkdungus
kkdusan
kkeeki
kkela
kkeudus
kkeya
kkingal
kkinu
kkiyan
kkiyig
kkkingal
kkklangan
kkla
kklaan
kklahagun
kklahan
kklahangun
kklai
kklanan
kklaun
kklawa
kklay
kklayi
kklegan
kklgan
kkluwan
kkluwanan
kklwaan
kkmalu
kkmhalan
kkngkawas
kknhuway
kknkawas
kkomin
kkpahun
kkrahan
kkrana
kkranan
kkray
kkriyan
kkrpuhan
kksa
kksaan
kksai
kksan
kkudus
kkuudus
kkuwi
kkyi
kl
kla
klaalang
klaali
klaan
klaban
klabui
klabuy
klahan
klai
klalay
klan
klangal
klangan
klapay
klaun
klaus
klawa
klawaan
klaway
klax
klay
klayi
klbangan
klbiyun
kleaan
klealang
kleegan
kleelu
kleelug
kleeluw
klegan
klelu
klgan
klgelu
klhagun
klhangun
klimarti
kliyuc
klkingal
kllabang
klmuka
klmukan
kltu
klualang
kluelu
klug
klukus
kluwa
kluwan
kluwanan
kluwannan
klwaam
klwaan
klwaang
klwaanknxalan
klwaannii
klwaansiida
klwaas
klwai
klwan
klwanan
klwaun
klwenpo
klwoaysiya
km
kmadi
kmaguh
kmalu
kman
kmarang
kmaraw
kmari
kmarig
kmatay
kmbaraw
kmbarux
kmbeyax
kmbgurah
kmbiyax
kmbkiyan
kmblux
kmbragan
kmburah
kmburux
kmciyuk
kmdakar
kmdudul
kmduuy
kmeaguh
kmeeki
kmeepah
kmekul
kmepah
kmetuy
kmeuruy
kmgaaw
kmgkawas
kmguaw
kmguwaw
kmhalan
kmhalang
kmharan
kmhbragan
kmi
kmin
kminctutan
kming
kmingtang
kmita
kmiyah
kmkan
kmkuh
kmlahan
kmlahang
kmlawa
kmlawan
kmlemu
kmlutuc
kmlux
kmmalu
kmmekn
kmmekul
kmmita
kmnari
kmndakar
kmnrmux
kmo
kmpah
kmpraan
kmpriyux
kmpruyux
kmpryuxan
kmrahan
kmremuh
kmremux
kmrinas
kmrmux
kmrut
kmsalu
kmsepac
kmsiyuk
kmsluhay
kmttu
kmtur
kmtuy
kmulahan
kmulu
kmurahan
kmuremuh
kmuruc
kmuruy
kmusa
kmxalan
kmyuh
kn
knai
knaji
knala
knama
knan
knana
knaqih
knari
knarig
knarux
knbahalo
knbaka
knbalay
knbaraw
knbarux
knbbalo
knbbaraw
knbbaro
knbbekuy
knbeyhing
knbeyki
knbeyring
knbgrahan
knbgrawan
knbgurah
knbguran
knbhalo
knbharo
knbiyax
knbkiya
knbkiyan
knbkiyanhiyi
knblagan
knblawan
knbowkax
knbowqax
knbowqqax
knbragan
knbrawan
knbrexan
knbrnux
knbrxan
knbsiyaq
knbsyaqan
knbtunux
knbubaro
knbukuy
knbulehan
knbuleyag
knburah
knburawan
knburehan
knburux
knbyaxan
kncbeyo
knchdilan
kncilux
knciway
knciya
knciyan
knciyu
knciyug
knciyuk
kncka
kncpecu
kncyukan
kndada
kndadah
kndadas
kndadax
kndah
kndakar
kndakil
kndalah
kndalax
kndamac
kndarah
kndaxan
knddn
knddun
kndesan
kndexan
kndgakan
kndhtan
kndhu
kndhuq
kndhyaqan
kndisan
kndka
kndkilan
kndkilang
kndkuhan
kndlaxun
kndngu
kndnguwan
kndrmatan
kndrmutan
kndrumuc
kndsan
kndudul
kndudun
kndungus
knduriq
kndusan
kndusanseyng
knduwa
kndux
kndxan
kndxgal
knealang
kneegu
knegakan
knegu
kneinu
kneiyax
knesa
kneudus
kneuxul
kneyuh
kng
kngahu
kngdadax
kngdusan
kngeheti
kngheti
knghkawas
knghkwo
kngkarac
kngkawa
kngkawan
kngkawas
kngkawasw
kngkingal
kngkkarac
kngkkawas
kngkla
kngkwasan
knglahang
knglangan
knglanganr
knglhangan
kngrahur
kngri
kngu
knguheti
kngulahan
kngungu
kngurahan
kngyeyn
knhbalo
knhbaraw
knhbragan
knhbrawab
knhbrawan
knhbrawanhiyi
knhbrawas
knhenu
knheya
knhghgan
knhiyi
knhmuc
knhmucdha
knhnu
knhriqan
knhubalo
knhubaro
knhuriq
knhuwa
knhuway
knibu
knii
knirih
knita
knjisan
knkala
knkan
knkana
knkanna
knkarac
knkari
knkawa
knkawan
knkawas
knkaws
knkela
knkere
knkilan
knkingal
knkingan
knkingl
knkiya
knkkarac
knkkawas
knkkingal
knkla
knklaan
knklanan
knklangal
knklangan
knklawas
knklegan
knklgan
knkluwan
knkluwanan
knknawas
knknedux
knkngalan
knkrana
knkranan
knkrayan
knkuh
knkulahan
knkwas
knkwasan
knkyuxan
knlaan
knlaang
knlaban
knlabang
knlabany
knlahangan
knlala
knlanan
knlanga
knlangal
knlangan
knlangang
knlawa
knlawas
knlbanga
knlbangab
knlbangan
knlexan
knlgan
knlhangan
knlibu
knllaban
knllabang
knllu
knlmeyan
knltu
knluhangan
knlutuc
knluwanan
knlwaan
knlwanan
knmala
knmalu
knmaru
knmaxal
knmrigan
knmurux
knmusa
knmuxul
knmxalan
knnama
knnarux
knnemalu
knnrana
knnrmux
knou
knoutang
knpah
knpahan
knpalu
knparu
knpaux
knpitu
knpiya
knpraan
knpriyu
knpriyug
knpriyuh
knpriyux
knpruwan
knpruyux
knpryuxan
knpryuxun
knpstutuy
knptutuy
knpuriyuh
knpuriyux
knrahan
knrahangan
knrahur
knrana
knranaryu
knrbagan
knrbangan
knrbaraw
knrbawan
knrbuq
knrdax
knremux
knrigan
knriku
knrinah
knrinas
knriyan
knrmnan
knrmun
knrmux
knrmuxan
knrnaan
knrngiyan
knrtan
knrudah
knrudan
knruhangan
knrxan
knryuxan
knsanan
knsangan
knsat
knsbliqan
knsdhu
knsdurux
knseesu
knsekuy
knseun
knseyun
knskiyan
knskuy
knspaux
knspruwan
knsrabang
knsuyang
knsxalan
knsyangan
knsyeynring
kntaan
kntalux
kntaun
kntaxa
kntbrinah
knteetu
kntetu
knthyaan
knthyaqan
kntikuh
kntilux
kntiping
kntlehan
kntlexan
kntlhan
kntltu
kntlxan
kntmaan
kntnaan
kntngiyan
kntrawah
kntruma
knttilux
knttu
kntuku
kntuy
knudus
knugheti
knuglahang
knuglhangan
knumalu
knurahan
knuruh
knuudus
knuure
knuuxun
knuwan
knux
knwas
knxalan
knxelan
knyehan
ko
koa
koarko
koarsita
koarsukikotaar
koba
kobah
kobu
koci
kocia
kociccu
kocicican
kocing
kocinpang
kocisofe
kocitase
kocya
kocyo
kocyu
kofan
kogi
koh
kohkwo
kohokwo
kohu
kohue
kohwe
koia
koje
kojyo
koka
kokay
koking
koko
kokoingkay
kokomin
kokominingkay
kokominto
kokong
koku
kol
kolhumadulu
kolintun
kolombia
kolumbia
komayrong
komeyrico
komin
kominfeyi
koming
komingcen
komingco
komingtang
komo
komuing
komung
kon
kona
konc
koncai
koncan
koncancyi
koncantan
koncin
koncing
konciuzan
koncu
kong
kongc
kongcan
kongcangtang
kongcantan
kongce
kongci
kongciyun
kongcng
kongco
kongcong
kongcu
kongcung
kongcwey
kongcyu
kongcyuey
kongcyun
kongdongdi
kongfatang
kongh
konghc
konghe
konghecu
konghekwo
konghekwoempitu
konghkuo
konghkwo
konghkwopay
kongho
konghoko
konghokow
konghokuo
konghokwo
konghotang
konghukuo
konghuwe
konghuy
konghwe
kongjen
kongkaw
kongkong
kongku
kongkuo
kongkwo
kongli
kongmin
kongming
kongpan
kongpaw
kongpinging
kongpu
kongri
kongru
kongryu
kongs
kongsang
kongsangyey
kongse
kongsi
kongsng
kongsotaw
kongsu
kongsyang
kongsyeyn
kongtan
kongting
kongto
kongtong
kongtongti
kongtun
kongtyeyn
kongweyn
kongyaku
kongye
kongyecucu
kongyehuwa
kongyen
kongyey
kongyeycyu
kongyeyhwa
kongyeyn
kongyi
kongyong
kongyu
kongyuey
kongyueyn
konhkow
konhkwo
konhoko
konli
konmin
konohokan
konrentang
konri
konrote
konsu
konto
konun
konye
konyefa
konyey
kopacihu
kopi
kopunhakun
korang
korankati
koraw
kore
korea
korean
kori
koriawar
koringran
koringrantaw
koringsu
korinran
koristofu
korisutian
korisutiyano
korito
koro
koroaysiya
koroco
koroma
korona
korong
korunbiya
korungpiya
korungpo
korunpano
korunpiya
korunpu
kose
kosi
kosicya
kosomiar
kosove
kosovo
kosovopoaryey
kosowo
kosto
kosu
kosuta
kosutaricya
kosuy
koswey
kota
kotirola
kotto
kou
koulikoro
kow
kowan
kowang
kowba
kowci
koweto
koweymo
kowheko
kowhwey
kowsacu
kowu
kowuyen
kowyen
koyen
koyeyn
koyi
koyo
koyueyn
koyun
kozak
kpahan
kpahun
kparu
kpiya
kpraan
kpriyuh
kpriyux
kpruun
kpryuxan
kpur
kpuruh
kputecng
kr
kraaw
krabi
krac
kraga
kraman
kramay
krana
kraryeywo
kray
krayan
kraypeyta
kraz
kremlin
krhak
krhangun
kri
kriaw
krig
krimax
krimia
krinah
krinuq
kriwa
kriyan
krkarat
krkari
krkiyan
krmux
krmuxan
krmxan
krnaan
krotan
krotang
krpuhan
krtan
krto
krudu
kruhagun
kruhangun
krunpu
krwahun
krwanun
ks
ksa
ksaan
ksanan
ksange
ksaw
ksi
ksiya
ksk
kska
kskaan
kskana
kskuy
ksngan
kssiyaw
kssiyo
kstuq
ksukus
ksula
ksun
ksunu
ksuyang
kswey
ksweyweyn
kswowo
ksya
ktaan
ktahuy
ktai
ktaun
ktayun
kteetu
ktna
ktnaan
ktrk
ktru
kttu
ktuku
ku
kuabar
kuan
kuanfan
kuang
kuarto
kuayci
kuba
kubataw
kuci
kucicu
kuconsan
kucu
kucusta
kuczynski
kud
kufen
kufong
kufongcun
kufonkwosyaw
kufun
kuhun
kuhur
kuhwen
kui
kuk
kukocen
kuku
kukung
kukwan
kukwo
kulaw
kuliklwo
kuljaljau
kulo
kulu
kuluk
kumasi
kumay
kumi
kumu
kun
kung
kungcang
kungcing
kungcmyaw
kungcng
kungcung
kungcyun
kunghe
kunghec
kunghekung
kunghekwo
kunghekwokari
kunghekwu
kunghko
kunghwey
kungkung
kungkwo
kungmin
kungpaw
kungri
kungru
kungs
kungswo
kungtang
kungtaw
kungteyn
kungtow
kungyey
kungyeykwo
kungyuan
kungyuey
kungyueycuc
kungyueyn
kuni
kunkawas
kunuan
kunya
kuo
kuoci
kuociya
kuocya
kuocyaw
kuofangpu
kuofangpucan
kuofanpu
kuohuwe
kuomin
kuoming
kuonghekwo
kuoping
kuori
kuotu
kupa
kupahan
kupaw
kupic
kupics
kupiyaw
kupu
kupyaw
kura
kurancing
kuras
kurdistan
kuri
kuricu
kuring
kurinug
kuriscyang
kurisucyang
kuriya
kurmanpyeyk
kuro
kurtaykay
kuruk
kurul
kurusmasu
kurusumasu
kurut
kurux
kurwoma
kus
kusa
kusira
kusito
kusu
kusuman
kusun
kusutahu
kusuy
kut
kutaisi
kutay
kute
kutenuw
kuto
kutong
kutu
kutyeyn
kuung
kuw
kuwa
kuwait
kuwan
kuwanfang
kuwang
kuwangcan
kuwangpo
kuwanri
kuwansuwe
kuwatimala
kuwayong
kuwaysukongru
kuwejun
kuwepeko
kuwepekofaan
kuwepekosu
kuwepekosung
kuwepekotang
kuwesuwang
kuwi
kuwun
kuxan
kuxi
kuxul
kuxun
kuy
kuyhwasu
kuymo
kuyongping
kuyuh
kvbaraw
kwa
kwaan
kwahaw
kwaito
kwan
kwanahatapeyyi
kwanca
kwancan
kwancang
kwancaweyn
kwancu
kwancucan
kwancwang
kwancyu
kwancyun
kwanfan
kwanfang
kwanfu
kwang
kwangcan
kwangcang
kwangco
kwangcyu
kwangfang
kwangfu
kwangfusyang
kwanghu
kwanghwa
kwanghwan
kwangming
kwangpo
kwangsi
kwangsicwang
kwangsyu
kwangtong
kwangwu
kwangye
kwangyey
kwangyu
kwanhwang
kwankwang
kwanpo
kwanri
kwanricyu
kwansan
kwansancn
kwansi
kwanso
kwanswey
kwantaw
kwanti
kwantong
kwanweyn
kwanye
kwanyen
kwanyeyn
kwanying
kwanyuan
kwanyueyn
kwara
kwarani
kwasira
kwatimara
kwatimarasu
kwenring
kwere
kwey
kweyc
kweycu
kweycung
kweyi
kweyseyn
kweysyeyn
kweyt
kwi
kwkuwi
kwo
kwocay
kwoci
kwocicicang
kwocifa
kwocihwa
kwocimawyi
kwocing
kwocitesecuc
kwocitse
kwociya
kwociyakungyuan
kwocya
kwocyaw
kwocyawyueyn
kwofan
kwofang
kwofangpu
kwofanhweyi
kwohey
kwohuey
kwohuy
kwohwa
kwohwang
kwohwangbu
kwohwangcyu
kwohwangcyun
kwohwangpu
kwohwe
kwohwey
kwohweyiyen
kwoing
kwoko
kwokong
kwomin
kwoming
kwon
kwoney
kwongtong
kworen
kwori
kwose
kwosey
kwosing
kwosu
kwosyaw
kwosyey
kwotaw
kwotu
kwotusing
kwou
kwowang
kwoway
kwowu
kwowucing
kwowuweyn
kwowuying
kwoxey
kwoxwey
kwoyey
kwoyo
kwoyohwa
kwoyu
kwu
kyapan
kyaw
kyeayug
kyi
kyiv
kykeya
kykuyuh
kyo
kyodang
kyoiku
kyoikubu
kyokay
kyoku
kyosang
kyosangto
kyosanto
kyoyiku
kyrcilung
kyrgyazstan
kyrgyz
kyrgyzstan
kyu
kyuh
kyukeya
kyun
kyurcilung
kyusanto
kyux
kyyayung
kzyay
l
la
laalang
laamu
labourdonnais
labrador
labuwan
lagos
lahaw
lahun
laidazuan
lake
laki
lako
lala
lalang
lalasan
lalaulan
lalauran
lalay
lalekeleke
lalih
lama
lamong
lamu
lan
land
lang
langman
langniay
langu
language
lanka
lansier
lao
laos
lapulatuo
laqi
lara
larachan
larepaq
larvotto
las
latin
lating
latinmeyco
latuc
latvia
laurent
laus
law
lawa
lawareyha
lawkong
laxan
laxi
laxun
lay
layac
layi
lb
lbagan
lblak
lbuan
lbuun
lbuwa
lbuwan
ldas
le
leaders
leban
lebanese
lebanon
lebun
leehan
leelug
leena
leexan
left
legal
leger
lehengo
leisure
lek
lekuh
lembe
lemuh
leone
leopoldville
lesotho
leste
letsie
leung
level
levels
lexi
leyn
leyng
leyngmong
leynhkwo
leynmon
leynpan
leyoxen
lez
lezier
lg
lgbt
lglug
lhan
lhang
lhaviyani
lhayan
lhbun
lhebun
lhengo
lhkah
lhngaw
lhngay
lhola
lhpis
lhuwan
li
lia
liberia
libertador
library
libre
libu
liburyeyk
libya
libyan
lica
lico
lidaw
liechtenstein
liectensten
lien
lietuva
lifa
life
lihan
lihay
lihekoai
lihun
like
likiliki
liliyon
lille
lilongwe
lima
limburg
limuk
lin
lincoln
ling
lingay
lingi
linguistic
link
linkbox
links
lipas
lipax
lipixan
lipu
liqa
liqi
liri
lisandro
lising
list
lithuania
litongsan
lituk
litungsan
liwas
liwehu
lixan
lixe
lixi
lixun
liya
liyas
lkan
lkang
lklukus
ll
llaban
llabang
llabangan
llamu
llaqi
llbangan
llbu
llebu
llhayan
llihun
llingay
llinge
llixan
llmiqu
llnnga
llukus
llutuc
llutucdha
llyung
lmaban
lmabu
lmala
lmamu
lmaqi
lmaung
lmawa
lmban
lmego
lmekuh
lmengo
lmglug
lmihu
lmiku
lmingis
lmiqu
lmiwaq
lmkuh
lmlamu
lmlu
lmlung
lmngaw
lmngelun
lmngelung
lmnglung
lmtu
lmu
lmubug
lmukas
lmuliq
lmungu
lmutu
lmutuc
lmutut
lmuun
lnbuan
lnbuwan
lngan
lngcan
lngelungan
lnghangan
lnglangu
lngligay
lnglingan
lnglingay
lnglung
lnglungan
lnglungay
lnglungi
lnglungun
lnguwan
lnhayan
lnkuhan
lnkusan
lnlamu
lnlanu
lnlgan
lnlingay
lnlngan
lnlnnga
lnlnngan
lnlungan
lnluwan
lnmuan
lntudan
lntulan
lnutuc
lo
local
location
loji
lombardia
lome
london
long
lonsdale
look
los
louis
louise
low
lowsi
lowsing
loyan
lozi
lqeling
lqian
lqlaqi
lqlic
lqling
lqmiqu
lripay
ltlutuc
ltlutut
ltu
ltudan
ltudun
ltulun
lu
lua
luaargs
lualang
luan
luanda
luban
lubi
lubu
lubug
lubuy
lucia
ludja
ludux
luhay
luhung
luis
lukashenko
lukus
lulu
lumaban
lumak
lumau
lun
lunda
lung
lungcan
lungu
luntun
luo
luoma
luomaniya
luomu
lupakatj
lupun
lupung
lupus
luqah
luqi
luqih
lusaka
lusenpaw
lushan
lushanhotspring
lutuc
lutulan
lutut
luwan
lux
luxembourg
luysesingtung
luz
lwan
lwanan
lwanun
lwaqan
lwaqun
lwax
lwo
lwoma
lwomaniya
lwomatikwo
lxan
lxanan
lxanun
lxawan
lxayan
lxi
lyaw
lyeyn
lyeynghkwo
lyeyngpang
lyeynhkwo
lyeynmon
lyeynmong
lyeynpan
lyo
lyow
lyuo
lə
m
ma
maa
maabkuwir
maadowras
maah
maakingal
maalang
maalhosmadulu
maalix
maanaqih
maangal
maangan
maanu
maanuqih
maapun
maasu
maaw
maaysutora
maayus
mabal
maban
mabang
mabiciq
mabuwakay
macaar
macar
macau
macedonia
macedonian
maci
macirisi
macitun
macitwen
macky
macongming
macri
macu
macya
macyasyang
mada
madagascar
madagasikara
madaljalu
madas
madawdaw
madis
madison
maduk
maduro
mafe
magan
magi
magnified
magufuli
mah
maha
mahamadou
mahan
mahansepa
mahathir
mahkamah
mahu
mahun
mahung
maia
maiduguri
main
maithripala
maiu
majia
maka
makan
makanaji
makapi
makataw
makazayazaya
makecategorylink
makedon
makeinvokefunc
makestartboxdata
makestartboxlinksdata
maketoolbar
makeurllink
makewikilink
mako
makohong
makong
makorito
makos
makosu
makotaay
maktoum
maku
makuata
makumrudu
makurdi
mala
malabo
malah
malalas
malan
malau
malavi
malawey
malawi
malax
malay
malaysia
malayya
maldives
male
malepa
mali
malikoan
malikuwan
malitaw
malix
malta
malu
malubale
malum
malun
malux
mamadou
mamatu
mambe
mami
mamnoon
mamohato
mamuruke
mamusa
man
mana
management
manakwa
manas
manat
manawatu
manco
mancow
mandingo
mandinka
mang
manga
mangacun
mangal
mangan
manganl
mangari
manhan
manhatun
maniayma
manila
manko
manku
manlyeyn
mann
mannica
manniqatayti
mannitopa
mansur
manta
manti
mantis
manto
manton
manu
manuel
manzhou
mao
maolin
maori
map
mapa
maparngsux
maps
mapungubwehill
maqe
mara
maracaibo
maradi
marah
marai
maran
marapo
maraqaca
marasong
marati
maraw
marawey
marawrwo
maray
maraysiya
marayyi
marc
marcelo
march
marea
marepa
maretoya
margarita
margin
margrethe
margvelashvili
mari
maria
marian
maribasi
maribu
marie
marig
marikowan
marikung
marikuwang
marikwang
marikwowang
marikwowansi
marin
marina
maring
marino
mario
maripa
maripoar
marirenpang
marisa
maritikwo
mariya
mariyociya
marja
market
marlborough
maroc
marong
marosan
marta
marti
martial
martifu
martine
maru
marui
marung
marungpay
maruriun
maruy
mary
maryey
maryocya
mas
masa
masawa
masawr
masayru
maseejiq
maseru
masilid
masisi
maskrin
maskte
masktesutan
masktesutankwo
masosan
maspac
maspat
maspatul
maspc
masu
masug
masum
matacyascya
matacyasucya
matan
matang
matangki
matanki
mataru
mataruparu
matas
matay
matayi
match
mathilde
mati
matias
mating
matingna
matiro
matis
mato
matora
matori
matru
mattarella
matteo
maturin
maturo
maucoton
maurice
mauricio
mauritania
mauritius
maurits
mauritus
mauyi
maw
mawan
mawcetong
mawcyey
mawi
mawo
mawri
mawring
mawritaniya
mawtowsan
mawutu
mawyi
mawyibu
mawyican
mawyicang
mawyie
mawyiseting
mawyisunca
maxal
maxan
maxanl
may
maya
mayardito
mayaw
maybalay
mayci
maycya
mayeynri
mayhuman
mayko
mayl
maynama
maynamay
maynooth
maysini
maysti
maytina
mayus
mbabaw
mbahang
mbanah
mbandaka
mbarah
mbari
mbaruy
mbasogo
mbasogon
mbatas
mbbanah
mbbaraw
mbbari
mbbarig
mbbariniya
mbbaruy
mbbege
mbbiyax
mbbrnux
mbbungu
mbbur
mbbuyu
mbc
mbege
mbeki
mberiq
mbeyax
mbeyhing
mbhege
mbhuway
mbiyax
mblawa
mblayaq
mbnaqi
mbomou
mbreenux
mbrinah
mbrnux
mbruwa
mbsuring
mbtunux
mbtur
mbukung
mburah
mburux
mbutun
mcais
mcayis
mcays
mcbac
mcbiyaw
mcbu
mccbu
mccebu
mccilux
mccka
mccng
mcebu
mceka
mchaya
mchdil
mcherus
mchiya
mcida
mcilux
mcing
mclokah
mclukah
mcnbu
mcongtong
mcpecu
mcucebu
md
mdaadis
mdaan
mdakar
mdakil
mdakin
mdamay
mdaya
mdayaw
mdayo
mddaha
mddahur
mddayak
mddayaw
mddayo
mddeka
mddengu
mddha
mddka
mddngu
mddungus
mdeka
mdengu
mdheriq
mdhu
mdhug
mdka
mdkrang
mdm
mdngu
mdoi
mdooda
mdowras
mdrumuc
mdrumut
mdudeka
mdudug
mdudul
mdudun
mdugus
mduk
mdukuricu
mdulun
mdungus
mduru
mduuy
mdxral
me
meangal
meapa
meariq
meas
measug
meayotake
meayus
meayutak
meciya
meco
media
medina
medizinal
meebun
meekan
meelih
meemu
meeniq
meepah
meerih
meeru
meeting
meeyah
meeyux
mege
mehawcung
mehebu
mehedu
mehenug
meheyu
mehu
mehuacun
mehuwacun
mehwacun
mehwacung
meigi
meiyah
mekan
mekaran
mekarang
meko
mekong
mekongho
mekuo
mekwo
melukux
melux
memoized
men
mena
menag
menaq
mencu
menfetay
meng
menhwa
menig
meniq
menmark
menten
mepah
mepiris
meramuraker
mercedes
merdare
merida
meru
merukuhu
merukuhwu
mesa
meseupu
mesiya
message
messagename
messages
messi
meta
metaargs
metaargskey
metadata
metan
metapai
metapay
metaq
metatable
meti
metro
metropolitana
metui
metuiy
metuyi
meuda
meudus
meuwic
meuxul
meuxun
meuyas
mexican
mexico
mey
meya
meyah
meyaha
meyan
meybu
meycin
meyco
meycow
meycu
meycya
meydan
meydang
meydi
meyen
meyhe
meyhoman
meykong
meykongho
meykuo
meykuwang
meykuy
meykwang
meykwe
meykwo
meyn
meyng
meyngkyo
meynpaw
meynswey
meyqeneys
meyranisiya
meyririya
meyrun
meysa
meysan
meysiya
meysu
meysuyueyn
meyta
meytan
meytaq
meyti
meytici
meytosisiya
meytwosiya
meyuen
meyuin
meywha
meyyen
meyyuan
meyyueyn
mg
mgaaw
mgagu
mgarang
mgay
mgaya
mgbanah
mgbaro
mgbhege
mgcebu
mgceyas
mgcongtong
mgdalih
mgdengu
mgdoriq
mgdurug
mgedan
mgedang
mgeegul
mgeela
mgeexan
mgegun
mgeqi
mgeriq
mggaalu
mggaaluk
mggalug
mggaluk
mggarang
mggimax
mggtgut
mghagay
mghak
mghetay
mghiyi
mgimax
mgkala
mgkarac
mgkwowang
mglu
mgluk
mgmlux
mgnetun
mgpajiq
mgqalux
mgqhuni
mgqraqil
mgquri
mgrahur
mgrbu
mgrebu
mgrhibung
mgrig
mgriq
mgsama
mgseediq
mgsobay
mgsupi
mgtanah
mgtgut
mgtruma
mguegun
mgugalug
mgugaru
mgusama
mguy
mgyenso
mha
mhada
mhaduc
mhal
mhangan
mhapuy
mhaqun
mhbu
mhdu
mhebu
mhedu
mhei
mhemuc
mhenuk
mhero
mheru
mheybu
mheytay
mheyu
mhhur
mhhuriq
mhiq
mhiti
mhiyang
mhiyi
mhiyu
mhiyug
mhjil
mhlix
mhmaan
mhmuc
mhnang
mhnuk
mhong
mhrapas
mhraw
mhrinas
mhru
mhrus
mhtur
mhuda
mhulis
mhuma
mhun
mhungun
mhuni
mhuqil
mhuqin
mhurah
mhuriq
mhurtq
mhuru
mhuruc
mhuway
mhuya
mi
miar
miaw
mibungka
mican
michael
michel
michelle
micising
micrayim
micronesia
micu
micukunghekwo
midan
mido
migin
miicu
miing
miisug
mijoku
mike
miker
miklwonisiya
miko
mikorong
mikoronisiya
miladhunmadulu
mile
million
milo
milos
milton
miluq
mimah
min
minc
mincau
mincng
mincu
mincuc
mincucuyi
mincuhwa
mincujnstang
mincukunghekwo
mincupay
mincuriryang
mincusyang
mincutan
mincutang
mincwey
mincweyn
mincyeyn
ming
mingcong
mingcu
mingcuc
mingcuhwa
mingcutan
mingcutang
mingcuyen
minggi
mingin
mingko
mingkow
mingkuku
mingkwo
mingri
mingring
mingru
mingsen
mingsin
mingsu
mingsuko
mingsung
mingtay
mingyi
minh
minhwa
minhwatyeyn
miniq
minister
ministry
minjoku
minko
minkoku
minku
minkwo
minli
minnan
minping
minpingreyn
minq
minsng
minsu
minsweyn
minsyang
minte
mintuyu
mintyaw
minus
minute
minyi
minying
mipix
miqan
miran
miranda
mirceyayehu
miri
miric
mirih
mirik
miriku
miriq
miriyamu
miroseweyci
mirror
miru
miruku
mirwo
mirwoseweyci
mirziyoyev
mis
misa
misan
misear
miser
misicang
misisipi
misu
misucang
misuri
misux
mita
mitaq
miti
mitroweyca
mitu
mitur
miya
miyah
miyahthdil
miyamay
miyan
miyaw
miyawan
miyawri
miyax
miying
miyug
miyuk
mjiras
mk
mkala
mkalo
mkan
mkarac
mkaraw
mkaro
mkasa
mkbabaw
mkbaraw
mkbbuyu
mkbeyhing
mkbiyax
mkbkuy
mkbrmux
mkbrnux
mkbubul
mkbuyu
mkcka
mkdaha
mkdere
mkdgiyaq
mkdha
mkdka
mkdngu
mkedin
mkeekan
mkeiyax
mkela
mkelu
mkere
mkgarang
mkghak
mkgsilung
mkhuriq
mkibuhw
mkingal
mkiyig
mkkarang
mkkari
mkkbkuy
mkkesa
mkkiyux
mkkla
mkknxalan
mkkray
mkksa
mkla
mklan
mklanan
mklawa
mkleelug
mklelu
mklihang
mkliyuc
mkllu
mklmiqu
mkm
mkmalu
mkmangal
mkmariquwan
mkmaxal
mkmeyah
mkmkan
mkmlih
mkmsama
mkmusa
mkmuxul
mkmuxun
mknahuy
mknbeyhing
mkndalax
mkndux
mknedux
mkngahu
mknhuway
mkobu
mkpiya
mkrabi
mkrana
mkray
mkrbawan
mkrbu
mkrbuk
mkrbuq
mkrdingan
mkrhak
mkri
mkrima
mkrinah
mkrinbanyin
mkrkere
mksa
mksama
mksaro
mksepac
mksipaw
mksiyaw
mkslaq
mkssiyaw
mksspac
mksspriq
mktatak
mkteru
mktubaraw
mkturuma
mku
mkucilung
mkug
mkuni
mkuri
mkuy
mkyayung
ml
mlaale
mlabu
mlana
mlanguy
mlaq
mlatac
mlatat
mlawa
mlealax
mleelug
mleyh
mlglug
mlhay
mlhlah
mli
mlih
mlihu
mllabu
mllamu
mllbu
mllug
mllutuc
mllutut
mlngu
mltu
mltuhngkwasan
mltuk
mlu
mlubu
mluk
mlukus
mluqah
mlutu
mlutuc
mlutut
mm
mmaangal
mmaanu
mmaha
mmahan
mmahaqun
mmahun
mmaku
mmalan
mman
mmangal
mmanu
mmeeyah
mmhemuc
mmhuriq
mmisan
mmiyah
mmiyak
mmkay
mmmtravel
mmowsa
mmqedil
mmquri
mmrudu
mmsepa
mmsepac
mmteru
mmtrru
mmturu
mmuda
mmudu
mmugi
mmurux
mmusa
mmuuxun
mn
mnadas
mnalax
mnalix
mnamirika
mnan
mnangal
mnangan
mnaqah
mnara
mnarac
mnarapo
mnari
mnaru
mnarux
mnatas
mnatis
mnbasi
mnbelgium
mnbeyax
mnbiyax
mnbrah
mnbudoya
mnbukung
mnburux
mncahaya
mncbiyaw
mnccbu
mnccebu
mnchaya
mncun
mncuwil
mnda
mndaan
mndaha
mndan
mndanan
mndayaw
mnddengu
mndengu
mndha
mndhu
mndka
mndngu
mndudug
mndudul
mndungu
mndungus
mnduuy
mnduwa
mndxral
mneegu
mneeniq
mneeru
mnegaaw
mnegay
mnege
mnegu
mneiyah
mnekan
mnenag
mneniq
mnetur
mneuda
mneudus
mnexal
mneyah
mneyras
mneysa
mneytaq
mneyyah
mng
mngal
mngangah
mngangal
mngari
mngarikbkuy
mngaya
mngihun
mngihur
mngimax
mngri
mnhayyangsing
mnhbaraw
mnhdu
mnhiya
mnhiyug
mnhmuk
mnhru
mnhtu
mnhtur
mnhuda
mnhuma
mnhuqil
mnhwasu
mnida
mnihur
mnimah
mningkoku
mniq
mniqa
mniqan
mniqkska
mniyah
mnjiyuga
mnkala
mnkan
mnkari
mnkcka
mnkdalax
mnkingal
mnkkarang
mnkla
mnkluwan
mnkndalax
mnkngkawas
mnkngkkarac
mnknkkarac
mnkongmin
mnkurdistan
mnkuung
mnlala
mnllutuc
mnlmiqu
mnlmutuc
mnlngu
mnluk
mnlutuc
mnmanu
mnmdungus
mnmmsepac
mnmniq
mnmtilux
mnmudu
mnmusrin
mnmuxan
mnnangal
mnnangi
mnneniq
mnnetherlands
mnnexan
mnngalan
mnngari
mnniq
mnniqan
mnniyah
mnnuda
mnoda
mnosa
mnou
mnpiya
mnpusa
mnpusal
mnpusu
mnqduriq
mnqlhangan
mnqmlahang
mnqnlhangan
mnqpah
mnquri
mnrading
mnrana
mnrdang
mnrima
mnrmux
mnrmuxan
mnrngaw
mnroma
mnrudu
mnrunun
mnrussia
mnruxan
mnsa
mnsangay
mnsdan
mnsediq
mnsepac
mnseupu
mnseyngkyo
mnsinjya
mnsipanya
mnsngari
mnsoto
mnspusal
mnsriyu
mnsruwa
mnssli
mnsterung
mnstrung
mnsturung
mnsui
mnsung
mnsupu
mnsuryeyn
mnsuwi
mnsuwil
mnswai
mnswayi
mnswayikay
mnsyunnipay
mntana
mntdiyal
mntehan
mnten
mntena
mntenag
mnteru
mntexal
mntexan
mnticonghay
mntilux
mntmay
mntna
mntngari
mntnna
mntru
mntu
mntubaraw
mntucin
mntucing
mntucyey
mntuhunac
mntuhuy
mntumal
mntumun
mnturu
mntuting
mntutuy
mntxal
mntxan
mnu
mnuda
mnudus
mnugaya
mnugeela
mnuhur
mnunuh
mnuru
mnusa
mnuuyas
mnuyas
mnwaya
mnwentay
mnyahan
mnyajetay
mo
moar
moartowa
mobile
mocato
mociryawhuco
mociyatisiyo
mocratie
mocratique
moda
model
modis
module
modules
mohamad
mohame
mohamed
mohammad
mohammed
mohinga
mohu
moi
moka
mokgweetsi
mokupabo
mokupopo
mokurihan
mokutata
molaraysu
moldova
momn
mon
mona
monaco
monagas
monak
monaw
mondai
monday
moneaksekar
monetary
mong
mongcang
mongcu
mongcyala
mongcyara
mongcyarakwo
mongcyarawan
mongcyun
mongku
mongkucu
mongkukwo
mongkuwo
mongkwo
mongo
mongolia
mongtikalwo
mongtoro
mongtwido
mongtwito
monoikos
monrovia
montenegro
montneyklwo
mooda
moon
mope
mopti
moputi
mopux
mor
morales
moralesi
moraraysu
morato
moraweya
more
moris
morning
morocco
moroko
mortaweyya
mortuowa
mortwowa
moruciya
morwoke
mosa
mosanpike
mosanpiqe
moscow
mosiawtuniya
mosicu
mosik
mosiko
mosikwan
mosk
moske
most
mosu
mosuar
mosuko
mosworini
motaueyya
motentalo
moto
mountains
mouvement
move
mowda
mowic
mowsa
moxe
moya
moyi
mozambique
mpahung
mpais
mpajiq
mpangal
mpatas
mpatis
mpbari
mpbatas
mpbbari
mpbeytaq
mpbtur
mpbukung
mpburux
mpcaping
mpcbu
mpccbu
mpcebu
mpdanga
mpdato
mpdayaw
mpdayo
mpdehuk
mpdhuq
mpdkuh
mpdudul
mpduwi
mperuq
mpesa
mpeyga
mpgeriq
mpgimah
mpgimax
mph
mphaqun
mphepah
mpheytay
mpheyu
mphing
mphiyu
mphiyug
mphpah
mphuma
mphuqil
mpitu
mpjuga
mpkla
mpklawa
mpkrana
mpkrmux
mpkuka
mpla
mplaq
mplawa
mplutuc
mpmisan
mpmiyah
mpmusa
mpneyah
mpniq
mpnsung
mpowi
mpp
mppais
mppbari
mppcebu
mppheyu
mppluk
mpprengo
mpprngaw
mppulah
mpqdu
mpqhedu
mpqita
mpqlahang
mpqpah
mpqraq
mpquri
mprading
mprana
mprbagan
mprengo
mpricuh
mprigo
mprilih
mprimax
mpriq
mpririh
mpriwaw
mpriyux
mprngaw
mpruway
mpsalu
mpsan
mpsaping
mpsaqic
mpsblayaq
mpsboru
mpsdalih
mpseyngkyo
mpskingal
mpslutuc
mpsmalu
mpsnhiyi
mpspu
mpsrako
mpsruwa
mpsupu
mpsuupu
mptabu
mptalang
mptaqi
mptbale
mptburux
mptdiyal
mptgesa
mptkarac
mptlaqi
mptmay
mptpatas
mptpatis
mptukuy
mptumal
mpturi
mptusa
mptuting
mptutuy
mptxal
mpudu
mpuka
mpunu
mpuruq
mpusal
mpusan
mpusu
mputing
mpuuyas
mpuuyu
mpuyas
mqalux
mqangaw
mqapur
mqaras
mqbling
mqbulic
mqddgiyaq
mqdgiyaq
mqdiyaq
mqdunuq
mqedil
mqedin
mqeepah
mqhdu
mqi
mqiri
mqita
mqlahang
mqliwaq
mqliyang
mqluli
mqnaqah
mqnlangan
mqnlhangan
mqpah
mqpupu
mqqada
mqqaras
mqqdgiyaq
mqqehur
mqqita
mqquri
mqraq
mqraqi
mqraqil
mqraqin
mqri
mqrijil
mqrinuc
mqriqu
mqsuqi
mquli
mququy
mquri
mquru
mr
mraban
mrabang
mrabu
mrahul
mrahuq
mrahur
mrana
mranag
mrangi
mrata
mrawah
mray
mrbu
mrbuq
mrdang
mrdax
mreemux
mreeru
mremun
mremux
mrengo
mrhak
mrhlah
mrhug
mrhulah
mridil
mrigaw
mrih
mrijil
mrima
mrimal
mriman
mrimax
mrinah
mrinal
mriq
mriqi
mriqu
mririh
mrmul
mrmun
mrmurak
mrmux
mrmuxan
mrngaw
mrqeraq
mrqwan
mrqwang
mrrana
mrrawan
mrrdu
mrrhak
mrrimax
mrriyung
mrriyux
mrrudu
mrtifu
mru
mrudan
mrudu
mruh
mrulun
mrunu
mrunug
mrunun
mrusaw
mrutiq
ms
msa
msaan
msaanak
msaang
msaas
msaayus
msadu
msahug
msalu
msama
msang
msangan
msangay
msange
msaping
msapuh
msasu
msaw
msawe
msayang
msbaang
msbalay
msbale
msbasi
msbgihur
msbihur
msbiq
msbiyaw
msblaiq
msblayaq
msblayiq
msbreenux
msbrnux
msbukuy
msbwihur
msciyu
msciyuk
mscuqi
msdahar
msdalih
msdaling
msdangi
msdara
msdehu
msderux
msdha
msdhiyaq
msdhriq
msdhu
msdhug
msdka
msdlih
msdrux
msdugus
msdungus
msdurux
msdyrux
mseasug
mseayus
msediq
mseejiq
mseesu
msegasut
msekui
msekuy
mseli
msemun
msetuq
mseupu
mseusa
mseyang
msg
msgaaw
msgaliq
msgasig
msgasut
msgqian
msherus
mshjil
mshrus
msibus
msid
msinaw
msipa
msipaw
mskarac
mskari
mskaya
mskingal
mskiyig
mskkiyig
mskluuy
mskluwi
mskluy
mskuy
mslagu
mslalih
mslebu
msleexan
mslhan
mslikaw
msllutuc
msluban
mslupung
mslutuc
mslutut
mslxan
msmay
msmur
msnanaq
msnegul
msnegun
msngali
msngari
msnhiyi
msnpusal
msnpusan
msnul
msnun
msobai
msobay
msoto
mspac
mspais
mspat
mspatul
mspatun
mspaux
mspi
mspis
mspriq
mspriyux
mspruq
mspu
mspug
mspung
mspuniq
msputing
msqapah
msqar
msqriqu
msqsiya
msquri
msquring
msranaq
msrangi
msriqu
msriyux
msruwa
mssaping
mssapo
mssbiq
mssdalih
mssdangi
mssekuy
msseli
msseri
mssibus
mssipaw
mssipo
mssiyaw
mssiyo
mssli
msspais
mssqapah
mssriyux
mssruwa
mssu
mssupu
mstabuy
mstama
mstatuk
mstbon
msteetu
mstena
msterung
mstheya
msthiyaq
mstmuwan
mstrun
mstrung
msttu
mstuq
msturun
msturung
msuayus
msunu
msupu
msuqi
msurin
msusa
msusipo
msuupu
msuwal
msuwan
msuwi
msuwil
mswae
mswati
mswayay
mswaye
mswayi
mt
mtaalix
mtaapa
mtaayus
mtabu
mtabug
mtabughttps
mtabuy
mtahu
mtakur
mtalang
mtalax
mtali
mtalu
mtalux
mtana
mtanah
mtapaq
mtaqi
mtaril
mtarin
mtasaw
mtaso
mtatac
mtaxa
mtayus
mtbalay
mtbale
mtbasi
mtbbrih
mtbeyax
mtbiyax
mtblayaq
mtbrah
mtbukuy
mtburux
mtdaha
mtdha
mtdiyal
mtdiyan
mtdka
mtduwa
mtena
mtengi
mterun
mteumal
mtexa
mtgaran
mtgarang
mtgjiyal
mtgsa
mtgutu
mthdil
mtheruy
mtheya
mtheyaq
mthiti
mthiyaq
mthtur
mthuwe
mtilux
mtjiyan
mtkiri
mtkray
mtlawa
mtlebu
mtlibu
mtltu
mtluhe
mtlutuc
mtlutut
mtmay
mtn
mtna
mtnayus
mtneuda
mtngari
mtngi
mtnuayus
mtnuda
mtqiri
mtqita
mtqraq
mtquri
mtrajing
mtrana
mtrapiq
mtrawah
mtrepiq
mtru
mtrul
mtruma
mtrun
mtsiyaw
mtska
mtswai
mttasaw
mtteru
mttiluh
mttilux
mttuka
mttuku
mtu
mtuarih
mtuayus
mtucilung
mtucing
mtudu
mtuhuy
mtukiri
mtuku
mtumal
mtumun
mtunarac
mtunux
mtur
mtura
mturu
mturul
mtutin
mtuting
mtutiruh
mtutirux
mtutuy
mtxan
mu
muan
muango
muayus
mubarak
mubung
mucianyeyci
mucipu
mucuhota
mud
muda
mudaelu
mudan
mudu
muduh
mudus
mudwala
mudxral
mugabe
mugi
muhammad
muhammadu
muhangmot
muhanmot
muhanmote
muhanmoto
muharako
muharakotaw
muhing
muhu
muhun
muka
mukala
mukan
mukapi
mukherjee
muknkana
mukuri
mulaku
mulatu
mulu
mumal
muman
mumuyama
mun
muna
munan
munang
munda
mundus
mung
mungcyun
mungkwo
mungpotwo
mungtefeyar
mungteneykerwo
mungteneykerwoga
munich
muniho
muo
muosyo
mupantaka
muparake
mupaynimarama
muqnlhangan
mur
muri
muriq
murisaka
mursi
muru
muruc
murug
muruh
murun
murung
murux
mus
musa
museum
museveni
musika
muslim
musling
musrin
musring
mustang
musu
musurin
musuring
musya
muta
mutan
mutance
mutanse
mutansyang
mutarika
mutharika
mutung
muuc
muuda
muudus
muuhn
muuhun
muure
muuxun
muuyas
muwa
muwacu
muway
muwaya
muwayi
muweyru
muxi
muxul
muxun
muya
muyak
muyas
muyu
mw
mwaluk
mwarang
mwaya
mwo
my
myanmar
myaw
myawan
myawlisen
myawri
myawriseyn
myciti
myene
myeyn
myeyntyeyn
myweb
n
na
naa
naag
nab
naban
nabu
nacaarpayeyhu
nacaba
naci
nacional
nacwey
nadas
nade
nadi
nadis
nafuhan
nag
nah
nahari
nahay
nahiya
nahyan
naifu
nairobi
nak
naka
nakah
nakahara
nakahila
naku
nakufong
nakusuting
nalan
nalang
nalux
nam
nama
namasia
namasya
name
named
namerika
namespace
namespaces
namgyal
namgyel
nami
namibia
namipiya
namis
namosi
namu
namuli
nan
nana
nanag
nanak
nanan
nanao
nanaq
nanaqwada
nanaw
nanawnansi
nanawsaytiya
nanawsyang
nancang
nancawagsyang
nanci
nancico
nancing
nancingsu
nancwang
nancwey
nanfey
nang
nangal
nangan
nanglingkayrte
nangnisalu
nangslafu
nanhai
nanhan
nanhay
nanheng
nanhu
nanhwa
nanhwe
nanhwey
nani
nanii
nanjyu
nankang
nankiya
nankopi
nanleynmon
nanmeco
nanmeyco
nanmeycow
nanmeycu
nanmin
nanminying
nanpu
nanreynmung
nanru
nans
nansa
nansan
nanse
nansen
nansi
nansing
nanslafu
nansong
nansrafu
nansrahu
nansu
nansudan
nansulafu
nansurafu
nansurahu
nansutan
nantaw
nanti
nanto
nantopurocya
nantosen
nantosiyen
nantou
nantowseyn
nanwey
nanya
nao
napa
napat
napatay
napoleon
napori
naporun
napu
naq
naqah
naqan
naqih
narac
narapo
narat
naray
naro
narow
naru
naruc
naruwo
narux
narwo
naryn
nasa
nasayar
nasi
nasicewan
nasinbe
nasit
nasrahu
nassarawa
nasu
nasuey
nasug
naswe
naswey
nat
natas
nataw
natawran
natayal
national
nationale
nations
nato
natorocyanowosa
natou
nauru
navy
naw
nawaf
nawco
nawe
nawey
nawi
nay
nayan
nayciliya
nayciriya
naykohwa
naymipiya
naymori
nayro
nayrobi
nayropi
nayrwo
naytasiri
nba
nbabaw
nbahang
nbaqu
nbsuring
nbungan
nburah
nbuyas
ncanada
ncbeyo
ncbiyaw
nceko
ncenpucay
ncepucay
nchez
ncida
ncigin
ncipe
ncongkwo
ncugin
ncyaropihay
ncyokoku
ndaan
ndacik
ndame
ndan
ndanan
ndaun
ndaya
ndayhimiya
ndbeyle
nddgiyaq
ndebele
ndesan
ndez
ndheran
ndheya
ndhiya
nduhan
nduma
nduray
nduuy
nduwa
nduyung
ndwanan
ndwani
ndwanun
ndxgal
ndxral
ne
nealang
neasug
necan
necung
nedang
need
neegu
neepah
negaaw
negara
negro
negu
negul
nehan
nehengping
nehenpingsan
nehenpinsan
nekaifu
neko
nekocu
nelson
nemonku
nemu
nen
neng
nengalan
nengweyn
nengyeyn
neniq
nepal
nepo
nera
neseejiq
net
netherland
netherlands
netherlans
netn
netun
network
neuda
new
newan
news
nexal
ney
neya
neyburada
neycang
neyci
neycng
neycngpu
neydan
neydang
neyeyn
neyhenping
neyk
neyke
neykepucang
neyko
neykocu
neykoku
neylu
neymaniya
neyn
neyntay
neypura
neyru
neys
neyti
nfakuo
nfakwo
nfating
ng
nga
ngaayn
ngahan
ngahu
ngalan
ngalang
ngali
ngalun
ngalung
ngan
ngangac
ngangu
nganguc
ngangut
ngani
ngaran
ngau
ngawang
ngay
ngaya
ngayal
ngayan
ngayngay
ngengahu
ngengalan
ngengalun
ngenganguc
ngerac
ngiraw
ngiro
ngiyaw
ngkawas
nglan
nglun
ngngalan
ngngalang
ngngalun
ngo
ngsan
ngucun
ngudus
nguema
nguesso
ngungalan
ngungalun
ngungu
nguriq
nguru
nguyen
ngyan
nh
nhana
nhapuy
nhari
nhdaan
nhdan
nhdanan
nhdu
nheya
nhiya
nhmaan
nhmuk
nhoran
nhqilan
nhuma
nhunran
nhwakwo
nhwazun
nhweco
ni
niame
niamey
niangjya
niantota
niaqn
nica
nicaragua
nicil
nicola
nicolas
nicole
nicosia
nicyarakwa
niduma
nieto
niger
nigeria
night
nihngkawas
nihon
nihong
nihung
nihunh
nii
niika
niinisto
niio
niiwe
nij
niju
nika
nikan
nikn
nikolic
nikosiya
nikun
nikura
nikuras
nikurayehu
nil
nilandhe
nilargs
nilargskey
nile
nima
nimanya
nimeri
nimey
nimquyux
nin
nina
ning
ningcu
ningjing
ningkwo
ningmong
ningmung
ningpu
ningsacu
nini
niniku
niniqan
ninko
ninpiris
ninpu
nintu
nipoar
nipor
niq
niqa
niqal
niqan
niqaul
niqi
niqn
niqna
niqul
niqun
nirakungke
nirih
nirina
nirix
niro
niroho
nirwohe
nirwoheku
nis
nisa
nisani
nise
nishani
nisopiya
nisore
nisu
nisuciya
nita
nitan
nitari
niwang
niwar
niya
niyacohu
niyah
niyasahu
niyasaran
niyawcue
niyi
niyofunran
niyohunran
nizu
njiyuga
njwesu
nkala
nkan
nkana
nkanada
nkangkwo
nkari
nkeyngkyo
nkingal
nkiya
nkiyakwangcanpin
nklaan
nklwaan
nknlwanan
nkomayrong
nkoringran
nkoroaysiya
nksa
nkurunziza
nkwatimara
nkwocya
nl
nleban
nlihan
nlixan
nluwan
nluyueynhay
nmahan
nmalan
nmalu
nmaya
nmbrs
nmencu
nmenten
nmi
nmkmtilux
nmongku
nmongkukwo
nmtqiri
nn
nnaku
nnangal
nnansulafu
nnansurafu
nnaqah
nnaqih
nndaan
nndan
nneyq
nng
nngakan
nngalan
nngalang
nngalun
nngari
nngngalan
nngyeyn
nni
nnigan
nnii
nnikan
nnikun
nniq
nniqa
nniqal
nniqan
nniqn
nniqul
nniqun
nniyah
nnngalan
nnniqan
nnsgan
nnyusan
no
nobel
noco
noda
nogyo
nojeyciaw
nojyo
nokan
nomin
non
nong
nongcang
nongcanpin
nongcanping
nongcun
nongcwen
nonghu
nongmin
nongming
nongmu
nongri
nonguwi
nongye
nongyekwo
nongyey
nonye
nopear
noper
nopeyar
norbert
nord
nori
norodom
norosu
north
northern
northland
norway
nos
not
note
notice
nou
nouveau
nouvelle
novator
now
nowco
nowcow
nowe
nowey
noye
noyen
npaan
npanan
npapuya
npapuyanyocineya
npaqan
nparing
npasi
npatas
npawcyariya
npawcyriya
npeynanse
npirisu
npnwalang
nporan
nporiweya
nporyo
npotoriko
npurako
nputawya
nqan
nqpahan
nquri
nraaw
nrabu
nrano
nrao
nrenhokwo
nrihan
nripan
nriqan
nrudan
nrunan
nruwan
nsaan
nsamoya
nsanan
nsaya
nsayarweya
nsaypurosu
nsbiyaw
nsediq
nseediq
nseejiq
nseengi
nsehu
nseykey
nseyngkyo
nsgan
nsinciyapo
nsinpawey
nsipanya
nsira
nsiriya
nsngmarinwo
nsu
nsung
nsuren
nsurinan
nsuruoweniya
nsuwati
nsuwatini
nsyakerro
nsyang
nsyongyari
ntanah
ntanmay
ntanzuwe
ntayal
ntayalcu
ntaykwo
ntekwo
ntelu
ntgdaya
nticonghay
nticunghay
ntngari
ntoda
ntokwo
ntomingnicya
ntpeylay
ntruku
ntuiril
ntumal
ntuman
nturi
ntut
ntxan
ntxtaxa
nu
nualang
nuango
nuarmi
nuarsutan
nubian
nuceyn
nuda
nudaan
nudan
nuduh
nudus
nueva
nuevo
nui
nuinu
nuli
number
numbered
nun
nunafuto
nundaan
nung
nungalan
nungcang
nungmin
nungyey
nuntay
nunuh
nunye
nunyen
nuofukluote
nuping
nupiya
nuqah
nuqih
nuqu
nuri
nusa
nuuda
nuway
nux
nuysan
nwanryo
nwewan
nwo
nwopeyr
nworu
nwouey
nwowey
nwoyafangcow
nxan
nyahan
nyanja
nyaten
nyaw
nyawring
nyayung
nyecuming
nyen
nyenan
nyencuming
nyey
nyeyman
nyeyntay
nyeysth
nyeysthyeynan
nyihwe
nyocineya
nyoklayci
nyosan
nyosiran
nyowsiran
nyowyuey
nyoye
nyoyok
nyu
nyucyueyn
nyupan
nyusan
nyusang
nyusi
o
oa
oartunto
obama
obiang
object
objects
oblast
obo
ocbek
occidental
occupation
ocean
ociya
oco
ocow
ocowleymon
ocowpila
october
ocya
oda
odana
oecd
of
off
office
official
ogbomosho
ogun
ohay
ohayo
ohnay
oil
ois
ojwomung
ok
okande
okgo
okiya
oku
okubanday
okuyaku
okwo
old
olive
olosu
olympic
oma
oman
omar
omargs
ome
omey
omiyagey
omon
omong
omruwen
on
ondimba
ondo
one
ongo
ongpu
ongseyng
oniqan
ooda
oosa
op
opama
opec
open
operation
ops
options
or
orange
orban
order
org
organization
oricuyya
oricweya
oriental
orientale
orientaux
orimpik
orimpiko
orinpike
orinpiko
orlando
oro
orogang
orosiya
orosu
ortega
orthographic
oru
oruosu
oryaxan
osa
osang
osh
oshogbo
osun
otago
otakou
other
otobay
otop
ottawa
otuman
ou
ouagadougou
ouattara
oubangui
oubay
ouco
ouham
ould
outlook
output
over
ow
owada
owan
owcay
owco
owcow
oweyhuy
owmong
owmung
owyen
owyenci
owyueyn
oxford
oya
oyataru
oyen
oyenci
oyeycyu
oyeyn
oyo
oyu
oyueyn
p
pa
paadis
paah
paalix
paan
paanun
paapa
paarkan
paasu
paayus
pabeyto
pablo
pacang
paci
pacidal
pacific
pacing
pacistan
pacisutan
paciyev
paciyeyhu
pacse
pacyariya
pacyaw
pacyawlin
pacyawtung
pada
padas
padding
padrangigrang
pae
paepa
paga
page
pagecode
pages
pagetype
paha
pahakari
pahayi
pahayiciau
pahikukian
pahing
pahor
pahun
pahung
pahwariya
pai
pailan
pairs
pais
paiwan
pajiq
pak
paka
pakaw
pakaya
pakistan
pako
pakong
pakorang
pakota
pakta
pakwa
pakwari
pala
palace
palais
palau
palax
palestan
palestine
palic
palix
palu
palubale
pamak
pamela
pamiar
pamiyang
pan
panama
panan
pancasila
panci
pancing
pancongdongc
pancyasi
pancyo
pancyow
pang
pangal
pangan
pangc
pangcah
pangcopu
pangcyaw
pangcyo
pangcyotuy
pangko
pangkorantaw
pangpey
pangryeyn
pangtalanayk
pangtaw
pangyey
paniupa
pankongs
pankuway
pankway
panmntyeyn
pannoniya
panorama
panoramio
panrihwa
panscu
pansucu
panta
pantan
pantau
pantaw
pantawti
panti
pantu
pantuntu
panun
papa
papak
papirun
papua
papung
paputa
paputaw
papuya
papuyanyocineya
paqan
paqiy
paqun
parade
paraga
paraguay
parake
parakoar
parakwey
paramaripo
parameswara
paran
paranciya
paras
parayi
parent
parepeyke
parestan
paresutan
parey
pargs
pari
parih
parin
paring
parintaw
paripa
paris
parius
park
parkan
parliament
paroko
partai
partements
parti
partido
party
paru
paruingkosey
paruknxalan
parun
paryey
pas
pasaar
paseyntaw
pasi
pasikau
pasing
pasiyo
pasks
pasra
pass
passed
passing
passport
pasu
pasuko
pasupoto
pasura
pasuse
pasutworan
pasya
pata
patan
patas
patasa
pataw
patear
patis
patishido
patisuta
pato
patong
patrice
patsan
patu
pau
paul
paur
pavlopoulos
paw
pawa
pawan
pawc
pawcan
pawcang
pawcen
pawcu
pawcyaliya
pawcyariya
pawcyaw
pawcyeyn
pawhu
pawhuci
pawhucyu
pawhukwo
pawhuti
pawkan
pawkaw
pawkong
pawks
pawmi
pawping
pawpyaw
pawre
pawrey
pawriku
pawris
pawrisu
pawru
pawsen
pawseyn
pawso
pawsopay
pawsotang
pawsyeyn
pawyang
pay
paya
payas
payay
paycan
paycantin
paycanting
paycyang
paycyo
paye
payen
payhunpi
payi
payis
payko
paykong
payljus
paymudacungdaw
payorosu
paypyey
payris
payrosu
pays
paysa
paysan
paysow
paytang
paytuoa
paywan
paywang
paywe
payya
payyun
pazung
pbari
pbatas
pbbari
pbbaruy
pbeytaq
pbrigan
pbuway
pcahu
pcaping
pcbuwan
pccbu
pccebu
pcenga
pchun
pchuwan
pcicux
pcikul
pcikun
pcingan
pckaan
pckaun
pckulan
pcmiyah
pcpingan
pcriyu
pcuyuq
pd
pdaan
pdagit
pdai
pdaka
pdalih
pdan
pdanan
pdaun
pdayaw
pdayi
pdayo
pddaha
pddaun
pddayak
pddayaw
pddayo
pdehug
pdehuk
pdesun
pdf
pdhqun
pdhug
pdhuq
pdi
pdka
pdkaan
pdkanan
pdkanun
pdkaun
pdkilan
pdlutuc
pdmai
pdngu
pdngusan
pdngusi
pdngusun
pdooyan
pdsun
pdudu
pdudug
pdudul
pdudun
pdungus
pdutuc
pduuy
pduyi
pe
peace
peangal
peapa
pearlan
peaway
peayrlan
peayus
peci
pecin
pecinfancn
pedagogica
pedro
pedu
pedudul
peekan
peelih
peeluk
peeniq
peeyah
pefang
pefe
peheyu
peiyah
pekuwan
pelalay
pemacitun
peme
pemeco
pemurux
pen
pena
penan
penci
penco
pengadilan
pengiran
peni
peninsula
pentansan
penti
penyo
people
peow
pepingyang
pepu
per
perfaste
perin
pering
peris
perisu
permata
persia
persiati
pertuan
peru
peruq
perwakilan
pesaypurosu
peso
pesu
peta
petasiyang
peter
petoro
petro
petros
petung
peuda
pewe
pey
peya
peyah
peyan
peyarlang
peyayrlan
peyci
peycing
peycyaya
peydang
peye
peyfanglyocun
peyfey
peyhan
peyhay
peyhaytaw
peyi
peyjyu
peykang
peykangsi
peykear
peyn
peynan
peynansyang
peynfanputuey
peynyikwan
peyo
peyping
peypo
peypu
peyqa
peyra
peyris
peyrkle
peyru
peyruskeni
peyrute
peysinru
peysu
peysyun
peyta
peytasiyang
peytaw
peytayr
peytera
peytuin
peyu
peywangru
peywey
peyyah
peyyang
peyyey
peyyi
peyyuan
peyyuey
pf
pflanzen
pgaau
pgaaw
pgagu
pgalang
pgaran
pgarang
pgau
pgaw
pgaya
pgayaw
pgayus
pgbgurah
pgblaiq
pgcenga
pgdehu
pgdmai
pgdngusan
pgdungus
pgeegul
pgeeguy
pgeeluk
pgeeruc
pgeriq
pggaaluk
pggaluk
pggluk
pgkela
pgkere
pgkla
pgklaan
pgklaun
pglaan
pglayun
pglbanan
pgllug
pgluban
pgluwan
pgmaxun
pgqiri
pgqita
pgqraqil
pgriq
pgriqan
pgriqi
pgriqun
pgtena
pgu
pgukela
pgurah
pgyaan
pgyaun
pgyusan
pha
phangan
phd
phdagan
phdagun
phdeyngki
phdug
phema
phepah
pheybun
pheyu
phgay
phigan
philip
philippe
philippines
phing
phiya
phiyu
phiyug
phiyugan
phiyun
phlih
phlisan
phmaan
phmanan
phmaun
phmkuwan
phmuk
phnan
phnang
phngak
phngi
phngun
phnom
pho
phone
phonetics
photo
php
phpah
phpure
phqilan
phqilun
phrenang
phrinas
phru
phu
phuda
phuling
phuma
phumaan
phuniq
phuqil
phuqin
phuyu
phyegan
phyegun
phyugan
phyugun
phyun
phyuun
phyuwan
phyuyan
pi
piarsin
piarsun
piawkotaw
piayr
pic
pico
picyo
pida
pierre
piho
pihu
pihwang
pila
piladame
pilantra
pili
pilis
pimuyi
pin
pincng
pincu
pinero
pinfan
pinfankonri
pinfankori
ping
pingan
pingcang
pingci
pingcin
pingcing
pingcya
pingcyun
pingfan
pingfang
pingfankongri
pingfanmi
pinghay
pingho
pinghu
pinghwan
pinghwang
pinghwanh
pinging
pingjang
pingjangsu
pingkan
pingku
pingkusen
pingmyeyn
pingpong
pingpu
pingpuwa
pingran
pingsan
pingtaw
pingtay
pingten
pingting
pingtong
pingtu
pingtung
pingyaw
pingyen
pingyi
pingyicu
pingyihuy
pingyueyn
pinhay
pinhwang
pinlin
pinmaw
pinpay
pinsbkan
pintaw
pintung
pinuyumayan
pinyueyn
pip
pipurus
piri
pirinyos
piris
pirisu
piritaipiyaw
pirumoan
piryu
pisa
pisalapiya
pisaw
piskayk
pislama
pisor
pisu
pisukankow
piswey
piswo
pisyo
pit
pital
pitan
pitaq
pitorocawocuko
pixan
pixil
pixun
piya
piyah
piyasan
piyawai
piyaway
piyawcu
piyi
piyuma
pkala
pkan
pkawbu
pkbaraw
pkbarux
pkberih
pkbgurah
pkbiyax
pkbrexan
pkburux
pkcaan
pkcaun
pkceka
pkciyuk
pkdaha
pkdakan
pkdakar
pkdakil
pkdesun
pkdhu
pkdhug
pkdira
pkdkilan
pkdkilun
pkdranun
pkdudul
pkdungus
pkeayus
pkeelih
pkegu
pkepah
pkeudus
pkgluk
pkhnang
pkhnuk
pkhtur
pkita
pkixan
pkixun
pkiyux
pkkan
pkkla
pkklaan
pkla
pklaan
pklabang
pklahan
pklanan
pklaun
pklawa
pklayi
pklu
pklug
pklutuc
pklwaan
pkmalu
pkmaluka
pkmlawa
pkmlih
pkmurux
pknarux
pkngalan
pkngatun
pkniqan
pkobu
pkpiya
pkrahan
pkraman
pkrana
pkranan
pkranun
pkrawah
pkray
pkrdax
pkremux
pkriyak
pkriyux
pkrnaun
pkruc
pkseesu
pksuyang
pktuwan
pkuepah
pkulahan
pkun
pkurahan
pkuuka
pkxima
pkyuxan
pl
plaale
plaban
plabu
place
placename
placesearch
pladin
plainlinks
plalay
plale
planeta
planting
plata
platac
plateau
plawa
plaxan
plaxun
playan
plbangun
plealay
plengo
plenty
plgagan
plgagun
plhlah
plihan
plixan
plixun
pliyuxun
plka
plkehun
plkusan
plkusun
pllayun
pllutuc
plmeyan
plmukan
plmwan
plnawan
plngagan
plngagun
plngawan
plpingan
pltadal
pltudun
pluban
plukus
plungagan
plutuc
plutut
plux
plwanan
plwanun
pmaanu
pmblxan
pmetti
pmiri
pmngalan
pmpah
pmurux
pn
pnaadis
pnaah
pnaan
pnagan
pnah
pnaha
pnaqih
pnarah
pnataas
pnatas
pnatis
pnbaang
pnbaraw
pnbari
pnbrexan
pncahu
pncbuan
pncbuwan
pncbwan
pnccbuwan
pnccebu
pncebu
pnchuwan
pncikul
pncingan
pncira
pnckaan
pnckulan
pnco
pncpingan
pncpuan
pncpuwan
pncubuwan
pndaan
pndanan
pnddayo
pnddilan
pndhgan
pndhug
pndjiyan
pndka
pndkaan
pndkanan
pndkilan
pndngusan
pndringan
pndungus
pndux
pnealay
pneasug
pneeyah
pnegaan
pnegaaw
pnegalan
pnegalang
pnegarang
pnegdxgal
pnegkla
pnegklaan
pnegluban
pneha
pneiyah
pnerngagan
pneyah
pneyaha
pneyahan
pneysa
pneyusan
pneyyah
png
pngaaw
pngahan
pngahi
pngalan
pngalang
pngarang
pngaya
pngcang
pngcangryu
pngelah
pngerah
pngkari
pngkela
pngkere
pnglaan
pngluban
pnglux
pnglxan
pngmaxan
pngpung
pngrah
pngtaw
pngucun
pngyusan
pnhangan
pnhegan
pnhei
pnheyu
pnhgalan
pnhgalang
pnhgaran
pnhiya
pnhiyu
pnhiyug
pnhiyugan
pnhmaan
pnhmanan
pnhnang
pnhqilan
pnhulan
pnhuma
pnhumaan
pnhumaun
pnhuqil
pnhuran
pnhuyegan
pnhuyu
pnhyegan
pnhyegun
pnhyugan
pnhyungan
pnhyuwan
pni
pniq
pniqan
pniqi
pniqun
pniri
pniyah
pniyahan
pnkadi
pnkari
pnkbgurah
pnkbrihan
pnkburux
pnkdesan
pnkdiyan
pnkdkilan
pnkingal
pnkixan
pnkla
pnklaan
pnklan
pnklanan
pnklaun
pnkluwan
pnkraman
pnkrana
pnkranan
pnkraya
pnkriyux
pnkrnaan
pnkseengan
pnkyapan
pnlalay
pnlangan
pnlaq
pnlawa
pnlaxan
pnldaxan
pnlealay
pnlhulan
pnlkan
pnlkusan
pnlngu
pnltudan
pnluban
pnlulan
pnlutuc
pnluwan
pnn
pnnatas
pnnatis
pnneyah
pnneyyah
pnngagan
pnngalan
pnniyah
pnoda
pnooda
pnosa
pnp
pnpa
pnpaan
pnpais
pnpanan
pnpatas
pnpatis
pnperuq
pnpexan
pnprngawan
pnpsan
pnpuwan
pnpwalang
pnqita
pnqlahang
pnqlhangan
pnqraqil
pnqrinuc
pnqrqilan
pnqtaan
pnquri
pnrajing
pnrana
pnrawah
pnrdingal
pnrdingan
pnrdungan
pnrhukan
pnrhulan
pnrhulang
pnrhuran
pnriyux
pnrjingan
pnrmaxan
pnrngagan
pnrngawan
pnrungan
pnryuhan
pnryuhun
pnryuxan
pnryuxun
pnsaan
pnsahug
pnsaking
pnsanak
pnsasing
pnsasu
pnsbaang
pnsbeyax
pnsblayan
pnsdehu
pnsdhegan
pnsdhgan
pnsdhu
pnsdhug
pnsdhuwan
pnsdhuwas
pnsdkanan
pnseanak
pnseayus
pnseengan
pnseusa
pnsgaaw
pnsgan
pnsgao
pnsgeegan
pnsiliyan
pnsingan
pnsipaq
pnsiran
pnskarac
pnskarat
pnskari
pnskluwi
pnsklwiyan
pnskraya
pnskrayan
pnsli
pnslian
pnsliyan
pnsltudan
pnsltulun
pnslutuc
pnsnaanax
pnsnakan
pnsnaxan
pnsneydang
pnsng
pnsngan
pnspais
pnspaux
pnsperuq
pnspngan
pnspuan
pnspuwan
pnsramal
pnsriyan
pnsrmalan
pnsrurul
pnsruwa
pnsruwan
pnsseengan
pnssengan
pnssingan
pnssli
pnssliyan
pnstama
pnstiyu
pnstotuy
pnstrengan
pnstrngan
pnsuega
pnsugan
pnsung
pnsupu
pnsuupu
pnsuwan
pnswayan
pntaayus
pntalang
pntalax
pntasan
pntaw
pntbale
pntbele
pntbkuwan
pntbrexan
pntburux
pnteanaq
pnteayus
pnteetu
pntena
pntheruy
pnti
pntinga
pntingan
pntiyu
pntlhayan
pntna
pntnaan
pntnaun
pntraguh
pntrian
pntriyan
pntrwanan
pnttingan
pntura
pntuting
pntutuy
pntyexan
pntyusan
pnuayus
pnuda
pnugaakuk
pnugaaluk
pnugaluk
pnugaya
pnugbgurah
pnugeela
pnuggaluk
pnugkela
pnuglaan
pnuglban
pnuglekan
pnugluban
pnugrahan
pnuqan
pnurug
pnusa
pnuuyas
pnuyu
pnwalang
pnwaluk
pnway
pnwaya
pnyah
pnyahan
pnyahn
pnyahun
pnyasan
pnyugan
pnyusan
po
poang
poar
poarcu
poartaro
poarto
poartu
pocana
pocay
pocico
pocutan
pocwey
pocyuey
poda
pohai
pohe
poho
pohun
poingkong
point
pokasa
poland
polang
police
policy
polite
political
pololan
polska
polynesia
poma
ponapey
ponaway
pong
pongcang
pongcya
ponghng
ponghu
pongpong
poni
pooda
pop
popela
popo
popoar
popor
popu
popular
population
por
poran
porang
porciya
porin
porinisiya
porisariaw
poriwa
poriwar
poriweya
poro
poroco
poroshenko
poroti
porotihay
port
portal
porto
portrait
portugal
portuguesa
portus
porungna
porwitihay
porwotihay
poryo
pos
posa
posi
posimiya
posniya
posu
posun
posuniya
posuniyako
posuwan
poswan
potawa
potica
potoriko
poukwan
pounhwomu
pour
pow
powda
powesya
powsa
powukwan
poxun
poyen
poyoru
pp
ppaan
ppadas
ppaha
ppais
ppalah
ppan
ppana
ppanan
ppangal
ppangan
ppanu
ppanun
pparu
ppata
ppatan
ppatas
ppatis
ppaun
ppctv
ppd
ppdayaw
ppeyyah
ppgeriq
ppheyu
pphiyu
pphmaan
pphmaun
pphmuk
pphpah
pphqilan
pphuma
pphuqil
ppisan
ppiya
ppiyah
ppkla
ppklahan
ppkn
ppkun
pplahan
pplawa
pplego
ppluk
pplutuc
ppngerah
ppngrah
ppnsung
ppnwalang
pposa
ppp
ppqita
ppqun
pprana
pprengo
pprihan
ppriyux
pprngagan
pprngangan
pprngaun
pprngaw
pprngawan
ppryuxan
ppryuxun
ppsaun
ppsbalay
ppsdhu
ppsli
ppsramal
ppsruwa
ppstrngun
pptasan
pptasun
ppuda
ppukn
ppukun
ppulah
ppuniq
ppuqan
ppuqul
ppuqun
ppusa
ppuuyas
ppuyas
ppwalang
ppwaluk
ppyaan
ppyahan
ppyahun
ppyasan
ppyasun
pqbhangun
pqbiciq
pqdisun
pqduriq
pqeepah
pqhdu
pqhedu
pqhlangi
pqilun
pqiri
pqita
pqlahan
pqlahang
pqlhangan
pqluli
pqnaqah
pqnaqih
pqnuqu
pqpah
pqpahun
pqqita
pqquran
pqraq
pqraqil
pqrasan
pqriyun
pqru
pqtaan
pqtan
pqtaun
pquli
pquri
pqyaun
pra
prabang
pradax
pradin
prading
pradiyi
pradiyo
pradiyotay
pradu
pragmatism
prague
prajil
prajin
prajing
prana
pranab
pratan
pratu
prawah
prbangan
prbangun
prdax
prdingal
prdingan
pre
preca
prefixedtext
preload
present
president
presidente
presidential
press
prestan
pretelini
prewar
preykaw
prhulan
pri
prigo
prihan
prihuc
prihut
primax
prime
prince
principe
priqan
pririh
prishtina
priyax
priyuh
priyux
priyuxan
priyuxun
prjingan
prkan
prmaxal
prmaxan
prmurux
prmuxun
prnaan
prnaun
prngagan
prngagun
prngan
prngaw
prngawan
proffer
program
programme
progresista
projection
prokopis
protected
protection
protectionlevels
province
provinces
prparu
prperih
prqan
prrimax
prrngaw
prru
prrudu
prtan
prteruc
prtun
pru
prudu
prugun
prusayr
pruun
pruway
pruyux
pryaxan
pryris
pryuhan
pryuhun
pryuxan
pryuxi
pryuxun
pryxan
psa
psaan
psaanak
psaar
psai
psais
psalu
psanak
psangay
psaniq
psapa
psapin
psaping
psapuh
psasing
psasu
psaun
psaw
psbaang
psbalay
psbale
psbeyax
psbgurah
psbiyax
psblaiq
psblayaq
psblayun
psboru
psbraiq
psbu
psbuc
psbug
psburah
psdalih
psdaling
psdangi
psdaran
psddangi
psdehu
psdeyngki
psdhu
psdhug
psdhun
psdhuq
psdhuwan
psdka
psdkaan
psdkanan
psdkanun
psdkaun
psdungus
pseanak
pseasug
pseega
pseengun
pseli
psepuan
psepuun
psetuq
pseun
pseupu
pseyga
psgaaw
psgagun
psgao
psgarang
psgdhug
psgeegan
pshdug
pshiyug
pshjil
pshlayun
pshnan
pshnang
pshnuk
pshuya
psicu
psilin
psiling
psipaq
psisil
pska
pskadi
pskagul
pskari
pskaya
pskbiyax
pskeiyux
pskingal
pskingan
pskiya
pskluwi
pskmalu
pskngalan
pskngalun
pskrac
pskraya
psku
pskuan
pskuraw
pskuri
pskuxul
pslaban
pslhayan
pslhayun
psli
pslian
pslingan
psliyan
psliyun
psllutuc
psltudan
psltulan
psluban
psluhay
pslutuc
pslutut
psluun
psluwa
psmalu
psmeyah
psmiyah
psmiyan
psmnetur
psmyahun
psna
psnagun
psnakan
psnaki
psnakun
psnanak
psnaqan
psnaqun
psnaxun
psnegul
psngan
psngayal
psngayan
psngayun
psnuyuk
pspais
psparu
pspaux
pspayis
psping
pspingan
pspngan
pspoxan
pspoxun
pspriq
pspruq
pspu
pspuan
pspuc
pspug
pspui
pspun
pspung
pspuruq
pspuun
pspuung
pspuwan
psqama
psqaras
psqmaun
psqrinuc
psqrung
psquri
psrabang
psrading
psramal
psraman
psriyux
psrmalun
psrngaw
psru
psruan
psrurul
psruun
psruwa
psruway
psrwai
psrwanun
psrwaun
psseengun
psseli
pssengan
pssengun
psseung
pssgun
pssicu
pssiling
pssli
psslian
pssliyan
pssliyun
pssruwa
pstalan
pstalang
pstali
pstama
pstena
psteqan
psthiyaq
psthyaqan
pstlaway
pstlxun
pstmaqan
pstmay
pstnaan
pstnaun
pstnay
pstotuy
pstqan
pstqi
pstqun
pstrengan
pstrngan
pstrngun
pstrung
pstuq
psturung
pstutuy
psu
psuda
psugun
psuktaun
psumu
psuna
psupu
psuruwa
psuupu
psuupuwan
psuwan
pswaaw
pswae
pswau
pswaun
pswayan
pswayay
pswiwil
psyaun
ptaalix
ptaapa
ptaayus
ptalang
ptalax
ptan
ptas
ptasan
ptasantgbilaq
ptasir
ptasun
ptbalay
ptbale
ptbeun
ptbeyax
ptbiyax
ptbrinah
ptburux
ptcamac
pteetu
pteumal
pteura
ptgesa
ptgsa
pthangan
pthangun
pthdil
pthei
ptheruy
pthma
pthnganun
pthuun
ptingun
ptkimax
ptlaman
ptlhayan
ptloong
ptloongan
ptloung
ptlutuc
ptmay
ptmayan
ptna
ptngahan
ptonfa
ptotuy
ptpaan
ptpatas
ptpusu
ptqita
ptqliyan
ptqraqil
ptraguh
ptraqil
ptrawah
ptreybi
ptrima
ptsiyo
pttingan
pttoyan
pttuku
ptuayus
ptucing
ptuhuy
ptuku
ptumal
ptungan
ptura
ptuting
ptutuy
ptuuman
ptuura
ptwaya
ptyasan
ptyexan
ptype
ptyusan
pu
pua
puar
puarcyasu
publique
puca
pucan
pucang
pucinafaso
pucinahwaso
pucing
pucngsi
pucu
pucunug
pucyaw
pucyeymong
puda
pudu
puerto
puertorriquen
puhara
puhuk
pujurey
puk
puka
pukan
pukancung
pukerey
pukla
pukpuk
pukpurac
pukung
pulan
pulantayar
pulayenlale
pulaymi
puljetji
puluth
puman
pumen
pumn
pumun
pun
punate
pung
pungcang
pungkang
pungluban
pungpung
pungu
puniq
puniri
punpu
punti
punto
punu
punuh
puping
pupinging
pupu
pupuersi
puqan
puqi
puqul
puqun
pura
puracya
purakansa
purako
purana
purasa
purawan
purays
purayun
purciba
pure
pureten
purge
puri
puricrun
purinsipi
purinsipitaw
puripiyaci
purisayr
puristina
purongti
puru
puruc
puruj
purungti
purupeyra
purusayer
purusayr
purusu
purut
puryeytyeyn
pus
pusa
pusan
pusen
pusetu
pusi
pusisyueysyaw
pusongpura
pusu
pusubay
pusubi
pusucineyya
pusupnyahan
pusyang
putan
putapes
putapesu
putaw
putawya
putewa
putin
puting
puto
puton
putong
putting
putuey
putuh
putung
putuwe
putwe
putwey
puuda
puuyu
puwa
puwaya
puyan
puyaq
puyas
puyuma
pwakyaw
pwaluk
pwaya
pwela
pwla
pwo
pwocay
pwocayyey
pwoci
pwoswan
pwoukwan
px
pxal
pxalan
pxthumb
pyaan
pyahan
pyahi
pyahun
pyanan
pyasa
pyasan
pyasun
pyaw
pyawcecen
pyawcyang
pyawpn
pyawpo
pyawyeyn
pyexun
pyeyn
pyeynci
pyeynsing
pyoging
pyongyang
pyqeyaq
pysan
pyu
pyugan
pyusan
q
qa
qabang
qaboos
qahun
qaiya
qalang
qalhangan
qalu
qalux
qan
qang
qantabang
qapal
qapan
qapedang
qapi
qapur
qaqay
qaraw
qarux
qasapuran
qasapuranqa
qasiya
qasiyanwo
qataq
qatar
qatara
qawku
qawqaw
qay
qaya
qbahang
qbhangan
qbhangi
qbhangun
qbheni
qbhni
qbhuni
qblhangan
qbliqan
qbowlung
qbrangan
qbrangun
qbsiya
qbsiyaq
qbsran
qbsuran
qbsurang
qbsyaqan
qbubul
qbubur
qbulic
qbulit
qcahun
qcahur
qchur
qcilus
qcinuh
qcurux
qdalan
qdhuq
qdiraw
qdisan
qdowriq
qdriqan
qdriqun
qdrux
qduan
qduda
qduri
qduriq
qduun
qduwan
qe
qeepah
qekang
qelung
qerwoaysiya
qeting
qetwoarwan
qeycing
qeyqaya
qgiyaq
qhabu
qhdil
qhdin
qhding
qhdu
qhduan
qhduun
qheding
qhedu
qhini
qhjil
qhjing
qhlangan
qhlangun
qhuni
qhuqil
qiqaya
qiri
qita
qlahang
qlahi
qlangan
qlapaw
qlapo
qlgan
qlhangan
qlhangi
qlhangun
qlingun
qliwaq
qliyan
qlliyan
qlngun
qlqahan
qlubung
qluhuy
qluli
qluluy
qlung
qlupas
qluri
qlwaan
qmada
qmamas
qmangaw
qmango
qmasan
qmatar
qmbahang
qmbliqan
qmburang
qmeepah
qmerac
qmhdu
qmibuh
qmiri
qmita
qmlahan
qmlahang
qmlangan
qmlawa
qmleqah
qmnita
qmnlahang
qmnlhangan
qmnpah
qmnuqih
qmpah
qmpahan
qmpringan
qmpuruh
qmqah
qmqur
qmquran
qmraq
qmremux
qmriqu
qmrqun
qmsiya
qmtaan
qmuru
qmuyux
qnabil
qnabin
qnagan
qnalang
qnapang
qnaqah
qnaqih
qnaras
qnawal
qnawan
qnay
qnbahang
qnbhangan
qnblayaq
qnbliqan
qnbowqax
qnbsiyaq
qnbsyaqan
qnbsyaqn
qnburang
qndadax
qndahang
qndheriq
qndheyan
qndhqi
qndhuq
qndhyaqan
qndisan
qndriqan
qndsaan
qnduriq
qnedis
qneepah
qnepah
qngqaya
qnhangan
qnhbrawan
qnhdeyan
qnhduwan
qnhlangan
qniri
qnita
qnjisan
qnkhangan
qnlahan
qnlahang
qnlahangan
qnlang
qnlangan
qnlhanga
qnlhangal
qnlhangan
qnlian
qnliyan
qnlliyan
qnlqilan
qnluli
qnluluy
qnmasan
qnnaqah
qnnriqu
qnpah
qnpahan
qnpringan
qnpruhan
qnpuran
qnqahan
qnqan
qnqaya
qnqihan
qnqlhangan
qnquan
qnqugu
qnqur
qnquran
qnquwan
qnragan
qnrapan
qnrinuc
qnriqu
qnriyan
qnrqilan
qnrquran
qnsthyaqan
qntaan
qntan
qnthran
qnthuran
qnthyaqan
qnuqu
qnuyux
qnyaxan
qnyexan
qnyutan
qnyuxan
qolic
qolu
qoran
qoray
qori
qou
qow
qowgan
qowlic
qowlit
qowqaw
qowsun
qoyaw
qpah
qpahan
qpahang
qpahi
qpahun
qpanu
qpatur
qperas
qphun
qpiyun
qpras
qpringan
qpruhan
qpupu
qpuran
qpuring
qpuruh
qqahan
qqaras
qqaya
qqbheni
qqbhni
qqbowlung
qqbsuran
qqcurux
qqduda
qqeepah
qqeya
qqhini
qqhlangun
qqhuni
qqita
qqiya
qqlahang
qqlhangan
qqlhangun
qqlian
qqmita
qqmlahang
qqnawal
qqpah
qqpahan
qqpahun
qqphun
qqqiya
qqraqil
qqrasan
qqrasun
qqri
qqridil
qqridin
qqringan
qqsiya
qqsurux
qqtaan
qqtan
qqtanan
qqtaun
qququq
qquran
qquri
qquyux
qqyexan
qqyuxan
qramay
qrapan
qrapi
qrapun
qraqil
qrari
qrasan
qrasun
qrbuq
qreti
qrgi
qridil
qridin
qrijil
qringan
qrinuc
qriyan
qriyun
qrngul
qrngun
qrngung
qrpuhan
qrtibun
qruciq
qrul
qrunang
qrung
qsahur
qsiay
qsiya
qsiyaan
qsiyan
qsiyaq
qsiyat
qstuq
qsurux
qtaai
qtaan
qtahi
qtai
qtan
qtanan
qtapih
qtaun
qtayi
qtehur
qthur
qtinuh
qtum
qu
quang
quarran
quci
qucun
qudung
que
quebec
quhing
quinn
quli
qulic
qulit
qulu
qulun
qulung
qumi
qung
qungcyun
quoc
quqi
ququ
ququy
qur
quran
quri
quric
quru
qurug
qus
qusi
qusiya
quti
quwaq
quwarux
quxun
quy
quyax
quyu
quyux
qwang
qwangcan
qwangyey
qwarux
qwayux
qwey
qwo
qyaan
qyanan
qyanun
qyexan
qyiqaya
qyqay
qyqaya
qyqeya
qyuqeya
qyutun
qyuws
qyuxan
qyuxi
r
ra
raa
raarua
raaruwa
rabang
rabi
rabu
raburada
racu
racyun
radax
radev
rading
radio
radiyo
radu
rafael
raga
rah
raha
rahaw
rahman
rahmon
rahoman
rahul
rahun
rahuq
rahur
rai
raimonds
rainier
rajaonarimampianina
rajing
rajoelina
raka
rakasang
rakaw
raki
rako
rakotoarimanana
raku
ralph
rama
ramateputi
ramil
ramus
ran
rana
ranaq
rancyo
rancyotwe
rancyotwey
rang
rangaw
rangay
rangciyo
rangman
rangporapang
ranmu
ranniro
rante
ranyang
ranyi
ranyu
ranyusyang
rapate
rapic
rapit
rapuran
raputaw
raqic
rard
ras
rasmei
rata
ratanakosin
rate
rather
rating
ratingmeycow
ratingun
ratoweyya
ratu
ratuc
ratwoweyya
ratyawc
rau
raus
rausuto
raw
rawa
rawah
rawar
rawkong
rawkongtang
rawnung
rawting
rawtoka
rawtong
rawtongri
rawtongtang
rawtorupu
rawtung
ray
raya
raybireyya
rayin
raymond
rayn
rayow
raypijweyya
rayswoto
rayswotwo
rayung
rayyi
rayyisyang
rbagan
rbangun
rbawan
rbeyuk
rbgan
rbgun
rbnaw
rbngun
rbqan
rbuq
rbuqil
rcilung
rcruco
rcuhan
rcuhun
rdaan
rdan
rdax
rdc
rdingan
rdrudan
rduan
re
reason
rebelo
rebu
recep
reconstruction
rectangle
red
redirect
refugees
regia
regio
region
regional
regions
rehak
rehaq
rehe
rehoko
rekisi
rel
relations
remengesau
remon
remong
remux
ren
renai
renaisiyang
renaysyang
renderstartbox
rene
reng
rengac
rengo
rengpang
renhemincutan
renho
renhocenghu
renhoko
renhokuo
renhokwo
renhowangko
renhukuo
rening
renming
renmon
renmong
renpan
renpang
renpangcunghu
rensay
renwun
renyu
renzi
repang
report
representatives
repu
republic
republika
require
resort
response
restaurant
results
ret
rete
return
reuan
reuven
rey
reyang
reyctnstng
reycyo
reyeyn
reyhe
reyhekwo
reyj
reykoyaweyko
reyn
reynbang
reyngga
reynh
reynhe
reynhekwo
reynhkuo
reynhkwo
reynhtakongkwo
reynmngtang
reynmong
reynmung
reynpan
reynpang
reynyow
reypang
reywa
rfmf
rgagan
rgrig
rgrigan
rgrigaw
rhak
rhengo
rhengun
rhenuk
rhine
rhiq
rhngaw
rhngun
rhnuk
rhu
ri
rian
riau
riaw
riawni
riawpote
riawpoteweyr
ribiya
ribo
ribu
ribun
ric
rica
ricah
riccardi
ricing
ricngkuy
ricngwan
rico
ricya
rida
ridaw
ride
riduy
riebeeck
rifa
rifacen
rifaciko
rifacikow
rifacyueyn
rifafe
rifu
riga
right
rihan
rihay
rihwa
rihwacweng
rihwacweyn
rihwahuy
rihwang
rihwangmi
rihwante
rihwanto
riji
rijikay
rijose
rika
rikisi
riko
rikong
rikongseyen
riku
rikuwangyaw
rikwo
rilu
rima
rimaso
riming
rin
rinah
rincan
rincang
rincyara
ring
ringcu
ringgo
ringkwo
ringnan
ringsoyey
ringsu
ringsukwan
ringti
ringyu
rinhuy
rinji
rinpi
rinpopo
rinqen
rinqwang
rins
rinsng
rinswanyeyn
rinwucyu
rinzi
rio
ripanen
ripanun
ripiya
ripoing
ripu
riqan
riqi
rireh
riren
rireyh
ririh
ririyungse
rirungsan
riryang
ris
risah
risan
risaw
risen
rishwey
risi
rising
risingcun
riso
risu
risuhuwe
risuhuy
risupun
risyeyn
risyeync
risyeyncu
ritang
ritaw
ritawwan
ritongsan
ritu
rituk
riukuey
riun
river
rivera
rivlin
riwoniya
riwu
riwusi
riya
riyang
riyat
riye
riyey
riyeyka
riyeypaya
riyi
riyising
riyo
riyohengse
riyoye
riyu
riyuhence
riyuisetitay
riyung
riyutan
riyutang
rkagan
rkelic
rklic
rklit
rklu
rkrit
rmaban
rmabang
rmading
rmaka
rmala
rmangaw
rmawah
rmawiq
rmbung
rmdax
rmdu
rmebu
rmengac
rmengo
rmgerun
rmgrig
rmice
rmicuh
rmigaw
rmigo
rmilih
rmimu
rmingaw
rmingo
rmiqaw
rmirih
rmisuh
rmiwan
rmiwau
rmiwaw
rmiyaw
rmiyax
rmiyux
rmnaw
rmnengo
rmngac
rmngaw
rmnngaw
rmqun
rmri
rmriq
rmtug
rmuba
rmudaw
rmugaw
rmun
rmutu
rmuun
rmux
rmuxan
rmuyuk
rmweri
rnaan
rnaaw
rnabaw
rnbegan
rnbulan
rncuhan
rnecux
rnengaw
rnengo
rngac
rngagan
rngagun
rngangan
rngangun
rngaw
rngawan
rngayan
rngcan
rngecux
rngedi
rngiyan
rngiyun
rngji
rngsux
rnisuh
rnmi
rnmuxan
rnngaw
rnrihan
rnrnngan
rnsuhan
rnyawan
ro
road
robert
robo
roca
rocang
roch
rock
rocu
rodolfo
rodri
rodrigo
rodriks
rodux
rohu
roko
rokon
roma
roman
romania
romaniya
romansu
romatikwo
romayweyti
rome
romu
ron
ronatu
rong
rongsyo
roosevelt
ropos
ropoto
ros
rosamupa
rosang
rosingya
rossiar
rosu
rosuhuru
roto
rotongcyang
rotsiya
rotterdam
rotuma
rou
rouhani
route
row
rowan
rowma
royal
rpun
rqbux
rqda
rqebux
rqeda
rqenux
rqerux
rqling
rqngul
rqnux
rramu
rrbawan
rrbuq
rrcilung
rrduwan
rrengo
rrigan
rrigaw
rrihan
rrima
rriqi
rriqu
rrisaw
rriso
rriwaw
rriyung
rrmigaw
rrmigo
rrmiwaw
rrngagun
rrngaw
rrngecux
rrodux
rru
rruciq
rrudan
rrulu
rrumiku
rrupni
rruru
rrwaan
rseejiq
rsemo
rseno
rsrisaw
rsriso
rsuhan
rtu
rtuc
ru
ruak
ruan
ruanta
ruarapa
ruba
rubas
rucantuy
rucau
rucaw
ruciling
rucilung
rucin
rucing
ruciq
ruciyun
ruco
rucu
rucung
rucyun
ruda
rudah
rudan
rudaw
rudo
rudu
rudux
rug
ruhwan
rui
ruicen
ruis
ruiu
rukai
rukanks
rukansk
rukanwiar
rukasnko
rukay
ruke
rukeswo
ruku
rukudaya
rukwa
rulu
rulung
ruma
rumaban
ruman
rumen
rumengo
rumiku
rumirih
rumu
rumul
rumun
rumungpa
rumutu
run
runan
runba
rung
rungay
runge
rungeung
rungtacu
runpati
runtan
runten
runtun
runu
runug
runun
rupa
rupana
rupanke
rupeyko
rupianna
rupu
rupun
rupung
rupurin
rupuring
ruqah
rurebu
ruru
rurunswomakweykang
rus
rusaka
rusan
rusang
rusaw
ruseno
rusnpaw
russia
russian
rusuq
rusutawey
rutiq
ruto
rutocong
rutu
rutuc
ruun
ruwa
ruwam
ruwan
ruway
ruways
ruwen
ruyeysyang
ruyi
ruyis
rwaan
rwahan
rwahun
rwan
rwanan
rwance
rwanda
rwang
rwanun
rwen
rwentan
rweri
rwo
rwoanta
rwofu
rwoma
rwoman
rwomatikwo
rwopeys
rwopitwo
rworang
rworangkapira
rwori
rwow
rwu
ryang
ryangpan
ryangseytang
ryangyen
ryanyen
ryaw
ryawkwo
ryawri
ryaxan
ryenpan
ryenpang
ryeycihumi
ryeyn
ryeynhe
ryeynhekwo
ryeynho
ryeynhoko
ryeynhokwo
ryeynhpang
ryeyning
ryeynmong
ryeynpang
ryeynsay
ryeynsi
ryeynswo
ryeypyaw
ryeytaw
ryeyyu
ryi
ryo
ryocwan
ryocyo
ryohwang
ryokang
ryoko
ryokyo
ryoniwang
ryori
ryosing
ryow
ryowang
ryoyu
ryu
ryuco
ryucow
ryuey
ryus
ryusu
ryutang
ryuxan
ryuxi
ryuxun
ryuyo
ryuyow
ryuyowyey
ryuyoyey
rywynmong
rz
s
sa
saa
saadux
saan
saang
saangal
saar
saarwatuo
saarweya
saasu
saat
saate
sabah
sabak
saci
sacia
saco
sadipongan
sadiq
sadu
sae
saeima
sag
sagas
sahara
saharasamo
saharateras
saharawey
sahari
sahu
sahucyaw
sahug
sahwang
sai
said
saifuddien
saiku
saint
saisyat
sakamuni
sakci
sakin
saking
sakiraya
sakizaya
sakosn
sakura
sakus
salad
salan
saliha
salitung
sall
salman
salt
salu
salvador
salvatore
salvini
sama
samac
saman
samarhan
samat
samaw
samboja
same
sameykoryeyro
sami
samleng
samo
samoa
samoya
samu
samucuho
samuo
samwo
san
sana
sanan
sancag
sancakeng
sancan
sancecun
sancen
sanchez
sanci
sancipa
sancu
sancwang
sancweyn
sancyacow
sancyawco
sancyawcow
sancyueyn
sancyun
sandbox
sandboxes
sandboxlinks
sandboxpreload
sandboxtitle
sanfuta
sang
sangal
sangas
sangay
sangcecun
sangcipa
sangcopu
sangcwopu
sangcyang
sangey
sangfuta
sanggiying
sanghaw
sanghay
sanghaytikwo
sanghwe
sangiueyn
sangkhum
sangkoar
sangmay
sangmenten
sangna
sangpiya
sangpu
sangsri
sangsu
sangsufayen
sangsuwanyeyciya
sangsyaw
sangsyuey
sangu
sangwang
sangwu
sangye
sangyey
sangyow
sangyueyn
sanhai
sanhari
sanhay
sanhu
sanhucyaw
sanhutaw
sani
sanka
sankaku
sankio
sankiyo
sankyo
sanlankang
sanmay
sanmin
sanmincuyi
sanmingri
sanminri
sanmite
sanni
sanpa
sanpawrong
sanpincen
sanpisihe
sanrankang
sanri
sans
sansaru
sansing
sansingcng
sansingri
sansiya
sansu
santa
santay
santepheap
santi
santiago
santimnsyang
santimung
santong
santos
santu
sanun
sanusi
sanwan
sanyau
sanyaw
sao
sapa
sapac
sapah
saparmurat
sapas
saping
sapisihe
sapo
sapuh
sara
sarad
saraho
sarajevo
sarawak
sarawey
sareka
sargsyan
sari
sariwsiw
sariya
sarmas
saronika
sarraj
sars
sarwa
sarwatwo
sasaljak
sasan
sasangtora
sasaw
sasemukamu
sasi
sasin
sasing
saso
sassing
sassou
sasu
sasukocoun
sat
satamu
satang
sate
satellite
sating
satingniya
sato
satu
saudi
sauli
saun
saunpi
sauti
sautialapo
sautiarapo
savarin
saviki
saw
sawa
sawcyang
sawna
sawsu
saxan
saxon
say
saya
sayan
sayang
sayarweya
sayarweyya
saycu
sayhu
sayi
saying
sayinsanta
sayit
sayite
saykawreko
sayku
saylayyefu
sayn
sayneciyaar
sayneycyar
sayng
saypeyniko
saypuratayku
saypurosu
sayrayefo
sayrua
sayrweya
sayrweyya
sayryoku
saysaronici
saysaroniki
saysayit
saysiar
saysiyacu
saysiyat
saysya
saysyac
sayti
sayunccung
sayung
sayur
sbalay
sbale
sbangan
sbari
sbarig
sbaruy
sbatas
sbayan
sbbarig
sbburah
sbege
sbetaq
sbeyuk
sbgay
sbghuran
sbgihur
sbhuran
sbicpeyrkn
sbiki
sbiq
sbirac
sbirat
sbiyaw
sbiyuk
sbku
sbkuy
sblaiq
sblaqi
sblaqun
sblayaq
sblayiq
sblayun
sbleqan
sblequn
sbliqan
sbliqi
sbliqun
sblxan
sblxun
sblyaqan
sbnawan
sbox
sbrahan
sbrahun
sbreenux
sbrigan
sbrigun
sbrinah
sbrnahun
sbs
sbstas
sbsuk
sbtan
sbtun
sbuc
sbukuy
sbunaw
sburaw
sbuway
sbwihur
sc
scan
scancinci
scang
sccyun
sce
scebu
scen
scenery
scenice
sceypey
schafik
school
schwarzenberg
schweiz
sci
scie
science
scimu
scinun
scmeyncyo
scn
scng
sco
scong
scotland
scribunto
scugan
scuqi
scwangri
scyaru
scyey
scyeyn
sdagan
sdahan
sdakar
sdalan
sdalih
sdalin
sdaling
sdamac
sdamux
sdan
sdanga
sdara
sdarin
sdayaw
sdayo
sdharan
sdhegan
sdhiyaq
sdhmaun
sdhmawan
sdhmhaw
sdhriq
sdhrus
sdhuun
sdhuwan
sdiqun
sdiyal
sdiyan
sdlalih
sdlihan
sdmhaw
sdngu
sdoi
sdooyan
sdowriq
sdseejiq
sdu
sduan
sdudul
sduduy
sduman
sduriq
sdurun
sdurux
sduuy
sduwi
sdyapan
se
sea
seal
sealand
seangal
seapa
search
searweyya
seasu
seasug
sebastian
sec
sece
secen
seci
secretary
secricu
sector
secu
security
secyaw
secyu
sedan
sediq
sediqtnualang
sediqun
sedki
see
seedal
seedan
seeddiq
seedig
seediq
seedqi
seeduq
seeediq
seeiq
seeiso
seeji
seejia
seejiq
seejiqan
seejiqknxalan
seejiqun
seelih
seeliq
seeluk
seemisan
seengan
seeniq
seenu
sefu
sega
segak
segolene
seho
sehu
sehuey
sehueycui
sehueytang
sehuwe
sehuweytang
sehuy
sehuycuyi
sehwa
sehwangtang
sehwe
sehwey
sehweycuyi
sehweycuyice
seiyah
seji
sejiq
sejiqan
sejiqun
sekai
seken
sekinin
sekiyu
sekoleq
sekuy
semento
semi
semnan
semon
sen
sena
senate
sencang
senci
sencicen
sencyawc
senegal
senfa
senfafaan
seng
sengtaw
senhwa
senkio
senkiyo
senkiyow
senkyo
senmihu
seno
senri
senro
senrowan
senscui
sensing
sensu
sensung
sentaifa
sentaw
sentay
senti
seomjingang
seoraksan
sepa
sepac
sepag
sepat
sepey
sepin
september
sepuy
serawaray
serbia
serbian
seretse
sereys
sergio
serhweycuyi
seri
serifu
sering
serng
sero
serowe
serra
service
seryaw
serzh
ses
sesi
sesu
sesyaw
set
seta
setan
seting
seuda
seuhu
seuji
seumal
seung
seupu
seusa
seuxal
seuxan
sevastopol
seveng
sexual
sexwey
sey
seydang
seyen
seyhi
seyhing
seyhu
seyhwey
seyi
seyji
seyjicya
seyjiswey
seykay
seykaypey
seykey
seykeys
seykeysu
seyki
seykining
seyko
seykyo
seymong
seymung
seyn
seync
seyncang
seynfa
seyng
seyngding
seyngkyo
seyngkyotumn
seyningtaw
seynkio
seynkyo
seynping
seynpingtwey
seyri
seyryo
seysan
seysay
seyting
seyyi
sfa
sfaciko
sfacyueyn
sfapu
sfatisi
sga
sgaalu
sgaaw
sgan
sgasuc
sgcuqi
sgealu
sgeyu
sggulan
sgimax
sgnaah
sgnama
sgpaah
sgpurug
sgsapat
sgtange
sgun
sh
sha
shabdrung
shaduc
shah
shang
shangan
shaqun
sharjah
sharpe
sharshenovich
shaviyani
shavkat
shaya
sheikh
shell
sheng
shengak
shiga
shitan
shiti
shiya
shiyug
shiyun
shjil
shjilan
shlayan
shlayay
shlbun
shmu
shmuk
shngian
shngii
shngiyun
shop
shoufeng
should
shovel
showdbtable
shown
showpage
shpure
shrus
shtranan
shtur
shu
shuey
shueycui
shuqil
shushu
shuya
shwa
shwabu
shweyyeyn
si
sia
siakan
sian
siancn
sianfa
siang
siankan
siankancia
siankantoci
siansue
siar
siaukan
siaw
siawriay
siba
sibaw
sibus
sican
sicang
sice
sici
sicily
sicing
sicinpin
sicinping
sico
sicu
sicyaswo
sida
sidi
sidong
sien
sienfa
sierra
sieyn
sieynfa
sieyngfa
sifa
sifan
sifang
sife
sifey
sifeyy
sight
sightseeing
sihamoni
sihu
sihwang
sihwariya
sihwe
siida
siiga
siimah
sijakaro
sika
sikan
sikasso
sikihiki
siko
sikotai
sikwang
sila
silan
sili
siling
silir
siljevavav
silung
sim
simalayasan
simaraya
simi
simin
simon
simong
simu
simung
simuye
sin
sinaipantau
sinan
sinaw
sinay
sinaypantaw
sinbung
sincaw
since
sincgn
sinci
sincian
sinciapo
sinciku
sincineya
sincineyataw
sinciyapo
sincncankwan
sincng
sincu
sincunci
sincuncifa
sincungcen
sincungci
sincunghu
sincungsyang
sincungyen
sincusen
sincuseyn
sincyang
sincyapo
sincyaw
sindy
sine
sinew
sinfaransi
sing
singapore
singbu
singbung
singbungbu
singcen
singceng
singcengci
singcgn
singci
singcineya
singcing
singciyapo
singcn
singcncyu
singcng
singcngcweyn
singcngcyu
singcngcyueyn
singcngcyuhwa
singcnghwa
singcngsin
singcngweyueynhwey
singcngyeyng
singco
singcu
singcun
singcung
singcungcen
singcungci
singcusen
singcusien
singcusiyen
singcwang
singcyaw
singcyawtu
singfa
singgakuying
singgapore
singhu
singhwa
singkang
singkangseyng
singkwang
singlocung
singpawey
singre
singrecun
singrings
singripay
sings
singsa
singse
singsey
singseynfa
singsi
singsing
singsiporiya
singsng
singsu
singsung
singtay
singteyn
singtong
singtongtan
singwun
singyasu
singyeysu
sinhan
sinhebulidi
sinhu
sinhwase
sinica
sinjia
sinjya
sinjyo
sinkan
sinkang
sinke
sinkuwang
sinkwan
sinkwang
sino
sinpawey
sinpeysu
sinporasosan
sinpung
sinpurancuwe
sinre
sinri
sinrocun
sinsa
sinsefa
sinsey
sinsi
sinsin
sinsing
sinsu
sinsuci
sinsukosiya
sinsyeyn
sintaybu
sinteyn
sintong
sintu
sintyeyn
sinvi
sinwangyang
sinwun
sinwunpaw
sinwuntay
sinwuryu
sinyi
sinyisyang
sinyo
sio
sion
siongyali
sionyali
sionyari
sioruancun
siow
sipa
sipan
sipangya
sipanya
sipanyataw
sipaw
sipaya
sipazi
sipe
sipetifang
sipo
siponey
siporay
siporiya
sipu
siputifang
siqa
sir
sira
sirahwa
sirake
sirakesay
sirannicya
sirantaw
siraya
sire
sirey
siriar
siriay
sirin
sirir
sirisena
siriya
sirleaf
sirweyaw
siryaw
siryey
sisa
sisahara
sisakwo
siseki
sisi
sisil
sisili
sisiritaw
sisu
sita
sitay
site
sito
sitong
sitorataw
sits
situng
siu
siuhay
siulang
siwa
siwan
siya
siyac
siyakurow
siyan
siyanciyaw
siyang
siyat
siyato
siyatu
siyaw
siyawse
siyayun
siyayuncun
siyayunri
siyen
siyennuy
siyeyn
siyeyncaypun
siyeyncaywun
siyeynfa
siyo
siyocing
siyongyari
siyonyari
siyoran
siyorancun
siyoruwan
siyu
siyuey
siyunta
siyuran
siyurwan
siywojwan
sji
sjiq
sjiqan
sjiqun
sjn
sk
ska
skaan
skadi
skahing
skama
skan
skanan
skang
skangki
skanki
skari
skaru
skaw
skawpiyey
skaya
skayak
skbiyax
skciyuk
skdakan
skdakar
skdesun
skdi
skdiyun
skeelug
skela
sken
skeng
skerrit
skesik
skeyng
skeynging
skgulan
skgulun
skikun
skila
skingal
skinin
skinning
skita
skiya
skkingal
skklawa
skkru
sklaan
sklawa
skluwi
sklwiun
sklwiyan
sklwiyun
skmalu
sknakun
sknaxun
sknexan
sknexun
skngalan
sknuwan
sknux
sknxan
sknxun
skoki
skpahung
skpudung
skrabi
skraki
skrana
skrayan
sksik
skssik
sktama
sktan
sktengi
skuan
skulan
skuudus
skuun
skuwan
skuxul
skuy
skwan
skwayun
skxlun
skyaan
skyaun
skyline
sla
slabu
slacic
slafu
slafujen
slafuyucu
slagu
slak
slalih
slamaw
slang
slaq
slaqi
slavic
slawa
slayan
slayun
sleexan
slengo
slgelu
slhayan
slhayun
slhbnun
slhbun
slian
slikaw
slin
slingan
sliq
sliqan
sliqi
sliqun
sliyan
slluhe
slmadac
slmaqun
slmeun
slmeyan
slmuun
slmuwan
sloniya
slovakia
slovenia
slovenija
slowtak
sluan
slug
sluhay
sluhe
slui
slumeun
slumeyan
slutuc
sluun
sluwan
slwilun
slwofak
slwok
slwoweyniya
slxan
smahug
smaiu
smalak
small
smalu
smalusow
smangus
smangusmap
smapaw
smapuh
smaqic
smatang
smbari
smbarig
smbbarig
smbig
smblaiq
smbrangan
smbu
smciyuk
smcudu
smdaku
smdalih
smdaling
smdamat
smdayak
smdehu
smdhu
smdhung
smdiyal
smdiyan
smeele
smeeliq
smeelu
smeisug
smeisur
smeku
smeli
smeliq
smen
smepu
smesun
smeun
smeyn
smgaaw
smhangan
smhdu
smhiyi
smhulis
smhuwe
smicu
smiicu
smiisug
smikul
smiling
sminaw
smino
smipaq
smisu
smisug
smith
smito
smiyan
smiyuk
smiyus
smka
smkagul
smkagun
smkaul
smkaun
smkaway
smkela
smkesik
smkila
smkrig
smksik
smku
smkul
smkuxul
smkuxun
smlaan
smlanan
smlay
smli
smliq
smlu
smluan
smlug
smluhay
smluhe
smlun
smluun
smluwa
smluwan
smluwi
smluy
smlwa
smmalu
smmaru
smmesn
smmesung
smmlun
smnalu
smneeru
smnegul
smnegun
smneru
smnetun
smnetur
smngari
smngegun
smniling
smnipaq
smnlaan
smnlanan
smnlay
smnluwan
smnnetur
smnriyu
smnru
smnruwa
smntuku
smnul
smparu
smpi
smpu
smpug
smpung
smpusal
smpusu
smpuwan
smqaras
smqaya
smqeya
smqic
smqri
smquri
smrading
smrai
smraki
smratuc
smriq
smriqan
smriyu
smriyux
smruwa
smsamat
smseman
smsemun
smsik
smsung
smtali
smtama
smtangan
smtasil
smterung
smtrung
smtuku
smtunux
smturung
smudal
smudan
smulu
smuluhay
smumalu
smumaru
smumeyan
smunegun
smunetun
smung
smurus
smuruwa
smuyuq
smwayay
sn
snaaxan
snadu
snagan
snagun
snakan
snakun
snala
snalu
snanak
snapaw
snapo
snarux
snaw
snaxan
snbalay
snbang
snbarah
snbari
snbbarah
snbbari
snbburah
snbburuh
snbereh
snberih
snbeyah
snbeyax
snbeyhing
snbhuran
snblayaq
snblayaw
snbleyaq
snbliqan
snbragan
snbrahan
snbrinah
snbrxan
snbu
snbuan
snbuc
snburah
snbut
snbuyas
snca
sncan
snci
sncing
sncinsu
sndalan
sndali
sndarin
sndayak
sndeeda
sndha
sndhegan
sndhu
sndhug
sndhuwan
sndiyal
sndiyan
snduray
snduwan
snduyan
sndxgal
sneasug
sneayus
sneegul
sneelu
sneengan
snegaaw
snegasut
snegil
snegin
snegul
snegun
sneli
snepu
sneru
sng
sngali
snganna
sngantereys
sngari
sngayan
sngayang
sngbu
sngcan
sngcang
sngci
sngcng
snghun
snghwen
sngjn
sngkaro
sngken
sngkkingal
sngkonghuy
sngmarinwo
sngmarinwos
sngmating
sngmu
sngpiyey
sngri
sngsarwatwo
sngsyasu
sngtangal
sngtangan
sngtaw
sngtiyako
sngtwomey
sngtwomeypurinsipi
sngtwomeytaw
sngun
sngwu
sngyuryu
snhei
snheyi
snhi
snhian
snhii
snhiyaan
snhiyan
snhiyi
snhiyun
snhlayan
snhuya
snii
sniling
snit
snjiyan
snkagul
snkagun
snkaul
snkaun
snkawas
snkaway
snkaya
snkgulan
snkingal
snkkingal
snklwiun
snklwiyan
snkn
snkraya
snkrayan
snku
snkuan
snkulan
snkuwan
snkuxul
snkyaan
snlaan
snlayan
snleesi
snlhaya
snlhayan
snlian
snlingan
snliqan
snliyan
snlliyan
snlmean
snlmeyan
snlu
snluan
snluhay
snluhayan
snluun
snluwan
snmalu
snnaaxan
snnaycwan
snnegun
snnii
snolan
snolun
snpagan
snpahan
snparu
snpega
snpegan
snpengan
snpeyyah
snpgan
snpitepaw
snpiyah
snpngan
snpruwan
snpsan
snpu
snpuaan
snpual
snpuan
snpug
snpuhan
snpung
snpusal
snpusan
snpuun
snpuwan
snpwan
snqaras
snqaya
snqiya
snqriyan
snqtan
snqulaya
snquri
snrabaw
snrading
snramus
snrdingan
snri
snriyu
snrnecux
snrnu
snrnuwan
snrtiqan
snru
snruan
snruti
snruwa
snruwan
snrwaan
snrwanan
snsaw
snseman
snsemun
snsiqa
snslian
snslingan
snsliyan
snsnaw
snsngmarinwo
snstkuwan
snsugan
sntagan
sntali
sntama
sntangan
sntaring
snterun
sntheya
snthyaqan
sntikuh
sntkeyan
sntkuwan
sntlxan
sntmanan
sntmuwan
sntrngan
sntuku
sntunux
snturung
sntyeyn
snu
snub
snuhei
snuheyi
snuhiyan
snul
snun
snunux
snuunux
snuwa
snuwil
snuwing
snuyuk
snxan
snyakan
snyang
snyepai
snyukan
so
soar
sobhi
sobu
socang
socangcu
soci
social
socicyawyu
societes
socihwotong
sociwunhwa
sociyingcaw
soda
sofe
sofecuyi
sofecyi
sofetay
sofeya
sofu
sofung
sohari
sohong
sohu
sohucinko
sohuwe
sohuy
sohuyya
sohwe
sohwecuyi
sohwekaykotang
soju
soka
soki
sokiya
soko
sokoto
soldiers
soli
somalia
somariran
somariya
somin
somoca
son
sona
sonaw
song
soni
sonii
sooda
sor
soresu
sormariya
sorway
sosi
sosoto
sosu
sosweyin
sosyan
sosyang
sota
soto
sotocu
sotohu
sotu
sotucweyn
sotung
sotwan
soul
sousa
south
southern
soviet
sow
sowfung
sowfungsyang
sowhung
sowki
sowmariya
sowsiyan
sowsyang
sowtu
sowun
soyepamo
soyeypay
soyi
sozu
sp
spaah
spaalix
spac
spagan
spah
spain
spais
spanya
sparu
spasu
spat
spatas
spatis
spatul
spatwo
spaux
spaw
spawda
spayis
spdkanun
special
species
specified
speeniq
speeyah
speeyan
spegan
spegi
spegun
spengun
spepu
speriq
speysa
speyyah
spgan
spgeela
spgeri
spgeriq
spgun
sphadus
spheyu
sphiyu
sphuma
spi
spida
spidaw
spido
spiimah
spin
sping
spkan
spkari
spkela
spkla
spkrana
spkranan
splawa
splawas
splayun
splm
splutuc
spluun
spn
spngan
spoda
spohan
spooda
spoosa
sposa
spowda
spowxan
spoxan
spoxun
spqihur
spqita
spqlahang
spqlhangan
spqrnutun
spquri
sprego
sprengo
sprigo
springbok
spriq
spririh
spriux
spriyux
sprui
sprun
sprunun
spruq
spruun
spruwan
spruwi
spsapah
spseung
spssn
sptena
sptna
sptoyan
sptrawah
sptuting
spu
spuan
spuda
spug
spuhan
spui
spun
spurng
spusa
spuun
spuuyas
spuwan
spuwi
spuxun
spuyas
spwan
sq
sqada
sqama
sqapah
sqaras
sqaya
sqcuqi
sqeepah
sqere
sqeya
sqiri
sqita
sqitun
sqiyan
sqlahan
sqlahang
sqlalu
sqlhangan
sqmaan
sqmaun
sqmu
sqmusu
sqnxan
sqoliq
sqpah
sqpahan
sqqita
sqquyux
sqraq
sqrasan
sqrasun
sqrbuq
sqsiya
sqtaan
sqtan
squad
square
squliq
squri
squru
squtaysangcaqe
squwaq
sqyaan
sqyanan
sqyuxan
sr
srading
srahu
srakaw
sraki
sralagn
srawah
srbija
srbuxan
srcilung
sreeru
sren
srengo
srhawan
srhuqan
sri
srigaw
srilanka
srinan
sring
sriyu
srkemu
srmaru
srmeyan
srnabaw
srnecux
srngaw
srnuwan
sroweyniya
srpuhan
srqemu
srtikun
sru
sruhing
sruwa
sruwaan
sruwan
sruwanun
sruwaun
srwa
srwaan
srwai
srwanan
srwani
srwanun
srwasaw
srwaun
srwayi
srweyya
srwoweyniya
sryow
sryuxan
ssaan
ssagan
ssalu
ssama
ssamac
ssan
ssanan
ssanun
ssapah
ssapuh
ssaqic
ssaun
ssayan
ssbaang
ssbarig
ssbrigan
ssbu
ssdhmaun
ssdiq
ssediq
sseediq
sseejiq
sseeliq
sseki
sseku
ssepu
sshapuy
sshuriq
ssi
ssibus
ssikun
ssiling
ssino
ssio
ssipa
ssipaw
ssiyaw
ssiyo
ssiyuk
ssjiqan
sska
sskuan
sskuun
sskuwan
sslalih
sslhayan
sslian
sslingan
ssliqan
ssliqun
ssliyan
sslmeyan
sslun
ssmalu
ssmlun
ssmluwan
ssmnalu
ssnaw
ssneeru
ssnhiyan
sspac
sspah
sspegan
ssperiq
sspgan
sspriq
sspu
sspuwan
ssruwa
ssrwasaw
sssiyaw
sstgaan
sstmaan
sstsa
ssu
ssudu
ssukay
ssupu
ssyang
ssyuqan
st
staapa
stabu
stabug
stabuy
stahu
stalang
stama
stan
stangan
stange
stann
stanri
stapuy
star
starin
staringkel
stars
start
startbox
state
states
statistics
statue
stay
stdahu
steetu
steinmeier
stenge
steran
steraws
stfan
stgesa
stgsa
stheruy
sthiyaq
sti
stica
stikuh
stinun
stiyu
stkearmo
stkeyan
stkuhun
stkuwan
stmaan
stman
stmanan
stmaq
stmaun
stmun
stmuwan
stmuwun
stngayan
stngi
stockholm
stonehenge
storing
story
stqan
stqita
strange
strap
strategic
street
strengan
strima
string
strngan
strngun
strung
sts
sttu
sttuan
stu
stuku
stuq
sturung
stusa
stutu
su
suaw
subi
subject
subjectspace
subpage
subpages
subus
subway
suca
sucancinci
sucang
suce
suceci
sucemawyicucu
sucen
sucepe
sucetacan
suceyican
suci
sucie
suciyano
sucn
sucngting
suco
sucow
sucre
sucu
sucugyo
sucun
sucusan
sucusyang
sucwan
sucyaw
sucyey
sucyeyn
sucyeypey
sucyo
sucyu
sud
suda
sudan
sudu
suekuanto
suey
sufa
sufacen
sufahweyi
sufapu
sugan
suguc
sugun
suhar
suhara
suhatuo
suhu
suhumi
suhuy
suhwa
suhwacweyn
suhwaing
suhwakungru
suhwan
suhwayeyng
suing
suisheng
suisyunhe
sujn
sujyo
sukano
sukantinawe
sukaw
sukay
suke
suki
suklang
sukona
sukoran
sukorang
sukotay
suku
sukwo
sukwotay
sulawesi
sulia
sulin
sulu
sulyeyn
sulyeyng
suma
suman
sumasen
sumatra
sume
sumiq
summary
summer
summit
sumo
sumu
sumuntala
sumuntalataw
sumyaw
sun
sunan
sunca
suncahaya
suncancono
suncunghu
sundha
sune
sung
sungcan
sungcang
sungci
sungcu
sungcunghu
sungfun
sunghu
sunghuan
sunghun
sungkarosu
sungmyaw
sungpawro
sungring
sungsan
sungtan
sungtay
sungtomingko
sunguc
sungut
sungyuan
sunhwa
sunkagun
sunkun
sunni
sunnipay
sunring
sunsung
suntan
sunu
sunug
sunyo
suomariran
suomariya
suotsuey
supatis
supaw
supegun
superiores
supi
supideyi
supin
supping
supu
supurito
supuun
supuwan
suqi
suqu
sur
sura
surahu
surawoniya
surdan
suren
surey
sureyn
suri
surin
suriname
surinan
suring
suringpu
suriranka
surisu
surita
surohwako
surosuwesi
suroweyniya
surrounded
surtancingwang
suru
surumeyan
surung
suruoweniya
suryeyn
sus
susang
suse
susing
susio
susiro
susiyo
suso
susong
sussex
susu
susuwe
susyang
sut
suta
sutan
sutaniskanta
sutankapus
sutanko
sutay
suti
suting
sutingcwen
sutiyaw
sutwan
suu
suun
suupu
suv
suwa
suwai
suwan
suwangyui
suwati
suwatini
suwatiran
suwatiwa
suwe
suwey
suweyay
suwiay
suwo
suwu
suxal
suxan
suyang
suyanu
suye
suyeri
suyey
suyeyn
suyhay
suyi
suyo
suyohwa
suzu
svg
swaciran
swai
swalu
swan
swang
swangci
swangcokan
swangcong
swangfey
swangkuy
swangpyeyn
swankwey
swarang
swasal
swasiri
swatan
sway
swayay
swaycyaw
swaye
swayi
swaziland
swe
swecin
sweden
sweet
sweku
swen
swenan
sweping
sweri
sweryotong
sweso
swey
sweyce
sweyci
sweycingc
sweyco
sweycukwan
sweycwen
sweycya
sweycyu
sweyhuy
sweyjn
sweyn
sweyncyu
sweyni
sweynmin
sweynyeyn
sweyping
sweyri
sweyryu
sweys
sweysan
sweysaryeyn
sweysi
sweysow
sweysu
sweyun
sweywey
sweyweyn
sweywu
sweyyey
sweyyeyn
swi
swirien
swiss
switzerland
swo
swos
swoteswey
swun
sy
sya
syaci
syacyu
syaiueyn
syakay
syakayhwa
syakayswey
syaku
syakurow
syan
syang
syangcang
syangcay
syangcyaw
syangkang
syangmu
syangryaw
syangtaw
syangtuy
syangya
syangyang
syangyeyncyun
syangyu
syankan
syannongxe
syanox
syarka
syarongwan
syasoryan
syasuwanyeyciya
syaw
syawan
syawcong
syawcu
syaweyi
syawhuy
syawma
syawping
syawriyeyn
syawrong
syawse
syawso
syawswo
syawswocya
syawtaw
syawteyeynsyang
syay
syayow
syayueyn
syayun
syayuncun
syayunping
sydney
sye
syen
syennuy
syenyakow
syepay
syey
syeybay
syeyho
syeyhuy
syeyn
syeyncang
syeyncing
syeyncng
syeyncu
syeynfa
syeynkang
syeynkyo
syeynping
syeyntaw
syeyntay
syeyntayhwa
syeynyi
syeypay
syeysu
syeyting
syeyyueykawo
sying
syo
syocingci
syohwa
syojuryan
syongnu
syongyali
syongyari
syoning
syonyali
syonyari
syorancun
syorinsyang
syosen
syosujukuocuc
syosyeyn
syotay
syow
syqeyaq
syria
sysiyaw
syu
syuey
syueysu
syueyyueyn
syukun
syumuyey
syun
syuncang
syung
syungtihwey
syunhaw
syunnipay
syunpiyahawkutaw
syunroting
syuns
syunwuncaw
syuqun
syuritay
syuriya
syuriyaga
syusan
syuwa
sywo
szusi
szy
t
ta
taan
taansi
taantawr
taapa
taar
taarmatiya
taartu
tabakas
tabalai
tabare
tabid
table
tables
tabuk
tacan
tacen
taci
tacik
taciko
tacin
tacinan
tacira
taciya
tacn
tacng
tacu
tacukaw
tacun
tacung
tacuwan
tacya
tacyapiri
tacyo
tacyu
tadan
tadaw
tado
tadus
tafakuwan
tafakwan
tafe
tag
tagay
taha
tahan
tahanminkoku
tahanminkwo
tahansi
tahera
tahomey
tahorako
tahoua
tahtunux
tahu
tahuarye
tahuc
tahuey
tahuku
tahupo
tahut
tahuy
tahwakwan
tahwe
tahwey
tai
taicukan
taimali
taing
taingkuose
taingkwosyey
taingtikuo
tainkwosyey
taipei
taipiau
taipiautafe
taiping
taipingyang
taipinyan
tairiku
taitongsen
taitongsu
taitung
taiwan
taiwu
taiyacu
taji
tajik
tajikistan
tajin
tajiya
tajnsyang
taka
takamimura
takanan
takanua
takar
takasagu
takaw
takidis
taking
takitudu
takoda
takong
takongko
takongkuo
takongkwo
takongyekuo
takosin
taku
takunan
takungkwo
takusi
takwan
takwanring
takwansan
talangan
talas
talax
talis
talkpagetitle
talomu
talon
talopitu
talu
talug
talusing
talux
tam
tama
tamalan
taman
tamari
tamasuko
tamay
tamazuan
tamim
tampa
tan
tana
tanah
tanahtunux
tananaw
tanau
tanax
tanciar
tancu
tancya
tang
tangahang
tangcaw
tangcay
tangci
tangcin
tangcu
tangcusi
tangcyu
tangku
tangmay
tangna
tangpay
tangtay
tangweyn
tangyen
tangyueyn
tanhe
tanho
tanhwa
tanirwo
tanja
tank
tankanyika
tankanyiko
tankaw
tanke
tanmasi
tanmay
tanmiar
tanniar
tanpay
tanpaycu
tansangniya
tansen
tanseyn
tansu
tansuwan
tanswey
tansyeyncya
tanta
tantaw
tantongting
tanux
tanwe
tanwey
tanyicu
tanzania
tanzuwe
tanzwe
tao
taoyuan
tapa
tapacensan
tapak
tapang
tapaq
tapas
tapay
tapeyh
tapi
tapiautafe
tapih
tapingyang
tapuleyti
tapung
taqi
tara
taraba
taracan
taranaki
tareku
tarenmong
tareynmong
tari
taring
taris
tarisu
taro
taroko
tarsamo
taru
taruk
tarusin
tarusing
tarux
tarwowan
taryan
taryeynmong
tas
tasakuc
tasaw
tase
tasekan
tasen
tasi
tasil
tasilu
tasin
tasiyan
tasiyang
taskwan
tasman
tasng
taso
tasu
tasukwan
tasul
tasung
tasya
tasyow
tata
tatac
tatan
tatang
tatey
tati
tatoba
tatong
tatu
tatuhuhu
tatuk
tatung
tatungsyang
tatut
tatyeyn
tau
taufan
taun
taung
taur
tausyang
tavila
taw
tawan
tawang
tawas
tawci
tawciyaw
tawcu
tawcyaw
tawey
tawkas
tawke
tawkwan
tawkwang
tawkwo
tawkyo
tawmu
tawran
tawru
tawsan
tawsay
tawsu
tawsyang
tawtan
tawten
tawu
tawucung
tawusan
tawye
tawyen
tawyensu
tawyeyn
tawyi
tawyu
tawyuan
tawyuensu
tawyun
tawyuncyu
tawyunkeryun
tawyunsu
taxa
tay
taya
tayal
tayalcu
tayan
tayanco
tayang
tayangco
tayangcow
tayansyang
tayax
taycang
tayci
tayciyosyen
taycong
taycu
taycung
taycungs
taycyu
taycyung
taygi
taygo
tayhoku
tayhu
tayhuk
tayifu
tayihwey
tayin
taying
taykang
taykanser
taykay
taykong
taykongcan
taykongjen
taykongso
taykwan
taykwo
taymari
taymarisyang
taynan
taynang
tayno
taynocu
taypan
taypay
taype
taypey
taypeyseyn
taypeysu
tayping
taypingyan
taypingyang
taypingyangticyu
taypinyan
taypinyang
taypiyaw
taypyaw
taypyawc
taypyawcu
taypyawtuy
tayrawey
tayrayu
tayriku
tayruku
taysaw
taysing
tayti
taytun
taytung
taytungsu
tayu
tayungsu
tayunhwe
tayuring
taywan
taywang
taywesu
taywusyang
tayya
tayyi
tayyip
tbabaw
tbaku
tbalay
tbaqa
tbarah
tbbiyax
tberih
tbgan
tbiyax
tbkeyun
tbkuwan
tblaiq
tblayaq
tbleyaq
tbnkuwan
tbrah
tbrexan
tbrih
tbrinah
tbrnahan
tbrnahun
tbugan
tbugun
tbukuy
tbula
tbulan
tbuwan
tbyaxun
tcingan
tcwo
tdawa
tdaya
tdheriq
tdhuun
tdiyal
tdiyan
tdruwan
tdruy
tduling
tdulun
tduruy
tduwa
tduwan
tduway
tdwaun
te
tealax
tean
technology
tecng
tecyu
tecyun
teerang
tegui
tehan
tehang
teheru
teherui
teheyag
tehran
teic
teko
tekow
tekung
tekuwang
tekwo
tel
teldreka
television
telu
temaq
temer
template
templates
templatetitle
temple
temu
ten
tena
tenamn
tenanmn
tencititu
tencu
tencuciyaw
tencucyaw
tencutitu
tengc
tengcucyaw
tengtay
tenjan
tenjanci
tenmen
tennau
tenpu
tenri
tensikiyo
tensin
tensiukio
tenskiyow
tenstay
tensu
tensukio
tensutay
tentana
tentay
tenzanci
teodoro
tepirun
tepyey
tepyeycyu
tepyeysu
teramu
teraweyefu
terebi
tering
teripori
terisu
term
terra
territories
territory
teru
teruc
terwo
terwocyawcyu
tes
tese
teshome
tesirey
test
testcases
testcaseslink
testcaseslinkdisplay
testcaseslinks
testcasespreload
testcasesrunlink
testcasesrunlinkdisplay
testcasestitle
tetaw
tetun
teuda
teumal
teura
texal
texan
text
tey
teyen
teyey
teyeyn
teyeyncuciyaw
teyeyncucyaw
teyeynskiyo
teyeynsyang
teykong
teykung
teylung
teymu
teymuar
teymur
teyn
teync
teynci
teyncu
teyncucyaw
teyncucyawtu
teynday
teyndocikay
teyngs
teyngskyo
teyngsu
teyning
teyningyueyn
teynjanci
teynjihwa
teynoheyka
teynpura
teynrung
teyns
teynskiyo
teynskyo
teynskyokay
teynsukyo
teyntay
teynya
teynyey
teyru
teys
teyskyo
teyskyokay
teysukyo
teywan
tg
tgaan
tgaaw
tgac
tgayus
tgbaraw
tgbaro
tgbbaro
tgberah
tgbiciq
tgbilaq
tgblaiq
tgbowqax
tgbrah
tgbsiyaq
tgbukuy
tgca
tgciway
tgdaha
tgdaya
tgdha
tgebin
tgelaq
tgelu
tgempitu
tggaaw
tggarang
tghangan
tghbaraw
tghbaro
tghghaw
tghici
tghiti
tghnat
tghuna
tghunac
tghunat
tghuy
tgiirin
tgima
tgimah
tgimax
tgiril
tgirin
tgirint
tgiyaq
tgkingal
tgkingan
tgkingl
tgknbrawan
tgkuxul
tglala
tglaq
tglayan
tglbu
tgleq
tglian
tgliing
tgmalu
tgmataru
tgmaxal
tgmngari
tgnarac
tgnarat
tgnunac
tgparu
tgplealay
tgpusu
tgqbsuran
tgqnedis
tgququy
tgrahuc
tgrima
tgring
tgruma
tgsa
tgsaan
tgsaun
tgseesu
tgsepac
tgska
tgspac
tgspat
tgsuyang
tgtakar
tgteru
tgtexal
tgtexan
tgtru
tgtruma
tgubalo
tgubaro
tgudaya
tguegu
tgueguw
tguhuna
tguhunag
tguhunat
tguiril
tguirin
tgunara
tgunarat
tgutu
tguyangun
th
thaa
thabo
thac
thai
thailand
than
thangan
thani
thao
that
thau
thbaraw
thdagan
thdil
thdilan
thdilun
thdin
thding
thdiq
thdlun
the
thei
their
then
theories
theran
there
theruy
they
theya
theyaq
thgahan
thici
thido
thiladhunmathi
thiqan
this
thiti
thiyan
thiyaq
thiyi
thiyun
thjil
thjilan
thjilun
thjing
thkmuwan
thmkuan
thmkuwan
thmuk
thmuku
thnai
thnganan
thngangan
thngani
thnganun
thngay
thngayan
thomas
thowlang
thqilan
thqilun
thrigan
thteran
thtran
thtur
thuda
thulan
thulang
thumb
thunac
thurah
thuun
thuwan
thuway
thuwe
thuy
thuyan
thuyang
thwayun
thyakan
thyang
ti
tian
tiar
tiarci
tiarcu
tiarmu
tiauri
tiawk
tic
tican
tici
ticio
tico
ticong
ticonghay
ticonghayjencong
ticonhai
ticonhay
ticu
ticunghay
ticyo
ticyu
tidyval
tiempo
tienne
tifan
tifang
tifangcucu
tifangfayen
tigre
tihwang
tihwe
tiimingcu
tije
tijyu
tika
tikaar
tiko
tikoh
tikore
tikoreyniya
tikoriniya
tikris
tiku
tikuh
tikung
tikuo
tikwo
tilana
timbalan
timbel
time
times
timing
timo
timor
timosnko
timu
timur
tin
tina
tinaar
tinala
ting
tingcan
tingci
tinun
tinyeypo
tipantra
tipin
tiping
tipinsyeyn
tipiq
tipirisu
tiri
tiricyu
tiril
tiring
tisa
tisan
tisancanye
tisanci
tisi
tising
tissyaba
tisya
titanwo
titaw
titay
tite
title
tito
titu
titwo
tityey
tiuwfu
tiwas
tiweysi
tiwil
tiya
tiyas
tiyaw
tiyawca
tiyawye
tiyi
tiyici
tiyicu
tiyu
tiyucang
tiyusng
tjadukudukung
tjaialev
tjaranauma
tjatjigel
tjavualji
tjiyal
tjiyan
tjuabal
tjuku
tjukuvulj
tjuvecekadan
tjuwaqau
tkanan
tkanun
tkcka
tkdaya
tkiisug
tkiji
tkijig
tkingal
tkkla
tko
tkorey
tkriyak
tkriyaq
tkurih
tkwo
tlahi
tlak
tlakas
tlakse
tlaman
tlamay
tlamun
tlangan
tlaway
tlayan
tlbu
tlbuan
tlbuwan
tleengan
tleetu
tlenga
tleung
tliyin
tlma
tlngan
tlngun
tlon
tlongan
tloong
tloongan
tloongun
tloung
tlu
tlug
tluling
tlung
tlungan
tlutuc
tluun
tluung
tluungan
tluus
tm
tmabu
tmabug
tmabul
tmabun
tmabuy
tmaga
tmaku
tmalan
tmalang
tmalu
tmana
tmapaq
tmaqun
tmara
tmarang
tmasa
tmatak
tmato
tmatuk
tmaus
tmawa
tmay
tmayan
tmbarah
tmbawa
tmbgan
tmbgurah
tmbul
tmburux
tmciyuk
tmdahu
tmdxgal
tmeetu
tmemaq
tmgesa
tmgjiyal
tmgsa
tmhangan
tmhdil
tmhjil
tmhkuwan
tmhri
tmikan
tmilung
tminun
tmisa
tmiyu
tmjiyal
tmkarac
tmkari
tmlaqi
tmlenga
tmlung
tmn
tmnegsa
tmngahan
tmngayan
tmngayun
tmninun
tmnjiyal
tmnkari
tmnlaqi
tmnsa
tmphpah
tmpupu
tmpusu
tmqcurux
tmqsurux
tmquli
tmquri
tmraki
tmraqil
tmretun
tmsa
tmsamac
tmsamat
tmsamt
tmseyyax
tmtui
tmubu
tmucing
tmugesa
tmukuy
tmunan
tmunang
tmuru
tmutuy
tmuyi
tn
tna
tnaalang
tnaanak
tnabu
tnabug
tnabuy
tnais
tnalang
tnan
tnanax
tnanx
tnarac
tnayis
tnayus
tnbalung
tnbarah
tnbgan
tnbgurah
tnbkeyan
tnbkuwan
tnbnawan
tnbrinah
tnbru
tnbugan
tnbukung
tnburah
tnburux
tnbuwan
tnbyakan
tnbyaxan
tnciyal
tnciyan
tncyusan
tndadan
tndahu
tndhdil
tndheran
tndhun
tndhuun
tndruwan
tnduheran
tndxgal
tndxral
tnealang
tneetu
tnegjiyal
tnegjiyalan
tnegjyalan
tnegkalan
tnegkbkyan
tnegkingal
tnegkmbkiyan
tnegtruan
tnelang
tneuda
tneumal
tng
tnga
tngahan
tnganan
tngayan
tngayun
tngci
tnghanan
tnghangan
tngiyo
tngkeje
tngkmbkiyan
tnglaq
tngraw
tngsaan
tngtru
tnhanga
tnhangal
tnhangan
tnhdil
tnhdilan
tnheruy
tnhiqan
tnhiti
tnhiyan
tnhjil
tnhjilan
tnhjing
tnhlidan
tnhnganan
tnhrigan
tnhuway
tnhyaqan
tni
tninun
tnjiyal
tnjiyalan
tnjiyan
tnjyalan
tnkanan
tnkarac
tnkari
tnkawas
tnkawti
tnkaxa
tnkingal
tnknlangan
tnkranan
tnksung
tnkuyan
tnlaman
tnlangan
tnlaqi
tnlayan
tnlbuwan
tnldilan
tnlngan
tnloongan
tnlusan
tnlutuc
tnluungan
tnluwan
tnmayan
tnmngayan
tnnais
tnnanak
tnnganun
tnngayan
tnngayaun
tnngayun
tnninun
tnnunan
tnpaan
tnpaqan
tnphpah
tnpqcurux
tnpucilung
tnpupu
tnpusa
tnpusu
tnqcurux
tnqerun
tnqian
tnqiyan
tnqlhangan
tnqliyan
tnqpuruh
tnqrian
tnqriyan
tnquli
tnrinah
tnrurun
tnruungan
tnsamac
tnsapa
tnsapah
tnsediq
tnseediq
tnska
tnslutuc
tnsnakan
tnswayi
tnsyusan
tntakan
tntaxa
tnteanak
tnteanaq
tnteyan
tntikuh
tntingan
tntun
tntunan
tntuting
tntuyan
tnualang
tnuayus
tnubu
tnuda
tnugiyo
tnugo
tnukuy
tnumal
tnumun
tnunan
tnungayan
tnuru
tnux
tnwawa
tnxalan
tnxalnu
tnxalun
tnyanan
tnyani
tnyanun
tnyuan
tnyusan
tnyuwan
to
tobago
tobay
tocan
toci
tocong
tocu
toda
toeyng
togo
togoland
tohu
tokan
tokey
toko
tokosan
tokubeycu
tokuo
tokwo
tokyo
tokyoto
tom
toma
tomancyang
tomasu
tomato
tombouctou
tome
toming
tomingnicay
tomingnicya
tominiko
tomislav
tommy
ton
tonaw
tonawho
tonbarah
toncu
toncyaw
tonfopncan
tong
tonga
tongan
tongcangryu
tongci
tongcicyu
tongcing
tongcncyaw
tongcng
tongcngcyaw
tongcngkyo
tongcu
tongcung
tongcungcyaw
tongcya
tongcyun
tongfang
tongfe
tongfey
tongga
tonggi
tonghay
tonghetang
tongho
tonghwa
tonghwang
tonghwo
tongkan
tongkopi
tongku
tongkwang
tongkyo
tonglins
tongmong
tongnan
tongnang
tongnanya
tongo
tongow
tongpay
tongpe
tongpey
tongran
tongrisa
tongrisahu
tongroma
tongs
tongsa
tongsin
tongsing
tongsinhwenin
tongsiyun
tongsway
tongsyey
tongsyun
tongsyunse
tongsyunso
tongto
tongtu
tongu
tongwu
tongya
tongyang
tongyi
tongyong
tongyu
tonhai
toni
tonling
tonnanya
tonnaya
tonpo
tonsin
tonsiren
tony
tonyi
toocu
toolbar
top
topa
tope
topesincnci
topiyaw
topo
topographic
topography
topyaw
topyawcen
topyawri
tora
toraku
toraweyefu
torihes
toriko
torikolafu
torucu
toruntorako
torusire
torusiya
toso
tosopu
tostring
tosu
tosutang
tosyang
total
totang
totangcu
totay
totong
touade
tour
tourguide
tow
towc
towcu
tower
towhun
towing
towkan
town
towpeyaw
towpyaw
towrah
towriang
toyi
toyicu
toyui
tp
tpaan
tpai
tpaqan
tparu
tpaytwan
tpdu
tpelaq
tpetak
tpihan
tpruq
tpuqu
tpusu
tqapah
tqapur
tqari
tqian
tqiri
tqita
tqiyan
tqlahang
tqlhangan
tqliwaq
tqpuran
tqqaras
tqqiri
tqrian
tqring
tqriyan
tqrngul
tququy
tquun
tqwilaq
tr
tra
trabus
trahuc
trail
trailer
trak
traku
tran
transcluded
translate
transvaler
trasi
travel
trawah
trayan
trbu
trbug
trbuq
trdka
trdu
trdunan
trduwan
trebi
tree
treemap
treybi
treybiday
treybitay
treybu
tri
tribe
tribes
tribi
trilan
trima
tripoli
tripori
trma
trmaan
trmanan
trmaun
trqilun
tru
trudu
true
trujillo
truku
truma
trump
truongan
truwa
truwan
trwahun
trybi
tsakhiagiin
tsan
tsapah
tsasaw
tsaso
tsbuc
tseli
tseole
tsli
tsliyaan
tsliyan
tso
tssu
tsweysan
ttaan
ttai
ttak
ttama
ttasil
ttct
ttdaren
tteru
ttgaan
ttgesa
ttgsa
ttgsaan
ttgsaun
tthikan
tthiqan
tthiqun
tthjil
ttikuh
ttinun
ttiping
ttiring
ttloongan
ttluungan
ttmaan
ttmayan
ttmukarac
ttpaan
ttqiyan
ttrahuc
ttreybi
ttruma
ttsa
ttsaan
ttsaun
ttu
ttudu
ttuku
tturu
ttusa
ttuting
ttuwa
tu
tuarci
tuarkana
tuaw
tuayus
tuba
tubaraw
tubbaraw
tubeyhing
tubman
tubowling
tubrah
tubukuy
tuburah
tucacyu
tucan
tucay
tucayce
tucayco
tuci
tucida
tucilung
tucing
tucka
tuckcka
tucupita
tucya
tucyacun
tucyaw
tucyey
tuda
tudaya
tudha
tudu
tududux
tudxral
tuen
tufuga
tuguirin
tuha
tuhiti
tuhnranan
tuhranan
tuhuhu
tuhunac
tuhuy
tuhwan
tuhworwo
tuiril
tuirl
tuiwil
tukarac
tukari
tukcka
tuki
tukingal
tuknbaraw
tukoriko
tuku
tukubeycu
tukuman
tulaq
tullbu
tum
tuma
tumal
tumaxal
tumay
tumn
tumncyang
tumndha
tumntxan
tumtilux
tumtxan
tumun
tun
tunalang
tunan
tunanaq
tunarac
tunaran
tung
tungci
tungfu
tunghe
tunghesyang
tunghu
tungmung
tungnanya
tungpay
tungse
tungsung
tungsyun
tunguro
tungyeyn
tungyi
tunis
tunisia
tunisiya
tunkuli
tunluose
tunneck
tunnel
tunniqan
tunun
tunux
tunx
tuokuen
tuonawh
tuopa
tuoruntuo
tuoyen
tupan
tuparu
tupiq
tupo
tupolev
tupoling
tuporiwan
tupowlin
tupryaxan
tupurohuniko
tuputing
tupwoling
tuqar
tuqeriya
tuqul
tur
tura
turahuc
turbuq
turci
turi
turima
turin
turitang
turkey
turkic
turkmenistan
turku
turo
turoho
turu
turuma
tusanpey
tuse
tusi
tuspac
tusu
tusucweyn
tusukwan
tutawhu
tutaxa
tuti
tutin
tuting
tutiping
tutipiq
tutiring
tutrahuc
tutu
tutuhu
tutulu
tutuma
tutun
tuturu
tutuy
tuuma
tuumal
tuuman
tuura
tuuruma
tuvalu
tuwa
tuwaleyk
tuwan
tuwang
tuwax
tuwe
tuwey
tuxan
tuy
tuyan
tuyi
tv
tvm
tw
twan
twance
twancng
twancyaw
twancyey
twanti
twaw
twe
twecang
twelaq
twen
twenturyang
twey
tweysing
tweyyueyn
two
twocyana
twohwang
twokwan
twonaw
twow
twoweyyueyke
twoyangsing
twrail
twtraffic
txal
txan
txaun
txgal
txtaxa
tyaw
tyawca
tyawcacyu
tyawcasu
tyawcyeyn
tyawkwan
tyawmu
tyawpaw
tyawye
tyawyey
tyawyuey
tyccc
tyen
tyencuciyaw
tyencucyaw
tyeyn
tyeynci
tyeyncihwa
tyeyncing
tyeyncu
tyeynjanci
tyeynmin
tyeynpaw
tyeynri
tyeynsan
tyeynsin
tyeynsing
tyeynskyo
tyeynsyun
tyeyntawkyo
tyeyntay
tyeyntu
tyeynwentay
tyeyru
tyncuciyaw
type
tyuwan
u
ua
uarto
ubal
uban
ubiyuk
ubung
uc
ucab
uci
ucicil
ucicuma
uciicil
ucik
uciling
ucilun
ucilung
uciung
ucla
ucpeyk
ucpyeyk
ucu
ucuan
ucuicil
ucuicin
ucupyeyko
ucux
ucv
ucwan
ucwang
ucya
ucyo
uda
udan
udomkate
uen
uenpin
uey
ueyn
ueyyueynhuey
ufongsiang
ufungsyang
ugan
uganda
uhan
uhang
uhung
uhuru
uhwakwo
uighur
uinu
uk
uka
ukabrahan
ukakpahan
ukan
ukanta
uker
ukeran
uklang
uko
ukoran
ukraine
ukrainian
ukueyteynje
ukur
ukus
ukwangryang
ukwocyey
ul
ula
ulaljuc
ulan
ular
ulay
uli
ulkan
ulkun
ulrich
ulsanbawi
ultramar
uluban
umaaw
umaduk
umalax
umalu
umarang
umaru
umau
umaw
umi
umin
umlatac
umluk
umniq
umowi
umu
un
una
unarang
unau
unbeyah
uncpiars
uncung
und
undo
undoing
undokay
undoying
une
unefa
unesco
unet
unexpo
ung
ungac
ungat
ungc
ungu
unha
unhiyan
unhuwa
unhuway
unhwa
unimar
unimet
union
uniqan
unit
unita
united
universidad
university
uniwun
unjen
unkohuwa
unkohuwataw
unkoruma
unkoso
unkuwapi
unkwa
unkwan
unmik
unmin
unming
unocha
unpsan
unpuriya
unsacolang
unsuwati
unuh
unuwan
unyi
unyifusing
up
upanci
upel
upngpa
upo
uqan
uqi
uqiyan
uqun
ur
uraar
urac
urakwey
uranpato
uraw
uray
uraycyu
urdunn
ure
urekaysung
uri
uribe
urisiyey
url
urongti
urtu
uru
uruc
uruguay
uruk
urung
us
usa
usage
usan
usap
use
used
user
users
usik
ustring
usuci
usuricyang
usux
usyuncyey
utay
utaysan
utaysyang
utbah
utc
utf
uthuru
utong
utrecht
utu
utubay
utur
utuutux
utux
uu
uucilung
uuda
uuka
uuqan
uuqu
uuqun
uusa
uutt
uuwa
uuwaya
uuyas
uw
uwa
uwada
uwau
uwaya
ux
uxay
uxe
uxy
uy
uyah
uyan
uyas
uyasan
uyi
uyung
uyusan
uzbekistan
v
va
vajiralongkorn
vakangan
val
valankau
valencia
valjulu
vals
value
values
van
vanuatu
varela
vargas
vau
vaz
ve
vegetable
venezuela
venice
verde
version
vert
vi
via
vicente
victoria
victory
vie
vienna
vietnam
view
viewtnp
viktor
villa
village
ville
vilnius
virginia
vision
visitnative
vistnam
vives
vlaanderen
vladimir
vniil
vo
voice
von
vorachith
vujanovic
vungalid
w
wa
waba
wacang
wacyatuku
wacyaw
wad
wada
wadadu
wadas
waddaulah
waga
wagi
wah
wahal
wahan
wahanbamir
wahangbamir
wahapi
wahapipay
wahil
wahir
wahu
wahug
waiciau
waikato
waitangi
wakaba
wakac
wakay
wakefield
walaciya
wales
waliq
walis
walk
wallachian
walter
walu
walvis
wamil
wamniq
wan
wana
wancaw
wanci
wanciwanru
wancu
wanfungcun
wang
wanganui
wangc
wangcan
wangcaw
wangchuck
wangci
wangcu
wangcuke
wangfey
wangho
wangjaw
wangko
wangkong
wangkuo
wangkwo
wangru
wangrwo
wangs
wangsu
wangwe
wanjungsyang
wankoton
wankwo
wannatu
wannen
wano
wanpaw
wanrong
wanru
wanrung
wansu
wanta
wantun
waqa
war
waray
ware
warite
warna
waron
warren
warri
waru
was
wasan
wasaw
washington
wasil
waso
wat
wata
watan
wato
wau
wauwa
waw
wawa
wawi
way
waya
wayahankoku
wayay
waycang
waycaw
wayci
wayciyaw
waycu
waycyaw
waycyawbu
waycyawkwan
waycyawpu
wayhuy
wayhwe
waykrpacyen
waykuo
waymaw
waymongku
wayraw
waysang
waysifangniya
waysyaw
wda
we
web
weci
wecing
wecung
weewa
weho
wehoputuwe
wela
wellington
wells
weluq
wen
wenbyo
wenejuela
wenezuela
wenfa
wenmin
wenming
wenrai
wenran
wenre
wenryeyn
wenswey
wensweycya
wensweycyang
wentay
wenti
wenwu
wenyi
weren
weri
wesekulatu
wesi
wesin
wesing
west
western
wesung
wesungpu
wetoriya
wetoriyakan
wetu
wetwe
weuar
wewan
wewur
wey
weyakwey
weyarnyos
weyayra
weyc
weyci
weycing
weycingzun
weycweyn
weyehwe
weyen
weyena
weyenfe
weyenhuwe
weyenhwe
weyhe
weyho
weykwansu
weyma
weymaya
weyn
weynis
weynisu
weynso
weynyo
weypaw
weyping
weyri
weyrs
weyryeyn
weysentonci
weysing
weysng
weysngbu
weysnghuripu
weysngpu
weysngsu
weyswey
weytecyaw
weyti
weytoriya
weytu
weytuoriya
weytuy
weytwan
weytwey
weyuar
weyueyn
weyweyn
weyweynhuy
weyyeyn
weyyeyna
weyyeyncang
weyyeynhuy
weyyueyn
weyyueynhuey
weyyueynhwey
weyyueynxey
weyyueynxwey
wfb
when
where
whether
which
white
whwahil
wi
wicang
widodo
wihi
wiki
wiking
wikipedia
wikisource
wikitext
wilakang
wilang
wili
will
wille
willem
william
williams
win
windhoek
windsor
winston
wisconsin
wisu
witci
with
wiun
wiwil
wizard
wluq
wna
wnfa
wnse
wo
woarhukang
woarto
women
wongsan
wongsansuci
world
wouwa
wowaya
wrappers
wto
wu
wuci
wucwang
wufung
wuhwongsyan
wuhwonsyan
wuko
wukwo
wun
wunfa
wunhwa
wunhwapu
wunming
wunran
wunsan
wunse
wunsu
wuntataye
wunti
wuntu
wunu
wuowa
wuri
wuse
wusweyn
wuta
wutai
wutaw
wuzau
ww
www
wyke
x
xa
xan
xi
xiceyn
xicin
xicing
xico
xihuy
xiin
xike
xiku
xiluy
ximung
xinjiang
xiryo
xiryu
xisin
xitan
xitung
xiyin
xiyow
xuan
xvi
xwopi
xxihuy
xxiluy
xyo
y
ya
yaa
yaani
yaarmuke
yaarta
yaasa
yabay
yabi
yabu
yabwana
yaci
yaciyata
yacnciyeyn
yaco
yacotay
yacow
yacu
yacwang
yacyun
yaday
yadaya
yadayi
yah
yaha
yahan
yahay
yahi
yahu
yahun
yajetay
yako
yakow
yaku
yama
yamalin
yamasun
yamasyun
yamay
yamaycya
yameen
yameniya
yameyniya
yami
yamin
yaminiya
yamu
yamun
yamusoko
yan
yang
yangcong
yanghang
yangkwang
yangryo
yani
yanraw
yapen
yapingning
yaporahan
yapota
yapyeyn
yaq
yaracuy
yarad
yaradua
yari
yarian
yarico
yarisanda
yarisanta
yaryucyang
yas
yasa
yasaybayran
yasaypayjan
yase
yasebairan
yasepayjan
yasu
yasuar
yasungsng
yatay
yaten
yateriyahay
yatoriya
yatyeyn
yaw
yawi
yawkwen
yawkwo
yawkyo
yawsay
yayaung
yayi
yayn
yayong
yayu
yayug
yayun
yayung
ye
yeba
yebale
yecu
yecuming
yehan
yehari
yeheng
yemen
yen
yenan
yencang
yencaw
yenco
yencu
yencuming
yencung
yeng
yenko
yenminghwe
yenraw
yenrun
yenso
yensu
yenyen
yenyo
yersarun
yerusalem
yerusarun
yeso
yesu
yesukyo
yetan
yexun
yey
yeyan
yeyc
yeyce
yeycu
yeycyasyang
yeyhehwa
yeyi
yeykan
yeymen
yeymn
yeyn
yeynan
yeyncyo
yeyncyoso
yeyng
yeynhay
yeynise
yeynping
yeynpingsyang
yeynryaw
yeynsi
yeynso
yeynsu
yeynsyaw
yeynwenw
yeynyo
yeyriun
yeysng
yeysu
yeysukirsto
yeytan
yeywu
yi
yian
yican
yicang
yicangtwey
yici
yicing
yicitwan
yicu
yifong
yifongcun
yifosu
yihuei
yihuwe
yihwa
yihwe
yihwecu
yihwey
yiin
yiinkai
yikai
yikayhwa
yikeyng
yilan
yim
yimin
yiming
yimyaw
yin
yinan
ying
yingcyo
yinghang
yinghangyey
yingkay
yingkwo
yingpi
yingqemaytihe
yingra
yinswa
yintu
yipongsan
yirako
yiran
yirang
yiraqe
yirin
yiririya
yirowati
yiru
yiryaw
yis
yiserey
yisi
yisrancyaw
yisu
yisucya
yisuran
yiswan
yitang
yitari
yitu
yiu
yiusan
yiwu
yiye
yiyen
yiyencu
yiyin
yiyinkai
yiyuey
yiyueyn
ymu
yn
yo
yobe
yobing
yocay
yoci
yocican
yocituey
yocituy
yocituyweyn
yocitwe
yocng
yocuyen
yocyatwen
yocyeyn
yoday
yodaya
yodayakyo
yohani
yohwarati
yokwang
yola
yomu
yomumingcu
yongcn
yopaw
yopyaw
yoring
yoriya
york
yoro
yorosi
yorozu
yoruwo
yosang
yoseyhu
yoseyng
yosing
yosnko
yoso
yota
yotay
you
young
your
youtube
yow
yowcitwey
yoweri
yowpyaw
yowtay
yoye
yqeyaq
ysa
ysyk
yu
yuan
yuci
yucinsyang
yuco
yucu
yudaw
yudaya
yue
yuen
yuenceyn
yuenhua
yuey
yueyn
yueync
yueynso
yueynsuay
yueysefu
yueytwey
yufu
yufung
yugoslavia
yuhung
yuhuwey
yuhwon
yui
yuifang
yuifong
yuikong
yuilaw
yuiyen
yukang
yuki
yuluw
yun
yung
yungsing
yungtong
yunmu
yunnansen
yunseyn
yunsing
yunsu
yunsuci
yuntomhhwe
yunton
yuntong
yuntonghuey
yuntonghwe
yuntongyen
yuntung
yuntunghwey
yuntungyueyn
yuorosi
yupan
yupeyyi
yuping
yuraw
yure
yuretay
yuri
yuricgn
yurin
yuring
yurisyang
yuropa
yusan
yuse
yusi
yusinu
yuswan
yusyang
yutak
yutay
yuvachun
yuwey
yuwhbun
yuxan
yuyey
yuyung
yweyn
yyahan
yyayung
yyyayung
z
za
zai
zaisan
zam
zambia
zambisi
zamfara
zanu
zanzibar
zaria
zaw
zayed
zealand
zeeland
zekin
zeman
zemin
zeming
zen
zenko
zenmin
zenming
zenmingcin
zenminpi
zenta
zentacanwefe
zh
zhao
zi
zidai
zihing
zimbabawe
zimbabwa
zimbabwe
zinder
ziyu
zo
zolin
zon
zona
zquez
zu
zuga
zulia
zulin
zulu
zuma
zuming
zun
zunko
zunming
zunmingtang
zunmingyen
zunsa
zupaw
zupun
zurich
zutoran
zuwecingru
zuwerong
zuweyen
zwancing
zwear
zweso
zwesu
zweten
{
|
}
~
£
§
«
°
²
³
´
·
»
đa
ı
ŋ
ə
ɲ
ɳ
ɴ
ɸ
ʔ
ʰ
ʲ
ʷ
ʻ
ʼ
ʾ
ʿ
ˇ
ˈ
ˊ
ˋ
ˌ
ː
˚
ˤ
̀
́
̂
̃
̄
̆
̇
̈
̉
̊
̌
̍
̓
̔
̕
̛
̣
̤
̥
̦
̧
̨
̯
̱
͏
͘
΄
α
αι
β
δημοκρατι
ε
κυπριακη
λι
μ
ν
ο
ς
συ
ψ
ω
а
белару
беларусь
вилояти
во
г
гарм
демократијата
и
македонскиот
модел
ноҳияҳои
о
општества
општество
поделените
политички
пяни
р
суғд
сь
теории
тобеи
у
хатлон
цивилно
шаартуз
эдирне
ѡ
ҷумҳурии
ְ
ִ
ֵ
ַ
ָ
ׂ
א
ד
י
ל
מ
ר
ש
ת
ا
الا
البحرين
العربية
ة
ت
د
ر
س
ط
ع
ل
م
ن
و
ي
َ
ُ
ِ
ّ
ْ
ٓ
ٔ
ٕ
ނ
ބ
އ
މ
ދ
ލ
ގ
ޔ
ަ
ާ
ީ
ު
ޫ
ް
߬
ं
न
प
र
ल
स
ा
ि
ु
े
्
ং
ত
দ
ব
র
ল
শ
া
ী
ে
্
ਿ
ੇ
ନ
ର
ି
େ
୍
க
ங
ச
ட
ப
ர
ா
ி
ு
ூ
ே
ை
்
ൈ
ൻ
ං
ක
ත
ද
න
ප
ර
ල
ව
ශ
්
ා
ි
ී
ง
งหว
จ
ด
ร
ั
ิ
ี
ู
้
์
ີ
က
တ
ဒ
န
မ
ရ
အ
ဢ
ါ
ာ
ိ
ီ
ု
ေ
့
း
်
ျ
ြ
ၼ
ႃ
ႅ
ႇ
광역시
군
기초자치단체
도
자치구
자치시
조선
특별시
특별자치도
특별자치시
ឌ
ណ
រ
អ
ី
េ
​
‍
‎
‏
–
—
‘
’
“
”
„
‟
•
…
‧
′
※
ⁿ
₱
℃
℅
⅓
⅔
→
↔
↵
↷
−
∼
⎡
⎦
①
②
③
④
⑤
⑥
⑦
⑧
⑨
⑪
⑫
⑬
⑭
⑮
⑯
⑰
⑱
─
╱
◌
◎
●
★
☾
⟪
⟫
ⲏ
ⲓ
ⲙ
ⲭ
ⴰ
ⴳ
ⴷ
ⴽ
ⵉ
ⵍ
ⵎ
ⵏ
ⵓ
ⵔ
ⵛ
ⵜ
⺀
⺄
⺆
⺈
⺊
⺌
⺕
⺝
⺸
⺼
⿰
⿱
⿲
⿳
⿴
⿵
⿶
⿷
⿸
⿹
⿺
⿻
、
。
〈
〉
《
》
「
」
『
』
【
】
〔
〕
〖
〗
〜
〝
〞
〢
か
す
と
の
゙
゚
イ
ウ
オ
カ
ケ
コ
サ
シ
タ
ナ
ハ
マ
ミ
モ
ャ
ヤ
ユ
ラ
リ
ル
ロ
ン
・
ー
ㄅ
ㄇ
ㄉ
ㄊ
ㄋ
ㄌ
ㄍ
ㄏ
ㄙ
ㄚ
ㄜ
ㄞ
ㄟ
ㄠ
ㄦ
ㄧ
ㄨ
ㄩ
㇁
㇂
㇄
㇇
㇈
㇉
㇓
㎡
㎢
㐁
㐄
㐅
㐌
㐫
㐬
㐭
㐮
㐱
㑒
㒵
㒸
㒼
㓁
㓞
㔾
㕛
㕣
㖾
㘝
㚅
㚇
㚔
㚘
㝉
㝡
㝴
㝵
㞋
㞢
㞷
㠩
㠭
㠯
㡀
㡭
㡿
㢲
㢴
㣇
㣺
㥯
㪅
㫄
㫐
㫒
㫺
㬅
㬎
㬥
㬰
㲋
㳄
㷠
㸒
㸚
㸦
㼌
㼲
㽞
㿟
䀠
䂞
䍃
䏍
䒑
䖍
䖒
䖝
䖵
䙴
䚻
䜌
䝿
䡛
䧹
䪞
一
丁
丂
七
丄
丅
丆
万
丈
三
上
下
丌
不
与
丏
丐
丑
专
且
丕
世
丘
丙
业
东
丞
丟
丢
丣
两
严
並
丨
丩
个
丫
丬
中
丮
丰
丱
串
丵
丶
丷
丸
丹
为
主
丽
丿
乀
乂
乃
久
乆
乇
么
义
之
乌
乍
乎
乏
乐
乑
乔
乖
乗
乘
乙
乚
乛
乜
九
乞
也
习
乡
乳
乾
亀
亂
亅
了
亇
予
争
事
二
亍
于
亏
亐
云
互
亓
五
井
亘
亚
些
亜
亞
亟
亠
亡
亢
交
亥
亦
产
亨
亩
享
京
亭
亮
亯
亰
亲
亳
亶
亷
人
亻
亼
亾
什
仁
今
介
仌
仍
从
仐
仑
仒
仓
仔
仕
他
付
仙
仝
代
令
以
仰
件
任
份
仿
企
伊
伍
伏
伐
休
会
伦
伯
估
伸
似
但
佈
位
低
住
佐
佔
何
佘
余
佛
作
你
佥
佩
佳
併
使
來
侈
例
侌
侖
供
依
侯
侵
便
係
促
俄
俊
俏
俗
保
俞
信
修
俯
俱
倉
個
倍
們
倒
候
借
倠
倪
倫
值
假
偏
偕
做
停
健
側
偶
偷
傅
傑
傘
備
傭
傳
傷
僅
僉
像
僑
僕
僚
僱
價
儀
儂
儘
優
儲
儿
兀
允
兂
元
兄
充
兆
兇
先
光
兊
克
兌
免
兑
兒
兓
兔
党
兜
兟
入
內
全
兩
兪
八
公
六
兮
兰
共
关
兵
其
具
典
兹
兼
冀
冂
冃
冄
内
冇
冈
冉
冊
冋
册
再
冎
冏
冐
冒
冓
冕
冖
冗
冘
军
农
冝
冠
冡
冥
冫
冬
冰
冶
冷
凝
几
凡
凢
凰
凱
凵
凶
凷
凸
凹
出
函
凾
刀
刁
刂
刃
刄
刅
分
切
刊
刍
刑
刕
刖
列
刘
则
刚
初
判
別
利
别
到
制
刷
刺
刻
則
削
剌
前
剖
剛
剝
剡
副
割
創
剽
劃
劇
劈
劉
劍
力
功
加
劦
动
助
努
劫
劳
劵
勃
勇
勉
勒
動
務
勝
勞
募
勢
勤
勳
勵
勹
勺
勻
勾
勿
匀
匂
包
匆
匈
匊
匋
匍
匕
化
北
匙
匚
匝
匡
匪
匯
匱
匸
匹
区
医
匽
匿
區
十
卂
千
卄
卅
卆
升
午
卉
半
卌
华
卑
卒
卓
協
单
卖
南
博
卜
卝
卞
占
卡
卢
卣
卤
卦
卩
卪
卫
卬
卯
印
危
即
却
卵
卷
卸
卻
厂
厃
厄
历
厈
厉
厌
厓
厘
厚
厝
原
厤
厥
厨
厭
厲
厶
厷
厸
去
厼
厽
叀
参
參
叅
又
叉
及
友
双
反
叐
发
叒
叔
叕
取
受
叙
叚
叜
叟
叢
口
古
句
另
叩
只
召
叭
可
台
叱
史
右
叵
号
司
叹
吂
吃
各
吅
合
吉
吊
吋
同
名
后
吏
吐
向
吕
君
吝
吞
否
含
启
吳
吴
吸
吹
吾
呂
呆
呈
告
员
呙
呢
周
味
呼
命
咅
和
咎
咒
咖
咠
咢
咨
咪
咬
咳
咸
咼
哀
品
哇
哈
哉
員
哥
哩
哪
哲
哺
唇
唐
售
唯
唱
唸
商
啇
問
啚
啟
啡
啤
啬
啻
喀
善
喉
喊
喔
喜
喝
喪
喬
單
喳
喿
嗇
嗎
嗡
嗣
嘉
嘎
嘟
嘲
嘴
器
噩
噯
噴
噸
嚇
嚴
囉
囊
囗
囘
囙
囚
四
回
囟
因
团
囧
囬
园
困
囱
囷
固
国
图
圂
圃
圅
國
圍
園
圓
圖
團
土
圡
圣
圥
在
圭
圯
地
圳
圶
圼
圾
址
坂
均
坎
坐
坑
坒
坚
坡
坦
坪
坴
垂
垃
型
垔
垚
埀
埃
埋
城
埔
域
埠
埤
埶
執
培
基
堂
堅
堆
堇
堡
堤
堪
堯
報
場
堺
塌
塔
塞
塱
境
墓
墜
增
墨
墩
墾
壁
壇
壓
壘
壠
壤
壩
士
壬
壯
声
壳
壴
壹
壺
壽
夂
处
夅
夆
备
夊
夋
夌
复
夏
夒
夕
外
夗
夘
多
夜
夢
大
夨
天
太
夫
夬
夭
央
失
夲
头
夷
夸
夹
夻
夾
奂
奄
奇
奈
奉
奎
奏
奐
契
奓
奔
奚
奞
奠
奢
奥
奧
奭
奮
女
奴
奶
她
奻
好
如
妄
妙
妝
妟
妥
妹
妻
妾
姆
姊
始
姑
姓
委
姜
姬
姻
威
娃
娄
娘
娛
娜
娟
娥
娩
婁
婆
婉
婚
婦
婭
婴
婻
婿
媒
媳
嫁
嫩
嬰
嬴
子
孑
孔
孕
孖
字
存
孚
孛
孝
孟
季
孤
学
孩
孫
孱
學
宀
宁
宂
它
宅
宇
守
安
宋
完
宏
宓
宗
官
定
宛
宜
宝
客
宣
室
宮
宰
害
宴
宵
家
容
宾
宿
寄
寅
密
富
寒
察
實
寧
寨
審
寫
寬
寮
寰
寶
寸
对
寺
寻
寽
対
寿
封
尃
射
将
將
專
尉
尊
尋
尌
對
導
小
少
尒
尓
尔
尖
尗
尚
尞
尢
尣
尤
尧
尨
尭
就
尸
尹
尺
尻
尼
尽
尾
尿
局
居
屈
屋
屎
屏
屑
展
屖
屚
属
屠
屡
層
屬
屮
屯
屰
山
屵
屾
岁
岂
岑
岔
岛
岡
岩
岬
岳
岸
峇
峯
峰
島
峽
崁
崇
崎
崑
崔
崖
崗
崙
崩
崮
嵐
嵬
嶲
嶺
嶼
巂
巒
巛
川
州
巟
巠
巡
巢
巤
工
左
巧
巨
巩
巫
差
己
已
巳
巴
巷
巸
巽
巾
巿
帀
市
布
帆
希
帕
帚
帛
帝
带
師
席
帶
常
帽
幅
幕
幟
幣
幫
干
平
年
幵
并
幷
幸
幹
幺
幻
幼
幽
幾
广
広
庄
床
序
应
底
店
庚
府
度
座
庫
庭
庶
康
庸
廁
廈
廉
廌
廓
廖
廛
廟
廠
廢
廣
廩
廬
廳
廴
延
廷
建
廾
廿
开
弁
弃
弄
弇
弋
式
弓
弔
引
弗
弘
弜
弟
弥
弦
弧
弩
弱
張
強
强
彈
彊
彌
彎
彐
彑
当
彔
录
彖
彗
彙
彡
形
彥
彦
彧
彩
彭
彰
影
彳
役
彼
往
待
很
徉
律
後
徐
徒
得
徙
徜
從
復
循
微
徵
德
徽
心
忄
必
忌
忍
志
忘
忙
忝
忠
忩
快
念
忽
忿
怎
怒
思
怠
怡
急
性
怪
怱
恆
恐
恒
恕
恩
恭
息
悉
悠
患
悤
悲
悶
情
惠
惡
惢
惦
惰
想
愁
愈
意
愚
愛
感
慈
態
慎
慕
慣
慧
慮
慰
慶
憂
憤
憩
憲
憶
懂
應
懶
懷
懸
戀
戈
戉
戊
戋
戌
戍
戎
成
我
戒
戔
或
戚
戠
戢
截
戰
戲
戴
戶
户
戹
戼
戾
房
所
扁
扇
手
扌
才
扎
打
托
执
扭
批
承
技
把
抓
投
抗
折
抨
披
抬
抵
拉
拌
拍
拒
拓
拔
招
拜
括
拿
持
指
按
挑
挖
挪
振
挺
捐
捕
捨
捷
掃
掌
排
掘
掠
採
探
接
控
推
揆
描
提
揚
換
握
揭
援
揹
搔
搗
搜
搭
搶
摩
摺
摻
撈
撒
撥
撫
播
撰
擄
擇
擊
擋
操
擎
據
擠
擬
擴
擺
攝
支
攴
攵
收
攸
改
攻
放
政
敄
故
效
敏
救
敕
敖
敗
敘
教
敝
敞
敢
散
敦
敫
敬
数
敲
整
敷
數
斂
斃
文
斉
斊
斐
斑
斗
料
斤
斥
斧
斩
斬
斯
新
斷
方
於
施
斿
旁
旅
旋
族
旗
无
旡
既
旣
日
旦
旧
旨
早
旬
旭
旮
旱
旲
时
旺
旾
昂
昆
昇
昌
昍
明
昏
易
昔
昗
昜
星
映
春
昬
昭
是
昱
昴
昷
時
晃
晋
晏
晚
晨
普
景
晴
晶
智
暑
暖
暗
暢
暨
暮
暴
曆
曇
曉
曩
曬
曰
曲
曳
更
曷
書
曹
曼
曾
替
最
朁
會
月
有
朋
服
朔
朕
朗
望
朝
期
木
朩
未
末
本
札
朮
术
朱
朴
朵
朶
朿
杀
杉
李
杏
材
村
杜
束
条
来
杭
杯
東
杲
杳
杵
杷
松
板
枇
枋
析
枕
林
枚
果
枝
枯
枲
架
枼
柃
柄
柏
某
柑
染
柔
柚
查
柬
柯
柰
柱
柳
柴
柵
柿
栓
栗
校
株
栲
核
根
格
栽
桀
桂
桃
框
案
桌
桐
桑
桫
桬
桶
桼
梁
梅
條
梟
梧
梨
梭
梯
械
梵
棄
棉
棒
棕
棘
棚
棠
棥
棧
森
棲
棵
植
椒
椰
楊
楓
楚
楝
楠
業
極
楽
概
榔
榕
榮
榴
構
槍
槓
槽
樂
樊
樑
樓
標
樞
樟
模
樣
樸
樹
橄
橋
橘
橙
機
橢
橫
檀
檔
檢
檳
櫓
櫟
櫸
櫻
權
欏
欖
欠
次
欣
欮
欲
欶
欽
款
歆
歇
歌
歐
歛
歡
止
正
此
步
武
歨
歪
歮
歯
歰
歲
歴
歷
歸
歹
歺
死
殆
殊
殖
殳
段
殷
殸
殹
殺
殻
殼
殿
毀
毋
毌
母
每
毒
比
毕
毚
毛
毯
毳
氏
氐
民
气
氣
水
氵
氶
氷
永
氺
氾
汀
汁
求
汎
汗
汛
汝
汞
江
池
汲
汶
決
汽
沃
沈
沒
沓
沖
沙
沝
河
油
治
沼
沾
沿
況
泉
泊
法
泛
泡
波
泣
泥
注
泰
泳
洋
洛
洞
津
洪
洲
洶
活
洽
派
流
浦
浪
浮
海
浹
涅
消
涉
涯
涵
涼
淑
淖
淚
淡
淨
淮
深
混
淹
淺
清
渚
減
渠
渡
渥
測
港
游
湖
湧
湯
湳
溉
源
準
溝
溪
溫
溺
滋
滑
滕
滙
滬
滾
滿
漁
漂
漆
漏
演
漠
漢
漫
漬
漲
漳
漸
漿
潘
潤
潭
潮
澀
澇
澈
澤
澳
激
濁
濃
濕
濘
濟
濤
濫
濱
濾
瀑
瀛
瀧
瀾
灌
灘
灣
火
灬
灭
灰
灵
灶
灷
災
炅
炎
炏
炗
炙
炭
炸
為
烈
烏
烝
烤
烹
焉
無
焦
焱
然
煎
煞
煤
煥
照
煮
熊
熏
熙
熟
熱
燃
燈
燒
燕
營
燮
燻
爆
爐
爛
爪
爫
爭
爯
爰
爱
爲
爵
父
爺
爻
爽
爾
爿
牆
片
版
牌
牙
牚
牛
牜
牟
牠
牡
牢
牧
物
牪
特
牽
犀
犬
犭
犮
犯
狀
狂
狄
狊
狗
狩
独
狹
狺
猋
猒
猩
猪
献
猶
猿
獄
獅
獎
獨
獲
獵
獸
獻
玄
率
玉
王
玟
玨
玩
玲
玻
珈
珊
珍
珎
珠
班
現
球
理
琉
琳
琴
瑚
瑞
瑟
瑤
瑩
瑪
瑯
璃
璉
璞
璦
璧
環
瓜
瓢
瓦
瓷
甌
甕
甘
甚
甜
生
產
産
用
甫
甬
甭
田
由
甲
申
电
甶
男
甸
甹
画
甾
畀
界
畏
畐
畔
留
畜
畟
畢
略
畧
畨
番
畫
畬
異
畱
當
畺
畾
疆
疊
疋
疌
疑
疒
疫
疾
病
痕
痛
瘦
療
癢
癶
癸
癹
発
登
發
白
百
皀
皃
的
皆
皇
皋
皐
皕
皮
皷
皿
盃
盆
盇
盈
益
盍
盎
监
盒
盖
盛
盜
盟
盡
監
盤
盧
目
直
相
盾
省
眇
眉
看
眔
眞
真
眷
眺
眼
眾
着
睘
督
睪
睿
瞏
瞢
瞧
瞭
瞿
矍
矛
矞
矢
矣
知
矦
短
石
砂
砍
研
砲
破
硬
碎
碑
碧
碩
確
碼
磊
磚
磨
磯
礁
礎
礙
礦
示
礻
礼
社
祈
祕
祖
神
祟
祥
票
祭
祿
禀
禁
禍
福
禮
禸
禹
禺
离
禽
禾
禿
秀
私
秃
秉
秋
科
秘
秝
秦
移
稀
稅
程
稍
稚
稟
種
稱
稷
稻
穀
穆
穌
積
穗
穩
穫
穴
究
穹
空
穿
突
窄
窒
窟
窩
窪
窮
立
竒
站
竜
竝
竟
章
童
端
競
竹
笑
笛
笠
符
笨
第
筆
等
筊
筍
筒
答
策
筷
箕
算
管
箭
箱
箴
節
範
篇
築
篤
篦
篩
篭
簍
簡
簧
簸
簽
簾
簿
籃
籍
米
籽
粉
粒
粗
粛
粟
粤
粦
粱
粲
精
糕
糞
糠
糧
糯
糸
糹
系
糾
紀
約
紅
紋
納
紐
純
紙
級
紛
素
紡
索
紫
累
細
紹
終
組
結
絕
絜
絡
給
絫
統
絲
經
綜
綠
維
網
綷
綾
綿
緊
緒
線
緣
編
緩
緬
緯
縣
縮
縱
總
績
繁
繇
織
繞
繩
繪
繫
繼
纂
續
纍
纏
纖
纟
纳
组
织
维
缶
缺
罐
网
罒
罔
罕
罗
罙
罡
罢
罪
置
署
罵
罷
羅
羊
羌
羍
美
羔
羕
羗
羚
羞
羡
羣
群
義
羲
羸
羽
翁
翏
習
翔
翕
翟
翠
翰
翻
翼
耀
老
耂
考
者
耆
而
耎
耐
耑
耒
耕
耗
耙
耳
耴
耶
耷
聂
聆
聊
联
聖
聚
聞
聯
聰
聲
聶
職
聽
聿
肀
肃
肅
肉
肖
肙
肚
股
肥
肩
肯
育
肴
肺
胃
背
胎
胡
胥
胸
能
脈
脊
脩
脫
脹
脾
腊
腐
腔
腥
腦
腫
腰
腱
腳
腹
膚
膨
膽
臂
臘
臣
臤
臧
臨
自
臬
臭
臯
臱
至
致
臺
臼
臽
臾
臿
舀
舂
舄
舅
與
興
舉
舊
舌
舍
舒
舖
舛
舜
舞
舟
航
般
船
艇
艦
艮
良
色
艸
艹
艾
芋
芎
芒
芔
芙
芝
芬
芭
芮
花
芳
芺
芻
芽
苏
苓
苔
苗
苟
苡
苣
若
苦
苧
英
苳
茂
范
茄
茅
茨
茱
茲
茴
茵
茶
茸
荅
草
荊
荒
荔
荖
荣
荳
荷
荼
莆
莉
莊
莎
莒
莓
莖
莢
莧
莫
莽
莿
菆
菇
菊
菌
菐
菖
菜
華
菲
萄
萊
萨
萬
萵
萸
落
葉
著
葛
葡
董
葫
葬
葳
葵
蒂
蒙
蒜
蒦
蒲
蒴
蒸
蒼
蒾
蓄
蓋
蓪
蓬
蓮
蓺
蔑
蔓
蔔
蔗
蔡
蔥
蔬
蔻
蔽
蕃
蕉
蕎
蕗
蕨
蕭
薄
薊
薏
薛
薤
薦
薩
薪
薯
薰
薾
藉
藍
藏
藜
藝
藤
藥
藻
蘆
蘇
蘭
蘿
虍
虎
虐
虒
虔
處
虖
虗
虘
虚
虛
虜
虞
號
虫
虹
虽
蚓
蚤
蚩
蚯
蛇
蛋
蛔
蜀
蜂
蜜
蝦
蝴
蝶
螃
融
螞
蟲
蟹
蟻
蠡
血
行
衍
術
街
衛
衝
衣
衤
表
衫
衮
衰
袁
袋
袖
袞
被
裁
裂
裏
裔
補
裝
裡
製
複
褭
褱
襄
襾
西
覀
要
覃
覆
見
規
覓
視
覧
親
覺
覽
觀
见
观
角
解
言
訁
訂
訇
計
訊
討
託
記
訪
設
許
訴
註
評
詞
詢
試
詩
詮
話
該
詳
詹
誌
認
誓
誕
誘
語
誠
誡
誩
說
課
誼
調
談
請
論
諧
諮
諷
諸
諾
謀
謂
謙
講
謝
謠
謹
證
識
警
譬
譯
議
護
譽
讀
變
讓
讠
谷
豆
豈
豊
豎
豐
豔
豕
豖
豙
象
豦
豩
豪
豬
豸
貇
貌
貓
貝
貞
貟
負
財
貢
貧
貨
販
貪
貫
責
貳
貴
買
費
貿
賀
賁
資
賈
賊
賏
賓
賔
賛
賜
賞
賢
賣
質
賴
購
賽
贈
贊
贏
贖
贝
贡
责
贯
贲
贵
赖
赞
赤
赦
赫
走
赴
起
超
越
趣
足
跌
跑
跟
跡
路
跳
踏
踐
踞
蹇
蹈
蹟
躍
身
躬
車
軌
軍
軎
軟
較
載
輔
輕
輛
輝
輦
輪
輯
輸
輿
轄
轉
轟
车
较
辛
辜
辟
辥
辦
辭
辰
辱
農
辵
辶
边
达
迄
过
迎
近
返
连
迦
迪
迫
述
迴
迷
追
退
送
逆
透
逐
途
這
通
逝
逞
速
造
逢
連
逮
週
進
逸
逼
遀
遂
遇
遊
運
過
道
達
遜
遠
遣
適
遭
遴
遶
遷
選
遺
遼
避
邁
還
邊
邏
邑
邕
那
邦
邨
邪
邱
邵
邸
郊
郎
郡
部
郭
郵
都
鄂
鄉
鄭
鄰
酉
酋
配
酒
酓
酸
醃
醫
醬
釀
釆
采
釋
里
重
野
量
金
釒
針
鈔
鈴
鉤
銀
銃
銅
銘
銜
銳
銷
鋁
鋒
鋤
鋼
錄
錐
錢
錦
錫
錯
錶
鍋
鍾
鎮
鎳
鏡
鐘
鐮
鐵
鑼
鑽
钅
長
镸
长
門
閃
閉
開
閏
閑
閒
間
閔
閣
閱
閵
閻
闊
闌
關
闢
门
间
闷
阑
阜
阝
阱
防
阴
阻
阿
附
降
限
陡
院
陣
除
陪
陰
陳
陵
陶
陷
陸
陽
隆
隊
隋
階
隔
隘
際
障
隡
隧
隨
險
隱
隶
隸
隹
隺
隻
隼
隽
难
雀
雁
雄
雅
集
雇
雈
雋
雍
雐
雔
雕
雖
雙
雚
雜
雝
雞
離
難
雨
雩
雪
雲
零
雷
電
需
震
霍
霓
霜
霝
霞
霧
露
霸
靈
靑
青
靜
非
靡
面
靣
革
鞍
鞏
鞥
韋
韓
韦
韩
韭
韯
韱
音
韻
響
頁
頂
頃
項
順
須
頌
預
頓
頗
領
頡
頭
頸
頻
顆
題
額
顎
顏
顛
類
顯
页
風
颱
风
飛
飞
食
飠
飯
飲
飽
飾
餅
養
餐
餘
餚
館
饣
首
馘
香
馬
馮
馳
駐
駦
駭
騎
騰
驅
驗
驚
驟
马
骨
髒
髓
體
高
髟
髮
髻
鬥
鬧
鬯
鬲
鬼
魁
魂
魚
魯
鮑
鮪
鮮
鯨
鱉
鱼
鲁
鲜
鳥
鳩
鳳
鳴
鴞
鴨
鴻
鵑
鵝
鵲
鶴
鶺
鷂
鷹
鷺
鸛
鸟
鹵
鹽
鹿
麃
麒
麓
麗
麟
麥
麦
麴
麵
麻
麼
黃
黄
黍
黎
黑
黒
默
黛
點
黨
黹
黽
黾
鼎
鼓
鼠
鼻
齊
齋
齐
齒
齡
齦
齿
龍
龙
龜
龟
龠
龰
龱
龴
龵
龶
龷
龸
龹
ꭰ
ꭱ
ꮑ
ꮧ
者
艹
ﷲ
﹐
﹑
﹗
﹙
﹚
﹝
﹞
﹤
﹥
﹪
﻿
！
＂
％
＇
（
）
＊
，
－
．
／
０
：
；
＝
？
［
｀
ａ
ｅ
ｋ
ｍ
ｎ
ｐ
ｑ
ｓ
ｔ
ｗ
～
｣
�
𐌰
𐌳
𐌹
𐌽
𐍂
𠀁
𠀃
𠀆
𠀉
𠀎
𠀐
𠁁
𠁣
𠂆
𠂇
𠂈
𠂉
𠂊
𠂋
𠂎
𠂒
𠂔
𠂛
𠂡
𠂢
𠂤
𠂬
𠂭
𠂹
𠃊
𠃋
𠃌
𠃍
𠃎
𠃑
𠃓
𠃔
𠃜
𠄌
𠄎
𠄠
𠄢
𠆢
𠆥
𠇍
𠈌
𠌵
𠓜
𠔉
𠔥
𠔼
𠔽
𠔿
𠕀
𠕁
𠕋
𠘧
𠘨
𠙻
𠙼
𠚏
𠚒
𠚤
𠚪
𠣏
𠤎
𠤕
𠥓
𠦄
𠦑
𠦝
𠧒
𠧗
𠧪
𠩺
𠪚
𠫓
𠫔
𠫤
𠬛
𠬝
𠬞
𠬢
𠬤
𠬶
𠮛
𠮦
𠮷
𠯑
𠱠
𠳮
𠷎
𡈼
𡉀
𡉵
𡌥
𡍮
𡏳
𡕒
𡕩
𡕰
𡖅
𡗗
𡗜
𡘆
𡘤
𡧱
𡨄
𡩧
𡬠
𡭽
𡰣
𡰥
𡰪
𡰯
𡰱
𡷈
𡸁
𡿨
𡿩
𡿪
𡿺
𢀖
𢀛
𢀩
𢁙
𢆉
𢆰
𢆶
𢇁
𢇇
𢉖
𢌬
𢌿
𢏚
𢑑
𢑚
𢖻
𢙣
𢛳
𢦏
𢦒
𢧵
𢼄
𢾕
𣁋
𣄼
𣅀
𣅽
𣍘
𣎳
𣎵
𣏋
𣏼
𣗥
𣥂
𣥖
𣦵
𣦼
𣧄
𣪊
𣪠
𣬉
𣳾
𣶒
𤇾
𤊽
𤐫
𤓰
𤔔
𤕨
𤣩
𤰇
𤰔
𤰞
𤴓
𤴔
𤽄
𥁑
𥁕
𥃦
𥃩
𥃭
𥇡
𥑟
𥘅
𥘈
𥝢
𥫗
𥱡
𦈢
𦉪
𦉬
𦉼
𦍌
𦍒
𦎧
𦐇
𦓔
𦔮
𦘒
𦙃
𦚏
𦣝
𦣞
𦣻
𦥑
𦥔
𦥯
𦨉
𦭝
𦰩
𧆞
𧈧
𧘇
𧰨
𧴪
𧴮
𧵩
𧾷
𨸏
𨾴
𩙿
𩠐
𩫏
𩵋
𪉷
𪜀
𪟽
𪠲
𪩲
𫇦
𫔭
𫜸
𫝀
𫠣
𫠩
𫢉
𫥞
𫩏
𫩠
𫪡
𫲽
𫶧
𬀷
𬐘
𬗌
𬙙
𬛸
𬜯
𬟩
𬯁
𬴘
𬺻
𬼉
𬼖
𭀰
𭁈
𭁨
𭅰
𭑈
𭕄
𭗼
𭤨
𭥫
𭻾
𮅕
𮊿
𮍌
𮍏
𮓗
𮥼
𮧮
廾
𰀁
𰀄
𰀈
𰀉
𰀕
𰀠
𰀡
𰀢
𰀪
𰁜
𰃮
𰆊
𰆘
𰋙
𰕎
𰢴
𰧭
𰯲
038--
04--
090--
264--
297--
47--
51--
53--
54--
55--
599--
621--
63--
641--
67--
77--
780--
82--
835--
84--
85--
852--
862--
864--
88--
95--
980--
99--
a--
aa--
aar--
aaw--
aay--
ab--
aba--
abu--
ac--
ad--
ae--
af--
ag--
ah--
ai--
air--
ak--
aka--
akn--
ako--
al--
ala--
alang--
ale--
all--
am--
ama--
aman--
an--
ana--
and--
ang--
ani--
ante--
anti--
ao--
api--
apu--
ar--
arapo--
ari--
arm--
ars--
arti--
as--
asi--
aso--
asu--
at--
au--
aw--
awr--
awring--
aws--
awta--
ay--
ayd--
ayr--
az--
b--
ba--
bah--
bal--
balay--
bam--
ban--
bar--
bari--
bat--
baw--
bay--
bb--
bbe--
bc--
be--
bel--
ben--
ber--
bey--
bgu--
bi--
bil--
bin--
bis--
bl--
ble--
bm--
bn--
bng--
bnr--
bo--
boa--
bodu--
bor--
bos--
bot--
bou--
br--
bra--
bre--
bri--
bru--
bs--
bu--
bun--
bur--
by--
c--
ca--
cal--
cali--
can--
cang--
canwwe--
car--
cara--
caro--
cau--
caw--
cay--
cc--
cci--
ccng--
ccu--
ce--
ceko--
cen--
ceng--
cenko--
censo--
cer--
cey--
ceyar--
ceyn--
cfg--
ch--
cham--
chen--
chi--
cho--
ci--
cia--
cian--
ciato--
cice--
cico--
cicu--
cid--
cida--
cie--
cig--
cih--
cika--
cin--
cincang--
cinci--
cing--
cingci--
cinti--
cipu--
cir--
ciray--
ciri--
cisi--
citu--
ciu--
ciya--
ciye--
ciyen--
ciyi--
cla--
cm--
cmin--
cn--
cnan--
cnc--
cncu--
cnfu--
cng--
co--
com--
con--
cong--
cor--
corne--
cow--
cpn--
cq--
cri--
csan--
csu--
cu--
cuc--
cuci--
cucu--
cug--
cuko--
cun--
cung--
cus--
cuw--
cuye--
cuyi--
cuyo--
cwe--
cwen--
cwey--
cwo--
cy--
cya--
cyac--
cyan--
cyang--
cyaw--
cyawdong--
cyen--
cyey--
cyo--
cyow--
cyu--
cyun--
cyuryo--
d--
da--
dacik--
dan--
dang--
dara--
daw--
day--
daya--
dc--
dd--
dden--
ddq--
ddu--
de--
del--
den--
der--
des--
dey--
deyn--
deynjan--
dg--
dh--
dha--
dhe--
dhey--
dhi--
di--
din--
ding--
dist--
dja--
dji--
djiyun--
dm--
dma--
dmg--
dmu--
dn--
dndu--
dng--
dnn--
dnng--
dno--
dnu--
do--
dong--
dor--
dow--
dq--
dr--
dre--
ds--
du--
duma--
duq--
dwo--
dx--
dxral--
dyn--
e--
ed--
ee--
egu--
el--
elu--
eluos--
em--
emb--
embb--
emp--
empe--
empp--
empt--
en--
end--
eng--
enpp--
eqra--
er--
eri--
es--
esti--
et--
etu--
eu--
ex--
ey--
f--
fa--
fab--
fac--
fakwo--
fal--
fan--
fang--
fantuey--
far--
fasu--
fc--
fe--
fear--
fen--
fet--
fey--
feycow--
figu--
file--
fla--
flo--
fn--
fo--
fong--
for--
foun--
fr--
ft--
fu--
fun--
fung--
fur--
furay--
furi--
g--
ga--
gab--
gaga--
gar--
gas--
gay--
gbu--
gdr--
ge--
get--
geynju--
gg--
gi--
glg--
gli--
gm--
gme--
gmn--
gn--
gna--
gndr--
gnh--
gnl--
gnre--
go--
gol--
gon--
gong--
gor--
gow--
gq--
gra--
gsi--
gu--
gun--
guo--
gy--
h--
ha--
haar--
hai--
hala--
han--
hang--
har--
hasiyey--
hati--
haw--
hay--
hayan--
hb--
hcuo--
hd--
hdi--
hdu--
he--
hear--
hen--
heng--
hey--
heyi--
heylong--
hh--
hi--
hiyi--
hk--
hl--
hm--
hmd--
hme--
hmg--
hml--
hmm--
hmr--
hn--
hnd--
hng--
hnri--
ho--
hoar--
hol--
hon--
hong--
hor--
hori--
how--
hpra--
hpu--
hq--
hr--
hra--
hri--
hru--
hu--
hua--
huang--
huar--
huku--
hul--
hun--
hung--
hur--
huri--
huy--
hwa--
hwan--
hwar--
hwarun--
hwe--
hwey--
hwo--
i--
ia--
iar--
iaw--
ice--
ici--
id--
ida--
ie--
if--
ii--
iji--
il--
im--
ima--
in--
ing--
ingni--
ini--
inst--
inte--
inter--
intu--
iri--
is--
isu--
it--
ita--
iu--
ix--
iy--
iyen--
j--
ja--
jan--
jang--
jar--
jay--
je--
jen--
jetay--
jey--
ji--
jin--
jing--
jn--
jnmin--
jo--
jotay--
jpg--
ju--
juan--
jwo--
jya--
jyo--
jyu--
k--
ka--
kai--
kan--
kana--
kang--
kar--
kara--
kari--
karo--
kasi--
katung--
kaw--
kay--
kayr--
kb--
kbkuy--
kbre--
kbu--
kch--
kd--
kdd--
kdr--
kdu--
ke--
kee--
ken--
ker--
kes--
keu--
key--
keyn--
kg--
kge--
kgha--
kh--
kha--
khu--
ki--
kin--
king--
kiya--
kji--
kk--
kka--
kku--
kkur--
kl--
kla--
kle--
klwaan--
km--
kmn--
kmu--
kn--
knb--
knbb--
knbr--
knbu--
knc--
knd--
knda--
kndr--
kne--
kng--
kngla--
knh--
knk--
knke--
knkl--
knl--
knla--
knll--
knnu--
knp--
knpl--
knpra--
knr--
knru--
kns--
knt--
knth--
knu--
ko--
koa--
koci--
kocia--
koh--
koka--
kol--
komin--
komm--
kon--
kong--
konh--
konhe--
konkon--
konp--
kor--
koran--
kori--
kou--
kow--
kowng--
kpa--
kr--
kra--
kre--
kri--
kro--
krpa--
ks--
kse--
ksk--
kt--
kte--
kti--
ku--
kucya--
kud--
kuey--
kun--
kung--
kuo--
kuoci--
kur--
kus--
kuy--
kwa--
kwan--
kwe--
kwey--
kwo--
kwoci--
kwou--
kwu--
ky--
kya--
kyi--
kyo--
l--
la--
lab--
lamu--
lan--
laqi--
lar--
law--
lay--
lb--
le--
lg--
lh--
li--
lifa--
lii--
lin--
liyu--
ll--
lm--
lme--
lmg--
lmi--
lmu--
ln--
lng--
lnh--
lnl--
lo--
lq--
ltu--
lu--
lun--
lwo--
lyo--
m--
ma--
maa--
mac--
mada--
maha--
mai--
make--
mal--
mala--
malu--
man--
mangal--
mapu--
mar--
mari--
mas--
mat--
mata--
maw--
maxal--
may--
maya--
mb--
mba--
mbb--
mbi--
mbn--
mbs--
mbu--
mc--
mcc--
mce--
md--
mdu--
me--
medi--
mee--
melamu--
men--
mer--
meu--
mey--
mez--
mg--
mge--
mgg--
mgs--
mgu--
mh--
mhe--
mi--
migra--
min--
minc--
mincu--
ming--
mingcu--
mir--
mirror--
mis--
misu--
mit--
mk--
mke--
mkl--
mkm--
mkre--
mku--
ml--
mle--
mli--
mlutuc--
mm--
mmaku--
mn--
mnd--
mndd--
mne--
mng--
mniq--
mnq--
mnr--
mns--
mnsr--
mntu--
mnu--
mo--
moda--
mon--
mong--
monter--
mor--
moray--
moro--
mow--
mp--
mpa--
mpd--
mph--
mpk--
mpl--
mpme--
mpo--
mpp--
mpq--
mpt--
mpu--
mq--
mqe--
mqu--
mr--
mre--
mri--
mru--
ms--
msa--
msdh--
mse--
msg--
msi--
msne--
msnl--
msq--
mss--
msu--
mt--
mte--
mtg--
mti--
mtn--
mtq--
mtt--
mtu--
mu--
mul--
mun--
mung--
mur--
mus--
musa--
mutu--
muu--
mw--
mwo--
my--
n--
na--
naar--
nab--
nakaw--
nam--
nan--
nar--
nas--
nat--
nav--
naw--
nay--
nc--
ncu--
nd--
ne--
nen--
neru--
new--
ney--
ng--
nga--
ngu--
nh--
nho--
nhung--
ni--
nii--
nin--
ning--
niq--
niqan--
nis--
niya--
nko--
nl--
nme--
nmi--
nn--
nng--
no--
non--
nong--
nor--
now--
ns--
nsu--
nto--
ntu--
nu--
nun--
nwo--
nyeyn--
nyo--
nyu--
nyusan--
nze--
o--
oa--
oco--
ocow--
of--
oju--
ojyo--
ok--
olu--
on--
ong--
op--
or--
oro--
ou--
over--
ow--
oya--
p--
pa--
pac--
paha--
pai--
pak--
pako--
pan--
pang--
pao--
par--
para--
pari--
parin--
paru--
pas--
pat--
patas--
pau--
paw--
pay--
pays--
pb--
pc--
pcc--
pce--
pch--
pd--
pe--
pen--
per--
pey--
peyn--
pg--
pge--
pgg--
pgi--
pgu--
ph--
phe--
phi--
phiyu--
phl--
phye--
pi--
pifan--
pin--
ping--
pip--
piri--
pisu--
pit--
piyey--
pj--
pk--
pkb--
pkg--
pkl--
pkm--
pkn--
pkr--
pks--
pku--
pl--
ple--
pn--
pnc--
pnd--
pne--
pnee--
pneg--
png--
pnh--
pnk--
pnki--
pnl--
pnn--
pnp--
pnq--
pnqrnu--
pnr--
pnru--
pns--
pnsd--
pnsga--
pnsk--
pnsn--
pnsr--
pnst--
pnsu--
pnt--
pnta--
pnth--
pntna--
pntr--
pntu--
pnu--
pnug--
pnuge--
po--
pokay--
poli--
pon--
por--
poran--
poro--
pos--
posu--
pote--
pow--
pp--
ppn--
ppng--
ppr--
pps--
ppu--
ppul--
pq--
pqa--
pqqa--
pr--
pra--
pri--
prng--
pro--
provin--
pru--
ps--
psa--
psb--
psdh--
psdrx--
pse--
psga--
psgi--
psh--
psk--
psl--
psng--
psp--
pspi--
psq--
psr--
pss--
pssi--
pst--
pstu--
psu--
pt--
pta--
ptb--
pte--
ptg--
ptge--
pth--
ptle--
ptp--
ptu--
pu--
puar--
puka--
puley--
pun--
pur--
pure--
puri--
pus--
pusu--
pwo--
pyaw--
q--
qa--
qal--
qb--
qbu--
qda--
qe--
qerwo--
qge--
qla--
qle--
qli--
qlu--
qm--
qme--
qml--
qmn--
qmr--
qn--
qne--
qnh--
qnl--
qnn--
qnq--
qnre--
qo--
qpru--
qq--
qqe--
qqya--
qr--
qri--
qta--
qtu--
qu--
qy--
qyu--
r--
ra--
rabey--
rail--
ran--
raw--
ray--
re--
rem--
ren--
renmin--
revolu--
rey--
reynh--
rg--
rh--
rhe--
rhu--
ri--
ric--
rifa--
riku--
rin--
ring--
ris--
risi--
riu--
riyo--
rm--
rme--
rmi--
rmn--
rn--
rng--
rni--
rnr--
rnu--
ro--
roma--
ron--
rong--
ros--
row--
rr--
rri--
rrmi--
rru--
rtr--
ru--
run--
rung--
rupu--
rute--
rwo--
ryan--
ryen--
ryey--
ryo--
ryow--
ryu--
s--
sa--
saar--
sai--
saka--
salman--
samo--
san--
sandbox--
sang--
sanye--
sapah--
sar--
sara--
sas--
sat--
saw--
sawsu--
say--
saya--
sayn--
sb--
sbb--
sbc--
sbi--
sbr--
sbra--
sbu--
sby--
sbye--
sc--
sce--
sci--
sd--
sda--
sdd--
sdh--
sdo--
sdr--
sdu--
se--
see--
seejiq--
sehuey--
sej--
sen--
seng--
serbia--
ses--
set--
sey--
sfa--
sg--
sh--
sha--
she--
shi--
shin--
shqi--
shwa--
si--
sici--
sig--
sii--
sila--
sim--
sin--
sing--
sipe--
sir--
sira--
siya--
sja--
sk--
ska--
ske--
skeser--
skeu--
sl--
sle--
sli--
sll--
slo--
slu--
sm--
sma--
smaru--
smd--
sme--
smg--
smi--
smk--
sml--
smm--
smn--
smnr--
smr--
smt--
smu--
sn--
snaru--
snb--
snci--
sne--
sng--
snh--
snl--
snlu--
snq--
snri--
snt--
snu--
so--
sofe--
son--
sor--
soto--
sotu--
south--
sow--
sp--
spe--
spee--
spi--
spn--
spu--
spuda--
sq--
sqr--
sr--
sri--
sru--
ss--
sse--
ssi--
ssu--
st--
stan--
ste--
sth--
sto--
stu--
sty--
su--
suce--
sufa--
sula--
suma--
sun--
sung--
suon--
sur--
suri--
sus--
suta--
sutan--
suti--
suwe--
suye--
suyo--
sw--
swe--
swey--
swo--
swy--
sy--
sya--
syan--
syang--
syaw--
sye--
syey--
syeyn--
syo--
syoku--
syong--
syow--
syu--
sywo--
t--
ta--
tag--
tai--
tain--
tako--
takol--
taku--
tam--
tan--
tang--
tapa--
tar--
taru--
tas--
tasang--
tasu--
tat--
tau--
taw--
tay--
taysu--
tb--
tbb--
tbr--
tbu--
td--
tdh--
tdr--
te--
ten--
teng--
ter--
territo--
tes--
tey--
teyn--
tg--
tgli--
tgq--
tgska--
tgu--
th--
the--
tho--
ti--
tic--
tie--
ting--
tir--
tiyi--
tja--
tju--
tjua--
tku--
tla--
tle--
tli--
tlo--
tm--
tmb--
tme--
tmn--
tmu--
tn--
tna--
tnb--
tnbu--
tndh--
tne--
tneg--
tng--
tnh--
tnp--
tnq--
tnr--
tns--
tnu--
to--
tocu--
tocung--
tom--
ton--
tong--
tope--
tor--
toran--
toro--
tow--
toyo--
tp--
tpwo--
tq--
tqu--
tr--
tra--
tre--
tri--
try--
tt--
tta--
tte--
ttg--
ttin--
ttp--
ttu--
tu--
tuki--
tuli--
tum--
tumn--
tun--
tung--
tuo--
tuoko--
tur--
tux--
tuy--
tw--
twe--
twey--
two--
tyaw--
tyey--
u--
ua--
uc--
uci--
ucong--
ucu--
ucwan--
ujong--
uk--
uka--
ul--
umm--
umu--
un--
undo--
up--
ur--
uri--
uru--
us--
use--
utu--
uu--
uwa--
uwe--
ux--
uy--
v--
va--
val--
valen--
ve--
ver--
vi--
view--
viewedit--
vin--
vla--
vo--
vol--
w--
wa--
wada--
wan--
wang--
war--
was--
way--
waya--
we--
weho--
wen--
west--
wey--
weycyey--
weyn--
who--
wi--
wiki--
wo--
woar--
wol--
wri--
wu--
wun--
wy--
x--
xe--
xi--
xin--
y--
ya--
yaco--
yama--
yan--
yang--
yar--
yari--
yas--
yasu--
yatay--
yaw--
ye--
yen--
yeng--
yey--
yeyn--
yg--
yi--
yim--
yin--
ying--
yis--
yisen--
yisu--
yiu--
yiwu--
yn--
yo--
yong--
yow--
yu--
yuen--
yueyn--
yui--
yun--
yung--
yy--
z--
za--
zag--
zan--
zen--
zi--
zo--
zu--
zun--
zwo--
ð--
γε--
μ--
ν--
го--
масал--
обл--
республ--
срб--
ا--
اد--
ال--
الم--
سو--
--0
--00
--08
--1
--11
--2
--3
--32
--4
--40
--41
--5
--59
--6
--60
--64
--65
--7
--79
--8
--9
--90
--91
--95
--a
--ac
--aca
--aci
--acu
--acyun
--ae
--ag
--ah
--ahu
--ai
--ak
--aka
--ake
--ako
--akun
--al
--alang
--ale
--alu
--am
--amo
--an
--ana
--anci
--ang
--anko
--anna
--ans
--ant
--apo
--aq
--aqa
--aqi
--aqih
--aqil
--ar
--ara
--armo
--aro
--ars
--ary
--as
--asa
--asng
--asu
--asw
--at
--ata
--atan
--ate
--ati
--atis
--ative
--ato
--au
--aun
--aw
--awa
--awas
--awey
--ax
--ay
--aya
--ayan
--aye
--ayi
--b
--ba
--bak
--bal
--ban
--bay
--be
--bek
--ber
--bg
--bi
--bin
--bing
--blik
--blurb
--bn
--bo
--bu
--buk
--bukuy
--bura
--c
--ca
--cai
--cal
--can
--cang
--caw
--cay
--ccu
--ce
--cen
--ceng
--cens
--ces
--cey
--ceyn
--cgn
--ch
--cha
--ci
--cia
--ciaw
--cicin
--cida
--ciko
--cil
--cin
--cing
--cio
--ciq
--cis
--ciu
--ciya
--ciyaw
--ciyn
--ck
--cn
--cnci
--cnfu
--cng
--cngfu
--cngjn
--cni
--cnseyn
--co
--con
--cong
--cow
--createurl
--cs
--csu
--ct
--cted
--ctu
--cu
--cuc
--cucu
--cuh
--cui
--cun
--cung
--cus
--cusi
--cuy
--cuyi
--cy
--cya
--cyang
--cyaw
--cye
--cyeu
--cyeyn
--cyi
--cyo
--cyu
--cyun
--cyungcu
--d
--da
--daha
--dan
--dang
--daw
--dax
--day
--daya
--de
--dha
--dheran
--dhuq
--di
--dicu
--dil
--din
--ding
--dis
--display
--dn
--do
--dra
--ds
--du
--duan
--dug
--dul
--dun
--dura
--dus
--dy
--e
--ea
--ear
--eci
--ecu
--ed
--eda
--editurl
--eela
--eg
--egu
--eh
--eho
--ei
--el
--ela
--ele
--ell
--elug
--em
--en
--ena
--eng
--ense
--ents
--ep
--epu
--er
--ere
--eri
--ero
--ers
--es
--esa
--esan
--ese
--esen
--esia
--esu
--esun
--et
--eta
--eto
--etu
--etun
--eun
--ey
--eyax
--eycu
--eyn
--eyng
--eynhwa
--eyr
--ezwera
--f
--fa
--faan
--fan
--fang
--fasi
--fayen
--fe
--fey
--feyi
--fo
--fu
--fun
--g
--ga
--gal
--gan
--gari
--gaw
--gay
--gcu
--gcyu
--ge
--ges
--gfu
--ggio
--gh
--ghu
--gi
--gin
--gkang
--gko
--gkwo
--gl
--gn
--gna
--go
--gon
--gong
--gpa
--gsu
--gsweyar
--gta
--gu
--guc
--guh
--gul
--gun
--gus
--h
--ha
--hai
--hak
--ham
--han
--hangan
--hari
--haw
--hay
--he
--hekwo
--hi
--hidaw
--hini
--hiya
--hkwo
--hn
--hnkn
--ho
--hong
--hu
--hua
--huey
--hul
--hun
--huq
--hur
--huwe
--huy
--hwa
--hwan
--hwe
--hwey
--hwo
--hy
--i
--ia
--ian
--iau
--iaw
--ibu
--ic
--ica
--ical
--icu
--id
--ida
--idas
--ien
--ife
--ig
--ign
--ih
--ihuey
--ii
--ik
--ika
--il
--ilo
--in
--ina
--ing
--inghan
--ini
--int
--io
--ion
--ipo
--ipu
--iq
--iqan
--ir
--ire
--is
--isiya
--it
--itan
--ite
--iti
--ito
--itwo
--ity
--ium
--iun
--iy
--iya
--iyo
--iyq
--j
--ja
--jacang
--jan
--jaw
--je
--jen
--ji
--jil
--jis
--jn
--jo
--joku
--jpaw
--ju
--jwo
--jyo
--jyu
--jyueyn
--k
--ka
--kal
--kan
--kang
--kar
--kara
--kari
--kas
--kau
--kaw
--kay
--ke
--ken
--kes
--key
--ki
--kika
--kil
--kiyo
--kkwo
--kn
--ko
--koci
--koco
--kocu
--koka
--kongri
--kos
--kosu
--kow
--kra
--kran
--ks
--ksun
--ku
--kuar
--kuh
--kul
--kun
--kung
--kuo
--kwa
--kwan
--kwe
--kwo
--ky
--kyo
--l
--la
--lah
--lai
--lal
--lan
--land
--laq
--lar
--law
--lax
--lay
--ld
--le
--ler
--les
--ley
--lf
--li
--lig
--lih
--lik
--lin
--ling
--link
--lis
--ll
--ln
--lo
--lon
--lp
--lpu
--ls
--lt
--lu
--luc
--lug
--luk
--luos
--luq
--lus
--lux
--ly
--m
--ma
--mac
--mal
--man
--mat
--maun
--maw
--mawi
--may
--mba
--mbo
--me
--mean
--meco
--men
--mer
--mesu
--mey
--meyco
--mi
--min
--mincu
--mir
--mkan
--mn
--mo
--mon
--mong
--msa
--mu
--muci
--mug
--mun
--mux
--n
--na
--nac
--nag
--nal
--nan
--nanaq
--nas
--nase
--naw
--nca
--nce
--nci
--nco
--ncu
--ncun
--ncya
--ncyu
--nd
--nda
--nde
--nds
--ndu
--ne
--nen
--ner
--ness
--ney
--nfa
--ng
--ngan
--ngci
--ngcu
--ngfu
--nghay
--ngi
--ngko
--ngs
--ngsi
--ngso
--ngsu
--ngtaw
--ngtun
--ngu
--ngun
--ngus
--nhoko
--nhu
--nhuy
--ni
--nia
--nici
--nii
--nin
--ning
--niya
--niyucineya
--nk
--nka
--nko
--nna
--nni
--no
--npa
--npik
--npo
--npu
--nq
--nri
--nru
--ns
--nsan
--nsi
--nso
--nsu
--nt
--ntaw
--nti
--ntu
--nu
--nuc
--nug
--nun
--nut
--nwo
--nx
--nyi
--nyo
--o
--oci
--od
--oe
--ofu
--oh
--oho
--oi
--oko
--ol
--ola
--oli
--on
--ond
--ong
--only
--ons
--oq
--or
--ora
--ore
--os
--ose
--osu
--ou
--our
--out
--ov
--ovic
--ow
--oy
--p
--pa
--pac
--page
--pah
--pai
--pan
--pang
--pantaw
--paru
--pas
--pasa
--paw
--pay
--pe
--pen
--pey
--ph
--pi
--piay
--pin
--ping
--piq
--pir
--ple
--pn
--po
--pot
--poto
--prot
--ps
--pt
--pu
--pun
--pur
--puro
--pusu
--put
--puy
--py
--q
--qan
--qax
--qe
--qi
--qic
--qih
--qil
--qir
--qn
--qu
--qui
--qul
--qun
--r
--ra
--rac
--rahu
--ral
--ran
--raq
--ras
--rat
--raw
--ray
--rc
--rcun
--rd
--rds
--re
--reh
--ren
--renhetan
--res
--rey
--rez
--rfu
--rg
--rga
--rhu
--ri
--ria
--rici
--ricu
--ries
--rih
--riho
--ril
--rin
--ring
--riq
--rira
--ris
--rit
--riun
--rk
--rn
--rng
--ro
--rok
--ron
--ropihay
--rs
--rt
--rto
--ru
--ruh
--run
--rung
--ruq
--rux
--ruy
--rwo
--ry
--ryang
--ryaw
--ryu
--s
--sa
--san
--sang
--sapah
--sar
--saw
--say
--saya
--scape
--scene
--se
--sen
--ser
--sey
--seyn
--si
--sie
--sien
--sik
--sin
--sing
--sis
--siya
--siyang
--siyey
--sjiqan
--skyo
--sm
--sn
--sna
--sng
--so
--song
--sor
--soto
--sow
--ss
--st
--sta
--stan
--ster
--stes
--sto
--ston
--su
--sue
--sug
--suh
--sul
--sun
--sung
--suo
--suq
--sutan
--suu
--swe
--swey
--swi
--swo
--sya
--syan
--syang
--syeyn
--syo
--szoon
--t
--ta
--tac
--tacun
--tafu
--tai
--talu
--tan
--tanah
--tang
--tanting
--tar
--tasan
--tase
--tat
--taw
--tay
--te
--ted
--ten
--ter
--teri
--terikes
--tero
--ters
--tes
--text
--tey
--teyng
--th
--ti
--tial
--tic
--tici
--ticyu
--tifu
--tiko
--tikuo
--tikwo
--tima
--tin
--ting
--tion
--title
--tng
--to
--toar
--toco
--toda
--ton
--tory
--toso
--tow
--tro
--ts
--tsa
--tt
--tu
--tuc
--tucu
--tuey
--tuhu
--tun
--tuo
--tus
--tut
--tux
--tuy
--twa
--twan
--twe
--twey
--two
--ty
--tyey
--tz
--u
--ua
--uai
--uan
--uar
--uas
--uc
--ucyu
--ud
--udl
--udu
--udus
--ue
--ueyya
--ug
--uh
--uhi
--ui
--uin
--uk
--uka
--uku
--ul
--um
--un
--unan
--ung
--uni
--uo
--upu
--uq
--ur
--uran
--uri
--url
--uro
--us
--usu
--ut
--uto
--uu
--uw
--uwan
--ux
--uxay
--uy
--uya
--v
--va
--ve
--vi
--vic
--vu
--w
--wa
--waar
--wak
--wan
--wang
--waq
--war
--way
--wcang
--wcu
--we
--weko
--wen
--wey
--weya
--weyhuy
--weyn
--weysu
--weyya
--wi
--wil
--wko
--wo
--woke
--wong
--wri
--wu
--wun
--wus
--wy
--x
--xa
--xal
--xan
--xay
--xi
--xo
--xral
--xu
--xul
--xun
--xwa
--y
--ya
--yal
--yala
--yam
--yan
--yana
--yang
--yar
--yari
--yas
--yasi
--yat
--yaw
--yax
--yay
--ycya
--ye
--yen
--yey
--yeyn
--yeyng
--yh
--yhu
--yi
--ying
--yinton
--yipu
--yk
--yn
--yna
--yng
--yning
--yo
--yong
--yos
--yow
--yr
--yra
--yryosu
--ys
--ysgu
--yste
--ysu
--yta
--yto
--yu
--yuan
--yuc
--yueyn
--yug
--yuk
--yun
--yuncun
--yus
--yux
--z
--ze
--zen
--zi
--zu
--zun
--zwe
--ɑ
--ə
--ʉ
--ι
--ς
--υ
--ев
--ка
--не
--я
--ة
--ك
--ن
--نه
