!
"
#
##0
##1
##10
##11
##12
##13
##14
##15
##16
##17
##18
##19
##2
##20
##21
##22
##23
##24
##25
##26
##27
##28
##29
##3
##30
##31
##32
##33
##34
##35
##36
##37
##38
##39
##4
##40
##41
##42
##43
##44
##45
##46
##47
##48
##49
##5
##50
##51
##52
##53
##54
##55
##56
##57
##58
##59
##6
##60
##61
##62
##63
##64
##65
##66
##67
##68
##69
##7
##70
##71
##72
##73
##74
##75
##76
##77
##78
##79
##8
##80
##81
##82
##83
##84
##85
##86
##87
##88
##89
##9
##90
##91
##92
##93
##94
##95
##96
##97
##98
##99
$
%
&
'
(
)
*
+
,
-
.
/
0
00
000
001
002
003
004
005
006
007
008
009
01
010
011
012
013
014
0146
015
016
017
018
019
02
020
0210
0211
0213
0214
022
023
025
027
028
029
03
030
031
033
034
035
036
037
038
039
04
041
043
045
047
048
049
05
050
051
05140
0517103169
052
054
056
057
058
059
0590
06
060
061
062
063
065
067
068
07
070
071
075
077
079
08
080
081
083
084
086
087
088
0884
089
09
091
095
096
097
098
1
10
100
1000
1002
1007
101
1010
1011
1013
1014
1015
1016
1017
1018
102
1020
1022
1025
1028
103
1030
1034
1035
1036
1037
1038
1039
104
1040
1041
1042
1046
105
1050
1054
1055
1056
106
1060
1063
1065
1066
107
1070
1071
1076
1077
1078
108
1080
1081
1082
1083
1085
1086
1087
1089
109
1090
1091
1093
1094
1095
1096
1097
1098
1099
11
110
1100
1101
1102
1103
1104
1109
111
1110
1111
1117
1118
1119
112
1120
1122
1124
1126
1128
1129
113
1130
1131
1132
1133
1134
1134838778
1135
1136
1137
1138
114
1140
1141
1142
1143
1145
1147
1149
115
1150
1152
1153
1154
1155
1156
1157
1158
1159
116
1162
1163
1164
1167
1168692238
1169
117
1170
1171
1172
1173
1174
1175
1176
1177
1178
1179
118
1180
1182
1184
1185
1187
1188
1189
119
1190
1191
1192
1194
1195
1196
1198
12
120
1200
1201
1202
1203
1204
1205
1207
1208
1209
121
1210
1211
1212
1213
1214
1216
1217
1218
1219
122
1220
1221
1222
1223
1224
1225
1226
1227
1228
1229
123
1230
1231
1232
1233
1234
1235
1236
1237
1238
1239
124
1240
1241
1242
1243
1244
1245
1247
1248
1249
125
1250
1252
1253
1254
1255
1256
1257
1258
1259
126
1260
1261
1262
1265
1266
1267
1268
1269
127
1270
1271
1272
1273
1274
1276
1277
1278
1279
128
1280
1282
1283
1284
1285
1286
1287
1288
1289
129
1290
1291
1292
1293
1294
1295
1297
1299
13
130
1300
1301
1302
1304
1305
1307
1308
1309
131
1310
1311
1312
1315
1316
1317
1319
132
1320
1322
1324
1325
1326
1327
1328
133
1332
1333
1336
1337
1338
134
1340
1341
1342
1343
1344
1345
1346
1347
1348
1349
135
1350
1351
1353
13530
1355
1356
1357
1359
136
1360
1361
1362
1363
1364
1365
1366
1367
1368
1369
137
1370
1371
1372
1373
1374
1375
1376
1377
1378
1379
138
1380
1381
1382
1383
1384
1385
1386
1387
1388
1389
139
1390
1391
1392
1396
1397
1398
1399
14
140
1400
1401
1402
1404
1405
1406
1407
1409
141
1410
1411
1412
1413
1414
1415
1416
1419
142
1420
1423
1424
1425
1427
1428
1429
143
1430
1431
1433
1434
1435
1436
1437
1439
144
1440
1441
1442
1443
1446
1448
145
1450
1452
1453
1454
1458
1459
146
1460
1461
1462
1464
1465
1466
1469
147
1470
1471
1472
1473
1474
1475
1476
1477
1478
1479
148
1480
1481
1482
1483
1484
1485
1486
1488
1489
149
1490
1491
1492
1493
1494
1495
1496
1497
1498
1499
15
150
1500
1501
1502
1503
1504
1506
1508
1509
151
1510
1511
1512
1513
1514
1515
1516
1517
1519
152
1520
1521
1522
1523
1524
1525
1526
1527
1528
1529
153
1530
1532
1533
1534
1535
1536
1537
1539
154
1540
1541
1542
1543
1546
1547
1548
1549
155
1550
1552
1553
1554
1555
1556
1557
1558
1559
156
1560
1561
1562
1564
1565
1566
1568
1569
157
1571
1572
1573
1575
1577
1578
158
1580
1581
1582
1583
1585
1586
1587
1588
1589
159
1590
1591
1592
1593
1594
1595
1596
1598
1599
16
160
1600
1601
1602
1603
1604
1605
1606
1607
1608
1609
161
1610
1611
1612
1613
1614
1615
1616
1617
1618
1619
162
1620
1621
1622
1623
1625
1626
1627
1628
1629
163
1630
1631
1632
1633
1634
1635
1637
1638
164
1640
1641
1642
1643
1646
1647
1648
165
1650
1652
1653
1654
1655
1656
1657
1658
1659
166
1660
1661
1665
1666
1667
1669
167
1670
1672
1675
1676
1677
1678
168
1680
1681
1682
16825
1683
1684
1685
1686
1687
1688
1689
169
1691
1692
1693
1694
1695
1696
1697
1698
1699
17
170
1700
1701
1702
1703
1704
1705
1706
1707
1708
1709
171
1710
1711
1712
1713
1714
1715
1716
1717
1718
1719
172
1720
1721
1722
1723
1724
1725
1726
1727
1728
1729
173
1730
1731
1732
1733
1734
1735
1736
1737
1738
1739
174
1740
1741
1742
1743
1744
1745
1746
1747
1748
1749
175
1750
1751
1752
1753
1754
1755
1756
1757
1758
1759
176
1760
1761
1762
1763
1764
1765
1766
1767
1768
1769
177
1770
1771
1772
1773
1774
1775
1776
1777
1778
1779
178
1780
1781
1782
1783
1784
1785
1786
1787
1788
1789
179
1790
1791
1792
1793
1794
1795
1796
1797
1798
1799
18
180
1800
1801
1802
1803
1804
1805
1806
1807
1808
1809
181
1810
1811
1812
1813
1814
1815
1816
1817
1818
1819
182
1820
1821
1822
1823
1824
1825
1826
1827
1828
1829
183
1830
1831
1832
1833
1834
1835
1836
1837
1838
1839
184
1840
1841
1842
1843
1844
1845
1846
1847
1848
1849
185
1850
1851
1852
1853
1854
1855
1856
1857
1858
1859
186
1860
1861
1862
1863
1864
1865
1866
1867
1868
1869
187
1870
1871
1872
1873
1874
1875
1876
1877
1878
1879
188
1880
1881
1882
1883
1884
1885
1886
1887
1888
1889
189
1890
1891
1892
1893
1894
1895
1896
1897
1898
1899
19
190
1900
1901
1902
1903
1904
1905
1906
1907
1908
1909
191
1910
1911
1912
1913
1914
1915
1916
1917
1918
1919
192
1920
1921
1922
1923
1924
1925
1926
1927
1928
1929
193
1930
1931
1932
1933
1934
1935
1936
1937
1938
1939
194
1940
1941
1942
1943
1944
1945
1946
1947
1948
1949
195
1950
1951
1952
1953
1954
1955
1956
1957
1958
1959
196
1960
1961
1962
1963
1964
1965
1966
1967
1968
1969
197
1970
1971
1972
1973
1974
1975
1976
1977
1978
1979
198
1980
1981
1982
1983
1984
1985
1986
1987
1988
1989
199
1990
1991
1992
1993
1994
1995
1996
1997
1998
1999
2
20
200
2000
2001
2002
2003
2004
2005
2006
2007
2008
2009
201
2010
2011
20110105133451
2012
2013
2014
2015
2016
2017
2018
2019
202
2020
2021
2022
203
204
205
206
207
208
209
21
210
211
212
213
214
215
216
217
218
219
22
220
221
222
223
224
225
226
227
228
229
23
230
231
232
233
234
235
236
237
238
239
24
240
241
242
243
244
245
246
247
248
2486
249
25
250
2500
2501
251
252
253
254
255
256
257
258
259
26
260
2603
261
262
263
264
265
266
267
268
269
27
270
271
272
273
274
275
276
277
278
279
28
280
281
282
283
284
2849024244
285
286
287
288
289
29
290
2904610014
291
292
293
294
295
296
297
298
299
3
30
300
3000
301
302
303
304
305
306
307
308
309
31
310
311
312
313
314
315
316
317
318
319
32
320
321
322
323
324
325
326
327
328
329
33
330
331
332
333
334
335
336
337
338
339
34
340
341
342
343
344
345
346
347
348
349
35
350
3500
351
352
353
354
355
356
357
358
359
36
360
361
362
363
364
365
366
367
368
369
37
370
371
372
373
374
375
376
377
378
379
38
380
381
382
383
384
385
386
387
388
389
39
390
391
392
393
394
395
396
397
398
399
4
40
400
4000
401
402
403
404
405
406
407
408
4081
409
41
410
411
412
413
414
415
416
417
418
419
42
420
421
422
423
424
425
426
427
428
429
43
430
431
432
433
434
435
436
437
438
439
44
440
441
442
443
444
445
446
447
448
449
45
450
451
452
453
454
455
456
457
458
459
46
460
461
462
463
464
465
466
467
468
469
47
470
471
472
473
474
475
476
477
478
479
48
480
481
482
483
484
485
486
487
488
489
49
490
491
492
493
494
495
496
497
498
499
5
50
500
5000
501
502
503
504
505
506
507
508
509
51
510
511
512
513
514
515
516
517
518
519
52
520
521
522
523
524
525
526
527
528
529
53
530
531
532
533
5330
534
535
536
537
538
539
54
540
541
542
543
544
545
546
547
548
549
55
550
551
552
553
554
555
556
557
558
559
56
560
561
562
5624
563
564
565
566
567
568
569
57
570
571
572
573
574
575
576
577
578
579
58
580
581
582
583
584
585
586
587
588
589
59
590
591
592
593
594
595
596
597
598
599
6
60
600
601
602
603
604
605
606
607
608
609
61
610
611
612
613
614
615
616
617
618
619
62
620
621
622
623
624
625
626
627
628
629
63
630
631
632
634
635
636
637
638
639
64
640
641
642
643
644
645
646
647
648
649
65
650
651
652
653
655
656
657
658
659
66
660
661
662
664
665
666
668
669
67
670
671
672
673
674
675
677
678
679
68
680
681
682
683
684
685
686
687
688
689
69
690
691
692
693
694
695
696
697
698
699
7
70
700
701
7011
702
703
704
705
706
707
708
709
71
710
711
712
713
714
715
716
717
718
719
72
720
7207
721
722
723
724
725
726
727
728
729
73
730
731
732
733
734
735
7358
736
737
738
739
74
740
741
742
743
744
745
747
748
749
75
750
751
752
753
754
755
756
757
758
759
76
760
7602
762
763
764
7644
765
766
768
7688
77
770
771
772
7727
773
774
775
7753
777
778
779
78
780
781
782
7820
783
785
786
787
789
79
790
7906
791
792
793
794
795
796
797
798
799
8
80
800
8000
801
802
803
804
805
806
8069
807
808
809
8090
8094
81
810
811
812
8127
813
8139
814
815
816
8160
817
818
819
82
820
821
822
823
824
825
826
827
828
829
83
830
831
8315
832
8321
8328
833
834
835
837
838
839
84
840
84048
841
842
8424923391
843
844
845
8452
846
8465
8479793500
848
8483213957
849
85
850
850215
852
853
854
855
856
857
858
859
86
860
86036
861
862
863
864
865
866
867
86807
86856
869
86982
87
870
872
87334
874
875
877
878
879
88
880
88034
881
884
885
886
887
888
889
88920
89
890
891
892
893
894
895
896
897
898
8986
89862
899
9
90
900
901
903
904
905
906
907
908
909
91
910
911
912
913
914
915
916
917
918
919
92
920
921
922
923
924
925
926
927
928
929
93
930
9321
934262
935
936
937
938
939
94
940
940886
941
942
943
944
945
947
948
949
95
950
951
952
953
954
955
956
957
958
959
95997
96
960
961
962
963
964
96457
965
966
967
968
969
97
970
971
972
973
9734
975
976
9761
977
978
9781134838776
9782849024249
9788424923396
9788477538554
979
98
980
981
982
983
984
985
986
987
988
989
99
990
991
9911
992
993
994
995
996
9967
997
999
:
;
<
=
>
?
@
[
\
]
^
_
`
a
aa
aaron
ab
aba
ababol
abad
abadesa
abadi
abadia
abai
abaixo
abajo
abance
abances
abandona
abandonados
abandonar
abandonau
abandono
abanto
abanza
abanzada
abanzar
abanzau
abanzo
abanzoron
abarca
abarcas
abat
abate
abba
abbas
abbasi
abc
abchadi
abd
abderrama
abdicacio
abdomen
abdul
abe
abeba
abechuela
abejuela
abel
abella
abellas
aber
abertawe
abertzale
abet
abetz
abi
abia
abiego
abiento
abierto
abio
abizanda
abkhasia
abkhasio
abkhasios
abo
abolicio
abolio
aborichens
about
abraca
abraham
abrams
abreviadura
abreviato
abreviau
abri
abrigo
abril
abrucena
abruzos
abs
absent
abside
absides
absoluta
absoluto
absorber
absorcio
abstracta
abstracto
abstractos
abu
abuela
abuelo
abunda
abundan
abundancia
abundant
abundants
ac
aca
acaba
acabada
acabadas
acaban
acabar
acabau
acabaus
acabo
acade
academia
academias
academica
academico
academicos
academy
acaya
acb
acc
accede
acceder
accento
accentos
accentuacio
accepta
acceptacio
acceptada
acceptan
acceptar
accepto
accesible
accesibles
acceso
accesorios
accesos
accident
accidental
accidents
accio
accions
accipiter
accipitridae
aceite
aceites
acento
acepta
aceptar
acepto
acequia
acer
aceral
acerca
aceret
acero
aceto
ach
achar
ache
achencia
achencias
achenda
achent
achents
acher
acherito
achilidat
achirmanatas
achunta
achuntamiendo
achuntamiento
achuntamientos
achuntan
achuntar
achunto
achuntoron
achusta
achustar
aci
acida
acido
acidos
aciro
acirons
aclarir
aco
acomando
acompanya
acompanyada
acompanyamiento
acompanyan
acompanyando
acompanyar
acompanyata
acompanyato
acompanyau
acompanyaus
acompanyo
aconseguindo
aconseguir
aconseguiu
aconsigue
aconsiguen
aconsiguiendo
aconsiguio
aconsiguioron
acordio
acotolar
acre
acreditato
acronimo
across
act
acta
actas
actes
action
actitut
actitutz
activa
activament
activas
actividad
actividat
actividatz
activista
activistas
activo
activos
acto
actor
actors
actos
actrices
actriz
actu
actua
actuacio
actuacions
actual
actualidad
actualidat
actualizacio
actualizato
actualizau
actualment
actuals
actuando
actuar
actuo
actur
acubillar
acuden
acuerdo
acuerdos
aculle
acullir
acumuer
acumulacio
acumulacions
acumular
acusacio
acusacions
acusativo
acusato
acusatos
acusau
acustica
ad
ada
adam
adams
adapta
adaptacio
adaptacions
adaptada
adaptadas
adaptando
adaptar
adaptato
adaptau
adaptaus
adapto
adaptoron
adas
adauesca
adchacent
adchacents
adchectivo
adchectivos
adchudica
adchudicacio
addis
ade
adebant
adedica
adedicada
adedican
adedicar
adedicata
adedicatas
adedicato
adedicau
adedico
adelant
adelante
adelino
adema
ademe
ademuz
adentro
adequada
adequadas
adequau
ades
adhibe
adhiben
adhibida
adhibindo
adhibio
adhibioron
adhibir
adhibita
adhibito
adhibiu
adibindo
adiccio
adicio
adicional
adicionals
adif
adigio
adintro
adio
adiposo
administra
administracio
administraciones
administracions
administrada
administrador
administrar
administrata
administration
administrativa
administrativament
administrativas
administrativo
administrativos
administrau
admite
admiten
adn
ado
adoba
adobas
adolescencia
adolf
adolfo
adolph
adolphe
adopcio
adopta
adoptado
adoptar
adoptato
adoptau
adopto
ador
adorno
adosada
adour
adquiere
adquirio
adquirir
adquisicio
adrada
adreza
adrezas
adria
adrian
adriana
adriano
adrien
adscrito
adstrato
adube
adubir
adulta
adultas
adulto
adultos
aduxo
aduya
aduyan
aduyando
aduyant
aduyar
aduyas
aduyato
aduyo
aduyoron
adv
advanced
adventure
adventures
adverbial
adverbials
adverbio
adverbios
adversario
advertencia
advocacio
advogato
advogau
adx
ae
aeria
aerias
aerio
aerios
aerolinia
aeronau
aeronaus
aeronautica
aeropuerto
aeropuertos
af
afa
afecta
afectadas
afectan
afectar
afectau
afectaus
afecto
afer
afers
affair
affairs
afganista
afi
aficio
aficionatos
aficionaus
afiel
afinidades
afinidat
afins
afirma
afirmaba
afirmacio
afirman
afirmando
afirmar
afirmo
aflor
aflora
afloramiento
afloramientos
afloran
afluencia
afluent
afluents
afluyents
aforo
africa
africada
african
africana
africanas
africano
africans
africanus
africata
africato
africau
afrika
afrikaans
afro
after
afueras
ag
aga
agafar
again
against
agaricus
age
agen
agency
agli
aglomeracio
agne
agnes
ago
agon
agoni
agora
agost
agosti
agosto
agradable
agramont
agraria
agrario
agreda
agresio
agri
agricola
agricolas
agricultors
agricultura
agrupa
agrupacio
agrupacions
agrupadas
agrupan
agrupar
agu
agua
aguas
aguasvivas
aguda
agudeza
agudo
agueda
aguila
aguilar
aguilera
aguilo
aguirre
aguja
agulla
agullana
agullas
agusti
agut
ah
ahmad
ahmed
ahora
ahorros
ai
aiacciu
aibar
aiga
aigrefeuille
aigu
aigua
aiguabarreig
ailleurs
ailli
ailuropoda
aimant
aimants
aime
aimor
ain
aina
ainas
aineto
ainielle
ainsa
ainsi
aintro
ainzo
air
airbus
aircraft
aire
aires
airlines
airways
ais
aise
aislada
aisladas
aislamiento
aislata
aislaus
aisne
ait
aitona
aixo
ak
aka
akal
aki
akira
aktuelle
al
ala
alabama
alabastro
alabez
alacant
alaco
aladrada
aladre
aladro
alago
alain
alamanico
alamans
alamanya
alameda
alamos
alan
alano
alanos
alans
alarco
alarico
alas
alaska
alata
alava
alave
alavesa
alavetz
alavez
alazet
alazeta
alazetal
alazetalment
alazetals
alazetando
alazetato
alazeto
alazetz
alb
alba
albacet
albacete
albaida
albalat
albalate
albandona
albandonando
albandonar
albandonata
albandonato
albandonau
albandono
albandonoron
albane
albanesa
albaneses
albania
albans
albany
albanya
albaredas
albarraci
albarrazi
albars
albas
albe
albeiteri
albelda
albella
albentosa
albera
alberche
alberga
albergue
alberit
albero
albert
alberta
alberti
alberto
albi
albichenses
albin
albo
alborto
albrecht
albufera
album
albums
albus
alc
alca
alcaine
alcala
alcalate
alcalde
alcaldes
alcaldesa
alcaldi
alcalins
alcan
alcanadre
alcance
alcanyiz
alcanz
alcanza
alcanzar
alcanzo
alcarra
alcarria
alchafari
alchama
alchamiada
alchamiau
alchebra
alcher
alcherez
alcheria
alchezira
alchub
alco
alcofeya
alcohol
alcoholica
alcoholicas
alcoi
alcolea
alcoleya
alconchel
alcor
alcora
alcoraz
alcordo
alcorisa
alcover
alcu
alcubierre
alcudia
alcuerda
alcuerde
alcuerdo
alcuerdos
alda
aldea
aldeanueva
aldeas
aldehuela
alderdi
aldeya
aldeyas
aldeyuela
aldo
aldrich
ale
aleanr
alec
alegori
alegre
alegri
aleixandre
aleixandri
aleixo
alejandro
aleksander
aleksandr
alema
aleman
alemana
alemanas
alemania
alemans
alemanya
alero
ales
alessandro
aleta
aletas
aleutiano
alex
alexander
alexandra
alexandre
alexis
aleyacio
aleyacions
alfa
alfabetico
alfabeto
alfabetos
alfachari
alfalz
alfama
alfambra
alfara
alfareri
alfaro
alfasilabario
alfinde
alfoceya
alfons
alfonso
alfoz
alfranca
alfred
alfredo
alga
algaire
algar
algarabi
algarbe
algars
algarve
algas
algi
algo
algorfa
algorismo
algu
algun
alguna
algunas
alguno
algunos
alhama
alhambra
ali
alia
aliaga
aliagas
alianza
alianzas
alias
aliata
aliatas
aliato
aliatos
aliau
aliaus
alica
alicant
alicante
alicanti
alicas
alice
alicia
alien
alier
alif
alifonso
aliga
alighieri
alimenta
alimentacio
alimentan
alimentando
alimentar
alimentaria
alimentarias
alimento
alimentos
aliniacio
alins
alio
alionor
aliste
alive
aljamiado
aljarafe
alkartasuna
all
alla
allah
allan
alle
allemandes
allen
allende
allepuz
aller
alles
alley
allgemeinbildung
alli
alliance
allium
allmovie
allmusic
allo
allora
alloza
allrovi
allue
allueva
allyson
alma
almacellas
almada
almadazenar
almagazenamiento
almagazenar
almagro
almansa
almanzor
almanzora
almarchal
almarchals
almas
almaza
almenar
almenara
almendra
almendras
almendrera
almendreras
almendro
almendrons
almeri
almeriense
almirant
almochuel
almodo
almofalla
almoga
almolda
almonacid
almonecir
almonezir
almorabet
almorabetz
almozara
almuade
almuades
almude
almunia
alnus
alo
alobras
aloda
alofonos
alois
alone
alonso
alors
alos
alp
alpes
alpha
alphonse
alpi
alpina
alpinas
alpinismo
alpinista
alpuent
alpujarra
alque
alqueri
alqueria
alquezra
alquimia
alredor
als
alsacia
alsaciano
alsina
alt
alta
altai
altament
altar
altaria
altarias
altas
altcamp
alte
alter
altera
alteracio
alteraciones
alteracions
alteras
alterna
alternan
alternancia
alternando
alternas
alternativa
alternativament
alternativas
alternative
alternativo
altero
altes
altipla
altitut
altman
alto
altoarago
altoaragone
altoaragonesa
altoaragonesas
altoaragoneses
altochermanicas
alton
altona
altorrico
altos
altra
altras
altri
altro
altros
altstadt
altura
alturas
alucha
alufrar
alum
aluminio
alumno
alumnos
alusio
aluvial
aluvials
alvar
alvaro
alveolar
alves
alviolar
alviolos
always
alwin
alyga
alytes
alytus
alza
alzan
alzar
alzheimer
alzo
am
ama
amadeus
amagar
amagau
amaiur
aman
amana
amanada
amanadas
amanamiento
amanando
amanar
amanata
amanatas
amanato
amanatos
amanau
amanaus
amanda
amanece
amaneix
amaneixe
amaneixen
amaneixendo
amaneixer
amaneixio
amaneixioron
amanix
amanixen
amanixio
amanixioron
amar
amaral
amarga
amargo
amariella
amariellas
amariello
amariellos
amarilla
amarillenca
amateur
amatista
amazon
amazonas
amb
ambas
ambel
amber
ambient
ambiental
ambientals
ambientata
ambiente
ambients
ambito
ambitos
ambos
ambre
ame
ameche
amelia
amellera
amen
amenaza
amendi
amenista
amenistaba
amenistan
amer
america
american
americana
americanas
americano
americans
americas
amerindios
ametlla
amfibios
ami
amico
amiens
amiga
amigo
amigos
amillorar
amiram
amistanza
amistat
amistoso
amistosos
amo
among
amoniaco
amor
amore
amori
amortar
amos
amostran
amostrando
amostranza
amostranzas
amostrar
amostrato
amostro
amour
amp
amparo
ampla
amplament
amplaria
amplas
amplia
ampliacio
ampliament
amplio
amplo
amplos
amplura
amposta
amprada
ampradas
amprau
ampraus
ampre
amprens
ampres
ampro
ampurias
amsterdam
amt
amuestra
amuestran
amur
amy
an
ana
anade
anado
anagnina
anagrama
anal
anales
anali
analises
analisi
analitica
analochi
analoga
analogo
anals
analysis
anar
anarquismo
anarquista
anarquistas
anas
anastasia
anastasio
anatidae
anatole
anatolia
anatolians
anatomi
anatomica
anatomista
anatomy
anau
anaya
anayet
anca
ancestral
ancha
anchel
anchels
anchiospermas
anchu
ancien
ancient
ancochea
ancona
and
andaluces
andaluci
andalus
andalusi
andaluz
andaluza
andar
ande
anders
andersen
anderson
andes
andilla
andino
ando
andolz
andorra
andrade
andre
andrea
andreas
andrei
andreu
andrew
andrews
andrianoplin
androceu
android
andromeda
andronico
andy
ane
anento
anestesia
aneto
anette
anexio
anexiona
anexionar
anexiono
anexo
anfibios
ange
angel
angela
angeles
angelo
angels
anger
angers
angie
anglaterra
angle
angles
anglesa
anglesas
angleses
anglesola
anglet
anglicana
anglicismo
anglicismos
anglico
angllo
anglo
anglos
anglosaxona
anglosaxons
angola
angry
angu
anguiano
anguita
angular
angulo
angus
angusto
anhalt
ani
aniello
aniellos
anima
animacio
animal
animales
animalia
animals
animatos
animaus
anime
animo
anita
aniversario
ankara
ann
anna
anne
annette
anni
annie
anno
annos
annual
ano
anoia
anonima
anonimo
anos
another
anoto
anouk
anoya
anque
anquela
ans
ansa
anselmo
anseriformes
ansi
ansils
anso
ansotano
ant
anta
antarctico
antarctida
ante
antena
antenas
antequera
anterior
anterioridat
anteriorment
anteriors
antes
anthony
anti
antibioticos
anticlinal
anticlinals
antiga
antigament
antigas
antigo
antigos
antigu
antigua
antiguas
antiguedat
antiguidat
antiguo
antiguos
antihiatica
antillas
antillo
antima
antioqui
antiparte
antiparti
antipasau
antipasaus
antis
anto
antoine
antolochi
antologi
anton
antoni
antonia
antonio
antrim
antropolochi
antropologo
antroponimia
antroponimo
antroponimos
anual
anuals
anuario
anubar
anuncia
anuncio
anura
anuros
anus
anvers
anverso
anvista
anvistas
any
anyada
anyadas
anyade
anyadindo
anyadio
anyadir
anyal
anyalment
anyals
anyata
anyatas
anyes
anyisclo
anyo
anyos
anys
anza
anzoa
ao
aoiz
aon
aoraki
aosta
ap
apache
apanyar
aparato
aparatos
aparcamiento
apareix
apareixe
apareixeba
apareixen
apareixendo
apareixer
apareixio
apareixioron
apareixito
aparello
aparent
aparentment
aparicio
aparicions
apariencia
aparixe
apartamentos
apartheid
ape
apedacato
apedecato
apedecau
apego
apelativo
apellido
apellidos
apellito
apellitos
apelliu
apellius
aperte
apertura
apes
apical
apichat
apicultura
aplega
aplegar
aplego
aplica
aplicaba
aplicable
aplicacio
aplicacions
aplicada
aplican
aplicando
aplicar
aplicata
aplicato
aplicau
aplico
apo
apocalypse
apocheu
apocopa
apocope
apoderar
apodero
apollo
apolo
apomorfia
aporta
aportacio
aportacions
aportan
aporto
apostol
apostolico
apoyo
apple
apr
apre
apreba
aprebacio
aprebo
apreciar
aprecisa
aprender
aprendio
aprendiz
aprendizache
apres
apresta
aprevenir
april
aprobacio
aprobo
aprofeitar
aprofitando
aproveita
aproveitamiento
aproveitan
aproveitando
aproveitar
aproveito
aproveitoron
aproximacio
aproximada
aproximadament
aprueba
aprueban
apskritis
apud
apuesta
apuntes
aq
aqu
aqua
aquario
aquatica
aquaticas
aquatico
aquaticos
aque
aqueilla
aquel
aquell
aquella
aquellas
aquello
aquellos
aquells
aquels
aquemenida
aqueras
aquest
aquesta
aquestas
aqueste
aquesti
aquesto
aquestos
aqui
aquila
aquiles
aquilue
aquino
aquisgra
aquita
aquitania
aquitans
ar
ara
arabe
arabes
arabia
arabica
arabico
arabiga
arabismo
arabismos
arabizacio
araceli
arago
aragob
aragoc
aragon
aragonario
aragone
aragones
aragonesa
aragonesas
aragonesasi
aragonese
aragoneses
aragonesismo
aragonesismos
aragonesista
aragonesoparlant
aragonesoparlants
aragonum
aragorn
aragu
aragua
arainas
arainfo
aral
aralar
arambre
arameu
aramo
aran
arana
aranda
arandiga
arane
aranguta
aranjuez
aranyonet
aranyons
aras
arasanz
arba
arbe
arbeiterpartei
arberoa
arbitrache
arbitro
arbitros
arbol
arbols
arborea
arborio
arbue
arbustivo
arbusto
arbustos
arc
arca
arcada
arcadas
arcadio
arcai
arcaica
arcaico
arcaine
arcas
arcebispato
arcebispe
arcebispes
arcega
archaea
archainbaud
archambault
archel
archelec
archelia
archent
archenti
archentina
archentino
archibald
archidiocesi
archiducato
archiduque
archie
archila
archilas
archilitas
archipielago
archipielagos
architecture
archivato
archive
archived
archives
archivo
archivos
arcipestral
arcipestrau
arcipestraus
arciprestazgo
arco
arcos
arcs
arctico
arctodus
arctos
arcusa
ard
ardea
ardenas
ardisa
ardo
are
area
areas
arellano
arena
arenal
arenas
arengue
arenillas
areno
arenoso
arens
areny
arenys
ares
arevalillo
arezzo
arga
argele
argensola
argent
argentina
argentino
argo
argu
argualas
arguedas
arguis
argumento
argumentos
ari
aria
ariane
arias
aridas
arido
aridos
arie
ariel
aries
ariesta
ariestas
arin
arinyo
aristo
aristocracia
aristocrata
aristotil
aritmetica
arizkun
arizona
arkansas
arlanza
arles
arlet
arm
arma
armada
armadas
armamento
armand
armando
armanhac
armantes
armas
armata
armatas
armato
armatos
armau
armenda
armenia
armenio
armenios
armentera
armenya
armesto
armiellas
armin
armisticio
armita
armor
armored
armoricana
arms
armstrong
army
arn
arna
arnal
arnas
arnau
arne
arnedo
arnold
aro
aromas
aromaticas
aromaticos
aron
arondisamant
around
arpa
arpajon
arpita
arque
arqueolo
arqueolochi
arqueolochica
arqueolochicas
arqueolochico
arqueolochicos
arqueologi
arqueologo
arqueologos
arquero
arquette
arquitecto
arquitectonicas
arquitectonico
arquitectonicos
arquitectos
arquitectura
arra
arrabal
arratia
arrats
array
arre
arredol
arredols
arriana
arrianismo
arrians
arriba
arribada
arriban
arribando
arribar
arribas
arribata
arribato
arribau
arribe
arribo
arriboron
arriel
arro
arroba
arroja
arrondiment
arrondissement
arrostanh
arroway
arrowtown
arroya
arroyo
arroyos
arroz
arrudi
arruma
ars
arse
arsenal
arseni
arsenio
art
arta
artal
arte
arteaga
artemis
arteria
arterias
artes
artesa
artesani
artesans
arteta
arthur
arti
artica
article
articles
articlo
articlos
artics
articula
articulacio
articulo
artieda
artificial
artificialment
artificials
artiga
artigot
artilleri
artist
artista
artistas
artistica
artisticament
artisticas
artistico
artisticos
artists
arto
artois
artola
artosa
artosta
artropodos
arts
artu
artur
arturo
aruba
arzobispo
as
asa
asaber
asalto
asamblea
asambleya
asambleyas
asasinato
asasinatos
asasinau
asayo
ascape
ascaso
ascendencia
ascensio
ascenso
asco
ascuitar
asegura
asegurar
aseguro
asembleya
asemella
asensio
asentamiento
asentamientos
asentar
asentoron
ases
asesinato
asesinau
asesor
asfaltada
ash
ashby
ashley
ashoka
asi
asia
asiatica
asiaticas
asiatico
asiaticos
asienta
asieso
asigna
asignato
asignatura
asilo
asimilacio
asimilando
asimilar
asimilatos
asimiloron
asimov
asin
asinas
asinasmesmo
asirians
asistencia
asistent
asistents
asistenzias
asistio
asistir
asno
aso
asobal
asocia
asociacio
asociacions
asociada
asociadas
asocian
asociar
asociata
asociatas
asociato
asociatos
asociau
asociaus
asp
aspa
aspe
aspecto
aspectos
aspera
asperaba
asperanza
asperar
aspiracio
aspirada
aspres
aspro
aspx
assaber
assassin
assaz
assi
assin
asso
associacio
association
ast
asta
astaire
astarac
asteraceae
asteroide
asteroides
asti
astil
astor
astorga
astra
astral
astro
astrolochi
astronauta
astronautas
astronomi
astronomica
astronomico
astronomo
astronomos
astronomy
astrophysical
astu
astur
asturia
asturiana
asturiano
asturians
asturias
asturleyone
asume
asumio
asumir
asumpcio
asuncio
asuntos
asuso
at
ata
atac
ataca
atacan
atacar
ataco
atacoron
atalaya
ataque
ataques
atare
atatu
ate
atea
ateca
atemperadas
atemperau
atena
atenas
atencio
atender
atentato
atentau
aterrizache
aterrizar
athletic
athletics
atiart
atienza
atila
atilla
atlanta
atlantic
atlantica
atlantico
atlanticos
atlantida
atlas
atle
atleta
atletas
atletica
atletico
atletismo
atmosfera
atmosferica
atmosferico
ato
atomic
atomica
atomico
atomicos
atomo
atomos
atona
atonas
atono
atorga
atorgau
atorgo
atp
atra
atraccio
atraccions
atractivo
atractivos
atras
atraye
atrayer
atribucions
atribuir
atribuita
atribuito
atributos
atribuye
atribuyen
atrio
atro
atros
attack
attenborough
atura
aturada
aturadero
aturaderos
aturando
aturar
aturau
ature
aturo
au
aube
auch
auckland
aud
audal
aude
audiard
audiencia
audio
audiovisual
audiovisuals
auditorio
audrey
auer
auf
auflage
auge
augmento
augsburg
augua
auguanebar
auguas
auguaviva
august
augusta
auguste
augusto
augustus
auia
auie
auien
aujourd
aula
auloro
aumenta
aumentan
aumentando
aumentar
aumento
aun
aunque
aura
aure
aurelia
aurelio
auri
aurora
aus
ausencia
aush
aushesa
aussi
aussun
austin
australia
australian
australiana
australianas
australiano
australians
australis
austria
austriaca
austriaco
austriacos
austro
autant
autariba
autentica
autentico
auteuil
auto
autobu
autobus
autobuses
autocefala
autoctona
autoctonas
autoctono
autoctonos
autodeterminacio
autogubierno
automatica
automaticament
automo
automobil
automobils
automovilistico
autonoma
autonomas
autonomi
autonomica
autonomicas
autonomico
autonomo
autonomos
autopista
autor
autora
autores
autoridat
autoridatz
autorizacio
autors
autos
autovi
autre
autres
autual
auvernia
aux
auxiliar
auxiliars
av
ava
avairon
avance
avant
avantalla
avantallas
avaros
ave
avec
avellana
avellaneda
avellanera
avena
avenged
avenida
avenidas
avenita
aventar
aventura
aventuras
aver
aves
avi
avia
aviacio
aviation
avicultura
aviento
avile
avinyo
avinyonet
avio
avions
aviso
aviv
avoir
avril
avta
avui
awa
award
awards
away
axel
axi
axial
axioma
axiomas
axkenazi
ay
aya
ayala
ayer
ayerbe
ayerbense
ayllo
ayn
ayo
ayora
ayre
ayuda
ayuntamiento
ayuso
az
aza
azagra
azan
azar
azara
azco
azcona
azerbaicha
azeri
azincourt
azna
aznar
azog
azor
azores
azov
azteca
azuara
azul
azuls
azur
azute
b
ba
babel
babieca
babilonia
babor
baby
bacall
bach
baches
bachiller
bachilleraro
bachillerato
baci
back
bacon
bacteria
bacterias
bacu
bad
badai
badajoz
badalona
baden
badenas
badi
badia
badina
bado
baduls
baena
bafta
baga
bagdad
bages
baggins
bagu
baguena
baha
bahamas
bahi
bahia
bahrein
bai
baigorri
baila
bailan
bailar
bailari
bailarina
baile
bailes
bailey
baili
bailo
bains
baiona
baird
bairische
baish
baisha
baix
baixa
baixaba
baixaban
baixada
baixan
baixando
baixant
baixants
baixar
baixas
baixata
baixista
baixkir
baixkiria
baixkirs
baixo
baixoron
baixorribagorzano
baixos
baja
bajo
baker
bal
balaguer
balaitu
balay
balbastro
balcanica
balcans
balcetz
balco
baldes
baldraga
baldui
baldwin
bale
balear
balears
balkans
ball
ballad
ballari
balle
ballena
ballenas
ballester
ballesteros
ballesti
ballet
ballo
ballota
balma
balneyario
balo
baloncesto
balonma
balonmano
balsa
balsam
balsas
balsete
baltasar
baltica
baltico
balticos
baltimore
balto
baluport
balzers
bamberg
bambolla
bambu
ban
bana
banana
banasto
banato
banca
banco
bancos
bancroft
band
banda
bandas
bandera
banderas
bandido
bando
bandos
bang
bangkok
bangladesh
bango
banja
bank
banks
bano
banos
banska
bantu
banu
banyeras
banyeres
banyo
banyos
banzo
baptismo
baptista
baptiste
baptizato
bar
bara
barack
barajas
baralla
barallas
barana
baranas
barato
barba
barbados
barbara
barbaras
barbaros
barbarroya
barbas
barbastro
barbenuta
barbera
barbra
barc
barca
barcabo
barcas
barcelo
barcelona
barcelone
barco
barcos
bardaixi
bardaxi
bardem
bardenas
bardo
barga
bari
barinas
bario
barker
barnes
baro
baroja
baron
baroni
baronia
barons
barra
barrabe
barraca
barracas
barrachina
barral
barranc
barranco
barrancos
barrancs
barrango
barras
barrau
barre
barrera
barreras
barrett
barri
barrie
barrio
barrios
barro
barroca
barroco
barrocos
barros
barrosa
barry
barrymore
bars
bart
barta
barthelmess
bartolome
bartolomeo
bartolomeu
barza
barzas
bas
basa
basaba
basabu
basada
basadas
basal
basan
basando
basara
basas
basata
basatas
basato
basatos
basau
basaus
basca
bascas
basco
bascos
base
based
baselga
bases
basi
basic
basica
basicament
basicas
basico
basicos
basil
basilea
basilica
basilicata
basilio
basket
basketball
basketballbox
baskonia
baso
basque
bass
basse
basshunter
basso
bastes
bastida
bastidas
bastilla
bastio
bastos
bat
batalla
batallador
batallas
batallero
batallo
batallons
batans
batasuna
batea
bateauguas
bateri
bates
bath
batista
bats
battista
battle
batua
baturra
bautista
bavera
baverana
baverans
baxa
baxo
baxter
bay
bayas
bayerischer
bayern
bayeu
bayeux
bayo
bayona
bayreuth
baza
baztan
bb
bbc
bbl
bc
bd
bdfutbol
be
bea
beach
bear
bearn
bearne
bears
beat
beatles
beatrix
beatriz
beatty
beau
beaumont
beautiful
beauty
beauvais
bebe
beber
bebida
bebidas
bec
beceite
bechetals
beck
becker
bed
beduins
been
beery
before
bega
begin
behavior
behind
bei
being
beirut
bel
bela
belaltras
belaltros
belarra
belarrusia
belarruso
belarrusos
belas
belatras
belatro
belatros
belchica
belchit
belchite
bele
belenguer
belfast
belfort
belga
belgas
belgica
belgrado
belica
belico
belize
bell
bella
bellacosa
bellas
belle
bellestar
belleza
bellmunt
bello
bellos
bellostas
bells
bellunas
belmondo
belmont
belmonte
belorruso
belos
bels
belseta
belsue
beltra
belu
beluna
belunas
beluns
belver
ben
bena
benabarre
benasque
benasquesa
benasquesas
benatanduz
benavarri
benavent
benavente
bene
benedet
benedetti
benedict
benedicta
benedicto
beneficio
beneficios
benes
benfica
bengala
bengali
beni
benicio
benidorm
benifaza
benigni
benito
benjamin
bennett
benny
benoi
bentue
benz
benzina
ber
beranui
berato
berbegal
berber
berberi
berbers
berbo
berceo
berchtesgaden
berchtesgadener
berdu
berenguer
beresford
berg
berga
bergamo
berge
bergen
berger
berges
bergman
bergote
bergua
bergueda
bergusa
beric
bering
berkeley
berkshire
berlanga
berli
berlin
berline
bermeu
berna
bernabe
bernabeu
bernad
bernadette
bernadotte
bernal
bernard
bernardino
bernardo
bernat
bernhard
bernhardt
berrelle
berri
berria
berrio
berro
berrocal
berroy
berrueco
berry
bert
berta
bertelsmann
bertolomeu
bertolucci
bertrand
besalu
besanc
besarabia
besco
besers
beso
besora
besson
best
besteiro
bestia
bestiar
bestias
bestue
bet
beta
bete
betis
bette
better
betty
between
beverly
beya
beyer
beyond
bezas
bezeit
bezirk
bezirksteile
bf
bi
bia
biar
biarche
biarge
biarn
biarne
biarnesa
biarritz
bibcode
biblia
biblico
bibliogra
bibliografi
bibliografico
biblioteca
bibliotecas
bibliothe
bichuesca
bicicleta
bicicletas
bicort
bida
bidasoa
bidda
bie
bieber
biel
biella
biello
bielorrusia
bielsa
bien
bienes
bienestar
biens
bienvenido
biera
biernes
bierzo
biescas
big
biga
bigo
bigornia
bigorra
bigorre
bihac
bihan
bil
bilbao
bilbau
bilbilis
bilbilitanos
bilbo
bildu
bilingu
bill
billboard
billet
billetz
billie
billons
billy
bils
bin
binario
binazeit
bine
bingen
binie
binominal
bio
biobi
biodiversidat
biogra
biografi
biografia
biography
biol
biolochi
biolochica
biolochico
biolochicos
biologi
biologo
biology
biomoleculas
bioquimica
bioquimico
biosfera
biota
biotecnolochi
biquipedia
biquizionario
bird
birds
birmania
birmingham
birth
bis
bisagorri
bisbal
biscarrue
bishop
bismarck
bismuto
bison
bispados
bispal
bispato
bispau
bispe
bispes
bissau
bit
bits
bizancio
bizanti
bizantina
bizantins
bize
bizkaia
bjo
bla
black
blade
blair
blake
blanc
blanca
blancas
blanche
blanchett
blanco
blancos
blanes
blas
blasco
blasones
ble
blecua
blesa
bleu
blica
blicas
blico
blinca
blinco
blind
blinde
blink
blog
blogs
blogspot
blois
blonde
blood
bloom
bloque
bloques
bloqueyo
blu
blue
blues
blume
bmod
bmw
bo
boa
boalage
board
bob
bobby
boca
bocables
bocabulario
bocas
boccoli
bock
bodega
bodegas
bodiello
body
boe
boeing
boga
bogarde
bogart
boggiero
bogota
bohemia
boi
boira
boiras
bois
boix
bol
bola
bolas
bolchevique
bolcheviques
bolea
boleti
boleya
boli
bolivia
bolo
bologna
bolonia
bolsa
bolsas
bolskan
bolt
boltan
boltanya
bomba
bombai
bombardero
bombarders
bombardeyo
bombardeyos
bombas
bombers
bombo
bombos
bon
bona
bonansa
bonaparte
bond
bondi
bones
bonet
bonifacio
bonn
bonnard
bonnie
bono
book
books
boom
booth
boquera
boquinyeni
borao
borau
borbo
borbons
borcha
borda
bordalba
bordas
borde
bordes
bordeus
bordo
borg
borges
borgnine
borgonya
borguil
borina
boris
borja
borjanos
born
boro
borobia
borra
borrador
borre
borrell
borruel
bos
bosanska
bosar
bosc
bosch
bosco
bosforo
bosnia
bosniaca
bosniaco
bosniacos
bosnians
bosnio
bosque
bosques
boston
bot
bota
botanica
botanico
botanicos
botas
botaya
botella
botellas
boti
botica
boticario
botiga
botigas
boto
botons
botorrita
botswana
boulevard
boulogne
bounty
bourg
boveda
bow
bowie
box
boxeyador
boxeyo
boy
boyd
boyer
boyle
boys
bozo
bp
br
bra
brabant
brac
brad
bradford
bradley
brady
braga
bragg
brain
bran
branagh
branca
brancas
branch
brand
brandemburgo
brandemburgue
brandenburgo
brando
brandon
bras
brasil
brasilenya
brasilenyo
brassicae
bratislava
braulio
braun
brava
brave
bravo
brazato
brazil
brazo
brazos
bre
brea
breca
brecha
breda
brega
bregas
brehm
bremen
brenca
brenda
brendan
brennan
brent
bres
bresca
breslau
bresse
bressuire
brest
bretanya
breto
breton
bretona
bretons
breu
breument
breus
breve
breviarium
bria
brian
brica
bride
bridge
bridgeport
bridges
bridget
brief
brien
brigada
brigadas
brigade
bright
brigitte
brilant
brillant
brillants
brillas
brinca
brincar
brinco
brincos
bristo
britain
britania
britanica
britanicas
britanico
britanicos
britannica
british
briviesca
briz
brno
bro
broadway
broderick
brody
broken
bronce
bronchales
bronson
bronte
bronx
bronze
brooklyn
brooks
bros
brother
brothers
broto
brown
bru
bruballa
bruc
bruce
bruches
bruello
bruixa
bruixas
bruixeri
bruixo
brujas
brun
brunei
brunet
brunetto
bruno
brunswick
bruselas
bruto
bryan
brynner
bsh
bu
bubierca
bubo
bucal
bucardo
bucarest
buch
bucha
buchac
buck
buckinghamshire
buco
bucovina
bucuesa
bud
buda
budapest
budismo
budista
budistas
bue
buebo
buega
buegas
buei
bueis
buen
buena
buenache
buenas
buenaventura
bueno
buenos
buens
buenya
buerba
buerda
buesa
buetas
buevo
buey
bufa
bufador
buffalo
bufo
bugey
buil
building
buisa
buixaruelo
buixo
buixos
bukhara
bula
bulbo
bulbuent
bulgara
bulgaria
bulgaro
bulgaros
bull
bullet
bulletin
bullir
bun
bundesliga
bundestag
bunyol
bunyuel
buque
burbaguena
burch
burcharaloz
burdeus
bureau
bureba
bureta
burg
burgase
burgenland
burgess
burgo
burgos
burguesi
burgundio
burgundios
burillo
burke
burkina
burning
burns
buro
burocracia
burr
burre
burriana
burro
burros
burstyn
burt
burton
burundi
bus
busa
busca
buscan
buscando
buscar
bush
business
buster
busto
busturialdea
but
buta
butch
buteo
butler
buxo
buxtehude
buxus
by
byrne
byron
c
ca
caan
caba
cabaixo
cabal
cabalgamiento
caballer
caballeri
caballero
caballeros
caballers
caballo
caballos
caballud
cabalto
caban
cabana
cabanas
cabanes
cabanya
cabanyas
cabanyera
cabaret
cabe
cabec
cabecera
cabello
cabero
cabeza
cabezas
cabezo
cabezonada
cabezos
cabezutos
cabieto
cabildo
cable
cables
cabo
cabos
cabra
cabral
cabrera
cabrero
cabri
cabriuel
cac
cacau
cache
cacho
cada
cadagu
cadaguna
cadena
cadenas
cadiera
cadieras
cado
cados
cadret
caduca
caducifolias
caducifolios
caen
caesar
caesaraugusta
cafe
cafeteri
cage
cagney
cai
caiga
caine
caire
cairo
caita
caito
caixa
caixas
caixicar
caixicars
caixico
caixicos
caixigar
caixigars
caixigo
caixigos
caixmir
caja
cajal
cal
cala
calabaza
calabria
calaceit
calagorra
calais
calamocha
calanda
calandario
calandra
calandreta
calasanz
calatajube
calatan
calatayu
calatayud
calatorau
calatrava
calatravos
calazeit
calc
calcedonia
calcena
calcero
calcico
calcil
calcina
calcio
calcita
calcula
calcular
calculo
calculos
calcuta
caldera
caldero
calders
caldes
caldri
cale
caleba
caledonia
calendario
calendata
calendatas
calentamiento
calentar
caler
calera
calga
calheta
cali
calibre
calida
calidas
calidat
calido
calidos
calient
calients
califa
califato
california
caligula
calio
calivo
call
calle
called
calles
callizo
callosa
calma
calmucos
calocybe
calomart
calonche
calonches
calonge
calor
calori
calosci
calotriton
calpe
calsina
calsinera
calsineras
calsinosa
calsinosas
calsinoso
calsinosos
calso
calurosos
calva
calvados
calvario
calvera
calvin
calvo
calzada
calzas
calzo
cam
cama
camachibosa
camacho
camanyas
camara
camaras
camarasa
camarena
camariellas
camaro
cambea
cambean
cambeando
cambear
cambeo
cambeos
cambeya
cambia
cambian
cambiando
cambiar
cambiato
cambiau
cambio
cambions
cambioron
cambios
cambo
cambocha
cambra
cambrai
cambras
cambre
cambridge
cambridgeshire
came
camellos
cameo
camera
cameron
cameros
cameru
cami
camille
camillo
camilo
camin
caminando
caminar
camino
caminos
caminreal
camins
camisa
camiseta
camo
camp
campamento
campan
campana
campanal
campanar
campanas
campania
campanue
campanya
campanyas
campbell
campe
campeo
campeonato
campesins
campidanu
campiello
campillo
campin
camping
campinya
campio
campiona
campionato
campionatos
campions
campo
campoo
camporretuno
campos
campus
camus
can
cana
canada
canadensis
canadiense
canal
canales
canals
canaria
canarias
canario
canas
canasta
canberra
canc
canceller
cancer
cancia
canciller
cancilleri
cancio
cancionero
canciones
cancions
cancro
candanchu
candarenas
candelera
candidata
candidatas
candidato
candidatos
candidatura
candidaturas
canela
canellas
canelles
canes
canet
caneto
canfranc
cangas
cangrillo
cangues
canidae
canidos
caniella
canigo
canis
cannabis
cano
canon
canonico
cans
canta
cantabria
cantabrica
cantabro
cantaire
cantaires
cantal
cantals
cantan
cantando
cantant
cantante
cantar
cantas
cantata
cantato
cantautor
cantaviella
cante
cantera
canteras
canterbury
cantidat
cantidatz
cantimplano
canto
canton
cantonada
cantons
cantor
cantos
canya
canyada
canyart
canyas
canyimo
canyizar
canyo
canyons
canyos
caos
cap
capa
capable
capables
capaces
capacidat
capacidatz
capacitancia
capadocia
capana
caparra
capas
capaz
capazo
cape
capella
caperucheta
caperucho
capetos
capeza
capi
capiella
capiellas
capilars
capilleta
capita
capital
capitalidat
capitalismo
capitalista
capitals
capitan
capitol
capitulacio
capitular
capmany
capo
capote
capra
capreolus
capricorno
capsula
captain
captains
captura
capturar
car
cara
caracal
caracas
caracol
caracter
caracteri
caracteristica
caracteristicament
caracteristicas
caracteristico
caracteristicos
caracteriza
caracterizacio
caracterizada
caracterizan
caracterizato
caracterizau
caracterizaus
caracters
caragol
caragols
caras
carateristica
carbo
carbonato
carbonell
carbonera
carboni
carbonio
carcasona
carden
cardenal
cardenals
cardiaco
cardiff
cardinal
cardinale
cardinals
cardo
cardona
cardrona
care
carelia
carey
carga
cargar
cargas
cargo
cargos
caribe
caridat
carin
carintia
carinyena
carl
carla
carles
carlismo
carlista
carlistas
carlo
carlos
carlota
carmelo
carmen
carmine
carmona
carnaval
carnavals
carne
carnes
carnicer
carniola
carnivora
carnivoro
carnivoros
carnuceras
carnuz
caro
carol
carole
carolina
carolinchia
carolinchio
carolinchios
caroline
carolyn
caron
carpatos
carpelos
carpenter
carpio
carradine
carrasca
carrascal
carrascals
carrascar
carrascas
carrasco
carrascosa
carrazo
carrazos
carrera
carreras
carreter
carretera
carreteras
carretero
carriar
carrie
carril
carrillo
carrils
carrio
carro
carrodilla
carroll
carros
cars
carson
carta
cartachena
cartachineses
cartagena
cartago
cartas
cartel
cartels
carter
cartier
cartillas
carto
cartografi
cartografo
cartuixa
cartulario
cartularios
carvalho
cary
cas
casa
casablanca
casada
casademont
casado
casal
casals
casamiento
casan
casanova
casar
casas
casata
casato
casau
casaus
casbas
casca
cascada
cascallo
cascant
casco
cascos
case
caseri
cases
caseta
casetas
cash
casi
casiellas
casillas
casimiro
casino
caso
casos
casp
caspe
casper
caspia
caspolino
cassa
cassavetes
cassel
cassidy
cassini
cast
casta
castafiore
castan
castanesa
castanet
caste
castejo
castel
castell
castella
castellan
castellana
castellanas
castellaneta
castellani
castellanismo
castellanismos
castellanizacio
castellanizada
castellanizato
castellanizau
castellanizo
castellanleyone
castellanlione
castellano
castellanomanchego
castellanoparlants
castellanos
castellans
castellar
castellfollit
castellnou
castello
castellon
castellot
castelltort
castelnau
castelsera
casterar
castiel
castiella
castiello
castiellos
castigo
castilhon
castiliscar
castilla
castilleja
castillejo
castillo
castillos
castillosnet
castle
casto
castra
castralbo
castras
castri
castrillo
castro
castrocol
castropol
castrum
castuera
cat
cata
catala
catalan
catalana
catalanas
catalanes
catalanismo
catalanismos
catalanoparlant
catalanoparlants
catalans
catalina
catalog
catalogatos
catalogo
catalun
catalunya
catania
catarina
cataros
catch
cate
cateau
catedra
catedral
catedratico
categori
categoria
categorias
catena
caterina
cathedral
catherine
catho
catholic
cato
catolica
catolicismo
catolico
catolicos
catorce
catorze
cau
caualleros
caucas
caucasica
caucasicas
caucaso
cauces
caudal
caudet
caudiel
caudiello
causa
causada
causals
causan
causando
causar
causas
causata
cause
causo
cautare
cautiva
cautivada
cautivadas
cautivan
cautivar
cautivau
cautivo
cautivos
cauz
cava
cavalleros
cavallo
cavero
cavia
cavidat
cavidatz
caxicar
caxico
caxigar
cay
caye
cayen
cayendo
cayer
cayetano
cayida
cayio
cayita
cayo
cayoron
caza
cazacos
cazadors
cazan
cazaquista
cazar
cazas
cazata
cazataire
cazataires
cb
cbs
cc
ccc
cd
cdot
cdu
ce
cea
cebolla
cebollas
cebria
ceca
cecas
cecil
cecilia
cede
cedeba
ceder
cedio
cedioron
cedito
cediu
cedric
cedriellas
cee
cela
celadas
celdra
celebra
celebraba
celebraban
celebracio
celebracions
celebrada
celebradas
celebran
celebrar
celebrata
celebratas
celebrato
celebratos
celebrau
celebraus
celebre
celebres
celebro
celebroron
celedonio
celeste
celestes
celestial
celia
celindro
cella
cellas
celle
celsa
celsius
celta
celtas
celti
celtibera
celtiberia
celtiberica
celtiberico
celtibero
celtibers
celtic
celtica
celtico
celtismo
celtismos
celula
celular
celulars
celulas
cemento
cena
cenisa
cenisas
cenisosa
cenozoicos
cens
censo
censos
censura
census
cent
centauri
centelles
centenar
centenario
centenars
centenera
center
centimetros
centra
centrada
central
centrals
centran
centrar
centrata
centrato
centrau
centre
centro
centroafricana
centroamerica
centrocampista
centros
century
cepo
cequia
cequias
cera
ceramica
ceramicas
cerca
cercana
cercanas
cercani
cercano
cercanos
cercito
cerclo
cerclos
cercuito
cercuitos
cercular
cerda
cerdanya
cerdanyola
cerdenya
cerebral
cerebro
ceremonia
ceremonial
ceremonias
ceremonioso
cerenya
cerenyo
cerenyos
ceres
ceresa
ceret
cerezo
cerial
cerials
cerimonia
cerimonias
cerimonioso
cerolla
cerollas
cerollera
cerrada
cerradas
cerrar
cerrato
cerro
cerros
cerrudo
certain
certamen
certeza
cerval
cervantes
cervello
cervera
cerveza
cervia
cervus
ces
cesa
cesar
cesare
cese
cesio
cesis
cetacios
cetina
cette
ceuta
cf
cfm
cgi
ch
cha
chabal
chabalambre
chabali
chabalins
chabalo
chabaloyas
chabier
chabierre
chabrol
chaca
chacal
chacetania
chacimiento
chacimientos
chaco
chad
chadra
chae
chagatai
chaime
chain
chakra
chalamera
chamaica
chamberlain
chaminera
chamineras
chamonix
chamorro
champ
champion
champions
championship
chan
chana
chance
chandler
chaney
chang
change
channel
chanovas
chantre
chao
chaparral
chapeto
chapitels
chaplin
chapman
chapo
chapone
chaponesa
chaponeses
chaque
chaqueses
chaqueta
char
characteribus
charadriiformes
charanta
chardi
chardins
charente
charge
charisse
charita
charle
charleroi
charles
charleston
charlie
charlotte
charlton
charo
charra
charraba
charraban
charrada
charradas
charradors
charran
charrando
charrar
charras
charrata
charratas
charrato
charrau
charraus
charro
chars
chart
chartera
charts
chasa
chase
chaso
chat
chava
che
cheada
checa
chechenia
chechens
checo
checos
checoslovaco
checoslovaquia
chef
chefe
chefes
chelada
cheladas
chelatas
chelau
chelera
cheleras
chelo
chelsea
chelva
chema
chemical
cheminada
cheminata
cheminis
chemistry
chen
chenealochi
chenera
cheneracio
cheneracions
chenerador
cheneral
cheneralidat
cheneralidatz
cheneralizacio
cheneralizada
cheneralizar
cheneralizau
cheneralizo
cheneralment
chenerals
cheneran
chenerando
chenerar
chenerica
chenericament
chenerico
chenero
cheneros
chenesi
chenetica
cheneticament
chenetico
cheneticos
chenio
chenitivo
chenocidio
chenoma
chenova
chenove
chenoveses
chens
chent
chenta
chentilicio
chentilicios
chents
chenui
chenullo
cheodesico
cheografi
cheografica
cheograficament
cheograficas
cheografico
cheograficos
cheografo
cheografos
cheolochi
cheolochica
cheolochicament
cheolochicas
cheolochico
cheolochicos
cheologo
cheometri
cheometrica
cheorchia
cheorchiana
cheorchians
cheosinonimo
chequia
cher
chera
cherbe
cherma
chermana
chermanastro
chermania
chermanica
chermanicas
chermanico
chermanicos
chermanismos
chermano
chermanofona
chermans
cheroncio
cheronimo
cherundio
cherusale
cherusalem
chesa
cheshire
cheso
chesos
chest
chesta
chestacio
chestalgar
chester
chestio
chestiona
chestionar
chesu
chesucristo
chesuita
chesuitas
chevalier
chez
chi
chibraltar
chibuti
chica
chicago
chicas
chico
chicolate
chicorro
chicorrona
chicorronas
chicorrons
chicos
chicot
chicota
chicotas
chicote
chicotz
chief
chieftains
chiemgau
chieming
chiemsee
chien
chiesa
chiflo
chigant
chigants
chihuahua
chil
child
children
chile
chilena
chileno
chili
chill
chilo
chils
chim
chimnasia
chimpanze
china
chinatown
chinchiella
chine
chinebro
chinebrosa
chineceu
chiner
chinero
chinesa
chinesas
chinese
chineses
chinet
chineta
chinete
chinevra
chinguis
chino
chinon
chinos
chiprana
chipre
chips
chiquet
chiqueta
chiquetas
chiquetz
chira
chiran
chirar
chiras
chirma
chirmana
chirmanas
chirmandat
chirmano
chirmans
chiro
chirona
chirone
chistabi
chistabino
chistau
chiste
chita
chitana
chitans
chitar
chito
chitos
cho
choben
chodiga
chodigas
chodigo
chodigos
choice
chonica
chopin
chopo
chopos
chorche
chordania
chornada
chornadas
chorus
chos
chosa
chou
choven
chovenalla
chovenil
chovenils
chovens
choventut
choyas
choyeri
choyosa
chris
christ
christchurch
christi
christian
christiane
christianos
christie
christina
christine
christmas
christo
christoph
christophe
christopher
chronicle
chu
chuan
chuana
chuaqui
chubilacio
chubileu
chubo
chuck
chudai
chudas
chudea
chudeces
chuderi
chudeus
chudgaus
chudi
chudicial
chudicials
chudicio
chudicios
chuebes
chueca
chueces
chuego
chuegos
chueves
chuez
chuga
chugaba
chugaban
chugador
chugadora
chugadors
chugan
chugando
chugar
chugara
chugaron
chugato
chugau
chugo
chugoron
chuguet
chuguetz
chuicio
chulia
chuliella
chulio
chuliol
chulla
chunio
chunquera
chunta
chuntar
chuntas
chunto
chuntos
chunyo
chupiter
chura
churamento
churasico
churasicos
churau
churaus
church
churchill
churidica
churidicas
churidico
churidicos
churisdiccio
churista
churo
churra
churras
churro
chus
chusa
chusano
chuse
chusep
chuseu
chuslivol
chusmeso
chust
chusta
chustament
chusti
chusticia
chustificar
chustinia
chusto
chutlandia
chuvenil
ci
cia
cias
cibdat
cicero
ciclismo
ciclista
ciclistas
ciclo
ciclos
cid
cidacos
cido
cie
ciega
ciego
ciegos
ciel
ciellas
cielo
cien
ciencia
ciencias
cient
cienti
ciento
cientos
cierra
cierre
cierta
ciertas
cierto
ciertos
ciervo
ciervos
cierzo
cifras
cigu
cija
cil
cilia
cilicia
cilindrica
cillo
cils
cima
cimas
cimento
cinca
cincinnati
cinco
cine
cinecha
cinema
cinematografi
cinematografica
cinematograficas
cinematografico
cinematograficos
cines
cingla
cinglo
cinglos
cinquanta
cinque
cinquena
cinqueno
cinqueta
cinta
cintas
cinto
cintura
cinturo
cio
cipre
cipria
circ
circa
circasians
circle
circlo
circo
circuito
circuitos
circula
circulacio
circulan
circular
circumferencia
circumflexo
circumscripcio
circumstancias
circunstancial
circunstancias
circunvecinas
circus
ciresa
ciria
cirilico
ciriza
cirurchi
cis
cisa
cisalpina
cischordania
cisleitania
cisma
cistels
cisterciense
cisterna
cit
cita
citada
citan
citar
citas
citata
citato
citau
cite
citerior
cities
citoplasma
citri
citricos
citroe
citrus
citta
city
ciu
ciudad
ciudada
ciudadana
ciudadani
ciudadano
ciudadanos
ciudadans
ciudadela
ciudades
ciudat
ciudatz
cius
ciutat
civil
civilizacio
civilizacions
civils
ck
cke
cken
cl
cla
cladistica
clado
cladophora
clair
claire
clama
clamaba
clamaban
clamada
clamadas
clamado
clamados
claman
clamando
clamar
clamata
clamatas
clamato
clamatos
clamau
clamaus
clamo
clamor
clamoron
clamosa
clan
clans
clar
clara
clarac
clarament
claramunt
claras
clare
clarence
clari
clarin
clark
clarke
clarmont
claro
claros
clase
claseficacio
clases
clasica
clasicas
clasico
clasicos
clasifica
clasificacio
clasificacions
clasifican
clasificar
clasificato
clasificatos
clasificau
clasificaus
clasifico
class
classes
classic
classification
clau
claude
claudel
claudette
claudia
claudio
claudius
claus
claustro
clausulas
clausura
clavar
clave
clavillar
clayton
cle
clement
clemente
cleopatra
cleos
clerici
clerigo
clerigos
clermont
clero
cleta
cletas
cleto
cleveland
cli
client
clients
cliff
clift
clifton
clima
climas
climate
climatica
climaticas
climatico
climaticos
climatolochi
climent
clinica
clint
clinton
clive
cllarabida
cln
clo
clock
clodoveu
clooney
cloro
cloruro
clos
close
clot
clotario
cloud
clover
club
clube
clubes
clubs
cluj
clunyego
clyde
cm
cn
cnica
cnn
cnt
co
coadic
coalicio
coarasa
coast
coautor
cobalto
cobertura
cobo
cobol
cobos
cobra
cobrar
cobre
coburn
coca
cocentaina
cocer
coche
cochi
cocina
cocinar
cocinas
cocinero
coco
cocobat
cocos
cocota
coda
code
codete
codetes
codificacio
codigo
codigos
codo
codonyera
codos
coe
coedicio
coeficient
coello
coen
coesiste
coexiste
coexisten
coexistencia
coexistindo
cofadres
cofadri
cofradi
cofrentes
cognato
cognatos
cogullada
cohen
coi
coimbra
coincide
coinciden
coincidencia
coincident
coincidents
coincidindo
coincidir
coinindia
col
cola
colabora
colaboracio
colaboracions
colaborador
colaboradors
colaborando
colaborar
colaborau
colaboro
colapso
colas
colbert
colchicus
cold
cole
coleccio
coleccions
colechial
colechiata
colechio
colection
colectiva
colectividat
colectivo
colectivos
colegio
coleman
colera
colin
coliseum
colisio
coll
colla
collada
collado
collados
collapsible
collar
collarada
collas
collata
collau
collection
college
collidas
collins
collita
colman
colmenar
colo
coloca
colocacio
coloma
colombia
colombiano
colombo
colonel
colonia
colonial
colonialismo
colonials
colonias
colonizacio
colonizadors
colonizar
colonos
colons
coloquial
coloquialment
color
coloracio
colorado
colors
columba
columbia
columbus
columna
columnas
colungo
com
coma
comachibosa
comanda
comandador
comandant
comandas
comando
comarca
comarcal
comarcals
comarcas
comas
comba
combate
combates
combatients
combatio
combatir
combina
combinacio
combinacions
combinan
combinando
combinar
combinato
combinau
combustible
combustibles
combustio
come
comedia
comediant
comedias
comenc
comenche
comencini
comendador
comenge
comenta
comentado
comentan
comentario
comentarios
comenzo
comer
comercial
comercializa
comercialment
comercials
comerciant
comerciants
comercio
comercios
comerzializa
comes
comestible
comestibles
comet
cometa
cometas
comi
comic
comico
comida
comienc
comienza
comienzo
comienzos
coming
comisario
comisio
comisions
comite
command
commandments
comme
comment
comminges
commission
committee
common
commons
commonwealth
communes
communis
community
comneno
como
comodo
comoras
compa
compacta
compan
company
companya
companyero
companyers
companyi
comparable
comparables
comparacio
comparada
comparanza
comparar
comparativas
comparativo
comparte
comparten
compartindo
compartir
compartita
compartito
compartiu
compatible
compatibles
compendio
compensacio
compensar
competencia
competencias
competicio
competicions
competir
compilacio
compilazio
compite
compiten
compitio
complega
complegan
compleganza
compleganzas
compleguera
complementarios
complemento
complementos
completa
completament
completar
completas
complete
completiva
completivas
completo
completos
complexa
complexas
complexidat
complexo
complexos
complir
complutense
compone
componen
component
components
componiu
comporta
comportamiento
comportamientos
comporto
composa
composada
composadas
composan
composata
composatas
composato
composau
composaus
composicio
composicions
compositor
compositora
compositors
compostela
compounds
compra
comprar
comprende
comprendeba
comprenden
comprender
comprene
comprensio
compro
compromi
compromiso
compte
compuesta
compuesto
compuestos
computacio
computacional
computer
comte
comu
comun
comuna
comunal
comunament
comunas
comunes
comunica
comunicaba
comunicacio
comunicacions
comunican
comunicar
comunicau
comunidad
comunidat
comunidatz
comunio
comunismo
comunista
comunistas
comunitaria
comunitario
comunment
comuns
con
conca
concabe
concede
conceder
concedio
concedioron
concedito
concediu
concedo
concejo
concellers
concello
concellos
concentra
concentracio
concentracions
concentran
concentrar
concepcio
concepto
conceptos
concert
concesio
concesions
concesivas
concha
conchelacio
conchita
conchuche
conchuga
conchugacio
conchugacions
conchugan
conchugar
conchuncio
conchuncions
conchunta
conchuntament
conchuntiva
conchuntivas
conchuntivo
conchunto
conchuntos
conciencia
concierto
conciertos
concilio
concilios
concise
conclusio
concordancia
concordia
concreta
concretament
concretas
concreto
concretos
concuerda
concurso
concursos
concut
condado
condatos
condau
condaus
conde
condena
condenato
condenau
condensador
condes
condesa
condicio
condicional
condicionals
condicions
condita
condo
condor
conduccio
conduce
conducio
conducir
conducta
conductas
conducto
conductor
conductos
cone
conecta
conejero
conello
conestable
conexio
conexions
confederacio
confederacions
confederatos
confeguracio
conference
conferencia
conferencias
confesio
confianza
configuracio
confirma
confirmacio
confirmada
confirmar
confirmau
confirmo
conflent
conflict
conflicto
conflictos
confluencia
confluyen
confluyencia
conforman
conforme
confrairi
confrari
confundir
confusio
confusions
congo
congost
congosto
congre
congregacio
congreso
congresos
congress
congustro
conica
coniferas
conillo
conillos
connecticut
connery
connexio
connie
connolly
connor
connotacions
cono
conoix
conoixe
conoixeba
conoixeban
conoixemos
conoixen
conoixencia
conoixencias
conoixer
conoixida
conoixidas
conoiximiento
conoiximientos
conoixio
conoixioron
conoixita
conoixitas
conoixito
conoixitos
conoixiu
conoixius
conos
conoxito
conoxiu
conque
conqueridor
conquerindo
conquerio
conquerioron
conquerir
conquerita
conquiere
conquieren
conquiesta
conquiestas
conquiesto
conquiestos
conquiridors
conquirio
conquirioron
conquista
conquistas
conquisto
conrad
conrado
consagracio
consagrada
consagrata
consagrato
consagro
consciencia
conscient
consecuencia
consecutiva
consecutivas
consecutivos
conseguindo
conseguio
conseguir
conseguito
consejo
conseller
consellera
consellero
consellers
consello
consellos
consenso
consentimiento
consequ
conserva
conservaba
conservacio
conservada
conservadas
conservadera
conservaderas
conservador
conservadora
conservadors
conservan
conservando
conservar
conservata
conservation
conservato
conservatorio
conservatos
conservau
conservaus
conserve
conservo
conservoron
considera
consideraba
consideraban
considerable
considerablement
considerables
consideracio
considerada
consideradas
consideran
considerando
considerar
considerata
consideratas
considerato
consideratos
considerau
consideraus
considero
consigue
consiguen
consiguiendo
consiguient
consiguio
consiguioron
consiste
consisten
consistencia
consistent
consistiba
consolidacio
consolidar
consolido
consonant
consonantica
consonantico
consonanticos
consonants
consorcio
consort
consorte
conspiracio
consta
constance
constancia
constancio
constant
constante
constanti
constantin
constantina
constantinoble
constants
constanza
constelacio
constitucio
constitucional
constitucionals
constitucions
constituindo
constituir
constituita
constituito
constituye
constituyen
constituyent
constituyents
constituyo
construccio
construcciones
construccions
construcio
construida
construindo
construir
construita
construitas
construito
construitos
construiu
construye
construyen
construyi
construyida
construyio
construyir
construyita
construyito
construyiu
construyo
construyoron
consul
consulato
consulta
consultable
consultada
consultado
consultar
consultato
consultau
consulte
consultorio
consume
consumen
consumidor
consumidors
consumir
consumo
conta
contaba
contable
contact
contacto
contactos
contado
contaminacio
contan
contando
contar
contastinoble
conte
contempora
contemporania
contemporanio
contemporanios
contemporary
contener
contenito
conteniu
contenius
content
contento
contes
contesa
contexto
contextos
conti
contie
contienda
contiene
contienen
contina
continaba
continaban
continacio
continan
continando
continar
continara
continari
continas
continent
continental
continentals
continente
continents
continidat
contino
continoron
continos
continua
continuidat
continuo
continuum
conto
contos
contra
contrabando
contraccio
contraccions
contracto
contractos
contrafuertes
contraofensiva
contraposicio
contraria
contrario
contrasta
contrastando
contraste
contrato
contrayer
contre
contrebia
contreras
contribucio
contribucions
contribuindo
contribuir
contribuye
contribuyo
contribuyoron
contrimostrar
contrimostrau
contrimostro
contrimuestra
control
controla
controlaba
controlaban
controlada
controlan
controlando
controlar
controlata
controlato
controlatos
controlau
controls
controversia
convencer
convencio
convencional
convencionals
convencions
convenient
convenio
convento
conventos
converchencia
converge
conversacio
conversio
convertindo
convertir
convertito
convertitos
convertiu
convierte
convierten
convirtio
convirtioron
conviven
convivencia
convoca
convocadas
convocar
convocatoria
convocau
convoco
conway
cooficial
coogee
cook
cool
cooper
cooperacio
cooperativa
coord
coordenadas
coordinacio
coordinador
coordinar
cop
copa
copas
cope
copenaguen
copernico
copia
copias
copla
coppola
cor
corac
coral
coraste
corazo
corbala
corbell
corbera
corbusier
corcega
cord
cordal
cordel
cordelera
cordeleras
corder
cordero
corders
cordillera
cordo
cordoba
cords
core
corea
corella
corellano
corelli
coreya
corfu
coria
corleone
cornel
cornelia
cornelius
cornella
cornia
cornualla
cornudella
coro
corola
corominas
coromines
corona
coronacio
coronado
coronar
coronas
coronato
coronau
coronavirus
coronel
corones
corono
coros
corporacio
corporal
corporals
corporation
corps
corpus
corral
corrales
corrals
corre
correa
correchimiento
correcta
correctament
correcto
corredor
corredors
correo
correr
corresa
corresponde
correspondeba
correspondeban
corresponden
correspondencia
correspondencias
correspondendo
corresponder
corresponderi
correspondient
correspondientes
correspondients
correu
correus
corrida
corridas
corrient
corriente
corrients
corro
corrosio
corrupcio
corso
corsos
cort
corta
corte
cortes
cortiellas
corto
cortometrache
cortona
corts
cortz
corun
corvi
corvidos
corvus
cos
cosa
cosacos
cosas
coscolla
coscollar
coscollo
coscujuela
cosculluela
coseta
cosetas
cosi
cosirar
cosmatos
cosme
cosmos
coso
costa
costado
costalat
costalats
costanti
costantino
costantinoble
costas
costato
costatos
costau
costaus
coste
costea
costera
costeras
costero
costes
costiella
costiellas
costo
costruccio
costumbre
costumbres
cosuenda
cota
cotas
cotefablo
cotiella
coto
cottage
cottens
coturnix
could
council
countries
country
county
courageous
court
courtenay
courtney
cov
cova
covas
cove
cover
covid
cowboy
cox
cpu
cpus
cr
cra
craba
crabas
crabioles
crabito
crack
cracovia
craig
cranio
crapa
crash
crata
crater
crates
crawford
crazy
crc
cre
creacio
creative
creba
crebar
crebo
credito
creed
creek
crei
creix
creixe
creixen
creixendo
creixent
creixer
creixida
creixidas
creixient
creiximiento
creixio
creixita
creixitas
creixiu
crema
creman
cremar
cremata
cremato
cremo
cremona
cremoron
crencha
creo
crepas
crepazas
crespo
cresta
crestas
creta
cretacio
cretacios
cretas
cretica
creticas
cretico
creticos
creu
creuenya
creus
crew
crexe
creya
creyacio
creyada
creyadas
creyador
creyadors
creyan
creyando
creyar
creyata
creyato
creyatos
creyatura
creyaturas
creyau
creyaus
creye
creyeba
creyeban
creyen
creyencia
creyencias
creyents
creyer
creyo
creyoron
cri
criar
criatura
crichton
cricket
crida
cridlig
crietas
crime
crimea
crimen
crimens
criminal
criollo
cripta
crisi
crisis
crismo
crisp
cristal
cristali
cristalina
cristals
cristia
cristian
cristiana
cristianas
cristiandat
cristianismo
cristianizacio
cristiano
cristianos
cristians
cristina
cristo
cristofo
criterio
criterios
critica
criticas
critico
criticos
criville
cro
croacia
cromwell
cronenberg
cronica
cronicas
cronista
cronistas
cronolochi
crosby
cross
crosta
crovata
crovate
crovates
crow
crowe
crown
cruce
cruceri
crucero
cruces
crucifixio
crucillata
crucis
crudo
cruel
cruise
crumo
crustacios
crustazios
cruz
cruzada
cruzadas
cruzar
cruzata
cruzatas
cruzatos
cruzaus
cry
crystal
cs
csic
csif
ct
cter
ctica
cticos
ctil
ctor
cu
cua
cuacaba
cuaderno
cuadernos
cuadro
cual
cuales
cuallo
cualsiquier
cuan
cuando
cuantif
cuanto
cuartel
cuarto
cuartos
cuasi
cuatre
cuatro
cuba
cubana
cubano
cubel
cubico
cubierta
cubiertas
cubierto
cubiertos
cubilar
cubilars
cubillar
cubillo
cubla
cubo
cubre
cubren
cubriba
cubrindo
cubrir
cucalo
cucaracha
cuchas
cuckoo
cuco
cucos
cucurbita
cudiau
cudio
cudir
cue
cuello
cuellos
cuenca
cuencana
cuencas
cuende
cuenta
cuentan
cuentas
cuento
cuentos
cuentra
cuerda
cuerdas
cuerno
cuernos
cuero
cuerpo
cuerpos
cuerva
cuervo
cuesta
cuestas
cuestio
cuestiones
cueva
cuevas
cugat
cuiro
cuitiello
cuixa
cukor
cul
cula
culas
culfreda
culibiellas
cullara
culle
cullen
cullera
cullir
cullita
culo
culos
culpa
culpable
culs
culta
cultas
cultismo
cultismos
cultivo
culto
cultos
cultura
cultural
culturalment
culturals
culturas
culture
cum
cuma
cumania
cumans
cumberbatch
cumbre
cumbria
cummings
cumple
cumplen
cumplio
cumplir
cuna
cup
cupula
cura
curac
curar
curia
curie
curiosa
curiosament
curiosidat
curioso
curiosos
curlandia
current
curro
cursa
cursas
curso
cursos
curta
curtas
curtis
curtiz
curto
curtometrache
curtos
curva
curvas
curvatura
curzon
cusack
cut
cutanda
cutiana
cutianas
cutiano
cutiello
cutio
cuyo
cuzco
cy
cyd
cynops
cz
czech
cœur
d
da
daba
daban
dabant
dachau
dacia
daco
dacos
dacs
dada
dado
dafoe
daguesta
daguestani
daily
daisy
dakar
dakota
dal
dalai
dale
dali
dalla
dallas
dalmacia
dalmata
dalmatas
dalmau
dalt
dalton
dam
dama
dame
damia
damon
damos
dan
dana
danc
dance
dances
dancing
dandalos
dando
dane
danesa
daneses
dangerous
dani
daniel
daniels
danny
dans
dante
dantza
danubiana
danubio
danyo
danyos
danza
danzants
danzas
danzig
daphne
dar
dara
dardanelos
dari
daria
dark
darkness
darling
darmstadt
darnell
daroca
darocenses
daron
darth
darwin
daryl
das
dat
data
database
datan
datar
date
daten
dativo
dato
datos
dau
daughter
daus
dave
daves
david
davies
davis
dawla
dawn
day
days
dayton
dc
de
dea
dead
deadline
dean
death
deba
debaixo
debajo
debant
debanta
debantada
debantadera
debantar
debantata
debantdita
debantdito
debantera
debanteras
debantero
debanto
debat
debate
debbie
debe
debeba
deben
deber
debers
debio
debioron
debito
debiu
deborah
debra
debuixant
debuixo
debuixos
debut
debuta
debuto
dec
decada
decadas
decadencia
december
decena
decenas
decenio
decenios
deceno
decheccio
deciba
deciban
decide
deciden
decidio
decidioron
decidir
decima
decimal
decimarum
decimas
decindo
decir
decise
decisiet
decisio
decisions
decisiva
decisivo
deciueito
declara
declaracio
declaracions
declarada
declaran
declarando
declarar
declarata
declarato
declarau
declaro
declaroron
declinacio
declive
decoracio
decorativos
decreto
decretos
decumentos
dedica
dedicada
dedicadas
dedican
dedicar
dedicata
dedicato
dedicau
dedico
deduce
deducir
dee
deep
defecto
defender
defensa
defense
defensiva
defensivo
defensor
defensors
defesa
defesas
define
definen
definiba
definicio
definicions
definida
definidas
definio
definir
definita
definitas
definitiva
definitivament
definitivo
definito
definitos
definiu
definius
deforestacio
deformacio
dega
degli
degradacio
dehesa
dehesas
dei
deidat
deinde
deixa
deixaba
deixan
deixando
deixar
deixara
deixato
deixau
deixo
deixoron
deja
del
dela
delagrave
delano
delas
delaware
delegacio
delegacions
delfi
delgada
delgado
delhi
delicias
delimita
delimitacio
delimitan
dell
della
delle
delmer
delon
delos
dels
delta
dem
dema
demanda
demandan
demandando
demandar
demandas
demando
demandoron
demarcacio
dembargo
deme
demelsa
demi
demille
deminutibo
deminutivo
demme
demo
democra
democracia
democrata
democratica
democraticament
democraticas
democratico
democraticos
demografi
demografia
demografica
demografico
demostracio
demostrar
demostrativo
demostrativos
dempue
den
dena
dench
dencima
dend
dende
dengu
denguna
denguno
denholm
deni
denikin
denis
dennis
denomina
denominaban
denominacio
denominacions
denominada
denominan
denominar
denominato
denominau
denominaus
denota
densa
densament
densas
densidat
denso
dental
dentra
dentrada
dentradas
dentran
dentrando
dentrar
dentrata
dentrato
dentrau
dentre
dentro
dentroron
denuncia
denver
denya
denzel
deo
depardieu
departament
departamental
departamentals
departamento
departamentos
department
depende
dependeba
dependeban
dependen
dependencia
dependencias
dependendo
depender
dependient
dependients
depo
deportacio
deportacions
deportatos
deporte
deportes
deportiva
deportivo
deposito
depositos
depredacio
depredador
depredadors
depresio
depresions
depues
depuis
deputacio
deputato
deputatos
deputau
deputaus
der
dera
deras
derbi
derbyshire
derecho
derechos
derek
deriva
derivacio
derivada
derivadas
derivan
derivar
derivata
derivatas
derivato
derivatos
derivau
derivaus
derivo
dero
derrocar
derrota
derrotato
derrotatos
derrotaus
derroto
ders
des
desafi
desambigacio
desamortizacio
desapareix
desapareixe
desapareixen
desapareixendo
desapareixer
desapareixida
desapareixio
desapareixioron
desapareixita
desapareixito
desapareixiu
desaparicio
desaparixio
desapegue
desarrolla
desarrollar
desarrollato
desarrollo
desastre
desastres
desaugua
desauguan
desauguar
descansan
descanso
descarga
descartar
descartes
descendencia
descendent
descendient
descendients
descenso
deschelo
desciende
descienden
descomposicio
desconoixe
desconoixida
desconoixita
desconoixito
desconoixitos
desconoixiu
descontento
describe
describen
describiba
describio
describir
descripcio
descripcions
description
descrita
descritas
descrito
descritos
descubierta
descubiertas
descubierto
descubiertos
descubre
descubridor
descubrimiento
descubrimientos
descubrio
descubrioron
descubrir
desde
desembarco
desemboca
desembocadura
desembocan
desembocar
desembolica
desembolicada
desembolican
desembolicando
desembolicar
desembolicata
desembolicato
desembolicatos
desembolicau
desembolicaus
desembolico
desembolicoron
desembolique
desenvolicato
desenvolicau
desenvolique
deseo
desepara
deseparacio
deseparada
deseparadas
deseparan
deseparando
deseparar
deseparata
deseparatas
deseparato
deseparatos
deseparau
deseparaus
deseparo
deseparoron
desert
deserticas
desertico
deseya
deseyo
deseyos
desfa
desfer
desferra
deshabitada
deshabitados
deshabitau
desierto
desiertos
design
designa
designaba
designacio
designar
designato
designau
desigualdat
desincusa
desinencia
desinencias
desintegracio
desire
desnivel
desparte
despectivo
despertar
desplaza
desplazamiento
desplazando
desplazar
desplazo
despoblacio
despoblada
despoblados
despobladosenhuesca
despoblato
despoblatos
despoblau
despoblaus
despoblo
despue
despues
dessus
desta
destaca
destacaba
destacable
destacables
destacada
destacadas
destacan
destacando
destacar
destacata
destacatas
destacato
destacatos
destacau
destacaus
destaco
destacoron
desti
destilacio
destinada
destinata
destinato
destinau
destinaus
destino
destins
destiny
destitucio
destribucio
destruccio
destruir
destruita
destruito
destruye
destruyir
destruyiu
destruyo
destruyoron
desuso
desveniba
desveniu
desvie
desvinio
det
detail
detalle
detalles
deteccio
detect
detectar
detective
detencio
determina
determinacio
determinada
determinadas
determinan
determinant
determinar
determinata
determinatas
determinato
determinatos
determinau
determinaus
deth
detroit
deu
deuda
deudas
deue
deues
deus
deutsch
deutsche
deutschen
deutscher
deutsches
deutschland
deutschlands
deux
deva
devant
devanta
devantadera
devantar
devantata
devantato
devanto
devantoron
devath
deve
development
devez
devi
devil
devito
devocio
devon
dexo
dexter
dez
deza
dezaga
dezir
dga
dhabi
dhaka
dhaulagiri
di
dia
diablo
diacono
diacriticos
diagnostico
diagonal
diagrama
dialectal
dialectals
dialecto
dialectolochi
dialectologi
dialectos
dialekt
dialeutal
dialeuto
dialnet
dialogo
dialogos
diamant
diamants
diametro
diamond
diana
diane
diaple
diaples
diaria
diarias
diario
diarios
diary
dias
diasistema
diaspora
diato
dibuixos
dic
dica
dicaprio
diccionari
diccionario
diccionarios
dice
dicen
dicha
dichestio
dichestivo
dichital
dichitals
dicho
dichos
diciba
diciban
diciembre
dicindo
dicio
diciona
dicir
dicitur
dick
dickinson
dico
dicta
dictador
dictadura
dictionary
dictionnaire
dictionnaires
dicto
didier
dido
didos
die
diego
dien
dient
dients
dieresi
dies
dieste
dieta
dietas
dieterle
dietrich
dieu
diez
diferencia
diferenciacio
diferenciadas
diferencial
diferencials
diferencian
diferenciando
diferenciar
diferencias
diferens
diferent
diferentes
diferents
diferiencia
diferiencias
differentiis
difi
dificil
dificils
dificultat
dificultatz
difieren
diftongacio
diftongo
diftongos
difuera
difueras
difundir
difunto
difusio
diga
digital
diglosia
dignidat
digo
digrafo
dijon
dilla
dillon
dimana
dimanan
dimensio
dimensions
diminutiva
diminutivo
diminutivos
dimisio
dimite
dimitio
dimitri
dimorfismo
dimpue
dimpues
dimpuesas
din
dinamarca
dinamica
dinamo
dinantes
dinasti
dinastica
dinero
dineros
diners
dinner
dino
dinosaurio
dinosaurios
dinosaurs
dins
dintro
dio
diocesi
diocesis
dioclecia
diodo
diodora
dion
dioni
dionisio
dioron
dios
diosa
dioses
dioxido
diploma
diplomacia
diplomatica
diplomaticas
diplomatico
diplomaticos
diputacio
dique
diques
dir
dira
dire
direccio
direccions
directa
directament
directiva
directo
director
directora
directorio
directors
directory
directos
diri
diriche
dirichen
dirichent
dirichents
dirichiba
dirichida
dirichindo
dirichio
dirichir
dirichita
dirichitas
dirichito
dirichitos
dirichiu
dirk
dirty
dis
discapacidat
disci
disciplina
disciplinas
disciplo
disciplos
disco
discografi
discografica
discos
discovery
discreta
discreto
discretos
discriminacio
discurre
discurso
discursos
discusio
discusions
disenyada
disenyador
disenyar
disenyato
disenyau
disenyaus
disenyo
disenyos
disierto
disiertos
disimilacio
disminucio
disminuye
disney
disolucio
disolver
disolvio
dispersos
displaystyle
dispone
disponer
disponibilidat
disponible
disponibles
disposa
disposan
disposicio
disposicions
dispositivo
dispositivos
dispue
disputa
disputada
disputar
disputas
disputo
dista
distances
distancia
distancias
distincio
distingue
distinguen
distinguir
distinta
distintas
distintiva
distinto
distintos
distribucio
distribuir
distribuita
distribuitas
distribuito
distribuitos
distribuye
distribuyen
distribuyius
districto
districtos
distrito
distritos
disturbios
disuelta
disuelto
disuelve
dit
dita
ditas
dition
ditions
dito
ditos
diu
diurnas
dius
diverchencia
diversa
diversas
diversidat
diversio
diversity
diversos
divi
divide
dividen
dividendo
dividiba
dividida
dividindo
dividio
dividir
dividit
dividita
dividitas
dividito
dividitos
dividiu
dividius
divina
divinidat
divinidatz
divino
divisa
divisible
divisio
division
divisiones
divisions
divisor
divisoria
divisors
divo
divulgacio
dix
dixa
dixando
dixar
dixato
dixo
dixoron
diya
diyas
diz
dize
dizen
dizi
diziendo
dizionario
dj
dl
dm
dmytryk
dna
dnie
do
doa
doblache
doble
dobles
dobletz
doboj
dobrucha
doc
doce
doctor
doctora
doctoral
doctorato
doctorau
doctoro
doctors
doctrina
doctrinas
documenta
documentacio
documentada
documentadas
documental
documentals
documentan
documentar
documentata
documentato
documentau
documentaus
documento
documentos
documents
does
dog
dogs
doha
doi
dolader
dolars
dolinas
dollar
dolly
dolmen
dolmens
dolomi
dolor
dolores
dolorosa
dolors
dom
doma
domat
dome
domenico
domestica
domesticacio
domesticas
domestico
domesticos
domi
domicilio
domina
dominaba
dominaban
dominacio
dominada
dominan
dominando
dominant
dominants
dominar
dominata
dominato
domingo
domingos
domini
dominica
dominicana
dominico
dominio
dominios
dominique
domino
dominoron
domo
don
dona
donacio
donacions
donald
donar
donat
donatello
donc
doncas
donde
done
donetsk
dong
donna
donne
donnell
donner
dono
donovan
dont
donya
donzaina
doom
door
dopache
dople
dor
dorada
dorado
dorato
dorau
dordonya
dordrecht
doria
doris
dormir
dorothy
dorsal
dorsals
dorso
dortmund
dos
dosis
dote
dotze
dotzena
douard
double
doubs
douglas
dourdan
douro
dover
down
downey
doyle
dr
dra
drag
drago
dragon
dragons
drake
drama
dramatica
dramatico
dramaturga
dramaturgo
dre
dream
dreams
drecho
dreita
dreitament
dreitas
dreito
dreitos
drena
drento
drentro
dresde
dreta
drew
dreyfuss
dreyto
drive
driver
dro
drogas
droma
drupa
drupas
drusos
ds
dt
dte
dtv
du
dua
dual
dubai
dubda
dubli
dublin
duc
ducado
ducal
ducas
ducato
ducatos
ducau
duch
duchas
duda
dudas
dudley
due
duelo
duen
duero
dueso
dugo
duke
dulce
dulces
dulcis
dulza
dumas
dumbledore
dun
duna
dunas
dunaway
duncan
dunn
dunne
duque
duques
duquesa
dura
duracio
durada
duran
durando
durango
durant
durante
durar
durara
duras
dureza
durham
during
duro
duros
durruti
duryea
dus
dust
dustin
dutch
duvall
dvd
dy
dylan
dynamics
dz
dzhungaria
e
ea
eagle
earl
early
earth
east
eastern
eastwood
easy
eau
eba
ebersberg
ebo
ebre
ebro
ebullicio
ec
ecce
ecclesia
ecclesiam
ecclesias
ecclesie
ecetra
echea
echegaray
echeverri
echipcia
echipciana
echipcio
echipcios
echipto
echiptologo
echo
ecio
eclesiastica
eclesiasticas
eclesiastico
eclesiasticos
eclix
eco
ecolochi
ecolochica
ecolochico
ecolochistas
econo
economi
economia
economic
economica
economicament
economicas
economico
economicos
economista
ecorrechio
ecosistema
ecosistemas
ecuador
ed
eda
edacar
edad
edat
edatz
eddie
eddy
edelvives
eden
edgar
edge
edicio
edicion
ediciones
edicions
edicto
edificacio
edificacions
edificio
edificios
edifico
edimburgo
edison
edita
editada
editata
editato
editau
edith
edition
editions
edito
editor
editora
editores
editorial
editors
edizions
edmond
edmund
edna
edo
eds
edu
eduard
eduardo
educacio
education
educativa
educativo
educativos
educato
educto
edurne
edvard
edward
edwards
edwin
ee
eeuu
efa
efectiva
efectivament
efectivo
efecto
efectos
effet
eficacia
eficaz
eficiencia
eficient
egipto
eglesia
ego
egon
egretta
egual
eh
ehess
ei
eiffel
eight
eileen
eill
eillos
ein
eina
einaudi
eindhoven
eine
einer
einstein
einzelthemen
eivissa
eix
eixe
eixea
eixemplar
eixemplars
eixemplo
eixemplos
eixes
ejea
ejemplo
ek
el
ela
elabora
elaboracio
elaborar
elaborau
elaphus
elas
elba
elch
elche
elcock
ele
eleanor
eleccio
elecciones
eleccions
electo
elector
electoral
electorals
electorato
electores
electrecidat
electric
electrica
electricas
electricidat
electrico
electricos
electro
electrodomesticos
electromagnetica
electromagneticas
electromagnetico
electromagnetismo
electronica
electronicas
electronico
electronicos
electrons
elefant
elefants
element
elemental
elementals
elemento
elementos
elements
elena
elenco
elevacio
elevacions
elevada
elevations
elevau
eleven
elfos
eli
elia
elias
elijah
eliminacio
eliminar
eliminato
eliminatoria
eliminatorias
eliot
elisa
elisabeth
elise
elisenda
eliseo
elisio
elite
elizabeth
elizondo
ell
ella
ellas
elle
ellen
elliot
elliott
ellipses
ellis
ello
ellos
ells
ellu
elmundo
elo
elochios
elorza
elos
eloy
elpais
elrond
els
elsa
elso
elvira
elvis
em
emanuel
embaixada
embaixador
embalse
embarazo
embarcacio
embarcacions
embargo
embit
emblema
embolicau
embotada
embotadas
embotata
embreca
embrio
embu
embutius
emerchencia
emerito
emi
emigracio
emigrants
emigrar
emigratos
emigro
emigroron
emil
emili
emilia
emilio
emily
emir
emirato
emiratos
emisio
emisions
emisor
emisora
emite
emiten
emitio
emitir
emma
emmanuel
emmanuelle
emmy
emocional
emocions
emp
emparar
emparo
empate
empecipia
empecipio
empecipioron
empenta
empentar
empento
empentoron
emperador
emperadores
emperadors
emperadric
emperadriz
empero
empire
emplazamiento
emplega
emplegaba
emplegaban
emplegada
emplegadas
emplegan
emplegando
emplegar
emplegata
emplegatas
emplegato
emplegatos
emplegau
emplegaus
emplego
emplegoron
emplegos
emporda
empresa
empresarial
empresario
empu
en
ena
enamplando
enamplar
enamplata
enample
enamplo
enantes
enc
enca
encara
encarga
encargaba
encargada
encargato
encargau
encargo
encarnacio
encarta
encefalo
encetar
enceto
enchaquia
encia
encias
enciclope
enciclopedia
encieta
encima
enclau
enclaus
encluso
encluye
encluyen
encluyendo
encluyiba
encluyindo
encluyir
encluyitos
enco
encomenzamiento
encomenzando
encomenzar
encomenzau
encomenzo
encomenzoron
encomienda
encomienza
encomienzan
encomienzo
encontrada
encontradas
encore
encorpora
encorporacio
encuentro
encyclopaedia
encyclopedia
encyclopædia
end
ende
endemica
endemicas
endemico
endesa
endice
endize
endorreica
endrecera
endreza
endrezada
endrezar
endrezau
eneas
enel
enemigo
enemigos
enemy
enerchetica
enerchetico
enerchi
energi
energy
enero
enfants
enfasi
enfermera
enfila
enfoque
enfrentamiento
enfrentamientos
enfrento
enfrontinamientos
enfrontinar
enfrontino
engarcholato
england
english
engloba
engolesme
engracia
engua
enguera
enguerada
enguerau
enguero
enguita
enla
enlace
enlaces
enlas
enlaza
enlos
enmedio
enna
enne
enneco
ennio
eno
enorme
enperador
enqu
enquesicio
enrestida
enri
enric
enrico
enrique
enruenas
enruna
enrunas
ens
ensambla
ensayo
ensayos
ense
ensemble
ensen
ensundia
ent
enta
entabaixo
entabant
entalto
entativos
entazaga
entender
entendimiento
entenza
entera
entero
enterprise
enters
entertainment
entibadera
entibo
entibos
entidat
entidatz
entiende
entienden
entierro
entivocar
entment
entomologo
entonacio
entorno
entornos
entra
entrada
entramos
entran
entrando
entrar
entrata
entrau
entre
entrega
entregan
entregar
entrego
entreguerras
entremistanto
entremont
entrena
entrenador
entrenadors
entrenamiento
entrenar
entretenedera
entretenimiento
entrevista
entrevistas
entro
entroa
entroron
entry
ents
enuio
enve
envergadura
envio
environment
environmentalchemistry
envista
envistable
envistables
envueltas
enya
enz
enza
enzimas
enzo
eo
eoceno
eolica
eonaviego
ep
epentesi
epentetica
epi
epica
epico
epidemia
epidural
epigrafe
epila
epiro
episcopal
episode
episodio
episodios
epitelio
epiteto
epoca
epocas
epopeya
equacio
equacions
equador
equatorial
equidos
equilibrio
equipacio
equipamiento
equipamientos
equipe
equipes
equipo
equipos
equitacio
equivale
equivalencia
equivalent
equivalents
equus
er
era
eran
erana
eras
erata
erau
ere
erebor
ereni
eric
erich
erik
eripol
erisue
eritrea
erla
erlangen
ermano
ermengol
erminia
ermita
ermitas
ernest
ernesto
ernie
ernst
ero
eros
erosio
erosivo
erre
erro
errol
erroniament
error
errors
ers
erudito
eruditos
erupcio
erupcions
erwin
es
esa
esbarizaculos
esboldrego
esc
esca
escaicimiento
escaicimientos
escaicio
escaicioron
escaicita
escala
escalada
escaladors
escalar
escalas
escalera
escaleras
escalfamiento
escalfar
escalo
escalona
escalquens
escandinava
escandinavas
escandinavia
escandinavismos
escandinavo
escandinavos
escania
escaniella
escanyos
escapa
escapar
escape
escapo
escaques
escar
escarabachos
escarp
escarra
escarriella
escarti
escasa
escasas
escaseza
escaso
escasos
escatas
escatro
escayecimientos
escenario
eschen
esclafar
esclata
esclatar
esclatito
esclato
esclaus
esclavitut
esclavo
esclavos
escleto
esco
escobar
escoce
escocesa
escoceses
escocia
escolapios
escolar
escolars
escolta
escomencipio
escomenzo
escomienza
esconfita
esconfito
escorial
escoriuela
escriba
escribans
escribe
escriben
escribiba
escribiban
escribindo
escribio
escribioron
escribir
escrich
escrita
escritas
escrito
escritor
escritora
escritores
escritors
escritos
escritura
escrituras
escriva
escuai
escubrimiento
escudero
escudo
escudos
escuela
escuelas
escuer
escuita
escuitar
escultor
escultors
escultura
esculturas
escura
escuras
escuro
escuros
escurpio
escusau
escusaus
esdevenidero
esdevenindo
esdevenio
esdevenioron
esdevenir
esdevenito
esdeveniu
esdevie
esdeviene
esdevienen
esdevinio
esdevinioron
esdevino
esdolomada
esdru
ese
esencia
esencial
esencialment
esencials
esera
esfender
esfendio
esfensa
esfensas
esfensiva
esfensivas
esfensor
esfensors
esfera
esferas
esferencia
esferenciar
esferencias
esferents
esferra
esfi
esfiende
esfienden
esfuerzo
esfuerzos
esgrima
esgueva
esiste
eslampar
eslava
eslavas
eslavismos
eslavo
eslavonia
eslavos
esleccions
eslecio
eslecions
esleir
esleita
esleito
esleitos
esleyir
esleyita
esleyito
esleyiu
esleyo
esleyoron
eslices
esliche
eslovaca
eslovaco
eslovacos
eslovaquia
eslovena
eslovenia
esloveno
eslovenos
esmo
esnaviesa
eso
esofago
esp
espacial
espacials
espacio
espacios
espada
espadas
espalda
espaldada
espaldar
espaldau
espaldo
espan
espantaleo
espanto
espanya
espanyol
espanyola
espanyolas
espanyols
espardidura
espardir
esparta
espartero
esparver
esparvero
espasa
espata
espaynna
espe
especial
especialidat
especialidatz
especialista
especialistas
especializacio
especializada
especializadas
especializata
especializato
especializatos
especializau
especializaus
especialment
especials
especias
especie
especies
especifica
especificament
especificar
especificas
especificau
especifico
especificos
espectaclo
espectaclos
espectacular
espectaculars
espectador
espectadors
espectro
espejo
espelunga
espelungas
espelunz
esper
espera
esperantista
esperanto
esperanza
esperar
espezies
espi
espiello
espierba
espierre
espiga
espigas
espinach
espinal
espinalt
espinaques
espineta
espino
espinosa
espionache
espira
espiral
espiritual
espleitacio
espleitacions
espleitar
esplendor
esplu
espluca
espluga
esplugas
espluguiello
espn
esponera
espontania
espontaniament
esporadicament
esporas
esport
esporte
esportes
esportista
esportistas
esportiva
esportivament
esportivas
esportivo
esportivos
esposa
esposo
espot
espresa
esprisio
esprisions
esprito
espritos
espritual
espuenda
espuendas
espulla
espullata
espunya
espurio
esqueleto
esquema
esquena
esquerra
esqui
esquiador
esquiadors
esquilo
esquina
esquiruelo
essays
esse
essential
essentielle
essere
essex
essonne
est
esta
estaba
estabilidat
establ
estable
establece
estableix
estableixe
estableixen
estables
establiba
establida
establidor
establidors
establimiento
establimientos
establindo
establio
establioron
establir
establisen
establita
establitas
establito
establitos
establiu
establius
establix
estaca
estacio
estacional
estacions
estada
estadi
estadilla
estadio
estadios
estadistica
estadisticas
estado
estados
estadounidense
estallo
estambres
estambul
estan
estanca
estancia
estandar
estandard
estando
estanislau
estany
estanyo
estanyos
estar
estara
estarba
estari
estas
estase
estasen
estat
estata
estatal
estatals
estatistica
estatisticas
estatistico
estato
estatos
estatounidense
estatounitense
estats
estatua
estatuas
estatus
estatuto
estatutos
estau
estaus
estausunidense
estausunidenses
este
esteban
estefani
estela
estelar
estelas
estella
estenata
estendilla
estendillaba
estendillada
estendillan
estendillando
estendillar
estendillata
estendillato
estendillau
estendillo
estendilloron
estensio
estepa
estepas
estercuel
esteruelas
estes
esteso
estetica
estevan
esteve
esther
esti
estie
estieron
estilo
estilos
estima
estimacio
estimacions
estimada
estiman
estimar
estimata
estimau
estimo
estimulacio
estimular
estio
estions
estioron
estiria
estiu
estiva
estivas
esto
estocolmo
estomago
estonia
estonio
estonz
estos
estrabo
estrada
estral
estrals
estranchero
estrasburgo
estratechia
estratechica
estratechico
estratificacio
estrato
estratos
estre
estreita
estreitament
estreitas
estreito
estreitos
estrela
estrelada
estrelas
estrella
estremo
estremos
estrenata
estreno
estribacions
estricallar
estricta
estrictament
estricto
estrimera
estructura
estructural
estructurals
estructuras
estuario
estudea
estudear
estudeo
estudeos
estudeya
estudeyo
estudia
estudiando
estudiant
estudiantes
estudiants
estudiar
estudiato
estudiau
estudio
estudios
estudioso
estudiosos
estudis
estupinya
esviellada
esviellata
esviellato
esviellau
esviello
esvinzadura
esvurcio
esztergom
et
eta
etapa
etapas
etc
etcetra
ete
eternal
eternity
eth
ethan
ethel
ethnic
ethnologue
eths
etica
etimo
etimolo
etimolochi
etimolochica
etimolochicament
etimolochicas
etimolochico
etimologi
etiope
etiopi
etiopia
etiqueta
etnia
etnias
etnica
etnicament
etnicas
etnico
etnicos
etnochenesi
etnogra
etnografico
etnografo
etnolingu
etnolochi
etnologo
etnonimo
etnonimos
eto
etrusca
etrusco
etruscos
ettore
etz
eu
eua
eucarionts
eucariotas
eufrates
euge
eugen
eugene
eugenio
eugui
eula
eulalia
euler
eumenio
eur
eurasia
eure
euro
euroasiatica
eurobasket
eurocopa
eurocup
euroliga
europa
europaea
europe
europea
european
europeas
europeo
europeu
europeus
euros
eurovisio
eusa
eusebio
euskadi
euskal
euskaltzaindia
euskara
euskera
eusko
euzko
ev
eva
evaluacio
evanchelio
evanchelios
evanchelista
evans
evaporacio
eve
evelyn
evento
eventos
eventualment
ever
everest
everett
every
everything
evidence
evidencia
evidencias
evident
evil
evita
evitar
evo
evolucio
evoluciona
evolucionan
evolucionando
evolucionar
evolucionato
evolucionau
evoluciono
evolucionoron
evolucions
evolution
evolutiva
evolutivament
evolutivas
evolutivo
evreus
ew
ex
exacta
exactament
exactas
exactitut
exacto
exaltacio
examen
exarc
exatiba
exatiel
exativa
exauli
excavacio
excavacions
excelencia
excelent
excepcio
excepcional
excepcionalment
excepcions
excepto
excesiva
exceso
exclau
exclusio
exclusiva
exclusivament
exclusivo
excma
excmo
excursionista
excursionistas
excursions
exe
exea
execucio
executar
executato
executiva
executivo
exelsa
exemplar
exemplars
exemplo
exerce
exercer
exercicio
exercio
exercito
exercitos
exercitu
exerica
exeya
exhibicio
exilio
exime
exista
existe
existen
existencia
existent
existents
existiba
existiban
existindo
existio
existioron
existir
existito
existiu
exit
exito
exitos
exitosa
exodo
exoplaneta
exoplanetas
exorcas
exorquera
exotoponimo
exotoponimos
expansio
expedicio
expedicions
experience
experiencia
experiencias
experiment
experimental
experimentals
experimentar
experimento
experimentos
experto
expertos
expleitacio
explendor
explica
explicacio
explicacions
explican
explicar
explicari
explicitament
expliquee
exploracio
explorador
exploradors
explorar
exploration
explosio
explotacio
explotacions
expo
exportacio
exportacions
exposa
exposada
exposicio
exposicions
expresa
expresan
expresar
expresio
expresionismo
expresions
expreso
express
exprisar
exprisio
expropiato
expulsio
extender
extendida
extendilla
extendio
extendiu
extensa
extensas
extensible
extensio
extensions
extensiva
extenso
extensos
exterior
exteriors
exterminio
externa
externas
externo
externos
extiende
extincio
extincta
extincto
extinguio
extra
extraccio
extranchero
extranchers
extranjero
extraordinaria
extraordinario
extraterrestres
extrayer
extrema
extremadament
extremadura
extremas
extremenyo
extremidatz
extremo
extremos
extrimo
exulve
eyar
eye
eyes
ez
eza
ezcua
ezquerra
ezquierda
ezquierdas
ezquierdo
f
fa
faba
fabaceae
fabera
fabeta
fabia
fabib
fabio
fabirol
fabla
fabladors
fablan
fablans
fablant
fablants
fablar
fablas
fablata
fablato
fablo
fabo
fabos
fabra
fabre
fabrica
fabricacio
fabrican
fabricant
fabricants
fabricar
fabricas
fabricau
fabricio
fac
faccions
face
facebook
facera
faces
faceta
faci
facial
facies
facil
facilidat
facilita
facilitar
facilito
facilment
facio
facioron
facsi
factbook
facto
factor
factori
factors
facts
facultad
facultat
facultatz
fadas
fadrique
faga
faginea
fago
fagus
fahrenheit
faiga
faigan
faina
fainas
fair
fairbanks
faire
fait
faith
faixa
faixas
faixismo
faixista
faixistas
faixo
fakten
fala
falaguera
falanche
falange
falca
falces
falciellos
falco
falcon
falda
fall
falla
fallas
fallece
fallo
falls
falordia
falordias
fals
falsa
falsas
falso
falsos
falta
falz
fam
fama
fambre
fame
familia
familiar
familiars
familias
family
famosa
famosas
famoso
famosos
famous
fan
fango
fanlo
fanny
fans
fanta
fantasi
fantesi
fantova
fanyanars
fao
far
fara
faraday
farao
farasdue
fardacho
fari
farina
farinche
fariza
farlet
farmaceutico
farmacia
farmacos
farmer
farnsworth
faro
faros
farrah
farrow
fas
fase
fases
faso
fast
fasta
fat
fata
fatal
father
fatimi
fato
fau
fauna
faure
fausto
faut
favara
favor
favorable
favorables
favoreixer
favorito
fawcett
fay
fayar
fayars
faye
fayena
fayenas
fayeta
fayo
fayoron
fayos
faz
faze
fazen
fazer
fazi
fazia
fazio
fc
fe
fear
features
feb
feba
feban
feble
febles
febrer
febrero
february
fecha
fechas
fecho
fechos
fecundacio
federacio
federacions
federal
federals
federativa
federato
federatos
federau
federaus
federico
fegura
feguras
feira
feita
feitas
feito
feitos
feldespatos
felequera
felice
felices
felicidat
felicis
felidae
felidos
felino
felins
felip
felipe
felis
feliu
felix
feliz
fellini
female
femar
fembra
fembras
femeni
femenina
femeninas
femenino
femeninos
femenins
femini
feminina
feminins
feminista
femme
femos
fen
fender
fendo
feneixiu
fener
feners
fenicios
feno
fenomeno
fenomenos
fer
fera
ferdinand
feri
feria
ferias
ferida
feridas
ferir
ferire
feritas
ferito
feritos
feriu
ferius
fermat
fermentacio
fermi
fermosa
fermoso
ferna
fernanda
fernando
feroe
ferra
ferrada
ferradura
ferragudo
ferraina
ferramienta
ferramientas
ferran
ferrand
ferrando
ferrant
ferrara
ferrari
ferraz
ferrer
ferrera
ferreras
ferreri
ferrero
ferreruela
ferria
ferro
ferrocarril
ferrocarrils
ferrol
ferroviaria
ferroviarias
ferroviario
ferroviarios
ferry
fertilidat
fertu
fese
fesen
fesensac
festa
festival
festivals
festividat
festividatz
festivo
fet
feta
fetas
feto
fetos
feu
feudal
feudalismo
feudals
feudo
feudos
few
feyto
fez
fezo
ff
fheilimi
fi
fia
fiasta
fiat
fiba
fibra
fibras
fica
ficacio
fican
ficar
ficas
ficcio
ficha
fichero
ficho
fico
ficos
ficticio
fiction
fidel
fidelidat
fidels
fiebre
fiel
field
fields
fiels
fiemo
fiennes
fiera
fiere
fiero
fierro
fierros
fiesta
fiestas
fifa
figa
figado
figaro
fighter
fighting
figo
figuera
figueras
figueres
figueruelas
figura
figuran
figurar
figuras
fijo
fila
filabres
filada
filadelfia
filar
filas
file
files
filiacio
filial
filio
filipinas
filippo
filla
fillas
fille
fillo
filloa
fillos
film
filmacio
filmaffinity
filme
filmografi
films
filo
filochenia
filolo
filolochi
filologi
filologo
filologos
filos
filosofi
filosofica
filosoficas
filosofico
filosofo
filosofos
fils
fin
fina
final
finales
finalidat
finalidatz
finalista
finalment
finals
financiacio
financiar
financiera
financieras
financiero
finanzas
finas
finca
fincas
finch
find
fine
fines
finesa
fineses
finestra
finestras
fini
finisterre
finlande
finlandia
finn
finney
fino
finollosa
finos
fins
fiordland
fiordo
fiques
fire
firma
firmar
firme
firmes
firmo
firmoron
first
firth
fisac
fiscal
fiscals
fischer
fish
fishburne
fisher
fisica
fisicament
fisicas
fisico
fisicos
fisio
fisiolochi
fisiologo
fita
fitas
fitero
fito
fitonimo
fitonimos
fitzgerald
fiume
five
fixa
fixacio
fixada
fixar
fixas
fixo
fixos
fizieron
fizo
fizon
fl
fla
flag
flaire
flaires
flama
flamas
flamenca
flamenco
flamencos
flanders
flandres
flash
flauta
flavio
flea
fleet
fleischer
fleming
flesio
fleta
fletcher
flexibilidat
flexible
flexibles
flexio
flight
flix
flo
flor
flora
florada
floral
florals
florata
flore
florenc
florence
florencia
flores
flori
floria
florida
florinda
florir
flors
flota
flower
floyd
flu
fluido
fluidos
flum
flumen
fluvia
fluvial
fluvials
fluvio
fluxo
fluye
fly
flying
flynn
flysch
fo
foc
focas
foces
focino
foco
focos
fogache
fogaje
fogar
fogaril
fogars
foguera
fogueras
foi
fois
foix
fol
folclore
foliolos
folk
folklore
follarasca
follas
folli
fols
fomentar
fomento
fon
fonda
fondada
fondaria
fondo
fondon
fondonada
fondons
fondos
fondura
fonduras
fone
fonema
fonemas
fonetica
foneticament
foneticas
fonetico
foneticos
fonfri
fongo
fongos
font
fontaine
fontainebleau
fontana
fontanal
fonte
fontellas
fontem
fontes
fonts
fonz
food
foot
football
for
fora
forachitar
forachitato
forachitatos
forachitaus
forachito
forachitoron
foradada
foral
forana
foranas
forano
foranos
foratata
forato
foratos
forau
foraus
forbes
forbidden
forc
forca
forcallo
forcas
force
forces
forcos
ford
fore
foreign
forest
forestal
forestals
forever
forma
formaba
formaban
formacio
formacions
formada
formadas
formador
formal
formalment
formals
forman
formando
formant
formar
formara
formas
formata
formatas
formation
formato
formatos
formau
formaus
forme
formen
formich
formigal
formigals
formigari
formigo
formo
formoron
formula
formulacio
formulas
fornigal
fornigas
forno
fornos
foro
foros
forque
forqueta
forrest
forster
fort
fortaleza
fortalezas
fortanet
fortanete
forte
forti
fortia
fortificacio
fortificacions
fortificada
fortificata
fortificato
fortificau
fortu
fortuna
fortune
forum
forzata
forzo
fosal
fosau
fosca
foscas
fosco
fosfato
fosforo
fosil
fosilizacio
fosilizau
fosils
fosse
foster
foto
fotografi
fotografica
fotografo
fotogramas
fotons
fotos
fotosintesi
fotosinteticos
foucault
found
foundation
four
fourth
fovano
fox
foya
foyas
foyeta
foz
fr
fra
frac
fracaso
fraccio
fraga
fragancias
fragmentacio
fragmento
fragmentos
frago
frai
fraile
fraires
fraixneda
fraixno
fran
franc
franca
francais
francas
france
frances
francesa
francesas
francesc
francesca
francesco
franceses
francha
franchas
francho
franchot
francia
francico
francis
francisca
franciscans
francisco
franck
franco
franconia
franconismos
francos
franja
frank
franka
frankenheimer
frankenstein
frankfurt
frankie
franklin
franquicia
franquismo
franquista
franquistas
franz
frase
fraser
frases
frau
fraxinus
fray
fre
frebero
fred
freda
fredas
freddie
frederic
frederick
frederico
fredo
fredor
fredos
fredric
free
freedom
freeman
freguesi
freiburg
freida
freiherr
fren
french
frent
frente
frents
frequ
frequent
fresca
frescano
fresco
frescos
fresno
freud
freyung
fri
friburgo
frica
fricativa
fricativo
frida
fridas
frido
fridos
friedrich
friend
friends
friesiana
friesii
frisia
friso
frisonas
frisons
frito
fritz
friuli
frodo
from
front
frontal
frontera
fronteras
fronto
fronton
frosinone
fru
fruita
fruitals
fruitas
fruito
fruitos
frusciante
frutos
fryske
fu
fue
fueba
fuego
fuegos
fuella
fuellas
fuen
fuencalderas
fuencaliente
fuenlabrada
fuens
fuent
fuente
fuentelsaz
fuentes
fuentiduen
fuents
fuera
fueras
fuerc
fuero
fueron
fueros
fuert
fuerte
fuertement
fuertes
fuerteventura
fuerza
fuerzas
fues
fuesa
fuesas
fuese
fuesen
fuesse
fuessen
fueva
fueya
fuga
fuina
fuir
full
fuller
fulli
fumanal
fumo
funchal
funcio
funciona
funcional
funcionalidat
funcionals
funcionamiento
funcionan
funcionar
funcionario
funcionarios
funcions
funda
fundacio
fundacional
fundada
fundador
fundadors
fundamental
fundamentalment
fundamentals
fundamentos
fundan
fundando
fundar
fundaria
fundas
fundata
fundato
fundau
fundazio
funde
fundir
fundo
fundoron
fundos
funeral
funeraria
funes
fungi
funk
fuo
fuoron
fura
furla
furno
furo
fury
fusca
fusco
fuselache
fuset
fusilato
fusio
fusionar
fusiono
fusionoron
fuso
fusta
fustas
fuster
futbol
futbolaire
futbolista
futbolistas
futur
futura
futuras
future
futuro
futuros
fuye
fuyen
fuyindo
fuyio
fuyir
fuyo
fuyoron
fy
g
ga
gaba
gabarda
gabardo
gabe
gabinet
gable
gabo
gabriel
gabriela
gabriele
gaelico
gaetano
gagauzes
gai
gaia
gais
gaita
gaiters
gal
gala
galabru
galacho
galachos
galactica
galadriel
galaico
galas
galaxia
galaxias
galaxy
gale
galega
galego
galera
galeras
galeri
galesa
gali
galia
galias
galicia
galicismo
galicismos
galico
galilea
galileo
galindo
galitzia
gall
gallaecia
gallega
gallego
gallegos
gallen
gallery
gallia
galligo
galliguera
gallimard
gallina
gallinas
gallipoli
gallipuent
gallo
gallocanta
gallos
gallur
galme
galo
galos
galv
galve
gama
gamba
gambia
game
games
gametos
gamma
gamueta
gan
gana
ganadera
ganaderi
ganadero
ganaderos
ganaders
ganado
ganador
ganadora
ganadors
ganados
ganan
ganando
ganar
ganato
ganau
ganaus
gancho
gandalf
gandesa
gandhi
gandi
gandia
gangas
ganglios
gano
ganoron
gant
ganyarul
ganz
gap
gar
gara
garanti
garas
garba
garbo
garce
garchola
garcholas
garci
garcia
garcilaso
garcipollera
garda
garde
garden
gardner
gardon
gare
garfield
gargallo
gargancho
garganta
garin
garland
garmisch
garmo
garnacha
garner
garona
garonne
garra
garraf
garrapescaire
garrapiniellos
garras
garrido
garriga
garrigas
garrigues
garrocha
garrot
garry
garson
gary
gas
gasco
gascogne
gascon
gascona
gasconiella
gascons
gascun
gascunya
gases
gasherbrum
gaso
gaspar
gassman
gasto
gaston
gastos
gastronomi
gata
gate
gates
gato
gatos
gauba
gaudenc
gaudi
gaudioso
gauguin
gaulle
gavarni
gavarnie
gave
gaves
gavi
gavin
gavras
gay
gayata
gaye
gaynor
gayo
gaza
gazaros
gbonieu
gdan
ge
gea
gel
gelle
geltru
gen
gender
gene
genera
generacio
general
generalfeldmarschall
generalitat
generation
genes
genetta
genevie
genfrancesa
genil
genista
gennaro
gens
gent
gente
gentes
gentilicios
gentleman
geo
geoffrey
geog
geogra
geografi
geographic
geography
geolo
geologi
geomorfolo
geomorfologi
georg
george
georges
georgia
ger
gerais
gerald
geraldine
gerard
gerardo
gerd
gerhard
germa
germain
german
germania
germany
gernika
gero
gers
gerse
geschichte
gesehen
gesellschaft
gestapo
get
getafe
gets
ghana
ghil
ghost
gi
gia
giacomo
gian
giancarlo
gianni
giant
gibraltar
gibson
gica
gicas
gico
gicos
gielgud
gig
gijo
gil
gilbert
giles
gilles
gillian
gime
gimeno
gimona
gimpera
gina
ginas
gine
giner
gines
ginger
gino
ginzburg
giorgio
giovanni
gipuzkoa
giralt
girardet
girardot
girl
girls
giro
girona
gironda
gironella
gistai
gistain
giulio
giuseppe
give
gl
glaciacio
glacial
glacials
glaciar
glaciares
glaciars
glacier
glaciers
glacis
glan
glandula
glandulas
glans
glarimas
glasgow
glass
glaud
gleeson
glen
glenda
glenn
glera
gleras
gli
global
globalizacio
globe
globo
globos
gloria
glory
glosas
gloucestershire
glover
glu
glucosa
gmbh
gmelin
gnu
go
goal
gobernador
gobernants
gobernar
goberno
gobierno
gobiernos
god
godfather
godfrey
godina
godofre
godos
gods
goes
goethe
gogh
goierri
going
goire
gol
gold
golden
goldsmith
goldwyn
goles
golf
golfo
goliador
gollum
golpe
golpes
gols
goma
gomera
gomez
gonc
goncourt
gondor
gone
gonen
gonza
gonzaga
gonzalo
gonzalvo
good
goodbye
goodman
google
gora
gorda
gordaria
gordo
gordon
gore
gorga
gorgas
gorgos
gorgutes
gorilla
gormaz
goro
gosa
gosaba
gosaban
gosan
gosando
gosar
gosato
gosau
goso
gostanza
got
gota
gotas
gotha
gotica
goticas
goticismo
goticismos
gotico
goticos
gotor
gottfried
gould
goulding
gov
government
govt
goya
goyo
gp
gpl
gps
gr
gra
grable
grace
gracia
gracias
grad
grada
gradient
grado
grados
gradual
gradualment
graf
grafi
grafia
grafica
graficament
graficas
grafico
graficos
grafo
graham
grahame
graixa
gralla
grama
gramatica
gramatical
gramaticals
gramatuero
graminias
grammaire
grammar
grammatik
grammy
gramos
gran
granada
granadina
granadinas
granat
granatense
grancha
granchas
grand
grandaria
grandarias
grande
grandes
grandeza
granero
granger
granito
graniza
granizo
granizos
granja
grano
granollers
grans
grant
granye
grasa
grasos
grass
grassa
gratacielos
gratal
gratuita
grau
graus
grausino
grava
gravacio
gravacions
gravador
gravar
gravato
gravatos
gravau
gravaus
grave
gravedat
graves
gravo
gray
graz
gre
great
greatest
grec
grecia
greco
greda
gredal
gredos
greek
green
greene
greenwich
greenwood
greer
greg
gregoria
gregoriano
gregorio
gregory
gremio
grenada
grenoble
greta
grey
grie
griega
griegas
griego
griegos
grieu
grieus
griffith
griffiths
grijalbo
grillo
grimm
gripe
gris
grisa
grisas
grise
grisel
grisenca
griso
grisons
grisos
grist
grito
griu
gro
groningen
gronlandia
gros
group
groups
grove
gru
grup
grupo
grupos
gruyter
gs
gta
gu
gua
guadalachara
guadalajara
guadalaviar
guadalenti
guadalop
guadalope
guadalquivir
guadalupe
guadiana
guaido
guaire
guaires
guam
guara
guaranciar
guarda
guardafuents
guardamar
guardan
guardar
guardau
guardia
guardian
guardias
guardiola
guarga
guarguera
guarnicio
guaso
guatemala
guatizalema
guayana
gubernador
gubernamental
gubernamentals
gubernants
gubernar
guberno
gubierna
gubierno
gubiernos
gudiol
gue
gueda
guernica
guerra
guerras
guerre
guerrera
guerrero
guerrers
guerrilla
guerrillas
guerrillero
guerrillers
guevara
guez
guglielmo
gui
guia
guida
guide
guido
guila
guillaume
guille
guillem
guillermo
guinea
guinness
guinot
guio
guionista
guions
guipuzcua
guisa
guitar
guitarra
guitarras
guitarrista
guitarristas
guiz
gules
gump
gun
gunnar
guns
gupta
gurrea
gurrio
gus
gustaf
gustav
gustave
gustavo
gusto
gut
gutenberg
gutie
guy
guyana
guyena
guyo
guzma
gwened
gwenn
gyo
h
ha
haag
haakon
hab
habana
habe
haben
habendo
habent
haber
haberba
habet
habi
habilidat
habilidatz
habio
habioron
habita
habitaba
habitaban
habitable
habitada
habitadas
habitador
habitadores
habitadors
habitan
habitans
habitant
habitantes
habitants
habitar
habitat
habitata
habitatas
habitato
habitatos
habitats
habitau
habitaus
habito
habitos
habitual
habitualment
habituals
habiu
habla
hablas
habra
habri
habs
habsburgo
habsburguica
hace
hacer
hacia
hacienda
hackman
had
haddock
hadria
hadriana
haensch
hagen
hai
haifa
haiga
haigan
haile
haiti
haito
hal
hale
halepensis
half
hall
halle
halochenos
ham
hamburg
hamburger
hamburgo
hamilton
hamlet
hammond
hampshire
han
hand
handbook
handbuch
handy
hank
hanks
hanna
hannah
hannes
hannover
hanoi
hans
hansa
hanseatica
happy
hara
harald
harbour
hard
hardcore
hardware
hardwicke
hardy
hari
harlem
harlow
harmoni
harmonica
haro
harold
harper
harpercollins
harris
harrison
harry
hart
hartert
hartford
harvard
harvey
has
hase
hassan
hasta
hastings
hat
hathaway
hattie
hatzfeld
haui
hauia
hauraki
haus
haut
haute
have
havemos
haven
haver
havi
haviendo
havilland
hawaii
hawelka
hawk
hawke
hawkins
hawks
hawthorne
hawwara
hay
haya
hayden
hayes
hayward
he
head
health
hear
heart
hearts
heath
heather
heaven
heavy
heba
heban
hebe
hebraicos
hebrea
hebreu
hechemoni
hecho
hectarias
hector
hedy
heflin
hei
heidelberg
heights
heimdal
heinrich
heinz
hel
helen
helena
helenismo
helenismos
helenistico
helicoptero
helio
helios
helitz
hell
helm
helmut
helmuth
help
helsinki
hematites
hemingway
hemionus
hemipteros
hemisferio
hemos
henares
hendaia
hendrix
henri
henrik
henrique
henry
hepburn
her
hera
heraclio
herald
heraldo
herbacia
herbacias
herbacio
herbert
herbivoros
hercules
here
herechi
hereda
heredat
heredau
heredera
heredero
heredia
herediana
hereditario
heredo
herencio
hereu
hereus
herge
hergt
heritage
herman
hermanas
hermandad
hermann
hermano
hermanos
hermione
hermosilla
herna
hernando
hero
heroe
heroes
heroi
herois
herra
herrengasse
herrera
herrero
herri
herria
hertfordshire
hertz
herzegovina
hese
hesen
hespital
hespitalers
hespitals
hesse
heston
het
heterosexual
heterosexuals
heu
hevia
hi
hiato
hibernadero
hibierno
hibiernos
hibrido
hibridos
hicienda
hickman
hicks
hidalgo
hidden
hidra
hidraulica
hidrocarburos
hidrocheno
hidroelectrica
hidrografica
hidrograficas
hidrolochica
hidronimo
hidroxido
hielo
hierarchy
hierarqui
hierba
hierbas
hierro
higgins
high
higuera
higueras
hija
hijo
hijos
hilary
hilgemann
hilgermann
hill
hillary
hiller
hills
hilton
him
himalaya
himmler
himno
hindenburg
hindi
hindu
hinduismo
hinojosa
hip
hipo
hipotesi
hipotesis
hipotetica
hipoteticas
hipotetico
hiroshima
his
hisn
hispa
hispana
hispania
hispaniae
hispanica
hispanico
hispano
histo
histoire
historia
historiador
historiadors
historial
historias
historic
historica
historical
historicament
historicas
historico
historicos
historieta
historiografi
historique
history
hita
hitchcock
hitler
hits
hivierno
hl
hm
ho
hobart
hobbit
hobbits
hoc
hocino
hockey
hoek
hof
hoffman
hoffmann
hogan
hohenstaufen
hoi
holanda
holande
holandeses
holden
hole
holiday
holland
holliday
holly
hollywood
holm
holmes
holmiae
holocausto
holstein
holy
hombre
hombres
home
homenache
homenaje
homer
homero
homes
homme
hommes
homo
homochenia
homochenio
homonima
homonimo
homonimos
homosexual
homosexualidat
homosexualite
homosexuals
hondo
honduras
hong
hongara
hongaro
hongaros
hongri
honolulu
honor
honore
honorifico
honorio
honoris
honors
honra
honras
hontoria
hood
hop
hope
hopkins
hopper
hora
horace
horario
horarios
horas
horatio
horcajo
horda
hordio
horizon
horizont
horizontal
horizontals
hormona
hormonas
horn
horno
horse
horst
horta
hortal
hortalicias
hortals
horte
hospicio
hospital
hospitalet
hostal
hostalets
hostilidat
hot
hota
hotel
hotels
hour
hours
house
houston
how
howard
hoy
hoya
hoyo
hoyos
hoz
hr
hrer
hrsg
htm
html
http
https
hu
hua
huang
huatl
hubbard
hubble
hubert
hubo
hud
hudson
hue
huei
huelga
huelva
huembro
huembros
huerta
huertas
huerto
huertos
huerva
huesca
huest
hugendubel
hugh
hughes
hugo
hui
hull
huma
human
humana
humanas
humanidades
humanidat
humanidatz
humanista
humano
humanos
humans
hume
humedat
humedo
humida
humidas
humidat
humido
humidos
humilis
humo
humor
humorista
humphrey
hun
huna
hunnos
hunt
hunter
huntington
hurt
hus
husitas
hussein
hussey
huston
hutt
hutton
huuo
huvo
huygens
hyde
hymes
hyundai
i
ia
iaaf
iacca
iaest
ian
ianos
iar
ias
iata
iauliai
iba
iban
ibarra
ibdes
ibe
ibera
ibercaja
iberia
iberica
ibericas
iberico
ibericos
ibero
ibers
iberus
ibi
ibieca
ibiza
ibm
ibn
ibo
ibon
ibones
ibonet
ibons
ibrahim
ic
ice
ich
ici
ico
icono
iconos
id
ida
idaho
idat
ide
idea
ideal
ideas
identica
identico
identidad
identidat
identidatz
identifica
identificacio
identifican
identificar
identificato
identificau
identifico
identity
ideolochi
ideya
ideyal
ideyals
ideyas
ideyolochi
idi
idioma
idiomas
ido
ie
iella
iello
iem
ient
ier
ies
if
ifc
iglesia
iglesias
iglesuela
ign
ignacio
igo
igor
igre
igual
igualada
igualdat
igualment
iguals
iherusalem
ihrem
ii
iii
iiii
iij
ij
ik
il
ila
ilche
ildefonso
ilegal
ilesia
ilesias
ilex
ilhe
ili
ilina
iliria
ilirico
ilirios
ill
illa
illam
illas
illinois
illo
illos
illueca
illum
illustrated
ils
iluminacio
ilustra
ilustracio
ilustracions
ilustre
ilustres
im
ima
imachen
imachens
imachinario
image
images
imdb
imitacio
imitar
immigracio
immigrants
immunidat
immunitario
imp
impacto
impactos
imparte
impedir
imperativo
imperator
imperfecto
imperfectos
imperial
imperialismo
imperials
imperio
imperios
imperpetuum
impersonal
impersonals
impide
implantacio
implementacio
implica
importa
importancia
importans
important
importante
importants
importar
imposa
imposar
imposau
imposible
imposicio
imposo
imposoron
imprenta
impresa
imprescindible
impresio
impresionant
impresionismo
impreso
impuesto
impuestos
impulso
impulsor
imre
in
ina
inaguro
inauguracio
inaugural
inaugurata
inaugurato
inauguro
inazio
inc
inca
incapacidat
incendio
incendios
inception
incheccio
inchenieri
incheniero
incheniers
incidencia
incident
inclinacio
inclui
incluiba
incluida
incluidas
incluindo
incluir
incluita
incluito
incluitos
incluiu
incluius
inclusa
inclusas
inclusio
incluso
incluye
incluyen
incluyendo
incluyiba
incluyiban
incluyida
incluyidas
incluyindo
incluyir
incluyitos
incluyiu
incluyius
incluyo
incoativa
incoativas
incoativo
incoativos
incompatible
incompleta
incontable
incontables
incorpora
incorporacio
incorporada
incorporando
incorporar
incorporau
incorporo
incremento
incursio
incursions
indalecio
inde
indef
indefinito
indefiniu
indefinius
independencia
independent
independentismo
independentista
independentistas
independient
independiente
independientment
independients
independizar
independizo
index
indi
india
indian
indiana
indians
indias
indica
indicaba
indicacio
indicador
indicadors
indican
indicando
indicar
indicativo
indichena
indichenas
indicios
indico
indio
indios
indir
indirecta
indirecto
indirectos
individual
individualment
individuals
individuo
individuos
indo
indochina
indoeuropea
indoeuropeas
indoeuropeo
indoeuropeu
indoeuropeus
indonesia
indonesio
indre
indreitament
indu
induccio
industria
industrial
industrializacio
industrials
industrias
industry
ine
inedito
ineditos
inestabilidat
inestable
inestables
infancia
infant
infanta
infante
infanteri
infantes
infantil
infantils
infants
infanzons
infeccio
infeccions
infecciosa
inferior
inferiors
inferno
infierno
infiernos
infinitivo
infinitivos
infinito
infixo
inflacio
inflorescencia
inflorescencias
influencia
influencias
influir
influito
influiu
influxo
influye
influyencia
influyencias
influyent
influyents
influyo
influyoron
info
infobae
informa
informacio
informacions
informal
informatica
informatico
information
informativo
informazio
informe
informes
informo
infortunada
infra
infraestructura
infraestructuras
infrastructuras
infty
inglaterra
ingle
ingmar
ingredient
ingredients
ingreso
ingresos
ingrid
ingu
inicial
inicialment
inicials
iniciativa
iniciativas
inicio
inicios
iniesta
inmaculada
inmediatament
inmigracio
inmigrants
inn
innere
innovacio
innovacions
innsbruck
ino
inocencia
inocencio
inorganic
inorganicos
inscripcio
inscripcions
insectivora
insecto
insectos
insee
insercio
inside
inspector
inspiracio
inspirata
inspirato
inspirau
inspiro
instagram
instalacio
instalacions
instalar
instalau
instalo
instaloron
instancia
instancias
institucio
institucional
institucionals
institucions
institut
institute
instituto
institutos
instruccio
instruccions
instrumental
instrumento
instrumentos
insula
insular
insulars
insurreccio
int
inte
integra
integracio
integrada
integral
integrales
integran
integrant
integrants
integrar
integrata
integrato
integratos
integrau
integridat
integro
intel
intelectual
intelectuals
intelichencia
intelichent
intelichents
intelichibles
intencio
intensa
intensas
intensidat
intenso
intenta
intentan
intentar
intento
intentos
intepretacio
inter
interaccio
interaccions
interactive
intercambeo
intercambio
intercambios
intercensal
intercontinental
interdental
intere
interesant
interesants
intereses
interestelar
interferencia
interfluvio
interi
interior
interiors
interlingua
intermedia
intermediaire
intermedias
intermedio
intermeya
intermeyo
interna
internacional
internacionalment
internacionals
internas
international
internationale
internet
interno
internos
interpresa
interpresario
interpresas
interpreta
interpretable
interpretacio
interpretacions
interpretan
interpretando
interpretar
interpretata
interpretato
interpretau
interprete
interpretes
interpreto
interrogativas
interrogativos
interrupcio
interseccio
intervalo
intervencio
intervencions
intervenir
intervienen
interview
intervinio
intervinioron
intervocalica
intervocalicas
intes
into
intransitivos
intrapirenenca
intre
intresant
intresants
intreses
intriga
introduccio
introduce
introducen
introducida
introducindo
introducio
introducioron
introducir
introduciu
introduction
introdueita
introdueito
intus
inundacio
inundacions
invade
invaden
invadio
invadioron
invadir
invariable
invariables
invasio
invasiones
invasions
invasors
invencio
inventario
inventau
invento
inventor
inventos
inversa
inversio
inversions
inverso
invertebratos
invertebraus
investidura
investigacio
investigaciones
investigacions
investigador
investigadors
investigar
invierno
invisible
io
ion
iones
ions
ios
iowa
ip
iparralde
ipie
ipsa
iquino
ir
ira
irak
irani
irania
iranias
iranzo
iraq
iraqui
irati
ire
iregua
ireland
irene
iribarren
iris
irish
irlanda
irlande
irlandesa
irlandeses
irma
iron
irregular
irregularidat
irregularidatz
irregulars
irreversible
irving
irwin
is
isa
isaac
isaba
isabana
isabel
isabella
isabelle
isac
isar
isbert
isbn
isbol
ischia
isco
ise
iser
isi
isidoro
isidro
isla
islam
islamica
islamico
islamicos
islamizacio
island
islande
islandesa
islandia
islands
islas
isle
isleta
isletas
ismael
ismail
ismo
iso
isoglosa
isoglosas
isola
isotopo
isotopos
israel
israeli
iss
issn
ist
ista
istambul
istas
istat
iste
istes
istevan
istica
isticament
isticas
istico
isticos
istituto
istmo
isto
istoria
istorico
istos
istre
istria
isuala
isuela
it
ita
italia
italian
italiana
italianas
italiani
italianismo
italianismos
italiano
italians
italica
italicas
italico
italo
italy
item
itinerario
itinerarios
ito
its
itsmo
iu
iucn
iucnredlist
iudat
iudios
iulia
iupac
iure
ius
iv
iva
ivan
ives
ivo
ivory
ix
ixa
ixada
ixalenques
ixampla
ixamplamiento
ixamplar
ixamplo
ixar
ixas
ixe
ixemenatos
ixemplo
ixena
ixes
ixo
ixos
ixota
ixucar
ixufre
ixuta
ixutas
ixuto
iz
izar
izas
izquierda
izquierdo
j
ja
jaca
jacinto
jack
jackie
jackson
jacky
jacob
jacobi
jacqueline
jacques
jade
jadraque
jae
jagger
jaime
jairo
jakarta
jake
jakob
jalisco
jalo
jama
jamaica
jamais
james
jamie
jamiroquai
jan
jane
janeiro
janet
janis
january
japan
japonica
jar
jara
jarama
jardi
jardim
jarque
jarre
jason
jaume
java
javalambre
javier
javierre
jay
jayme
jazz
je
jean
jeanette
jeanne
jedi
jeff
jefferson
jeffrey
jeltzalea
jena
jennifer
jenny
jens
jeremy
jero
jerry
jersey
jerusale
jerusalem
jesse
jessica
jesu
jesus
jet
jewish
jewison
ji
jill
jiloca
jim
jime
jimeno
jimmy
jin
jn
jo
joa
joachim
joan
joanne
joaqui
joaquim
joaquin
jobling
jodie
joe
joel
joey
johan
johann
johannes
john
johnny
johns
johnson
joiosa
jolie
jolly
jon
jonas
jonathan
jones
jong
joplin
jorda
jordan
jordi
jorge
jornada
jornadas
jose
josef
josefa
josefina
josep
joseph
josephine
josh
joshua
josip
jota
joule
jour
journal
journey
joven
joventut
joy
joyce
jozef
jp
jpl
jr
jsp
jt
ju
jua
juan
juana
juanito
juarros
jubilar
judas
judd
jude
juderi
judet
judge
judgment
judi
judith
judo
judy
jueces
juego
juegos
jugador
jugar
juin
jules
julia
julian
julie
julien
juliette
julio
julius
july
juncosa
june
jung
jungle
junio
junior
juniperus
junta
junto
juntos
jura
jurado
jurados
jurassic
juri
jus
jusqu
just
juste
justice
justicia
justin
justo
juventud
juventus
k
ka
kabul
kahlo
kai
kaiser
kakapo
kaltenbrunner
kan
kane
kangchenjunga
kansas
kanton
kantonamendua
kara
karabakh
karate
karen
karenina
karin
karl
karles
karloff
karlsplatz
karlsruhe
kars
karstica
karsticas
karstico
karsticos
kassel
kate
katharine
katherine
kathleen
kathy
katina
katoomba
katowice
kaufman
kaunas
kawarau
kay
kaza
kazan
kb
ke
keaton
keep
keitel
keith
kelly
kelvin
kemal
ken
kenia
kennedy
kenneth
kenny
kent
kentucky
kepler
kerr
keuper
kevin
key
kg
kha
khacaso
khacasos
khan
khanato
khitai
khitan
khmer
khorezm
ki
kick
kid
kidman
kids
kiel
kiev
kilimanjaro
kill
killer
kilogramo
kilogramos
kilometro
kilometros
kilos
kim
kind
kinder
king
kingdom
kings
kingsley
kingston
kinshasa
kinski
kirche
kirchner
kirguizes
kirguizista
kirk
kiss
kitty
kiwi
kk
klagenfurt
klaipe
klaus
klein
klimovsky
kline
klingon
kloster
km
knight
know
knowles
ko
koch
koenig
kon
kong
konrad
korac
korea
korps
kos
kosovo
koster
kotor
kr
kra
kraj
krajina
kramer
kreisfreie
kretzoiarctos
kristen
kristin
kru
kruger
kt
ku
kubrick
kuhn
kunsthistorisches
kurdista
kurdo
kurdos
kurt
kuwait
kw
kwai
kyle
kɾa
l
la
laban
labanha
labata
labaza
laberinto
labios
laboa
labor
laboral
laborals
laboratorio
laboratorios
laboratory
laborda
labordeta
labors
labort
laborta
labrador
labradors
labrar
labrit
labuerda
lac
lacarra
lacasa
laco
lacos
lacsdespyrenees
lactia
lacuna
lacunas
lacus
ladd
laden
ladera
laderas
ladero
ladi
ladies
ladislau
lado
ladriello
ladriellos
ladro
ladrones
lady
lafita
lafuente
laga
lagarde
lagata
lago
lagoin
lagos
laguardia
lagueruela
laguna
lagunas
lai
laing
lake
lalanne
laliena
lama
lamarck
lamarr
lamas
lamata
lamba
lambert
lamberto
lami
lamina
laminas
lamins
lamo
lampa
lampedo
lan
lana
lanacha
lanacion
lanas
lanc
lancashire
lancaster
lance
lanchester
land
landa
landas
landau
landeshauptstadt
landkreis
landkreise
landkroas
landshut
lane
lang
langa
lange
langobardorum
langostos
language
languages
langue
langues
laniakea
lanius
lanka
lannes
lannoy
lansbury
lanuza
lanza
lanzada
lanzamiento
lanzar
lanzarote
lanzau
lanzo
lanzuela
lao
laos
lapesa
lapetra
lapurdi
lar
lara
larbost
lardana
lardie
lardo
larga
largaria
largas
largo
largos
largura
lari
larinche
larousse
larra
larraz
larre
larrede
larri
larry
lars
larumbre
laruntz
larvas
las
lasaosa
lasarte
lascorz
laser
lasieso
last
lastanosa
lastra
lastras
lat
lata
latas
late
lateral
lateralment
laterals
latham
lati
latin
latina
latinas
latini
latinismos
latinizato
latinizau
latino
latinoamerica
latinos
latins
latitut
latitutz
lato
latorre
latra
latre
lau
laudatio
laughton
laura
lauragais
laurague
laurel
lauren
laurence
laurent
laurentii
lauria
laurie
lausana
lausberg
lava
lavaderas
lavador
laval
lavanguardia
lavanha
lavar
lavoisier
law
lawrence
lax
layana
laye
lazaga
lazaro
lazena
lazio
lazos
lbum
lbums
lc
ld
le
lea
league
leal
lean
leave
leb
leba
leben
leblanc
leccio
lecera
lech
leche
lechendaria
lechendario
lechio
lechions
lechislacio
lechislativa
lechislativas
lechislativo
lechislatura
lechitima
lechitimidat
lechitimo
lecina
lecinyena
lecsico
lector
lectors
lectura
ledesma
ledger
ledo
lee
leeds
leeuwenhoek
left
leg
lega
legado
legal
legalment
legals
legato
legavin
legend
legendario
legendarios
legends
lego
legolas
legua
leguas
legumbres
leguminosas
lei
leia
leibniz
leida
leiden
leiga
leigh
leipzig
leire
leis
leit
leito
leitora
leiva
leixos
lema
lemmon
lemos
lemosi
lena
lenastras
lengua
lenguache
lenguadoc
lenguadocia
lenguas
lenguasdearagon
lenin
leningrado
lenny
lenperador
lens
lenta
lentament
lento
lenya
lenyosas
leo
leon
leonard
leonardo
leone
leonor
leopardo
leopold
leopoldo
lepanto
lepiota
lera
leri
lerma
leroy
les
lescar
lesico
lesio
lesions
leslie
lester
let
leto
letonia
letons
letra
letras
letter
lettere
letters
lettre
lettres
leur
leuven
leva
levaba
levaban
levada
levadas
levadura
levan
levando
levant
levante
levanti
levantina
levar
levara
levato
levau
levi
levinson
levo
levoron
lew
lewis
lex
lexica
lexicas
lexico
lexicografi
lexicografo
lexicolo
lexicon
lexicos
lexikon
lexington
lexo
ley
leyaltat
leye
leyemos
leyenda
leyendas
leyer
leyo
leyone
leyonesa
leyoneses
leyonesismos
lez
leza
lezau
lezina
lezinera
lfp
lgbt
lh
lha
lhausen
lhotse
li
lia
liaison
liam
liban
libe
libels
liber
libera
liberacio
liberal
liberalismo
liberals
liberan
liberando
liberar
liberato
liberau
liberia
libero
libertad
libertador
libertarias
libertat
libertatz
liberty
libia
libra
librar
library
libras
libre
librement
libreri
libres
libro
libros
lic
lica
licencia
licencias
licenciato
licenciatura
licenciau
licencio
liceu
lichera
licherament
lichero
lico
licor
lider
liderato
liders
lidia
lidje
lido
lie
liebe
liebre
liechtenstein
liena
lienda
lienzo
lierp
lies
lieu
lieva
lievan
lifara
life
liga
ligada
ligadas
ligallo
ligallos
ligan
ligar
ligas
ligata
ligato
ligau
ligaus
ligazo
light
lightning
lignito
ligu
ligue
ligur
liguria
ligurs
like
lila
lilfordi
lille
lillian
lim
lima
limbo
limburgo
limes
limfatico
limfaticos
limita
limitacio
limitacions
limitada
limitato
limitau
limite
limited
limites
limo
limoches
limpia
limpiar
limpieza
limpio
lin
lina
linache
linaches
linaje
linajes
linares
linars
lincoln
lincolnshire
linda
lindsay
line
linea
lineal
lingu
lingua
linguistica
linguistico
linguistique
linia
linial
linias
linnaeus
linne
linneu
lino
linux
lio
lion
lionel
lions
lipidos
liquida
liquido
liquidos
liria
lis
lisa
lisboa
lisbona
lisis
liso
lisos
list
lista
listas
lit
litago
lite
litera
literal
literalment
literaria
literarias
literario
literarios
literatura
literature
lithgow
litichio
lito
litoral
litorals
litovsk
litro
litros
litte
little
litua
lituana
lituania
lituano
lituans
liturchia
liturchica
litvak
liu
liucherament
liuchero
liv
live
livel
livels
liverpool
lives
living
livio
livonia
livorno
livre
lix
liz
liza
lizano
lizzy
ljouwert
ljubljana
ll
lla
llaguarres
llama
llamado
llamazares
llana
llanera
llanes
llano
llanos
llar
llas
llascuarre
llauset
llaviana
llc
lle
llega
llegada
llego
lleida
llena
llengu
llengua
ller
llerena
lles
lletres
lleva
lli
llibre
llierca
llinars
llingu
llingua
llitera
lliterola
llo
llobet
llobregat
lloc
llop
llorenc
llorente
lloris
llos
llosa
lloyd
lls
llu
lluc
llugar
llugars
llui
llull
ln
lnb
lo
lobarre
lobera
lobo
lobos
lobulos
loc
loca
local
localidad
localidat
localidatz
localiza
localizacio
localizada
localizar
localizata
localizato
localizau
localizaus
localment
locals
locativo
lochica
lochicament
lochico
lochicos
lochistica
locis
lockheed
loco
locorum
locucio
locucions
locum
lodenvie
lodi
lodie
lodois
loess
logan
logar
logares
logic
logo
logos
logotipo
logra
lograr
logro
logron
logronyo
loguero
loi
loir
loira
loire
loiret
lois
loiseau
loisiana
lola
lolo
loma
lomanha
lomas
lomaza
lombard
lombardes
lombardi
lombardo
lon
loncha
lonchitut
lond
london
londres
lone
lonely
long
longares
longaria
longarias
longars
longleftarrow
longobardo
longobardos
longuiello
lons
look
lop
lope
lopez
lopi
lopinye
loporzano
lora
lorca
lord
lorda
lore
loren
lorena
lorene
lorent
lorente
lorenzo
loreto
loretta
lorient
loriente
loron
lorraine
los
losa
losas
loscos
loseta
losetas
lost
lot
lothar
lou
louis
louise
louisville
lourdes
louvre
love
lovely
lovers
low
lowell
loyola
lozano
lp
ls
lt
ltd
ltima
ltimo
lu
lubitsch
lublin
luc
luca
lucas
luce
lucena
luceni
lucerna
luces
lucha
luchino
luci
lucia
luciano
lucien
lucientes
lucio
lucius
lucky
luco
lucro
lucy
ludendorff
ludie
ludivine
ludovico
ludwig
lueca
luego
luen
luenga
luengache
luengaches
luengas
luengo
luengos
luent
luesia
lueza
luftwaffe
lug
lugano
lugansk
lugar
lugares
lugaro
lugarons
lugars
lugartenient
lugdunum
lugo
lui
luigi
luis
luisa
luishon
luita
luitaba
luitaban
luitan
luitando
luitar
luitas
luito
luitoron
luixo
luka
lukas
luke
lula
lulos
lum
lumbier
lumero
lumeros
lumet
luminosa
luminosidat
luminoso
lumo
luna
lunar
lunas
lund
lune
lunes
lunetas
lupercio
lupino
lupo
lupos
lupus
lur
lures
lurs
lurte
lus
lusacia
lusismos
luterans
lutero
luther
lutitas
lutra
luxemburgo
luxemburgue
luxo
luz
luza
luzi
lvarez
lvaro
lveda
lvez
lviv
lwo
ly
lyga
lykke
lynch
lynn
lynx
lys
m
ma
maarten
mac
macabeu
macau
macdonald
macedonia
macedonians
mach
machado
machia
machica
machico
machine
machisterio
macho
machos
maci
macintosh
macizo
macizos
mackenzie
maclaine
macmillan
macquarie
macrotoponimo
mad
madagascar
madalena
madame
made
madeira
madeleine
madera
madirane
madison
madness
madonna
madoz
madre
madrid
madrilenya
madrilenyo
madrit
madriz
madura
maduracio
maduro
mae
maella
maestrat
maestrazgo
maestre
maestro
mafia
mag
magallo
maganza
magazine
magdalena
maggie
magic
magma
magna
magnani
magnanimo
magnesio
magnetic
magnetica
magnetico
magnificent
magnifico
magnitut
magno
magnus
mago
magos
magreb
maguer
maguire
maha
maheo
mahoma
mahomet
mai
maia
maicas
maiden
mail
main
mainar
mainates
maine
maior
mairal
mais
maisie
maison
maiti
maitinada
maitins
maja
major
make
makes
making
mal
mala
malaca
maladeta
malaga
malaisia
malament
malanquiella
malaria
malas
malauti
malauto
malautos
malawi
malayo
malcolm
malden
maldito
maldivas
maldonado
male
malena
mali
malibu
malik
mall
malla
mallaca
mallada
mallarruego
mallas
mallata
malle
mallo
mallorca
mallos
malmo
malo
malone
malos
maloti
malou
malpa
malpartida
malpica
mals
malta
malte
maluenda
malus
malvinas
mama
mamblas
mame
mamelucos
mamet
mami
mamifero
mamiferos
mamifers
mammal
mammalia
mammals
mammuthus
mamoulian
mamposteri
man
mana
management
manantial
manantials
manau
manca
mancan
mancha
manchego
manchester
manchoya
manchu
manchuela
manchuria
mancomunidad
mancomunidat
manda
mandaba
mandadas
mandamiento
mandando
mandar
mandari
mandata
mandatas
mandato
mandatos
mandaus
mandela
mandevilla
mandibula
mando
mane
manera
maneras
manfred
manfredi
manfredo
manga
mangane
mangano
mangas
mange
mango
manhattan
maniera
manifestacio
manifestacions
manifestar
manifesto
manifiesta
manifiestan
manifiesto
manila
manimenos
maniobras
mankiewicz
mann
mannheim
mano
manolo
manos
manresa
manrique
mans
mansio
manstein
manta
manteca
manteneba
manteneban
mantenendo
mantener
mantenimiento
mantenindo
mantenio
mantenioron
mantenito
manteniu
mantie
mantiene
mantienen
manto
mantova
manu
manual
manuals
manubles
manuel
manuscrito
manuscritos
many
manyana
manzana
manzanares
manzanas
manzanera
mao
maori
map
mapa
mapas
mapquest
maps
maqueta
maquillache
maquina
maquinaria
maquinas
mar
mara
marabillas
maracaibo
maradona
marasmius
marathon
marato
marbella
marbore
marbre
marburg
marc
marca
marcaba
marcada
marcadau
marcador
marcan
marcando
marcar
marcas
marcata
marcato
marcau
marcaus
marce
marcel
marcelino
marcello
marcelo
march
marcha
marchan
marchar
marche
marchena
marcho
marchoron
marcia
marcial
marcials
marco
marconi
marcos
marcuello
marcus
mardano
mare
marea
mareas
maresme
margalida
margaret
margarida
margarit
margarita
margot
margret
marguerite
marguin
marguina
marguinal
marguinals
marguins
mari
maria
mariana
marianas
marianne
mariano
marido
marie
marieta
marilyn
marin
marina
marinas
marine
mariner
marinero
mariners
marines
marinetas
marino
marinos
marins
marinyosa
mario
mariola
marion
marisa
mariscal
maritima
maritimas
maritimo
maritimos
marito
mariu
marjorie
mark
markale
market
marketing
markt
marlene
marley
marlon
marmara
marmore
marne
maronins
maroto
marquand
marque
marquesa
marquesau
marqueses
marra
marracos
married
marro
marroqui
marruecos
mars
marsac
marsh
marshall
marsiella
marsupials
marta
marte
martel
martes
martha
marti
martiello
martin
martina
martinez
martini
martinica
martino
martirio
martorell
marty
marvin
marx
marxismo
marxista
mary
maryland
marzal
marzo
mas
masa
masada
masadas
masaryk
masas
mascaray
masclo
masclos
mascota
mascotas
mascu
masculi
masculina
masculinas
masculino
masculins
masegoso
mases
masi
masiato
masiau
masimo
masiva
masivas
masivo
mask
maso
mason
mass
massa
massachusetts
massana
massanas
massey
massimo
masson
master
masters
masto
mastos
mastroianni
mata
mataci
matadero
mataire
matamala
matan
matando
matar
mataro
matarran
matarranya
matas
match
mate
matematica
matematicas
matematico
matematicos
mateo
mater
materia
material
materiales
materials
materias
materna
materno
mateu
math
mathbb
mathematical
mathematics
mathieu
mathrm
mati
matical
matices
matiera
matigal
matilda
matilde
matisse
matiz
mato
matoron
matrimonial
matrimonio
matrimonios
matrix
matriz
matt
matteo
matthau
matthew
matullos
mature
mau
maule
maura
maureen
mauren
mauri
maurice
mauricio
mauritania
maurizio
mauro
maurya
mausoleu
mauvesin
max
maxim
maxima
maximas
maximilia
maximilian
maximo
maximos
maxtor
maxwell
may
maya
mayabona
maye
mayenne
mayer
mayestra
mayestrato
mayestre
mayestro
mayestros
mayo
mayor
mayoral
mayordombre
mayordombres
mayori
mayoria
mayoritaria
mayoritariament
mayoritario
mayoritarios
mayorment
mayors
mayos
mayuscla
maz
maza
mazada
mazadas
mazalio
mazana
mazanas
mb
mbar
mbolos
mbox
mc
mccambridge
mccarey
mccarthy
mcconaughey
mccoy
mccrea
mcdaniel
mcdonald
mcdonnell
mcdormand
mcdowell
mcgraw
mcgregor
mcguire
mckellen
mclaglen
mcqueen
me
mean
meandro
meandros
meca
mecanica
mecanico
mecanicos
mecanismo
mecanismos
mecenas
mechana
mecina
mecklemburgo
meda
medalla
medallas
medallero
medea
medecina
medecinas
medelli
media
mediana
mediano
medias
medica
medical
medicas
medici
medicina
medicinal
medicinals
medicine
medico
medicos
medida
medidas
medieval
medievales
medievals
medina
medinaceli
medio
medioambientales
medioambientals
medios
medir
meditacio
mediterra
mediterrania
mediterranias
mediterranio
mediterranios
medrana
meet
meg
mehmet
mejor
mejores
mel
melanie
melbourne
melchor
mele
melero
meles
melgar
melguizo
melico
melilla
melina
melissa
melitant
melitants
melitars
meller
melo
melodi
melville
melvin
melvyn
membrana
membranas
memo
memoria
memorial
memorias
memphis
men
mena
menalau
menas
menaza
menazas
mencio
menciona
mencionada
mencionan
mencionar
mencionata
mencionato
mencionatos
mencionau
mencions
mendes
mendiara
mendikat
mendiza
mendoza
mene
menera
meneras
meneri
menero
menes
menester
menima
menister
menisterials
menisterio
menistra
menistro
menistros
menjou
mennecy
meno
menor
menorca
menors
menos
mens
mensa
mensache
mensaches
mensual
mensuals
ment
menta
mental
mentals
mente
mento
mentres
menudo
menuto
menutos
mequinensa
mequinenza
mer
mercadal
mercader
mercaderi
mercaders
mercado
mercanci
mercantil
mercar
mercato
mercatos
mercau
mercaus
merce
mercedes
mercenario
mercenarios
merco
mercurio
mercury
meredith
meridia
meridional
meridionalis
meridionals
merindad
merindades
merindat
merino
merito
merkel
merkle
merle
merlet
mero
merovinchios
merriam
merry
merseyside
mervyn
meryl
mes
mesa
mesacha
mesachas
mesache
mesaches
mesas
mescla
meses
meseta
mesia
mesma
mesmas
mesmo
mesmos
meso
mesons
mesopotamia
mesos
mesozoicos
messi
mesta
mestre
mestura
mesu
mesura
mesurar
mesuras
mesure
met
meta
metabolismo
metafoni
metal
metalica
metalicas
metalico
metalicos
metallica
metals
metalurchia
metamorficas
metamorfismo
metano
metat
metatesi
mete
meteba
meteban
meten
metendo
meteoritos
meteorizacio
meteorolo
meteorolochi
meteorolochica
meter
metieron
metio
metioron
metodo
metodolochi
metodologi
metodos
metrico
metro
metropoli
metropolita
metropolitan
metropolitana
metropolitanas
metros
metz
meurthe
mexica
mexicana
mexicano
mexico
meya
meyana
meyano
meyant
meyas
meyatos
meyaus
meyebal
meyer
meyeval
meyo
meyodi
meyos
mez
mezalocha
mezcla
mezqui
mezquita
mezquitas
mg
mhz
mi
mia
miami
miana
mias
mic
mica
micali
micas
mich
michael
miche
michel
michelangelo
michele
michelle
michigan
mick
mickey
mico
micologo
micro
micronesia
microondas
microorganismos
microprocesadors
microsoft
microtoponimia
microtoponimo
microtoponimos
mics
mid
mida
midas
middle
mide
miden
midi
midlands
midnight
mie
miedes
miedo
miel
miembro
miembros
mientras
mientre
mientres
mieres
mierla
mies
miesbach
mig
mighty
migracio
migracions
migran
migratoria
migratorias
migratorio
miguel
mihai
mijares
mike
mikel
mikhail
miki
mil
mila
milagros
milan
milano
milars
mildred
mile
milenio
milenios
milenta
miles
milestone
milford
milicia
milicias
milimetros
milions
militants
militar
militares
militarment
militars
military
milk
mill
milla
milland
millares
millars
millas
millennium
miller
million
millionaire
millo
millones
millons
millor
millora
millorar
milloras
millors
mills
milorcha
milos
mils
milton
milvus
milwaukee
mimran
min
mina
minas
mincha
minchada
minchador
minchan
minchando
minchar
mincho
mind
mine
mineral
minerales
minerals
mineras
minero
miners
minerva
ming
minghella
minglana
minh
mini
minima
minimas
minimo
minimos
miniserie
miniseries
ministeriales
ministerio
ministra
ministro
ministros
ministry
minneapolis
minnelli
minnesota
minor
minori
minoritaria
minoritarias
minoritarios
minsk
minuscla
minusclas
minutos
mio
miocardio
mioceno
miollo
mique
miquel
miqueta
mir
mira
miraba
miraban
miracle
mirador
miradors
mirage
miraglo
miral
miralbueno
mirambel
miramont
miran
miranda
mirande
mirando
mirar
miravet
mircea
miriam
miro
miroron
mirror
mis
misa
miscela
mise
misericordia
misils
misio
misionero
misioners
misions
misma
mismo
miss
missing
mission
mississippi
missouri
misterio
mistral
mit
mitad
mitat
mitchell
mitchum
mite
mites
mitica
mitico
mitier
mito
mitolo
mitolochi
mitolochica
mitolochico
mitolochicos
mitologi
mitos
mits
mixa
mixta
mixtas
mixto
mm
mn
mo
mobil
mobile
mobiliario
mobils
moc
mocet
moceta
mochales
mocio
mod
moda
modalidat
modalidatz
modals
mode
model
modelado
modelato
modelau
modelo
modelos
modena
modern
moderna
modernament
modernas
modernismo
modernista
modernizacio
moderno
modernos
modesto
modificacio
modificaciones
modificacions
modificada
modificadas
modificar
modificata
modificato
modificau
modifico
modismos
modo
modorra
modos
modulo
mogol
mohacs
mohamad
moi
moins
moise
mojo
mojones
mol
mola
molar
moldavia
moldavo
moldavos
mole
molecula
molecular
moleculars
moleculas
moli
molibde
molie
molimental
molimento
molimentos
molina
moliner
molinia
molino
molinos
molins
moll
mollet
mollo
molotov
molsa
molt
molto
moluscos
moment
momento
momentos
momoiro
mon
mona
monachus
monaco
monarca
monarcas
monarqui
monasterio
monasterium
monastica
monastir
moncada
moncayo
moncha
monchas
monche
monches
monchoya
monclu
mondadori
monde
mondo
mondot
moneda
monedas
monegriello
monegrino
monegros
monenh
monesma
monesterio
monesterios
monetaria
monetario
moneva
money
monflorite
monforte
monge
mongol
mongola
mongolia
mongols
monica
monicelli
monistrol
monkey
monne
mono
monografi
monopolio
monotei
monoxido
monreal
monroe
mons
monserrat
monsieur
monspessulanum
monster
monstruo
mont
monta
montache
montador
montagne
montagut
montalba
montalban
montalvo
montan
montana
montand
montaner
montanere
montanui
montanya
montanyana
montanyas
montanyers
montanyesa
montanyeses
montanyismo
montanyosa
montanyosas
montanyoso
montastruc
montaut
montblanc
montbrun
montcada
montcarles
montclar
montclu
monte
monteagudo
montejo
montenegri
montenegrins
montenegro
monterd
montero
montes
montesa
montesino
montesquiu
montevideo
montfort
montgai
montgomery
monthly
montho
monti
montiel
montilla
montis
montlat
montluc
monto
montoro
montpalau
montpeller
montrejau
montreux
monts
montsant
montsec
montserrat
montsia
monty
monumental
monumento
monumentos
monyaco
monzalbarba
monzo
moody
moon
moore
mor
mora
morabeti
morada
moral
moraleja
moralejo
morales
morals
moran
moras
morata
moravia
morbius
morcat
mordor
more
morea
moreau
morego
morella
morena
moreno
morera
moreri
moreruela
moret
morfema
morfoestructural
morfolochi
morfolochica
morfolochicas
morfolochicos
morfologi
morfosinta
morfosintaxis
morgan
mori
moriella
moriello
morillo
morindo
morio
morioron
morir
morisca
morisco
moriscos
morisma
moritz
morlans
morley
morning
moro
moros
morphology
morrano
morrena
morrenas
morricone
morris
morrison
morro
morse
mort
mortal
mortalera
mortaleras
mortalidat
mortals
morte
mortero
morton
mos
mosa
mosaico
mosaicos
moscardo
moscas
moschata
moscu
mose
mosela
mosen
mosica
mosical
mosquera
mosqueruela
most
mostar
mosto
mostolay
mostrar
mostro
mota
mother
motion
motius
motivacio
motivo
motivos
moto
motociclismo
motogp
motor
motorland
motors
motos
motril
mots
mott
moulin
mount
mountain
mountains
mouskouri
moustaki
mouton
movement
movendo
mover
movie
movies
movilidat
movimento
movimiento
movimientos
moya
moyuela
moza
mozambique
mozarabe
mozarabes
mozarabismo
mozarabismos
mozart
mozos
mozota
mp
mpico
mpiu
mr
mrs
ms
msnm
mt
mtv
mu
mucha
muchas
muchnik
mucho
muchos
mucosa
muda
mude
muderna
mudernas
muderno
mudernos
mudo
mueble
muebles
muel
muela
muelas
mueller
muelles
muera
muere
mueren
muert
muerta
muertas
muerte
muertes
muerto
muertos
mueso
muestra
muestran
muestras
mueve
mueven
muga
mugaba
mugan
mugando
mugant
mugants
mugas
muhammad
mui
muit
muita
muitas
muito
muitos
muixo
muixons
mujer
mujeres
mula
muladi
mulas
muller
mulleres
mullers
mulligan
mullon
mulo
multi
multimedia
multiple
multiples
multiplicacio
multiplicar
multiplo
multiplos
multitut
multiusos
mun
mundart
mundial
mundialment
mundials
mundir
mundo
mundodeportivo
mundos
munebrega
muni
municat
munich
municipal
municipales
municipalidat
municipals
municipio
municipios
muniesa
munt
muntenia
muqtadir
mur
muralla
murallas
murals
murat
murcia
murciacalo
murciana
murder
murel
murero
mures
murie
muriel
muriello
murillo
murio
murioron
murnau
muro
muros
murphy
murray
murviedro
mus
musa
musclo
musclos
muscolino
muscular
musculars
muse
museo
museos
museu
museum
museus
music
musica
musical
musicals
musico
musicos
musset
mussolini
must
musta
mustafa
mustela
musulma
musulmana
musulmanas
musulmans
muta
mutacio
mutacions
mutiny
muto
mutos
mutua
mutuament
muy
muyir
muyt
muytas
muyto
muytos
muzaffar
mvp
mx
my
myanmar
myspace
mystery
myth
n
na
nabarro
nac
nace
nach
nachera
nacho
nacidos
nacimiento
nacio
nacional
nacionalidat
nacionalidatz
nacionalismo
nacionalista
nacionalistas
nacionalizata
nacionalizato
nacionals
naciones
nacions
nada
nadal
nadar
nagasaki
nagore
nagy
nai
nairobi
naismith
naix
naixe
naixedero
naixen
naixencia
naixendo
naixer
naixida
naiximiento
naixio
naixioron
naixita
naixito
naixitos
naixiu
naixius
naked
nalo
name
named
names
namespace
namibia
nana
nanas
nancy
nano
nanos
nanterre
nantes
naomi
naoned
napa
napas
naples
napoleo
napoli
napolio
napolionicas
napolita
napule
narancha
naranchas
narbona
narcea
narra
narracio
narracions
narrador
narrativa
narva
nas
nasa
nasal
nasals
nasarre
nash
nashville
naso
nassau
nat
nata
natacio
natal
natalia
natalie
natasha
nathan
nation
national
nationale
nationalsozialistische
nations
nativa
nativas
natividad
natividat
nativo
nativos
natura
naturae
natural
naturales
naturaleza
naturalista
naturalment
naturals
nature
nau
nauru
naus
nauticas
nava
navajo
naval
navallo
navals
navardu
navarra
navarras
navarre
navarrencs
navarret
navarrete
navarro
navarroaragonesa
navarros
navas
navata
navatas
nave
navegable
navegacio
navegant
navegar
navia
navy
naxe
naxita
naya
nazareno
nazaret
nazi
nazional
nazionale
nazis
nazismo
nba
nbl
nbr
nc
ncer
nchel
nchels
nchen
ncher
nchez
ncia
ncipe
ncter
nd
ndard
nde
nder
ndez
ndice
ndisch
ndiz
ndo
ndole
ndor
ndose
ndr
ne
nea
neal
near
neas
nebar
nebata
nebosqueyar
nebot
nebraska
nebulosa
nec
necesaria
necesariament
necesarias
necesario
necesarios
necesidat
necesidatz
necesita
necropoli
ned
need
neerlande
neerlandesa
neerlandesas
neerlandeses
neerlandismos
neeson
neez
negacio
negar
negativa
negativas
negativo
negativos
nego
negociacions
negociar
negocio
negocios
negra
negras
negre
negret
negreta
negri
negro
negros
negue
negulesco
neil
neill
nel
nels
nelson
nem
nen
nenguno
neo
neoclasicismo
neoclasico
neogotico
neolatinas
neolitico
neolochismos
neopatria
neophron
neozelande
neozelandeses
nepal
neptuno
ner
nerbioi
neri
nero
nes
nesis
nest
neste
nestor
net
netflix
network
neu
neue
neuilly
neumann
neuronas
neus
neustadt
neustria
neutral
neutralidat
neutro
neutrons
neutros
nevada
nevazos
never
nevera
nevero
new
newark
newcastle
newell
newman
newport
news
newton
next
nez
nf
nfl
ng
nga
ngel
ngeles
nger
nguez
nh
nha
ni
nia
nian
nic
nica
nicaragua
nicas
niccolo
nicea
niceforo
nich
nicheria
nicholas
nichols
nicholson
nicht
nick
nico
nicoforo
nicola
nicolas
nicolau
nicole
nicos
nie
nieda
niedo
niedos
niega
niegan
niels
nielsen
niemeyer
niervos
niervoso
nieta
nieto
nieu
nieus
nieva
nieve
nieves
nig
nigel
nigeria
night
nightwish
nigo
nigra
nigsberg
nikola
nikolai
nilo
nils
nim
nimes
nimo
nimos
nimoy
nin
nina
ninas
nine
nineza
ningu
ninguna
ninguno
nino
ninons
ninos
nintendo
ninvi
ninviar
ninviato
ninviau
ninviaus
ninvio
ninvioron
nio
niro
nis
nit
nitrocheno
niveau
nivel
nivels
niven
nix
nixon
niz
niza
nj
nkisch
nl
nm
nn
no
noah
nobel
nobiembre
nobiliario
noble
nobles
nobleza
noche
nocio
nocito
nocturna
nocturnas
nocturno
nodo
nodulos
noe
noel
nogai
nogais
nogara
noguera
nogueras
nogueruelas
noi
noir
noiret
nola
nolan
nolwenn
nom
noma
nomada
nomadas
nomas
nombra
nombraba
nombrada
nombramiento
nombran
nombrando
nombrar
nombrato
nombrau
nombraus
nombre
nombres
nombrevilla
nombro
nombroron
nome
nomencla
nomenclatura
nomenclaturas
nomenclature
nomes
nominacio
nominacions
nominada
nominal
nominata
nominativo
nominato
nominau
nominaus
nomine
nomne
noms
non
nonasp
nonato
nonbre
none
nor
nora
nord
nordamerica
nordeste
nordica
nordico
nordoccidental
nordoriental
nordueste
noreste
norfolk
norma
normal
normalizacio
normalment
normals
norman
normanda
normandi
normando
normandos
normas
normativa
normativo
noroccidental
noroeste
nororiental
norre
norris
nort
norte
norteamerica
north
northern
northrop
northumberland
norton
noruega
noruego
noruegos
norueste
norwich
nos
nosotros
nossa
nostra
nostri
nostro
nostros
nostrum
not
nota
notable
notablement
notables
notacio
notar
notarial
notarials
notario
notas
note
notes
nothing
noti
noticia
noticias
notre
notte
nou
nous
nouvel
nouvelle
nov
nova
novak
novallas
novanta
novas
nove
novel
novela
novelas
novelista
november
novembre
novempopulania
noves
novgorod
novi
novia
noviellas
noviembre
novo
now
nowtilus
nr
ns
nsa
nsten
nster
nsul
nsula
nsw
nt
ntara
nter
nther
ntica
ntico
nto
ntol
nu
nuble
nubles
nuclear
nucleyar
nucleyars
nuclio
nuclios
nue
nueces
nuei
nueit
nueitz
nueno
nuestra
nuestras
nuestro
nuestros
nueu
nueva
nuevament
nuevas
nueve
nuevo
nuevos
nuez
nuit
nula
num
numancia
number
numbers
numbro
numbrosas
numbrosos
numer
numeracio
numeral
numerals
numerica
numerico
numero
numeros
numerosa
numerosas
numeroso
numerosos
nun
nunca
nuovo
nupcial
nuremberg
nuria
nus
nusaltros
nusatros
nutricio
nutrients
nveyer
nw
ny
nyfcc
nytimes
nyudo
nz
o
oa
oaci
oak
oakland
oara
oasis
oaxaca
ob
obago
obama
obarra
obchectivo
obchectivos
obchecto
obchectos
obchetivo
obediencia
obertauern
obesidat
obi
obispados
obispo
obituario
oblast
obliga
obligacio
obligacions
obligada
obligando
obligato
obligatoria
obligatorio
obligatos
obligau
obligaus
obligo
obligoron
obo
obra
obrador
obras
obrera
obreras
obrero
obrers
obridura
observa
observacio
observacions
observador
observar
observato
observatorio
observatory
observo
obsolescencia
obstaclo
obstaclos
obtencio
obtenendo
obtener
obtenio
obtenioron
obtenita
obtenito
obteniu
obtie
obtiene
obtienen
oc
oca
ocan
ocasio
ocasional
ocasionalment
ocasions
occ
occasio
occident
occidental
occidentals
occidente
occita
occitan
occitana
occitanas
occitane
occitania
occitanismo
occitanismos
occitano
occitans
ocde
ocean
oceani
oceanico
och
ocho
ocia
ocianica
ocians
ocio
oclc
oclusiva
oclusivas
oco
octavio
october
octubre
ocupa
ocupaba
ocupaban
ocupacio
ocupada
ocupadas
ocupan
ocupando
ocupants
ocupar
ocupata
ocupato
ocupatos
ocupau
ocupaus
ocupo
ocuporon
ocurre
ocurren
ocurrio
oczidental
oder
odessa
odile
odio
odisea
odiseu
odo
odra
odyssey
oeste
of
ofensiva
off
office
official
officinale
officinalis
oficial
oficiales
oficialidat
oficialment
oficials
oficina
oficinas
oficio
oficios
ofizial
ofreix
ofreixe
ofreixen
ofreixer
ofrir
og
oggi
ogiastra
ographique
oh
ohio
oi
oil
oiratos
ois
oise
ojo
ojos
oka
oklahoma
ol
ola
olaf
olalia
olalla
olaria
olas
olba
old
ole
olea
oles
olfacto
olga
oli
oliba
oliet
olifante
oligoceno
olimpia
olimpiada
olimpica
olimpicas
olimpico
olimpicos
olio
olit
oliva
olivar
olivares
olivas
oliveira
olivenza
oliver
olivera
oliveras
olivia
olivier
olla
ollivier
ollo
olmediella
olmedo
olmos
olocau
olor
olot
olso
olt
oltenia
olympia
olympic
om
oma
omaha
omar
ombre
ombres
omega
omer
omeya
omeyas
omezyma
omne
omnes
omnia
omnibus
omnivora
omnivoros
oms
on
ona
onca
once
oncins
onda
ondas
one
ones
oni
online
only
onoma
onomastica
onor
ons
onsella
onsera
onso
onsos
ont
ontario
ontenyent
ontinyena
onu
onze
oostende
op
opalo
opcio
opcional
opcions
opel
open
opera
operacio
operacions
operador
operadora
operadors
operar
operas
operation
operativo
operativos
operau
opina
opinio
opinions
oportunidat
oportunidatz
oposa
oposadas
oposan
oposato
oposau
oposicio
opositors
oposo
optica
optico
opus
or
ora
orache
oracio
oracions
oral
oralment
orange
oras
orba
orbita
orbital
orbitals
orbitas
orci
orcos
orden
ordena
ordenacio
ordenadas
ordenamiento
ordenanzas
ordenar
ordenato
ordenau
ordeno
ordens
order
ordesa
ordiceto
ordinacio
ordinacions
ordinador
ordinadors
ordinario
ordines
ordino
ordio
ordiso
ore
orea
orego
orella
orellas
orens
ores
orestes
oret
org
orga
organica
organicas
organico
organicos
organigrama
organismo
organismos
organista
organiza
organizacio
organizacions
organizada
organizadas
organizador
organizan
organizar
organizata
organizatas
organizato
organizatos
organizau
organizaus
organizo
organizoron
organo
organos
orge
ori
oria
orich
orichen
orichens
orichina
orichinal
orichinalment
orichinals
orichinan
orichinando
orichinar
orichinaria
orichinariament
orichinarias
orichinario
orichinarios
orichinato
orichinau
orichinaus
orichino
orichinoron
oricon
orient
orientacio
oriental
orientales
orientalis
orientals
orientar
orientation
orientau
oriente
origen
origenes
origin
original
origins
orihuela
orina
orinoco
orio
oriol
orion
orista
oriuela
orlando
orle
orleans
ormino
orna
ornamental
ornamentals
orne
ornitologo
oro
orochenia
orocheno
orografi
oronimo
oronimos
oropesa
orosia
orquesta
orquestina
orqui
orrios
orson
orta
orte
ortega
ortiella
ortiz
ortodoxa
ortodoxas
ortodoxia
ortodoxo
ortodoxos
ortografi
ortografia
ortografica
ortograficament
ortograficas
ortografico
oru
orwell
os
osa
osal
osasuna
osca
oscar
oscense
oscila
oscilan
ose
osera
osetas
osetia
osia
osio
oskar
oskorri
oslo
osma
oso
osona
ossa
osso
ostavals
ostenta
ostrogodo
ostrogodos
ostrya
oswald
ot
otago
otal
otan
otero
other
oti
oto
otoma
otomana
otomans
otorga
otorgo
otra
otras
otri
otris
otro
otros
ottaviano
ottawa
otto
otubre
ou
ouest
oui
ouo
our
ourense
out
ouzoum
ov
ovario
ovarios
ovella
ovellas
over
overview
oviedo
ovis
ovo
ovulo
ovulos
owen
owens
own
oxenden
oxford
oxfordshire
oxicheno
oxidacio
oxido
oxidos
oy
oyiu
oz
oza
ozcos
ozidental
ozores
p
pa
pabello
pabillo
pablo
pac
pach
pacha
pacheco
pachina
pachinas
pacient
pacients
pacific
pacifica
pacifico
pacifista
pacino
paco
pacos
pacto
pactos
padarni
padilla
padre
padres
padrino
padro
padua
pag
paga
pagaba
pagaban
pagana
paganas
paganos
pagans
pagar
pagas
page
pages
paget
pagina
pago
pagos
pags
pai
paido
pais
paisache
paisaches
paisaje
paisajes
paises
paixaro
paixaros
paixentar
pajares
pakista
pakistan
pakistane
pakistanesa
pakula
pal
pala
palabra
palabras
palace
palaci
palacin
palacio
palacios
paladio
palafox
palais
palaiseau
palanca
palance
palancia
palanga
palas
palatal
palatalizacio
palatals
palati
palatina
palatinato
palau
palautordera
palavras
palazios
palazzo
pale
palencia
paleolitico
paleologo
paleontolochico
paleontologo
paleozoico
paleozoicos
palermo
palestina
palestins
palida
palla
pallacanestro
pallare
pallaresa
pallars
pallaruelo
pallas
palm
palma
palmare
palmas
palmos
palo
paloma
palomar
palomares
palomas
palomera
palometas
palomita
palomo
palomos
palos
pals
paltrow
pamela
pamplona
pan
panama
panamenyo
panamericans
pancracio
pancrudo
panda
pandemia
pandicosa
panel
panels
panetz
paneve
pangma
pani
panillo
paniquesa
paniza
panizo
pannonia
pano
panonia
panonica
panorama
pantalla
pantalons
pantano
pantasma
pantasmas
panteo
pantera
panther
panthera
panticosa
panticuto
panzano
panzer
panzertruppen
paolo
papa
papal
papas
papato
papel
papels
paper
papers
papo
papua
par
para
parabla
parabra
parabras
parache
paracuellos
parada
paradas
parade
paradigma
paradise
paradiso
parador
paraguai
paraguay
parai
paralela
paralelament
paralelas
paralelo
paralelos
paralimpicos
paramera
parametros
paramo
paramore
paramount
parana
parando
paraninfo
parar
parasitos
paraula
parc
parcelas
parcial
parcialment
parda
pardas
pardiac
pardina
pardinas
pardo
pardos
pardus
pare
parece
paredes
pareix
pareixca
pareixe
pareixeba
pareixen
pareixer
pareixida
pareixidas
pareixita
pareixitas
pareixito
pareixitos
pareixiu
pareixius
parella
parellana
parellanas
parellano
parellans
parellas
paremiologi
paremiorom
parentesco
parentesi
parentesis
paret
paretz
pari
paricio
paridera
parient
parients
paris
parixe
park
parker
parks
parla
parlaba
parlaban
parlada
parladors
parlamentaria
parlamentarias
parlamentario
parlamentarios
parlamento
parlamentos
parlan
parlando
parlant
parlants
parlar
parlars
parlas
parlata
parlato
parlau
parle
parma
parnell
paro
parola
parolas
parque
parques
parra
parras
parrilla
parroquia
parroquial
parroquias
pars
part
partaqua
parte
partecipa
partecipacio
partecipacions
partecipan
partecipando
partecipants
partecipar
partecipato
partecipo
partei
partenkirchen
parteno
partes
parti
particio
participa
participacio
participan
participando
participants
participar
participato
participau
participio
participios
participo
participoron
particla
particlas
particular
particularidat
particularidatz
particularment
particulars
partida
partidario
partidarios
partidas
partido
partidos
partindo
partio
partir
partis
partisans
partit
partita
partitas
partitivo
partito
partitos
partiu
partius
parto
partos
party
partz
parza
parzana
pas
pasa
pasaba
pasaban
pasachers
pasada
pasado
pasan
pasando
pasaporte
pasar
pasara
pasari
pasato
pasatos
pasau
pasaus
pascal
pascua
pascual
pase
paseo
paseyo
pasio
pasiva
pasivo
paso
pasoron
pasos
pasqua
pasqual
passa
passado
passage
passar
passe
passeriformes
passion
passo
passos
past
pasta
pastel
pastels
pasteur
pastor
pastorada
pastoradas
pastoreyo
pastors
pastos
pastriz
pastura
pasturas
pat
pata
patada
patas
patent
patents
paterna
patient
patinache
patio
patochenos
patria
patriarca
patriarcal
patriarcato
patrice
patricia
patricio
patrick
patrimoni
patrimonial
patrimonials
patrimonio
patro
patrocinada
patrocinador
patrocinio
patrona
patronal
patronals
patronato
patrons
patue
pau
paul
paula
pauli
paulo
pauls
paulus
pavel
pavese
pavi
pavia
pavillo
pavillons
pavimento
pavlo
pavlova
pavo
paxinou
paye
pays
paz
pazinacos
pc
pce
pdf
pe
peace
peache
peaches
peak
pearl
pebre
pec
pecico
peciolo
peck
peckinpah
peco
peculiar
pedagochi
pedagogo
pedal
pedani
pedir
pedra
pedregal
pedregosa
pedregoso
pedrenya
pedrera
pedreras
pedriza
pedro
pedroches
pedrola
pedrosa
pedroso
peggy
pego
pegunta
peiro
peironela
peita
peito
peix
peixes
peki
pel
pela
pelache
pelai
pelaire
pelarda
pelayo
pele
pelegri
pelegrinache
pelegrinacio
pelegrins
peli
pelicula
peliculas
pelleta
pellicer
pellizos
pelo
pelophylax
pelopi
peloponiso
pelos
pels
pen
pena
penal
penals
penaltis
penar
penas
penchar
penchau
pendant
pende
pendeba
penden
pendendo
pendient
pendients
pendiu
pene
penede
penelope
penetracio
penetrar
penguin
peni
peniella
penilla
peninsula
peninsular
peninsulars
peninsulas
peniscola
penn
penna
pennsilvania
pennsylvania
penny
pensaba
pensaban
pensamiento
pensamientos
pensando
pensar
pensau
pense
pensilvania
pensio
pensions
penso
pentecosta
penya
penyaflor
penyagolosa
penyalba
penyarroya
penyas
penyo
people
pep
pepe
pepi
pepin
pepino
peppers
pequen
pequi
per
pera
peracens
perafita
peral
peralellos
perales
perals
peralta
percepcio
percha
perche
percibe
percibir
percullo
percusio
percy
perda
perdas
perdeba
perdendo
perder
perdices
perdida
perdidas
perdido
perdiguera
perdiguero
perdio
perdioron
perdito
perdiu
perdius
perdiz
perdo
perdu
perduga
perdugas
pere
pereira
pereiro
perello
perenne
perens
perera
perez
perfecta
perfectament
perfecto
perfectos
perfil
performance
perfume
perfumes
peri
perico
periferia
perifericas
perifericos
perifrasi
perifrasis
perifrastico
periglacials
periglo
periglos
periglosa
perigloso
periglosos
perihelio
perimetro
perineu
perio
periodica
periodicament
periodico
periodicos
periodismo
periodista
periodistas
periodo
periodos
perkins
perla
perlas
permaneixe
permaneixer
permaneixio
permanent
permanents
permeso
permiso
permita
permitan
permite
permiten
permitiba
permitindo
permitio
permitioron
permitir
permitiu
pernil
pero
peros
perpendicular
perpendiculars
perpetua
perpetuo
perpinya
perque
perramo
perrault
perros
perry
persa
persans
persas
persecucio
persecucions
persia
persico
persismo
persismos
persiste
persona
personache
personaches
personajes
personal
personalidat
personalidatz
personalment
personals
personas
personne
perspectiva
perspectivas
perspective
pertenece
perteneix
perteneixe
perteneixeba
perteneixeban
perteneixen
perteneixent
perteneixer
perteneixient
perteneixients
perteneixio
perteneixioron
pertenencia
pertenexient
pertenexio
perth
pertinenciis
pertinentiis
pertusa
peru
perua
peruana
peruano
perugia
pervive
perviven
pervivencia
pesa
pesan
pesar
pesaro
pesato
pesatos
pesau
pesaus
pesca
pescador
pescar
pescataire
pescataires
pescau
peso
pesos
pesquera
pessoa
pest
peste
peta
petalos
petavi
pete
peter
peters
petersburgo
petersen
peticio
petiella
petisme
petit
petite
petra
petralba
petri
petro
petrolio
pettarra
peu
peugeot
peur
peut
pex
pexes
peyor
peyorativo
pez
pezo
pfarrkirche
pfeiffer
pg
ph
phane
phantom
pharies
phasianus
phi
phil
philadelphia
philip
philipp
philippe
philips
phillip
phillips
philologie
philosopher
philosophical
philosophy
phoenix
phone
phonology
php
phu
physical
physics
pi
pia
piacenza
piadoso
pianista
piano
piatonal
piatons
piazza
pib
pic
pica
picada
picar
picardi
picardo
picas
picasso
picata
pichera
pico
picoche
picos
pictorica
picture
pictures
picueta
pidal
pide
pidgeon
pidio
pie
piec
pied
piedad
piedat
piedes
piedra
piedrafita
piedrahi
piedras
piel
piels
piemont
piemonte
piensa
piensan
pier
pierce
pierde
pierden
pieris
piero
pierre
pies
piet
pieter
pietra
pietro
pietz
pieza
piezas
pigmentacio
pignatelli
pila
pilar
pilars
pilas
pilla
pillar
pilon
pilota
piloto
pilotos
pimiento
pin
pina
pinar
pinares
pinarhueco
pinars
pine
pineda
pineta
ping
piniecho
piniello
pinilla
pink
pinna
pino
pinos
pins
pinsec
pintada
pintano
pintanos
pintar
pinto
pintor
pintora
pintors
pintura
pinturas
pinus
pinyin
pinza
pio
pionera
pionero
pioners
pior
pique
piquetas
piramidal
piramide
piramides
pirata
piratas
pirateri
pirenaico
pirenaicos
pirenenca
pirenencas
pirenenco
pirenencos
pireneu
pireneus
pirinenco
pirineo
pirineos
pirineu
pirineus
pisa
piscina
piscinas
piso
pisos
pista
pistas
pistols
pisuerga
pit
pita
pitarc
pitarch
piteus
pitt
pittsburgh
piu
pivot
piz
pizco
pizza
pl
pla
placa
placas
place
placentarios
placer
places
placha
plachas
placiencia
plaga
plagas
plains
plampalacios
plan
plana
planas
planck
plane
planes
planet
planeta
planetario
planetary
planetas
planets
planificacio
planken
plano
planos
plans
plant
planta
plantacions
plantae
plantagenet
plantar
plantas
planteya
plantilla
plantillas
plants
plasenc
plasencia
plasma
plasticas
plastico
plasticos
plata
plataforma
plataformas
platano
platera
platero
plati
platiellos
plato
platos
platt
play
playa
player
players
playstation
plaza
plazas
plazo
pleber
plebia
plega
plegaba
plegaban
plegada
plegan
plegando
plegar
plegara
plegari
plegase
plegasen
plegata
plegato
plegatos
plegau
plegaus
plego
plegoron
plegos
plegue
pleistoceno
pleito
pleitos
plen
plena
plenament
plenas
pleno
plenos
plesiomorfia
pleso
pleurodeles
pleurodelinae
pleve
plever
plevia
plevias
plevida
plevidas
plinio
plioceno
pllober
pllobia
plo
plomache
plomo
plorar
plou
pluma
plumache
plumas
plummer
plural
plurals
plus
plusquamperfecto
plutarco
pluto
plzen
pm
pmid
pneumoni
pnv
po
pobla
poblacio
poblacion
poblacional
poblacionales
poblacionals
poblacions
poblada
pobladas
pobladores
pobladors
poblamiento
poblar
poblata
poblatas
poblato
poblatos
poblau
poblaus
poble
poblet
poblla
poblo
pobo
pobra
pobre
pobres
pobreza
poca
pocas
pocetz
pocha
pocino
pocket
pocklington
poco
pocos
pocovi
podarcis
podeba
podeban
podemos
podendo
poder
poderba
poderban
poderi
poderosa
poderoso
poderosos
poders
podese
podesen
podi
podio
podioron
podium
podolia
podra
podri
poe
poema
poemas
poesi
poesia
poeta
poetas
poetesa
poetica
pogrom
pogroms
poi
point
pointe
poisson
poke
pol
pola
polaca
polacas
polaco
polacos
polanski
polar
polarizacio
polars
pole
polemica
polemico
polen
poli
police
polici
policiacas
policial
policy
polida
polidas
polideza
poliesportivo
poligonal
poligono
polinesia
polinizacio
polinya
polis
polita
politas
politecnica
politei
politica
political
politicament
politicas
politico
politicos
politics
polito
poliu
polivalent
polje
poljes
pollack
pollet
polletz
pollo
pollos
polmons
polo
polone
polonia
polop
polos
polpa
pols
polvo
polvora
pomar
pomerania
pomo
pompeya
pompeyo
pon
pondiellos
pone
ponent
pongau
pongo
ponient
pons
pont
ponte
pontevedra
pontificato
pontificia
pontificios
pontinha
ponz
ponza
ponzano
pop
popa
popular
populares
popularidat
popularizo
popularment
populars
population
populus
poquet
poqueta
poquetas
poquetz
por
pora
porcelana
porcentache
porcio
porno
poro
porque
porro
port
porta
portadors
portal
portalada
portalet
portalrubio
portar
portavoz
porte
portellada
porter
porteri
portero
porters
portiar
portico
portiel
portiello
portillo
portland
portman
porto
portrait
portugal
portugue
portuguesa
portuguesas
portugueses
portus
pos
posa
posada
posadas
posan
posando
posar
posato
posau
posavina
poseeye
posesio
posesiones
posesions
posesivo
posesivos
posets
poseye
poseyeba
poseyen
poseyer
posguerra
posibilidat
posibilidatz
posible
posiblement
posibles
posicio
posicions
positiva
positivas
positivo
positivos
poso
posoron
post
postal
postalital
posterior
posterioridat
posteriorment
posteriors
postguerra
postigo
postre
postres
postuma
postumo
postura
postverbal
pot
potable
potasio
potencia
potencial
potencialment
potencials
potencias
potent
potente
potents
potestat
potsdam
potter
pottier
pounamu
pound
pour
powell
power
powers
poyo
poza
pozal
poznan
pozo
pozoblanco
pozondo
pozos
pozuel
pozuelo
pp
ppen
pr
pra
practica
practicament
practican
practicants
practicar
practicas
practicato
practicatos
practico
prada
pradas
prades
pradesh
pradilla
prado
praga
prames
prat
prater
prato
pratos
prats
pratt
prau
praus
pravia
pre
preba
prebaba
prebaban
prebable
prebablement
preban
prebando
prebar
prebas
prebatina
prebatinas
prebo
preboron
precede
precedent
precedido
precedito
precio
preciosas
precipitacio
precipitacions
precisa
precisament
precisan
precisar
precisio
preciso
precursor
precursors
predecesor
predomina
predominan
predominancia
predominando
predominant
predominantment
predominants
predominio
prefecto
prefectura
prefecturas
preferencia
preferent
preferentment
prefiere
prefieren
prefixo
prefixos
pregunta
preguntar
preguntas
pregunto
prehistoria
prehistoriador
prehistorico
prehistoricos
preishac
preliminar
premi
premia
premiar
premiata
premiato
premiatos
premier
preminger
premio
premios
premite
premiten
premitio
premitir
premium
pren
prencipal
prencipalment
prencipals
prencipau
prencipe
prencipes
prencipia
prencipiaba
prencipian
prencipiando
prencipiar
prencipiato
prencipiau
prencipio
prencipioron
prencipios
prenda
prendas
prender
prene
preneba
preneban
prenen
prenendo
prener
prenesen
prenio
prenioron
prensa
prensas
prenuncia
prenunciacio
prenuncian
prenunciar
prenunciato
prenunciau
prenunziazio
preocupacio
prep
prepalatal
prepara
preparacio
preparador
preparar
prepirenenca
prepirenencas
prepirenenco
prepireneu
preposicio
preposicional
preposicions
prerroma
prerromana
prerromanas
prerromanico
prerromano
prerromans
pres
presa
presas
presbiterio
presco
presencia
present
presenta
presentaba
presentaban
presentacio
presentada
presentador
presentadora
presentan
presentando
presentar
presentata
presentau
presente
presentes
presento
presentoron
presents
preservar
preside
presidencia
presidencial
presidencials
president
presidenta
presidente
presidents
presididas
presidio
presiego
presienta
presientan
presio
presions
presley
preso
presona
presonache
presonaches
presonal
presonalidat
presonalidatz
presonals
presonas
presos
press
presses
presta
prestacions
prestichio
prestichioso
preston
presunto
presupuesto
presupuestos
preta
pretar
pretende
pretendeba
pretendeban
pretendient
pretendients
pretensio
pretensions
preterito
preto
preu
prevencio
prevenir
preveye
previa
previament
previas
previo
prevista
previsto
prevoca
prevocar
prevoco
pri
priberam
price
pride
priego
prieto
prim
prima
primaria
primarias
primario
primarios
primas
primates
primavera
prime
primer
primera
primerament
primeras
primerenca
primerenco
primeri
primerias
primero
primeros
primers
primicias
primigenius
primitiva
primitivas
primitivo
primitivos
primo
primochenito
primordial
primos
prince
princeps
princesa
princess
princeton
principado
principal
principales
principalment
principals
principato
principatos
principaus
principe
principes
principia
principio
principios
prior
priorat
priorato
prisio
prisionero
prisioners
priso
prison
prisoner
priva
privada
privadas
privando
privar
privata
privatas
private
privato
privau
privaus
privilechio
privilechios
prix
prize
pro
probabilidat
probable
probablement
probables
problema
problemas
problematica
proc
proce
procede
proceden
procedencia
procedent
procedents
proceder
procedimiento
procedimientos
proceedings
procesador
procesadors
procesamiento
procesio
procesions
proceso
procesos
procheccio
prochecto
prochectos
prochenitor
proclama
proclamacio
proclamando
proclamar
proclamato
proclamau
proclamo
proclamoron
procurador
produccio
produccions
produce
producen
produciba
produciban
producida
producidas
producindo
producio
producioron
producir
producita
producito
produciu
production
productions
productiva
productivas
productividat
productivo
producto
productor
productora
productoras
productors
productos
produeita
produeito
produeitos
produz
produzca
profanos
profesio
profesional
profesionalment
profesionals
profesions
profesor
profesora
profesors
professional
profeta
profile
profunda
profundas
profundidat
profundo
profundos
program
programa
programacio
programada
programas
progresista
progresiva
progresivament
progresivo
progreso
progress
progressive
prohibicio
prohibio
prohibiu
project
prolarga
prolifico
prologo
prolongacio
promana
promesa
prometio
promeyo
prominencia
prominent
prominents
promocio
promocionar
promover
pron
pronombre
pronombres
pronominal
pronominals
pronomino
pronti
pronto
pronuncia
pronunciaba
pronunciacio
pronunciada
pronuncian
pronunciar
pronunciato
pronunciau
propagacio
propaganda
propia
propiament
propias
propiedat
propiedatz
propietaria
propietario
propietarios
propio
propios
proporcio
proporciona
proporcional
proporcionan
proporcionar
proporcions
proposa
proposada
proposar
proposata
proposato
proposau
proposicio
proposicions
proposito
propositos
proposo
propuesta
propuestas
propulsio
prosa
prosecution
prosperidat
prospero
prostata
protagonismo
protagonista
protagonistas
protagonizada
protagonizata
protagonizo
proteccio
proteche
protechen
protecher
protechida
protechidas
protechita
protechitas
protechito
protechitos
protechiu
protechius
protector
protectora
protectorato
protei
protesi
protesta
protestant
protestantismo
protestants
protestas
proto
protochermanico
protocolo
protocolos
protons
prototipo
prou
prouincia
prous
prout
prova
provenc
provence
proveniba
proveniban
provenient
provenients
provenir
provenza
provenzal
provi
providence
provie
provien
proviene
provienen
provincia
provincial
provincials
provincias
provinient
provinients
provisional
provoca
provocando
provocar
provocau
provoco
provocoron
proxima
proximidat
proximo
proyecto
prudencia
prudencio
prueba
pruebas
pruna
prunus
prusia
prusiana
prusians
ps
psa
pseudonimo
psg
psicolochi
psicolochica
psicolochico
psicologo
psiquiatra
psoe
psycho
psychological
psychology
pt
pticos
ptolomeu
pu
public
publica
publicacio
publicaciones
publicacions
publicada
publicament
publican
publicar
publicas
publicata
publicatas
publications
publicato
publicatos
publicau
publicaus
publicazions
publicidat
publico
publicoron
publicos
publique
publishers
publishing
pubs
pudia
pudo
pue
puebla
pueblo
pueblonuevo
pueblos
pueda
puedan
puede
pueden
puedo
puens
puent
puente
puents
puerco
puerta
puertas
puerto
puertolas
puertomingalbo
puertomingalvo
puertos
pues
puesta
puesto
puestos
puet
puetz
pueyo
pueyos
pugas
pui
puig
puis
pujo
pula
pulgadas
pulgar
pulitzer
pulla
puma
punchab
punchar
punchas
punda
punica
punk
punta
puntal
puntas
punto
puntos
puntuacio
puntualment
puntuals
pur
pura
purament
puras
purchena
pure
pureza
purificacio
purisma
purna
puro
purple
purpurea
purroi
purroy
purullosa
pus
puso
putin
putsch
puy
puya
puyaba
puyaban
puyada
puyadas
puyalo
puyan
puyando
puyar
puyarruego
puyata
puyato
puyo
puyol
puzo
pyre
pyrenaica
pyrus
python
q
qa
qasi
qatar
qin
qing
qu
qua
quaderns
quadra
quadrada
quadras
quadrata
quadrato
quadratos
quadrau
quadraus
quadrilla
quadro
quadros
quagga
quaid
qual
quala
qualas
qualcosa
quales
qualidat
qualidatz
qualo
qualos
qualque
qualquecosa
qualques
quals
qualsequier
qualsiquier
qualsiquiera
quam
quan
quand
quando
quantas
quantica
quantico
quantidat
quanto
quantos
quaranta
quarcita
quart
quarta
quartel
quartels
quarto
quartos
quarz
quasi
quaternario
quaternarios
quaternato
quatre
quatrena
quatreno
quatro
quay
que
quebec
quechua
queda
quedaba
quedaban
quedan
quedando
quedar
quedara
quedase
quedato
quedau
quede
quedo
quedoron
queen
queens
queensland
queenstown
quefer
quefers
queiles
queixas
quel
quelques
quentin
quer
quercus
quereba
quereban
queremos
querer
queri
queriendo
querio
querol
ques
quesada
queso
quesos
quest
quevedo
quez
qui
quibus
quicena
quid
quie
quien
quier
quiera
quiere
quieren
quiero
quiesto
quijote
quimica
quimicas
quimico
quimicos
quin
quince
quincy
quinn
quino
quinta
quintana
quintanilla
quinto
quinton
quinyo
quir
quiro
quirze
quiso
quita
quitan
quitar
quitato
quitau
quiteria
quito
quitoron
quo
quod
quomo
quomodo
r
ra
rabada
rabal
rabanyo
rabanyos
rabe
rabes
rabi
rabosa
rabosas
race
races
rachel
racial
racing
racional
racismo
raco
rad
rada
radar
radcliffe
radedor
radedors
radi
radiacio
radial
radical
radicals
radices
radio
radioactivo
radios
radiquero
radiz
rae
raf
rafael
rafaela
rafe
rafel
ragudo
ragusa
rahman
rai
railway
raimundo
rain
rainbow
rainer
raj
rajoy
ral
ralla
rallas
rally
ralph
ram
rama
ramas
rambla
ramblas
rami
ramiro
ramis
ramo
ramon
ramone
ramones
ramos
ran
rana
ranas
ranca
rancho
randall
randolph
random
randy
ranes
range
ranger
rango
ranidae
ranking
rans
ranyi
raoul
raoult
rap
rapeda
rapedament
rapedo
rapedos
rapero
rapida
rapidament
rapideza
rapido
rapidos
rapids
rapinyadera
rapinyaderas
raptor
raquel
rara
rarament
raras
rard
raro
raros
ras
rasa
rasal
rasgo
rasgos
raso
rat
rata
ratas
rate
rathaus
rathbone
ration
rationes
ratisbona
rato
ratos
rattus
rau
ravena
ravenna
rax
ray
raya
rayas
raymond
rayo
rayos
raza
razas
razi
razo
razon
razonamiento
razones
razons
rb
rbara
rbez
rbol
rboles
rbols
rc
rcal
rcd
rcel
rcer
rcia
rcito
rcols
rd
rda
rdas
rdens
rdoba
re
rea
reaccio
reacciona
reaccionan
reaccionar
reaccions
reactivo
reading
ready
reagan
real
reales
realidat
realismo
realiza
realizacio
realizada
realizadas
realizan
realizar
realizata
realizato
realizau
realizo
realizoron
realment
reals
rebecca
rebel
rebelde
rebeldes
rebelio
rebeloron
rebels
reblar
rebollar
rebolledo
rebollo
rec
recaredo
recaudacio
recebindo
recenta
recepcio
receptor
receptors
receta
recetas
rechencia
rechent
rechimen
rechimiento
rechio
rechion
rechional
rechionals
rechions
rechira
rechirar
rechiras
rechistra
rechistrada
rechistran
rechistrar
rechistrau
rechistro
rechistros
rechola
recholas
recibe
reciben
recibiba
recibiban
recibindo
recibio
recibioron
recibir
recibito
recibitos
recibiu
recibius
recient
recientment
recients
recinto
recio
recipient
recipients
reclama
reclamar
reclamo
recoleccio
recollita
recolo
recolons
recomendo
recomienda
recompensa
reconoix
reconoixe
reconoixeba
reconoixen
reconoixencia
reconoixer
reconoixible
reconoixibles
reconoixida
reconoixidas
reconoiximiento
reconoixio
reconoixioron
reconoixita
reconoixitas
reconoixito
reconoixitos
reconoixiu
reconoixius
reconquerir
reconquiesta
reconquiesto
reconquista
reconstruccio
reconstruir
reconstruita
reconstruito
reconstruyita
recopa
recopilacio
record
recordar
records
recorre
recorren
recorrer
recorrido
recorrio
recorrito
recorriu
recta
rectangular
rectangulars
rectas
recto
rector
rectore
recuenco
recuerda
recuerdo
recuerdos
recuesto
reculle
recullen
recullio
recullir
recullita
recupera
recuperacio
recuperando
recuperar
recuperau
recupero
recuperoron
recurrent
recurrents
recurso
recursos
red
redaccio
redacto
redetiu
redford
redgrave
redol
redolada
redoladas
redolata
redoli
redonda
redondas
redondo
redota
redotan
redotando
redotar
redotato
redotau
redoto
redotoron
reduccio
reduce
reducen
reducida
reducindo
reducio
reducir
reducita
reducito
reduciu
redueita
redueito
reed
reedicio
reemplazar
reemplazau
reemplazo
reendreza
reeves
ref
reference
referencia
referencias
referendum
referent
referents
referenzia
referiba
referindo
referir
referiu
referius
refiere
refieren
refirma
refirman
refirmando
refirmar
refirme
refirmo
refirmoron
reflecta
reflectan
reflexio
reflexivos
reflexo
reforma
reformas
reformata
reformo
reforzar
refraccio
refranes
refu
refuchiar
refuchiato
refuchiatos
refuchiaus
refuchio
refuchioron
refugio
refusa
refusan
refusar
refuso
refusoron
regacho
regadi
regajo
regallo
regalo
regano
reganos
regar
reggae
reggio
regia
regidor
regina
reginald
regio
region
regional
regiones
regis
regla
reglamento
reglas
regle
regles
regna
regne
regni
regno
regnos
regnum
regresiva
regreso
reguero
regula
regulacio
regulan
regular
regularidat
regularment
regulars
regum
rehabilitacio
rei
reial
reich
reichstag
reimpresio
reims
reina
reinado
reinando
reinas
reinato
reinau
reine
reiner
reinhard
reino
reinos
reis
reivindicacio
reivindicacions
relacio
relaciona
relacionada
relacionadas
relacionan
relacionar
relacionata
relacionatas
relacionato
relacionatos
relacionau
relacionaus
relaciones
relacions
relata
relativa
relativament
relativas
relatividat
relativo
relativos
relato
relatos
relazionata
release
releu
releus
relevancia
relevant
relevants
relevos
relichio
relichions
relichiosa
relichiosas
relichioso
relichiosos
relieu
relieus
relieve
religada
religion
religiosas
reliquias
rella
reloch
remains
remake
remane
remaneix
remanio
remanir
remata
remataba
rematada
rematadas
rematan
rematando
rematanza
rematanzas
rematar
rematara
rematari
rematata
rematatas
rematato
rematatos
rematau
remataus
remate
remato
rematoron
remedio
remedios
remember
remera
remeranza
remerar
remi
remick
remiro
remo
remodelacio
remolacha
remolinos
remonta
remontan
remontant
remontar
remontari
rems
remunye
ren
rena
renaissance
renaixentista
renaixentistas
renaiximiento
renania
renanue
renato
renault
renclusa
renda
rendas
rendicio
rendimiento
rendre
rene
renera
renfe
reni
reno
renoir
renovables
renovacio
renta
rentas
renuncia
renunciar
renuncio
reo
reorganizacio
reorganizo
reparacio
reparacions
reparo
reparten
repartiment
repartioron
repartir
repartius
reparto
repavalde
repercusio
repero
repertorio
repeticio
repetir
repite
repitio
replega
replegada
replegan
replegando
replegar
replegau
replego
replica
repoblacio
repoblacions
repobladors
repoblar
repoblo
report
reportache
reportero
reposo
represalia
representa
representaba
representaban
representacio
representacions
representada
representadas
representan
representando
representant
representants
representar
representari
representata
representativa
representativo
representativos
representato
representatos
representau
representaus
represento
represienta
represientan
represio
reproduccio
reproduccions
reproducen
reproducir
reproductor
reproduz
reptil
reptils
repu
republic
republica
republicana
republicanas
republicano
republicans
republicas
republika
repui
repuis
reputacio
requena
requesta
requiere
requieren
requisitos
rer
res
rescatar
rescate
research
reserva
reservas
reside
residencia
residencial
residencials
residencias
resident
residentes
residents
residiba
residio
residual
residuos
resina
resiste
resisten
resistencia
resistent
resistents
resistio
resistioron
resistir
resolucio
resolution
resolver
resonancia
resources
respectivament
respectivas
respective
respectives
respectivos
respecto
respeto
respiracio
respiratorias
respiratorio
respomuso
responde
responden
responder
respondio
responsabilidat
responsabilidatz
responsable
responsables
respuesta
respuestas
resta
restas
restauracio
restaurada
restaurant
restaurants
restaurar
restaurata
restaurato
restaurau
resto
restos
restriccions
restrinchito
resulta
resultados
resultan
resultando
resultant
resultantes
resultants
resultar
resultas
resultato
resultatos
resultau
resultaus
resulto
resultoron
results
resumen
resurreccio
ret
retablo
retablos
retacular
retacule
retaguardia
retasco
rete
retina
retirada
retiran
retirar
retirata
retirato
retirau
retiro
reto
retorica
retorno
retrato
retratos
retrieved
retuerta
return
retz
reuniban
reunificacio
reunio
reunions
reunir
reus
rev
reve
revel
revela
revelacio
revelo
revere
reverso
reverte
review
reviews
revilla
revisio
revista
revistas
revolucio
revolucionaria
revolucionarias
revolucionario
revolucionarios
revolucions
revolution
revue
revuelta
revueltas
rex
rey
reyal
reyalizar
reyals
reyes
reykjavi
reyna
reyno
reynolds
rez
rfea
rfef
rg
rga
rgaros
rgen
rhamnus
rhiannon
rho
rhode
rhythm
ri
ria
riada
rian
rias
riaza
rib
riba
ribagorc
ribagorsa
ribagorza
ribagorzana
ribagorzanas
ribagorzano
ribagorzanos
ribarroya
ribas
ribbentrop
ribe
ribeira
ribera
riberas
ribes
ribota
ric
rica
ricardo
ricas
ricci
rice
rich
richard
richards
richardson
riche
richmond
richter
richthofen
rick
rickard
rickman
ricky
ricla
rico
ricos
ricot
rida
ride
ridge
ridley
rie
riego
riello
rien
riera
ries
riesgo
rif
rifenyos
rift
riga
rigachuelo
rigachuelos
right
rightarrow
rights
riglos
rima
rimas
rimaya
rin
rinco
rinconada
rindio
ring
ringlera
ringleras
rings
ringstraße
rinoceront
rinoceronts
rins
rinyo
rinyons
rio
riocha
rioja
rione
rios
rioseco
riot
ripa
ripas
ripera
ripley
ripoll
ripolle
ripuario
riqueza
riquezas
ris
riscla
rise
risgo
risgos
risi
rita
ritchie
ritmica
ritmico
ritmo
ritmos
rito
ritos
ritter
ritu
ritual
rituals
riu
rius
rival
rivalidat
rivals
rivas
rivendell
river
rivera
rivers
rivie
rivo
rivum
rivus
riz
rizos
rk
rkiv
rm
rmino
rminos
rn
rna
rnberg
rnols
ro
roa
road
roan
roazhon
rob
robards
robbins
robert
roberto
roberts
robertson
robin
robinson
robledo
robles
robot
robots
robre
robres
robson
robusto
roc
roca
rocafort
rocas
rocco
roces
rocha
roche
rochelle
rocher
rochester
rock
rocket
rocks
rockstar
rocky
rococo
rocosa
rocosas
rocoso
rocosos
rod
roda
rodache
rodar
rodas
rode
rodellar
rodenas
rodeno
rodentia
rodes
rodeya
rodeyan
rodeyato
rodeyau
rodi
rodia
rodiada
rodian
rodiata
rodiato
rodiau
rodio
rodo
rodolfo
rodona
rodri
rodrigo
rodrigues
rodriguez
roes
roger
rogers
roglan
rogue
rohan
rohe
rohlfs
roi
roig
roine
roja
rojas
rojo
rol
roland
rolda
rolde
role
roll
rolland
rolling
rolls
rom
roma
romain
roman
romana
romanas
romance
romancero
romances
romani
romania
romanica
romanicas
romanico
romanicoaragone
romanicoaragones
romanicos
romanio
romanizacio
romano
romanos
romans
romantica
romanticismo
romantico
romanya
romanz
romareda
rome
romeo
romeral
romeri
romero
romeu
rommel
romper
romy
ron
ronald
ronaldo
roncal
roncale
roncesvals
ronda
rondas
ronnie
room
rooney
roosevelt
ropa
ropas
roque
roques
roquetes
ros
rosa
rosaceae
rosacias
rosada
rosales
rosali
rosalind
rosario
rosas
roscoe
rose
rosello
rosenberg
rosenheim
roses
roseta
rosetas
rosetta
ross
rossell
rossellini
rossello
rossi
rostock
rostro
rota
rotacio
rotas
rote
roth
rotorua
rotten
rotterdam
rotulacio
roubaix
rouben
rouge
round
rousseau
routledge
rover
row
roy
roya
royal
royas
royce
royenca
royencas
royisca
royisco
royo
royos
royuela
roz
rozas
rquez
rr
rra
rras
rrega
rregno
rregui
rrez
rritz
rriz
rs
rss
rsssf
rstenfeldbruck
rt
rterbuch
rtes
rth
rtil
rtils
rtir
rtirs
rtiz
rtolas
rttemberg
rtve
ru
ruanda
rube
rubi
rubia
rubiales
rubielos
rubio
rubiuelos
ruby
rudi
rudio
rudolf
rudolph
rue
rueba
rueca
rueda
ruedas
ruello
ruellos
ruesta
rufus
rugby
ruggell
ruggles
rui
ruina
ruinas
ruiz
rules
rum
ruma
rumana
rumanas
rumanch
rumani
rumania
rumano
rumans
rumbo
rumeli
run
runas
rundstedt
runner
running
rupert
rupestre
rupestres
ruptura
rural
rurals
rus
rusa
rusas
rush
rusia
rusio
ruso
rusos
russell
russia
russian
rustica
ruta
rutas
rute
rutenia
rutens
ruth
rutherford
ry
ryan
ryder
rzburg
s
sa
saba
sabadell
sabado
sabana
sabanas
sabari
sabastia
sabe
sabeba
sabemos
saben
saber
sabet
sabi
sabiduri
sabin
sabina
sabinar
sabinars
sabinas
sabino
sabinya
sabio
sable
sabocos
sabor
saboya
sabre
sabuco
saca
sacana
sacando
sacar
sacerdot
sacerdotz
sacher
sachitario
saco
sacos
sacra
sacramento
sacre
sacred
sacrificio
sacrista
sacristi
sacro
sadaba
sadurni
saelices
safavida
safor
saga
sagan
saganta
sagardi
sagasta
sagnes
sagra
sagrada
sagrata
sagrato
sagrau
sagraus
sagu
sagunto
sahara
sahel
sai
said
saint
sainte
sainz
sais
sal
sala
salada
saladas
salado
salagons
salamanca
salamandra
salamandridae
salamero
salario
salas
salat
salazar
salce
salchicha
saldo
salduie
sale
salen
sales
salias
saliba
salida
saliellas
salinar
salinas
salindo
salinidat
salio
salioron
salir
salita
saliu
salix
salle
sallent
sally
salmo
salo
salobral
salomo
salonica
sals
salsa
salt
salto
saltos
salud
saludas
salut
salva
salvache
salvaches
salvachu
salvador
salvar
salvat
salvatierra
salvatore
salvii
salvo
salz
salzach
salzburg
salzburgo
salze
sam
samantha
samarti
same
sami
samianigo
samitier
samoa
samochitia
samper
samson
samuel
san
sana
sanabria
sanc
sancha
sanchac
sanchez
sancho
sancio
sancta
sancte
sancti
sancto
sand
sanders
sandra
sane
sang
sangarre
sangre
sangriento
sangu
sanguinio
sanguinios
sanidat
sanitaria
sanitario
sankt
sanlu
sano
sanroma
sans
sanscrito
sant
santa
santamari
santana
santander
santas
santes
santet
santi
santiago
santiba
santillana
santisma
santismo
santmigalada
santo
santolaria
santonche
santos
santu
santuario
sanz
sao
saona
sape
saper
sapia
sapiens
saputo
saque
saqueyo
sar
sara
sarah
sarajevo
sarandon
saraqusta
sarasaz
saraviello
saravillo
sarchento
sarda
sardo
sardos
sargantana
sarguera
sarin
sarinyena
sarlle
sarmatas
sarmiento
saroi
sarra
sarrablo
sarrampio
sarrasins
sarrastanyo
sarrat
sarratia
sarrato
sarrau
sarre
sarria
sarrio
sarrios
sarro
sarroca
sars
sarte
saruman
sas
sasa
sasanida
sasau
saso
sasser
sastago
sastre
satelite
satelites
satisfer
sativa
satue
saturn
saturni
saturno
sau
saud
saudi
saura
sauron
sauvate
sava
savall
save
savin
savoir
savoya
saxo
saxofonista
saxona
saxonia
saxons
say
sayago
sayeta
says
sc
scala
scar
scena
scenario
scenarios
scenas
scenic
scepticismo
schaan
schaffner
scheider
schell
schellenberg
schiller
schindler
schlesinger
schleswig
schloss
schmidt
schneider
scho
schongau
school
schro
schubert
schumacher
schutzstaffel
schwaben
schwarzenegger
schwerin
science
sciences
sciencia
sciencias
scienciolochi
scientific
scientifica
scientificament
scientificas
scientifico
scientificos
scientology
scilicet
scisio
scisma
scita
scitas
scola
scolopacidae
scorsese
scotland
scots
scott
scream
screen
scripta
scrofa
sd
se
sea
sean
search
seas
season
seat
seaton
seattle
sebastia
sebastian
sebastiano
sebastopol
sebo
sec
seca
secano
secas
seccio
seccions
secesio
secesionismo
sechismundo
secilia
secilianas
secilias
seco
second
secos
secrecio
secret
secreta
secretari
secretaria
secretario
secreto
secretorum
secretos
secrets
secta
sectas
section
sector
sectors
secu
secuestro
secundaria
secundarias
secundario
secundarios
secundum
sed
seda
sede
sedentarios
sedetans
sedimentacio
sedimentaria
sedimentarias
sedimentarios
sedimento
sedimentos
see
sefarad
sefardi
sega
segadors
segal
segarra
segeda
segmento
segmentos
sego
segorb
segorbe
segovia
segre
segregacio
segria
segu
seguiba
seguiban
seguida
seguidas
seguidors
seguimiento
seguindo
seguir
seguira
seguita
seguito
seguiu
seguius
segun
segunda
segundaria
segundario
segundas
segundo
segundos
segunt
seguntes
segura
segurament
seguranza
seguras
seguridat
seguro
seguros
sei
seiga
sein
seine
seira
seis
seisena
seiseno
seix
sel
selba
selchuqui
seleccio
seleccion
seleccionador
seleccions
selected
selenio
selezio
self
selfa
sella
sellers
sellier
selva
selvagem
selvagens
selvas
selznick
sema
semana
semanal
semanario
semanas
semantica
semanticament
semantico
semanticos
sembla
semblant
semblantes
semblants
sembrar
semellant
semellants
semellanza
semen
semi
semicercular
semicircular
semicultismo
semicultismos
semidesintegracio
semifinal
semifinals
semilar
semilars
seminario
semir
semitica
semiticas
semontane
semontano
semontanos
semper
sempre
sen
sena
senador
senau
sencilla
sencillo
sencillos
senda
sender
senderismo
sendero
senders
sendicalista
sendicals
sendicato
sendicatos
sene
senegal
senegu
senior
sennificato
seno
sensacio
sense
sensibilidat
sensible
sensorials
sensors
sent
senta
sentencia
sentencias
sentiba
sentido
sentimiento
sentimientos
sentir
sentito
sentitos
sentiu
sentius
senyal
senyor
senyora
senyores
senyori
senyoria
seo
sep
sepalos
sepan
separacio
sepoltura
september
septentrional
septentrionals
septiembre
septimania
sepu
sepulcre
sepulcro
sepultura
sequ
sequera
sequeras
ser
sera
serba
serbia
serbio
serbisca
serbisco
serbo
serbos
sercue
serena
seres
serge
sergei
sergi
sergio
seri
serie
series
serio
serkis
serna
sero
serols
serors
serpient
serpients
serra
serrablo
serram
serrani
serrano
serrans
serrasalmus
serrat
serrate
serrato
serreta
serrezuela
sers
sertorio
serval
servet
serveto
serviba
serviban
service
servicio
servicios
servidor
servidors
servir
servitut
serviu
ses
sese
seseyo
sesio
sesions
sesma
sestrals
sestrica
sesue
set
seta
setanta
setena
seteno
setiembre
setio
setios
settlement
setu
setze
seu
seus
seuve
sevastopol
seven
sevenfold
seventh
severino
severo
sevilla
sevillano
sex
sexma
sexmas
sexo
sexos
sexta
sexto
sexual
sexualidat
sexuals
seyendo
seyer
seymour
seynor
sha
shadow
shadows
shah
shakespeare
shalo
shanghai
shannon
sharif
sharon
shatner
shaun
shaw
she
shea
shearer
sheen
sheffield
shelley
shepard
shepherd
sheridan
sherlock
sherman
shields
shirley
shisha
sho
shogun
shore
short
should
show
showall
shows
shtml
shu
shuttle
si
sia
siaglo
siam
sian
sias
siberia
sibila
sibirana
sibiu
sic
sica
sicilia
sico
sicos
sicut
sid
sida
side
sidney
sido
sidra
sie
siede
siega
siegel
sieglas
sieglo
sieglos
siella
siello
siemens
siempre
siena
siendo
siente
sienten
siero
sierra
sierras
sies
sieste
siet
siete
sietemo
sietena
sieteno
sig
siga
sigan
sigla
siglas
siglo
siglos
sigmund
sign
signa
signatura
significa
significaba
significacio
significado
significan
significando
significar
significari
significativa
significativament
significativas
significativo
significativos
significato
significatos
significau
significaus
significo
signo
signoret
signos
sigourney
sigu
sigue
siguen
siguient
siguients
siguindo
siguio
siguioron
sil
silaba
silabas
silbia
silence
silencio
silent
silesia
silica
silicatos
silicio
silla
silleri
silos
sils
silva
silvana
silver
silvestre
silvestres
silvestris
silvia
silvio
sima
simbolica
simbolico
simbolismo
simboliza
simbolo
simbolochi
simbolos
simcity
simeo
simetri
simient
simients
similar
similars
similitutz
simmons
simo
simon
simone
simpati
simpla
simplament
simplas
simple
simplement
simples
simplificacio
simplificato
simpson
simptomas
simultaneidat
simultaniament
sin
sinai
sinatra
since
sinclair
sinclinal
sinclinals
sincopa
sind
sindembargo
sindicato
sindrome
sing
singapur
singer
single
singles
singular
singulars
sinnatura
sino
sinoga
sinonimo
sinonimos
sinse
sint
sintagma
sintagmas
sintaxi
sintesi
sintetico
sinteticos
sintio
sintomas
sintra
sinya
sinyal
sinyala
sinyalan
sinyalar
sinyalau
sinyals
sinyar
sinyato
sinyatura
sinyau
sinyo
sinyor
sinyora
sinyorea
sinyori
sinyoron
sinyors
sio
sion
sioux
sipca
sique
sir
siracusa
sire
sirga
siria
siriana
sirians
sirio
sirmia
sirve
sirven
sirvio
sis
sisanta
sisons
sisquiera
sissy
sistema
sistemas
sistematica
sistematico
sister
sisters
sit
site
sites
sith
sitio
sitios
sito
situ
situa
situacio
situacions
situada
situadas
situan
situar
situata
situatas
situato
situatos
situau
situaus
siu
siurana
sive
six
sixanta
sixena
sixto
sk
ska
ski
sky
skywalker
sl
sla
slalom
slumdog
sm
sma
small
smaug
smith
smo
smos
snow
snowboard
so
soaso
soba
sobe
soben
soberani
sobieski
sobira
sobirani
sobirano
sobirans
sobrado
sobrarbe
sobrarbenca
sobrarbenco
sobre
sobrebuena
sobrecollida
sobredito
sobremont
sobremonte
sobrenombre
sobrepuerto
sobretot
sobrevive
sobrevivio
sobrevivioron
sobrevivir
sobri
sobrina
sobrino
soc
soccer
social
socialdemocrata
sociales
socialismo
socialista
socialistas
socialment
socials
socie
sociedad
sociedat
sociedatz
societa
societat
society
socio
sociolingu
sociolochi
sociologi
sociologo
socios
socorro
socrates
soderbergh
sodico
sodio
sodomi
sofi
sofia
sofiya
sofrio
soft
software
soi
soit
sol
sola
solament
solana
solaniella
solano
solans
solar
solars
solas
solda
soldadura
soldanato
soldato
soldatos
soldau
soldaus
soldier
sole
soleba
soleban
soledad
soledat
soleil
solen
solenca
solenco
soler
solera
solero
soleta
soli
solida
solidaridat
solidas
solido
solidos
solima
solista
solitaria
solitario
sollavientos
solo
solomon
solos
solsona
solsone
solsticio
soltera
solucio
solucions
somalia
sombra
sombrero
some
somer
somera
somero
somers
somerset
something
somma
somme
somo
somontano
somos
somport
son
sona
sonar
sonda
sondas
song
songs
sonito
sonitos
soniu
sonius
sonora
sonoras
sonorizacio
sonoro
sons
sont
sony
sopa
sopas
sopeira
sopen
sopeto
sophia
sophie
soporte
soprano
soque
sor
sora
sorabo
sorbus
sorda
sordi
sordo
soria
soriano
soricidae
soro
sorolla
sorpresa
sorrosal
sort
sos
sosa
sostener
sostenible
sostiene
sot
soterrania
sotillo
soto
sotonera
sotos
soul
sound
source
sous
south
southampton
southern
soviet
sovietica
sovieticas
sovietico
sovieticos
soy
soya
soyuz
sozcampio
sozmeso
sozmesos
sozmeter
sp
spa
space
spacek
spacex
spain
spam
spanish
sparber
spartacus
special
species
spectrum
speech
spencer
spet
spider
spiegel
spielberg
spike
spin
spinosa
spiridon
spirit
spis
split
spock
spola
sport
sporting
sports
spotorno
spp
sprache
sprachen
spring
springer
springfield
springs
spurs
spy
square
squet
sr
sra
sri
ss
ssa
sseldorf
ssen
sser
ssp
st
sta
stadium
stadt
stage
stahl
stalin
stalingrado
stallone
stan
stand
standard
standards
stando
stanford
stanisław
stanley
stanton
stanwyck
star
stare
stark
starnberg
stars
starship
start
stas
state
states
station
statistical
statistics
statistisches
stats
status
stazione
ste
steel
stefan
stefano
steiger
stein
steiner
stella
step
stephen
ster
sterling
stern
sternberg
sterreich
stes
steve
steven
stevens
stevenson
stewart
sti
stic
stica
sticas
stico
sticos
still
sto
stockholm
stoke
stol
stols
stone
stones
stop
stor
store
storia
stories
storm
story
stos
stra
stradella
straight
strange
stranger
strauss
straße
stre
streep
street
streets
streisand
striano
stroheim
stu
stuart
student
studi
studies
studio
studios
study
stuff
sturges
stuttgart
style
su
sua
suabia
suau
suaus
suave
sub
subcampio
subcheccio
subchecto
subchectos
subchenero
subchuntivo
subclase
subcomarca
subcontinent
subdialecto
subdialectos
subditos
subdivide
subdividen
subdivisio
subdivisions
subespecie
subespecies
subfamilia
subfamilias
subgrupo
sublevacio
sublevatos
sublevau
submarins
suborda
suborden
subordinacio
subordinada
subordinadas
subpachina
subprefectura
subsahariana
subsistencia
subsp
substancia
substancial
substancialment
substancias
substantivo
substantivos
substitucio
substituindo
substituir
substituito
substituye
substituyo
substracto
substrato
substratos
subtropical
subtropicals
succede
succedindo
succedio
succedito
succediu
succesio
succesivament
succesivas
succesivos
succeso
succesor
succesors
sucedio
sucesio
sucesor
sucesos
suchiere
suchieren
suco
sucre
sud
suda
sudafrica
sudafricana
sudamerica
sudeste
sudoccidental
sudoriental
sudueste
sue
suebia
suebo
suebos
sueca
suecia
sueco
suecos
suegro
sueldo
sueldos
suelen
suelo
suelos
suelta
sueltas
sueltos
suelves
suen
suenio
suenios
suert
suerte
suertes
suessetans
suez
suffolk
sufi
suficient
sufierto
sufijacio
sufijos
sufixacio
sufixada
sufixo
sufixos
sufrachio
sufre
sufren
sufrio
sufrioron
sufrir
sugar
sui
suicidato
suicidio
suicido
suis
suite
suiza
suizo
suizos
sul
sulayma
sulco
sulcos
sulfolobus
sullivan
sulu
sum
suma
suman
sumando
sumar
sumatra
suministro
summary
summer
sumo
sun
sunday
sunni
sunnita
sunnitas
sunshine
sunt
suo
super
supera
superan
superando
superar
superau
supercopa
superencalcunyo
superfamilia
superficial
superficials
superficie
superficies
superior
superioridat
superiors
superlativo
superliga
superman
supero
superstrato
supervisio
supervivencia
supervivients
suplemento
suporte
suposa
suposaba
suposadament
suposar
suposicio
suposo
suprema
supremaci
supremo
supresio
suprimio
sur
surafrica
sureste
surf
suri
surinam
suroccidental
surrealismo
surrey
surta
surte
surten
surtida
surtio
surtir
surtiu
surueste
survey
sus
susan
susana
susanna
susano
susceptibility
susi
suso
suspendio
suspensio
suspenso
sussex
sustancias
sustantivo
sustantivos
sustitucio
sustituindo
sustituir
sustituita
sustituitas
sustituito
sustituitos
sustituye
sustituyir
sustituyito
sustituyo
sustituyoron
sustrato
sutherland
suya
suyas
suyo
suyos
suzanne
suzuki
sv
svenska
sveyer
sw
swahili
swan
sweedie
sweet
swing
sy
sydney
sydow
sylvester
sylvestris
sylvia
sylvie
symbol
synonymis
system
systema
systems
sze
szlo
t
ta
tabaco
tabernas
taberners
tabierna
tabiernas
tabla
tablado
tablas
table
tablero
tablesl
tac
taca
tacas
tachiquista
tacho
tacticas
tacto
tadeo
tafalla
tagliavini
tagu
tai
taifa
taifas
tailande
tailandia
tain
taipei
tait
taiwa
taiwan
taixo
tajo
tajun
take
takei
takes
tal
talamanca
talamantes
talaya
tale
talent
talento
tales
talk
talla
tallada
tallan
tallar
tallas
tallau
taller
tallers
tallinn
tallo
tallos
talment
tals
tam
tama
tamanyo
tamarit
tamas
tambie
tambor
tambors
tame
tamerla
tamie
tamien
tamil
tamo
tampes
tampo
tampoco
tan
tana
tandy
tang
tango
tanimientres
tano
tanque
tanques
tansament
tant
tanta
tantas
tanto
tantos
tantost
tantra
tantum
tanye
tanyendo
tanyer
tanzania
tapa
tape
tapia
tapices
tapiz
taquilla
taquillera
tar
tarabidau
taranco
tarantino
tarasio
tarazona
tarba
tarcheta
tarcual
tarda
tardana
tardanas
tardano
tardanos
tarde
tardi
tardienta
tardis
tardo
tarentola
tarifa
tarn
taro
tarqui
tarraconense
tarragona
tarragone
tarso
tarta
tartera
tartre
tartres
tartuga
tartugas
tas
tasa
tasament
tasas
tasca
taschenbuch
tasman
tasmania
tastavins
tat
tata
tatra
tatras
tatry
tau
taula
tauro
taurog
tauromaquia
taurus
taust
tauste
tavernier
taxa
taxas
taxi
taxo
taxon
taxonomi
taxonomica
taxons
tay
taylor
tb
tbilisi
tbol
tcm
te
tea
team
teatral
teatrals
teatro
teatros
teau
technology
tecnica
tecnicament
tecnicas
tecnicismos
tecnico
tecnicos
tecnolo
tecnolochi
tecnolochico
tecnolochicos
tecnyconta
tectonica
tectonicas
ted
teddy
tedra
tegui
tehera
teide
teito
teixito
teixitos
teixiu
teixius
tejada
tekapo
tel
tela
telas
telecadiera
telecomunicacio
telecomunicacions
teleferico
telefilm
telefilme
telefo
telefono
telegrafo
telegraph
telenovela
telescopio
telescopios
televisio
television
tell
tella
tellas
tellato
tellatos
tellau
tellaus
telo
teloners
telurio
tem
tema
temas
tematica
tematicas
temperatura
temperaturas
templar
templato
temple
templera
templers
templlau
templo
templos
tempo
temporada
temporadas
temporal
temporalment
temporals
temporata
temporatas
temprana
temprano
temps
ten
tena
tenare
tendencia
tendencias
tendenera
tendennera
tender
tendra
tendri
tene
teneba
teneban
tenemos
tenencia
tenendo
tener
tenerife
tenese
tenesen
teni
tenia
teniba
tenido
tenient
tenio
tenioron
tenir
tenis
tenista
tenito
teniu
tennessee
tennis
tenor
tensina
tensino
tensio
tensions
tenyas
teo
teodora
teodorico
teodoro
teodosio
teolochi
teologo
teorema
teori
teorica
teoricament
teorico
teoricos
ter
tera
tercer
tercera
terceras
tercero
tercerol
tercers
terciario
terciarios
tercio
tercios
terence
teresa
teri
termal
termals
termas
terme
termi
termica
termin
termina
terminacio
terminacions
terminadas
terminal
terminals
terminan
terminar
terminator
terminaus
termini
terminis
termino
terminolochi
terminos
termins
terminum
termodinamica
terms
ternasco
terola
terolano
terra
terrado
terrano
terras
terrassa
terratenient
terratenients
terre
terreno
terrenos
terrens
terrer
terrero
terreros
terrestre
terrestres
terrestris
terrible
terrichenos
terrient
territori
territorial
territorials
territorio
territorios
terror
terrorismo
terrorista
terroristas
terry
ters
teruel
teruelana
terzer
tes
tesalia
tesi
tesino
tesis
tesla
test
testamento
testiclo
testigo
testigos
testimonio
testimonios
testo
tet
tetra
tetrao
tetrapodos
tetulo
tetulos
teutonica
teutonicos
teutons
texas
text
textil
texto
textos
textura
tez
th
tha
thai
thames
than
that
the
theater
theatre
theda
theft
their
thelma
them
theo
theodor
theodore
theodorico
theory
there
thermador
they
thie
thierry
thin
thing
things
think
third
this
thnau
thode
thomas
thompson
thomson
thorin
thornton
thorpe
thranduil
threatened
three
thriller
thrones
through
ths
thulin
thunder
thymus
ti
tibalt
tiberio
tibet
tibetano
tibi
tiburo
tic
tica
ticas
ticket
tico
ticos
tida
tidas
tie
tiempo
tiempos
tien
tienda
tiendas
tiende
tienden
tiene
tienen
tienga
tiengan
tiengo
tienne
tiens
tierga
tiermas
tierra
tierrantona
tierras
tierratremo
tierratremos
tierz
tiestos
tiger
tigre
tigres
tigris
til
tilia
tillon
tils
tim
time
times
timis
timo
timor
timothy
tin
tina
tinenza
tinta
tinti
tintin
tinto
tio
tipica
tipicament
tipicas
tipico
tipicos
tipo
tipog
tipolochi
tipos
tira
tirada
tirar
tiro
tirol
tirole
tiros
tirrena
tiso
tita
titan
titanic
titans
title
tito
titol
titols
titular
titularidat
titulato
titulau
titulo
tizo
to
tobago
tobet
toca
tocan
tocando
tocant
tocar
tocho
tochos
toci
tocins
toco
tod
toda
todas
today
todd
todo
todos
tognazzi
togo
toi
toish
tokio
toko
tokugawa
tokyo
tol
toledo
tolerancia
tolkien
tolosa
tolosaldea
tolosan
tolosana
tols
tolstoy
tolva
tom
toma
tomar
tomas
tomasi
tomaso
tomate
tomatoes
tome
tommaso
tommy
tomo
tomorrow
tomos
toms
ton
tonalidat
tonalidatz
tonda
tone
tonel
toneladas
tonels
tonga
toni
tonica
tonicas
tonico
tono
tonos
tonto
tony
too
toole
top
topo
topografi
topograficament
topografico
topograficos
toponi
toponimia
toponimica
toponimicas
toponimico
toponimo
toponimos
toque
toquinho
tor
tora
torda
tordo
torello
torero
toril
torismo
toristas
toristica
toristicas
toristico
toristicos
torla
torlarribera
tormes
tormo
tormos
tormoseta
torna
tornaba
tornaban
tornada
tornado
tornados
tornan
tornando
tornar
tornara
tornari
tornaron
tornase
tornata
tornato
tornau
torne
tornen
torneo
torneyo
torneyos
torno
tornoron
tornos
toro
toronto
toros
torralba
torralbiella
torraza
torre
torreciella
torrecilla
torrejo
torrellas
torremocha
torrent
torrente
torrents
torrero
torres
torreta
torreto
torretons
torrillas
torrillo
torrociella
torrodellas
torroella
torroja
torrubia
torta
tortas
tortiella
tortiellas
tortosa
tortosi
tos
tosca
toscana
toscar
tosos
tossal
tot
tota
total
totalidat
totalment
totals
totas
toto
tots
tottenham
totz
tou
touch
toujours
toulouse
tour
tourneur
tours
tous
tout
tova
tovalla
tovar
tovas
tovo
tovos
tower
town
toxico
toxicos
toyota
toz
toza
tozal
tozals
tozuelo
tr
tra
trabajo
traccio
tracha
trache
trachecto
trachectoria
trachedia
traches
tracia
tracio
track
tracta
tractaba
tractamiento
tractamientos
tractan
tractar
tractato
tractatos
tractau
tractaus
tracto
tracy
trade
tradicio
tradicional
tradicionalment
tradicionals
tradiciones
tradicions
tradizio
traduccio
traduccions
traduce
traducida
traducio
traducir
traducito
traduciu
traductor
traductors
tradueita
tradueito
trafalgar
trafico
trafucar
trago
trai
traidori
trail
trailer
train
traite
traito
trallo
trallos
trama
tramacastiel
tramacastiella
tramasaguas
tramo
tramos
trampa
trampo
trampos
tramvi
tranca
tranco
trango
trangos
trans
transaccions
transcaucasia
transchenero
transcheners
transcripcio
transcurso
transexuals
transferencia
transfermarkt
transforma
transformacio
transformacions
transformador
transforman
transformando
transformar
transformau
transformo
transgender
transiberiano
transicio
transicionals
transilvania
transilvans
transistor
transistors
transitivos
transito
transmesa
transmeso
transmesos
transmisio
transmite
transmiten
transmitio
transmitir
transoxiana
transparent
transporta
transportar
transporte
transportes
transuancia
transuant
transuants
transversal
trapa
trappist
traquia
tras
trascaucasia
traslado
trasmontana
trasmoz
trasobars
trasoro
trassierra
trastamara
traste
trastes
trastornos
trata
tratado
tratamiento
tratato
traun
traunreut
traunstein
trave
travel
travesando
travesar
travesi
travie
traviesa
travis
travolta
traye
trayectoria
trayen
trayer
trayio
trayo
trayoron
traza
trazas
trazato
trazau
tre
treasure
treballa
treballaba
treballaban
treballador
treballadors
treballan
treballando
treballar
treballato
treballau
treballo
treballos
trebunal
tree
trees
tregua
treinta
treito
trek
trell
tremedal
tremp
tren
trencar
trens
trent
trenta
trentino
trento
tres
tresa
trescruza
trescruzaba
trescruzada
trescruzan
trescruzando
trescruzar
trescruzata
trescruzato
trescruzo
treserols
treslada
tresladada
tresladan
tresladando
tresladar
tresladato
tresladau
treslado
tresladoron
treslau
tresoro
trestalla
trestallar
trestallata
trestallato
trestallau
trestallo
tretze
trevin
treviso
trevor
tri
tria
trianglo
triangular
trianon
triasico
triau
tribal
tribals
tribu
tribuna
tribunal
tribunals
tribus
tributario
tributarios
tributo
tributos
tricas
triesen
triesenberg
trieste
triga
trigar
trigato
trigau
trigaus
trigo
trilla
trillo
trilochi
trincheras
trinidad
trinidat
trinity
tripa
triple
tripoli
tripolitania
tripulacio
tripulau
trista
triste
triticum
trito
tritter
triturus
triunfo
tro
troba
trobaba
trobaban
trobada
trobadas
trobamos
troban
trobando
trobar
trobara
trobari
trobata
trobatas
trobato
trobatos
trobau
trobaus
trobe
troben
trobo
troboron
trofeo
trofeos
trofeu
trois
troisi
trol
troles
trompa
trompeta
tron
tronada
tronadas
tronca
troncedo
troncho
tronco
troncos
trondheim
trono
troops
trop
tropa
tropas
tropical
tropicals
tropico
tropicos
trotsky
trouble
troupes
troy
troya
troyes
troz
trozos
truca
trucar
truco
trucos
true
trueba
truffaut
truita
truitas
trujillo
truman
trunfa
trunfas
trunfo
trust
truth
ts
tsch
tt
tting
ttingen
tu
tua
tuaregs
tuberclos
tubo
tuca
tucas
tuck
tudela
tudes
tudesquismos
tudor
tueixa
tuertas
tuerto
tula
tular
tulo
tulsa
tum
tumba
tumbas
tundra
tungste
tunica
tunicia
tupolev
tuqueta
tuquets
tur
turberas
turbo
turca
turcas
turco
turcoples
turcos
turdidae
turdus
turi
turia
turiaso
turiasonense
turinchia
turismo
turistas
turistica
turistico
turkmenista
turmo
turn
turner
turo
turolense
turolenses
turolii
turquemans
turqueste
turqui
turquica
turquicas
turquico
turquicos
turquismos
turre
turrillo
tus
tuscolana
tutela
tuto
tutti
tuvalu
tuvo
tuya
tuyo
tv
tve
twentieth
twilight
twitter
two
ty
tyler
tymologique
tyne
type
tyrannosaurus
tyrone
tz
tze
tzing
u
ua
uales
ubago
ubicacio
ubicada
ubicata
ubicau
ubierta
ubiertament
ubiertas
ubierto
ubiertos
ubieto
ubre
ubren
ubrindo
ubrio
ubrioron
ubrir
ucd
ucrai
ucraine
ucrainesa
ucraineses
ud
ue
uebra
uecha
uefa
uego
uegos
uei
ueitanta
ueitena
ueiteno
ueito
ueitomil
ueitomils
uel
uela
uelba
uella
uellamen
uellas
uello
uellos
uelo
uembra
uer
uerba
uesa
uesca
uescana
ueso
uesos
uest
ueste
uevo
uevos
uf
ufre
ufrio
uga
uganda
ugas
ugo
ugt
uhart
ui
uigur
uigurs
uinieron
uino
uitanta
uk
ukraine
ukrainian
ul
ula
ulico
ulldecona
ulm
ulrich
ulster
ult
ultima
ultimate
ultimo
ultra
ultramar
ultrapuertos
ulysses
um
uma
umberto
umbri
un
una
unaltra
unanimidat
unas
unatra
unatro
uncastiello
uncastillo
und
under
underground
understanding
une
unen
unes
unesco
unglas
uniata
uniba
unica
unicaja
unicament
unicas
unicef
unicelulars
unico
unicos
unida
unidad
unidades
unidas
unidat
unidatz
unido
unidos
unificacio
unificar
unificata
unificato
unificau
uniforme
uniformes
unindo
unio
union
unions
unioron
unir
unita
unitaria
unitario
unitas
united
unito
unitos
units
uniu
unius
universal
universals
universe
universidad
universidade
universidat
universidatz
universita
universitaires
universitaria
universitarias
universitario
universitarios
universitat
universite
university
universo
uno
unos
uns
unwin
uo
uomo
uos
up
upan
upanija
upon
upper
uppsala
ur
ura
urals
uranio
urano
urba
urban
urbana
urbanas
urbanismo
urbanistica
urbanizacio
urbanizacions
urbano
urbanos
urbans
urbe
urchel
urdu
uretra
urgell
uri
urmo
urnas
urodelos
urogallus
urola
urraca
urrea
urreya
urrie
ursidae
ursidos
urss
ursula
ursus
uruel
uruguai
uruguay
uruguayo
urzay
us
usa
usaban
usada
usadas
usados
usaf
usan
usando
usar
usata
usato
usau
usb
use
used
usi
usina
uso
usos
usque
usta
ustaixas
ustinov
usual
usualment
usuals
usuario
usuarios
ut
utah
utc
utebo
utensilio
utero
utevo
utiel
util
utilidat
utiliza
utilizacio
utilizada
utilizadas
utilizan
utilizando
utilizar
utilizata
utilizato
utilizau
utilizaus
utilizo
utils
utrecht
utrera
utriellas
utrilla
uu
uz
uzbecos
uzbekista
uzbequista
v
va
vaca
vacanzas
vacas
vaccine
vachimala
vachimanya
[...]
