!
"
#
##0
##1
##10
##11
##12
##13
##14
##15
##16
##17
##18
##19
##2
##20
##21
##22
##23
##24
##25
##26
##27
##28
##29
##3
##30
##31
##32
##33
##34
##35
##36
##37
##38
##39
##4
##40
##41
##42
##43
##44
##45
##46
##47
##48
##49
##5
##50
##51
##52
##53
##54
##55
##56
##57
##58
##59
##6
##60
##61
##62
##63
##64
##65
##66
##67
##68
##69
##7
##70
##71
##72
##73
##74
##75
##76
##77
##78
##79
##8
##80
##81
##82
##83
##84
##85
##86
##87
##88
##89
##9
##90
##91
##92
##93
##94
##95
##96
##97
##98
##99
$
%
&
'
(
)
*
+
,
-
.
/
0
00
000
001
002
003
004
005
006
007
008
009
01
010
012
013
014
016
018
02
020
0210
0211
0213
0214
022
025
026
027
028
029
03
030
031
033
034
035
036
037
038
039
04
041
045
047
048
049
05
050
051
0517103169
052
054
056
058
059
0590
06
060
061
062
063
065
067
068
07
070
071
075
077
079
08
080
083
088
089
09
091
095
097
1
10
100
1000
1002
1007
101
1010
1011
1013
1014
1015
1016
1017
1018
102
1020
1025
1028
103
1030
1034
1035
1036
1037
1038
1039
104
1040
1041
1042
1046
105
1050
1054
1055
1056
1059
106
1060
1061
1063
1064
1065
1066
1067
107
1070
1071
1072
1076
1077
1078
108
1080
1081
1082
1083
1085
1086
1087
1089
109
1090
1091
1093
1094
1095
1096
1097
1098
1099
11
110
1100
1101
1102
1104
1105
1109
111
1110
1111
1114
1115
1117
1118
1119
112
1120
1122
1124
1126
1128
113
1130
1131
1132
1133
1134
1134838778
1135
1136
1137
1138
114
1140
1141
1142
1143
1145
1147
1149
115
1150
1152
1153
1154
1155
1156
1157
1158
1159
116
1160
1162
1164
1167
1168692238
117
1170
1171
1172
1173
1174
1175
1176
1177
1178
1179
118
1180
1182
1183
1184
1185
1187
1188
1189
119
1190
1191
1192
1194
1195
1196
1198
12
120
1200
1201
1202
1203
1204
1205
1207
1208
1209
121
1210
1211
1212
1213
1214
1216
1217
1218
1219
122
1220
1221
1222
1223
1224
1225
1226
1227
1228
1229
123
1230
1231
1232
1233
1234
1235
1236
1238
1239
124
1240
1241
1242
1243
1244
1245
1247
1248
1249
125
1250
1252
1253
1254
1255
1257
1258
1259
126
1260
1261
1262
1264
1265
1266
1267
1268
127
1270
1271
1272
1273
1274
1276
1278
1279
128
1280
1282
1283
1284
1285
1286
1287
1288
1289
129
1290
1291
1292
1293
1294
1295
1297
1299
13
130
1300
1301
1302
1304
1305
1307
1308
1309
131
1310
1311
1312
1314
1315
1316
1317
1319
132
1320
1322
1324
1325
1326
1327
1328
133
1330
1332
1333
1336
1337
1338
134
1340
1341
1342
1343
1344
1345
1346
1347
1348
1349
135
1350
1355
1356
1357
1359
136
1360
1361
1362
1363
1364
1365
1366
1367
1368
1369
137
1370
1371
1372
1373
1374
1375
1376
1377
1378
1379
138
1380
1381
1382
1383
1384
1385
1386
1387
1388
1389
139
1390
1391
1392
1396
1397
1398
1399
14
140
1400
1401
1402
1404
1405
1406
1409
141
1410
1411
1412
1413
1414
1415
1416
1419
142
1420
1421
1422
1423
1424
1425
1426
1427
1428
1429
143
1430
1431
1433
1434
1435
1436
1437
1439
144
1440
1441
1442
1443
1444
1446
1448
145
1450
1452
1453
1454
1455
1458
1459
146
1460
1461
1462
1464
1465
1466
1469
147
1470
1471
1472
1473
1474
1475
1476
1477
1478
1479
148
1480
1481
1482
1483
1484
1485
1486
1488
1489
149
1490
1491
1492
1493
1494
1495
1496
1497
1498
1499
15
150
1500
1501
1502
1503
1504
1506
1508
1509
151
1510
1511
1512
1513
1514
1515
1516
1517
1518
1519
152
1520
1521
1522
1523
1524
1525
1526
1527
1528
1529
153
1530
1532
1533
1534
1535
1536
1537
1538
1539
154
1540
1541
1542
1543
1545
1546
1547
1548
1549
155
1550
1552
1553
1554
1555
1556
1557
1558
1559
156
1560
1561
1562
1563
1564
1565
1566
1568
1569
157
1570
1571
1572
1573
1575
1577
1578
158
1580
1581
1582
1583
1584
1585
1586
1587
1588
159
1590
1591
1592
1593
1594
1595
1596
1598
1599
16
160
1600
1601
1602
1603
1604
1605
1606
1607
1608
1609
161
1610
1611
1612
1613
1614
1615
1616
1617
1618
1619
162
1620
1621
1622
1623
1625
1626
1627
1628
1629
163
1630
1631
1632
1633
1634
1635
1637
1638
1639
164
1640
1641
1642
1643
1645
1646
1647
1648
1649
165
1650
1651
1652
1653
1654
1655
1656
1657
1658
1659
166
1660
1661
1663
1664
1665
1666
1667
1668
1669
167
1670
1671
1672
1674
1675
1676
1677
1678
1679
168
1680
1681
1682
1683
1684
1685
1686
1687
1688
1689
169
1690
1691
1692
1693
1694
1695
1696
1697
1698
1699
17
170
1700
1701
1702
1703
1704
1705
1706
1707
1708
1709
171
1710
1711
1712
1713
1714
1715
1716
1717
1718
1719
172
1720
1721
1722
1723
1724
1725
1726
1727
1728
1729
173
1730
1731
1732
1733
1734
1735
1736
1737
1738
1739
174
1740
1741
1742
1743
1744
1745
1746
1747
1748
1749
175
1750
1751
1752
1753
1754
1755
1756
1757
1758
1759
176
1760
1761
1762
1763
1764
1765
1766
1767
1768
1769
177
1770
1771
1772
1773
1774
1775
1776
1777
1778
1779
178
1780
1781
1782
1783
1784
1785
1786
1787
1788
1789
179
1790
1791
1792
1793
1794
1795
1796
1797
1798
1799
18
180
1800
1801
1802
1803
1804
1805
1806
1807
1808
1809
181
1810
1811
1812
1813
1814
1815
1816
1817
1818
1819
182
1820
1821
1822
1823
1824
1825
1826
1827
1828
1829
183
1830
1831
1832
1833
1834
1835
1836
1837
1838
1839
184
1840
1841
1842
1843
1844
1845
1846
1847
1848
1849
185
1850
1851
1852
1853
1854
1855
1856
1857
1858
1859
186
1860
1861
1862
1863
1864
1865
1866
1867
1868
1869
187
1870
1871
1872
1873
1874
1875
1876
1877
1878
1879
188
1880
1881
1882
1883
1884
1885
1886
1887
1888
1889
189
1890
1891
1892
1893
1894
1895
1896
1897
1898
1899
19
190
1900
1901
1902
1903
1904
1905
1906
1907
1908
1909
191
1910
1911
1912
1913
1914
1915
1916
1917
1918
1919
192
1920
1921
1922
1923
1924
1925
1926
1927
1928
1929
193
1930
1931
1932
1933
1934
1935
1936
1937
1938
1939
194
1940
1941
1942
1943
1944
1945
1946
1947
1948
1949
195
1950
1951
1952
1953
1954
1955
1956
1957
1958
1959
196
1960
1961
1962
1963
1964
1965
1966
1967
1968
1969
197
1970
1971
1972
1973
1974
1975
1976
1977
1978
1979
198
1980
1981
1982
1983
1984
1985
1986
1987
1988
1989
199
1990
1991
1992
1993
1994
1995
1996
1997
1998
1999
2
20
200
2000
2001
2002
2003
2004
2005
2006
2007
2008
2009
201
2010
2011
2012
2013
2014
2015
2016
2017
2018
2019
202
2020
2021
2022
203
204
205
206
207
208
209
21
210
211
212
213
214
215
216
217
218
219
22
220
221
222
223
224
225
226
227
228
229
23
230
231
232
233
234
235
236
237
238
239
24
240
241
242
243
244
245
246
247
248
249
25
250
2500
2501
251
252
253
254
255
256
257
258
259
26
260
261
262
263
264
265
266
267
268
269
27
270
271
272
273
274
275
276
277
278
279
28
280
281
282
283
284
2849024244
285
286
287
288
289
29
290
291
292
293
294
295
296
297
298
299
3
30
300
3000
301
302
303
304
305
306
307
308
309
31
310
311
312
313
314
315
316
317
318
319
32
320
321
322
323
324
325
326
327
328
329
33
330
331
332
333
334
335
336
337
338
339
34
340
341
342
343
344
345
346
347
348
349
35
350
351
352
353
354
355
356
357
358
359
36
360
361
362
363
364
365
366
367
368
369
37
370
371
372
373
374
375
376
377
378
379
38
380
381
382
383
384
385
386
387
388
389
39
390
391
392
393
394
395
396
397
398
399
4
40
400
4000
401
402
403
404
405
406
407
408
4081
409
41
410
411
412
413
414
415
416
417
418
419
42
420
421
422
423
424
425
426
427
428
429
43
430
431
432
433
434
435
436
437
438
439
44
440
441
442
443
444
445
446
447
448
449
45
450
451
452
453
454
455
456
457
458
459
46
460
461
462
463
464
465
466
467
468
469
47
470
471
472
473
474
475
476
477
478
479
48
480
481
482
483
484
485
486
487
488
489
49
490
491
492
493
494
495
496
497
498
499
5
50
500
5000
501
502
503
504
505
506
507
508
509
51
510
511
512
513
514
515
516
517
518
519
52
520
521
522
523
524
525
526
527
528
529
53
530
531
532
533
5330
534
535
536
537
538
539
54
540
541
542
543
544
545
546
547
548
549
55
550
551
552
553
554
555
556
557
558
559
56
560
561
562
5624
563
564
565
566
567
568
569
57
570
571
572
573
574
575
578
579
58
580
581
582
583
584
585
586
587
588
589
59
590
591
592
593
594
595
596
597
598
599
6
60
600
601
602
603
604
605
606
607
608
609
61
610
611
612
613
614
615
617
618
619
62
620
621
622
623
624
625
626
627
628
629
63
630
631
632
634
635
636
637
638
639
64
640
641
642
643
644
645
646
647
649
65
650
651
652
653
655
656
657
658
659
66
660
661
662
664
665
666
668
669
67
670
671
672
673
674
675
676
677
678
679
68
680
681
682
683
684
685
686
687
688
689
69
690
691
692
693
694
695
696
697
698
699
7
70
700
701
7011
702
703
704
705
706
707
708
709
71
710
711
712
713
714
715
716
717
718
719
72
720
7207
721
722
724
725
726
727
728
73
730
731
732
734
735
7358
736
737
738
739
74
740
741
742
743
744
745
747
748
75
750
751
752
753
754
755
756
757
758
759
76
760
7602
762
763
764
765
766
768
77
770
771
772
7727
774
775
7753
777
778
779
78
780
781
7820
783
784
785
787
789
79
790
791
792
793
794
795
796
797
798
799
8
80
800
8000
801
802
803
804
805
806
808
809
8090
8094
81
810
811
812
8127
813
814
815
816
8160
817
818
819
82
820
821
822
823
824
825
826
827
828
829
83
830
831
832
8321
8328
833
834
837
838
839
84
840
84048
841
842
8424923391
843
844
845
8452
846
8465
8479793500
848
8483213957
85
850
851
852
853
854
855
856
857
858
859
86
860
86036
861
862
863
864
865
866
867
86807
86856
869
86982
87
870
872
874
875
877
878
879
88
880
881
884
885
886
887
888
889
88920
89
890
892
893
894
895
896
897
898
8986
89862
899
9
90
900
901
903
904
905
906
907
909
91
910
911
912
913
914
915
916
917
918
92
920
921
922
923
924
925
926
927
928
929
93
930
9321
935
936
937
938
939
94
940
942
945
947
948
949
95
950
951
952
953
954
955
956
957
958
959
95997
96
960
961
962
963
96457
965
966
967
968
969
97
970
971
972
973
9734
975
976
9761
977
978
9781134838776
9782849024249
9788424923396
9788477538554
979
98
980
981
982
983
984
985
987
988
989
99
990
991
9911
992
993
994
995
996
9967
997
999
:
;
<
=
>
?
@
\
^
_
`
a
aa
aaron
ab
aba
ababol
abad
abadesa
abadi
abadia
abai
abaixo
abajo
abance
abances
abandona
abandonados
abandonar
abandonau
abandono
abanto
abanza
abanzada
abanzar
abanzau
abanzo
abarca
abat
abate
abc
abd
abdelmalik
abderrama
abdica
abdicacio
abdicar
abdomen
abdul
abe
abeba
abechuela
abel
abella
abellas
aber
abertawe
abet
abetz
abi
abiego
abio
abizanda
abkhasia
abkhasio
abkhasios
abo
abolicio
abolio
aborichens
about
abraca
abraham
abrams
abreviadura
abreviau
abri
abrigo
abril
abruzos
abside
absides
absoluta
absolutismo
absoluto
absorber
absorcio
abstracto
abstractos
abu
abuelo
abunda
abundan
abundancia
abundant
abundants
ac
aca
acaba
acabada
acabadas
acaban
acabar
acabaus
acabo
acade
academia
academias
academica
academico
academicos
academy
acaya
acb
acc
acce
accede
acceder
accento
accentos
accentuacio
accepta
acceptacio
acceptada
acceptan
acceptar
accepto
accesible
acceso
accesorios
accesos
accident
accidental
accidents
accio
accions
accipiter
accipitridae
aceite
aceites
acento
acepta
aceptar
acepto
acequia
acer
aceral
acerca
acero
ach
achar
ache
achencia
achencias
achenda
achent
achents
acher
acherito
achirmanadas
achirmanatas
achunta
achuntamiendo
achuntamiento
achuntamientos
achuntan
achuntar
achunto
achuntoron
achusta
achustar
aci
acido
acidos
aciro
acirons
aclarir
aco
acomodo
acompanya
acompanyada
acompanyamiento
acompanyan
acompanyando
acompanyar
acompanyato
acompanyau
acompanyaus
acompanyo
aconseguindo
aconseguir
aconseguiu
aconsigue
aconsiguen
aconsiguio
aconsiguioron
acordio
acotolar
acre
acreditato
acronimo
act
acta
actas
actes
action
actitut
activa
activament
activas
actividad
actividat
actividatz
activista
activistas
activo
activos
acto
actor
actors
actos
actrices
actriz
actu
actua
actuacio
actuacions
actual
actualidad
actualidat
actualizato
actualizau
actualment
actuals
actuando
actuar
actuo
actur
acuden
acuerdo
acuerdos
aculle
acullir
acumuer
acumulacio
acusacio
acusacions
acusativo
acusato
acusatos
acusau
acustica
ad
ada
adam
adams
adapta
adaptacio
adaptacions
adaptada
adaptadas
adaptando
adaptar
adaptato
adaptau
adaptaus
adapto
adaptoron
adauesca
adchacent
adchacents
adchectivo
adchectivos
adchudica
adchudicacio
addclass
addis
ade
adebant
adedica
adedicada
adedicar
adedicata
adedicatas
adedicato
adedicau
adedico
adelaida
adelino
adema
ademe
ademuz
adentro
adequada
adequadas
adequau
adhibe
adhiben
adhibida
adhibindo
adhibio
adhibioron
adhibir
adhibita
adhibito
adhibiu
adiccio
adicio
adicional
adicionals
adif
adigio
adintro
adio
adiposo
administracio
administracions
administrada
administrador
administrar
administrata
administrativa
administrativament
administrativas
administrativo
administrativos
admite
admiten
adn
ado
adobas
adolescencia
adolf
adolfo
adolph
adolphe
adopcio
adopta
adoptado
adoptar
adoptato
adoptau
adopto
ador
adorno
adosada
adour
adquiere
adquirio
adquirir
adquisicio
adreza
adrezas
adria
adrian
adriana
adriano
adrien
adstrato
adubio
adulta
adultas
adulto
adultos
aduya
aduyan
aduyando
aduyant
aduyar
aduyas
aduyato
aduyo
aduyoron
advanced
adventure
adventures
adverbial
adverbials
adverbio
adverbios
adversario
advocacio
advogato
advogau
advogaus
ae
aeria
aerias
aerio
aerios
aeronau
aeronaus
aeronautica
aeropuerto
aeropuertos
af
afa
afecta
afectadas
afectan
afectar
afectaus
afecto
afer
afers
affair
afganista
afi
aficio
aficionaus
afiel
afinidades
afins
afirma
afirmacio
afirman
afirmando
afirmar
afirmo
afloramiento
afloramientos
afloran
afluencia
afluent
afluents
afluyents
africa
african
africana
africanas
africano
africans
africato
africau
afrika
afrikaans
afro
after
afueras
ag
agafar
again
against
age
agen
agency
agli
agne
agnes
ago
agon
agoni
agora
agosti
agostino
agosto
agra
agradable
agramont
agraria
agrario
agreda
agresio
agri
agricola
agricolas
agricultors
agricultura
agrupa
agrupacio
agrupacions
agrupan
agrupar
agu
agua
aguas
aguasvivas
aguda
agudeza
agudo
agueda
aguila
aguilar
aguilera
aguilo
aguirre
aguja
agulla
agullana
agullas
agusti
agut
ah
ahmad
ahmed
ahora
ahorros
ai
aiacciu
aibar
aiga
aigrefeuille
aigu
aigua
aiguabarreig
ailleurs
aimant
aimants
aime
aimor
ain
aina
ainas
aineto
ainielle
ainsa
ainsi
aintro
ainzo
air
airbus
aircraft
aire
aires
airlines
airways
ais
aise
aislada
aisladas
aislamiento
aislata
aislaus
aisne
ait
aitona
aixo
ajax
ak
aka
akal
aki
akira
al
ala
alabama
alabastro
alabez
alaco
aladrada
aladre
aladro
alago
alain
alamanico
alamans
alameda
alamos
alan
alano
alans
alarco
alarico
alas
alaska
alata
alava
alave
alavesa
alavetz
alavez
alazet
alazeta
alazetal
alazetalment
alazetals
alazetando
alazetato
alazeto
alazetz
alba
albacet
albacete
albaida
albalat
albandona
albandonan
albandonando
albandonar
albandonata
albandonato
albandonau
albandono
albandonoron
albane
albanesa
albaneses
albania
albans
albany
albarraci
albarrazi
albas
albe
albelda
albella
albentosa
albera
alberche
alberga
albergue
alberit
albero
albert
alberta
alberti
alberto
albertson
albi
albichenses
albin
albo
alborto
albrecht
album
albums
alca
alcala
alcalate
alcalde
alcaldes
alcalins
alcan
alcanadre
alcance
alcanyiz
alcanz
alcanza
alcanzar
alcarra
alcarria
alchafari
alchama
alchamiada
alchebra
alcher
alcherez
alcheria
alchezira
alchub
alcofeya
alcohol
alcoholicas
alcoi
alcolea
alcoleya
alconchel
alcora
alcoraz
alcordo
alcorisa
alcover
alcu
alcubierre
alcudia
alcuerda
alcuerde
alcuerdo
alcuerdos
aldea
aldeanueva
aldeas
aldehuela
aldeya
aldeyas
aldeyuela
aldo
aldrich
ale
aleanr
alec
alegori
alegre
alegri
aleixandre
aleixandri
aleixandro
aleixo
alejandro
alejo
aleksander
aleksandr
alema
aleman
alemana
alemanas
alemania
alemans
alemanya
alero
ales
alessandro
aleta
aletas
aleutiano
alex
alexander
alexandra
alexandre
alexis
alexo
aleyacio
aleyacions
alfa
alfabetico
alfabeto
alfabetos
alfachari
alfalz
alfama
alfambra
alfame
alfara
alfareri
alfaro
alfasilabario
alfinde
alfons
alfonso
alfoz
alfred
alfredo
algaire
algar
algarabi
algars
algas
algi
algorfa
algunas
alhama
ali
aliaga
alianza
alianzas
alias
aliata
aliatas
aliato
aliatos
aliau
aliaus
alica
alicant
alicante
alicas
alice
alicia
alien
alier
alif
alifonso
aliga
alighieri
align
alignbars
alimenta
alimentacio
alimentan
alimentar
alimentaria
alimento
alimentos
aliniacio
alins
alio
alionor
aliste
alive
aljarafe
all
alla
allah
allais
allan
allande
alle
allemandes
allen
allende
allepuz
aller
alley
alli
alliance
allmovie
allo
allora
alloza
allrovi
allue
allueva
allyson
alma
almadazenamiento
almadazenar
almagazenar
almagro
almansa
almanzor
almanzora
almarchal
almarchals
almas
almaza
almenar
almenara
almendra
almendras
almendrera
almendreras
almendro
almendrons
almeri
almeriense
almirant
almochuel
almodo
almofalla
almoga
almolda
almonacid
almonecir
almora
almorabet
almorabetz
almozara
almuade
almuades
almude
almunia
alnus
alo
aloda
alofonos
alois
alone
alonso
alors
aloze
alpartato
alpes
alpha
alphonse
alpi
alpina
alpinas
alpinista
alpuent
alque
alqueri
alquezra
alquimista
als
alsacia
alsina
alt
alta
altai
altament
altar
altaria
altarias
altas
alte
altera
alteracio
alteraciones
alteracions
alteras
alterna
alternan
alternancia
alternando
alternativa
alternativament
alternativas
alternativo
altero
altes
altipla
altitut
altman
alto
altoarago
altoaragone
altoaragonesa
altoaragonesas
altoaragoneses
altochermanicas
alton
altona
altorrico
altos
altra
altras
altro
altros
altstadt
altura
alturas
alufrar
aluminio
alumno
alumnos
alusio
aluvial
aluvials
alvar
alvaro
alveolar
alves
alviolar
always
alwin
alytus
alza
alzan
alzar
alzheimer
alzo
am
ama
amadeus
amagar
amagau
amaiur
aman
amana
amanada
amanadas
amanamiento
amanar
amanata
amanatas
amanato
amanatos
amanau
amanaus
amanda
amaneix
amaneixe
amaneixen
amaneixendo
amaneixer
amaneixio
amaneixioron
amanix
amanixen
amanixio
amanixioron
amar
amaral
amariella
amariellas
amariello
amariellos
amarilla
amateur
amazon
amazonas
amb
ambas
ambel
amber
ambient
ambientadas
ambiental
ambientals
ambientata
ambiente
ambients
ambito
ambitos
ambos
ambre
ame
ameche
amelia
amellera
amenaza
amendi
amenista
amenistaba
amenistan
amer
america
american
americana
americanas
americano
americans
americas
amerindias
amerindios
ametlla
amfibios
ami
amico
amiens
amiga
amigo
amigos
amillorar
amiram
amistat
amistoso
amistosos
amo
amor
amore
amori
amortar
amos
amostran
amostrando
amostranza
amostranzas
amostrar
amostrato
amostro
amount
amour
amparo
ampla
amplament
amplaria
amplas
amplia
ampliacio
ampliament
amplio
amplo
amplos
amplura
amposta
amprada
ampradas
amprau
ampraus
ampre
amprens
ampres
ampro
ampurias
amsterdam
amt
amuestra
amuestran
amy
an
ana
anado
anagnina
anagrama
anal
anales
anali
analises
analitica
analochi
anals
analysis
anarquismo
anarquista
anarquistas
anas
anastasia
anastasio
anatidae
anatole
anatolia
anatolians
anatomi
anatomista
anatomy
anau
anaya
anayet
anca
ancestral
ancha
anchel
anchels
anchiospermas
anchu
ancien
ancient
ancochea
ancona
and
andaluces
andaluci
andalus
andalusi
andaluz
andaluza
ande
anders
andersen
anderson
andes
andilla
andino
andolz
andorra
andrade
andre
andrea
andreas
andrei
andreu
andrew
andrews
android
andronico
andy
ane
anento
aneto
anexio
anexiona
anexionan
anexionar
anexiono
anexo
anfibios
ang
ange
angel
angela
angeles
angelina
angelo
angels
anger
angers
angie
anglaterra
angle
angles
anglesa
anglesas
angleses
anglesola
anglet
anglicana
anglicismos
anglico
angllo
anglo
anglos
anglosaxona
anglosaxons
angola
angry
angu
anguiano
anguila
anguita
angular
angulo
angus
angusto
anhalt
ani
aniello
aniellos
anima
animacio
animal
animales
animalia
animals
animatos
animaus
anime
animo
anita
aniversario
ankara
ann
anna
anne
annette
anni
annie
anno
ano
anoia
anonima
anonimo
anos
anotadors
another
anoto
anouk
anoya
anque
ans
ansa
anselmo
anseriformes
anso
ansotano
ant
antarctico
antarctida
ante
antecedents
antena
antenas
anterior
anterioridat
anteriorment
anteriors
antes
anthony
anti
anticlinal
antiga
antigament
antigas
antigo
antigos
antigu
antigua
antiguas
antiguedat
antiguidat
antiguo
antiguos
antihiatica
antillas
antillo
antima
antioqui
antioquia
antiparte
antiparti
antipasau
antipasaus
antis
antisemitismo
anto
antoine
antolochi
antologi
anton
antoni
antonia
antonio
antonioni
antrim
antropolochi
antropologo
antropologos
antroponimia
antroponimo
antroponimos
ants
anual
anuals
anuario
anubar
anuncia
anuncio
anura
anuros
anvers
anverso
anvista
anvistas
any
anyada
anyadas
anyade
anyadindo
anyadir
anyal
anyalment
anyals
anyata
anyatas
anyisclo
anyo
anyos
anys
anza
anzoa
ao
aoiz
aon
aoraki
aosta
ap
apache
apanyar
aparato
aparatos
apareix
apareixe
apareixeba
apareixen
apareixer
apareixio
apareixioron
apareixito
aparello
aparellos
aparent
aparentment
aparicio
aparicions
apariencia
aparixe
apartamentos
apartheid
ape
apedacato
apedecato
apelativo
apelativos
apellido
apellidos
apellito
apellitos
apelliu
apellius
aperte
apertura
apes
apichat
apicultura
aplega
aplego
aplica
aplicable
aplicacio
aplicacions
aplicada
aplicadas
aplican
aplicando
aplicar
aplicata
aplicato
aplicau
aplico
apo
apocalypse
apocheu
apocopa
apocope
apoderar
apodero
apollo
apolo
aporta
aportacio
aportacions
aportan
aporto
apostol
apoyo
apple
apre
apreba
aprebacio
aprebo
aprender
aprendio
aprendiz
aprendizache
apresta
aprevenir
april
aprobacio
aprobo
aprofitando
aproveita
aproveitando
aproveitar
aproveito
aproveitoron
aproximacio
aproximadament
aprueba
aprueban
apuntes
aqu
aquario
aquaticas
aquatico
aquaticos
aquel
aquell
aquella
aquellas
aquello
aquells
aquemenida
aqui
aquila
aquiles
aquilue
aquino
aquisgra
aquita
aquitania
aquitans
ar
ara
arabe
arabes
arabia
arabica
arabiga
arabismo
arabismos
arabizacio
arad
arago
aragon
aragonario
aragone
aragones
aragonesa
aragonesas
aragonesasi
aragonese
aragoneses
aragonesismo
aragonesismos
aragonesista
aragonesoparlant
aragonesoparlants
aragorn
aragu
aragua
arainas
arainfo
aralar
arambre
arameu
aramo
aran
arana
aranda
arandiga
arane
aranguta
aranjuez
aranyonet
aras
arasanz
arba
arbe
arbeiterpartei
arbitrache
arbitro
arbitros
arbol
arbols
arbor
arborea
arborio
arbuckle
arbue
arbustivo
arbusto
arbustos
arc
arca
arcada
arcadas
arcai
arcaica
arcaico
arcaine
arcas
arcebispato
arcebispau
arcebispe
arcebispes
arcega
archainbaud
archel
archelia
archent
archenti
archentina
archentino
archentins
archibald
archidiocesi
archiducato
archiduque
archie
archila
archilas
archipielago
archipielagos
architecture
archivato
archive
archives
archivo
archivos
arcipestrau
arcipestraus
arciprestazgo
arco
arcos
arctico
arctos
arcusa
ard
ardea
ardenas
ardescha
ardisa
ardo
are
area
arellano
arena
arenal
arenas
arend
arengue
arenillas
areno
arenoso
arens
areny
arenys
ares
arezzo
arga
argele
argensola
argentina
argentino
arges
argo
argonautas
args
argu
argualas
arguedas
arguis
argumento
argumentos
ari
aria
ariane
arias
aridas
arido
aridos
arie
ariel
aries
ariesta
arin
arinyo
aristide
aristo
aristocracia
aristocrata
aritmetica
arizkun
arizona
arkansas
arkin
arlanza
arles
arlet
arm
arma
armada
armadas
armamento
armand
armando
armanhac
armantes
armas
armata
armatas
armato
armatos
armenda
armenia
armenio
armenios
armenya
armesto
armin
armisticio
armita
armor
armored
armstrong
army
arn
arna
arnal
arnas
arnau
arnaud
arne
arnedo
arnold
arnulfo
aro
aromas
aromaticas
aromaticos
around
arounova
arpa
arpajon
arpita
arpitania
arque
arqueolo
arqueolochi
arqueolochica
arqueolochicas
arqueolochico
arqueolochicos
arqueologi
arqueologo
arqueologos
arquero
arquette
arquitecto
arquitectonicas
arquitectonico
arquitectonicos
arquitectos
arquitectura
arrabal
arrats
arre
arredol
arredols
arrianismo
arriba
arribada
arriban
arribando
arribar
arribas
arribau
arribe
arribo
arriboron
arriel
arro
arrondiment
arrondissement
arrostanh
arroya
arroyo
arroyos
arroz
arrudi
arruma
arse
arsenal
arseni
arsenio
art
artal
arte
artemis
arteria
arterial
arterias
artes
artesa
artesani
artesans
arteta
arthur
arti
artica
article
articles
articlo
articlos
artics
articula
articulacio
artieda
artificial
artificialment
artificials
artiga
artigot
artilleri
artist
artista
artistas
artistica
artisticament
artisticas
artistico
artisticos
arto
artois
artropodos
arts
artsakh
artu
artur
arturo
aruba
arxiv
arzobispo
as
asa
asaber
asalto
asamblea
asambleya
asambleyas
asano
asasinato
asasinatos
asasinau
asayo
ascape
ascaso
ascellas
ascendencia
ascensio
ascenso
ascuitar
asegura
asegurar
asembleya
asentamiento
asentamientos
ases
asesinato
asesinau
asesinaus
asesor
asfaltada
ash
ashby
ashley
asi
asia
asiago
asiatica
asiaticas
asiatico
asiaticos
asienta
asignato
asimilacio
asimilando
asimilar
asimiloron
asimov
asinas
asinasmesmo
asirians
asistencia
asistent
asistents
asistenzia
asistenzias
asistio
asistir
asner
aso
asocia
asociacio
asociacions
asociada
asociadas
asociar
asociata
asociatas
asociato
asociatos
asociau
asociaus
asp
aspa
aspe
aspecto
aspectos
aspera
asperaba
asperanza
asperar
aspiracio
aspirada
aspres
aspro
assembleoutput
asso
associacio
association
ast
asta
astaire
astarac
asteroid
asteroide
asteroides
asti
astil
astor
astorga
astra
astral
astrofisico
astrolochi
astronauta
astronautas
astronautica
astronomi
astronomica
astronomico
astronomicos
astronomo
astronomos
astronomy
astu
astur
asturia
asturiana
asturiano
asturians
asturias
asturleyone
asturs
asume
asumio
asumpcio
asuncio
asuntos
at
ata
atac
ataca
atacan
atacar
ataco
atacoron
atalaya
ataque
ataques
atare
ataria
atatu
ate
atea
ateca
atemperadas
atena
atenas
atencio
atentato
atentau
aterrizache
aterrizar
athletic
athletics
atienza
atila
atlanta
atlantic
atlantica
atlantico
atlanticos
atlas
atle
atleta
atletas
atletica
atletismo
atmosfera
atmosferica
atmosferico
ato
atomica
atomico
atomicos
atomo
atomos
atona
atonas
atono
atorga
atorgau
atorgo
atp
atr
atra
atraccio
atraccions
atractivo
atractivos
atras
atraye
atrayer
atribuita
atribuito
atribuye
atribuyen
atro
atros
attenborough
attr
atura
aturada
aturaderos
aturar
ature
aturo
au
aube
auckland
aud
aude
audiard
audiencia
audio
audiovisual
audiovisuals
auditorio
audrey
auf
augmento
augsburg
augua
auguas
auguaviva
august
augusta
auguste
augusto
augustus
aujourd
aula
auloro
aumenta
aumentan
aumentando
aumentar
aumento
aumont
aun
aunque
aura
aure
aurelia
aurelio
auri
auricla
auriclas
aurora
aus
ausencia
aush
aushesa
aussi
austin
australia
australian
australiana
australiano
australians
australis
austrasia
austria
austriaca
austriaco
austriacos
austro
autant
autariba
autentica
autentico
auteuil
auto
autobiografi
autobu
autobuses
autoctona
autoctonas
autoctono
autoctonos
autodeterminacio
automatica
automaticament
automo
automobil
automobilismo
automobilistico
automobils
automovilistico
autonoma
autonomas
autonomi
autonomica
autonomicas
autonomico
autonomo
autonomos
autopista
autopistas
autor
autora
autores
autoridat
autoridatz
autorizacio
autors
autos
autovi
autre
autres
autry
autual
auvernia
aux
auxiliar
auxiliars
av
ava
avairon
avais
avant
avantalla
avaros
ave
avec
avellaneda
avellino
avena
avenida
avenidas
avenita
aventar
aventura
aventuras
aves
avia
aviacio
aviadors
aviation
aviento
avila
avile
avinyo
avio
avions
aviv
avoir
avons
avril
avta
award
awards
away
axel
axial
axioma
axiomas
axkenazi
ay
ayala
ayer
ayerbe
ayerbense
ayllo
ayo
ayora
ayres
ayuntamiento
az
aza
azagra
azan
azar
azara
azcona
azerbaicha
azeri
azincourt
azna
aznar
azor
azores
azov
azteca
azuara
azul
azuls
azur
b
ba
babel
babilonia
babor
baby
bacall
bach
baches
bachilleraro
bachillerato
baci
back
backgroundcolors
bacon
bacterias
bactria
bacu
bad
badai
badajoz
badalona
baden
badenas
badi
badia
baduls
baells
baena
bafta
bagaudas
bagdad
bages
baggins
bagu
baguena
bahamas
bahi
bahia
bahrein
bai
baigorri
bailar
bailari
bailarina
bailarins
baile
bailes
bailey
baili
bailo
bainter
baird
bairische
baish
baisha
baix
baixa
baixaba
baixaban
baixada
baixan
baixando
baixant
baixants
baixar
baixas
baixata
baixista
baixkir
baixkiria
baixo
baixorribagorzano
baixos
baja
bajo
baker
bal
balaguer
balay
balbastro
balcanica
balcanicas
balcans
balcetz
balco
baldui
baldwin
bale
balear
balears
balkans
ball
ballari
ballena
ballenas
ballester
ballesteros
ballesti
ballet
balma
balneyario
balo
balompie
baloncesto
balonma
balonmano
balsa
balsam
balsete
balta
baltasar
baltica
baltico
balticos
baltimore
baluport
bamberg
bambolla
bambu
ban
bana
banasto
banato
banca
banco
bancos
bancroft
band
banda
bandalie
bandas
bandera
banderas
bandido
bando
bandos
bang
bangkok
bangladesh
banja
bank
banks
bano
banska
bantu
banu
banyeras
banyeres
banyo
banyos
banzo
bao
baptismo
baptista
baptiste
baptizato
baque
baquetas
bar
bara
barack
barajas
baralla
barallas
barana
baranas
barato
barba
barbados
barbara
barbaras
barbaros
barbarroya
barbastro
barbenuta
barber
barbera
barbra
barbuda
barbunyals
barca
barcabo
barcas
barcelo
barcelona
barcelone
barco
barcos
bardaixi
bardata
bardaxi
bardem
bardenas
bardo
bari
barinas
bario
baritono
barker
barnes
baro
baroja
baron
baroni
barons
barra
barrabe
barraca
barracas
barrachina
barral
barranc
barranco
barrancos
barrancs
barras
barrau
barrera
barrett
barrie
barrio
barrios
barro
barroca
barroco
barros
barrosa
barry
barrymore
bart
barta
barthe
barthelmess
bartolome
bartolomeo
bartolomeu
baruque
barza
barzas
bas
basa
basaba
basada
basadas
basal
basan
basando
basara
basas
basata
basatas
basato
basatos
basau
basaus
basca
bascas
basco
bascos
base
based
bases
basic
basica
basicament
basicas
basico
basicos
basil
basilea
basilica
basilicata
basilio
basket
basketball
basketbol
baskonia
baso
basque
bass
basse
bastante
baste
bastes
bastida
bastilla
bastio
bastos
bat
batalla
batallas
batallero
batallo
batans
batea
bateri
bates
bath
batista
batlle
bats
batters
battista
battle
batua
baturra
bautista
bavera
baverana
baverans
baxa
baxo
baxter
bay
bayas
bayer
bayern
bayeu
bayeux
bayo
bayona
bayreuth
baza
baztan
bb
bbc
bbl
bc
bd
bdfutbol
be
beach
bean
bear
bearn
bearne
beat
beatles
beatriz
beatty
beau
beaucoup
beaufort
beaumont
beautiful
beauty
beaver
bebe
beber
bebida
bebidas
bec
bechetals
beck
becker
becquerel
bedfordshire
been
beery
before
bega
begley
behavior
behind
bei
beijing
being
beirut
bel
bela
belaltras
belaltros
belarra
belarrusia
belarruso
belarrusos
belas
belatras
belatro
belatros
belchica
belchit
belchite
bele
belfast
belfort
belga
belgas
belgrado
belica
belico
belize
beljavskij
bell
bella
bellacosa
bellas
belle
bellestar
belleza
belli
bellmunt
bello
bellos
bellostas
bells
belluno
belmondo
belmont
belmonte
belo
belorruso
belos
bels
belseta
belsue
beltra
belu
beluna
belunas
beluns
belver
ben
bena
benasque
benasquesa
benasquesas
benatanduz
benavarri
benavent
benavente
bend
bendicio
benedek
benedet
benedetti
benedict
benedicto
beneficio
beneficios
benes
benet
benfica
bengala
bengali
beni
benicio
benidorm
benifaza
benigni
bening
benito
benjami
benjamin
bennett
benny
benz
benzina
ber
beranui
berato
berbegal
berber
berberi
berbers
berche
berchtesgaden
berchtesgadener
berdu
berenguer
beresford
berg
berga
bergamo
bergedorf
bergen
berger
berges
bergisch
bergman
bergote
bergua
bergueda
bergusa
beric
bering
berkeley
berkshire
berlanga
berli
berlin
bermeu
bermudas
berna
bernabe
bernabeu
bernad
bernadette
bernadotte
bernal
bernard
bernardino
bernardo
bernat
bernhard
bernhardt
berrelle
berri
berro
berrocal
berroy
berrueco
berry
bert
bertolomeu
bertolucci
bertrand
besanc
besarabia
besco
besers
beso
besora
besson
best
bestia
bestiar
bestias
bestue
bet
beta
bete
betis
bette
better
betty
between
betz
beverly
beya
beyond
bezas
bezeit
bezirk
bf
bg
bi
bia
bianchi
biar
biarche
biarge
biarn
biarne
biarnesa
biarritz
bibcode
biblia
bibliografi
bibliografia
bibliografico
biblioteca
bibliotecas
bibliothe
bichuesca
bicicleta
bicicletas
bickel
bicort
bida
bidasoa
bie
biel
biella
biello
bielorrusia
bielsa
bien
bienes
bienestar
biens
bienvenido
biera
bierzo
biescas
big
bigo
bigornia
bigorra
bigorre
bihac
bihan
bil
bilbao
bilbau
bilbilis
bilbilitanos
bilbo
bildu
bilingu
bill
billancourt
billboard
billet
billetz
billie
billons
billy
bils
bin
binario
binazeit
binazet
bine
bing
binie
binoche
binominal
bio
biodiversidat
biogra
biografi
biografia
biography
biolochi
biolochica
biolochicas
biolochico
biolochicos
biologi
biologo
biologos
biology
biomoleculas
bioquimica
bioquimico
biosfera
biota
biotecnolochi
biquipedia
bir
bird
birds
birmania
birmingham
birth
bis
bisagorri
bisbal
biscarrue
bisei
bishop
bismarck
bismuto
bison
bispal
bispato
bispau
bispe
bispes
bissau
bit
bitat
bits
bizancio
bizanti
bizantina
bizantins
bize
bizkaia
bjo
bla
black
blade
blake
blanc
blanca
blancanieu
blancas
blanche
blanchett
blanco
blancos
blandick
blanes
blas
blasco
blaskowitz
ble
blecua
blesa
bleu
blica
blico
blinca
blinco
blind
blinde
bloch
blog
blogs
blogspot
blois
blood
bloom
bloque
bloques
bloqueyo
blu
blue
blues
blume
bmod
bmw
bo
boa
bob
bobby
boca
bocables
bocabulario
bocas
bock
bodega
bodegas
bodiello
body
boe
boeing
boga
bogarde
bogart
boggiero
bogota
bohemia
bohr
boi
boira
boiras
bois
bol
bola
bolas
bolchevique
bolcheviques
bolea
boleti
boleya
boli
bolivia
bolo
bologna
bolonia
bolsa
bolsas
boltan
boltanya
bom
bomba
bombai
bombardero
bombarders
bombardeyo
bombardeyos
bombas
bombers
bombo
bombos
bon
bona
bonansa
bonaparte
bond
bondi
bones
bonet
bonifacio
bonn
bonnard
bonnie
bono
bont
book
books
boom
booth
boquera
boquinyeni
borao
borau
borbo
borbons
borcha
borda
bordalba
bordas
borde
border
bordes
bordeus
bordo
borg
borges
borgnine
borgonya
borgonyons
borguil
borina
boris
borja
borjanos
born
boro
borobia
borrador
borre
borrell
borruel
bos
bosar
bosch
bosforo
bosnia
bosniaco
bosniacos
bosnians
bosnio
bosque
bosques
boston
bot
bota
botanica
botanico
botanicos
botas
botaya
botella
botellas
boti
botica
boticario
botiga
botigas
boto
botorrita
botswana
bottom
boulevard
boulogne
bounty
bourg
boveda
bow
bowie
box
boxeyador
boxeyo
boy
boyd
boyer
boyle
boys
bozo
bp
br
bra
brabant
brad
bradford
bradley
brady
braga
bragg
bramar
bran
branagh
branca
brancas
branch
brandemburgo
brandemburgue
brandenburgo
brando
brandon
bras
brasil
brasilenya
brasilenyo
brasilenyos
bratislava
braulio
braun
brava
brave
bravo
brazato
brazo
brazos
bre
break
breca
brecha
bregas
breisgau
brel
bremen
brenca
brenda
brendan
brennan
brent
bres
brescia
breslau
bresse
bresson
bressuire
brest
bretanya
breto
breton
bretona
bretons
breu
breument
breus
breve
breviarium
bria
brian
brica
brice
bride
bridge
bridgeport
bridges
bridget
brief
brien
brigada
brigadas
brigade
bright
brightblue
brigitte
brilant
brilants
brillant
brillas
brinca
brincadors
brincar
brinco
brincos
bristo
britain
britania
britanica
britanicas
britanico
britanicos
britannica
british
britt
brittany
briviesca
brno
bro
broadway
broderick
brody
broken
brolin
bronce
bronchales
bronson
bronte
bronx
bronze
brooklyn
brooks
bros
brot
brother
brothers
broto
broughton
brown
browne
broz
bru
bruballa
bruce
bruello
bruixa
bruixas
bruixeri
bruixo
brun
brunei
brunet
brunete
brunetto
bruno
brunswick
bruselas
bruto
bryan
brynner
bsh
bu
bubierca
bubo
bucal
bucarest
buchac
buck
buckinghamshire
buco
bucovina
bucuesa
buda
budapest
budismo
budista
budistas
buega
buegas
buei
bueis
buen
buena
buenas
buenaventura
bueno
buenos
buenya
buerda
buesa
buetas
bufa
bufador
buffalo
bufo
bug
buie
buil
building
buisa
buixaruelo
buixo
bula
bulbo
bulbuent
bulgara
bulgaria
bulgaro
bulgaros
bull
bullir
bullock
bun
bund
bundesliga
bundestag
bunyol
bunyuel
burbaguena
burbank
burch
burcharaloz
burdeus
bureau
bureba
bureta
burg
burgase
burgenland
burgess
burgo
burgos
burgueses
burguesi
burgundio
burgundios
burillo
burke
burkina
burl
burning
burns
buro
burocracia
burr
burro
burros
burstyn
burt
burton
burundi
buruzko
bus
busa
busby
busca
buscan
buscando
buscar
bush
business
buskerud
buster
busto
but
buta
buteo
butler
buxo
by
byrne
byron
c
ca
caan
caba
cabaixo
cabal
cabalgamiento
caballer
caballeri
caballero
caballeros
caballers
caballo
caballos
caballud
cabalto
caban
cabana
cabanes
cabanyas
cabanyera
cabaret
cabe
cabecera
cabello
cabeza
cabezas
cabezo
cabezos
cabezutos
cabieto
cable
cabo
cabos
cabra
cabral
cabrera
cabrero
cabriuel
cacau
cache
cacho
cada
cadagu
cadaguna
cadena
cadenas
cadiera
cadieras
cado
cadret
caduca
caducifolias
caen
caesar
caesaraugusta
cafe
cafeteri
cage
cagney
cai
caicos
caima
caine
caire
cairo
caita
caito
caixa
caixas
caixicars
caixico
caixicos
caixigar
caixigo
caixmir
caja
cajal
cal
cala
calabria
calaceit
calagorra
calais
calamocha
calanda
calandario
calandra
calandreta
calasanz
calatayu
calatayud
calatorau
calatrava
calazeit
calcedonia
calcena
calcero
calcico
calcil
calcina
calcio
calcolitico
calcula
calcular
calculo
calculos
calcuta
caldera
caldero
calders
caldes
caldri
cale
caleba
caledonia
calendario
calendata
calendatas
calentar
calera
calheta
cali
calidas
calidat
calido
calidos
calient
calients
califa
califato
calificativos
california
caligula
calio
calisto
call
calle
called
calleia
calles
calma
calmucos
calo
calocybe
calomart
calonche
calor
calpe
calsina
calsinera
calsineras
calsinosas
calsinoso
calsinosos
calso
calva
calvados
calvario
calvera
calvin
calvo
calzada
calzas
calzo
cama
camachibosa
camacho
camanyas
camara
camaras
camarasa
camarena
camariellas
camaro
cambea
cambean
cambeando
cambear
cambeo
cambeos
cambeya
cambia
cambian
cambiando
cambiar
cambiato
cambiau
cambio
cambions
cambioron
cambios
cambo
cambocha
cambra
cambrai
cambras
cambre
cambridge
cambridgeshire
came
camellos
cameo
camera
cameron
cameros
cameru
cami
camille
camillo
camilo
camin
caminar
caminho
camino
caminos
caminreal
camins
camisa
camiseta
camo
camp
campamento
campan
campana
campanal
campanar
campanas
campania
campanue
campanya
campanyas
campbell
campeo
campeonato
campesins
campidanu
campiello
campillo
campin
campinya
campio
campiona
campionato
campionatos
campions
campo
campoo
camporretuno
campos
campus
camus
can
cana
canada
canadiense
canadienses
canal
canales
canals
canaria
canarias
canario
canas
canasta
canberra
canceller
cancer
cancia
canciller
cancilleri
cancio
cancionero
canciones
cancions
cancro
candamu
candanchu
candarenas
candelera
candespina
candidata
candidato
candidatos
candidatura
canela
canellas
canet
caneto
canfra
canfranc
cangas
cangrillo
cangues
canidos
caniella
canigo
canis
cannabis
cano
canon
canonico
canonizato
cans
canta
cantaba
cantabria
cantabrica
cantabro
cantaire
cantaires
cantal
cantals
cantan
cantando
cantante
cantar
cantare
cantari
cantas
cantata
cantato
cantautor
cantautora
cantaviella
cante
cantera
canteras
canterbury
cantidat
cantidatz
cantimplano
cantinflas
canto
canton
cantonada
cantons
cantos
canvas
canya
canyada
canyimo
canyizar
canyo
canyons
canyos
canzoni
caos
cap
capa
capable
capables
capaces
capacidat
capacidatz
capacitancia
capana
capas
capaz
cape
capella
capeto
capetos
capeza
capi
capiella
capiellas
capilars
capita
capital
capitalidat
capitalismo
capitalista
capitals
capitol
capitulacio
capitular
capmany
capote
capra
capricorno
capsula
captain
captura
capturar
car
cara
caracal
caracas
caracter
caracteri
caracteristica
caracteristicament
caracteristicas
caracteristico
caracteristicos
caracteriza
caracterizacio
caracterizan
caracterizato
caracterizau
caracterizaus
caracters
caragol
caragols
caras
carbo
carbonato
carbonell
carbonera
carboni
carbonio
carcasona
carden
cardenal
cardenals
cardiaco
cardiff
cardinal
cardinale
cardinals
cardo
cardona
care
carelia
carey
carga
cargar
cargas
cargo
cargos
caribe
caridat
carin
carintia
carinyena
carl
carla
carles
carlismo
carlista
carlistas
carlo
carlos
carlota
carmelo
carmen
carmine
carmona
carnaval
carnavals
carne
carnes
carnicer
carniola
carnivora
carnivoro
carnivoros
carnuz
caro
carol
carole
carolina
carolinchia
carolinchio
carolinchios
caroline
carolyn
caron
carota
carpatos
carpenter
carrasca
carrascal
carrascals
carrascas
carrasco
carrascosa
carrera
carreras
carreter
carretera
carreteras
carretero
carriar
carrie
carril
carrillo
carrils
carro
carrodilla
carroll
carros
carson
carta
cartachena
cartachineses
cartagena
cartago
cartas
cartel
carter
cartier
cartillas
cartografi
cartografo
cartuixa
cartulario
carvalho
cary
cas
casa
casablanca
casada
casademont
casado
casagemas
casal
casals
casamiento
casan
casanova
casar
casas
casata
casato
casau
casaus
casbas
casca
cascada
cascallo
cascant
casco
cascos
case
caseri
cases
caseta
casetas
cash
casi
casiella
casiellas
casillas
casimiro
casino
caso
casos
casp
caspe
caspia
caspolino
cassavetes
cassel
cassidy
cassini
cast
casta
castafiore
castan
castanesa
castanet
caste
castejo
castel
castell
castella
castellan
castellana
castellanas
castellaneta
castellani
castellanismo
castellanismos
castellanizacio
castellanizada
castellanizato
castellanizau
castellanizo
castellanleyone
castellanlione
castellano
castellanomanchego
castellanoparlants
castellanos
castellans
castellar
castellfollit
castellnou
castello
castellot
castelltort
castelsera
castiel
castiella
castiello
castiellos
castigaleu
castigo
castilhon
castilla
castillejo
castillo
castillos
castillosnet
castle
casto
castras
castrillo
castro
castrocol
castropol
castrum
cat
cata
catala
catalan
catalana
catalanas
catalanes
catalanismo
catalanismos
catalanoparlant
catalanoparlants
catalans
catalina
catalogatos
catalogo
catalun
catalunya
catania
catarina
cataros
catch
cate
cateau
catedra
catedral
catedratico
catedraticos
categori
categoria
categorias
categorie
category
catena
caterina
cathedral
catherine
catholic
cato
catolica
catolicas
catolicismo
catolico
catolicos
catorce
caucas
caucasicas
caucaso
caudal
caudet
caudiel
causa
causada
causals
causan
causando
causar
causas
causata
cause
causo
caussols
cautare
cautiva
cautivada
cautivadas
cautivan
cautivar
cautivo
cautivos
cauz
cava
cavero
cavia
cavidat
cavidatz
caye
cayen
cayendo
cayer
cayetano
cayida
cayio
cayita
cayo
cayoron
caza
cazacos
cazadors
cazale
cazan
cazaquista
cazar
cazas
cazata
cazataire
cazataires
cb
cc
ccd
cd
cdot
cdu
ce
cebolla
cebollas
cebria
ceca
cecas
cecil
cecilia
cede
cedeba
ceder
cedio
cedioron
cedito
cediu
cedric
cedriellas
cee
ceica
cela
celadas
celda
celebra
celebraba
celebraban
celebracio
celebracions
celebrada
celebradas
celebran
celebrar
celebrata
celebratas
celebrato
celebratos
celebrau
celebraus
celebre
celebres
celebro
celebroron
celentano
celeste
celestes
celia
celindro
cella
celle
celsa
celsius
celta
celtas
celtibera
celtiberia
celtiberica
celtibero
celtibers
celtic
celtica
celtico
celtics
celtismo
celtismos
celula
celular
celulars
celulas
cemento
cena
cenisa
cenisas
cenisosa
censo
censos
censura
census
cent
centauri
centelles
centenar
centenario
centenars
center
centimetros
centra
centrada
central
centrals
centran
centrata
centrau
centre
centro
centroafricana
centroamerica
centrocampista
centros
century
cepo
cequia
cera
ceramica
cerca
cercana
cercanas
cercani
cercano
cercanos
cercito
cerclo
cerclos
cercuito
cercuitos
cercular
cerda
cerdanya
cerdanyola
cerdenya
cerebral
cerebro
ceremonia
ceremonial
ceremonias
ceremonioso
cerenya
cerenyo
ceres
ceresa
ceret
cerezo
cerial
cerials
cerimonioso
cerolla
cerollera
cerrada
cerrar
cerro
cerros
certain
certamen
certeza
cerval
cervantes
cervello
cervera
cerveza
cervi
cervia
cervus
ces
cesa
cesare
cesio
cesis
cetacios
cetina
cette
ceuta
cevils
cf
ch
cha
chabal
chabalambre
chabali
chabalins
chabalo
chabaloyas
chabier
chabierre
chabrol
chaca
chacetania
chacimiento
chacimientos
chad
chadra
chae
chagatai
chaime
chakra
chalamera
chamaica
chamberlain
chambers
chaminera
chamineras
chamorro
champion
champions
championship
chan
chana
chandler
chaney
chang
change
chano
chanovas
chaparral
chapeto
chapitels
chaplin
chapo
chapone
chaponesa
chaponeses
chaque
chaqueses
chaqueta
char
characteribus
charadriiformes
charanta
chardi
chardineri
chardins
charente
charge
charisse
charita
charlemagne
charleroi
charles
charleston
charley
charlie
charlois
charlotte
charlton
charo
charra
charraba
charraban
charrada
charradas
charradors
charran
charrando
charrar
charras
charrata
charratas
charrato
charrau
charraus
charro
chars
chasa
chase
chaso
chasse
chat
chava
chavalina
che
cheada
checa
chechenia
chechens
check
checo
checos
checoslovaco
checoslovaquia
chefe
chefes
chelada
cheladas
chelar
chelatas
chelau
chelera
cheleras
chelo
chelsea
chelva
chema
chemical
chemin
cheminada
cheminis
chemistry
chen
chenealochi
chenera
cheneracio
cheneracions
cheneral
cheneralidat
cheneralidatz
cheneralizacio
cheneralizada
cheneralizar
cheneralizau
cheneralizo
cheneralment
chenerals
cheneran
chenerando
chenerar
chenerica
chenerico
chenero
cheneros
chenesi
chenetica
chenetico
cheneticos
chenio
chenitivo
chenocidio
chenova
chenove
chenoveses
chens
chent
chenta
chentilicio
chentilicios
chents
chenui
chenullo
cheodesia
cheodesico
cheodesicos
cheografi
cheografia
cheografica
cheograficament
cheograficas
cheografico
cheograficos
cheografo
cheografos
cheolochi
cheolochica
cheolochicament
cheolochicas
cheolochico
cheolochicos
cheologo
cheologos
cheometri
cheometrica
cheomorfolochi
cheorchia
cheorchiana
cheorchians
cheosinonimo
chequia
cher
chera
cherbe
chermana
chermanastro
chermania
chermanica
chermanicas
chermanico
chermanicos
chermanismos
chermano
chermans
cheroncio
cheronimo
cherundio
cherundios
cherusale
cherusalem
chesa
cheshire
cheso
chesos
chesta
chestacio
chester
chestio
chestionar
chestions
chesu
chesucristo
chesuita
chesuitas
chet
chevalier
chez
chi
chiara
chibraltar
chibuti
chica
chicago
chicas
chico
chicolate
chicorro
chicorrona
chicorronas
chicorrons
chicos
chicot
chicota
chicotas
chicotz
chieftains
chiemgau
chieming
chiemsee
chien
chiesa
chigant
chigants
chihuahua
chil
child
children
chile
chilena
chileno
chili
chill
chilo
chils
chim
chimnasia
chimpanze
china
chinatown
chine
chinebro
chinebrosa
chineceu
chiner
chinero
chinesa
chinesas
chinese
chineses
chineta
chinevra
chinguis
chino
chinon
chinos
chiprana
chipre
chips
chiquet
chiqueta
chiquetas
chira
chirar
chiras
chirma
chirmana
chirmanas
chirmandat
chirmano
chirmans
chiro
chirona
chirone
chistabi
chistabino
chistau
chiste
chita
chitana
chitans
chitar
chito
chitos
chler
cho
chodiga
chodigas
chodigo
chodigos
choice
chonicas
chopin
chopo
chorche
chordania
chornada
chornadas
chornata
chorus
chos
chosa
chou
choven
chovenalla
chovenil
chovenils
chovens
choventut
choyas
choyeri
chris
christ
christchurch
christi
christian
christiane
christie
christina
christine
christmas
christoph
christophe
christopher
chronicle
chu
chuan
chuana
chuaqui
chubo
chuck
chudai
chudas
chudeces
chuderi
chudgaus
chudi
chudicial
chudicials
chudicio
chudicios
chueca
chueces
chuego
chuegos
chueves
chuez
chuga
chugaba
chugaban
chugador
chugadora
chugadors
chugan
chugando
chugar
chugaron
chugato
chugau
chugo
chugoron
chuguetz
chuicio
chulia
chuliella
chulio
chuliol
chulla
chunio
chunquera
chunta
chuntar
chuntas
chunto
chuntos
chunyo
chupiter
chura
churamento
churasico
churasicos
churau
church
churchill
churidica
churidicas
churidico
churidicos
churisdiccio
churisdiccions
churista
churistas
churra
churras
churro
chus
chusa
chusano
chuse
chusep
chuseu
chuslivol
chusmeso
chust
chusta
chustament
chusticia
chusticias
chustificar
chustinia
chusto
chutlandia
chuvenil
ci
cia
cicero
ciclismo
ciclista
ciclistas
ciclo
ciclos
cid
cie
ciega
ciego
ciel
ciellas
cielo
cien
ciencia
ciencias
cient
cienti
ciento
cientos
cierra
cierran
cierre
cierta
ciertas
cierto
ciertos
ciervo
ciervos
cierzo
cifras
cigu
cija
cil
cilia
cilicia
cillo
cils
cima
cimas
cimballa
cimento
cinca
cincinnati
cinco
cine
cineasta
cinecha
cinema
cinematografi
cinematografica
cinematograficas
cinematografico
cinematograficos
cineos
cines
cingla
cinglo
cinglos
cinquanta
cinque
cinquena
cinqueno
cinqueta
cinta
cintas
cinto
cintura
cinturo
cio
cipre
circ
circa
circasians
circlo
circo
circuito
circuitos
circula
circulacio
circular
circulatorio
circumferencia
circumstancias
circunstancial
circunstancias
circus
ciresa
ciria
cirilico
cirurchi
cis
cisa
cisalpina
cischordania
cisleitania
cistels
cisterciense
cisterna
cit
cita
citada
citan
citar
citas
citata
citato
citau
citoplasma
citricos
citroe
citrus
citta
city
ciu
ciudad
ciudada
ciudadana
ciudadani
ciudadano
ciudadanos
ciudadans
ciudadela
ciudades
ciudat
ciudatz
cius
ciutat
civil
civilizacio
civilizacions
civils
ck
cke
cken
cl
cla
cladistica
clado
cladophora
claire
clama
clamaba
clamaban
clamada
clamadas
claman
clamando
clamar
clamata
clamatas
clamato
clamatos
clamau
clamaus
clamo
clamor
clamoron
clamosa
clan
clans
clara
clarament
claras
clare
clarence
clark
clarke
clarmont
claro
claros
clase
claseficacio
clases
clasica
clasicas
clasico
clasicos
clasifica
clasificacio
clasificacions
clasifican
clasificar
clasificato
clasificatos
clasificau
clasificaus
clasifico
class
classes
classic
clau
claude
claudel
claudette
claudia
claudio
claus
claustro
clausulas
clausura
clave
cle
cleese
clement
clemente
cleopatra
clerigos
clermont
clero
cleta
cletas
cleto
cleveland
client
clients
cliff
clift
clifton
clima
climas
climate
climatica
climaticas
climatico
climaticos
climatolochi
climent
clinica
clinicos
clint
clinton
clive
cllarabida
cln
clo
clocher
clock
clodoveu
clooney
cloro
cloruro
clos
close
clot
cloud
club
clube
clubes
clubs
cluj
clunyego
clyde
cm
cn
cnica
cnt
co
coadic
coalicio
coarasa
coast
coautor
cobalto
cobertura
cobo
cobol
cobos
cobra
cobrar
cobre
coburg
coburn
coca
cocentaina
cocer
coche
coches
cochi
cocient
cocina
cocinar
cocinas
cocinero
coco
cocobat
cocos
coda
code
codete
codetes
codificacio
codigo
codigos
codo
codonyera
codos
coe
coeficient
coen
coexiste
coexisten
coexistencia
coexistindo
cofadri
cofradi
cofrentes
cognato
cognatos
cogullada
cohen
coi
coimbra
coincide
coinciden
coincidencia
coincident
coincidents
coincidindo
coincidir
col
cola
colabora
colaboracio
colaboracionismo
colaboracions
colaborador
colaboradors
colaborando
colaborar
colaboro
colbert
colchicus
cold
cole
coleccio
coleccions
colechial
colechiata
colechio
colection
colectiva
colectividat
colectivo
colectivos
colegio
colera
colin
colisio
coll
colla
collada
collado
collarada
collas
collata
collau
collection
college
collidas
collins
collita
colman
colo
coloca
colocacio
colocando
coloma
colombia
colombiano
colombo
colonia
colonial
colonialismo
colonials
colonias
colonizacio
colonizadors
colonizar
colonos
colons
coloquial
coloquialment
color
coloracio
colorado
colors
coltrane
coluche
columba
columbia
columbus
columna
columnas
colungo
com
coma
comachibosa
comanda
comandador
comandant
comandas
comando
comarca
comarcal
comarcals
comarcas
comas
comba
combate
combates
combatients
combatir
combina
combinacio
combinacions
combinan
combinando
combinar
combustible
combustibles
combustio
come
comedia
comediant
comedias
comenche
comencini
comenge
comenta
comentan
comentarios
comenzo
comercial
comercializa
comercialment
comercials
comerciant
comerciants
comercio
comercios
comes
comestible
comestibles
cometa
cometas
comi
comic
comico
comida
comienza
comienzo
comienzos
coming
comisario
comisio
comite
command
comme
comment
comminges
commission
committee
common
commons
commonwealth
communis
community
comneno
como
comodo
comoras
compacta
compan
company
companyera
companyero
companyers
companyi
comparable
comparables
comparacio
comparada
comparanza
comparativas
comparativo
comparte
comparten
compartindo
compartir
compartita
compartito
compartiu
compendio
compensacio
compensar
competencia
competencias
competicio
competicions
competir
compilacio
compilazio
compite
compiten
compitio
complega
compleganza
compleguera
complementaria
complemento
complementos
completa
completament
completar
completas
complete
completiva
completivas
completo
completos
complexa
complexas
complexidat
complexo
complexos
complir
complutense
compone
componen
component
components
comporta
comportamiento
comportamientos
comporto
composa
composada
composadas
composan
composata
composatas
composato
composau
composaus
composicio
composicions
compositor
compositora
compositors
compostela
compra
comprende
comprendeba
comprenden
comprender
comprene
comprensio
compro
compromi
compromiso
compuesta
compuesto
compuestos
computacio
computacional
computer
comte
comu
comuna
comunal
comunament
comunas
comunica
comunicaba
comunicacio
comunicacions
comunican
comunicar
comunicau
comunidad
comunidat
comunidatz
comunio
comunismo
comunista
comunistas
comunitaria
comunitario
comunment
comuns
con
conan
conca
concabe
concarar
concede
conceder
concedio
concedioron
concedito
concediu
concejo
concellers
concello
concellos
concentra
concentracio
concentracions
concentran
concentrar
concepcio
concepto
conceptos
concert
concesio
concesions
concesivas
concha
conchelacio
conchita
conchugacio
conchugacions
conchugan
conchuncio
conchuncions
conchunta
conchuntament
conchuntiva
conchuntivas
conchuntivo
conchunto
conchuntos
conciencia
concierto
conciertos
concilio
concilios
concise
conclusio
conclusions
concordancia
concordia
concreta
concretament
concretas
concreto
concretos
concuerda
concurso
concursos
condado
condatos
condau
condaus
conde
condena
condenato
condenau
condenaus
condensador
condes
condicio
condicional
condicionals
condicions
condita
condo
condor
conduccio
conduce
conducio
conducir
conducta
conductas
conductor
conductos
cone
conecta
conectar
conejero
conello
conestable
conexio
conexions
confederacio
confederacions
confederatos
confeguracio
conferencia
conferencias
confesio
confianza
configuracio
confirma
confirmacio
confirmar
confirmau
confirmo
conflent
conflict
conflicto
conflictos
confluencia
confluyen
confluyencia
conforman
conforme
confrairi
confrari
confundir
confusio
confusions
congo
congolenyo
congost
congosto
congre
congregacio
congreso
congresos
congress
congustro
conica
coniferas
conillo
conillos
connecticut
connery
connexio
connexions
connie
connolly
connor
connotacions
cono
conoix
conoixe
conoixeba
conoixeban
conoixemos
conoixen
conoixencia
conoixencias
conoixer
conoixida
conoixidas
conoiximiento
conoiximientos
conoixio
conoixioron
conoixita
conoixitas
conoixito
conoixitos
conoixiu
conoixius
conoximientos
conoxito
conoxiu
conque
conqueridor
conquerindo
conquerio
conquerioron
conquerir
conquerita
conquiere
conquieren
conquiesta
conquiestas
conquiesto
conquiestos
conquiridors
conquirio
conquirioron
conquista
conquistas
conrad
conrado
consagracio
consagrada
consagrata
consagrato
consagro
consciencia
conscient
consecuencia
consecutiva
consecutivas
conseguindo
conseguio
conseguir
conseguito
consejo
conseller
consellero
consellers
consello
consellos
consenso
consentimiento
consequ
conserva
conservaba
conservacio
conservada
conservadas
conservadera
conservaderas
conservador
conservadora
conservadors
conservan
conservando
conservar
conservata
conservation
conservato
conservatorio
conservau
conservaus
conservo
conservoron
considera
consideraba
consideraban
considerable
considerablement
considerables
consideracio
considerada
consideradas
consideran
considerando
considerar
considerata
consideratas
considerato
consideratos
considerau
consideraus
considero
consigue
consiguen
consiguio
consiguioron
consiste
consisten
consistencia
consistent
consistiba
consolidacio
consolidar
consolido
consonant
consonantica
consonantico
consonanticos
consonants
consorcio
consort
consorte
consorts
conspiracio
consta
constance
constancia
constant
constante
constanti
constantina
constantinoble
constants
constanza
constelacio
constitucio
constitucional
constitucions
constituindo
constituir
constituita
constituito
constituye
constituyen
constituyent
constituyents
constituyo
construccio
construccions
construcio
construida
construindo
construir
construita
construitas
construito
construitos
construiu
construye
construyen
construyi
construyida
construyio
construyir
construyita
construyito
construyiu
construyo
construyoron
consulato
consulta
consultable
consultada
consultado
consultar
consultata
consultato
consultau
consume
consumen
consumidor
consumidors
consumir
consumo
conta
contaba
contacto
contactos
contaminacio
contan
contando
contar
conte
contempora
contemporania
contemporanio
contemporanios
contener
contenito
conteniu
contenius
contes
contesa
contexto
contextos
conti
contie
contiene
contienen
contina
continaba
continaban
continacio
continan
continando
continar
continara
continari
continas
continent
continental
continentals
continents
continidat
contino
continoron
continos
continua
continuidat
continuo
continuum
conto
contos
contra
contraccio
contraccions
contracto
contrafuertes
contraofensiva
contraposicio
contraria
contrario
contrasta
contrastando
contraste
contrato
contrayer
contre
contribucio
contribucions
contribuir
contribuye
contribuyo
contribuyoron
contrimostrar
contrimostrau
contrimostro
contrimuestra
control
controla
controlaba
controlaban
controlada
controlan
controlando
controlar
controlata
controlato
controlau
controversia
convencer
convencio
convencional
convencionals
convencions
convenient
convenio
convento
converchencia
converge
conversio
convertindo
convertir
convertito
convertitos
convertiu
convierte
convierten
convirtio
convirtioron
convivencia
convoca
convocadas
convocatoria
convocau
convoco
conway
cook
cool
cooper
cooperacio
cooperativa
coord
coordenadas
coordinacio
coordinador
copa
copas
cope
copenaguen
copernico
copia
copias
copley
coppola
cor
coral
corazo
corbala
corbera
corbusier
corcega
cord
cordel
cordelera
cordeleras
corder
cordero
cordillera
cordo
cordoba
cords
corea
corellano
corelli
coreografo
coreya
corfu
coria
corleone
cornel
cornelia
cornella
cornualla
cornudella
coro
corola
coromines
corona
coronacio
coronar
coronas
coronato
coronau
coronavirus
coronel
corones
coros
corporacio
corporal
corporals
corporation
corpus
corrado
corral
corrales
corrals
corre
correa
correchimiento
correcta
correctament
correcto
corredor
corredors
correo
correr
corresa
correspondance
corresponde
correspondeba
correspondeban
corresponden
correspondencia
correspondendo
corresponder
corresponderi
correspondient
correspondientes
correspondients
correu
correus
corrida
corridas
corrient
corriente
corrientes
corrients
corrosio
corrupcio
corsa
corso
corsos
cort
corte
cortes
cortiellas
cortina
corto
cortometrache
cortz
corun
corvera
corvi
corvus
cos
cosa
cosacos
cosas
coscollar
cosculluela
cosetas
cosirar
cosmatos
cosme
cosmos
coso
costa
costalat
costalats
costanti
costantinoble
costarricense
costas
costato
costatos
costau
costaus
coste
costea
costera
costeras
costes
costiellas
costumbre
costumbres
cosuenda
cota
cotefablo
cotiella
coto
cottens
coturnix
council
country
county
court
courtenay
courtney
cov
cova
covid
cowboy
cox
cpu
cpus
cr
cra
craba
crabas
crabioles
crabito
cracovia
craig
cranio
crapa
crash
crater
craters
crates
crauford
crawford
crazy
cre
creacio
creba
crebar
crebo
credito
creek
crei
creix
creixe
creixen
creixendo
creixent
creixer
creixidas
creixient
creiximiento
creixio
creixitas
creixiu
crema
creman
cremar
cremata
cremato
cremer
cremo
cremona
cremoron
crencha
crepas
crespo
cresta
creta
cretacio
cretacios
cretas
cretica
creticas
cretico
creu
creuenya
creus
creya
creyacio
creyada
creyadas
creyador
creyadors
creyan
creyando
creyar
creyata
creyato
creyatura
creyaturas
creyau
creyaus
creye
creyeba
creyeban
creyen
creyencia
creyencias
creyents
creyer
creyo
creyoron
cri
criar
crichton
cricket
crida
cridlig
crime
crimea
crimen
crimens
criminal
criollo
cripta
crisi
crisis
crismo
crisp
cristal
cristals
cristia
cristian
cristiana
cristianas
cristiandat
cristianismo
cristianizacio
cristiano
cristianos
cristians
cristina
cristo
cristofo
criterio
criterios
critica
criticas
critico
criticos
criville
cro
croacia
crocodilians
cromwell
cronica
cronicas
cronista
cronistas
cronolochi
crosby
cross
crosta
crovata
crovate
crovates
crow
crowe
crown
cruce
cruceri
crucero
cruces
crucifixio
crucis
cruel
cruise
crustacios
cruz
cruzada
cruzadas
cruzar
cruzata
cruzatas
cruzatos
cruzaus
cry
crystal
cs
csic
csif
css
csstext
ct
cter
ctica
cticos
ctil
ctor
cu
cua
cuacaba
cuadernos
cuadro
cual
cualsiquier
cuan
cuando
cuartel
cuarto
cuartos
cuatre
cuatro
cuba
cubana
cubano
cubel
cubierta
cubiertas
cubierto
cubiertos
cubilar
cubilars
cubillar
cubla
cubo
cubre
cubren
cubriba
cubrir
cucalo
cucaracha
cucha
cuchas
cuco
cucos
cucurbita
cudiau
cudio
cudir
cue
cuello
cuenca
cuencana
cuencas
cuenta
cuentan
cuentas
cuento
cuentos
cuentra
cuerda
cuerdas
cuerlas
cuerno
cuernos
cuero
cuerpo
cuerpos
cuerva
cuervo
cuesta
cuestas
cuestio
cuestiones
cueva
cuevas
cugat
cuiro
cuitiello
cuixa
cukor
cul
cula
culfreda
culibiellas
culle
cullir
cullita
culo
culos
culpa
culpable
culs
culta
cultismo
cultismos
cultivo
culto
cultos
cultura
cultural
culturalment
culturals
culturas
culture
cum
cuma
cumans
cumbre
cumbria
cummings
cumple
cumplen
cumplir
cuna
cuneo
cup
cupula
cura
curac
curar
curie
curiosa
curiosament
curiosidat
curiosidatz
curioso
curitiba
curlandia
current
curro
cursa
cursas
curso
cursos
curta
curtas
curtis
curtiz
curto
curtometrache
curtos
curva
curvas
curvatura
curzon
cusack
cushing
cut
cutanda
cutiana
cutiano
cutio
cuyo
cuzco
cy
cyd
cynops
cœur
d
da
daba
daban
dabant
dachau
dacia
daco
dacos
dacs
dada
dafoe
dag
dailey
daisy
dakar
dakota
dal
dalai
dale
daleks
dali
dalla
dallas
dalmacia
dalmata
dalmatas
dalt
dalton
dama
dame
damia
damon
dan
danc
dance
dances
dandalos
dando
dane
danesa
daneses
dangerous
dani
daniel
daniels
danny
dans
dante
danubiana
danubio
danyo
danyos
danza
danzas
danzig
daphne
dar
dara
dardanelos
dari
dark
darkgrey
darkness
darling
darmstadt
darnell
daroca
daron
darth
darwell
darwin
daryl
das
dat
data
database
datan
datar
dataset
datavalue
date
dateformat
dativo
dato
datos
dau
daughter
daus
dave
daves
david
davies
davis
dawn
day
days
dayton
dc
dd
de
dea
dead
dean
death
deba
debaixo
debant
debanta
debantada
debantadera
debantata
debantdita
debantdito
debantera
debanteras
debantero
debanto
debat
debate
debbie
debe
debeba
debehogne
deben
deber
debers
debio
debito
debiu
deborah
debuixant
debuixants
debuixo
debuixos
debut
debuta
debuto
dec
decada
decadas
decadencia
decena
decenas
decenio
decenios
deceno
deciba
deciban
decide
deciden
decidio
decidioron
decidir
decima
decimal
decimarum
decimas
decindo
decir
decisio
decisions
decisiva
decisivo
deciueito
declara
declaracio
declaracions
declarada
declaran
declarando
declarar
declarata
declarato
declarau
declaro
declaroron
declinacio
declive
decoracio
decorativos
decreto
decretos
dedica
dedicada
dedican
dedicar
dedicata
dedicato
dedicau
dedicaus
dedico
deduce
deducir
dee
deep
default
defecto
defender
defensa
defensiva
defensivo
defensor
defensors
defesa
defesas
define
definen
definicio
definicions
definida
definidas
definio
definir
definita
definitas
definitiva
definitivament
definitivo
definito
definitos
definiu
definius
defoe
deforestacio
deformacio
defraye
defuncions
degas
degli
degradacio
dehesa
dei
deixa
deixaba
deixan
deixando
deixar
deixara
deixato
deixau
deixo
deixoron
deja
del
delagrave
delano
delaware
delegacio
delegacions
delfi
delgada
delgado
delhi
delicias
delimita
delimitacio
delitos
dell
della
delle
delmer
delon
delporte
dels
delta
dem
dema
demanda
demandan
demandando
demandar
demandas
demande
demando
demarcacio
dembargo
deme
demelsa
demi
demille
demme
demo
democra
democracia
democrata
democratica
democraticas
democratico
democraticos
demografi
demografia
demografica
demografico
demostracio
demostrativo
demostrativos
dempue
den
dena
dench
dencima
dend
dende
deneuve
dengu
denguna
denguno
denholm
deni
denikin
denis
dennis
denomina
denominacio
denominacions
denominada
denominan
denominar
denominato
denominau
denominaus
denota
densa
densament
densidat
denso
dental
dentra
dentrada
dentradas
dentran
dentrando
dentrar
dentrata
dentrato
dentre
dentro
dentroron
denuncia
denver
denya
denzel
depardieu
departamental
departamento
departamentos
department
depende
dependeba
dependeban
dependen
dependencia
dependencias
dependencies
dependendo
depender
dependient
dependients
depo
deportacio
deportacions
deportatos
deporte
deportes
deportiva
deportivo
deposito
depositos
depp
depredador
depredadors
depresio
depresions
depuis
depurarvueitas
deputacio
deputato
deputatos
deputau
deputaus
der
dera
deras
derbi
derbyshire
derecho
derek
deriva
derivacio
derivada
derivadas
derivan
derivar
derivata
derivatas
derivato
derivatos
derivau
derivaus
derrocar
derroco
derrota
derrotaus
derroto
ders
des
desafi
desambigacio
desamortizacio
desapareix
desapareixe
desapareixen
desapareixendo
desapareixer
desapareixida
desapareixidas
desapareixio
desapareixioron
desapareixita
desapareixito
desapareixiu
desapareixius
desaparicio
desaparixio
desapegue
desarrolla
desarrollar
desarrollo
desastre
desastres
desaugua
desauguan
desauguar
descansan
descanso
descarga
descartar
descartes
descendencia
descendent
descendient
descendients
descenso
desciende
descienden
descomposicio
desconoixe
desconoixida
desconoixita
desconoixito
desconoixiu
descontento
describe
describen
describiba
describindo
describio
describir
descripcio
descripcions
descrita
descritas
descrito
descritos
descubierta
descubierto
descubiertos
descubre
descubridor
descubrimiento
descubrimientos
descubrio
descubrioron
descubrir
desde
desembarco
desemboca
desembocadura
desembocan
desembocar
desembolica
desembolicada
desembolican
desembolicando
desembolicar
desembolicata
desembolicato
desembolicatos
desembolicau
desembolico
desembolicoron
desembolique
desenvolique
deseo
desepara
deseparacio
deseparada
deseparadas
deseparan
deseparando
deseparar
deseparata
deseparatas
deseparato
deseparatos
deseparau
deseparaus
deseparo
deseparoron
desert
deserticas
desertico
deseyo
deseyos
desfa
desfacio
desfer
desfile
deshabitados
deshabitau
desierto
design
designa
designacio
designar
designato
designau
desigualdat
desincusa
desinencia
desinencias
desintegracio
desire
desmond
desnivel
desparte
despectivo
despertar
desplaza
desplazamiento
desplazando
desplazar
desplazo
despoblacio
despoblada
despoblados
despobladosenhuesca
despoblato
despoblatos
despoblau
despoblaus
despoblo
despue
destaca
destacaba
destacable
destacables
destacada
destacadas
destacan
destacando
destacar
destacata
destacatas
destacato
destacatos
destacau
destacaus
destaco
destacoron
desti
destilacio
destinada
destinato
destinau
destinaus
destino
destins
destitucio
destribucio
destruccio
destruir
destruita
destruito
destruye
destruyir
destruyiu
destruyo
destruyoron
desuso
desvie
desvinio
det
detalle
detalles
deteccio
detectar
detective
detencio
determina
determinacio
determinada
determinadas
determinan
determinant
determinants
determinar
determinata
determinato
determinatos
determinau
determinaus
detroit
deu
deuda
deus
deutsch
deutsche
deutschen
deutsches
deutschland
deutschlands
deux
deva
devanta
devantadera
devantar
devantata
devantato
devanto
devantoron
development
devez
devil
devito
devocio
devon
dexter
deza
dezaga
dga
dhabi
dhaka
dhaulagiri
di
dia
diablo
diacono
diacritico
diacriticos
diagnostico
diagonal
diagrama
dialectal
dialectals
dialecto
dialectolochi
dialectologi
dialectos
dialeutal
dialnet
dialogo
dialogos
diamant
diamants
diametro
diamond
diana
diane
diaple
diaria
diarias
diario
diarios
diarte
diary
dias
diasistema
diaspora
diatopica
dibuixo
dibuixos
dic
dica
diccionari
diccionario
diccionarios
dice
dicen
dichestio
dichestivo
dichital
dichitals
dicho
dichos
diciba
diciban
diciembre
dicindo
dicio
dicir
dick
dickinson
dico
dictador
dictadura
dictionary
dictionnaire
dictionnaires
didier
dido
didos
die
diego
dien
dient
dients
dies
dieste
dieta
dieterle
dietrich
dieu
diez
diferencia
diferenciacio
diferenciadas
diferencial
diferencials
diferencian
diferenciando
diferenciar
diferencias
diferens
diferent
diferents
diferiencia
diferiencias
differentiis
difi
dificil
dificils
dificultat
dificultatz
difieren
diftongacio
diftongo
diftongos
difuera
difueras
difundir
difusio
diga
digital
dignidat
digo
digrafo
dijon
dilla
dillon
dimana
dimanan
dimensio
dimensions
diminutiva
diminutivo
diminutivos
dimisio
dimite
dimitri
dimorfismo
dimpue
dimpues
dimpuesas
din
dinamarca
dinamica
dinantes
dinasti
dinastica
dinero
diners
dino
dinosauria
dinosaurios
dintro
dio
diocesa
diocesano
diocesi
diocesis
dioclecia
diodo
diodora
dion
dioni
dionisio
dioron
dios
diosa
dioses
dioxido
diploma
diplomacia
diplomatica
diplomaticas
diplomatico
diplomaticos
diputacio
diques
dir
dire
direccio
direccions
directa
directament
directiva
directo
director
directora
directors
directos
diri
diriche
dirichent
dirichents
dirichida
dirichidas
dirichio
dirichir
dirichita
dirichitas
dirichito
dirichitos
dirichiu
dirk
dirty
dis
disc
discapacidat
disci
disciplina
disciplinas
disciplo
disciplos
disco
discografi
discografia
discografica
discos
discreta
discretos
discriminacio
discurso
discursos
discusio
discusions
disenyada
disenyador
disenyadors
disenyar
disenyato
disenyau
disenyaus
disenyo
disenyos
disierto
disiertos
disimilacio
disminucio
disminuye
disney
disolucio
disolver
disolvio
display
dispone
disponer
disponibilidat
disponible
disponibles
disposa
disposan
disposicio
disposicions
dispositivo
dispositivos
dispue
disputa
disputada
disputar
disputas
disputo
dista
distancia
distancias
distincio
distincions
distingue
distinguen
distinguir
distinta
distintas
distinto
distintos
distribucio
distribuir
distribuitas
distribuitos
distribuye
distribuyen
distribuyius
districto
districtos
distrito
distritos
disturbios
disuelto
disuelve
dit
dita
ditas
dith
ditions
dito
ditos
diu
div
diverchencia
diversa
diversas
diversidat
diversio
diversity
diversos
divide
dividen
dividendo
dividiba
dividida
dividindo
dividio
dividir
dividita
dividitas
dividito
dividitos
dividiu
dividius
divina
divinidat
divinidatz
divisibilidat
divisible
divisio
division
divisiones
divisions
divisor
divisoria
divisors
divo
divulgacio
dix
dixa
dixando
dixar
dixato
dixo
dixoron
diya
diyas
diz
dizionario
dj
dl
dlr
dm
dmitri
dmytryk
dna
dnie
do
doa
doble
dobles
dobletz
dobrucha
doc
doctor
doctoral
doctorau
doctors
doctrina
documenta
documentacio
documentada
documentadas
documental
documentals
documentan
documentar
documentata
documentato
documentau
documentaus
documento
documentos
does
dog
doi
dolars
dolinas
dollar
dolly
dolmen
dolmens
dolomi
dolor
dolores
dolors
dom
doma
domat
dome
domenico
domestica
domesticas
domestico
domesticos
domi
domina
dominaba
dominaban
dominacio
dominada
dominan
dominant
dominants
dominar
dominata
dominato
domingo
domingos
dominica
dominicana
dominio
dominios
dominique
domino
dominoron
don
dona
donacio
donacions
donald
donar
donat
donatello
donato
donc
doncas
donde
done
donetsk
dong
donna
donne
donner
dono
dont
donya
donzaina
door
dopache
dople
doples
dor
dorada
dorau
dordonya
dordrecht
doria
doris
dormir
dorothy
dorsal
dorset
dorso
dortmund
dos
dote
dotze
dotzena
douard
double
doubs
douglas
dourdan
dourif
dove
dover
down
downey
doyle
dr
dra
drag
drago
dragon
dragons
drama
dramatica
dramatico
dramaturga
dramaturgo
dramaturgos
dre
dream
dreams
dreita
dreitament
dreitas
dreito
dreitos
drena
drento
dresde
dressler
dreta
drew
dreyfus
dreyfuss
drive
driver
dro
drogas
droma
drums
drusos
ds
dt
dte
dtv
du
dua
dubai
dubda
dubli
duc
ducado
ducal
ducas
ducato
ducatos
ducau
duchas
duda
dudley
due
duen
duero
dueso
duke
dulce
dulces
dulcis
dulo
dulza
dumas
dunas
dunaway
duncan
dunkerque
dunn
dunne
duque
duques
duquesa
dura
duracio
durada
duran
durando
durango
durant
durante
durar
duras
dureza
durham
duro
duros
durruti
duryea
dus
dust
dustin
duvall
dvd
dy
dylan
dynamics
dz
dzyrzec
e
ea
eagle
earl
early
earth
east
eastern
eastwood
easy
eau
eba
ebre
ebro
ebullicio
ec
ecce
ecetra
echea
echegaray
echeverri
echipcia
echipciana
echipcians
echipcio
echipcios
echipto
echiptologo
echo
eclesiastica
eclesiasticas
eclesiastico
eclesiasticos
eclix
eco
ecolochi
ecolochica
ecolochico
ecolochistas
econo
economi
economia
economic
economica
economicament
economicas
economico
economicos
economista
economistas
ecorrechio
ecosistema
ecosistemas
ecuador
ed
eda
edacar
edad
edat
edatz
eddie
eddy
edelvives
eden
edgar
edge
edicio
edicion
ediciones
edicions
edicto
edificacio
edificacions
edificio
edificios
edimburgo
edison
edit
edita
editar
editato
editau
edith
edition
editions
edito
editor
editores
editorial
editorials
editors
edizions
edmond
edmonton
edmund
edna
edo
eds
edu
eduard
eduardo
educacio
education
educativo
educativos
edurne
edvard
edward
edwards
edwin
ee
efectiva
efectivament
efectivo
efecto
efectos
effet
eficacia
eficaz
eficiencia
eficient
egido
eglise
egon
egual
eh
ei
eiffel
eileen
ein
eina
einar
einaudi
eindhoven
eine
einstein
eivissa
eix
eixe
eixea
eixemplar
eixemplars
eixemplo
eixemplos
eixes
ejea
ejemplo
ejov
ek
ekar
ekberg
el
ela
elaboracio
elaborar
elaborau
elas
elba
elch
elche
elcock
ele
eleanor
eleccio
elecciones
eleccions
elector
electoral
electorals
electorato
electors
electric
electrica
electricas
electricidat
electrico
electricos
electro
electrodomesticos
electromagnetica
electromagneticas
electromagnetico
electromagnetismo
electronica
electronico
electronicos
electrons
electroquimica
elefant
elefants
elemental
elemento
elementos
elementotabla
elements
elena
elenco
elevacio
elevacions
elevada
elevau
eleven
elfos
eli
elia
elias
elijah
eliminacio
eliminando
eliminar
eliminato
eliminatoria
eliminatorias
eliminaus
eliot
elisa
elisabeth
elise
elisenda
elite
elites
elizabeth
elizondo
ell
ella
ellas
elle
ellen
elles
elliot
elliott
ellipses
ellis
ello
ellos
ells
ellu
elo
elochios
elorza
elos
eloy
els
elsa
else
elseif
elso
elst
elvira
elvis
em
emanuel
emb
embaixada
embaixador
embalse
embarazo
embarcacio
embarcacions
embit
emblema
embotada
embreca
embrecatos
embrio
embu
embutius
emerchencia
emerito
emi
emigracio
emigrants
emigrar
emigro
emigroron
emil
emili
emilia
emilio
emily
emir
emirato
emiratos
emisio
emisions
emisora
emisoras
emite
emiten
emitio
emitir
emma
emmanuel
emmanuelle
emmerich
emmy
emocional
emocions
emparar
emparo
empate
empaze
empecipia
empecipio
empecipioron
empenta
empentar
empento
empentoron
emperador
emperadores
emperadors
emperadriz
empire
emplazamiento
emplega
emplegaba
emplegaban
emplegada
emplegadas
emplegan
emplegando
emplegar
emplegata
emplegatas
emplegato
emplegatos
emplegau
emplegaus
emplego
emplegoron
emplegos
emporda
empresa
empresario
empty
empu
en
ena
enamplando
enamplar
enamplata
enample
enamplo
enantes
enca
encara
encarga
encargato
encargau
encargo
encarnacio
encarta
encefalo
encetar
enceto
enchaquia
encia
encias
enciclope
enciclopedia
encieta
encima
encinas
enclau
enclaus
encluso
encluye
encluyen
encluyendo
encluyiba
encluyindo
encluyir
encluyitos
enco
encomenzamiento
encomenzando
encomenzar
encomenzau
encomenzo
encomenzoron
encomienda
encomienza
encomienzan
encomienzo
encore
encorpora
encorporacio
encuentro
encyclopaedia
encyclopedia
encyclopædia
end
ende
endemica
endemicas
endemico
endemismos
endesa
endfield
endice
endize
endorreica
endrecera
endreza
endrezar
endrezau
enemigo
enemigos
enemy
enerchetica
enerchetico
enerchi
energi
energy
enero
enfasi
enfermera
enfila
enfoque
enfoques
enfortir
enfrentamiento
enfrentamientos
enfrento
enfrontinamientos
enfrontino
engarcholato
england
english
engolesme
engracia
engua
enguera
enguerada
enguerau
enguero
enguita
enlace
enlaces
enlaza
enlazar
enmedio
enna
enne
enneco
ennio
eno
enorme
enqu
enquesicio
enrestida
enric
enrico
enrique
enroque
enruenas
enrunas
ens
ensambla
ensayo
ensayos
ense
ensemble
ensen
ent
enta
entabaixo
entabant
entalto
entativos
entender
entenza
entera
entero
enterprise
enters
entertainment
entibadera
entibo
entibos
entidat
entidatz
entiende
entierro
entity
entityid
entivocar
entment
entomologo
entonacio
entorno
entornos
entra
entrada
entramos
entran
entrando
entrar
entrata
entrau
entre
entrecambeador
entrega
entregan
entregar
entrego
entreguerras
entremistanto
entremont
entrenador
entrenadors
entrenamiento
entrenar
entretenedera
entretenimiento
entrevista
entrevistas
entro
entroron
ents
enuncian
enver
envergadura
environment
environmentalchemistry
envista
envistable
envistables
envueltas
enya
enz
enza
enzimas
enzo
eo
eoceno
eolica
ep
epentesi
epentetica
epi
epica
epico
epidemia
epidemias
epila
epiro
episcopal
episode
episodio
episodios
epiteto
epoca
epocas
epopeya
epstein
equacio
equacions
equador
equatorial
equidos
equilibrio
equipacio
equipamiento
equipamientos
equipe
equipes
equipo
equipos
equitacio
equivale
equivalencia
equivalencias
equivalent
equivalents
equus
er
era
eran
eras
erata
erau
eric
erich
erik
eripol
erisue
eritrea
erla
ermengol
ermita
ermitas
ernest
ernesto
ernie
ernst
ero
eros
erosio
erosivas
erre
erri
erro
errol
erroniament
error
errors
ers
erupcio
erupcions
erwin
es
esa
esbarizaculos
esboldrego
esc
esca
escaicimiento
escaicimientos
escaicio
escaicioron
escaicita
escala
escalada
escalar
escalas
escalera
escaleras
escalfamiento
escalona
escalquens
escandinava
escandinavas
escandinavia
escandinavo
escandinavos
escania
escaniella
escanyos
escapa
escapar
escape
escaques
escar
escarabachos
escarp
escarra
escarti
escasa
escasas
escaseza
escaso
escasos
escatas
escatro
escayece
escayecimientos
escenario
esclafar
esclata
esclatar
esclatito
esclato
esclaus
esclavitut
esclavo
esclavos
escleto
esco
escobar
escoce
escocesa
escoceses
escocia
escolapios
escolar
escolars
escolta
escomencipio
escomenzo
escomienza
escorial
escoriuela
escriba
escribans
escribe
escriben
escribiba
escribiban
escribindo
escribio
escribioron
escribir
escrita
escritas
escrito
escritor
escritora
escritors
escritos
escritura
escrituras
escriva
escuai
escubrimiento
escudero
escudo
escudos
escuela
escuelas
escuer
escuita
escuitar
escultor
escultors
escultura
esculturas
escura
escuras
escuro
escuros
esdevenidero
esdevenindo
esdevenio
esdevenioron
esdevenir
esdevenito
esdeveniu
esdevie
esdeviene
esdevienen
esdevinio
esdevinioron
esdevino
esdolomada
esdru
ese
esencia
esencial
esencialment
esencials
esera
esfender
esfensa
esfensas
esfensiva
esfensivas
esfensor
esfensors
esfera
esferas
esferencia
esferenciar
esferencias
esferents
esferra
esfiende
esfuerzo
esfuerzos
esgueva
esiste
eslampar
eslava
eslavas
eslavismos
eslavo
eslavonia
eslavos
esleccions
eslecio
eslecions
esleita
esleito
esleitos
esleyen
esleyir
esleyita
esleyito
esleyiu
esleyoron
eslices
esliche
eslovaca
eslovaco
eslovacos
eslovaquia
eslovena
eslovenia
esloveno
eslovenos
esmirna
esnaviesa
eso
esofago
esp
espacial
espacials
espacio
espacios
espada
espadas
espalda
espaldada
espaldar
espaldau
espaldo
espan
espansio
espantaleo
espanto
espanya
espanyol
espanyola
espanyolas
espanyols
espardidura
espardir
esparta
espartero
esparver
esparvero
espasa
espata
espe
especiacio
especial
especialidat
especialidatz
especialista
especialistas
especializada
especializadas
especializata
especializato
especializatos
especializau
especializaus
especialment
especials
especias
especie
especies
especifica
especificament
especificas
especifico
especificos
espectaclo
espectaclos
espectacular
espectadors
espectro
espejo
espelunciecha
espelunga
espelungas
espelunz
esper
espera
esperantista
esperantistas
esperanto
esperanza
esperar
espezies
espi
espiello
espierba
espierre
espiga
espinalt
espinaques
espineta
espino
espinosa
espionache
espiral
espiritual
esplanicar
espleitacio
espleitacions
espleitan
espleitar
esplendor
esplu
espluga
esplugas
esponera
espontania
esporadicament
esporte
esportes
esportista
esportistas
esportiva
esportivament
esportivas
esportivo
esportivos
esposa
esposo
espot
esprisio
esprisions
esprito
espritos
espuenda
espulla
espullan
espunya
espurio
esquema
esquematico
esquena
esquerra
esqui
esquiador
esquiadora
esquiadors
esquina
esquiruelo
essays
essen
essential
essentielle
essere
essex
essonne
est
esta
estabilidat
estable
establece
estableix
estableixe
estableixen
estables
establiba
establida
establidor
establidors
establimiento
establimientos
establindo
establio
establioron
establir
establisen
establita
establitas
establito
establitos
establiu
establius
establix
estaca
estacio
estacional
estacions
estada
estadi
estadilla
estadio
estadios
estadistica
estadisticas
estado
estados
estadounidense
estallo
estambres
estambul
estan
estanca
estancia
estandar
estandard
estando
estanislau
estany
estanyo
estanyos
estar
estara
estarba
estari
estas
estase
estasen
estat
estata
estatal
estatals
estatistica
estatisticas
estatistico
estato
estatos
estatounidense
estatounitense
estatua
estatuas
estatus
estatuto
estatutos
estau
estaus
estausunidense
estausunidenses
este
esteban
estela
estelada
estelar
estelas
estella
estendilla
estendillaba
estendillada
estendillan
estendillando
estendillar
estendillata
estendillato
estendillau
estendillo
estendilloron
estensio
estepa
estepas
estercuel
esternos
esteruelas
estes
esteso
estetica
estevan
esteve
esther
esti
estie
estieron
estilo
estilos
estima
estimacio
estimacions
estimada
estiman
estimar
estio
estions
estioron
estiria
estiu
estiva
estivas
esto
estocolmo
estomago
estonia
estonio
estos
estrabo
estrada
estral
estranchero
estrasburgo
estratechia
estratechica
estratechicas
estratechico
estratificacio
estrato
estratos
estre
estreita
estreitament
estreitas
estreito
estreitos
estrela
estrelada
estrelas
estrella
estremos
estrenata
estreno
estribacions
estricallar
estricta
estrictament
estricto
estructura
estructural
estructurals
estructuras
estuario
estudea
estudear
estudeo
estudeos
estudeya
estudeyo
estudia
estudiando
estudiant
estudiantes
estudiants
estudiar
estudiau
estudio
estudios
estudioso
estudiosos
estudis
estupinya
esviellada
esviellata
esviellato
esviellau
esvinzadura
esvurcio
eswatini
esztergom
et
eta
etapa
etapas
etc
etcetra
ete
eternity
eth
ethan
ethel
ethnologue
eths
etica
etimolo
etimolochi
etimolochica
etimolochicament
etimolochicas
etimolochico
etimologi
etiope
etiopi
etiopia
etiqueta
etnia
etnias
etnica
etnicament
etnicas
etnico
etnicos
etnochenesi
etnogra
etnografi
etnografico
etnografo
etnolingu
etnolochi
etnologo
etnonimo
etnonimos
eto
etrusco
etruscos
ettore
etz
eu
eua
eucariotas
eudes
euge
eugene
eugenio
eugui
eulalia
euler
eumenio
eur
eurasia
eure
euro
eurobasket
eurocopa
eurocup
euroliga
europa
europe
europea
european
europeas
europeo
europeu
europeus
euros
eurovisio
eusebio
euskadi
euskal
euskaltzaindia
euskara
euskera
eusko
eva
evanchelio
evanchelios
evanchelista
evangelios
evans
evanston
evaporacio
evaristo
eve
evelyn
evento
eventos
eventualment
ever
everest
everett
evic
evidencia
evidencias
evident
evil
evita
evitar
evo
evolucio
evoluciona
evolucionan
evolucionando
evolucionar
evolucionato
evolucionau
evoluciono
evolucionoron
evolucions
evolution
evolutiva
evolutivas
evolutivo
evreus
ex
exacta
exactament
exactas
exactitut
exacto
exarc
exatiel
exativa
exauli
excavacio
excavacions
excelencia
excepcio
excepcional
excepcionalment
excepcionals
excepcions
excepto
exceso
exclamativos
exclusio
exclusiva
exclusivament
exclusivo
excma
excursionista
excursionistas
excursions
exe
exea
execucio
executar
executato
executivo
exelsa
exemplar
exemplars
exemplo
exemplos
exerce
exercer
exercicio
exercio
exercito
exercitos
exerica
exeya
exhibicio
exiliaus
exilio
exime
exista
existe
existen
existencia
existent
existents
existiba
existiban
existindo
existio
existioron
existir
existito
existiu
exists
exito
exitos
exitosa
exodo
exoplaneta
exoplanetas
exorcas
exotoponimo
exotoponimos
expansio
expedicio
expedicions
experiencia
experiencias
experimental
experimentals
experimentar
experimento
experimentos
expertos
expleitacio
explica
explicacio
explicacions
explican
explicar
explicari
explicitament
expliquee
exploracio
explorador
exploradors
explorar
explosio
explotacio
expo
exponent
exportacio
exportacions
exposa
exposicio
exposicions
expresa
expresan
expresar
expresau
expresio
expresionismo
expresions
express
exprisar
exprisio
expulsio
extender
extendida
extendilla
extendio
extendiu
extensa
extensas
extensio
extensions
extenso
extensor
exterior
exteriors
exterminio
externa
externas
externo
externos
extiende
extincio
extincto
extinctos
extinguio
extra
extraccio
extranchero
extranchers
extraordinaria
extraordinario
extraterrestres
extrema
extremadament
extremadura
extremenyo
extremidatz
extremo
extremos
extrimo
exulve
eyar
eye
eyes
ez
ezquierda
ezquierdas
ezquierdo
f
fa
faba
fabaceae
fabia
fabib
fabio
fabirol
fabla
fabladors
fablans
fablant
fablants
fablar
fablas
fabos
fabre
fabrica
fabricacio
fabrican
fabricant
fabricants
fabricar
fabricas
fabricau
fabrizi
fac
faccions
face
facebook
facera
faces
faceta
faci
facies
facil
facilidat
facilita
facilitar
facilito
facilment
facio
facioron
facsi
factbook
facto
factor
factori
factors
facts
facultat
facultatz
fadas
fadrique
faginea
fago
fagus
fahrenheit
faiga
faigan
faina
fainas
fair
fairbanks
faire
fait
faith
faixa
faixas
faixismo
faixista
faixistas
faixo
fala
falaguera
falange
falca
falco
falcon
falda
fall
falla
fallas
fallece
falls
falordia
falordias
fals
falsa
falsas
false
falso
falsos
falta
falz
fam
fama
fambre
fame
familia
familiar
familiars
familias
family
famosa
famosas
famoso
famosos
famous
fan
fanlo
fanny
fans
fanta
fantasi
fantesi
fantova
far
fara
faraday
farao
farasdue
fardacho
fari
farina
farinche
fariza
farmaceutico
farmacia
farmacos
farmer
farnsworth
faro
farpoint
farra
farrah
farrow
farta
farto
fase
fases
faso
fassbinder
fast
fat
fata
father
fatimi
fato
fauna
faure
fausto
faut
favara
favor
favorable
favorables
favoreixer
favoreixio
fawcett
fay
fayar
fayars
faye
fayena
fayenas
fayo
fayoron
fayos
fazio
fc
fe
fear
feb
feba
feban
feble
febles
febrero
fecha
fecho
fechos
fecundacio
federacio
federacions
federal
federals
federativa
federato
federatos
federau
federaus
federico
fegura
feguras
feidhlim
feirste
feita
feitas
feito
feitos
feldespatos
felice
felices
felidae
felidos
felins
felip
felipe
felis
feliu
felix
feliz
fellini
female
fembra
fembras
femeni
femenina
femeninas
femenino
femenins
femini
feminina
femininas
feminins
feminista
femme
femoral
fen
fender
fendo
feneixiu
feners
fenicios
feno
fenomeno
fenomenos
fer
fera
ferber
ferdinand
feri
feria
ferias
feridas
feritas
ferito
feritos
ferius
fermat
fermentacio
fermi
fermosa
fermoso
ferna
fernanda
fernando
feroe
ferra
ferrada
ferradura
ferraina
ferramienta
ferramientas
ferran
ferrand
ferrando
ferrara
ferrari
ferraz
ferre
ferrer
ferrera
ferreras
ferreri
ferrero
ferreruela
ferria
ferro
ferrocarril
ferrocarrils
ferrol
ferroviaria
ferroviarias
ferroviario
ferroviarios
ferry
fertilidat
fertu
fese
fesen
fesensac
festa
festival
festivals
festividat
festividatz
festivo
festivos
fet
feta
fetas
feto
fetos
feu
feudal
feudalismo
feudals
feudo
feudos
fez
ff
fheilimi
fi
fia
fiasta
fiat
fiba
fibra
fibras
fica
ficacio
ficar
ficas
ficcio
ficha
fichas
fichero
fichi
fico
ficos
ficticio
ficticios
fiction
fidel
fidelidat
fidels
fiebre
fiel
field
fields
fiemo
fiennes
fiera
fierro
fiesta
fiestas
fifa
figado
figaro
fighter
fighting
figuera
figueras
figueres
figueroa
figueruelas
figura
figuran
figurar
figuras
fila
filada
filadelfia
filar
filas
file
filiacio
filial
filipi
filipinas
filippo
fill
filla
fillas
fille
fillo
fillos
film
filmacio
filmografi
films
filo
filochenia
filolo
filolochi
filologi
filologo
filologos
filos
filosofi
filosofica
filosoficas
filosofico
filosofo
filosofos
fils
fin
fina
final
finales
finalidat
finalidatz
finalista
finalment
finals
financiacio
financiar
financiera
financieras
financiero
finanzas
finas
finca
fincas
finch
find
findlang
fine
fines
fineses
finestra
finestras
finisterre
finlande
finlandeses
finlandia
finn
finney
fino
finollosa
finos
fins
fiordland
fiques
fire
firma
firmar
firme
firmes
firmo
firmoron
first
firth
fisac
fiscal
fiscals
fischbacher
fischer
fish
fishburne
fisher
fisica
fisicament
fisicas
fisico
fisicos
fisio
fisiolochi
fisiologo
fita
fitero
fito
fitonimia
fitonimo
fitonimos
fitzgerald
fiume
five
fixa
fixada
fixar
fixas
fixo
fixos
fizo
fizon
fl
fla
flag
flaire
flaires
flama
flamas
flamenca
flamenco
flamencos
flanco
flanders
flandres
flash
flavio
flea
fleet
fleischer
fleming
fleta
fletcher
flexibilidat
flexio
flight
flix
flo
floor
flor
flora
florada
florals
florata
flore
florenc
florence
florencia
flores
flori
floria
florida
florinda
florir
flors
flota
floyd
fluido
fluidos
flumen
fluvia
fluvial
fluvials
fluvio
fluxo
fluye
flying
flynn
flysch
fo
foc
focas
foces
focino
foco
focos
fogache
fogaje
fogar
fogaril
fogars
foguera
fogueras
foi
fois
foix
fol
foliolos
folk
folklore
follarasca
follas
fols
fomentar
fomento
fonda
fondada
fondaria
fondo
fondonada
fondons
fondos
fondura
fonduras
fone
fonema
fonemas
fonetica
foneticament
foneticas
fonetico
foneticos
fongo
fongos
fonolochi
font
fontaine
fontainebleau
fontana
fonte
fontes
fontsize
fonz
food
foot
football
for
fora
forachitar
forachitato
forachitatos
forachitaus
forachito
forachitoron
foradada
foral
foran
forana
foranas
forano
foranos
foratata
forato
foratos
forau
foraus
forbes
forca
forcallo
forcas
force
forces
forcos
ford
fore
forest
forestal
forestals
forever
forli
forma
formaba
formaban
formacio
formacions
formada
formadas
formador
formal
formalment
formals
forman
formando
formant
formar
formas
format
formata
formatas
formation
formato
formatos
formau
formaus
formich
formigal
formigals
formigo
formo
formoron
formula
formulacio
formulas
fornigal
fornigas
forno
fornos
foro
foros
forque
forqueta
forrest
forster
fort
fortaleza
fortalezas
fortanet
forte
fortificacio
fortificacions
fortificada
fortificata
fortificato
fortificau
fortu
fortuna
forum
forzata
forzo
fosal
fosau
fosca
fosco
fosfato
fosforo
fosilizacio
fosilizau
fosils
fosse
foster
foto
fotoelectrico
fotografi
fotografica
fotografo
fotons
fotos
fotosintesi
foucault
found
foundation
fountain
four
fourth
fovano
fox
foya
foyas
foz
fr
fra
frac
fracasar
fracaso
fraccio
fraga
fragancias
fragmentacio
fragmento
fragmentos
frago
frai
fraile
fraires
fraixneda
fraixno
frame
fran
franc
franca
francais
francas
france
frances
francesa
francesas
francesc
francesca
francesco
franceses
francha
franchas
francho
franchot
francia
francico
franciosa
francis
francisca
franciscans
francisco
franck
franco
franconia
franconismos
francos
franja
frank
franka
frankenheimer
frankenstein
frankfurt
frankie
franklin
franquicia
franquismo
franquista
franquistas
franz
frase
fraser
frases
frau
fraxinus
fray
fre
fred
freda
fredas
freddie
frederic
frederick
frederico
fredo
fredor
fredos
fredric
free
freedom
freeman
freguesi
freiburg
fren
french
frent
frente
frents
frequ
fresca
frescano
fresco
frescos
fresno
freud
freyung
fri
friburgo
frica
fricativa
fricativo
frida
fridas
frido
fridos
friedrich
friends
friesiana
friesii
frisia
friso
frisonas
frito
fritz
friuli
frodo
from
fromm
front
frontal
frontera
fronteras
fronto
frosinone
fruita
fruitals
fruitas
fruito
fruitos
frusciante
frutos
fu
fue
fueba
fuego
fuegos
fuella
fuellas
fuen
fuencalderas
fuenlabrada
fuens
fuent
fuente
fuentes
fuentiduen
fuents
fuera
fueras
fuero
fueron
fueros
fuerte
fuertement
fuertes
fuerza
fuerzas
fuesa
fuesas
fuese
fuesen
fueva
fueya
fuga
full
fuller
fullerton
fumo
funchal
funcio
funciona
funcional
funcionalidat
funcionals
funcionamiento
funcionan
funcionar
funcionario
funcionarios
funcions
function
funda
fundacio
fundacional
fundada
fundador
fundadors
fundamental
fundamentalment
fundamentals
fundamentos
fundan
fundando
fundar
fundas
fundata
fundato
fundau
fundir
fundo
fundoron
fundos
funes
fungi
funk
fuo
fuoron
fura
furo
fury
fusca
fuselache
fuset
fusilato
fusio
fusionar
fusiono
fusionoron
fuso
fusta
fustas
fuster
futbol
futbolista
futbolistas
futur
futura
futuras
future
futuro
futuros
fuye
fuyen
fuyindo
fuyio
fuyir
fuyoron
g
ga
gaba
gabarda
gabardo
gabinet
gable
gabo
gabriel
gabriela
gabriele
gaelico
gaetano
gagauzes
gai
gaia
gais
gaita
gal
gala
galabru
galacho
galachos
galaico
galas
galaxia
galaxias
gale
galega
galera
galeras
galeri
galeria
galesa
galeses
gali
galia
galias
galicia
galicismo
galicismos
galico
galilea
galileo
galindo
galitzia
gall
gallaecia
galle
gallega
gallego
gallegos
gallen
gallery
galligo
galliguera
gallina
gallinas
gallipoli
gallipuent
gallo
gallocanta
gallone
gallur
galme
galo
galos
galv
galve
galwan
gama
gamba
gambia
game
games
gametos
gamma
gan
gana
ganadera
ganaderas
ganaderi
ganadero
ganaderos
ganaders
ganado
ganador
ganadora
ganadors
ganados
ganan
ganando
ganar
ganato
ganau
gance
gancho
gandalf
gandesa
gandhi
gandi
gandia
gangas
gano
ganoron
gant
ganyarul
ganz
gap
gar
gara
garanti
garas
garba
garbo
garce
garchola
garcholas
garci
garcia
garcilaso
garcipollera
garda
garde
garden
gardner
gardon
gare
garfield
gargallo
gargancho
garganta
garin
garland
garmisch
garmo
garnacha
garner
garona
garonne
garra
garraf
garrapiniellos
garras
garrido
garriga
garrigas
garrocha
garson
gary
garzo
gas
gasco
gascogne
gascon
gascona
gascons
gascunya
gases
gasherbrum
gaso
gaspar
gassman
gasto
gaston
gastos
gastronomi
gate
gates
gato
gatos
gaudenc
gaudi
gauguin
gaulle
gavarni
gave
gaves
gavi
gavin
gay
gayata
gaye
gaynor
gayo
gazaros
gbonieu
gdan
ge
gea
gehrels
geiger
gelderland
geli
gelle
geltru
gemini
gen
gender
gene
genera
general
generalfeldmarschall
generalitat
generation
genes
genetta
genevie
genfrancesa
genista
gennes
gens
gent
gente
gentes
gentleman
geoffrey
geogra
geografi
geographic
geolo
geologi
geomorfologi
georg
george
georges
georgia
ger
gerais
gerald
geraldine
gerard
gerd
gerhard
germa
germain
german
germany
gernika
gero
gerry
gers
gerse
geschichte
gestapo
get
getafe
getparent
ghana
ghil
ghost
gi
gia
giacomo
gian
giancarlo
gianni
giant
gibraltar
gibson
gica
gicas
gico
gicos
gielgud
gif
gig
gijo
gil
gilbert
gilles
gillian
gima
gime
gimeno
gimona
gimpera
gina
ginas
giner
ginger
gino
ginzburg
giono
giorgio
giovanni
gipuzkoa
giralt
girardet
girardot
girl
girls
giro
girona
gironda
gironella
gistai
gistain
giulio
giuseppe
give
gje
gjirokaste
gl
glaciacio
glacial
glacials
glaciar
glaciares
glaciars
glacis
gladbach
glandula
glandulas
glasgow
glaud
gleeson
glenda
glenn
glera
gli
glise
global
globalizacio
globals
globo
globos
gloria
glory
glosas
gloucestershire
glover
glu
gmbh
gmelin
gnosca
gnu
go
gobernador
gobernar
goberno
gobierno
gobiernos
god
godfather
godfrey
godina
godos
gods
goes
goethe
gogh
goierri
going
goire
gol
gold
golden
goldsmith
goles
golf
golfo
goliador
golias
gollum
golpe
golpes
gols
goma
gomera
gomez
gonc
goncourt
gone
gonen
gonza
gonzaga
gonzalo
gonzalvo
good
goodbye
goodman
goodricke
google
gora
gorda
gordaria
gordo
gordon
gore
gorga
gorgas
gorgutes
gormaz
goro
gosa
gosaba
gosaban
gosan
gosando
gosar
gosato
gosau
goso
gossett
gostanza
got
gota
gotha
gotica
goticas
goticismo
goticismos
gotico
goticos
gotor
gottfried
gottlieb
gould
goulding
gov
government
govt
goya
goyo
gpl
gps
gr
gra
grable
grace
gracia
gracias
grad
grada
gradient
grado
gradual
gradualment
graf
grafi
grafia
grafica
graficas
grafico
graficos
grafo
graham
grahame
graixa
gralla
grama
gramatica
gramatical
gramaticals
gramatuero
gramenet
graminias
grammaire
grammar
grammatik
grammy
gramos
gran
granada
granadinas
grancha
granchas
grand
grandaria
grande
grandes
granger
granito
graniza
granizo
granizos
granja
grano
granollers
grans
grant
granye
grasa
grassa
gratacielos
gratal
grau
graus
grausino
grava
gravacio
gravacions
gravador
gravar
gravato
gravatos
gravau
grave
gravedat
graves
gravo
gray
graz
grazia
gre
great
greatest
grecia
greco
greda
gredal
gredos
greek
green
greene
greenwich
greer
greg
gregoria
gregorio
gregory
grenada
grenoble
greta
grey
gridcolor
grie
griega
griegas
griego
griegos
grieu
grieus
griffith
griffiths
grijalbo
grillo
grimm
gripe
gris
grisa
grisas
grise
grisel
griso
grisons
grist
grito
griu
gro
groeneveld
groningen
gronlandia
gros
groucho
ground
group
grove
gru
grupo
grupos
gs
gsub
gta
gu
gua
guadalachara
guadalajara
guadalaviar
guadalop
guadalope
guadalquivir
guadalupe
guadiana
guaido
guaire
guaires
guam
guanajuato
guara
guarda
guardafuents
guardan
guardar
guardau
guardia
guardian
guardias
guardiola
guarga
guarguera
guarnicio
guarnicions
guaso
guatemala
guayana
guayaquil
gubernador
gubernadors
gubernamental
gubernamentals
gubernants
gubernar
guberno
gubierna
gubierno
gubiernos
gudiol
gue
guergue
guerne
guernica
guerra
guerras
guerre
guerrera
guerrero
guerrers
guerrilla
guerrillas
guerrillero
guerrillers
guevara
guez
guglielmo
gui
guia
guida
guide
guido
guila
guildford
guillaume
guille
guillem
guillermo
guinea
guinness
guinot
guio
guionista
guionistas
guions
guipuzcua
guisa
guitar
guitarra
guitarras
guitarrista
guitarristas
guiz
gules
gun
gunnar
guns
gupta
gurrea
gurrio
gustaf
gustav
gustave
gustavo
gusto
gut
gutenberg
guthrie
gutie
guy
guyana
guyena
guzma
gwened
gwenn
gwilen
gwyneth
gyo
h
ha
haag
haakon
haarlem
hab
habana
habe
haben
habendo
haber
haberba
habi
habilidat
habilidatz
habio
habioron
habita
habitaba
habitaban
habitable
habitada
habitadas
habitador
habitadors
habitan
habitans
habitant
habitants
habitat
habitata
habitatas
habitato
habitatos
habitats
habitau
habitaus
habito
habitos
habitual
habitualment
habituals
habiu
habla
hablas
habra
habri
habsburgo
habsburguica
hackman
had
haddock
hadria
hadriana
haensch
hagen
hai
haifa
haiga
haigan
haile
hainaut
haing
haiti
haitia
haito
hakam
hal
hale
haleakala
halepensis
half
hall
halland
halle
halochenos
ham
hamburg
hamburger
hamburgo
hamilton
hamlet
hammersmith
hampshire
han
hand
handbook
handy
hank
hanks
hanna
hannah
hannes
hannover
hanoi
hans
hansa
hanseatica
hanson
happy
hara
harald
harbour
hard
hardcore
harden
harding
hardware
hardwicke
hardy
harlem
harlow
harmonica
haro
harold
harper
harpo
harris
harrison
harry
hart
hartert
hartford
harvard
harvey
has
hassan
hasta
hastings
hat
hathaway
hattie
hatzfeld
haus
haut
haute
have
havel
haven
havilland
hawaii
hawelka
hawk
hawke
hawkins
hawks
hawthorne
hay
hayden
hayes
hayward
hayworth
he
head
health
hear
heart
hearts
heat
heath
heather
heaven
heavy
heba
heban
hebraicos
hebrea
hebreu
hechemoni
hecho
hecht
hectarias
hector
hedy
heflin
hei
heidelberg
height
heights
heimdal
heinrich
heinz
hel
helen
helena
helenismo
helenismos
helenistico
helicoptero
helin
helio
helios
hell
helm
helmut
help
helsinki
hematites
hemingway
hemionus
hemisferio
hemos
henares
hendaia
hendrix
henreid
henri
henrik
henrique
henry
henryk
hepburn
her
hera
heraclio
heraldo
herbacias
herbert
herbivoros
hercules
here
herechi
hereda
heredera
heredia
herediana
hereditario
heredo
herencio
hereu
hereus
herge
heritage
herman
hermanas
hermann
hermanos
hermione
hermosilla
herna
hernando
hernango
hero
heroe
heroes
heroi
herois
herpetologo
herra
herrengasse
herrera
herrero
herria
hertfordshire
hertz
herzegovina
hese
hesen
hespital
hespitalers
hespitals
hess
hesse
hessel
heston
het
heterosexual
heterosexuals
heu
hevia
hg
hi
hiato
hibernadero
hibierno
hibiernos
hibrido
hibridos
hichiene
hicienda
hickman
hicks
hickson
hidalgo
hiddencat
hidra
hidraulica
hidrocarburos
hidrocheno
hidroelectrica
hidrografi
hidrografica
hidrolochi
hidrolochica
hidronimia
hidronimo
hidroxido
hielo
hierarchy
hierarqui
hierba
hierbas
hierro
higgins
high
higher
higuera
hijo
hijos
hil
hilary
hildesheim
hilgemann
hill
hillary
hiller
hills
hilton
him
himalaya
himmler
himno
himnos
hindenburg
hindi
hindu
hinduismo
hines
hinojosa
hip
hipo
hipotesi
hipotesis
hipotetica
hipoteticas
hipotetico
hippolyte
hiroshima
his
hispa
hispana
hispania
hispaniae
hispanica
hispanico
hispano
histo
histoire
historia
historiador
historiadora
historiadors
historial
historias
historica
historical
historicament
historicas
historico
historicos
historieta
historiografi
historique
history
hitchcock
hitler
hits
hl
hm
ho
hobart
hobbit
hocino
hockey
hof
hoffman
hoffmann
hogan
hohenstaufen
hohenzollern
hoi
hokkaido
holanda
holande
holden
hole
holiday
holland
holliday
holly
hollywood
holm
holmes
holocausto
holstein
holt
holvorcem
holy
hombre
hombres
home
homenache
homenaje
homer
homero
homme
homo
homochenio
homofobia
homonima
homonimo
homosexual
homosexualidat
homosexualite
homosexuals
hondo
honduras
hong
hongara
hongaro
hongaros
hongri
honolulu
honor
honore
honorio
honoris
honors
honra
honras
hontoria
hop
hope
hopkins
hopper
hora
horace
horario
horarios
horas
horatio
horcajo
horda
hordaland
hordio
horizont
horizontal
horizontals
horizonte
hormonas
horn
hornets
horno
horse
horst
horta
hortal
hortalicias
horte
hoskins
hospicio
hospital
hospitalet
hospodars
hostal
hostilidat
hostilidatz
hot
hotel
hotels
hour
hours
house
houseman
houston
houten
how
howard
hoy
hoya
hoyo
hoyos
hoz
hr
hrer
hrsg
htm
html
http
https
hu
huang
huatl
hubble
hubert
hubo
hud
hudson
hue
huei
huelva
huembro
huembros
huerta
huertas
huerto
huertos
huerva
huesca
hug
hugh
hughes
hugo
hugonotz
hui
hull
huma
human
humana
humanas
humanidat
humanidatz
humanista
humano
humanos
humans
humberto
hume
humedat
humedo
humida
humidas
humidat
humido
humidos
humor
humorista
humphrey
hunnos
hunt
hunter
huntington
hurt
hus
husitas
hussein
hussey
huston
hutt
hutton
huygens
hyde
hymes
hyundai
i
ia
iaaf
ian
iar
ias
iata
iauliai
iba
iban
ibarra
ibdes
ibe
ibenik
ibera
iberas
ibercaja
iberia
iberica
ibericas
iberico
ibericos
ibero
ibers
iberus
ibi
ibieca
ibiza
ibm
ibn
ibo
ibonet
ibons
ibrahim
ic
ice
ich
ici
ico
icono
id
ida
idaho
idat
idea
ideal
ideas
identica
identidad
identidat
identidatz
identifica
identificacio
identifican
identificar
identificato
identifico
identity
ideolochi
ideya
ideyal
ideyals
ideyas
ideyolochi
idi
idioma
idiomas
ido
ie
iella
iello
ier
ies
if
ifc
iglesia
iglesias
iglesuela
ign
ignacio
igo
igor
igre
igual
igualada
igualdat
igualment
iguals
ii
iii
il
ila
ilche
ildefonso
ilegal
ilesia
ilesias
ilex
ilhe
ili
iliada
ilirios
ilirismo
illa
illinois
illo
illueca
illustrated
ils
iluminacio
ilustracio
ilustracions
ilustres
im
ima
imachen
imachens
imachinario
image
imagen
imagesize
imdb
img
imitacio
imitar
immigracio
immigrants
immunidat
immunitario
imos
impacto
impactos
impedir
imperativo
imperator
imperatore
imperfecto
imperfectos
imperia
imperial
imperialismo
imperials
imperio
imperios
impersonal
impersonals
impide
impidio
implementacio
implica
importa
importancia
importans
important
importante
importants
importar
imposa
imposar
imposible
imposicio
imposo
imposoron
imprenta
impresio
impresionant
impresionismo
impuesto
impuestos
impulso
impulsor
imre
in
ina
inauguracio
inaugurata
inaugurato
inauguro
inazio
inc
inca
incapacidat
incendio
incendios
incheccio
inchenieri
incheniero
incheniers
incidencia
incident
inclinacio
inclui
incluiba
incluida
incluidas
incluindo
incluir
incluita
incluito
incluitos
incluiu
incluius
inclusa
inclusio
incluso
incluye
incluyen
incluyendo
incluyiba
incluyida
incluyidas
incluyindo
incluyir
incluyitos
incluyiu
incluyius
incluyo
incoativa
incoativas
incoativo
incoativos
incompatible
incontables
incorpora
incorporacio
incorporando
incorporar
incorporau
incorporo
increment
incremento
incursio
incursions
indarctos
inde
indefinito
indefiniu
indefinius
independencia
independent
independentismo
independentista
independentistas
independient
independiente
independientment
independients
independizar
independizo
index
indi
india
indian
indiana
indians
indias
indica
indicaba
indicacio
indicador
indicadors
indican
indicando
indicar
indicativo
indice
indichena
indichenas
indicios
indico
indio
indios
indirecta
indirectas
indirecto
indirectos
individual
individuals
individuo
individuos
indo
indochina
indoeuropea
indoeuropeo
indoeuropeu
indoeuropeus
indonesia
indonesio
indre
indreitament
induccio
indumentaria
industria
industrial
industrializacio
industrials
industrias
ine
inedito
ineditos
inestabilidat
infancia
infant
infanta
infante
infanteri
infantes
infantil
infantils
infants
infanzons
infeccio
infeccions
inferior
inferiors
inferno
infierno
infinitivas
infinitivo
infinitivos
infinito
infixo
inflacio
inflorescencia
inflorescencias
influencia
influencias
influir
influito
influiu
influxo
influye
influyencia
influyencias
influyent
influyents
influyo
info
informa
informacio
informacions
informal
informatica
informatico
informaticos
information
informazio
informe
informes
informo
infortunada
infraestructura
infraestructuras
infrarroyos
infrastructuras
infty
ingenio
inger
inglaterra
ingle
inglewood
ingmar
ingredient
ingredients
ingreso
ingresos
ingrid
ingu
inicial
inicialment
inicials
iniciativa
iniciativas
inicio
inicios
iniesta
inmaculada
inmigracio
inmigrants
inn
innovacio
innovacions
innsbruck
ino
inocencio
input
inscripcio
inscripcions
insectivora
insecto
insectos
insee
insercio
insert
inside
insistencia
inspector
inspiracio
inspirata
inspirato
inspirau
inspiro
instagram
instalacio
instalacions
instalar
instalau
instalo
instaloron
instancia
instancias
institucio
institucional
institucions
institut
institute
instituto
institutos
instruccio
instruccions
instrumental
instrumento
instrumentos
insular
insulars
insurreccio
int
inte
integra
integracio
integrada
integral
integrales
integran
integrants
integrar
integrata
integrato
integratos
integrau
integridat
integro
intel
intelectual
intelectuals
intelichencia
intelichent
intelichents
intencio
intensa
intensas
intensidat
intenso
intenta
intentar
intento
intentos
inter
interaccio
interaccions
intercambeo
intercambio
intercensal
intercontinental
interdental
intere
interesant
interesants
intereses
interestelar
interferencia
interfluvio
interior
interiors
interlingua
interlocutors
intermedia
intermediaire
intermedias
intermeya
intermeyo
interna
internacional
internacionalment
internacionals
internas
international
internationale
internet
interno
internos
interpresa
interpresario
interpresarios
interpresas
interpreta
interpretacio
interpretacions
interpretadas
interpretan
interpretando
interpretar
interpretata
interpretato
interpretau
interprete
interpretes
interpreto
interrogativas
interrogativo
interrogativos
interrupcio
interseccio
intervencio
intervencions
intervenir
intervienen
interview
intervinio
intervinioron
intervocalica
intervocalicas
intes
into
intransitivos
intrapirenenca
intre
intresant
intresants
intreses
intriga
introduccio
introduce
introducen
introducida
introducindo
introducio
introducioron
introducir
introduciu
introduction
introdueita
introdueitas
introdueito
inundacio
inundacions
invade
invaden
invadio
invadioron
invadir
invariable
invasio
invasiones
invasions
invasors
invencio
inventario
inventau
invento
inventor
inventors
inventos
inversa
inversio
inversions
inverso
invertebraus
investidura
investigacio
investigaciones
investigacions
investigador
investigadors
investigar
invisible
io
ion
ions
iowa
ip
ipairs
iparralde
iquino
ir
ira
irak
iran
irani
irania
iranias
iranios
iranzo
iraq
iraqui
irati
ire
iregua
ireland
irene
iris
irish
irlanda
irlande
irlandesa
irlandeses
iron
irregular
irregularidatz
irregulars
irreversible
irving
irwin
is
isa
isaac
isaba
isabana
isabel
isabella
isabelle
isac
isar
isbert
isbn
isbol
isco
ise
iser
isidoro
isidro
isla
islam
islamica
islamicas
islamico
islamicos
islamizacio
island
islande
islandesa
islandia
islands
islas
isle
isleta
isletas
ismael
ismail
ismo
iso
isoglosa
isoglosas
isola
isonzo
isotopo
isotopos
israel
israeli
iss
issn
ist
ista
istambul
istas
iste
istes
istevan
istica
isticament
isticas
istico
isticos
istmo
isto
istoria
istos
istre
istria
isuela
it
ita
italia
italian
italiana
italianas
italianismo
italianismos
italiano
italians
italica
italicas
italico
italo
italy
item
itinerario
itinerarios
ito
its
itsmo
iu
iuan
iucn
iucnredlist
iulia
iupac
iure
ius
iv
iva
ivan
ives
ivo
ivory
iwi
ix
ixa
ixalenques
ixamplar
ixamplo
ixar
ixas
ixe
ixemenatos
ixena
ixes
ixo
ixos
ixota
ixufre
ixutas
ixuto
iz
izas
izquierda
izquierdo
j
ja
jaca
jacinto
jack
jackie
jackson
jacky
jacob
jacopo
jacqueline
jacques
jade
jadraque
jae
jagger
jaime
jairo
jakarta
jake
jakob
jalisco
jalo
jamaica
jamais
james
jamie
jamiroquai
jan
jane
janeiro
janet
janis
january
japan
japonica
jar
jara
jarama
jardi
jarque
jarre
jason
jaume
java
javalambre
javier
javierre
jay
jazz
je
jean
jeanette
jeanne
jedi
jeff
jefferson
jeffrey
jena
jennifer
jenny
jens
jeremy
jermaine
jero
jerry
jersey
jerusale
jerusalem
jerzy
jesse
jessica
jesu
jesus
jet
jewison
ji
jill
jiloca
jim
jime
jimeno
jimi
jimmy
jn
jo
joa
joachim
joan
joanne
joaqui
joaquim
joaquin
jobling
jobs
jockey
jodie
joe
joel
joey
johan
johann
johannes
johannesburgo
john
johnny
johns
johnson
johr
joiosa
jolie
jolly
jon
jonas
jonathan
jones
jong
joplin
jorda
jordan
jordi
jorge
jornada
jornadas
jos
jose
josef
josefa
josefina
josefo
josep
joseph
josephine
josh
joshua
josip
jota
jour
journal
journey
jours
joven
joventut
joy
joyce
joyner
jozef
jpeg
jpg
jr
ju
jua
juan
juana
juanito
juarros
jubilar
judas
judd
jude
juderi
judet
judge
judgment
judi
judith
judo
judy
juegos
juels
jules
julia
julian
julie
julien
juliette
julio
julius
julliard
july
june
jung
junio
junior
juniperus
junta
juntos
jura
jurado
jurassic
juri
juric
jusqu
just
juste
justice
justicia
justin
justo
juventud
juventus
k
ka
kabul
kaduna
kahlo
kai
kaiser
kaliningrado
kaltenbrunner
kan
kanagawa
kane
kaneda
kangchenjunga
kansas
kanto
kanton
kantonamendua
kara
karabakh
karamchand
karate
karen
karin
karl
karloff
karlowitz
karlsruhe
kars
karst
karstica
karsticas
karstico
karsticos
kassel
kate
kategori
kategoria
kategorie
kategorija
katharine
katherine
kathleen
kathy
katina
katoomba
katowice
katsuura
kaufman
kaunas
kawarau
kay
kazan
kb
ke
kea
keaton
keep
keitel
keith
kellaway
kelly
kemal
ken
kenia
kennedy
kenneth
kenny
kent
kentucky
kepler
kerr
keuper
kevin
key
kg
kha
khacaso
khacasos
khan
khanato
khitai
khmer
ki
kick
kid
kidman
kiedis
kiel
kiev
kill
killer
kilogramos
kilometro
kilometros
kim
kind
kinder
king
kingdom
kings
kingsley
kingston
kinshasa
kinski
kirche
kirchner
kirguizes
kirguizista
kirk
kiss
kitt
kitty
kiwi
kk
klagenfurt
klaipe
klaus
klein
klet
klimovsky
kline
klingon
kloster
km
knight
know
knowles
ko
kobayashi
koch
koenig
komorowski
kong
konrad
kopff
korac
korlevic
korps
kos
kosovo
krajina
kramer
kristel
kristen
kristin
kru
kruger
krzysztof
kt
ku
kubrick
kuhn
kurdos
kurosawa
kurt
kus
kuwait
kvistaberg
kwai
ky
kyle
l
la
labanha
labata
labaza
label
laberinto
labios
laboa
labor
laboral
laborals
laboratorio
laboratorios
laboratory
laborda
labordeta
labors
labort
labrador
labradors
labrar
labrit
labuerda
lac
lacambra
lacarra
lacasa
laco
lacos
lacsdespyrenees
lactia
lacuna
lacunas
lacus
ladd
ladera
laderas
ladero
ladi
ladislau
lado
ladriello
ladro
ladrones
lady
lafuente
laga
lagarde
lagata
lago
lagoin
lagos
laguardia
lagueruela
laguna
lagunas
lai
laicos
laing
lake
lakers
lama
lamarr
lamas
lamata
lamba
lambert
lamberto
lamina
laminas
lamineri
lamins
lamo
lampa
lan
lana
lanacha
lancashire
lancaster
lance
lanchester
land
landa
landas
landau
landeshauptstadt
landkreis
landkroas
lane
lang
langa
langcode
lange
langobj
language
languages
langue
langues
lanka
lannes
lannoy
lansbury
lanuza
lanza
lanzada
lanzadors
lanzamiento
lanzar
lanzarote
lanzau
lanzo
lanzuela
lao
laos
lapesa
lapetra
lapurdi
lar
lara
lardana
lardie
lardo
larga
largaria
largas
largo
largometrache
largos
lari
larinche
larousse
larraz
larre
larrede
larri
larry
lars
larumbre
laruntz
larvas
las
lascorz
laser
lasieso
last
lastanosa
lastra
lastras
lat
lata
latas
late
lateral
laterals
latham
lati
latin
latina
latinas
latinismos
latinizau
latino
latinoamerica
latinos
latins
latitut
latitutz
lato
latorre
latre
lau
laughton
laura
lauragais
laurague
laurel
lauren
laurence
laurent
laurentii
lauria
laurie
lausana
lausberg
lava
lavador
laval
law
lawrence
lax
laye
layer
lazaga
lazaro
lazena
lazio
lbl
lbum
lbumes
lbums
lc
ld
lders
le
lea
league
leal
lean
leave
leb
leben
leblanc
leccio
lecera
lech
leche
lechendario
lechio
lechions
lechislacio
lechislativa
lechislativas
lechislativo
lechislatura
lechitimidat
lechitimo
lecina
lecinyena
lector
lectors
lectura
ledesma
ledger
ledo
lee
leeds
leeuwenhoek
left
leg
lega
legado
legal
legalment
legals
legane
legau
legavin
legend
legends
legua
legumbres
lei
leia
leibniz
leida
leiden
leigh
leipzig
leire
leis
leit
leito
leitora
leiva
leixos
lema
lemmon
lemos
lemosi
lena
leners
lengua
lenguache
lenguadoc
lenguadocia
lenguas
lenguasdearagon
lenin
leningrado
lenny
lens
lenta
lentament
lento
lenya
leo
leon
leonard
leonardo
leone
leonhard
leonor
leopardo
leopold
leopoldo
lepanto
lepiota
lera
leri
lerma
leroy
les
lescar
lesico
lesio
lesions
leslie
lesoto
lester
let
leto
letonia
letons
letra
letras
letrista
letter
letters
lettre
lettres
leuven
lev
leva
levaba
levaban
levada
levadas
levadura
levan
levando
levant
levante
levanti
levantina
levar
levato
levau
levi
levinson
levo
levoron
lew
lewis
lex
lexica
lexicas
lexico
lexicografi
lexicografo
lexicolo
lexicolochi
lexicon
lexicos
lexikon
lexington
ley
leye
leyemos
leyenda
leyendas
leyer
leyo
leyone
leyonesa
leyonesas
leyoneses
leyonesismos
lez
leza
lezo
lfp
lgbt
lh
lha
lhausen
lhotse
li
lia
liaison
liam
liard
liban
libane
libe
libels
liber
libera
liberacio
liberal
liberals
liberan
liberando
liberar
liberata
liberato
liberia
libero
libertad
libertat
libertatz
liberty
libia
libra
librar
library
libras
libre
librement
libreri
libres
libro
libros
lic
lica
licencia
licencias
licenciato
licenciatura
licenciau
licencio
lichera
licherament
lichero
lichtenstein
lico
lider
liderato
liders
lidje
lido
lie
liebe
liebre
liechtenstein
liena
lienda
lienzo
lierp
lies
lieu
life
liga
ligada
ligallo
ligallos
ligar
ligas
ligata
ligato
ligau
ligaus
ligazo
light
lightgrey
lightning
lignito
ligu
ligue
ligur
liguria
like
lila
lilfordi
lille
lillian
lima
limbo
limburgo
limes
limita
limitacions
limitada
limitau
limite
limited
limites
limo
limoches
limpiar
limpieza
limpio
lin
lina
linache
linaches
linares
linars
lincoln
lincolnshire
linda
lindsay
lindsey
line
linea
lineal
linear
lines
lingu
lingua
linguistica
linguistique
linia
linial
linias
link
linked
linnaeus
linne
lino
linux
linz
lio
lion
lionel
lions
lipidos
liquida
liquido
liquidos
liria
lis
lisa
lisboa
lisbona
lisis
liso
lisos
list
lista
listas
lit
litago
litera
literal
literalment
literaria
literarias
literario
literarios
literatura
literature
lithgow
litichio
lito
litoral
litovsk
litro
litros
litte
little
litua
lituana
lituania
lituano
lituans
liturchia
liturchica
liu
liucherament
liuchero
liv
live
livel
livels
liverpool
lives
living
livonia
livorno
livre
lix
liz
liza
lizano
lizzy
ljouwert
ljubljana
lkl
ll
lla
llaguarres
llana
llanera
llanes
llano
llanos
llar
llascuarre
llauset
llaviana
lle
llego
lleida
llena
llengu
llengua
ller
llerena
lletres
lli
llibre
llinars
llingu
llingua
llitera
lliterola
llo
llobet
llobregat
lloc
llorenc
lloris
llosa
lloyd
lls
lluc
lluch
llugar
llugars
llui
lnb
lo
lobarre
lobera
lobo
lobos
lobulos
loca
local
localidad
localidat
localidatz
localiza
localizacio
localizada
localizata
localizato
localizau
localizaus
localment
locals
location
locativo
lochica
lochico
lochicos
locis
locke
lockheed
loco
locucio
locucions
lodi
lodie
log
logan
logo
logos
logotipo
logra
lograr
logro
logron
logronyo
loi
loir
loira
loire
loiret
lois
loiseau
loisiana
lola
lolo
loma
lomanha
lomas
lomaza
lombard
lombardi
lombardo
lon
loncha
lonchitut
london
londres
lonely
loneos
long
longares
longaria
longarias
longars
longobardo
longobardos
longuiello
look
loop
lop
lope
lopez
lopi
lopinye
loporzano
lora
lorca
lord
lorda
lore
loren
lorena
lorene
lorente
lorenzo
loreto
loretta
lorient
loriente
loron
los
losa
losas
loscertales
loscos
losera
loseta
losetas
lost
lot
lou
louis
louise
louisville
lourdes
louvre
love
lovely
low
lowe
lowell
lower
loy
lozano
lp
ls
lt
ltd
ltima
ltimo
lu
lubitsch
lublin
luc
luca
lucas
lucca
lucchetti
lucena
luceni
lucerna
luces
lucha
luchino
luci
lucia
luciano
lucien
lucientes
lucio
lucky
luco
lucy
ludendorff
ludie
ludivine
ludovico
ludwig
luego
luen
luenga
luengache
luengaches
luengas
luengo
luengos
luent
luesia
lueza
luftwaffe
lug
lugano
lugansk
lugar
lugares
lugaro
lugarons
lugars
lugartenient
lugdunum
lugo
lugosi
lui
luigi
luis
luisa
luita
luitaban
luitan
luitando
luitar
luitas
luito
luitoron
luixo
luka
lukas
luke
lula
lulos
lum
lumbier
lumero
lumet
lumie
luminosa
lumo
luna
lunar
lunas
lund
lune
lunes
lunetas
lunt
lupercio
lupino
lupo
lupos
lupus
lur
lurs
lurte
lusacia
lusismos
luterans
lutero
luther
lutitas
lutra
luxemburgo
luxemburgue
luxo
luz
luza
lvarez
lvaro
lvez
lviv
lwo
ly
lyga
lykke
lynch
lynn
lynott
lynx
lyon
lys
m
ma
maarten
maastricht
mac
macabeu
macarthur
macau
macdonald
macedonia
macedonians
macfadyen
mach
machado
machia
machico
machine
machisterio
maci
macintosh
macizo
macizos
maclaine
macmillan
macquarie
macrotoponimo
mad
madagascar
madalena
madame
madden
made
madeira
madeleine
madera
madirane
madison
madonna
madoz
madre
madrid
madrilenya
madrilenyo
madrit
madriz
madsen
madura
maduracio
mae
maella
maestrazgo
maestro
mafia
magallo
maganza
magazine
magdalena
magdeburgo
maggie
magic
magma
magna
magnani
magnanimo
magnesio
magnetica
magnetico
magnificent
magnifico
magnitut
magnitutz
magno
magnoliopsida
magnus
mago
magos
magreb
maguer
maha
maharashtra
maheo
mahoma
mai
maicas
maiden
main
mainar
mainates
maine
mainsnak
mairie
mais
maison
maiti
maitinada
major
make
making
mal
mala
malaca
maladeta
malaga
malaisia
malament
malanquiella
malas
malauti
malauto
malautos
malawi
malaya
malayo
malcolm
malden
maldito
maldivas
male
malena
malgre
mali
malibu
malik
mall
malla
mallaca
mallada
mallarruego
mallata
malle
mallo
mallorca
mallos
malmo
malo
malos
maloti
malou
malpa
malpartida
malpica
mals
malta
malte
maluenda
malvinas
mama
mamblas
mame
mamelucos
mami
mamifero
mamiferos
mamifers
mammal
mammalia
mammals
mammuthus
mamoulian
mamposteri
man
manantial
manantials
manau
manca
mancan
mancha
manchego
manchester
manchoya
manchu
manchuela
manchuria
mancini
mancomunidad
mancomunidat
manda
mandaba
mandadas
mandando
mandar
mandari
mandata
mandatas
mandato
mandatos
mandaus
mande
mandela
mandibula
mando
manera
maneras
manfred
manfredi
manga
mangane
mangano
mangas
mange
mango
manhattan
maniera
manifestacio
manifestacions
manifestar
manifesto
manifiesta
manifiestan
manifiesto
manila
manimenos
maniobras
manitoba
mankiewicz
mann
mannheim
mano
manolo
manos
manresa
manrique
mans
manstein
manta
manteca
mantegna
manteneba
manteneban
mantenendo
mantener
mantenimiento
mantenindo
mantenio
mantenioron
manteniu
mantie
mantiene
mantienen
manto
mantova
manu
manual
manuals
manubles
manuel
manuscrito
manuscritos
many
manzana
manzanas
manzanera
mao
maori
map
mapa
mapas
mapquest
maps
maqueta
maquina
maquinaria
maquinas
mar
mara
marabillas
maracaibo
maradona
marathon
marato
marbella
marbre
marburg
marc
marca
marcada
marcadau
marcador
marcan
marcando
marcar
marcas
marcata
marcato
marcau
marcaus
marce
marcel
marcelino
marcello
marcelo
march
marcha
marchadors
marchan
marchar
marche
marchena
marcho
marchoron
marcia
marcial
marcials
marco
marconi
marcos
marcuello
marcus
mardano
mare
marea
mareas
marenda
maresme
margalida
margaret
margarida
margarit
margarita
margaux
margot
margret
marguerite
marguin
marguinal
marguinals
marguins
mari
maria
mariana
marianas
marianne
mariano
marie
marieta
marilyn
marin
marina
marinas
marine
mariner
marinero
mariners
marino
marins
mario
marion
marisa
mariscal
mariscals
maritima
maritimas
maritimo
maritimos
marito
mariu
marjorie
mark
market
marketing
markt
marlene
marley
marlon
marmara
marmore
marne
maronins
maroto
marquand
marque
marquesa
marquesau
marqueses
marracos
marro
marroqui
marruecos
mars
marsella
marshall
marsiella
marta
marte
martel
martes
martha
marti
martiello
martin
martina
martinell
martinica
martino
martirio
marty
marvin
marx
marxismo
marxista
mary
maryland
marzal
marzo
mas
masa
masache
masada
masadas
masaryk
masas
mascaray
masclo
masclos
mascota
mascotas
mascu
masculi
masculina
masculinas
masculino
masculins
masegoso
mases
masi
masiau
masimo
masiva
masivas
masivo
maso
mason
massa
massachusetts
massanas
massey
massimo
masson
master
masters
masto
mastos
mastroianni
mata
matamala
matan
matando
matanzas
matar
mataro
matarranya
matas
match
mate
matematica
matematicas
matematico
matematicos
mateo
mater
materia
material
materiales
materials
materias
materna
materno
mateu
math
mathbb
mathieu
mathrm
mati
matical
matices
matigal
matilde
matisse
matiz
mato
matrimonial
matrimonio
matrimonios
matrix
matriz
matt
matthau
matthew
matullos
mature
maule
mauna
maura
maureen
maurice
mauricio
mauritania
maurizio
mauro
maury
maurya
mausoleu
max
maxim
maxima
maximas
maximilia
maximilian
maximo
maximos
maxvals
maxwell
may
maya
mayabona
mayenne
mayer
mayestra
mayestrato
mayestre
mayestro
mayestros
mayhew
mayo
mayor
mayoral
mayordombre
mayordombres
mayori
mayoria
mayoritaria
mayoritariament
mayoritario
mayoritarios
mayors
mayotte
mayu
mayuscla
maz
maza
mazadas
mazalio
mazana
mazanas
mazovia
mb
mbar
mbolos
mbox
mc
mccambridge
mccarey
mccarthy
mccoy
mccrea
mcdaniel
mcdonald
mcdonnell
mcdormand
mcdowell
mcgoohan
mcgraw
mcgregor
mcguire
mckellen
mckinley
mclaglen
mcnaught
mcqueen
mctiernan
me
meandro
meandros
meca
mecanica
mecanico
mecanicos
mecanismo
mecanismos
mecenas
mecina
mecklemburgo
medalla
medallas
medallero
medallistas
medea
medecina
medelli
media
mediana
mediano
medica
medical
medici
medicina
medicinal
medicinals
medico
medicos
medida
medieval
medievales
medievals
medina
medinaceli
medio
medioambientales
medioambientals
medios
medir
meditacio
mediterra
mediterrania
mediterranias
mediterranio
mediterranios
medium
medrana
meet
meg
mehmet
mejor
mel
melanie
melbourne
melchior
melchor
mele
meles
melico
melilla
melina
melissa
melitant
melitants
melitars
meller
melo
melodi
melville
melvin
melvyn
membrana
membranas
memo
memoria
memorial
memorias
memphis
men
mena
menas
menato
menaza
menazas
mencio
menciona
mencionada
mencionan
mencionar
mencionata
mencionato
mencionatos
mencionau
mencions
mendes
mendiara
mendikat
mendiza
mendoza
mene
menera
meneras
meneri
menero
menes
menester
menima
menister
menisterio
menistra
menistro
menistros
menjou
mennecy
menor
menorca
menors
menos
mens
mensa
mensache
mensaches
mensual
mensuals
ment
menta
mental
mentals
mente
mentres
menuto
menutos
mequinenza
mer
merca
mercadal
mercader
mercaderi
mercaders
mercado
mercanci
mercantil
mercar
mercato
mercau
mercaus
merce
mercedes
mercenario
mercenarios
merco
mercouri
mercurio
mercury
meredith
meridional
meridionals
merindad
merindades
merindat
merino
merito
merkel
merle
merlet
merlin
mero
merovinchios
merriam
merseyside
mervyn
meryl
mes
mesa
mesacha
mesachas
mesache
mesaches
mesas
mescla
meses
meseta
mesia
mesma
mesmas
mesmo
mesmos
meso
mesons
mesopotamia
mesos
mesozoicos
messi
mestre
mestura
mesu
mesura
mesurar
mesuras
meta
metabolismo
metal
metalcore
metalica
metalicas
metalico
metalicos
metallica
metals
metalurchia
metamorficas
metamorfismo
metano
metat
metatesi
metcalf
mete
meteba
meteban
meten
metendo
meteoritos
meteorizacio
meteorolo
meteorolochi
meter
metio
metioron
metodo
metodolochi
metodos
metrico
metro
metropoli
metropolita
metropolitana
metropolitanas
metros
metty
metz
meurthe
mexica
mexicana
mexicano
mexicans
mexico
meya
meyana
meyano
meyant
meyas
meyatos
meyaus
meyer
meyeval
meyo
meyodi
meyos
mez
mezalocha
mezcla
mezqui
mezquita
mezquitas
mg
mhnt
mhz
mi
mia
miami
mic
mica
mich
michael
miche
michel
michelangelo
michele
michelle
michelsen
michigan
michoaca
mick
mickey
mico
micologo
microbiolochi
micronesia
microondas
microorganismos
microprocesadors
microsoft
microtoponimia
microtoponimo
microtoponimos
mics
mid
mida
midas
middle
mide
miden
midi
midlands
midnight
mie
miedes
miedo
miel
miembro
miembros
mientras
mientres
mieres
mies
mig
migracio
migracions
migratoria
miguel
miguo
mihai
mijares
mike
mikel
mikhail
miki
mil
mila
milagros
milan
milano
milars
mildred
mile
milenio
milenios
milenta
miles
milestone
milford
milicia
milicias
milimetros
milions
militar
militares
militarment
militars
military
milk
mill
milla
millars
millas
miller
millet
million
millo
millones
millons
millor
millora
millorar
milloras
millors
mills
milos
mils
milton
milvus
milwaukee
mimran
min
mina
minas
mincha
minchada
minchador
minchan
minchando
minchar
mincho
mind
mineo
mineral
minerales
minerals
minero
miners
minerva
ming
minghella
minh
mini
miniatura
miniaturadeimagen
minima
minimas
minimo
miniserie
miniseries
ministeriales
ministerio
ministra
ministro
ministros
ministry
minneapolis
minnelli
minnesota
minor
minori
minoritaria
minoritarias
minoritarios
minsk
minutos
mio
mioceno
miollo
miou
miquel
miqueta
mir
mira
miraba
miraban
miracle
mirador
mirage
miraglo
miral
miralbueno
mirambel
miramont
miran
miranda
mirande
mirando
mirar
miravet
mircea
miriam
miro
miroron
mirren
mis
misa
miscela
mise
misericordia
misio
misionero
misioners
misions
misma
mismo
miss
missing
mission
mississippi
missouri
misterio
mistral
mit
mitad
mitat
mitchell
mitchum
mite
mitico
mitier
mito
mitolo
mitolochi
mitolochico
mitolochicos
mitos
mits
mixa
mixta
mixtas
mixto
mm
mo
mobil
mobile
mobiliario
mobils
moby
mocet
moceta
mochales
mocio
mod
moda
modalidat
modalidatz
modals
model
modelau
modelo
modelos
modena
moderata
modern
moderna
modernament
modernas
modernismo
modernista
modernizacio
moderno
modernos
modesto
modificacio
modificaciones
modificacions
modificada
modificadas
modificar
modificau
modifico
modismos
modo
modorra
modos
module
modulo
mogol
mohacs
mohamad
moi
moines
moins
moires
moise
moisen
mojo
mojones
mol
mola
molar
moldavia
moldavo
moldavos
mole
molecula
molecular
moleculas
moli
molie
molimental
molimento
molimentos
molina
moliner
molino
molinos
molins
moll
mollet
mollo
mollons
molsa
molt
molto
moluscos
moment
momento
momentos
mon
mona
monaco
monagas
monarca
monarcas
monarqui
monarquico
monarquicos
monasterio
monastica
monastir
monca
moncada
moncayo
moncey
moncha
monchas
monche
monches
monchoya
monclu
mondadori
monde
mondo
mondot
moneda
monedas
monegriello
monegros
monenh
monesma
monesterio
monesterios
monetaria
monetario
moneva
money
monflorite
monforte
mongol
mongola
mongolia
mongols
monica
monicelli
monne
mono
monografi
monografico
monopolio
monotei
monoxido
monroe
mons
monserrat
monsieur
monspessulanum
monster
monsters
monstruo
mont
monta
montache
montador
montagut
montalba
montalban
montalvo
montan
montana
montand
montaner
montanere
montanui
montanya
montanyana
montanyas
montanyers
montanyesa
montanyeses
montanyeta
montanyismo
montanyosa
montanyosas
montanyoso
montastruc
montaut
montbe
montblanc
montbrun
montcada
montcarles
montclar
montclu
monte
monteagudo
montejo
montenegrins
montenegro
monterd
montero
montes
montesa
montesino
montesquiu
montevideo
montfort
montgai
montgomery
monthly
monti
montiel
monto
montoro
montpalau
montpeller
montreux
monts
montsant
montsec
montserrat
monty
monument
monumental
monumento
monumentos
monzo
moody
moon
moore
mor
mora
morabeti
moraes
moral
moraleja
morales
morals
moran
moras
morata
moravia
morbius
morcat
mordor
more
morea
moreau
morena
moreno
morera
moreri
moret
morfema
morfoestructural
morfolochi
morfolochica
morfolochicos
morfologi
morfosinta
morfosintaxis
morgan
mori
moriella
moriello
morillo
morindo
morio
morioron
morir
moriscos
morise
morita
moritz
morlans
morley
morning
moro
moros
morphology
morrano
morrena
morrenas
morricone
morris
morrison
morro
morse
mort
mortal
mortalera
mortaleras
mortalidat
mortals
morte
mortensen
morton
morts
mos
mosa
mosaico
mosaicos
moscardo
moscu
mose
mosela
mosen
mosica
mosical
mosquera
mosqueruela
most
mostar
mosto
mostolay
mostro
mota
mother
motion
motius
motivacio
motivo
motivos
moto
motociclismo
motogp
motor
motorland
motors
motos
mots
mott
moulin
mount
mountain
mountains
mouskouri
moustaki
movement
mover
movie
movies
movilidat
movimento
movimiento
movimientos
moya
moyuela
moza
mozambique
mozarabe
mozarabes
mozarabismo
mozarabismos
mozart
mozota
mp
mpico
mpicos
mpiu
mr
mrs
ms
msnm
mt
mu
mucho
mucosa
muda
mude
muderna
muderno
mudernos
mudo
mueble
muebles
muel
muela
muelas
muelles
muera
muere
mueren
muerta
muertas
muerte
muertes
muerto
muertos
mueso
muestra
muestran
muestras
mueve
mueven
muga
mugaba
mugan
mugando
mugant
mugants
mugas
muhammad
mui
muit
muita
muitas
muitismo
muito
muitos
muixo
muixons
mujer
mujeres
mula
muladi
mulas
muller
mulleres
mullers
mulligan
mulo
multiple
multiples
multiplicacio
multiplicar
multiplo
multiplos
multitut
multiusos
mun
mundart
mundial
mundialment
mundials
mundin
mundir
mundo
mundos
munebrega
muni
municat
munich
municipal
municipales
municipalidat
municipals
municipio
municipios
muniesa
munt
muntenia
muqtadir
mur
muralla
murallas
murals
murat
murcia
murciacalo
murder
murel
mures
muriel
murillo
murio
murioron
murnau
muro
muros
murphy
murray
murviedro
mus
musa
musclo
musclos
muscolino
muscular
musculars
muse
museo
museos
musera
museu
museum
museus
music
musica
musical
musicals
musico
musicologo
musicos
musset
mussolini
musta
mustafa
mustela
musulma
musulmana
musulmanas
musulmans
muta
mutacio
mutiny
muto
mutos
mutua
mutuament
muy
muzaffar
mvp
mw
my
myanmar
myspace
mystery
n
na
nabarro
nabla
nac
nachera
nachi
nacho
nacimiento
nacio
nacional
nacionalidat
nacionalidatz
nacionalismo
nacionalista
nacionalistas
nacionalizata
nacionalizato
nacionals
nacions
nada
nadador
nadadora
nadal
nadar
nadia
nagasaki
nagore
nagy
nai
nairobi
naixe
naixedero
naixen
naixencia
naixencias
naixer
naixida
naixidas
naiximiento
naixio
naixioron
naixita
naixitas
naixito
naixitos
naixiu
naixius
naked
nalo
name
named
names
namibia
nana
nanas
nancy
nanni
nanos
nantes
naomi
naoned
napa
napas
naples
napoleo
napoli
napolio
napolionicas
napolita
narancha
narbona
narcea
narciso
narra
narracio
narracions
narrador
narrativa
nas
nasa
nasal
nasals
nasarre
nash
nashville
naso
nassau
nat
nata
natacio
natal
natalia
natalidat
natalie
natasha
nathan
nation
national
nationale
nationalsozialistische
nations
nativa
nativas
natividad
natividat
nativo
nativos
natura
naturae
natural
naturales
naturaleza
naturalista
naturalistas
naturalment
naturals
nature
nau
nauru
naus
nautica
nauticas
nava
navajo
naval
navallo
navals
navardu
navarra
navarras
navarre
navarrencs
navarret
navarro
navarroaragonesa
navarros
navas
navata
navatas
nave
navegable
navegacio
navegant
navegants
navegar
navia
navy
naya
nazaret
nazi
nazional
nazionale
nazis
nazismo
nba
nbl
nbr
nc
ncer
nchel
nchels
nchen
ncher
nchez
ncia
ncipe
nd
ndard
nde
nder
ndez
ndice
ndiz
ndor
ndr
ne
nea
neal
near
neas
neat
nebot
nebraska
necesaria
necesariament
necesarias
necesario
necesarios
necesidat
necesidatz
necropoli
ned
need
needville
neerlande
neerlandesa
neerlandesas
neerlandeses
neerlandismos
neeson
negacio
negativa
negativas
negativo
negativos
nego
negociacions
negocio
negocios
negra
negras
negre
negreta
negri
negro
negros
negue
negulesco
neil
neill
nel
nels
nelson
nem
nemanja
nen
neo
neoclasicismo
neoclasico
neodarwinismo
neolatinas
neolitico
neolochismos
neopatria
neozelande
neozelandesa
neozelandeses
nepal
neptuno
ner
neri
nero
nes
nest
neste
nestor
net
netflix
nets
network
neu
neue
neuilly
neujmin
neumann
neurologo
neus
neustadt
neustria
neutral
neutralidat
neutro
neutrons
neutros
nevada
nevado
never
nevera
new
newark
newcastle
newell
newman
newport
news
newton
next
nez
nfl
ng
nga
ngel
ngela
ngeles
nger
ngor
nguez
nh
ni
nia
nian
nic
nica
nicaragu
nicaragua
nicas
niccolo
nicea
niceforo
nich
nicheria
nicholas
nichols
nicholson
nick
nico
nicola
nicolas
nicolau
nicole
nicos
nie
niedo
niedos
niega
niegan
niels
nielsen
niemeyer
niervos
niervoso
nieta
nieto
nieu
nieus
nieva
nieves
nig
nigel
nigeria
night
nigo
nigra
nigsberg
nikita
nikola
nikolai
nil
nilo
nils
nim
nimes
nimo
nimos
nimoy
nin
nina
ninas
nine
nineza
nino
ninons
ninos
ninsule
nintendo
ninvi
ninviar
ninviato
ninviau
ninviaus
ninvio
ninvioron
nio
nira
niro
nis
nit
nitrocheno
niveau
nivel
nivels
niven
nixon
niz
niza
njan
nl
nm
nn
no
nobel
nobiliario
noble
nobles
nobleza
noche
nocio
nocito
nocturna
nocturnas
nocturno
noe
nogais
nogara
noguera
nogueras
nogueruelas
noi
noir
noiret
nola
nolan
nolte
nolwenn
nom
noma
nomada
nomadas
nomas
nombra
nombrada
nombramiento
nombran
nombrando
nombrar
nombrato
nombrau
nombraus
nombre
nombres
nombro
nombroron
nome
nomen
nomencla
nomenclatura
nomes
nominacio
nominacions
nominada
nominal
nominals
nominata
nominativo
nominato
nominau
noms
non
nonasp
nonato
none
nons
nor
nora
norcoria
nord
nordamerica
nordeste
nordica
nordico
nordoccidental
nordoriental
nordueste
noreste
norfolk
norma
normal
normalizacio
normalment
normals
norman
normanda
normandi
normando
normandos
normas
normativa
normativo
noroccidental
noroeste
nororiental
norre
norris
nort
norte
norteamerica
north
northamptonshire
northern
northumberland
norton
noruega
noruego
noruegos
norueste
norwich
nos
nostra
nostri
not
nota
notable
notablement
notables
notacio
notar
notarial
notarials
notario
notas
note
notes
nothing
noticia
noticias
notre
notte
nottingham
nottinghamshire
nou
nous
nouvel
nouvelle
nov
nova
novak
novallas
novas
nove
novel
novela
novelas
novelista
novelistas
november
novembre
novempopulania
noves
novgorod
novi
novia
noviellas
noviembre
novo
now
nowtilus
nr
ns
nsa
nsdap
nster
nsula
nt
ntara
nter
nther
ntica
ntol
nu
nuble
nubles
nuclear
nucleyar
nucleyars
nuclio
nuclios
nue
nueces
nuei
nueit
nueitz
nueno
nuestra
nuestras
nuestro
nuestros
nueu
nueva
nuevament
nuevas
nuevo
nuevos
nuez
nuit
num
numancia
number
numbro
numbrosas
numbrosos
numer
numeracio
numeral
numerals
numerica
numerico
numero
numeros
numerosa
numerosas
numeroso
numerosos
nun
nunca
nuovo
nuremberg
nus
nusatros
nutricio
nutrients
nw
ny
nyfcc
nyudo
nz
o
oa
oaci
oak
oakland
oara
oasis
oaxaca
ob
obago
obama
obarra
obchectivo
obchectivos
obchecto
obchectos
obchetivo
obertauern
obi
obispo
obituario
oblast
obliga
obligacio
obligacions
obligada
obligando
obligato
obligatoria
obligatorio
obligatos
obligau
obligaus
obligo
obligoron
obo
obra
obrador
obras
obrera
obrero
obrers
obres
obridura
observa
observacio
observacions
observador
observadors
observar
observatorio
observatorios
observatory
obsolescencia
obstaclo
obstaclos
obtencio
obtenendo
obtener
obtenerdatos
obtenio
obtenioron
obtenito
obteniu
obtie
obtiene
obtienen
oc
oca
ocan
ocasio
ocasional
ocasionalment
ocasions
occ
occident
occidental
occidentals
occita
occitan
occitana
occitanas
occitane
occitania
occitanismo
occitanismos
occitano
occitans
ocde
ocean
oceani
oceanico
ocho
ocia
ocians
ocio
oclc
oclusiva
oclusivas
octave
october
octubre
ocupa
ocupaba
ocupaban
ocupacio
ocupada
ocupadas
ocupan
ocupando
ocupants
ocupar
ocupata
ocupatas
ocupato
ocupatos
ocupau
ocupaus
ocupo
ocuporon
ocurre
ocurrio
odas
oder
odessa
odile
odio
odisea
odiseu
odo
odra
odyssey
oeste
of
ofensiva
off
office
official
offs
oficial
oficiales
oficialidat
oficialment
oficials
oficina
oficinas
oficio
oficios
ofizial
ofizials
ofreix
ofreixe
ofreixen
ofrir
og
ogiastra
ogier
ographique
oh
ohio
oi
oil
oiratos
ois
oise
oizumi
ojo
ojos
okinawa
oklahoma
ol
ola
olaf
olalia
olalla
olaria
olas
olba
old
ole
olea
oles
oletas
olga
oli
oliet
oligoceno
olimpia
olimpiada
olimpica
olimpicas
olimpico
olimpicos
olio
olit
oliva
olivar
olivas
olive
oliveira
oliver
olivera
oliveras
olivia
olivier
olla
olleta
olmedo
olmos
olocau
olor
olot
olso
olt
oltenia
olympia
olympic
om
oma
omaha
omar
omega
omer
omeya
omeyas
omne
omnes
oms
on
ona
once
oncins
onda
ondas
ondr
one
oneida
ones
oni
online
only
onlysourced
onoma
onomastica
ons
onsella
onsera
onso
onsos
ontario
ontenyent
ontinyena
onu
oostende
op
opcio
opciones
opcions
opel
open
opera
operacio
operacions
operador
operas
operativo
operativos
opina
opinio
opinions
oportunidat
oportunidatz
oposa
oposan
oposato
oposau
oposicio
opositors
oposo
optica
optico
opus
or
ora
orache
oracio
oracions
oral
oralment
orange
oras
orba
orbita
orbital
orbitals
orbitas
orcos
orden
ordena
ordenacio
ordenar
ordenato
ordenau
ordeno
ordens
order
ordesa
ordiceto
ordinacio
ordinacions
ordinador
ordinadors
ordinario
ordines
ordino
ordiso
ore
orego
orella
orellas
orens
ores
orestes
org
orga
organica
organicas
organico
organicos
organismo
organismos
organista
organiza
organizacio
organizacions
organizada
organizadas
organizador
organizan
organizar
organizata
organizatas
organizato
organizatos
organizau
organizo
organizoron
organo
organos
orge
ori
oria
orich
orichen
orichens
orichina
orichinal
orichinalment
orichinals
orichinan
orichinando
orichinar
orichinaria
orichinariament
orichinarias
orichinario
orichinarios
orichinato
orichinau
orichino
orichinoron
orient
orientacio
oriental
orientales
orientalis
orientals
orientation
oriente
origen
origenes
origin
original
orinoco
orio
oriol
orion
orista
oriuela
orlando
orle
orleans
orliens
ormino
ornamental
ornamentals
orne
ornitologo
oro
orochenia
orografi
oronimo
oropesa
orosia
orquesta
orquestina
orqui
orrios
orsay
orson
orta
orte
ortega
ortiella
ortiz
ortodoxa
ortodoxo
ortodoxos
ortografi
ortografia
ortografica
ortograficament
ortograficas
ortografico
orwell
os
osa
osal
osasuna
osbourne
osca
oscar
oscense
oscila
oscilan
osera
osetas
osetia
osia
osio
oskar
oskorri
oslo
osma
oso
osona
ossa
osso
ostavals
ostrogodo
ostrogodos
oswald
ot
otago
otal
otan
otero
othello
other
oti
oto
otoma
otomana
otomans
otra
otras
otri
otris
otro
otros
ottaviano
ottawa
otto
otubre
ou
ouest
oui
our
ourense
out
outre
ov
ovario
ovarios
ovella
ovellas
over
overijssel
oviedo
ovis
ovulo
ovulos
owen
owens
owl
oxenden
oxford
oxfordshire
oxicheno
oxidacio
oxido
oxidos
oyiu
oz
oza
ozcos
ozores
p
pa
pabello
pabillo
pablo
pach
pacha
pacheco
pachina
pachinas
pacient
pacients
pacific
pacifica
pacifico
pacifista
pacino
paco
pacto
pactos
padarni
padilla
padre
padro
padua
pag
paga
pagaba
pagaban
pagana
paganos
pagans
pagar
pagas
page
pages
paget
pago
pags
pahlavi
pai
paido
pairs
pais
paisache
paisaches
paisaje
paisajes
paises
paixaro
paixaros
paixentar
pajares
pakista
pakistan
pakistane
pakistanesa
pakula
pal
pala
palabra
palabras
palaci
palacio
palacios
palafox
palais
palaiseau
palanca
palance
palancia
palas
palatal
palatalizacio
palatals
palati
palatina
palatinato
palau
palautordera
palazios
palazzo
pale
palencia
paleolitico
paleologo
paleologos
paleontolochico
paleontologo
paleozoico
paleozoicos
palermo
palestina
palestins
palisa
palla
pallacanestro
pallare
pallaresa
pallars
pallaruelo
pallas
palm
palma
palmare
palmares
palmas
palo
paloma
palomar
palomera
palomita
palomos
palop
palos
pals
paltrow
pam
pamela
pamplona
pan
panama
panamenyo
panamericans
pancrudo
panda
pandemia
pandicosa
panel
panetz
paneve
pani
panillo
paniza
panizo
pano
panonia
panorama
pantalla
pantalons
pantano
pantasma
pantasmas
panteo
pantera
panthera
panticosa
panticuto
panzer
panzertruppen
paolo
papa
papal
papas
papato
papel
papels
paper
papers
papo
papua
par
para
parabla
parabra
parabras
parache
paracuellos
parada
paradas
paradigma
paradise
paradiso
paragrafo
paraguai
paraguay
parai
paralela
paralelament
paralelas
paralelo
paralelos
paralimpicos
paramera
parameter
parametros
paramore
parana
parando
paraninfo
parar
parasitos
parc
parce
parcelas
parcial
parcialment
parda
pardiac
pardina
pardinas
pardo
pardos
pardus
paredes
pareix
pareixe
pareixeba
pareixen
pareixer
pareixida
pareixidas
pareixita
pareixitas
pareixito
pareixitos
pareixiu
pareixius
parella
parellana
parellanas
parellano
parellans
parellas
paremiologi
parent
parentesco
parentesi
parentesis
paret
paretz
pari
paricio
paridera
parient
parients
paris
parisins
parixe
park
parker
parks
parla
parlaba
parlaban
parlache
parladors
parlamentaria
parlamentario
parlamentarios
parlamento
parlamentos
parlan
parlando
parlant
parlants
parlar
parlars
parlas
parlata
parlato
parlau
parle
parler
parma
parnell
paro
parola
parolas
parque
parques
parra
parras
parres
parrilla
parroquia
parroquial
parroquias
pars
parseinput
parseparam
part
partaqua
parte
partecipa
partecipacio
partecipacions
partecipan
partecipando
partecipants
partecipar
partecipato
partecipo
parteciporon
partei
partenkirchen
parteno
partes
parti
particio
participa
participacio
participacions
participan
participando
participant
participants
participar
participato
participau
participio
participios
participo
participoron
particla
particlas
particular
particularidat
particularidatz
particularment
particulars
partida
partidario
partidarios
partidas
partido
partidos
partindo
partio
partir
partis
partisans
partit
partita
partitivo
partito
partitos
partiu
partius
parto
partos
party
partz
parza
parzana
pas
pasa
pasaba
pasaban
pasache
pasachers
pasaches
pasada
pasadena
pasado
pasan
pasando
pasaporte
pasar
pasara
pasari
pasato
pasatos
pasau
pasaus
pascal
pascale
pascua
pascual
pase
paseo
paseyo
pasio
pasiva
pasivo
paso
pasolini
pasoron
pasos
pasqua
pasqual
pasquale
passage
passe
passed
passeriformes
passos
past
pasta
pastel
pastels
pasteur
pastor
pastorada
pastoreyo
pastors
pastos
pastriz
pastura
pasturas
pat
pata
patas
patent
patents
paterna
patient
patinache
patio
patria
patriarca
patriarcato
patric
patrice
patricia
patrick
patrimoni
patrimonial
patrimonials
patrimonio
patro
patrocinada
patrocinio
patrona
patronal
patronals
patronato
patrons
pau
paul
paula
pauli
paulo
pauls
paulus
pavese
pavia
pavillo
pavillons
pavlo
pavo
paxinou
pays
paz
pazar
pazinacos
pc
pdf
pe
peace
peache
peak
pearl
pec
pecico
peck
peckinpah
peco
peculiar
pedagochi
pedagogo
pedal
pedani
pedir
pedra
pedregal
pedregosa
pedrenya
pedrera
pedreras
pedro
pedrola
pedrosa
pedroso
peggy
pego
pegunta
peiro
peironela
peito
peix
peixes
peki
pel
pela
pelache
pelaire
pelarda
pelayo
pele
pelegri
pelegrinache
pelegrinacio
pelegrins
peli
pelicula
peliculas
pelleta
pellicer
pelo
pelophylax
pelopi
peloponiso
pelos
pels
pen
pena
penal
penals
penaltis
penar
penas
penchar
pendant
pende
pendeba
penden
pendendo
pendient
pendients
pendiu
pene
penede
penelope
penetracio
peni
penilla
peninsula
peninsular
peninsulars
peninsulas
peniscola
penn
pennsilvania
pennsylvania
penny
pensaba
pensaban
pensamiento
pensamientos
pensar
pense
pensilvania
pensio
pensions
penso
pentecosta
penya
penyaflor
penyagolosa
penyalba
penyarroya
penyas
penyo
people
pepe
pepi
peppard
peppers
pequen
pequi
per
pera
peracens
perafita
peral
peralellos
perales
perals
peralta
percepcio
percha
percibe
percibir
percullo
percusio
perda
perdeba
perdendo
perder
perdida
perdidas
perdido
perdiguera
perdiguero
perdio
perdioron
perdito
perdiu
perdius
perdiz
perdu
perduga
perdugas
pere
pereira
pereiro
perello
perez
perfecta
perfectament
perfecto
perfectos
perfil
perfume
perfumes
peri
perico
periferia
perifericas
periferico
perifrasi
perifrasis
perifrastico
periglo
periglos
perigloso
periglosos
perimetro
perio
period
periodica
periodicament
periodico
periodicos
periodismo
periodista
periodistas
periodo
periodos
perkins
permaneixe
permaneixer
permaneixio
permanent
permanents
permeso
permiso
permitan
permite
permiten
permitiba
permitindo
permitio
permitioron
permitir
permitiu
pernil
pero
peros
peroxido
perpendicular
perpendiculars
perpetua
perpetuo
perpinya
perque
perramo
perros
perry
persa
persans
persas
persecucio
persecucions
persia
persico
persismo
persismos
persiste
persona
personache
personaches
personajes
personal
personalidat
personalidatz
personals
personas
personne
perspectiva
perspectivas
perteneix
perteneixe
perteneixeba
perteneixeban
perteneixen
perteneixent
perteneixer
perteneixient
perteneixients
perteneixio
pertenencia
pertenexient
perth
pertusa
peru
perua
peruana
peruano
perugia
pervivencia
pesa
pesan
pesar
pesaro
pesato
pesatos
pesau
pesaus
pesca
pescador
pescar
pescara
pescataire
pescataires
pescau
pesci
peso
pesos
pesquera
pessoa
pest
peste
petalos
petavi
pete
peter
peters
petersburgo
petersen
peticio
petiella
petit
petite
petliura
petra
petralba
petro
petrolio
peu
peugeot
peyor
pez
pezo
pfarrkirche
pfeiffer
ph
phane
phantom
pharies
phasianus
phi
phil
philadelphia
philip
philipp
philippe
philips
phillip
phillips
philosophical
philosophy
phoenix
php
phu
physics
pi
pia
piacenza
pianista
pianistas
piano
piatonal
piatons
piazza
pib
pic
pica
picada
picardi
picardo
picasso
picata
pichera
pickford
pico
picoche
picos
pictorica
picture
pictures
picueta
pid
pidal
pide
pidgeon
pidio
pie
pied
piedad
piedat
piedra
piedrafita
piedrahi
piedras
piel
piemont
piemonte
piensa
piensan
pier
pierce
pierde
pierden
piero
pierre
piet
pieter
pietro
pietz
pieza
piezas
pigmentacio
pignatelli
pigott
pila
pilar
pilars
pilas
pilato
pilla
pillar
pilon
pilota
piloto
pilotos
pin
pina
pinar
pinares
pinars
pinaster
pine
pineda
pineta
ping
piniecho
piniello
pinilla
pink
pino
pinos
pins
pintada
pintanos
pinto
pintor
pintora
pintors
pintura
pinturas
pinus
pinyin
pinza
pio
pionero
pioners
pior
piotr
pique
piramide
piramides
pirata
piratas
pirateri
pirenaico
pirenaicos
pirenenca
pirenencas
pirenenco
pirenencos
pireneu
pireneus
pirineo
pirineos
pirineu
pirineus
pisa
piscina
piscinas
piso
pisos
pista
pistas
pistoia
pistols
pisuerga
piszke
pit
pita
pitarc
pitarch
piteus
pitt
pittsburgh
piu
pivot
pizza
pl
pla
placa
placas
place
placentarios
placer
places
placha
plachas
placiencia
plaga
plagas
plain
plains
plan
plana
planas
planck
planes
planet
planeta
planetario
planetary
planetas
planificacio
plano
planos
plans
plant
planta
plantachenet
plantacions
plantagenet
plantar
plantas
planteya
plantilla
plantillas
plants
plasenc
plasencia
plasma
plasticas
plastico
plata
plataforma
plataformas
plate
platera
platero
plati
platiellos
plato
platos
platt
play
playa
player
playoffs
playstation
plaza
plazas
plazo
plega
plegaba
plegaban
plegada
plegan
plegando
plegar
plegara
plegari
plegase
plegasen
plegata
plegato
plegatos
plegau
plegaus
plego
plegoron
plegos
plegue
pleistoceno
pleito
pleitos
plen
plena
plenament
plenas
pleno
plenos
pleso
pleurodelinae
pleve
plever
plevia
plevias
plevida
plevidas
plinio
plioceno
plo
plomache
plomo
plon
plotarea
plotdata
plou
pluma
plumas
plummer
plural
plurals
plus
plusquamperfecto
plutarco
pluto
plzen
pm
pmid
pneumoni
png
po
pobla
poblacio
poblacion
poblacional
poblacionales
poblacionals
poblacions
poblada
pobladas
pobladors
poblamiento
poblata
poblatas
poblato
poblatos
poblau
poblaus
poble
poblet
poblla
pobo
pobra
pobre
pobres
pobreza
poca
pocas
pocetz
pocha
pocino
poco
pocos
podarcis
podeba
podeban
podemos
podendo
poder
poderba
poderban
poderi
poderosa
poderoso
poderosos
poders
podese
podesen
podi
podio
podioron
podium
podlaski
podolia
podra
podri
poe
poema
poemas
poesi
poesia
poeta
poetas
poetesa
poetica
pogrom
pogroms
poi
point
pointe
poisson
poke
pol
pola
polaca
polacas
polaco
polacos
polanski
polar
polarizacio
polars
pole
polemica
polemico
polen
poli
police
polici
policiacas
policiaco
policial
policy
polida
polidas
polideza
poliesportivo
poligonal
poligono
polinesia
polinizacio
polinya
polis
politas
politecnica
politei
politica
politicament
politicas
politico
politicos
politics
polito
politologo
poliu
polje
poljes
pollack
pollo
pollock
pollos
polmonar
polmons
polo
polonia
polos
pols
polvo
polvora
poly
pomar
pomer
pomerania
pomeranio
pomero
pomo
pompeya
pompeyo
pompidou
pon
pondiellos
pongau
pongo
ponient
pons
pont
ponte
pontevedra
pontificato
pontificia
pontificios
pontinha
ponza
ponzano
pop
popa
pope
popular
populares
popularidat
popularment
populars
population
populista
populus
poquet
poqueta
poquetas
poquetz
por
porcelana
porcentache
porcio
porno
poro
porque
porro
port
porta
portadors
portal
portalada
portalet
portar
portavoz
porte
portellada
porter
porteri
portero
porters
portet
portiar
portico
portiello
portillo
portland
portman
porto
portorriquenyo
portrait
portuarias
portugal
portugue
portuguesa
portuguesas
portugueses
pos
posa
posada
posadas
posan
posar
posau
posavina
poseeye
posesio
posesions
posesivo
posesivos
posets
poseye
poseyeba
poseyen
poseyer
posguerra
posibilidat
posibilidatz
posible
posiblement
posibles
posicio
posicions
position
positiva
positivas
positivo
positivos
poso
posoron
post
postal
posterior
posterioridat
posteriorment
posteriors
postguerra
postigo
postre
postres
postuma
postumo
postura
postverbal
pot
potasio
potencia
potencial
potencialment
potencias
potent
potente
potestat
potrecons
potsdam
potter
pottier
potts
pounamu
pound
pour
pourtant
powderblue
powell
power
powers
poyo
poza
pozal
poznan
pozo
pozondo
pozos
pozuel
pozuelo
pp
pr
pra
practica
practicament
practican
practicar
practicas
practicato
practicatos
practico
prada
pradas
prades
pradesh
pradilla
prado
praga
prames
prat
prato
pratos
prats
pratt
prau
praus
pravec
pravia
pre
preba
prebaba
prebaban
prebablement
preban
prebando
prebar
prebas
prebatina
prebatinas
prebo
preboron
precede
precedendo
precedent
precedents
precedido
precedito
preciosas
preciosos
precipitacio
precipitacions
precisa
precisament
precisan
precisar
precisio
precision
preciso
precursor
predecesor
predomina
predominan
predominancia
predominant
predominantment
predominants
predominio
prefectura
prefecturas
preferencia
preferent
preferentment
prefiere
prefieren
prefixo
prefixos
pregunta
preguntar
preguntas
pregunto
prehistoria
prehistoriador
prehistoricos
preishac
preliminar
premia
premiar
premiato
premiatos
premier
preminger
premio
premios
premite
premiten
premitio
premitir
premium
pren
prencipal
prencipalment
prencipals
prencipau
prencipaus
prencipe
prencipes
prencipia
prencipiaba
prencipian
prencipiando
prencipiar
prencipiato
prencipiau
prencipio
prencipioron
prencipios
prenda
prendas
prene
preneba
preneban
prenen
prenendo
prener
prenio
prenioron
prensa
prensas
prenuncia
prenunciacio
prenunciar
prenunciato
prenunciau
prenzipal
preocupacio
prepalatal
prepara
preparacio
preparador
preparar
preparau
prepirenenca
prepirenencas
prepirenenco
prepireneu
preposicio
preposicional
preposicions
prerroma
prerromana
prerromanas
prerromans
pres
presa
presas
presbiterio
prescott
presencia
present
presenta
presentaba
presentaban
presentacio
presentada
presentador
presentadora
presentadors
presentan
presentando
presentar
presentata
presentau
presente
presento
presentoron
presents
preservar
presidencia
presidencial
presidencials
president
presidenta
presidente
presidents
presididas
presidio
presienta
presientan
presio
presions
presley
preso
presona
presonache
presonaches
presonal
presonalidat
presonalidatz
presonals
presonas
presos
press
presses
presta
prestacions
prestichio
preston
presupuesto
presupuestos
preta
pretende
pretendeba
pretendient
pretendients
pretensio
pretensions
preterito
preto
preu
prevencio
prevenir
preveye
previa
previament
previas
previo
prevista
previsto
prevoca
prevoco
pri
price
pride
priego
prieto
prim
prima
primaria
primarias
primario
primarios
primas
primates
primavera
primer
primera
primeras
primerenca
primerenco
primeri
primero
primeros
primers
primicias
primitiva
primitivas
primitivo
primitivos
primo
primochenito
primos
prince
princesa
princeton
principado
principal
principalment
principals
principato
principatos
principaus
principe
principes
principia
principio
principios
prior
priorat
priorato
prisio
prisionero
prisioners
prisoner
priva
privada
privadas
privando
privar
privata
privatas
private
privato
privau
privaus
privilechio
privilechios
pro
probabilidat
probable
probablement
probables
problema
problemas
problematica
proce
procede
proceden
procedencia
procedent
procedents
procedimiento
procedimientos
procesador
procesadors
procesio
procesions
proceso
procesos
procheccio
prochecto
prochectos
proclama
proclamacio
proclaman
proclamando
proclamar
proclamata
proclamato
proclamau
proclamo
proclamoron
procurador
produccio
produccions
produce
producen
produciba
produciban
producida
producindo
producio
producioron
producir
producita
producito
produciu
productiva
productivas
productividat
productivo
producto
productor
productora
productoras
productors
productos
produeita
produeito
produz
produzca
profesio
profesional
profesionalment
profesionals
profesions
profesor
profesora
profesors
professional
profeta
profunda
profundas
profundidat
profundo
profundos
program
programa
programacio
programas
progresio
progresista
progresiva
progresivament
progresivo
progreso
progressive
prohibicio
prohibio
project
prolarga
prologo
prolongacio
promana
promesa
promeyo
prominencia
prominents
promocio
promocionar
promover
pronombre
pronombres
pronominal
pronominals
pronomino
pronto
pronuncia
pronunciaba
pronunciacio
pronunciada
pronuncian
pronunciar
pronunciato
pronunciau
prop
propagacio
propaganda
property
propertyid
propia
propiament
propias
propiedat
propiedatz
propietaria
propietario
propietarios
propio
propios
proporcio
proporciona
proporcional
proporcionan
proporcionar
proporciono
proporcions
proposa
proposan
proposar
proposata
proposato
proposau
proposicio
proposicions
proposito
propositos
proposo
props
propuesta
propuestas
propulsio
prosa
prosecution
prosperidat
prospero
protagonista
protagonistas
protagonizada
protagonizata
proteccio
proteche
protecher
protechida
protechidas
protechita
protechitas
protechito
protechitos
protechiu
protechius
protector
protectora
protectorato
protei
protesi
protesta
protestant
protestantismo
protestants
protestas
proto
protochermanico
protocolo
protocolos
protons
prototipo
prou
prous
proust
prova
provenc
provence
proveniba
proveniban
provenient
provenients
provenir
provenza
provenzal
providence
provie
proviene
provienen
provincia
provincial
provincials
provincias
provinient
provinients
provisional
provoca
provocando
provocar
provocau
provoco
provocoron
proxima
proximidat
proximo
prudencia
prudencio
prueba
pruebas
prunus
prusia
prusiana
prusians
ps
psa
pseudonimo
psicoanali
psicoanalista
psicolochi
psicolochico
psicologo
psiquiatra
psiquiatri
psoe
psycho
psychological
psychology
pt
pticos
ptolomeu
pu
public
publica
publicacio
publicaciones
publicacions
publicada
publicament
publicar
publicas
publicata
publicatas
publications
publicato
publicatos
publicau
publicaus
publicazions
publicidat
publico
publicoron
publicos
publique
publishers
publishing
pudo
pue
puebla
pueblo
pueblos
pueda
puedan
puede
pueden
puedo
puens
puent
puente
puents
puerco
puerta
puertas
puerto
puertomingalbo
puertomingalvo
puertos
pues
puesta
puesto
puestos
puet
puetz
pueyo
pueyos
pui
puig
puis
puixebres
pula
pulgadas
pulgar
pulitzer
pulla
pulo
puma
punchab
punchas
punda
punica
punk
punta
puntal
puntas
punto
puntos
puntuacio
puntualment
puntuals
pur
pura
purament
puras
purchena
pure
pureza
purificacio
purisma
purna
puro
purple
purroi
purroy
purullosa
pus
putin
putsch
puy
puya
puyaba
puyada
puyalo
puyan
puyando
puyar
puyarruego
puyata
puyato
puyo
puyol
puzo
px
pyre
pyrenaica
pyrus
python
q
qa
qasi
qatar
qid
qin
qing
qu
qua
quaderns
quadra
quadrada
quadrata
quadrato
quadratos
quadrau
quadraus
quadrilla
quadro
quadros
quagga
quaid
qual
quala
qualas
qualcosa
qualen
qualidat
qualidatz
qualificativos
qualifier
qualifiers
qualo
qualos
qualque
qualquecosa
qualques
quals
qualsequier
qualsiquier
qualsiquiera
quan
quand
quando
quang
quantas
quantica
quantidat
quantificadors
quanto
quantos
quaranta
quart
quarta
quartel
quartels
quarto
quartos
quarz
quasi
quaternarios
quaternato
quatre
quatrena
quatreno
quatrenos
quatro
que
quebec
quebeque
quechua
queda
quedaba
quedaban
quedan
quedando
quedar
quedara
quedase
quedato
quedau
quede
quedo
quedoron
queen
queens
queensland
queenstown
quefer
quefers
queiles
queixas
quel
quelque
quelques
quentin
quer
quercus
quere
quereba
quereban
querer
queresen
querio
quesada
queso
quesos
quest
quet
quevedo
quez
qui
quicena
quid
quie
quien
quier
quiera
quiere
quieren
quiero
quiesto
quijote
quimica
quimicas
quimico
quimicos
quin
quince
quincy
quinn
quinta
quintana
quintanilla
quinto
quinton
quinyo
quiro
quirze
quisling
quita
quitan
quitar
quiteria
quito
quitoron
quixot
quo
quoi
r
ra
rabada
rabal
rabanyo
rabanyos
rabe
rabes
rabi
rabosa
race
rachel
racial
racing
racional
racismo
raco
rada
radar
radcliffe
radedor
radedors
radiacio
radial
radical
radicals
radices
radio
radioactivo
radios
radiquero
radiz
rae
raf
rafael
rafaela
rafe
rafel
ragusa
rahman
rai
railway
raimundo
rain
rainbow
rainer
rains
raison
raj
rajoy
ral
ralla
rallas
rally
ralph
ram
rama
ramas
rambla
ramblas
rami
ramiro
ramo
ramon
ramone
ramones
ramos
ramsey
ran
rana
ranas
ranca
rancho
randall
random
randy
ranes
range
ranger
rango
ranidae
rank
ranking
rans
ranyi
raoul
raoult
rap
rapeda
rapedament
rapedo
rapers
rapida
rapidament
rapideza
rapido
rapids
rapinyadera
rapinyaderas
rapsusklei
raptors
raquel
rara
rarament
raras
rard
raro
raros
ras
rasgo
rasgos
raso
rat
rata
ratas
rathaus
rathbone
ration
rationes
ratisbona
rato
rattus
rau
ravena
rax
ray
raya
rayas
raymond
rayo
rayos
raza
razas
razi
razo
razons
rb
rbara
rbez
rbol
rboles
rbols
rc
rcd
rcel
rcer
rcito
rcols
rd
rda
rdenas
rdens
rdoba
re
rea
reaccio
reacciona
reaccionan
reaccionar
reaccions
reactivo
reading
reagan
real
reales
realidat
realismo
realiza
realizacio
realizada
realizadas
realizan
realizar
realizato
realizau
realizo
realment
reals
rebecca
rebel
rebelan
rebelde
rebeldes
rebelio
rebels
reblar
reblo
rebollar
recaudacio
recebindo
recenta
recepcio
receptor
receptors
receta
recetas
rechencia
rechent
rechimen
rechimiento
rechio
rechion
rechional
rechionals
rechions
rechira
rechiras
rechistra
rechistrada
rechistran
rechistrau
rechistro
rechistros
rechola
recholas
recibe
reciben
recibiba
recibiban
recibindo
recibio
recibioron
recibir
recibito
recibitos
recibiu
recibius
recient
recientment
recients
recinto
recio
recipient
recipients
reclama
reclamar
recoleccio
recollita
recolo
recolons
recomendo
recomienda
recompensa
reconoix
reconoixe
reconoixeba
reconoixen
reconoixencia
reconoixer
reconoixible
reconoixida
reconoiximiento
reconoiximientos
reconoixio
reconoixita
reconoixitas
reconoixito
reconoixitos
reconoixiu
reconoixius
reconquerir
reconquiesta
reconquista
reconstruccio
reconstruir
reconstruita
reconstruito
reconstruyita
recontamientos
recopa
recopilacio
recopilatorio
record
recordar
records
recorre
recorren
recorrer
recorrido
recorrio
recorrito
recorriu
recreativo
recta
rectangular
recto
rector
recuenco
recuerda
recuerdo
recuerdos
reculle
recullen
recullio
recullir
recullita
recupera
recuperacio
recuperando
recuperar
recuperau
recupero
recuperoron
recurrent
recurrents
recurso
recursos
red
redaccio
redacto
redetiu
redford
redgrave
redol
redolada
redoladas
redolata
redoli
redonda
redondas
redondo
redota
redotada
redotan
redotando
redotar
redotato
redotau
redoto
redotoron
reduccio
reduce
reducen
reducida
reducindo
reducio
reducir
reducito
reduciu
redueita
redueito
reed
reedicio
reedy
reemplazar
reemplazo
reendreza
reeve
reeves
reference
referencia
referencias
referendum
referent
referents
referenzias
referiba
referindo
referir
referiu
referius
refiere
refieren
refirma
refirman
refirmando
refirmar
refirme
refirmo
reflecta
reflectan
reflexio
reflexivos
reflexo
reforma
reformas
reformata
reforzar
refraccio
refranes
refu
refuchia
refuchiar
refuchiato
refuchiatos
refuchiaus
refuchio
refuchioron
refugio
refusa
refusan
refusar
refuso
refusoron
regacho
regadi
regajo
regallo
regalo
regano
reganos
regar
reggae
reggio
regia
regina
reginald
regio
region
regional
regla
reglamento
reglamentos
reglas
regle
regles
regna
regne
regno
regreso
reguero
regula
regulacio
regulan
regular
regularidat
regularment
regulars
regum
rehabilitacio
rei
reial
reich
reichstag
reid
reimpresio
reims
reina
reinado
reinaldo
reinando
reinas
reinato
reinau
reine
reiner
reinhard
reinhold
reinmuth
reino
reinos
reis
reivindicacio
reivindicacions
reixac
relacio
relaciona
relacionada
relacionadas
relacionan
relacionar
relacionata
relacionatas
relacionato
relacionatos
relacionau
relacionaus
relaciones
relacions
relata
relativa
relativament
relativas
relatividat
relativo
relativos
relato
relatos
releu
releus
relevancia
relevant
relevants
relevos
relichio
relichions
relichiosa
relichiosas
relichioso
relichiosos
relieu
relieus
relieve
religion
reliquias
rella
reloch
remane
remaneix
remanio
remanir
remata
remataba
rematada
rematadas
rematan
rematando
rematanza
rematanzas
rematar
rematara
rematari
rematata
rematato
rematatos
rematau
remataus
remate
remato
rematoron
remember
remera
remeranza
remerar
remi
remick
remiro
remo
remolacha
remolinos
remonta
remontan
remontant
remontar
remontari
rems
remunye
ren
rena
renacimiento
renaixentista
renaixentistas
renaiximiento
renania
renanue
renato
renault
renclusa
renda
rendas
rendicio
rendimiento
rendre
rene
renfe
reni
reno
renoir
renovables
renovacio
renuncia
renunciar
renuncio
reorganizacio
reparacions
reparo
reparten
repartir
repartius
reparto
repercusio
repero
repertorio
repeticio
repetir
repite
replega
replegan
replegando
replegar
replegau
replego
repoblacio
repoblacions
repobladors
repoblar
repoblo
report
reportache
reposo
reposteri
represalia
representa
representaba
representaban
representacio
representacions
representada
representan
representando
representant
representants
representar
representari
representata
representativa
representativo
representativos
representato
representatos
representau
representaus
represento
represienta
represientan
represio
reproduccio
reproducen
reproducir
reproductivo
reproductor
reproduz
reptil
reptils
repu
republic
republica
republicana
republicanas
republicano
republicans
republicas
repui
repuis
reputacio
requena
requesta
requiere
requieren
require
requisitos
rer
res
rescatar
rescate
research
reserva
reservas
reside
residencia
residencial
residencials
residencias
resident
residents
residual
residuos
resina
resiste
resisten
resistencia
resistent
resistents
resistio
resistir
resnais
resolucio
resolution
resolver
resonancia
respectivament
respectivas
respective
respectives
respectivos
respecto
respeto
respiracio
respiratorio
respomuso
responde
responden
responder
responsabilidat
responsable
responsables
respuesta
respuestas
resta
restableix
restas
restauracio
restaurada
restaurant
restaurants
restaurar
restaurata
restaurau
resto
restos
restriccions
resulta
resultan
resultando
resultant
resultantes
resultants
resultas
resultato
resultatos
resultau
resultaus
resulto
resultoron
resumen
resurreccio
ret
retablo
retablos
retacular
retacule
retaguardia
retasco
rete
retirada
retiran
retirar
retirata
retirato
retirau
retiro
reto
retorica
retorno
retrato
retratos
retuerta
return
returns
retval
retz
reunificacio
reunio
reunions
reunir
reus
rev
reve
revela
revelacio
revelo
revere
reverso
review
revilla
revisio
revista
revistas
revolucio
revolucionaria
revolucionarias
revolucionario
revolucionarios
revolucions
revolution
revue
revuelta
revueltas
rex
rey
reyal
reyalizar
reyals
reyes
reykjavi
reyno
reynolds
rez
rfea
rfef
rg
rga
rgb
rgen
rhamnus
rhiannon
rho
rhode
rhythm
ri
ria
riam
rian
riaza
riba
ribagorc
ribagorza
ribagorzana
ribagorzanas
ribagorzano
ribarroya
ribas
ribbentrop
ribe
ribeira
ribera
riberas
ribes
ribota
ric
rica
ricard
ricardo
ricas
ricci
rice
rich
richard
richardson
riche
richmond
richter
richthofen
rick
rickard
rickman
ricky
ricla
rico
ricos
ricou
rida
ride
ridge
ridley
rie
riego
riello
rien
riera
ries
riesgo
rieur
rif
rift
riga
rigachuelo
righetti
right
rights
riglos
rima
rimas
rimaya
rimini
rin
rinco
rinconada
ring
ringlera
ringleras
rings
rinoceront
rins
rinyons
rio
riocha
rioja
rione
rios
riot
ripa
ripas
ripera
ripley
ripoll
ripolle
ripuario
rique
riqueza
riquezas
ris
rise
risgo
risgos
risi
rita
ritchie
ritmica
ritmo
ritmos
rito
ritos
ritter
ritu
ritual
rituals
riu
rius
rival
rivalidat
rivals
rivas
river
rivera
rivie
riz
rizos
rk
rkiv
rm
rmino
rn
rna
rnberg
rngen
rni
rnols
ro
roa
road
roan
roazhon
rob
robards
robbins
robert
roberto
roberts
robertson
robin
robinson
robledo
robles
robot
robots
robre
robres
robson
roc
roca
rocafort
rocas
rocco
rocha
roche
rochelle
rocher
rochester
rock
rocks
rockstar
rocky
rococo
rocosa
rocosas
rocoso
rocosos
rod
roda
rodache
rodar
rodas
rode
rodellar
rodenas
rodeno
rodentia
rodeya
rodeyan
rodeyato
rodeyau
rodi
rodia
rodiada
rodian
rodiata
rodiato
rodiau
rodin
rodio
rodo
rodolfo
rodri
rodrigo
rodrigues
rodriguez
roe
roes
roger
rogers
rohe
rohlfs
roi
roig
roine
roja
rojas
rojo
rol
roland
rolda
rolde
roll
rolland
rolling
rom
roma
romain
roman
romana
romanas
romance
romancero
romances
romani
romania
romanica
romanicas
romanico
romanicoaragone
romanicoaragones
romanicos
romanizacio
romano
romanos
romans
romantica
romanticismo
romantico
romanya
romanz
romareda
rome
romeo
romeral
romeri
romero
romeu
rommel
romper
romy
ron
ronald
ronaldo
roncal
roncale
roncesvals
ronda
rondas
ronet
ronnie
room
rooney
roosevelt
root
ropa
ropas
roque
roques
ros
rosa
rosaceae
rosada
rosales
rosali
rosalind
rosario
rosas
roscoe
rose
rosello
rosenberg
rosenheim
roses
roseta
rosetta
rosi
ross
rossellini
rossello
rossi
rostro
rota
rotacio
rotas
rote
roth
rotorua
rotten
rotterdam
roubaix
rouben
rouge
round
rousseau
routledge
row
roy
roya
royal
royas
royenca
royisca
royo
royos
royuela
roz
rquez
rr
rra
rrega
rregui
rrez
rri
rritz
rriz
rs
rss
rstenfeldbruck
rt
rterbuch
rtes
rth
rtil
rtils
rtir
rtiz
rtolas
rttemberg
ru
ruanda
rub
rube
rubi
rubia
rubiales
rubielos
rubio
rubiuelos
ruby
rudi
rudio
rudolf
rudolph
rue
rueba
rueca
rueda
ruedas
ruello
ruellos
ruesta
rufus
rugby
ruggles
rui
ruina
ruinas
ruiz
rules
rum
ruma
rumana
rumanas
rumanch
rumani
rumania
rumano
rumans
rumbo
rumeli
run
runas
rundstedt
runner
rupert
rupestre
rupestres
ruptura
rural
rurals
rus
rusa
rusas
rush
rusia
rusio
ruso
rusos
russell
russia
russian
rustica
ruta
rutas
rutenia
rutens
ruth
rutherford
ry
ryan
ryder
rzburg
s
sa
saba
sabadell
sabado
sabana
sabari
sabastia
sabe
sabemos
saben
saber
sabiduri
sabin
sabina
sabinar
sabinars
sabinas
sabino
sabinya
sabio
sable
sabocos
sabor
saboya
sabre
sabuco
saca
sacando
sacar
sacerdot
sacerdotz
sacher
sachitario
saco
sacos
sacramento
sacre
sacred
sacrificio
sacrista
sacro
sadaba
sadurni
saelices
safavida
safor
saga
sagan
sagardi
sagasta
sagrada
sagrata
sagrato
sagrau
sagraus
sagu
sagunto
sahara
sai
said
saint
sainte
sainz
sais
sal
sala
salada
saladi
salado
salagons
salamanca
salamandra
salamandridae
salamero
salario
salas
salazar
salce
salchicha
salchichas
saldo
salduie
sale
salen
salerno
sales
salias
saliba
salida
salinar
salinas
salindo
salio
salioron
salir
salita
salix
salle
sallent
sally
salmo
salmon
salo
salomo
salonica
sals
salsa
salt
salto
saltos
salud
saludas
salut
salvache
salvaches
salvachu
salvador
salvadorenyo
salvar
salvat
salvatierra
salvatore
salvii
salvo
salz
salzburg
salzburgo
sam
samantha
samarti
same
sami
samianigo
samitier
samoa
samper
samson
samuel
san
sana
sanabria
sancha
sanchac
sanchez
sancho
sancti
sand
sandaruelo
sanders
sandra
sane
sangarre
sangre
sangriento
sangu
sanguinios
sanidat
sanitaria
sanitario
sankt
sanlu
sano
sanroma
sans
sanscrito
sant
santa
santamari
santana
santander
santas
santes
santet
santi
santiago
santiba
santillana
santisma
santo
santolaria
santonche
santorroma
santos
santu
santuario
sanz
sao
saona
sape
sapia
sapiens
saque
saqueyo
sar
sara
sarah
sarajevo
sarandon
saraqusta
sarasaz
saraviello
sarchento
sarcofago
sarda
sardo
sargantana
sarguera
sarin
sarinyena
sarlle
sarmiento
saroi
sarra
sarrablo
sarrastanyo
sarrat
sarrato
sarrau
sarre
sarria
sarrio
sarrios
sarro
sarroca
sars
sarthe
sas
sasa
sasanida
sasau
saskatchewan
saski
saso
sasos
sasser
sastago
sastre
satelite
satelites
satisfer
sativa
satue
saturn
saturni
saturno
sau
saud
saudi
sauf
saura
sauron
sautet
sauvate
sava
savalas
savannah
save
savoir
savoya
saxo
saxofonista
saxonia
saxons
say
sayago
sayeta
sayo
sc
scala
scale
scalemajor
scaleminor
scar
sce
scena
scenario
scenarios
scenas
scenic
schaan
schaffner
scheider
schell
schildkraut
schindler
schlesinger
schleswig
schloss
schmadel
schmidt
schneider
scho
schongau
school
schro
schubert
schumacher
schutzstaffel
science
sciences
sciencia
sciencias
scientific
scientifica
scientificament
scientificas
scientifico
scientificos
scisio
scisma
scita
scitas
scola
scorsese
scotland
scott
screen
scripta
scrofa
sd
se
sea
sean
search
seas
seat
seaton
seattle
sebastia
sebastian
sebastopol
sebo
sec
seca
secano
secas
secastiella
seccio
seccions
secesio
secesionismo
sechismundo
secilia
secilians
secilias
seco
second
secos
secret
secreta
secretari
secretaria
secretario
secretarios
secreto
secretorum
secretos
secrets
secta
sectas
sector
sectors
secu
secundaria
secundarias
secundario
secundarios
secundum
seda
sedentarios
sedetans
sedimentacio
sedimentaria
sedimentarias
sedimentarios
sedimento
sedimentos
see
sefarad
sefardi
sega
segadors
segal
segarra
segmento
segmentos
segorb
segovia
segre
segria
segu
seguiba
seguiban
seguida
seguidas
seguidors
seguimiento
seguindo
seguir
seguita
seguito
seguiu
seguius
segunda
segundaria
segundario
segundas
segundo
segundos
segunt
seguntes
segur
segura
segurament
seguranza
seguras
seguridat
seguro
seguros
sei
seiga
seine
seira
seis
seisena
seiseno
seix
sel
selassie
selchuqui
seleccio
seleccions
selezio
sellant
sellers
sellier
selva
selvagem
selvagens
selvas
selznick
semana
semanal
semanario
semanas
semantica
semanticament
semantico
semanticos
semblants
semble
sembrar
semellant
semellants
semi
semicercular
semicircular
semicultismo
semicultismos
semifinal
semifinals
semilars
seminario
semir
semitica
semiticas
semontane
semontano
semontanos
semos
sempre
sen
sena
senador
senadors
senau
sencilla
sencillo
sencillos
senda
sender
senderismo
sendero
senders
sendicalista
sendicals
sendicato
sendicatos
sene
senegal
senegale
senegu
senet
seno
sensacio
sense
sensible
sent
senta
sentencia
sentiba
sentido
sentimiento
sentimientos
sentir
sentito
sentitos
sentiu
sentius
senyal
senyor
senyora
senyori
seo
sep
separacio
sepoltura
september
septentrional
septentrionals
septiembre
septimania
sepu
sepulcre
sepulcro
sequ
sequera
sequeras
ser
sera
serba
serbas
serbia
serbio
serbisca
serbisco
serbo
serbos
sercue
serena
seres
serge
sergei
sergi
sergio
seri
serie
series
serio
serna
sero
serols
serors
serpient
serpients
serra
serrablo
serrani
serrano
serrans
serrasalmus
serrat
serrate
serrato
serrault
serreta
sers
serval
servet
serveto
serviba
serviban
service
servicio
servicios
servidors
servir
servitut
serviu
ses
sese
seseyo
sesio
sesions
sesma
sestrals
sestrica
sesue
set
seta
setanta
setena
seteno
seth
setiembre
setio
setios
setranks
setze
seu
seus
seuve
seven
severiano
severino
severo
sevilla
sex
sexma
sexmas
sexo
sexos
sexto
sexual
sexualidat
sexuals
seychelles
seymour
sf
sfondo
sg
sh
shadows
shah
shakespeare
shalo
shanghai
shannon
sharif
sharon
shatner
shaun
shaw
she
shea
shearer
sheen
sheffield
sheikh
shelley
shepard
shepherd
sheridan
sherman
shield
shields
shift
shirley
shkode
sho
shoemaker
shogun
shore
short
should
show
shu
shuttle
si
sia
siam
sias
siberia
sibirana
sibiu
sic
sica
sicilia
sico
sicos
sid
sida
side
siding
sidney
sido
sie
siede
siega
siegel
sieglas
sieglo
sieglos
siella
siemens
siempre
siena
siendo
siente
sienten
siero
sierra
sierras
siervos
sies
sieste
siet
siete
sietemo
sietena
siga
sigan
sigla
siglas
siglo
siglos
sigmund
signa
signatura
significa
significaba
significan
significando
significar
significari
significativa
significativament
significativas
significativo
significativos
significato
significatos
significau
significaus
significo
signo
signoret
signos
sigourney
sigu
sigue
siguen
siguiens
siguient
siguients
siguindo
siguio
siguioron
sil
silaba
silabas
silbia
silence
silencio
silent
silesia
silica
silicatos
silicio
silla
silleri
silos
sils
silva
silvana
silver
silvestre
silvestres
silvia
silvio
sima
simbolica
simbolismo
simboliza
simbolo
simbolochi
simbolos
simeiz
simeo
simetri
simient
simients
similar
similars
simmons
simo
simon
simone
simpati
simpla
simplament
simplas
simple
simplement
simples
simplificacio
simplificar
simplificata
simplificato
simpson
simptomas
simultaneidat
simultaniament
sin
sinai
sinatra
since
sinclair
sinclinal
sinclinals
sincopa
sind
sindembargo
sindicato
sindrome
singapur
singer
single
singles
singular
singulars
sinnatura
sino
sinoga
sinonimo
sinonimos
sinse
sint
sintagma
sintagmas
sintaxi
sintesi
sintetico
sintomas
sintra
sinya
sinyal
sinyala
sinyalan
sinyalar
sinyalau
sinyals
sinyar
sinyato
sinyatura
sinyau
sinyo
sinyor
sinyora
sinyori
sinyoron
sinyors
sio
sion
sioux
sipca
sique
sir
siracusa
sirga
siria
sirians
sirio
sirk
sirmia
sirve
sirven
sirvio
sis
sisons
sisquiera
sissy
sistema
sistemas
sistematica
sistematico
sister
sisters
sit
site
sitelink
sith
sitio
sitios
sito
situ
situa
situacio
situacions
situada
situadas
situan
situar
situata
situatas
situato
situatos
situau
situaus
situo
siu
siurana
sixanta
sixena
sk
ska
ski
skin
skinner
sky
skywalker
sl
sla
slalom
slate
sm
sma
small
smaug
smith
smo
smos
snaktype
snow
snowboard
snowboarder
so
soaso
soba
sobe
soben
soberani
sobieski
sobira
sobirani
sobirano
sobirans
sobrarbe
sobrarbenca
sobrarbenco
sobre
sobrebuena
sobrecollida
sobremont
sobremonte
sobrepuerto
sobretot
sobrevivio
sobrevivir
sobri
sobrina
sobrino
soc
social
socialdemocrata
sociales
socialismo
socialista
socialistas
socialment
socials
socie
sociedad
sociedat
sociedatz
societat
society
socio
sociolingu
sociolochi
sociologi
sociologo
socios
socorro
soderbergh
sodio
sodomi
sofi
sofia
sofiya
sofrio
software
soi
soissons
soit
sol
sola
solament
solana
solano
solans
solar
solars
solas
solda
soldadura
soldanato
soldati
soldato
soldatos
soldau
soldaus
sole
soledad
soledat
soleil
solen
solenca
solenco
soler
solera
solero
soleura
solicito
solida
solidaridat
solido
solidos
solima
solista
solitario
sollavientos
solo
solos
solsona
solsone
soltera
solucio
solucions
somalia
sombra
sombrero
some
somer
somero
somers
somerset
something
somma
somme
somola
somontano
somos
somport
son
sonar
sonda
sondas
sondergaard
song
songs
sonito
sonitos
soniu
sonius
sonora
sonoras
sonorizacio
sonoro
sons
sont
sony
sopa
sopas
sopeira
sopeto
sophia
sophie
soporte
soprano
soque
sor
sora
sorabo
sorbus
sorda
sordi
sorghum
soria
soriano
soro
sorolla
sorpresa
sort
sorvino
sos
sosa
sostenible
sostiene
sotillo
soto
sotonera
sotos
soul
sound
source
sourced
sous
sousa
south
southampton
southern
soviet
sovietica
sovieticas
sovietico
sovieticos
soviets
soy
soya
soyuz
sozcampio
sozmeso
sozmesos
sozmeter
sp
spa
space
spacek
spacewatch
spacex
spain
spam
spanish
spartacus
special
species
spectrum
spencer
spet
spi
spiegel
spielberg
spike
spiridon
spirit
spirou
spis
split
spock
sport
sporting
sports
sposetti
spotorno
spp
sprache
spring
springer
springfield
springs
spurs
sputnik
spy
square
squet
sr
sra
sri
ss
ssa
sseldorf
ssen
ssp
st
sta
stadium
stadt
stage
stahl
stalin
stalingrado
stalinismo
stallone
stan
stand
standard
stanford
stanisław
stanley
stanton
stanwyck
star
stark
starnberg
starr
stars
start
stas
state
states
station
statistics
statistisches
status
stazione
ste
steel
stefan
stefano
steiger
stein
steiner
stella
steno
step
stephen
ster
sterling
stern
sternberg
sterreich
steto
steve
steven
stevens
stevenson
stewart
stic
stica
sticas
stico
sticos
still
sto
stock
stockholm
stoke
stol
stoles
stols
stone
stones
stop
stor
storia
stories
story
stowe
stra
straight
strange
stranger
strasberg
strauss
straße
stre
streep
street
strega
streisand
striano
string
stroheim
stuart
student
studies
studio
studios
study
sturges
stuttgart
style
su
sua
suau
suaus
suave
sub
subcampio
subcarpatica
subcheccio
subchecto
subchectos
subchenero
subcheneros
subchuntivo
subclase
subcomarca
subcontinent
subdialecto
subdialectos
subdistricto
subditos
subdivide
subdividen
subdivisio
subdivisions
subespecie
subespecies
subfamilia
subfamilias
subgrupo
subindiz
sublevacio
sublevacions
sublevatos
sublevau
sublevaus
suborda
suborden
subordinacio
subordinada
subordinadas
subpachina
subprefectura
subsahariana
subsp
substancia
substancialment
substancias
substantivo
substantivos
substitucio
substituindo
substituir
substituito
substituye
substituyo
substrato
subtropical
subtropicals
suburbio
succede
succedindo
succedio
succedito
succediu
succesio
succesivament
succesivas
succesivos
succesor
succesors
sucedio
sucesio
sucesor
sucesos
suchiere
suchieren
suco
sucre
sud
suda
sudafrica
sudafricana
sudamerica
sudcoria
sudeste
sudoccidental
sudoriental
sudueste
sue
suebia
suebo
suebos
sueca
suecia
sueco
suecos
suegro
sueldo
sueldos
suelo
suelos
suelta
sueltas
suen
suenio
suenios
suert
suerte
suertes
suez
suffolk
sufi
suficient
sufierto
sufijos
sufixada
sufixo
sufixos
sufrachio
sufre
sufrio
sufrioron
sufrir
sugar
suicidato
suicidio
suis
suite
suiza
suizo
suizos
sul
sulayma
sulayman
sulco
sulcos
sulfolobus
sullivan
sully
sulu
sum
suma
suman
sumar
sumatra
suministro
summer
sumo
sumter
sun
sunday
sunnitas
sunshine
super
supera
superan
superando
superar
supercopa
superencalcunyo
superfamilia
superficial
superficials
superficie
superficies
superior
superioridat
superiors
superlativo
superliga
supero
superstrato
supervivencia
supervivients
suporte
suposa
suposaba
suposar
suposo
supplied
suprema
supremaci
supremo
supresio
suprimio
suqui
sur
surafrica
sureste
surf
suri
surinam
surrealismo
surrey
surta
surte
surtees
surten
surtida
surtio
surtir
surueste
survey
sus
susan
susana
susanna
susano
susi
suso
suspendio
suspensio
suspenso
sussex
sustancias
sustantivo
sustantivos
sustitucio
sustituindo
sustituir
sustituita
sustituitas
sustituito
sustituitos
sustituye
sustituyito
sustituyo
sustituyoron
sustrato
sutherland
suya
suyas
suyo
suyos
suzanne
suzuki
sv
svg
sw
swahili
swan
sweet
swing
switch
sydney
sydow
sylvatica
sylvester
sylvestris
sylvia
sylvie
symbol
synonymis
system
systema
systems
szlo
sør
t
ta
tabaco
tabernas
taberners
tabierna
tabiernas
tabla
tablado
tablas
table
tablero
tabuenca
taca
tacas
tachiquista
tacho
tacticas
tacto
tadeo
tadeusz
tafalla
tag
tagliavini
tagu
tai
taifa
taifas
tailande
tailandia
tain
taipei
tait
taiwa
taiwan
taixo
tajo
tajun
take
takes
tal
talamanca
talamantes
talaya
talayas
talbot
talent
tales
talk
talla
tallada
tallan
tallar
taller
tallers
tallinn
tallo
tallos
talment
tals
tama
tamanyo
tamarit
tamas
tambie
tambor
tambors
tame
tamerla
tamie
tamien
tamil
tampes
tampo
tampoco
tan
tanda
tandy
tang
tango
tanimientres
tano
tanque
tanques
tansament
tant
tanta
tantas
tanto
tantos
tantra
tantum
tanya
tanye
tanyendo
tanyer
tanzania
tapa
tapia
tapices
tapo
taquilla
taquillera
tarabidau
taradash
tarantino
taras
tarazona
tarba
tarcheta
tarcual
tarda
tardana
tardanas
tardano
tardanos
tarde
tardi
tardienta
tardis
tardo
tarentola
tarija
tarn
taro
tarqui
tarraconense
tarragona
tarragone
tarso
tarta
tartera
tartre
tartres
tartugas
tas
tasa
tasament
tasas
tasca
taschenbuch
tasman
tasmania
tastavins
tatra
tatras
tatry
tau
taula
taunton
tauro
taurog
tauromaquia
taurus
taust
tauste
tautenburg
tavernier
taxa
taxas
taxi
taxo
taxon
taxonomi
taxonomica
taxonomicas
taxons
tay
taylor
tb
tbilisi
tbol
tcm
td
te
tea
team
teatral
teatrals
teatro
teatros
teau
teborg
technology
tecnica
tecnicament
tecnicas
tecnicismos
tecnico
tecnicos
tecnolochi
tecnolochico
tecnolochicos
tectonica
tectonicas
ted
tedra
tegui
tehera
teide
teito
teixito
teixitos
teixiu
teixius
tejada
tekapo
tel
tela
telecomunicacio
telecomunicacions
teleferico
telefilm
telefilmes
telefo
telefoni
telefono
telemaco
telera
telescopio
telescopios
televisio
television
tell
tella
tellas
tellato
tellatos
tellau
tellaus
telly
telo
tema
temas
tematica
tematicas
temerario
temperatura
temperaturas
tempestatz
templato
temple
templers
templo
templos
tempo
temporada
temporadas
temporal
temporalment
temporals
temporata
temporatas
temprana
temps
ten
tena
tendencia
tendencias
tendenera
tendennera
tender
tendra
tendri
tene
teneba
teneban
tenemos
tenendo
tener
tenerife
tenese
tenesen
teni
tenido
tenient
tenio
tenioron
tenir
tenis
tenista
tenito
teniu
tennessee
tenor
tensi
tensina
tensino
tensio
tensions
tenyas
teo
teodora
teodorico
teodoro
teodosio
teolochi
teologo
teologos
teorema
teori
teorica
teoricament
teorico
teoricos
ter
tera
tercer
tercera
terceras
tercero
tercerol
tercers
terciario
terciarios
tercio
tercios
terence
teresa
teri
termals
termas
terme
termi
termica
termin
terminacio
terminacions
terminadas
terminal
terminals
terminan
terminar
terminator
terminaus
termini
termino
terminolochi
terminos
termins
termodinamica
terms
ternasco
terolano
terra
terrado
terrano
terrassa
terratenient
terratenients
terre
terreno
terrenos
terrens
terrer
terrestre
terrestres
terrible
terrichenos
terrient
territorial
territorials
territorio
territorios
terror
terrorismo
terrorista
terroristas
terry
ters
teruel
teruelana
terzer
tes
tesalia
teschen
tesi
tesino
tesis
tesla
test
testamento
testigo
testigos
testimonio
testimonios
tet
tetra
tetrapodos
tetulau
tetulo
tetulos
teutonica
teutonicos
teutons
texas
text
texte
textil
texto
textos
textura
tez
th
tha
thai
thames
than
that
thatcher
the
theater
theatre
theda
theft
their
thelma
them
then
theodor
theodore
theory
there
thermador
they
thie
thierry
thin
thing
things
third
this
thnau
thode
thomas
thompson
thomson
thorin
thornton
thorpe
those
threatened
three
through
thulin
thumb
thumbnail
thunder
thymus
ti
tibalt
tibbett
tiberio
tibet
tic
tica
ticas
tico
ticos
tie
tiempo
tiempos
tien
tiende
tienden
tiene
tienen
tienga
tiengan
tiengo
tienne
tiens
tierga
tiermas
tierra
tierrantona
tierras
tierratremo
tierratremos
tiestos
tiger
tigre
tigris
til
tilia
till
tils
tim
time
timeaxis
times
timis
timo
timor
timothy
tin
tina
tinenza
tinta
tinti
tintin
tinto
tio
tipica
tipicament
tipicas
tipico
tipicos
tipo
tipolochi
tipos
tira
tirada
tirar
tiro
tirol
tirrena
tiso
tita
titan
title
tito
titol
titols
titular
titularidat
titulars
titulato
to
tobago
tobet
toca
tocan
tocando
tocant
tocar
tocho
tochos
toci
tocins
toco
toda
todas
today
todd
todo
todos
tognazzi
togo
toi
tokio
tokugawa
tokyo
tol
toledo
tolerancia
tolkien
tololo
tolosa
tolosaldea
tolosan
tolosana
tols
tolstoy
tolva
tom
toma
tomas
tomasi
tomate
tomatoes
tome
tommaso
tommy
tomo
tomorrow
tomos
toms
ton
tonalidatz
tonda
tone
tonel
toneladas
tonga
toni
tonica
tonicas
tonico
tonicos
tono
tonos
tonumber
tony
too
toole
top
topo
topografi
topograficament
topografico
toponi
toponimi
toponimia
toponimica
toponimicas
toponimico
toponimo
toponimos
toque
toquinho
tor
tora
torda
tordo
torello
torero
toril
torismo
toristas
toristica
toristico
toristicos
torla
torlarribera
tormes
tormo
tormos
tormoseta
torna
tornaba
tornaban
tornada
tornan
tornando
tornar
tornara
tornari
tornase
tornata
tornato
tornau
torne
torneo
torneyo
torneyos
torno
tornoron
tornos
toro
toronto
toros
torralba
torralbiella
torraza
torre
torreciella
torrecilla
torrejo
torrellas
torremocha
torrent
torrente
torrents
torrero
torres
torreta
torreto
torrillas
torrillo
torrociella
torrodellas
torroella
torroja
torrubia
torta
tortiella
tortiellas
tortosa
tortosi
torun
tos
tosca
toscana
toscar
tosos
tostring
tot
tota
total
totalidat
totalment
totas
toto
tottenham
totz
tou
touch
toulouse
tour
tourneur
tours
tous
tout
tova
tovar
tovas
tovo
tovos
tower
town
toyota
toz
toza
tozal
tozals
tozuelo
tr
tra
trabajo
traccio
tracha
trache
trachecto
trachectoria
trachedia
traches
tracia
tracio
track
tracta
tractaba
tractamiento
tractamientos
tractan
tractar
tractato
tractatos
tractau
tractaus
tracto
tracy
trade
tradicio
tradicional
tradicionalment
tradicionals
tradiciones
tradicions
tradizio
traduccio
traduccions
traduce
traducio
traducir
traducito
traduciu
traductor
traductors
tradueito
trafalgar
trafico
trafucar
trai
traidori
trail
train
traite
trallo
trallos
trama
tramacastiel
tramacastiella
tramo
tramos
trampa
trampo
trampos
tramvi
tranco
trango
trangos
trans
transcaucasia
transchenero
transcheners
transcripcio
transcurso
transexuals
transferencia
transfermarkt
transforma
transformacio
transformacions
transformador
transforman
transformando
transformar
transformau
transformo
transgender
transiberiano
transicio
transilvania
transilvans
transistor
transistors
transitivos
transito
transmesa
transmeso
transmesos
transmisio
transmite
transmiten
transmitio
transmitir
transnistria
transoxiana
transparent
transportar
transporte
transportes
transuancia
transuant
transuants
transversal
trapa
tras
trascaucasia
traslado
trasmoz
trasobars
trasoro
trassierra
trastamara
traste
trastes
trastornos
trata
tratado
tratamiento
tratato
traun
traunreut
traunstein
trave
travers
travesando
travesar
travesi
travie
traviesa
travolta
traye
trayectoria
trayen
trayer
trayo
trayoron
traza
trazas
trazato
trazau
tre
treballa
treballaba
treballaban
treballador
treballadors
treballan
treballando
treballar
treballato
treballau
treballo
treballos
trebunal
tree
tregua
treito
trek
tremedal
tremp
tren
trencar
trens
trent
trenta
trentino
trento
trenton
tres
tresa
trescruza
trescruzaba
trescruzada
trescruzan
trescruzando
trescruzar
trescruzata
trescruzato
trescruzo
treserols
treslada
tresladan
tresladar
tresladau
treslado
tresladoron
treslau
tresoro
trestalla
trestallato
trestallau
trestallo
tretze
trevin
treviso
trevor
tri
tria
trianglo
triangular
triasico
triau
tribal
tribals
tribu
tribunal
tribunals
tribus
tributario
tributarios
tributo
tributos
tricas
trieste
triga
trigar
trigau
trigaus
trigo
trilla
trillo
trilochi
trim
trincheras
trinidad
trinidat
trintignant
tripa
triple
triples
tripoli
tripulacio
trista
tristan
triste
triticum
trito
tritter
triturus
triunfo
tro
troba
trobaba
trobaban
trobada
trobadas
trobador
trobamos
troban
trobando
trobar
trobata
trobatas
trobato
trobatos
trobau
trobaus
trobe
troben
trobo
troboron
trofeo
trofeu
trois
troisi
trol
troles
trompa
trompeta
tron
tronada
tronadas
tronca
troncedo
troncho
tronco
troncos
trondheim
trono
troops
trop
tropa
tropas
tropical
tropicals
tropicos
trotsky
troupes
troya
troyes
troz
trozos
truca
trucar
truco
trucos
true
truffaut
truitas
trujillo
truman
trumbo
trunfa
trunfas
trunfo
truss
trust
trøndelag
ts
tsch
tt
tting
ttingen
tu
tua
tuberclos
tubo
tuca
tucas
tuchib
tuck
tucker
tuco
tudela
tudesquismos
tudor
tuertas
tuerto
tula
tulo
tulsa
tum
tumba
tumbas
tundra
tungste
tunica
tunicia
tupolev
tuqueta
tuquets
turberas
turbo
turca
turcas
turco
turcos
turdus
turena
turi
turia
turiaso
turiasonense
turinchia
turismo
turistas
turistica
turistico
turkmenista
turmo
turner
turo
turolense
turolenses
turquemans
turqueste
turqui
turquica
turquicas
turquico
turquicos
turquismos
turrillo
tus
tutela
tutti
tuvalu
tuvo
tuya
tuyo
tv
tve
twilight
twitter
two
ty
tyler
tymologique
tyne
type
tyrone
tz
tze
tzing
u
ua
uales
ubago
ubica
ubicacio
ubicada
ubicau
ubierta
ubiertament
ubiertas
ubierto
ubiertos
ubieto
ubre
ubren
ubrindo
ubrio
ubrioron
ubrir
uc
uccle
ucrai
ucraine
ucrainesa
ucrainesas
ucraineses
ud
ue
uebra
uecha
ueda
uefa
uego
uegos
ueitanta
ueitena
ueiteno
ueito
ueitomil
ueitomils
uel
uela
uelba
uella
uellas
uello
uellos
uelo
uembra
uer
uerba
uesa
uesac
uesca
uescana
ueso
uesos
ueste
uevo
uevos
uf
ufrio
uga
uganda
ugas
ugo
ugt
ui
uigur
uigurs
uitanta
uitens
uk
ukraine
ul
ula
uleb
ulm
ulrich
ulster
ult
ultima
ultimate
ultra
ultramar
ultrapuertos
ulysses
um
uma
umberto
umbri
un
una
unaltra
unanimidat
unas
unatra
unatro
uncastiello
uncastillo
und
under
underground
une
unen
unesco
unglas
uniata
uniba
unibersida
unica
unicaja
unicament
unicas
unicelulars
unico
unicos
unida
unidad
unidades
unidas
unidat
unidatz
unido
unidos
unificacio
unificar
unificata
unificato
unifico
uniforme
unindo
unio
union
unioron
unir
unit
unita
unitas
united
unito
unitos
uniu
unius
universal
universals
universe
universidad
universidat
universidatz
universitaires
universitaria
universitarias
universitario
universitarios
universitat
universite
university
universo
unknown
unnamed
uno
unos
uns
uo
up
upan
upon
upper
uppsala
upright
ura
urals
uranio
urano
urata
urba
urban
urbana
urbanas
urbanismo
urbanista
urbanistica
urbanizacio
urbanizacions
urbano
urbans
urbe
urbino
urchel
urdu
urgell
uri
url
urmo
urnas
uro
urola
urraca
urrea
urreya
urrie
ursidae
urss
ursula
ursus
uruel
uruguai
uruguay
uruguaya
uruguayo
urzay
us
usa
usada
usadas
usados
usaf
usan
usando
usar
usata
usato
usau
usb
use
used
usenet
usi
usina
uso
usos
usta
ustaixas
ustinov
ustring
usual
usuals
usuario
usuarios
ut
utah
utc
utebo
utensilios
utero
utevo
utiel
util
utilidat
utiliza
utilizacio
utilizada
utilizadas
utilizan
utilizando
utilizar
utilizato
utilizau
utilizaus
utilizo
utils
utrecht
utrera
utriellas
utrilla
uu
uz
uzbecos
uzbekista
uzbequista
v
va
vaca
vacacional
vacanzas
vacas
vachimala
vachimanya
vacumen
vacuna
vada
vadiello
vadillo
vadim
vado
vaduz
vaga
vago
vagons
vaiga
vaigan
vaixiello
vaixiellos
val
valais
valbona
valde
valdellosa
valdeo
valderrobres
valdivia
vale
valenc
valencia
valenciana
valencianas
valenciano
valencians
valenti
valentina
valentine
valentino
valera
valeria
valeriano
valerio
valero
valgua
valida
valimanya
valira
vall
valladolid
valladolit
vallbona
valldigna
valle
vallejo
valles
vallespir
valleta
valley
vallhibierna
valli
vallibasa
vallmoll
vallone
valls
valo
valois
valonia
valons
valor
valors
valos
valparai
vals
valua
value
values
valura
valuras
valverde
valvula
valvulas
vampire
van
vancouver
vandalo
vandalos
vanessa
vanguardia
vano
vanos
vanuatu
vapor
var
vara
varas
varela
varello
varennes
varese
vareya
vareyan
vargas
vari
variable
variables
variacio
variacions
variadas
varian
variant
variants
variar
varias
variata
variatos
variaus
variedat
variedatz
varios
varons
varossa
vars
varsovia
vas
vasallache
vasallo
vasallos
vasco
vascons
vascos
vaso
vasos
vasuera
vaticano
vaticielles
vauclusa
vaud
vaughan
ve
vec
vecchio
veces
vechetacio
vechetal
vechetals
veci
vecina
vecinas
vecino
vecinos
vecins
vector
vectors
veda
vega
vegada
vegadas
vegas
vegata
vegatas
vegetacio
vegetal
vehi
vehiclo
vehiclos
vei
veiga
veigan
veire
vel
vela
velai
velar
velas
velasco
velilla
vella
vello
velocidat
velocidatz
velocistas
velodromo
velvet
ven
vena
venas
venaz
vence
vencedor
vencen
vencer
vencio
vencioron
vencitos
venciu
vencius
venda
vendas
vende
vendeba
vendema
venden
vender
vendio
vendioron
vendito
vendiu
vendius
vendra
venecia
veneciana
venecians
veneto
venezia
venezola
venezolana
venezolano
venezuela
venganza
veniba
veniban
venir
vens
vent
venta
ventallo
ventas
vente
ventena
ventral
ventriclo
ventriclos
ventura
venus
ver
vera
veracruz
veral
verano
veranos
verbal
verbals
verbo
verbos
verda
verdadera
verdaderas
verdadero
verdaders
verdas
verdat
verde
verdello
verdes
verdi
verdu
verduras
vereda
veremundo
vereno
vergu
verhoeven
veri
verlag
vermello
vermont
verne
vernera
vernet
verneuil
vernon
vero
verona
veronica
versailles
versant
versants
versio
version
versions
verso
versos
vert
vertebral
vertebras
vertebratos
vertebraus
vertical
verticals
vertices
verticilos
vertient
veruela
very
ves
vesant
vesita
vesitants
vesitar
vesitas
vesito
vestimenta
vestir
vestito
vestitos
vestiu
vestuario
veterano
veterans
vetiello
veturia
veye
veyeba
veyeban
veyemos
veyen
veyendo
veyer
veyio
veyo
vez
vezes
vi
via
viacamp
viachar
viache
viachers
viaches
viacho
viadors
viaducto
viaje
viale
viana
vic
vicari
vicario
vice
vicenc
vicens
vicent
vicente
vicenza
vicepresident
vicepresidents
viche
vichent
vichents
vichilancia
vicient
vicinas
vicins
vico
vicos
victima
victimas
victor
victoria
victoriano
victorias
victory
vid
vida
vidal
vidaller
vidas
video
videochuego
videochuegos
videoclip
videoconsola
videoconsolas
videos
vidio
vidios
vido
vidor
vidre
vidua
vie
vieira
vieja
viejo
vielha
viella
viellas
viello
viellos
vien
viena
viene
vienen
vienna
viens
viento
vientos
viernes
vietnam
vietnamita
vietnamitas
vieux
view
viggo
vigneaux
vignemale
vigo
vigor
viguera
vii
viii
vikingos
viktor
vil
vila
vilafranca
vilalba
vilamajor
vilamur
vilanava
vilanova
vilar
vilas
vilella
vilh
vilhe
viliella
villa
villacampa
villafelich
villafermosa
villafranca
village
villalar
villalba
villamayor
villanova
villanueva
villanuga
villar
villarcayo
villarejo
villares
villarreal
villarrobledo
villarroya
villas
villava
villaverde
villaviciosa
ville
villel
villena
villeneuve
vilna
vimbre
vin
vinagre
vinalopo
vinaroz
vincennes
vincent
vincente
vincenzo
vinci
vinclata
vinclato
vinclo
vinclos
vini
vinient
vinients
vinioron
vino
vins
vint
vinte
vintido
vinya
vinyals
vinyas
vinyers
vio
viola
violacio
violant
violencia
violenta
violeta
virchen
virchens
virchinia
virella
virgen
virgin
virginia
virgo
virolla
virollas
virrei
virreinato
virtual
virtut
virus
vis
visconti
vise
visible
visibles
visiedo
visigoda
visigodo
visigodos
visio
vision
visita
visitar
visito
viso
visorio
vista
vistabella
vistable
vistables
vistas
visto
vistos
vistula
visual
visuals
vita
vital
vitalicio
vitalidat
vitamina
viterbo
vitis
vito
vitoria
vittorio
viu
viuda
viudas
viudos
viva
vivar
vivaro
vivas
vive
vivel
viven
viver
viverridae
vives
viviba
viviban
vivien
vivienda
viviendas
vivindo
vivio
vivioron
vivir
vivito
viviu
vivo
vivos
vizcai
vizcaya
vizconte
vlaca
vlacos
vladimir
vlaquia
vmv
vo
vocable
vocables
vocabulario
vocal
vocalica
vocalico
vocalista
vocalizacio
vocals
voces
voda
vodas
voi
voice
voight
voivodato
voivodia
voivodina
voivot
vol
voladors
volar
volca
volcanica
volcanicas
voleibol
volga
volido
volinia
volkswagen
volo
vols
volta
voltache
voltaire
volu
volume
volumen
volumens
voluntario
voluntarios
voluntat
vom
von
vora
vorarlberg
vori
vos
vosgos
votacio
voto
votos
vous
voyage
voyager
voz
vre
vres
vrh
vriolinista
vry
vs
vu
vue
vuedo
vueito
vueitres
vuelo
vuelos
vuelta
vueltas
vuido
vuixiga
vulca
vulcanica
vulcans
vulgar
vulgaris
vusatros
vy
w
wa
waffen
wagner
waikato
wakatipu
wald
wales
wali
walk
walken
walker
walking
wall
wallace
wallis
walsh
walt
walter
walters
walther
waltz
wamba
wan
wanaka
wanda
want
war
ward
warhol
warner
warren
warriors
wars
warwickshire
was
waschneck
washington
watanabe
water
waterpolo
watson
watts
wave
way
wayback
wayne
wałe
we
wea
wear
weaver
web
webb
webelements
weber
website
webster
wedding
wehrmacht
weimar
weissmuller
welcome
welles
wellington
wellman
wells
wembley
wenceslau
wendy
were
werner
wes
wesley
wessex
west
western
westfalia
westminster
westmoreland
what
when
where
which
whitaker
white
whitman
whitmore
whitney
whittaker
who
why
wicca
wichita
wide
width
wie
wien
wiener
wiesbaden
wife
wiki
wikibase
wikidata
wikimedia
wikipedia
wikipedistas
wikitext
wild
wilde
wilder
wiley
wilhelm
wilkinson
will
willem
william
williams
willie
willis
wills
willy
wilmes
wilmington
wilson
wiltshire
wim
winchester
wind
windows
windsor
wine
winfield
wings
winners
winona
winslet
winston
winter
winters
wir
wisconsin
wise
with
without
witness
wittenberg
wittgenstein
wizards
wo
wolf
wolfgang
wolfram
woman
women
wonder
wood
woodland
woodrow
woods
woodward
woody
woolf
woolley
woomera
worcester
worcestershire
word
wordpress
work
works
world
worth
wright
wrocław
wu
wuhan
wurtemberg
www
wyatt
wyler
wyman
wyoming
x
xa
xabier
xabierre
xalo
xangai
xar
xavier
xbox
xe
xeada
xec
xerez
xi
xicas
xico
xii
xiii
xiismo
xiitas
xiloca
xilocapedia
xime
ximena
ximeno
ximo
xinglong
xinjiang
xirgu
xito
xiv
xix
xixo
xorda
xordas
xordica
xordo
xose
xtokavisco
xu
xuto
xv
xvi
xvii
xviii
xx
xxi
xxii
xxiii
xxx
y
ya
yaga
yagu
yahoo
yahya
yale
yalta
yan
yanes
yates
yaya
yayo
ye
year
years
yeba
yebra
yedisa
yellow
yemen
yemeni
yenisei
yera
yeran
yes
yesa
yesero
yeung
yf
yi
yo
yod
yoga
yolanda
yonne
york
yorkshire
yosa
you
young
your
youth
youtube
ys
ystorias
yu
yuan
yuc
yugoslava
yugoslavia
yugoslavo
yugoslavos
yul
yun
yusuf
yvelines
yves
yvette
yyyy
z
za
zachary
zafa
zafanoria
zafra
zaga
zagal
zagreb
zaguer
zaguera
zagueras
zagueri
zaguerias
zaguero
zagueros
zaguers
zaica
zaida
zaidi
zaila
zambia
zamboanga
zamenhof
zamora
zampa
zanata
zanui
zanzi
zapardiel
zapata
zapater
zapatero
zapatos
zapo
zaporizhians
zar
zaragoc
zaragoza
zaragozana
zaragozano
zarina
zarista
zaro
zarpas
zarra
zarrada
zarran
zarrando
zarrar
zarrata
zarrato
zarrau
zarro
ze
zealand
zebra
zebras
zedong
zef
zeit
zelanda
zellweger
zemgalia
zen
zeno
zentro
zepa
zero
zervantes
zeta
zeus
zh
zhuang
ziboze
zidi
zie
zifra
zifras
zil
zimbabwe
zinc
zinco
zinnemann
zo
zodiaco
zoe
zola
zoltowski
zoma
zona
zonaras
zonas
zone
zoo
zool
zoolochi
zoologia
zoologo
zoologos
zoonimia
zoonimo
zoonimos
zquez
zu
zucas
zuckermann
zucre
zucres
zuda
zuera
zugarramurdi
zulu
zum
zumalaca
zur
zurita
zurlini
zuro
zweig
zx
{
|
}
~


¡
¢
£
§
¨
©
ª
«
­
®
°
±
²
³
´
µ
·
º
»
½
¿
×
ß
æ
ð
ø
þ
ɑ
ɔ
ə
ɛ
ɲ
ʃ
ʒ
ʧ
ʰ
ʲ
ʹ
ʻ
ʼ
ʾ
ʿ
ˀ
ˈ
ˌ
ː
˚
̀
́
̂
̃
̄
̆
̇
̈
̉
̊
̋
̌
̓
̔
̛
̣
̦
̧
̨
̯
̱
̸
͂
ͅ
͡
α
αι
ας
β
γ
δ
ε
η
θ
ι
κ
λ
μ
μα
ν
ο
π
περι
ρ
ς
σ
τ
τω
υ
φ
χ
ψ
ω
в
и
к
категория
н
о
с
т
ь
я
ְ
ִ
ֵ
ַ
ָ
ֹ
ּ
ׁ
א
ב
ד
ה
ו
י
ל
מ
ר
ש
ת
ا
ب
بن
ة
ح
د
ر
ل
م
و
ي
َ
ُ
ِ
ّ
ْ
ٔ
ٕ
ं
क
ग
त
द
ध
न
प
म
य
र
ल
व
श
स
ा
ि
ी
ु
ो
्
ব
য
ল
়
া
ি
ে
ு
்
ാ
്
ั
ิ
ี
ุ
ู
่
์
་
ོ
​
‌
‎
‏
‑
–
—
―
‘
’
“
”
„
†
•
…
′
″
‿
€
℃
№
←
→
↔
↷
∈
−
≈
⋅
③
④
⑦
█
■
⟨
⟩
ⴰ
⺀
⺄
⺆
⺈
⺊
⺌
⺕
⺝
⺸
⺼
⿰
⿱
⿲
⿳
⿴
⿵
⿶
⿷
⿸
⿹
⿺
⿻
、
。
〢
い
か
き
く
さ
し
て
と
に
の
へ
る
れ
゙
゚
イ
オ
ク
コ
シ
ス
タ
テ
ト
フ
ホ
マ
ユ
ラ
ル
ロ
ン
・
ー
㇁
㇂
㇄
㇇
㇈
㇉
㇓
㐁
㐄
㐅
㐌
㐫
㐬
㐭
㐮
㐱
㑒
㒵
㒸
㒼
㓁
㓞
㔾
㕛
㕣
㖾
㘝
㚅
㚇
㚔
㚘
㝉
㝡
㝴
㝵
㞋
㞢
㞷
㠩
㠭
㠯
㡀
㡭
㡿
㢲
㢴
㣇
㣺
㥯
㪅
㫄
㫐
㫒
㫺
㬅
㬎
㬥
㬰
㲋
㳄
㷠
㸒
㸚
㸦
㼌
㼲
㽞
㿟
䀠
䂞
䍃
䏍
䒑
䖍
䖒
䖝
䖵
䙴
䚻
䜌
䝿
䡛
䧹
䪞
一
丁
丂
七
丄
丅
丆
万
丈
三
上
下
丌
不
与
丏
丐
丑
专
且
丕
世
丘
丙
业
东
丞
丢
丣
两
严
並
丨
丩
个
丫
丬
中
丮
丰
丱
串
丵
丶
丷
丸
丹
为
主
丽
丿
乀
乂
乃
久
乆
乇
么
义
之
乌
乍
乎
乏
乐
乑
乔
乖
乗
乘
乙
乚
乛
乜
九
乞
也
习
乡
乳
乾
亀
亅
了
亇
予
争
事
二
亍
于
亏
亐
云
互
亓
五
井
亘
亚
亜
亞
亟
亠
亡
亢
交
亥
亦
产
亨
亩
享
京
亭
亮
亯
亰
亲
亳
亶
亷
人
亻
亼
亾
仁
今
介
仌
从
仐
仑
仒
仓
仕
他
付
仝
代
令
以
仮
任
企
伊
伏
伐
休
会
伯
但
位
何
佘
余
作
佥
使
來
侈
侌
侖
侯
侵
便
保
俞
信
修
倉
倍
候
倠
備
僉
僕
儿
兀
允
兂
元
兄
充
兆
兇
先
光
兊
克
兌
免
兑
兒
兓
兔
党
兜
兟
入
全
兩
兪
八
公
六
兮
兰
共
关
兵
其
具
典
兹
兼
冀
冂
冃
冄
内
冈
冉
冊
冋
册
再
冎
冏
冐
冒
冓
冖
冗
冘
军
农
冝
冡
冥
冫
冬
冷
几
凡
凢
凵
凶
凷
凸
凹
出
函
凾
刀
刁
刂
刃
刄
刅
分
切
刍
刑
刕
刖
列
刘
则
初
別
利
别
到
制
刺
則
削
剌
前
剡
剽
劉
力
功
加
劦
助
劫
劳
劵
勃
勇
勉
勒
動
務
勞
勤
勹
勺
勻
勾
勿
匀
匂
包
匆
匈
匊
匋
匍
匕
化
北
匚
匝
匡
匪
匱
匸
匹
区
医
匽
匿
區
十
卂
千
卄
卅
卆
升
午
卉
半
卌
华
卑
卒
卓
单
卖
南
卜
卝
卞
占
卡
卢
卣
卤
卦
卩
卪
卬
卯
印
危
即
却
卵
卷
卸
卻
厂
厃
厄
历
厈
厉
厌
厓
厘
厚
原
厤
厥
厨
厭
厲
厶
厷
厸
去
厼
厽
县
叀
参
參
叅
又
叉
及
友
双
反
叐
发
叒
叔
叕
取
受
叚
叜
叟
口
古
句
另
叩
只
召
可
台
叱
史
右
叵
号
司
叹
吂
各
吅
合
吉
吊
吋
同
名
后
吏
向
吕
君
吝
吞
否
含
启
吳
吴
吹
吾
呂
呆
呈
告
员
呙
周
命
咅
和
咎
咠
咢
咨
咸
咼
哀
品
哉
員
哥
哲
唐
商
啇
問
啚
啬
啻
善
喜
喬
單
喿
嗇
噩
嚴
囊
囗
囘
囙
囚
四
回
囟
因
囧
囬
困
囱
囷
固
国
圂
圅
國
圍
圓
土
圡
圣
圥
在
圭
地
圶
圼
坐
坒
坚
坴
垂
垔
垚
埀
埋
城
域
埶
執
基
堂
堅
堆
堇
堯
塞
墨
壘
士
壬
壯
声
壳
壴
壹
壺
壽
夂
处
夅
夆
备
夊
夋
夌
复
夏
夒
夕
外
夗
夘
多
夜
夢
大
夨
天
太
夫
夬
夭
央
失
夲
头
夷
夸
夹
夻
夾
奂
奄
奇
奈
奉
奎
奏
奐
契
奓
奔
奚
奞
奠
奢
奥
奭
女
奴
奻
好
如
妄
妙
妟
妥
妻
妾
姑
委
姜
威
娄
婁
婴
嬰
嬴
子
孑
孔
孕
孖
字
存
孚
孛
孝
孟
季
孤
学
孫
孱
學
宀
宁
宂
它
宅
宇
守
安
宋
完
宏
宓
宗
官
定
宛
宜
宝
客
宣
室
宮
宰
害
家
容
宾
宿
寄
寅
密
富
寒
察
寧
審
寫
寬
寮
寸
对
寺
寻
寽
対
寿
封
尃
射
将
將
專
尉
尊
尋
尌
對
小
少
尒
尓
尔
尖
尗
尚
尞
尢
尣
尤
尧
尨
尭
就
尸
尹
尺
尻
尼
尽
尾
尿
局
居
屈
屋
屎
屏
屑
展
屖
屚
属
屠
屡
屬
屮
屯
屰
山
屵
屾
岁
岂
岑
岡
岩
岳
岸
峯
峰
島
崇
崑
崔
崖
崙
崩
嵬
嶲
巂
巛
川
州
巟
巠
巢
巤
工
左
巧
巨
巩
巫
差
己
已
巳
巴
巷
巸
巽
巾
巿
帀
市
布
希
帚
帛
帝
带
師
席
帶
常
干
平
年
幵
并
幷
幸
幺
幻
幼
幽
幾
广
広
庄
床
底
店
庚
府
度
庫
庭
庶
康
庸
廉
廌
廛
廣
廩
廴
延
廷
建
廾
廿
开
弁
弃
弄
弇
弋
式
弓
弔
引
弗
弘
弜
弟
弥
弦
弱
張
強
强
彊
彌
彎
彐
彑
当
彔
录
彖
彗
彡
形
彥
彦
彧
彭
彳
役
彼
往
待
律
徒
得
徙
從
復
微
徵
心
忄
必
忌
忍
志
忝
忠
忩
快
念
忽
忿
思
怠
急
怱
恆
恒
恩
恭
息
悉
患
悤
悲
悶
惠
惡
惢
愁
愈
意
愛
感
慈
慧
慮
憂
憲
應
戀
戈
戉
戊
戋
戌
戍
戎
成
我
戒
戔
或
戚
戠
戢
截
戲
戶
户
戹
戼
戾
房
所
扁
扇
手
扌
才
打
托
执
承
折
拉
拜
拿
掌
推
提
摩
支
攴
攵
收
攸
改
放
政
敄
敏
敕
敖
敗
敝
敞
敢
散
敦
敫
敬
数
敷
數
斂
文
斉
斊
斗
斤
斥
斩
斬
斯
新
方
於
施
斿
旁
旋
族
无
旡
既
旣
日
旦
旧
旨
早
旬
旱
旲
时
旾
昆
昇
昌
昍
明
昏
易
昔
昗
昜
星
春
昬
是
昱
昴
昷
時
晃
晋
晏
普
景
晶
智
暑
暴
曇
曩
曰
曲
曳
更
曷
書
曹
曼
曾
替
最
朁
會
月
有
朋
服
朔
朕
朗
望
朝
木
朩
未
末
本
札
朮
术
朱
朵
朶
朿
杀
杏
杜
束
条
来
東
杲
杳
松
析
林
枚
果
枝
枲
枼
某
柔
查
柬
柰
柴
栗
桀
桑
桼
梁
條
梟
梨
棘
棠
棥
森
楚
業
楽
榮
樂
樊
欠
次
欣
欮
欲
欶
欽
款
歆
歇
歛
止
正
此
步
武
歨
歪
歮
歯
歰
歲
歴
歷
歸
歹
歺
死
殳
段
殷
殸
殹
殺
殻
殿
毋
毌
母
每
毒
比
毕
毚
毛
毳
氏
氐
民
气
氣
水
氵
氶
氷
永
氺
氾
求
汉
汝
汞
江
沃
沓
沖
沙
沝
治
泉
法
波
泣
泥
泰
洛
洪
活
派
流
浦
浪
浮
海
淡
淮
清
渚
渠
湯
滿
漢
漸
火
灬
灭
灰
灵
灷
炅
炎
炏
炗
炙
炭
為
烈
烏
烝
焉
無
焦
焱
然
煞
熊
熏
燕
營
燮
爪
爫
爭
爯
爰
爱
爲
爵
父
爻
爽
爾
爿
片
牙
牚
牛
牜
牟
牢
牧
物
牪
牽
犀
犬
犭
犮
狂
狄
狊
独
狺
猋
猒
猪
献
獻
玄
率
玉
王
玟
玨
珎
班
球
琴
瑟
瑩
瓜
瓦
甘
甚
生
産
用
甫
甬
田
由
甲
申
电
甶
男
甸
甹
画
甾
畀
界
畏
畐
留
畜
畟
畢
畧
畨
番
畫
異
畱
當
畺
畾
疊
疋
疌
疑
疒
疾
癶
癸
癹
登
發
白
百
皀
皃
的
皆
皇
皋
皐
皕
皮
皷
皿
盃
盆
盇
盈
益
盍
盎
监
盒
盖
盛
盡
監
盤
盧
目
直
相
盾
省
眇
眉
看
県
眔
眞
真
眷
眼
眾
着
睘
睪
睿
瞏
瞢
瞿
矍
矛
矞
矢
矣
知
矦
短
石
破
碎
磊
磨
示
礻
礼
祟
票
祭
禀
禁
禸
禹
禺
离
禽
禾
禿
秀
秃
秉
秋
科
秝
秦
移
稟
穀
穌
穴
究
穹
空
穿
突
窄
窒
立
竒
竜
竝
竟
章
童
竹
笑
笠
筆
等
答
箕
算
箴
節
篤
篭
米
粉
粛
粟
粤
粦
粲
糞
糸
糹
系
約
納
素
索
紫
累
細
絜
絫
絲
維
綿
縄
縣
繇
纍
纟
缶
网
罒
罔
罕
罗
罙
罡
罢
罪
署
罷
羅
羊
羌
羍
美
羔
羕
羗
羞
羡
羣
群
義
羲
羸
羽
翁
翏
習
翕
翟
翠
翼
老
耂
考
者
耆
而
耎
耑
耒
耳
耴
耶
耷
聂
聊
聖
聚
聶
聿
肀
肃
肅
肉
肖
肙
肥
肩
肯
育
肴
胃
背
胡
胥
能
脊
脩
膚
臣
臤
臧
自
臬
臭
臯
臱
至
致
臺
臼
臽
臾
臿
舀
舂
舄
與
興
舉
舌
舍
舛
舜
舞
舟
般
艮
良
色
艸
艹
艾
芒
芔
芬
芮
花
芳
芺
芻
苔
苗
苟
若
苦
英
茶
茸
荅
草
荒
荣
荼
莆
莧
莫
莽
菆
菊
菐
華
萬
落
葉
著
葛
董
葵
蒙
蒦
蒼
蓋
蓬
蓺
蔑
蔡
蕉
蕭
薄
薛
薦
薰
藍
藏
藥
蘭
虍
虎
虐
虒
虔
處
虖
虗
虘
虚
虛
虜
虞
虫
虽
蚤
蚩
蜀
蜜
蟲
蠡
血
行
衍
衛
衣
衤
表
衮
衰
袁
袞
褭
褱
襄
襾
西
覀
要
覃
見
規
覓
覧
親
覽
见
角
解
言
訁
訇
計
話
詹
語
誩
諸
讠
语
谷
豆
豈
豊
豐
豕
豖
豙
象
豦
豩
豪
豸
貇
貝
貞
貟
負
貢
貧
貪
貫
責
貳
貴
買
費
賁
資
賈
賏
賓
賔
賛
賞
賢
賣
質
賴
贊
贝
贡
责
贯
贲
贵
赖
赞
赤
赦
走
越
足
路
蹇
身
躬
車
軍
軎
軟
輦
车
辛
辜
辟
辥
辰
辱
農
辵
辶
边
达
过
近
连
迷
追
退
送
逆
逐
通
速
造
逢
連
逮
進
遀
遂
過
道
達
遣
適
遷
遺
邊
邑
邕
那
邦
邪
郎
部
郭
都
鄉
酉
酋
配
酓
釆
采
里
重
野
量
金
釒
錢
钅
長
镸
长
門
閃
閉
開
閏
閑
閒
間
閔
関
閵
閻
闌
门
间
闷
阑
阜
阝
阿
降
陳
隆
隊
隋
隡
隨
隱
隶
隹
隺
隻
隼
隽
难
雀
雁
集
雈
雋
雍
雐
雔
雙
雚
雜
雝
離
難
雨
雩
雪
雲
零
雷
需
霍
霜
霝
霞
霸
靈
靑
青
非
靡
面
靣
革
韋
韦
韭
韯
韱
音
頁
頃
項
須
頗
頡
頻
顛
页
風
风
飛
飞
食
飠
養
饣
首
香
馬
馮
駦
马
骨
高
髟
鬥
鬯
鬲
鬼
魚
魯
鮮
鱼
鲁
鳥
鳳
鸟
鹵
鹿
麃
麗
麥
麦
麻
黃
黄
黍
黎
黑
黒
黨
黹
黽
黾
鼎
鼓
鼠
鼻
齊
齋
齐
齒
齿
龍
龙
龜
龟
龠
龰
龱
龴
龵
龶
龷
龸
龹
者
艹
﻿
（
）
？
～
𐌰
𐌽
𠀁
𠀃
𠀆
𠀉
𠀎
𠀐
𠁁
𠁣
𠂆
𠂇
𠂈
𠂉
𠂊
𠂋
𠂎
𠂒
𠂔
𠂛
𠂡
𠂢
𠂤
𠂬
𠂭
𠂹
𠃊
𠃋
𠃌
𠃍
𠃎
𠃑
𠃓
𠃔
𠃜
𠄌
𠄎
𠄠
𠄢
𠆢
𠆥
𠇍
𠈌
𠌵
𠓜
𠔉
𠔥
𠔼
𠔽
𠔿
𠕀
𠕁
𠕋
𠘧
𠘨
𠙻
𠙼
𠚏
𠚒
𠚤
𠚪
𠣏
𠤎
𠤕
𠥓
𠦄
𠦑
𠦝
𠧒
𠧗
𠧪
𠩺
𠪚
𠫓
𠫔
𠫤
𠬛
𠬝
𠬞
𠬢
𠬤
𠬶
𠮛
𠮦
𠮷
𠯑
𠱠
𠳮
𠷎
𡈼
𡉀
𡉵
𡌥
𡍮
𡏳
𡕒
𡕩
𡕰
𡖅
𡗗
𡗜
𡘆
𡘤
𡧱
𡨄
𡩧
𡬠
𡭽
𡰣
𡰥
𡰪
𡰯
𡰱
𡷈
𡸁
𡿨
𡿩
𡿪
𡿺
𢀖
𢀛
𢀩
𢁙
𢆉
𢆰
𢆶
𢇁
𢇇
𢉖
𢌬
𢌿
𢏚
𢑑
𢑚
𢖻
𢙣
𢛳
𢦏
𢦒
𢧵
𢼄
𢾕
𣁋
𣄼
𣅀
𣅽
𣍘
𣎳
𣎵
𣏋
𣏼
𣗥
𣥂
𣥖
𣦵
𣦼
𣧄
𣪊
𣪠
𣬉
𣳾
𣶒
𤇾
𤊽
𤐫
𤓰
𤔔
𤕨
𤣩
𤰇
𤰔
𤰞
𤴓
𤴔
𤽄
𥁑
𥁕
𥃦
𥃩
𥃭
𥇡
𥑟
𥘅
𥘈
𥝢
𥫗
𥱡
𦈢
𦉪
𦉬
𦉼
𦍌
𦍒
𦎧
𦐇
𦓔
𦔮
𦘒
𦙃
𦚏
𦣝
𦣞
𦣻
𦥑
𦥔
𦥯
𦨉
𦭝
𦰩
𧆞
𧈧
𧘇
𧰨
𧴪
𧴮
𧵩
𧾷
𨸏
𨾴
𩙿
𩠐
𩫏
𩵋
𪉷
𪜀
𪟽
𪠲
𪩲
𫇦
𫔭
𫜸
𫝀
𫠣
𫠩
𫢉
𫥞
𫩏
𫩠
𫪡
𫲽
𫶧
𬀷
𬐘
𬗌
𬙙
𬛸
𬜯
𬟩
𬯁
𬴘
𬺻
𬼉
𬼖
𭀰
𭁈
𭁨
𭅰
𭑈
𭕄
𭗼
𭤨
𭥫
𭻾
𮅕
𮊿
𮍌
𮍏
𮓗
𮥼
𮧮
廾
𰀁
𰀄
𰀈
𰀉
𰀕
𰀠
𰀡
𰀢
𰀪
𰁜
𰃮
𰆊
𰆘
𰋙
𰕎
𰢴
𰧭
𰯲
000--
01--
02--
04--
051--
06--
067--
07--
08--
089--
09--
130--
131--
132--
133--
135--
226--
57--
65--
66--
72--
73--
74--
76--
77--
78--
80--
83--
84--
848--
86--
87--
88--
89--
90--
91--
93--
94--
940--
96--
97--
978--
97884--
98--
99--
a--
aa--
ab--
aba--
abant--
abbas--
abc--
abd--
abe--
abend--
abi--
abo--
abrev--
absolut--
absor--
abu--
ac--
aca--
acc--
acce--
ach--
aci--
aco--
acomp--
acond--
acons--
aconse--
aconsi--
acostum--
acre--
act--
activ--
acu--
acua--
acui--
acul--
acum--
ad--
ada--
ade--
adhi--
ado--
adoles--
ador--
adqui--
adsc--
adu--
adver--
advo--
ae--
aero--
af--
afa--
afec--
afi--
afini--
afog--
afran--
afro--
ag--
aglomer--
aglu--
ago--
agri--
agropecua--
agu--
agua--
ah--
ai--
air--
ais--
ak--
aka--
al--
ala--
alaud--
alba--
albi--
albo--
albu--
alca--
alcha--
alco--
alcu--
aldea--
ale--
ales--
alfa--
alge--
algo--
ali--
alja--
all--
alma--
alme--
almu--
alo--
alqui--
als--
alt--
alta--
alten--
alto--
alu--
alueny--
aluf--
alum--
aly--
am--
ama--
amal--
amar--
amb--
ambi--
ame--
amer--
amfi--
ami--
amillo--
amo--
amont--
amphi--
ampl--
amplific--
amund--
amura--
amyg--
an--
ana--
anar--
ances--
and--
ane--
anfi--
ang--
anglo--
angu--
ani--
anna--
ano--
anota--
ans--
ant--
ante--
antho--
anti--
antibio--
antro--
any--
anyad--
ao--
ap--
apare--
apart--
ape--
apo--
apostro--
apre--
apro--
aprob--
aproxi--
apti--
apu--
apue--
apun--
aqu--
ar--
ara--
arbit--
arbitra--
arc--
arca--
archi--
arcip--
ard--
are--
argu--
ari--
arle--
arm--
arma--
aro--
arqui--
arra--
arras--
arre--
arri--
arro--
arru--
art--
arte--
arti--
arzo--
as--
asa--
asce--
ascu--
ase--
asem--
ash--
asi--
asig--
asist--
asiti--
aso--
asp--
assas--
ast--
astro--
asum--
at--
ata--
ate--
atemp--
atle--
ato--
atri--
atribu--
atten--
au--
aud--
audit--
aug--
auri--
aus--
austra--
auto--
autoce--
aux--
av--
ava--
avanz--
ave--
avent--
aventu--
awa--
ax--
ay--
az--
aza--
azul--
b--
ba--
back--
bad--
bag--
bai--
baixo--
bak--
bal--
ball--
ban--
bapt--
[...]
