!
"
#
##a
##aa
##ab
##ac
##ad
##ae
##af
##ag
##ah
##ai
##aj
##ak
##al
##am
##an
##ao
##ap
##aq
##ar
##as
##at
##au
##av
##aw
##ax
##ay
##az
##b
##ba
##bb
##bc
##bd
##be
##bf
##bg
##bh
##bi
##bj
##bk
##bl
##bm
##bn
##bo
##bp
##bq
##br
##bs
##bt
##bu
##bv
##bw
##bx
##by
##bz
##c
##ca
##cb
##cc
##cd
##ce
##cf
##cg
##ch
##ci
##cj
##ck
##cl
##cm
##cn
##co
##cp
##cq
##cr
##cs
##ct
##cu
##cv
##cw
##cx
##cy
##cz
##d
##da
##db
##dc
##dd
##de
##df
##dg
##dh
##di
##dj
##dk
##dl
##dm
##dn
##do
##dp
##dq
##dr
##ds
##dt
##du
##dv
##dw
##dx
##dy
##dz
##e
##ea
##eb
##ec
##ed
##ee
##ef
##eg
##eh
##ei
##ej
##ek
##el
##em
##en
##eo
##ep
##eq
##er
##es
##et
##eu
##ev
##ew
##ex
##ey
##ez
##f
##fa
##fb
##fc
##fd
##fe
##ff
##fg
##fh
##fi
##fj
##fk
##fl
##fm
##fn
##fo
##fp
##fq
##fr
##fs
##ft
##fu
##fv
##fw
##fx
##fy
##fz
##g
##ga
##gb
##gc
##gd
##ge
##gf
##gg
##gh
##gi
##gj
##gk
##gl
##gm
##gn
##go
##gp
##gq
##gr
##gs
##gt
##gu
##gv
##gw
##gx
##gy
##gz
##h
##ha
##hb
##hc
##hd
##he
##hf
##hg
##hh
##hi
##hj
##hk
##hl
##hm
##hn
##ho
##hp
##hq
##hr
##hs
##ht
##hu
##hv
##hw
##hx
##hy
##hz
##i
##ia
##ib
##ic
##id
##ie
##if
##ig
##ih
##ii
##ij
##ik
##il
##im
##in
##io
##ip
##iq
##ir
##is
##it
##iu
##iv
##iw
##ix
##iy
##iz
##j
##ja
##jb
##jc
##jd
##je
##jf
##jg
##jh
##ji
##jj
##jk
##jl
##jm
##jn
##jo
##jp
##jq
##jr
##js
##jt
##ju
##jv
##jw
##jx
##jy
##jz
##k
##ka
##kb
##kc
##kd
##ke
##kf
##kg
##kh
##ki
##kj
##kk
##kl
##km
##kn
##ko
##kp
##kq
##kr
##ks
##kt
##ku
##kv
##kw
##kx
##ky
##kz
##l
##la
##lb
##lc
##ld
##le
##lf
##lg
##lh
##li
##lj
##lk
##ll
##lm
##ln
##lo
##lp
##lq
##lr
##ls
##lt
##lu
##lv
##lw
##lx
##ly
##lz
##m
##ma
##mb
##mc
##md
##me
##mf
##mg
##mh
##mi
##mj
##mk
##ml
##mm
##mn
##mo
##mp
##mq
##mr
##ms
##mt
##mu
##mv
##mw
##mx
##my
##mz
##n
##na
##nb
##nc
##nd
##ne
##nf
##ng
##nh
##ni
##nj
##nk
##nl
##nm
##nn
##no
##np
##nq
##nr
##ns
##nt
##nu
##nv
##nw
##nx
##ny
##nz
##o
##oa
##ob
##oc
##od
##oe
##of
##og
##oh
##oi
##oj
##ok
##ol
##om
##on
##oo
##op
##oq
##or
##os
##ot
##ou
##ov
##ow
##ox
##oy
##oz
##p
##pa
##pb
##pc
##pd
##pe
##pf
##pg
##ph
##pi
##pj
##pk
##pl
##pm
##pn
##po
##pp
##pq
##pr
##ps
##pt
##pu
##pv
##pw
##px
##py
##pz
##q
##qa
##qb
##qc
##qd
##qe
##qf
##qg
##qh
##qi
##qj
##qk
##ql
##qm
##qn
##qo
##qp
##qq
##qr
##qs
##qt
##qu
##qv
##qw
##qx
##qy
##qz
##r
##ra
##rb
##rc
##rd
##re
##rf
##rg
##rh
##ri
##rj
##rk
##rl
##rm
##rn
##ro
##rp
##rq
##rr
##rs
##rt
##ru
##rv
##rw
##rx
##ry
##rz
##s
##sa
##sb
##sc
##sd
##se
##sf
##sg
##sh
##si
##sj
##sk
##sl
##sm
##sn
##so
##sp
##sq
##sr
##ss
##st
##su
##sv
##sw
##sx
##sy
##sz
##t
##ta
##tb
##tc
##td
##te
##tf
##tg
##th
##ti
##tj
##tk
##tl
##tm
##tn
##to
##tp
##tq
##tr
##ts
##tt
##tu
##tv
##tw
##tx
##ty
##tz
##u
##ua
##ub
##uc
##ud
##ue
##uf
##ug
##uh
##ui
##uj
##uk
##ul
##um
##un
##uo
##up
##uq
##ur
##us
##ut
##uu
##uv
##uw
##ux
##uy
##uz
##v
##va
##vb
##vc
##vd
##ve
##vf
##vg
##vh
##vi
##vj
##vk
##vl
##vm
##vn
##vo
##vp
##vq
##vr
##vs
##vt
##vu
##vv
##vw
##vx
##vy
##vz
##w
##wa
##wb
##wc
##wd
##we
##wf
##wg
##wh
##wi
##wj
##wk
##wl
##wm
##wn
##wo
##wp
##wq
##wr
##ws
##wt
##wu
##wv
##ww
##wx
##wy
##wz
##x
##xa
##xb
##xc
##xd
##xe
##xf
##xg
##xh
##xi
##xj
##xk
##xl
##xm
##xn
##xo
##xp
##xq
##xr
##xs
##xt
##xu
##xv
##xw
##xx
##xy
##xz
##y
##ya
##yb
##yc
##yd
##ye
##yf
##yg
##yh
##yi
##yj
##yk
##yl
##ym
##yn
##yo
##yp
##yq
##yr
##ys
##yt
##yu
##yv
##yw
##yx
##yy
##yz
##z
##za
##zb
##zc
##zd
##ze
##zf
##zg
##zh
##zi
##zj
##zk
##zl
##zm
##zn
##zo
##zp
##zq
##zr
##zs
##zt
##zu
##zv
##zw
##zx
##zy
##zz
$
%
&
'
(
)
*
+
,
-
.
/
0
00
000
001
002
003
004
005
006
007
008
009
01
010
013
014
0146
016
018
02
020
0210
0211
0213
0214
022
025
027
028
029
03
030
031
033
034
035
036
037
038
039
04
041
045
047
048
049
05
050
051
0517103169
052
054
056
058
059
0590
06
060
061
062
063
067
068
07
070
071
075
077
079
08
09
091
095
097
0a
0b
0c
0d
0e
0f
0g
0h
0i
0j
0k
0l
0m
0n
0o
0p
0q
0r
0s
0t
0u
0v
0w
0x
0y
0z
1
10
100
1000
1002
101
1010
1011
1013
1014
1015
1016
1017
1018
102
1020
1025
1028
103
1030
1034
1035
1036
1037
1038
1039
104
1042
1046
105
1050
1054
1055
1056
106
1063
1066
107
1070
1076
108
1080
1081
1083
1085
1086
1089
109
1090
1091
1093
1094
1095
1096
1097
1098
1099
11
110
1100
1102
1103
1104
111
1110
1111
1117
1118
1119
112
1120
1122
1124
1126
1128
113
1130
1131
1132
1133
1134
1134838778
1135
1136
1137
114
1141
1142
1143
1145
1147
1149
115
1150
1154
1157
1158
1159
116
1162
1164
1167
1168692238
117
1170
1171
1172
1173
1174
1175
1176
1177
1179
118
1180
1182
1184
1185
1187
1189
119
1190
1191
1192
1194
1195
1196
1198
12
120
1200
1202
1203
1204
1205
1207
1208
1209
121
1210
1211
1212
1213
1214
1216
1218
122
1220
1224
1225
1226
1228
1229
123
1230
1232
1233
1234
1235
1236
1237
1238
1239
124
1240
1241
1242
1243
1245
1247
1248
1249
125
1250
1253
1254
1255
1257
1258
1259
126
1260
1261
1262
1265
1266
1268
127
1270
1271
1273
1276
1279
128
1280
1282
1283
1284
1285
1286
129
1290
1291
1292
1293
1294
1295
1297
1299
13
130
1300
1301
1302
1304
1305
1307
1308
1309
131
1310
1311
1312
1316
1317
1319
132
1320
1322
1325
1327
1328
133
1332
1336
1337
1338
134
1340
1341
1344
1346
1347
1348
1349
135
1350
1351
13530
1355
1356
1357
1359
136
1360
1361
1362
1363
1364
1365
1366
1367
1369
137
1370
1373
1374
1375
1376
1377
1378
1379
138
1380
1381
1382
1383
1384
1385
1386
1387
1388
1389
139
1390
1391
1396
1397
1398
1399
14
140
1400
1402
1404
1405
1406
1409
141
1410
1411
1412
1414
1415
1416
1419
142
1420
1423
1424
1425
1428
1429
143
1430
1431
1433
1435
1436
144
1440
1441
1442
1443
1446
1448
145
1450
1452
1453
1454
1458
1459
146
1460
1461
1462
1465
1466
1469
147
1470
1471
1472
1473
1474
1475
1477
1478
1479
148
1480
1481
1482
1483
1484
1485
1488
1489
149
1490
1491
1492
1493
1494
1495
1496
1497
1498
1499
15
150
1500
1501
1502
1503
1504
1506
1508
1509
151
1510
1511
1512
1514
1515
1516
1517
1519
152
1520
1521
1522
1523
1524
1525
1526
1527
1528
153
1530
1532
1533
1534
1535
1536
1539
154
1540
1542
1543
1546
1547
1548
155
1550
1552
1553
1554
1555
1556
1557
1558
1559
156
1560
1561
1562
1564
1565
1566
1568
1569
157
1571
1572
1573
1575
1577
1578
158
1580
1581
1582
1583
1585
1586
1587
1588
159
1590
1591
1592
1593
1596
1598
1599
16
160
1600
1601
1602
1604
1605
1606
1607
1608
1609
161
1610
1611
1612
1613
1614
1616
1617
1618
1619
162
1620
1621
1622
1623
1625
1626
1627
1629
163
1630
1632
1633
1634
1635
1637
1638
164
1640
1641
1642
1643
1646
1648
165
1650
1652
1653
1654
1655
1656
1657
1658
1659
166
1660
1661
1665
1666
1667
1669
167
1670
1676
1677
1678
168
1680
1681
1682
16825
1683
1684
1685
1688
1689
169
1691
1692
1694
1695
1696
1697
1699
17
170
1700
1701
1702
1703
1704
1705
1706
1707
1708
1709
171
1710
1711
1712
1713
1714
1715
1716
1717
1718
1719
172
1720
1721
1722
1723
1724
1725
1727
1728
1729
173
1730
1731
1732
1733
1734
1735
1736
1737
1738
1739
174
1740
1741
1742
1744
1745
1746
1748
1749
175
1750
1752
1753
1754
1755
1756
1757
1758
1759
176
1760
1761
1762
1763
1764
1765
1766
1767
1768
1769
177
1770
1771
1772
1773
1774
1775
1776
1777
1778
1779
178
1780
1781
1782
1783
1784
1785
1786
1787
1788
1789
179
1790
1791
1792
1793
1794
1795
1796
1797
1798
1799
18
180
1800
1801
1802
1803
1804
1805
1806
1807
1808
1809
181
1810
1811
1812
1813
1814
1815
1816
1817
1818
1819
182
1820
1821
1822
1823
1824
1825
1826
1827
1828
1829
183
1830
1831
1832
1833
1834
1835
1836
1837
1838
1839
184
1840
1841
1842
1843
1844
1845
1846
1847
1848
1849
185
1850
1851
1852
1853
1854
1855
1856
1857
1858
1859
186
1860
1861
1862
1863
1864
1865
1866
1867
1868
1869
187
1870
1871
1872
1873
1874
1875
1876
1877
1878
1879
188
1880
1881
1882
1883
1884
1885
1886
1887
1888
1889
189
1890
1891
1892
1893
1894
1895
1896
1897
1898
1899
19
190
1900
1901
1902
1903
1904
1905
1906
1907
1908
1909
191
1910
1911
1912
1913
1914
1915
1916
1917
1918
1919
192
1920
1921
1922
1923
1924
1925
1926
1927
1928
1929
193
1930
1931
1932
1933
1934
1935
1936
1937
1938
1939
194
1940
1941
1942
1943
1944
1945
1946
1947
1948
1949
195
1950
1951
1952
1953
1954
1955
1956
1957
1958
1959
196
1960
1961
1962
1963
1964
1965
1966
1967
1968
1969
197
1970
1971
1972
1973
1974
1975
1976
1977
1978
1979
198
1980
1981
1982
1983
1984
1985
1986
1987
1988
1989
199
1990
1991
1992
1993
1994
1995
1996
1997
1998
1999
1a
1b
1c
1d
1e
1f
1g
1h
1i
1j
1k
1l
1m
1n
1o
1p
1q
1r
1s
1t
1u
1v
1w
1x
1y
1z
2
20
200
2000
2001
2002
2003
2004
2005
2006
2007
2008
2009
201
2010
2011
2012
2013
2014
2015
2016
2017
2018
2019
202
2020
2021
2022
203
204
205
206
207
208
209
21
210
211
212
213
214
215
216
217
218
219
22
220
221
222
223
224
225
226
227
228
229
23
230
231
232
233
234
235
236
237
238
239
24
240
241
242
243
244
245
246
247
248
2486
249
25
250
2500
2501
251
252
253
254
255
256
257
258
259
26
260
2603
261
262
263
264
265
266
267
268
269
27
270
271
272
273
274
275
276
277
278
279
28
280
281
282
283
284
2849024244
285
286
287
288
289
29
290
291
292
293
294
295
296
297
298
299
2a
2b
2c
2d
2e
2f
2g
2h
2i
2j
2k
2l
2m
2n
2o
2p
2q
2r
2s
2t
2u
2v
2w
2x
2y
2z
3
30
300
3000
301
302
303
304
305
306
307
308
309
31
310
311
312
313
314
315
316
317
318
319
32
320
321
322
323
324
325
326
327
328
329
33
330
331
332
333
334
335
336
337
338
339
34
340
341
342
343
344
345
346
347
348
349
35
350
351
352
353
354
355
356
357
358
359
36
360
361
362
363
364
365
366
367
368
369
37
370
371
372
373
374
375
376
377
378
379
38
380
381
382
383
384
385
386
387
388
389
39
390
391
392
393
394
395
396
397
398
399
3a
3b
3c
3d
3e
3f
3g
3h
3i
3j
3k
3l
3m
3n
3o
3p
3q
3r
3s
3t
3u
3v
3w
3x
3y
3z
4
40
400
4000
401
402
403
404
405
406
407
408
4081
409
41
410
411
412
413
414
415
416
417
418
419
42
420
421
422
423
424
425
426
427
428
429
43
430
431
432
433
434
435
436
437
438
439
44
440
441
442
443
444
445
446
447
448
449
45
450
451
452
453
454
455
456
457
458
459
46
460
461
462
463
464
465
466
467
468
469
47
470
471
472
473
474
475
476
477
478
479
48
480
481
482
483
484
485
486
487
488
489
49
490
491
492
493
494
495
496
497
498
499
4a
4b
4c
4d
4e
4f
4g
4h
4i
4j
4k
4l
4m
4n
4o
4p
4q
4r
4s
4t
4u
4v
4w
4x
4y
4z
5
50
500
5000
501
502
503
504
505
506
507
508
509
51
510
511
512
513
514
515
516
517
518
519
52
520
521
522
523
524
525
526
527
528
529
53
530
531
532
533
5330
534
535
536
537
538
539
54
540
541
542
543
544
545
546
547
548
549
55
550
551
552
553
554
555
556
557
558
559
56
560
561
562
5624
563
564
565
566
567
568
569
57
570
571
572
573
574
575
577
578
579
58
580
581
582
583
584
585
586
587
588
589
59
590
591
592
593
595
596
598
599
5a
5b
5c
5d
5e
5f
5g
5h
5i
5j
5k
5l
5m
5n
5o
5p
5q
5r
5s
5t
5u
5v
5w
5x
5y
5z
6
60
600
601
602
603
604
605
606
607
608
609
61
610
611
612
613
614
616
617
618
619
62
620
621
622
623
624
625
626
627
628
629
63
630
631
632
634
635
636
637
638
639
64
640
641
642
643
644
645
646
649
65
650
652
653
655
656
658
659
66
660
661
662
664
665
666
668
669
67
670
671
672
673
674
675
677
678
679
68
680
681
682
683
684
685
686
687
688
689
69
690
691
692
694
695
696
697
698
699
6a
6b
6c
6d
6e
6f
6g
6h
6i
6j
6k
6l
6m
6n
6o
6p
6q
6r
6s
6t
6u
6v
6w
6x
6y
6z
7
70
700
701
7011
702
703
705
706
707
708
709
71
710
711
712
713
714
715
716
717
718
719
72
720
7207
721
722
724
725
726
727
728
729
73
730
731
732
735
7358
736
737
738
739
74
740
741
742
743
745
747
748
75
750
751
752
753
754
755
756
757
758
759
76
760
7602
762
763
764
7644
765
766
768
7688
77
770
771
772
7727
773
774
775
7753
777
778
779
78
780
781
7820
783
785
787
789
79
790
7906
791
792
794
795
797
798
799
7a
7b
7c
7d
7e
7f
7g
7h
7i
7j
7k
7l
7m
7n
7o
7p
7q
7r
7s
7t
7u
7v
7w
7x
7y
7z
8
80
800
8000
801
802
803
804
805
806
808
809
8090
8094
81
810
811
812
8127
813
814
815
816
8160
817
818
82
820
821
822
823
824
825
826
827
828
829
83
830
831
832
8321
8328
833
834
837
838
839
84
840
84048
841
842
8424923391
843
844
845
8452
8465
848
8483213957
85
850
852
853
854
855
857
858
859
86
860
86036
862
863
864
865
866
867
86807
86856
869
86982
87
870
872
874
875
877
878
879
88
880
881
884
885
886
887
888
889
88920
89
890
892
893
894
895
896
897
898
8986
89862
899
8a
8b
8c
8d
8e
8f
8g
8h
8i
8j
8k
8l
8m
8n
8o
8p
8q
8r
8s
8t
8u
8v
8w
8x
8y
8z
9
90
900
901
903
904
905
906
907
909
91
910
911
912
913
914
915
917
92
920
922
923
924
925
926
927
929
93
930
935
937
938
939
94
940
940886
942
943
945
947
948
949
95
950
951
952
953
954
955
956
957
958
959
95997
96
960
961
962
963
96457
965
966
967
968
969
97
970
971
972
973
9734
975
976
9761
977
978
9781134838776
9782849024249
9788424923396
9788477538554
98
980
981
982
983
984
987
988
989
99
990
991
9911
992
993
994
996
997
999
9a
9b
9c
9d
9e
9f
9g
9h
9i
9j
9k
9l
9m
9n
9o
9p
9q
9r
9s
9t
9u
9v
9w
9x
9y
9z
:
;
<
=
>
?
@
[
[CLS]
[MASK]
[PAD]
[SEP]
[UNK]
\
]
^
_
`
a
a0
a1
a2
a3
a4
a5
a6
a7
a8
a9
aa
aaron
ab
aba
ababol
abad
abadesa
abadia
abaixo
abajo
abance
abances
abandona
abandonados
abandonar
abandonau
abandono
abanto
abanzada
abanzar
abanzau
abarca
abat
abate
abbas
abc
abd
abderraman
abdomen
abe
abeba
abechuela
abejuela
abel
abella
abellas
aber
abet
abetz
abiego
abiento
abierto
abizanda
abkhasia
abkhasio
abkhasios
abolicion
abolio
aborichens
abos
about
abraca
abraham
abrams
abreviadura
abreviato
abreviau
abrigo
abril
abrios
abruzos
abside
absides
absoluta
absoluto
absorber
absorcion
abstracto
abstractos
abu
abuelo
abunda
abundan
abundancia
abundant
abundants
ac
aca
acaba
acabada
acabadas
acaban
acabar
acabau
acabaus
acabo
academia
academica
academico
academicos
academy
acb
acc
accede
acceder
accento
accentos
accentuacion
accepta
acceptacion
acceptan
acceptar
accepto
accesible
accesit
acceso
accesos
accident
accidents
accion
accions
accipiter
accipitridae
aceite
aceites
acel
acento
acepta
aceptar
acepto
acequia
acer
aceral
acerca
acero
ach
ache
achencia
achenda
achent
achents
acher
acherito
achunta
achuntamiendo
achuntamiento
achuntamientos
achuntan
achuntar
achuntoron
achustar
aci
acido
acidos
acin
aciron
acirons
aclarir
acompanya
acompanyada
acompanyamiento
acompanyan
acompanyando
acompanyar
acompanyato
acompanyau
acompanyaus
acompanyo
aconseguindo
aconseguir
aconseguiu
aconsigue
aconsiguen
aconsiguiendo
aconsiguio
aconsiguioron
acordion
acotolar
acre
acreditato
acronimo
act
acta
actas
actes
action
actitut
activa
activament
actividad
actividat
actividatz
activista
activo
activos
acto
actor
actors
actos
actrices
actriz
actua
actuacion
actuacions
actual
actualidad
actualidat
actualizato
actualment
actuals
actuan
actuando
actuar
actuo
actur
acuden
acuerdo
acuerdos
aculle
acullir
acumuer
acumulacion
acusacion
acusativo
acusato
acusau
acustica
ad
ada
adam
adams
adapta
adaptacion
adaptacions
adaptada
adaptadas
adaptando
adaptar
adaptato
adaptau
adaptaus
adapto
adaptoron
adauesca
adchacent
adchacents
adchectivo
adchectivos
adchudicacion
addis
adebant
adedica
adedicada
adedicar
adedicata
adedicatas
adedicato
adedicau
adedico
adelant
adelino
ademas
ademes
ademuz
adentro
adequada
adequadas
adequau
adhibe
adhiben
adhibindo
adhibio
adhibioron
adhibir
adhibita
adhibito
adhibiu
adiccion
adicion
adicional
adicionals
adif
adigio
adintro
adios
adiposo
administracion
administraciones
administracions
administrador
administrar
administrativa
administrativament
administrativas
administrativo
administrativos
admite
admiten
adn
ado
adoba
adolescencia
adolf
adolfo
adolph
adolphe
adopcion
adopta
adoptado
adoptar
adoptato
adoptau
adopto
ador
adorno
adour
adquiere
adquirio
adquirir
adquisicion
adreza
adrezas
adrian
adriana
adriano
adrien
adstrato
adube
adubir
adulta
adultas
adulto
adultos
aduya
aduyan
aduyando
aduyant
aduyar
aduyas
aduyato
aduyo
aduyoron
adv
advanced
adventure
adventures
adverbial
adverbials
adverbio
adverbios
adversario
advertencia
advocacion
advogato
advogau
adx
ae
aeiou
aeria
aerias
aerio
aerios
aeronau
aeronaus
aeronautica
aeropuerto
aeropuertos
af
afa
afecta
afectadas
afectan
afectar
afectaus
afecto
afer
afers
affair
afganistan
afi
aficion
aficionaus
afin
afinidades
afins
afirma
afirmacion
afirman
afirmando
afirmar
afirmo
aflora
afloramiento
afloramientos
afloran
afluencia
afluent
afluents
afluyents
africa
african
africana
africanas
africano
africans
africanus
africato
africau
afrika
afrikaans
after
ag
agafar
again
against
age
agency
agli
agnes
ago
agon
agonia
agora
agost
agostin
agosto
agradable
agramont
agraria
agrario
agreda
agricola
agricolas
agricultors
agricultura
agrupa
agrupacion
agrupacions
agrupan
agrupar
agua
aguas
aguasvivas
aguda
agudo
agueda
aguela
aguelo
aguero
aguerro
aguila
aguilar
aguilera
aguilon
aguirre
aguja
agulla
agullana
agullas
agun
agusti
agustin
agut
ah
ahmad
ahmed
ahora
ahorros
ai
aibar
aida
aiga
aigua
aiguabarreig
ailli
aimant
aimants
aimor
ain
aina
ainas
aines
aineto
ainielle
ainsa
ainsi
aintro
ainzon
air
airbus
aircraft
aire
aires
airlines
ais
aisa
aislada
aisladas
aislamiento
aislata
aislaus
aisne
aitona
aixo
aj
ak
akal
akira
aktuelle
al
ala
alaba
alabama
alabez
alacon
aladrada
aladren
aladro
alagon
alain
alamanico
alamans
alamo
alamos
alan
alano
alanos
alans
alarcon
alarico
alas
alaska
alata
alava
alaves
alavesa
alavetz
alavez
alazet
alazeta
alazetal
alazetalment
alazetals
alazetato
alazeto
alazetz
alb
alba
albacet
albacete
albaida
albalat
alban
albandona
albandonando
albandonar
albandonata
albandonato
albandonau
albandono
albandonoron
albanes
albanesa
albaneses
albania
albans
albany
albarracin
albarrazin
albas
albelda
albella
albentosa
albera
alberche
alberga
alberit
albero
albert
alberta
alberti
alberto
albi
albichenses
albin
albo
alborton
albrecht
albufera
album
albums
albus
alcala
alcalaten
alcalde
alcaldes
alcaldesa
alcalins
alcanadre
alcance
alcaniz
alcantara
alcanyiz
alcanz
alcanza
alcanzar
alcarras
alcarria
alcazar
alchafaria
alchama
alchamiada
alchamiau
alchebra
alcher
alcherez
alcheria
alchezira
alchub
alcohol
alcoholica
alcoholicas
alcoi
alcolea
alcoleya
alconchel
alcor
alcoran
alcoraz
alcordo
alcorisa
alcover
alcubierre
alcudia
alcuerda
alcuerde
alcuerdo
alcuerdos
aldea
aldeanueva
aldeas
aldehuela
alderdi
aldeya
aldeyas
aldeyuela
aldo
aldrich
aleanr
alec
alegre
alegria
aleixandre
aleixandria
aleixo
alejandro
aleksander
aleksandr
aleman
alemana
alemanas
alemania
alemans
alemanya
alero
ales
alessandro
aleta
aletas
alex
alexander
alexandra
alexandre
alexandria
alexis
aleyacion
aleyacions
alfa
alfabetico
alfabeto
alfabetos
alfacharin
alfalz
alfama
alfambra
alfara
alfareria
alfaro
alfinden
alfons
alfonso
alfoz
alfred
alfredo
alga
algairen
algar
algarabia
algarbe
algars
algas
algimia
algo
algorfa
algu
algun
alguna
algunas
alguno
algunos
alhama
alhambra
ali
alia
aliaga
alianza
alias
aliata
aliatas
aliato
aliatos
aliaus
alica
alicant
alicante
alicas
alice
alicia
alien
alier
alif
alifonso
aliga
alimenta
alimentacion
alimentan
alimentar
alimentaria
alimento
alimentos
aliniacion
alins
alio
alionor
aliste
alive
aljarafe
alkartasuna
all
alla
allah
allan
alle
allemandes
allen
allende
allepuz
aller
allgemeinbildung
alli
alliance
allium
allmovie
allmusic
allo
allora
alloza
allrovi
allue
allueva
alma
almacellas
almadazenar
almagazenar
almagro
almansa
almanzor
almanzora
almarchal
almarchals
almas
almazan
almenar
almenara
almendra
almendras
almendrera
almendreras
almendron
almendrons
almeria
almeriense
almirant
almochuel
almodovar
almofalla
almogavars
almolda
almonacid
almonecir
almorabet
almorabetz
almozara
almuade
almuades
almudevar
almunia
alnus
aloda
alone
alonso
alors
alos
alpes
alpha
alphonse
alpin
alpina
alpinas
alpinista
alpuent
alpujarra
alqueria
alquezar
alquezra
alquimia
als
alsacia
alsina
alt
alta
altai
altament
altar
altaria
altarias
altas
alte
altera
alteracion
alteraciones
alteracions
alteras
alterna
alternan
alternancia
alternando
alternativa
alternativament
alternativas
alternativo
altero
altes
altiplan
altitut
altman
alto
altoaragon
altoaragones
altoaragonesa
altoaragonesas
altoaragoneses
altochermanicas
altona
altorricon
altos
altotting
altra
altras
altro
altros
altstadt
altura
alturas
alufrar
aluminio
alumno
alumnos
alusion
aluvial
aluvials
alvar
alvarez
alvaro
alveolar
alviolar
alviolos
always
alwin
alyga
alytes
alytus
alza
alzan
alzar
am
ama
amadeus
amagar
amagau
amaiur
aman
amana
amanada
amanadas
amanar
amanata
amanatas
amanato
amanatos
amanau
amanaus
amanda
amaneix
amaneixe
amaneixen
amaneixendo
amaneixer
amaneixio
amaneixioron
amanix
amanixen
amanixio
amar
amaral
amarga
amariella
amariellas
amariello
amariellos
amarilla
amas
amateur
amazon
amazonas
amb
ambar
ambas
ambel
amber
ambient
ambiental
ambientals
ambientata
ambiente
ambients
ambito
ambitos
ambos
ambre
amelia
amelie
amen
amenaza
amenista
amenistan
amer
america
american
americana
americanas
americano
americans
americas
amerindios
ames
ametlla
amfibios
amiens
amiga
amigo
amigos
amillorar
amiram
amistat
amistoso
amo
among
amor
amore
amori
amortar
amos
amostran
amostrando
amostranza
amostranzas
amostrar
amostrato
amostro
amour
amparo
ampla
amplament
amplaria
amplas
amplia
ampliacion
ampliament
amplio
amplo
amplos
amplura
amposta
amprada
ampradas
amprau
ampraus
amprens
ampres
ampro
ampurias
amsterdam
amt
amuestra
amuestran
amy
an
ana
anada
anade
anadon
anagnina
anagrama
anal
anales
analis
analisi
analisis
analitica
analochia
anals
analysis
anana
anar
anarquismo
anarquista
anarquistas
anastasia
anastasio
anatidae
anatole
anatolia
anatomia
anatomica
anatomista
anatomy
anau
anaya
anayet
anca
ancestral
ancha
anchel
anchels
anchiospermas
anchu
ancien
ancient
ancochea
ancona
and
andaluces
andalucia
andalus
andalusi
andalusis
andaluz
andaluza
andar
ande
anders
andersen
anderson
andes
andilla
andino
ando
andolz
andorra
andre
andrea
andreas
andrei
andres
andreu
andrew
andrews
androceu
android
andronico
andy
anento
aneto
aneu
anexion
anexiona
anexionar
anexiono
anexo
anfibios
angel
angela
angeles
angelo
angels
anger
anglaterra
angles
anglesa
anglesas
angleses
anglesola
anglet
anglicana
anglicismos
anglico
angllos
anglo
anglos
anglosaxons
angola
angry
angues
anguiano
anguita
angular
angulo
angus
angusto
anhalt
anibal
aniello
aniellos
anima
animacion
animal
animales
animals
animatos
animaus
anime
animo
anis
anita
aniversario
ankara
ann
anna
anne
annette
annie
anno
annos
annual
ano
anoia
anonima
anonimo
anos
another
anoto
anouk
anoya
anque
ans
ansa
anseriformes
anso
ansotano
ant
antarctico
antarctida
ante
antena
antenas
anterior
anteriorment
anteriors
antes
anthony
anti
anticlinal
antiga
antigament
antigas
antigo
antigos
antigua
antiguas
antiguedat
antiguidat
antiguo
antiguos
antihiatica
antillas
antillon
antimas
antioquia
antiparte
antiparti
antipasau
antipasaus
antis
antoine
antologia
anton
antoni
antonia
antonin
antonio
antropolochia
antropologo
antroponimia
antroponimo
antroponimos
anual
anuals
anuario
anubar
anuncia
anuncio
anura
anuros
anus
anvers
anverso
anvista
anvistas
any
anyada
anyadas
anyade
anyadindo
anyadir
anyal
anyalment
anyals
anyata
anyatas
anyisclo
anyo
anyon
anyos
anys
anzoategui
ao
aoiz
aon
aoraki
aosta
ap
apanyar
aparato
aparatos
apareix
apareixe
apareixeba
apareixen
apareixer
apareixio
apareixioron
apareixito
aparello
aparent
aparentment
aparicio
aparicion
aparicions
apariencia
apartamentos
apartheid
apedacato
apedecato
apego
apelativo
apellido
apellidos
apellito
apellitos
apelliu
apellius
apendiz
aperte
apertura
apes
apichat
aplego
aplica
aplicable
aplicacion
aplicacions
aplicada
aplican
aplicando
aplicar
aplicata
aplicato
aplicau
aplico
apocalypse
apocheu
apocopa
apocope
apoderar
apodero
apollo
apolo
aporta
aportacion
aportacions
aporto
apostol
apostolico
apostols
apoyo
apple
aprebacion
aprebo
aprecisa
aprender
aprendio
aprendizache
apres
apresta
april
aprobacion
aprobo
aprofeitar
aprofitando
aproveita
aproveitando
aproveitar
aproveito
aproveitoron
aproximacion
aproximadament
aprueba
aprueban
apuesta
apuntes
aq
aqua
aquario
aquatica
aquaticas
aquatico
aquaticos
aque
aqueilla
aquel
aquell
aquella
aquellas
aquello
aquellos
aquells
aquels
aquemenida
aquest
aquesta
aquestas
aqueste
aquesti
aquesto
aquestos
aqui
aquila
aquiles
aquino
aquisgran
aquitan
aquitania
aquitans
ar
ara
arabe
arabes
arabia
arabica
arabiga
arabismo
arabismos
arabizacion
araceli
arago
aragob
aragon
aragones
aragonesa
aragonesas
aragonesasi
aragonese
aragoneses
aragonesismo
aragonesismos
aragonesista
aragonesoparlants
aragonesveyer
aragonum
aragorn
aragua
araguas
aragues
arainas
arainfo
aralar
arambre
arameu
aramon
aran
arana
aranda
arandiga
aranes
arangutan
aranjuez
aranyonet
aras
arasanz
arba
arbeiterpartei
arbitro
arbitros
arbol
arboles
arbols
arborea
arborio
arbues
arbustivo
arbusto
arbustos
arc
arca
arcada
arcadas
arcaica
arcaico
arcaine
arcaismo
arcaismos
arcanchel
arcas
arcebispato
arcebispe
arcega
archambault
archel
archelec
archelia
archent
archentin
archentina
archentino
archibald
archidiocesi
archiducato
archiduque
archie
archila
archilas
archilitas
archipielago
archipielagos
architecture
archivato
archive
archived
archives
archivo
archivos
arciprestato
arco
arcos
arctico
arctodus
arctos
arcusa
ard
ardea
ardenas
ardisa
ardo
are
area
areas
arellano
aren
arena
arenas
arenillas
arenos
arenoso
arens
areny
arenys
ares
arevalo
arezzo
arga
argelers
argensola
argent
argentina
argualas
arguedas
arguis
argumento
argumentos
aria
ariane
arias
arido
aridos
arieja
ariel
aries
ariesta
arinyo
aristocracia
aristotil
aritmetica
arizkun
arizona
arkansas
arlanza
arles
arlet
arm
arma
armada
armadas
armamento
armand
armando
armanhac
armantes
armas
armata
armatas
armato
armatos
armendariz
armenia
armenio
armenios
armentera
armenya
armesto
armiellas
armin
armisticio
armita
armored
armstrong
army
arn
arna
arnal
arnas
arnau
arnedo
arnes
arnold
aro
aromaticos
around
arpajon
arpitan
arqueolochia
arqueolochica
arqueolochicas
arqueolochico
arqueolochicos
arqueologia
arqueologo
arqueologos
arquero
arquette
arquitecto
arquitectonicas
arquitectonico
arquitectonicos
arquitectos
arquitectura
arrabal
arratia
arrats
array
arredol
arredols
arres
arreu
arriana
arrianismo
arriba
arribada
arriban
arribando
arribar
arribas
arribau
arribera
arribo
arriboron
arriel
arro
arrondiment
arrondissement
arros
arrostanh
arroway
arrowtown
arroyo
arroyos
arroz
arruman
arsenal
arseni
arsenio
art
artal
arte
arteaga
artemis
arteria
arterias
artes
artesa
artesania
arteta
arthur
artica
article
articles
articlo
articlos
artics
articula
articulacion
articulo
artieda
artificial
artificialment
artificials
artiga
artigot
artilleria
artist
artista
artistas
artistica
artisticament
artisticas
artistico
artisticos
artists
arto
artois
artola
artropodos
arts
artur
arturo
artus
aruba
arzobispo
as
asaber
asalto
asamblea
asambleya
asambleyas
asan
asasinato
asasinau
ascape
ascaso
ascendencia
ascension
ascenso
asco
ascuitar
asegura
asegurar
asembleya
asensio
asentamiento
asentamientos
asentar
asesinato
asesinau
asesor
asfaltada
ashby
ashley
asi
asia
asiatica
asiaticas
asiatico
asiaticos
asienta
asimilacion
asimilando
asimilar
asimiloron
asimov
asin
asinas
asinasmesmo
asirians
asis
asistencia
asistent
asistents
asistio
asno
aso
asobal
asocia
asociacion
asociacions
asociada
asociadas
asocian
asociar
asociata
asociatas
asociato
asociatos
asociau
asociaus
asp
aspa
aspe
aspecto
aspectos
aspera
asperaba
asperanza
asperar
aspiracion
aspirada
aspres
aspro
aspx
assaber
assassin
assi
assin
asso
associacio
association
ast
asta
astarac
asterix
asteroide
asteroides
asti
astil
astor
astorga
astra
astral
astrolochia
astronauta
astronautas
astronomia
astronomica
astronomico
astronomo
astronomos
astronomy
astun
astur
asturian
asturiana
asturiano
asturians
asturias
asturleyones
asume
asumio
asumir
asumpcion
asuncion
asuntos
asuso
at
ata
atac
ataca
atacan
atacar
ataco
atacoron
atalaya
ataque
ataques
atares
ataturk
ate
atea
ateca
atemperadas
atena
atenas
atencion
atentato
atentau
aterrizache
aterrizar
athletic
atienza
atila
atilla
atlanta
atlantic
atlantica
atlantico
atlanticos
atlantida
atlas
atleta
atletas
atletica
atletico
atletismo
atmosfera
atmosferica
atmosferico
ato
atomica
atomico
atomicos
atomo
atomos
aton
atona
atonas
atono
atorga
atorgau
atorgo
atos
atp
atra
atraccion
atraccions
atractivo
atractivos
atras
atraye
atrayer
atributo
atribuye
atribuyen
atro
atros
attack
attenborough
atura
aturada
aturaderos
aturar
ature
aturo
au
aube
auckland
aude
audiencia
audio
audiovisual
audiovisuals
auditorio
audrey
auer
auf
augmento
augsburg
augua
auguas
auguaviva
august
augusta
auguste
augusto
augustus
auia
auie
auien
aujourd
aula
auloron
aumenta
aumentando
aumentar
aumento
aun
aunamendi
aunque
aura
aurelian
aurelio
aurin
aurora
aus
ausencia
aush
aushesa
aussi
aussun
austin
australia
australian
australiana
australianas
australiano
australians
austria
austriaca
austriaco
austriacos
austro
autant
autariba
autentica
autentico
auto
autobiografia
autobus
autobuses
autoctona
autoctonas
autoctono
autoctonos
automatica
automaticament
automobil
automobils
automovilistico
autonoma
autonomas
autonomia
autonomica
autonomicas
autonomico
autonomo
autonomos
autopista
autor
autora
autores
autoridat
autoridatz
autorizacion
autors
autos
autovia
autre
autres
auvernia
aux
auxiliar
auxiliars
av
ava
avairon
avant
avantalla
avaros
ave
avec
avellaneda
avellanera
avena
avenged
avenida
avenita
aventar
aventura
aventuras
aver
aves
avia
aviacion
aviation
aviento
avila
aviles
avinyon
avion
avions
aviv
avoir
avta
aw
award
awards
away
ax
axi
axial
axiomas
axkenazis
ay
ayala
ayer
ayerbe
ayerbense
ayllon
ayno
ayora
ayre
ayuda
ayuntamiento
az
azagra
azana
azar
azara
azcon
azcona
azerbaichan
azeri
azeris
azincourt
aznar
aznarez
azog
azores
azov
azuara
azul
azuls
azur
azute
b
b0
b1
b2
b3
b4
b5
b6
b7
b8
b9
ba
bab
babieca
babilonia
babor
baby
bach
baches
bachiller
bachilleraro
bachillerato
back
bacon
bacteria
bacterias
bad
badain
badajoz
badalona
baden
badenas
badia
badina
baduls
baena
bafta
bagdad
bages
baggins
baguena
bagues
bahamas
bahia
bahrein
bai
baidin
baigorri
bailan
bailar
bailarin
bailarina
baile
bailes
bailey
bailia
bailo
bailon
baiona
baird
bairische
baisa
baisas
baish
baisha
baix
baixa
baixaba
baixaban
baixada
baixan
baixando
baixant
baixants
baixar
baixas
baixata
baixista
baixkir
baixkiria
baixkirs
baixo
baixorribagorzano
baixos
baja
bajo
baker
bal
balaguer
balay
balbastro
balcanica
balcans
balcetz
balcon
baldes
baldraga
balduin
baldwin
bale
balear
balears
balkans
ball
ballarin
balle
ballena
ballenas
ballester
ballesteros
ballestin
ballet
ballota
balma
balneyario
balon
baloncesto
balonman
balonmano
balsa
balsete
baltasar
baltica
baltico
balticos
baltimore
baluport
balzers
bambolla
bambu
ban
banaston
banato
banco
bancos
bancroft
band
banda
bandas
bandera
banderas
bando
bandos
bang
bangkok
bangladesh
bango
banja
bank
banks
banos
banska
banu
banyeras
banyeres
banyo
banyos
banzo
baptismo
baptista
baptiste
baptizato
bar
bara
barack
baralla
barallas
barana
baranas
barato
barba
barbados
barbara
barbaras
barbaros
barbarroya
barbas
barbastro
barbera
barberan
barbra
barca
barcabo
barcas
barcelo
barcelona
barcelones
barco
barcos
bardaixin
bardem
bardenas
bardo
barga
bari
barinas
barker
barnes
baroja
baron
baronia
barons
barra
barrabes
barracas
barrachina
barral
barranc
barranco
barrancos
barras
barrau
barrera
barri
barrio
barrios
barroca
barroco
barros
barrosa
barry
barrymore
bart
barta
bartolome
bartolomeo
bartolomeu
barza
barzas
bas
basa
basaba
basaburua
basada
basal
basan
basando
basaran
basas
basata
basato
basau
basaus
basca
bascas
basco
bascos
base
based
bases
basic
basica
basicament
basicas
basico
basicos
basil
basilea
basilica
basilicata
basilio
basket
basketball
basketballbox
baso
basque
basquet
bass
basshunter
bastes
bastida
bastilla
bastion
bastos
bat
batalla
batallas
batallero
batallo
batallon
batans
batasuna
batea
bateria
baterias
bates
batista
bats
battista
battle
batua
baturra
bautista
bavera
baveran
baverana
baverans
baxa
baxo
baxter
bay
bayas
bayern
bayeu
bayeux
bayo
bayona
bayreuth
baza
baztan
bb
bbc
bc
bd
bdfutbol
be
bea
beach
bear
bearn
bearnes
beat
beatles
beatriz
beatty
beau
beaumont
beautiful
beauty
bebe
beber
bebida
bebidas
bec
beceite
bechetals
beck
becker
been
beery
before
bega
begin
behavior
behind
bei
being
beirut
beisbol
bejar
bel
bela
belaltras
belaltros
belarra
belarrusia
belarruso
belarrusos
belas
belatras
belatro
belatros
belchica
belchit
belchite
belen
belenguer
belfast
belga
belgas
belgrado
belica
belico
belize
bell
bella
bellacosa
bellas
belle
bellestar
belleza
bellmunt
bello
bellon
bellos
bells
belmondo
belmont
belmonte
belorruso
belos
bels
belsetan
belsue
beltran
belun
beluna
belunas
beluns
belver
ben
benas
benasque
benasques
benasquesa
benasquesas
benatanduz
benavarri
benavent
benavente
benedet
benedetti
benedict
benedicto
beneficio
beneficios
benes
bengala
bengali
bengalis
beni
benidorm
benifazan
benigni
benin
benitez
benito
benjamin
bennett
benny
bentue
benzina
beranui
beraton
berbegal
berber
berberia
berbers
berbo
berceo
berchtesgaden
berchtesgadener
berdun
berenguer
berg
berga
bergamo
bergen
berger
berges
bergman
bergotes
bergua
bergueda
bergusa
beric
bering
berkeley
berkshire
berlanga
berlin
berlines
bermeu
berna
bernabe
bernabeu
bernad
bernadette
bernadotte
bernal
bernard
bernardo
bernat
bernhard
bernhardt
berri
berrio
berro
berrocal
berroy
berrueco
berry
bertelsmann
bertolomeu
bertrand
besalu
besancon
besarabia
bescos
besora
besson
best
bestia
bestiar
bestias
bestue
beta
betes
betica
betis
bette
better
betty
between
beverly
beya
beyer
beyond
bezas
bezeit
bezirk
bezirksteile
bf
bg
bh
bi
biar
biarche
biarge
biarn
biarnes
biarnesa
biarritz
bibcode
biblia
biblico
bibliografia
bibliografico
biblioteca
bibliotecas
bicicleta
bicicletas
bicort
bida
bidasoa
bieber
biel
biella
biello
bielorrusia
bielsa
bien
bienes
bienestar
biens
bienvenido
biera
biernes
bierzo
biescas
big
bigorra
bigorre
bihac
bihan
bilbao
bilbau
bilbilis
bilbilitanos
bilbo
bildu
bilingue
bilingues
bill
billboard
billet
billetz
billie
billons
billy
bin
binario
binazeit
binefar
binh
binies
binominal
bio
biodiversidat
biografia
biografias
biography
biolochia
biolochica
biolochico
biolochicos
biologia
biologo
biology
bioquimica
bioquimico
biosfera
biota
biotecnolochia
biquipedia
biquizionario
bird
birds
birmingham
birth
bis
bisagorri
bisbal
biscarrues
bishop
bismarck
bismuto
bison
bispal
bispato
bispau
bispe
bispes
bissau
bit
bits
bizancio
bizantin
bizantina
bizantins
bizkaia
bj
bk
bl
black
blade
blake
blanc
blanca
blancas
blanchett
blanco
blancos
blanes
blas
blasco
blazquez
blecua
bleriot
blesa
bleu
blinca
blinco
blindees
blog
blogs
blogspot
blois
blood
bloom
bloque
bloques
blu
blue
blues
blume
bm
bmod
bn
bo
boa
boalage
board
bob
bobby
boca
bocables
bocabulario
bocas
bodega
bodegas
bodiello
body
boe
boeing
boga
bogarde
bogart
boggiero
bogota
bohemia
bohr
boi
boira
boiras
bois
bola
bolas
bolchevique
bolcheviques
bolea
boletin
boleya
bolivar
bolivia
bolo
bologna
bolonia
bolsa
bolsas
boltana
boltanya
bomba
bombai
bombardero
bombarders
bombardeyo
bombardeyos
bombas
bombers
bombo
bombos
bon
bona
bonansa
bonaparte
bond
bondi
bones
bonet
bonifacio
bonn
bonnie
bono
book
books
boom
booth
boquera
borao
borau
borbon
borbons
borcha
borda
bordas
borde
borderas
bordes
bordeus
bordo
bordon
borg
borges
borgnine
borgonya
borguil
borina
boris
borja
borjanos
born
borobia
borrador
borres
bos
bosanska
bosar
bosc
bosch
bosforo
bosnia
bosniaco
bosniacos
bosnians
bosque
bosques
boston
bot
bota
botanica
botanico
botanicos
botas
botaya
botella
botellas
botica
boticario
botiga
botigas
boto
botorrita
botswana
boulevard
boulogne
bounty
bourg
boveda
bowie
box
boxeyador
boxeyo
boy
boyd
boyer
boyle
boys
bozo
bp
bq
br
brabant
brad
bradford
bradley
brady
braga
bragg
branagh
branca
brancas
brandemburgo
brandemburgues
brandenburgo
brando
brandon
brasil
brasilenya
brasilenyo
brasov
bratislava
braulio
braun
brave
bravo
brazato
brazo
brazos
bre
breca
brecha
breda
bremen
brenca
brendan
brennan
brent
bresca
breslau
bresse
bressuire
brest
bretanya
breton
bretona
bretons
breu
breument
breus
breve
breviarium
bria
brian
bride
bridge
bridges
bridget
brief
brien
brigada
brigadas
brigade
brigitte
brilant
brillant
brillas
brinca
brincar
brinco
brincos
briston
britain
britania
britanica
britanicas
britanico
britanicos
britannica
british
briviesca
brno
bro
broadway
broderick
brody
broken
bronce
bronchales
bronson
bronte
bronze
brooklyn
brooks
bros
brother
brothers
broto
brown
bruballa
bruc
bruce
bruello
bruixa
bruixas
bruixeria
brun
brunei
brunetto
bruno
brunswick
bruselas
bruto
bryan
bs
bsh
bt
bu
bubal
bubo
bucal
bucardo
bucarest
buch
bucha
buchac
buck
buckinghamshire
buco
bucovina
bucuesa
buda
budapest
budismo
budista
budistas
bue
buebo
buega
buegas
buei
bueis
buen
buena
buenas
bueno
buenos
buenya
buerba
buerda
buesa
buevo
buey
bufa
bufador
buffalo
bufo
buil
building
buisan
buixaruelo
buixo
bukhara
bula
bulbo
bulbuent
bulgara
bulgaria
bulgaro
bulgaros
bull
bullet
bullir
bundesliga
bunuel
bunyol
bunyuel
burbaguena
burch
burcharaloz
bureau
bureba
bureta
burg
burgaros
burgase
burgenland
burgess
burgo
burgos
burguesia
burgundios
burillo
burke
burkina
burns
buro
burro
burros
burstyn
burt
burton
burundi
bus
busca
buscan
buscando
buscar
bush
business
buster
busto
but
butan
buteo
butler
buxo
buxtehude
bv
bw
bx
by
byrne
byron
bz
c
c0
c1
c2
c3
c4
c5
c6
c7
c8
c9
ca
caba
cabaixo
cabal
cabalgamiento
caballeria
caballero
caballeros
caballers
caballo
caballos
caballud
cabalto
cabana
cabanas
cabanero
cabanes
cabanya
cabanyas
cabanyera
cabe
cabeca
cabecera
cabeco
cabello
cabeza
cabezas
cabezo
cabezonada
cabezos
cabieto
cable
cabo
cabos
cabra
cabrera
cabrero
cabriuel
cacau
caceres
cacho
cada
cadagun
cadaguna
cadena
cadenas
cadiera
cadieras
cadiz
cado
cados
cadret
caduca
caducifolias
caen
caesar
caesaraugusta
cafe
cafes
cafeteria
cage
cagney
cai
caiaragon
caida
caiga
caine
caire
cairo
caita
caito
caixa
caixas
caixicar
caixicars
caixico
caixicos
caixigar
caixigo
caixmir
caja
cajal
cal
calabaza
calabria
calaceit
calagorra
calais
calamocha
calanda
calandario
calandra
calandreta
calasanz
calatajube
calatayu
calatayud
calatrava
calcedonia
calcena
calcero
calcico
calcil
calcina
calcio
calcita
calcula
calcular
calculo
calculos
calcuta
caldera
calderon
calders
caldes
caldria
cale
caleba
caledonia
calendario
calendata
calendatas
calentar
caler
calheta
calidas
calidat
calido
calidos
calient
calients
califa
califato
california
caligula
caliz
call
calle
caller
calles
callizo
callosa
calma
calmucos
calocybe
calonche
calor
calosci
calotriton
calpe
calsina
calsinera
calsineras
calsinosa
calsinosas
calsinoso
calsinosos
calso
calva
calvados
calvario
calvera
calvin
calvo
calzada
calzas
calzon
cam
cama
camachibosa
camacho
camanyas
camara
camaras
camarena
camariellas
camaron
cambea
cambean
cambeando
cambear
cambeo
cambeos
cambeya
cambia
cambian
cambiando
cambiar
cambiato
cambiau
cambio
cambions
cambioron
cambios
cambo
cambocha
cambra
cambras
cambridge
cambridgeshire
came
camellos
cameo
camera
cameron
cameros
camerun
cami
camille
camillo
camilo
camin
caminando
caminar
camino
caminos
caminreal
camins
camisa
camiseta
camp
campamento
campana
campanal
campanar
campanas
campania
campanue
campanya
campanyas
campbell
campeon
campeonato
campesins
campidanu
campiello
campillo
campina
camping
campinya
campion
campiona
campionato
campionatos
campions
campo
campoo
camporretuno
campos
campus
camus
can
cana
canada
canadiense
canal
canales
canals
canaria
canarias
canario
canas
canasta
canberra
canceller
cancer
cancias
canciller
cancilleria
cancion
cancionero
canciones
cancions
cancro
candanchu
candarenas
candelera
candidato
candidatos
candidatura
candidaturas
canela
canellas
canet
caneto
canfranc
cangas
cangrillo
cangues
canidos
caniella
canigo
canis
cannabis
cannes
cano
canon
canonico
cans
canta
cantabria
cantabrica
cantabro
cantaire
cantaires
cantal
cantals
cantan
cantando
cantante
cantar
cantas
cantata
cantato
cantautor
cantaviella
cante
cantera
canterbury
cantidat
cantidatz
cantimplano
canto
canton
cantonada
cantons
cantos
canya
canyada
canyart
canyimo
canyizar
canyo
canyon
canyons
canyos
caos
cap
capa
capable
capables
capaces
capacidat
capacidatz
capacitancia
capadocia
capana
caparra
capas
capaz
capazo
cape
capella
capellan
caperucho
capetos
capeza
capiella
capiellas
capilars
capita
capital
capitalidat
capitalismo
capitalista
capitals
capitan
capitol
capitols
capitulacion
capitular
capitulo
capo
capote
capra
capreolus
capricorno
capsula
captain
captura
capturar
car
cara
caracas
caracol
caracter
caracteristica
caracteristicament
caracteristicas
caracteristico
caracteristicos
caracteriza
caracterizacion
caracterizan
caracterizato
caracterizau
caracterizaus
caracters
caragoca
caragols
caras
carateristica
carbon
carbonato
carbonell
carbonera
carbonia
carbonifera
carbonio
carcasona
carcel
cardenal
cardenas
cardiaco
cardiff
cardinale
cardinals
cardona
cardrona
care
carelia
carga
cargar
cargas
cargo
cargos
caribe
caridat
carinena
carintia
carinyena
carl
carles
carlista
carlistas
carlo
carlos
carlota
carmelo
carmen
carmine
carmona
carnaval
carnavals
carne
carnes
carnicer
carniola
carnivora
carnivoro
carnivoros
carnuz
caro
carol
carole
carolina
carolinchia
carolinchio
carolinchios
caroline
carolyn
carpatos
carpelos
carpenter
carpio
carrasca
carrascal
carrascals
carrascas
carrasco
carrascosa
carrera
carreras
carretera
carreteras
carretero
carriar
carrie
carril
carrillo
carrils
carro
carrodilla
carroll
carros
carson
carta
cartachena
cartachineses
cartago
cartas
cartel
carter
cartillas
cartografia
cartografo
carton
cartuixa
cartulario
carvalho
cary
cas
casa
casablanca
casada
casademont
casado
casal
casals
casamiento
casanova
casar
casas
casata
casato
casau
casaus
casbas
casca
cascada
cascallo
cascant
casco
cascos
case
casedon
caseras
cases
caseta
casetas
cash
casi
casiellas
casillas
casimiro
casino
caso
casos
casp
caspe
caspia
caspolino
cassel
cassidy
cassini
cast
casta
castafiore
castan
castaner
castanesa
castanet
castejon
castel
castelginest
castell
castella
castellan
castellana
castellanas
castellania
castellanismo
castellanismos
castellanizacion
castellanizada
castellanizato
castellanizau
castellanizo
castellanleyones
castellanliones
castellano
castellanomanchego
castellanoparlants
castellanos
castellans
castellanveyer
castellar
castellfollit
castellnou
castello
castellon
castellot
castelnau
castelseras
casterar
castethnau
castiel
castiella
castiello
castiellos
castigo
castilhon
castiliscar
castilla
castillejo
castillo
castillon
castillos
castillosnet
castle
casto
castra
castras
castrillo
castro
castrocol
castropol
castrum
cat
catala
catalan
catalana
catalanas
catalanes
catalanismo
catalanismos
catalanoparlant
catalanoparlants
catalans
catalanveyer
catalina
catalogatos
catalogo
cataluna
catalunya
catania
catarina
cataros
catch
cate
catedra
catedral
catedratico
categoria
categorias
catena
caterina
cathedral
catherine
catholic
catolica
catolicismo
catolico
catolicos
caton
catorce
caucas
caucaso
caudal
caudet
caudiel
causa
causada
causals
causan
causando
causar
causas
causata
cause
causo
cautares
cautiva
cautivada
cautivadas
cautivan
cautivar
cautivo
cautivos
cauz
cava
cavalleros
cavallo
cavero
cavia
cavidat
cavidatz
caxico
caxigar
cay
caye
cayen
cayendo
cayer
cayio
cayita
cayo
cayoron
caza
cazacos
cazadors
cazan
cazaquistan
cazar
cazas
cazata
cazataire
cazataires
cb
cc
cd
cdot
cdu
ce
cebolla
cebollas
ceca
cecas
cecil
cecilia
cede
cedeba
ceder
cedio
cedioron
cedito
cediu
cedric
cedriellas
cee
cela
celadas
celdran
celebra
celebraba
celebraban
celebracion
celebracions
celebrada
celebradas
celebran
celebrar
celebrata
celebratas
celebrato
celebratos
celebrau
celebraus
celebre
celebres
celebro
celebroron
celeste
celestes
celia
cella
cellas
celsa
celsius
celta
celtas
celtibera
celtiberia
celtiberica
celtiberico
celtibero
celtibers
celtica
celtico
celtismo
celtismos
celula
celular
celulas
cemento
cena
cenisa
cenisas
cenisosa
cens
censo
censos
censura
census
cent
centauri
centelles
centenar
centenario
centenars
center
centimetros
centol
centra
centrada
central
centrals
centrata
centrau
centre
centro
centroafricana
centrocampista
centros
century
cepo
cequia
cera
ceramica
cerca
cercana
cercanas
cercania
cercanias
cercano
cercanos
cercito
cerclo
cerclos
cercuito
cercuitos
cercular
cerda
cerdan
cerdanya
cerdenya
cerebral
cerebro
ceremonia
ceremonial
ceremonias
cerenya
cerenyo
ceres
ceresa
ceret
cerezo
cerial
cerials
cerimonioso
cerolla
cerollera
cerrada
cerrar
cerro
cerros
certamen
certeza
cerval
cervantes
cervello
cervera
cerveza
cervus
cesar
cesare
cesaria
cese
cesion
cespet
cetacios
cetina
cette
ceuta
cf
cfm
cg
cgi
ch
cha
chabal
chabalambre
chabalin
chabalins
chabalon
chabaloyas
chabier
chabierre
chaca
chacetania
chacimiento
chacimientos
chad
chadra
chaen
chagatai
chaime
chalamera
chamaica
chamberlain
chaminera
chamineras
chamorro
champion
champions
championship
chan
chana
chandler
chaney
chang
change
channel
chanovas
chao
chaparral
chapeto
chaplin
chapon
chapones
chaponesa
chaponeses
chaques
chaqueses
char
characteribus
charadriiformes
charanta
chardin
chardins
charente
charge
charita
charle
charleroi
charles
charleston
charlie
charlotte
charlton
charo
charra
charraba
charraban
charrada
charradas
charradors
charran
charrando
charrar
charras
charrata
charratas
charrato
charrau
charraus
charro
chart
charts
chasa
chase
chason
chat
chateau
chava
chavez
che
cheada
checa
chechens
checo
checos
checoslovaco
checoslovaquia
chefe
chefes
chelada
cheladas
chelau
chelera
cheleras
chelo
chelsea
chelva
chema
chemical
cheminada
cheminata
cheminis
chemistry
chen
chenealochia
chenera
cheneracion
cheneracions
cheneral
cheneralidat
cheneralidatz
cheneralizacion
cheneralizada
cheneralizar
cheneralizau
cheneralizo
cheneralment
chenerals
cheneran
chenerando
chenerar
chenerica
chenerico
chenero
cheneros
chenesi
chenetica
chenetico
cheneticos
chenio
chenitivo
chenocidio
chenova
chenoves
chenoveses
chens
chent
chenta
chentilicio
chentilicios
chents
chenuina
chenuinas
chenullo
cheodesico
cheografia
cheografica
cheograficament
cheograficas
cheografico
cheograficos
cheografo
cheografos
cheolochia
cheolochica
cheolochicament
cheolochicas
cheolochico
cheolochicos
cheologo
cheometria
cheorchia
cheorchian
cheorchians
cheosinonimo
chequia
cher
chera
cherbe
chermana
chermanastro
chermania
chermanica
chermanicas
chermanico
chermanicos
chermanismos
chermano
chermans
cheronimo
cherundio
cherusalem
cherusalen
chesa
cheshire
cheso
chesos
chesta
chestacion
chester
chestion
chestionar
chesucristo
chesuita
chesuitas
chesus
chez
chi
chia
chibraltar
chibuti
chica
chicago
chicas
chico
chicolate
chicorron
chicorrona
chicorronas
chicorrons
chicos
chicot
chicota
chicotas
chicotz
chieftains
chiemgau
chieming
chiemsee
chien
chiesa
chigant
chigants
chihuahua
chil
child
children
chile
chilena
chileno
chili
chilo
chim
chimnasia
china
chinatown
chinchiella
chinebro
chinebrosa
chineceu
chiner
chinero
chines
chinesa
chinesas
chinese
chineses
chineta
chinevra
chinguis
chino
chiprana
chipre
chips
chiquet
chiqueta
chiquetas
chira
chiran
chirar
chiras
chirman
chirmana
chirmanas
chirmandat
chirmano
chirmans
chiro
chirona
chirones
chistabin
chistabino
chistau
chisten
chitan
chitana
chitans
chitar
chito
chitos
cho
choben
chodiga
chodigas
chodigo
chodigos
choice
chopin
chopo
chorche
chordania
chornada
chornadas
chorus
chos
chou
choven
chovenalla
chovenil
chovens
choventut
choyas
choyeria
chris
christchurch
christi
christian
christiane
christianos
christie
christina
christine
christmas
christo
christoph
christophe
christopher
chronicle
chuan
chuana
chubo
chuck
chudaismo
chudas
chudeces
chuderia
chudgaus
chudicial
chudicials
chudicio
chudicios
chueca
chueces
chuego
chuegos
chueves
chuez
chuga
chugaba
chugaban
chugador
chugadora
chugadors
chugan
chugando
chugar
chugaron
chugato
chugau
chugo
chugoron
chuguetz
chuicio
chulia
chulian
chuliella
chulio
chuliol
chulla
chunio
chuno
chunquera
chunta
chuntar
chuntas
chunto
chuntos
chunyo
chupiter
chura
churamento
churasico
churasicos
churau
church
churchill
churidica
churidicas
churidico
churidicos
churisdiccion
churista
churo
churra
churras
churro
chus
chusan
chusano
chuse
chusep
chuseu
chuslivol
chust
chusta
chustament
chusticia
chustificar
chustinian
chusto
chutlandia
chuvenil
ci
cia
cibdat
ciclismo
ciclista
ciclistas
ciclo
ciclos
cid
ciega
ciego
ciegos
ciel
ciellas
cielo
cien
ciencia
ciencias
cient
cientificas
ciento
cientos
cierra
cierre
cierta
ciertas
cierto
ciertos
ciervo
cierzo
cifras
cilia
cilicia
cillo
cima
cimas
cimento
cinca
cincinnati
cinco
cine
cinecha
cinema
cinematografia
cinematografica
cinematograficas
cinematografico
cinematograficos
cines
cingla
cinglo
cinglos
cinquanta
cinquena
cinqueno
cinqueta
cinta
cintas
cinto
cintura
cinturon
cipres
ciprian
circ
circa
circasians
circlo
circo
circuito
circuitos
circula
circulacion
circular
circulo
circumferencia
circumscripcion
circumstancias
circunstancial
circunstancias
circunvecinas
circus
ciresa
ciria
cirilico
cirurchia
cis
cisa
cisalpina
cischordania
cistels
cisterciense
cisterna
cit
cita
citada
citan
citar
citas
citata
citato
citau
cite
citoplasma
citricos
citrin
citroen
citrus
citta
city
ciu
ciudad
ciudadan
ciudadana
ciudadania
ciudadano
ciudadanos
ciudadans
ciudadela
ciudades
ciudat
ciudatz
ciutat
civil
civilizacion
civilizacions
civils
cj
ck
cl
cladistica
clado
cladophora
claire
clama
clamaba
clamaban
clamada
clamadas
clamado
clamados
claman
clamando
clamar
clamata
clamatas
clamato
clamatos
clamau
clamaus
clamo
clamor
clamoron
clamosa
clan
clans
clar
clara
clarac
clarament
claramunt
claras
clarence
clark
clarke
clarmont
claro
claros
clase
claseficacion
clases
clasica
clasicas
clasico
clasicos
clasifica
clasificacion
clasificacions
clasifican
clasificar
clasificato
clasificatos
clasificau
clasificaus
clasifico
class
classes
classic
classification
clau
claude
claudel
claudette
claudia
claudio
claus
claustro
clausulas
clausura
clave
clavillar
cle
clement
clemente
cleopatra
clerici
clerigo
clerigos
clermont
clero
cleta
cletas
cleto
cleveland
client
clients
cliff
clift
clima
climas
climate
climatica
climaticas
climatico
climaticos
climatolochia
climent
clinica
clint
clinton
clive
cllarabida
cln
clodoveu
clooney
cloro
cloruro
close
clot
clotario
cloud
club
clube
clubes
clubs
cluj
clunyego
clyde
cm
cn
cnn
cnt
co
coadic
coalicion
coarasa
coast
coautor
cobalto
cobertura
cobo
cobol
cobos
cobra
cobrar
cobre
coburn
coca
cocentaina
cocer
coche
cochin
cocina
cocinar
cocinas
cocinero
coco
cocobat
cocos
coda
code
codete
codetes
codificacion
codigo
codigos
codo
codonyera
codos
coedicion
coeficient
coen
coexiste
coexisten
coexistencia
coexistindo
cofadres
cofadria
cofadrias
cofradia
cofrentes
cognato
cognatos
cogullada
cohen
coi
coimbra
coincide
coinciden
coincidencia
coincident
coincidents
coincidindo
coincidir
col
cola
colabora
colaboracion
colaboracions
colaborador
colaboradors
colaborando
colaborar
colaboro
colapso
colbert
colchicus
cold
cole
coleccion
coleccions
colechial
colechiata
colechio
colection
colectiva
colectividat
colectivo
colectivos
colegio
colera
colin
coliseum
colision
coll
colla
collada
collado
collapsible
collarada
collas
collata
collau
collection
college
collidas
collins
collita
colman
coloca
colocacion
coloma
colombia
colombiano
colombo
colon
colonia
colonial
colonialismo
colonials
colonias
colonizacion
colonizadors
colonizar
colonos
colons
coloquial
coloquialment
color
coloracion
colorado
colors
columba
columbia
columbus
columna
columnas
colungo
com
coma
comachibosa
comanda
comandador
comandant
comandas
comando
comarca
comarcal
comarcas
combate
combates
combatients
combatir
combina
combinacion
combinacions
combinan
combinar
combustible
combustibles
combustion
come
comedia
comediant
comedias
comenche
comencini
comenco
comenge
comenta
comentan
comentario
comentarios
comenzo
comer
comercial
comercialment
comercials
comerciant
comerciants
comercio
comercios
comerzializa
comes
comestible
comestibles
comet
cometa
cometas
comic
comico
comics
comida
comienca
comienza
comienzo
comienzos
coming
comisario
comision
comisions
comite
command
comme
comminges
committee
common
commons
commonwealth
communes
communis
community
comneno
como
comodo
compacta
compania
company
companya
companyero
companyers
companyia
companyias
comparable
comparables
comparacion
comparada
comparanza
comparativas
comparativo
comparte
comparten
compartindo
compartir
compartita
compartito
compartiu
compas
compatible
compendio
compensacion
compensar
competencia
competencias
competicion
competicions
competir
compilacion
compilazion
compite
compiten
compitio
complega
compleganza
compleguera
complemento
complementos
completa
completament
completar
completas
complete
completivas
completo
complexa
complexas
complexidat
complexo
complexos
complir
complutense
compone
componen
component
components
comporta
comportamiento
comportamientos
composa
composada
composadas
composan
composata
composatas
composato
composau
composaus
composicion
composicions
compositor
compositora
compositors
compostela
compounds
compra
comprende
comprendeba
comprenden
comprender
comprene
comprension
compro
compromis
compromiso
compte
compuesta
compuesto
compuestos
computacion
computacional
computer
comte
comu
comun
comuna
comunal
comunament
comunas
comunes
comunica
comunicaba
comunicacion
comunicacions
comunican
comunicar
comunicau
comunidad
comunidat
comunidatz
comunion
comunismo
comunista
comunistas
comunitaria
comunitario
comunment
comuns
con
conan
conca
concabe
concede
concedio
concedioron
concedito
concedo
concejo
concellers
concello
concellos
concentra
concentracion
concentracions
concentran
concentrar
concepcion
concepto
conceptos
concert
concesion
concesions
concesivas
concha
conchelacion
conchita
conchugacion
conchugacions
conchugan
conchuncion
conchuncions
conchunta
conchuntament
conchuntiva
conchuntivas
conchuntivo
conchunto
conchuntos
conciencia
concierto
conciertos
concilio
concilios
concise
conclusion
concordancia
concordia
concreta
concretament
concretas
concreto
concretos
concuerda
concurso
concut
condado
condato
condatos
condau
condaus
conde
condena
condenato
condensador
condes
condesa
condicion
condicional
condicionals
condicions
condita
condom
condor
conduccion
conduce
conducio
conducir
conducta
conductas
conducto
conductor
conductos
conecta
conejero
conello
conestable
conexion
conexions
confederacion
confederacions
confederatos
confeguracion
conferencia
conferencias
confesion
confianza
configuracion
confirma
confirmar
confirmo
conflent
conflict
conflicto
conflictos
confluencia
confluyen
confluyencia
conforman
conforme
confrairia
confraria
confrarias
confundir
confusion
confusions
congo
congost
congosto
congregacion
congres
congreso
congresos
congustro
conica
coniferas
conillo
conillos
connecticut
connery
connexion
connor
connotacions
cono
conoix
conoixe
conoixeba
conoixeban
conoixemos
conoixen
conoixencia
conoixencias
conoixer
conoixida
conoixidas
conoiximiento
conoiximientos
conoixio
conoixioron
conoixita
conoixitas
conoixito
conoixitos
conoixiu
conoixius
conoxito
conoxiu
conqueridor
conquerindo
conquerio
conquerioron
conquerir
conquerita
conquiere
conquieren
conquiesta
conquiestas
conquiesto
conquiestos
conquiridors
conquirio
conquirioron
conquista
conquistas
conquisto
conrad
conrado
consagracion
consagrada
consagrata
consagrato
consagro
consciencia
conscient
consecuencia
consecutiva
consecutivas
conseguindo
conseguir
conseguito
consejo
conseller
conselleria
consellero
consellers
consello
consellos
consenso
consentimiento
consequencia
consequencias
conserva
conservaba
conservacion
conservada
conservadera
conservaderas
conservador
conservadora
conservadors
conservan
conservando
conservar
conservata
conservation
conservato
conservatorio
conservatos
conservau
conserve
conservo
conservoron
considera
consideraba
consideraban
considerable
considerablement
considerables
consideracion
considerada
consideradas
consideran
considerando
considerar
considerata
consideratas
considerato
consideratos
considerau
consideraus
considero
consigue
consiguen
consiguio
consiguioron
consiste
consisten
consistencia
consistent
consistiba
consolidacion
consolidar
consolido
consonant
consonantica
consonantico
consonanticos
consonants
consorcio
consort
conspiracion
consta
constance
constancia
constant
constante
constantin
constantinoble
constants
constanza
constelacion
constitucion
constitucional
constitucions
constituindo
constituir
constituita
constituito
constituye
constituyen
constituyent
constituyents
constituyo
construccion
construccions
construcion
construida
construindo
construir
construita
construitas
construito
construitos
construiu
construye
construyen
construyida
construyio
construyir
construyita
construyito
construyiu
construyo
construyoron
consul
consulato
consulta
consultable
consultada
consultar
consultato
consultau
consulte
consultorio
consume
consumen
consumir
consumo
conta
contaba
contable
contables
contacto
contactos
contaminacion
contan
contando
contar
contastinoble
conte
contemporania
contemporanio
contemporanios
contener
contenido
contenito
conteniu
contenius
content
contes
contesa
contexto
contextos
conti
contien
contiene
contienen
contina
continaba
continaban
continacion
continan
continando
continar
continas
continent
continental
continentals
continents
continidat
contino
continoron
continos
continua
continuidat
continuo
continuum
conto
contos
contra
contraccion
contraccions
contracto
contraofensiva
contraposicion
contraria
contrario
contrasta
contrastando
contraste
contrato
contre
contribucion
contribucions
contribuir
contribuye
contribuyo
contribuyoron
contrimostrar
contrimostro
contrimuestra
control
controla
controlaba
controlaban
controlada
controlan
controlar
controlata
controlato
controlau
controversia
convencer
convencio
convencion
convencional
convencionals
convencions
convenient
convenio
convento
converchencia
convergencia
conversion
convertindo
convertir
convertito
convertitos
convertiu
convierte
convierten
convirtio
convirtioron
convivencia
convoca
convocadas
convocar
convocatoria
convocau
convoco
conway
cook
cooper
cooperacion
cooperativa
coord
coordenadas
coordinacion
coordinador
coordinar
cop
copa
copas
copenaguen
copernico
copia
copias
coppola
coracon
coral
corasten
corazon
corbalan
corbell
corbera
corbusier
corcega
cordelera
cordeleras
corder
cordero
cordillera
cordoba
cordon
core
corea
corellano
coreya
corfu
corian
cornel
cornelia
cornella
cornualla
cornudella
coro
corola
coromines
corona
coronacion
coronado
coronar
coronas
coronato
coronau
coronavirus
coronel
coros
corporacion
corporal
corporals
corporation
corpus
corral
corrales
corrals
corre
correchimiento
correcta
correctament
correcto
corredor
corredors
correo
correr
corresponde
correspondeba
correspondeban
corresponden
correspondencia
correspondendo
corresponder
corresponderia
correspondient
correspondientes
correspondients
correu
correus
corrida
corridas
corrient
corriente
corrients
corrosion
corrupcion
corso
corsos
cort
corte
cortes
cortiellas
corto
cortometrache
cortona
corts
cortz
coruna
corvin
corvus
cos
cosa
cosacos
cosas
coscolla
coscollar
coscollo
cosculluela
coseta
cosetas
cosirar
cosme
cosmos
coso
costa
costalat
costalats
costantin
costantino
costantinoble
costas
costato
costatos
costau
costaus
coste
costean
costera
costeras
costes
costiella
costiellas
costruccion
costumbre
costumbres
cosuenda
cota
cote
cotefablo
cotiella
coto
coton
cottens
coturnix
could
council
countries
country
county
court
courtney
cova
covas
cover
covid
cowboy
cox
cp
cpu
cq
cr
craba
crabas
crabioles
crabito
cracovia
craig
cranio
crapa
crater
craters
crawford
crc
creacion
creative
creba
crebar
crebo
credito
creed
creek
crei
creigo
creix
creixe
creixen
creixendo
creixent
creixer
creixida
creixidas
creixient
creiximiento
creixio
creixitas
creixiu
crema
cremar
cremata
cremato
cremo
cremona
cremoron
crencha
creo
crespo
cresta
creta
cretacio
cretacios
cretas
cretica
creticas
cretico
creu
creuenya
creus
crexe
creya
creyacion
creyada
creyadas
creyador
creyadors
creyan
creyando
creyar
creyata
creyato
creyatos
creyatura
creyaturas
creyau
creyaus
creye
creyeba
creyeban
creyen
creyencia
creyencias
creyents
creyer
creyo
creyoron
cria
crian
criar
crias
criatura
crichton
cricket
cridlig
crime
crimea
crimen
crimens
criminal
cripta
crisi
crisis
crismon
crisp
cristal
cristalin
cristals
cristian
cristiana
cristianas
cristianismo
cristianizacion
cristiano
cristianos
cristians
cristina
cristo
cristobal
cristofo
criterio
criterios
critica
criticas
critico
criticon
criticos
crivillen
croacia
cromwell
cronica
cronicas
cronista
cronistas
crosby
cross
crosta
crovata
crovate
crovates
crow
crowe
crown
cruce
cruceria
crucero
cruces
crucifixion
crucis
cruel
cruise
crumo
cruz
cruzada
cruzadas
cruzar
cruzata
cruzatas
cruzatos
cruzaus
cry
crystal
cs
csic
csif
ct
cu
cuadernos
cuadro
cual
cuales
cualsiquier
cuan
cuando
cuantif
cuanto
cuartel
cuarto
cuasi
cuatre
cuatro
cuba
cuban
cubana
cubano
cubel
cubierta
cubiertas
cubierto
cubiertos
cubilar
cubilars
cubillar
cubla
cubo
cubre
cubren
cubriba
cubrir
cucalon
cucaracha
cucha
cuchas
cucho
cuco
cucos
cucurbita
cudiau
cudio
cuellar
cuello
cuellos
cuenca
cuencana
cuencas
cuenta
cuentan
cuentas
cuento
cuentos
cuentra
cuerda
cuerdas
cuerno
cuernos
cuero
cuerpo
cuerpos
cuerva
cuervo
cuesta
cuestas
cuestion
cuestiones
cueva
cuevas
cugat
cuiro
cuitiello
cuixa
cukor
cul
culfreda
culibiellas
culle
cullir
cullita
culpa
culs
culta
cultismo
cultismos
cultivo
culto
cultos
cultura
cultural
culturalment
culturals
culturas
culture
cum
cumania
cumans
cumbre
cummings
cumple
cumplen
cumplir
cuna
cup
cupula
cura
curar
curie
curiosa
curiosament
curiosidat
curioso
curlandia
current
cursa
cursas
curso
cursos
curta
curtas
curtis
curtiz
curto
curtos
curva
curvas
curvatura
curzon
cusack
cut
cutanda
cutiana
cutiano
cutiello
cutio
cuyo
cv
cw
cx
cy
cynops
cz
cœur
d
d0
d1
d2
d3
d4
d5
d6
d7
d8
d9
da
daba
daban
dachau
dacia
daco
dacos
dacs
dada
dado
dafoe
daily
daisy
dakar
dakota
dal
dalai
dale
dali
dalla
dallas
dalmacia
dalmata
dalmatas
dalt
dalton
dam
dama
damaso
dame
damian
damon
damos
dan
dana
dance
dandalos
dando
danes
danesa
daneses
dangerous
dani
daniel
daniels
danny
dans
dante
danubio
danyo
danyos
danza
danzas
danzig
dar
dara
dardanelos
daria
dario
dark
darkness
darling
darmstadt
daroca
daron
darth
darwin
daryl
das
dat
data
database
datan
datar
date
daten
dativo
dato
datos
dau
daughter
daus
dave
david
davies
davis
dawla
dawn
day
days
dayton
db
dc
dd
de
dead
deadline
dean
death
deba
debaixo
deban
debant
debanta
debantada
debantadera
debantar
debantata
debantdita
debantdito
debantera
debanteras
debantero
debanto
debat
debate
debe
debeba
deben
deber
debers
debio
debito
debiu
deborah
debuixant
debuixo
debuixos
debut
debuto
decada
decadas
decadencia
december
decena
decenas
decenio
decenios
deceno
deciba
deciban
decide
deciden
decidio
decidioron
decidir
decima
decimal
decimarum
decimas
decindo
decir
decision
decisions
decisiva
declara
declaracion
declaracions
declarada
declaran
declarar
declarata
declarato
declarau
declaro
declaroron
declinacion
declive
decoracion
decorativos
decreto
decretos
decumenta
decumentacion
decumental
decumentau
decumento
decumentos
dedica
dedicada
dedican
dedicar
dedicata
dedicato
dedicau
dedico
deduce
deducir
dee
deep
defecto
defender
defensa
defense
defensiva
defensivo
defensor
defensors
defesa
defesas
define
definen
definicion
definicions
definida
definidas
definio
definir
definita
definitas
definitiva
definitivament
definitivo
definito
definitos
definiu
definius
deforestacion
deformacion
degli
dehesa
dehesas
dei
deinde
deixa
deixaba
deixan
deixando
deixar
deixato
deixau
deixo
deixoron
deja
del
dela
delagrave
delano
delas
delaware
delegacion
delfin
delgada
delgado
delhi
delicias
delimita
delimitacion
delimitan
dell
della
delle
delos
dels
delta
dem
demanda
demandan
demandando
demandar
demandas
demando
demarcacion
demas
dembargo
demelsa
demes
demi
demille
deminutivo
demme
democracia
democrata
democratica
democraticament
democraticas
democratico
democraticos
demografia
demografica
demografico
demostracion
demostrativo
demostrativos
dempues
den
dench
dencima
dend
dende
dengun
denguna
denguno
denholm
denikin
denis
dennis
denomina
denominacion
denominacions
denominada
denominan
denominar
denominau
denominaus
denota
densa
densament
densidat
denso
dental
dentra
dentrada
dentradas
dentran
dentrando
dentrar
dentrata
dentre
dentro
dentroron
denuncia
denver
denya
denzel
depardieu
departamental
departamento
departamentos
department
depende
dependeba
dependeban
dependen
dependencia
dependencias
dependendo
depender
dependient
dependients
deportacion
deportatos
deporte
deportes
deportiva
deportivo
deposito
depositos
depredador
depredadors
depresion
depresions
depues
depuis
deputacion
deputato
deputatos
deputau
deputaus
der
dera
derbi
derecho
derek
deriva
derivacion
derivada
derivadas
derivan
derivar
derivata
derivatas
derivato
derivatos
derivau
derivaus
dero
derrota
derrotaus
derroto
des
desambigacion
desamortizacion
desapareix
desapareixe
desapareixen
desapareixendo
desapareixer
desapareixida
desapareixio
desapareixioron
desapareixita
desapareixito
desapareixiu
desaparicion
desapegue
desarrolla
desarrollar
desarrollo
desastre
desastres
desaugua
desauguan
desauguar
desaugue
descansan
descanso
descarga
descartar
descendencia
descendent
descendient
descendients
descenso
desciende
descienden
descomposicion
desconoixe
desconoixida
desconoixita
desconoixito
desconoixitos
desconoixiu
describe
describen
describio
describir
descripcion
descripcions
description
descrita
descritas
descrito
descritos
descubierta
descubiertas
descubierto
descubiertos
descubre
descubridor
descubrimiento
descubrimientos
descubrio
descubrioron
descubrir
desde
desembarco
desemboca
desembocadura
desembocan
desembocar
desembolica
desembolicada
desembolican
desembolicando
desembolicar
desembolicata
desembolicato
desembolicatos
desembolicau
desembolico
desembolicoron
desembolique
desenvolique
deseo
desepara
deseparacion
deseparada
deseparadas
deseparan
deseparando
deseparar
deseparata
deseparatas
deseparato
deseparatos
deseparau
deseparaus
deseparo
deseparoron
desert
deseyo
deseyos
desfa
desfer
deshabitados
deshabitau
desierto
desiertos
design
designa
designacion
designar
designau
desigualdat
desincusa
desinencia
desinencias
desintegracion
desire
desnivel
desparte
despectivo
despertar
desplaza
desplazamiento
desplazando
desplazar
despoblacion
despoblada
despoblados
despobladosenhuesca
despoblato
despoblatos
despoblau
despoblaus
despoblo
despues
dessus
desta
destaca
destacable
destacables
destacada
destacadas
destacan
destacando
destacar
destacata
destacatas
destacato
destacatos
destacau
destacaus
destaco
destacoron
destilacion
destin
destinada
destinato
destinau
destinaus
destino
destins
destribucion
destruccion
destruir
destruita
destruito
destruye
destruyir
destruyiu
destruyo
destruyoron
desuso
desvien
desvinio
det
detail
detalle
detalles
detect
detectar
detective
determina
determinacion
determinada
determinadas
determinan
determinant
determinants
determinar
determinata
determinatas
determinato
determinatos
determinau
determinaus
detroit
deu
deuda
deudas
deue
deues
deus
deutsch
deutsche
deutschen
deutscher
deutsches
deutschland
deutschlands
deux
deva
devanta
devantadera
devantar
devantata
devantato
devanto
devantoron
devath
deve
development
devez
devia
devil
devito
devocion
devon
dexo
dexter
deza
dezaga
dezir
df
dg
dga
dh
dhabi
dhaka
dhaulagiri
di
dia
diablo
diacono
diacriticos
diagnostico
diagonal
diagrama
dialectal
dialectals
dialecto
dialectolochia
dialectologia
dialectos
dialeutal
dialnet
dialogo
dialogos
diamant
diamants
diametro
diamond
diana
diane
diaple
diaria
diarias
diario
diarios
diary
dias
diasistema
diaspora
diatop
diaz
dibuixos
dic
dica
dicaprio
diccionari
diccionario
diccionarios
dice
dicen
dicha
dichestion
dichestivo
dichital
dichitals
dicho
dichos
diciba
diciban
diciembre
dicindo
dicio
dicionario
dicir
dicitur
dick
dickinson
dicta
dictador
dictadura
dictionary
dictionnaire
dictionnaires
dicto
didactica
didier
dido
didos
die
diego
dient
dients
dies
dieste
dieta
dietrich
dieu
diez
diferencia
diferenciacion
diferenciadas
diferencial
diferencials
diferencian
diferenciando
diferenciar
diferencias
diferens
diferent
diferentes
diferents
diferiencia
diferiencias
differentiis
dificil
dificils
dificultat
dificultatz
difieren
diftongacion
diftongo
diftongos
difuera
difueras
difundir
difunto
difusion
diga
digital
diglosia
dignidat
digrafo
dijon
dilla
dillon
dimana
dimanan
dimension
dimensions
diminutiva
diminutivo
diminutivos
dimision
dimite
dimitri
dimorfismo
dimpues
dimpuesas
din
dinamarca
dinamica
dinantes
dinastia
dinastias
dinero
dineros
diners
dino
dinosaurios
dins
dintro
dio
diocesi
diocesis
dioclecian
diodo
diodora
dion
dionis
dionisio
dioron
dios
diosa
dioses
dioxido
diplomacia
diplomatica
diplomaticas
diplomatico
diputacion
diques
dir
dire
direccion
direccions
directa
directament
directiva
directo
director
directora
directorio
directors
directos
diriche
dirichent
dirichents
dirichida
dirichio
dirichir
dirichita
dirichitas
dirichito
dirichitos
dirk
dirty
dis
discapacidat
disciplina
disciplinas
disciplo
disciplos
disco
discografia
discografica
discos
discovery
discreta
discretos
discriminacion
discurre
discurso
discusion
disenyada
disenyador
disenyar
disenyato
disenyau
disenyaus
disenyo
disenyos
disierto
disimilacion
disminucion
disminuye
disney
disolucion
disolver
disolvio
displaystyle
dispone
disponible
disponibles
disposa
disposan
disposicion
disposicions
dispositivo
dispositivos
dispues
disputa
disputada
disputar
disputas
disputo
dista
distances
distancia
distancias
distincion
distingue
distinguen
distinguir
distinta
distintas
distinto
distintos
distribucion
distribuir
distribuita
distribuitas
distribuito
distribuitos
distribuye
distribuyen
districto
districtos
distrito
disturbios
disuelto
disuelve
dit
dita
ditas
dito
ditos
diu
dius
diverchencia
diversa
diversas
diversidat
diversion
diversity
diversos
divide
dividen
dividendo
dividiba
dividida
dividindo
dividio
dividir
dividit
dividita
dividitas
dividito
dividitos
dividiu
dividius
divina
divinidat
divinidatz
divisa
divisible
division
divisiones
divisions
divisoria
divo
divulgacion
dix
dixa
dixando
dixar
dixo
dixoron
diya
diyas
diz
dize
dizen
dizian
diziendo
dizionario
dj
dk
dl
dm
dmytryk
dn
dna
dnieper
dniester
do
doble
dobles
dobletz
dobrucha
doc
doce
doctor
doctoral
doctorau
doctrina
documenta
documentacion
documentada
documentadas
documental
documentals
documentan
documentar
documentata
documentato
documentau
documentaus
documento
documentos
documents
dog
doi
dolader
dolar
dolars
dolinas
dollar
dolly
dolmen
dolmens
dolomias
dolor
dolores
dolors
dom
domas
domat
dome
domenico
domestica
domesticas
domestico
domesticos
domina
dominaba
dominaban
dominacion
dominada
dominan
dominant
dominar
dominata
dominato
domingo
domingos
dominguez
domini
dominica
dominicana
dominio
dominios
dominique
domino
dominoron
domo
don
dona
donacion
donacions
donald
donar
donat
donatello
donc
doncas
donde
donetsk
dong
donna
donne
dono
dont
donya
donzaina
door
dopache
dople
dorada
dorau
dordonya
doria
doris
dormir
dorothy
dorsal
dorso
dortmund
dos
dote
dotze
dotzena
double
doubs
douglas
dourdan
douro
dover
down
downey
doyle
dp
dq
dr
dragon
dragons
drama
dramatica
dramatico
dramaturga
dramaturgo
dream
dreams
drecho
dreita
dreitament
dreitas
dreito
dreitos
drena
drento
dresde
dreta
drew
dreyfuss
dreyto
drive
driver
drogas
droma
drusos
ds
dt
dtv
du
dual
dubai
dubda
dublin
duc
ducado
ducal
ducas
ducato
ducatos
ducau
duchas
ductil
duda
dudley
due
duenas
duero
dueso
dugo
duke
dulce
dulces
dulza
dumas
dumbledore
dun
dunas
dunaway
duncan
dunne
duque
duques
duquesa
dura
duracion
durada
duran
durando
durango
durant
durante
durar
duras
dureza
during
duro
duros
dusseldorf
dustin
dutch
duvall
dv
dvd
dw
dx
dy
dylan
dynamics
dz
e
e0
e1
e2
e3
e4
e5
e6
e7
e8
e9
ea
eagle
earl
early
earth
east
eastern
eastwood
easy
eau
eb
eba
ebre
ebro
ebullicion
ec
ecce
ecclesia
ecclesiam
ecclesias
ecclesie
ecetra
echea
echegaray
echeverria
echipcian
echipcio
echipcios
echipto
echo
ecija
ecio
eclesiastica
eclesiasticas
eclesiastico
eclesiasticos
eclix
eco
ecolochia
ecolochica
ecolochico
ecolochistas
economia
economias
economic
economica
economicament
economicas
economico
economicos
economista
ecosistema
ecosistemas
ecuador
ed
edacar
edad
edat
edatz
eddie
eddy
edelvives
eden
edgar
edge
edicion
ediciones
edicions
edicto
edificacion
edificacions
edificio
edificios
edimburgo
edison
edita
editato
editau
edith
edition
editions
edito
editor
editores
editorial
editors
edizions
edmond
edmund
edna
edo
edouard
eds
edu
eduard
eduardo
educacion
education
educativo
educativos
edurne
edward
edwards
edwin
ee
eeuu
ef
efectiva
efectivament
efectivo
efecto
efectos
eficacia
eficaz
eficiencia
eficient
eg
egipto
eglesia
ego
egretta
egual
eh
ehess
ei
eiffel
eill
eillos
ein
einaudi
eindhoven
eine
einstein
einzelthemen
eivissa
eix
eixe
eixea
eixemplar
eixemplars
eixemplo
eixemplos
eixes
ej
ejea
ejemplo
ek
el
ela
elaboracion
elaborar
elaphus
elba
elch
elcock
eleanor
eleccion
elecciones
eleccions
elector
electoral
electorals
electorato
electores
electrecidat
electric
electrica
electricas
electricidat
electrico
electricos
electrodomesticos
electromagnetica
electromagnetico
electron
electronica
electronico
electronicos
electrons
elefant
elefants
elefen
element
elemental
elemento
elementos
elements
elena
elevacion
elevacions
elevada
elevations
elevau
eleven
elfos
eli
elia
elias
elijah
eliminacion
eliminar
eliminatorias
elisa
elisabeth
elise
elisenda
elite
elizabeth
elizondo
ell
ella
ellas
elle
ellen
elliot
elliott
ellipses
ellis
ello
ellos
ells
ellu
elochios
elodie
elorza
eloy
elpais
els
elsa
elson
elvira
elvis
em
emanuel
embaixada
embaixador
embalse
embarazo
embarcacion
embarcacions
embit
emblema
embotada
embotadas
embreca
embrion
embun
embutius
emerchencia
emerito
emi
emigracion
emigrants
emigrar
emigro
emigroron
emil
emile
emili
emilia
emilio
emily
emir
emirato
emiratos
emision
emisions
emisora
emite
emiten
emitio
emitir
emma
emmanuel
emmanuelle
emmy
emocional
emocions
emp
emparar
emparo
empate
empecipia
empecipio
empecipioron
empenta
empentar
empento
empenton
emperador
emperadores
emperadors
emperadric
emperadriz
empero
empire
emplega
emplegaba
emplegaban
emplegada
emplegadas
emplegan
emplegando
emplegar
emplegata
emplegatas
emplegato
emplegatos
emplegau
emplegaus
emplego
emplegoron
emplegos
emporda
empordan
empresa
empuries
en
ena
enamplando
enamplar
enamplata
enample
enamplo
enantes
enca
encara
encarga
encargato
encargau
encargo
encarnacion
encarta
encetar
enceto
enchaquia
enciclopedia
encima
enclau
enclaus
encluso
encluye
encluyen
encluyendo
encluyiba
encluyindo
encluyir
encluyitos
encomenzamiento
encomenzando
encomenzar
encomenzau
encomenzo
encomenzoron
encomienda
encomienza
encomienzan
encomienzo
encontrada
encontradas
encore
encorpora
encorporacion
encuentro
encyclopaedia
encyclopedia
encyclopædia
end
ende
endemica
endemicas
endemico
endesa
endice
endize
endorreica
endrecera
endreza
endrezada
endrezar
endrezau
enel
enemigo
enemigos
enemy
enerchia
energia
energy
enero
enfasi
enfermera
enfila
enfoque
enfrentamiento
enfrentamientos
enfrontino
engarcholato
england
english
engolesme
engracia
enguan
enguera
enguerada
enguerau
enguero
enguita
enla
enlace
enlaces
enlas
enlaza
enlos
enmedio
enna
enneco
enneguiz
ennio
eno
enorme
enperador
enquesicion
enquesta
enquestas
enrestida
enric
enrico
enrique
enrunas
ensambla
ensayo
ensayos
ensemble
ent
enta
entabaixo
entabant
entalto
entazaga
entender
entendimiento
entenza
entera
entero
enterprise
enters
entertainment
entibadera
entibo
entibos
entidat
entidatz
entiende
entierro
entivocar
entomologo
entonacion
entorno
entornos
entra
entrada
entramos
entran
entrando
entrar
entrata
entrau
entre
entrega
entregan
entregar
entrego
entreguerras
entremistanto
entremont
entrenador
entrenadors
entrenamiento
entrenar
entretenimiento
entrevista
entrevistas
entro
entroa
entroron
entry
enuio
envergadura
enves
envio
environment
environmentalchemistry
envista
envistable
envistables
envueltas
enzimas
enzo
eo
eoceno
eolica
eonaviego
ep
epentesi
epentetica
epica
epico
epidemia
epigrafe
epila
epiro
episcopal
episode
episodio
episodios
epitelio
epiteto
epoca
epocas
epopeya
eq
equacion
equacions
equador
equatorial
equidos
equilibrio
equipacion
equipamiento
equipe
equipes
equipo
equipos
equitacion
equivale
equivalencia
equivalent
equivalents
equus
er
era
eran
eras
erata
erau
ere
erebor
ereni
eric
erich
erik
eripol
erisue
eritrea
erm
ermano
ermengol
ermita
ermitas
ernest
ernesto
ernie
ernst
ero
erosion
errol
erroniament
error
errors
ers
erupcion
erupcions
erwin
es
esa
esboldrego
esc
esca
escaicimiento
escaicimientos
escaicio
escaicita
escala
escalada
escalar
escalas
escalera
escaleras
escalfamiento
escalona
escalquens
escandinava
escandinavas
escandinavia
escandinavismos
escandinavo
escandinavos
escania
escaniella
escanyos
escapa
escapar
escape
escaques
escar
escarp
escarra
escarriella
escartin
escasa
escasas
escaseza
escaso
escasos
escatas
escatron
esce
escenario
escere
eschen
esclafar
esclata
esclatar
esclatito
esclato
esclaus
esclavitut
esclavo
esclavos
escleto
esco
escobar
escoces
escocesa
escoceses
escocia
escola
escolapios
escolar
escolta
escomencipio
escomenzo
esconfito
escorial
escoriuela
escriba
escribans
escribe
escriben
escribiba
escribiban
escribindo
escribio
escribioron
escribir
escrita
escritas
escrito
escritor
escritora
escritors
escritos
escritura
escrituras
escriva
escuain
escudero
escudo
escudos
escuela
escuelas
escuer
escuita
escuitar
escultor
escultura
esculturas
escura
escuras
escuro
escuros
escurpion
esdevenidero
esdevenindo
esdevenio
esdevenioron
esdevenir
esdevenito
esdeveniu
esdevien
esdeviene
esdevienen
esdevinio
esdevinioron
ese
esencia
esencial
esencialment
esencials
esera
esfender
esfensa
esfensas
esfensiva
esfensivas
esfensor
esfensors
esfera
esferas
esferencia
esferenciar
esferencias
esferents
esferra
esfiende
esfincter
esfuerzo
esfuerzos
esglesia
esgrima
esgueva
esiste
eslava
eslavas
eslavismos
eslavo
eslavonia
eslavos
esleccions
eslecion
eslecions
esleita
esleito
esleitos
esleyir
esleyita
esleyito
esleyoron
eslices
eslovaca
eslovaco
eslovacos
eslovaquia
eslovena
eslovenia
esloveno
eslovenos
esmo
esnaviesa
eso
esofago
esp
espacial
espacials
espacio
espacios
espada
espadan
espalda
espaldada
espaldar
espaldau
espaldo
espana
espanol
espanola
espanoles
espanya
espanyol
espanyola
espanyolas
espanyols
espardidura
espardir
esparta
espartero
esparver
esparvero
espasa
espata
espayna
espaynna
especial
especialidat
especialidatz
especialista
especialistas
especializada
especializadas
especializata
especializato
especializatos
especializau
especialment
especials
especias
especie
especies
especifica
especificament
especificas
especificau
especifico
especificos
espectaclo
espectaclos
espectacular
espectadors
espectro
espejo
espelunga
espelungas
espelunz
esper
espera
esperantista
esperanto
esperanza
esperar
espes
espezies
espia
espiello
espierba
espiga
espigas
espinach
espinal
espinalt
espino
espinosa
espionache
espiral
espiritual
espleitacion
espleitacions
espleitar
esplendor
espluca
espluga
esplugas
espluguiello
esplus
espn
espontania
espontaniament
esporadicament
esporte
esportes
esportista
esportistas
esportiva
esportivament
esportivas
esportivo
esportivos
esposa
esposo
esprision
esprito
espritos
espuenda
espuendas
espullata
espunya
espurio
esqueleto
esquema
esquena
esquerra
esqui
esquiador
esquiadors
esquilo
esquina
esquiruelo
esquis
essays
esse
essential
essentielle
essere
essex
essonne
est
esta
estaba
estabilidat
establ
estable
establece
estableix
estableixe
estableixen
estables
establiba
establida
establidor
establidors
establimiento
establimientos
establindo
establio
establioron
establir
establisen
establita
establitas
establito
establitos
establiu
establius
establix
estaca
estacion
estacional
estacions
estada
estadilla
estadio
estadios
estadistica
estadisticas
estadistico
estado
estados
estadounidense
estallo
estambres
estambul
estan
estanca
estancia
estandar
estandard
estando
estanislau
estany
estanyo
estanyos
estar
estara
estarba
estaria
estas
estase
estasen
estat
estata
estatal
estatals
estatistica
estatisticas
estatistico
estato
estatos
estatounidense
estatounitense
estats
estatua
estatuas
estatus
estatuto
estatutos
estau
estaus
estausunidense
estausunidenses
este
esteban
estela
estelar
estelas
estella
estenata
estendilla
estendillaba
estendillada
estendillan
estendillando
estendillar
estendillata
estendillato
estendillau
estendillo
estendilloron
estension
estepa
estepas
estercuel
esteruelas
estes
estetica
estevan
esteve
esther
esti
estie
estieron
estilo
estilos
estima
estimacion
estimacions
estimada
estiman
estimata
estio
estion
estioron
estiria
estiu
estiva
estivas
esto
estocolmo
estomago
estonia
estonio
estonz
estos
estrabon
estral
estrasburgo
estratechia
estratechica
estratechico
estrato
estratos
estreita
estreitament
estreitas
estreito
estreitos
estrela
estrelada
estrelas
estrella
estremadura
estremenyo
estremidatz
estremo
estremos
estrenata
estreno
estribacions
estricta
estrictament
estricto
estructura
estructural
estructurals
estructuras
estuario
estudea
estudear
estudeo
estudeos
estudeya
estudeyo
estudia
estudiando
estudiant
estudiantes
estudiants
estudiar
estudiau
estudio
estudios
estudioso
estudiosos
estudis
estupinyan
esviellata
esviellato
esvinzadura
et
eta
etait
etampes
etapa
etapas
etc
etcetra
ete
eternity
eth
ethan
ethel
ethnologue
eths
etica
etienne
etimo
etimolochia
etimolochias
etimolochica
etimolochicament
etimolochicas
etimolochico
etimologia
etimologica
etimologico
etiope
etiopia
etiqueta
etnia
etnias
etnica
etnicament
etnicas
etnico
etnicos
etnochenesi
etnografico
etnolochia
etnologo
etnonimo
etnonimos
eto
etre
etrusco
ettore
etudes
etymologique
etz
eu
eua
eucariotas
eugen
eugene
eugenia
eugenio
eugui
eulalia
euler
eumenio
eur
eurasia
eure
euro
eurobasket
eurocup
euroliga
europa
europaea
europe
europea
european
europeas
europeo
europeu
europeus
euros
eurovision
eusa
eusebio
euskadi
euskal
euskaltzaindia
euskara
euskera
eusko
euzko
ev
eva
evaluacion
evanchelio
evanchelios
evans
evaporacion
eve
evelyn
evento
eventos
eventualment
ever
everest
everett
evidencia
evidencias
evident
evil
evita
evitar
evolucion
evoluciona
evolucionan
evolucionando
evolucionar
evolucionato
evolucionau
evoluciono
evolucionoron
evolucions
evolution
evolutiva
evolutivas
evolutivo
evora
evreus
evry
ew
ex
exacta
exactament
exactas
exactitut
exacto
exarc
exatiel
exativa
exaulin
excavacion
excavacions
excelencia
excepcion
excepcional
excepcionalment
excepcions
excepto
excesiva
exceso
exclusion
exclusiva
exclusivament
exclusivo
excma
excmo
excursionista
excursionistas
excursions
exea
execucion
executar
executato
executivo
exelsa
exemplar
exemplars
exemplo
exerce
exercer
exercicio
exercio
exercito
exercitos
exercitu
exerica
exeya
exhibicion
exilio
eximen
exista
existe
existen
existencia
existent
existents
existiba
existiban
existindo
existio
existioron
existir
existito
existiu
exit
exito
exitos
exodo
exoplaneta
exoplanetas
exorcas
exorquera
exotoponimo
exotoponimos
expansion
expedicion
expedicions
experience
experiencia
experiencias
experimental
experimentals
experimentar
experimento
experimentos
expertos
expleitacion
explica
explicacion
explicacions
explican
explicar
explicaria
explicitament
expliquee
exploracion
explorador
explorar
explosion
explotacion
expo
exportacion
exportacions
exposa
exposicion
exposicions
expresa
expresan
expresar
expresion
expresionismo
expresions
express
exprisar
expulsion
extender
extendida
extendilla
extendio
extendiu
extensa
extensas
extension
extensions
extenso
exterior
exteriors
exterminio
externa
externas
externo
externos
extiende
extincion
extincta
extincto
extinguio
extra
extraccion
extranchero
extranchers
extranjero
extraordinaria
extraordinario
extraterrestres
extrema
extremadament
extremadura
extremidatz
extremo
extremos
extrimo
exulve
ey
eye
eyes
ez
ezcua
ezquierda
f
f0
f1
f2
f3
f4
f5
f6
f7
f8
f9
fa
fabaceae
fabeta
fabian
fabib
fabio
fabirol
fabla
fabladors
fablan
fablans
fablant
fablants
fablar
fablas
fablata
fabo
fabos
fabre
fabregas
fabrica
fabricacion
fabrican
fabricant
fabricants
fabricar
fabricas
fabricau
faccions
face
facebook
facera
faces
faceta
faci
facies
facil
facilidat
facilita
facilitar
facilment
facils
facio
facion
facioron
facsimil
factbook
facto
factor
factors
facts
facultad
facultat
facultatz
fadas
fadrique
faga
faginea
fago
fagus
fahrenheit
faiga
faigan
faina
fainas
fairbanks
faire
fait
faith
faixa
faixas
faixismo
faixista
faixistas
fakten
falaguera
falange
falca
falciellos
falco
falcon
falda
fall
falla
fallas
fallece
falls
falordia
falordias
falsa
falsas
falso
falsos
falta
falz
fam
fama
fambre
fame
familia
familiar
familiars
familias
family
famosa
famosas
famoso
famosos
famous
fan
fango
fanlo
fanny
fans
fantasia
fantasticos
fantesia
fantova
fanyanars
fao
far
fara
faraday
faran
faraon
farasdues
fardacho
faria
farian
farina
farinche
fariza
farmaceutico
farmacia
farmacos
farmer
farnsworth
faro
farrow
fas
fase
fases
faso
fast
fasta
fat
fatas
father
fato
fau
fauna
faure
faut
favara
favor
favorable
favorables
favoreixer
fay
fayar
fayars
faye
fayena
fayenas
fayeta
fayo
fayon
fayoron
fayos
faze
fazen
fazer
fazia
fazio
fb
fc
fd
fe
fear
features
feb
feba
feban
feble
febles
febrer
febrero
february
fecha
fecho
fechos
fecundacion
federacion
federacions
federal
federals
federato
federatos
federau
federico
fegura
feguras
feira
feita
feitas
feito
feitos
feldespatos
felequera
felice
felices
felicidat
felicis
felidae
felidos
felins
felip
felipe
felis
feliu
felix
feliz
fellini
femar
fembra
fembras
femenin
femenina
femeninas
femenino
femenins
feminin
feminina
feminins
feminista
femme
femos
fen
fender
fendo
feneixiu
fener
feners
fenicios
feno
fenomeno
fenomenos
fer
fera
ferdinand
feria
ferias
feridas
ferir
ferire
ferito
feritos
ferius
fermat
fermentacion
fermi
fermin
fermosa
fermoso
fernan
fernanda
fernandez
fernando
feroe
ferrada
ferraina
ferramienta
ferramientas
ferran
ferrandez
ferrando
ferrara
ferrari
ferraz
ferrer
ferrera
ferreras
ferreria
ferrero
ferreruela
ferria
ferriz
ferro
ferrocarril
ferrocarrils
ferroviaria
ferroviarias
ferroviario
ferry
fertil
fertilidat
fertils
fertus
fese
fesen
fesensac
festa
festival
festivals
festividat
festividatz
festivo
fet
feta
fetas
feto
fetos
feudal
feudalismo
feudals
feudo
feudos
feyto
fez
fezo
ff
fg
fh
fi
fiasta
fiat
fiba
fibra
fibras
fica
ficacio
ficar
ficcion
ficha
fichero
fico
ficticio
fiction
fidel
fidelidat
fidels
fiebre
fiel
field
fields
fiemo
fiennes
fiera
fiere
fiero
fierro
fiesta
fiestas
fifa
figa
figado
figaro
fighter
fighting
figuera
figueras
figueres
figueruelas
figura
figuran
figurar
figuras
fijo
fila
filabres
filada
filadelfia
filar
filas
file
filiacion
filial
filipinas
filippo
filla
fillas
fille
fillo
fillos
film
filme
filmografia
films
filo
filochenia
filolochia
filologia
filologico
filologo
filologos
filos
filosofia
filosofica
filosoficas
filosofico
filosofo
filosofos
fils
fin
fina
final
finales
finalidat
finalidatz
finalista
finalment
finals
financiacion
financiar
financiera
financiero
finanzas
finas
finca
fincas
finch
find
fines
fineses
finestra
finestras
finisterre
finlandes
finlandia
finney
fino
finos
fins
fiordland
fiordo
fire
firma
firme
firmes
firmo
firmoron
first
firth
fiscal
fischer
fish
fishburne
fisher
fisica
fisicament
fisicas
fisico
fisicos
fisiolochia
fision
fita
fitas
fitero
fito
fitonimo
fitonimos
fitzgerald
five
fixa
fixacion
fixada
fixar
fixas
fixo
fixos
fizieron
fizo
fizon
fj
fk
fl
flag
flaire
flaires
flama
flamas
flamenca
flamenco
flamencos
flanders
flandres
flash
flauta
flavio
fleet
fleischer
fleming
fleta
fletcher
flexibilidat
flexibles
flexion
flight
flix
flor
flora
florada
florals
florata
florenca
florence
florencia
flores
florian
florida
florin
florinda
flors
flota
fluido
fluidos
flum
flumen
fluvia
fluvial
fluvials
fluvio
fluxo
fluye
flying
flynn
flysch
fm
fn
fo
foca
focas
foces
focino
foco
focos
fogache
fogaje
fogar
fogaril
fogars
foguera
fogueras
foi
fois
foix
fol
foliolos
folk
folklore
follarasca
follas
follin
fomentar
fomento
fon
fonda
fondada
fondaria
fondo
fondon
fondonada
fondos
fondura
fonema
fonemas
fonetica
foneticament
foneticas
fonetico
foneticos
fongo
fongos
font
fontaine
fontainebleau
fontana
fontanal
fonte
fontem
fontes
fonts
fonz
food
football
for
fora
forachitar
forachitatos
forachitaus
forachito
forachitoron
foradada
foral
forana
foranas
forano
foranos
foratata
forato
foratos
forau
foraus
forbes
forca
forcallo
forcas
force
forces
forcos
ford
foreign
forest
forestal
forestals
foret
forever
forma
formaba
formaban
formacio
formacion
formacions
formada
formadas
formal
formalment
formals
forman
formando
formant
formar
formas
formata
formatas
formation
formato
formatos
formau
formaus
formich
formigal
formigals
formigari
formigon
formo
formoron
formula
formulas
fornigal
fornigas
forno
fornols
fornos
foro
foros
forque
forqueta
forrest
forster
fort
fortaleza
fortalezas
fortanet
fortanete
forte
fortificacion
fortificacions
fortificada
fortificata
fortificato
fortificau
fortun
fortuna
forum
forzata
fosal
fosau
fosca
fosco
fosfato
fosforo
fosil
fosilizacion
fosilizau
fosils
fosse
foster
foto
fotografia
fotografias
fotografica
fotografo
fotons
fotos
fotosintesi
foucault
found
foundation
four
fourth
fovano
fox
foya
foyas
foz
fp
fq
fr
fra
frac
fracaso
fraccion
frachil
fraga
fragancias
fragmento
fragmentos
frago
frai
fraile
fraires
fraixneda
fraixno
fran
franca
francais
francaise
francas
france
frances
francesa
francesas
francesc
francesca
francesco
franceses
francesveyer
francha
franchas
francho
francia
francico
francis
francisca
franciscans
francisco
franck
franco
francois
franconia
franconismos
francos
franja
frank
frankenstein
frankfurt
frankie
franklin
franquicia
franquismo
franquista
franquistas
franz
frase
fraser
frases
frau
fraxinus
fray
fred
freda
fredas
freddie
frederic
frederick
frederico
fredo
fredor
fredos
fredric
free
freedom
freeman
freguesia
freiburg
freida
fren
french
frent
frente
frents
frequencia
frequencias
frequent
frequentativos
frequentment
frequents
fresca
frescano
fresco
frescos
fresno
freud
freyung
fria
frias
friburgo
fricativa
fricativo
frida
fridas
frido
fridos
friedrich
friends
friesii
frio
frisia
frison
frisonas
frisons
frito
fritz
friuli
frodo
from
front
frontal
frontera
fronteras
fronton
fruita
fruitals
fruitas
fruito
fruitos
frusciante
frutos
fs
ft
fu
fue
fueba
fuego
fuegos
fuella
fuellas
fuen
fuencalderas
fuenlabrada
fuent
fuente
fuentes
fuentiduena
fuents
fuera
fueras
fuerca
fuero
fueron
fueros
fuert
fuerte
fuertement
fuertes
fuerza
fuerzas
fues
fuesa
fuesas
fuese
fuesen
fuesse
fuessen
fueva
fueya
fuga
fuhrer
fuina
fuir
full
fuller
fumo
funchal
funcion
funciona
funcional
funcionalidat
funcionals
funcionamiento
funcionan
funcionar
funcionario
funcionarios
funcions
funda
fundacio
fundacion
fundacional
fundada
fundador
fundadors
fundamental
fundamentalment
fundamentals
fundamentos
fundan
fundando
fundar
fundaria
fundas
fundata
fundato
fundau
fundir
fundo
fundoron
fundos
funes
fungi
fuo
fuoron
fur
fura
furo
furstenfeldbruck
fury
fusca
fusco
fuselache
fuset
fusilato
fusion
fusionar
fusiono
fusionoron
fuso
fusta
fustas
fuster
futbol
futbolista
futbolistas
futura
futuras
future
futuro
futuros
fuye
fuyen
fuyindo
fuyio
fuyir
fuyo
fuyoron
fv
fw
fx
fy
fz
g
g0
g1
g2
g3
g4
g5
g6
g7
g8
g9
ga
gabarda
gabardon
gabas
gabinet
gable
gabon
gabriel
gaelico
gai
gaia
gais
gaita
gala
galacho
galachos
galactica
galaico
galan
galas
galaxia
galaxias
galaxy
galceran
gale
galega
galera
galeras
galeria
galerias
gales
galesa
galia
galias
galicia
galicismo
galicismos
galico
galilea
galileo
galindez
galindo
galitzia
gall
gallaecia
gallega
gallego
gallegos
gallen
gallery
gallia
galligo
galliguera
gallimard
gallina
gallinas
gallipoli
gallipuent
gallo
gallocanta
gallur
galmes
galo
galos
galv
galve
galvez
gama
gambia
game
games
gametos
gana
ganadera
ganaderia
ganadero
ganaderos
ganaders
ganado
ganador
ganadora
ganadors
ganados
ganan
ganando
ganar
ganato
ganau
ganaus
gancho
gandalf
gandesa
gandhi
gandia
gangas
gano
ganoron
gant
ganz
gap
gar
gara
garas
garba
garbo
garces
garchola
garci
garcia
garcilaso
garcipollera
garda
garden
gardner
gardon
garfield
gargallo
garganchon
garganta
garland
garmisch
garmo
garnacha
garona
garonne
garra
garrapiniellos
garras
garrido
garriga
garrigas
garrocha
garrot
garson
gary
gas
gascogne
gascon
gascona
gasconiella
gascons
gascuna
gascunya
gases
gasherbrum
gasost
gaspar
gassman
gasto
gaston
gastos
gastronomia
gastronomico
gate
gates
gato
gatos
gaudenc
gaudi
gauguin
gaulle
gavarnia
gavarnie
gave
gaves
gavin
gay
gayata
gayen
gaynor
gayo
gazaros
gb
gc
gd
gdansk
ge
gea
gedra
gellert
geltru
gen
gender
gene
genera
generacion
general
generalfeldmarschall
generalitat
generation
genero
genesis
genetta
genevieve
genfrancesa
gens
gent
gente
gentes
gentilicios
gentleman
geoffrey
geografia
geografico
geographic
geographique
geologia
geologica
geologico
geologicos
geomorfologia
georg
george
georges
georgia
ger
gerais
gerald
geraldine
gerard
gerd
gerhard
germain
german
germania
germany
gernika
geronimo
gers
gerses
geschichte
gestapo
get
gets
gf
gg
gh
ghana
ghil
ghost
gi
giacomo
gian
gianni
giant
gibraltar
gibson
gielgud
gijon
gil
gilbert
gilles
gimenez
gimeno
gimona
giner
ginger
gino
giorgio
giovanni
gipuzkoa
giralt
girardet
girl
girls
giro
girona
gironda
gironella
gistain
giulio
giuseppe
give
gj
gk
gl
glaciacion
glacial
glaciar
glacis
glan
glandula
glandulas
glans
glarimas
glasgow
glaud
gleeson
glen
glenn
glera
gli
global
globalizacion
globo
globos
gloria
glory
glosas
glover
gluck
gm
gmbh
gn
gnu
go
gobernador
gobernar
goberno
gobierno
gobiernos
god
godfather
godfrey
godina
godofre
godos
gods
goes
goethe
gogh
goierri
going
gol
gold
golden
goles
golf
golfo
goliador
gollum
golpe
golpes
gols
gomara
gomez
gondor
gone
gonen
gonzaga
gonzalez
gonzalo
gonzalvo
good
goodbye
goodman
google
gora
gorda
gordaria
gordo
gordon
gorga
gorgas
gorilla
goriz
gormaz
gosa
gosaba
gosaban
gosan
gosando
gosar
gosato
gosau
goso
gostanza
got
gota
goteborg
gotha
gotica
goticas
goticismos
gotico
goticos
gotor
gottfried
gottingen
gould
gov
government
govt
goya
goyo
gp
gpl
gps
gq
gr
gra
grace
gracia
gracian
gracias
grad
grada
gradient
grado
grados
gradual
gradualment
graf
grafia
grafias
grafica
graficament
graficas
grafico
graficos
grafiques
graham
grahame
graixa
gramatica
gramatical
gramaticals
gramatuero
graminias
grammaire
grammar
grammatik
grammy
gramos
gran
granada
grancha
granchas
grand
grandaria
grandarias
grande
grandes
granger
granito
graniza
granizo
granizos
granja
grano
granollers
grans
grant
granyen
grasa
grasos
grassa
gratacielos
gratal
grau
graus
grausino
grava
gravacion
gravacions
gravador
gravar
gravato
gravatos
gravau
grave
gravedat
graves
gravo
gray
graz
great
greatest
grecia
greco
gredal
gredos
greek
green
greene
greenwich
greenwood
greer
greg
gregoire
gregorian
gregoriano
gregorio
gregory
gremio
grenada
grenoble
greta
grey
griebal
griega
griegas
griego
griegos
grieu
grieus
griffith
grijalbo
grillo
grimm
gripe
gris
grisa
grisas
grisel
grisen
griso
grisons
grist
grito
griu
groningen
gronlandia
gros
group
grove
grupo
grupos
gruyter
gs
gt
gta
gu
guadalachara
guadalajara
guadalaviar
guadalentin
guadalop
guadalope
guadalquivir
guadalupe
guadiana
guaido
guaire
guaires
guam
guara
guaranciar
guarda
guardafuents
guardan
guardar
guardau
guardia
guardian
guardias
guardiola
guarga
guarguera
guarnicion
guaso
guatemala
guatizalema
guayana
gubernador
gubernamental
gubernamentals
gubernar
guberno
gubierna
gubierno
gubiernos
gudar
gudiol
gue
guebo
guedon
gueiser
guell
guelo
guernica
guerra
guerras
guerre
guerrera
guerrero
guerrers
guerrilla
guerrillas
guerrillers
guevara
guglielmo
guia
guias
guida
guide
guido
guillaume
guillem
guillen
guillermo
guinea
guinness
guinot
guion
guionista
guions
guipuzcua
guipuzcuan
guitar
guitarra
guitarras
guitarrista
guitarristas
gules
gump
gun
gunnar
guns
gunter
gunther
gupta
gurrea
gurrion
gustav
gustave
gustavo
gusto
gutenberg
gutierrez
guy
guyana
guyena
guzman
gv
gw
gx
gy
gz
h
h0
h1
h2
h3
h4
h5
h6
h7
h8
h9
ha
haag
hab
habana
habe
haben
habendo
habent
haber
haberba
habia
habilidat
habilidatz
habio
habioron
habita
habitaba
habitaban
habitable
habitada
habitadas
habitador
habitadores
habitadors
habitan
habitans
habitant
habitantes
habitants
habitar
habitat
habitata
habitatas
habitato
habitatos
habitats
habitau
habitaus
habito
habitos
habitual
habitualment
habituals
habiu
habla
hablas
habra
habria
habrian
habs
habsburgo
habsburguica
hace
hacer
hacia
hacienda
hackman
had
haddock
hadrian
hadriana
haensch
hagen
hai
haifa
haiga
haigan
haiti
haiton
hal
hale
halepensis
half
hall
halle
ham
hamburg
hamburger
hamburgo
hamilton
hamlet
hammond
hampshire
han
hand
handbook
hank
hanks
hanna
hannah
hannover
hanoi
hans
hansa
hanseatica
happy
hara
harald
harbour
hard
hardcore
hardware
hardy
harlem
harmonia
harmonica
haro
harold
harper
harpercollins
harris
harrison
harry
hart
hartford
harvard
harvey
has
hasta
hat
hathaway
hatzfeld
hauia
haus
haut
haute
have
haven
haver
havia
haviendo
havilland
hawaii
hawelka
hawk
hawkins
hawks
hawthorne
hay
haya
hayden
hayes
hayward
hb
hc
hd
he
head
health
hear
heart
heath
heaven
heavy
heba
heban
hebraicos
hebrea
hebreu
hechemonia
hecho
hectarias
hector
hei
heidelberg
heimdal
heinrich
heinz
helen
helena
helene
helenismo
helenismos
helenistico
helicoptero
helio
helios
helitz
hell
helm
helmut
help
helsinki
hematites
hemingway
hemionus
hemipteros
hemisferio
hemos
henares
hendrix
henri
henrik
henrique
henry
hepburn
her
hera
heraclio
herald
heraldica
heraldo
herbacia
herbacias
herbacio
herbert
herbivoros
hercules
here
heredera
heredia
herediana
hereditario
heredo
herencio
hereu
hereus
herge
heritage
herman
hermanas
hermandad
hermann
hermano
hermanos
hermione
hermosilla
hernan
hernandez
hernando
hero
heroe
heroes
heroi
heroina
herois
herraiz
herrengasse
herrera
herrero
herria
hertfordshire
hertz
herzegovina
hese
hesen
hespital
hespitalers
hespitals
hesse
heston
het
heterosexual
heterosexuals
heu
hevia
hf
hg
hh
hi
hiato
hibernadero
hibierno
hibiernos
hibrido
hicienda
hickman
hidalgo
hidraulica
hidraulico
hidrocarburos
hidrocheno
hidroelectrica
hidrografica
hidrolochica
hidronimo
hidroxido
hielo
hierarquia
hierba
hierbas
hierro
high
higuera
higueras
hija
hijar
hijo
hijos
hilary
hill
hills
hilton
him
himalaya
himmler
himno
hindenburg
hindi
hindu
hinduismo
hindus
hinojosa
hip
hipolito
hipotesi
hipotesis
hipotetica
hipoteticas
hipotetico
hiroshima
his
hispan
hispana
hispania
hispaniae
hispanica
hispanico
hispano
histoire
historia
historiador
historiadors
historial
historias
historic
historica
historical
historicament
historicas
historico
historicos
historieta
historiografia
historique
history
hita
hitchcock
hitler
hits
hivierno
hj
hk
hl
hm
hn
ho
hobbit
hoc
hocino
hockey
hoek
hof
hoffman
hogan
hohenstaufen
hoi
holanda
holandes
holden
hole
holiday
holland
holly
hollywood
holm
holmes
holmiae
holocausto
holstein
hombre
hombres
home
homenache
homenaje
homer
homero
homes
homme
homo
homochenio
homonima
homonimo
homosexual
homosexualidat
homosexualite
homosexuals
honduras
hong
hongara
hongaro
hongaros
hongria
honolulu
honor
honore
honorio
honoris
honors
honra
honras
hontoria
hop
hope
hopkins
hopper
hora
horace
horario
horarios
horas
horda
hordio
horizont
horizontal
horizontals
hormona
hormonas
horn
horse
horta
hortalicias
horte
hoskins
hospicio
hospital
hospitalet
hostal
hot
hota
hotel
hotels
house
houston
how
howard
hoy
hoya
hoyo
hoyos
hoz
hp
hq
hr
hrsg
hs
ht
htm
html
http
https
hu
huang
hubble
hubert
hud
hudson
hue
huei
huembro
huembros
huerta
huertas
huerto
huertos
huerva
huesca
huest
hugh
hughes
hugo
hui
hull
human
humana
humanas
humanidades
humanidat
humanidatz
humanista
humano
humanos
humans
humedat
humedo
humida
humidas
humidat
humido
humidos
humilis
humor
humorista
humphrey
hun
hunnos
hunt
hunter
huntington
hurt
hussein
huston
hutton
huuo
huygens
hv
hw
hx
hy
hyde
hymes
hyundai
hz
i
i0
i1
i2
i3
i4
i5
i6
i7
i8
i9
ia
iaaf
iacca
ian
ianos
iar
iasi
iata
ib
iba
iban
ibanez
ibarra
ibdes
ibera
ibercaja
iberia
iberica
ibericas
iberico
ibericos
ibero
ibers
iberus
ibi
ibieca
ibiza
ibm
ibn
ibon
ibones
ibonet
ibons
ibrahim
ic
ice
ich
ico
icono
id
ida
idaho
idea
ideal
ideas
identica
identico
identidad
identidat
identifica
identificacion
identifican
identificar
identificato
identity
ideolochia
ideya
ideyal
ideyals
ideyas
ideyolochia
idioma
idiomas
ido
ie
iella
iello
iem
ier
ies
if
ifc
ig
iglesia
iglesias
iglesuela
ign
ignacio
igor
igresias
igual
igualada
igualdat
igualment
iguals
ih
iherusalem
ii
iii
iiii
iij
ij
ik
il
ildefonso
ile
ilegal
ilesia
ilesias
ilex
ilheu
iliada
iliria
ilirios
illa
illam
illas
illinois
illo
illos
illueca
illum
illustrated
ils
iluminacion
ilustracion
ilustracions
ilustre
ilustres
im
imachen
imachens
imachinario
image
images
imdb
imitacion
imitar
immigracion
immigrants
immunidat
immunitario
imos
imp
impacto
impactos
impedir
imperativo
imperator
imperfecto
imperfectos
imperial
imperialismo
imperials
imperio
imperios
impersonal
impersonals
impide
implica
importa
importancia
importans
important
importante
importants
importar
imposa
imposar
imposible
imposicion
imposo
imposoron
imprenta
impresion
impresionant
impresionismo
impreso
impuesto
impuestos
impulso
impulsor
imre
in
ina
inauguracion
inaugurato
inauguro
inazio
inc
inca
incapacidat
incendio
incendios
incheccion
inchenieria
incheniero
incheniers
incident
inclinacion
inclui
incluiba
incluida
incluidas
incluindo
incluir
incluita
incluito
incluitos
incluiu
incluius
inclusa
inclusas
inclusion
incluso
incluye
incluyen
incluyendo
incluyiba
incluyida
incluyindo
incluyir
incluyiu
incluyius
incluyo
incoativa
incoativo
incoativos
incontables
incorpora
incorporacion
incorporando
incorporar
incorporau
incorporo
incremento
incursion
incursions
inde
indef
indefiniu
indefinius
independencia
independent
independentismo
independentista
independentistas
independient
independiente
independientment
independients
independizar
independizo
index
india
indian
indiana
indias
indica
indicacion
indicador
indicadors
indican
indicando
indicar
indicativo
indice
indichena
indichenas
indicios
indico
indio
indios
indir
indirecta
indirectas
indirecto
indirectos
individual
individuals
individuo
individuos
indo
indochina
indoeuropea
indoeuropeas
indoeuropeo
indoeuropeu
indoeuropeus
indonesia
indonesio
indre
indreitament
induccion
industria
industrial
industrializacion
industrials
industrias
industry
ine
inedita
inedito
ineditos
ines
inestabilidat
inestable
infancia
infant
infanta
infante
infanteria
infantes
infantil
infantils
infanzons
infeccion
infeccions
infecciosa
inferior
inferiors
infierno
infiernos
infinitivo
infinitivos
infinito
infixo
inflacion
inflorescencia
inflorescencias
influencia
influencias
influir
influito
influiu
influxo
influye
influyencia
influyent
influyents
influyo
info
informa
informacion
informacions
informal
informatica
informatico
information
informazion
informe
informes
informo
infortunada
infra
infraestructura
infraestructuras
infrastructuras
infty
inglaterra
ingles
ingmar
ingredient
ingredients
ingreso
ingresos
ingrid
inguixes
inicial
inicialment
inicials
iniciativa
iniciativas
inicio
inicios
iniesta
inmaculada
inmigracion
inmigrants
inn
innovacion
innovacions
innsbruck
inocencio
inorganic
inscripcion
inscripcions
insecto
insectos
insee
insercion
inside
inspector
inspiracion
inspirata
inspirato
inspirau
inspiro
instagram
instalacion
instalacions
instalar
instalau
instalo
instaloron
instancia
institucion
institucional
institucions
institut
institute
instituto
instruccion
instruccions
instrumental
instrumento
instrumentos
insular
insulars
insurreccion
int
inte
integra
integracion
integrada
integral
integrales
integran
integrants
integrar
integrata
integrato
integratos
integrau
integro
intel
intelectual
intelectuals
intelichencia
intelichent
intelichents
intelichibles
intencion
intensa
intensas
intensidat
intenso
intenta
intentar
intento
intentos
inter
interaccion
interactive
intercambeo
intercambio
intercensal
interdental
interes
interesant
interesants
intereses
interestelar
interferencia
interfluvio
interior
interiors
interlingua
intermedia
intermediaire
intermedio
intermeya
intermeyo
interna
internacional
internacionalment
internacionals
internas
international
internationale
internet
interno
internos
interpresa
interpresario
interpresas
interpreta
interpretacion
interpretacions
interpretan
interpretando
interpretar
interpretata
interpretato
interpretau
interprete
interpretes
interpreto
interrogativas
interrogativos
interrupcion
interseccion
intervencion
intervencions
intervenir
intervienen
interview
intervinio
intervinioron
intervocalica
intervocalicas
intes
into
intransitivos
intrapirenenca
intres
intresant
intresants
intreses
intriga
introduccion
introduce
introducen
introducida
introducindo
introducio
introducioron
introducir
introduciu
introduction
introdueita
introdueito
intus
inundacion
inundacions
invade
invaden
invadio
invadioron
invadir
invariable
invasion
invasions
invasors
invencion
inventario
invento
inventor
inventos
inversa
inversion
inversions
inverso
invertebraus
investidura
investigacion
investigaciones
investigacions
investigador
investigadors
investigar
invisible
io
ion
ions
iowa
ip
iparralde
ipies
ipsa
ipu
iq
iquino
ir
ira
irak
iran
irani
iranias
iranzo
iraq
iraqui
irati
ire
iregua
ireland
irene
iris
irish
irlanda
irlandes
irlandesa
irlandeses
iron
irregular
irregularidatz
irregulars
irving
irwin
is
isaac
isaba
isabana
isabel
isabela
isabelle
isac
isar
isbert
isbn
ise
isera
isidoro
isidro
isla
islam
islamica
islamico
islamicos
island
islandes
islandia
islands
islas
isle
isleta
isletas
ismail
iso
isoglosa
isoglosas
isola
isotopo
isotopos
israel
israeli
iss
issn
ist
ista
istambul
istas
istat
iste
isteban
istes
istmo
isto
istoria
istorico
istos
istre
istria
isuala
isuela
it
ita
italia
italian
italiana
italianas
italianismo
italianismos
italiano
italians
italica
italicas
italico
italo
italy
item
itinerario
itinerarios
ito
its
itsmo
iu
iucn
iucnredlist
iulia
iupac
ius
iv
ivan
ives
ivo
iw
ix
ixa
ixalenques
ixamplamiento
ixamplar
ixamplo
ixar
ixas
ixe
ixemenatos
ixena
ixes
ixo
ixos
ixufre
ixuta
ixuto
iy
iz
izas
izquierda
izquierdo
j
j0
j1
j2
j3
j4
j5
j6
j7
j8
j9
ja
jaca
jacinto
jack
jackie
jackson
jacky
jacob
jacqueline
jacques
jade
jadraque
jagger
jaime
jairo
jakarta
jake
jakob
jalisco
jalon
james
jamie
jan
jane
janeiro
janet
janis
january
japan
japonica
jara
jarama
jardim
jardin
jarque
jarre
jason
jaume
java
javalambre
javier
javierre
jay
jayme
jazz
jb
jc
jd
je
jean
jeanne
jedi
jeff
jefferson
jeffrey
jennifer
jenny
jens
jeremy
jerome
jeronimo
jerry
jersey
jerusalen
jesse
jessica
jesus
jet
jewish
jewison
jf
jg
jh
ji
jill
jiloca
jim
jimenez
jimeno
jimmy
jj
jk
jl
jm
jn
jo
joachim
joan
joanne
joao
joaquim
joaquin
jobling
jodie
joe
joel
joey
johan
johann
johannes
john
johnny
johns
johnson
joiosa
jolly
jon
jonas
jonathan
jones
jong
joplin
jordan
jordi
jorge
jornada
jornadas
jose
josef
josefa
josefina
josep
joseph
josephine
josh
joshua
jota
jour
journal
journey
joven
joventut
joy
joyce
jozef
jp
jpg
jq
jr
js
jsp
jt
ju
juan
juana
juanito
juarez
juarros
jubilar
judd
jude
judet
judetul
judge
judgment
judios
judo
judy
juego
juegos
juin
jules
julia
julian
julie
julien
juliette
julio
julius
july
june
jung
junio
junior
juniperus
junta
junto
juntos
jupiter
jura
jurado
jurados
jurassic
jurgen
jus
jusqu
just
juste
justice
justicia
justin
justo
juventud
juventus
jv
jw
jx
jy
jz
k
k0
k1
k2
k3
k4
k5
k6
k7
k8
k9
ka
kahlo
kakapo
kaltenbrunner
kane
kansas
kanton
kantonamendua
kara
karabakh
karate
karen
karin
karl
karles
karlsruhe
kars
karstica
karsticas
karstico
karsticos
kate
katharine
kathleen
kathy
katoomba
katowice
kaufman
kaunas
kawarau
kay
kazan
kb
kc
kd
ke
keaton
keep
keitel
keith
kelly
kelvin
kemal
ken
kenia
kennedy
kenneth
kent
kentucky
kepler
kerr
keuper
kevin
key
kf
kg
kh
khacaso
khan
khanato
kharkiv
khitai
khmer
ki
kick
kid
kids
kiel
kiev
kill
killer
kilogramo
kilogramos
kilometro
kilometros
kim
kind
kinder
king
kingdom
kings
kingsley
kingston
kinshasa
kinski
kirche
kirguizes
kirguizistan
kirk
kiss
kiwi
kj
kk
kl
klaipeda
klaus
klein
klingon
kloster
km
kn
knight
know
ko
koch
koenig
kong
konigsberg
konrad
korac
korps
kosice
kosovo
kp
kq
kr
kraj
krajina
kramer
kristen
kristin
kruger
ks
kt
ku
kubrick
kuhn
kurdos
kurt
kutzing
kuwait
kv
kw
kx
ky
kyle
kz
l
l0
l1
l2
l3
l4
l5
l6
l7
l8
l9
la
labana
labanha
labata
laberinto
labios
laboa
labor
laboral
laborals
laboratorio
laboratorios
laboratory
laborda
labordeta
labors
labort
labortan
labrador
labradors
labrar
labrit
labuerda
lac
lacarra
lacasa
laco
lacos
lacsdespyrenees
lactia
lacuna
lacunas
lacus
ladd
laden
ladera
laderas
ladin
ladislau
lado
ladriello
ladron
ladrones
lady
lafuente
lagarde
lagata
lago
lagoin
lagos
laguardia
lagueruela
laguna
lagunas
lai
lain
lake
lama
lamas
lamata
lamban
lambert
lamberto
lamina
laminas
lamins
lampa
lana
lanacha
lancashire
lancaster
lance
land
landa
landas
landau
landeshauptstadt
landkreis
landkroas
lane
lang
langa
lange
language
languages
langue
langues
laniakea
lanka
lannoy
lanuza
lanza
lanzada
lanzamiento
lanzar
lanzau
lanzo
lanzuela
laos
lapesa
lapurdi
lara
lardana
lardies
lardo
larga
largaria
largas
largo
largos
largura
lari
larinche
larousse
larraz
larrede
larres
larri
larry
lars
larumbre
laruntz
larvas
las
lasaosa
lasarte
lascorz
laser
last
lastanosa
lastra
laszlo
lat
lata
latas
lateral
laterals
latham
latin
latina
latinas
latini
latinismos
latinizau
latino
latinoamerica
latinos
latins
latitut
latitutz
laton
latorre
latras
latre
lau
laudatio
laughton
laura
lauragais
lauragues
laurel
lauren
laurence
laurent
laurentii
lauria
laurie
lausana
lausberg
lava
laval
lavanha
law
lawrence
lax
laye
lazaga
lazaro
lazena
lazio
lb
lc
ld
le
lea
league
leal
lean
leb
leben
leblanc
leccio
lecera
lech
leche
lechendario
lechion
lechions
lechislacion
lechislativa
lechislativas
lechislativo
lechislatura
lechitimidat
lechitimo
lecina
lecinyena
lector
lectors
lectura
ledesma
ledon
lee
leeds
leeuwenhoek
left
lega
legado
legal
legalment
legals
legavin
legend
legendarios
legua
leguas
legumbres
leguminosas
lei
leia
leibniz
leida
leiden
leiga
leigh
leipzig
leire
leis
leit
leito
leitora
leiva
leixos
lema
lemmon
lemos
lemosin
lena
lengua
lenguache
lenguadoc
lenguadocian
lenguas
lenguasdearagon
lenin
leningrado
lenperador
lens
lenta
lentament
lento
lenya
leo
leon
leonard
leonardo
leone
leones
leonor
leopardo
leopold
leopoldo
lepanto
lepiota
lera
lerida
lerin
lerma
leroy
les
lescar
lesico
lesion
lesions
leslie
lester
let
leton
letonia
letons
letra
letras
letter
lettere
letters
lettres
lev
leva
levaba
levaban
levada
levadura
levan
levando
levant
levante
levantin
levantina
levar
levato
levau
leve
levi
levinson
levo
levoron
levy
lew
lewis
lexica
lexicas
lexico
lexicografia
lexicografo
lexicologico
lexicon
lexicos
lexikon
lexo
ley
leye
leyemos
leyenda
leyendas
leyer
leyon
leyones
leyonesa
leyoneses
leyonesismos
leza
lezaun
lezinera
lf
lfp
lg
lgbt
lh
li
liaison
liam
liban
libano
libel
libels
liber
libera
liberacion
liberal
liberalismo
liberals
liberando
liberar
liberato
liberau
liberia
libero
libertad
libertador
libertat
libertatz
liberty
libia
libra
librar
library
libras
libre
librement
libreria
libres
libro
libros
licencia
licencias
licenciato
licenciatura
licenciau
licencio
lichera
licherament
lichero
lider
liderato
liders
lidje
lidon
lie
liebe
liebre
liechtenstein
liena
lienda
lierp
lieu
lieva
life
liga
ligada
ligadas
ligallo
ligallos
ligan
ligar
ligas
ligata
ligato
ligau
ligaus
light
lightning
lignito
ligue
liguerre
ligur
liguria
like
lila
lilfordi
lille
lima
limbo
limburgo
limfaticos
limita
limitacion
limitacions
limitada
limitato
limite
limited
limites
limits
limo
limon
limpia
limpiar
limpieza
limpio
lin
lina
linache
linaches
linares
linars
lincoln
linda
lindsay
line
linea
lineal
lingua
linguista
linguistas
linguistic
linguistica
linguisticament
linguisticas
linguistico
linguisticos
linguistics
linguistique
linia
linial
linias
linnaeus
linne
lino
linux
lion
lionel
lions
lipidos
liquida
liquido
liquidos
liria
lis
lisa
lisboa
lisbona
liso
lisos
list
lista
listas
lit
litera
literal
literalment
literaria
literarias
literario
literarios
literatura
literature
litichio
lito
litoral
litovsk
litro
litros
little
lituan
lituana
lituania
lituano
lituans
liturchia
liturchica
liu
liucherament
liuchero
liv
live
liverpool
lives
living
livonia
livorno
livre
liza
lizano
lj
ljouwert
ljubljana
lk
ll
lla
llaguarres
llama
llamado
llana
llanera
llanes
llano
llanos
llascuarre
llauset
llc
llegada
lleida
llena
llengua
llengues
llerena
lletres
lleva
llibre
llingua
llinguistica
llitera
lliterola
llobet
llobregat
lloc
llorenc
lloris
llos
llosa
lloyd
llugar
llugars
lluis
lm
ln
lnb
lo
lobarre
lobera
lobo
lobos
lobulos
loc
loca
local
localidad
localidat
localidatz
localiza
localizacion
localizada
localizata
localizato
localizau
localizaus
localment
locals
locativo
lochica
lochico
lochicos
locis
lockheed
loco
locucion
locucions
lodi
lodois
loess
logan
logar
logic
logo
logos
logotipo
lograr
logro
logronyo
loir
loira
loire
lois
loiseau
loisiana
lola
lolo
loma
lomanha
lomas
lombard
lombardes
lombardia
lombardo
lon
loncha
lonchitut
london
londres
lonely
long
longares
longaria
longarias
longars
longleftarrow
longobardo
longobardos
longuiello
look
lop
lope
lopez
lopin
lopinyen
loporzano
lora
lorca
lord
lorda
loren
lorena
lorenes
lorent
lorente
lorenzo
loreto
loretta
lorient
loriente
loron
los
losa
losas
loscos
loseta
losetas
lost
lot
lou
louis
louise
louisville
lourdes
love
low
lowell
lozano
lp
lq
lr
ls
lt
ltd
lu
lubeck
lubitsch
lublin
luc
luca
lucas
lucena
luceni
lucerna
luces
lucha
luchino
lucia
luciano
lucien
lucientes
lucio
luco
lucy
ludien
ludivine
ludwig
luego
luen
luenga
luengache
luengaches
luengas
luengo
luengos
luent
luesia
lueza
luftwaffe
lug
lugano
lugansk
lugar
lugares
lugaron
lugarons
lugars
lugartenient
lugdunum
lugo
lui
luigi
luis
luisa
luishon
luita
luitaban
luitan
luitando
luitar
luitas
luito
luitoron
luixon
luka
lukas
luke
lulos
lum
lumbier
lumero
lumeros
lumet
luminosa
luminosidat
lumo
luna
lunar
lunas
lund
luneburg
lunes
lunetas
lupercio
lupo
lupos
lupus
lur
lures
lurs
lurte
lusacia
lusismos
luterans
lutitas
lutra
luxemburgo
luxemburgues
luxo
luz
luzia
lv
lviv
lw
lx
ly
lyga
lykke
lynch
lynn
lynx
lys
lz
m
m0
m1
m2
m3
m4
m5
m6
m7
m8
m9
ma
mac
macabeu
macau
macdonald
macedonia
macedonian
mach
machado
machia
machico
machine
machisterio
machos
macias
macizo
macizos
mackenzie
maclaine
macmillan
macon
macquarie
mad
madagascar
madalena
madame
made
madeira
madeleine
madera
madiranes
madison
madonna
madoz
madre
madrid
madrit
madriz
madura
maduracion
mae
maella
maestrazgo
maestre
maestro
mafia
magallon
magazine
magdalena
maggie
magic
magma
magna
magnani
magnanim
magnanimo
magnesio
magnetic
magnetica
magnetico
magnificent
magnifico
magnitut
magno
magnus
mago
magos
magreb
maheo
mahoma
mai
maia
maiden
main
mainar
mainates
maine
maior
mais
maisie
maison
maitin
maitinada
maitins
major
make
making
mal
mala
malaca
maladeta
malaga
malaisia
malament
malanquiella
malas
malautia
malautias
malauto
malawi
malayo
malcolm
malden
maldito
maldonado
male
malena
mali
malibu
malik
mall
malla
mallacan
mallada
mallata
mallen
mallo
mallorca
mallos
malmo
malo
malos
malotia
malotias
malou
malpartida
malpica
mals
malta
maltes
maluenda
malvinas
mama
mamblas
mamelucos
mames
mamifero
mamiferos
mamifers
mammal
mammalia
mammals
mammuthus
mamoulian
mamposteria
man
mana
management
manantial
manantials
manau
manca
mancan
mancha
manchego
manchester
manchoya
manchu
manchuela
manchuria
manchus
mancomunidad
mancomunidat
manda
mandaba
mandamiento
mandando
mandar
mandarin
mandata
mandatas
mandato
mandatos
mandela
mandevilla
mando
manera
maneras
manfred
manfredo
manga
manganes
mangano
mangas
mange
mango
manhattan
maniera
manifestacion
manifestacions
manifestar
manifesto
manifiesta
manifiestan
manifiesto
manila
manimenos
maniobras
mankiewicz
mann
mannheim
mano
manolo
manos
manresa
manrique
mans
manstein
manta
manteca
manteneba
manteneban
mantenendo
mantener
mantenimiento
mantenio
mantenioron
manteniu
mantien
mantiene
mantienen
manto
mantova
manu
manual
manuals
manubles
manuel
manuscrito
manuscritos
many
manyana
manzana
manzanares
manzanas
manzanera
mao
maori
maoris
map
mapa
mapas
mapquest
maps
maqueta
maquillache
maquina
maquinaria
maquinas
mar
mara
marabillas
maradona
marathon
maraton
marbore
marbre
marburg
marc
marca
marcada
marcadau
marcador
marcan
marcar
marcas
marcata
marcato
marcau
marcaus
marcel
marcelino
marcello
marcelo
marcen
march
marcha
marchan
marchar
marche
marchena
marcho
marchoron
marcia
marcial
marcials
marco
marconi
marcos
marcuello
marcus
mardano
mare
marea
mareas
maresme
margalida
margaret
margarida
margarit
margarita
margot
marguin
marguinal
marguinals
marguins
mari
maria
mariana
marianas
mariano
marido
marie
marieta
marilyn
marin
marina
marinas
marine
mariners
marines
marino
marins
mario
marion
marisa
mariscal
maritima
maritimas
maritimo
maritimos
marito
mariu
marjorie
mark
markale
market
marketing
markt
marlene
marlon
marmara
marmores
marne
maronins
marques
marquesa
marquesato
marqueses
marquez
marracos
marron
marruecos
mars
marshall
marsiella
marta
marte
martel
martes
martha
marti
martiello
martin
martina
martinez
martinica
martino
martir
martirio
martirs
martorell
marty
marvin
marx
marxismo
marxista
mary
maryland
marzal
marzo
mas
masa
masada
masadas
masas
mascaray
masclo
masclos
mascota
masculin
masculina
masculinas
masculino
masculins
masegoso
mases
masia
masiato
masiau
masimo
masiva
masivas
masivo
maso
mason
mass
massa
massachusetts
massanas
massimo
masson
master
masters
masto
mastos
mastroianni
mata
matamala
matan
matando
matar
mataro
matarrana
matarranya
matas
mate
matematica
matematicas
matematico
matematicos
mateo
mater
materia
material
materiales
materials
materias
materna
materno
mateu
mathematics
mathieu
mathrm
matias
matical
matices
matigal
matilda
matilde
matisse
matiz
mato
matrimonio
matrimonios
matrix
matriz
matt
matthau
matthew
matullos
mature
maura
maureen
mauren
maurice
mauricio
mauritania
maurizio
mauro
mausoleu
mauvesin
max
maxim
maxima
maximas
maximilian
maximo
maximos
maxwell
may
maya
mayabona
maye
mayer
mayestra
mayestrato
mayestre
mayestro
mayestros
mayo
mayor
mayordombre
mayordombres
mayoria
mayoritaria
mayoritariament
mayoritario
mayoritarios
mayors
mayuscla
maza
mazadas
mazalion
mazana
mb
mbox
mc
mccarey
mccoy
mccrea
mcdonald
mcdonnell
mcgraw
mcgregor
mcguire
mckellen
mclaglen
mcqueen
md
me
mea
meandro
meandros
meca
mecanica
mecanico
mecanicos
mecanismo
mecanismos
mecenas
mecina
mecklemburgo
medalla
medallas
medallero
medea
medecina
medellin
media
mediana
mediano
medica
medical
medici
medicina
medicinals
medico
medicos
medida
medidas
medieval
medievales
medievals
medina
medinaceli
medio
medioambientales
medioambientals
medios
medir
mediterraneo
mediterrania
mediterranias
mediterranio
mediterranios
meet
meg
mehmet
mejor
mel
melanie
melbourne
melchor
melendez
meles
melico
melilla
melina
melissa
melitant
melitants
melitar
melitarment
melitars
meller
melodia
melon
melville
melvin
melvyn
membrana
membranas
meme
memoria
memorial
memorias
memphis
men
mena
menas
menaza
menazas
mencion
menciona
mencionada
mencionan
mencionar
mencionata
mencionato
mencionatos
mencionau
mencions
mendes
mendez
mendiara
mendikat
mendizabal
mendoza
menendez
menera
meneras
meneria
menero
menester
menima
menister
menisterials
menisterio
menistra
menistro
menistros
menjou
mennecy
menor
menorca
menors
menos
mensa
mensache
mensaches
mensuals
ment
mental
mentals
mente
mentres
menuto
menutos
mequinensa
mequinenza
mer
mercadal
mercaderias
mercaders
mercado
mercancias
mercar
mercato
mercatos
mercau
mercaus
merce
mercedes
mercenarios
merco
mercurio
mercury
mere
meredith
merida
meridian
meridional
meridionals
merindad
merindades
merindat
merino
merito
merkel
merlet
merovinchios
merriam
merseyside
mervyn
meryl
mes
mesa
mesacha
mesachas
mesache
mesaches
mesas
mescla
meses
meseta
mesia
mesma
mesmas
mesmo
mesmos
meso
meson
mesons
mesopotamia
mesozoicos
messi
mesta
mestre
mestura
mesu
mesura
mesurar
mesuras
meta
metabolismo
metafonia
metal
metalica
metalicas
metalico
metalicos
metallica
metals
metalurchia
metamorficas
metamorfismo
metano
metat
metatesi
mete
meteba
meteban
meten
metendo
meteoritos
meteorizacion
meteorolochia
meteorologicos
meter
methode
metio
metioron
metodo
metodos
metrico
metro
metropoli
metropolitan
metropolitana
metropolitanas
metros
metz
meurthe
mexican
mexicana
mexicano
mexico
meya
meyana
meyano
meyant
meyas
meyatos
meyaus
meyebal
meyer
meyeval
meyo
meyodia
meyos
mezalocha
mezcla
mezquin
mezquita
mf
mg
mh
mhz
mi
mia
miami
mias
mica
micali
michael
michel
michelangelo
michele
michelle
michigan
mickey
micronesia
microondas
microorganismos
microprocesadors
microsoft
microtoponimia
microtoponimo
microtoponimos
mid
mida
midas
middle
mide
miden
midi
midlands
midnight
miedes
miedo
miel
miembro
miembros
mientras
mientre
mientres
miercols
mieres
mies
miesbach
mig
migracion
migracions
migratoria
miguel
mijares
mike
mikel
mikhail
miki
mil
mila
milagros
milan
milano
milars
mildred
milenio
milenios
milenta
miles
milestone
milford
milicia
milimetros
milions
militar
militares
militars
military
milk
mill
milla
millan
millares
millars
millas
miller
million
millon
millones
millons
millor
millora
millorar
milloras
millors
mills
milorcha
milos
mils
milton
milvus
milwaukee
mimran
min
mina
minas
mincha
minchada
minchador
minchan
minchando
minchar
minchau
mind
minera
mineral
minerales
minerals
mineras
mineria
minero
miners
minerva
ming
minghella
minh
miniatura
minima
minimas
minimo
miniserie
ministeriales
ministerio
ministra
ministro
ministros
ministry
minneapolis
minnelli
minnesota
mino
minor
minoria
minorias
minoritaria
minoritarias
minoritarios
minsk
minusclas
minutos
mio
mioceno
miollo
mios
miquel
miqueta
miqueu
mir
mira
miraba
miraban
miracle
mirador
mirage
miraglo
miral
miralbueno
mirambel
miramont
miran
miranda
mirandes
mirando
mirar
miravet
miriam
miro
mirror
mis
misa
miscelanea
misericordia
misils
mision
misioners
misions
misma
mismo
miss
mission
mississippi
missouri
misterio
mistral
mit
mitad
mitat
mitchell
mitchum
mitica
mitico
miticos
mitier
mito
mitolochia
mitolochias
mitolochico
mitolochicos
mitologia
mitos
mixa
mixta
mixtas
mixto
mj
mk
ml
mm
mn
mo
mobil
mobile
mobils
mocet
moceta
mochales
mocion
mod
moda
modalidat
modalidatz
modals
model
modelau
modelo
modelos
modena
modern
moderna
modernament
modernas
modernista
modernizacion
moderno
modernos
modesto
modifica
modificacion
modificaciones
modificacions
modificada
modificadas
modifican
modificar
modificau
modifico
modismos
modo
modorra
modos
modulo
mohamad
moi
moises
mojo
mojon
mojones
mol
mola
molar
moldavia
molecula
molecular
moleculars
moleculas
molibden
molimental
molimento
molimentos
molin
molina
moliner
molinias
molino
molinos
molins
moll
mollet
mollon
molsa
molt
molto
moluscos
moment
momento
momentos
mon
mona
monaco
monarca
monarcas
monarquia
monarquias
monasterio
monasterium
monastica
monastico
monastir
moncada
moncayo
moncha
monchas
monche
monches
monchoya
monclus
mondadori
monde
mondo
mondot
moneda
monedas
monegriello
monegrino
monegros
monegue
monenh
monesma
monesterio
monesterios
monetaria
monetario
moneva
money
monflorite
monforte
monge
mongol
mongola
mongolia
mongols
monica
monicelli
monne
monopolio
monreal
monroe
mons
monserrat
monsieur
monster
mont
montache
montador
montagut
montalban
montalvo
montan
montana
montanas
montand
montaner
montaneres
montanes
montanui
montanya
montanyana
montanyas
montanyers
montanyesa
montanyeses
montanyismo
montanyosa
montanyosas
montanyoso
montastruc
montaut
montblanc
montbrun
montcada
montclar
monte
monteagudo
montegut
montenegrins
montenegro
monterd
montero
montes
montesa
montesino
montesquiu
montevideo
montfort
montgai
montgomery
monti
montiel
montis
montlat
monton
montoro
montpeller
monts
montsant
montsec
montserrat
monty
monumental
monumento
monumentos
monzon
moody
moon
moore
mor
mora
morabetin
moral
morales
morals
moran
morana
moras
morata
moravia
morbius
morcat
mordor
more
morea
moreau
morena
moreno
morera
moreria
mores
moret
morfema
morfoestructural
morfolochia
morfolochica
morfolochicos
morfologia
morfosintacticos
morfosintaxis
morgan
mori
moriella
moriello
morillo
morindo
morio
morioron
morir
moriscos
moritz
morlans
morning
moro
moron
moros
morphology
morrano
morrena
morrenas
morricone
morris
morrison
morro
morron
morse
mort
mortal
mortalera
mortaleras
mortalidat
mortals
morte
morton
mos
mosa
mosaico
mosaicos
moscardon
moscas
moscu
mosela
mosen
mosica
mosical
mosquera
mosqueruela
most
mostar
mosto
mostolay
mostrar
mostro
mota
mother
motius
motivacion
motivo
motivos
motociclismo
motogp
motor
motorland
motors
motos
motril
mots
mott
mount
mountain
mountains
mouskouri
moustaki
movement
movendo
mover
movie
movies
movil
movilidat
movimento
movimiento
movimientos
moya
moyuela
mozambique
mozarabe
mozarabes
mozarabismo
mozarabismos
mozart
mozota
mp
mq
mr
mrs
ms
msnm
mt
mtv
mu
mucha
muchas
muchnik
mucho
muchos
mucosa
muda
mudechar
mudechars
muderna
muderno
mudernos
mudo
mueble
muebles
muel
muela
muelas
mueller
muelles
muera
muere
mueren
muert
muerta
muertas
muerte
muertes
muerto
muertos
mueso
muestra
muestran
muestras
mueve
mueven
muga
mugaba
mugan
mugando
mugant
mugants
mugas
muhammad
mui
muit
muita
muitas
muito
muitos
muixon
muixons
mujer
mujeres
mula
mulas
mulhausen
muller
mulleres
mullers
mulligan
mullon
multe
multimedia
multiple
multiples
multiplicacion
multiplo
multiplos
multitut
multiusos
munchen
mundart
mundial
mundialment
mundials
mundir
mundo
mundos
munebrega
muni
municat
munich
municipal
municipales
municipalidat
municipals
municipio
municipios
muniesa
munoz
munster
munt
muntenia
muqtadir
mur
muralla
murallas
murals
murat
murcia
murciacalo
murcian
murder
murel
murero
murie
muriel
murillo
murio
murioron
muro
muros
murphy
murray
murviedro
mus
musa
musclo
musclos
muscolino
muscular
musculars
museo
museos
museu
museum
museus
music
musica
musical
musicals
musicas
musico
musicos
mussolini
mustafa
mustain
mustela
musulman
musulmana
musulmanas
musulmans
muta
mutacion
mutacions
mutiny
muto
mutos
mutua
mutuament
muy
muyt
muytas
muyto
muytos
mv
mvp
mw
mx
my
myanmar
myspace
mystery
mz
n
n0
n1
n2
n3
n4
n5
n6
n7
n8
n9
na
nabarro
nace
nachera
nacho
nacidos
nacimiento
nacion
nacional
nacionalidat
nacionalidatz
nacionalismo
nacionalista
nacionalistas
nacionalizato
nacionals
naciones
nacions
nada
nadal
nadar
nagasaki
nagore
nagy
nahuatl
nai
naixe
naixedero
naixen
naixencia
naixer
naixida
naiximiento
naixio
naixioron
naixita
naixito
naixitos
naixiu
naixius
naked
nalon
name
named
names
namespace
namibia
nana
nanas
nancy
nano
nanos
nanterre
nantes
napa
napas
naples
napoleon
napoli
napolion
napolionicas
napolitan
napols
narancha
naranchas
narbona
narcea
narra
narracion
narracions
narrador
narrativa
nasa
nasal
nasals
nasarre
nash
nashville
naso
nassau
nat
nata
natacion
natal
natalia
natalie
natasha
nathan
nation
national
nationale
nationalsozialistische
nations
nativa
nativas
natividad
natividat
nativo
nativos
natura
naturae
natural
naturales
naturaleza
naturalista
naturalment
naturals
nature
nau
nauru
naus
nauticas
nava
navajo
naval
navallo
navals
navardun
navarra
navarras
navarrencs
navarres
navarret
navarro
navarroaragonesa
navarros
navas
navata
navatas
nave
navegable
navegacion
navegant
navegar
navia
navy
naxita
naya
nazaret
nazi
nazional
nazis
nazismo
nb
nba
nbl
nbr
nc
nd
ne
neal
near
nebar
nebata
nebosqueyar
nebot
nebraska
nec
necesaria
necesariament
necesarias
necesario
necesarios
necesidat
necesidatz
necropoli
ned
need
neerlandes
neerlandesa
neerlandesas
neerlandeses
neerlandismos
neeson
neez
negacion
negativa
negativas
negativo
negativos
nego
negociacions
negociar
negocio
negocios
negra
negras
negre
negreta
negro
negros
neil
neill
nel
nelson
neo
neoclasicismo
neoclasico
neolatinas
neolitico
neolochismos
neopatria
neozelandes
nepal
neptuno
nerbioi
nerin
nero
nes
nestes
nestor
net
netflix
network
neu
neue
neuilly
neumann
neuronas
neustadt
neustria
neutral
neutralidat
neutro
neutrons
neutros
nevada
never
nevera
new
newark
newcastle
newman
news
newton
next
nf
ng
nh
ni
nian
nicaragua
niccolo
nicea
niceforo
nicher
nicheria
nicholas
nichols
nicholson
nick
nicoforo
nicola
nicolas
nicolau
nicole
nieda
niedo
niedos
niega
niels
nielsen
niemeyer
niervos
niervoso
nieta
nieto
nieu
nieus
nieva
nieve
nieves
nigel
night
nigra
nikola
nikolai
nilo
nimes
nimoy
nin
nina
ninas
nineza
ningun
ninguna
ninguno
nino
ninons
ninos
nintendo
ninvia
ninviar
ninviato
ninvio
ninvioron
niquel
niro
nit
nitrocheno
niveau
nivel
nivels
niven
nixon
niza
nj
nk
nl
nm
nn
no
nobel
nobiembre
nobiliario
noble
nobles
nobleza
noche
nocion
nocito
nocturna
nocturnas
nocturno
nodulos
noe
noel
nogais
nogara
noguera
nogueras
nogueruelas
noi
noinclude
noir
noiret
nola
nolan
nolwenn
nom
nomada
nomadas
nomas
nombra
nombrada
nombramiento
nombran
nombrando
nombrar
nombrato
nombrau
nombraus
nombre
nombres
nombro
nombroron
nome
nomenclator
nomenclatura
nomenclaturas
nomenclature
nomes
nominacion
nominacions
nominada
nominal
nominals
nominata
nominativo
nominato
nomine
nomne
noms
non
nonasp
nonbre
nor
nora
nord
nordamerica
nordeste
nordica
nordico
nordoccidental
nordoriental
nordueste
noreste
norfolk
norma
normal
normalizacion
normalment
normals
norman
normanda
normandia
normando
normandos
normas
normativa
normativo
noroccidental
noroeste
nororiental
norren
norris
nort
norte
norteamerica
north
northern
northumberland
norton
noruega
noruego
noruegos
norueste
norwich
nos
nostra
nostri
not
nota
notable
notablement
notables
notacion
notar
notarial
notarials
notario
notas
note
notes
noticia
noticias
notizia
notre
notte
nou
nous
nouvel
nouvelle
nov
nova
novak
novallas
novel
novela
novelas
novelista
november
novempopulania
noves
novgorod
novi
novia
noviellas
noviembre
novo
now
np
nq
nr
ns
nsw
nt
nu
nuble
nubles
nuclear
nucleos
nucleyar
nucleyars
nuclio
nuclios
nueces
nuei
nueit
nueitz
nueno
nuestra
nuestras
nuestro
nuestros
nueu
nueva
nuevalos
nuevament
nuevas
nueve
nuevo
nuevos
nuez
nugoro
nuit
num
numancia
number
numbers
numbro
numbrosas
numbrosos
numer
numeracion
numeral
numerals
numerica
numero
numeros
numerosa
numerosas
numeroso
numerosos
nun
nunca
nunez
nuovo
nupcial
nuremberg
nuria
nurnberg
nusaltros
nusatros
nutrients
nv
nw
nx
ny
nyfcc
nytimes
nyudo
nz
o
o0
o1
o2
o3
o4
o5
o6
o7
o8
o9
oa
oaci
oak
oakland
oasis
oaxaca
ob
obago
obama
obarra
obb
obchectivo
obchectivos
obchecto
obchectos
obchetivo
obediencia
obertauern
obi
obispo
obituario
oblast
obliga
obligacion
obligacions
obligando
obligato
obligatoria
obligatorio
obligau
obligaus
obligo
obon
obra
obrador
obras
obrera
obrero
obrers
obridura
observa
observacion
observacions
observador
observar
observatorio
observatory
obsolescencia
obstaclo
obstaclos
obtencion
obtenendo
obtener
obtenio
obtenioron
obtenito
obtien
obtiene
obtienen
oc
oca
ocana
ocasion
ocasional
ocasionalment
ocasions
occ
occasion
occident
occidental
occidentals
occidente
occitan
occitana
occitanas
occitane
occitania
occitanismo
occitanismos
occitano
occitans
occitanveyer
ocde
ocean
oceania
oceanico
ocho
ocian
ocianica
ocians
ocio
oclc
oclusiva
oclusivas
october
octubre
ocupa
ocupaba
ocupaban
ocupacion
ocupada
ocupadas
ocupan
ocupando
ocupants
ocupar
ocupata
ocupato
ocupatos
ocupau
ocupaus
ocupo
ocuporon
ocurre
ocurrio
od
oder
odessa
odile
odisea
odiseu
odon
odra
odyssey
oe
oeste
of
ofensiva
off
office
official
oficial
oficialment
oficials
oficina
oficinas
oficio
oficios
ofizial
ofreix
ofreixe
ofreixen
og
ogiastra
oh
ohio
oi
oil
oiratos
oise
oj
ojo
ojos
ok
oklahoma
ol
ola
olaf
olalia
olalla
olaria
olba
old
olea
olga
oliba
oliet
oligoceno
olimpia
olimpiada
olimpica
olimpicas
olimpico
olimpicos
olio
olit
oliva
olivan
olivar
olivas
oliveira
olivenza
oliver
olivera
oliveras
olivia
olivier
olla
olmedo
olmos
olocau
olor
olot
olson
olt
oltenia
olvega
olympia
olympic
om
omaha
oman
omar
ombre
ombres
omega
omeya
omeyas
omezyma
omne
omnes
omnia
omnibus
oms
on
ona
onca
once
oncins
onda
ondas
one
ones
onis
online
only
onomastica
onor
onsella
onsera
onso
onsos
ont
ontario
ontenyent
ontinyena
onu
oo
op
opalo
opcion
opcions
opel
open
opera
operacion
operacions
operar
operas
operation
operativo
operativos
opina
opinion
opinions
oportunidat
oportunidatz
oposa
oposadas
oposan
oposato
oposau
oposicion
oposo
optica
optico
opus
oq
or
ora
orache
oracion
oracions
oral
oralment
oran
orange
oras
orba
orbita
orbital
orbitals
orbitas
orcos
orden
ordena
ordenacion
ordenar
ordenato
ordenau
ordeno
ordens
order
ordesa
ordinacion
ordinacions
ordinador
ordinadors
ordinario
ordines
ordino
ordio
ordiso
oregon
orella
orellas
orens
ores
orestes
org
organica
organicas
organico
organicos
organismo
organismos
organista
organiza
organizacion
organizacions
organizada
organizadas
organizador
organizan
organizar
organizata
organizatas
organizato
organizatos
organizau
organizaus
organizo
organizoron
organo
organos
orge
oria
orich
orichen
orichens
orichina
orichinal
orichinalment
orichinals
orichinan
orichinando
orichinar
orichinaria
orichinariament
orichinarias
orichinario
orichinarios
orichinato
orichinau
orichino
orichinoron
oricon
orient
orientacion
oriental
orientales
orientalis
orientals
orientation
oriente
origen
origenes
origin
original
origins
oriol
orion
oristan
oriuela
orlando
orleans
ormino
ornamental
ornamentals
ornitologo
oro
orochenia
orografia
oronimo
oronimos
oros
orosia
orquesta
orquestina
orquin
orrios
orson
ortega
ortes
ortiz
ortodoxa
ortodoxo
ortodoxos
ortografia
ortografica
ortograficament
ortograficas
orus
orwell
os
osal
osasuna
osca
oscar
oscense
oscila
osera
osetas
osetia
osia
osio
oskar
oskorri
oslo
osma
oso
osona
ossa
ostavals
ostenta
osterreich
ostrogodo
ostrogodos
oswald
ot
otago
otal
otan
otero
other
otin
oto
otoman
otomana
otomans
oton
otorgo
otra
otras
otri
otris
otro
otros
ottaviano
ottawa
otto
otubre
ou
ouest
oui
ouo
our
ourense
out
ov
ovario
ovarios
ovella
ovellas
over
overview
oviedo
ovis
ovo
ovulo
ovulos
ow
owen
owens
own
ox
oxenden
oxford
oxfordshire
oxicheno
oxidacion
oxido
oxidos
oy
oyiu
oz
ozcos
ozidental
ozores
p
p0
p1
p2
p3
p4
p5
p6
p7
p8
p9
pa
pabellon
pabillon
pablo
pac
pach
pacha
pacheco
pachina
pachinas
pacient
pacients
pacific
pacifica
pacifico
pacifista
pacino
paco
pacto
pactos
padarnin
padilla
padre
padres
padron
padua
pag
paga
pagaba
pagaban
pagan
pagana
paganos
pagans
pagar
pagas
page
pages
pagina
paginas
pago
pagos
pags
pai
paidos
pais
paisache
paisaches
paisaje
paisajes
paises
paixaro
paixaros
paixentar
pajares
pakistan
pakistani
pakula
pal
pala
palabra
palabras
palace
palacin
palacio
palacios
palafox
palais
palaiseau
palanca
palance
palancia
palas
palatal
palatalizacion
palatals
palatin
palatinato
palau
palautordera
palavras
palazios
palazzo
palencia
paleolitico
paleologo
paleontolochico
paleontologo
paleozoico
paleozoicos
palermo
palestina
palestins
palla
pallares
pallaresa
pallars
pallaruelo
pallas
palm
palma
palmares
palmas
palmos
palo
paloma
palomar
palomas
palomera
palomita
palomo
palomos
palos
pamias
pamplona
pan
panama
panamericans
pancracio
pancrudo
panda
pandemia
pandicosa
panel
panetz
panevezys
pangma
paniquesa
paniza
panizo
pano
panonia
panorama
pantalla
pantalons
pantano
pantasma
pantasmas
panteon
pantera
panther
panthera
panticosa
panticuto
panzer
panzertruppen
paolo
papa
papal
papas
papato
papel
papels
paper
papers
papo
papua
par
para
parabla
parabra
parabras
parache
paracuellos
parada
paradas
paradigma
paradise
paradiso
paraguai
paraiso
paralela
paralelament
paralelas
paralelo
paralelos
paralimpicos
paramera
parametros
paramo
paramos
parana
parando
paraninfo
parar
parasitos
paraula
parc
parcelas
parcial
parcialment
parda
pardiac
pardina
pardinas
pardo
pardos
pardus
parece
paredes
pareix
pareixca
pareixe
pareixeba
pareixen
pareixer
pareixida
pareixidas
pareixita
pareixitas
pareixito
pareixitos
pareixiu
pareixius
parella
parellan
parellana
parellanas
parellano
parellans
parellas
paremiologia
parentesco
parentesi
parentesis
paret
paretz
paricio
paridera
parient
parients
paris
park
parker
parks
parla
parlaba
parlaban
parlada
parladors
parlamentaria
parlamentario
parlamentarios
parlamento
parlan
parlando
parlant
parlants
parlar
parlars
parlas
parlata
parlato
parlau
parle
parma
parnell
paro
parola
parolas
parque
parques
parra
parras
parrilla
parroquia
parroquial
parroquias
pars
part
partaqua
parte
partecipa
partecipacion
partecipacions
partecipan
partecipando
partecipants
partecipar
partecipato
partecipo
partenkirchen
partenon
partes
parti
particion
participa
participacion
participan
participando
participants
participar
participato
participau
participio
participios
participo
participoron
particla
particlas
particular
particularidat
particularidatz
particularment
particulars
partida
partidario
partidarios
partidas
partido
partidos
partindo
partio
partir
partis
partisans
partit
partita
partitas
partitivo
partito
partitos
partiu
partius
parto
party
partz
parzan
parzana
pas
pasa
pasaba
pasaban
pasachers
pasada
pasan
pasando
pasaporte
pasar
pasara
pasaria
pasato
pasatos
pasau
pasaus
pascal
pascua
pascual
pase
paseyo
pasion
pasiva
pasivo
paso
pasoron
pasos
pasqua
pasqual
passa
passado
passage
passar
passe
passeriformes
passion
passo
passos
past
pasta
pastel
pasteur
pastor
pastorada
pastoradas
pastoreyo
pastors
pastos
pastriz
pastura
pasturas
pat
pata
patas
patent
patents
paterna
patient
patinache
patio
patria
patriarca
patriarcal
patriarcato
patrice
patricia
patricio
patrick
patrimoni
patrimonial
patrimonials
patrimonio
patrocinada
patrocinador
patrocinio
patron
patrona
patronal
patronals
patronato
patrons
patues
pau
paul
paula
pauli
paulo
pauls
paulus
pavel
pavese
pavia
pavillon
pavimento
pavlo
pavo
paxaro
paye
pays
paz
pazinacos
pb
pc
pce
pd
pdf
pe
peache
peaches
peak
pearl
pebre
pecico
peciolo
peck
peco
peculiar
pedagochia
pedagogo
pedania
pedanias
pedir
pedra
pedregal
pedregosa
pedrenya
pedrera
pedreras
pedres
pedro
pedrola
pedrosa
pedroso
pego
pegunta
peira
peiron
peita
peito
peix
peixes
pekin
pel
pela
pelache
pelaire
pelarda
pelayo
pelegrin
pelegrinache
pelegrins
pelicula
peliculas
pelleta
pellicer
pelo
pelophylax
pelopin
peloponiso
pelos
pels
pena
penafiel
penal
penamellera
penar
penaranda
penarroya
penas
pende
pendeba
penden
pendendo
pendient
pendients
pendiu
pene
penedes
penelope
penetracion
penguin
peniella
penilla
peninsula
peninsular
peninsulars
peninsulas
peniscola
penn
penna
pennsilvania
pennsylvania
penny
pensaba
pensamiento
pensamientos
pensando
pensar
pensilvania
pension
pensions
penso
pentecosta
penya
penyaflor
penyagolosa
penyalba
penyarroya
penyas
penyon
people
pepe
pepin
peppers
pequena
pequeno
pequin
per
pera
peracens
perafita
peral
peralellos
perales
perals
peralta
percepcion
percha
percibe
percibir
percullo
percusion
perda
perdeba
perdendo
perder
perdices
perdida
perdido
perdiguera
perdiguero
perdio
perdioron
perdito
perdiu
perdius
perdiz
perdon
perduga
perdugas
pere
pereira
pereiro
perello
peren
perez
perfecta
perfectament
perfecto
perfectos
perfil
perfume
perfumes
periferia
perifericas
perifrasi
perifrasis
perifrastico
periglo
periglos
perigloso
periglosos
perimetro
periodica
periodicament
periodico
periodicos
periodismo
periodista
periodistas
periodo
periodos
perkins
perlas
permaneixe
permaneixer
permaneixio
permanent
permanents
permeso
permiso
permitan
permite
permiten
permitiba
permitindo
permitio
permitioron
permitir
pernil
pero
peros
perpendicular
perpendiculars
perpetua
perpetuo
perpinyan
perque
perrault
perry
persa
persan
persans
persas
persecucion
persia
persico
persismo
persismos
persiste
person
persona
personache
personaches
personajes
personal
personalidat
personalidatz
personalment
personals
personas
personne
perspectiva
perspectivas
perteneix
perteneixe
perteneixeba
perteneixeban
perteneixen
perteneixent
perteneixer
perteneixient
perteneixients
perteneixio
perteneixioron
pertenencia
pertenexient
pertenexio
perth
pertinenciis
pertinentiis
pertusa
peru
peruan
peruana
peruano
perugia
pervivencia
pesa
pesan
pesar
pesato
pesatos
pesau
pesaus
pesca
pescador
pescar
pescataire
pescataires
pescau
peso
pesos
pest
peste
peta
petain
petalos
pete
peter
peters
petersburgo
petersen
peticion
petiella
petit
petite
petra
petralba
petri
petro
petrolio
peu
peugeot
peyor
peyorativo
pez
pf
pfarrkirche
pg
ph
phantom
pharies
phasianus
phi
phil
philadelphia
philip
philipp
philippe
phillip
phillips
philologie
philosophical
philosophy
phoenix
php
phu
physical
physics
pi
piacenza
piadoso
pianista
piano
pias
piatonal
piatons
piazza
pib
pic
pica
picada
picar
picardia
picardo
picasso
picata
pichera
pico
picoche
picos
pictorica
picture
pictures
picueta
pidal
pide
pidgeon
pidio
pie
piedad
piedat
piedra
piedrafita
piedrahita
piedras
piel
piemont
piensa
piensan
pienso
pier
pierce
pierde
pierden
piero
pierre
piet
pieter
pietra
pietro
pietz
pieza
piezas
pigmentacion
pignatelli
pila
pilar
pilars
pilas
pilla
pillar
pilona
pilota
piloto
pilotos
pimiento
pin
pina
pinar
pinares
pinars
pineda
pineta
piniecho
piniello
pinilla
pink
pinna
pino
pinos
pins
pintada
pintanos
pinto
pintor
pintora
pintors
pintura
pinturas
pinus
pinyin
pio
pionero
pioners
pior
pique
piquetas
piramide
pirata
piratas
pirateria
pirenaico
pirenaicos
pirenenca
pirenencas
pirenenco
pirenencos
pireneu
pireneus
pirinenco
pirineo
pirineos
pirineu
pirineus
pisa
piscina
piscinas
piso
pisos
pista
pistas
pistols
pisuerga
pita
pitarc
pitarch
piteus
pitt
pittsburgh
piu
pivot
pizco
pizza
pj
pk
pl
pla
placa
placas
place
placentarios
placer
places
placha
plachas
plaga
plagas
plains
plan
plana
planas
planck
planes
planet
planeta
planetario
planetary
planetas
planificacion
planken
plano
planos
plans
planta
plantacions
plantar
plantas
planteya
plantilla
plantillas
plants
plasenca
plasencia
plasma
plasticas
plastico
plasticos
plata
plataforma
plataformas
platano
platero
platiellos
platin
plato
platon
platos
platt
play
playa
player
players
playstation
plaza
plazas
plazo
pleber
plebia
plega
plegaba
plegaban
plegada
plegan
plegando
plegar
plegata
plegato
plegatos
plegau
plegaus
plego
plegoron
plegos
plegue
pleistoceno
pleito
pleitos
plen
plena
plenament
plenas
pleno
plenos
plesiomorfia
pleso
pleve
plever
plevia
plevias
plevida
plevidas
plinio
plioceno
pllobia
plomache
plomo
plorar
plou
plu
pluma
plumache
plumas
plummer
plural
plurals
plus
plusquamperfecto
plutarco
pluton
plzen
pm
pmid
pn
pneumonia
po
pobla
poblacion
poblacional
poblacionales
poblacionals
poblacions
poblada
pobladas
pobladores
pobladors
poblamiento
poblar
poblata
poblatas
poblato
poblatos
poblau
poblaus
poble
poblet
poblla
pobo
pobra
pobre
pobres
pobreza
poca
pocas
pocetz
pocha
pocino
pocklington
poco
pocos
podarcis
podeba
podeban
podemos
podendo
poder
poderba
poderban
poderosa
poderoso
poderosos
poders
podese
podesen
podia
podio
podioron
podium
podolia
podra
podran
podria
podrian
poema
poemas
poesia
poesias
poeta
poetas
poetesa
poetica
pogroms
poi
point
pointe
poisson
pokemon
pol
pola
polaca
polacas
polaco
polacos
polanski
polar
polars
polemica
polemico
polen
police
policia
policial
policy
polida
polidas
polideza
poliesportivo
poligonal
poligono
polinesia
polinizacion
polinya
polita
politas
politecnica
politeismo
politica
politicament
politicas
politico
politicos
politics
polito
poliu
polje
poljes
pollack
polletz
pollo
pollos
polmons
polo
polones
polonia
polos
polvo
polvora
pomar
pomerania
pomo
pompeya
pompeyo
pon
pondiellos
ponent
pongo
ponient
pons
pont
ponte
pontevedra
pontificato
pontificia
pontificios
pontinha
ponzano
pop
popa
popular
populares
popularidat
popularment
populars
population
populus
poquet
poqueta
poquetas
poquetz
por
pora
porcelana
porcentache
porcion
porno
poro
porque
porron
port
porta
portadors
portal
portalada
portalet
portar
portavoz
porte
portellada
porter
porteria
portero
porters
porteth
portiar
portiello
portillo
portillon
portland
porto
portrait
portugal
portugues
portuguesa
portuguesas
portugueses
pos
posa
posada
posadas
posan
posar
posato
posau
poseeye
poseidon
posesion
posesiones
posesions
posesivo
posesivos
posets
poseye
poseyen
poseyer
posibilidat
posibilidatz
posible
posiblement
posibles
posicion
posicions
positiva
positivas
positivo
positivos
poso
posoron
post
postal
postalital
posterior
posterioridat
posteriorment
posteriors
postguerra
postre
postres
postuma
postumo
postura
pot
potasio
pote
potencia
potencial
potencials
potencias
potent
potente
potestat
potsdam
potter
pottier
pounamu
pour
powell
power
powers
poyo
poza
pozal
pozo
pozondon
pozos
pozuel
pozuelo
pp
pq
pr
practica
practicament
practican
practicar
practicas
practicato
practicatos
practico
prada
pradas
prades
pradesh
pradilla
prado
praga
prames
prat
prato
pratos
prats
pratt
prau
praus
pravia
pre
preba
prebaba
prebaban
prebable
prebablement
preban
prebando
prebar
prebas
prebatina
prebatinas
prebo
preboron
precede
precedent
precedido
precio
preciosas
precipitacion
precipitacions
precisa
precisament
precisan
precisar
precision
preciso
precursor
predecesor
predomina
predominan
predominancia
predominant
predominantment
predominants
predominio
prefectura
prefecturas
preferencia
preferent
prefiere
prefieren
prefixo
prefixos
pregunta
preguntar
preguntas
pregunto
prehistoria
prehistorico
prehistoricos
preishac
preliminar
premia
premiar
premiato
premiatos
premier
preminger
premio
premios
premite
premiten
premitio
prencipal
prencipalment
prencipals
prencipato
prencipe
prencipes
prencipia
prencipiaba
prencipian
prencipiando
prencipiar
prencipiato
prencipiau
prencipio
prencipioron
prencipios
prenda
prendas
prender
prene
preneba
preneban
prenen
prenendo
prener
prenio
prenioron
prensa
prensas
prenuncia
prenunciacion
prenunciar
prenunciato
prenunciau
prenunziazion
preocupacion
prep
prepalatal
prepara
preparacion
preparador
preparar
prepirenenca
prepirenencas
prepirenenco
prepireneu
preposicion
preposicional
preposicions
prerroman
prerromana
prerromanas
prerromano
pres
presa
presas
presbiterio
presencia
present
presenta
presentaba
presentaban
presentacion
presentada
presentador
presentadora
presentan
presentando
presentar
presentata
presentau
presente
presentes
presento
presents
preservar
presidencia
presidencials
president
presidenta
presidente
presidents
presididas
presidio
presiego
presienta
presientan
presion
presions
presley
preso
presona
presonache
presonaches
presonal
presonalidat
presonalidatz
presonals
presonas
presos
presov
press
presses
presta
prestichio
preston
presupuesto
presupuestos
preta
pretende
pretendeba
pretendient
pretendients
preterito
preto
preu
prevencion
prevenir
previa
previament
previas
previo
prevista
previsto
prevoca
prevoco
priberam
price
pride
prieto
prim
prima
primaria
primarias
primario
primarios
primas
primates
primavera
primer
primera
primerament
primeras
primerenca
primerenco
primerias
primero
primeros
primers
primicias
primitiva
primitivas
primitivo
primitivos
primo
primochenito
primos
prince
princeps
princesa
princess
princeton
principado
principal
principalment
principals
principato
principatos
principaus
principe
principes
principia
principio
principios
prior
priorat
priorato
prision
prisionero
prisioners
priso
prisoner
priva
privada
privadas
privando
privar
privata
privatas
private
privato
privau
privilechio
privilechios
prix
prize
pro
probabilidat
probable
probablement
probables
problema
problemas
problematica
proc
procede
proceden
procedencia
procedent
procedents
procedimiento
procedimientos
proces
procesador
procesadors
procesamiento
procesion
procesions
proceso
procesos
procheccion
prochecto
prochectos
prochenitor
proclama
proclamacion
proclamando
proclamar
proclamato
proclamau
proclamo
proclamoron
procurador
produccion
produccions
produce
producen
produciba
produciban
producida
producindo
producio
producioron
producir
producita
producito
produciu
production
productivas
productividat
productivo
producto
productor
productora
productoras
productors
productos
produeita
produeito
produz
produzca
profesion
profesional
profesionalment
profesionals
profesor
profesora
profesors
professional
profeta
profile
profunda
profundas
profundidat
profundo
profundos
programa
programacion
programas
progresista
progresiva
progresivament
progresivo
progreso
progress
progressive
prohibicion
prohibio
project
prolarga
prologo
prolongacion
promana
promesa
prometio
promeyo
prominencia
prominents
promocion
promocionar
promover
pron
pronombre
pronombres
pronominal
pronominals
pronomino
pronto
pronuncia
pronunciaba
pronunciacion
pronunciada
pronuncian
pronunciar
pronunciato
pronunciau
propagacion
propaganda
propia
propiament
propias
propiedat
propiedatz
propietaria
propietario
propietarios
propio
propios
proporcion
proporciona
proporcional
proporcionan
proporcionar
proporcions
proposa
proposar
proposata
proposato
proposau
proposicion
proposicions
proposito
propositos
proposo
propuesta
propuestas
propulsion
prosa
prosperidat
prospero
protagonista
protagonistas
protagonizada
protagonizata
proteccion
proteche
protecher
protechida
protechidas
protechita
protechitas
protechito
protechitos
protechiu
protechius
protector
protectora
protectorato
proteina
proteinas
protesi
protesta
protestant
protestantismo
protestants
protestas
proto
protochermanico
protocolo
protocolos
proton
protons
prototipo
prou
prouincia
prous
prout
prova
provenca
proveniba
proveniban
provenient
provenients
provenir
provenza
provenzal
providence
provien
proviene
provienen
provincia
provincial
provincials
provincias
provinient
provinients
provisional
provoca
provocando
provocar
provoco
proxima
proximidat
proximo
proyecto
prudencia
prudencio
prueba
pruebas
pruna
prunus
prusia
prusian
prusiana
prusians
ps
psa
pseudonimo
psicolochia
psicologo
psiquiatra
psoe
psychology
pt
ptolomeu
pu
public
publica
publicacion
publicaciones
publicacions
publicada
publicament
publicar
publicas
publicata
publications
publicato
publicatos
publicau
publicaus
publicazions
publicidat
publico
publicoron
publicos
publishers
publishing
pubs
pudia
pudo
puebla
pueblo
pueblos
pueda
puedan
puede
pueden
puedo
puegbonieu
puei
puens
puent
puente
puents
puerco
puerta
puertas
puerto
puertolas
puertomingalbo
puertomingalvo
puertos
pues
puesta
puesto
puestos
puet
puetz
pueyo
pueyos
pui
puig
puis
pulgadas
pulgar
pulitzer
pulla
puma
punchar
punchas
punda
punica
punk
punta
puntal
puntas
punto
puntos
puntuacion
puntualment
puntuals
pur
pura
purament
puras
purchena
pure
pureza
purificacion
purisma
purna
puro
purroi
purroy
purullosa
pus
puso
putin
puy
puya
puyaba
puyada
puyadas
puyalon
puyan
puyando
puyar
puyarruego
puyata
puyato
puyo
puyol
puzo
pv
pw
px
py
pyrenaica
pyrenees
pyrus
python
pz
q
q0
q1
q2
q3
q4
q5
q6
q7
q8
q9
qa
qasi
qatar
qb
qc
qd
qe
qf
qg
qh
qi
qin
qing
qj
qk
ql
qm
qn
qo
qp
qq
qr
qs
qt
qu
qua
quaderns
quadra
quadrada
quadrata
quadrato
quadratos
quadrau
quadraus
quadrilla
quadro
quadros
quagga
quaid
qual
quala
qualas
qualcosa
quales
qualidat
qualidatz
qualo
qualos
qualque
qualquecosa
qualques
quals
qualsequier
qualsiquier
qualsiquiera
quam
quan
quand
quando
quang
quantas
quantica
quantidat
quanto
quantos
quaranta
quarcita
quart
quarta
quartel
quartels
quarto
quartos
quarz
quasi
quaternarios
quaternato
quatre
quatrena
quatreno
quatro
que
quebec
quechua
queda
quedaba
quedaban
quedan
quedando
quedar
quedato
quedau
quede
quedo
quedoron
queen
queens
queensland
queenstown
quefer
quefers
queiles
queixas
quel
quelques
quentin
quercus
quereba
quereban
queremos
querer
queria
queriendo
querio
quesada
queso
quesos
quest
question
questions
quevedo
qui
quicena
quid
quien
quier
quiera
quiere
quieren
quiero
quiers
quiesto
quijote
quilez
quimica
quimicas
quimico
quimicos
quince
quincy
quinn
quinta
quintana
quintanilla
quinto
quinton
quinyon
quir
quirze
quiso
quita
quitan
quitar
quitato
quiteria
quito
quitoron
quod
quomodo
qv
qw
qx
qy
qz
r
r0
r1
r2
r3
r4
r5
r6
r7
r8
r9
ra
rabadan
rabal
rabanyo
rabanyos
rabosa
rabosas
race
races
rachel
racial
racing
racional
racismo
rada
radar
radedor
radedors
radiacion
radial
radical
radicals
radices
radio
radios
radiquero
radiz
rae
raf
rafael
rafaela
rafals
rafe
rafel
ragudo
ragusa
rahman
rai
railway
raimundo
rain
rainbow
rainer
raj
rajoy
ralla
rallas
rally
ralph
ram
rama
ramas
rambla
ramblas
rami
ramirez
ramiro
ramon
ramones
ramos
ran
rana
ranas
ranca
rancho
randall
random
ranes
rango
ranidae
ranking
rans
ranyin
raoul
raoult
rap
rapeda
rapedament
rapedo
rapida
rapidament
rapideza
rapido
rapids
rapinyadera
rapinyaderas
raquel
rara
rarament
raras
raro
raros
ras
rasgo
rasgos
raso
rata
rathaus
rathbone
rationes
ratisbona
rato
raton
ratos
rattus
raul
ravenna
ray
raya
rayas
raymond
rayo
rayos
raza
razas
razin
razon
razones
razons
rb
rc
rcd
rd
rda
re
rea
reaccion
reacciona
reaccionar
reaccions
reactivo
reading
reagan
real
reales
realidat
realismo
realiza
realizacion
realizada
realizadas
realizan
realizar
realizata
realizato
realizau
realizo
realment
reals
rebecca
rebel
rebelde
rebeldes
rebelion
rebels
reblar
rebollar
rebolledo
recaredo
recaudacion
recenta
recepcion
receptor
receptors
receta
recetas
rechencia
rechent
rechimen
rechimiento
rechion
rechional
rechionals
rechions
rechira
rechirar
rechiras
rechistra
rechistrada
rechistran
rechistrar
rechistrau
rechistro
rechistros
rechola
recholas
recibe
reciben
recibiba
recibiban
recibindo
recibio
recibioron
recibir
recibito
recibitos
recibiu
recient
recientment
recients
recinto
recio
recipient
recipients
reclama
reclamar
reclamo
recoleccion
recollita
recolon
recolons
recomienda
reconoix
reconoixe
reconoixeba
reconoixen
reconoixencia
reconoixer
reconoixible
reconoixida
reconoiximiento
reconoixio
reconoixioron
reconoixita
reconoixitas
reconoixito
reconoixitos
reconoixiu
reconoixius
reconquerir
reconquiesta
reconquiesto
reconquista
reconstruccion
reconstruir
reconstruita
reconstruito
reconstruyita
recopa
recopilacion
record
recordar
records
recorre
recorren
recorrer
recorrido
recorrito
recorriu
recta
rectangular
recto
rector
rectore
recuenco
recuerda
recuerdo
recuerdos
reculle
recullen
recullio
recullir
recullita
recupera
recuperacion
recuperando
recuperar
recuperau
recupero
recuperoron
recurrent
recurrents
recurso
recursos
red
redaccion
redacto
redford
redgrave
redol
redolada
redoladas
redolata
redonda
redondas
redondo
redota
redotan
redotando
redotar
redotato
redoto
redotoron
reduccion
reduce
reducindo
reducio
reducir
reducito
reduciu
redueita
redueito
reed
reedicion
reemplazar
reemplazo
reendreza
reeves
ref
reference
referencia
referencias
referendum
referent
referents
referenzia
referiba
referindo
referir
referiu
refiere
refieren
refirma
refirman
refirmando
refirmar
refirme
refirmo
refirmoron
reflecta
reflectan
reflexion
reflexo
reforma
reformas
reformata
reforzar
refranes
refuchiar
refuchiato
refuchiatos
refuchiaus
refuchio
refuchioron
refugio
refus
refusa
refusan
refusar
refuso
refusoron
regacho
regadio
regajo
regallo
regalo
regano
reganos
regar
reggae
reggio
regia
regina
reginald
regio
region
regional
regis
regla
reglamento
reglas
regles
regna
regne
regni
regno
regnos
regresiva
reguero
regula
regulacion
regulan
regular
regularidat
regularment
regulars
regum
rehabilitacion
rei
reial
reich
reichstag
reims
reina
reinado
reinas
reinato
reinau
reine
reiner
reinhard
reino
reinos
reis
reivindicacion
reivindicacions
relacion
relaciona
relacionada
relacionadas
relacionan
relacionar
relacionata
relacionatas
relacionato
relacionatos
relacionau
relacionaus
relaciones
relacions
relativa
relativament
relativas
relatividat
relativo
relativos
relato
relatos
release
releu
releus
relevancia
relevant
relevants
relevos
relichion
relichions
relichiosa
relichiosas
relichioso
relichiosos
relieu
relieve
religion
religiosas
reliquias
rella
reloch
remane
remaneix
remanio
remanir
remata
remataba
rematada
rematadas
rematan
rematando
rematanza
rematanzas
rematar
rematara
rematata
rematato
rematatos
rematau
remataus
remate
remato
rematoron
remedio
remember
remera
remeranza
remerar
remiriz
remiro
remo
remolacha
remolinos
remon
remonta
remontan
remontant
remontar
rems
remunye
renaissance
renaixentista
renaiximiento
renan
renania
renanue
renato
renault
renda
rendas
rendicion
rendimiento
rendre
rene
renee
renera
renfe
reno
renoir
renovables
renovacion
renta
rentas
renuncia
renunciar
renuncio
reorganizacion
reparacions
reparo
reparten
repartiment
repartir
reparto
repavalde
repercusion
reperos
repertorio
repeticion
repetir
repite
replega
replegan
replegar
replegau
replego
repoblacion
repoblacions
repobladors
repoblo
report
reportache
reposo
representa
representaba
representaban
representacion
representacions
representada
representan
representando
representant
representants
representar
representata
representativa
representativo
representativos
representato
representatos
representau
representaus
represento
represienta
represientan
represion
reproduccion
reproducen
reproducir
reproductor
reproduz
reptils
republic
republica
republican
republicana
republicanas
republicano
republicans
republicas
republika
repui
repuis
reputacion
requena
requesta
requiere
requieren
requisitos
res
rescatar
rescate
research
reserva
reservas
reside
residencia
residencial
residencials
residencias
resident
residentes
residents
residual
residuos
resina
resiste
resisten
resistencia
resistent
resistents
resistio
resistir
resolucion
resolver
resonancia
respectivament
respectivas
respective
respectives
respectivos
respecto
respeto
respiracion
respiratorio
respomuso
responde
responden
responder
respondio
responsabilidat
responsable
responsables
respuesta
respuestas
resta
restas
restauracion
restaurada
restaurant
restaurants
restaurar
restaurata
restaurato
restaurau
resto
restos
restriccions
resulta
resultan
resultando
resultant
resultar
resultas
resultato
resultatos
resultau
resultaus
resulto
results
resumen
resurreccion
ret
retablo
retablos
retacular
retacule
retaguardia
retascon
rete
retina
retirada
retirar
retirata
retirato
retirau
retiro
reto
retorica
retorno
retrato
retratos
retrieved
retuerta
return
retz
reunificacion
reunio
reunion
reunions
reunir
reus
rev
revel
revela
revelacion
revelo
reverso
reves
review
revilla
revision
revista
revistas
revolucion
revolucionaria
revolucionarias
revolucionario
revolucionarios
revolution
revue
revuelta
revueltas
rex
rey
reyal
reyalizar
reyals
reyes
reykjavik
reyno
reynolds
rf
rfea
rfef
rg
rh
rhiannon
rhode
rhythm
ri
ria
riada
riaza
rib
riba
ribagorca
ribagorza
ribagorzana
ribagorzanas
ribagorzano
ribagorzanos
ribarroya
ribas
ribeira
ribera
riberas
ribes
ribota
ric
rica
ricardo
ricas
rice
richard
richardson
riche
richmond
richter
richthofen
rick
rickard
rickman
ricky
ricla
rico
ricos
ricot
ride
ridley
riego
riello
rien
riera
riesgo
rif
rift
riga
rigachuelo
rigachuelos
right
rights
riglos
rimas
rin
rincon
ring
ringlera
ringleras
rings
rinoceront
rins
rinyons
rio
riocha
riochan
rioja
rione
rios
ripa
ripas
ripera
ripley
ripoll
ripolles
ripuario
riqueza
riquezas
ris
riscla
rise
risgo
risgos
risi
rita
ritchie
ritmica
ritmo
ritmos
rito
ritos
ritter
ritual
rituals
riu
rius
rival
rivalidat
rivals
rivas
river
rivera
riviere
rivo
rivum
rizos
rj
rk
rl
rm
rn
ro
roa
road
roan
rob
robards
robbins
robert
roberto
roberts
robertson
robin
robinson
robles
robot
robots
robre
robres
robson
roc
roca
rocafort
rocas
rocha
roche
rochelle
rocher
rock
rocket
rocks
rockstar
rocky
rocosa
rocosas
rocoso
rod
roda
rodache
rodas
rodellar
rodenas
rodeno
rodentia
rodes
rodeya
rodeyan
rodeyato
rodeyau
rodia
rodiada
rodian
rodiata
rodiato
rodiau
rodio
rodo
rodolfo
rodrigo
rodrigues
rodriguez
roger
rogers
roglan
rogue
rohlfs
roi
roig
roine
roja
rojas
rojo
rol
roland
roldan
rolde
role
roll
rolland
rolling
roma
roman
romana
romanas
romance
romancero
romances
romane
romani
romania
romanica
romanicas
romanico
romanicoaragones
romanicos
romanio
romanizacion
romano
romanos
romans
romantica
romanticismo
romantico
romanya
romanz
romareda
rome
romeo
romeral
romeria
romerias
romero
romeu
rommel
romper
romulo
ron
ronald
ronaldo
roncal
roncales
roncesvals
ronda
rondas
room
rooney
roosevelt
ropa
ropas
roque
roques
ros
rosa
rosacias
rosada
rosales
rosalia
rosalind
rosario
rosas
roscoe
rose
rosellon
rosenberg
rosenheim
roses
roseta
ross
rossellini
rossello
rossi
rostro
rota
rotacion
rotas
rote
roth
rotorua
rotten
rotterdam
rouben
rouge
round
routledge
roy
roya
royal
royas
royenca
royisca
royo
royos
royuela
roz
rp
rq
rr
rra
rregno
rs
rss
rsssf
rt
ru
ruanda
ruben
rubi
rubia
rubiales
rubielos
rubio
rubiuelos
ruby
rudio
rudolf
rudolph
rue
rueca
rueda
ruedas
ruello
ruellos
ruesta
rugby
rugen
ruinas
ruiz
rules
rum
ruman
rumana
rumanch
rumania
rumano
rumans
rumanveyer
rumbo
rumelis
run
runas
rundstedt
runner
rupert
rupestre
rupestres
ruptura
rural
rurals
rus
rusa
rusas
rush
rusia
rusio
ruso
rusos
russell
russia
russian
rustica
ruta
rutas
rutenia
rutens
ruth
rutherford
rv
rw
rx
ry
ryan
ryder
rz
s
s0
s1
s2
s3
s4
s5
s6
s7
s8
s9
sa
saba
sabadell
sabado
sabana
sabanas
sabaris
sabastian
sabe
sabeba
sabemos
saben
saber
sabet
sabiduria
sabina
sabinanigo
sabinar
sabinars
sabinas
sabino
sabinyan
sabio
sable
sabocos
sabor
saboya
sabre
sabuco
saca
sacando
sacar
sacerdot
sacerdotz
sacher
sachitario
saco
sacos
sacra
sacramento
sacre
sacrificio
sacristan
sacristia
sacro
sadaba
sadurni
saelices
saenz
safavida
safor
saga
sagrada
sagrata
sagrato
sagrau
sagunto
sahara
said
saint
sainte
sainz
sais
sal
sala
salada
salagons
salamanca
salamandra
salamandridae
salamero
salario
salas
salazar
salce
saldana
saldon
salduie
sale
salen
sales
salias
saliba
salida
salinar
salinas
salindo
salio
salioron
salir
salita
salle
sallent
sally
salmo
salomon
salon
salonica
sals
salsa
salt
salto
saltos
salud
saludas
salut
salva
salvache
salvaches
salvachua
salvador
salvar
salvat
salvatierra
salvatore
salvii
salvo
salz
salzburg
salzburgo
salze
sam
samartin
same
sami
samianigo
samitier
samoa
samper
samuel
san
sana
sanabria
sancha
sanchez
sancho
sancta
sancte
sancti
sancto
sand
sanders
sandra
sane
sang
sangre
sanguesa
sanguinios
sanidat
sanitaria
sanitario
sankt
sanlucar
sano
sanroman
sans
sanscrito
sant
santa
santamaria
santana
santander
santas
santes
santet
santi
santiago
santibanez
santillana
santisma
santismo
santmigalada
santo
santolaria
santos
santu
santuario
sanz
sao
saona
sape
saper
sapiens
saputo
saques
saqueyo
sar
sara
sarah
sarajevo
sarandon
saraqusta
sarasaz
saraviello
saravillo
sarchento
sarda
sardo
sargantana
sarguera
sarinena
sarinyena
sarlle
sarmatas
saroihandy
sarra
sarrablo
sarrampion
sarrastanyo
sarrat
sarratias
sarrato
sarrau
sarre
sarria
sarrion
sarrios
sarroca
sarron
saruman
sas
sasa
sasanida
sasau
saso
sasser
sastago
sastre
satelite
satelites
satisfer
sativa
satue
saturn
saturno
sau
saud
saudi
saunc
saura
sauron
sauvaterra
sava
save
saves
savoir
savoya
saxofonista
saxon
saxonia
saxons
say
sayago
sayeta
sb
sc
scala
scena
scenario
scenarios
scenas
scenic
schaan
schaffner
scheider
schell
schellenberg
schindler
schlesinger
schleswig
schloss
schmidt
schneider
school
schubert
schumacher
schutzstaffel
science
sciences
sciencia
sciencias
scientific
scientifica
scientificament
scientificas
scientifico
scientificos
scientology
scision
scisma
scitas
scola
scorsese
scotland
scott
scripta
scrofa
sd
se
sea
sean
search
seas
season
seat
seattle
sebastian
sebastopol
sec
seca
secano
secas
seccion
seccions
secesion
secesionismo
sechismundo
secilia
secilian
secilianas
secilias
seco
second
secos
secret
secreta
secretaria
secretario
secreto
secretorum
secretos
secta
section
sector
sectors
secundaria
secundarias
secundario
secundarios
secundum
secus
seda
sede
sedentarios
sedimentacion
sedimentaria
sedimentarias
sedimentarios
sedimento
sedimentos
see
sefarad
sefardi
sefardies
sefardis
sega
segadors
segal
segarra
segeda
segmento
segmentos
segorb
segorbe
segovia
segre
segria
segrian
segu
seguiba
seguiban
seguida
seguidas
seguidors
seguimiento
seguindo
seguir
seguita
seguito
seguiu
seguius
segun
segunda
segundaria
segundario
segundas
segundo
segundos
segunt
seguntes
segura
segurament
seguranza
seguras
seguridat
seguro
seguros
sei
sein
seine
seira
seis
seisena
seiseno
seix
sel
selba
seleccion
seleccions
selected
selezion
sellers
sellier
selva
selvagem
selvagens
selvas
selznick
semana
semanal
semanas
semantica
semanticament
semantico
semanticos
semblant
semblantes
semblants
sembrar
semellant
semellants
semen
semi
semicercular
semicircular
semicultismo
semicultismos
semifinals
semilars
seminario
semir
semitica
semiticas
semontanes
semontano
semontanos
semper
sempre
sen
sena
senador
senato
senau
sencilla
sencillo
senda
sender
senderismo
sendero
senders
sendicalista
sendicals
sendicato
sendicatos
senegal
senegue
senes
senia
senior
sennificato
seno
senor
senora
senoria
senorio
sensacion
sense
sensibilidat
sensible
sent
senta
sentencia
sentiba
sentido
sentimiento
sentimientos
sentir
sentito
sentitos
sentiu
sentius
senyal
senyor
senyora
senyores
senyoria
senyorio
seo
sep
sepalos
separacion
sepoltura
september
septentrional
septentrionals
septiembre
septimania
sepulcre
sepulcro
sepultura
sepulveda
sequela
sequelas
sequencia
sequencias
sequera
ser
sera
seran
serba
serbia
serbio
serbisca
serbisco
serbo
serbos
sercue
serena
seres
serge
sergei
sergi
sergio
seria
serian
serie
series
serio
serkis
sermon
serna
serols
seron
serors
seros
serpient
serpients
serra
serrablo
serram
serrania
serranias
serrano
serrans
serras
serrat
serrato
serreta
sers
sertorio
servet
serveto
serviba
serviban
service
servicio
servicios
servidor
servidors
servir
servitut
serviu
ses
seseyo
sesion
sesions
sesma
sesue
set
seta
setanta
setena
seteno
setiembre
setio
setios
setze
seu
seul
seus
seuvestre
seven
sevenfold
severino
severo
sevilla
sevres
sex
sexma
sexmas
sexo
sexos
sexto
sexual
sexualidat
sexuals
seyendo
seyer
seymour
seynor
sf
sg
sh
shadows
shah
shakespeare
shalossa
shanghai
sharif
sharon
shatner
shaw
she
shearer
sheffield
shelley
shepard
sheridan
sherman
shirley
shisha
shogun
shore
short
show
showall
shtml
si
sia
siaglo
siam
sian
siauliai
siberia
sibila
sibirana
sibiu
sic
sica
sicilia
sicut
sid
sida
side
sidney
sidra
sie
siecle
siede
siega
siegel
sieglas
sieglo
sieglos
siella
siello
siemens
siempre
siena
siendo
siente
sienten
siero
sierra
sierras
sieste
siet
siete
sietemo
sietena
siga
sigan
sigla
siglas
siglo
siglos
sigmund
signa
signatura
significa
significaba
significan
significando
significar
significaria
significativa
significativament
significativas
significativo
significato
significatos
significau
significaus
significo
signo
signoret
signos
sigourney
sigue
siguen
siguenza
sigues
siguient
siguients
siguindo
siguio
siguioron
sil
silaba
silabas
silbia
silence
silencio
silesia
silica
silicio
silla
silos
silva
silvan
silvana
silver
silvestre
silvestres
silvia
silvio
sima
simbolica
simbolismo
simboliza
simbolo
simbolos
simeon
simetria
simient
simients
similar
similars
simmons
simon
simone
simpla
simplament
simplas
simple
simplement
simples
simplificacion
simplificato
simpson
simultaneidat
simultaniament
sin
sinai
sinatra
since
sinclair
sinclinal
sincopa
sind
sindembargo
sindicato
sindrome
singapur
singer
single
singles
singular
singulars
sino
sinoga
sinonimo
sinonimos
sinopticos
sinse
sint
sintagma
sintagmas
sintaxi
sintesi
sintetico
sinteticos
sintio
sintomas
sintra
sinya
sinyal
sinyala
sinyalan
sinyalar
sinyalau
sinyals
sinyar
sinyato
sinyatura
sinyau
sinyo
sinyor
sinyora
sinyoria
sinyoron
sinyors
sio
sion
sipca
sique
sir
siracusa
sirga
siria
sirians
sirve
sirven
sirvio
sisquiera
sistema
sistemas
sistematica
sister
sisters
site
sites
sith
sitio
sitios
sito
situa
situacion
situacions
situada
situadas
situan
situar
situata
situatas
situato
situatos
situau
situaus
siu
siurana
sixanta
sixena
sj
sk
ska
sky
skywalker
sl
sla
slalom
sm
small
smaug
smith
sn
snow
snowboard
so
soben
soberania
sobieski
sobiran
sobirania
sobirano
sobirans
sobrarbe
sobrarbenca
sobrarbenco
sobrarbes
sobre
sobrebuena
sobrecollida
sobredito
sobremont
sobremonte
sobrenombre
sobrepuerto
sobretot
sobrevive
sobrevivio
sobrevivir
sobrin
sobrina
sobrino
soc
social
socialdemocrata
sociales
socialismo
socialista
socialistas
socialment
socials
sociedad
sociedat
sociedatz
societat
societe
society
socio
sociolinguistica
sociolochia
sociologia
sociologo
socios
socorro
socrates
soderbergh
sodio
sodomia
sofia
sofiya
software
soi
soit
sol
sola
solament
solana
solano
solans
solar
solars
solas
soldadura
soldan
soldanato
soldato
soldatos
soldau
soldaus
sole
soledad
soledat
soleil
solen
solenca
solenco
soler
solero
solida
solidaridat
solido
solidos
soliman
solista
solitario
sollavientos
solo
solos
solsona
solsones
soltera
solucion
solucions
somalia
sombra
some
somer
somera
somero
somers
somerset
something
somma
somme
somo
somontano
somos
somport
son
sonar
sonda
song
songs
sonito
sonitos
soniu
sonius
sonora
sonoras
sonorizacion
sonoro
sons
sont
sony
sopa
sopeira
sopena
sopeton
sophia
sophie
soporte
soprano
soque
sora
sorabo
sorbus
sorda
sordi
soria
soriano
soro
sorpresa
sort
sos
sosa
sostener
sostenible
sostiene
sot
soterrania
sotillo
soto
sotonera
sotos
soul
sound
source
sous
south
southern
soviet
sovietica
sovieticas
sovietico
sovieticos
soy
soya
soyuz
sozcampion
sozmeso
sozmesos
sozmeter
sp
space
spacek
spacex
spain
spam
spanish
sparber
special
species
spectrum
spencer
spider
spielberg
spike
spinosa
spiridon
spirit
spis
split
spock
sport
sporting
sports
spp
sprache
spring
springer
springfield
springs
spurs
spy
sq
square
sr
sra
sri
ss
st
sta
stadium
stadt
stage
stahl
stalin
stalingrado
stallone
stan
stand
standard
standards
stando
stanford
stanisław
stanley
stanton
stanwyck
star
stark
starnberg
stars
starship
state
states
station
statistical
statistics
statistisches
status
stazione
stefan
stefano
steiger
stein
steiner
stephane
stephen
sterling
sternberg
steve
steven
stevens
stevenson
stewart
sti
still
stockholm
stoke
stone
stones
stop
storia
stories
story
straight
strange
stranger
strauss
straße
streep
street
streisand
striano
stuart
student
studi
studies
studio
studios
study
stuff
sturges
stuttgart
style
su
sua
suarez
suau
suaus
suave
sub
subcampion
subcheccion
subchecto
subchectos
subchenero
subchuntivo
subcomarca
subcontinent
subdialecto
subdialectos
subditos
subdivide
subdividen
subdivision
subdivisions
subespecie
subespecies
subfamilia
subfamilias
subgrupo
sublevacion
sublevatos
sublevau
subordan
suborden
subordinacion
subordinada
subordinadas
subpachina
subprefectura
substancia
substancias
substantivo
substantivos
substitucion
substituir
substituye
substituyo
substrato
subtropical
subtropicals
succede
succedio
succedito
succediu
succesion
succesivament
succesivas
succesivos
succesor
succesors
sucedio
sucesion
sucesor
sucesos
sucheto
suchiere
suchieren
suco
sucre
sud
sudafrica
sudafrican
sudafricana
sudamerica
sudan
sudeste
sudoccidental
sudoriental
sudueste
suebia
suebo
suebos
sueca
suecia
sueco
suecos
suegro
sueldo
sueldos
suelo
suelos
suelta
sueltas
sueltos
suenio
suenios
suert
suerte
suez
suffolk
suficient
sufierto
sufijos
sufixada
sufixo
sufixos
sufrachio
sufre
sufren
sufrio
sufrioron
sufrir
suicidato
suicidio
suis
suite
suiza
suizo
suizos
sul
sulayman
sulco
sulcos
sulfolobus
sullivan
sum
suma
suman
sumando
sumar
sumatra
suministro
summary
summer
sumo
sun
sunday
sunnitas
sunt
suo
super
supera
superan
superando
superar
supercopa
superencalcunyo
superfamilia
superficial
superficials
superficie
superficies
superior
superioridat
superiors
superlativo
superliga
supero
superstrato
supervivencia
supervivients
suporte
suposa
suposaba
suposar
suposo
suprema
supremacia
supremo
supresion
suprimio
sur
surafrica
sureste
surf
surinam
surrealismo
surrey
surte
surtida
surtio
surtir
surueste
survey
sus
susan
susana
susceptibility
susia
susin
suso
suspension
suspenso
sussex
sustancias
sustantivo
sustantivos
sustitucion
sustituindo
sustituir
sustituita
sustituitas
sustituito
sustituitos
sustituye
sustituyo
sustituyoron
sustrato
sutherland
suya
suyas
suyo
suyos
suzuki
sv
sw
swahili
swan
sweet
swing
sx
sy
sydney
sydow
sylvester
sylvestris
sylvia
sylvie
synonymis
system
systema
systems
sz
t
t0
t1
t2
t3
t4
t5
t6
t7
t8
t9
ta
tabaco
tabara
tabernas
taberners
tabierna
tabiernas
tabla
tablado
tablas
table
tablero
tablesl
taca
tacas
tachiquistan
tacho
tacticas
tacto
tafalla
tagliavini
tai
taifa
taifas
tailandia
taipei
taiwan
tajo
tajuna
take
tal
talamanca
talamantes
talaya
tale
talent
tales
talk
talla
tallada
tallan
tallar
taller
tallers
tallinn
tallo
tallos
talment
tals
tam
tamanyo
tamarit
tamas
tambien
tambor
tambors
tame
tamen
tamerlan
tamien
tamil
tampoco
tampon
tan
tancher
tang
tango
tanimientres
tanques
tansament
tant
tanta
tantas
tanto
tantos
tantost
tanye
tanyer
tanzania
tapa
tapia
tapices
tapiz
taquilla
taquillera
tara
tarabidau
tarantino
tarasio
tarazona
tarba
tarcual
tardan
tardana
tardano
tardanos
tarde
tardi
tardienta
tardo
tarentola
tarn
tarquin
tarraconense
tarragona
tarragones
tarrega
tarso
tarta
tartas
tartre
tartres
tartugas
tasa
tasament
tasas
tasca
taschenbuch
tasman
tasmania
tastavins
tatra
tatras
tatry
tau
taula
tauro
tauromaquia
taurus
taust
tauste
tavernier
taxa
taxi
taxon
taxonomia
taxonomica
taxons
tay
taylor
tb
tbilisi
tc
td
te
tea
team
teatral
teatrals
teatro
teatros
technology
tecnica
tecnicament
tecnicas
tecnico
tecnicos
tecnolochia
tecnolochias
tecnolochico
tecnolochicos
tecnyconta
tectonica
tectonicas
ted
teheran
teide
teito
teixito
teixitos
teixiu
teixius
tekapo
tel
tela
telecadiera
telecomunicacion
telecomunicacions
teleferico
telefilm
telefilme
telefon
telefono
telegraph
telescopio
telescopios
televisee
television
tell
tella
tellan
tellas
tellato
tellatos
tellau
tellaus
tema
temas
tematica
tematicas
temperatura
temperaturas
tempiu
templato
temple
templers
templo
templos
tempo
temporada
temporadas
temporal
temporalment
temporals
temporata
temporatas
temprana
temps
ten
tena
tendencia
tendencias
tendenera
tendennera
tender
tendra
tendran
tendria
tene
teneba
teneban
tenemos
tenencia
tenendo
tener
tenerife
tenese
tenesen
tenia
tenian
tenido
tenient
tenio
tenioron
tenir
tenis
tenista
tenito
teniu
tennessee
tenor
tensina
tensino
tension
tensions
teodora
teodorico
teodoro
teodosio
teofilo
teolochia
teologo
teorema
teoria
teorias
teorica
teoricament
teorico
teoricos
ter
tera
teran
tercer
tercera
terceras
tercero
tercerol
terciario
terciarios
tercio
tercios
terence
teresa
termals
terme
termens
termica
termin
termina
terminacion
terminacions
terminadas
terminal
terminals
terminan
terminar
terminator
terminaus
termini
terminis
termino
terminolochia
terminos
termins
terminum
termodinamica
terms
ternasco
terolano
terra
terrado
terranoa
terras
terrassa
terratenient
terratenients
terre
terreno
terrenos
terrens
terrer
terrestre
terrestres
terrible
terrichenos
terrient
territorial
territorials
territorio
territorios
terror
terrorismo
terrorista
terroristas
terry
teruel
teruelana
tes
tesalia
tesi
tesino
tesis
tesla
testamento
testigo
testigos
testimonio
testimonios
testo
tet
tetra
tetrapodos
tetulo
tetulos
teutonica
teutonicos
teutons
texas
text
textil
texto
textos
textura
tf
tg
th
thai
thames
than
that
the
theater
theatre
theft
their
thelma
theodor
theodore
theodorico
theory
there
thermador
they
thierry
thievenaz
thin
thing
things
think
third
this
thomas
thompson
thomson
thorin
thornton
thorpe
threatened
three
thriller
thrones
through
thunder
thymus
ti
tia
tibalt
tiberio
tibet
tibi
tida
tiempo
tiempos
tien
tienda
tiendas
tiende
tienden
tiene
tienen
tienga
tiengan
tiengo
tiens
tierga
tiermas
tierra
tierrantona
tierras
tierratremo
tierratremos
tierz
tiestos
tigre
tigris
til
tilia
tim
time
times
timor
timothy
tin
tina
tinenza
tinta
tintin
tinto
tio
tipica
tipicament
tipicas
tipico
tipicos
tipo
tipog
tipolochia
tipos
tira
tirada
tirar
tiro
tirol
tiron
titan
title
tito
titol
titols
titular
titularidat
titulato
titulo
tj
tk
tl
tm
tn
to
tobago
tobet
toca
tocan
tocando
tocant
tocar
tocho
tochos
tocin
tocins
toda
todas
today
todd
todo
todos
tognazzi
togo
toi
tokio
tokyo
toledo
tolerancia
tolkien
tolosa
tolosaldea
tolosan
tolosana
tolstoy
tolva
tom
toma
tomar
tomas
tomaso
tomate
tomatoes
tome
tommy
tomo
tomorrow
tomos
toms
ton
tonalidatz
tonda
tone
tonel
toneladas
tonga
toni
tonica
tonicas
tonico
tono
tonos
tony
too
toole
top
topo
topografia
topograficament
topografico
topograficos
toponimia
toponimica
toponimicas
toponimico
toponimo
toponimos
toque
toquinho
tor
torax
torda
torello
torero
toril
torismo
toristas
toristica
toristico
toristicos
torla
torlarribera
tormes
tormo
tormon
tormos
torna
tornaba
tornada
tornado
tornan
tornando
tornar
tornara
tornaria
tornase
tornata
tornato
tornau
torne
tornen
torneyo
torneyos
torno
tornoron
tornos
toro
toronto
toros
torralba
torralbiella
torraza
torre
torreciella
torrecilla
torrejon
torrellas
torremocha
torrent
torrente
torrents
torrero
torres
torreta
torreton
torrillas
torrillo
torrociella
torrodellas
torroella
torroja
torrubia
torta
tortas
tortiella
tortosa
tortosin
tos
tosca
toscana
toscar
tosos
tossal
tot
tota
total
totalidat
totalment
totals
totas
toto
tots
tottenham
totz
tou
touch
toulouse
tour
tourneur
tours
tous
tout
tova
tovalla
tovar
tovas
tovo
tovos
tower
town
toyota
toz
toza
tozal
tozals
tozuelo
tp
tq
tr
tra
trabajo
traccion
trachan
trache
trachecto
trachectoria
trachedia
traches
tracia
tracio
track
tracta
tractaba
tractamiento
tractamientos
tractan
tractar
tractato
tractatos
tractau
tractaus
tracto
tracy
trade
tradicion
tradicional
tradicionalment
tradicionals
tradiciones
tradicions
tradizion
traduccion
traduccions
traduce
traducio
traducir
traducito
traduciu
traductor
traductors
tradueita
tradueito
trafalgar
trafico
trafucar
trail
trailer
train
traite
traito
trallo
trallos
trama
tramacastiel
tramacastiella
tramasaguas
tramo
tramos
trampa
trampo
trampos
tramvia
tranco
trango
trangos
trans
transchenero
transcheners
transcripcion
transcurso
transexuals
transferencia
transfermarkt
transforma
transformacion
transformacions
transformador
transformar
transformau
transformo
transgender
transiberiano
transicion
transicionals
transilvania
transilvans
transistor
transistors
transitivo
transitivos
transito
transmesa
transmeso
transmesos
transmision
transmite
transmiten
transmitio
transmitir
transoxiana
transparent
transporta
transportar
transporte
transportes
transuancia
transuant
transuants
transversal
trapani
trappist
tras
traslado
trasmoz
trasobars
trasoro
trassierra
trastamara
traste
trastes
trastornos
trata
tratado
tratamiento
tratato
traun
traunreut
traunstein
travel
traves
travesando
travesar
travesia
travies
traviesa
travolta
trayer
trayo
trayoron
traza
trazas
trazato
trazau
tre
treballa
treballaba
treballaban
treballador
treballadors
treballan
treballando
treballar
treballato
treballo
treballos
trebunal
tree
tregua
treinta
treito
trek
tremedal
tremp
tren
trencar
trens
trent
trenta
trentino
trento
tres
tresa
trescruza
trescruzaba
trescruzada
trescruzan
trescruzando
trescruzar
trescruzata
trescruzato
treserols
treslada
tresladar
tresladau
treslado
tresladoron
treslau
tresoro
trestalla
trestallar
trestallato
trestallau
tretze
trevino
treviso
trevor
tri
tria
trianglo
triangular
trianon
triasico
triau
tribal
tribals
tribu
tribunal
tribunals
tribus
tributario
tributarios
tributo
tricas
triesenberg
trieste
triga
trigar
trigau
trigaus
trigo
trilla
trillo
trilochia
trincheras
trinidad
trinidat
trio
tripa
triple
tripoli
tripulacion
tristan
triste
triticum
triton
tritter
triturus
triunfo
tro
troba
trobaba
trobaban
trobada
trobadas
trobamos
troban
trobando
trobar
trobata
trobatas
trobato
trobatos
trobau
trobaus
trobe
troben
trobo
troboron
trofeo
trofeu
trois
troisi
trol
troles
trompa
trompeta
tronada
tronadas
tronca
troncedo
tronchon
tronco
troncos
trono
troops
trop
tropa
tropas
tropical
tropicals
tropico
trotsky
troupes
troya
troyes
troz
trozos
truca
trucar
truco
trucos
true
truffaut
truitas
trujillo
truman
trunfa
trunfas
trunfo
trust
ts
tt
tu
tuberclos
tubo
tuca
tucas
tuck
tudela
tudesquismos
tuertas
tuerto
tula
tumba
tumbas
tundra
tunel
tunels
tungsten
tunica
tunicia
tuniz
tupolev
tuqueta
tuquets
tur
turberas
turbon
turca
turcas
turco
turcos
turdus
turia
turiaso
turiasonense
turin
turinchia
turismo
turistas
turistica
turisticas
turistico
turisticos
turkmenistan
turmo
turner
turolense
turolenses
turolii
turquemans
turquesten
turquia
turquica
turquicas
turquico
turquicos
turquismos
turrillo
tus
tutela
tutti
tuvo
tuya
tuyo
tv
tve
tw
twitter
two
tx
ty
tyler
tyrone
tz
u
u0
u1
u2
u3
u4
u5
u6
u7
u8
u9
ua
ub
ubago
uber
ubicacion
ubicada
ubicau
ubierta
ubiertas
ubierto
ubiertos
ubieto
ubre
ubren
ubrindo
ubrio
ubrioron
ubrir
uc
ucd
ucraina
ucraines
ucrainesa
ucraineses
ud
ue
uebra
uecha
uefa
uego
uegos
ueitanta
ueitena
ueiteno
ueito
ueitomil
uela
uelba
uella
uellamen
uellas
uello
uellos
uelo
uembra
uerba
ues
uesa
uesca
uescana
ueso
uesos
uest
ueste
uevo
uevos
uf
ufre
ug
uga
uganda
ugas
ugo
ugt
uh
ui
uigur
uigurs
uinieron
uino
uj
uk
ukraine
ukrainian
ul
ula
ulm
ulrich
ulster
ultima
ultimate
ultimo
ultra
ultramar
ultrapuertos
um
uma
umberto
umbria
un
una
unaltra
unas
unatra
unatro
uncastiello
uncastillo
und
under
underground
une
unen
unes
unesco
unglas
uniata
uniba
unica
unicaja
unicament
unicas
unicelulars
unico
unicos
unida
unidad
unidades
unidas
unidat
unidatz
unido
unidos
unificacion
unificar
unificata
unificato
uniforme
unindo
unio
union
unioron
unir
unita
unitario
unitas
united
unito
unitos
uniu
unius
universal
universals
universe
universidad
universidade
universidat
universidatz
universitaires
universitaria
universitarias
universitario
universitarios
universitat
universite
university
universo
uno
unos
uns
uo
uos
up
upon
uppsala
uq
ur
urals
uranio
urano
urban
urbana
urbanas
urbanismo
urbanistica
urbanizacion
urbanizacions
urbano
urbanos
urbans
urbe
urbez
urchel
urdu
urgell
uri
urmo
urnas
urodelos
urola
urraca
urrea
urreya
urries
ursidae
urss
ursula
ursus
uruel
uruguai
uruguay
uruguayo
urzay
us
usa
usada
usadas
usados
usaf
usan
usando
usar
usata
usato
usau
usb
use
used
usia
usina
uso
uson
usos
usque
ustaixas
ustariz
ustinov
usual
usuals
usuario
usuarios
ut
utah
utc
utebo
utero
utevo
utiel
util
utilidat
utiliza
utilizacion
utilizada
utilizadas
utilizan
utilizando
utilizar
utilizata
utilizato
utilizau
utilizaus
utilizo
utils
utrecht
utrera
utriellas
utrilla
uu
uv
uw
ux
uy
uz
uzbecos
uzbekistan
uzbequistan
v
v0
v1
v2
v3
v4
v5
v6
v7
v8
v9
va
vaca
vacanzas
vacas
vaccine
vachimala
vachimanya
vachina
vacumen
vacuna
vada
vadiello
vadillo
vadit
vado
vaduz
vaga
vago
vaiga
vaigan
vaixiello
vaixiellos
val
valais
valbona
valdellosa
valdeon
valderrobres
valdes
vale
valenca
valencia
valencian
valenciana
valencianas
valenciano
valencians
valent
valenti
valentin
valentina
valentine
valentinian
valentino
valenzia
valera
valerio
valero
valgua
valient
valimanya
valira
vall
valladolid
valladolit
vallbona
valldigna
valle
vallejo
vallem
valles
vallespir
valleta
valley
vallhibierna
vallibasa
vallis
vallmoll
vallone
valls
valois
valon
valonia
valons
valor
valors
valparaiso
vals
valua
valura
valuras
valverde
valvula
valvulas
vampire
van
vancouver
vandalo
vandalos
vanessa
vanguardia
vapor
vaqueira
var
vara
varas
varela
varello
vareya
vareyan
vargas
varia
variable
variables
variacion
variacions
varian
variant
variants
variar
varias
variata
variatos
variaus
variedat
variedatz
variety
varios
varon
varones
varons
varossa
varsovia
vas
vasallache
vasallo
vasallos
vasco
vascons
vascos
vascular
vaso
vasos
vasuera
vaticano
vaticielles
vauclusa
vaud
vazquez
vb
vc
vd
ve
vec
veces
vechetacion
vechetal
vechetals
vecin
vecina
vecinas
vecino
vecinos
vecins
vector
vectors
vega
vegada
vegadas
vegas
vegata
vegatas
vegetacion
vehiclo
vehiclos
vei
veiga
veigan
veigo
veinat
veire
vel
vela
velar
velas
velasco
velazquez
velez
velilla
vella
vello
velocidat
velocidatz
velodromo
vena
venas
vence
vencedor
vencen
vencer
vencido
vencio
vencioron
vencitos
vencius
venda
vendas
vende
vendee
venden
vender
vendio
vendioron
vendito
vendiu
vendius
venecia
venecian
venecians
veneto
venezia
venezolan
venezolana
venezolano
venezuela
venganza
veniba
veniban
venida
venido
venir
vent
venta
ventallo
ventas
vente
ventena
ventral
ventriclo
ventura
venus
ver
vera
veracruz
veral
verano
veranos
verbal
verbals
verbo
verbos
verda
verdadera
verdaderas
verdadero
verdaders
verdas
verdat
verde
verdello
verdes
verdi
verdun
verduras
vereda
veremundo
vereno
verhoeven
veri
verlag
vermello
vermont
verne
vernera
vernet
vernon
vero
verona
veronica
vers
versailles
versant
versants
version
versions
verso
versos
versus
vertebral
vertebras
vertebratos
vertebraus
vertical
verticals
vertices
verticilos
vertient
vertiz
veruela
very
ves
vesant
vesita
vesitants
vesitar
vesitas
vesito
vestimenta
vestir
vestitos
vestiu
vestuario
vesuviano
vetiello
veturian
veye
veyeba
veyeban
veyemos
veyen
veyendo
veyer
veyio
veyo
vez
vezes
vezino
vf
vg
vh
vi
via
viacamp
viachar
viache
viachers
viaches
viacho
viadors
viaje
viale
viana
vias
vic
vicario
vice
vicen
vicenc
vicens
vicent
vicente
vicepresident
vicepresidenta
vichent
vichilancia
vichy
vicient
vicina
vicinas
vicins
vico
vicos
victima
victimas
victor
victoria
victorias
victory
vid
vida
vidal
vidaller
vidas
videlicet
video
videochuego
videochuegos
videoconsola
videos
vidiendo
vidio
vidios
vido
vidor
vidre
vidua
vie
vieira
vieja
viejo
viela
vielha
viella
viellas
viello
viellos
vien
viena
viene
vienen
vienes
vienna
viento
vientos
vier
viernes
vierten
vietnam
vietnamita
vietnamitas
vieux
view
vigneaux
vignemale
vigo
vigor
viguera
vii
viii
vij
vikingos
viktor
vila
vilafranca
vilalba
vilamajor
vilamur
vilanava
vilanova
vilar
vilas
vilella
vilh
vilhera
viliella
villa
villacampa
villafelich
villafermosa
villafranca
village
villahermosa
villalar
villalba
villam
villamalur
villamayor
villanova
villanueva
villanuga
villar
villarcayo
villarejo
villarrobledo
villarroya
villas
villaverde
villaviciosa
ville
villel
villena
villeneuve
vilna
vimbre
vin
vinagre
vinalopon
vinaroz
vinas
vincennes
vincent
vincente
vincenzo
vinci
vinclata
vinclato
vinclo
vinclos
vinicius
vinient
vinients
vinieron
vinioron
vino
vins
vint
vinte
vintidos
vinuales
vinya
vinyal
vinyals
vinyas
vinyers
vio
viola
violacion
violant
violencia
violenta
violeta
virchen
virchens
virchinia
virella
virgen
virgin
virginia
virgo
virolla
virollas
virrei
virreinato
virtual
virtut
virus
visconti
visible
visibles
visiedo
visigoda
visigodo
visigodos
vision
visita
visitar
visito
viso
visorio
vispe
vista
vistabella
vistable
vistables
vistas
visto
vistos
vistula
visual
visuals
vita
vital
vitalidat
vitamina
vito
vitoria
vittorio
viu
viuda
viva
vivar
vivas
vive
vivel
viven
viver
viverridae
vivers
vives
viviba
viviban
vivienda
viviendas
vivindo
vivio
vivioron
vivir
vivito
viviu
vivo
vivos
vizcaya
vizcondato
vizconte
vj
vk
vl
vlacos
vladimir
vlaquia
vm
vmv
vn
vna
vno
vo
vobis
vocable
vocables
vocabulario
vocal
vocalica
vocalico
vocalista
vocalizacion
vocals
voces
voda
vodas
vogel
voi
voice
voivodato
voivodina
voivot
vol
voladors
volar
volcan
volcanica
volcanicas
volcanico
voldemort
voleibol
volga
volido
volinia
volkswagen
volo
vols
volta
voltache
voltrega
volume
volumen
volumens
voluntario
voluntarios
voluntat
vom
von
vorarlberg
vori
vos
votacion
voto
votos
vous
voyage
voyager
voz
vp
vq
vr
vriolin
vriolinista
vs
vt
vu
vuedo
vueito
vueitres
vuelo
vuelos
vuelta
vueltas
vuestra
vuestros
vuido
vuixiga
vulcan
vulcanica
vulcanico
vulcans
vulgar
vulgaris
vusatros
vv
vw
vx
vy
vz
w
w0
w1
w2
w3
w4
w5
w6
w7
w8
w9
wa
wagner
waikato
waimangu
wakatipu
wales
walk
walker
walking
wall
wallace
wallis
walsh
walt
walter
walters
walther
wamba
wan
wanaka
wanda
want
war
ward
warhol
warner
warren
warriors
wars
was
washington
watch
water
waterpolo
watson
watts
wave
way
wayback
wayne
wałesa
wb
wc
wd
we
weaver
web
webb
webelements
weber
website
webster
wedding
weekly
wehrmacht
weimar
welcome
well
welles
wellington
wellman
wells
welt
were
werner
wes
wesley
west
western
westfalia
westminster
wf
wg
wh
what
when
where
whitaker
white
whitman
whitmore
whitney
whittaker
who
why
wi
wicca
wide
wien
wiener
wiesbaden
wife
wiki
wikimedia
wikipedia
wikispecies
wild
wilde
wilder
wildlife
wiley
wilhelm
will
willem
william
williams
willis
willy
wilmes
wilson
wiltshire
winchester
wind
windows
windsor
wine
wings
winston
winter
winters
wir
wisconsin
wise
with
without
witness
wittgenstein
wj
wk
wl
wm
wn
wo
wolf
wolfgang
wolfram
woman
women
wood
woods
woodward
woody
worcester
word
wordpress
words
work
works
world
worterbuch
worth
would
wp
wq
wr
wright
wrocław
ws
wt
wu
wuhan
wurm
wurtemberg
wurttemberg
wurzburg
wv
ww
www
wx
wy
wyler
wyman
wyoming
wz
x
x0
x1
x2
x3
x4
x5
x6
x7
x8
x9
xa
xabier
xabierre
xah
xalon
xangai
xavier
xb
xc
xd
xe
xeada
xec
xerica
xf
xg
xh
xi
xii
xiii
xiitas
xiloca
xilocapedia
ximena
ximenez
ximeno
xinjiang
xiv
xix
xixon
xj
xk
xl
xm
xn
xo
xorda
xordas
xordica
xordo
xose
xp
xq
xr
xs
xt
xtokavisco
xu
xucar
xuquer
xuto
xv
xvi
xvii
xviii
xw
xx
xxi
xxii
xxiii
xxv
xxx
xy
xz
y
y0
y1
y2
y3
y4
y5
y6
y7
y8
y9
ya
yaga
yague
yahoo
yahya
yale
yalliq
yalta
yates
yaya
yayo
yb
yc
yd
ye
year
years
yeba
yebra
yedisan
yellow
yemen
yenisei
yera
yeran
yes
yesa
yesero
yf
yg
yglesia
yh
yi
yidix
yj
yk
yl
ym
yn
yo
yod
yoga
yonne
york
yorkshire
yosa
you
young
your
youth
youtube
yp
yq
yr
ys
ysla
yslas
ystorias
yt
ytalia
yu
yuan
yucuf
yugoslava
yugoslavia
yugoslavo
yuso
yusuf
yv
yvelines
yves
yw
yx
yy
yz
z
z0
z1
z2
z3
z4
z5
z6
z7
z8
z9
za
zachary
zafan
zafra
zafran
zaga
zagal
zagreb
zaguer
zaguera
zagueras
zaguerias
zaguero
zagueros
zaguers
zaica
zaida
zaidin
zaila
zambia
zamenhof
zamora
zanata
zanui
zanzibar
zapardiel
zapata
zapater
zapatero
zapatos
zapo
zar
zaragoca
zaragoza
zaragozana
zaragozano
zaragozanos
zarina
zarista
zarpas
zarra
zarrada
zarran
zarrando
zarrar
zarrata
zarrato
zarrau
zarro
zb
zc
zd
ze
zealand
zebra
zebras
zedong
zeit
zelanda
zemgalia
zen
zentral
zentro
zepa
zero
zervantes
zeta
zeus
zf
zg
zh
zhuang
zi
zifra
zifras
zilina
zimbabwe
zinnemann
zita
zj
zk
zl
zm
zn
zo
zodiaco
zoe
zona
zonaras
zonas
zool
zoolochia
zoologia
zoologo
zoom
zoonimo
zoonimos
zorita
zp
zq
zr
zs
zt
zu
zucas
zuckermann
zucre
zucres
zuda
zuera
zugarramurdi
zum
zumalacarregui
zumeta
zupan
zupanija
zur
zurich
zurita
zuro
zv
zw
zx
zy
zz
{
|
}
~
¡
¢
£
§
¨
©
ª
«
¬
®
°
±
²
³
´
µ
·
º
»
½
¿
×
ß
æ
ð
ø
þ
đ
ħ
ı
ŀ
ł
ŋ
œ
ǝ
ɐ
ɑ
ɒ
ɔ
ɕ
ə
ɚ
ɛ
ɡ
ɣ
ɥ
ɨ
ɪ
ɫ
ɲ
ɳ
ɵ
ɶ
ɹ
ɾ
ʀ
ʁ
ʃ
ʊ
ʋ
ʌ
ʎ
ʏ
ʒ
ʔ
ʝ
ʤ
ʦ
ʧ
ʰ
ʲ
ʹ
ʻ
ʼ
ʾ
ʿ
ˀ
ˁ
ˈ
ˌ
ː
˚
ˠ
α
β
γ
δ
ε
ζ
η
θ
ι
κ
και
λ
μ
ν
ξ
ο
π
περι
ρ
ς
σ
τ
των
υ
φ
χ
ψ
ω
ϕ
а
б
в
г
д
е
ж
з
и
к
л
м
н
о
п
р
с
т
у
ф
х
ц
ч
ш
щ
ъ
ы
ь
э
ю
я
ђ
є
і
ј
њ
ћ
қ
ҡ
ң
ұ
һ
ә
ө
ա
գ
ե
ի
լ
կ
հ
մ
յ
ն
ո
ս
վ
տ
ր
ց
ւ
ք
א
ב
ג
ד
ה
ו
ז
ח
ט
י
כ
ל
ם
מ
ן
נ
ס
ע
פ
צ
ק
ר
ש
ת
ء
ا
ب
بن
ة
ت
ث
ج
ح
خ
د
ر
ز
س
ش
ص
ط
ظ
ع
غ
ف
ق
ك
ل
م
ن
ه
و
ى
ي
پ
ک
ی
क
ग
च
ज
त
द
ध
न
प
म
य
र
ल
व
श
स
ह
ক
জ
ন
ব
য
র
ল
ก
ง
ด
ต
ท
น
พ
ม
ย
ร
ว
ส
ห
อ
า
เ
་
ა
ბ
გ
ე
ვ
ზ
თ
ი
ლ
მ
ნ
ო
რ
ს
უ
ქ
ხ
ᄀ
ᄂ
ᄃ
ᄅ
ᄆ
ᄇ
ᄉ
ᄋ
ᄌ
ᄎ
ᄑ
ᄒ
ᅡ
ᅢ
ᅥ
ᅦ
ᅧ
ᅩ
ᅪ
ᅮ
ᅱ
ᅳ
ᅴ
ᅵ
ᆨ
ᆫ
ᆯ
ᆷ
ᆼ
በ
‑
–
—
―
‘
’
“
”
„
†
•
…
′
″
‿
ⁿ
€
℃
№
←
→
↔
↷
⇒
∀
∂
∃
∈
∑
−
∗
∘
∞
∣
∫
≈
⋅
⋯
③
④
⑦
■
▶
⟨
⟩
⟵
ⴰ
⺀
⺄
⺆
⺈
⺊
⺌
⺕
⺝
⺸
⺼
⿰
⿱
⿲
⿳
⿴
⿵
⿶
⿷
⿸
⿹
⿺
⿻
、
。
〢
い
か
し
た
っ
て
と
な
に
の
は
も
ら
り
る
れ
ろ
ア
イ
オ
キ
ク
コ
シ
ス
タ
ッ
テ
ト
ハ
ヒ
フ
ホ
ュ
ユ
ョ
ラ
リ
ル
レ
ロ
ン
・
ー
㇁
㇂
㇄
㇇
㇈
㇉
㇓
㐁
㐄
㐅
㐌
㐫
㐬
㐭
㐮
㐱
㑒
㒵
㒸
㒼
㓁
㓞
㔾
㕛
㕣
㖾
㘝
㚅
㚇
㚔
㚘
㝉
㝡
㝴
㝵
㞋
㞢
㞷
㠩
㠭
㠯
㡀
㡭
㡿
㢲
㢴
㣇
㣺
㥯
㪅
㫄
㫐
㫒
㫺
㬅
㬎
㬥
㬰
㲋
㳄
㷠
㸒
㸚
㸦
㼌
㼲
㽞
㿟
䀠
䂞
䍃
䏍
䒑
䖍
䖒
䖝
䖵
䙴
䚻
䜌
䝿
䡛
䧹
䪞
一
丁
丂
七
丄
丅
丆
万
丈
三
上
下
丌
不
与
丏
丐
丑
专
且
丕
世
丘
丙
业
东
丞
丢
丣
两
严
並
丨
丩
个
丫
丬
中
丮
丰
丱
串
丵
丶
丷
丸
丹
为
主
丽
丿
乀
乂
乃
久
乆
乇
么
义
之
乌
乍
乎
乏
乐
乑
乔
乖
乗
乘
乙
乚
乛
乜
九
乞
也
习
乡
乳
乾
亀
亅
了
亇
予
争
事
二
亍
于
亏
亐
云
互
亓
五
井
亘
亚
亜
亞
亟
亠
亡
亢
交
亥
亦
产
亨
亩
享
京
亭
亮
亯
亰
亲
亳
亶
亷
人
亻
亼
亾
仁
今
介
仌
从
仐
仑
仒
仓
仕
他
付
仝
代
令
以
仮
任
企
伊
伏
伐
休
会
伯
但
位
何
佘
余
作
佥
使
來
侈
侌
侖
侯
侵
便
保
俞
信
修
倉
倍
候
倠
備
僉
僕
儿
兀
允
兂
元
兄
充
兆
兇
先
光
兊
克
兌
免
兑
兒
兓
兔
党
兜
兟
入
全
兩
兪
八
公
六
兮
兰
共
关
兵
其
具
典
兹
兼
冀
冂
冃
冄
内
冈
冉
冊
冋
册
再
冎
冏
冐
冒
冓
冖
冗
冘
军
农
冝
冡
冥
冫
冬
冷
几
凡
凢
凵
凶
凷
凸
凹
出
函
凾
刀
刁
刂
刃
刄
刅
分
切
刍
刑
刕
刖
列
刘
则
初
別
利
别
到
制
刺
則
削
剌
前
剡
剽
劉
力
功
加
劦
助
劫
劳
劵
勃
勇
勉
勒
動
務
勞
勤
勹
勺
勻
勾
勿
匀
匂
包
匆
匈
匊
匋
匍
匕
化
北
匚
匝
匡
匪
匱
匸
匹
区
医
匽
匿
區
十
卂
千
卄
卅
卆
升
午
卉
半
卌
华
卑
卒
卓
单
卖
南
卜
卝
卞
占
卡
卢
卣
卤
卦
卩
卪
卬
卯
印
危
即
却
卵
卷
卸
卻
厂
厃
厄
历
厈
厉
厌
厓
厘
厚
原
厤
厥
厨
厭
厲
厶
厷
厸
去
厼
厽
叀
参
參
叅
又
叉
及
友
双
反
叐
发
叒
叔
叕
取
受
叚
叜
叟
口
古
句
另
叩
只
召
可
台
叱
史
右
叵
号
司
叹
吂
各
吅
合
吉
吊
吋
同
名
后
吏
向
吕
君
吝
吞
否
含
启
吳
吴
吹
吾
呂
呆
呈
告
员
呙
周
命
咅
和
咎
咠
咢
咨
咸
咼
哀
品
哉
員
哥
哲
唐
商
啇
問
啚
啬
啻
善
喜
喬
單
喿
嗇
噩
嚴
囊
囗
囘
囙
囚
四
回
囟
因
囧
囬
困
囱
囷
固
国
圂
圅
國
圍
圓
土
圡
圣
圥
在
圭
地
圶
圼
坐
坒
坚
坴
垂
垔
垚
埀
埋
城
域
埶
執
基
堂
堅
堆
堇
堯
塞
墨
壘
士
壬
壯
声
壳
壴
壹
壺
壽
夂
处
夅
夆
备
夊
夋
夌
复
夏
夒
夕
外
夗
夘
多
夜
夢
大
夨
天
太
夫
夬
夭
央
失
夲
头
夷
夸
夹
夻
夾
奂
奄
奇
奈
奉
奎
奏
奐
契
奓
奔
奚
奞
奠
奢
奥
奭
女
奴
奻
好
如
妄
妙
妟
妥
妻
妾
姑
委
姜
威
娄
婁
婴
嬰
嬴
子
孑
孔
孕
孖
字
存
孚
孛
孝
孟
季
孤
学
孫
孱
學
宀
宁
宂
它
宅
宇
守
安
宋
完
宏
宓
宗
官
定
宛
宜
宝
客
宣
室
宮
宰
害
家
容
宾
宿
寄
寅
密
富
寒
察
寧
審
寫
寬
寮
寸
对
寺
寻
寽
対
寿
封
尃
射
将
將
專
尉
尊
尋
尌
對
小
少
尒
尓
尔
尖
尗
尚
尞
尢
尣
尤
尧
尨
尭
就
尸
尹
尺
尻
尼
尽
尾
尿
局
居
屈
屋
屎
屏
屑
展
屖
屚
属
屠
屡
屬
屮
屯
屰
山
屵
屾
岁
岂
岑
岡
岩
岳
岸
峯
島
崇
崑
崔
崖
崙
崩
嵬
嶲
巂
巛
川
州
巟
巠
巢
巤
工
左
巧
巨
巩
巫
差
己
已
巳
巴
巷
巸
巽
巾
巿
帀
市
布
希
帚
帛
帝
带
師
席
帶
常
干
平
年
幵
并
幷
幸
幺
幻
幼
幽
幾
广
広
庄
床
底
店
庚
府
度
庫
庭
庶
康
庸
廉
廌
廛
廣
廩
廴
延
廷
建
廾
廿
开
弁
弃
弄
弇
弋
式
弓
弔
引
弗
弘
弜
弟
弥
弦
弱
張
強
强
彊
彌
彎
彐
彑
当
彔
录
彖
彗
彡
形
彥
彦
彧
彭
彳
役
彼
往
待
律
徒
得
徙
從
復
微
徵
心
忄
必
忌
忍
志
忝
忠
忩
快
念
忽
忿
思
怠
急
怱
恆
恒
恩
恭
息
悉
患
悤
悲
悶
惠
惡
惢
愁
愈
意
愛
感
慈
慧
慮
憂
憲
應
戀
戈
戉
戊
戋
戌
戍
戎
成
我
戒
戔
或
戚
戠
戢
截
戲
戶
户
戹
戼
戾
房
所
扁
扇
手
扌
才
打
托
执
承
折
拉
拜
拿
掌
推
提
摩
支
攴
攵
收
攸
改
放
政
敄
敏
敕
敖
敗
敝
敞
敢
散
敦
敫
敬
数
敷
數
斂
文
斉
斊
斗
斤
斥
斩
斬
斯
新
方
於
施
斿
旁
旋
族
无
旡
既
旣
日
旦
旧
旨
早
旬
旱
旲
时
旾
昆
昇
昌
昍
明
昏
易
昔
昗
昜
星
春
昬
是
昱
昴
昷
時
晃
晋
晏
普
景
晶
智
暑
暴
曇
曩
曰
曲
曳
更
曷
書
曹
曼
曾
替
最
朁
會
月
有
朋
服
朔
朕
朗
望
朝
木
朩
未
末
本
札
朮
术
朱
朵
朶
朿
杀
杏
杜
束
条
来
東
杲
杳
松
析
林
枚
果
枝
枲
枼
某
柔
查
柬
柰
柴
栗
桀
桑
桼
梁
條
梟
梨
棘
棠
棥
森
楚
業
楽
榮
樂
樊
欠
次
欣
欮
欲
欶
欽
款
歆
歇
歛
止
正
此
步
武
歨
歪
歮
歯
歰
歲
歴
歷
歸
歹
歺
死
殳
段
殷
殸
殹
殺
殻
殿
毋
毌
母
每
毒
比
毕
毚
毛
毳
氏
氐
民
气
氣
水
氵
氶
氷
永
氺
氾
求
汉
汝
汞
江
沃
沓
沙
沝
河
治
泉
法
波
泣
泥
泰
洛
洪
活
派
流
浦
浪
浮
海
淡
淮
清
渚
渠
湯
滿
漢
漸
火
灬
灭
灰
灵
灷
炅
炎
炏
炗
炙
炭
為
烈
烏
烝
焉
無
焦
焱
然
煞
熊
熏
燕
營
燮
爪
爫
爭
爯
爰
爱
爲
爵
父
爻
爽
爾
爿
片
牙
牚
牛
牜
牟
牢
牧
牪
牽
犀
犬
犭
犮
狂
狄
狊
独
狺
猋
猒
猪
献
獻
玄
率
玉
王
玟
玨
珎
班
琴
瑟
瑩
瓜
瓦
甘
甚
生
産
用
甫
甬
田
由
甲
申
电
甶
男
甸
甹
画
甾
畀
界
畏
畐
留
畜
畟
畢
畧
畨
番
畫
異
畱
當
畺
畾
疊
疋
疌
疑
疒
疾
癶
癸
癹
登
發
白
百
皀
皃
的
皆
皇
皋
皐
皕
皮
皷
皿
盃
盆
盇
盈
益
盍
盎
监
盒
盖
盛
盡
監
盤
盧
目
直
相
盾
省
眇
眉
看
眔
眞
真
眷
眼
眾
着
睘
睪
睿
瞏
瞢
瞿
矍
矛
矞
矢
矣
知
矦
短
石
破
碎
磊
磨
示
礻
礼
社
祟
票
祭
禀
禁
禸
禹
禺
离
禽
禾
禿
秀
秃
秉
秋
科
秝
秦
移
稟
穀
穌
穴
究
穹
空
穿
突
窄
窒
立
竒
竜
竝
竟
章
童
竹
笑
笠
筆
等
答
箕
算
箴
節
篤
篭
米
粉
粛
粟
粤
粦
粲
糞
糸
糹
系
約
納
素
索
紫
累
細
絜
絫
絲
維
綿
縣
繇
纍
纟
缶
网
罒
罔
罕
罗
罙
罡
罢
罪
署
罷
羅
羊
羌
羍
美
羔
羕
羗
羞
羡
羣
群
義
羲
羸
羽
翁
翏
習
翕
翟
翠
翼
老
耂
考
者
耆
而
耎
耑
耒
耳
耴
耶
耷
聂
聊
聖
聚
聶
聿
肀
肃
肅
肉
肖
肙
肥
肩
肯
育
肴
胃
背
胡
胥
能
脊
脩
膚
臣
臤
臧
自
臬
臭
臯
臱
至
致
臺
臼
臽
臾
臿
舀
舂
舄
與
興
舉
舌
舍
舛
舜
舞
舟
般
艮
良
色
艸
艹
艾
芒
芔
芬
芮
花
芳
芺
芻
苔
苗
苟
若
苦
英
茶
茸
荅
草
荒
荣
荼
莆
莧
莫
莽
菆
菊
菐
華
萬
落
葉
著
葛
董
葵
蒙
蒦
蒼
蓋
蓬
蓺
蔑
蔡
蕉
蕭
薄
薛
薦
薰
藍
藏
藥
蘭
虍
虎
虐
虒
虔
處
虖
虗
虘
虚
虛
虜
虞
虫
虽
蚤
蚩
蜀
蜜
蟲
蠡
血
行
衍
衛
衣
衤
表
衮
衰
袁
袞
褭
褱
襄
襾
西
覀
要
覃
見
規
覓
覧
親
覽
见
角
解
言
訁
訇
計
話
詹
認
語
誩
諸
讠
话
语
谷
豆
豈
豊
豐
豕
豖
豙
象
豦
豩
豪
豸
貇
貝
貞
貟
負
貢
貧
貪
貫
責
貳
貴
買
費
賁
資
賈
賏
賓
賔
賛
賞
賢
賣
質
賴
贊
贝
贡
责
贯
贲
贵
赖
赞
赤
赦
走
越
足
路
蹇
身
躬
車
軍
軎
軟
輦
车
辛
辜
辟
辥
辰
辱
農
辵
辶
边
达
过
近
连
迷
追
退
送
逆
逐
通
速
造
逢
連
逮
進
遀
遂
過
道
達
遣
適
遷
遺
邊
邑
邕
那
邦
邪
郎
部
郭
都
鄉
酉
酋
配
酓
釆
采
里
重
野
量
金
釒
錢
钅
長
镸
长
門
閃
閉
開
閏
閑
閒
間
閔
閵
閻
闌
门
间
闷
阑
阜
阝
阿
降
陳
隆
隊
隋
隡
隨
隱
隶
隹
隺
隻
隼
隽
难
雀
雁
集
雈
雋
雍
雐
雔
雙
雚
雜
雝
離
難
雨
雩
雪
雲
零
雷
需
霍
霜
霝
霞
霸
靈
靑
青
非
靡
面
靣
革
韋
韦
韭
韯
韱
音
頁
頃
項
須
頗
頡
頻
顛
页
風
风
飛
飞
食
飠
養
饣
首
香
馬
馮
駦
马
骨
高
髟
鬥
鬯
鬲
鬼
魚
魯
鮮
鱼
鲁
鳥
鳳
鸟
鹵
鹿
麃
麗
麥
麦
麻
黃
黄
黍
黎
黑
黒
黨
黹
黽
黾
鼎
鼓
鼠
鼻
齊
齋
齐
齒
齿
龍
龙
龜
龟
龠
龰
龱
龴
龵
龶
龷
龸
龹
者
艹
ﺎ
？
𠀁
𠀃
𠀆
𠀉
𠀎
𠀐
𠁁
𠁣
𠂆
𠂇
𠂈
𠂉
𠂊
𠂋
𠂎
𠂒
𠂔
𠂛
𠂡
𠂢
𠂤
𠂬
𠂭
𠂹
𠃊
𠃋
𠃌
𠃍
𠃎
𠃑
𠃓
𠃔
𠃜
𠄌
𠄎
𠄠
𠄢
𠆢
𠆥
𠇍
𠈌
𠌵
𠓜
𠔉
𠔥
𠔼
𠔽
𠔿
𠕀
𠕁
𠕋
𠘧
𠘨
𠙻
𠙼
𠚏
𠚒
𠚤
𠚪
𠣏
𠤎
𠤕
𠥓
𠦄
𠦑
𠦝
𠧒
𠧗
𠧪
𠩺
𠪚
𠫓
𠫔
𠫤
𠬛
𠬝
𠬞
𠬢
𠬤
𠬶
𠮛
𠮦
𠮷
𠯑
𠱠
𠳮
𠷎
𡈼
𡉀
𡉵
𡌥
𡍮
𡏳
𡕒
𡕩
𡕰
𡖅
𡗗
𡗜
𡘆
𡘤
𡧱
𡨄
𡩧
𡬠
𡭽
𡰣
𡰥
𡰪
𡰯
𡰱
𡷈
𡸁
𡿨
𡿩
𡿪
𡿺
𢀖
𢀛
𢀩
𢁙
𢆉
𢆰
𢆶
𢇁
𢇇
𢉖
𢌬
𢌿
𢏚
𢑑
𢑚
𢖻
𢙣
𢛳
𢦏
𢦒
𢧵
𢼄
𢾕
𣁋
𣄼
𣅀
𣅽
𣍘
𣎳
𣎵
𣏋
𣏼
𣗥
𣥂
𣥖
𣦵
𣦼
𣧄
𣪊
𣪠
𣬉
𣳾
𣶒
𤇾
𤊽
𤐫
𤓰
𤔔
𤕨
𤣩
𤰇
𤰔
𤰞
𤴓
𤴔
𤽄
𥁑
𥁕
𥃦
𥃩
𥃭
𥇡
𥑟
𥘅
𥘈
𥝢
𥫗
𥱡
𦈢
𦉪
𦉬
𦉼
𦍌
𦍒
𦎧
𦐇
𦓔
𦔮
𦘒
𦙃
𦚏
𦣝
𦣞
𦣻
𦥑
𦥔
𦥯
𦨉
𦭝
𦰩
𧆞
𧈧
𧘇
𧰨
𧴪
𧴮
𧵩
𧾷
𨸏
𨾴
𩙿
𩠐
𩫏
𩵋
𪉷
𪜀
𪟽
𪠲
𪩲
𫇦
𫔭
𫜸
𫝀
𫠣
𫠩
𫢉
𫥞
𫩏
𫩠
𫪡
𫲽
𫶧
𬀷
𬐘
𬗌
𬙙
𬛸
𬜯
𬟩
𬯁
𬴘
𬺻
𬼉
𬼖
𭀰
𭁈
𭁨
𭅰
𭑈
𭕄
𭗼
𭤨
𭥫
𭻾
𮅕
𮊿
𮍌
𮍏
𮓗
𮥼
𮧮
廾
𰀁
𰀄
𰀈
𰀉
𰀕
𰀠
𰀡
𰀢
𰀪
𰁜
𰃮
𰆊
𰆘
𰋙
𰕎
𰢴
𰧭
𰯲
0--
000--
01--
02--
04--
051--
08--
09--
1--
2--
226--
3--
4--
5--
59--
6--
65--
66--
7--
73--
74--
76--
78--
79--
8--
83--
84--
848--
85--
86--
87--
88--
89--
9--
90--
91--
92--
93--
94--
96--
97--
978--
97884--
978848--
98--
99--
aa--
ab--
aba--
abad--
abant--
abanz--
abc--
abd--
abdic--
abin--
abol--
abor--
abrev--
abru--
abso--
absorb--
absorv--
abst--
abu--
ac--
aca--
acc--
accel--
ach--
achil--
achir--
achus--
aci--
acol--
acom--
acon--
acor--
acoto--
acre--
acro--
act--
acua--
acub--
acud--
acul--
acum--
ad--
ada--
adch--
adec--
adeq--
adhi--
ado--
adoles--
adopt--
ador--
adsc--
adul--
adv--
ae--
aero--
aeros--
af--
afa--
afec--
afi--
afili--
afog--
afroa--
ag--
agar--
aglomer--
aglu--
agra--
agre--
agres--
agricul--
agua--
ague--
agui--
agul--
ah--
ai--
aigua--
air--
ais--
aj--
ak--
al--
ala--
alaud--
alb--
alba--
alber--
albi--
albo--
alcal--
alcha--
alco--
alcor--
alcu--
alde--
alea--
aleg--
alego--
aleix--
alej--
aler--
aleu--
alfa--
alfo--
alge--
ali--
aligh--
alini--
alja--
all--
alma--
alme--
almo--
almu--
aloc--
alqui--
alt--
alta--
alto--
aluc--
alueny--
aluf--
alum--
alus--
am--
ama--
amar--
amati--
amb--
amen--
amer--
amfi--
amillo--
amin--
amni--
amo--
amont--
ampl--
amplific--
amur--
an--
ana--
ance--
and--
anfi--
angl--
angli--
anglo--
angu--
anna--
ano--
ans--
ant--
ante--
anti--
antro--
any--
anyad--
ao--
ap--
apar--
apare--
apart--
apasi--
aped--
apedec--
apeg--
aper--
apia--
apicul--
apoc--
apod--
apom--
apos--
apot--
applicat--
apre--
aprend--
apro--
aprob--
apropi--
aproxi--
apsk--
apun--
aq--
ar--
ara--
aragon--
arbe--
arbitra--
arbo--
arc--
arcebis--
archi--
ard--
are--
arge--
argo--
argu--
arm--
arma--
armoric--
aro--
aromati--
arque--
arqueolog--
arqui--
arra--
arras--
arre--
arri--
arro--
arru--
art--
arte--
as--
asce--
ascu--
asem--
ases--
asi--
asign--
aso--
asp--
ast--
astro--
asum--
at--
ata--
ate--
atemp--
aterriz--
ato--
atribuc--
atten--
au--
augm--
augua--
aure--
auric--
aus--
auto--
autobio--
autonom--
av--
ava--
avanz--
ave--
avent--
aw--
ax--
ay--
az--
azul--
b--
ba--
bab--
bact--
bad--
baga--
bai--
baixo--
bal--
balai--
ban--
bapt--
baptiz--
bar--
bari--
barre--
bas--
basco--
bat--
baut--
bay--
bayeris--
be--
bea--
beau--
bec--
bei--
bel--
bell--
ben--
beni--
berb--
berc--
berd--
bere--
berk--
berm--
bern--
berr--
bert--
besc--
beth--
bh--
bi--
bian--
biblio--
bidd--
bien--
big--
bin--
bio--
birm--
bis--
bit--
bizc--
bj--
bl--
blan--
blanqui--
blas--
blin--
bo--
boa--
bob--
bocc--
bogo--
boi--
boles--
boli--
bols--
bomb--
bon--
bona--
borr--
bos--
bot--
bour--
bout--
bouv--
boy--
br--
brah--
bran--
bras--
brat--
brau--
bre--
break--
brig--
brin--
brit--
bro--
broad--
brug--
brui--
brus--
brux--
bu--
buena--
bund--
bundes--
burg--
buria--
burl--
burr--
bus--
but--
by--
ca--
cabe--
cabi--
cabo--
cabr--
caducif--
cai--
cal--
calab--
calific--
calur--
cam--
cama--
camp--
can--
cana--
candi--
cap--
capa--
capil--
capit--
car--
cara--
cario--
carnu--
carra--
carto--
cas--
casa--
case--
castel--
castil--
cat--
catalog--
caua--
cauall--
caud--
caul--
caut--
cay--
caza--
cc--
ce--
ceboll--
celes--
cend--
ceno--
cenozo--
cent--
centro--
cerb--
cerc--
cere--
ceri--
cerr--
cerra--
cert--
certific--
cerv--
cesar--
ch--
cha--
chamb--
champ--
chapi--
char--
che--
chen--
cheomet--
cheomor--
cheop--
cheot--
cher--
chi--
chinc--
chini--
chisa--
cho--
chub--
chubil--
chud--
chuf--
chul--
chum--
chun--
chur--
chus--
chuv--
chuz--
ci--
cicl--
cier--
cilindr--
cimb--
cinc--
cine--
cing--
ciqui--
circum--
ciru--
cis--
cit--
ciu--
ciuta--
cl--
clan--
clav--
clay--
cle--
clin--
cn--
co--
coag--
cocc--
cock--
codi--
cogn--
coi--
coincid--
col--
cola--
colom--
colum--
com--
comend--
compat--
compl--
complem--
complic--
con--
conce--
conci--
conco--
condi--
conec--
confe--
confecc--
confi--
confisc--
confu--
confund--
conme--
conque--
consa--
conse--
consi--
consp--
const--
constru--
construct--
constum--
consuetud--
contra--
contri--
controver--
conver--
cop--
cora--
coras--
corb--
corc--
cord--
corin--
corm--
corn--
coro--
corp--
corr--
corra--
cors--
corv--
cos--
cosmo--
coti--
cott--
coul--
coun--
coup--
cour--
cous--
cout--
cr--
crea--
crec--
crep--
crio--
crip--
cripto--
crit--
croc--
crom--
cron--
cruc--
crus--
cs--
ct--
cu--
cuad--
cual--
cubi--
cubr--
cuer--
cul--
culla--
culti--
cum--
cumpl--
cuny--
cup--
curr--
curtome--
cust--
cy--
cz--
d--
da--
dago--
dague--
dal--
dam--
dan--
danub--
dar--
das--
dau--
de--
debu--
dece--
deci--
decid--
decis--
decl--
deco--
defen--
defi--
defin--
dei--
del--
deleg--
delic--
dem--
demet--
demos--
den--
depart--
depe--
depos--
depu--
der--
des--
desal--
desap--
descend--
descr--
descu--
desem--
desen--
desey--
despe--
destruc--
destruy--
det--
deten--
deu--
dezi--
dh--
di--
dia--
dibu--
dic--
die--
diff--
difi--
dift--
difu--
difund--
dign--
din--
dinam--
dio--
dioce--
dipl--
diplom--
dipos--
dipt--
dipu--
diputa--
dir--
dirig--
dis--
disco--
discr--
discrim--
disol--
disper--
dispon--
distingu--
distor--
diu--
diver--
dix--
dj--
dm--
do--
dobl--
doc--
dolo--
dom--
don--
dord--
dorm--
dos--
dota--
dr--
drui--
drum--
du--
dubd--
duc--
dun--
dura--
dv--
dw--
dy--
dz--
dzhun--
ea--
eb--
ebers--
ec--
echip--
eco--
ecua--
ed--
edif--
edific--
ediz--
edu--
ee--
ef--
efec--
efim--
eg--
eh--
ei--
eich--
ein--
eisen--
ej--
ek--
el--
ela--
elabo--
elec--
electro--
eleg--
elep--
elet--
eleva--
eli--
em--
embo--
emboli--
emer--
emi--
emp--
emplazami--
emple--
empon--
en--
ena--
enamp--
enant--
enca--
encant--
ence--
enci--
encl--
encluy--
end--
ende--
enemi--
ener--
enercheti--
enfer--
enga--
engl--
enra--
enre--
enri--
enron--
ensi--
enso--
ensun--
ent--
enta--
enter--
entre--
enum--
enun--
envas--
enver--
eo--
ep--
epid--
epif--
epig--
epis--
eq--
equa--
equi--
er--
ere--
erga--
erm--
erosi--
erra--
erud--
es--
esbold--
esbr--
esc--
esca--
escla--
esco--
escubrimi--
escur--
esde--
esdr--
esfen--
esla--
esli--
esming--
eso--
esp--
espar--
espec--
esplani--
espon--
espor--
espul--
est--
esta--
estabi--
esti--
estran--
[...]
