!
"
#
##0
##1
##10
##11
##12
##13
##14
##15
##16
##17
##18
##19
##2
##20
##21
##22
##23
##24
##25
##26
##27
##28
##29
##3
##30
##31
##32
##33
##34
##35
##36
##37
##38
##39
##4
##40
##41
##42
##43
##44
##45
##46
##47
##48
##49
##5
##50
##51
##52
##53
##54
##55
##56
##57
##58
##59
##6
##60
##61
##62
##63
##64
##65
##66
##67
##68
##69
##7
##70
##71
##72
##73
##74
##75
##76
##77
##78
##79
##8
##80
##81
##82
##83
##84
##85
##86
##87
##88
##89
##9
##90
##91
##92
##93
##94
##95
##96
##97
##98
##99
$
%
&
'
(
)
*
+
,
-
.
/
0
00
000
0002
001
002
003
004
005
006
007
008
009
01
010
011
012
013
014
016
018
019
02
021
022
023
025
03
035
038
04
040
047
05
050
06
064
07
075
08
09
090
1
10
100
1000
10000
1001
1002
1003
1007
1008
1009
101
1010
1011
1012
1014
1015
1016
1017
1018
1019
102
1020
1021
1024
1025
1027
1028
1029
103
1030
1031
1032
1034
1035
1037
1038
1039
104
1040
1041
1042
1045
1047
1048
1049
105
1050
1054
1055
1056
1057
1058
106
1060
1061
1063
1065
1066
1067
1068
107
1070
1071
1072
1073
1074
1075
1077
1078
108
1080
1081
1085
1086
1087
1089
109
1092
1093
1094
1095
1096
1097
1098
1099
11
110
1100
1102
1103
1104
1105
1106
1109
111
1110
1111
1115
1118
1119
112
1120
1121
1122
1123
1124
1125
1126
113
1130
1131
1134
1135
1137
1138
1139
114
1143
1145
1146
115
1150
1153
1154
1155
1156
1157
116
1160
117
1170
1173
1174
1176
1177
1178
118
1180
1183
1184
1185
1186
1187
1188
1189
119
1190
1191
1192
1193
1194
1195
1196
1197
1198
1199
12
120
1200
1201
1202
1203
1204
1205
1206
1207
1208
1209
121
1210
1212
1213
1214
1215
1216
1217
1218
1219
122
1220
1221
1222
1223
1225
1226
1227
1229
123
1230
1234
1235
1236
1238
1239
124
1240
1241
1242
1243
1245
1246
1247
1248
1249
125
1250
1252
1253
1254
1256
1257
1258
1259
126
1260
1261
1265
1266
1267
1268
127
1270
1271
1272
1273
1274
1275
1276
1277
1279
128
1280
1281
1282
1284
1285
1288
1289
129
1290
1291
1292
1293
1294
1295
1296
1297
1298
1299
13
130
1300
1301
1302
1304
1305
1307
1308
1309
131
1310
1311
1313
1314
1315
1316
1319
132
1320
1321
1322
1323
1324
1325
1326
1327
1328
1329
133
1330
1332
1333
1334
1335
1336
1337
1339
134
1340
1341
1342
1343
1344
1345
1346
1347
1348
1349
135
1350
1351
1352
1353
1354
1355
1356
1359
136
1360
1361
1362
1363
1364
1365
1368
1369
137
1370
1371
1373
1374
1375
1376
1377
1378
138
1380
1381
1382
1383
1384
1385
1386
1387
1388
1389
139
1390
1391
1392
1393
1394
1395
1396
1397
1398
1399
14
140
1400
1401
1402
1403
1404
1405
1406
1407
1408
1409
141
1410
1411
1412
1413
1414
1415
1416
1417
1418
1419
142
1420
1421
1422
1424
1425
1428
1429
143
1430
1431
1432
1433
1434
1435
1436
1437
1438
1439
144
1440
1441
1442
1443
1444
1445
1446
1447
1448
1449
145
1450
1451
1452
1453
1454
1455
1456
1457
1458
1459
146
1460
1461
1462
1463
1464
1465
1466
1467
1468
1469
147
1470
1471
1472
1473
1474
1475
1476
1477
1478
1479
148
1480
1481
1482
1483
1484
1485
1486
1487
1488
1489
149
1490
1491
1492
1493
1494
1495
1496
1497
1498
1499
15
150
1500
1501
1502
1503
1504
1505
1506
1507
1508
1509
151
1510
1511
1512
1513
1514
1515
1516
1517
1518
1519
152
1520
1521
1522
1523
1524
1525
1526
1527
1528
1529
153
1530
1531
1532
1533
1534
1535
1536
1537
1538
1539
154
1540
1541
1542
1543
1544
1545
1546
1547
1548
1549
155
1550
1551
1552
1553
1554
1555
1556
1557
1558
1559
156
1560
1561
1562
1563
1564
1565
1566
1567
1568
1569
157
1570
1571
1572
1573
1574
1575
1576
1577
1578
1579
158
1580
1581
1582
1583
1584
1585
1586
1587
1588
1589
159
1590
1591
1592
1593
1594
1595
1596
1597
1598
1599
16
160
1600
1601
1602
1603
1604
1605
1606
1607
1608
1609
161
1610
1611
1612
1613
1614
1615
1616
1617
1618
1619
162
1620
1621
1622
1623
1624
1625
1626
1627
1628
1629
163
1630
1631
1632
1633
1634
1635
1636
1637
1638
1639
164
1640
1641
1642
1643
1644
1645
1646
1647
1648
1649
165
1650
1651
1652
1653
1654
1655
1656
1657
1658
1659
166
1660
1661
1662
1663
1664
1665
1666
1667
1668
1669
167
1670
1671
1672
1673
1674
1675
1676
1677
1678
1679
168
1680
1681
1682
1683
1684
1685
1686
1687
1688
1689
169
1690
1691
1692
1693
1694
1695
1696
1697
1698
1699
17
170
1700
1701
1702
1703
1704
1705
1706
1707
1708
1709
171
1710
1711
1712
1713
1714
1715
1716
1717
1718
1719
172
1720
1721
1722
1723
1724
1725
1726
1727
1728
1729
173
1730
1731
1732
1733
1734
1735
1736
1737
1738
1739
174
1740
1741
1742
1743
1744
1745
1746
1747
1748
1749
175
1750
1751
1752
1753
1754
1755
1756
1757
1758
1759
176
1760
1761
1762
1763
1764
1765
1766
1767
1768
1769
177
1770
1771
1772
1773
1774
1775
1776
1777
1778
1779
178
1780
1781
1782
1783
1784
1785
1786
1787
1788
1789
179
1790
1791
1792
1793
1794
1795
1796
1797
1798
1799
18
180
1800
1801
1802
1803
1804
1805
1806
1807
1808
1809
181
1810
1811
1812
1813
1814
1815
1816
1817
1818
1819
182
1820
1821
1822
1823
1824
1825
1826
1827
1828
1829
183
1830
1831
1832
1833
1834
1835
1836
1837
1838
1839
184
1840
1841
1842
1843
1844
1845
1846
1847
1848
1849
185
1850
1851
1852
1853
1854
1855
1856
1857
1858
1859
186
1860
1861
1862
1863
1864
1865
1866
1867
1868
1869
187
1870
1871
1872
1873
1874
1875
1876
1877
1878
1879
188
1880
1881
1882
1883
1884
1885
1886
1887
1888
1889
189
1890
1891
1892
1893
1894
1895
1896
1897
1898
1899
19
190
1900
1901
1902
1903
1904
1905
1906
1907
1908
1909
191
1910
1911
1912
1913
1914
1915
1916
1917
1918
1919
192
1920
1921
1922
1923
1924
1925
1926
1927
1928
1929
193
1930
1931
1932
1933
1934
1935
1936
1937
1938
1939
194
1940
1941
1942
1943
1944
1945
1946
1947
1948
1949
195
1950
1951
1952
1953
1954
1955
1956
1957
1958
1959
196
1960
1961
1962
1963
1964
1965
1966
1967
1968
1969
197
1970
1971
1972
1973
1974
1975
1976
1977
1978
1979
198
1980
1981
1982
1983
1984
1985
1986
1987
1988
1989
199
1990
1991
1992
1993
1994
1995
1996
1997
1998
1999
2
20
200
2000
2001
2002
2003
2004
2005
2006
2007
2008
2009
201
2010
2011
2012
2013
2014
2015
2016
2017
2018
2019
202
2020
2021
2022
2023
2025
203
2030
204
205
2050
206
207
208
209
21
210
2100
211
212
213
214
215
216
217
218
219
22
220
2200
221
222
223
224
225
226
227
228
229
23
230
2300
231
232
233
234
235
236
237
238
239
24
240
2400
241
242
243
244
245
246
247
248
249
25
250
2500
251
252
253
254
255
256
257
258
259
26
260
2600
261
262
263
264
265
266
267
268
269
27
270
2700
271
272
273
274
275
276
277
278
279
28
280
2800
281
282
283
284
285
286
287
288
289
29
290
291
292
293
294
295
296
297
298
299
3
30
300
3000
301
302
303
304
305
306
307
308
309
31
310
311
312
313
314
315
316
3166
317
318
319
32
320
3200
321
322
323
324
325
326
327
328
329
33
330
331
332
333
334
335
336
337
338
339
34
340
341
342
343
344
345
346
347
348
349
35
350
3500
351
352
353
354
355
356
357
358
359
36
360
3600
361
362
363
364
365
366
367
368
369
37
370
371
372
373
374
375
376
377
378
379
38
380
381
382
383
384
385
386
387
388
389
39
390
391
392
393
394
395
396
397
398
399
4
40
400
4000
401
402
403
404
405
406
407
408
409
41
410
411
412
413
414
415
416
417
418
419
42
420
421
422
423
424
425
426
427
428
429
43
430
431
432
433
434
435
436
437
438
439
44
440
441
442
443
444
445
446
447
448
449
45
450
4500
451
452
453
454
455
456
457
458
459
46
460
461
462
463
464
465
466
467
468
469
47
470
471
472
473
474
475
476
477
478
479
48
480
481
482
483
484
485
486
487
488
489
49
490
491
492
493
494
495
496
497
498
499
5
50
500
5000
501
502
503
504
505
506
507
508
509
51
510
511
512
513
514
515
516
517
518
519
52
520
521
522
523
524
525
526
527
528
529
53
530
531
532
533
534
535
536
537
538
539
54
540
541
542
543
544
545
546
547
548
549
55
550
551
552
553
554
555
556
557
558
559
56
560
561
562
563
564
565
566
567
568
569
57
570
571
572
573
574
575
576
577
578
579
58
580
581
582
583
584
585
586
587
588
589
59
590
591
592
593
594
595
596
597
598
599
6
60
600
6000
601
602
603
604
605
606
607
608
609
61
610
611
612
613
614
615
616
617
618
619
62
620
621
622
623
624
625
626
627
628
629
63
630
631
632
633
634
635
636
637
638
639
64
640
641
642
643
644
645
646
647
648
649
65
650
651
652
653
654
655
656
657
658
659
66
660
661
662
663
664
665
666
667
668
669
67
670
671
672
673
674
675
676
677
678
679
68
680
681
682
683
684
685
686
687
688
689
69
690
691
692
693
694
695
696
697
698
699
7
70
700
7000
701
702
703
704
705
706
707
708
709
71
710
711
712
713
714
715
716
717
718
719
72
720
721
722
723
724
725
726
727
728
729
73
730
731
732
733
734
735
736
737
738
739
74
740
741
742
743
744
745
746
747
748
749
75
750
751
752
753
754
755
756
757
758
759
76
760
761
762
763
764
765
766
767
768
769
77
770
771
7711
772
773
774
775
776
777
778
779
78
780
781
782
783
784
785
786
787
788
789
79
790
791
792
793
794
795
796
797
798
799
8
80
800
8000
801
802
803
804
805
806
807
808
809
81
810
811
812
813
814
815
816
817
818
819
82
820
821
822
823
824
825
826
827
828
829
83
830
832
833
834
835
836
837
838
839
84
840
841
842
843
844
845
846
847
848
849
85
850
851
852
853
854
855
857
858
859
86
860
861
862
863
864
865
866
867
868
869
87
870
871
872
873
874
875
876
87691
877
878
879
88
880
881
882
883
884
885
886
887
888
89
890
891
892
893
895
896
897
898
899
9
90
900
9000
901
902
903
904
905
906
907
9075
908
909
91
910
911
912
913
914
915
916
917
918
919
92
920
922
9223372036854775808
923
924
925
926
927
928
929
93
930
931
932
934
935
936
937
938
939
94
940
941
942
943
944
945
946
947
948
949
95
950
951
952
953
954
955
956
957
958
959
96
960
961
962
963
964
965
966
967
968
969
97
970
971
972
973
974
975
976
977
978
979
98
980
981
982
983
984
985
986
987
988
989
99
990
991
992
993
994
9941
995
996
997
998
999
99928
99940
:
;
<
=
>
?
@
\
^
_
`
a
aa
ab
aba
abba
abbey
abbr
abc
able
ablon
about
above
abs
absolute
abstract
abu
ac
academia
academic
academy
accept
access
accessed
according
account
accounts
ace
acid
acre
acropyga
across
act
action
active
activities
activity
actor
actress
actually
ad
adam
adams
adb
add
addclass
added
adding
additional
address
adds
admin
administration
administrative
adobe
adrian
adult
advance
advanced
adventure
adventures
ae
aenictus
aerial
aerosmith
aes
af
afa
affair
affairs
afghan
afghanistan
afp
africa
african
africanus
afs
after
aftermath
ag
again
against
agaricus
age
agency
ages
ago
agreement
agriculture
ah
ai
aid
ain
air
airbus
aircraft
aires
airlines
airport
airways
ais
aise
ajax
ak
aka
akhalkalak
akon
al
alabama
alain
alan
alaska
alba
albania
albanian
albert
alberto
album
albums
alex
alexander
alexandre
alfred
ali
alias
aliases
alice
alien
align
alignbars
alive
aliyev
all
alla
alle
allegro
allen
allgemeine
alliance
allmusic
allow
allowed
allows
almost
alone
along
alpha
alphabet
already
alright
als
alsandro
also
alt
alternative
although
altlink
altvar
always
am
amanita
amazing
amazon
ambassador
amblyopone
amblyoponinae
ame
america
american
americans
amnesty
among
amor
amore
amount
amour
amsterdam
amy
an
ana
analysis
anarchism
anarchist
anatomy
anchor
ancient
and
andante
anderson
andre
andrea
andreas
andrei
andrew
andrews
android
andy
angel
angeles
angels
anger
anglo
angola
animal
animals
animation
ankara
ann
anna
annales
annals
anne
anniversary
annotated
annual
anochetus
anonychomyrma
another
ans
answer
ant
anthem
anthology
anthony
anthropology
anti
antiquity
antoine
anton
antonio
anwar
any
anybody
anymore
anyone
anything
ao
ap
apache
api
apocalypse
app
appear
appearances
appears
append
apple
application
applications
applied
apply
approach
appropriate
apr
april
ar
ara
arab
arabia
arabic
aragonesa
arbitration
arc
arch
archaeological
archaeology
architectural
architecture
archive
archived
archives
arctic
are
area
areas
arena
arg
argentina
argentine
args
argument
arguments
aria
arizona
ark
arm
arme
armed
armenia
armenian
armenians
armin
arms
army
arnold
around
array
ars
art
arte
arthur
article
articles
artist
artists
arts
as
asha
ashgate
asia
asian
asiatic
asin
ask
asked
asp
aspects
aspx
ass
assassin
assembly
assessment
assisted
associated
association
astronomical
astronomy
at
atari
atheist
athens
athletes
atlantic
atlas
atmosphere
atom
atomic
atp
attack
attempt
attr
attribution
atu
au
audi
audio
auf
auflage
aug
august
augustus
aus
ausf
austin
australia
australian
australopithecus
austria
austrian
author
authority
authors
auto
autobiography
automatic
automatically
autumn
aux
av
available
avant
avec
avenue
average
avgvstvs
aviation
avoid
avrich
aw
award
awards
away
awb
axe
az
azerbaijan
azerbaijani
azeri
azerrad
azərbaycan
b
ba
baa
babel
baby
bach
back
background
backstreet
bad
baden
bafta
bahamas
bahrain
baker
baku
bakı
balance
balkan
balkans
ball
ballad
baltimore
ban
band
bang
bangladesh
bank
banks
bar
barbara
barcelona
bardata
barnes
baron
barrel
barrett
barry
bars
barset
barto
bas
base
based
basic
basis
basketball
bass
battle
battles
batumi
bay
bayan
bayern
bb
bbc
bc
bd
bdfutbol
be
beach
beam
bear
beat
beatles
beautiful
beauty
became
because
beck
become
becomes
bee
been
beer
beethoven
before
begin
beginning
begins
behavior
behind
bei
beijing
being
beirut
belarus
belgium
believe
bell
belle
bells
belong
below
ben
benjamin
bennett
benz
ber
berg
berger
berkeley
berlin
berliner
bern
bernard
bernie
best
bet
beta
bethesda
better
between
beyond
bf
bg
bgmaps
bh
bhavan
bhutan
bi
bible
bibliography
big
bild
bill
billboard
billy
bin
bingen
bio
biodiversity
biographical
biographie
biographies
biography
biological
biology
bir
bird
birds
birth
birthday
bis
bishop
bit
black
blackwell
blade
blair
blake
blank
blica
blind
block
blog
blogs
blogspot
blood
bloody
bloomberg
blu
blue
blues
bmatrix
bmg
bmp
bmw
bn
bo
board
bob
bochini
body
boeing
bohemian
bold
boletus
bolivia
bolton
bomb
bon
bond
bones
bong
bonn
boogie
book
books
boolean
boom
border
boris
born
bosnia
boston
bot
both
bottle
bottom
boulez
bourbon
box
boy
boyd
boys
bp
br
braille
brain
branch
brand
brasil
brave
brazil
brazilian
break
breaking
breath
breathe
brian
brick
brics
bridge
brief
brill
bring
brit
britain
britannica
british
britten
broadcast
broadcasting
broadway
broken
bronze
bros
brother
brothers
brown
browser
bru
bruce
bruno
brussels
brute
bs
bt
btr
bts
bu
buch
buchanan
budapest
buddhism
buenos
bug
build
builder
building
built
bulgaria
bulgarian
bull
bulletin
bureau
burke
burkina
burma
burn
burning
bus
bush
business
but
butler
butterfly
button
buy
bwv
by
byte
byzantine
byzantium
c
ca
cabinet
caesar
cafe
cage
cairo
cal
calcio
calendar
california
call
called
calling
calls
cambodia
cambridge
came
camera
cameron
cameroon
camp
campaign
campbell
campeonato
camponotus
can
canada
canadian
canal
candidates
candy
cannot
canon
canonical
cantons
canvas
cap
capcom
cape
capital
capitalism
capitol
captain
caption
capture
car
card
cardiocondyla
cards
care
carebara
career
careful
caribbean
carl
carlos
carnival
carol
carolina
caroline
carpet
carr
carter
cartoon
cas
casa
case
cases
cast
castle
castro
cat
cataglyphis
catalog
catalogue
cataulacus
catch
categories
category
cathedral
catherine
catholic
cats
caucasian
caucasus
cause
causes
cave
cbc
cbs
cc
ccite
cctld
cd
cdot
ce
celebration
celebrity
cell
cells
celtic
censimento
census
cent
centenary
center
central
centre
centro
centromyrmex
centuries
century
cephalotes
cerapachyinae
cerapachys
ceremony
certain
cf
cfg
cgi
ch
cha
chad
challenge
chamber
champion
champions
championship
championships
chan
chance
change
changed
changes
changing
channel
chaos
chapter
char
character
characters
charisma
charles
charlie
charlotte
chart
charts
che
check
cheek
chelsea
chemical
chemistry
chess
chi
chicago
chief
child
childhood
children
chile
chili
china
chinese
chisholm
choice
choose
chris
christ
christian
christianity
christina
christine
christmas
christoph
christopher
chronicle
chronicles
chronologie
chronology
church
churches
ci
cia
cild
cilt
cinema
circle
circus
cis
cit
citation
cite
cited
citetb
cities
citizen
city
citypopulation
ciudad
ciullini
civil
civilization
ck
cl
claim
claims
clan
clarendon
clark
clash
class
classes
classic
classical
classics
classification
claude
cle
clean
clear
click
climate
clio
clitocybe
clock
close
closer
cloud
clouds
club
cm
cn
cnn
co
coach
coast
coat
code
codes
codex
cognitive
cohen
coins
col
cola
cold
coldplay
cole
colin
coliseum
coll
collaboration
collapse
collapsible
collected
collection
collections
collective
college
collins
colombia
colonial
color
colors
colour
colspan
columbia
column
columns
com
combat
combination
come
comedy
comes
comfortably
comic
comics
coming
comitas
comma
command
commander
comment
commentary
comments
commerce
commission
committee
commodore
common
commons
commonwealth
communication
communications
communism
communist
communities
community
como
companion
company
comparative
comparison
competition
competitive
competitiveness
compiled
complete
complex
composers
composition
compositions
comprehensive
computer
comune
con
concat
concept
concert
concerto
concise
condition
conference
config
configuration
conflict
confusion
congo
congress
conn
connection
conquest
conservation
consider
considered
console
conspiracy
constantine
constitution
constitutional
construction
contact
contain
container
containing
contains
contemporary
content
contest
context
continue
continuum
contribution
contributions
contributor
control
controls
convention
conversation
convert
cook
cooking
cool
cooper
cooperation
coord
coordinates
copa
copenhagen
copy
copyright
core
cornell
corner
corporation
corps
corpus
correspondence
cortinarius
cos
cosmic
cost
costa
could
council
count
countdown
counter
countries
country
counts
county
coup
course
court
cov
cover
covid
cowboy
cox
cr
cra
craig
craques
crash
crassispira
crazy
cream
create
created
creating
creation
creative
creator
creed
creole
crime
crimes
criminal
crimson
crisis
critical
critics
critique
croatia
croatian
crop
cropped
cross
crown
cruise
crusade
crusades
cruz
cry
crystal
cs
css
csstext
ct
cu
cuba
cubic
cuisine
culo
cult
cultural
culture
cultures
cup
cups
cur
current
currently
custom
customs
cut
cv
cw
cyprus
cz
czech
d
da
daily
dall
dallas
damage
dame
dan
dance
dancing
danger
dangerous
daniel
danish
dans
dansk
daphnella
dar
dark
darkness
das
data
database
datatype
datavalue
date
dateformat
dates
dato
daughter
dave
david
davies
davis
dawn
day
days
db
dc
dd
de
dead
deadline
deal
dean
dear
death
debate
debut
dec
decca
december
decided
decimal
decision
declaration
decline
decrescente
dedicated
deep
def
default
defaults
defence
defense
define
defined
definition
degree
degrees
dei
del
delete
deleted
deletion
delhi
delivery
dell
della
delle
delta
dem
demo
democracy
democratic
den
denmark
dennis
department
depeche
deprecated
depth
der
derek
des
described
description
descriptions
desert
design
desire
despite
destiny
destruction
det
detail
detailed
details
detroit
deu
deutsch
deutsche
deutschen
deutschland
deux
developer
development
devil
devlet
df
di
dia
diacamma
dialog
diamond
diamonds
diana
diary
dick
dictionary
did
didn
die
died
diego
dies
dieter
diff
difference
different
difficult
digest
digit
digital
digits
dimitri
din
dinamo
dio
diplomacy
diplomatic
dir
dire
direct
direction
directly
director
directory
dirty
disco
discography
discogs
discothyrea
discovery
discussion
discussions
disease
disney
display
displayed
dissertation
distance
distribution
district
dite
dition
ditions
div
diversity
divine
division
dj
dk
dl
dms
dmy
dna
do
dobo
doc
doctor
doctrine
document
documentary
documentation
documents
does
doesn
dog
dogs
doi
doing
dolichoderinae
dolichoderus
dom
domain
dome
domino
don
donald
done
donisthorpe
door
doors
dorylinae
dorylus
dorymyrmex
dos
dot
double
doubleday
douglas
dove
down
download
dq
dr
draft
dragon
drama
draw
dre
dream
dreams
dreamworks
drink
drive
driver
drop
drug
drum
drums
dry
ds
dsh
dt
dti
du
dub
dubai
duc
duchess
duck
due
duke
duncker
dur
duran
durch
during
dust
dutch
duty
dvd
dx
dy
dynamics
dynamo
dynasty
dz
e
ea
each
eagle
earlier
earliest
early
earth
east
eastern
easy
ec
echo
echoes
ecitoninae
eck
eclipse
ecology
economic
economics
economist
economy
ectatomminae
ecuador
ed
eden
edgar
edge
edicio
edinburgh
edit
edited
editing
edition
editions
editor
editorial
editors
edits
editura
edmund
eds
edu
education
educational
edward
edwards
edwin
ee
effect
effects
eg
egypt
egyptian
eh
ehrafworldcultures
ei
eight
ein
eine
einer
eines
einstein
either
ek
el
elder
eleanor
elected
election
elections
electric
electronic
elektra
elem
element
elements
elephant
elisabeth
elite
elizabeth
elle
elo
else
elseif
elton
em
emaps
embassy
emery
emi
emily
emirates
emma
emperor
empire
empress
empty
en
enabled
enciclopedia
encore
encyclopaedia
encyclopedia
encyclopædia
end
endless
ends
enemy
energy
eng
engine
engineering
england
english
enough
ensemble
enter
enterprise
enterprises
entertainment
entity
entityid
entre
entries
entry
env
environment
environmental
eo
ep
epic
episode
epsilon
equal
equality
equinoxe
equivalent
er
era
eric
erik
ernest
ernst
err
error
errors
es
esc
escape
eso
espan
especially
espn
essay
essays
essential
est
estadi
este
estimativas
estonia
et
etc
ethics
ethiopia
ethnic
ethnologue
eu
eugene
eurhopalothrix
euro
europa
europe
european
eurovision
eusebius
ev
eva
evans
even
evening
event
events
ever
every
everybody
everyone
everything
evidence
evil
evolution
evolutionary
evt
ex
example
examples
excel
except
excerpt
exchange
exclusive
executive
exercise
exhibition
exile
exist
existing
exists
exo
expanded
expedition
experience
experiment
experimental
exploration
explorer
expo
express
expression
extended
extension
external
extra
extract
extreme
eye
eyes
f
fa
faber
face
facebook
faces
fact
factbook
factor
factory
facts
faculty
failed
failure
fair
faire
faith
fall
falling
fallout
falls
false
fame
families
family
famous
fan
fantastic
fantasy
faq
far
farm
fashion
fast
fat
fate
father
favorite
fb
fbi
fc
fe
fear
feat
feature
featured
features
feb
february
federal
federation
feedback
feel
feeling
feet
felix
female
femme
ferdinand
ferna
fernando
festival
fever
few
ff
fi
fiba
fico
fiction
fide
field
fields
fifa
fifth
fight
fighter
fighters
fighting
figure
figures
file
files
fill
film
films
filter
fin
final
finally
finals
finance
financial
find
finding
fine
finland
finnish
fiqriasidamonize
fire
firefox
first
fischer
fish
fisher
fitzgerald
five
fix
fixed
fl
flag
flags
flame
flaming
flash
flesh
flickr
flight
float
flood
floor
flora
florence
florida
flow
flower
flowers
floyd
fly
flying
fm
fmt
fo
focus
folk
folklore
follow
following
font
fontsize
foo
food
fool
foot
football
footballdatabase
footballers
footballfacts
for
forbes
force
forces
ford
foreign
forel
forest
forever
forget
forgotten
form
formal
format
formation
formats
former
formerly
formica
formicidae
formicinae
forms
fort
fortress
fortune
forum
forward
found
foundation
four
fourth
fox
fr
fra
frac
fragile
frame
frameless
framework
franc
france
frances
francesco
francis
francisco
franco
frank
frankfurt
franklin
franz
fraser
fre
fred
frederic
frederick
free
freedom
freeman
french
fresh
friday
friedman
friedrich
friend
friendly
friends
friendship
fritz
from
front
frontier
frontiers
fru
ft
fu
fuck
fuel
full
fun
function
functions
fund
funeral
fungi
funk
further
futbol
future
fw
fx
g
ga
gabriel
gadget
gaeser
gaga
gala
galaxy
gale
gallery
game
gamecube
games
gamma
gang
gap
garden
gardens
gary
gas
gate
gates
gatsby
gay
gazette
gazetteer
gb
ge
gear
geffen
geforce
gelati
gemmula
gen
gender
gene
genealogy
general
generally
generation
genesis
geneva
genocide
genus
geo
geoffrey
geographic
geographical
geography
geological
georg
george
georges
georgia
georgian
gerald
german
germany
geschichte
gesellschaft
get
getargs
getelementbyid
getparent
gets
getting
ghana
ghost
ghosts
gi
giant
gif
gig
gilbert
gimme
gina
gio
giomac
giorgi
giovanni
girl
girls
give
given
gives
gje
gl
glass
global
globe
gloria
glory
gmbh
gnamptogenys
gnome
gnu
go
goal
goals
gobrona
god
gods
goes
gogh
going
gold
golden
gone
gong
gonio
gonna
good
goodbye
goodreads
google
gordon
gorillaz
got
gov
governance
government
governor
gp
gps
gr
gra
grace
graham
grammar
grammy
gran
grand
grande
grange
grant
graphemica
grave
gray
gre
great
greater
greatest
greece
greek
green
greenwood
gregory
grey
gridcolor
griffiths
ground
group
groups
grove
growing
growth
gru
gruyter
gsm
gsub
gt
gta
gtx
gu
guard
guardian
guevara
guide
guidelines
guides
guilty
guinea
guinness
guitar
gulf
gun
guns
gustav
gutenberg
guy
h
ha
haben
habsburg
had
hair
hakimiyyəti
hale
half
hall
halo
hamburg
hamilton
hammer
han
hand
handbook
handbuch
handle
handler
hands
hans
happened
happiness
happy
haqqında
hard
harmony
harold
harper
harpercollins
harris
harry
hart
harvard
harvest
harvey
has
hat
hate
haus
have
haven
having
hawkwind
hbar
hbo
hcl
hd
hdr
he
head
header
heading
heads
health
hear
heart
hearts
heat
heaven
heavy
hebrew
heep
heidelberg
height
heinrich
heinz
held
helen
helena
hell
hello
helmut
help
henri
henry
her
herald
herbert
here
hergest
heritage
herman
hermann
hero
heroes
het
hey
hezbollah
hg
hi
hidden
hide
high
higher
highest
highlights
highway
hikr
hill
hills
hilton
him
himself
hindu
hip
hipgnosis
his
histo
histoire
historia
historic
historical
histories
history
hit
hitler
hits
hl
hms
hno
ho
hochschule
hockey
hof
hold
holding
hole
holiday
holland
hollywood
holocaust
holt
holy
home
homepage
homo
honey
hong
honor
hop
hope
hopes
hopkins
horizon
horizontal
horror
horse
hospital
host
hot
hotel
hotels
houghton
hour
hours
house
household
houses
houston
how
howard
however
hp
hr
hrer
hrsg
hrung
htc
htm
html
http
https
hu
hubble
hudson
hugh
hughes
hugo
human
humblot
hundred
hungarian
hungary
hunt
hunter
hunting
hurricane
hymenoptera
i
ia
ian
iana
iata
ib
ibge
ibm
ibn
ic
icao
icd
ice
iceland
ich
icon
icrc
icty
id
idea
ideas
identifier
identity
idh
idol
ie
ietf
if
ifany
iffhs
ifset
ign
ii
iii
il
ili
ilia
illinois
illusion
illustrated
im
image
images
imagesize
imagine
imax
imbox
imdb
img
imp
impact
imperial
implications
important
improve
in
inc
inch
include
included
includes
including
incorporates
increment
independence
independent
independiente
index
india
indian
indiana
individual
indo
indonesia
industrial
industries
industry
ine
infinite
influence
info
infobox
information
infty
initial
initiative
inline
inner
inocybe
input
inquisitor
inscription
insert
inside
instagram
instead
institut
institute
institution
institutions
instituto
instrumental
int
integer
intel
intelligence
inter
interactive
interest
interface
interior
internal
international
internationale
internet
interpretation
interscope
interstellar
interview
interviews
interwiki
into
intro
introduction
invalid
invasion
invisible
io
ios
ip
ipa
ipad
ipairs
iphone
iq
ir
ira
iran
iranian
iranica
iraq
ireland
iridomyrmex
irish
iron
is
isaac
isabel
isbn
isis
isla
islam
islamic
island
islands
isle
isn
iso
israel
israeli
issn
issue
issues
ist
istanbul
it
italia
italian
italiana
italic
italy
item
items
itf
its
itself
itunes
itv
iucn
iv
ivan
ix
j
ja
jaba
jack
jackson
jacob
jacques
jahre
jam
james
jamiroquai
jan
jane
janeiro
january
japan
japanese
japon
jason
java
javascript
jay
jazz
je
jean
jeff
jefferson
jeffrey
jennifer
jeremy
jersey
jerusalem
jesus
jet
jewish
jews
jim
jimmy
jo
joachim
joan
job
joe
johann
johannes
john
johnny
johns
johnson
join
joins
joint
jon
jonathan
jones
jordan
jorge
jose
josef
joseph
joshua
journal
journals
journey
joy
jp
jpeg
jpg
jquery
jr
js
json
jstor
ju
juan
judas
jude
judoinside
julho
julia
julian
julie
july
jump
jun
june
jungle
junior
just
justice
justify
justin
k
ka
kaiser
kansas
karabakh
karate
karel
karen
karl
kate
katherine
kazakhstan
ke
keane
keep
keith
kelly
ken
kennedy
kenneth
kent
kenya
kept
kershaw
kevin
key
keyboard
keys
kg
khan
kherkheulidze
ki
kid
kids
kill
killed
killer
killers
killing
kim
kind
kindle
king
kingdom
kings
kirche
kiss
kiste
kit
klaus
km
knight
knights
know
knowledge
known
knows
ko
koda
komitəsi
kong
korea
korean
kos
kosovo
kr
kraftwerk
krako
ku
kultur
kunst
kurdish
kurt
kv
kw
kyiv
kyrgyzstan
kz
l
la
lab
label
labels
labor
laboratory
labour
ladies
lady
laissez
lake
lakes
lamb
lambda
land
landkreis
lands
landscape
lane
lang
language
languages
lanka
laos
lapi
lapse
large
larger
largest
larry
las
lasioglossum
last
lat
late
later
latest
latin
latvia
laura
law
lawrence
laws
lay
layer
lb
lc
lccn
le
lead
leader
leaders
leadership
leading
leaf
league
learn
learning
least
leave
leaving
lebanese
lebanon
leben
leccinum
lecture
lectures
led
lee
left
leg
legacy
legal
legend
legends
leibniz
leiden
leipzig
len
length
lenta
leo
leon
leonard
lepiota
leptogenys
leptomyrmex
les
less
lessons
let
letter
letters
level
lewis
lexikon
lg
li
lib
liber
liberal
liberalism
libertarian
libertarianism
liberty
libraries
library
libya
license
lie
lies
lieutenant
life
lifetime
liga
light
lightning
lights
lika
like
lima
limit
limited
limits
lincoln
linda
lindsey
line
linepithema
lines
linguistics
link
linked
links
linux
liometopum
lion
lisa
lisbon
list
lista
listed
listen
listing
lists
literary
literature
lithuania
little
live
liverpool
lives
living
livre
ll
llc
ller
ln
lo
load
loc
local
location
lock
locke
log
logic
logo
london
lonely
long
longer
longman
longrightarrow
look
looking
looks
loop
lord
los
lose
losing
lost
lot
louis
louise
love
loved
lover
lovers
loves
loving
low
lower
lp
lt
ltd
lu
lua
lucasfilm
lucky
lucy
ludwig
luis
lumia
lust
luxembourg
lv
m
ma
mac
macedonia
machine
macmillan
mad
madagascar
madame
made
madison
madonna
madrid
magazine
magic
magnetic
mai
mail
main
mainsnak
maint
mainz
maison
major
make
maker
makes
making
mal
malafaya
malaysia
malcolm
male
mali
mall
malta
mama
mammals
man
management
manager
manchester
mann
mansion
manual
manually
manuel
manuscript
manuscripts
many
map
maps
mar
maradona
marc
marcelo
march
marco
marcus
margaret
margin
mari
maria
marie
marillion
marine
mario
maritime
mark
marker
market
marks
markup
marriage
married
mars
marshall
martha
marti
martin
marvel
mary
mask
mason
mass
massachusetts
massacre
massive
master
masters
match
matches
material
materials
math
mathbf
mathematics
mathrm
mathsf
matrix
matt
matter
matters
matthew
maurice
max
maxi
maximum
may
maya
maybe
mayer
mayor
mayr
mb
mbox
mc
mca
mcc
mccartney
mcclean
mcfarland
md
me
mean
meaning
means
mechanics
med
medal
medgeorgia
media
mediawiki
medical
medici
medicine
medieval
mediterranean
medley
meet
meeting
meets
mega
mehman
mein
mel
melberg
melbourne
melody
member
members
memoir
memoirs
memorial
memories
memory
men
menu
mer
meranoplus
mercedes
mercury
mercy
mesa
message
messages
met
meta
metacritic
metal
metallica
method
methods
metro
metropolitan
mexico
meyer
mg
mgm
mi
mia
michael
michel
michigan
microsoft
mid
middle
midnight
mifflin
mig
might
migration
miguel
mike
mikheil
milan
milano
mile
miles
military
milk
millennium
miller
milli
million
milton
min
mind
mine
mini
minister
ministry
minor
minute
minutes
mir
miracle
mirror
mises
miss
missile
missing
mission
mit
mitchell
mitsubishi
mix
mixtec
mj
mk
ml
mm
mn
mo
mobile
mod
mode
model
models
modern
module
modules
moi
mojo
mol
molecular
moll
moment
mon
monarch
monarchy
monastery
monday
monde
money
mongolia
monitor
monitoring
monkey
monster
monte
montenegro
month
monthly
months
montreal
monument
monuments
moon
moonlight
moore
moral
more
morgan
morning
morris
morrison
moscow
mosque
most
mostly
mother
motion
motor
motors
mount
mountain
mountains
mouse
move
movement
moves
movie
movies
moving
mozilla
mp
mr
mrs
ms
msg
msn
mt
mtv
mu
much
muhammad
multi
multiple
mundo
munich
munici
municipal
municipalities
municipality
murder
murray
muse
museo
museum
museums
music
musical
musicians
musik
musique
muslim
muslims
must
mute
mvp
mw
my
myanmar
myopias
myself
myspace
mystery
myth
mythology
n
na
nabla
nabokov
nach
nacional
nacl
naga
nagorno
name
named
names
namespace
namibia
nancy
naoh
napoleon
napoli
narod
nas
nasa
nation
national
nationale
nationalism
nations
native
nato
natural
nature
naval
navbar
navbox
navy
nazi
nb
nba
nbc
nbl
nchen
nd
nde
ndez
ne
near
nebula
nec
necessary
need
needed
needs
negative
neil
neivamyrmex
nel
nelson
neo
nepal
nes
net
netflix
netherlands
network
networks
neue
neuroscience
never
new
news
newsletter
newspaper
newton
next
nfl
ng
ngc
nh
ni
nicaragua
nice
nicholas
nichols
nicht
nick
nicolas
nicolson
nie
nien
nig
niger
nigeria
night
nightmare
nights
nightwish
nika
nil
nin
nina
nine
nineteenth
nino
nintendo
nirvana
nj
nl
nm
nme
nn
no
nobel
nobelprize
noble
nobody
nodar
node
noeditsection
noel
noise
nokia
non
none
nord
normal
norman
north
northern
norton
norway
norwegian
nos
not
note
notes
nothing
notice
notoc
notorious
notre
nouvelle
nov
nova
novel
novels
november
now
np
nplg
npr
nr
ns
nster
nt
nu
nuclear
null
num
numb
number
numbers
nussbaum
ny
nytimes
nz
o
oaks
oasis
obama
obituary
obj
object
objective
objects
oblast
observatory
observer
oc
occupation
ocean
och
oclc
oct
october
od
oder
odyssey
oecd
of
off
office
official
offset
oficial
often
og
oh
oi
oikos
oil
ois
ok
okato
ol
ola
old
oldid
olga
olimpbase
oliver
olympic
olympics
om
oman
omega
ommadawn
on
once
one
onepage
oneplus
ones
online
only
onze
op
opel
open
opening
opens
opera
operating
operation
operations
operator
operatorname
opinion
opposition
opt
option
optional
options
opus
or
oral
orange
orchestra
order
orenstein
org
organic
organisation
organization
oricon
orient
oriental
orientation
origin
original
originally
origins
orion
oro
orthodox
orthodoxy
os
oscar
osmanlı
osprey
ot
other
others
otherwise
otogi
otto
ottoman
ou
our
out
outlook
output
outside
ouzo
over
overdrive
override
overture
overview
own
owner
oxford
oxyge
oxygene
oz
p
pa
pablo
pacific
padding
page
pages
pai
paid
pain
paint
painting
paintings
pairs
pakistan
pal
palace
palacio
palestine
palestinian
palgrave
palmer
pan
panama
panorama
panoramio
panzer
paolo
papa
paper
paperback
papers
papua
par
para
parade
paradise
paraguay
param
parameter
parameters
paramount
params
parent
paris
park
parker
parks
parliament
parliamentary
parlophone
parms
parque
parse
part
partial
particular
parties
partners
partnership
parts
party
pas
pass
passed
passion
past
path
patricia
patrick
pattern
patterns
paul
paulo
pay
pays
pb
pbs
pc
pd
pdf
pe
peace
pearl
pearson
pedro
pele
pen
penguin
pennsylvania
people
peoples
pepper
peppers
per
perfect
performance
period
periodical
periods
perl
perry
persian
person
personal
persons
perspective
perspectives
peru
pet
peter
petersburg
petit
pew
pg
pgn
ph
phantom
phase
pheidologeton
phi
phil
philadelphia
philatlas
philip
philippe
philippine
philippines
philips
phillips
philosophical
philosophy
phoenix
phone
photo
photographs
photography
photos
php
physical
physics
pi
piano
picture
pictures
pid
pie
piece
pieces
pierre
pierrend
pilot
pink
pios
pipe
piper
pl
placar
place
places
plagiolepis
plain
plan
planet
planets
planning
plans
plant
plantilla
plants
plastic
plate
platform
platinum
play
played
player
players
playing
plays
playstation
plaza
please
pleasure
pleurotomella
plotarea
plotdata
plus
pm
pmc
pmid
png
po
poblacio
pocket
podomyrma
poe
poems
poet
poetry
point
points
poker
poland
polar
police
policies
policy
polish
political
politics
politik
polski
poly
polydor
polyrhachis
ponerinae
ponsonby
poor
pop
pope
popes
popper
pops
populac
popular
population
popup
por
porcupine
port
portable
portal
portrait
portugal
portuguese
pos
position
positive
possible
post
pot
potter
pound
pour
poverty
power
powers
pp
pr
pra
practice
practices
prague
praha
pray
prayer
pre
precision
predefinic
prefecture
preferences
preferred
prefix
prefixes
premier
prepared
preprocesssinglearg
presence
present
presentation
presented
presents
president
presidential
press
pressure
pretty
preview
previous
pri
price
pride
primary
prime
primera
prince
princes
princess
princeton
principles
print
printing
prison
pristomyrmex
private
prix
prize
pro
probably
problem
problems
proceedings
process
produced
product
production
productions
products
prof
professional
professor
profile
profiles
program
programme
programming
progress
progressive
project
projects
prop
properties
property
proposal
proposals
protect
protected
protection
protest
protests
protocol
prototype
provide
provided
provides
province
provinces
provincia
provincial
ps
pseudolasius
psychology
pt
pu
pub
public
publication
publications
published
publisher
publishers
publishing
puerto
puppets
pure
purple
purpose
push
put
putin
px
pywikipedia
q
qatar
qid
qu
qualifier
qualifiers
quality
quantum
quarter
quarterly
quba
que
quechua
queen
queens
quercus
query
quest
question
questions
qui
quiet
quit
quote
quoted
quotes
r
ra
race
racing
radical
radio
radiohead
rage
railway
rain
rainbow
raj
ralph
ram
rand
random
range
rank
ranked
ranking
rap
rare
rastrelli
rate
rather
ratings
raw
ray
raymond
rayon
rb
rc
rca
rd
re
reach
read
reader
readers
reading
ready
real
reality
really
reason
reasons
rebel
rec
received
recent
recognition
reconstruction
record
recorded
recording
recordings
records
rect
red
redir
redirect
ref
refer
reference
references
reflections
reform
refugees
regards
region
regional
regions
register
reich
reign
related
relations
relationship
relative
release
released
releases
relevant
relief
religion
religions
religious
rem
remains
remember
remix
remixes
remove
removed
ren
renaissance
rendez
rene
rep
replace
reply
report
reporter
reports
reprint
reprinted
reprise
repu
republic
reputation
request
requested
requests
require
required
requires
res
research
reserve
residence
resident
resistance
resolution
resource
resources
response
respublikası
respublikasının
rest
result
results
ret
retired
retreat
retrieved
return
returned
returns
reuters
rev
revealed
revenge
review
reviews
revised
revision
revisited
revista
revolution
revolutionary
revolver
revue
rex
rey
reynolds
rez
rfc
rgb
rgen
rhapsody
rho
rhythm
rhytidoponera
ri
ria
riaa
ric
rica
ricardo
rich
richard
rico
ride
ridge
rie
right
rightarrow
rights
ring
rio
rise
rising
risk
rite
ritual
river
rivers
rk
rkiye
rm
rn
ro
road
robert
roberto
roberts
robin
robinson
robot
rock
rocket
rocks
rockstar
rodriguez
roger
roi
roland
role
roll
rolling
rom
roma
roman
romance
romania
rome
ron
ronald
room
root
roots
rosa
rose
roses
ross
rothbard
rotten
rough
round
route
routledge
row
rowargs
rows
rowspan
roy
royal
rs
rss
rsssf
rt
rte
rtl
ru
rubber
rudolf
rugby
rule
rulers
rules
rumi
run
running
rus
rusalem
rush
russell
russia
russian
ruth
rw
ryan
s
sa
sabbath
sacred
sad
sadie
safe
safety
saga
sage
said
saint
saints
sale
saliner
sally
salt
salvador
salzburg
sam
same
samsung
samuel
san
sand
sandbox
sanders
sandman
sans
santa
santiago
santos
santschi
sarah
sars
satellite
saturday
saturn
saucerful
saudi
savage
save
saved
savoy
saw
saxon
say
says
sb
sbs
sc
scale
scalemajor
scaleminor
scarecrow
scene
scheda
scheme
schmidt
schneider
scho
schoenberg
scholar
scholars
school
schools
schuster
sci
science
sciences
scientific
scientist
scientists
scope
score
scored
scores
scotland
scott
scottish
scream
screen
scribner
script
scrolls
sd
se
sea
seal
search
season
seasons
seattle
sebastian
sec
second
secondary
seconds
secret
secretary
secrets
section
sections
security
see
seek
seen
sega
segu
sein
seine
select
selected
selection
self
selling
sen
senate
senator
send
sense
sent
seoul
sep
separate
separated
separation
separator
sepc
sept
september
sequence
ser
serbia
serbian
serie
series
server
service
services
session
sessions
set
sets
setting
settings
settlement
seven
seventh
several
sex
sexo
sexual
sf
sg
sgt
sh
shadow
shadows
shady
shah
shake
shall
shankly
shape
share
shared
sharp
shattuck
shaw
she
sheet
shell
shi
shift
shine
ship
sho
shock
shoes
shop
short
shot
shotha
should
show
showing
shown
shows
shtml
si
sich
side
sidebar
sides
sie
siege
sierra
sigma
sign
significant
signpost
signs
silence
silent
silk
silver
similar
simon
simonia
simple
simply
sims
sin
since
sing
singapore
singer
singh
single
singles
sings
sio
sir
sire
sister
sisters
site
sites
sitio
situation
six
sixth
siyahıyaalınması
size
sjabloon
sk
ska
ski
skies
skin
skip
sky
sl
sleep
sleeping
slim
slow
sm
smail
small
smart
smile
smith
smithsonian
smoke
sms
sn
snak
snooker
snow
so
sobre
socar
soccer
soccerway
social
socialism
socialist
socie
society
sofia
soft
software
softworks
sol
solar
sold
soldier
soldiers
soleil
solenopsis
solid
solo
solomon
solti
some
somebody
someone
something
sometimes
somewhere
son
song
songs
sonic
sons
sony
soon
sorrow
sorry
sort
soul
sound
sounds
soundtrack
source
sources
south
southeast
southern
sovereign
soviet
sp
space
spaces
spaghetti
spain
span
spanish
speak
speaking
special
species
specific
specified
specify
spectrum
speech
speed
spencer
spider
spiegel
spin
spirit
spiritual
split
sport
sportall
sports
sprache
spring
springer
sql
sqrt
squad
square
sr
src
sri
ss
ssr
st
sta
stadium
stadt
staff
stage
stalin
stamp
stamps
stanbul
stand
standard
standing
stanford
stanley
star
stars
start
started
starting
state
statement
statements
states
station
stations
statistical
statistics
statistika
statoids
stats
statue
status
stay
steam
steel
stefan
step
stephen
steps
steve
steven
stewart
stica
still
sting
sto
stockholm
stokkermans
stone
stones
stop
store
storia
stories
storm
story
str
straight
straits
strange
stranger
strangers
strategic
strategy
strathern
strauss
street
streets
strike
string
strings
strip
stripped
strong
structure
structures
struggle
stuart
student
students
studien
studies
studio
studios
study
stuff
stupid
stuttgart
style
styles
su
sub
subject
submarine
submit
subpage
subscription
substitute
success
succession
such
sudan
suffix
sugar
suicide
suite
sul
sullivan
sultan
sum
summary
summer
summit
summitpost
sun
sunday
sunrise
sunset
sunshine
suny
super
superior
supplement
support
supported
supreme
sur
sure
surface
surprizi
surrender
survey
survival
sus
susan
sustainable
sutton
suv
sv
svg
sw
swan
sweden
swedish
sweet
swift
swing
swiss
switch
switzerland
sword
sydney
symbian
symbol
symbols
syme
symphony
symposium
syndrome
syntax
syria
system
systems
səh
t
ta
tab
table
tables
tag
tags
tai
tail
taiwan
take
taken
takes
taking
tale
tales
talk
talking
talks
tall
tamil
tamok
tangerine
tango
tank
tanzania
tapinoma
target
tarihi
taro
taste
tat
tatra
tauris
taxon
taylor
tb
tbilisi
tbol
tc
tcp
td
te
tea
teacher
teaching
team
teams
tear
tears
teatro
teau
tech
technical
technologies
technology
technomyrmex
ted
teen
tehran
tel
telegraph
telephone
television
tell
temperature
templat
template
templates
temple
tempo
temps
ten
ter
term
terms
terra
territorial
territory
terror
terrorism
test
testcases
testing
tests
tetraponera
texas
text
textcolor
texte
texts
th
tha
thai
thailand
thames
than
thank
thanks
that
the
theater
theatre
theft
theguardian
their
them
theme
themselves
then
theodor
theodore
theory
there
therefore
thermal
these
thesis
theta
they
thin
thing
things
think
thinking
third
this
thomas
thompson
those
though
thought
thousand
three
through
thumb
thumbnail
thunder
thursday
thus
ti
tibet
tibetan
tica
ticker
tie
tiger
til
till
tim
time
timeaxis
timeline
times
timothy
tin
tip
title
titles
titsingh
tl
tnt
to
toc
today
todo
together
tokoko
tokyo
told
tom
tomatoes
tomb
tome
tomo
tomorrow
tonight
tonumber
tony
too
took
tool
toolbar
tools
tooltip
top
topic
topics
toppdoma
tornike
toronto
tostring
total
touch
tour
tourism
tourist
tournament
toward
towards
tower
town
towns
tr
tra
track
tracking
tracks
trade
tradition
traditional
traditions
traduction
traduit
traffic
tragedy
trail
train
training
trance
trans
transcript
transfer
transfermarkt
transformation
transition
transl
translate
translated
translation
translations
translator
transmission
transport
travel
tre
treasure
treatment
treaty
tree
trees
tres
trial
tribe
tribune
tribute
tricholoma
trick
trier
trim
trip
triple
triumph
troops
trouble
true
trust
trustees
truth
try
ts
tt
tu
tubular
tudes
tunnel
turkey
turkish
turn
turner
turning
turns
turridae
tv
twelve
twentieth
twenty
twice
twilight
twin
twitter
two
txt
type
typeof
types
u
ua
ubuntu
ucode
uefa
ui
uk
ukraine
ukrainian
ul
ultimate
ultra
um
un
una
und
undderdie
undefined
under
underground
understanding
underworld
undp
une
unesco
uneven
unfinished
unicef
unicode
union
unique
unit
united
units
unity
univ
universal
universe
universidad
universita
university
unix
unkle
unknown
unnamed
unofficial
unsubscribe
unter
until
up
update
updated
upload
upon
upper
upright
ur
urban
uri
uriah
url
uruguay
us
usa
usage
usb
use
used
useful
user
users
uses
using
uss
ussr
ustring
usually
ut
utc
utilities
utype
uzbekistan
v
va
val
valencia
valid
valley
value
values
van
vandalism
var
variable
variant
variety
various
vatican
vault
ve
vec
vegas
vehicle
velvet
venezuela
venice
venus
ver
vera
verlag
version
versions
vertical
vertigo
very
vh
vhs
vi
via
vice
victor
victoria
victory
vida
video
videos
vie
vienna
vietnam
view
views
vii
viii
viking
villa
village
ville
vincent
vintage
violence
virgin
virginia
virtual
virus
visible
vision
visit
vista
visual
visualeditor
vita
viva
vladimir
vlət
vo
vocal
vocals
vogue
voice
voices
vol
volcano
vollenhovia
vologda
vols
volume
volumes
vom
von
vorlage
vote
voting
vous
voyage
vs
vu
və
w
wa
wagner
wait
waiting
wake
wales
walk
walker
walking
wall
walls
walt
walter
wang
wanna
want
wanted
wants
war
ward
warfare
warner
warning
warren
warrior
warriors
wars
warsaw
warszawa
was
washington
watch
water
waterhouse
waters
wave
way
wayback
wayne
ways
wb
we
weapon
weapons
weather
web
webelements
weber
webpage
website
webster
wedding
week
weekend
weekly
weidenfeld
weight
welcome
well
welsh
welt
wembley
went
werden
were
werner
west
western
wet
what
whatever
wheel
wheeler
when
where
whether
which
while
white
whitelist
whitney
who
whole
whom
whose
why
wi
wide
width
wie
wien
wiener
wiesbaden
wife
wii
wiki
wikibase
wikidata
wikilink
wikimedia
wikipedia
wikipedias
wikiproject
wikis
wikisource
wikitext
wild
wildlife
wiley
wilhelm
will
william
williams
wilson
win
wind
window
windows
wine
wing
wings
winner
winners
wins
winter
wipo
wisconsin
wish
with
within
without
wmf
wo
wolf
wolff
wolfgang
woman
women
won
wonder
wonderful
wonderland
wood
word
wordpress
words
work
working
works
world
worlds
worldwide
worst
would
wp
wrap
wrapper
wrestling
wright
write
writer
writers
writing
writings
written
wrong
wrote
ws
wta
wu
wwe
www
x
xbox
xi
xico
xii
xiii
xinhua
xiv
xix
xl
xml
xp
xv
xvi
xvii
xviii
xx
xxi
xxii
xxiii
xxiv
xxv
xxvi
xxvii
xxx
y
ya
yahoo
yale
yayınları
ye
year
yearbook
years
yellow
yemen
yerevan
yes
yesno
yesterday
yet
yg
yi
ymd
yo
york
yorker
you
young
your
yours
yourself
youth
youtube
yu
yugoslavia
yyyy
z
za
zangala
zapotec
ze
zealand
zeit
zeitschrift
zeitung
zenimax
zeppelin
zero
zh
zi
zolokin
zone
zoo
zoom
zu
zum
zur
{
|
}
~
¡
£
¥
§
©
ª
«
¬
­
®
°
±
²
³
´
µ
·
¹
º
»
¼
½
¾
¿
×
ß
æ
ð
÷
ø
þ
ı
ł
ŋ
ɑ
ɔ
ə
əhalisinin
ʃ
ʰ
ʲ
ʻ
ʼ
ʾ
ʿ
ˀ
ˈ
ˌ
ː
˘
˙
˜
̀
́
̂
̃
̄
̆
̇
̈
̉
̊
̋
̌
̓
̔
̛
̝
̣
̦
̧
̨
̩
̯
̱
̸
͂
ͅ
͜
α
β
γ
δ
ε
η
θ
ι
λ
μ
ν
ο
π
ρ
ς
σ
τ
υ
φ
χ
ψ
ω
а
абхазии
абхазия
августа
административно
азербаи
акад
академии
акты
александр
алексеева
алиев
альбом
ан
англ
андреи
апреля
армении
археологии
архив
архивировано
архивы
архитектура
архитектуры
асср
аст
астрель
б
баи
баку
башкортостан
без
белая
библиотека
биография
богородицы
божиеи
большая
большои
брокгауза
будет
был
в
ва
вв
века
веков
великои
верховного
вестник
вече
владимир
во
вои
вопросы
восток
востока
времени
время
все
всемирные
всех
вып
г
газ
газета
гаи
гарри
гбу
гг
генеалогия
география
георгии
герои
гл
глава
го
год
года
году
годы
горбачевич
город
города
гос
государственного
государственнои
государственныи
грибы
грузии
грузинскии
грузинского
грузинскои
грузия
губернии
д
да
давид
данные
дата
дворец
деи
декабря
день
дж
джан
джана
джане
джанская
джанскои
динамо
для
дмитрии
дня
до
дом
дон
дону
доп
др
древнеи
е
его
единыи
ее
епархия
ереван
ефрона
еще
ж
же
животных
жизни
жизнь
журнал
з
за
завод
закон
записки
и
иван
иванович
игорь
игра
из
известия
изд
издание
издат
издательство
издаје
иконы
ил
или
ильхам
им
имени
империи
ин
институт
института
интервью
информация
искусства
искусство
испр
исследования
истории
историко
историческии
история
итоги
их
июля
июня
к
ка
кавказ
кавказа
кавказе
кавказскии
кавказскои
как
календарь
капитан
карта
каспаров
каталог
киев
кино
кн
книга
краткая
кто
кубок
культура
культуры
л
лениздат
ленинграда
лет
летию
ли
линдер
литература
литературы
лучших
м
маи
марта
матери
материалы
махачкала
мая
между
мецниереба
министерства
мир
мира
михаи
михаил
мои
монархи
монастырь
монастыря
москва
москве
москвы
московскии
московского
мост
мостов
мостотрест
мосты
музеи
музея
муниципальных
мы
н
на
набережные
названии
названы
народа
народов
населения
наук
наука
научно
не
ни
николаи
николая
но
новая
новиков
новости
новые
новыи
норинт
ноября
ны
о
об
области
область
образовании
обращения
общества
общие
община
оглы
октября
олимпиады
он
она
онов
описание
ор
основы
островов
от
отв
официальныи
очерк
очерки
п
памяти
памятник
памятники
пер
первая
первои
первыи
перевод
переписи
перераб
петербург
петербурга
площадеи
по
повесть
под
полное
портал
портале
после
почему
правда
президент
президента
президиума
пресвятои
пресс
при
приложение
про
проблемы
проверено
проект
происхождении
против
птицы
путеводитель
р
развития
раздел
раи
ран
ред
рек
река
републички
республика
республики
риа
рождества
россии
россия
ростов
ростова
ростовскои
рсфср
ру
рус
русская
русские
русскии
русского
русскои
рф
рыжов
с
саи
санкт
сб
сборник
св
севернои
сегодня
сезона
сентября
сергеи
серия
ская
ские
скии
ских
ского
скои
словарь
служба
со
собор
собрание
совет
совета
советская
советскии
советского
советскои
сост
союз
союза
спартак
спб
список
спорт
справочник
србије
сср
ссср
ст
стадион
сталин
сталина
статистики
статистику
статьи
статья
ства
ство
стр
страница
страницы
строи
сухуми
т
та
таблица
таганрог
таганрога
таи
так
тб
тбилиси
те
театр
текст
территориальное
тип
тифлис
то
том
томах
три
труды
у
указ
украины
украі
улиц
университета
устрои
уфа
ф
февраля
федеральная
федерации
фильм
фис
формате
фото
фотографии
футбол
футболистов
футбольного
х
хабиров
хабло
ханамирян
хозяи
храм
храма
храмы
хроника
хх
ц
центр
церкви
церковь
ч
часть
че
человек
чемпионат
что
ш
шаблон
шахматные
шахматы
школа
штампа
щ
ъ
ы
ь
э
экз
электронныи
энциклопедии
энциклопедическии
энциклопедия
это
ю
я
язык
языка
языке
языки
январь
января
є
і
ѣ
ә
ө
՝
բառարան
ե
եւ
է
թ
ի
հայաստանի
հարակից
մ
շրջանների
տեղանունների
և
։
ְ
ִ
ַ
ָ
ּ
ב
ה
ל
،
ا
ب
ة
تفلیس
د
ر
قالب
ل
ن
ناحية
و
َ
ُ
ِ
ّ
ْ
ٓ
ٔ
ٕ
ަ
ް
ँ
ं
क
ख
ग
च
ज
ट
ड
ढ
ण
त
थ
द
ध
न
प
फ
ब
भ
म
य
र
ल
व
श
ष
स
ह
़
ा
ि
ी
ु
ू
े
ै
ॉ
ो
ौ
्
ঁ
ক
গ
চ
জ
ট
ত
দ
ন
প
ব
ম
য
র
ল
স
়
া
ি
ী
ু
ে
্
ਾ
ા
ଚ
ଛ
ଞ
ା
୍
க
ச
ட
த
ப
ர
வ
ா
ி
ு
்
ా
ి
్
ಂ
ಟ
ಪ
ರ
ಾ
ಿ
ು
ೆ
್
ೕ
ം
ക
ത
വ
ാ
ി
ു
്
ක
ල
ස
්
ා
ැ
ි
ු
ෙ
ก
ง
ต
น
พ
ย
ล
ว
อ
ั
ิ
ี
ึ
ื
ุ
ู
่
้
์
་
༌
།
ག
ང
ད
ན
པ
བ
མ
ར
ལ
ས
ཧ
ཱ
ི
ུ
ེ
ོ
ྒ
ྱ
ྲ
ྷ
း
်
ა
ააგეს
ააგო
აამაღლა
ააოხრა
ააოხრეს
აარონ
აარსებს
ააფეთქეს
ააშენა
ააშენეს
აბა
აბაზური
აბაკანოვოს
აბანო
აბანოები
აბანოს
აბას
აბასთუმანში
აბასთუმნის
აბასი
აბასიანთა
აბასის
აბასმა
აბატი
აბაშა
აბაშის
აბაშიძე
აბაშიძემ
აბაშიძის
აბდ
აბდალა
აბდელ
აბდულ
აბდულა
აბდულაევი
აბდულჰამიდ
აბელ
აბელი
აბელის
აბესალომ
აბესაძე
აბზელილოვოს
აბლაბუდისებრი
აბო
აბორიგენები
აბორიგენების
აბორიგენი
აბორიგენული
აბორტის
აბრაამ
აბრამიშვილი
აბრამსი
აბრაჰამ
აბრევიატურა
აბრეშუმი
აბრეშუმის
აბსიდი
აბსიდით
აბსიდის
აბსოლუტიზმის
აბსოლუტურ
აბსოლუტურად
აბსოლუტური
აბსტრაქტულ
აბსტრაქტული
აბუ
აბულ
აბულაძე
აბულაძის
აბჯარი
აგარაკი
აგდებს
აგება
აგებას
აგებდა
აგებდნენ
აგებენ
აგების
აგებს
აგებულ
აგებულება
აგებულებით
აგებულების
აგებული
აგებულია
აგენტები
აგენტების
აგენტი
აგენტის
აგერ
აგვისტო
აგვისტოდან
აგვისტომდე
აგვისტოს
აგვისტოში
აგზავნიდა
აგზავნის
აგლომერაცია
აგლომერაციაში
აგლომერაციის
აგნეს
აგნესა
აგრარულ
აგრარული
აგრეთვე
აგრესია
აგრესიას
აგრესიის
აგრესიულ
აგრესიული
აგრესტი
აგრიპა
აგრიპას
აგრიპინა
აგროვებდა
აგროვებდნენ
აგროვებენ
აგროვებს
აგრონომი
აგრძელებდა
აგრძელებდნენ
აგრძელებენ
აგრძელებს
აგური
აგურით
აგურითაა
აგურის
აგურისაა
აგუსანის
ად
ადა
ადათ
ადამ
ადამი
ადამია
ადამიანად
ადამიანამდე
ადამიანებზე
ადამიანებთან
ადამიანები
ადამიანებით
ადამიანების
ადამიანებისა
ადამიანებისთვის
ადამიანებმა
ადამიანებს
ადამიანებსა
ადამიანებში
ადამიანზე
ადამიანთა
ადამიანთან
ადამიანი
ადამიანია
ადამიანიდან
ადამიანით
ადამიანის
ადამიანისა
ადამიანისათვის
ადამიანისგან
ადამიანისთვის
ადამიანმა
ადამიანს
ადამიანსმოსახლეობის
ადამიანურ
ადამიანური
ადამიანში
ადამის
ადამსი
ადამსის
ადამსმა
ადანაშაულებდა
ადანაშაულებდნენ
ადანაშაულებენ
ადანაშაულებს
ადაპტაცია
ადაპტაციას
ადაპტაციის
ადაპტირება
ადაპტირებული
ადარებდნენ
ადარებენ
ადარებს
ადარნასე
ადასტურებდა
ადასტურებენ
ადასტურებს
ადგას
ადგენდა
ადგენენ
ადგენს
ადგილ
ადგილად
ადგილამდე
ადგილას
ადგილებზე
ადგილები
ადგილებია
ადგილებიდან
ადგილების
ადგილებს
ადგილებში
ადგილზე
ადგილზეა
ადგილზევე
ადგილი
ადგილია
ადგილიანი
ადგილიდან
ადგილით
ადგილის
ადგილისათვის
ადგილისთვის
ადგილმდებარეობა
ადგილმდებარეობის
ადგილობრივ
ადგილობრივად
ადგილობრივები
ადგილობრივების
ადგილობრივებს
ადგილობრივთა
ადგილობრივი
ადგილობრივმა
ადგილს
ადგილსამყოფელი
ადგილწარმოშობის
ადევნებდა
ადევნებს
ადეკვატური
ადელაიდა
ადელაიდას
ადვილად
ადვილი
ადვილია
ადვოკატთა
ადვოკატი
ადვოკატის
ადიგენის
ადილ
ადის
ადიუტანტი
ადიღეური
ადიშის
ადლერი
ადმ
ადმინი
ადმინის
ადმინისტრატორები
ადმინისტრატორების
ადმინისტრატორებს
ადმინისტრატორი
ადმინისტრატორის
ადმინისტრატორს
ადმინისტრაცია
ადმინისტრაციამ
ადმინისტრაციას
ადმინისტრაციაში
ადმინისტრაციის
ადმინისტრაციულ
ადმინისტრაციულად
ადმინისტრაციული
ადმინისტრირება
ადმინისტრირების
ადმირალ
ადმირალი
ადმირალის
ადმირალმა
ადოლფ
ადოლფი
ადრე
ადრეა
ადრებრინჯაოს
ადრევე
ადრეულ
ადრეული
ადრეც
ადრიან
ადრიანე
ადრიანეს
ადრიანოპოლის
ადრიატიკის
ადრინდელ
ადრინდელი
აეკრძალა
აეკრძალათ
აერთებს
აერთიანებდა
აერთიანებენ
აერთიანებს
აეროდრომი
აეროპორტები
აეროპორტი
აეროპორტია
აეროპორტიდან
აეროპორტის
აეროპორტს
აეროპორტში
აერჩია
აერჩიათ
აეღო
აეღოთ
აეშენებინა
აეშენებინათ
აეცილებინა
აეცილებინათ
ავ
ავად
ავადმყოფი
ავადმყოფის
ავადმყოფობა
ავადმყოფობდა
ავადმყოფობის
ავალიშვილი
ავანგარდული
ავარია
ავარიის
ავგუსტ
ავგუსტა
ავგუსტას
ავგუსტი
ავგუსტუსი
ავგუსტუსის
ავგუსტუსმა
ავგუსტუსს
ავეჯი
ავეჯის
ავთანდილ
ავთენტური
ავთვისებიანი
ავთო
ავი
ავიაკომპანია
ავიაკომპანიები
ავიაცია
ავიაციამ
ავიაციის
ავიახაზები
ავიახაზების
ავიდა
ავიდნენ
ავივი
ავივის
ავივში
ავითარებდა
ავითარებს
ავილის
ავინიონის
ავიღოთ
ავლაბარი
ავლაბრის
ავლენენ
ავლენს
ავლით
ავრორა
ავრცელებდა
ავრცელებდნენ
ავრცელებს
ავსებენ
ავსებს
ავსტრალია
ავსტრალიამ
ავსტრალიას
ავსტრალიასა
ავსტრალიაში
ავსტრალიელი
ავსტრალიის
ავსტრალიისა
ავსტრალიურ
ავსტრალიური
ავსტრალოპითეკ
ავსტრალოპითეკის
ავსტრია
ავსტრიამ
ავსტრიას
ავსტრიასა
ავსტრიასთან
ავსტრიაში
ავსტრიელ
ავსტრიელები
ავსტრიელებმა
ავსტრიელზე
ავსტრიელი
ავსტრიელის
ავსტრიელმა
ავსტრიის
ავსტრიისა
ავსტრიულ
ავსტრიული
ავსტრო
ავტ
ავტო
ავტობიოგრაფია
ავტობიოგრაფიაში
ავტობიოგრაფიულ
ავტობიოგრაფიული
ავტობუსები
ავტობუსების
ავტობუსი
ავტობუსის
ავტოგზები
ავტოგზების
ავტოკატასტროფაში
ავტოკეფალია
ავტოკეფალიის
ავტოკეფალური
ავტომაგისტრალი
ავტომატურ
ავტომატურად
ავტომატური
ავტომობილები
ავტომობილების
ავტომობილი
ავტომობილის
ავტონომია
ავტონომიას
ავტონომიის
ავტონომიურ
ავტონომიური
ავტოპორტრეტი
ავტორ
ავტორად
ავტორებად
ავტორები
ავტორების
ავტორებს
ავტორთა
ავტორი
ავტორია
ავტორის
ავტორიტარული
ავტორიტეტი
ავტორიტეტით
ავტორიტეტის
ავტორიტეტს
ავტორიტეტულ
ავტორიტეტული
ავტორიც
ავტორმა
ავტორობა
ავტორობით
ავტორს
ავქსენტი
ავღანეთი
ავღანეთის
ავღანეთში
ავღანელი
ავღანური
აზ
აზარტული
აზერბაიჯან
აზერბაიჯანელ
აზერბაიჯანელები
აზერბაიჯანელების
აზერბაიჯანელთა
აზერბაიჯანელი
აზერბაიჯანთან
აზერბაიჯანი
აზერბაიჯანიდან
აზერბაიჯანის
აზერბაიჯანისა
აზერბაიჯანმა
აზერბაიჯანს
აზერბაიჯანსა
აზერბაიჯანულ
აზერბაიჯანული
აზერბაიჯანში
აზია
აზიანებს
აზიას
აზიასა
აზიაში
აზიელები
აზიელი
აზიზ
აზიიდან
აზიის
აზიისა
აზისი
აზიურ
აზიური
აზნაურები
აზნაურთა
აზნაური
აზნაურის
აზოვის
აზორის
აზოტი
აზოტის
აზოტმჟავა
აზოტოვანი
აზრები
აზრების
აზრებს
აზრზე
აზრთა
აზრი
აზრია
აზრით
აზრის
აზროვნება
აზროვნებას
აზროვნების
აზრს
ათ
ათაბაგი
ათავისუფლებს
ათავსებენ
ათავსებს
ათათურქის
ათამდე
ათანასე
ათარიღებს
ათას
ათასამდე
ათასზე
ათასი
ათასიანი
ათასმა
ათასობით
ათასს
ათასწლეულები
ათასწლეულების
ათასწლეული
ათასწლეულის
ათასწლეულში
ათეიზმი
ათეიზმის
ათეისტები
ათეისტი
ათეისტური
ათენა
ათენას
ათენი
ათენის
ათენში
ათეულ
ათეული
ათეულის
ათეულობით
ათეულში
ათვისება
ათვისების
ათვისებული
ათვლის
ათზე
ათი
ათობით
ათონის
ათცერეთ
ათცმაუთ
ათწლეულები
ათწლეულების
ათწლეულებში
ათწლეული
ათწლეულის
ათწლეულში
ათწლიანი
ათჯერ
აი
აია
აიათოლა
აიაკუჩოს
აიაქსი
აიაქსის
აიაქსმა
აიგო
აიდა
აიდაჰოს
აიეტი
აიეტის
აივ
აივანზე
აივანი
აივნის
აიზეკ
აითვისა
აითვისეს
აიკრძალა
აილენდი
აილენდის
აინ
აინტერესებდა
აინტერესებს
აინუს
აინშტაინი
აინშტაინის
აინშტაინმა
აიოვის
აირები
აირების
აირესი
აირესის
აირესში
აირი
აირია
აირის
აირს
აირჩა
აირჩევა
აირჩია
აირჩიეს
აირჩიოს
აისახა
აისახება
აიღეს
აიღო
აიღოს
აიყვანა
აიყვანეს
აიშა
აიშე
აიძულა
აიძულებდა
აიძულებდნენ
აიძულებს
აიძულეს
აიწია
აიხსნას
აიხსნება
აკ
აკა
აკად
აკადემია
აკადემიამ
აკადემიას
აკადემიასთან
აკადემიაში
აკადემიის
აკადემიისა
აკადემიკოს
აკადემიკოსები
აკადემიკოსი
აკადემიურ
აკადემიური
აკავშირებდა
აკავშირებენ
აკავშირებს
აკაკი
აკაკის
აკაცია
აკეთებდა
აკეთებდნენ
აკეთებენ
აკეთებს
აკვირდება
აკვირდებოდა
აკირა
აკისრია
აკლდა
აკლდამა
აკლდამაში
აკლდამები
აკლდამის
აკლია
აკმაყოფილებდა
აკმაყოფილებს
აკონტროლებდა
აკონტროლებდნენ
აკონტროლებენ
აკონტროლებს
აკრავს
აკრედიტებული
აკრი
აკრის
აკრიტიკებდა
აკრიტიკებდნენ
აკრიტიკებენ
აკრიტიკებს
აკრძალა
აკრძალეს
აკრძალვა
აკრძალვის
აკრძალულ
აკრძალული
აკრძალულია
აკუმულაციური
აკურთხა
აკურთხეს
აკუსტიკურ
აკუსტიკური
ალ
ალა
ალაგ
ალაგოასის
ალავერდი
ალავერდის
ალავის
ალაზანი
ალაზნის
ალან
ალანდის
ალანი
ალანის
ალაოს
ალასკა
ალასკის
ალბა
ალბათ
ალბათობა
ალბათობას
ალბათობით
ალბათობის
ალბანეთი
ალბანეთის
ალბანეთს
ალბანეთში
ალბანელები
ალბანელი
ალბანურ
ალბანური
ალბას
ალბასეტეს
ალბერ
ალბერტ
ალბერტი
ალბერტის
ალბერტო
ალბომ
ალბომად
ალბომებზე
ალბომები
ალბომების
ალბომებს
ალბომებში
ალბომზე
ალბომი
ალბომია
ალბომიდან
ალბომით
ალბომის
ალბომისთვის
ალბომმა
ალბომს
ალბომში
ალბრეხტ
ალბრეხტი
ალგებრა
ალგებრული
ალგეთის
ალგორითმი
ალგორითმის
ალეგორიული
ალევის
ალეკო
ალენ
ალენი
ალენის
ალეპო
ალეპოს
ალესანდრო
ალეუტის
ალექს
ალექსანდერ
ალექსანდრ
ალექსანდრა
ალექსანდრას
ალექსანდრე
ალექსანდრემ
ალექსანდრეს
ალექსანდრია
ალექსანდრიაში
ალექსანდრიელი
ალექსანდრიის
ალექსეი
ალექსი
ალექსის
ალექსიძე
ალეხანდრო
ალვარო
ალთაის
ალი
ალია
ალიანსი
ალიანსის
ალიანსმა
ალიანსს
ალიანსში
ალიევა
ალიევი
ალიევის
ალიევმა
ალიენდეს
ალიზის
ალიკანტეს
ალიმ
ალის
ალისა
ალისას
ალისფერი
ალკკ
ალკოჰოლი
ალკოჰოლის
ალკოჰოლს
ალკოჰოლური
ალმა
ალმანახი
ალმასების
ალმასი
ალმასის
ალმერიის
ალონსო
ალპები
ალპების
ალპებში
ალპინისტი
ალპურ
ალპური
ალჟირელი
ალჟირი
ალჟირის
ალჟირში
ალსანდრო
ალსანდროს
ალტ
ალტა
ალტერნატივა
ალტერნატიულ
ალტერნატიული
ალტის
ალტო
ალტუ
ალუბლის
ალუვიური
ალუმინი
ალუმინის
ალფ
ალფა
ალფონს
ალფონსო
ალფონსოს
ალფრედ
ალფრედო
ალყა
ალყას
ალყაში
ალყის
ალშეევის
ალცჰაიმერის
ამ
ამა
ამადეო
ამადეუს
ამავდროულად
ამავე
ამაზე
ამაზონასის
ამაზონის
ამათ
ამათგან
ამალია
ამალიამ
ამალიას
ამალის
ამან
ამანდა
ამანი
ამანში
ამაოდ
ამარაგებდა
ამარაგებს
ამართლებს
ამარცხებენ
ამარცხებს
ამას
ამასთან
ამასთანავე
ამასიის
ამასობაში
ამასონასის
ამატებენ
ამატებს
ამაღლდა
ამაღლება
ამაღლებას
ამაღლების
ამაღლებულ
ამაღლებული
ამაღლებულია
ამაყი
ამაში
ამაშუკელი
ამახვილებდა
ამახვილებს
ამბავი
ამბავმა
ამბავს
ამბები
ამბების
ამბებს
ამბიდან
ამბის
ამბიციები
ამბიციური
ამბობდა
ამბობდნენ
ამბობენ
ამბობს
ამბოხება
ამბოხების
ამბოხებულებმა
ამბოხებულთა
ამბოხებული
ამბოხი
ამბოხის
ამბროლაურის
ამბროსი
ამბროსის
ამგვარ
ამგვარად
ამგვარი
ამგვარმა
ამდე
ამდენად
ამდენი
ამელია
ამენჰოტეპ
ამერიკა
ამერიკამ
ამერიკას
ამერიკასა
ამერიკაში
ამერიკელ
ამერიკელები
ამერიკელების
ამერიკელებმა
ამერიკელებს
ამერიკელთა
ამერიკელი
ამერიკელმა
ამერიკიდან
ამერიკის
ამერიკისა
ამერიკულ
ამერიკული
ამერიკულმა
ამზადებდა
ამზადებდნენ
ამზადებენ
ამზადებს
ამთავრებს
ამიაკის
ამიერიდან
ამიერკავკასია
ამიერკავკასიაში
ამიერკავკასიის
ამით
ამილახვარი
ამინ
ამინდი
ამინდის
ამინდში
ამირ
ამირა
ამირან
ამირანაშვილი
ამირანის
ამირას
ამირები
ამირეჯიბი
ამის
ამისა
ამისათვის
ამისთვის
ამისი
ამიტომ
ამიტომაც
ამიშები
ამიშების
ამნისტია
ამო
ამობურცული
ამოდის
ამოვარდა
ამოვიღოთ
ამოვსებული
ამოვსებულია
ამოზნექილი
ამოიფრქვა
ამოიღეს
ამოიღო
ამოიწურა
ამოკვეთილი
ამოკვეთილია
ამომავალი
ამომრჩეველთა
ამომრჩეველი
ამომწყდარი
ამონ
ამონიუმის
ამოსვლა
ამოსული
ამოტვიფრული
ამოუშენებიათ
ამოფრქვევა
ამოფრქვევები
ამოფრქვევის
ამოქმედდა
ამოქმედება
ამოღება
ამოღების
ამოღებული
ამოღებულია
ამოყვანილი
ამოყვანილია
ამოშენებულია
ამოცანა
ამოცანაა
ამოცანას
ამოცანები
ამოცანების
ამოცანებს
ამოცანის
ამოცნობა
ამოწმებს
ამოწურვის
ამოჭრილი
ამოხოცეს
ამოხსნა
ამპლიტუდა
ამპლუაში
ამჟამად
ამჟამადაც
ამჟამინდელ
ამჟამინდელი
ამჟღავნებს
ამრავლებენ
ამრიგად
ამსახველ
ამსახველი
ამსტერდამი
ამსტერდამის
ამსტერდამში
ამტკიცებდა
ამტკიცებდნენ
ამტკიცებენ
ამტკიცებს
ამურის
ამუშავდა
ამუშავებდა
ამუშავებდნენ
ამუშავებენ
ამუშავებს
ამფიბიები
ამფიბიების
ამფითეატრი
ამქვეყნიური
ამყარებდა
ამყარებს
ამშვენებდა
ამშვენებს
ამჩნევს
ამცირებს
ამცნო
ამხანაგობა
ამხანაგურ
ამხანაგური
ამხედრებული
ამხელა
ამჯერად
ამჯერადაც
ამჯობინა
ამჯობინებს
ამჰერსტის
ან
ანა
ანადგურებდა
ანადგურებენ
ანადგურებს
ანაზღაურება
ანაზღაურების
ანათებს
ანალები
ანალიზი
ანალიზით
ანალიზის
ანალიზისა
ანალიზმა
ანალიზს
ანალიზური
ანალიზში
ანალიტიკური
ანალოგი
ანალოგიურ
ანალოგიურად
ანალოგიური
ანალოგიურია
ანალოგური
ანალური
ანამ
ანანია
ანანის
ანანურის
ანარეკლი
ანარქია
ანარქიზმი
ანარქიზმის
ანარქისტები
ანარქისტი
ანარქისტული
ანარქო
ანას
ანასა
ანასტასია
ანატოლი
ანატოლიაში
ანატოლიის
ანატომია
ანატომიის
ანატომიური
ანბანი
ანბანით
ანბანის
ანბანს
ანბანური
ანბანში
ანგარიშები
ანგარიშების
ანგარიშზე
ანგარიში
ანგარიშით
ანგარიშის
ანგარიშს
ანგარიშში
ანგელოზები
ანგელოზი
ანგელოზის
ანგლიკანური
ანგლო
ანგოლა
ანგოლაში
ანგოლის
ანდა
ანდალუსიის
ანდების
ანდებში
ანდერს
ანდერსონი
ანდერსონის
ანდერსონმა
ანდერძი
ანდერძით
ანდერძის
ანდერძში
ანდორა
ანდორის
ანდრე
ანდრეა
ანდრეას
ანდრეევკა
ანდრეი
ანდრეს
ანდრია
ანდრიას
ანდრო
ანდრომედას
ანდრონიკაშვილი
ანდრონიკაშვილის
ანდრონიკე
ანდღულაძე
ანემია
ანენი
ანექსია
ანექსიის
ანექსირებული
ანვარ
ანზორ
ანთაძე
ანთება
ანთებით
ანთებითი
ანთების
ანთიმოზ
ანთოლოგია
ანთროპოგენური
ანთროპოლოგები
ანთროპოლოგი
ანთროპოლოგია
ანთროპოლოგიის
ანთროპოლოგიური
ანი
ანიმაცია
ანიმაციაში
ანიმაციის
ანიმაციურ
ანიმაციური
ანიმე
ანიმეს
ანისი
ანისის
ანიტა
ანიჭებდა
ანიჭებდნენ
ანიჭებენ
ანიჭებს
ანკარა
ანკარაში
ანკარის
ანკაშის
ანნა
ანონიმი
ანონიმური
ანჟუს
ანრი
ანრიეტა
ანრიმ
ანრის
ანსამბლ
ანსამბლები
ანსამბლი
ანსამბლის
ანსამბლს
ანსამბლში
ანტანტის
ანტარქტიდა
ანტარქტიდაში
ანტარქტიდის
ანტარქტიდული
ანტარქტიკის
ანტარქტიკული
ანტი
ანტიგონე
ანტიგუა
ანტიკომუნისტური
ანტიკურ
ანტიკური
ანტილის
ანტილოპა
ანტილოპები
ანტიოკიის
ანტიოქე
ანტიოქია
ანტიოქიაში
ანტიოქიის
ანტიპაპი
ანტისაბჭოთა
ანტისამთავრობო
ანტისემიტური
ანტონ
ანტონი
ანტონია
ანტონიო
ანტონიოს
ანტონის
ანტონიუ
ანტონიუსი
ანტონიუსის
ანტონიუსმა
ანტონიუსს
ანტუან
ანტუანეტა
ანტუანეტას
ანტუანეტი
ანტუანეტის
ანტუანი
ანუ
ანჩაბაძე
ანჩისხატის
ანხელ
ანჯაფარიძე
ანჯელეს
ანჯელესი
ანჯელესის
ანჯელესში
ანჯელო
ანჰალტ
აო
აომორი
აპარატები
აპარატების
აპარატი
აპარატის
აპარატს
აპარატული
აპარატურა
აპარატურის
აპარატში
აპარტეიდის
აპატიმრებენ
აპენინის
აპიანე
აპირებდა
აპირებდნენ
აპირებენ
აპირებს
აპლიკაცია
აპლიკაციების
აპოკალიფსის
აპოლო
აპოლონ
აპოლონი
აპოლონის
აპოლოს
აპრილ
აპრილამდე
აპრილი
აპრილიდან
აპრილის
აპრილისთვის
აპრილს
აპრილში
აპროტესტებდა
აპურიმაკის
არ
არა
არაა
არაბ
არაბები
არაბების
არაბებმა
არაბებს
არაბეთი
არაბეთის
არაბეთში
არაბთა
არაბი
არაბულ
არაბულად
არაბულენოვანი
არაბული
არაგაწოტნის
არაგვი
არაგვის
არაგონელი
არაგონელის
არაგონი
არაგონის
არაგორნი
არაგუის
არადა
არაერთ
არაერთგვაროვანი
არაერთგზის
არაერთი
არაერთმა
არაერთხელ
არაეფექტური
არავითარ
არავითარი
არავინ
არავის
არათავისუფალი
არათანაბარ
არათანაბარი
არათანაბრად
არათუ
არაკომერციული
არალეგალურ
არალეგალურად
არალეგალური
არალეგიტიმური
არალის
არამ
არამარტო
არამატერიალური
არამდგრადი
არამედ
არამეული
არამხატვრული
არანაირ
არანაირად
არანაირი
არანაკლებ
არანის
არანჟირება
არაორგანული
არაოფიციალურ
არაოფიციალურად
არაოფიციალური
არაპირდაპირი
არაპოპულარული
არარატი
არარატის
არარეგულარული
არარეიტინგული
არარსებობა
არარსებობის
არარსებული
არასათანადო
არასაკმარისი
არასამთავრობო
არასასიამოვნო
არასასურველი
არასახარბიელო
არასდროს
არასოდეს
არასრული
არასრულწლოვანი
არასტაბილური
არასტაბილურობა
არასტაბილურობის
არასწორ
არასწორად
არასწორი
არასწორია
არატრადიციული
არაუგვიანეს
არაუმეტეს
არაფერ
არაფერი
არაფერია
არაფერს
არაფორმალური
არაფრით
არაფრის
არაქისი
არაქსის
არაღიარებული
არაყი
არაჩვეულებრივი
არაცნობიერი
არაძალადობრივი
არაწესიერი
არახელსაყრელი
არბიტრაჟის
არგენტინა
არგენტინამ
არგენტინას
არგენტინაში
არგენტინელები
არგენტინელი
არგენტინის
არგენტინული
არგონავტები
არგონავტების
არგუმენტები
არგუმენტი
არდადეგები
არდინოს
არდის
არე
არეალი
არეალია
არეალის
არეალს
არეალში
არეგულირებს
არეები
არეკიპის
არენა
არენაზე
არენის
არეს
არეული
არეულობა
არეულობები
არეულობების
არეულობის
არეში
არველაძე
ართვინის
ართმევს
ართულებდა
ართულებს
ართურ
არი
არია
არიან
არიანე
არიდება
არიდების
არიდული
არიზონა
არის
არისტოკრატი
არისტოკრატია
არისტოკრატიას
არისტოკრატიის
არისტოკრატიულ
არისტოკრატიული
არისტოტელე
არისტოტელეს
არიული
არიფ
არკადი
არკადული
არმავირის
არმაზის
არმან
არმენ
არმია
არმიაზე
არმიათა
არმიამ
არმიას
არმიასა
არმიასთან
არმიაში
არმიები
არმიების
არმიებს
არმიით
არმიის
არმიისა
არმსტრონგი
არმქონე
არნახული
არნოლდ
არნოლდი
არომატი
არომატით
არომატის
არომატული
არს
არსად
არსება
არსებას
არსებები
არსებების
არსებებს
არსებით
არსებითად
არსებითი
არსების
არსებობა
არსებობაზე
არსებობას
არსებობაც
არსებობდა
არსებობდეს
არსებობდნენ
არსებობენ
არსებობით
არსებობის
არსებობისა
არსებობს
არსებულ
არსებული
არსებულმა
არსენ
არსენა
არსენალთან
არსენალი
არსენალის
არსენალში
არსენი
არსი
არსის
არსლან
არსს
არტ
არტაანი
არტაანის
არტანუჯი
არტაქსერქსე
არტაშეს
არტემ
არტერიული
არტეფაქტები
არტეფაქტების
არტეფაქტი
არტი
არტიკლი
არტილერია
არტილერიის
არტის
არტისტები
არტისტი
არტისტის
არტისტული
არტურ
არტური
არტურის
არტურო
არფა
არქ
არქანჯელო
არქაული
არქეოლოგები
არქეოლოგების
არქეოლოგებმა
არქეოლოგი
არქეოლოგია
არქეოლოგიის
არქეოლოგიისა
არქეოლოგიურ
არქეოლოგიური
არქეოლოგიურმა
არქეოლოგმა
არქიეპისკოპოსი
არქიეპისკოპოსმა
არქივები
არქივების
არქივი
არქივის
არქივში
არქიმანდრიტი
არქიპელაგები
არქიპელაგზე
არქიპელაგი
არქიპელაგის
არქიპელაგს
არქიპელაგში
არქიტ
არქიტექტორ
არქიტექტორად
არქიტექტორები
არქიტექტორების
არქიტექტორებმა
არქიტექტორთა
არქიტექტორი
არქიტექტორის
არქიტექტორმა
არქიტექტურა
არქიტექტურას
არქიტექტურაში
არქიტექტურით
არქიტექტურის
არქიტექტურისა
არქიტექტურულ
არქიტექტურული
არქიტრავით
არქიტრავის
არქიტრავული
არქონის
არქტიკის
არქტიკულ
არქტიკული
არღვევდა
არღვევს
არყი
არყის
არყოფნის
არშაკ
არჩევა
არჩევანი
არჩევანის
არჩევანს
არჩევას
არჩევენ
არჩევით
არჩევითი
არჩევის
არჩევისას
არჩევნებამდე
არჩევნებზე
არჩევნები
არჩევნებით
არჩევნების
არჩევნებისთვის
არჩევნებს
არჩევნებში
არჩევნის
არჩევს
არჩეულ
არჩეული
არჩეულია
არჩვი
არჩია
არჩილ
არჩილი
არჩილის
არც
არცახის
არცერთ
არცერთი
არცთუ
არძინბამ
არწივები
არწივი
არწივის
არწმუნებს
არხანგელის
არხები
არხებით
არხების
არხზე
არხი
არხით
არხის
არხს
არხში
ას
ასა
ასაგებად
ასადი
ასადის
ასათიანი
ასათიანის
ასაკამდე
ასაკთან
ასაკი
ასაკიდან
ასაკიდანვე
ასაკით
ასაკის
ასაკისა
ასაკობრივ
ასაკობრივი
ასაკოვანი
ასაკს
ასაკში
ასაკშივე
ასამაღლებლად
ასამბლეა
ასამბლეამ
ასამბლეას
ასამბლეაში
ასამბლეის
ასამდე
ასარიდებლად
ასარჩევად
ასასვლელი
ასაფეთქებელი
ასაფრენ
ასაფრენი
ასაღებად
ასაშენებლად
ასაცილებლად
ასახა
ასახავდა
ასახავენ
ასახავს
ასახელებდა
ასახელებენ
ასახელებს
ასახვა
ასახსნელად
ასახული
ასახულია
ასე
ასეა
ასევე
ასევეა
ასეთ
ასეთები
ასეთებია
ასეთი
ასეთია
ასეთივე
ასეთმა
ასეულ
ასეული
ასეულის
ასეულობით
ასეულში
ასეც
ასვლა
ასვლის
ასზე
ასი
ასიმეტრიული
ასიმილაცია
ასიმილაციის
ასისტენტ
ასისტენტად
ასისტენტი
ასკვნის
ასკინოს
ასლამაზიშვილი
ასლან
ასლები
ასლი
ასლის
ასლს
ასო
ასობით
ასოები
ასოებით
ასოების
ასოთა
ასოთი
ასოკა
ასოკას
ასომთავრული
ასოს
ასოციაცია
ასოციაციამ
ასოციაციას
ასოციაციაში
ასოციაციები
ასოციაციების
ასოციაციის
ასოცირდება
ასოცირდებოდა
ასოცირების
ასოცირებული
ასპარეზზე
ასპარეზი
ასპარეზობა
ასპარეზობას
ასპარეზობდა
ასპარეზობის
ასპარეზობს
ასპექტები
ასპექტების
ასპექტებს
ასპექტი
ასპექტის
ასპექტს
ასპექტში
ასპინძის
ასპირანტი
ასპირანტურა
ასპირანტურაში
ასპირანტურის
ასრულებდა
ასრულებდნენ
ასრულებენ
ასრულებს
ასსრ
ასტარის
ასტეროიდი
ასტონ
ასტრახანის
ასტრახანში
ასტროლოგია
ასტროლოგიური
ასტრონომები
ასტრონომებმა
ასტრონომი
ასტრონომია
ასტრონომიაში
ასტრონომიის
ასტრონომიულ
ასტრონომიული
ასტრონომმა
ასტურიის
ასულ
ასულზე
ასული
ასულის
ასულიყო
ასულმა
ასულს
ასურეთი
ასურეთის
ასურელი
ასურული
ასწავლა
ასწავლიან
ასწავლიდა
ასწავლიდნენ
ასწავლის
ასწლეულის
ასწლიანი
ასხივებს
ატ
ატარებდა
ატარებდნენ
ატარებენ
ატარებს
ატენის
ატვირთვა
ატლანტა
ატლანტაში
ატლანტიკის
ატლანტიკური
ატლანტის
ატლასი
ატლასის
ატლეტიკო
ატლეტიკოს
ატმის
ატმოსფერო
ატმოსფეროს
ატმოსფეროში
ატმოსფერული
ატოლ
ატოლი
ატოლის
ატომები
ატომების
ატომებს
ატომი
ატომის
ატომს
ატომურ
ატომური
ატრიბუტი
ატყდა
აუგია
აუგიათ
აუგსბურგის
აუგუსტ
აუგუსტო
აუდიო
აუდიტის
აუდიტორია
აუდიტორიას
აუდიტორიის
აუზები
აუზების
აუზი
აუზის
აუზს
აუზში
აუკრძალა
აუკრძალეს
აუმჯობესებს
აურგაზის
აურზაური
აუტანელი
აუქციონზე
აუშენებია
აუცილებელ
აუცილებელი
აუცილებელია
აუცილებლად
აუცილებლობა
აუცილებლობას
აუცილებლობის
აუწყა
აუჯანყდა
აუჯანყდნენ
აფარებდა
აფასებდა
აფასებდნენ
აფასებენ
აფასებს
აფეთქდა
აფეთქება
აფეთქებას
აფეთქებები
აფეთქებების
აფეთქების
აფერხებს
აფთარი
აფინანსებდა
აფინანსებს
აფონსუ
აფრთხილებს
აფრიკა
აფრიკას
აფრიკასა
აფრიკაში
აფრიკელ
აფრიკელები
აფრიკელი
აფრიკიდან
აფრიკის
აფრიკისა
აფრიკულ
აფრიკული
აფრო
აფსიდა
აფსიდი
აფსიდია
აფსიდით
აფსიდის
აფსიდს
აფსიდში
აფშერონის
აფხაზ
აფხაზავა
აფხაზები
აფხაზების
აფხაზებმა
აფხაზეთი
აფხაზეთიდან
აფხაზეთის
აფხაზეთისა
აფხაზეთს
აფხაზეთსა
აფხაზეთში
აფხაზთა
აფხაზი
აფხაზმა
აფხაზურ
აფხაზური
აქ
აქა
აქადის
აქამდე
აქაურ
აქაური
აქაც
აქედან
აქეთ
აქემენიანთა
აქემენიდების
აქვე
აქვეა
აქვეყნებდა
აქვეყნებს
აქვთ
აქვს
აქლემი
აქლემის
აქტები
აქტების
აქტებს
აქტზე
აქტი
აქტივები
აქტივების
აქტივიზმი
აქტივის
აქტივისტები
აქტივისტების
აქტივისტი
აქტივობა
აქტივობას
აქტივობები
აქტივობების
აქტივობის
აქტით
აქტის
აქტიურ
აქტიურად
აქტიურები
აქტიური
აქტიურია
აქტიურობა
აქტიურობის
აქტს
აქტუალურ
აქტუალური
აქტუალურია
აქტში
აქცევდა
აქცევდნენ
აქცევს
აქცენტი
აქცენტით
აქცენტს
აქცია
აქციაზე
აქციები
აქციების
აქციებს
აქციეს
აქციის
აღ
აღა
აღადგინა
აღადგინეს
აღარ
აღარაა
აღარავინ
აღარასდროს
აღარასოდეს
აღარაფერი
აღარც
აღასრულა
აღაშფოთა
აღბეჭდილი
აღბეჭდილია
აღდამის
აღდაშის
აღდგა
აღდგება
აღდგენა
აღდგენაზე
აღდგენას
აღდგენაში
აღდგენით
აღდგენითი
აღდგენილ
აღდგენილი
აღდგენილია
აღდგენის
აღდგენისა
აღდგენისათვის
აღდგომა
აღდგომას
აღდგომის
აღება
აღებას
აღებაში
აღებით
აღების
აღებულ
აღებული
აღებულია
აღედგინა
აღედგინათ
აღემატება
აღემატებოდა
აღემატებოდეს
აღენიშნება
აღესრულა
აღზარდა
აღზევდა
აღზევება
აღზევების
აღზრდა
აღზრდას
აღზრდაში
აღზრდილი
აღზრდის
აღთქმა
აღთქმის
აღიარა
აღიარება
აღიარებას
აღიარებდა
აღიარებდნენ
აღიარებენ
აღიარებით
აღიარების
აღიარებს
აღიარებულ
აღიარებული
აღიარებულია
აღიარეს
აღიდგინა
აღიზარდა
აღიკვეცა
აღიმართა
აღინიშნა
აღინიშნება
აღინიშნებოდა
აღინიშნოს
აღიქვა
აღიქვამდა
აღიქვამდნენ
აღიქვამენ
აღიქვამს
აღიქმება
აღიქმებოდა
აღკვეთა
აღკვეთილი
აღკვეთის
აღლუმი
აღლუმის
აღმ
აღმავალი
აღმავლობა
აღმავლობას
აღმავლობის
აღმართა
აღმართეს
აღმართულ
აღმართული
აღმართულია
აღმასვლა
აღმასკომის
აღმასრულებელ
აღმასრულებელი
აღმასრულებელმა
აღმაშენებელი
აღმაშენებელმა
აღმაშენებლის
აღმზრდელი
აღმნიშვნელი
აღმოაჩენენ
აღმოაჩენს
აღმოაჩინა
აღმოაჩინეს
აღმოაჩნდა
აღმომჩენი
აღმოსავლეთ
აღმოსავლეთი
აღმოსავლეთიდან
აღმოსავლეთით
აღმოსავლეთის
აღმოსავლეთისა
აღმოსავლეთისაკენ
აღმოსავლეთისკენ
აღმოსავლეთმცოდნე
აღმოსავლეთმცოდნეობის
აღმოსავლეთს
აღმოსავლეთსა
აღმოსავლეთში
აღმოსავლურ
აღმოსავლური
აღმოსაფხვრელად
აღმოფხვრა
აღმოფხვრას
აღმოფხვრის
აღმოჩენა
აღმოჩენამ
აღმოჩენას
აღმოჩენები
აღმოჩენების
აღმოჩენილ
აღმოჩენილი
აღმოჩენილია
აღმოჩენის
აღმოჩნდა
აღმოჩნდება
აღმოჩნდეს
აღმოჩნდნენ
აღმოცენდა
აღმსარებელი
აღმსარებლობის
აღნაგობა
აღნაგობის
აღნიშვნა
აღნიშვნის
აღნიშნა
აღნიშნავდა
აღნიშნავდეს
აღნიშნავდნენ
აღნიშნავენ
აღნიშნავს
აღნიშნეს
აღნიშნულ
აღნიშნული
აღნიშნულია
აღნიშნულის
აღნიშნულმა
აღორძინდა
აღორძინება
აღორძინებას
აღორძინების
აღრიცხვა
აღრიცხვის
აღრიცხული
აღსადგენად
აღსავსე
აღსაზრდელად
აღსაკვეთად
აღსანიშნავად
აღსანიშნავი
აღსანიშნავია
აღსარება
აღსასრული
აღსასრულის
აღსაწერად
აღსდგა
აღსთაფის
აღსრულება
აღსრულების
აღსუს
აღუდგა
აღუდგენიათ
აღუთქვა
აღფრთოვანებული
აღქმა
აღქმას
აღქმის
აღქმული
აღშფოთება
აღშფოთებული
აღწევდა
აღწევდნენ
აღწევენ
აღწევს
აღწერა
აღწერას
აღწერაში
აღწერდა
აღწერდნენ
აღწერების
აღწერენ
აღწერეს
აღწერით
აღწერილ
აღწერილი
აღწერილია
აღწერილობა
აღწერის
აღწერისას
აღწერს
აღჭურვილი
აღჭურვილია
აღჭურვილობა
აღჭურვილობის
აღჯაბადის
აყ
აყალიბებენ
აყალიბებს
აყენებდა
აყენებდნენ
აყენებენ
აყენებს
აყვავდა
აყვავება
აყვავებას
აყვავების
აყვავებული
აყვანა
აყვანილი
აყვანის
აშ
აშანტის
აშაღი
აშელის
აშენდა
აშენება
აშენებას
აშენებდა
აშენებდნენ
აშენებენ
აშენების
აშენებს
აშენებულ
აშენებული
აშენებულია
აშკარა
აშკარაა
აშკარად
აშლილობა
აშლილობის
აშოტ
აშურ
აშუქებდა
აშუქებს
აშშ
აჩენს
აჩერებს
აჩვენა
აჩვენებდა
აჩვენებენ
აჩვენებს
აჩვენეს
აჩრდილი
აჩუქა
აჩქარება
აცვია
აცვიათ
აცილება
აცილების
აცილებული
აცნობა
აცნობეს
აცნობიერებს
აცტეკები
აცტეკების
აცხადებდა
აცხადებდნენ
აცხადებენ
აცხადებს
აძლევდა
აძლევდნენ
აძლევენ
აძლევს
აძლიერებს
აწ
აწამეს
აწარმოა
აწარმოებდა
აწარმოებდნენ
აწარმოებენ
აწარმოებს
აწარმოოს
აწევა
აწერენ
აწერია
აწერს
აწესებს
აწესრიგებს
აწეული
აწეულია
აწვდიდა
აწვდის
აწმყო
აწუხებდა
აწუხებს
აწყობა
აწყობდა
აწყობდნენ
აწყობენ
აწყობილი
აწყობილია
აწყობს
აწყურის
აჭარა
აჭარაში
აჭარბებდა
აჭარბებს
აჭარიდან
აჭარის
აჭარისწყლის
აჭარული
ახ
ახალ
ახალბედა
ახალგაზრდა
ახალგაზრდაა
ახალგაზრდას
ახალგაზრდები
ახალგაზრდების
ახალგაზრდებს
ახალგაზრდებში
ახალგაზრდობა
ახალგაზრდობაში
ახალგაზრდობის
ახალგაზრდობისა
ახალგაზრდულ
ახალგაზრდული
ახალგორის
ახალზელანდიელი
ახალზელანდიური
ახალი
ახალია
ახალმა
ახალს
ახალსოფელი
ახალსოფლის
ახალქალაქი
ახალქალაქის
ახალშენი
ახალშობილი
ახალციხე
ახალციხეში
ახალციხიდან
ახალციხის
ახალციხისა
ახასიათებდა
ახასიათებთ
ახასიათებს
ახდენდა
ახდენდნენ
ახდენენ
ახდენს
ახერხებდა
ახერხებდნენ
ახერხებენ
ახერხებს
ახვლედიანი
ახვლედიანის
ახლა
ახლად
ახლადშექმნილ
ახლადშექმნილი
ახლავს
ახლანდ
ახლანდელ
ახლანდელი
ახლაც
ახლახან
ახლდა
ახლებურად
ახლებური
ახლიდან
ახლის
ახლო
ახლოა
ახლობელი
ახლომდებარე
ახლოს
ახლოსაა
ახმედ
ახმეტელი
ახმეტელის
ახმეტის
ახმოვანებენ
ახმოვანებს
ახორციელებდა
ახორციელებდნენ
ახორციელებენ
ახორციელებს
ახსენა
ახსენებს
ახსნა
ახსნას
ახსნილი
ახსოვს
ახუნდოვის
აჯანყდა
აჯანყდნენ
აჯანყება
აჯანყებამ
აჯანყებას
აჯანყებაში
აჯანყებები
აჯანყებების
აჯანყების
აჯანყებულ
აჯანყებულები
აჯანყებულების
აჯანყებულებმა
აჯანყებულებს
აჯანყებულთა
აჯანყებული
აჯანყებულმა
აჯობა
აჯობებს
აჰა
აჰმად
აჰმედ
აჰმედი
აჰმედის
ბ
ბა
ბაადურ
ბაბა
ბაბექის
ბაბილონი
ბაბილონის
ბაბილონური
ბაბილონში
ბაბუა
ბაბუის
ბაბუნაშვილი
ბაგრატ
ბაგრატი
ბაგრატიონ
ბაგრატიონები
ბაგრატიონთა
ბაგრატიონი
ბაგრატიონის
ბაგრატის
ბაგრატმა
ბად
ბადაგას
ბადახოსის
ბადე
ბადენ
ბადენი
ბადენის
ბადი
ბადის
ბადრი
ბადრიძე
ბავარია
ბავარიაში
ბავარიელი
ბავარიელის
ბავარიის
ბავარიული
ბავშვებზე
ბავშვებთან
ბავშვები
ბავშვების
ბავშვებისათვის
ბავშვებისთვის
ბავშვებს
ბავშვებში
ბავშვზე
ბავშვთა
ბავშვი
ბავშვის
ბავშვობა
ბავშვობაში
ბავშვობიდან
ბავშვობიდანვე
ბავშვობის
ბავშვს
ბაზა
ბაზაზე
ბაზალეთის
ბაზალტის
ბაზალტური
ბაზარზე
ბაზარი
ბაზარს
ბაზარში
ბაზას
ბაზაში
ბაზები
ბაზების
ბაზელის
ბაზილიკა
ბაზილიკაა
ბაზილიკაში
ბაზილიკის
ბაზის
ბაზისი
ბაზრებზე
ბაზრები
ბაზრების
ბაზრის
ბაზრობა
ბათ
ბათიაშვილი
ბათილად
ბათუმი
ბათუმიდან
ბათუმის
ბათუმისა
ბათუმში
ბათქაშით
ბაი
ბაია
ბაიაზიდ
ბაიაზიდი
ბაიას
ბაიდენი
ბაიდენის
ბაიდენმა
ბაიერნი
ბაიერნის
ბაიკალის
ბაიმაკის
ბაიროითის
ბაირონის
ბაკალავრის
ბაკალიდან
ბაკალის
ბაკი
ბაკლი
ბაკურ
ბაკურიანის
ბალადა
ბალადები
ბალანი
ბალანსი
ბალანსის
ბალანჩივაძე
ბალახები
ბალახებია
ბალახეულით
ბალახი
ბალახით
ბალახის
ბალახოვან
ბალახოვანი
ბალდუინ
ბალეარის
ბალერინა
ბალეტი
ბალეტის
ბალეტმაისტერი
ბალზაკი
ბალზაკის
ბალი
ბალიანი
ბალის
ბალისტიკური
ბალკანეთის
ბალკანეთში
ბალნეოლოგიური
ბალტაჩევოს
ბალტიის
ბალტიისპირეთის
ბალტიმორში
ბალყარეთის
ბამბა
ბამბის
ბამბუკის
ბან
ბანაკები
ბანაკების
ბანაკებში
ბანაკი
ბანაკიდან
ბანაკის
ბანაკს
ბანაკში
ბანანი
ბანანის
ბანას
ბანგკოკის
ბანგკოკში
ბანგლადეში
ბანგლადეშის
ბანგლადეშში
ბანდა
ბანდის
ბანერი
ბანი
ბანია
ბანის
ბანკები
ბანკების
ბანკი
ბანკირი
ბანკის
ბანკმა
ბანკნოტები
ბანკნოტების
ბანკს
ბანკში
ბანტუს
ბარ
ბარა
ბარათაშვილი
ბარათაშვილის
ბარათები
ბარათების
ბარათი
ბარათის
ბარაკ
ბარამიძე
ბარანგაები
ბარანგაი
ბარანგაიდ
ბარანგაის
ბარბარა
ბარბარას
ბარბარე
ბარბარეს
ბარბაროსული
ბარდა
ბარდის
ბარელი
ბარელიეფი
ბარეტი
ბარეტის
ბართლომე
ბართლომეს
ბარი
ბარიერები
ბარიერი
ბარიერის
ბარიერს
ბარიერული
ბარის
ბარიტონი
ბარიუმის
ბარლოუ
ბარნი
ბარნსი
ბაროკოს
ბარონ
ბარონი
ბარონის
ბარსელონა
ბარსელონამ
ბარსელონას
ბარსელონასთან
ბარსელონაში
ბარსელონის
ბარტოკი
ბარტონი
ბარტონის
ბარში
ბარძაყის
ბას
ბასი
ბასილ
ბასილი
ბასილის
ბასის
ბასისტი
ბასკეთის
ბასკური
ბასრი
ბასტილიის
ბატაანის
ბატალიონი
ბატალიონის
ბატალიონს
ბატალიონში
ბატანგასის
ბატარეა
ბატარეის
ბატი
ბატის
ბატისტ
ბატისტა
ბატლერი
ბატონ
ბატონი
ბატონის
ბატონიშვილი
ბატონიშვილის
ბატონიშვილმა
ბატონიშვილს
ბატონო
ბატონობა
ბატონობას
ბატონობდა
ბატონობის
ბატონს
ბატონყმობის
ბაქანზე
ბაქანი
ბაქნის
ბაქნისაგან
ბაქო
ბაქოდან
ბაქოს
ბაქოსა
ბაქოში
ბაქრაძე
ბაქრაძემ
ბაქრაძის
ბაქსი
ბაქსის
ბაქტერიები
ბაქტერიების
ბაქტერიული
ბაღ
ბაღდადი
ბაღდადის
ბაღდადში
ბაღდათის
ბაღები
ბაღების
ბაღებს
ბაღებში
ბაღი
ბაღის
ბაღს
ბაღში
ბაყაყი
ბაში
ბაშირ
ბაშკირები
ბაშკირეთი
ბაშკირეთის
ბაშკირეთში
ბაშკირული
ბახი
ბახის
ბახო
ბახტაძე
ბახტრიონის
ბაჰადურ
ბაჰამის
ბაჰრ
ბაჰრამ
ბაჰრეინი
ბაჰრეინის
ბაჰრეინში
ბგერა
ბგერათა
ბგერას
ბგერები
ბგერების
ბგერებს
ბგერითი
ბგერის
ბე
ბეატრის
ბეატრისი
ბეატრიჩე
ბებერი
ბებია
ბებიასთან
ბებიის
ბეგ
ბეგი
ბეგინსი
ბეგის
ბეგუმი
ბედზე
ბედი
ბედიის
ბედის
ბედისწერის
ბედნიერად
ბედნიერება
ბედნიერებას
ბედნიერების
ბედნიერი
ბედს
ბევერლი
ბევრ
ბევრად
ბევრგან
ბევრი
ბევრია
ბევრის
ბევრმა
ბევრს
ბევრჯერ
ბეთლემი
ბეთლემის
ბეთჰოვენი
ბეთჰოვენის
ბეთჰოვენმა
ბეი
ბეიკერი
ბეიკერის
ბეილაგანის
ბეილი
ბეირუთი
ბეირუთის
ბეირუთში
ბეის
ბეისბოლის
ბეიტსი
ბეიტსის
ბეკ
ბეკი
ბეკის
ბელ
ბელა
ბელადები
ბელადების
ბელადი
ბელადის
ბელადმა
ბელარუსები
ბელარუსი
ბელარუსის
ბელარუსული
ბელარუსში
ბელას
ბელაქანის
ბელგია
ბელგიაში
ბელგიელი
ბელგიის
ბელგიური
ბელგრადი
ბელგრადის
ბელგრადში
ბელებეის
ბელერიანდის
ბელი
ბელიზი
ბელიზის
ბელის
ბელიუ
ბელოკატაის
ბელორეცკის
ბელორუსიის
ბელორუსის
ბელუ
ბემოლ
ბენ
ბენგალი
ბენგალის
ბენგალური
ბენდი
ბენდის
ბენდში
ბენედიქტ
ბენედიქტე
ბენეტი
ბენეტის
ბენი
ბენიამინ
ბენინი
ბენინის
ბენის
ბენიტო
ბენტამი
ბენტამის
ბენფიკა
ბენფიკას
ბენქსი
ბენჯამინ
ბეჟან
ბერ
ბერად
ბერბერული
ბერგი
ბერგის
ბერდი
ბერები
ბერების
ბერებმა
ბერებს
ბერთა
ბერი
ბერია
ბერიას
ბერინგის
ბერის
ბერისლავის
ბერიშვილი
ბერიძე
ბერკლი
ბერკლის
ბერლინი
ბერლინის
ბერლინში
ბერმა
ბერმუდის
ბერნარ
ბერნარდ
ბერნარდო
ბერნი
ბერნის
ბერნსტაინი
ბერნსტაინის
ბერნჰარდ
ბერს
ბერტა
ბერტოლტ
ბერტრან
ბერძ
ბერძენ
ბერძენთა
ბერძენი
ბერძენიშვილი
ბერძენიშვილის
ბერძენმა
ბერძნ
ბერძნები
ბერძნების
ბერძნებმა
ბერძნებს
ბერძნულ
ბერძნულად
ბერძნული
ბერძნულიდან
ბესარიონ
ბესარიონი
ბესიკ
ბესო
ბესტი
ბესტსელერი
ბეტა
ბეტი
ბეტმენი
ბეტმენის
ბეტონის
ბექ
ბექა
ბეღელი
ბეღურასნაირთა
ბეღურასნაირნი
ბეწვი
ბეწვით
ბეწვის
ბეჭდავდა
ბეჭდები
ბეჭდების
ბეჭდვა
ბეჭდვითი
ბეჭდვის
ბეჭდის
ბეჭდური
ბეჭედი
ბეჭედს
ბზარები
ბზიფის
ბი
ბიანკა
ბიბი
ბიბლია
ბიბლიაში
ბიბლიის
ბიბლიოგრაფია
ბიბლიოგრაფიული
ბიბლიოვიკი
ბიბლიოთეკა
ბიბლიოთეკას
ბიბლიოთეკაში
ბიბლიოთეკები
ბიბლიოთეკების
ბიბლიოთეკის
ბიბლიურ
ბიბლიური
ბიგ
ბიზანტია
ბიზანტიამ
ბიზანტიას
ბიზანტიასთან
ბიზანტიაში
ბიზანტიელები
ბიზანტიელებმა
ბიზანტიელებს
ბიზანტიელთა
ბიზანტიელი
ბიზანტიის
ბიზანტიურ
ბიზანტიური
ბიზნეს
ბიზნესი
ბიზნესის
ბიზნესისა
ბიზნესმენები
ბიზნესმენი
ბიზნესმენმა
ბიზნესს
ბიზნესში
ბილ
ბილბაოს
ბილბო
ბილბორდ
ბილბორდის
ბილბოს
ბილეთები
ბილეთების
ბილეთი
ბილეთის
ბილი
ბილიასუვარის
ბილიკები
ბილიკი
ბილიკის
ბილის
ბინ
ბინა
ბინადარი
ბინადრობდა
ბინადრობდნენ
ბინადრობენ
ბინადრობს
ბინარული
ბინას
ბინაში
ბინები
ბინი
ბინის
ბინძური
ბიო
ბიოგრაფები
ბიოგრაფი
ბიოგრაფია
ბიოგრაფიაში
ბიოგრაფიები
ბიოგრაფიის
ბიოგრაფიულ
ბიოგრაფიული
ბიოლოგები
ბიოლოგი
ბიოლოგია
ბიოლოგიაში
ბიოლოგიის
ბიოლოგიურ
ბიოლოგიურად
ბიოლოგიური
ბიომრავალფეროვნების
ბიონსე
ბიოსფერული
ბიოქიმიის
ბიოქიმიკოსი
ბიოქიმიური
ბიჟბულიაკის
ბირთვების
ბირთვი
ბირთვის
ბირთვს
ბირთვულ
ბირთვული
ბირთვში
ბირმინგემის
ბირმინგემში
ბირმის
ბირმული
ბირჟა
ბირჟაზე
ბირჟის
ბირსკის
ბის
ბისაუს
ბისექსუალი
ბისზე
ბისკაიის
ბისმარკი
ბისმარკის
ბისმუთის
ბიტი
ბიტიანი
ბიურო
ბიუროკრატი
ბიუროკრატის
ბიუროკრატიული
ბიუროს
ბიუროში
ბიუსტი
ბიუჯეტი
ბიუჯეტიდან
ბიუჯეტის
ბიუჯეტში
ბიშვათ
ბიჩი
ბიძა
ბიძამ
ბიძამისი
ბიძას
ბიძასთან
ბიძაშვილ
ბიძაშვილები
ბიძაშვილზე
ბიძაშვილი
ბიძაშვილის
ბიძაშვილმა
ბიძაშვილს
ბიძგი
ბიძია
ბიძინა
ბიძის
ბიჭები
ბიჭების
ბიჭებს
ბიჭვინთის
ბიჭი
ბიჭის
ბიჭს
ბიჭუნა
ბლაგოვარის
ბლაგოვეშჩენსკის
ბლანკა
ბლანკას
ბლანტი
ბლეიკი
ბლეკ
ბლეკი
ბლეკმორი
ბლერი
ბლოგი
ბლოკადა
ბლოკადის
ბლოკები
ბლოკების
ბლოკი
ბლოკიდან
ბლოკირება
ბლოკირების
ბლოკის
ბლოკმა
ბლოკს
ბლოკში
ბლუზ
ბლუზი
ბლუზის
ბლუზური
ბმა
ბმის
ბმპ
ბმულები
ბმულების
ბმული
ბმულის
ბმულს
ბნელ
ბნელი
ბო
ბობ
ბობი
ბოგდან
ბოდბის
ბოდიში
ბოდიშს
ბოთლი
ბოიაკის
ბოიკოტი
ბოიკოტის
ბოკა
ბოლესლავ
ბოლი
ბოლივარი
ბოლივარის
ბოლივია
ბოლივიაში
ბოლივიის
ბოლნისი
ბოლნისის
ბოლო
ბოლოდან
ბოლოდროინდელი
ბოლოები
ბოლოვდება
ბოლოზე
ბოლომდე
ბოლონია
ბოლონიის
ბოლოს
ბოლოსა
ბოლოსათვის
ბოლოსთვის
ბოლოსკენ
ბოლოში
ბოლოჯერ
ბოლქვაძე
ბოლშევიკები
ბოლშევიკების
ბოლშევიკებმა
ბოლშევიკთა
ბოლშევიკი
ბოლშევიკურ
ბოლშევიკური
ბომბავდნენ
ბომბარდირები
ბომბარდირი
ბომბდამშენი
ბომბი
ბომბის
ბონ
ბონა
ბონაპარტი
ბონაპარტის
ბონდი
ბონდის
ბონემი
ბონი
ბონის
ბონიფაციუს
ბონო
ბონუს
ბონში
ბორანი
ბორატი
ბორბალი
ბორი
ბორის
ბოროდინოს
ბოროტ
ბოროტად
ბოროტება
ბოროტების
ბოროტი
ბორტზე
ბორუსია
ბორუსიას
ბორჩალოს
ბორცვები
ბორცვების
ბორცვზე
ბორცვი
ბორცვიან
ბორცვიანი
ბორცვის
ბორჯომი
ბორჯომის
ბორჯომში
ბოსნია
ბოსნიაში
ბოსნიელ
ბოსნიელები
ბოსნიელების
ბოსნიელთა
ბოსნიელი
ბოსნიის
ბოსნიისა
ბოსნიური
ბოსტნეული
ბოსტნეულით
ბოსტნეულის
ბოსტნეულს
ბოსტონ
ბოსტონი
ბოსტონის
ბოსტონში
ბოსფორის
ბოტანიკა
ბოტანიკის
ბოტანიკოსები
ბოტანიკოსი
ბოტანიკურ
ბოტანიკური
ბოტაფოგოს
ბოტი
ბოტის
ბოტსვანა
ბოტსვანის
ბოუი
ბოუიმ
ბოუის
ბოულის
ბოქს
ბოქსი
ბოშა
ბოშები
ბოშების
ბოჭკოვანი
ბოჭორმის
ბოჰემიის
ბოჰოლის
ბრაბანტის
ბრაგანსის
ბრავო
ბრაზილია
ბრაზილიამ
ბრაზილიას
ბრაზილიაში
ბრაზილიელთა
ბრაზილიელი
ბრაზილიის
ბრაზილიურ
ბრაზილიური
ბრაიან
ბრაიანი
ბრაიენი
ბრალად
ბრალდება
ბრალდებები
ბრალდებებს
ბრალდებით
ბრალდების
ბრალდებული
ბრალდებულის
ბრალი
ბრალია
ბრალს
ბრანდენბურგ
ბრანდენბურგის
ბრატისლავა
ბრატისლავის
ბრაუზერი
ბრაუზერის
ბრაუნი
ბრაუნის
ბრაუნმა
ბრაუნშვაიგ
ბრაუნშვაიგის
ბრბო
ბრეგაძე
ბრეგვაძე
ბრედ
ბრედლი
ბრეიკი
ბრემენის
ბრენდები
ბრენდი
ბრენდის
ბრენდონ
ბრესტის
ბრეტანის
ბრეტონელი
ბრეხტი
ბრიანსკის
ბრიგადა
ბრიგადის
ბრილიანტის
ბრინჯაო
ბრინჯაოს
ბრინჯაოსა
ბრინჯი
ბრინჯის
ბრინჯს
ბრისტოლის
ბრიტ
ბრიტანეთთან
ბრიტანეთი
ბრიტანეთიდან
ბრიტანეთის
ბრიტანეთისა
ბრიტანეთისგან
ბრიტანეთმა
ბრიტანეთს
ბრიტანეთსა
ბრიტანეთში
ბრიტანელ
ბრიტანელები
ბრიტანელების
ბრიტანელებმა
ბრიტანელებს
ბრიტანელთა
ბრიტანელი
ბრიტანელმა
ბრიტანიკა
ბრიტანულ
ბრიტანული
ბრიტანულმა
ბრიტენი
ბრიტენის
ბრიტნი
ბრიუს
ბრიუსელი
ბრიუსელის
ბრიუსელში
ბრიჯის
ბრიჯიტ
ბრმა
ბროდვეიზე
ბროდვეის
ბროკჰაუზისა
ბროლის
ბროსე
ბროსეს
ბროწეულის
ბრტყელ
ბრტყელი
ბრტყელია
ბრტყლად
ბრუკი
ბრუკლინის
ბრუკლინში
ბრუნავს
ბრუნდება
ბრუნდებიან
ბრუნდებოდა
ბრუნება
ბრუნეი
ბრუნეის
ბრუნვა
ბრუნვაში
ბრუნვის
ბრუნო
ბრუტ
ბრუტუსი
ბრუფორდი
ბრძანა
ბრძანება
ბრძანებას
ბრძანებების
ბრძანებებს
ბრძანებით
ბრძანების
ბრძანებულება
ბრძანებულებები
ბრძანებულებით
ბრძანებულების
ბრძენი
ბრძენის
ბრძოლა
ბრძოლაზე
ბრძოლამ
ბრძოლას
ბრძოლაში
ბრძოლები
ბრძოლების
ბრძოლებს
ბრძოლებში
ბრძოლით
ბრძოლის
ბრძოლისა
ბრძოლისათვის
ბრძოლისას
ბრძოლისთვის
ბრწყინვალე
ბრწყინვალების
ბრწყინვალედ
ბრჭყალები
ბუ
ბუაჩიძე
ბუბა
ბუდა
ბუდაპეშტი
ბუდაპეშტის
ბუდაპეშტში
ბუდას
ბუდე
ბუდეები
ბუდეს
ბუდიზმი
ბუდიზმის
ბუდის
ბუდისტები
ბუდისტი
ბუდისტურ
ბუდისტური
ბუდობენ
ბუდობს
ბუენოს
ბუზდიაკი
ბუზდიაკის
ბუზი
ბუკერის
ბულბული
ბულგარეთი
ბულგარეთის
ბულგარეთმა
ბულგარეთს
ბულგარეთში
ბულგარელები
ბულგარელი
ბულგარულ
ბულგარული
ბულეზი
ბულეზის
ბულეტსი
ბულვარი
ბულვარის
ბულზი
ბულზის
ბულზმა
ბული
ბუმბული
ბუმი
ბუნდესლიგა
ბუნდესლიგაში
ბუნდესლიგის
ბუნდოვანი
ბუნდოვანია
ბუნება
ბუნებაზე
ბუნებას
ბუნებასთან
ბუნებაში
ბუნებით
ბუნებითი
ბუნების
ბუნებისა
ბუნებისმეტყველების
ბუნებისმეტყველი
ბუნებრივ
ბუნებრივად
ბუნებრივი
ბუნებრივია
ბურაევოდან
ბურაევოს
ბურბონ
ბურბონები
ბურბონების
ბურბონთა
ბურბონი
ბურბონის
ბურბონს
ბურგუნდიელი
ბურგუნდიის
ბურების
ბურთების
ბურთი
ბურთით
ბურთის
ბურთს
ბურკინა
ბურჟუაზიის
ბურჟუაზიულ
ბურჟუაზიული
ბურსა
ბურუნდი
ბურუნდის
ბურჭულაძე
ბურჯანაძე
ბურჯები
ბურჯი
ბურჯის
ბუტანის
ბუტროს
ბუფალო
ბუფერული
ბუქარესტი
ბუქარესტის
ბუქარესტში
ბუღა
ბუღალტრული
ბუღაძე
ბუში
ბუშის
ბუშმა
ბუშტის
ბუჩქები
ბუჩქებია
ბუჩქების
ბუჩქი
ბუჩქნარებში
ბუჩქნარი
ბუცი
ბუხარი
ბუხარია
ბუხარის
ბუხრის
ბჯენითი
ბჰუტანი
ბჰუტანის
გ
გა
გააბა
გააგზავნა
გააგზავნეს
გააგრძელა
გააგრძელებდა
გააგრძელებს
გააგრძელეს
გააერთიანა
გააერთიანეს
გაავრცელა
გაავრცელეს
გააზრება
გააზრებული
გაათავისუფლა
გაათავისუფლეს
გაათანაბრა
გააკეთა
გააკეთებს
გააკეთეს
გააკეთოს
გააკრიტიკა
გააკრიტიკეს
გაამაგრა
გაამაგრეს
გაამართლა
გაამახვილა
გაამდიდრა
გაამყარა
გაამწვავა
გაანადგურა
გაანადგურეს
გაანადგუროს
გაანთავისუფლეს
გააპროტესტა
გაარემონტეს
გაართვა
გაართულა
გაარღვია
გაარღვიეს
გაასამართლეს
გაასახლეს
გაასწორეს
გაატარა
გაატარეს
გააუმჯობესა
გააუქმა
გააუქმეს
გააფართოვა
გააფართოვეს
გააფთრებული
გააფორმა
გააფორმეს
გააფრთხილა
გააქვს
გააქტიურდა
გააქტიურება
გააღიზიანა
გააშენა
გააშენეს
გააჩინა
გააჩნდა
გააჩნდათ
გააჩნია
გააჩნიათ
გააცნეს
გააცნო
გააცნობიერა
გააძევა
გააძევეს
გააძლიერა
გაახანგრძლივა
გაახმოვანა
გაბალის
გაბატონდა
გაბატონებულ
გაბატონებული
გაბატონებულია
გაბაშვილი
გაბაშვილის
გაბედა
გაბედული
გაბესკირია
გაბნეული
გაბონი
გაბონის
გაბონში
გაბრაზებული
გაბრიელ
გაბრიელა
გაბრიელი
გაბრიელის
გაბრუნდა
გაბუნია
გაგა
გაგამ
გაგარინის
გაგას
გაგება
გაგებას
გაგებით
გაგების
გაგებული
გაგზავნა
გაგზავნას
გაგზავნეს
გაგზავნილ
გაგზავნილი
გაგზავნის
გაგიკ
გაგრა
გაგრაში
გაგრის
გაგრძელდა
გაგრძელდება
გაგრძელდეს
გაგრძელება
გაგრძელებაა
გაგრძელებაზე
გაგრძელებას
გაგრძელებაში
გაგრძელების
გაგრძელებულა
გაგრძელებულიყო
გაგუა
გადააბარა
გადაადგილდება
გადაადგილდებიან
გადაადგილდებოდა
გადაადგილება
გადაადგილებას
გადაადგილების
გადაადგილებულ
გადაადგილებული
გადააკეთა
გადააკეთეს
გადაარჩენს
გადაარჩინა
გადაასახლა
გადაასახლეს
გადაასვენეს
გადააქვთ
გადააქვს
გადააქცია
გადააყენა
გადააყენეს
გადააჭარბა
გადაბარგდა
გადაბეის
გადაბმული
გადადგა
გადადგმული
გადადგომა
გადადგომას
გადადგომის
გადადიან
გადადიოდა
გადადიოდნენ
გადადის
გადადო
გადაერთო
გადაერქვა
გადაეტანა
გადაეტანათ
გადაეცა
გადაეცათ
გადაეცემა
გადაეცემოდა
გადაეწყვიტა
გადაეხადა
გადაეხადათ
გადავა
გადავიდა
გადავიდეს
გადავიდნენ
გადავიდოდა
გადავწყვიტოთ
გადავხედე
გადაზიდვა
გადაზიდვების
გადაიდო
გადაიზარდა
გადაინაცვლა
გადაინაცვლეს
გადაიტანა
გადაიტანეს
გადაიფიქრა
გადაიქცა
გადაიქცევა
გადაიღეს
გადაიღო
გადაიყვანა
გადაიყვანეს
გადაიცა
გადაიცემა
გადაიცემოდა
გადაიხადა
გადაიხადეს
გადაიხარა
გადაიხურა
გადაკეთდა
გადაკეთება
გადაკეთების
გადაკეთებული
გადაკეთებულია
გადაკვეთა
გადაკვეთაზე
გადაკვეთეს
გადაკვეთის
გადაკვეთს
გადალახა
გადალახეს
გადალახვა
გადალახვის
გადამამუშავებელი
გადამდგარი
გადამდგარიყო
გადამდები
გადამისამართება
გადამუშავება
გადამუშავების
გადამუშავებული
გადამფრენი
გადამწყვეტ
გადამწყვეტი
გადანაწილდა
გადანაწილება
გადანაწილების
გადანაწილებული
გადარჩა
გადარჩევა
გადარჩევის
გადარჩენა
გადარჩენას
გადარჩენილ
გადარჩენილები
გადარჩენილი
გადარჩენის
გადარჩენისთვის
გადარჩნენ
გადასარჩენად
გადასასვლელად
გადასასვლელი
გადასატანი
გადასაღებ
გადასაღებად
გადასაყვანად
გადასაცემად
გადასაწყვეტად
გადასაჭრელად
გადასახადები
გადასახადების
გადასახადებს
გადასახადი
გადასახადის
გადასახადს
გადასახლდა
გადასახლდნენ
გადასახლება
გადასახლებას
გადასახლებაში
გადასახლებიდან
გადასახლების
გადასახლებული
გადასვლა
გადასვლას
გადასვლის
გადასვლისას
გადასული
გადასულიყვნენ
გადასულიყო
გადასცა
გადასცემდა
გადასცემდნენ
გადასცემენ
გადასცემს
გადასცეს
გადატანა
გადატანას
გადატანილ
გადატანილი
გადატანილია
გადატანის
გადატვირთული
გადატრიალება
გადატრიალებას
გადატრიალების
გადაუდებელი
გადაუკეთებიათ
გადაურჩა
გადაურჩნენ
გადაუხადა
გადაუხადეს
გადაქცევა
გადაქცევის
გადაღება
გადაღებას
გადაღებები
გადაღებების
გადაღების
გადაღებისას
გადაღებულ
გადაღებული
გადაღებულია
გადაღმა
გადაყენება
გადაყენების
გადაყვანა
გადაყვანილ
გადაყვანილი
გადაყვანის
გადაშენდა
გადაშენება
გადაშენების
გადაშენებული
გადაცემა
გადაცემაზე
გადაცემას
გადაცემაში
გადაცემები
გადაცემების
გადაცემით
გადაცემის
გადაცემული
გადაცმული
გადაწერა
გადაწერილი
გადაწერილია
გადაწვა
გადაწვეს
გადაწყდა
გადაწყდება
გადაწყვეტა
გადაწყვეტას
გადაწყვეტაში
გადაწყვეტენ
გადაწყვეტილება
გადაწყვეტილებამ
გადაწყვეტილებას
გადაწყვეტილებები
გადაწყვეტილებების
გადაწყვეტილებებს
გადაწყვეტილებით
გადაწყვეტილების
გადაწყვეტილი
გადაწყვეტის
გადაწყვეტს
გადაწყვიტა
გადაწყვიტეს
გადაჭარბებული
გადაჭიმული
გადაჭიმულია
გადაჭრა
გადაჭრის
გადახდა
გადახდას
გადახდილი
გადახდის
გადახედეთ
გადახედვა
გადახრა
გადახრილი
გადახურვა
გადახურვის
გადახურული
გადახურულია
გადაჰყავს
გადაჰყვა
გადაჰყურებს
გადებული
გადიან
გადიოდა
გადიოდნენ
გადის
გადმოგვცემს
გადმოდის
გადმოვიდა
გადმოიტანეს
გადმოსაცემად
გადმოსახედიდან
გადმოსახლდნენ
გადმოსახლებული
გადმოსცა
გადმოსცემს
გადმოცემა
გადმოცემები
გადმოცემით
გადმოცემის
გადმოცემული
გადმოცემულია
გაეგზავნა
გაეგზავნათ
გაეგო
გაეგრძელებინა
გაედინება
გაევლო
გაეზარდა
გაეზარდათ
გაეკეთებინა
გაემართა
გაემართნენ
გაემგზავრა
გაემგზავრნენ
გაენადგურებინა
გაენადგურებინათ
გაერთიანდა
გაერთიანდნენ
გაერთიანება
გაერთიანებამ
გაერთიანებას
გაერთიანებაში
გაერთიანებები
გაერთიანებების
გაერთიანებით
გაერთიანების
გაერთიანებულ
გაერთიანებული
გაერთიანებულია
გაერთიანებულმა
გაერო
გაერომ
გაეროს
გაეროში
გაეტარებინა
გაეყარა
გაეყვანა
გაეყიდა
გაეშვა
გაეშურა
გაეცანით
გაეცნო
გაეწია
გაეწიათ
გაეხსნა
გავა
გავაკეთე
გავაკეთოთ
გავარდა
გავიგე
გავიგოთ
გავიდა
გავიდნენ
გავითვალისწინებთ
გავლა
გავლენა
გავლენას
გავლენაც
გავლენები
გავლენების
გავლენიან
გავლენიანი
გავლენით
გავლენის
გავლით
გავლილი
გავლის
გავრცელდა
გავრცელება
გავრცელებას
გავრცელებასთან
გავრცელებაში
გავრცელებით
გავრცელების
გავრცელებულ
გავრცელებული
გავრცელებულია
გავრცელებულნი
გაზ
გაზარდა
გაზარდეს
გაზარდოს
გაზაფხულზე
გაზაფხული
გაზაფხულიდან
გაზაფხულის
გაზაფხულსა
გაზეთ
გაზეთები
გაზეთების
გაზეთებში
გაზეთი
გაზეთის
გაზეთმა
გაზეთს
გაზეთში
გაზელი
გაზი
გაზიარება
გაზის
გაზომვა
გაზომვის
გაზრდა
გაზრდას
გაზრდით
გაზრდილი
გაზრდის
გაზსადენი
გაზსადენის
გაზური
გათავისუფლდა
გათავისუფლება
გათავისუფლებას
გათავისუფლების
გათავისუფლებულ
გათავისუფლებული
გათამაშება
გათამაშებას
გათამაშებაში
გათამაშების
გათბობის
გათვალისწინება
გათვალისწინებით
გათვალისწინებულ
გათვალისწინებული
გათვალისწინებულია
გათვლილი
გათვლილია
გათლილი
გათხარა
გათხარეს
გათხოვდა
გათხოვება
გათხოვების
გათხოვილი
გათხრა
გათხრები
გათხრების
გათხრებისას
გათხრებმა
გათხრილი
გაი
გაიანა
გაიანის
გაიარა
გაიარეს
გაიაროს
გაიგებს
გაიგეს
გაიგზავნა
გაიგო
გაიგოს
გაივლის
გაიზარდა
გაიზარდოს
გაიზიარა
გაიზრდება
გაითვალისწინა
გაითვალისწინეთ
გაითქვა
გაითხარა
გაიკეთა
გაილაშქრა
გაიმართა
გაიმართება
გაიმარჯვა
გაიმარჯვეს
გაიმეორა
გაიოზ
გაიჟღერა
გაირკვა
გაირჩევა
გაისმა
გაიტანა
გაიტანეს
გაიტაცა
გაიტაცეს
გაიუს
გაიფორმა
გაიქცა
გაიქცნენ
გაიღო
გაიყვანა
გაიყვანეს
გაიყვეს
გაიყიდა
გაიყო
გაიშალა
გაიჩინა
გაიცა
გაიცემა
გაიცნეს
გაიცნო
გაიცნობს
გაიწვია
გაიწვიეს
გაიწმინდა
გაიხიზნა
გაიხსენა
გაიხსნა
გაკეთდა
გაკეთდეს
გაკეთება
გაკეთებას
გაკეთების
გაკეთებულ
გაკეთებული
გაკეთებულია
გაკვეთილებზე
გაკვეთილები
გაკვეთილების
გაკვეთილებს
გაკვეთილი
გაკოტრდა
გალა
გალავანი
გალავანს
გალავანში
გალავნით
გალავნის
გალაკტიონ
გალაკტიონის
გალაპაგოსის
გალაქტიკა
გალაქტიკაში
გალაქტიკები
გალაქტიკების
გალაქტიკის
გალაქტიკური
გალეაცო
გალები
გალების
გალერეა
გალერეას
გალერეაში
გალერეები
გალერეის
გალი
გალია
გალიაში
გალიის
გალილეის
გალილეო
გალინა
გალის
გალისიის
გალობა
გალობის
გამ
გამა
გამაგრდა
გამაგრდნენ
გამაგრება
გამაგრების
გამაგრებულ
გამაგრებული
გამაერთიანებელი
გამავალ
გამავალი
გამავრცელებელი
გამანადგურებელ
გამანადგურებელი
გამართა
გამართეს
გამართვა
გამართვის
გამართლდა
გამართლება
გამართლებული
გამართულ
გამართულად
გამართული
გამართულია
გამართულიყო
გამარტივებული
გამარჯვება
გამარჯვებამ
გამარჯვებას
გამარჯვებაში
გამარჯვებები
გამარჯვებების
გამარჯვებით
გამარჯვების
გამარჯვებისთვის
გამარჯვებულ
გამარჯვებულად
გამარჯვებულები
გამარჯვებული
გამარჯვებულია
გამარჯვებულის
გამარჯვებულმა
გამარჯვებულს
გამარჯობა
გამარჯობათ
გამას
გამბიის
გამგე
გამგებელი
გამგებლად
გამგებლის
გამგებლობაში
გამგედ
გამგეობა
გამგეობის
გამგზავრება
გამგზავრების
გამგის
გამდიდრებული
გამეორება
გამეფდა
გამეფება
გამეფებას
გამეფების
გამზადებული
გამზირზე
გამზირი
გამზირის
გამთენიისას
გამიზნული
გამიჯნული
გამკლავება
გამო
გამოავლინა
გამოავლინეს
გამოამჟღავნა
გამოარჩევს
გამოაქვეყნა
გამოაქვეყნეს
გამოაქვს
გამოაცხადა
გამოაცხადეს
გამოგზავნა
გამოგზავნილი
გამოგონება
გამოგონებები
გამოგონების
გამოგონილ
გამოგონილი
გამოდგა
გამოდგება
გამოდიან
გამოდიოდა
გამოდიოდნენ
გამოდის
გამოედინება
გამოეთიშა
გამოეყენებინა
გამოეყენებინათ
გამოეყვნენ
გამოეყო
გამოეყოფა
გამოეცხადა
გამოეცხადებინა
გამოეწვია
გამოეხმაურა
გამოვა
გამოვარდა
გამოვიდა
გამოვიდეს
გამოვიდნენ
გამოვიდოდა
გამოვიყენოთ
გამოვლენა
გამოვლენილი
გამოვლენილია
გამოვლენის
გამოვლინდა
გამოვლინდეს
გამოვლინება
გამოვლინებას
გამოვყოთ
გამოვხატავთ
გამოთვლა
გამოთვლები
გამოთვლების
გამოთვლით
გამოთვლითი
გამოთვლის
გამოთიშა
გამოთქვა
გამოთქვამდა
გამოთქვამს
გამოთქვეს
გამოთქმა
გამოთქმის
გამოთქმული
გამოთქმულია
გამოიგონა
გამოიგონეს
გამოითვლება
გამოითქვა
გამოითქმის
გამოიკვეთა
გამოიკვლია
გამოიკვლიეს
გამოიმუშავა
გამოიმუშავებს
გამოირჩევა
გამოირჩევიან
გამოირჩეოდა
გამოირჩეოდნენ
გამოისახება
გამოისყიდა
გამოიტანა
გამოიფინა
გამოიღო
გამოიყენა
გამოიყენება
გამოიყენებდა
გამოიყენებდნენ
გამოიყენებენ
გამოიყენებიან
გამოიყენებოდა
გამოიყენებს
გამოიყენეთ
გამოიყენეს
გამოიყენოთ
გამოიყენონ
გამოიყენოს
გამოიყვანა
გამოიყვანეს
გამოიყო
გამოიყოს
გამოიყოფა
გამოიყურება
გამოიყურებოდა
გამოიჩინა
გამოიჩინეს
გამოიცა
გამოიცემა
გამოიცემოდა
გამოიცვალა
გამოიძახა
გამოიძახეს
გამოიწვევდა
გამოიწვევს
გამოიწვია
გამოიწვიეს
გამოიწვიოს
გამოიხატა
გამოიხატება
გამოიხატებოდა
გამოკეტა
გამოკეტეს
გამოკეტილი
გამოკვეთილი
გამოკვეთილია
გამოკვლევა
გამოკვლევები
გამოკვლევების
გამოკვლევებმა
გამოკვლევებს
გამოკვლევის
გამოკვლეული
გამოკითხვა
გამოკითხვაში
გამოკითხვის
გამოკლებით
გამომავალ
გამომავალი
გამომგონებელი
გამომგონებლები
გამომდინარე
გამომდინარეობს
გამომუშავება
გამომუშავებული
გამომუშავებულია
გამომშრალი
გამომც
გამომცემელი
გამომცემლობა
გამომცემლობამ
გამომცემლობები
გამომცემლობის
გამომცხვარი
გამომძიებელი
გამომწვარი
გამომწვევ
გამომწვევი
გამომხატველი
გამონაკლისი
გამონაკლისია
გამონაკლისის
გამონაკლისს
გამორიცხავს
გამორიცხული
გამორიცხულია
გამორჩეულ
გამორჩეულად
გამორჩეული
გამორჩეულია
გამოსადეგი
გამოსადეგია
გამოსავალი
გამოსავლენად
გამოსაკვლევად
გამოსარჩევია
გამოსასწორებლად
გამოსაყენებლად
გამოსაცემად
გამოსახავდნენ
გამოსახავენ
გამოსახავს
გამოსახატავად
გამოსახვა
გამოსახულ
გამოსახულება
გამოსახულებაა
გამოსახულებანი
გამოსახულებას
გამოსახულებები
გამოსახულებებით
გამოსახულებების
გამოსახულებებს
გამოსახულებიანი
გამოსახულებით
გამოსახულების
გამოსახული
გამოსახულია
გამოსახულნი
გამოსვლა
გამოსვლამდე
გამოსვლას
გამოსვლაში
გამოსვლები
გამოსვლებით
გამოსვლების
გამოსვლებს
გამოსვლებში
გამოსვლიდან
გამოსვლით
გამოსვლის
გამოსვლისას
გამოსვლისთანავე
გამოსულ
გამოსულა
გამოსული
გამოსულიყო
გამოსულმა
გამოსცა
გამოსცადა
გამოსცემდა
გამოსცემს
გამოსცეს
გამოსწორდა
გამოსწორება
გამოსხივება
გამოსხივებას
გამოსხივების
გამოტანა
გამოტანილი
გამოტანის
გამოტოვა
გამოტოვება
გამოუვიდა
გამოუქვეყნებელი
გამოუყენებელი
გამოუყენებიათ
გამოუყო
გამოუშვა
გამოუშვეს
გამოუჩნდა
გამოუცდელი
გამოუცემელი
გამოუცხადა
გამოუცხადეს
გამოფენა
გამოფენაზე
გამოფენას
გამოფენაში
გამოფენებზე
გამოფენები
გამოფენების
გამოფენებს
გამოფენებში
გამოფენილი
გამოფენილია
გამოფენის
გამოფიტვის
გამოქვაბულები
გამოქვაბულებში
გამოქვაბული
გამოქვაბულის
გამოქვაბულში
გამოქვეყნდა
გამოქვეყნება
გამოქვეყნებას
გამოქვეყნების
გამოქვეყნებულ
გამოქვეყნებული
გამოქვეყნებულია
გამოღვიძება
გამოყენება
გამოყენებადი
გამოყენებაზე
გამოყენებამ
გამოყენებას
გამოყენებასთან
გამოყენებაში
გამოყენებაც
გამოყენებით
გამოყენებითი
გამოყენების
გამოყენებისა
გამოყენებისათვის
გამოყენებისას
გამოყენებისთვის
გამოყენებულ
გამოყენებული
გამოყენებულია
გამოყვანა
გამოყვანილი
გამოყვანილია
გამოყვეს
გამოყო
გამოყოფა
გამოყოფას
გამოყოფენ
გამოყოფილ
გამოყოფილი
გამოყოფილია
გამოყოფის
გამოყოფს
გამოშვება
გამოშვებას
გამოშვებით
გამოშვების
გამოშვებულ
გამოშვებული
გამოჩენა
გამოჩენამ
გამოჩენამდე
გამოჩენას
გამოჩენილ
გამოჩენილა
გამოჩენილი
გამოჩენილმა
გამოჩენის
გამოჩნდა
გამოჩნდება
გამოჩნდებოდა
გამოჩნდეს
გამოჩნდნენ
გამოც
გამოცდა
გამოცდას
გამოცდები
გამოცდების
გამოცდილ
გამოცდილება
გამოცდილებას
გამოცდილებით
გამოცდილების
გამოცდილი
გამოცდის
გამოცემა
გამოცემაზე
გამოცემამ
გამოცემამდე
გამოცემას
გამოცემაში
გამოცემები
გამოცემების
გამოცემებს
გამოცემებში
გამოცემიდან
გამოცემით
გამოცემის
გამოცემულ
გამოცემულა
გამოცემული
გამოცემულია
გამოცხადდა
გამოცხადება
გამოცხადებას
გამოცხადების
გამოცხადებულ
გამოცხადებული
გამოცხადებულია
გამოძახილი
გამოძიება
გამოძიებას
გამოძიების
გამოწვევა
გამოწვევები
გამოწვევის
გამოწვეულ
გამოწვეული
გამოწვეულია
გამოწყობილი
გამოხატა
გამოხატავდა
გამოხატავდნენ
გამოხატავენ
გამოხატავს
გამოხატეს
გამოხატვა
გამოხატვის
გამოხატულება
გამოხატულებაა
გამოხატული
გამოხატულია
გამოხდილი
გამოხმაურება
გამოჯანმრთელდა
გამოჯანმრთელების
გამოჯანმრთელებული
გამოჰყოფს
გამრავლება
გამრავლების
გამრეკელი
გამსახურდია
გამსახურდიამ
გამსახურდიას
გამსჭვალული
გამტარი
გამუდმებით
გამუდმებული
გამქრალი
გამყარდა
გამყიდველი
გამყინვარება
გამყინვარების
გამყოფი
გამყრელიძე
გამშვები
გამძლე
გამწვავდა
გამჭვირვალე
გამჭვირვალობა
გამჭვირვალობის
გამჭოლი
გამხდარა
გამხდარი
გამხდარიყვნენ
გამხდარიყო
გამხმარი
გამხმოვანებლები
გან
განა
განაახლა
განაახლეს
განაგებდა
განაგებდნენ
განაგებს
განაგრძეს
განაგრძო
განაგრძობდა
განაგრძობდნენ
განაგრძობენ
განაგრძობს
განადგურდა
განადგურება
განადგურებას
განადგურებაში
განადგურებით
განადგურების
განადგურებულ
განადგურებული
განადგურებულია
განავითარა
განავითარეს
განავრცო
განათავსა
განათავსეს
განათება
განათების
განათებული
განათებულია
განათლება
განათლებაზე
განათლებას
განათლებაში
განათლებით
განათლების
განათლებისა
განათლებულ
განათლებული
განაკვეთი
განამარხებული
განამტკიცა
განაპირა
განაპირას
განაპირობა
განაპირობებდა
განაპირობებს
განარისხა
განარჩევენ
განასახიერა
განასახიერებდა
განასახიერებს
განასხვავებენ
განასხვავებს
განაშენიანება
განაშენიანების
განაში
განაჩენი
განაჩენის
განაცხადა
განაცხადეს
განაცხადი
განაცხადში
განაწილება
განაწილებას
განაწილების
განაწილებული
განახლდა
განახლება
განახლებადი
განახლებას
განახლების
განახლებულ
განახლებული
განახლებულია
განახორციელა
განახორციელეს
განახორციელოს
განგებ
განგის
განდალფი
განდეგილი
განდევნა
განდევნეს
განდევნილი
განდევნის
განდი
განდის
განედის
განეკუთვნება
განეკუთვნებიან
განეკუთვნებოდა
განეხორციელებინა
განვითარდა
განვითარდეს
განვითარება
განვითარებად
განვითარებადი
განვითარებაზე
განვითარებამ
განვითარებას
განვითარებასა
განვითარებასთან
განვითარებაში
განვითარებით
განვითარების
განვითარებისა
განვითარებისათვის
განვითარებისთვის
განვითარებულ
განვითარებული
განვითარებულია
განვითარებულმა
განვიხილავთ
განვიხილოთ
განვლო
განზომილება
განზრახ
განზრახვა
განზრახული
განთავისუფლდა
განთავისუფლება
განთავისუფლებას
განთავისუფლების
განთავისუფლებული
განთავსდა
განთავსება
განთავსების
განთავსებულ
განთავსებული
განთავსებულია
განთესილი
განთიადი
განთიადის
განთქმულ
განთქმული
განთქმულია
განი
განიარაღება
განიარაღების
განიერ
განიერი
განიერია
განივ
განივი
განიზრახა
განიმარტება
განირჩევა
განის
განისაზღვრა
განისაზღვრება
განისაზღვრებოდა
განისაზღვროს
განისვენებს
განიცადა
განიცადეს
განიცდიან
განიცდიდა
განიცდიდნენ
განიცდის
განიხილა
განიხილავდა
განიხილავდნენ
განიხილავენ
განიხილავს
განიხილება
განიხილებოდა
განიხილეს
განიხილოს
განკარგულება
განკარგულებაში
განკარგულებით
განკარგულების
განკითხვის
განკუთვნილ
განკუთვნილი
განკუთვნილია
განკურნება
განკურნების
განლაგდა
განლაგება
განლაგების
განლაგებულ
განლაგებული
განლაგებულია
განლაგებულნი
განმავლობაში
განმავლობაშიც
განმათავისუფლებელ
განმათავისუფლებელი
განმანათლებელი
განმანათლებლის
განმანათლებლობის
განმარტა
განმარტავს
განმარტება
განმარტებას
განმარტებები
განმარტებით
განმარტებითი
განმარტების
განმარტებული
განმარტებულია
განმასხვავებელი
განმეორდა
განმეორებადი
განმეორებით
განმეორებითი
განმსაზღვრელი
განმტკიცდა
განმტკიცება
განმტკიცებას
განმტკიცებაში
განმტკიცების
განპირობებული
განპირობებულია
განრიგი
განრისხდა
განრისხებული
განრისხებულმა
განსაზღვრა
განსაზღვრავდა
განსაზღვრავენ
განსაზღვრავს
განსაზღვრას
განსაზღვრება
განსაზღვრის
განსაზღვროს
განსაზღვრულ
განსაზღვრული
განსაზღვრულია
განსაკუთრებით
განსაკუთრებულ
განსაკუთრებულად
განსაკუთრებული
განსამტკიცებლად
განსახიერება
განსახიერებული
განსახილველად
განსახლების
განსახორციელებლად
განსვენებული
განსხვავდება
განსხვავდებიან
განსხვავდებოდა
განსხვავდებოდნენ
განსხვავება
განსხვავებაა
განსხვავებას
განსხვავებები
განსხვავებების
განსხვავებებს
განსხვავებით
განსხვავების
განსხვავებულ
განსხვავებულად
განსხვავებული
განსხვავებულია
განსჯის
განტოლება
განტოლებები
განტოლების
განუდგა
განუვითარდა
განუვითარებელი
განუმეორებელი
განურჩევლად
განუსაზღვრელი
განუყოფელ
განუყოფელი
განუცდია
განუცხადა
განუწყვეტელი
განუწყვეტლივ
განფენილია
განქორწინდა
განქორწინდნენ
განქორწინება
განქორწინების
განყოფილება
განყოფილებაზე
განყოფილებას
განყოფილებაში
განყოფილებები
განყოფილების
განშტოება
განშტოებას
განშტოებები
განშტოების
განცალკევებით
განცალკევებულ
განცალკევებული
განცდა
განცდილი
განცხადება
განცხადებას
განცხადებაში
განცხადებები
განცხადებებს
განცხადებით
განცხადების
განძები
განძი
განძის
განწირული
განწყობა
განწყობას
განწყობილ
განწყობილი
განწყობის
განხეთქილება
განხეთქილების
განხილვა
განხილვაზე
განხილვას
განხილვაში
განხილვაწვლილი
განხილვები
განხილვების
განხილვის
განხილვისას
განხილულ
განხილული
განხილულია
განხორციელდა
განხორციელდეს
განხორციელება
განხორციელებას
განხორციელებაში
განხორციელების
განხორციელებულ
განხორციელებულა
განხორციელებული
განხრით
განჯა
განჯაში
განჯევის
განჯის
გაორმაგდა
გაოცებული
გაჟღენთილი
გაჟღერდა
გარანტია
გარანტიას
გარანტირებული
გარბის
გარდ
გარდა
გარდაბნის
გარდაეცვალა
გარდაიქმნა
გარდაიქმნება
გარდაიცვალა
გარდაიცვალნენ
გარდაიცვლება
გარდამავალ
გარდამავალი
გარდამტეხი
გარდატეხა
გარდატეხის
გარდაუვალი
გარდაქმნა
გარდაქმნას
გარდაქმნების
გარდაქმნის
გარდაცვალება
გარდაცვალებამ
გარდაცვალებამდე
გარდაცვალებას
გარდაცვალებიდან
გარდაცვალებით
გარდაცვალების
გარდაცვალებისას
გარდაცვალებისთანავე
გარდაცვლილ
გარდაცვლილები
გარდაცვლილთა
გარდაცვლილი
გარდაცვლილის
გარდაცვლილნი
გარდენში
გარე
გარეგან
გარეგანი
გარეგინ
გარეგნობა
გარეგნობით
გარეგნობის
გარეგნულად
გარეგნული
გარედან
გარეთ
გარეთა
გარეთაც
გარეთკენ
გარეკანზე
გარეკანი
გარეკანის
გარეკნები
გარემო
გარემოება
გარემოებები
გარემოებების
გარემოზე
გარემონტდა
გარემოს
გარემოსა
გარემოსდაცვითი
გარემოსთან
გარემოში
გარემოცვაში
გარეუბანი
გარეუბანში
გარეუბნებში
გარეულ
გარეული
გარეშე
გარეშეა
გარეშეც
გარეჯის
გართობა
გართობის
გართულდა
გართულებული
გარი
გარიბალდი
გარიბალდის
გარიგება
გარიგების
გარინჩა
გარინჩამ
გარინჩას
გარიცხეს
გარკვევა
გარკვევით
გარკვეულ
გარკვეული
გარკვეულწილად
გარნიზონები
გარნიზონი
გარნიზონის
გარს
გარსი
გარსია
გარსის
გარღვევა
გარშემო
გარშემორტყმული
გარშემორტყმულია
გარჩევა
გას
გასაბჭოების
გასაგებად
გასაგები
გასაგებია
გასაგრძელებლად
გასაზრდელად
გასათავისუფლებლად
გასათვალისწინებელია
გასაკეთებლად
გასაკვირი
გასამაგრებლად
გასამართი
გასამყარებლად
გასამხედროებული
გასანადგურებლად
გასაოცარი
გასართობ
გასართობად
გასართობი
გასარკვევად
გასასვლელად
გასასვლელი
გასასვლელის
გასაუმჯობესებლად
გასაღები
გასაღების
გასაღებს
გასაყიდად
გასაძლიერებლად
გასაჭირი
გასდევს
გასეირნება
გასვლა
გასვლაზე
გასვლამდე
გასვლას
გასვლით
გასვლის
გასპარ
გასროლა
გასროლით
გასტანა
გასტონ
გასტროლებზე
გასტროლები
გასტრონომია
გასულ
გასულა
გასული
გასულიყო
გასცა
გასცდა
გასცემს
გასცეს
გასწვრივ
გასწვრივი
გასწია
გასწორება
გასწორებული
გატანა
გატანილ
გატანილი
გატანის
გატარდა
გატარება
გატარებას
გატარების
გატარებულ
გატარებული
გატარებულმა
გატაცება
გატაცების
გატაცებული
გატეხა
გატეხილი
გატუნის
გაუარესდა
გაუარესება
გაუარესების
გაუგებარი
გაუგებარია
გაუგებრობა
გაუგზავნა
გაუგზავნეს
გაუდინარი
გაუვალი
გაუვრცელებლობის
გაუთავებელი
გაუთანაბრდა
გაუთხოვარი
გაუკეთა
გაუკეთებია
გაუკეთეს
გაუმჯობესდა
გაუმჯობესება
გაუმჯობესებაზე
გაუმჯობესებას
გაუმჯობესების
გაუმჯობესებული
გაუპატიურება
გაუპატიურების
გაურკვეველ
გაურკვეველი
გაურკვეველია
გაუსვა
გაუსის
გაუსწრო
გაუტანა
გაუტოლდა
გაუქმდა
გაუქმება
გაუქმებას
გაუქმების
გაუქმებულ
გაუქმებულები
გაუქმებული
გაუქმებულია
გაუშვა
გაუშვეს
გაუჩინა
გაუჩინარდა
გაუჩნდა
გაუჩნდათ
გაუძლო
გაუძღვა
გაუწია
გაუწიეს
გაუწიოს
გაუჭირდა
გაუხსნა
გაუხსნეს
გაფანტული
გაფართოება
გაფართოებას
გაფართოებით
გაფართოების
გაფართოებულ
გაფართოებული
გაფართოვდა
გაფიცვა
გაფიცვის
გაფორმდა
გაფორმება
გაფორმებაში
გაფორმების
გაფორმებული
გაფორმებულია
გაფრენა
გაფრთხილება
გაფრთხილების
გაფრინდა
გაფრინდაშვილი
გაქვავებული
გაქვთ
გაქვს
გაქრა
გაქრება
გაქრისტიანების
გაქრობა
გაქრობის
გაქცევა
გაქცევას
გაქცევით
გაქცევის
გაქცეული
გაქცეულიყო
გაღიზიანება
გაღმა
გაღრმავება
გაყვა
გაყვანა
გაყვანას
გაყვანილი
გაყვანილია
გაყვანის
გაყიდა
გაყიდეს
გაყიდვა
გაყიდვად
გაყიდვადი
გაყიდვას
გაყიდვაში
გაყიდვები
გაყიდვების
გაყიდვებმა
გაყიდვიდან
გაყიდვით
გაყიდვის
გაყიდული
გაყიდულია
გაყინული
გაყო
გაყოლებაზე
გაყოლებით
გაყოფა
გაყოფილი
გაყოფილია
გაყოფის
გაყრა
გაყრის
გაშენდა
გაშენება
გაშენებული
გაშენებულია
გაშვება
გაშვების
გაშვებულ
გაშვებული
გაშლიდან
გაშლილ
გაშლილი
გაშლილია
გაშორდა
გაჩაღდა
გაჩაღებული
გაჩენა
გაჩენას
გაჩენიდან
გაჩენილი
გაჩენის
გაჩერდა
გაჩერება
გაჩეჩილაძე
გაჩნდა
გაჩნდნენ
გაცემა
გაცემის
გაცემული
გაცვლა
გაცვლით
გაცვლითი
გაცვლის
გაცილებით
გაცნობა
გაცნობის
გაცოცხლება
გაცურა
გაძარცვა
გაძარცვეს
გაძევება
გაძევების
გაძევებული
გაძლიერდა
გაძლიერება
გაძლიერებას
გაძლიერების
გაძლიერებული
გაწევა
გაწევის
გაწევრიანდა
გაწევრიანება
გაწევრიანებას
გაწევრიანების
გაწერილი
გაწეული
გაწვევა
გაწვევის
გაწვრთნილი
გაწმენდა
გაწმენდის
გაწოლილია
გაწყვეტა
გაწყვიტა
გაწყობილი
გაჭირვების
გაჭრა
გაჭრილი
გაჭრილია
გახადა
გახადეს
გახდა
გახდება
გახდებოდა
გახდეს
გახდნენ
გახვეული
გახლავთ
გახლდათ
გახმაურებული
გახსენება
გახსნა
გახსნას
გახსნეს
გახსნით
გახსნილ
გახსნილი
გახსნილია
გახსნის
გახსნისას
გახურებისას
გახშირდა
გაჯერებული
გაჰქონდათ
გაჰყვა
გაჰყოლოდა
გბ
გდრ
გე
გებელსი
გებრიელი
გებრიელის
გეგეჭკორი
გეგმა
გეგმავდა
გეგმავდნენ
გეგმავს
გეგმაზე
გეგმას
გეგმაში
გეგმები
გეგმების
გეგმებს
გეგმით
გეგმის
გედევანიშვილი
გედი
გედის
გევარა
გევარამ
გევარას
გევინ
გეზი
გეთანხმები
გეთაყვა
გეი
გეიმპლეი
გელა
გელათის
გელაშვილი
გელოვანი
გემ
გემებზე
გემები
გემებით
გემების
გემებს
გემზე
გემი
გემით
გემის
გემმა
გემო
გემოვნებით
გემოვნების
გემოთი
გემოს
გემრიელი
გემს
გენადი
გენდერი
გენდერულ
გენდერული
გენეალოგია
გენეალოგიური
გენების
გენერალ
გენერალი
გენერალმა
გენერალურ
გენერალური
გენერალურმა
გენერლები
გენერლის
გენეტიკა
გენეტიკის
გენეტიკურ
გენეტიკურად
გენეტიკური
გენი
გენის
გენო
გენომის
გენოციდი
გენოციდის
გენუის
გენური
გენშტაბის
გეოგრაფები
გეოგრაფი
გეოგრაფია
გეოგრაფიას
გეოგრაფიაში
გეოგრაფიის
გეოგრაფიისა
გეოგრაფიულ
გეოგრაფიულად
გეოგრაფიული
გეოგრაფიულმა
გეოლოგები
გეოლოგი
გეოლოგია
გეოლოგიის
გეოლოგიურ
გეოლოგიურად
გეოლოგიური
გეომეტრია
გეომეტრიის
გეომეტრიული
გეომორფოლოგია
გეომორფოლოგიის
გეომორფოლოგიური
გეოპოლიტიკური
გეორგ
გეორგი
გეორგიევსკის
გეორგიოს
გეოფიზიკის
გეოფიზიკური
გერასიმე
გერბები
გერბზე
გერბთან
გერბი
გერბის
გერი
გერინგი
გერის
გერმ
გერმან
გერმანე
გერმანელ
გერმანელები
გერმანელების
გერმანელებმა
გერმანელებს
გერმანელთა
გერმანელი
გერმანელმა
გერმანია
გერმანიამ
გერმანიას
გერმანიასა
გერმანიასთან
გერმანიაში
გერმანიიდან
გერმანიის
გერმანიისა
გერმანიკული
გერმანულ
გერმანულად
გერმანულენოვან
გერმანულენოვანი
გერმანული
გერმანულმა
გერმანულში
გერონტი
გერჰარდ
გეტინგენის
გეტყვით
გეღარქუნიქის
გვ
გვალვა
გვამი
გვამის
გვამს
გვამცნობს
გვარ
გვარად
გვარდია
გვარდიამ
გვარდიას
გვარდიის
გვარები
გვარების
გვარი
გვარია
გვარიდან
გვარით
გვარის
გვარისა
გვაროვნული
გვარს
გვარში
გვასალია
გვატემალა
გვატემალაში
გვატემალის
გვაუწყებს
გვაქვს
გვაძლევს
გვაწვდის
გვევლინება
გველები
გველების
გველი
გველის
გვერდებზე
გვერდები
გვერდებიდან
გვერდების
გვერდებს
გვერდებში
გვერდზე
გვერდი
გვერდიანი
გვერდიგვერდ
გვერდიდან
გვერდით
გვერდითა
გვერდითი
გვერდის
გვერდს
გვერდში
გვეუბნება
გვექნება
გვთავაზობს
გვიან
გვიანდელ
გვიანდელი
გვიანდელია
გვიანი
გვიდო
გვინდა
გვინეა
გვინეაში
გვინეის
გვირაბები
გვირაბების
გვირაბი
გვირაბის
გვირგვინი
გვირგვინით
გვირგვინის
გვირგვინს
გვიჩვენებს
გვქონდა
გვქონდეს
გვყავს
გვჭირდება
გვხდება
გვხვდება
გვხვდებიან
გზა
გზაა
გზად
გზავნილი
გზავნის
გზაზე
გზათა
გზამკვლევი
გზას
გზატკეცილზე
გზატკეცილი
გზატკეცილის
გზაში
გზაჯვარედინზე
გზებზე
გზები
გზებით
გზების
გზებს
გზიდან
გზით
გზის
გთავაზობთ
გთხოვ
გთხოვთ
გი
გია
გიბრალტარის
გიბსონი
გიგა
გიგანტები
გიგანტი
გიგანტურ
გიგანტური
გიგი
გიგინეიშვილი
გიგო
გივი
გიზი
გიზის
გიზო
გითხრათ
გიიომ
გილ
გილანი
გილბერტი
გილბერტის
გილდიის
გილმორი
გილმორის
გილმორმა
გილოცავთ
გიმნაზია
გიმნაზიაში
გიმნაზიის
გინდა
გინდათ
გინეკოლოგი
გინესის
გიო
გიორგაძე
გიორგი
გიორგიმ
გიორგის
გიორგისა
გიპუსკოის
გირეი
გირეის
გირვანქა
გისურვებთ
გიტარა
გიტარაზე
გიტარები
გიტარების
გიტარის
გიტარისტ
გიტარისტები
გიტარისტი
გიტარისტის
გიტარისტმა
გიული
გლაზგო
გლაზგოს
გლდანის
გლენ
გლეხები
გლეხების
გლეხებმა
გლეხებს
გლეხთა
გლეხი
გლეხის
გლეხობა
გლეხობის
გლეხს
გლეხური
გლობალიზაციის
გლობალურ
გლობალური
გლობუსზე
გლობუსი
გლობუსის
გლოვერი
გლოვის
გლორია
გლორიას
გლუვი
გმადლობთ
გმირად
გმირები
გმირების
გმირებს
გმირთა
გმირი
გმირია
გმირის
გმირმა
გმირობა
გმირს
გმირულად
გმირული
გნეუს
გო
გოა
გობეჯიშვილი
გობუსტანის
გოგა
გოგებაშვილი
გოგებაშვილის
გოგი
გოგია
გოგირდი
გოგირდის
გოგირდოვანი
გოგის
გოგიტიძე
გოგიჩაიშვილი
გოგო
გოგოები
გოგოლაძე
გოგოლი
გოგოლის
გოგონა
გოგონათა
გოგონამ
გოგონას
გოგონები
გოგონების
გოგონებს
გოგოს
გოგრა
გოგუაძე
გოდერძი
გოეთეს
გოთას
გოთიკური
გოთური
გოიასი
გოიასის
გოიგოლის
გოლდენ
გოლები
გოლებით
გოლების
გოლი
გოლიათი
გოლით
გოლის
გოლიც
გოლმა
გოლუეის
გოლფის
გომბორის
გომელაური
გომესი
გომის
გონდორის
გონება
გონებას
გონებაში
გონების
გონებრივი
გონიერი
გონივრული
გონს
გონსალესი
გონსალო
გონძაგა
გონძაგას
გორა
გორაზე
გორაკ
გორაკზე
გორანბოის
გორასამარხი
გორბაჩოვი
გორბაჩოვის
გორგასლის
გორდა
გორდეზიანი
გორდონ
გორდონი
გორი
გორიდან
გორის
გორკი
გორკის
გორში
გოტა
გოტიკური
გოტფრიდ
გოქჩაის
გოჩა
გოცირიძე
გრ
გრაალის
გრადუსი
გრავიტაცია
გრავიტაციის
გრავიტაციული
გრავიურა
გრამატიკა
გრამატიკის
გრამატიკულ
გრამატიკული
გრამი
გრამია
გრამს
გრამფირფიტა
გრამფირფიტაზე
გრამფირფიტის
გრან
გრანადა
გრანადის
გრანდ
გრანდე
გრანდი
გრანდიოზული
გრანიტებით
გრანიტის
გრანტ
გრანტი
გრანტის
გრაუბიუნდენის
გრაფ
გრაფები
გრაფემა
გრაფემის
გრაფი
გრაფიკა
გრაფიკი
გრაფიკით
გრაფიკის
გრაფიკოსი
გრაფიკულ
გრაფიკული
გრაფინია
გრაფის
გრაფიტი
გრაფიტის
გრაფმა
გრაცის
გრაცში
გრეგ
გრეგორი
გრეი
გრეის
გრეისი
გრემ
გრემი
გრემის
გრენადერთა
გრენლანდია
გრენლანდიაში
გრენლანდიის
გრეტა
გრიბოედოვის
გრიგოლ
გრიგოლი
გრიგოლია
გრიგოლის
გრიგოლმა
გრიგოლს
გრიგორ
გრიგორი
გრიგორიანული
გრილი
გრინ
გრინვიჩის
გრინი
გრიპის
გრიფინების
გრიფინი
გროვა
გროვდება
გროზნო
გროზნოს
გროზნოში
გროს
გროსუ
გროსუს
გრუზინსკი
გრუნტის
გრძედის
გრძელ
გრძელდება
გრძელდებოდა
გრძელვადიან
გრძელვადიანი
გრძელი
გრძელია
გრძივ
გრძივი
გრძნეული
გრძნობა
გრძნობას
გრძნობდა
გრძნობები
გრძნობების
გრძნობებს
გრძნობენ
გრძნობით
გრძნობის
გრძნობს
გსურთ
გუ
გუბადლის
გუბერნატორ
გუბერნატორად
გუბერნატორები
გუბერნატორი
გუბერნატორის
გუბერნატორმა
გუბერნატორს
გუბერნია
გუბერნიაში
გუბერნიის
გუგული
გუგუშვილი
გუდამაყრის
გუდაუთიდან
გუდაუთის
გუდიაშვილის
გულ
გულზე
გული
გულია
გულიელმო
გულით
გულის
გულისთვის
გულისხმობ
გულისხმობდა
გულისხმობს
გულმკერდის
გულმოდგინედ
გულრიფშის
გულს
გულშემატკივართა
გულშემატკივარი
გულშემატკივრები
გულშემატკივრების
გულშემატკივრებმა
გულში
გულწრფელად
გულწრფელი
გუმბათი
გუმბათიანი
გუმბათით
გუმბათის
გუმბათოვანი
გუმბათქვეშა
გუმისთის
გუნდ
გუნდად
გუნდები
გუნდების
გუნდებმა
გუნდებს
გუნდებში
გუნდთან
გუნდი
გუნდიდან
გუნდის
გუნდისა
გუნდისთვის
გუნდმა
გუნდს
გუნდურ
გუნდური
გუნდში
გუნია
გურამ
გურამიშვილი
გურამიშვილის
გურგენ
გურგენი
გურგენიძე
გურია
გურიას
გურიასა
გურიაში
გურიელი
გურიელის
გურიელმა
გურიელს
გურიიდან
გურიის
გურუ
გურული
გურჯაანის
გურჯი
გურჯისტანის
გუსარის
გუსტავ
გუსტავი
გუსტავო
გუშინ
გფრ
დ
და
დააანონსა
დააარსა
დააარსეს
დააბრუნა
დააბრუნეს
დააგროვა
დაადანაშაულა
დაადანაშაულეს
დაადასტურა
დაადასტურეს
დაადგა
დაადგეს
დაადგინა
დაადგინეს
დაადო
დაავადდა
დაავადება
დაავადებათა
დაავადებას
დაავადებები
დაავადებების
დაავადებებს
დაავადებით
დაავადების
დაავადებულ
დაავადებულთა
დაავადებული
დაავალა
დააზარალა
დააზიანა
დააკავა
დააკავეს
დააკავშირა
დააკანონა
დააკისრა
დააკლდა
დააკმაყოფილა
დაამარცხა
დაამარცხეს
დაამატა
დაამატეს
დაამზადა
დაამზადეს
დაამთავრა
დაამთავრეს
დაამკვიდრა
დაამონტაჟეს
დაამტკიცა
დაამტკიცეს
დაამუშავა
დაამყარა
დაამყარეს
დაამხეს
დაამხო
დაანგრია
დაანგრიეს
დაანება
დაანონსა
დაანონსდა
დააპატიმრა
დააპატიმრეს
დააპროექტა
დაარბია
დაარბიეს
დაარსდა
დაარსება
დაარსებამდე
დაარსებას
დაარსებაში
დაარსებიდან
დაარსების
დაარსებულ
დაარსებულები
დაარსებული
დაარსებულია
დაარტყა
დაარქვა
დაარქვეს
დაარქივების
დაარქივებული
დაარქივებულია
დაარღვია
დაარღვიეს
დაარწმუნა
დაარწმუნეს
დაასაბუთა
დაასაფლავეს
დაასახელა
დაასახელეს
დაასახლა
დაასკვნა
დაასკვნეს
დაასრულა
დაასრულეს
დაასუსტა
დაატყდა
დაატყვევა
დაატყვევეს
დააფინანსა
დააფიქსირა
დააფიქსირეს
დააფუძნა
დააფუძნეს
დააქორწინა
დააქორწინეს
დააყენა
დააყენეს
დააშენეს
დააჩქარა
დააწესა
დააწესეს
დააწინაურა
დააწინაურეს
დაახ
დაახასიათა
დაახლ
დაახლოება
დაახლოებით
დაახლოების
დაახლოებული
დააჯილდოვა
დააჯილდოვეს
დაბ
დაბა
დაბადება
დაბადებამდე
დაბადებას
დაბადებიდან
დაბადებიდანვე
დაბადებით
დაბადების
დაბადებისას
დაბადებისთანავე
დაბადებულ
დაბადებულები
დაბადებული
დაბადებულნი
დაბალ
დაბალი
დაბალია
დაბანაკდა
დაბაში
დაბები
დაბეჭდა
დაბეჭდილი
დაბეჭდილია
დაბინძურება
დაბინძურების
დაბინძურებული
დაბის
დაბლა
დაბლობ
დაბლობებზე
დაბლობები
დაბლობებში
დაბლობზე
დაბლობი
დაბლობის
დაბლობს
დაბლობში
დაბლოკა
დაბლოკვა
დაბლოკილი
დაბნელება
დაბოლოება
დაბომბა
დაბომბეს
დაბომბვა
დაბომბვას
დაბომბვის
დაბრუნდა
დაბრუნდება
დაბრუნდებოდა
დაბრუნდეს
დაბრუნდნენ
დაბრუნება
დაბრუნებაზე
დაბრუნებამდე
დაბრუნებას
დაბრუნებიდან
დაბრუნების
დაბრუნებისას
დაბრუნებისთანავე
დაბრუნებულ
დაბრუნებულა
დაბრუნებული
დაბრუნებულიყვნენ
დაბრუნებულიყო
დაბრუნებულმა
დაგ
დაგეგმა
დაგეგმარება
დაგეგმარების
დაგეგმვა
დაგეგმვის
დაგეგმილ
დაგეგმილი
დაგეგმილია
დაგვიანებით
დაგვირგვინდა
დაგლას
დაგლასი
დაგლასის
დაგმეს
დაგმო
დაგროვება
დაგროვების
დაგროვებული
დაგროვილი
დადაბლებული
დადასტურდა
დადასტურება
დადასტურებული
დადასტურებულია
დადგა
დადგენა
დადგენას
დადგენილ
დადგენილება
დადგენილებები
დადგენილებით
დადგენილების
დადგენილი
დადგენილია
დადგენის
დადგეს
დადგინდა
დადგინდეს
დადგმა
დადგმაში
დადგმები
დადგმის
დადგმულ
დადგმული
დადგმულია
დადება
დადებით
დადებითად
დადებითი
დადების
დადებულ
დადებული
დადეს
დადიან
დადიანების
დადიანი
დადიანის
დადიანმა
დადიანს
დადიოდა
დადიოდნენ
დადის
დადო
დაე
დაებრუნებინა
დაებრუნებინათ
დაედევნა
დაედო
დაევალა
დაეთანხმა
დაეთმო
დაეკავებინა
დაეკავებინათ
დაეკისრა
დაემართა
დაემატა
დაემატება
დაემატოს
დაემთხვა
დაემორჩილა
დაემტკიცებინა
დაემუქრა
დაემუქრნენ
დაემყარებინა
დაემხო
დაენიშნა
დაეპყრო
დაერთო
დაერქვა
დაერწმუნებინა
დაესვა
დაესრულებინა
დაესწრნენ
დაესწრო
დაესხა
დაესხნენ
დაეტოვებინა
დაეტოვებინათ
დაეუფლა
დაეუფლნენ
დაექვემდებარა
დაეშვა
დაეცა
დაეცვა
დაეცვათ
დაეწერა
დაეწყო
დაეწყოთ
დაეჭირა
დაეხია
დაეხიათ
დაეხმარა
დაეხმარება
დაეხმარებოდა
დაეხმარნენ
დაეხმაროს
დაეჯახა
დავა
დავალება
დავალებას
დავალებებს
დავალებით
დავალების
დავალებული
დავაო
დავაოს
დავას
დავები
დავების
დაველოდოთ
დავთარი
დავიდ
დავით
დავითაშვილი
დავითგარეჯის
დავითი
დავითის
დავითმა
დავითს
დავის
დავიწყე
დავიწყებას
დავიწყებული
დავიწყოთ
დავუშვათ
დავწერ
დავწერე
დაზარალდა
დაზარალებული
დაზე
დაზვერვა
დაზვერვის
დაზიანდა
დაზიანება
დაზიანებას
დაზიანებები
დაზიანების
დაზიანებულ
დაზიანებული
დაზიანებულია
დაზუსტებული
დაზღვევა
დაზღვევის
დათა
დათანხმდა
დათანხმდნენ
დათარიღება
დათარიღების
დათარიღებულ
დათარიღებული
დათარიღებულია
დათბობა
დათბობის
დათვალიერება
დათვი
დათვის
დათმეს
დათმო
დათმობა
დათმობაზე
დათმობებზე
დათმობილი
დათო
დათოს
დაიან
დაიანა
დაიბადა
დაიბადნენ
დაიბარა
დაიბეჭდა
დაიბომბა
დაიბრუნა
დაიბრუნეს
დაიგეგმა
დაიდგა
დაიდო
დაიზიანა
დაითანხმა
დაითხოვა
დაითხოვეს
დაიკავა
დაიკავებდა
დაიკავეს
დაიკარგა
დაიკეტა
დაიმატა
დაიმკვიდრა
დაიმორჩილა
დაიმორჩილეს
დაიმსახურა
დაინახა
დაინახავს
დაინახეს
დაინგრა
დაინერგა
დაინიშნა
დაინიშნენ
დაინტერესდა
დაინტერესდნენ
დაინტერესება
დაინტერესებულ
დაინტერესებული
დაინტერესებულია
დაიპყრეს
დაიპყრო
დაირქვა
დაირღვა
დაისაკუთრა
დაისახა
დაისაჯა
დაისვა
დაისი
დაიტოვა
დაიფარა
დაიქირავა
დაიქირავეს
დაიღუპა
დაიღუპნენ
დაიყო
დაიყოს
დაიშალა
დაიცავდა
დაიცალა
დაიცვა
დაიცვან
დაიცვას
დაიძაბა
დაიძრა
დაიძრნენ
დაიწერა
დაიწეროს
დაიწვა
დაიწყება
დაიწყებდა
დაიწყებოდა
დაიწყებს
დაიწყეს
დაიწყო
დაიწყოს
დაიჭირა
დაიჭირეს
დაიჭრა
დაიხარჯა
დაიხვეწა
დაიხია
დაიხიეს
დაიხრჩო
დაიხურა
დაკავდა
დაკავება
დაკავებას
დაკავების
დაკავებულ
დაკავებულები
დაკავებული
დაკავებულია
დაკავებულნი
დაკავშირება
დაკავშირებით
დაკავშირების
დაკავშირებულ
დაკავშირებული
დაკავშირებულია
დაკავშირებულნი
დაკარგა
დაკარგავს
დაკარგეს
დაკარგვა
დაკარგვას
დაკარგვით
დაკარგვის
დაკარგულ
დაკარგულად
დაკარგული
დაკარგულია
დაკბილული
დაკვეთით
დაკვირვება
დაკვირვებები
დაკვირვებების
დაკვირვებით
დაკვირვების
დაკვრა
დაკვრას
დაკვრით
დაკვრის
დაკიდებული
დაკიდეს
დაკისრებული
დაკმაყოფილდა
დაკმაყოფილება
დაკნინება
დაკომპლექტდა
დაკომპლექტებული
დაკოტა
დაკრძალა
დაკრძალეს
დაკრძალვა
დაკრძალვაზე
დაკრძალვას
დაკრძალვის
დაკრძალულები
დაკრძალული
დაკრძალულია
დაკრძალულნი
დალაგებული
დალაი
დალას
დალაშქრა
დალაშქრეს
დალი
დალია
დალის
დამ
დამაარსებელი
დამაარსებლად
დამაარსებლები
დამაარსებლის
დამაგრებული
დამადასტურებელი
დამაკავშირებელ
დამაკავშირებელი
დამალა
დამალვა
დამალული
დამამტკიცებელი
დამამცირებელი
დამანგრეველი
დამარილებული
დამარცხდა
დამარცხდნენ
დამარცხება
დამარცხებამ
დამარცხებას
დამარცხებაში
დამარცხებით
დამარცხების
დამარცხებული
დამარხეს
დამარხული
დამასკო
დამასკოს
დამასკოში
დამატება
დამატებას
დამატებები
დამატებების
დამატებით
დამატებითი
დამატების
დამატებული
დამატებულია
დამახასიათებელ
დამახასიათებელი
დამახასიათებელია
დამახინჯებული
დამახსოვრების
დამაჯერებელი
დამაჯერებლად
დამდგმელი
დამდეგს
დამეგობრებული
დამზადდა
დამზადება
დამზადების
დამზადებულ
დამზადებული
დამზადებულია
დამთავრდა
დამთავრება
დამთავრებამდე
დამთავრების
დამთავრებისთანავე
დამთავრებული
დამის
დამკვიდრდა
დამკვიდრდნენ
დამკვიდრება
დამკვიდრებას
დამკვიდრების
დამკვიდრებულ
დამკვიდრებული
დამკვირვებელთა
დამკვირვებელი
დამკვირვებლის
დამლევს
დამნაშავე
დამნაშავედ
დამნაშავეები
დამნაშავეთა
დამნაშავის
დამოკიდებულ
დამოკიდებულება
დამოკიდებულებას
დამოკიდებულებაში
დამოკიდებულებით
დამოკიდებულების
დამოკიდებული
დამოკიდებულია
დამონტაჟდა
დამონტაჟებული
დამონტაჟებულია
დამორჩილება
დამორჩილებოდა
დამოუკიდებელ
დამოუკიდებელი
დამოუკიდებელია
დამოუკიდებელმა
დამოუკიდებლად
დამოუკიდებლობა
დამოუკიდებლობას
დამოუკიდებლობის
დამოუკიდებლობისა
დამოუკიდებლობისათვის
დამოუკიდებლობისთვის
დამოწმებული
დამპყრობელი
დამპყრობლების
დამრეცი
დამსახურება
დამსახურებაა
დამსახურებით
დამსახურების
დამსახურებისათვის
დამსახურებისთვის
დამსახურებული
დამსწრე
დამსჯელი
დამტკიცდა
დამტკიცება
დამტკიცებას
დამტკიცების
დამტკიცებულ
დამტკიცებული
დამტკიცებულია
დამუშავება
დამუშავებას
დამუშავებაში
დამუშავებით
დამუშავების
დამუშავებულ
დამუშავებული
დამუშავებულია
დამუხტული
დამფუძნებელ
დამფუძნებელი
დამფუძნებელმა
დამფუძნებლები
დამფუძნებლის
დამყარდა
დამყარება
დამყარებას
დამყარების
დამყარებული
დამყარებულია
დამცავ
დამცავი
დამცველად
დამცველები
დამცველთა
დამცველი
დამცველის
დამძიმდა
დამწერლობა
დამწერლობას
დამწერლობაში
დამწერლობები
დამწერლობით
დამწერლობის
დამწვარი
დამწყები
დამხმარე
დამხობა
დამხობას
დამხობილი
დამხობის
დან
დანა
დანადგარები
დანადგარების
დანადგარი
დანაკარგები
დანაკარგების
დანაკარგი
დანაკვთული
დანაკლისი
დანალექი
დანამატი
დანამდვილებით
დანაოჭების
დანაოჭებული
დანართი
დანარჩენ
დანარჩენები
დანარჩენებს
დანარჩენი
დანარჩენმა
დანაყოფები
დანაყოფების
დანაყოფი
დანაყოფის
დანაშაულად
დანაშაულები
დანაშაულების
დანაშაულებრივი
დანაშაული
დანაშაულის
დანაშაულს
დანაშაულში
დანაწევრებული
დანაწევრებულია
დანაწილება
დანაწილების
დანახვა
დანახული
დანგრევა
დანგრევის
დანგრეულ
დანგრეული
დანგრეულია
დანებდა
დანებება
დანები
დანელია
დანერგა
დანერგვა
დანერგვას
დანერგვის
დანი
დანია
დანიამ
დანიას
დანიასთან
დანიაში
დანიელ
დანიელები
დანიელი
დანიელის
დანიელმა
დანით
დანიის
დანიისა
დანის
დანიურ
დანიური
დანიშვნა
დანიშვნას
დანიშვნის
დანიშნა
დანიშნეს
დანიშნულ
დანიშნულება
დანიშნულებაა
დანიშნულებას
დანიშნულებით
დანიშნულების
დანიშნული
დანკანი
დანტე
დაორსულდა
დაპატიმრება
დაპატიმრების
დაპატიმრებულ
დაპატიმრებული
დაპირდა
დაპირება
დაპირისპირება
დაპირისპირებამ
დაპირისპირებას
დაპირისპირებაში
დაპირისპირებები
დაპირისპირების
დაპირისპირებულ
დაპირისპირებული
დაპროექტებული
დაპყრობა
დაპყრობას
დაპყრობები
დაპყრობების
დაპყრობით
დაპყრობილ
დაპყრობილი
დაპყრობის
დაჟანგვის
დაჟინებით
დაჟინებული
დარ
დარბაზ
დარბაზები
დარბაზების
დარბაზებში
დარბაზი
დარბაზის
დარბაზისაგან
დარბაზისგან
დარბაზს
დარბაზული
დარბაზულია
დარბაზში
დარბევა
დარბევის
დარგები
დარგებია
დარგების
დარგებს
დარგებში
დარგი
დარგია
დარგის
დარგობრივი
დარგს
დარგში
დარდანელის
დარეგისტრირდა
დარეგისტრირებული
დარეგისტრირებულია
დარენ
დარეჯან
დარეჯანი
დარვინი
დარვინის
დართ
დართეს
დართო
დართული
დარი
დარია
დარიალის
დარიო
დარიოს
დარიშხანის
დარიჩინი
დარტყმა
დარტყმას
დარტყმები
დარტყმების
დარტყმით
დარტყმის
დარღვევა
დარღვევას
დარღვევაში
დარღვევები
დარღვევების
დარღვევით
დარღვევის
დარღვეული
დარჩა
დარჩათ
დარჩება
დარჩებოდა
დარჩენა
დარჩენას
დარჩენია
დარჩენილ
დარჩენილა
დარჩენილი
დარჩენილია
დარჩენილიყო
დარჩენილმა
დარჩენის
დარჩეს
დარჩნენ
დარწმუნდა
დარწმუნება
დარწმუნებული
დარწმუნებულია
დას
დასაბამი
დასაბამს
დასაბრუნებლად
დასაბუთება
დასაბუთებული
დასადასტურებლად
დასადგენად
დასავლეთ
დასავლეთი
დასავლეთიდან
დასავლეთიდანაა
დასავლეთით
დასავლეთითაა
დასავლეთის
დასავლეთისა
დასავლეთისაკენ
დასავლეთისკენ
დასავლეთს
დასავლეთში
დასავლელი
დასავლურ
დასავლური
დასაკავებლად
დასაკავშირებლად
დასაკმაყოფილებლად
დასამარცხებლად
დასამახსოვრებელი
დასამზადებლად
დასამორჩილებლად
დასამტკიცებლად
დასამუშავებელი
დასამუშავებლად
დასამყარებლად
დასაპყრობად
დასარტყამ
დასარტყამი
დასარტყმელ
დასარტყმელი
დასასვენებელი
დასასვენებლად
დასასრულამდე
დასასრულებლად
დასასრული
დასასრულიდან
დასასრულის
დასასრულს
დასასრულსა
დასასწრებად
დასასჯელად
დასაფლავების
დასაფლავებულია
დასაქმების
დასაქმებულთა
დასაქმებული
დასაქმებულია
დასაყრდენი
დასაშვები
დასაშვებია
დასაცავად
დასაძლევად
დასაწერად
დასაწყებად
დასაწყისად
დასაწყისამდე
დასაწყისი
დასაწყისიდან
დასაწყისით
დასაწყისის
დასაწყისისათვის
დასაწყისისთვის
დასაწყისს
დასაწყისში
დასაწყისშივე
დასაჭერად
დასახელდა
დასახელება
დასახელებით
დასახელების
დასახელებულ
დასახელებული
დასახელებულია
დასახლდა
დასახლდნენ
დასახლება
დასახლებაა
დასახლებას
დასახლებაში
დასახლებები
დასახლებების
დასახლებებს
დასახლებებში
დასახლების
დასახლებულ
დასახლებული
დასახლებულია
დასახმარებლად
დასახული
დასაჯა
დასაჯდომი
დასაჯეს
დასდეს
დასდო
დასვა
დასვენება
დასვენების
დასვენებული
დასვეს
დასთან
დასთანხმდა
დასი
დასის
დასკვნა
დასკვნამდე
დასკვნები
დასკვნების
დასკვნით
დასკვნითი
დასკვნის
დასმა
დასმულ
დასმული
დასრულდა
დასრულდება
დასრულდებოდა
დასრულდეს
დასრულება
დასრულებამდე
დასრულებას
დასრულებიდან
დასრულების
დასრულებისას
დასრულებისთანავე
დასრულებულ
დასრულებულა
დასრულებული
დასრულებულია
დასრულებულიყო
დასტინ
დასტურდება
დასტური
დასუსტდა
დასუსტება
დასუსტების
დასუსტებული
დასში
დასცინის
დასძინა
დასწრება
დასწრების
დასწრებოდა
დასჭირდა
დასჭირდება
დასჯა
დასჯას
დასჯერდა
დასჯილი
დასჯის
დატანებული
დატანებულია
დატანილი
დატანილია
დატვირთვა
დატვირთვის
დატვირთული
დატოვა
დატოვება
დატოვებას
დატოვებდა
დატოვების
დატოვებს
დატოვებული
დატოვეს
დატოვოს
დატოტვილი
დატყვევებული
დაუახლოვდა
დაუბრუნა
დაუბრუნდა
დაუბრუნდნენ
დაუბრუნეს
დაუდ
დაუდგა
დაუდგენელია
დაუდო
დაუვიწყარი
დაუთმო
დაუკავშირა
დაუკავშირდა
დაუკავშირდნენ
დაუკარგავს
დაუკრა
დაუმატა
დაუმეგობრდა
დაუმთავრებელი
დაუმორჩილებლობის
დაუმუშავებელი
დაუნდობელი
დაუნიშნა
დაუპირისპირა
დაუპირისპირდა
დაუპირისპირდნენ
დაურეკა
დაურთო
დაუსახლებელი
დაუსახლებელია
დაუსვა
დაუსვეს
დაუსრულებელი
დაუსწრებლად
დაუტოვა
დაუტოვებია
დაუფლება
დაუქვემდებარა
დაუქორწინებელი
დაუღალავი
დაუყოვნებლივ
დაუშვა
დაუშვებელია
დაუშვეს
დაუშვილი
დაუცველი
დაუწერია
დაუწესა
დაუჭირა
დაუჭირეს
დაუჯდა
დაფა
დაფაზე
დაფარა
დაფარვა
დაფარვის
დაფარულ
დაფარული
დაფარულია
დაფები
დაფების
დაფეხმძიმდა
დაფინანსება
დაფინანსებას
დაფინანსებით
დაფინანსების
დაფინანსებული
დაფის
დაფიქსირდა
დაფიქსირება
დაფიქსირებულა
დაფიქსირებული
დაფიქსირებულია
დაფნის
დაფუძნდა
დაფუძნება
დაფუძნების
დაფუძნებულ
დაფუძნებული
დაფუძნებულია
დაქვეითდა
დაქვეითება
დაქვემდებარებაში
დაქვემდებარებაშია
დაქვემდებარების
დაქვემდებარებულ
დაქვემდებარებული
დაქვრივდა
დაქვრივების
დაქვრივებულ
დაქვრივებული
დაქირავებულ
დაქირავებული
დაქორწინდა
დაქორწინდნენ
დაქორწინება
დაქორწინებას
დაქორწინების
დაქორწინებულა
დაქორწინებული
დაქორწინებულია
დაქორწინებულიყო
დაღესტანი
დაღესტანში
დაღესტნელი
დაღესტნის
დაღესტნური
დაღლილი
დაღმავალი
დაღუპვა
დაღუპვის
დაღუპულ
დაღუპულები
დაღუპულთა
დაღუპული
დაყენება
დაყენების
დაყენებული
დაყენებულია
დაყო
დაყოფა
დაყოფას
დაყოფით
დაყოფილი
დაყოფილია
დაყოფის
დაყოფისა
დაყრდნობით
დაყრდნობილი
დაყრდნობილია
დაშავდა
დაშავებული
დაშალა
დაშალეს
დაშენებული
დაშენებულია
დაშვება
დაშვების
დაშვებული
დაშვებულია
დაშლა
დაშლამდე
დაშლას
დაშლით
დაშლილი
დაშლის
დაშორდა
დაშორდნენ
დაშორება
დაშორებით
დაშორების
დაშორებულ
დაშორებული
დაშორებულია
დაშქესანის
დაჩქარებული
დაცარიელდა
დაცემა
დაცემამდე
დაცემას
დაცემის
დაცემული
დაცვა
დაცვაზე
დაცვას
დაცვაში
დაცვით
დაცვითი
დაცვის
დაცვისა
დაცვისათვის
დაცვისთვის
დაცილებული
დაცულ
დაცული
დაცულია
დაძაბულ
დაძაბული
დაძაბულობა
დაძაბულობის
დაძლევა
დაძლევის
დაძლია
დაძმობილებული
დაწერა
დაწერეს
დაწერილ
დაწერილი
დაწერილია
დაწერის
დაწეროს
დაწესდა
დაწესება
დაწესების
დაწესებულება
დაწესებულებაა
დაწესებულებათა
დაწესებულებას
დაწესებულებაში
დაწესებულებები
დაწესებულებების
დაწესებულებებს
დაწესებულებებში
დაწესებულების
დაწესებული
დაწესებულია
დაწვა
დაწვეს
დაწვის
დაწვრილებით
დაწვრილებითი
დაწინაურდა
დაწინაურდნენ
დაწინაურება
დაწინაურებული
დაწყება
დაწყებამდე
დაწყებას
დაწყებიდან
დაწყებით
დაწყებითი
დაწყების
დაწყებისას
დაწყებისთანავე
დაწყებულ
დაწყებულა
დაწყებული
დაწყებულიყო
დაწყებულმა
დაწყობილი
დაჭაობებულ
დაჭაობებული
დაჭერა
დაჭერის
დაჭრა
დაჭრეს
დაჭრილ
დაჭრილი
დახარჯა
დახარჯული
დახასიათება
დახატა
დახატული
დახატულია
დახევა
დახევის
დახელოვნების
დახვდა
დახვდათ
დახვდნენ
დახვეული
დახვეწა
დახვეწილ
დახვეწილი
დახვრეტა
დახვრეტის
დახვრიტეს
დახმარება
დახმარებაზე
დახმარებას
დახმარებით
დახმარებითაც
დახმარების
დახმარებისათვის
დახმარებისთვის
დახმარებოდა
დახმარებოდნენ
დახოცა
დახოცეს
დახრილი
დახრილობა
დახურა
დახურეს
დახურვა
დახურვის
დახურულ
დახურული
დახურულია
დაჯგუფება
დაჯგუფებამ
დაჯგუფებას
დაჯგუფებები
დაჯგუფებების
დაჯგუფებებს
დაჯგუფების
დაჯდა
დაჯილდოება
დაჯილდოებაზე
დაჯილდოების
დაჯილდოებულები
დაჯილდოებული
დაჯილდოებულია
დაჯილდოვდა
დაჯილდოვებული
დაჰკრავს
დაჰპირდა
დაჰყო
დბ
დგანან
დგას
დგება
დგებოდა
დგებუაძე
დგინდება
დე
დებატები
დებატების
დებატებში
დებდნენ
დებენ
დებთან
დები
დების
დებიუსი
დებიუსის
დებიუტი
დებიუტის
დებორა
დებს
დებსი
დებულება
დებულებები
დებულების
დედ
დედა
დედათა
დედალი
დედამ
დედამთილი
დედამისთან
დედამისი
დედამისის
დედამისმა
დედამისს
დედამიწა
დედამიწაზე
დედამიწას
დედამიწასთან
დედამიწიდან
დედამიწის
დედანი
დედას
დედასთან
დედაქალაქ
დედაქალაქად
დედაქალაქები
დედაქალაქი
დედაქალაქია
დედაქალაქიდან
დედაქალაქის
დედაქალაქს
დედაქალაქში
დედაც
დედები
დედინაცვალი
დედის
დედისა
დედისგან
დედოფალ
დედოფალთან
დედოფალი
დედოფალმა
დედოფალს
დედოფლად
დედოფლები
დედოფლის
დედოფლისა
დედოფლისწყაროს
დედოფლობა
დევდარიანი
დევი
დევიდ
დევიდი
დევიდის
დევიზი
დევის
დევლეთ
დევნა
დევნას
დევნიდნენ
დევნილები
დევნილების
დევნილთა
დევნილი
დევნილობაში
დევნის
დევს
დეზ
დეზდემონა
დეი
დეიდა
დეივ
დეივიდ
დეივიდი
დეივიდის
დეივისი
დეივისის
დეივისმა
დეილი
დეიმონ
დეკ
დეკადის
დეკანი
დეკანის
დეკანოზ
დეკანოზი
დეკარტის
დეკემბერი
დეკემბერს
დეკემბერში
დეკემბრამდე
დეკემბრიდან
დეკემბრის
დეკემბრისთვის
დეკლარაცია
დეკლარაციას
დეკლარაციაში
დეკლარაციის
დეკორატიულ
დეკორატიული
დეკორატიულია
დეკორაციები
დეკორაციული
დეკრეტი
დეკრეტის
დელ
დელა
დელავერის
დელანო
დელეგატები
დელეგატი
დელეგაცია
დელეგაციამ
დელეგაციას
დელეგაციის
დელი
დელის
დელიში
დელტა
დელტას
დელტაში
დელტის
დელუქს
დელფინები
დელფინი
დემეტრე
დემეტრეს
დემო
დემოგრაფია
დემოგრაფიული
დემოები
დემოკრატები
დემოკრატების
დემოკრატთა
დემოკრატი
დემოკრატია
დემოკრატიას
დემოკრატიის
დემოკრატიისა
დემოკრატიულ
დემოკრატიულად
დემოკრატიული
დემოკრატიულმა
დემონები
დემონი
დემონსტრაცია
დემონსტრაციები
დემონსტრაციების
დემონსტრაციის
დემონსტრირება
დემონტაჟი
დენ
დენვერ
დენვერის
დენი
დენიელ
დენიკინის
დენის
დენს
დეპარტამენტად
დეპარტამენტები
დეპარტამენტების
დეპარტამენტი
დეპარტამენტიდან
დეპარტამენტის
დეპარტამენტმა
დეპარტამენტს
დეპარტამენტში
დეპო
დეპორტაცია
დეპორტაციის
დეპრესია
დეპრესიაში
დეპრესიის
დეპრესიული
დეპუტატ
დეპუტატად
დეპუტატები
დეპუტატების
დეპუტატებმა
დეპუტატებს
დეპუტატთა
დეპუტატი
დეპუტატის
დეპუტატმა
დეპუტატობის
დეპუტატს
დერ
დერბენტის
დერბი
დერბის
დერეკ
დერეფანი
დერეფნის
დესანტი
დესანტის
დესერტები
დესერტი
დესპანი
დეტალები
დეტალებით
დეტალების
დეტალებს
დეტალი
დეტალურ
დეტალურად
დეტალური
დეტექტივი
დეტექტიური
დეტროიტ
დეტროიტის
დეტროიტში
დეფიციტი
დეფიციტის
დვალეთის
დვალი
დვალიშვილი
დვინის
დი
დიაბეტის
დიაგნოზი
დიაგნოზის
დიაგნოსტიკა
დიაგნოსტიკის
დიაგნოსტიკური
დიაგრამა
დიადი
დიაკვანი
დიაკვნად
დიაკონი
დიაკრიტიკული
დიალექტები
დიალექტების
დიალექტზე
დიალექტი
დიალექტის
დიალექტს
დიალექტური
დიალოგები
დიალოგი
დიალოგის
დიამეტრი
დიამეტრია
დიამეტრის
დიანა
დიანას
დიაპაზონი
დიაპაზონის
დიაპაზონში
დიასამიძე
დიასახლისი
დიასი
დიასპორა
დიასპორის
დიახ
დიგრაფები
დიგრაფი
დიდ
დიდად
დიდგვაროვან
დიდგვაროვანთა
დიდგვაროვანი
დიდგვაროვნები
დიდგვაროვნების
დიდგორი
დიდგორის
დიდება
დიდები
დიდების
დიდებულ
დიდებულები
დიდებულების
დიდებულებმა
დიდებულთა
დიდებული
დიდებულის
დიდი
დიდია
დიდიე
დიდის
დიდისა
დიდმა
დიდმოწამე
დიდოსტატები
დიდოსტატი
დიდოსტატის
დიდს
დიდუბე
დიდუბის
დიდძალი
დიდწილად
დიდხანს
დიეგო
დიეგოს
დივიზია
დივიზიას
დივიზიის
დივიზიონი
დივიზიონის
დივიზიონში
დიზაინერები
დიზაინერი
დიზაინზე
დიზაინი
დიზაინით
დიზაინის
დიზაინისა
დიზაინს
დიზაინში
დიზელის
დიზრაელი
დიზრაელიმ
დიზრაელის
დიკ
დიკი
დილა
დილან
დილანი
დილანის
დილას
დილით
დილის
დიმიტრი
დიმიტრის
დიმორფიზმი
დინ
დინამიკა
დინამიკის
დინამიკური
დინამიური
დინამო
დინამომ
დინამოს
დინამოსა
დინამოსთან
დინამოში
დინარი
დინასტია
დინასტიამ
დინასტიას
დინასტიები
დინასტიების
დინასტიიდან
დინასტიის
დინასტიური
დინება
დინებას
დინებაში
დინებები
დინების
დინი
დინის
დინო
დიო
დიოგენე
დიოდორე
დიოკლეტიანე
დიოკლეტიანემ
დიოკლეტიანეს
დიონ
დიონისე
დიონისეს
დიოქსიდი
დიოქსიდის
დიპლომატები
დიპლომატი
დიპლომატია
დიპლომატიის
დიპლომატიურ
დიპლომატიური
დიპლომი
დიპლომით
დიპლომის
დირექტორად
დირექტორები
დირექტორთა
დირექტორი
დირექტორია
დირექტორის
დირექტორმა
დირექტორს
დირიჟორები
დირიჟორი
დირიჟორის
დირიჟორობდა
დირიჟორობით
დის
დისერტაცია
დისერტაციის
დისკებზე
დისკები
დისკების
დისკვალიფიკაცია
დისკზე
დისკი
დისკიანი
დისკის
დისკო
დისკოგრაფია
დისკოგრაფიები
დისკოს
დისკრიმინაცია
დისკრიმინაციას
დისკრიმინაციის
დისკს
დისკუსია
დისკუსიები
დისკუსიის
დისკში
დისლოცირებული
დისნეი
დისნეის
დისტანცია
დისტანციაზე
დისტანციური
დისტრიბუცია
დისშვილი
დისციპლინა
დისციპლინები
დისციპლინის
დისწული
დიტერ
დიტრიხი
დიუ
დიუბუა
დიუმა
დიუნები
დიურტიულის
დიფერენციალური
დიქსტოსა
დიქტატორი
დიქტატორის
დიქტატურა
დიქტატურის
დიღმის
დიჯეი
დმ
დმანისი
დმანისის
დნება
დნეპრის
დნესტრის
დნიპროპეტროვსკის
დნმ
დნობის
დო
დობილი
დოგი
დოდო
დოზა
დოზით
დოზის
დოიაშვილი
დოკი
დოკუმენტაცია
დოკუმენტაციის
დოკუმენტები
დოკუმენტების
დოკუმენტებს
დოკუმენტებში
დოკუმენტი
დოკუმენტის
დოკუმენტს
დოკუმენტურ
დოკუმენტური
დოკუმენტში
დოლ
დოლარად
დოლარამდე
დოლარზე
დოლარი
დოლარია
დოლარით
დოლარის
დოლარს
დოლი
დოლიძე
დოლიძის
დომენი
დომენიკო
დომენის
დომენტი
დომინანტი
დომინანტურ
დომინანტური
დომინგო
დომინიკ
დომინიკელთა
დომინიკის
დომინირება
დომინირებდა
დომინირებდნენ
დომინირებს
დომიციანე
დომიციანემ
დომიციანეს
დონ
დონა
დონალდ
დონბასის
დონე
დონეები
დონეების
დონეზე
დონეზეა
დონელი
დონემ
დონემდე
დონეს
დონეცკი
დონეცკის
დონი
დონიდან
დონით
დონის
დონისა
დორა
დორის
დოროთეა
დოროთი
დორტმუნდი
დორტმუნდის
დოს
დოსი
დოსტოევსკი
დოსტოევსკის
დოფინ
დოფინი
დოქი
დოქტორ
დოქტორები
დოქტორი
დოქტორის
დოქტორმა
დოქტრინა
დოქტრინის
დოც
დოცენტად
დოცენტი
დოცენტის
დოჰაში
დრაკონი
დრაკონის
დრამა
დრამატულ
დრამატული
დრამატურგები
დრამატურგი
დრამატურგის
დრამაში
დრამები
დრამერ
დრამერი
დრამი
დრამის
დრანდის
დრაფტზე
დრაფტის
დრეზდენი
დრეზდენის
დრეზდენში
დრეკადი
დრო
დროა
დროდადრო
დროება
დროებით
დროებითი
დროებითმა
დროზე
დროთა
დროიდან
დროით
დროინდელ
დროინდელი
დროის
დროისა
დროისათვის
დროისთვის
დრომდე
დროს
დროსა
დროსაც
დროულად
დროული
დროშა
დროშაზე
დროშას
დროშასთან
დროშები
დროში
დროშით
დროშის
დსთ
დუ
დუაიტ
დუბაი
დუბაის
დუბაიში
დუბლი
დუბლინი
დუბლინის
დუბლინში
დუგლას
დუგლასი
დუეინ
დუეტ
დუეტი
დუეტის
დუეტმა
დუვანის
დუმა
დუმას
დუმბაძე
დუმბაძის
დუმის
დუნაი
დუნაის
დუს
დუღაბზე
დუღაბით
დუღაბის
დუღილის
დუშეთიდან
დუშეთის
დღ
დღე
დღეა
დღედ
დღეები
დღეების
დღეებს
დღეებში
დღევანდელ
დღევანდელი
დღეზე
დღეთა
დღეისათვის
დღეისთვის
დღემდე
დღემდეა
დღეს
დღესასწაულებზე
დღესასწაულები
დღესასწაულების
დღესასწაულზე
დღესასწაული
დღესასწაულია
დღესასწაულის
დღესასწაულს
დღესაც
დღესდღეობით
დღესვე
დღეში
დღიანი
დღიდან
დღით
დღის
დღისა
დღისთვის
დღისით
დღიურები
დღიური
დღიურში
ე
ეახლა
ებ
ები
ების
ებრ
ებრაელ
ებრაელები
ებრაელების
ებრაელებმა
ებრაელებს
ებრაელთა
ებრაელი
ებრაელის
ებრაულ
ებრაული
ებრძვიან
ებრძვის
ებრძოდა
ებრძოდნენ
ებრძოლა
ებს
ებჯინება
ეგ
ეგებ
ეგეოსის
ეგვიპტე
ეგვიპტელები
ეგვიპტელთა
ეგვიპტელი
ეგვიპტემ
ეგვიპტეს
ეგვიპტესა
ეგვიპტესთან
ეგვიპტეში
ეგვიპტიდან
ეგვიპტის
ეგვიპტურ
ეგვიპტური
ეგვტერები
ეგვტერი
ეგვტერის
ეგზარქოსი
ეგზემპლარი
ეგზისტენციალიზმის
ეგზისტენციალური
ეგზოტიკური
ეგიდით
ეგნატაშვილი
ეგნატე
ეგონა
ეგონათ
ეგორ
ეგრე
ეგრეთ
ეგრისის
ეგრისში
ეგუება
ედ
ედგა
ედგარ
ედგნენ
ედებოდა
ედესის
ედვარდ
ედვარდი
ედვარდსი
ედვინ
ედი
ედინბურგი
ედინბურგის
ედინბურგში
ედინეცის
ედიტ
ედიქტი
ედიშერ
ედმუნდ
ედო
ედოს
ედუარდ
ედუარდი
ედუარდის
ედუარდმა
ედუარდო
ევა
ევაკუაცია
ევაკუაციის
ევაკუირებული
ევალება
ევალებოდა
ევალებოდათ
ევანსი
ევანსის
ევას
ევგენი
ევგენია
ევდოკია
ევერტონი
ევერტონის
ევლახის
ევოლუცია
ევოლუციას
ევოლუციის
ევოლუციურ
ევოლუციური
ევრაზიაში
ევრაზიის
ევრაზიული
ევრო
ევრობასკეტი
ევროდ
ევროვიზია
ევროვიზიაზე
ევროვიზიის
ევროკავშირთან
ევროკავშირი
ევროკავშირის
ევროკავშირმა
ევროკავშირს
ევროკავშირში
ევროკომისიის
ევროპა
ევროპაზე
ევროპარლამენტის
ევროპას
ევროპასა
ევროპასთან
ევროპაში
ევროპელ
ევროპელებთან
ევროპელები
ევროპელების
ევროპელებმა
ევროპელებს
ევროპელთა
ევროპელი
ევროპელმა
ევროპიდან
ევროპის
ევროპისა
ევროპულ
ევროპული
ევროპულმა
ევროს
ევროსაბჭოს
ევროტურნირებზე
ევსტათი
ევფრატის
ეზიარა
ეზო
ეზოს
ეზოში
ეზრა
ეთამაშა
ეთანხმება
ეთანხმებოდა
ეთერ
ეთერი
ეთერის
ეთერში
ეთიკა
ეთიკის
ეთიკურ
ეთიკური
ეთიოპია
ეთიოპიაში
ეთიოპიის
ეთიოპიური
ეთმობა
ეთნიკურ
ეთნიკურად
ეთნიკური
ეთნო
ეთნოგრაფი
ეთნოგრაფია
ეთნოგრაფიის
ეთნოგრაფიისა
ეთნოგრაფიულ
ეთნოგრაფიული
ეთნოლოგია
ეთნოლოგიის
ეთნოსი
ეთნოსის
ეთქვა
ეთქვათ
ეთხოვა
ეი
ეიფელის
ეკა
ეკავა
ეკავათ
ეკატერინა
ეკატერინბურგის
ეკატერინბურგში
ეკატერინე
ეკატერინემ
ეკატერინეს
ეკვადორი
ეკვადორის
ეკვადორში
ეკვატორის
ეკვატორულ
ეკვატორული
ეკვრის
ეკიდა
ეკითხება
ეკიპაჟი
ეკიპაჟის
ეკისრება
ეკისრებოდა
ეკლესია
ეკლესიაა
ეკლესიად
ეკლესიაზე
ეკლესიათა
ეკლესიამ
ეკლესიას
ეკლესიასა
ეკლესიასთან
ეკლესიაში
ეკლესიაც
ეკლესიები
ეკლესიების
ეკლესიებს
ეკლესიებში
ეკლესიიდან
ეკლესიის
ეკლესიისა
ეკლესიისათვის
ეკლიანი
ეკო
ეკოლოგია
ეკოლოგიის
ეკოლოგიურ
ეკოლოგიური
ეკონომიკა
ეკონომიკაზე
ეკონომიკამ
ეკონომიკას
ეკონომიკაში
ეკონომიკის
ეკონომიკისა
ეკონომიკურ
ეკონომიკურად
ეკონომიკური
ეკონომიკურმა
ეკონომისტები
ეკონომისტი
ეკონომისტის
ეკონომიური
ეკოსისტემა
ეკრანებზე
ეკრანზე
ეკრანი
ეკრანიზაცია
ეკრანის
ეკრძალებათ
ეკრძალებოდათ
ეკუთვნიან
ეკუთვნით
ეკუთვნის
ეკუთვნოდა
ეკუთვნოდათ
ეკუთვნოდეს
ეკურთხა
ელ
ელა
ელამის
ელგუჯა
ელდარ
ელეანორ
ელეანორა
ელეგანტური
ელემენტარულ
ელემენტარული
ელემენტები
ელემენტებია
ელემენტებით
ელემენტების
ელემენტებს
ელემენტთა
ელემენტი
ელემენტია
ელემენტის
ელემენტს
ელენ
ელენა
ელენას
ელენე
ელენეს
ელეონორ
ელეონორა
ელეონორას
ელეონორი
ელექტრა
ელექტრო
ელექტროენერგია
ელექტროენერგიის
ელექტრომაგნიტურ
ელექტრომაგნიტური
ელექტრონები
ელექტრონების
ელექტრონი
ელექტრონიკა
ელექტრონიკის
ელექტრონის
ელექტრონულ
ელექტრონული
ელექტროსადგური
ელექტროსადგურის
ელექტრულ
ელექტრული
ელვა
ელვინ
ელვის
ელზა
ელი
ელია
ელიავა
ელიას
ელიზა
ელიზაბეთ
ელიზაბეთი
ელიზაბეთის
ელიზაბეტ
ელიზაბეტა
ელიზაბეტი
ელიზაბეტის
ელიზაბეტმა
ელიზაბეტს
ელიზავეტა
ელიზბარ
ელინისტურ
ელინისტური
ელიოტ
ელიოტი
ელის
ელისაბედ
ელისაბედი
ელისაბედის
ელისი
ელისის
ელისო
ელისონ
ელიტა
ელიტარული
ელიტის
ელიტური
ელიფსური
ელოდა
ელოდება
ელოდებოდა
ელოდნენ
ელტონ
ელფები
ელფების
ელფებს
ელფერი
ელფერით
ელფერს
ელფთა
ელფი
ელჩად
ელჩები
ელჩების
ელჩებს
ელჩი
ელჩის
ელჩმა
ელჩობა
ელჩობის
ელცინის
ემ
ემა
ემანუელ
ემანუელე
ემართა
ემატება
ემატებოდა
ემბლემა
ემზადება
ემზადებოდა
ემზადებოდნენ
ემთხვევა
ემთხვეოდა
ემი
ემიგრანტები
ემიგრანტების
ემიგრანტთა
ემიგრანტი
ემიგრაცია
ემიგრაციაში
ემიგრაციის
ემილ
ემილი
ემილია
ემილიო
ემილის
ემინ
ემინემი
ემინემის
ემინემმა
ემის
ემორჩილება
ემორჩილებოდა
ემორჩილებოდნენ
ემოქმედა
ემოციები
ემოციების
ემოციებს
ემოციურ
ემოციურად
ემოციური
ემპირიული
ემსახურება
ემსახურებიან
ემსახურებოდა
ემსახურებოდნენ
ემსგავსება
ემსხვერპლა
ემუქრება
ემუქრებოდა
ემუშავა
ემუშავათ
ემყარება
ემყარებოდა
ემჩნევა
ემხრობა
ემხრობოდა
ემხრობოდნენ
ენ
ენა
ენაა
ენად
ენაზე
ენაზეა
ენათა
ენათესავება
ენათმეცნიერება
ენათმეცნიერები
ენათმეცნიერების
ენათმეცნიერი
ენამ
ენას
ენასა
ენასთან
ენაში
ენაც
ენაცვლება
ენახა
ენგურის
ენდ
ენდემია
ენდემური
ენდემურია
ენდი
ენდობოდა
ენდოგენური
ენდრიუ
ენებად
ენებზე
ენებთან
ენები
ენებია
ენებიდან
ენების
ენებისა
ენებს
ენებში
ენეოლითის
ენერგეტიკა
ენერგეტიკის
ენერგეტიკისა
ენერგეტიკულ
ენერგეტიკული
ენერგია
ენერგიას
ენერგიით
ენერგიის
ენერგიულად
ენერგიული
ენვერ
ენთუზიაზმით
ენი
ენიდან
ენით
ენის
ენისა
ენისათვის
ენისეის
ენისთვის
ენიჭება
ენიჭებათ
ენიჭებოდა
ენობრივ
ენობრივი
ენოვანი
ენრიკე
ენრიკეს
ენრიკო
ენტონი
ენტონიმ
ენტონის
ენუქიძე
ენფილდზე
ენციკლოპედია
ენციკლოპედიაში
ენციკლოპედიები
ენციკლოპედიის
ენციკლოპედიურ
ენციკლოპედიური
ეპარქია
ეპარქიას
ეპარქიაში
ეპარქიები
ეპარქიის
ეპიგრაფიკა
ეპიგრაფიკული
ეპიდემია
ეპიდემიამ
ეპიდემიის
ეპიზოდები
ეპიზოდების
ეპიზოდი
ეპიზოდის
ეპიზოდისგან
ეპიზოდს
ეპიზოდურ
ეპიზოდური
ეპიზოდში
ეპიკურ
ეპიკური
ეპილეფსიის
ეპილეფსიური
ეპისკოპოს
ეპისკოპოსად
ეპისკოპოსები
ეპისკოპოსების
ეპისკოპოსთა
ეპისკოპოსი
ეპისკოპოსის
ეპისკოპოსმა
ეპისკოპოსს
ეპისტოლე
ეპიფანე
ეპიცენტრი
ეპოსი
ეპოსის
ეპოქა
ეპოქამდე
ეპოქას
ეპოქაში
ეპოქიდან
ეპოქის
ეპყრობოდა
ეპყრობოდნენ
ეჟენ
ერ
ერა
ერამდე
ერაყელი
ერაყი
ერაყის
ერაყმა
ერაყს
ერაყსა
ერაყში
ერაში
ერგება
ერგებოდა
ერგებოდნენ
ერგო
ერდოღანი
ერები
ერების
ერედვის
ერედივიზია
ერედივიზიის
ერევა
ერევანი
ერევანში
ერევნის
ერეკლე
ერეკლემ
ერეკლეს
ერეოდა
ერექტუსის
ერვინ
ერთ
ერთა
ერთად
ერთადაც
ერთადერთ
ერთადერთი
ერთადერთია
ერთბაშად
ერთგვარ
ერთგვარად
ერთგვარი
ერთგვაროვანი
ერთგულ
ერთგულება
ერთგულებას
ერთგულების
ერთგული
ერთდროულად
ერთდროული
ერთეულად
ერთეულებად
ერთეულები
ერთეულებია
ერთეულების
ერთეულებს
ერთეულებში
ერთეულთა
ერთეული
ერთეულია
ერთეულით
ერთეულის
ერთეულს
ერთეულში
ერთვება
ერთვის
ერთვოდა
ერთზე
ერთთვიანი
ერთი
ერთია
ერთიან
ერთიანად
ერთიანდება
ერთიანდებიან
ერთიანი
ერთიანმა
ერთიანობა
ერთიანობას
ერთიანობის
ერთიდან
ერთიმეორის
ერთის
ერთიც
ერთმა
ერთმანეთზე
ერთმანეთთან
ერთმანეთი
ერთმანეთის
ერთმანეთისაგან
ერთმანეთისგან
ერთმანეთს
ერთმანეთში
ერთმოთამაშიანი
ერთნავიანი
ერთნაირად
ერთნაირი
ერთნაირია
ერთობ
ერთობა
ერთობას
ერთობის
ერთობლივ
ერთობლივად
ერთობლივი
ერთობლიობა
ერთობლიობას
ერთპალატიანი
ერთპარტიული
ერთპიროვნულად
ერთპიროვნული
ერთს
ერთსა
ერთსართულიანი
ერთსაფეხურიანი
ერთსქესიანი
ერთუჯრედიანი
ერთში
ერთწლიანი
ერთწლოვანი
ერთხანს
ერთხელ
ერთხელაც
ერთხმად
ერთჯერადი
ერი
ერიდებოდა
ერიკ
ერიკი
ერის
ერისთავად
ერისთავები
ერისთავების
ერისთავთ
ერისთავთა
ერისთავი
ერისთავის
ერისთავმა
ერისთავს
ერისკაცობაში
ერისმთავარი
ერიტრეა
ერიტრეაში
ერიტრეის
ერიხ
ერლ
ერლი
ერლს
ერმაკოვის
ერმეკეევოს
ერმიტაჟის
ერნან
ერნესტ
ერნესტო
ერნსტ
ეროვნება
ეროვნებით
ეროვნების
ეროვნებისა
ეროვნულ
ეროვნული
ეროვნულმა
ეროზია
ეროზიის
ეროზიული
ეროსი
ეროტიკული
ერს
ერტყმის
ერქვა
ერქომაიშვილი
ერცჰერცოგ
ერცჰერცოგი
ერცჰერცოგინია
ერწო
ერწოს
ერწყმის
ეს
ესა
ესაა
ესაზღვრება
ესაზღვრებოდა
ესარგებლა
ესაუბრა
ესაუბრება
ესაუბრებოდა
ესაძე
ესაჭიროება
ესაჭიროებოდა
ესე
ესეები
ესეების
ესეთი
ესეისტები
ესეისტი
ესენი
ესენია
ესეში
ესეც
ესვატინის
ესვენა
ესვრის
ესთეტიკა
ესთეტიკური
ესკადრილია
ესკიზები
ესკიზი
ესკიზის
ესკორიალის
ესმა
ესმით
ესმის
ესმოდა
ესპ
ესპანეთ
ესპანეთთან
ესპანეთი
ესპანეთიდან
ესპანეთის
ესპანეთისა
ესპანეთისგან
ესპანეთმა
ესპანეთს
ესპანეთსა
ესპანეთში
ესპანელ
ესპანელები
ესპანელების
ესპანელებმა
ესპანელებს
ესპანელთა
ესპანელი
ესპანელის
ესპანელმა
ესპანურ
ესპანურად
ესპანურენოვანი
ესპანური
ესპანურმა
ესპირიტუ
ესროლა
ესროლეს
ესტ
ესტადიო
ესტე
ესტეს
ესტონეთი
ესტონეთის
ესტონეთში
ესტონელი
ესტონური
ესტრადის
ესტრემადურის
ესტუმრა
ესწავლა
ესწრება
ესწრებოდა
ესწრებოდნენ
ესხმიან
ესხმის
ესხმოდა
ესხმოდნენ
ეტაპად
ეტაპებზე
ეტაპები
ეტაპზე
ეტაპი
ეტაპიდან
ეტაპის
ეტაპობრივად
ეტაპს
ეტიენ
ეტიკეტი
ეტიმოლოგია
ეტიუდები
ეტლი
ეტლით
ეტრუსკული
ეტყვის
ეტყობა
ეუბნება
ეუბნებოდა
ეუთო
ეუთოს
ეული
ეულის
ეულში
ეუფლება
ეუფლებოდა
ეუხენია
ეუხენიას
ეფენდი
ეფესოს
ეფექტები
ეფექტების
ეფექტებს
ეფექტი
ეფექტიანად
ეფექტიანი
ეფექტიანობა
ეფექტის
ეფექტს
ეფექტურ
ეფექტურად
ეფექტური
ეფექტურია
ეფექტურობა
ეფექტურობის
ეფრემ
ეფრონის
ეფუძნება
ეფუძნებოდა
ექვემდებარება
ექვემდებარებიან
ექვემდებარებოდა
ექვემდებარებოდნენ
ექვთიმე
ექვთიმეს
ექვს
ექვსი
ექვსივე
ექვსმა
ექვსჯერ
ექთანი
ექიმ
ექიმად
ექიმები
ექიმების
ექიმებმა
ექიმებს
ექიმთა
ექიმი
ექიმის
ექიმმა
ექიმს
ექნება
ექნებათ
ექნებოდა
ექნებოდათ
ექს
ექსკლუზიურად
ექსკლუზიური
ექსპანსია
ექსპანსიის
ექსპედიცია
ექსპედიციამ
ექსპედიციას
ექსპედიციაში
ექსპედიციები
ექსპედიციების
ექსპედიციებში
ექსპედიციის
ექსპერიმენტალური
ექსპერიმენტები
ექსპერიმენტების
ექსპერიმენტებს
ექსპერიმენტი
ექსპერიმენტის
ექსპერიმენტულ
ექსპერიმენტული
ექსპერტები
ექსპერტების
ექსპერტთა
ექსპერტი
ექსპერტიზის
ექსპლუატაცია
ექსპლუატაციაში
ექსპლუატაციის
ექსპოზიცია
ექსპოზიციის
ექსპონატები
ექსპონატების
ექსპონატებს
ექსპონატი
ექსპონატს
ექსპორტზე
ექსპორტი
ექსპორტის
ექსპორტს
ექსპრესი
ექსტრემალური
ექცევა
ექცეოდა
ექცია
ეღიარებინა
ეყარა
ეყოლა
ეყოლათ
ეყოლებოდა
ეყრდნობა
ეყრდნობოდა
ეშბა
ეშვება
ეშვები
ეშინია
ეშინოდა
ეშინოდათ
ეშლი
ეშმაკი
ეშმაკის
ეჩვენებინა
ეცადა
ეცემა
ეცვა
ეცვათ
ეცნობა
ეცნობოდა
ეცხოვრა
ეცხოვრათ
ეძახდა
ეძახდნენ
ეძახიან
ეძებდა
ეძებდნენ
ეძებენ
ეძებს
ეძინა
ეძლევა
ეძლევათ
ეძლეოდა
ეძლეოდათ
ეძღვნება
ეძღვნებოდა
ეწარმოებინა
ეწევა
ეწევიან
ეწეოდა
ეწეოდნენ
ეწერა
ეწერი
ეწეროს
ეწვევა
ეწვია
ეწვივნენ
ეწინააღმდეგება
ეწინააღმდეგებიან
ეწინააღმდეგებოდა
ეწინააღმდეგებოდნენ
ეწოდა
ეწოდათ
ეწოდება
ეწოდებათ
ეწოდებოდა
ეწოდებოდათ
ეწოდოს
ეწყობა
ეწყობოდა
ეჭვები
ეჭვი
ეჭვის
ეჭვმიტანილი
ეჭვს
ეჭვქვეშ
ეჭირა
ეჭირათ
ეხება
ეხებოდა
ეხლა
ეხმარება
ეხმარებიან
ეხმარებოდა
ეხმარებოდნენ
ვ
ვა
ვაგნერი
ვაგნერის
ვაგნერმა
ვაგნერს
ვაგონები
ვაგონების
ვაგონი
ვაგონის
ვადა
ვადაზე
ვადამდელი
ვადაში
ვადით
ვადიმ
ვადის
ვაზი
ვაზის
ვაზისუბნის
ვაი
ვაიმარის
ვაიმარში
ვაიოცძორის
ვაკანტური
ვაკე
ვაკეა
ვაკეებზე
ვაკეები
ვაკეზე
ვაკეთებ
ვაკეს
ვაკის
ვაკუუმში
ვალ
ვალარებმა
ვალდებულება
ვალდებულებას
ვალდებულებები
ვალდებულებების
ვალდებულებებს
ვალდებულების
ვალდებული
ვალდებულია
ვალდებულნი
ვალდემარ
ვალე
ვალები
ვალების
ვალენსია
ვალენსიას
ვალენსიაში
ვალენსიის
ვალენტინ
ვალენტინა
ვალერი
ვალერიან
ვალერიუს
ვალეს
ვალი
ვალიდე
ვალიე
ვალიკო
ვალის
ვალსი
ვალტერ
ვალუა
ვალუას
ვალუტა
ვალუტები
ვალუტის
ვამბობ
ვამეყ
ვამპირები
ვამპირი
ვამპირის
ვან
ვანანდის
ვანდა
ვანდალიზმი
ვანდალიზმის
ვანესა
ვანი
ვანის
ვანკუვერში
ვანო
ვანუატუ
ვანუატუს
ვანში
ვაპირებ
ვაჟ
ვაჟა
ვაჟები
ვაჟების
ვაჟებს
ვაჟზე
ვაჟთა
ვაჟთან
ვაჟი
ვაჟის
ვაჟიშვილი
ვაჟმა
ვაჟს
ვარ
ვარაუდი
ვარაუდით
ვარაუდის
ვარაუდობდა
ვარაუდობდნენ
ვარაუდობენ
ვარაუდობს
ვარაუდს
ვარგისი
ვარდან
ვარდარის
ვარდება
ვარდების
ვარდი
ვარდის
ვარდისფერ
ვარდისფერი
ვარდნა
ვარდნის
ვარდოსანიძე
ვართ
ვარიანტები
ვარიანტების
ვარიანტებს
ვარიანტი
ვარიანტია
ვარიანტის
ვარიანტს
ვარიანტში
ვარიაცია
ვარიაციები
ვარლამ
ვარნის
ვარსიმაშვილი
ვარსკვლავ
ვარსკვლავად
ვარსკვლავები
ვარსკვლავების
ვარსკვლავებს
ვარსკვლავთა
ვარსკვლავთკარიბჭე
ვარსკვლავთკარიბჭის
ვარსკვლავთშორისი
ვარსკვლავი
ვარსკვლავია
ვარსკვლავიერი
ვარსკვლავით
ვარსკვლავის
ვარსკვლავს
ვარსკვლავურ
ვარსკვლავური
ვარშავა
ვარშავაში
ვარშავის
ვარძია
ვარძიის
ვარჯიში
ვარჯიშის
ვარჯიშობდა
ვასალად
ვასალები
ვასალი
ვასალური
ვასაძე
ვასილ
ვასილი
ვასილის
ვასკო
ვასო
ვასპურაკანის
ვატიკანი
ვატიკანის
ვაქცინა
ვაქცინების
ვაქცინის
ვაშაძე
ვაშინგტონ
ვაშინგტონი
ვაშინგტონის
ვაშინგტონში
ვაშლი
ვაშლის
ვაჩნაძე
ვაცლავ
ვაჭარ
ვაჭართა
ვაჭარი
ვაჭარმა
ვაჭრები
ვაჭრების
ვაჭრებმა
ვაჭრებს
ვაჭრის
ვაჭრობა
ვაჭრობაზე
ვაჭრობას
ვაჭრობაში
ვაჭრობდნენ
ვაჭრობით
ვაჭრობის
ვაჭრობისა
ვაჭრობისთვის
ვახტანგ
ვახტანგი
ვახტანგის
ვახტანგმა
ვახტანგს
ვახუშტი
ვახუშტის
ვგრძნობ
ვგულისხმობ
ვე
ვებ
ვებგვერდზე
ვებგვერდი
ვებერი
ვებერნი
ვებერნის
ვებსაიტზე
ვებსაიტი
ვეგა
ვეგას
ვეგასში
ვეგეტარიანული
ვედი
ვედრების
ვეებერთელა
ვეზირად
ვეზირები
ვეზირი
ვეზირის
ვეთანხმები
ვეიდერი
ვეკუა
ველებზე
ველები
ველების
ველესის
ველზე
ველი
ველიდან
ველიკა
ველის
ველოდები
ველს
ველურ
ველურად
ველური
ველში
ვემხრობი
ვენა
ვენაში
ვენახები
ვენახი
ვენერა
ვენერას
ვენესუელა
ვენესუელას
ვენესუელაში
ვენესუელელი
ვენესუელის
ვენეცია
ვენეციაში
ვენეციელი
ვენეციის
ვენეციური
ვენის
ვენური
ვერ
ვერა
ვერავინ
ვერასდროს
ვერასოდეს
ვერაფერი
ვერაფერს
ვერაფრით
ვერბალური
ვერდე
ვერდეს
ვერდი
ვერდის
ვერიკო
ვერის
ვერმახტის
ვერნერ
ვერონიკა
ვერსალის
ვერსალში
ვერსია
ვერსიაა
ვერსიაზე
ვერსიას
ვერსიაში
ვერსიაც
ვერსიები
ვერსიების
ვერსიებს
ვერსიებში
ვერსიიდან
ვერსიით
ვერსიის
ვერტიკალურ
ვერტიკალურად
ვერტიკალური
ვერტმფრენი
ვერც
ვერცერთი
ვერცხლი
ვერცხლის
ვერცხლისა
ვერცხლისფერი
ვერცხლისწყალი
ვერცხლისწყლის
ვერცხლს
ვესპასიანე
ვესპასიანეს
ვესტ
ვესტგუთების
ვესტი
ვესტმინსტერის
ვესტფალია
ვესტფალიის
ვეტერანთა
ვეტერანი
ვეტო
ვეტოს
ვეფხვი
ვეფხვის
ვეფხისტყაოსანი
ვეფხისტყაოსანში
ვეფხისტყაოსნის
ვექტორი
ვექტორული
ვეღარ
ვეშაპების
ვეშაპი
ვეშაპის
ვეჩეს
ვეჯინის
ვთვლი
ვთქვა
ვთქვათ
ვთქვი
ვთხოვ
ვთხოვთ
ვი
ვია
ვიაჩესლავ
ვიბორგის
ვიგებთ
ვიდეო
ვიდეოები
ვიდეოების
ვიდეოს
ვიდეოში
ვიდრე
ვიეტნამელი
ვიეტნამი
ვიეტნამის
ვიეტნამს
ვიეტნამური
ვიეტნამში
ვივარაუდოთ
ვიზა
ვიზის
ვიზიტები
ვიზიტი
ვიზიტით
ვიზიტის
ვიზიტისას
ვიზიტორებს
ვიზიტორთა
ვიზუალურ
ვიზუალურად
ვიზუალური
ვითარდება
ვითარდებოდა
ვითარება
ვითარებას
ვითარებაში
ვითარების
ვითარცა
ვითომ
ვიკი
ვიკიგაზაფხული
ვიკიზე
ვიკიმედია
ვიკიმედიის
ვიკინგები
ვიკინგების
ვიკიორდენი
ვიკიპედია
ვიკიპედიაზე
ვიკიპედიას
ვიკიპედიაში
ვიკიპედიები
ვიკიპედიებში
ვიკიპედიელები
ვიკიპედიელთა
ვიკიპედიელი
ვიკიპედიიდან
ვიკიპედიის
ვიკიპედიისთვის
ვიკიპროექტი
ვიკიპროექტის
ვიკის
ვიკიში
ვილა
ვილაიეთი
ვილაიეთის
ვილას
ვილაში
ვილემ
ვილემი
ვილი
ვილია
ვილიამ
ვილნიუსი
ვილნიუსის
ვილნიუსში
ვილჰელმ
ვილჰელმი
ვილჰელმინა
ვილჰელმის
ვილჰელმს
ვიმეორებ
ვინ
ვინაა
ვინაიდან
ვინაობა
ვინაობას
ვინაობის
ვინი
ვინიციის
ვინმე
ვინმემ
ვინმეს
ვინსენტ
ვინსენტი
ვინსენტის
ვინჩენცო
ვინჩის
ვინც
ვიოლინო
ვიოლინოზე
ვიოლინოს
ვიოლინოსა
ვირსალაძე
ვირტუალური
ვირუმაას
ვირუსი
ვირუსით
ვირუსის
ვირუსული
ვირჯინია
ვირჯინიაში
ვირჯინიის
ვის
ვისაიასის
ვისაც
ვისენტე
ვისი
ვისკი
ვისკის
ვისკონტი
ვისკონტის
ვიტ
ვიტალი
ვიტამინი
ვიტამინის
ვიტელსბახების
ვიტი
ვიტორია
ვიტორიო
ვიტყვი
ვიტყვით
ვიურტემბერგი
ვიურტემბერგის
ვიფიქრე
ვიფიქროთ
ვიქნები
ვიქტორ
ვიქტორი
ვიქტორია
ვიქტორიამ
ვიქტორიანული
ვიქტორიას
ვიქტორიასა
ვიქტორიის
ვიქტორის
ვიღაც
ვიღაცამ
ვიღაცას
ვიღებთ
ვიყავი
ვიყავით
ვიყენებთ
ვიყო
ვიყოთ
ვიცე
ვიცი
ვიცით
ვიცოდი
ვიწრო
ვიწროა
ვიწროვდება
ვკითხულობთ
ვლადიკავკაზის
ვლადიკავკაზში
ვლადიმერ
ვლადიმერი
ვლადიმერის
ვლადიმირ
ვლადიმირის
ვლადისლავ
ვლახეთის
ვლინდება
ვნახე
ვნახოთ
ვნება
ვნების
ვოიაჯერ
ვოკალები
ვოკალი
ვოკალით
ვოკალის
ვოკალისტ
ვოკალისტი
ვოკალისტის
ვოკალს
ვოკალურ
ვოკალური
ვოლგა
ვოლგის
ვოლგოგრადის
ვოლდემორის
ვოლდემორმა
ვოლინის
ვოლოგდის
ვოლოდიმირ
ვოლფგანგ
ვოლფრამის
ვონ
ვონი
ვორმსის
ვორონეჟის
ვორონცოვის
ვპ
ვრცელ
ვრცელდება
ვრცელდებოდა
ვრცელი
ვრცლად
ვსევოლოდ
ვუ
ვუდი
ვუდის
ვუდრო
ვულკან
ვულკანები
ვულკანების
ვულკანი
ვულკანია
ვულკანიზმის
ვულკანის
ვულკანოგენური
ვულკანს
ვულკანურ
ვულკანური
ვუწოდოთ
ვფიქრობ
ვცდები
ვწერ
ვწერთ
ვხედავ
ვხედავთ
ვხვდები
ვხვდებით
ზ
ზაალ
ზაგრები
ზაგრების
ზაგრებში
ზავი
ზავით
ზავის
ზავს
ზაზა
ზაირის
ზაკ
ზაკარპატიის
ზალცბურგი
ზალცბურგის
ზალცბურგში
ზამბია
ზამბიაში
ზამბიის
ზამბოანგა
ზამბოანგის
ზამთარი
ზამთარს
ზამთარში
ზამთრით
ზამთრის
ზამთრობით
ზანგეზურის
ზანგილანის
ზანზიბარის
ზაპორიჟიის
ზარალი
ზარალის
ზარბაზანი
ზარდაბის
ზარები
ზარების
ზარი
ზარის
ზაურ
ზაფხულ
ზაფხული
ზაფხულიდან
ზაფხულით
ზაფხულის
ზაფხულობით
ზაფხულს
ზაფხულსა
ზაფხულში
ზაქათალის
ზაქარაია
ზაქარია
ზაქარიას
ზე
ზეა
ზებუნებრივ
ზებუნებრივი
ზეგავლენა
ზეგავლენას
ზეგავლენით
ზეგავლენის
ზეგანზე
ზეგანი
ზეგნის
ზედ
ზედა
ზედაზნის
ზედამხედველი
ზედამხედველობა
ზედამხედველობას
ზედამხედველობის
ზედაპირზე
ზედაპირთან
ზედაპირი
ზედაპირიდან
ზედაპირით
ზედაპირის
ზედაპირს
ზედაპირულ
ზედაპირულად
ზედაპირული
ზედიზედ
ზედმეტ
ზედმეტად
ზედმეტი
ზედმეტია
ზედმეტსახელად
ზედმეტსახელი
ზედმიწევნით
ზედსართავი
ზევიდან
ზევით
ზევსი
ზევსის
ზევსმა
ზეთი
ზეთის
ზეთისხილი
ზეთისხილის
ზეთს
ზეთში
ზეითუნის
ზეიმი
ზეიმით
ზეინაბ
ზელანდია
ზელანდიამ
ზელანდიას
ზელანდიაში
ზელანდიის
ზელენსკიმ
ზემო
ზემოაღნიშნული
ზემოდან
ზემოთ
ზემოთა
ზემოთკენ
ზემოთში
ზემოთხსენებული
ზემოქმედება
ზემოქმედებას
ზემოქმედებით
ზემოქმედების
ზემოხსენებული
ზეობის
ზეობისას
ზეპელინი
ზეპელინის
ზეპირად
ზეპირი
ზესტაფონი
ზესტაფონის
ზესტაფონში
ზეციური
ზეწოლა
ზეწოლას
ზეწოლით
ზეწოლის
ზვიად
ზი
ზიანდება
ზიანი
ზიანის
ზიანს
ზიარება
ზიარების
ზიგმუნდ
ზიგფრიდის
ზიზღი
ზილაირის
ზიმბაბვე
ზიმბაბვეს
ზინაიდა
ზის
ზიტა
ზმნა
ზმნას
ზმნები
ზმნების
ზმნებს
ზმნის
ზნაურის
ზნე
ზნეობრივი
ზოგ
ზოგად
ზოგადად
ზოგადი
ზოგადსაგანმანათლებლო
ზოგან
ზოგი
ზოგიერთ
ზოგიერთი
ზოგიერთის
ზოგიერთმა
ზოგიერთს
ზოგიც
ზოგმა
ზოგს
ზოგჯერ
ზოდიაქოს
ზოლები
ზოლებით
ზოლზე
ზოლი
ზოლიანი
ზოლით
ზოლის
ზოლს
ზოლში
ზომა
ზომაა
ზომას
ზომაში
ზომები
ზომებია
ზომებით
ზომების
ზომებს
ზომიერ
ზომიერად
ზომიერი
ზომით
ზომის
ზომისა
ზომისაა
ზონა
ზონაა
ზონად
ზონალური
ზონას
ზონაში
ზონდი
ზონდის
ზონები
ზონების
ზონებს
ზონებში
ზონიდან
ზონის
ზოოლოგია
ზოოლოგიის
ზოოლოგიური
ზოოპარკი
ზოოპარკის
ზოოპარკში
ზოროასტრიზმი
ზოროასტრიზმის
ზოსიმე
ზრდა
ზრდადი
ზრდამ
ზრდას
ზრდასთან
ზრდასრულ
ზრდასრული
ზრდიან
ზრდიდა
ზრდიდნენ
ზრდით
ზრდის
ზრდისა
ზრდისაა
ზრუნავდა
ზრუნავდნენ
ზრუნავს
ზრუნვა
ზრუნვას
ზრუნვის
ზუგდიდი
ზუგდიდის
ზუგდიდში
ზულუს
ზურა
ზურაბ
ზურაბიშვილი
ზურაბიშვილმა
ზურგზე
ზურგი
ზურგიანი
ზურგიდან
ზურგის
ზურგს
ზურგში
ზურმუხტის
ზუსტ
ზუსტად
ზუსტი
ზღაპარი
ზღაპრები
ზღაპრების
ზღაპრის
ზღაპრული
ზღარბი
ზღვა
ზღვაზე
ზღვამდე
ზღვარზე
ზღვარი
ზღვარს
ზღვას
ზღვასა
ზღვასთან
ზღვაში
ზღვები
ზღვების
ზღვებში
ზღვიდან
ზღვით
ზღვის
ზღვისა
ზღვისიქითა
ზღვისკენ
ზღვისპირა
ზღვიური
ზღვრული
ზღუდავდა
ზღუდავს
ზღუდე
ზღუდის
თ
თა
თაბაშირი
თაბაშირის
თაბუკაშვილი
თაგვი
თავ
თავად
თავადაზნაურთა
თავადაზნაურობა
თავადაზნაურობის
თავადაც
თავადები
თავადების
თავადებს
თავადვე
თავადთა
თავადი
თავადის
თავადმა
თავაძე
თავგადასავალი
თავგადასავლები
თავგადასავლების
თავდადებული
თავდამსხმელი
თავდამსხმელის
თავდაპირველ
თავდაპირველად
თავდაპირველი
თავდასაცავად
თავდასხმა
თავდასხმას
თავდასხმაში
თავდასხმები
თავდასხმების
თავდასხმებს
თავდასხმის
თავდაყირა
თავდაცვა
თავდაცვით
თავდაცვითი
თავდაცვის
თავდაცვისა
თავდგირიძე
თავები
თავების
თავებს
თავზე
თავთან
თავი
თავიანთ
თავიანთი
თავიდან
თავიდანვე
თავით
თავის
თავისა
თავისებურ
თავისებურად
თავისებურება
თავისებურებანი
თავისებურებას
თავისებურებები
თავისებურებებით
თავისებურებების
თავისებურებებს
თავისებური
თავისთავად
თავისთან
თავისთვის
თავისი
თავისივე
თავისით
თავისმა
თავისმხრივ
თავისსავე
თავისუფალ
თავისუფალი
თავისუფალია
თავისუფლად
თავისუფლდება
თავისუფლება
თავისუფლებაზე
თავისუფლებას
თავისუფლებების
თავისუფლებებისთვის
თავისუფლების
თავისუფლებისა
თავისუფლებისთვის
თავმოყრილი
თავმოყრილია
თავმჯდომარე
თავმჯდომარეა
თავმჯდომარედ
თავმჯდომარეები
თავმჯდომარემ
თავმჯდომარეობდა
თავმჯდომარეობით
თავმჯდომარეს
თავმჯდომარის
თავრიზი
თავრიზის
თავრიზში
თავს
თავსა
თავსაბურავი
თავსართები
თავსართი
თავსდება
თავსებადი
თავშესაფარი
თავშესაფარს
თავშესაფარში
თავშესაფრად
თავშესაფრის
თავშეყრის
თავში
თავჯდომარის
თათართა
თათარი
თათები
თათრები
თათრების
თათრული
თაიფ
თალასის
თალიბანის
თალიშის
თამაზ
თამამად
თამამი
თამარ
თამარი
თამარის
თამარმა
თამარს
თამაშად
თამაშებზე
თამაშები
თამაშების
თამაშებს
თამაშებში
თამაშზე
თამაში
თამაშიდან
თამაშით
თამაშის
თამაშისას
თამაშისთვის
თამაშმა
თამაშობდა
თამაშობდნენ
თამაშობენ
თამაშობს
თამაშს
თამაშში
თამბაქო
თამბაქოს
თან
თანა
თანაავტორი
თანაავტორობით
თანაბარ
თანაბარი
თანაბრად
თანადამფუძნებელი
თანადროული
თანავარსკვლავედები
თანავარსკვლავედი
თანავარსკვლავედში
თანამგზავრები
თანამგზავრი
თანამგზავრის
თანამგზავრული
თანამდებობა
თანამდებობაზე
თანამდებობას
თანამდებობებზე
თანამდებობები
თანამდებობების
თანამდებობებს
თანამდებობიდან
თანამდებობის
თანამებრძოლი
თანამეგობრობა
თანამეგობრობაში
თანამეგობრობის
თანამედროვე
თანამედროვეთა
თანამედროვეობა
თანამედროვეობის
თანამემამულე
თანამმართველად
თანამმართველი
თანამოაზრე
თანამოაზრეებთან
თანამონაწილეობით
თანამშრომელთა
თანამშრომელი
თანამშრომელმა
თანამშრომლად
თანამშრომლები
თანამშრომლების
თანამშრომლებმა
თანამშრომლებს
თანამშრომლის
თანამშრომლობა
თანამშრომლობაზე
თანამშრომლობას
თანამშრომლობდა
თანამშრომლობდნენ
თანამშრომლობენ
თანამშრომლობით
თანამშრომლობის
თანამშრომლობისა
თანამშრომლობს
თანაპროდიუსერი
თანასწორი
თანასწორობა
თანასწორობას
თანასწორობის
თანაფარდობა
თანაშემწე
თანაშემწედ
თანაშემწეობით
თანაშემწის
თანაც
თანაცხოვრების
თანახმა
თანახმად
თანახმადაც
თანდათან
თანდათანობით
თანდათანობითი
თანდასწრებით
თანდაყოლილი
თანმიმდევრობა
თანმიმდევრობით
თანმიმდევრულად
თანმიმდევრული
თანმხლებ
თანმხლები
თანრიგში
თანხა
თანხას
თანხები
თანხების
თანხებს
თანხით
თანხის
თანხლებით
თანხმდება
თანხმდებიან
თანხმობა
თანხმობას
თანხმობით
თანხმობის
თანხმოვანთა
თანხმოვანი
თანხმოვნები
თანხმოვნების
თაობა
თაობაზე
თაობას
თაობაში
თაობების
თაობიდან
თაობის
თაოსნობით
თარაზულად
თარაზულადაა
თარგ
თარგები
თარგების
თარგზე
თარგი
თარგის
თარგმანები
თარგმანი
თარგმანის
თარგმანს
თარგმანში
თარგმნა
თარგმნიდა
თარგმნილი
თარგმნილია
თარგმნის
თარგს
თარგში
თარიღად
თარიღდება
თარიღები
თარიღების
თარიღი
თარიღია
თარიღით
თარიღის
თარიღს
თარო
თაროსებრი
თარხნიშვილი
თასების
თასზე
თასი
თასის
თასს
თაფლი
თაფლის
თაფლობის
თაქთაქიშვილი
თაღები
თაღებით
თაღების
თაღებს
თაღზე
თაღი
თაღია
თაღით
თაღითაა
თაღის
თაღოვან
თაღოვანი
თაღოვანია
თაღს
თაყაიშვილი
თაყაიშვილის
თაყაიშვილმა
თაყაიშვილს
თაყვანი
თაყვანისმცემელი
თაყვანისცემა
თაყვანისცემის
თაყვანს
თბ
თბილ
თბილად
თბილელი
თბილი
თბილია
თბილისელები
თბილისელთა
თბილისელი
თბილისზე
თბილისი
თბილისიდან
თბილისის
თბილისისა
თბილისს
თბილისსა
თბილისური
თბილისში
თე
თეა
თეატრ
თეატრალურ
თეატრალური
თეატრები
თეატრების
თეატრებში
თეატრთან
თეატრი
თეატრის
თეატრისა
თეატრმა
თეატრს
თეატრში
თებერვალ
თებერვალი
თებერვალს
თებერვალში
თებერვლამდე
თებერვლიდან
თებერვლის
თებერვლისთვის
თებეს
თედო
თედორე
თევდორე
თევდორეს
თევზაობა
თევზაობის
თევზაძე
თევზები
თევზებით
თევზების
თევზებს
თევზი
თევზია
თევზით
თევზის
თევზს
თევზჭერა
თევზჭერის
თეთრ
თეთრად
თეთრი
თეთრია
თეთრიწყაროს
თეთრკანიანები
თეთრკანიანი
თეთრყურძნიანი
თეიმურაზ
თეიმურაზი
თეიმურაზის
თეიმურაზმა
თეიმურაზს
თეირანი
თეირანის
თეირანში
თეკა
თელ
თელა
თელავი
თელავის
თელავში
თემა
თემაა
თემად
თემაზე
თემას
თემასთან
თემატიკა
თემატიკაზე
თემატიკის
თემატურ
თემატური
თემებზე
თემები
თემებია
თემების
თემებს
თემებში
თემთა
თემი
თემის
თემს
თემურ
თემური
თემურის
თემურლენგის
თემურლენგმა
თემში
თენგიზ
თეო
თეოდორ
თეოდორა
თეოდორე
თეოდოსი
თეოდოსიუს
თეოლოგები
თეოლოგი
თეოლოგია
თეოლოგიის
თეოლოგიურ
თეოლოგიური
თეორემა
თეორემის
თეორეტიკოსი
თეორია
თეორიაზე
თეორიას
თეორიაში
თეორიები
თეორიების
თეორიებს
თეორიით
თეორიის
თეორიისა
თეორიულ
თეორიულად
თეორიული
თეოფანე
თეოფილე
თერაპევტი
თერაპია
თერაპიის
თერაპიული
თერგის
თერთმეტი
თერთმეტმეტრიანი
თერმობირთვული
თერმული
თერჯოლის
თესალონიკის
თესლი
თესლით
თესლის
თექვსმეტი
თეძმის
თეძოს
თვალები
თვალებით
თვალების
თვალებს
თვალი
თვალით
თვალის
თვალს
თვალსაზრისი
თვალსაზრისით
თვალსაჩინო
თვალყურს
თვალში
თვალწარმტაცი
თვალწინ
თვე
თვეა
თვეები
თვეებია
თვეების
თვეებში
თვეზე
თვემდე
თვენს
თვეს
თვეში
თვიანი
თვიდან
თვით
თვითგამორკვევის
თვითგამოცხადებული
თვითმავალი
თვითმკვლელობა
თვითმკვლელობით
თვითმკვლელობის
თვითმმართველი
თვითმმართველობა
თვითმმართველობის
თვითმფრინავები
თვითმფრინავების
თვითმფრინავი
თვითმფრინავით
თვითმფრინავის
თვითმფრინავმა
თვითმფრინავს
თვითნებურად
თვითნებური
თვითონ
თვითონაც
თვითონვე
თვის
თვისება
თვისებაა
თვისებას
თვისებებზე
თვისებები
თვისებებით
თვისებების
თვისებებს
თვისების
თვიური
თვლიან
თვლიდა
თვლიდნენ
თვლით
თვლის
თვრამეტი
თი
თიანეთის
თიბისი
თითები
თითების
თითი
თითის
თითო
თითოეულ
თითოეული
თითოეულის
თითოეულმა
თითოეულს
თითქმის
თითქოს
თითქოსდა
თინა
თინათინ
თინეიჯერი
თინეიჯერობის
თირკმლის
თიღვის
თიშა
თიხა
თიხაფიქლებით
თიხაფიქლებითა
თიხებით
თიხით
თიხის
თლილი
თმა
თმას
თმები
თმით
თმის
თოდუა
თოვლი
თოვლიანი
თოვლით
თოვლის
თოვლისა
თოთხმეტი
თოიძე
თოლბაზიდან
თოლია
თომა
თომას
თომასი
თორა
თორგერსონის
თორემ
თორი
თორინ
თორის
თორმეტ
თორმეტი
თორნიკე
თოუზის
თოფურია
თოფჩიშვილი
თოჯინების
თრაკია
თრაკიაში
თრაკიის
თრეშ
თრი
თრიალეთის
თრიკი
თრილერი
თრონი
თრონის
თსუ
თუ
თუთაშხია
თუთია
თუთიის
თუთის
თუთიყუში
თუკი
თუმანიშვილი
თუმანიშვილის
თუმც
თუმცა
თუმცაღა
თუნდაც
თუნუქით
თუნუქის
თურმე
თურქ
თურქები
თურქების
თურქებმა
თურქებს
თურქეთ
თურქეთთან
თურქეთი
თურქეთიდან
თურქეთის
თურქეთისა
თურქეთმა
თურქეთს
თურქეთსა
თურქეთში
თურქესტანის
თურქთა
თურქი
თურქმა
თურქმენეთი
თურქმენეთის
თურქმენეთში
თურქმენული
თურქულ
თურქულად
თურქულენოვანი
თურქული
თუშეთ
თუშეთი
თუშეთის
თუშეთში
თუშური
თუჯის
თქვა
თქვას
თქვენ
თქვენთან
თქვენთვის
თქვენი
თქვენს
თქვენც
თქვეს
თქმა
თქმით
თქმის
თქმულება
თქმულებები
თქმულების
თხა
თხევად
თხევადი
თხელ
თხელი
თხელია
თხემზე
თხემი
თხზ
თხზულება
თხზულებათა
თხზულებანი
თხზულებაში
თხზულებები
თხზულებების
თხზულებებში
თხზულების
თხილი
თხილის
თხის
თხოვნა
თხოვნას
თხოვნით
თხოვნის
თხოვს
თხრილი
თხრობა
თხრობითი
თხრობის
თხუთმეტი
ი
ია
იაგო
იავის
იაკობ
იაკობი
იაკობის
იაკობმა
იაკობს
იალოვენის
იალტის
იამაიკა
იამაიკის
იან
იანაული
იანაულიდან
იანაულის
იანგ
იანგი
იანგის
იანები
იანების
იანებში
იანვარ
იანვარი
იანვარს
იანვარში
იანვრამდე
იანვრიდან
იანვრის
იანვრისათვის
იანვრისთვის
იანი
იანის
იაპ
იაპონელ
იაპონელები
იაპონელების
იაპონელებმა
იაპონელთა
იაპონელი
იაპონელმა
იაპონია
იაპონიამ
იაპონიას
იაპონიასა
იაპონიასთან
იაპონიაში
იაპონიიდან
იაპონიის
იაპონურ
იაპონურად
იაპონური
იარაღად
იარაღები
იარაღების
იარაღებს
იარაღი
იარაღით
იარაღის
იარაღისა
იარაღს
იარდი
იარდიმლის
იაროსლავ
იარსება
იარსებებს
იარუსი
იასამნისფერი
იასონ
იასონი
იასპარეზა
იატაკზე
იატაკი
იატაკიდან
იატაკის
იატაკქვეშა
იაფი
იაშვილი
იაჰია
იბადება
იბერია
იბერიაში
იბერიის
იბერიულ
იბეჭდება
იბეჭდებოდა
იბნ
იბრაჰიმ
იბრაჰიმი
იბრძვიან
იბრძვის
იბრძოდა
იბრძოდნენ
იგავი
იგდეს
იგდო
იგებდა
იგებს
იგეგმება
იგეგმებოდა
იგზავნებოდა
იგი
იგივე
იგივეა
იგივეს
იგნასიო
იგონებს
იგორ
იგრძნო
იგრძნობა
იგრძნობოდა
იგულისხმება
იგულისხმებოდა
იდა
იდან
იდგა
იდგმებოდა
იდგნენ
იდეა
იდეაა
იდეაზე
იდეალურ
იდეალურად
იდეალური
იდეას
იდეები
იდეებით
იდეების
იდეებმა
იდეებს
იდევნებოდა
იდეით
იდეის
იდენტიფიკაცია
იდენტიფიცირება
იდენტობა
იდენტობის
იდენტური
იდენტურია
იდენტურობის
იდეოლოგი
იდეოლოგია
იდეოლოგიას
იდეოლოგიები
იდეოლოგიის
იდეოლოგიურ
იდეოლოგიური
იდეურ
იდეური
იდირიჟორა
იდო
იდრის
იდუმალ
იდუმალი
იეზუიტების
იეზუიტთა
იელის
იემენი
იემენის
იემენში
იენ
იენი
იენის
იენს
იერარქია
იერარქიაში
იერარქიის
იერარქიული
იერი
იერიში
იერიშით
იერიშის
იეროგლიფები
იეროგლიფების
იეროგლიფური
იერს
იერსახე
იერუსალიმელი
იერუსალიმი
იერუსალიმის
იერუსალიმს
იერუსალიმში
იესე
იესო
იესოს
იეჰოვას
ივ
ივან
ივანე
ივანეს
ივანიშვილი
ივანო
ივანოვი
ივარაუდა
ივარაუდება
ივერთა
ივერია
ივერიაში
ივერიელი
ივერიის
ივლის
ივლისამდე
ივლისი
ივლისიდან
ივლისის
ივლისს
ივლისში
ივნის
ივნისამდე
ივნისი
ივნისიდან
ივნისის
ივნისს
ივნისში
ივო
ივრის
ივსება
ივსებოდა
ივუარი
ივუარის
ივუარში
იზაბელ
იზაბელა
იზაბელას
იზაბელი
იზაბელის
იზეიმა
იზიარებდა
იზიარებდნენ
იზიარებენ
იზიარებს
იზიდავდა
იზიდავს
იზოლაცია
იზოლაციაში
იზოლაციის
იზოლდა
იზოლირებულ
იზოლირებული
იზომება
იზოტოპები
იზოტოპების
იზოტოპი
იზოტოპის
იზრდება
იზრდებიან
იზრდებოდა
იზრდებოდნენ
ით
ითავა
ითავსებს
ითამაშა
ითამაშებდა
ითამაშებს
ითამაშეს
ითამაშოს
ითანამშრომლა
ითარგმნა
ითარგმნება
ითვალისწინებდა
ითვალისწინებს
ითვლება
ითვლებიან
ითვლებოდა
ითვლებოდნენ
ითვლიდა
ითვლის
ითქვა
ითქვას
ითხოვა
ითხოვდა
ითხოვდნენ
ითხოვენ
ითხოვს
იისფერი
იკავებდა
იკავებდნენ
იკავებენ
იკავებს
იკარგება
იკეთებს
იკვებება
იკვებებიან
იკვებებოდნენ
იკვეთება
იკვლევდა
იკვლევენ
იკვლევს
იკითხება
იკის
იკისრა
იკლებს
იკლო
იკრიბება
იკრიბებიან
იკრიბებოდა
იკრიბებოდნენ
იკრძალება
იკრძალებოდა
ილ
ილარიონ
ილარიონი
ილაშქრა
ილი
ილია
ილიას
ილიკო
ილინოისი
ილინოისის
ილო
ილოილოს
ილოკ
ილოკოსის
ილორის
ილუზია
ილუსტრატორი
ილუსტრაცია
ილუსტრაციები
ილუსტრირებული
ილჰამ
იმ
იმავდროულად
იმავე
იმაზე
იმათ
იმალება
იმალებოდა
იმამ
იმამი
იმან
იმანუელ
იმართება
იმართებოდა
იმარჯვა
იმარჯვებს
იმარჯვეს
იმას
იმასაც
იმასთან
იმატა
იმატებს
იმაში
იმგვარად
იმდენად
იმდენი
იმდროინდელ
იმდროინდელი
იმედაშვილი
იმედგაცრუებული
იმედები
იმედებს
იმედი
იმედია
იმედით
იმედის
იმედოვნებდა
იმედს
იმეორებდა
იმეორებს
იმერეთი
იმერეთიდან
იმერეთის
იმერეთს
იმერეთში
იმერთა
იმერული
იმეფა
იმთავითვე
იმიგრანტების
იმიგრაცია
იმიგრაციის
იმით
იმითაც
იმის
იმისა
იმისათვის
იმისდა
იმისთვის
იმიტაცია
იმიტომ
იმიშლის
იმიჯი
იმიჯის
იმოგზაურა
იმოქმედა
იმოქმედოს
იმპერატორ
იმპერატორად
იმპერატორები
იმპერატორების
იმპერატორთა
იმპერატორთან
იმპერატორი
იმპერატორის
იმპერატორმა
იმპერატორს
იმპერატრიცა
იმპერია
იმპერიად
იმპერიალიზმის
იმპერიალისტური
იმპერიამ
იმპერიას
იმპერიასა
იმპერიასთან
იმპერიაში
იმპერიები
იმპერიების
იმპერიიდან
იმპერიის
იმპერიისა
იმპერიისგან
იმპერიულ
იმპერიული
იმპიჩმენტის
იმპორტი
იმპორტირებული
იმპორტის
იმპოსტებს
იმპროვიზაცია
იმპულსი
იმპულსის
იმპულსური
იმჟამად
იმჟამინდელი
იმსახურებს
იმსხვერპლა
იმუნიტეტი
იმუნიტეტის
იმუნური
იმუშავა
იმუშავებს
იმუშაოს
იმღერა
იმყოფება
იმყოფებიან
იმყოფებოდა
იმყოფებოდნენ
იმხანად
ინ
ინა
ინარჩუნებდა
ინარჩუნებდნენ
ინარჩუნებენ
ინარჩუნებს
ინასარიძე
ინაუგურაცია
ინაუგურაციის
ინახავდა
ინახავდნენ
ინახავენ
ინახავს
ინახება
ინახებოდა
ინგ
ინგა
ინგვი
ინგლ
ინგლის
ინგლისელ
ინგლისელები
ინგლისელების
ინგლისელებმა
ინგლისელებს
ინგლისელთა
ინგლისელი
ინგლისელმა
ინგლისთან
ინგლისი
ინგლისიდან
ინგლისის
ინგლისისა
ინგლისმა
ინგლისს
ინგლისსა
ინგლისურ
ინგლისურად
ინგლისურენოვან
ინგლისურენოვანი
ინგლისური
ინგლისურიდან
ინგლისურის
ინგლისურმა
ინგლისურს
ინგლისურში
ინგლისში
ინგოროყვა
ინგრედიენტები
ინგრედიენტების
ინგრედიენტი
ინგრიდ
ინგუშების
ინგუშეთის
ინგუშეთში
ინგუშური
ინდეპენდიენტეს
ინდექსი
ინდექსით
ინდექსის
ინდი
ინდიანა
ინდიანას
ინდიელები
ინდიელების
ინდიელებს
ინდიელთა
ინდიელი
ინდივიდები
ინდივიდების
ინდივიდებს
ინდივიდი
ინდივიდის
ინდივიდს
ინდივიდუალურ
ინდივიდუალურად
ინდივიდუალური
ინდირა
ინდის
ინდო
ინდოევროპულ
ინდოევროპული
ინდოეთთან
ინდოეთი
ინდოეთიდან
ინდოეთის
ინდოეთისა
ინდოეთმა
ინდოეთს
ინდოეთსა
ინდოეთში
ინდოელ
ინდოელები
ინდოელი
ინდონეზია
ინდონეზიას
ინდონეზიაში
ინდონეზიის
ინდონეზიური
ინდოჩინეთის
ინდუიზმი
ინდუიზმის
ინდუისტური
ინდურ
ინდური
ინდუსტრია
ინდუსტრიალიზაციის
ინდუსტრიას
ინდუსტრიაში
ინდუსტრიები
ინდუსტრიების
ინდუსტრიის
ინდუსტრიულ
ინდუსტრიული
ინერტული
ინვენტარი
ინვესტიცია
ინვესტიციები
ინვესტიციების
ინი
ინიშნება
ინიციატივა
ინიციატივას
ინიციატივების
ინიციატივით
ინიციატივითა
ინიციატივის
ინიციატორი
ინკა
ინკები
ინკების
ინკუბაცია
ინო
ინოვაცია
ინოვაციების
ინოვაციური
ინოკენტი
ინჟინერ
ინჟინერთა
ინჟინერი
ინჟინერია
ინჟინერიის
ინჟინერის
ინჟინერმა
ინჟინრად
ინჟინრები
ინჟინრის
ინსპექტორად
ინსპექტორი
ინსპექტორის
ინსპექციის
ინსტანციის
ინსტიტუტად
ინსტიტუტები
ინსტიტუტების
ინსტიტუტებს
ინსტიტუტებში
ინსტიტუტთან
ინსტიტუტი
ინსტიტუტის
ინსტიტუტისა
ინსტიტუტმა
ინსტიტუტს
ინსტიტუტში
ინსტიტუციური
ინსტრუმენტებზე
ინსტრუმენტები
ინსტრუმენტების
ინსტრუმენტებს
ინსტრუმენტზე
ინსტრუმენტი
ინსტრუმენტის
ინსტრუმენტს
ინსტრუმენტულ
ინსტრუმენტული
ინსტრუქტორი
ინსტრუქცია
ინსტრუქციები
ინტეგრალური
ინტეგრაცია
ინტეგრაციას
ინტეგრაციის
ინტეგრირებული
ინტელექტი
ინტელექტის
ინტელექტუალი
ინტელექტუალურ
ინტელექტუალური
ინტელიგენცია
ინტელიგენციის
ინტენსივობა
ინტენსივობის
ინტენსიურ
ინტენსიურად
ინტენსიური
ინტერაქტიული
ინტერესები
ინტერესებიდან
ინტერესების
ინტერესებს
ინტერესთა
ინტერესი
ინტერესით
ინტერესის
ინტერესს
ინტერვალი
ინტერვალით
ინტერვენცია
ინტერვენციის
ინტერვიუ
ინტერვიუები
ინტერვიუებში
ინტერვიუს
ინტერვიუში
ინტერი
ინტერიერი
ინტერიერის
ინტერიერში
ინტერის
ინტერმა
ინტერნაციონალის
ინტერნაციონალური
ინტერნეტ
ინტერნეტთან
ინტერნეტი
ინტერნეტით
ინტერნეტის
ინტერნეტში
ინტერპრეტაცია
ინტერპრეტაციას
ინტერპრეტაციით
ინტერპრეტაციის
ინტერტოტოს
ინტერფეისი
ინტერფეისის
ინტიმური
ინტრიგების
ინფანტა
ინფანტები
ინფანტი
ინფექცია
ინფექციების
ინფექციის
ინფექციურ
ინფექციური
ინფიცირებული
ინფლაცია
ინფლაციის
ინფო
ინფოდაფა
ინფოდაფები
ინფოდაფის
ინფორმატიკა
ინფორმატიკის
ინფორმაცია
ინფორმაციაა
ინფორმაციაზე
ინფორმაციას
ინფორმაციები
ინფორმაციით
ინფორმაციის
ინფორმაციისა
ინფორმაციისთვის
ინფორმაციულ
ინფორმაციული
ინფრასტრუქტურა
ინფრასტრუქტურის
ინფრასტრუქტურული
ინფრაწითელი
ინციდენტი
ინციდენტის
იო
იოანე
იოანემ
იოანეს
იოახიმ
იოგა
იოდის
იოვანე
იოზეფ
იოზეფა
იოზეფი
იოკო
იოლად
იოლანდა
იოლი
იომ
იონ
იონა
იონას
იონები
იონების
იონი
იონიის
იონური
იორგი
იორდანეს
იორდანია
იორდანიაში
იორდანიის
იორკ
იორკელები
იორკელი
იორკი
იორკიდან
იორკის
იორკში
იოსებ
იოსები
იოსების
იოსელიანი
იოსელიანის
იოჰან
იოჰანა
იოჰანეს
იოჰანი
იპოვა
იპოვეს
იპოვის
იპოვნეს
იპოვოს
იპოლიტე
იპყრობს
ირ
ირაკლი
ირან
ირანელები
ირანელთა
ირანელი
ირანთან
ირანი
ირანიდან
ირანის
ირანისა
ირანმა
ირანს
ირანსა
ირანულ
ირანული
ირანში
ირგვლივ
ირეგულარული
ირეგულარულია
ირემი
ირვინგი
ირიბად
ირიბი
ირინა
ირინე
ირიცხება
ირიცხებოდა
ირკვევა
ირკუტსკის
ირლანდია
ირლანდიაში
ირლანდიელ
ირლანდიელები
ირლანდიელი
ირლანდიის
ირლანდიისა
ირლანდიურ
ირლანდიური
ირმა
ირმების
ირმის
იროდიონ
ირღვევა
ირჩევა
ირჩევდა
ირჩევდნენ
ირჩევენ
ირჩევს
ირჩენდა
ირწმუნება
ირწმუნებოდა
ის
ისა
ისაა
ისააკ
ისააკი
ისააკის
ისაბელ
ისაბელა
ისაბელას
ისაბელი
ისაბელის
ისაბელმა
ისაგან
ისათვის
ისარგებლა
ისარგებლეს
ისარი
ისაუბრა
ისახავდა
ისახავს
ისგან
ისე
ისეა
ისედაც
ისევ
ისევე
ისეთ
ისეთები
ისეთი
ისეთივე
ისეთმა
ისვრის
ისთვის
ისიდორე
ისინი
ისინიც
ისიც
ისლამ
ისლამი
ისლამის
ისლამისტური
ისლამს
ისლამურ
ისლამური
ისლამში
ისლანდია
ისლანდიაში
ისლანდიელი
ისლანდიის
ისლანდიური
ისმაილ
ისმაილი
ისმაილის
ისმენდა
ისმის
ისმოდა
ისნის
ისრაელ
ისრაელთან
ისრაელი
ისრაელის
ისრაელმა
ისრაელს
ისრაელსა
ისრაელში
ისრები
ისრის
ისრული
ისტ
ისტორია
ისტორიაზე
ისტორიანი
ისტორიას
ისტორიასა
ისტორიასთან
ისტორიაში
ისტორიები
ისტორიების
ისტორიებს
ისტორიიდან
ისტორიით
ისტორიის
ისტორიისა
ისტორიისათვის
ისტორიკოს
ისტორიკოსები
ისტორიკოსების
ისტორიკოსთა
ისტორიკოსი
ისტორიკოსის
ისტორიკოსმა
ისტორიოგრაფია
ისტორიოგრაფიაში
ისტორიულ
ისტორიულად
ისტორიული
ისურვა
ისწავლა
ისწავლება
ისხდნენ
ისჯება
ისჯებოდა
იტალ
იტალია
იტალიამ
იტალიას
იტალიასა
იტალიასთან
იტალიაში
იტალიელ
იტალიელები
იტალიელებმა
იტალიელთა
იტალიელი
იტალიელმა
იტალიიდან
იტალიის
იტალიისა
იტალიურ
იტალიურად
იტალიური
იტალიურმა
იტალო
იტანდა
იტანს
იტანჯება
იტანჯებოდა
იტაცებს
იტევდა
იტევს
იტყვით
იტყვის
იტყობინება
იტყობინებოდა
იტყოდა
იუ
იუანის
იუბილე
იუბილეზე
იუბილეს
იუბილესთან
იუგოსლავია
იუგოსლავიაში
იუგოსლავიის
იუდა
იუდაიზმი
იუდაიზმის
იუდას
იუდეველთა
იუდეის
იუვემ
იუვენტუსი
იუვენტუსის
იუვენტუსმა
იუვენტუსს
იუვენტუსში
იუვეს
იუკატანის
იულია
იულიანა
იულიანე
იულიუს
იულიუსის
იუმორი
იუმორით
იუმორის
იუმორისტული
იუნაიტედთან
იუნაიტედი
იუნაიტედის
იუნაიტედმა
იუნაიტედს
იუნაიტედში
იუნგი
იუნგის
იუნგმა
იუნესკო
იუნესკომ
იუნესკოს
იუნიუს
იუნკერთა
იუპიტერი
იუპიტერის
იურგენ
იურე
იური
იურიდიულ
იურიდიულად
იურიდიული
იურის
იურისდიქცია
იურისდიქციაში
იურისდიქციის
იურისტები
იურისტთა
იურისტი
იურისტის
იურული
იუსტინე
იუსტინიანე
იუსტინიანეს
იუსტიციის
იუსუფ
იუტა
იუწყება
იუხარი
იუჯინ
იფანი
იფარება
იფეთქა
იქ
იქამდე
იქაურ
იქაური
იქაც
იქედან
იქვე
იქიდან
იქით
იქმნება
იქმნებოდა
იქნა
იქნას
იქნებ
იქნება
იქნებიან
იქნებოდა
იქნებოდნენ
იქნენ
იქნეს
იქონია
იქონიეს
იქორწინა
იქორწინეს
იქს
იქცა
იქცევა
იქცევიან
იქცევს
იქცეოდა
იქცეს
იქცნენ
იღბლიანი
იღებდა
იღებდნენ
იღებენ
იღებს
იღვიძებს
იღვწოდა
იღუმენი
იღუპება
იყავი
იყავით
იყალთოს
იყარა
იყენებდა
იყენებდნენ
იყენებენ
იყენებს
იყვნენ
იყიდა
იყიდება
იყიდებოდა
იყინება
იყო
იყოს
იყოფა
იყოფიან
იყოფოდა
იყრიდა
იყრის
იშვიათ
იშვიათად
იშვიათი
იშვიათია
იშვილა
იშიმბაის
იშლება
იშლებოდა
იშტვან
იჩენდა
იჩენს
იჩინა
იც
იცავდა
იცავდნენ
იცავენ
იცავს
იცვლება
იცვლებოდა
იცვლიდა
იცვლის
იცი
იციან
იცით
იცის
იცნობდა
იცნობდნენ
იცნობენ
იცნობს
იცოდა
იცოდეს
იცოდნენ
იცოცხლა
იცხაკ
იცხოვრა
იცხოვროს
იძენენ
იძენს
იძია
იძიებს
იძლევა
იძლევიან
იძლეოდა
იძულებით
იძულებითი
იძულებულები
იძულებული
იძულებულია
იძულებულნი
იწარმოება
იწარმოებოდა
იწერდა
იწერება
იწერებოდა
იწვა
იწვევდა
იწვევდნენ
იწვევენ
იწვევს
იწვის
იწინასწარმეტყველა
იწოდება
იწოდებოდა
იწოდებოდნენ
იწონიდა
იწონის
იწყება
იწყებდა
იწყებდნენ
იწყებენ
იწყებოდა
იწყებს
იწყო
იჭერენ
იჭერს
იჭრება
იჭრებოდა
იხ
იხდიან
იხდიდა
იხდიდნენ
იხდის
იხვი
იხილა
იხილავს
იხილეთ
იხილეს
იხილოთ
იხმარება
იხმარებოდა
იხსენებდა
იხსენებს
იხსენიება
იხსენიებენ
იხსენიებიან
იხსენიებს
იხსნა
იხსნება
იჯარიდან
იჯარით
იჯარის
იჯდა
კ
კა
კაბა
კაბინეტი
კაბინეტის
კაბინეტს
კაბინეტში
კაბის
კაბო
კაგაიანის
კადაფის
კადეტთა
კადისის
კადმიუმის
კადრები
კადრების
კადრი
კავადარცის
კავალერი
კავალერია
კავალერიის
კავალიერსი
კავალიერსის
კავალიერსმა
კავალრები
კავკასია
კავკასიას
კავკასიასა
კავკასიაში
კავკასიელ
კავკასიელი
კავკასიიდან
კავკასიის
კავკასიისა
კავკასიონზე
კავკასიონი
კავკასიონის
კავკასიურ
კავკასიური
კავსაძე
კავშირგაბმულობის
კავშირები
კავშირების
კავშირებს
კავშირზე
კავშირთან
კავშირი
კავშირიდან
კავშირით
კავშირის
კავშირისა
კავშირისგან
კავშირმა
კავშირს
კავშირსა
კავშირში
კავშირშია
კაზაკები
კაზაკების
კაზაკთა
კაზაკი
კაზიმირ
კაზინო
კათალიკოს
კათალიკოსი
კათალიკოსის
კათარინა
კათედრა
კათედრაზე
კათედრალი
კათედრალის
კათედრალში
კათედრას
კათედრის
კათოლიკე
კათოლიკეა
კათოლიკები
კათოლიკედ
კათოლიკეები
კათოლიკეების
კათოლიკეებს
კათოლიკეთა
კათოლიკობა
კათოლიკოს
კათოლიკოსები
კათოლიკოსი
კათოლიკოსის
კათოლიკურ
კათოლიკური
კათოლიკურმა
კათოლიციზმი
კათოლიციზმის
კათრინ
კაი
კაილი
კაინოზოური
კაირო
კაიროს
კაიროში
კაკაბაძე
კაკაბაძის
კაკალი
კაკაო
კაკაოს
კაკლის
კაკულია
კალა
კალათბურთელები
კალათბურთელი
კალათბურთი
კალათბურთის
კალათბურთში
კალამი
კალამს
კალანდაძე
კალანდია
კალაპოტი
კალაპოტის
კალას
კალატოზიშვილი
კალაძე
კალდასის
კალე
კალედონიის
კალენდარი
კალენდარს
კალენდარულ
კალენდარული
კალენდარში
კალენდრით
კალენდრის
კალთა
კალთაზე
კალთებზე
კალთები
კალთების
კალთის
კალი
კალიბრის
კალიგრაფები
კალიგრაფი
კალიგრაფია
კალიგრაფიის
კალიგულას
კალიმანტანის
კალინინგრადის
კალინინის
კალის
კალისტრატე
კალიუმის
კალიფორნია
კალიფორნიაში
კალიფორნიის
კალმარის
კალმახი
კალციუმის
კამათი
კამათის
კამათს
კამათში
კამარა
კამარაც
კამარები
კამარით
კამარითაა
კამარინესის
კამარის
კამაროვანი
კამბისეს
კამბოჯა
კამბოჯაში
კამბოჯის
კამერა
კამერის
კამერულ
კამერული
კამერუნი
კამერუნის
კამერუნში
კამეჩი
კამილ
კამილა
კამის
კამპ
კამპანია
კამპანიას
კამპანიაში
კამპანიები
კამპანიების
კამპანიის
კამპო
კამპუ
კამპუსი
კამპუსის
კამპუსში
კამჩატკის
კანადა
კანადასა
კანადაში
კანადელი
კანადის
კანადურ
კანადური
კანარის
კანაფი
კანაფის
კანბერის
კანდელაკი
კანდიდატად
კანდიდატები
კანდიდატების
კანდიდატებს
კანდიდატთა
კანდიდატი
კანდიდატის
კანდიდატმა
კანდიდატს
კანდიდატურა
კანდიდატურას
კანდიდატურის
კანზასის
კანზე
კანი
კანიონი
კანიონის
კანის
კანკელი
კანკელით
კანკელის
კანონები
კანონებით
კანონების
კანონებს
კანონთა
კანონი
კანონიერ
კანონიერად
კანონიერი
კანონით
კანონიკური
კანონის
კანონმდებლობა
კანონმდებლობას
კანონმდებლობით
კანონმდებლობის
კანონპროექტი
კანონპროექტის
კანონპროექტს
კანონს
კანონში
კანს
კანტაბრიის
კანტატა
კანტემირის
კანტის
კანტონებად
კანტონები
კანტონების
კანტონი
კანტონის
კანტონში
კანტორის
კანში
კანცელარიის
კანცლერი
კანცლერის
კაპადოკიის
კაპანაძე
კაპელა
კაპის
კაპიტალი
კაპიტალიზმი
კაპიტალიზმის
კაპიტალის
კაპიტალისტურ
კაპიტალისტური
კაპიტალური
კაპიტან
კაპიტანი
კაპიტანმა
კაპიტელები
კაპიტნად
კაპიტნის
კაპიტოლიუმის
კაპიტულაცია
კაპიტულაციის
კაპური
კაჟის
კარ
კარა
კარაველას
კარავი
კარავში
კარაკასი
კარაკასის
კარატი
კარაქი
კარაქის
კარბონატული
კარგ
კარგა
კარგად
კარგადაა
კარგავდა
კარგავენ
კარგავს
კარგი
კარგია
კარდინალ
კარდინალი
კარდინალმა
კარები
კარების
კარებს
კარებში
კარელ
კარელიის
კარენ
კარზე
კართაგენი
კართაგენის
კართან
კარი
კარია
კარიბის
კარიბული
კარიბჭე
კარიბჭეს
კარიბჭესთან
კარიბჭის
კარიდან
კარიერა
კარიერაზე
კარიერას
კარიერაში
კარიერის
კარიერული
კარით
კარიმ
კარის
კარიული
კარლ
კარლა
კარლი
კარლის
კარლმა
კარლო
კარლოს
კარლოსი
კარლოსის
კარლოტა
კარლს
კარმა
კარმენ
კარმენი
კარნავალი
კარნეგი
კარნეგის
კარნიზი
კაროლ
კაროლინ
კაროლინა
კაროლინამ
კაროლინას
კაროლინაში
კაროლინის
კარპატები
კარპატების
კარპატებში
კარს
კარსტი
კარსტულ
კარსტული
კარტერი
კარტერის
კარტერმა
კარტნი
კარტნიმ
კარტნის
კარტოგრაფი
კარტოგრაფია
კარტოგრაფიის
კარტოგრაფიული
კარტოფილი
კარტოფილის
კარში
კასელი
კასელის
კასერესის
კასეტა
კასიუსი
კასპაროვი
კასპაროვის
კასპაროვმა
კასპი
კასპიის
კასპის
კასტელიონის
კასტილია
კასტილიაში
კასტილიელი
კასტილიის
კასტილიისა
კასტრო
კასტროს
კატა
კატალინა
კატალინას
კატალოგი
კატალოგიდან
კატალოგის
კატალოგში
კატალონიაში
კატალონიის
კატალონიური
კატანგის
კატარი
კატარინა
კატარინას
კატარის
კატასტროფა
კატასტროფები
კატასტროფის
კატასტროფული
კატები
კატების
კატეგორია
კატეგორიად
კატეგორიას
კატეგორიასაქართველოს
კატეგორიაში
კატეგორიები
კატეგორიების
კატეგორიებს
კატეგორიებში
კატეგორიის
კატეგორიულად
კატეგორიული
კატერინა
კატერინას
კატის
კატმანდუს
კატო
კატრინ
კატრინი
კაუკის
კაუჩუკის
კაფე
კაფეში
კაშკაშა
კაშხალი
კაშხლის
კაცამდე
კაცები
კაცების
კაცებს
კაცზე
კაცთა
კაცი
კაცია
კაციან
კაციანი
კაცით
კაცის
კაცისა
კაცისთვის
კაცმა
კაცობრიობა
კაცობრიობას
კაცობრიობის
კაცს
კაცხის
კაჭარავა
კახა
კახაბერ
კახამარკის
კახეთ
კახეთი
კახეთიდან
კახეთის
კახეთისა
კახეთს
კახეთში
კახთა
კახი
კახიანი
კახის
კახიძე
კახოვკის
კახური
კაჰულის
კბ
კბილები
კბილების
კბილი
კბილის
კგ
კედელზე
კედელთან
კედელი
კედელს
კედელში
კედელშია
კედელშიცაა
კედლებზე
კედლებთან
კედლები
კედლებიდან
კედლებით
კედლების
კედლებს
კედლებში
კედლებშია
კედლიდან
კედლით
კედლის
კევინ
კეთდება
კეთდებოდა
კეთება
კეთილ
კეთილგანწყობილი
კეთილდღეობა
კეთილდღეობას
კეთილდღეობის
კეთილი
კეთილშობილ
კეთილშობილი
კეი
კეინი
კეიპ
კეისარი
კეისარის
კეისარმა
კეისარს
კეისრის
კეიტ
კეიჯი
კეიჯის
კეკელიძე
კეკელიძის
კელერაშის
კელი
კელის
კელნი
კელნის
კელტები
კელტების
კელტურ
კელტური
კემბრიჯი
კემბრიჯის
კემბრიჯში
კემპბელი
კენ
კენედი
კენედიმ
კენედის
კენეთ
კენეტ
კენი
კენია
კენიაში
კენიის
კენკრა
კენობი
კენტავრი
კენტერბერის
კენტი
კენტის
კენტუკის
კენჭი
კენჭისყრა
კენჭისყრაზე
კენჭისყრას
კენჭისყრაში
კენჭისყრით
კენჭისყრის
კენჭს
კეპლერ
კეპლერის
კერა
კერაა
კერალას
კერამიკა
კერამიკის
კერამიკული
კერები
კერესელიძე
კერი
კერის
კეროლ
კერპი
კერძები
კერძებია
კერძების
კერძებს
კერძებში
კერძი
კერძია
კერძის
კერძო
კერძოდ
კერძს
კესარიელი
კესონის
კეტი
კეტრინ
კეუშენის
კეფის
კეში
კეჩუას
კვ
კვადრატი
კვადრატის
კვადრატს
კვადრატულ
კვადრატული
კვადრატულია
კვადრები
კვადრებით
კვაზი
კვალდაკვალ
კვალი
კვალის
კვალიფიკაცია
კვალიფიკაციის
კვალიფიციური
კვალს
კვამლის
კვანტურ
კვანტური
კვანძები
კვანძების
კვანძი
კვანძია
კვანძის
კვარაცხელია
კვართის
კვარტალი
კვარტალში
კვარტეტი
კვარტეტის
კვარცხლბეკზე
კვარცხლბეკი
კვაჭანტირაძე
კვაჭაძე
კვაჭი
კვდება
კვება
კვებავს
კვებეკი
კვებეკის
კვებითი
კვების
კვეთა
კვეთის
კვეთს
კვენტინ
კვერთხი
კვერნა
კვერცხები
კვერცხებს
კვერცხი
კვერცხის
კვერცხისებრი
კვერცხს
კვინტუს
კვიპროსელი
კვიპროსზე
კვიპროსი
კვიპროსის
კვიპროსს
კვიპროსში
კვირა
კვირას
კვირაში
კვირაცხოვლის
კვირეული
კვირით
კვირიკე
კვირიკეს
კვირის
კვირკველია
კვირტის
კვლავ
კვლავაც
კვლავინდებურად
კვლევა
კვლევამ
კვლევას
კვლევაში
კვლევები
კვლევებით
კვლევების
კვლევებისა
კვლევებმა
კვლევებს
კვლევებში
კვლევით
კვლევითი
კვლევის
კვლევისა
კვლევისას
კვტ
კი
კიბე
კიბეები
კიბერნეტიკის
კიბით
კიბის
კიბო
კიბოთი
კიბოს
კიბოსნაირებით
კიდე
კიდეებზე
კიდეები
კიდევ
კიდევაც
კიდეზე
კიდესთან
კიდეში
კიდეც
კიდის
კიდობანი
კიდურები
კიდურების
კიდური
კიევი
კიევის
კიევში
კივუს
კით
კითხვა
კითხვაზე
კითხვას
კითხვებზე
კითხვები
კითხვებს
კითხვით
კითხვითი
კითხვის
კითხულობდა
კითხულობდნენ
კითხულობენ
კითხულობს
კიკნაძე
კილაძე
კილი
კილიკიის
კილო
კილოგრამი
კილოგრამს
კილომეტრამდე
კილომეტრზე
კილომეტრი
კილომეტრია
კილომეტრიანი
კილომეტრით
კილომეტრითაა
კილომეტრის
კილომეტრს
კილომეტრში
კილოს
კიმ
კიმი
კინაღამ
კინგ
კინგი
კინგის
კინგს
კინემატოგრაფიაში
კინემატოგრაფიის
კინემატოგრაფისტთა
კინემატოგრაფიულ
კინემატოგრაფიული
კინეტიკური
კინო
კინოაკადემიის
კინოთეატრებში
კინოთეატრი
კინოთეატრში
კინოკარიერა
კინოკრიტიკოსთა
კინომსახიობები
კინომსახიობთა
კინომსახიობი
კინოპროდიუსერები
კინორეჟისორები
კინორეჟისორი
კინოს
კინოსა
კინოსტუდია
კინოსტუდიის
კინოფესტივალზე
კინოფესტივალი
კინოფესტივალის
კინოფილმების
კინოფილმი
კინოში
კიოპენის
კიოტოს
კირა
კირიბატის
კირით
კირილ
კირილე
კირილიცას
კირილური
კირიონ
კირის
კირკ
კიროვის
კიროვოჰრადის
კიროს
კირქვა
კირქვებით
კირქვებითა
კირქვებში
კირქვის
კირქვული
კირჯალის
კისერზე
კისერი
კისინჯერი
კისრის
კისტური
კიტ
კიტა
კლავდიუს
კლავდიუსი
კლავდიუსის
კლავდნენ
კლავენ
კლავიატურა
კლავიშები
კლავიშებიანები
კლავიშებიანი
კლავიშისტი
კლავს
კლაივ
კლანი
კლანის
კლანს
კლარა
კლარას
კლარკ
კლარკი
კლარკის
კლარჯეთი
კლარჯეთის
კლარჯეთში
კლასები
კლასების
კლასებს
კლასებში
კლასი
კლასიდან
კლასიკურ
კლასიკური
კლასის
კლასისა
კლასიფიკაცია
კლასიფიკაციას
კლასიფიკაციით
კლასიფიკაციის
კლასიფიცირდება
კლასიციზმის
კლასობრივი
კლასს
კლასში
კლაუდია
კლაუდიო
კლაუს
კლდე
კლდეებზე
კლდეები
კლდეების
კლდეზე
კლდეკარის
კლდეში
კლდიაშვილი
კლდიაშვილის
კლდის
კლდოვან
კლდოვანი
კლება
კლებულობს
კლემენტ
კლეოპატრა
კლეოპატრას
კლეპტონი
კლერ
კლერი
კლიენტებს
კლიენტი
კლივლენდ
კლივლენდის
კლიმატზე
კლიმატი
კლიმატია
კლიმატით
კლიმატის
კლიმატს
კლიმატურ
კლიმატური
კლიმენტი
კლინიკა
კლინიკაში
კლინიკის
კლინიკურ
კლინიკური
კლინტონი
კლინტონის
კლიპი
კლიპში
კლიფ
კლოდ
კლონების
კლოპი
კლოპის
კლოპმა
კლუბ
კლუბები
კლუბების
კლუბებს
კლუბებში
კლუბთან
კლუბი
კლუბია
კლუბიდან
კლუბის
კლუბისთვის
კლუბმა
კლუბს
კლუბში
კლუქს
კმ
კმაყოფილი
კმეტი
კმეტის
კო
კოალიცია
კოალიციამ
კოალიციას
კოალიციაში
კოალიციის
კოალიციური
კობა
კობალტის
კობახიძე
კობერიძე
კობი
კობურგ
კოგნიტურ
კოგნიტური
კოდალა
კოდები
კოდების
კოდექსი
კოდექსით
კოდექსის
კოდი
კოდით
კოდირება
კოდის
კოდორის
კოდს
კოდური
კოენი
კოეფიციენტი
კოზიმა
კოზიმო
კოზიმოს
კოზმა
კოიპერის
კოკა
კოკო
კოკოჩაშვილი
კოლა
კოლას
კოლეგა
კოლეგებთან
კოლეგების
კოლეგებმა
კოლეგებო
კოლეგებს
კოლეგია
კოლეგიის
კოლექტივი
კოლექტივის
კოლექტივმა
კოლექტივს
კოლექტიურ
კოლექტიური
კოლექცია
კოლექციას
კოლექციაში
კოლექციები
კოლექციების
კოლექციებს
კოლექციებში
კოლექციიდან
კოლექციის
კოლეჯი
კოლეჯის
კოლეჯს
კოლეჯში
კოლი
კოლინ
კოლინზი
კოლინზის
კოლის
კოლმეურნეობის
კოლონა
კოლონია
კოლონიად
კოლონიალიზმის
კოლონიალურ
კოლონიალური
კოლონიას
კოლონიაში
კოლონიებად
კოლონიები
კოლონიების
კოლონიებს
კოლონიებში
კოლონიზაცია
კოლონიზაციის
კოლონიის
კოლონის
კოლონისტები
კოლონისტების
კოლონიურ
კოლონიური
კოლორადო
კოლორადოს
კოლოსალური
კოლუმბამდელი
კოლუმბი
კოლუმბია
კოლუმბიაში
კოლუმბიელი
კოლუმბიის
კოლუმბის
კოლუმბიური
კოლხეთი
კოლხეთის
კოლხეთში
კოლხური
კომარკის
კომბინატი
კომბინატის
კომბინაცია
კომბინაციით
კომბინირებული
კომბოსტო
კომბოსტოს
კომედია
კომედიაში
კომედიები
კომედიის
კომედიურ
კომედიური
კომენდანტის
კომენტარები
კომენტარებით
კომენტარების
კომენტარებს
კომენტარი
კომენტარის
კომენტარს
კომენტატორი
კომერციის
კომერციულ
კომერციულად
კომერციული
კომეტა
კომიკოსები
კომიკოსი
კომიკური
კომისართა
კომისარი
კომისარიატი
კომისარიატის
კომისია
კომისიამ
კომისიას
კომისიაში
კომისიები
კომისიების
კომისიის
კომისრად
კომისრები
კომისრის
კომიტეტები
კომიტეტების
კომიტეტთან
კომიტეტი
კომიტეტის
კომიტეტისა
კომიტეტმა
კომიტეტს
კომიტეტში
კომიქსები
კომიქსების
კომიქსებში
კომიქსი
კომიქსის
კომიქსში
კომკავშირის
კომლი
კომნენოსი
კომნენოსის
კომორის
კომპანია
კომპანიაა
კომპანიამ
კომპანიას
კომპანიასთან
კომპანიაში
კომპანიებთან
კომპანიები
კომპანიების
კომპანიებმა
კომპანიებს
კომპანიის
კომპანიონი
კომპარტიის
კომპაქტ
კომპაქტურად
კომპაქტური
კომპენსაცია
კომპენსაციის
კომპეტენტური
კომპეტენცია
კომპეტენციაში
კომპეტენციის
კომპილაცია
კომპილაციაში
კომპილაციები
კომპილაციური
კომპიუტერები
კომპიუტერების
კომპიუტერთან
კომპიუტერი
კომპიუტერის
კომპიუტერულ
კომპიუტერული
კომპლექსები
კომპლექსების
კომპლექსი
კომპლექსის
კომპლექსს
კომპლექსურ
კომპლექსური
კომპლექსში
კომპლექტი
კომპოზიტორ
კომპოზიტორები
კომპოზიტორების
კომპოზიტორთა
კომპოზიტორი
კომპოზიტორის
კომპოზიტორმა
კომპოზიტორს
კომპოზიცია
კომპოზიციას
კომპოზიციაში
კომპოზიციები
კომპოზიციების
კომპოზიციებს
კომპოზიციებში
კომპოზიციის
კომპოზიციური
კომპონენტები
კომპონენტების
კომპონენტი
კომპონენტია
კომპონენტის
კომპონენტს
კომუნა
კომუნად
კომუნალური
კომუნას
კომუნაში
კომუნები
კომუნიზმი
კომუნიზმის
კომუნიკაცია
კომუნიკაციები
კომუნიკაციების
კომუნიკაციის
კომუნის
კომუნისგან
კომუნისტები
კომუნისტების
კომუნისტებმა
კომუნისტი
კომუნისტის
კომუნისტურ
კომუნისტური
კომუნისტურმა
კომფორტულად
კომფორტული
კონ
კონა
კონან
კონაქტის
კონგი
კონგის
კონგლომერატებით
კონგო
კონგოს
კონგოში
კონგრესზე
კონგრესი
კონგრესის
კონგრესმა
კონგრესს
კონგრესში
კონგში
კონდეს
კონვენცია
კონვენციას
კონვენციის
კონი
კონიაკის
კონკრეტულ
კონკრეტულად
კონკრეტული
კონკურენტი
კონკურენტული
კონკურენტუნარიანობის
კონკურენცია
კონკურენციას
კონკურენციის
კონკურსანტები
კონკურსები
კონკურსების
კონკურსზე
კონკურსი
კონკურსის
კონკურსში
კონორი
კონრად
კონსენსუსი
კონსენსუსის
კონსერვატიზმი
კონსერვატიულ
კონსერვატიული
კონსერვატორები
კონსერვატორების
კონსერვატორი
კონსერვატორია
კონსერვატორიაში
კონსერვატორიის
კონსერვაცია
კონსერვაციას
კონსერვაციის
კონსოლები
კონსოლების
კონსოლი
კონსოლიდაცია
კონსოლის
კონსორტი
კონსტანტინ
კონსტანტინე
კონსტანტინემ
კონსტანტინეპოლის
კონსტანტინეს
კონსტანტინოპოლი
კონსტანტინოპოლის
კონსტანტინოპოლს
კონსტანტინოპოლში
კონსტანტინოს
კონსტანტინოსი
კონსტანტინოსის
კონსტანცა
კონსტანცია
კონსტიტუცია
კონსტიტუციამ
კონსტიტუციას
კონსტიტუციაში
კონსტიტუციით
კონსტიტუციის
კონსტიტუციურ
კონსტიტუციური
კონსტრუქტორი
კონსტრუქცია
კონსტრუქციები
კონსტრუქციების
კონსტრუქციის
კონსტრუქციულ
კონსტრუქციული
კონსულად
კონსულები
კონსული
კონსულის
კონსულმა
კონსულტანტად
კონსულტანტი
კონსულტაციის
კონტაქტები
კონტაქტების
კონტაქტი
კონტაქტის
კონტაქტს
კონტაქტში
კონტექსტი
კონტექსტში
კონტინენტების
კონტინენტზე
კონტინენტი
კონტინენტის
კონტინენტს
კონტინენტურ
კონტინენტური
კონტინენტურია
კონტის
კონტრ
კონტრაქტი
კონტრაქტით
კონტრაქტის
კონტრაქტს
კონტროლ
კონტროლდება
კონტროლერი
კონტროლზე
კონტროლი
კონტროლირდებოდა
კონტროლირებად
კონტროლირებადი
კონტროლის
კონტროლისა
კონტროლს
კონტროლქვეშ
კონტრრევოლუციური
კონტრშეტევა
კონუსი
კონუსის
კონუსური
კონფედერაცია
კონფედერაციას
კონფედერაციის
კონფედერაციული
კონფერენცია
კონფერენციაზე
კონფერენციამ
კონფერენციას
კონფერენციაში
კონფერენციები
კონფერენციების
კონფერენციებში
კონფერენციის
კონფესიური
კონფიგურაცია
კონფიგურაციის
კონფისკაცია
კონფლიქტები
კონფლიქტების
კონფლიქტებში
კონფლიქტი
კონფლიქტის
კონფლიქტმა
კონფლიქტს
კონფლიქტური
კონფლიქტში
კონქი
კონქით
კონქის
კონქში
კონცენტრაცია
კონცენტრაციას
კონცენტრაციის
კონცენტრირებული
კონცენტრირებულია
კონცეპტუალური
კონცერტებზე
კონცერტები
კონცერტებით
კონცერტების
კონცერტებს
კონცერტზე
კონცერტი
კონცერტიდან
კონცერტით
კონცერტის
კონცერტს
კონცერტში
კონცეფცია
კონცეფციას
კონცეფციები
კონცეფციის
კონცხზე
კონცხი
კონცხის
კოოპერატიული
კოორდინატები
კოორდინატების
კოორდინატთა
კოორდინატორი
კოორდინაცია
კოორდინაციას
კოორდინაციის
კოპა
კოპალიანი
კოპენჰაგენი
კოპენჰაგენის
კოპენჰაგენში
კოპტური
კორდიან
კორდილიერის
კორდობა
კორდობის
კორდოვის
კორეა
კორეამ
კორეას
კორეასა
კორეასთან
კორეაში
კორეელი
კორეის
კორესპონდენტად
კორესპონდენტები
კორესპონდენტი
კორეულ
კორეული
კორი
კორნელი
კორნელის
კორნელიუს
კორონავირუსის
კორონაცია
კორონაციის
კორპორატიული
კორპორაცია
კორპორაციის
კორპორაციული
კორპუსი
კორპუსის
კორპუსს
კორპუსში
კორსაკოვის
კორტესი
კორტი
კორუნიის
კორუფცია
კორუფციის
კორძიანი
კოსმეტიკური
კოსმონავტი
კოსმოსი
კოსმოსიდან
კოსმოსის
კოსმოსურ
კოსმოსური
კოსმოსში
კოსოვო
კოსოვოს
კოსოვოში
კოსტა
კოსტავა
კოსტავას
კოსტიუმები
კოსტიუმების
კოსტიუმი
კოსტუმების
კოტ
კოტაბატოს
კოტაიქის
კოტბუსის
კოტე
კოტრიკაძე
კოული
კოუპლენდი
კოფი
კოქსი
კოშკები
კოშკების
კოშკებს
კოშკი
კოშკია
კოშკიდან
კოშკის
კოშკს
კოშკურა
კოშკში
კოჩაბამბის
კოცნა
კოცონზე
კოჭებზე
კოჭების
კოჯრის
კპ
კრ
კრაკოვი
კრაკოვის
კრაკოვში
კრამიტი
კრამიტით
კრამიტის
კრასნი
კრასნოდარის
კრასნოიარსკის
კრატერი
კრატერის
კრატოსი
კრახი
კრახით
კრება
კრებაზე
კრებამ
კრებას
კრებაში
კრებები
კრების
კრებულები
კრებული
კრებულის
კრებულს
კრებულში
კრედიტის
კრეიგ
კრეისერი
კრემლი
კრემლის
კრეოლური
კრეტა
კრეტაზე
კრეტის
კრივი
კრივის
კრივში
კრიზისი
კრიზისის
კრიზისმა
კრიზისს
კრიზისში
კრიკეტის
კრიმინალი
კრიმინალის
კრიმინალურ
კრიმინალური
კრის
კრისი
კრისტალ
კრისტალები
კრისტალების
კრისტალის
კრისტალურ
კრისტალური
კრისტი
კრისტიან
კრისტიანი
კრისტიანის
კრისტინ
კრისტინა
კრისტინამ
კრისტინას
კრისტის
კრისტოფ
კრისტოფერ
კრისტოფერი
კრიტერიუმები
კრიტერიუმების
კრიტერიუმებს
კრიტერიუმი
კრიტერიუმის
კრიტერიუმს
კრიტიკა
კრიტიკას
კრიტიკით
კრიტიკის
კრიტიკოსები
კრიტიკოსების
კრიტიკოსებისგან
კრიტიკოსებმა
კრიტიკოსთა
კრიტიკოსი
კრიტიკოსის
კრიტიკოსმა
კრიტიკულ
კრიტიკულად
კრიტიკული
კრიულენის
კრიშნა
კრიშტიანუ
კრონპრინც
კრონპრინცესა
კრონპრინცი
კრონშტადტის
კროსი
კრუნჩხვები
კრუს
კრუსი
კრუსის
კრუხობს
კრძალავდა
კრძალავს
კრწანისის
კუ
კუალა
კუბა
კუბაში
კუბელი
კუბინსკის
კუბის
კუბურ
კუბური
კუდი
კუდიანი
კუდის
კუები
კუედა
კუთვნილ
კუთვნილება
კუთვნილებაში
კუთვნილების
კუთვნილი
კუთრი
კუთხე
კუთხეები
კუთხეების
კუთხეებში
კუთხეს
კუთხესთან
კუთხეში
კუთხიდან
კუთხით
კუთხის
კუთხური
კუინზლენდის
კუიურგაზის
კუკი
კუკის
კუკმა
კულინარია
კულინარიაში
კულინარიის
კულინარიული
კულიჯი
კულიჯმა
კულმინაცია
კულმინაციას
კულტი
კულტივირებული
კულტივირებულია
კულტის
კულტს
კულტურა
კულტურაა
კულტურაზე
კულტურათა
კულტურამ
კულტურას
კულტურასა
კულტურასთან
კულტურაში
კულტურები
კულტურების
კულტურებს
კულტურებში
კულტურით
კულტურის
კულტურისა
კულტურულ
კულტურულად
კულტურული
კუმსი
კუნდინამარკის
კუნთები
კუნთების
კუნთის
კუნთოვანი
კუნძულ
კუნძულებზე
კუნძულებთან
კუნძულები
კუნძულებია
კუნძულებიდან
კუნძულების
კუნძულებმა
კუნძულებს
კუნძულებსა
კუნძულზე
კუნძულთა
კუნძულთან
კუნძული
კუნძულია
კუნძულიდან
კუნძულის
კუნძულისაგან
კუნძულისგან
კუნძულოვანი
კუნძულს
კუპერი
კუპერის
კუპრაშვილი
კურაპალატი
კურაპალატის
კურატორი
კურდღელი
კურდღლის
კურთხევა
კურთხევით
კურთხევის
კურთხეული
კურირებდა
კურორტ
კურორტები
კურორტი
კურორტია
კურორტის
კურსდამთავრებულები
კურსდამთავრებული
კურსებზე
კურსები
კურსების
კურსებს
კურსზე
კურსი
კურსით
კურსის
კურსკის
კურსს
კურტ
კურფიურსტ
კურფიურსტი
კუს
კუსკოს
კუსკუსი
კუჭ
კუჭის
კუხეთის
ლ
ლა
ლაბა
ლაბაძე
ლაბაძის
ლაბორანტი
ლაბორატორია
ლაბორატორიას
ლაბორატორიაში
ლაბორატორიები
ლაბორატორიის
ლაბორატორიული
ლაგ
ლაგოდეხის
ლაგოსის
ლაგუნა
ლაგუნის
ლადენის
ლადო
ლავა
ლავგარდანი
ლავგარდნით
ლავგარდნის
ლავის
ლავრა
ლავრაში
ლავრენტი
ლავრენტის
ლავრის
ლავური
ლაზარე
ლაზარეს
ლაზერული
ლაზი
ლაზური
ლათ
ლათინთა
ლათინოამერიკული
ლათინურ
ლათინურად
ლათინური
ლათინურიდან
ლათინურის
ლაიოშ
ლაიფციგი
ლაიფციგის
ლაიფციგში
ლაკობა
ლაკობას
ლალა
ლალი
ლამა
ლამაზ
ლამაზად
ლამაზი
ლამარა
ლამას
ლამბაიეკეს
ლამბერტი
ლამის
ლანა
ლანაოს
ლანდშაფტები
ლანდშაფტების
ლანდშაფტი
ლანდშაფტის
ლანდშაფტური
ლანკა
ლანკას
ლანკაში
ლანკის
ლანჩხუთი
ლანჩხუთის
ლანჩხუთში
ლაო
ლაოსი
ლაოსის
ლაოსში
ლაპარაკი
ლაპარაკობდა
ლაპარაკობდნენ
ლაპარაკობენ
ლაპარაკობს
ლაპიდარული
ლარა
ლარი
ლარის
ლარისა
ლარს
ლას
ლასლო
ლატვია
ლატვიაში
ლატვიელი
ლატვიის
ლატვიური
ლაურა
ლაურეატები
ლაურეატი
ლაურეატის
ლაქა
ლაქები
ლაქებით
ლაღიძე
ლაშა
ლაშქარი
ლაშქარმა
ლაშქარს
ლაშქრით
ლაშქრის
ლაშქრობა
ლაშქრობას
ლაშქრობაში
ლაშქრობები
ლაშქრობების
ლაშქრობებში
ლაშქრობის
ლაშქრობისას
ლაჩინის
ლაცაბიძე
ლაციო
ლაციოს
ლგბტ
ლე
ლეა
ლებრონ
ლეგალურად
ლეგალური
ლეგენდა
ლეგენდარიუმში
ლეგენდარულ
ლეგენდარული
ლეგენდას
ლეგენდები
ლეგენდების
ლეგენდის
ლეგიონები
ლეგიონი
ლეგიონის
ლეგიონს
ლეგიონში
ლეგიტიმაცია
ლეგიტიმურ
ლეგიტიმური
ლედ
ლედი
ლედის
ლევ
ლევან
ლევანი
ლევანის
ლევანტის
ლევი
ლევილის
ლევინი
ლევონ
ლეია
ლეიბლ
ლეიბლებზე
ლეიბლები
ლეიბლზე
ლეიბლთან
ლეიბლი
ლეიბლის
ლეიბლმა
ლეიბორისტული
ლეიკერსი
ლეიკერსის
ლეიკერსმა
ლეილა
ლეინი
ლეიტენანტ
ლეიტენანტი
ლეიტენანტის
ლეიტეს
ლეკები
ლეკების
ლეკთა
ლელა
ლელო
ლელოს
ლემპარდი
ლემპარდმა
ლენა
ლენგის
ლენი
ლენინგრადი
ლენინგრადის
ლენინგრადში
ლენინი
ლენინიზმის
ლენინის
ლენინური
ლენის
ლენონი
ლენონის
ლენონმა
ლენსტერის
ლენტეხის
ლენქორანის
ლეო
ლეოვის
ლეონ
ლეონარდ
ლეონარდო
ლეონი
ლეონიდ
ლეონიდე
ლეონის
ლეონიძის
ლეონტი
ლეოპარდი
ლეოპოლდ
ლეოპოლდი
ლეოპოლდის
ლეოპოლდმა
ლეოპოლდო
ლეპიდუსი
ლეჟავა
ლერი
ლერიქის
ლერმონტოვის
ლერწამი
ლერწმის
ლეს
ლესბოსელი
ლესელიძე
ლესლი
ლესოთოს
ლესტერ
ლექსებზე
ლექსები
ლექსების
ლექსებს
ლექსებში
ლექსზე
ლექსთა
ლექსი
ლექსიკა
ლექსიკის
ლექსიკონები
ლექსიკონი
ლექსიკონის
ლექსიკონში
ლექსიკური
ლექსის
ლექსს
ლექსში
ლექტორად
ლექტორი
ლექცია
ლექციები
ლექციების
ლექციებს
ლეჩხუმი
ლეჩხუმის
ლეჩხუმისა
ლეჩხუმში
ლეხ
ლვივის
ლვოვი
ლვოვის
ლვოვში
ლი
ლია
ლიამ
ლიანა
ლიანდაგის
ლიახვის
ლიბანელი
ლიბანი
ლიბანის
ლიბანური
ლიბანში
ლიბერალ
ლიბერალები
ლიბერალების
ლიბერალი
ლიბერალიზმი
ლიბერალიზმის
ლიბერალურ
ლიბერალური
ლიბერია
ლიბერიის
ლიბერტადის
ლიბერტადორესის
ლიბერტარიანელები
ლიბერტარიანელი
ლიბერტარიანიზმი
ლიბერტარიანიზმის
ლიბერტარიანული
ლიბია
ლიბიაში
ლიბიის
ლიბრეტო
ლიბრეტოს
ლიგა
ლიგაზე
ლიგამ
ლიგას
ლიგაში
ლიგები
ლიგიდან
ლიგის
ლიდერ
ლიდერად
ლიდერებთან
ლიდერები
ლიდერების
ლიდერებმა
ლიდერებს
ლიდერთა
ლიდერი
ლიდერია
ლიდერის
ლიდერმა
ლიდერობა
ლიდერობდა
ლიდერობდნენ
ლიდერობით
ლიდერობის
ლიდერობს
ლიდერს
ლიდია
ლიეტუვა
ლიეტუვაში
ლიეტუვის
ლიეტუვური
ლივერპულთან
ლივერპული
ლივერპულის
ლივერპულმა
ლივერპულს
ლივერპულში
ლივიუსი
ლივონიის
ლიზა
ლითონები
ლითონების
ლითონი
ლითონია
ლითონის
ლითონური
ლიკა
ლიკვიდაცია
ლიკვიდაციის
ლილვი
ლილი
ლილიან
ლილის
ლიმ
ლიმა
ლიმის
ლიმონი
ლიმონის
ლიმფური
ლინ
ლინგვისტი
ლინგვისტიკის
ლინგვისტურ
ლინგვისტური
ლინდა
ლინდონ
ლინდსი
ლინი
ლინის
ლინკინ
ლინკოლნი
ლინკოლნის
ლინჩი
ლინჩის
ლიონელ
ლიონი
ლიონის
ლიონში
ლიპარიტ
ლიპარიტის
ლიპის
ლირა
ლირი
ლირიკა
ლირიკულ
ლირიკული
ლის
ლისა
ლისაბონი
ლისაბონის
ლისაბონში
ლისტი
ლისტის
ლისტმა
ლიტ
ლიტერატორი
ლიტერატურა
ლიტერატურაზე
ლიტერატურათმცოდნე
ლიტერატურათმცოდნეები
ლიტერატურას
ლიტერატურასა
ლიტერატურაში
ლიტერატურით
ლიტერატურის
ლიტერატურისა
ლიტერატურულ
ლიტერატურული
ლიტვა
ლიტვაში
ლიტველი
ლიტვის
ლიტლ
ლიტრი
ლიტურგია
ლიტურგიის
ლიუ
ლიუდმილა
ლიუნებურგის
ლიცენზია
ლიცენზიით
ლიცენზიის
ლიცენზირებული
ლიცეუმი
ლიცეუმში
ლიხაურის
ლიხვის
ლიხის
ლიხნის
ლიხტენშტაინის
ლო
ლობიო
ლობიოს
ლობჟანიძე
ლოგიკა
ლოგიკის
ლოგიკურ
ლოგიკურად
ლოგიკური
ლოგო
ლოგოები
ლოგოს
ლოდები
ლოდებით
ლოდი
ლოდინი
ლოზანის
ლოზუნგი
ლოთარ
ლოთარინგია
ლოთარინგიელი
ლოთარინგიის
ლოიდ
ლოკალიზაცია
ლოკალურ
ლოკალური
ლოკი
ლოკის
ლოკომოტივი
ლოკომოტივის
ლოლა
ლოლიტა
ლომბარდიის
ლომები
ლომების
ლომთათიძე
ლომი
ლომინაძე
ლომის
ლომისის
ლომიძე
ლომონოსოვის
ლომოური
ლონგ
ლონდონი
ლონდონიდან
ლონდონის
ლონდონში
ლოპეს
ლოპესი
ლორა
ლორან
ლორდ
ლორდთა
ლორდი
ლორდის
ლორე
ლორენ
ლორენს
ლორენცო
ლორენცოს
ლორეს
ლორეტოს
ლორთქიფანიძე
ლორთქიფანიძის
ლორი
ლორის
ლორწოვანი
ლოს
ლოტბარი
ლოუ
ლოურენს
ლოურენსი
ლოურენსის
ლოქის
ლოცვა
ლოცვას
ლოცვები
ლოცვით
ლოცვის
ლოცულობდა
ლოხ
ლტოლვა
ლტოლვილები
ლტოლვილების
ლტოლვილთა
ლტოლვილი
ლუ
ლუარის
ლუარსაბ
ლუგოს
ლუდვიგ
ლუდვიგი
ლუდვიგის
ლუდი
ლუდის
ლუდმილა
ლუდოვიკო
ლუდს
ლუდსახარში
ლუვრის
ლუთერ
ლუთერანები
ლუთერანული
ლუთერი
ლუთერის
ლუი
ლუიზ
ლუიზა
ლუიზამ
ლუიზას
ლუიზი
ლუიმ
ლუის
ლუისა
ლუისი
ლუისის
ლუიშ
ლუიჯი
ლუკ
ლუკა
ლუკას
ლუკასი
ლუკასის
ლუკასმა
ლუკი
ლუკის
ლუკრეცია
ლუკს
ლუნა
ლუნდის
ლუოს
ლურსმული
ლურჯ
ლურჯად
ლურჯი
ლუსი
ლუსია
ლუსონის
ლუქსემბურგი
ლუქსემბურგის
ლუქსემბურგში
ლუციუს
ლუჰანსკის
მ
მა
მაგ
მაგალითად
მაგალითები
მაგალითებია
მაგალითზე
მაგალითი
მაგალითია
მაგალითის
მაგალითისთვის
მაგალითს
მაგარი
მაგას
მაგდალენა
მაგდალენას
მაგელანის
მაგვარი
მაგია
მაგიდა
მაგიდაზე
მაგიდასთან
მაგიდის
მაგიერ
მაგივრად
მაგიის
მაგის
მაგისტრალი
მაგისტრალის
მაგისტრალური
მაგისტრატურა
მაგისტრი
მაგისტრის
მაგიურ
მაგიური
მაგმური
მაგნიტუდის
მაგნიტურ
მაგნიტური
მაგნიუმის
მაგნუს
მაგრამ
მადაგასკარზე
მადაგასკარი
მადაგასკარის
მადამ
მადანი
მადლენ
მადლი
მადლიერების
მადლობა
მადლობას
მადლობის
მადმუაზელ
მადნის
მადონა
მადონამ
მადონას
მადრიდი
მადრიდის
მადრიდში
მავზოლეუმი
მავზოლეუმის
მავზოლეუმში
მავნე
მავნებელია
მავრიკი
მავრიკის
მავრიტანიის
მაზლი
მაზრა
მაზრას
მაზრაში
მაზრები
მაზრის
მათ
მათაც
მათგან
მათგანზე
მათგანი
მათგანია
მათგანის
მათგანმა
მათგანს
მათგანში
მათე
მათემატიკა
მათემატიკას
მათემატიკაში
მათემატიკის
მათემატიკისა
მათემატიკოსები
მათემატიკოსი
მათემატიკურ
მათემატიკური
მათეს
მათვე
მათზე
მათთან
მათთვის
მათი
მათიას
მათივე
მათმა
მათს
მათში
მაია
მაიაკოვსკის
მაიამი
მაიამის
მაიამიში
მაიას
მაიერი
მაიკ
მაიკლ
მაიკლი
მაიკლის
მაიმუნები
მაიმუნების
მაიმუნებს
მაიმუნი
მაიმუნის
მაინე
მაინის
მაინტერესებს
მაინც
მაინცდამაინც
მაინცის
მაიორ
მაიორები
მაიორი
მაიორის
მაის
მაისამდე
მაისი
მაისიდან
მაისის
მაისისთვის
მაისს
მაისურაძე
მაისური
მაისურით
მაისურის
მაისში
მაკ
მაკა
მაკალათია
მაკარი
მაკბეტი
მაკდონალდი
მაკდონალდის
მაკედონელები
მაკედონელი
მაკედონელის
მაკედონელმა
მაკედონია
მაკედონიაში
მაკედონიის
მაკედონური
მაკეობა
მაკი
მაკროეკონომიკური
მალა
მალაგის
მალავდა
მალავის
მალავს
მალაიზია
მალაიზიაში
მალაიზიის
მალაის
მალაიური
მალაკის
მალარიის
მალაქია
მალდივის
მალე
მალევე
მალერი
მალერის
მალერმა
მალი
მალის
მალიქ
მალიში
მალკოლმ
მალმსტინი
მალმსტინის
მალმსტინმა
მალტა
მალტაში
მალტის
მალულად
მალხაზ
მამა
მამად
მამათა
მამაკაცები
მამაკაცების
მამაკაცებისთვის
მამაკაცებს
მამაკაცებში
მამაკაცთა
მამაკაცთან
მამაკაცი
მამაკაცია
მამაკაცის
მამაკაცს
მამალი
მამამ
მამამთავარი
მამამთილი
მამამისთან
მამამისი
მამამისის
მამამისმა
მამამისს
მამას
მამასახლისი
მამასახლიშვილი
მამასთან
მამაც
მამაცი
მამაცობისათვის
მამაცობისთვის
მამები
მამების
მამედ
მამედოვი
მამია
მამიდა
მამიდაშვილი
მამის
მამისა
მამისგან
მამლის
მამლუქები
მამლუქების
მამლუქთა
მამლუქი
მამოძრავებელი
მამრ
მამრები
მამრი
მამრის
მამრობითი
მამუკა
მამულები
მამულების
მამულებს
მამული
მამულის
მამულიშვილთა
მამულს
მამულში
მან
მანაგაძე
მანათობელი
მანამ
მანამდე
მანამდეც
მანანა
მანასის
მანაც
მანგა
მანგანუმი
მანგანუმის
მანგას
მანგლისის
მანგო
მანგროს
მანდ
მანდატი
მანდატით
მანდატის
მანდელა
მანე
მანეთი
მანეთის
მანემ
მანერა
მანერით
მანეს
მანვე
მანი
მანილა
მანილაში
მანილის
მანის
მანიფესტი
მანიფესტის
მანსიისკში
მანსურ
მანტუას
მანტუის
მანუ
მანუელ
მანუჩარ
მანქანა
მანქანაზე
მანქანათმშენებლობა
მანქანათმშენებლობის
მანქანას
მანქანაში
მანქანები
მანქანებით
მანქანების
მანქანებს
მანქანით
მანქანის
მანჩესტერ
მანჩესტერი
მანჩესტერის
მანჩესტერში
მანჩის
მანძილზე
მანძილი
მანძილიდან
მანძილით
მანძილის
მანძილს
მანჯურიაში
მანჯურიის
მანჰეტენზე
მანჰეტენი
მანჰეტენის
მაო
მაორების
მაორის
მაპუჩეს
მაჟორი
მაჟორიტარი
მაჟორიტარული
მაჟორში
მარ
მარა
მარაგები
მარაგი
მარაგის
მარაგს
მარად
მარადისობის
მარადიულ
მარადიული
მარადმწვანე
მარადონა
მარათონი
მარანი
მარანიანი
მარანიანის
მარგალიტი
მარგალიტის
მარგარეტ
მარგარეტი
მარგარეტის
მარგარეტმა
მარგარეტს
მარგარიტა
მარგარიტამ
მარგარიტას
მარგერიტა
მარგველაშვილი
მარგო
მარეგულირებელი
მარველის
მართა
მართავდა
მართავდნენ
მართავენ
მართავს
მართალი
მართალია
მართებულად
მართებული
მართებულია
მართვა
მართვადი
მართვას
მართვაში
მართველობის
მართვის
მართვისა
მართკუთხა
მართლა
მართლაც
მართლმადიდებელ
მართლმადიდებელი
მართლმადიდებლები
მართლმადიდებლობა
მართლმადიდებლობის
მართლმადიდებლურ
მართლმადიდებლური
მართლმსაჯულების
მართული
მარი
მარია
მარიამ
მარიამი
მარიამის
მარიამმა
მარიამს
მარიან
მარიანა
მარიანას
მარიანო
მარიას
მარიკა
მარილები
მარილების
მარილი
მარილიანი
მარილიანობა
მარილის
მარილს
მარიმ
მარინა
მარინე
მარინეს
მარინო
მარინოს
მარიო
მარიონ
მარიონეტული
მარის
მარიუპოლის
მარიხუანას
მარიხუანის
მარკ
მარკა
მარკაზე
მარკგრაფი
მარკები
მარკების
მარკესი
მარკესის
მარკეტინგი
მარკეტინგის
მარკეტინგული
მარკი
მარკიზ
მარკიზა
მარკიზი
მარკიზის
მარკის
მარკო
მარკოზ
მარკოზი
მარკოზის
მარკოს
მარკოსის
მარკუს
მარლი
მარლის
მარმა
მარმარილო
მარმარილოს
მარნეულის
მარნის
მარო
მაროკო
მაროკოს
მაროკოში
მარსელ
მარსელი
მარსელის
მარსელო
მარსელში
მარსზე
მარსი
მარსის
მარტ
მარტა
მარტამდე
მარტვილი
მარტვილის
მარტი
მარტიდან
მარტივ
მარტივად
მარტივი
მარტივია
მარტინ
მარტინესი
მარტინი
მარტინის
მარტინმა
მარტის
მარტისთვის
მარტო
მარტოობის
მარტორქა
მარტოსული
მარტოხელა
მარტს
მარტყოფის
მარტში
მარუაშვილი
მარქსი
მარქსიზმ
მარქსიზმი
მარქსიზმის
მარქსის
მარქსისტი
მარქსისტულ
მარქსისტული
მარშალ
მარშალი
მარშალის
მარშალმა
მარში
მარშის
მარშლები
მარშრუტები
მარშრუტების
მარშრუტზე
მარშრუტი
მარშრუტის
მარჩელო
მარცვალი
მარცვლები
მარცვლების
მარცვლებს
მარცვლეული
მარცვლეულის
მარცვლის
მარცვლოვანი
მარცხდება
მარცხენა
მარცხი
მარცხით
მარცხის
მარცხმა
მარცხნიდან
მარცხნივ
მარხვა
მარხვის
მარჯანიშვილი
მარჯანიშვილის
მარჯვენა
მარჯვნიდან
მარჯვნივ
მარჯნის
მარჯნული
მას
მასა
მასაა
მასაზე
მასაის
მასალა
მასალაა
მასალად
მასალაზე
მასალათა
მასალას
მასალები
მასალებით
მასალების
მასალებს
მასალებში
მასალით
მასალის
მასალისაგან
მასალისგან
მასას
მასაჩუსეტსი
მასაჩუსეტსის
მასაჩუსეტსში
მასაც
მასე
მასები
მასების
მასვე
მასზე
მასთან
მასივები
მასივების
მასივზე
მასივი
მასივის
მასივს
მასივში
მასით
მასის
მასიურ
მასიურად
მასიური
მასიურია
მასმედია
მასმედიის
მასობრივ
მასობრივად
მასობრივი
მასპინძელ
მასპინძელთა
მასპინძელი
მასპინძლის
მასპინძლობდა
მასპინძლობს
მასსა
მასტერ
მასტერინგი
მასტერსზე
მასტერსი
მასტერსის
მასში
მასშტაბები
მასშტაბებით
მასშტაბი
მასშტაბით
მასშტაბის
მასშტაბურ
მასშტაბური
მასწავლებელთა
მასწავლებელი
მასწავლებელმა
მასწავლებელს
მასწავლებლად
მასწავლებლები
მასწავლებლების
მასწავლებლებს
მასწავლებლის
მატა
მატარებელი
მატარებელია
მატარებელს
მატარებლები
მატარებლების
მატარებლით
მატარებლის
მატება
მატებასთან
მატების
მატეო
მატერია
მატერიალურ
მატერიალური
მატერიის
მატერიკის
მატიანე
მატილდა
მატილდას
მატის
მატლები
მატლი
მატრიცა
მატუ
მატულობს
მატყლი
მატყლის
მატჩები
მატჩების
მატჩებს
მატჩებში
მატჩზე
მატჩი
მატჩიანი
მატჩიდან
მატჩით
მატჩის
მატჩს
მატჩში
მაუნტ
მაურიების
მაურო
მაუსის
მაუწყებელი
მაუწყებლის
მაუწყებლობა
მაუწყებლობის
მაუწყებლობს
მაფიის
მაქვს
მაქს
მაქსველის
მაქსი
მაქსიმ
მაქსიმალურ
მაქსიმალურად
მაქსიმალური
მაქსიმე
მაქსიმილიან
მაქსიმილიანი
მაქსიმუმ
მაქსიმუმი
მაქსიმუმს
მაღაზია
მაღაზიას
მაღაზიაში
მაღაზიები
მაღაზიების
მაღაზიებში
მაღაზიის
მაღალ
მაღალაშვილი
მაღალი
მაღალია
მაღალმთიან
მაღალმთიანეთში
მაღალმთიანი
მაღალმთის
მაღალშემოსავლიანი
მაღალხარისხიანი
მაღალხარისხოვანი
მაღარო
მაღაროებში
მაღაროს
მაღაროში
მაღლა
მაღლდება
მაღლობზე
მაღლობი
მაყაშვილი
მაყურებელთა
მაყურებელი
მაყურებელმა
მაყურებელს
მაყურებლის
მაშ
მაშადი
მაშასადამე
მაშინ
მაშინაც
მაშინდელ
მაშინდელი
მაშინდელმა
მაშინვე
მაშტოცის
მაჩაბელი
მაჩაიძე
მაჩვენებელზე
მაჩვენებელი
მაჩვენებელია
მაჩვენებელმა
მაჩვენებელს
მაჩვენებლები
მაჩვენებლებით
მაჩვენებლების
მაჩვენებლით
მაჩვენებლის
მაჩვი
მაჩუ
მაც
მაცივარ
მაცნე
მაცხოვარი
მაცხოვრებელთა
მაცხოვრებელი
მაცხოვრებელს
მაცხოვრებლები
მაცხოვრებლების
მაცხოვრებლებმა
მაცხოვრებლებს
მაცხოვრის
მაძიებელი
მაწანწალა
მაჭავარიანი
მახარაძე
მახარაძის
მახარებელი
მახასიათებელი
მახასიათებელია
მახასიათებლები
მახასიათებლებით
მახასიათებლების
მახასიათებლებს
მახვილი
მახვილით
მახვილის
მახლობელ
მახლობელი
მახლობლად
მახსოვს
მაჯის
მაჰათმა
მაჰარაჯა
მაჰმად
მაჰმადიანი
მაჰმუდ
მაჰმუდი
მბრუნავი
მბრძანებელი
მბრძანებლის
მგ
მგალობელი
მგალობლიშვილი
მგელაძე
მგელი
მგზავრები
მგზავრების
მგზავრებს
მგზავრთა
მგზავრი
მგზავრის
მგზავრობა
მგზავრობის
მგზავრს
მგზნებარე
მგლები
მგლების
მგლის
მგონი
მგონია
მგრ
მგრძნობელობა
მგრძნობიარე
მდ
მდგარ
მდგარა
მდგარი
მდგომ
მდგომარეობა
მდგომარეობაა
მდგომარეობაზე
მდგომარეობას
მდგომარეობაში
მდგომარეობაშია
მდგომარეობდა
მდგომარეობიდან
მდგომარეობით
მდგომარეობის
მდგომარეობისა
მდგომარეობს
მდგომი
მდგრად
მდგრადი
მდგრადია
მდგრადობა
მდგრადობის
მდე
მდეა
მდებარე
მდებარეობა
მდებარეობას
მდებარეობდა
მდებარეობენ
მდებარეობით
მდებარეობის
მდებარეობს
მდედრ
მდედრები
მდედრი
მდედრის
მდედრობითი
მდელო
მდელოებზე
მდელოები
მდელოებია
მდელოებით
მდელოს
მდიდარ
მდიდარი
მდიდარია
მდიდარმა
მდიდრულ
მდიდრულად
მდიდრული
მდივან
მდივანი
მდივანმა
მდივანს
მდივნად
მდივნები
მდივნის
მდინარე
მდინარეა
მდინარეებზე
მდინარეები
მდინარეებია
მდინარეებით
მდინარეების
მდინარეებს
მდინარეებში
მდინარეზე
მდინარეთა
მდინარეს
მდინარესთან
მდინარეული
მდინარეში
მდინარის
მე
მეათე
მეამბოხე
მეამბოხეები
მეამბოხეების
მეამბოხეთა
მეან
მებაღეობა
მებრძოლ
მებრძოლები
მებრძოლების
მებრძოლებმა
მებრძოლებს
მებრძოლთა
მებრძოლი
მებრძოლის
მეგა
მეგავატი
მეგალითური
მეგზური
მეგი
მეგობარ
მეგობართა
მეგობართან
მეგობარი
მეგობარია
მეგობარმა
მეგობარს
მეგობრებთან
მეგობრები
მეგობრების
მეგობრებმა
მეგობრებო
მეგობრებს
მეგობრის
მეგობრობა
მეგობრობას
მეგობრობდა
მეგობრობის
მეგობრობისა
მეგობრობისთვის
მეგობრულ
მეგობრული
მეგონა
მეგრელიძე
მეგრულ
მეგრული
მედალი
მედალიონი
მედალოსანი
მედალოსნები
მედალს
მედდა
მედეა
მედეას
მედვედევი
მედია
მედიავიკი
მედიამ
მედიაში
მედიის
მედიკამენტები
მედიკამენტების
მედიკოსები
მედიკოსთა
მედინა
მედინაში
მედისონ
მედიტაციის
მედიუ
მედიჩების
მედიჩი
მედიჩის
მედიცინა
მედიცინას
მედიცინაში
მედიცინის
მედიცინისა
მედლები
მედლებით
მედლების
მედლით
მედლის
მედრესე
მეექვსე
მეექვსედ
მევენახეობა
მევენახეობის
მევიოლინე
მეზობელ
მეზობელი
მეზობლად
მეზობლებთან
მეზობლები
მეზობლების
მეზობლებს
მეზოზოური
მეზორეგიონს
მეზღვაურები
მეზღვაური
მეთანის
მეთაურად
მეთაურები
მეთაურების
მეთაურებს
მეთაურთა
მეთაური
მეთაურია
მეთაურის
მეთაურმა
მეთაურობა
მეთაურობდა
მეთაურობდნენ
მეთაურობით
მეთაურობის
მეთაურობს
მეთაურს
მეთევზეები
მეთევზეთა
მეთევზეობა
მეთერთმეტე
მეთექვსმეტე
მეთვალყურეობის
მეთვრამეტე
მეთიუ
მეთოდები
მეთოდებით
მეთოდების
მეთოდებს
მეთოდი
მეთოდია
მეთოდით
მეთოდის
მეთოდოლოგია
მეთოდს
მეთოდური
მეთოთხმეტე
მეთორმეტე
მეთქი
მეთხუთმეტე
მეი
მეიოს
მეის
მეისონი
მეისონის
მეიძის
მეკარე
მეკარედ
მეკარის
მეკლენბურგ
მეკობრეები
მეკობრეების
მელ
მელა
მელანი
მელბურნი
მელბურნის
მელბურნში
მელეუზის
მელია
მელისა
მელიტონ
მელიქ
მელიქიშვილი
მელიქიშვილის
მელნით
მელოდია
მელოდიას
მელოდიები
მელოდიის
მელოდიური
მელოუნი
მელქისედეკ
მემამულე
მემარცხენე
მემარჯვენე
მემარჯვენეები
მემატიანე
მემბრანის
მემგონი
მემინდვრია
მემკვიდრე
მემკვიდრედ
მემკვიდრეები
მემკვიდრეების
მემკვიდრეებს
მემკვიდრემ
მემკვიდრეობა
მემკვიდრეობაზე
მემკვიდრეობას
მემკვიდრეობით
მემკვიდრეობითი
მემკვიდრეობის
მემკვიდრეობისათვის
მემკვიდრეს
მემკვიდრის
მემორანდუმი
მემორიალი
მემორიალის
მემორიალურ
მემორიალური
მემუარები
მემუარების
მემუარებში
მემუარისტები
მენაბდე
მენდელეევის
მენეჯერად
მენეჯერი
მენეჯერის
მენეჯერმა
მენეჯმენტი
მენეჯმენტის
მენი
მენინგი
მენინგმა
მენის
მენტალური
მენშევიკების
მენჯის
მეოთხე
მეოთხედ
მეოთხედი
მეოთხედის
მეოთხედფინალი
მეოთხედფინალში
მეოთხედში
მეოთხეული
მეომართა
მეომარი
მეომარს
მეომრები
მეომრების
მეომრებმა
მეომრებს
მეომრის
მეორად
მეორადი
მეორდება
მეორე
მეორეა
მეორედ
მეორეზე
მეორემ
მეორეს
მეორეული
მეორეში
მეორეც
მეორეხარისხოვან
მეორეხარისხოვანი
მეორეჯერ
მეორის
მეოცე
მეპატრონე
მერაბ
მერად
მერანი
მერანის
მერე
მერები
მერვე
მერვედ
მერვედფინალში
მერი
მერია
მერიდიანი
მერიდიანის
მერიის
მერილენდი
მერილენდის
მერიმ
მერის
მერკური
მერკურის
მერმა
მერსედეს
მერფი
მერქანი
მერქნის
მერყეობდა
მერყეობს
მერჩულე
მერცხალი
მესა
მესაკუთრე
მესამე
მესამეა
მესამედ
მესამედი
მესამედს
მესამეზე
მესამეს
მესამეული
მესამეში
მესაქონლეობა
მესაქონლეობას
მესაქონლეობის
მესი
მესიე
მესიეს
მესიმ
მესინის
მესის
მესმის
მესოამერიკის
მესოპოტამია
მესოპოტამიაში
მესოპოტამიის
მესროპ
მესტიის
მესხეთი
მესხეთის
მესხეთში
მესხი
მესხია
მესხის
მესხიშვილი
მესხიშვილის
მეტ
მეტა
მეტად
მეტადაა
მეტალ
მეტალების
მეტალი
მეტალიკა
მეტალიკამ
მეტალიკის
მეტალის
მეტალურგი
მეტალურგია
მეტალურგიის
მეტალურგის
მეტალურგიული
მეტამორფული
მეტაფიზიკური
მეტეოროლოგია
მეტეოროლოგიური
მეტეხის
მეტი
მეტია
მეტის
მეტისმეტად
მეტიც
მეტმა
მეტნაკლებად
მეტოქე
მეტოქეები
მეტოქეთა
მეტოქეობა
მეტოქეს
მეტოქის
მეტრ
მეტრამდე
მეტრამდეა
მეტრეველი
მეტრეველის
მეტრზე
მეტრი
მეტრია
მეტრიან
მეტრიანი
მეტრიდან
მეტრით
მეტრის
მეტრო
მეტროპოლიტანოს
მეტროპოლიტენები
მეტროპოლიტენების
მეტროპოლიტენი
მეტროპოლიტენის
მეტროს
მეტროსადგურები
მეტროსადგური
მეტრს
მეტრში
მეტს
მეტსახელად
მეტსახელი
მეტყველება
მეტყველებაში
მეტყველების
მეტყველებს
მეტწილად
მეტხანს
მეტჯერ
მეურვე
მეურვეობის
მეურნეობა
მეურნეობაზე
მეურნეობას
მეურნეობაში
მეურნეობები
მეურნეობით
მეურნეობის
მეურნეობისა
მეურნეობისათვის
მეუფე
მეუღლე
მეუღლეები
მეუღლემ
მეუღლეს
მეუღლესთან
მეუღლის
მეფე
მეფედ
მეფეები
მეფეების
მეფეებმა
მეფეებს
მეფეზე
მეფეთ
მეფეთა
მეფემ
მეფეს
მეფესა
მეფესთან
მეფეც
მეფის
მეფისა
მეფისაგან
მეფისათვის
მეფისთვის
მეფისნაცვლის
მეფობა
მეფობდა
მეფობის
მეფობისას
მეფუტკრეობა
მექანიზმები
მექანიზმების
მექანიზმებს
მექანიზმი
მექანიზმის
მექანიზმს
მექანიკა
მექანიკაში
მექანიკის
მექანიკოსი
მექანიკურ
მექანიკური
მექაში
მექსიკა
მექსიკაში
მექსიკელი
მექსიკის
მექსიკოს
მექსიკური
მეღვინეობა
მეღვინეობის
მეშვეობით
მეშვეობითაც
მეშვიდე
მეშვიდედ
მეჩაიეობა
მეჩეთები
მეჩეთი
მეჩეთის
მეჩეთს
მეჩეთში
მეჩვენება
მეჩვიდმეტე
მეჩხერი
მეც
მეცამეტე
მეცნ
მეცნიერ
მეცნიერება
მეცნიერებათა
მეცნიერებას
მეცნიერებასა
მეცნიერებაში
მეცნიერებები
მეცნიერებების
მეცნიერებებს
მეცნიერებებში
მეცნიერები
მეცნიერების
მეცნიერებისა
მეცნიერებმა
მეცნიერებს
მეცნიერთა
მეცნიერი
მეცნიერის
მეცნიერმა
მეცნიერს
მეცნიერულ
მეცნიერულად
მეცნიერული
მეცო
მეცხვარე
მეცხვარეობა
მეცხოველეობა
მეცხოველეობას
მეცხოველეობის
მეცხრამეტე
მეცხრე
მეწამულ
მეწამული
მეწარმე
მეწარმეები
მეხიკო
მეხიკოს
მეხიკოში
მეხილეობა
მეხსიერება
მეხსიერებას
მეხსიერებაში
მეხსიერების
მეხუთე
მეხუთედ
მეჯლისის
მეჰმედ
მეჰმედი
მეჰმედის
მეჰმეთ
მეჰრიბან
მზა
მზად
მზადაა
მზადდება
მზადდებოდა
მზადება
მზადების
მზადყოფნა
მზარდ
მზარდი
მზარეული
მზე
მზეზე
მზეთუნახავი
მზეს
მზესთან
მზია
მზიანი
მზიდან
მზის
მზისა
მზისგან
მზიური
მთ
მთა
მთავარ
მთავარანგელოზთა
მთავარანგელოზი
მთავარანგელოზის
მთავარეპისკოპოს
მთავარეპისკოპოსი
მთავარეპისკოპოსის
მთავარეპისკოპოსმა
მთავართა
მთავარი
მთავარია
მთავარმა
მთავარს
მთავარსარდალი
მთავარსარდლად
მთავარსარდლის
მთავრად
მთავრდება
მთავრდებოდა
მთავრები
მთავრების
მთავრებს
მთავრის
მთავრობა
მთავრობამ
მთავრობას
მთავრობასა
მთავრობასთან
მთავრობაში
მთავრობები
მთავრობების
მთავრობებმა
მთავრობებს
მთავრობის
მთავრობისა
მთავრობისგან
მთავრობისთვის
მთავრული
მთაზე
მთათა
მთამსვლელი
მთარგმნელები
მთარგმნელი
მთარგმნელობითი
მთას
მთასთან
მთაში
მთაწმინდის
მთებზე
მთები
მთებიდან
მთებით
მთების
მთებს
მთებსა
მთებში
მთელ
მთელი
მთელმა
მთელს
მთვარე
მთვარეზე
მთვარეს
მთვარის
მთიან
მთიანეთი
მთიანეთის
მთიანეთში
მთიანი
მთიანია
მთიდან
მთიელ
მთიელთა
მთიელი
მთის
მთისა
მთისწინეთის
მთისწინეთში
მთიულეთის
მთლად
მთლიან
მთლიანად
მთლიანადაა
მთლიანი
მთლიანობა
მთლიანობას
მთლიანობაში
მთლიანობის
მთხრობელი
მი
მია
მიაბარა
მიაბარეს
მიაგნო
მიადგა
მიადგნენ
მიავლინა
მიათხოვა
მიათხოვეს
მიაკვლია
მიაკუთვნა
მიაკუთვნებენ
მიაკუთვნებს
მიანდო
მიანიშნებს
მიანიჭა
მიანიჭეს
მიანმარი
მიანმარის
მიანმარში
მიატოვა
მიატოვეს
მიაქვთ
მიაქვს
მიაქცია
მიაღწევდა
მიაღწევს
მიაღწია
მიაღწიეს
მიაღწიოს
მიაყენა
მიაყენეს
მიაშენეს
მიაშურა
მიაჩნდა
მიაჩნდათ
მიაჩნია
მიაჩნიათ
მიაწერენ
მიაწერს
მიაწოდა
მიახლოება
მიახლოებით
მიახლოებითი
მიახლოებული
მიბმული
მიგ
მიგელ
მიგვანიშნებს
მიგვითითებს
მიგრანტების
მიგრაცია
მიგრაციის
მიდამო
მიდამოები
მიდამოებში
მიდამოში
მიდგმული
მიდგმულია
მიდგომა
მიდგომას
მიდგომები
მიდგომით
მიდგომის
მიდი
მიდიან
მიდიოდა
მიდიოდნენ
მიდის
მიდრეკილება
მიედინება
მიედინებიან
მიეთითოს
მიეკუთვნა
მიეკუთვნება
მიეკუთვნებიან
მიეკუთვნებოდა
მიეკუთვნებოდნენ
მიემართა
მიემართება
მიემართებიან
მიემართებოდა
მიემგზავრება
მიემგზავრებიან
მიემხრნენ
მიემხრო
მიენიჭა
მიენიჭათ
მიენიჭოს
მიერ
მიერაა
მიერვე
მიერთების
მიერკანონი
მიესალმა
მიესაჯა
მიეღო
მიეღოთ
მიეღწია
მიეცა
მიეცათ
მიეცემა
მიეცეს
მიეძღვნა
მიეწერება
მიეწოდება
მივიდა
მივიდნენ
მივიღე
მივიღებთ
მივიღეთ
მივიღოთ
მივიჩნიოთ
მივყავართ
მივხვდი
მიზანი
მიზანია
მიზანიც
მიზანმიმართული
მიზანს
მიზანშეწონილი
მიზანში
მიზეზად
მიზეზები
მიზეზებით
მიზეზების
მიზეზებს
მიზეზთა
მიზეზი
მიზეზია
მიზეზით
მიზეზის
მიზეზიც
მიზეზს
მიზიდულობის
მიზნად
მიზნები
მიზნებით
მიზნების
მიზნებისათვის
მიზნებისთვის
მიზნებს
მიზნით
მიზნის
მით
მითანის
მითები
მითების
მითი
მითითება
მითითებას
მითითებები
მითითებებს
მითითებით
მითითების
მითითებულ
მითითებული
მითითებულია
მითითებულისა
მითის
მითოლოგია
მითოლოგიაში
მითოლოგიის
მითოლოგიურ
მითოლოგიური
მითრიდატე
მითრიდატეს
მითუმეტეს
მითური
მითქმა
მითხრა
მიიზიდა
მიითვალა
მიითვისა
მიიპყრო
მიირთმევდნენ
მიირთმევენ
მიიტანა
მიიტანეს
მიიტაცა
მიიქცია
მიიღება
მიიღებდა
მიიღებდნენ
მიიღებენ
მიიღებს
მიიღეს
მიიღო
მიიღონ
მიიღოს
მიიღწევა
მიიყვანა
მიიყვანეს
მიიჩნევა
მიიჩნევდა
მიიჩნევდნენ
მიიჩნევენ
მიიჩნევიან
მიიჩნევს
მიიჩნეოდა
მიიჩნია
მიიჩნიეს
მიიწვია
მიიწვიეს
მიკ
მიკი
მიკოლა
მიკოლაივის
მიკოლოგმა
მიკრო
მიკრონეზიის
მიკრორეგიონ
მიკროსკოპული
მილან
მილანთან
მილანი
მილანის
მილანმა
მილანს
მილანში
მილები
მილების
მილერი
მილერის
მილერმა
მილეტის
მილი
მილიარდ
მილიარდი
მილიარდს
მილიმეტრი
მილიმეტრიანი
მილიონ
მილიონად
მილიონამდე
მილიონერი
მილიონზე
მილიონი
მილიონიანი
მილიონის
მილიონმა
მილიონობით
მილიონს
მილის
მილიცია
მილიციის
მილოშ
მილს
მილსადენების
მილსადენი
მილსადენის
მილტონ
მილუოკი
მიმაგრებული
მიმავალ
მიმავალი
მიმართ
მიმართა
მიმართავდა
მიმართავდნენ
მიმართავენ
მიმართავს
მიმართაც
მიმართებაში
მიმართებით
მიმართეს
მიმართვა
მიმართვის
მიმართოს
მიმართულ
მიმართულება
მიმართულებაა
მიმართულებაზე
მიმართულებას
მიმართულებები
მიმართულებებით
მიმართულებების
მიმართულებებს
მიმართულებით
მიმართულების
მიმართული
მიმართულია
მიმაჩნია
მიმდებარე
მიმდებარედ
მიმდევართა
მიმდევარი
მიმდევარია
მიმდევრები
მიმდევრების
მიმდევრებმა
მიმდევრებს
მიმდევრობა
მიმდევრობის
მიმდინარე
მიმდინარეობა
მიმდინარეობას
მიმდინარეობდა
მიმდინარეობები
მიმდინარეობების
მიმდინარეობის
მიმდინარეობისას
მიმდინარეობს
მიმზიდველი
მიმი
მიმინო
მიმომხილველი
[...]
