!
"
#
##0
##1
##10
##11
##12
##13
##14
##15
##16
##17
##18
##19
##2
##20
##21
##22
##23
##24
##25
##26
##27
##28
##29
##3
##30
##31
##32
##33
##34
##35
##36
##37
##38
##39
##4
##40
##41
##42
##43
##44
##45
##46
##47
##48
##49
##5
##50
##51
##52
##53
##54
##55
##56
##57
##58
##59
##6
##60
##61
##62
##63
##64
##65
##66
##67
##68
##69
##7
##70
##71
##72
##73
##74
##75
##76
##77
##78
##79
##8
##80
##81
##82
##83
##84
##85
##86
##87
##88
##89
##9
##90
##91
##92
##93
##94
##95
##96
##97
##98
##99
$
%
&
'
(
)
*
+
,
-
.
/
0
00
000
0002
0004
0006
001
002
003
004
005
006
007
008
009
01
010
011
012
013
014
015
016
0169
017
018
019
02
020
0203
021
022
023
024
025
026
0261
027
029
03
030
033
034
035
0362
037
038
039
04
040
041
042
047
048
049
05
050
055
058
06
060
061
064
066
067
068
07
070
073
075
077
08
080
09
090
092
095
1
10
100
1000
10000
1001
1002
1003
1006
1007
1008
101
1010
1011
1012
101207543
1014
101490
1015
1016
1017
1018
1019
102
1020
1021
1022
1023
1024
1025
1027
1028
1029
103
1030
10304263
1031
1032
1034
1035
1037
1038
1039
104
1040
1041
1042
104244355
1045
1046
1047
1048
1049
105
1050
1051
1054
1055
1056
1057
1058
105958830
106
1060
1063
1065
1066
1067
1068
107
1070
1071
1072
107212659
1073
107343683
1074
107442757
1075
1077
1078
108
1080
1081
1085
10855166
1086
1087
1088
1089
109
1090
1092
1093
1094
1095
1096
1097
1098
1099
11
110
1100
1101
1102
1103
110313893
1104
1105
1109
111
1110
1111
1113
1115
1118
111806251
112
1120
1121
1122
1124
1125
1126
1128
1129
113
1130
1131
1134
1135
1136
1137
1139
114
1140
1143
1144
1145
1146
1147
115
1150
1152
1154
1155
1156
1157
116
1160
1162
1163
1165538
117
1170
1173
1174
1176
1177
1178
118
1180
1183
1184
1185
1186
1187
1189
119
1190
1191
11917
1192
1193
1194
1195
1196
1198
1199
12
120
1200
1201
1202
1203
1204
1205
1206
1207
1208
1209
121
1210
1212
1213
1214
1215
1216
1217
1218
1219
122
1220
1221
1222
1223
1225
1226
1227
1229
123
1230
1234
1235
1236
1238
123885
1239
124
1240
1241
1242
1243
1245
1246
1247
1248
1249
125
1250
1252
1253
1254
1256
1257
1258
1259
126
1260
1261
1262
1264934
1265
1266
1267
1268
127
1270
1271
1272
1273
1274
1275
1276
1279
128
1280
1281
1282
1283
1284
1285
1288
1289
129
1290
1291
1292
1293
1294
1295
1296
1297
1298
1299
13
130
1300
1301
1302
1304
1305
1306
1307
1308
1309
131
1310
1311
1312
1313
1314
131454
1315
1316
1318
1319
132
1320
13219454
1322
1325
1326
1327
1328
1329
133
1330
1332
1333
1334
1335
1336
1337
1339
134
1340
1341
1342
1344
1345
1346
1347
1348
1349
135
1350
1351
1352
1353
1354
1355
13550863
1356
1359
136
1360
1361
1362
1363
1364
1365
1368
1369
137
1370
1371
1373
1374
1375
1375058
1377
1378
138
1380
1381
1382
1383
1384
1385
1386
1387
1388
1389
139
1390
1391
1392
1393
1394
1395
1396
1397
1398
1399
14
140
1400
1401
1402
1403
1404
1405
1406
1407
1408
1409
141
1410
1411
1412
1413
1414
1415
1416
1417
1418
1419
142
1420
1421
1422
1424
1425
1426
1427
1428
1429
143
1430
1431
1432
1433
1434
1435
1437
1438
1439
144
1440
1441
1442
1443
1444
1445
1446
1447
1448
1449
145
1450
1451
1452
1453
1454
1455
1456
1457
1458
1459
1459210
146
1460
1461
1462
1463
1464
1465
1466
1467
1468
1469
147
1470
1471
1472
1473
1474
1475
1476
1477
1478
1479
148
1480
1481
1482
1483
1484
1485
1486
1487
1488
1489
149
1490
1491
1492
1493
1494
1495
149514
1496
1497
1498
1499
15
150
1500
1501
1502
1503
1504
1505
1506
1507
1508
1509
151
1510
1511
1512
1513
1514
1515
1516
1517
1518
1519
152
1520
1521
1522
1523
1524
1525
1526
1527
1528
1529
153
1530
1531
1532
1533
1534
1535
1536
1537
1538
1539
154
1540
1541
1542
1543
1544
1545
1546
1547
1547776
1548
1549
155
1550
1551
1552
1553
1554
1555
1556
1557
1558
1559
156
1560
1561
1562
1563
1564
1565
1566
1567
1568
1569
157
1570
15706812
1571
1572
1573
1574
1575
1576
1577
1578
1579
158
1580
1581
1582
1583
1584
1585
1586
1587
1588
1589
159
1590
1591
1592
1593
1594
1595
1596
1597
1598
1599
16
160
1600
1601
1602
1603
1604
1605
1606
1607
1608
1609
161
1610
1611
1612
1613
1614
1615
1616
1617
1618
1619
162
1620
1621
1622
1623
1624
1625
1626
1627
1628
1629
163
1630
1631
1632
1633
1634
1635
1636
1637
1638
1639
164
1640
1641
1642
1643
1644
1645
1646
1647
1648
1649
165
1650
1651
1652
1653
1654
1655
1656
1657
1658
1659
166
1660
1661
1662
1663
1664
1665
1666
1667
1668
1669
167
1670
1671
1672
1673
1674
1675
1676
1677
1678
1679
168
1680
1681
1682
1683
1684
1685
1686
1687
1688
1689
169
1690
1691
1692
1693
1694
1695
1696
1697
1698
1699
17
170
1700
1701
170109
1702
1703
1704
1705
1706
17067223
1707
1708
1709
171
1710
1711
1712
1713
1714
1715
1716
1717
1718
1719
172
1720
1721
1722
1723
1724
1725
1726
1727
1728
1729
17299517
173
1730
1731
1732
1733
1734
1735
1736
1737
17378135
1738
1739
174
1740
1741
1742
1743
1744
1745
1746
1747
1748
1749
175
1750
1751
1752
1753
1754
1755
1756
1757
1758
1759
176
1760
1761
1762
1763
1764
1765
1766
1767
1768
1769
177
1770
1771
1772
1773
1774
1775
1776
1777
1778
1779
178
1780
1781
1781959
1782
1783
1784
1785
1786
1787
1788
1789
1789619
179
1790
1791
1792
1793
1794
1795
1796
1797
1798
1798125
1799
18
180
1800
1801
1802
1803
1804
1805
1806
1807
1808
1809
181
1810
1811
1812
1813
1814
1815
1816
1817
1818
1819
182
1820
1821
1822
1823
1824
1825
1826
1827
1828
1829
183
1830
1831
1832
1833
1834
1835
1836
1837
1838
1839
184
1840
1841
1842
1843
1844
18446
1845
1846
1847
1848
1849
185
1850
1851
1852
1853
1854
1855
1856
1857
1858
1859
186
1860
1861
1862
1863
1864
1865
1866
1867
1868
1869
18696256
187
1870
1871
1872
1873
1874
1875
1876
1877
1878
1879
188
1880
1881
1882
1883
1884
1885
1886
1887
1888
1889
189
1890
1891
1892
1893
1894
1895
1896
1897
1898
1899
19
190
1900
1901
1902
1903
1904
1905
1906
1907
1908
1909
19098835
191
1910
1911
1912
1913
1914
1915
1916
1917
1918
1919
192
1920
1921
1922
1923
1924
1925
1926
1927
19276262
1928
1929
193
1930
1931
1932
1933
1934
1935
193563
1936
1937
1938
1939
194
1940
1941
1942
1943
1944
1945
1946
1947
1948
1949
195
1950
1951
1952
1953
1954
1955
1956
1957
1958
1959
196
1960
1961
1962
1963
1964
1965
1966
1967
1968
1969
197
1970
1971
1972
1973
1974
1975
1976
1977
1978
1979
198
1980
1981
1982
1983
1984
1985
1986
1987
1988
1989
199
1990
19908137
1991
1992
1993
19938912
1994
1995
1996
1997
1998
1999
2
20
200
2000
2001
2002
2003
2004
2005
2006
2007
2008
2009
201
2010
2011
2012
2013
2014
2015
2016
2017
2018
2019
202
2020
202042
2021
2022
2023
2025
203
2030
204
205
2050
206
207
208
209
21
210
2100
211
212
213
214
21401824
21431157
21491701
215
216
217
217595
218
219
22
220
2200
221
222
223
224
225
226
227
228
229
23
230
2300
23023088
2307
231
232
233
234
235
236
23684016
237
237227
238
239
24
240
2400
241
242
24255573
243
244
245
246
2464
247
248
249
24933120
25
250
2500
251
2510
252
253
254
255
256
256507
257
258
2586178
259
26
260
2600
261
262
2629164
263
264
265
266
2664168
267
268
269
27
270
2700
271
272
273
27302
274
275
276
277
278
279
28
280
2800
281
282
283
284
285
286
287
2876969
2877812
288
2886420
289
29
290
291
292
293
294
295
296
297
298
29861311
299
3
30
300
3000
30059240
301
302
303
303140
304
304037
305
306
307
3077
308
309
31
310
3100478
311
312
313
314
315
316
3166
317
318
319
31964
32
320
3200
321
322
323
324
324303
325
326
327
328
329
33
330
331
332
333
334
3343389
335
336
337
338
339
34
340
3407324
341
342
343
344
345
346
347
348
349
35
350
3500
351
352
353
354
355
356
357
358
359
36
360
3600
361
362
3621644
363
364
365
36578
366
367
368
369
37
370
371
372
373
37312
374
375
376
377
378
379
38
380
381
382
383
384
384602
385
386
387
388
389
39
390
391
392
393
394
395
396
397
398
399
4
40
400
4000
401
402
403
404
405
406
407
408
409
41
410
411
412
413
4135787
414
415
41599984
416
41640909
417
418
419
42
420
421
422
423
4239850
424
4249594
425
426
427
428
429
429032
43
430
4301
431
432
433
4331
434
435
436
437
438
439
44
440
441
442
443
444
445
446
447
448
449
45
450
4500
451
452
453
454
455
456
457
458
459
46
460
461
462
463
464
464633
465
466
467
468
469
47
470
471
472
473
474
475
476
477
478
47887770
479
48
480
481
482
483
484
485
486
487
488
489
49
490
491
492
493
494
495
496
496126
497
498
499
5
50
500
5000
501
502
503
504
504063
505
506
5061737
507
508
509
51
510
511
512
513
514
515
516
517
518
519
52
520
521
522
523
523660
524
525
526
527
528
529
53
530
531
532
533
534
535
536
537
5375741
538
539
54
540
541
542
543
544
545
546
547
547473
548
54837
549
55
550
551
552
553
554
555
556
557
55740543
558
559
56
560
561
562
563
564
565
566
56691875
567
568
569
57
570
571
572
573
574
575
576
577
578
579
58
580
581
582
583
584
585
586
587
588
589
59
590
591
592
593
594
595
596
597
598
599
6
60
600
6000
601
602
6023365
602358
603
6036
604
605
606
607
608
609
61
610
611
612
613
61356138
614
615
616
617
618
619
62
620
621
622
623
624
625
626
627
628
629
63
630
63056
631
632
633
634
635
636
637
637413
638
639
64
640
641
642
643
644
645
646
647
648
649
65
650
651
652
653
654
655
656
657
658
659
66
660
661
662
663
664
665
666
667
668
669
67
670
671
67129259
672
673
674
675
676
677
678
679
68
680
681
682
683
684
685
686
687
688
689
69
690
691
692
693
694
694826
695
696
697
698
699
7
70
700
7000
701
702
703
704
705
706
707
708
709
71
710
711
7119
712
713
714
715
716
717
718
719
72
720
721
722
723
724
725
726
727
728
729
73
730
731
732
733
734
735
736
737
738
739
74
740
741
742
743
7432
744
745
746
746368
747
748
749
75
750
7509
751
752
753
754
7546
755
756
75653886
757
758
759
76
760
761
762
763
764
764739
765
766
767
768
769
77
770
771
7711
772
773
774
775
77541206
776
777
778
779
78
780
781
782
783
784
785
786
7864
787
788
789
79
790
791
792
793
794
795
796
797
7979
798
799
8
80
800
8000
801
8014
8018
802
803
804
8047
8048
805
806
807
808
809
81
810
810196
8108
811
812
813
814
815
816
817
818
819
82
820
821
822
823
824
825
826
827
828
829
829984
83
830
830106
831
832
833
83365652
834
835
836
837
838
839
84
840
841
84195
842
843
844
845
845937
846
847
848
849
85
850
851
852
853
854
8549233
855
856
857
858
859
86
860
861
862
863
864
865
866
867
868
869
87
870
871
87131
872
873
874
875
876
87691
877
878
879
88
880
881
882
883
884
884446
885
886
887
888
889
89
890
891
892
893
894
895
896
897
898
899
9
90
900
9000
901
902
903
904
905
906
907
9075
908
909
91
910
911
912
913
914
915
916
917
918
919
92
920
921
922
923
924
925
926
927
9272
928
929
93
930
931
932
933
934
935
936
937
938
939
94
940
941
942
943
944
945
946
947
948
949
95
950
951
952
952614
953
954
955
956
957
958
959
96
960
961
962
963
964
965
966
967
968
969
97
970
971
972
973
974
975
976
977
977378
978
9781884446054
979
98
980
981
982
983
984
985
986
987
98769076
988
98818
989
99
990
991
992
993
994
9941
995
996
997
9972
998
999
99928
99940
:
;
<
=
>
?
@
[
\
]
^
_
`
a
aa
aaron
ab
aba
abba
abbey
abc
abdul
abel
abgerufen
ability
abkhazia
about
above
abraham
abrams
abril
abroad
abs
absolute
abstract
abu
ac
acad
acade
academia
academic
academy
accademiadellescienze
access
accessdate
accessed
accident
according
account
accounts
accreditations
ace
achievement
acid
acm
acropyga
across
act
acta
acting
action
active
activist
activities
activity
actor
actors
actress
acts
actually
ad
ada
adam
adams
adaptation
adb
add
added
additional
address
adds
adele
adidas
adjust
adjusted
administration
administrative
adobe
adolf
adrian
adult
advance
advanced
advances
adventure
adventures
advisory
advocate
ae
aenictus
aerosmith
af
afa
affair
affairs
afghan
afghanistan
afi
afp
afraid
africa
african
africanus
afrique
afs
after
aftermath
ag
again
against
agaricus
age
aged
agence
agency
agenda
agent
ages
ago
agree
agreement
agricultural
agriculture
ah
ahead
ahmad
ahmed
ai
aid
aids
aim
ain
air
airbus
aircraft
aires
airlines
airport
airways
ais
aise
aj
ajax
ak
aka
akademie
akl
akon
al
alabama
alain
alan
alanis
alba
albania
albanian
albany
alben
albert
alberto
albrecht
album
albums
alejandro
alessandro
alex
alexa
alexander
alexandra
alexandre
alexandria
alexis
alfonso
alfred
algeria
ali
alice
alien
aligned
alison
alive
aliyev
alkindi
all
alla
allan
alle
allegro
allen
allgame
allgemeine
allgemeines
alliance
allman
allmovie
allmusic
almost
alone
along
alpha
already
alright
als
also
alt
alternative
although
alto
alumni
always
alzheimer
am
amanda
amanita
amazing
amazon
ambassador
ambebi
amblyopone
amblyoponinae
ame
america
american
americana
americans
americas
amid
amnesty
among
amor
amore
amounts
amour
ampas
amsterdam
amy
an
ana
analysis
analytical
anarchism
anarchist
anatomy
ancestry
ancient
and
andante
anderson
andorra
andre
andrea
andreas
andreeva
andrei
andrew
andrews
android
andy
angel
angela
angeles
angels
anger
anglo
angola
angry
ani
animal
animals
animated
animation
anime
ankara
anl
ann
anna
annales
annals
anne
annie
anniversary
annotated
announce
announced
announcement
announces
annuaire
annual
annuels
ano
anochetus
anon
anonychomyrma
another
ans
answer
answers
ant
antarctic
ante
anthem
anthology
anthony
anthropology
anti
antiquity
anto
antoine
antoinette
anton
antonia
antonio
antony
ants
any
anybody
anymore
anyone
anything
ao
aol
ap
apa
apache
apj
apocalypse
apollo
app
appeal
appearances
appears
apple
application
applications
applied
appointed
approach
approaches
approved
apr
april
aqua
ar
ara
arab
arabia
arabian
arabic
arago
aragonesa
arbor
arc
arcade
archaeological
archaeology
archi
archicad
architect
architects
architectural
architecture
archive
archived
archivedate
archiveis
archives
archiveurl
archivio
arctic
are
area
areas
arena
argentina
argentine
argentino
argos
argument
aria
arizona
ark
arm
arme
armed
armenia
armenian
armenians
armenpress
armies
armin
arms
armstrong
army
arnold
around
array
arrested
arrival
arrow
ars
arsenal
art
arte
arthur
article
articles
artillery
artist
artiste
artists
artpop
arts
artsakh
arxiv
as
ashgate
ashley
asia
asian
asiatic
asin
ask
asked
asociacio
asp
aspects
asperdaphne
aspx
assad
assassin
assault
assembly
assessment
assistance
associated
associates
association
associations
aston
astro
astronomical
astronomy
astrophysical
astrophysics
asturias
at
atari
atenas
atheism
atheist
athens
athletes
atlanta
atlantic
atlas
atle
atmosphere
atmospheric
atom
atomic
atp
att
attack
attacks
attempt
attractions
atu
au
auckland
audi
audio
auf
auflage
aug
august
augusta
auguste
augustus
aunamendi
aurora
aus
ausf
austin
australia
australian
australiancharts
australopithecus
austria
austrian
austriancharts
author
authorities
authority
authors
auto
autobiography
automatically
autonomous
autor
autumn
aux
av
available
avant
avec
avenue
average
avgvstvs
aviation
aviv
awakens
award
awarded
awards
away
awesome
axe
ay
ayn
az
azerbaijan
azerbaijani
azeri
azerpost
azərbaycan
b
ba
baa
babe
babelio
baby
babylon
bach
back
background
backstreet
bad
baden
bafta
bag
bahamas
bahrain
bailey
baker
baku
bakı
balance
balkan
balkans
ball
ballad
ballet
baltic
baltimore
ban
band
bang
bangkok
bangladesh
bank
banks
bankı
bar
barbara
barcelona
barclays
barnes
baron
barrett
barrier
barry
bars
barto
barton
bas
base
based
basel
bases
bashstat
basic
basil
basin
basingstoke
basis
basketball
bass
bat
bates
batman
battle
battles
bauer
bay
bayan
bayerische
bayern
bb
bbc
bc
bd
bdfutbol
be
beach
beam
bear
beast
beat
beatles
beats
beautiful
beauty
became
because
beck
becker
become
becomes
becoming
bee
been
beer
beethoven
before
began
begin
beginning
begins
behavior
behavioral
behaviour
behind
bei
beijing
being
beirut
bel
belarus
belediyye
belgian
belgium
belgrade
belief
believe
bell
bella
belle
bells
belong
below
belt
ben
benefit
benezit
benjamin
bennett
benson
bentham
benz
ber
berg
berger
berkeley
berlin
berliner
bern
bernard
bernhard
bernie
bernstein
berry
best
bet
beta
bethesda
better
betty
between
beweb
beyer
beyonce
beyond
bf
bg
bgmaps
bhutan
bi
bibcode
bibel
bibid
bible
bibliographisches
bibliography
biblioteca
bibliothe
bid
biden
big
bigger
biggest
bild
bill
billboard
billiards
billie
billion
billy
bin
bingen
bio
biodiversity
biografisk
biographical
biographie
biographies
biographique
biographisches
biography
biohazard
biological
biology
bios
bir
bird
birdlife
birds
birmingham
birth
birthday
bis
bishop
bit
bitcoin
biz
bjo
blabbermouth
black
blackout
blackwell
blade
blain
blair
blake
blanc
blank
blast
blender
blica
blind
block
blog
blogs
blogspot
blood
bloody
bloom
bloomberg
bloomington
bloomsbury
blow
blu
blue
blues
blueyonder
blunt
blur
bmatrix
bmi
bmw
bn
bnf
bo
boa
board
boat
bob
bobby
boca
bodies
body
boeing
bohemian
boletus
bolivia
bolton
bomb
bombs
bon
bond
bone
bones
bonn
bonner
bonnie
bonus
book
booker
books
boom
borat
border
borderline
borders
boris
born
borys
bosnia
bosnian
boss
boston
bosworth
botany
both
botswana
bottle
bottom
boulder
boulez
boundaries
bourbon
bowie
bowl
box
boy
boyd
boydell
boys
bp
bpi
br
bra
brad
bradley
brady
brain
branch
brand
brasil
bratislava
brave
bravo
brazil
brazilian
break
breakdown
breaking
breaks
breath
breathe
brenda
brendan
brent
brian
brick
bride
bridge
bridges
brief
brien
bright
brill
bring
brings
brit
britain
britannica
british
britney
britten
broadcast
broadcasting
broadway
brockhaus
broke
broken
bronze
brooklyn
brooks
bros
brother
brotherhood
brothers
brought
brown
browser
brozovic
bru
bruce
brunei
bruno
brussels
bryan
bt
bts
bu
buble
buch
buchanan
buck
buckley
budapest
buddhism
buddhist
budget
buenos
buffalo
bug
build
building
buildings
built
bulgaria
bulgarian
bull
bulletin
bureau
burke
burkina
burma
burn
burning
burns
burton
burundi
bury
bus
bush
business
but
butler
butterfly
buy
buys
bwv
by
byzantine
byzantium
c
ca
cabinet
cable
caesar
cafe
cage
cairo
cajt
calcio
calendar
california
call
called
calling
calls
calyptomyrmex
camarines
cambodia
cambridge
came
camel
camera
cameron
camp
campaign
campbell
campeonato
campo
camponotus
campus
can
canada
canadian
canal
canberra
cancer
candidate
candy
cannes
cannot
canon
canongate
canto
cantons
cap
capcom
cape
capital
capitalism
capitol
capo
captain
capture
car
carbon
card
cardiocondyla
cards
care
carebara
career
carey
caribbean
carl
carlo
carlos
carmen
carnegie
carnival
carol
carolina
caroline
carpenter
carpet
carr
carrie
carroll
carry
carter
cartoon
cas
casa
case
cases
cash
cast
castilla
castle
castro
cat
cataglyphis
catalana
catalog
catalogue
cataulacus
catch
category
cathedral
catherine
catholic
cato
caucasian
caucasus
caught
caulfield
causa
cause
causes
cave
cavendish
cbc
cbs
cc
cctld
cd
cdc
cdot
cds
ce
celebrates
celebrating
celebration
celebrity
cell
cells
celtic
censimento
censo
censos
census
cent
centenary
center
centers
central
centre
centro
centuries
century
ceo
cephalotes
cerapachyinae
cerapachys
ceremony
cerro
certain
certificate
certification
certifications
certified
cervantes
cf
cfm
cg
cgi
ch
cha
chad
chain
chairman
challenge
challenges
chamber
chamberlain
chambers
champion
champions
championship
championships
chan
chance
chang
change
changed
changes
changing
channel
chaos
chapman
chapter
character
characteristics
characters
charge
charles
charlie
charlotte
chart
charter
charting
charts
chartverfolgung
chase
che
chechen
chechnya
check
checklist
cheek
chelsea
chem
chemical
chemistry
chen
cher
cherry
chess
chessgames
chi
chicago
chief
child
childhood
children
chile
chili
china
chinese
chisholm
chocolate
choice
choisir
chomsky
choose
chris
christ
christgau
christian
christianity
christians
christie
christina
christine
christmas
christoph
christopher
chronicle
chronicles
chronologie
chronology
chuck
church
churches
churchill
ci
cia
cid
cild
cilt
cinema
circle
circus
cis
cit
citation
cite
cited
citeref
cities
citizen
citizens
citizenship
city
citypopulation
ciudad
civil
civilian
civilians
civilization
ck
cl
claim
claims
claire
clan
clapton
clara
clarendon
clark
clarke
clash
class
classe
classement
classic
classical
classics
classifica
classification
claude
claudia
claudio
clavatula
cle
clean
clear
clements
cleveland
click
clifford
climate
clinical
clinton
clio
clive
clock
clojure
close
closed
closer
cloud
clouds
club
clubs
cluster
cm
cn
cnet
cnn
co
coach
coalition
coast
coastal
coauthors
cockerell
code
codes
codex
coe
coffee
cognitive
cohen
coins
col
cola
cold
coldplay
cole
coleman
colin
coll
collaboration
collapse
collar
collected
collection
collections
collective
collector
college
collider
collins
colombia
colonial
color
colorado
colors
colour
columbia
columbus
column
com
combat
combined
come
comeback
comedy
comes
comfortably
comic
comics
coming
comingsoon
comitas
command
commander
comment
commentary
comments
commerce
commercial
commission
commissioner
committee
commodore
common
commons
commonwealth
communication
communications
communism
communist
communities
community
como
compact
companies
companion
company
comparative
comparison
competition
competitive
competitiveness
compilation
compiled
complete
completed
complex
composer
composers
composition
compounds
comprehensive
compton
computer
computers
computing
comte
comune
con
concept
concepts
concerning
concert
concerto
concise
concrete
conde
condition
conditions
conference
confessions
confirmed
confirms
conflict
conflicts
confusion
congo
congress
congressional
conn
connect
connecticut
connection
connor
conor
conquest
consequence
consequences
conservation
conservative
considered
console
consortium
conspiracy
constant
constantine
constantinople
constitution
constitutional
construction
consultado
consumer
contact
contains
contemporary
content
contest
context
continental
continue
continues
continuum
contract
contribution
contributions
control
controls
controversy
convention
conversation
conversations
cook
cooke
cooking
cool
cooper
cooperation
coordination
copa
copenhagen
copies
copley
copy
copyright
core
cornell
corner
coronavirus
corp
corporate
corporation
corps
corpus
correspondence
corruption
cortinarius
cos
cosmic
cosmos
cost
costa
could
council
count
countdown
counter
counties
countries
country
counts
county
coup
course
court
cov
cover
coverage
covers
covid
cowboy
cox
cph
cr
cra
craft
craig
cranberries
crash
crassispira
crawford
crazy
crc
cre
create
created
creating
creation
creative
creator
credit
credits
creed
creek
crew
crime
crimea
crimes
criminal
crimson
crisis
critic
critical
criticism
critics
critique
cro
croatia
croatian
cross
crown
cruise
crusade
crusader
crusades
cruz
cry
crystal
cs
css
ct
ctor
cu
cuba
cuban
cuisine
culo
cult
cultura
cultural
culture
cultures
cum
cup
cups
cure
curios
currency
current
currently
curtis
customs
cut
cv
cw
cy
cycle
cynthia
cyphomyrmex
cyprus
cyril
cyrus
cystic
cz
czech
d
da
dad
daddy
daft
dag
daily
dal
dale
dall
dallas
dam
damage
dame
dan
dana
dance
dancer
dancing
danger
dangerous
daniel
danish
danishcharts
danmark
danny
dans
dansk
daphnella
dar
dari
dark
darkness
darmstadt
darwin
das
data
database
date
dates
dating
datos
daughter
dave
david
davidson
davies
davis
dawn
day
days
db
dc
dd
de
dead
deadline
deadly
deal
dean
dear
death
deaths
debate
deborah
debussy
debut
debuts
dec
decade
decades
decca
december
decided
decision
declaration
declared
decline
decree
decrescente
dedicated
deep
def
default
defeat
defence
defender
defense
defined
definition
definitive
degli
degree
degrees
dei
del
delarge
delegation
delhi
dell
della
delle
dello
delmer
delta
deluxe
dem
demand
demo
democracy
democratic
demographic
den
denis
denise
denmark
dennis
density
denver
departamento
department
depeche
depression
dept
depth
depuis
deputy
der
derby
derek
des
description
desert
design
desire
despite
destination
destiny
destroy
destroyed
destruction
det
detail
detailed
details
detroit
deutsch
deutsche
deutschen
deutscher
deutsches
deutschland
deux
developer
developing
development
developments
devil
devlet
df
dhabi
dhe
di
dia
diacamma
dialogue
diamond
diamonds
diana
diane
diaries
diario
diary
dias
diaspora
diccionario
dick
dictionary
dictionnaire
did
didn
die
died
diego
dies
dieter
dietrich
difference
different
difficult
dig
digest
digital
din
dinamo
dio
dion
diplomacy
diplomat
diplomatic
dir
dire
direct
direction
director
directorate
directors
directory
dirt
dirty
disaster
disc
disco
discography
discogs
discos
discothyrea
discover
discovered
discovery
discrimination
discusses
discussion
disease
diseases
disney
disorder
disorders
display
displaystyle
dissertation
distance
distant
distribution
district
districts
distrito
dition
ditions
diversity
divided
divine
division
divorce
dizionario
dj
django
djokovic
dk
dl
dmoz
dna
do
doc
docs
doctor
doctrine
document
documentary
documentation
documents
does
doesn
dog
dogg
dogs
doi
doing
dolichoderinae
dolichoderus
dollar
dolphin
dom
domain
domestic
dominic
domino
don
donald
done
donisthorpe
donna
doom
door
doors
dorothy
dorylinae
dorylus
dorymyrmex
dos
dossier
dot
double
doubleday
doubt
douglas
dove
dover
down
download
downloads
dp
dq
dr
draft
dragon
drake
drama
draw
dre
dream
dreamcast
dreaming
dreams
dreamworks
dresden
dress
drink
drive
driver
driving
drop
drowned
drug
drugs
drum
dry
ds
dt
dtd
dti
du
dub
dubai
dublin
duc
duchess
duck
due
duke
dumbarton
duncan
duncker
duo
dur
duran
durch
during
dust
dutch
dutchcharts
duty
dvd
dw
dwarf
dx
dy
dying
dylan
dynamic
dynamics
dynamo
dynasties
dynasty
dz
e
ea
each
eagle
eagles
earl
earlier
earliest
early
earth
earthquake
east
easter
eastern
easy
eat
eb
ebert
ebmer
ec
echo
echoes
ecitoninae
eck
eclipse
ecological
ecology
economic
economics
economist
economy
ectatomminae
ecuador
ed
eden
eder
edgar
edge
edicio
edilməsi
edinburgh
edit
edited
edition
editions
editor
editore
editores
editorial
editors
editura
edizioni
edmund
eds
edu
eduardo
education
educational
edward
edwards
edwin
ee
eesti
effect
effects
eg
egg
egypt
egyptian
eh
ehrafworldcultures
ei
eight
eighteenth
ein
eine
einer
eines
einstein
ek
el
elder
eleanor
elected
election
elections
electoral
electric
electronic
electronics
element
elements
elena
elephant
elevation
eli
elias
elisabeth
elite
elizabeth
elle
ellen
elliott
ellis
elo
else
elsevier
elton
elvis
em
email
emaps
embassy
emergence
emergency
emerson
emery
emi
emil
emilia
emily
eminem
emirates
emma
emmanuel
emmy
emmys
emotional
empereurs
emperor
emperors
empire
empires
empress
empty
en
encarta
enciclope
enciclopedia
enciclopedianavarra
enciklopedija
encore
encyclopaedia
encyclopedia
encyclopædia
end
ended
ending
endless
ends
enemy
energy
eng
engine
engineering
england
english
enigma
enough
enrique
ensemble
enter
enterprise
enterprises
entertainment
entire
entre
entry
environment
environmental
enya
ep
epic
episode
epsilon
equality
er
era
eric
erich
erik
ernest
ernst
error
es
esa
esc
escape
esctoday
eso
espan
espn
essay
essays
essential
est
esta
established
establishment
estadi
estadio
estado
estate
este
estimates
estimativas
estonia
estonian
et
etc
eternal
ethics
ethiopia
ethiopian
ethnic
ethnicity
ethnologue
eu
eua
eugene
eur
eurasia
eurasian
eurhopalothrix
euro
eurobasket
eurogamer
euronews
europa
europe
european
eurovision
eus
eusebius
euskaltzaindia
eusko
ev
eva
evaluation
evan
evans
eve
even
evening
event
events
ever
every
everybody
everyone
everything
evic
evidence
evil
evolution
evolutionary
ew
ex
example
excel
exception
excerpt
exchange
exclusive
executive
exercise
exhibition
exile
exit
exitos
exo
exodus
exoplanet
exoplanets
expand
expanded
expansion
expected
expedition
experience
experiment
experimental
expert
explains
exploration
explore
explorer
exploring
explosion
expo
express
expression
extended
extensive
external
extinction
extra
extrasolar
extreme
eye
eyes
ez
f
fa
faber
face
facebook
faces
facing
fact
factbook
factfinder
factor
factors
factory
facts
faculty
failed
failure
fair
faire
faith
fake
fall
fallen
falling
fallout
falls
false
fame
families
family
famous
fan
fans
fantastic
fantasy
fao
faq
far
farewell
farm
farmer
fashion
faso
fast
fat
fate
father
favorite
fbi
fc
fe
fear
fears
feat
feature
features
featuring
feb
february
federal
federation
federazione
federer
feel
feeling
feet
felix
fellows
fellowship
female
fembio
feminist
femme
ferdinand
ferguson
ferna
fernandes
fernando
ferry
fest
festival
fever
few
ff
fi
fiba
fibrosis
fica
fico
fiction
fide
field
fields
fifa
fifth
fifty
fight
fighter
fighters
fighting
figure
figures
fiji
file
files
film
filming
filmportal
films
filter
fimi
fin
final
finale
finally
finals
finance
financial
find
finding
finds
fine
finger
finland
finnish
finnishcharts
fire
firefox
firm
first
fischer
fish
fisher
fishing
five
flag
flags
flame
flaming
flash
fleming
flesh
fletcher
flickr
flight
flood
floor
flora
florence
florida
flow
flower
flowers
floyd
fly
flying
fm
fo
focus
folk
folklore
follow
following
fonogramas
foo
food
foods
fool
foot
football
footballdatabase
footballers
footballfacts
for
forbes
forbidden
force
forced
forces
ford
foreign
forel
forest
forever
forget
forgotten
form
format
formation
former
formerly
formica
formicidae
formicinae
forms
fort
fortress
fortune
forty
forum
forward
fossil
foster
found
foundation
foundations
founder
four
fourth
fox
fr
fra
frac
fragile
fragments
frame
framework
franc
france
frances
francesco
francis
francisco
franco
frank
frankfurt
frankfurter
franklin
franz
fraser
frauendatenbank
fre
fred
freddie
frederic
frederick
free
freedom
freeman
french
frequency
frequently
fresh
friday
friedman
friedrich
friend
friendly
friends
friendship
fritz
from
front
frontier
frontiers
frost
frozen
fru
fruit
ft
fu
fuck
fue
fuel
full
fun
function
fund
fundacio
fundamental
funeral
fungi
fungorum
funk
funny
furious
further
fury
futbol
futebol
futuna
future
fx
g
ga
gabon
gabriel
gaga
gal
gala
galaxies
galaxy
gale
galicia
gallagher
gallery
gambia
game
gamecube
gamepro
gamer
gamerankings
games
gamespot
gamespy
gaming
gamma
gandhi
gang
gangsta
gao
gaon
gap
garbage
garci
garcia
garde
garden
gardens
gardner
garland
garry
gary
gas
gate
gates
gateway
gave
gavin
gay
gazeta
gazette
gazetteer
gb
gc
gdp
ge
gear
geforce
gemeinden
gemeindeverzeichnis
gemmula
gen
gender
gene
genealogie
genealogy
geneastar
general
generation
genes
genesis
genetic
genetics
geneva
genius
genocide
genome
genus
geo
geoff
geoffrey
geogra
geographic
geographical
geography
geohive
geological
geology
geometry
geonames
geonet
geophysical
georg
george
georges
georgia
georgian
geospatial
ger
gerald
gerard
gerhard
gerlista
german
germany
geschichte
gesellschaft
gest
get
gets
getting
getty
gfk
ghana
ghost
ghosts
gi
giant
giants
gibson
gif
gift
gig
gil
gilbert
gill
gilmour
gimme
gina
gion
giovanni
girl
girls
giuseppe
give
given
gives
gks
gl
glacier
glanville
glasgow
glass
glee
glenn
gli
global
globalization
globalsecurity
globe
globo
gloria
glory
glossary
gm
gmbh
gnamptogenys
gnome
gnu
go
goal
goals
gob
god
gods
goes
gogh
going
gold
goldberg
golden
goldman
goldstein
gone
gonna
gonza
gonzaga
good
goodbye
goodreads
google
gordon
gorillaz
gorman
got
gov
governance
government
governor
govt
gp
gps
gq
gr
gra
grace
graduate
graf
graham
grammar
grammy
gran
granada
grand
grande
grant
graphemica
graphic
graphics
grave
gravity
gray
gre
great
greater
greatest
greece
greek
green
greene
greenwood
greg
gregory
grey
griffin
griffiths
gross
ground
group
groups
grove
grow
growing
growth
große
gru
grundy
grup
gruyter
grzybo
gsm
gt
gta
gtx
gu
guard
guardian
guatemala
guerra
guerre
guest
guevara
guez
guide
guides
guild
guillaume
guinea
guinness
guitar
gukansho
gulf
gun
guns
gustav
gutenberg
guy
gymnast
gymnastics
h
ha
haaretz
haber
habitat
habsburg
hachette
hackett
had
hague
hahn
hail
hair
haiti
hakimiyyəti
hal
hale
half
hall
ham
hamburg
hamilton
hammer
hammond
han
hand
handbook
handbuch
hands
hangfelve
hanna
hannah
hannover
hans
hansen
happened
happiness
happy
haqqında
har
harcourt
hard
hardcover
hardware
harmony
harold
harper
harpercollins
harris
harrison
harry
hart
harv
harvard
harvest
harvey
has
hassan
hat
hate
haus
have
haven
having
hawaii
hay
hbo
hcl
hd
he
head
heading
heads
health
hear
heard
hearst
heart
hearts
heat
heather
heaven
heavy
hebrew
hedges
heep
heidelberg
height
heinemann
heinrich
heinz
held
helen
helena
hell
hellenic
hello
helmut
help
helsinki
henderson
henri
henry
her
herald
herbert
here
heritage
herman
hermann
hero
heroes
herzegovina
het
hey
hezbollah
hg
hi
hidden
hide
hier
high
higher
highest
highlights
highly
highway
hikr
hilary
hill
hills
hilton
him
himars
himself
hindu
hint
hip
his
histo
histoire
historia
historian
historians
historic
historical
histories
historiography
historique
historische
history
hit
hitler
hitlisten
hitparade
hitparadeitalia
hits
hl
hms
hno
ho
hobbit
hockey
hof
hold
holding
holdings
holds
hole
holiday
holidays
holland
hollywood
holmes
holocaust
holt
holy
home
homeland
homepage
homme
homo
hon
honey
hong
honolulu
honor
honorary
honoris
honors
honour
honours
hood
hoover
hop
hope
hopes
hopkins
horizon
horizons
horn
horror
horse
hospital
host
hot
hotel
hotels
houghton
houndmills
hour
hours
house
household
households
houses
housewives
housing
houston
hovannisian
how
howard
howe
however
hp
hr
href
hrer
hrsg
hrung
hrvatska
htc
htm
html
http
https
hu
hub
hubble
hudson
huffington
hugh
hughes
hugo
hui
human
humanitarian
humanities
humanity
humans
humblot
hundred
hung
hungarian
hungary
hunger
hunt
hunter
hunting
hur
hurricane
husband
hy
hymenoptera
i
ia
ian
iana
iata
iau
ibdb
iberia
ibge
ibm
ibn
ic
icao
icarus
ice
iceland
ich
icon
icty
id
ida
idea
ideas
identification
identities
identity
ideology
idh
idol
ie
ieee
ietf
if
ifpi
ign
igor
ii
iii
ik
ikaskuntza
il
ilham
ili
ill
illegal
illinois
illusion
illustrated
im
image
images
imagination
imagine
imax
imdb
imedinews
imf
immigration
immortal
imp
impact
imperial
implementation
implications
import
importance
important
impossible
imslp
in
ina
inc
inch
incident
include
includes
including
income
incorporated
incorporates
independence
independent
independiente
index
indexes
india
indian
indiana
indianapolis
indians
indicators
indigenous
individual
indo
indonesia
indonesian
industria
industrial
industries
industry
ine
infinite
infinity
influence
influential
info
infodisc
informacio
informasiya
information
informer
infty
initial
initiative
injury
ink
inner
innovation
inocybe
inorganic
input
inquirer
inquiry
inquisitor
inscribed
inside
insider
insight
inspired
instagram
institut
institute
institution
institutions
instituto
instrumental
instruments
int
intangible
inte
integrated
integration
intel
intellectual
intelligence
inter
interactive
interest
interfax
interior
internacional
internal
international
internationale
internazionale
internet
interplay
interpressnews
interpret
interpretation
interscope
interstellar
intervention
interview
interviews
into
intro
introducing
introduction
invaders
invalid
invasion
investigation
investment
invisible
io
ioc
ios
ip
ipa
ipad
iphone
iq
ir
ira
iran
iranian
iranica
iraq
ireland
iridomyrmex
irish
irma
iron
irving
is
isaac
isabel
isabela
isabella
isbn
iscategory
isis
isla
islam
islamic
island
islands
isle
isn
iso
israel
israeli
iss
issn
issue
issues
ist
istanbul
istituto
it
italia
italian
italiana
italiancharts
italiani
italiano
italy
itau
item
itf
ithaca
itis
its
itself
itunes
itv
iu
iucn
iupac
iv
ivan
ives
iw
ix
iz
j
ja
jaaroverzichten
jack
jackson
jacob
jacobs
jacques
jag
jaguar
jahrbuch
jahre
jahrescharts
jahreshitparade
jahrhundert
jakarta
jam
jamaica
james
jamie
jamiroquai
jan
jane
janeiro
janet
january
japan
japanese
japon
jarre
jason
java
javascript
javier
jay
jazeera
jazz
je
jean
jeanne
jedi
jeff
jefferson
jeffrey
jenkins
jenner
jennifer
jenny
jeremy
jerome
jerry
jersey
jerusalem
jesse
jessica
jesus
jet
jethro
jewish
jews
ji
jill
jim
jimmy
jin
jo
joa
joachim
joan
joanne
job
jobs
joe
joel
johan
johann
johannes
john
johnny
johns
johnson
johnston
join
joins
joint
jon
jonathan
jones
jong
jordan
jorge
jose
josef
joseph
josh
joshua
journal
journalist
journalists
journals
journey
jovi
joy
joyce
jp
jpg
jr
jstor
ju
juan
judas
jude
judge
judith
judoinside
judy
jul
jules
julho
julia
julian
julie
julio
julius
july
jump
jun
june
jung
jungle
junior
jupiter
jurassic
jusqu
just
justice
justin
juventus
k
ka
kai
kaiser
kan
kane
kansas
karabakh
karel
karen
karin
karl
kate
katherine
kathleen
kathryn
katie
katy
kaufman
kay
kazakhstan
kazhdan
kb
ke
keane
keep
kegan
keith
kelly
ken
kendrick
kennedy
kenneth
kent
kentucky
kenya
kepler
kept
kermia
kershaw
kevin
key
keys
kg
kh
khan
kharkiv
ki
kiado
kick
kid
kids
kiev
kill
killed
killer
killers
killing
kills
kim
kind
kindle
kindred
king
kingdom
kings
kino
kira
kiribati
kirk
kiss
kiste
kit
kitchen
klaus
klein
klm
klopp
km
knaw
knew
knight
knights
knopf
know
knowledge
known
knows
ko
koch
koda
kojima
komitəsi
konami
kondolojy
kong
konrad
korea
korean
kos
kosovo
kotaku
kr
kraftwerk
krako
kramer
kreis
kremlin
kro
kroll
ks
ku
kultur
kumar
kunst
kurdish
kurt
kuwait
kv
kw
kyiv
kyle
kyoto
kyrgyzstan
kz
l
la
lab
label
labor
laboratory
labour
lac
ladan
ladies
lady
lago
laissez
lake
lakes
lamar
lamb
lambda
lambert
lan
lana
land
landkreis
lands
landscape
lane
lang
language
languages
langue
lanham
lanka
laos
lapse
lar
large
larger
largest
larry
lars
larsson
las
lasioglossum
last
late
later
latest
latimes
latin
latina
latvia
latvian
launch
launches
laura
laureate
laureates
lauren
laurence
laurent
law
lawrence
laws
lay
layer
layout
lc
lcd
ld
le
lead
leader
leaders
leadership
leading
leads
leaf
league
learn
learned
learning
least
leave
leaves
leaving
lebanese
lebanon
leben
lebron
leccinum
lecture
lectures
led
lee
left
leg
legacy
legal
legend
legendary
legends
legislation
lego
leibniz
leicester
leiden
leigh
leipzig
leksikon
len
lennon
lenta
leo
leon
leonard
leonardo
leopold
lepiota
leptogenys
ler
les
lesbian
lescharts
leslie
less
lessons
let
letter
letters
lettres
leucosyrinx
level
levels
levy
lewis
lexicon
lexikon
lexington
ley
lez
lg
lgbt
lgu
li
lia
liam
lib
liber
liberal
liberalism
liberation
libertarian
libertarianism
liberty
libraries
library
libre
libris
librivox
libya
license
lie
lies
lietuvos
life
lifetime
liga
light
lightmedia
lightning
lights
like
likely
lil
lily
lim
lima
limited
limits
lin
lincoln
linda
lindsay
line
linepithema
liner
lines
linguistic
linguistics
link
linkin
links
linux
lion
lionel
liquid
lis
lisa
lisboa
lisbon
list
lista
liste
listed
listen
listing
lists
lit
literary
literatur
literature
lithuania
lithuanian
little
littlefield
liu
live
liverpool
lives
living
livre
ll
llc
ller
lloyd
ln
lo
load
loc
local
location
locations
lock
locke
lockheed
log
logic
logo
logos
london
lonely
lonesome
long
longer
longman
longplay
longrightarrow
look
looking
looks
lopez
lord
lordomyrma
lords
lorenzo
lorraine
los
lose
loses
losing
loss
lost
lot
louis
louise
love
loved
lover
lovers
loves
loving
low
lower
lp
ls
lt
ltd
lu
lua
luc
lucas
lucasfilm
lucky
lucy
ludwig
lui
luigi
luis
luke
lulu
lumia
luna
lund
lundy
lungsod
lust
luther
luxembourg
lv
ly
lynch
lynn
lynne
lynx
lyon
lyrics
lzmk
m
ma
mac
macdonald
macedonia
macedonian
machine
mackay
macmillan
mactutor
mad
madagascar
madame
made
madison
madness
madonna
madrid
magazine
magdalena
magic
magical
magnetic
magnitude
magyar
mahasz
mahler
mai
maiden
mail
main
mainstream
maintained
mainz
mais
maison
major
mak
make
maker
makes
making
malawi
malaysia
malcolm
male
mali
malta
mama
mammal
mammals
man
management
manager
manchester
mandalorian
manfred
manhattan
manila
mann
manning
manual
manuel
manuscript
manuscripts
many
map
mapa
mapping
maps
mar
mara
maradona
marc
marca
marcel
marcelo
march
marco
marcus
mare
marek
margaret
mari
maria
marie
marillion
marilyn
marina
marine
marinespecies
mario
marion
maritime
mariupol
mark
market
marketing
markets
marks
marley
maroon
marriage
married
marriott
marry
mars
marsh
marshall
mart
martha
marti
martin
marvel
marx
mary
maryland
mas
mashke
mason
mass
massachusetts
massacre
masses
massive
master
masterpiece
masters
match
matches
material
materials
math
mathbb
mathbf
mathematical
mathematics
mathers
mathrm
mathsf
matrix
matsne
matt
matter
matters
matthew
matthews
matthias
maurice
max
maximum
maxwell
may
maya
maybe
mayer
mayo
mayor
mayr
mb
mbox
mc
mccarthy
mccartney
mcdonald
mcfarland
mcgraw
md
me
mean
meaning
means
meat
mechanics
med
medal
media
medical
medici
medicine
medien
medieval
mediterranean
medium
medley
meet
meeting
meets
mega
megacharts
megan
mehmed
mehmet
mein
melbourne
melissa
melody
member
members
membership
membres
memoir
memoirs
memorial
memories
memory
men
mend
mental
menu
mer
meranoplus
mercedes
mercury
mercy
meredith
merriam
mes
mesa
message
messenger
messi
messiaen
messier
met
meta
metacritic
metal
metallica
metcalf
meteoblue
meteorological
method
methods
metro
metrolyrics
metropolitan
mexican
mexicana
mexico
meyer
mez
mfa
mg
mgm
mi
mia
miami
michael
michel
michelin
michelle
michigan
micro
microsoft
mid
middle
midnight
mie
mifflin
mig
might
migration
miguel
mike
mikhail
mil
milan
milano
mile
miles
military
milk
millennium
miller
milli
millington
million
millions
milliyet
mills
milton
min
mind
minds
mine
mineral
mini
mining
ministe
minister
ministers
ministry
minneapolis
minnesota
minor
minorities
minority
minute
minutes
mir
miracle
miranda
mirror
mises
mismatch
miss
missile
missing
mission
missions
missouri
mit
mitch
mitchell
mitglieder
mitsubishi
mix
mixed
mk
mm
mn
mo
mobile
moby
mobygames
mod
mode
model
modeler
models
modern
module
moi
mojo
moldova
molecular
mom
moment
momentary
moments
mon
monaco
monarch
monarchy
monastery
monday
monde
monetary
money
mongolia
monica
monitor
monitoring
monkey
monroe
monster
monsters
mont
monte
montenegro
montgomery
month
monthly
months
montreal
monument
monumental
monuments
moon
moonlight
moore
moral
more
morgan
morissette
morning
morocco
morris
morrison
mort
mos
moscow
moskva
mosque
most
motel
mother
motion
motor
motors
mount
mountain
mountains
mouse
mouth
move
movement
movements
moves
movie
movies
moving
mozambique
mozart
mozilla
mp
mr
mrs
ms
msn
msnbc
mt
mtr
mtv
mu
much
muhammad
multi
multiple
mun
mundo
munich
munici
municipal
municipalities
municipality
municipio
municipios
munzinger
murder
murphy
murray
muse
museo
museum
museums
mushrooms
music
musica
musical
musicale
musicbrainz
musician
musicians
musicline
musiikkituottajat
musik
musique
muslim
muslims
must
mustafa
mute
mv
mvp
mw
mx
my
myanmar
mycobank
myers
mylo
myopias
myself
myspace
mysql
mysterious
mystery
myth
mythology
myths
məlumat
n
na
nabla
nach
nacional
nacionalna
nacl
naco
nadal
nagorno
nail
naked
nam
name
named
names
namibia
nancy
naoh
napoleon
napoli
narod
narrative
nas
nasa
nash
nat
natalie
nathan
nation
national
nationalbibliothek
nationale
nationalencyklopedin
nationalism
nations
native
nato
natur
natural
nature
naval
navy
nazi
nazionale
nb
nba
nbc
nc
nchen
ncipe
nct
nd
nde
ndez
ndia
ne
near
nearly
nebula
nec
ned
nederlandse
need
needed
needs
neil
neill
neivamyrmex
nel
nellie
nelson
neo
neoliberalism
nepal
nes
net
netflix
netgazeti
netherlands
network
networks
neue
neuroscience
never
new
newcastle
newly
newman
news
newsletter
newspaper
newspapers
newsweek
newton
next
nez
nfl
ng
nga
ngc
nh
ni
nia
nica
nicaragua
nice
nicholas
nichols
nicht
nick
nickelback
nickelodeon
nico
nicola
nicolas
nicole
nicolson
nie
nielsen
nien
nig
nigel
niger
nigeria
night
nightmare
nights
nightwish
nih
nija
nil
nin
nina
nine
nineteenth
nintendo
ninth
nio
nirvana
nis
nisan
niue
nj
nl
nm
nme
nn
nndb
no
noah
noam
nobel
nobelprize
noble
nobody
noel
noi
noir
noise
nokia
nolan
nom
nomenclature
nomination
nominations
nominees
non
none
noosfere
nor
nord
nordic
normal
norman
norske
norte
north
northern
norton
norway
norwegian
norwegiancharts
nos
not
notable
note
notes
nothing
notice
notices
notorious
notre
nous
nouveau
nouvelle
nov
nova
novads
novak
novel
novels
november
novo
novosti
now
nowhere
nplg
npr
nr
ns
nster
nstlerlexikon
nsw
nt
nu
nuclear
nueva
nuevo
null
numb
number
numbers
nussbaum
ny
nyc
nytimes
nz
nzibati
o
oak
oaks
oasis
ob
obama
obituaries
obituary
object
objective
objects
oblast
oblivion
observations
observatory
observer
oc
occupation
occupied
ocean
oceania
oceans
och
oclc
oct
october
od
oder
odyssey
oecd
oesterreich
of
off
offensive
offers
office
officer
official
officialcharts
officially
officials
officiel
offizielle
offiziellecharts
oficial
oficjalna
often
og
oh
ohio
oil
ois
ok
okato
oklahoma
okres
ol
ola
old
older
oldest
oldfield
ole
olga
olimpbase
olis
oliver
olivia
olivier
olympedia
olympic
olympics
om
oman
omar
omega
omnibus
on
once
one
onepage
oneplus
ones
oneself
online
only
ono
onore
ontario
ontology
onze
op
opc
open
opengl
opening
opens
opera
operation
operations
opinion
opposition
ops
option
options
opus
or
ora
oral
orange
orchestra
order
orders
ordinary
ordre
orectognathus
oregon
org
organic
organisation
organization
organizations
oricon
orient
oriental
origin
original
originally
originals
origins
orion
orlando
orle
orleans
oro
orr
orthodox
orthodoxy
os
oscar
oscars
oslo
osmanlı
osprey
ost
osvaldo
ot
other
others
ottawa
otto
ottoman
ou
oup
our
out
outbreak
outlook
outside
ov
over
overseas
overview
owen
own
owner
oxford
oxyge
oxygene
oz
p
pa
pablo
pac
pacific
pack
package
page
pages
pai
paid
pain
paint
painting
paintings
pair
pairs
pakistan
pal
palace
palestine
palestinian
palgrave
palm
palmer
pamela
pan
panama
panarmenian
panel
pangasinan
panorama
pantheon
panther
panzer
paolo
papa
paper
paperback
papers
papua
par
para
parade
paradise
paradox
paraguay
parallel
parameter
paramount
parc
parents
paris
park
parker
parks
parliament
parliamentary
parlophone
parque
parsons
part
partial
particle
partido
parties
partner
partners
partnership
parts
party
pas
pass
passes
passion
past
pat
path
patience
patients
patricia
patrick
patterns
paul
paula
paulo
pay
payne
pays
paz
pb
pbs
pc
pdf
pe
peace
peak
peaks
pearl
pearson
pedro
peerage
pele
pen
penguin
peninsula
penn
pennsylvania
pentagon
people
peoples
pepper
peppers
per
percent
perfect
perform
performance
performing
period
periods
perkins
perl
permanent
perrin
perry
pers
perseus
persia
persian
person
personal
personality
personen
persons
perspective
perspectives
peru
pet
pete
peter
peters
petersburg
peterson
petit
pew
pez
pfa
pg
ph
phantom
phase
phd
pheidologeton
phi
phil
philadelphia
philatlas
philip
philippe
philippine
philippines
philips
phillips
philosophical
philosophy
phoenix
phone
phonographic
phonographique
photo
photographs
photography
photos
php
phys
physical
physics
physiology
pi
piano
pick
picks
picture
pictures
pid
pie
piece
pieces
pierre
pierrend
pilot
pilots
pink
pioneer
pios
piper
pitchfork
pittsburgh
piu
pixar
pl
placar
place
placenames
places
plagiolepis
plain
plan
plane
planet
planetary
planets
planning
plans
plant
plants
plastic
plate
plateau
platform
platinum
plato
play
playboy
played
player
players
playing
playoffs
plays
playstation
plc
please
pleasure
pleurotomella
plos
plot
plus
pluto
pm
pmc
pmid
pnas
png
pno
po
poblacio
pocket
podomyrma
poe
poems
poet
poetry
poets
point
points
poker
poland
polar
pole
poli
police
policies
policy
polis
polish
political
politico
politics
politik
poll
pollution
polski
polydor
polygon
polyrhachis
ponerinae
pong
ponsonby
pool
poor
pop
pope
popmatters
popper
populac
popular
population
populations
por
porcupine
port
portable
portal
porter
portishead
porto
portrait
portraits
portugal
portuguese
portuguesecharts
position
positions
positive
possible
post
postal
pot
potential
potter
pour
poverty
powell
power
powerful
powers
pp
pr
pra
practical
practice
practices
praeger
prague
praha
pravda
pray
prayer
pre
preface
prefecture
prehistory
preliminary
premier
premiere
premio
premios
prentice
prepared
presence
present
presentation
presented
presents
presidency
president
presidente
presidential
presidents
press
presse
presses
pressure
pretty
prevention
preview
previous
prezidentinin
pri
price
pride
prima
primary
prime
primer
primera
primetime
prince
princes
princess
princeton
principle
principles
print
printing
prison
pristomyrmex
private
prix
prize
prizes
pro
probably
problem
problems
proc
proceedings
process
processes
prodejni
prodigy
produced
producer
producers
product
production
productions
productores
products
produkte
prof
professional
professor
profile
profiles
program
programme
programming
programs
progress
progressive
project
projects
proleksis
prometheus
promotion
propaganda
properties
property
prophet
prosecutor
prosopographique
prospects
protect
protected
protection
protest
protests
protocol
proud
province
provinces
provincia
provincial
ps
psa
pseudolasius
pseudomyrmecinae
psgc
psp
psychiatry
psycho
psychological
psychology
pt
pu
pub
public
publication
publications
publique
published
publisher
publishers
publishing
puerto
pulse
pumpkins
punk
puppets
pure
purple
push
put
putin
putnam
pwp
q
qadınlar
qarabag
qatar
qs
qu
quad
quality
quantum
quarter
quarterly
quba
que
queen
queens
quercus
query
quest
question
questions
queue
quezon
qui
quick
quiet
quo
quoted
quotes
qızı
qərb
r
ra
rabbit
race
rachel
racing
rada
radiation
radical
radio
radiohead
radiotavisupleba
rafael
rage
rahman
rail
railway
rain
rainbow
rainfall
ral
ralph
ram
ramo
ramos
ran
rand
randall
random
range
ranked
ranking
rankings
rap
raphitoma
rapid
rapp
rapports
rard
rare
ras
rat
rate
rates
rather
ratings
ration
rattle
raven
raw
ray
raymond
rayon
rayonu
rb
rc
rca
rd
rdoba
re
reach
reaction
read
reader
reading
ready
reagan
real
realism
reality
really
reason
reasons
rebecca
rebel
rebellion
rebels
rec
receive
received
receives
recent
recipes
recipients
recognition
recommendations
reconstruction
record
recorded
recording
recordings
records
recovery
red
redir
rediscovering
reed
reef
ref
reference
references
reflections
reform
refugee
refugees
regarding
regime
regina
region
regional
regions
register
registration
regnum
regular
regulation
reich
reid
reign
relapse
related
relation
relations
relationship
release
released
releases
religion
religions
religious
remain
remains
remastered
remember
remembering
remix
remixes
ren
renaissance
rendez
rene
rep
report
reported
reporter
reporting
reports
represent
representative
representatives
reprint
reprinted
reprise
repu
repubblica
republic
republican
republika
reputation
request
required
res
rescue
research
reserve
residence
resident
residents
resistance
resolution
resource
resources
respect
response
respublikası
respublikasının
rest
restoration
result
results
resurrection
retail
retired
retreat
retrieved
retro
return
returns
reuters
rev
reveal
revealed
reveals
revelations
revenge
review
reviewed
reviews
revised
revision
revisited
revista
revival
revolution
revolutionary
revolutions
revolver
revue
rex
rey
reynolds
rez
rg
rgen
rhapsody
rho
rhythm
rhytidoponera
ri
ria
riaa
riaj
ric
rica
ricardo
rice
rich
richard
richards
richardson
richmond
richter
rick
rico
ricordi
ride
ridge
riding
rie
right
rightarrow
rights
riley
ring
ringo
rings
rio
riot
rise
rises
rising
risk
rita
rite
ritter
ritual
river
rivers
rk
rkdartists
rkiye
rkəmli
rl
rm
rn
ro
road
rob
robbie
robert
robertchristgau
roberto
roberts
robertson
robin
robinson
robot
rock
rocket
rocks
rockstar
rodgers
rodri
rodriguez
roger
rogeria
rogers
roglo
roi
rois
roland
role
roll
rolling
rollingstone
rom
roma
roman
romance
romania
romanian
rome
ron
ronald
ronaldo
ronnie
room
roosevelt
root
roots
ros
rosa
rosario
rose
rosen
roses
ross
rossi
rosstat
rostov
roth
rothbard
rotten
rough
round
route
routledge
rovi
row
rowman
roxette
roy
royal
royale
rpg
rpm
rriyet
rs
rss
rsssf
rt
rte
ru
rubber
rube
rubin
rudolf
rugby
rule
rulers
rules
ruling
rumi
run
runciman
runner
running
rural
rus
rush
russell
russia
russian
russians
rutgers
ruth
rw
rwanda
rxi
ry
ryan
s
sa
saba
sabah
sabbath
sachsen
sacred
sad
sadie
safe
safety
saga
sage
sahara
said
saint
saints
sal
salaverri
sale
sales
sally
salt
salvador
salzburg
sam
same
samsung
samuel
san
sanctions
sand
sanders
sandman
sandra
sans
sant
santa
santana
santiago
santo
santos
santschi
sar
sara
sarah
sarajevo
sars
sasanian
sasha
satellite
saturday
saturn
saucerful
saudi
saur
savage
savante
save
saved
savoy
saw
saxon
say
says
sb
sbs
sc
scale
scalia
scandal
scarecrow
scene
scenes
schaeff
scheda
schedule
schmidt
schneider
scho
schoenberg
scholar
scholarly
scholars
school
schools
schuster
schwartz
schweiz
schweizer
sci
science
sciences
scientific
scientist
scientists
scooter
score
scored
scores
scorpions
scotland
scott
scottish
scream
screen
scribner
script
scrolls
sculpture
sd
se
sea
seal
sean
search
searchable
seas
season
seasons
seat
seattle
sebastian
sec
second
seconds
secret
secretariat
secretary
secrets
section
sector
secular
security
see
seek
seen
sega
segu
sein
seine
seismic
seit
select
selected
selection
self
sell
selling
semi
sen
senate
senator
send
senegal
senior
seniu
sense
sentinel
seoul
sep
separation
sept
september
sequel
sequence
ser
sera
serbia
serbian
sergio
serie
series
serious
server
service
services
ses
session
sessions
set
seth
setlist
sets
settlement
settlements
seven
seventh
several
sevilla
sex
sexo
sexual
sf
sfn
sg
sgae
sgt
sh
shadow
shadows
shady
shah
shake
shall
shanghai
shape
shaped
share
shared
shares
sharon
sharp
sharpe
shattuck
shaw
she
sheet
sheffield
shell
shelling
shepherd
sherlock
shi
shift
shine
ship
ships
shirley
sho
shock
shoes
shoot
shooting
shop
shore
short
shostakovich
shot
should
show
showbuzzdaily
showing
shows
showtime
shtml
si
sica
sich
sid
side
sides
sidney
sie
siege
sierra
sig
sight
sigma
sign
signed
significant
signs
sigur
silence
silent
silk
silva
silver
sim
simon
simple
simply
simpson
simpsons
sims
sin
since
sinclair
sing
singapore
singer
singh
singing
single
singles
sings
sino
sio
sir
sistemi
sister
sisters
site
sites
sitio
situation
six
sixteenth
sixth
siyahıyaalınması
size
sk
ska
sketch
ski
skies
skin
sky
skyrim
sla
slam
slant
slate
slave
slavery
slavic
sleep
sleeping
slim
slovak
slovakia
slovenia
slow
sm
smail
small
smart
smashing
smile
smith
smithsonian
smoke
sn
snac
snake
snep
snooker
snoop
snow
so
sobory
sobre
soc
socar
soccer
soccerbase
soccernet
soccerway
social
socialism
socialist
socie
societies
society
sociology
sofia
soft
software
softworks
soil
sol
solar
sold
soldier
soldiers
solenopsis
solid
solo
solomon
solution
som
somalia
some
somebody
someone
something
sometimes
somewhere
son
song
songs
sonic
sons
sony
soon
sophia
sophie
sorrow
sorry
soul
souls
sound
sounds
soundtrack
source
sources
sous
south
southeast
southern
sovereign
sovereignty
soviet
sp
spa
space
spacecraft
spaghetti
spain
span
spanish
spanishcharts
speak
speaker
speakers
speaking
speaks
spears
special
species
specifications
spectrum
speculative
speech
speed
speer
spencer
spice
spider
spiegel
spin
spirit
spirits
spiritual
split
sport
sportall
sporting
sports
spot
spotlight
sprache
spread
spring
springer
sprzedaz
spurs
sputnik
sputnikmusic
spy
sql
sqrt
squad
square
sr
src
sri
ss
ssr
st
sta
staatsbibliothek
stability
stable
stadium
stadt
staff
stage
stalin
stan
stanbul
stand
standard
standards
standing
stanford
stanley
star
starr
starring
stars
start
started
starts
starwars
stat
state
statement
states
statesman
static
station
stations
statistical
statisticians
statistics
statistik
statistika
statistikportal
statoids
stats
status
stay
ste
steam
steel
stefan
steffen
stein
steiner
stellar
step
stephan
stephanie
stephen
steps
sterling
stern
sterreich
sterreichischen
steve
steven
stevens
stewart
stica
still
sting
stm
sto
stock
stockholm
stokkermans
stone
stones
stop
store
storia
storico
stories
storm
story
straight
straits
strange
stranger
strangers
strategic
strategies
strategy
strauss
stravinsky
stray
stream
street
streets
strike
strikes
string
stroke
strong
structural
structure
structures
struggle
stuart
student
students
studien
studies
studio
studios
study
stuff
stuttgart
style
styles
su
sua
sub
subject
subjects
submarine
subst
success
successful
succession
such
suche
suchen
sudan
sue
sugababes
sugar
suicide
suite
sul
sullivan
sultan
sulzberger
sum
summary
summer
summit
summitpost
sun
sunday
sung
sunrise
sunset
sunshine
suny
suomen
super
superior
supernatural
superstar
supplement
supply
support
supreme
sur
sure
surface
surgery
surprise
surrender
survey
survival
survivor
sus
susan
sustainable
sutton
suv
suzanne
sv
svenska
sverige
sveriges
sverigetopplistan
svg
swan
sweden
swedish
swedishcharts
sweet
swift
swing
swiss
swisscharts
switch
switzerland
sword
syd
sydney
symbian
symbol
symbols
syme
symphony
symposium
syndicat
syndrome
synopsis
synthesis
syracuse
syria
syrian
system
systematic
systems
szlo
szo
səh
t
ta
tab
table
tables
tabula
tactical
tag
tail
taiwan
take
taken
takes
taking
tal
tale
talent
tales
taliban
talk
talking
talks
tall
tamil
tan
tangerine
tango
tank
tanks
tanzania
tapes
tapinoma
tarantino
target
targets
tarih
tarihi
tarixi
task
tass
taste
tat
tatra
tau
tauris
tax
taxonomic
taylor
tb
tbilisi
tbol
tc
tcm
tcp
td
te
tea
teacher
teaching
team
teams
tear
tears
teau
tech
technical
technique
technologies
technology
technomyrmex
ted
teen
teenage
tehran
tel
telegraph
telephone
telescope
television
tell
tells
temperature
temperatures
template
temple
tempo
temps
ten
tennessee
tennis
ter
teresa
term
terms
terra
territorial
territories
territory
terror
terrorism
terrorist
terry
tes
tesla
test
testament
tetraponera
texas
text
texte
texts
th
tha
thai
thailand
thames
than
thank
that
the
theater
theatre
theft
theguardian
their
them
theme
themselves
then
theodor
theodore
theories
theory
therapy
there
these
thesis
they
thgen
thin
thing
things
think
thinking
third
thirty
this
thom
thomas
thompson
thomson
thor
those
though
thought
thoughts
thousand
thousands
threat
threatened
three
thriller
thrones
through
thunder
thursday
ti
tibet
tibetan
tica
ticket
tico
tid
tie
tier
ties
tiger
til
till
tim
timaticweb
time
timeline
times
timor
timothy
tin
tina
tiny
tio
tirana
titel
title
titles
titsingh
tlc
tm
to
tobias
today
todd
together
tokyo
told
tolkien
toll
tom
toma
tomas
tomatoes
tomb
tome
tommy
tomo
tomorrow
tonga
tongue
tonight
tony
too
took
tool
tools
top
topic
topics
tops
tor
torino
toronto
torre
torres
total
tottenham
touch
toumanoff
tour
tourism
tourist
tourists
tournament
tours
tous
toward
towards
tower
towers
town
towns
toy
tr
tra
track
tracks
tracy
trade
tradition
traditional
traditions
traffic
tragedy
tragic
trail
trailer
train
training
trance
trans
transaction
transactions
transcript
transfer
transfermarkt
transformation
transit
transition
translated
translation
translations
translator
transmission
transport
transportation
travel
travels
travis
tre
treadgold
treasure
treatment
treaty
trebizond
tree
trees
trek
trend
trends
tres
trevor
trial
triangle
tribe
tribunal
tribune
tribute
tricholoma
trick
trilogy
trinidad
trio
trip
triple
tristan
triumph
tro
trofeo
troops
trophy
tropical
trouble
true
trump
trust
truth
try
trying
ts
tsn
tt
ttingen
tu
tubular
tucker
tudes
tuesday
tull
tupac
turismo
turkey
turkish
turkmenistan
turks
turn
turned
turner
turning
turns
turridae
turris
tuvalu
tv
twelve
twentieth
twenty
twice
twilight
twin
twitter
two
txt
tyler
type
types
tz
təsnifatı
u
ua
uae
ubisoft
ubuntu
uc
ucla
uefa
ufc
uganda
uh
uk
ukraine
ukrainian
ukrinform
ul
ulrich
ultimate
ultra
ultratop
um
uma
umbrella
un
una
unchained
uncle
uncut
und
under
underground
understanding
underworld
undp
une
unep
unesco
unfinished
uni
unicef
unicode
union
unique
unit
united
units
unity
univ
universal
universe
universidad
universita
universite
universities
university
unix
unknown
unofficial
unspecified
unter
until
unveils
unwin
up
upcoming
update
updated
updates
upon
upper
uprising
ups
ur
urban
uriah
url
uruguay
us
usa
usage
usaid
use
used
user
uses
usgs
using
uss
ussr
usually
ut
utc
utd
uv
uzbekistan
v
va
vaccine
vaccines
val
vald
valencia
valentine
valle
valley
valois
value
values
valve
vampire
van
vancouver
vanity
vanuatu
var
vargas
variations
variety
various
varley
varphi
vatican
vault
ve
vec
ved
vegas
vegetti
velvet
venduti
venezuela
venice
venus
ver
vera
verde
verge
verlag
version
versions
versus
vertigo
verve
very
vetse
vevo
vg
vh
vi
via
viacom
vic
vice
victims
victor
victoria
victorian
victory
vida
video
videogramas
videos
vie
vienna
vietnam
view
views
vii
viii
viking
vikings
vila
villa
village
villages
ville
vin
vincent
vintage
vinyl
violence
virgin
virginia
virtual
virus
visa
visible
vision
visions
visit
visited
visitor
visitors
visits
vista
visual
vita
vitamin
viva
vivo
vladimir
vlət
vo
vocal
vogue
voice
voices
void
vol
volcanism
volcano
vollenhovia
vologda
vols
volume
volumes
vom
von
voodoo
vor
vote
voted
vous
vox
voyage
voyager
vs
vu
vum
vy
və
w
wa
wagner
wailers
wait
waiting
wake
wales
walk
walker
walking
wall
wallace
wallis
walls
walsh
walt
walter
waltz
wan
wang
wanna
want
wanted
wants
war
ward
ware
warfare
warm
warner
warning
warren
warrior
warriors
wars
warsaw
warszawa
was
washington
watch
water
waters
watson
watts
wave
waves
way
wayback
wayne
ways
wc
wcm
we
wealth
weapon
weapons
weather
web
webarchive
webb
webcitation
webelements
weber
webpage
website
webster
wedding
wednesday
week
weekend
weekly
weeks
weidenfeld
weight
welch
welcome
welcomes
welfare
well
welle
wells
welsh
welt
wembley
wendy
wenner
went
were
werner
wesley
west
western
westminster
westport
westview
wet
whale
what
whatever
whc
wheel
wheeler
wheels
when
where
which
while
white
whitney
who
whole
whom
whose
why
wi
wide
width
wie
wien
wiener
wiesbaden
wife
wii
wiki
wikidata
wikimedia
wikipedia
wikisource
wild
wilderness
wildlife
wiley
wilhelm
will
willem
william
williams
williamson
wilson
wimbledon
win
wind
window
windows
windsor
wine
wing
wings
winner
winners
winning
wins
winston
winter
wipo
wire
wired
wisconsin
wisdom
wise
wish
wissen
wissenschaften
with
within
without
witness
wives
wizz
wk
wo
wolf
wolfenstein
wolff
wolfgang
woman
women
won
wonder
wonderful
wonderland
wood
word
wordpress
words
work
workers
working
works
workshop
world
worldcat
worldfootball
worlds
worldsnooker
worldwide
worst
worth
would
wounded
wp
wps
wrestling
wright
write
writer
writers
writing
writings
written
wrong
wrote
wta
wu
wurzbach
wwe
wwf
www
x
xbox
xi
xico
xii
xiii
xinhua
xinjiang
xitos
xiv
xix
xl
xls
xml
xmlhttp
xu
xv
xvi
xvii
xviii
xx
xxi
xxii
xxiii
xxiv
xxv
xxvi
xxvii
xxx
y
ya
yahoo
yale
yang
yas
yayınevi
yayınları
ye
yeah
year
yearbook
years
yellow
yemen
yeni
yerevan
yes
yesterday
yet
yg
yi
yksopp
yo
yoko
york
yorker
you
young
your
yours
yourself
youth
youtube
yu
yugoslav
yugoslavia
yuxarı
z
za
zagreb
zaman
ze
zealand
zeit
zeitschrift
zeitung
zelensky
zenimax
zeppelin
zero
zh
zhang
zi
zimbabwe
zipcodezoo
zobbel
zobrazit
zoe
zone
zones
zoo
zpav
zu
zum
zur
zwischen
zyıl
{
|
}
~
¡
£
§
©
ª
«
¬
­
®
¯
°
±
²
³
´
µ
·
¹
º
»
¼
½
¾
¿
×
ß
æ
÷
ø
ı
ın
ł
ŋ
ɐ
ɑ
ɔ
ə
əhalisinin
ərazi
ərq
əti
ɛ
ɪ
ʃ
ʒ
ʰ
ʲ
ʷ
ʹ
ʻ
ʼ
ʾ
ʿ
ˈ
ˌ
ː
˘
˙
˜
̀
́
̂
̃
̄
̆
̇
̈
̉
̊
̋
̌
̏
̓
̔
̛
̝
̞
̣
̥
̦
̧
̨
̩
̪
̮
̯
̱
̲
̸
͂
ͅ
͜
͡
΄
α
ας
β
γ
δ
δα
ε
η
θ
ι
και
λ
μ
μα
ν
νη
νος
ξ
ο
ου
π
ρ
ς
σ
τ
της
το
του
υ
φ
χ
ψ
ω
ϕ
ϵ
а
абхазии
абхазия
августа
агентство
административно
административное
администрации
азербаи
азии
аи
акад
академии
академия
акты
александр
александра
александрович
алексеева
алексеи
али
алиев
альбом
ан
англ
англии
андреи
анна
антон
апреля
армении
армения
армии
армянская
армянскои
археологии
архив
архивировано
архивы
архитектура
архитектуры
асср
аст
астрель
б
баи
баку
банк
башкортостан
бе
без
белая
библиотека
биографическии
биография
богородицы
божиеи
бои
большая
большои
борис
брокгауз
брокгауза
будет
был
в
ва
василии
васильевич
вв
ведомости
века
веков
великои
верховного
верховноі
вестник
вече
видатних
видео
виктор
вка
владимир
владимирович
власти
во
военно
вои
вопросы
воспоминания
восток
востока
восточная
восточнои
времени
время
все
всероссии
всех
второи
выдающихся
вып
выпуск
від
г
газ
газета
гаи
гарри
гбу
гг
геи
генеалогия
география
георгиевскии
георгии
герои
гл
глава
го
год
года
году
годъ
годы
горбачевич
город
города
городов
городские
городских
городского
городскои
гос
государственная
государственного
государственнои
государственныи
гражданства
границ
границах
грибы
грузии
грузинскии
грузинского
грузинскои
грузия
губернии
д
да
давид
данные
данных
дата
два
дворец
двух
де
деи
декабря
делам
деление
дело
дель
день
дж
джан
джана
джане
джанская
джанскии
джанского
джанскои
динамо
для
дмитрии
дня
до
дом
дома
дон
дона
донскои
дону
доп
др
древнеи
древнии
древностеи
е
евгении
евреи
европа
европеи
европы
его
единыи
ее
епархия
ереван
есть
ефрон
ефрона
еще
ж
же
женщинах
животных
жизни
жизнь
журнал
жінок
з
за
завод
заде
закон
записки
зелинскии
значения
зрителеи
и
иван
иванов
иванович
игорь
из
известия
изд
издание
издат
издательство
издаје
иконы
ил
или
ильхам
им
имена
имени
империи
имя
ин
институт
института
интервью
интернет
информация
иоанна
искусства
искусство
испр
исследования
истории
историко
историческая
историческии
история
итоги
их
июля
июня
иҫке
к
ка
кавказ
кавказа
кавказе
кавказскии
кавказскои
кавказскіи
казахстан
как
календарь
калининград
канал
карта
каспаров
каталог
ки
киев
кино
китаи
киі
классических
классическои
клуб
кн
книга
книги
комитет
коммерсантъ
константин
краеведческии
краи
красная
краткая
краткии
края
кто
кубок
культура
культурного
культуры
куторга
л
ла
латвии
леи
лениздат
ленина
ленинград
ленинграда
лет
летию
летопись
ли
линдер
литература
литературная
литературы
лович
лучших
любкер
любкеру
людеи
люди
ліквідацію
м
маи
македонија
марта
матери
материалы
матч
махачкала
мая
ме
между
международныи
меня
место
мецниереба
миграции
министерства
министерство
мир
мира
мировои
михаи
михаил
мои
монархи
монастырь
монастыря
москва
москве
москвы
московскии
московского
мост
мостов
мостотрест
мосты
музеи
музея
муниципалитета
муниципального
муниципальных
мы
мысль
н
на
набережные
над
названии
названы
народа
народов
населе
населения
наследия
наук
наука
науки
научно
национальнои
национальныи
начала
начало
не
ни
нижегородская
николаевич
николаи
николая
нным
но
нов
новая
новиков
новое
новости
новые
новыи
норинт
ноября
нська
ны
ныи
о
об
области
область
образовании
обращения
общества
общество
общие
община
объекты
округа
октября
он
она
онов
онів
описание
определитель
општина
осетии
осетия
основы
островов
от
отв
отечественнои
отчет
официальныи
очерк
очерки
п
павел
памяти
памятник
памятники
памятников
память
парк
партии
педагогики
пер
первая
первои
первыи
перевод
переписи
перепись
перераб
период
петербург
петербурга
петербурге
петербургская
петра
петрович
площадеи
площадь
по
повесть
под
покрова
полное
портал
портале
после
постановление
почему
правда
правительства
православная
православнои
президент
президента
президиума
пресвятои
пресс
при
приложение
про
проблемы
проверено
проект
происхождении
против
прохоров
птицы
пунктам
путеводитель
р
ра
ради
радио
развитие
развития
раздел
раи
ран
распоряжение
реальныи
регионального
ред
редактор
реи
рек
река
републички
республик
республика
республике
республики
риа
рождества
россии
россия
ростов
ростова
ростове
ростовскои
росіи
рсфср
ру
рус
русская
русские
русскии
русских
русского
русскои
рф
рыжов
с
саи
самоуправлении
самоуправлениях
сан
санкт
сб
сборник
св
сведения
свои
свято
святого
святои
севернои
северо
сегодня
сезона
сеи
села
село
сентября
сергеи
серия
ск
ска
ская
ские
скии
ских
ского
ское
скои
словарь
служба
со
собор
собора
собрание
совет
совета
советская
советскии
советского
советскои
сост
состав
софия
союз
союза
спартак
спб
список
спорт
справочник
србије
сср
ссср
ст
стадион
стал
сталина
статистика
статистике
статистики
статистику
статья
ства
ство
степнов
стр
стран
страница
страницы
страны
строи
сухуми
сша
т
та
таблица
таганрог
таганрога
таи
так
тасс
тб
тбилиси
те
театр
текст
территориальное
территории
тип
тифлис
тифлись
то
том
томах
томск
тр
три
троицы
труды
ты
у
указ
украины
украі
улиц
университет
университета
управление
устрои
утворення
уфа
участие
ф
факты
фе
февраля
федеральная
федерации
физкультура
филологии
фильм
фис
формате
фото
фотографии
футбол
футбола
футболистов
футболу
х
хабиров
хабло
хозяи
храм
храма
храмы
хроника
хх
ц
центр
центральныи
церкви
церковь
ч
чаи
часть
че
человек
человека
чемпионат
чемпионата
честь
численность
что
чудотворца
ш
шахматы
ших
школа
штампа
ъ
ы
ь
э
экз
электронныи
энциклопедии
энциклопедическии
энциклопедия
это
ю
южнои
юрии
я
язык
языка
языке
языки
январь
января
яңы
є
і
інформаціі
ѣ
ә
ө
՝
ա
բ
բառարան
գ
ե
եւ
է
թ
ի
կ
հայաստանի
հարակից
մ
ն
շրջանների
վ
տեղանունների
և
։
ְ
ֲ
ִ
ֵ
ֶ
ַ
ָ
ֹ
ּ
ׁ
א
ב
ג
ד
ה
ו
ח
י
כ
ל
ם
מ
ן
נ
ע
פ
צ
ק
ר
ש
ת
،
ا
الا
الله
ب
بن
ة
ج
د
ر
س
ش
ص
ط
ع
عبد
ق
ل
م
محمد
منطقة
ن
ناحية
و
ي
ً
َ
ُ
ِ
ّ
ْ
ٓ
ٔ
ٕ
ँ
ं
ः
क
ख
ग
च
ज
ट
ड
ण
त
थ
द
ध
न
प
फ
ब
भ
म
य
र
ल
व
श
ष
स
ह
़
ा
ि
ी
ु
ू
ृ
े
ै
ो
ौ
्
ং
ক
খ
গ
জ
ত
দ
ন
প
ব
ম
য
র
ল
শ
স
হ
়
া
ি
ী
ু
ে
্
க
ச
ட
த
ன
ப
ம
ய
ர
ல
வ
ா
ி
ு
ெ
ே
ை
்
ం
జ
ర
ల
ా
ి
ు
్
್
്
ක
ත
ද
න
ර
ල
ස
්
ා
ි
ු
ෙ
ก
ข
ง
จ
ช
ด
ต
น
บ
ป
พ
ม
ร
ว
ศ
ส
อ
ั
ิ
ี
ึ
ื
ุ
ู
็
่
้
์
ັ
་
༌
།
ག
ང
ད
ན
པ
བ
མ
ར
ལ
ས
ི
ུ
ེ
ོ
ྒ
ྱ
ྲ
က
င
တ
န
ပ
မ
ရ
ာ
ိ
ု
ေ
့
း
်
ျ
ြ
ა
ააგეს
ააგო
ააოხრა
ააოხრეს
აარონ
ააფეთქეს
ააშენა
ააშენეს
აბ
აბა
აბაზური
აბაკანოვოს
აბანო
აბანოები
აბანოს
აბას
აბასთუმანში
აბასთუმნის
აბასი
აბასიანთა
აბასის
აბასმა
აბატი
აბაშა
აბაშის
აბაშიძე
აბაშიძის
აბდ
აბდელ
აბდულ
აბდულა
აბდულაევი
აბელ
აბესალომ
აბესაძე
აბზელილოვოს
აბლაბუდისებრი
აბო
აბორიგენები
აბორიგენების
აბორიგენი
აბორიგენული
აბრაამ
აბრამიშვილი
აბრაჰამ
აბრევიატურა
აბრეშუმი
აბრეშუმის
აბრუნებს
აბსიდი
აბსიდით
აბსიდის
აბსოლუტურ
აბსოლუტურად
აბსოლუტური
აბსტრაქტულ
აბსტრაქტული
აბუ
აბულ
აბულაძე
აბულაძის
აბჯარი
აგარაკი
აგდებს
აგება
აგებას
აგებდა
აგებდნენ
აგებენ
აგების
აგებს
აგებულ
აგებულება
აგებულებას
აგებულებით
აგებულების
აგებული
აგებულია
აგენტები
აგენტების
აგენტი
აგენტის
აგვისტო
აგვისტოდან
აგვისტომდე
აგვისტოს
აგვისტოში
აგზავნის
აგლომერაცია
აგლომერაციაში
აგლომერაციის
აგნეს
აგნესა
აგრარულ
აგრარული
აგრეთვე
აგრესია
აგრესიის
აგრესიული
აგრესტი
აგრიპა
აგრიპას
აგრიპინა
აგროვებდა
აგროვებდნენ
აგროვებენ
აგროვებს
აგრონომი
აგრძელებდა
აგრძელებდნენ
აგრძელებენ
აგრძელებს
აგური
აგურით
აგურითა
აგურითაა
აგურის
აგურისაა
აგურიც
ად
ადა
ადათ
ადამ
ადამი
ადამია
ადამიანად
ადამიანამდე
ადამიანებზე
ადამიანებთან
ადამიანები
ადამიანებით
ადამიანების
ადამიანებისა
ადამიანებისთვის
ადამიანებმა
ადამიანებს
ადამიანებში
ადამიანზე
ადამიანთა
ადამიანთან
ადამიანი
ადამიანია
ადამიანიდან
ადამიანით
ადამიანის
ადამიანისა
ადამიანისათვის
ადამიანისგან
ადამიანისთვის
ადამიანმა
ადამიანს
ადამიანურ
ადამიანური
ადამიანში
ადამის
ადამსი
ადამსის
ადანაშაულებდა
ადანაშაულებდნენ
ადანაშაულებს
ადაპტაცია
ადაპტაციის
ადაპტირებული
ადარებენ
ადარებს
ადარნასე
ადასტურებდა
ადასტურებენ
ადასტურებს
ადგას
ადგენდა
ადგენენ
ადგენს
ადგილ
ადგილად
ადგილამდე
ადგილას
ადგილებზე
ადგილები
ადგილებია
ადგილებიდან
ადგილების
ადგილებს
ადგილებში
ადგილზე
ადგილზეა
ადგილზევე
ადგილი
ადგილია
ადგილიანი
ადგილიდან
ადგილით
ადგილის
ადგილისათვის
ადგილისთვის
ადგილმდებარეობა
ადგილმდებარეობის
ადგილობრივ
ადგილობრივად
ადგილობრივები
ადგილობრივების
ადგილობრივებს
ადგილობრივთა
ადგილობრივი
ადგილობრივმა
ადგილს
ადგილსამყოფელი
ადგილში
ადგილწარმოშობის
ადევნებდა
ადეკვატური
ადელაიდა
ადელაიდას
ადვილად
ადვილი
ადვილია
ადვოკატთა
ადვოკატი
ადვოკატის
ადიგენის
ადილ
ადის
ადიუტანტი
ადიღეური
ადიშის
ადლერი
ადმ
ადმინისტრატორი
ადმინისტრაცია
ადმინისტრაციამ
ადმინისტრაციას
ადმინისტრაციაში
ადმინისტრაციის
ადმინისტრაციულ
ადმინისტრაციულად
ადმინისტრაციული
ადმინისტრირების
ადმირალ
ადმირალი
ადოლფ
ადოლფი
ადრე
ადრევე
ადრეულ
ადრეული
ადრეც
ადრიან
ადრიანე
ადრიანეს
ადრიანოპოლის
ადრიატიკის
ადრინდელ
ადრინდელი
აეკრძალა
აეკრძალათ
აერთებს
აერთიანებდა
აერთიანებენ
აერთიანებს
აეროდრომი
აეროპორტი
აეროპორტია
აეროპორტიდან
აეროპორტის
აეროპორტს
აეროპორტში
აერჩია
აერჩიათ
აეღო
აეღოთ
აეშენებინა
აეშენებინათ
აეცილებინა
აეცილებინათ
ავ
ავად
ავადმყოფი
ავადმყოფის
ავადმყოფობა
ავადმყოფობის
ავალიანი
ავალიშვილი
ავანგარდული
ავარიის
ავგუსტ
ავგუსტა
ავგუსტი
ავგუსტუსი
ავგუსტუსის
ავგუსტუსმა
ავეჯი
ავეჯის
ავთანდილ
ავთენტური
ავთვისებიანი
ავი
ავიაკომპანია
ავიაციის
ავიდა
ავიდნენ
ავივი
ავივის
ავივში
ავითარებდა
ავითარებს
ავილის
ავინიონის
ავირჩიოთ
ავლაბარი
ავლაბრის
ავლენს
ავრორა
ავრცელებდა
ავრცელებდნენ
ავრცელებს
ავსებენ
ავსებს
ავსტრალია
ავსტრალიამ
ავსტრალიას
ავსტრალიასა
ავსტრალიაში
ავსტრალიელი
ავსტრალიის
ავსტრალიისა
ავსტრალიურ
ავსტრალიური
ავსტრალოპითეკ
ავსტრია
ავსტრიამ
ავსტრიას
ავსტრიასა
ავსტრიასთან
ავსტრიაში
ავსტრიელ
ავსტრიელები
ავსტრიელზე
ავსტრიელი
ავსტრიელის
ავსტრიელმა
ავსტრიის
ავსტრიისა
ავსტრიულ
ავსტრიული
ავსტრო
ავტ
ავტო
ავტობიოგრაფია
ავტობიოგრაფიაში
ავტობიოგრაფიულ
ავტობიოგრაფიული
ავტობუსები
ავტობუსების
ავტობუსი
ავტობუსის
ავტოკატასტროფაში
ავტოკეფალია
ავტოკეფალიის
ავტოკეფალური
ავტომაგისტრალი
ავტომატურად
ავტომატური
ავტომობილები
ავტომობილების
ავტომობილი
ავტომობილის
ავტონომია
ავტონომიას
ავტონომიის
ავტონომიურ
ავტონომიური
ავტოპორტრეტი
ავტორ
ავტორად
ავტორები
ავტორების
ავტორებს
ავტორთა
ავტორი
ავტორია
ავტორის
ავტორიტარული
ავტორიტეტი
ავტორიტეტით
ავტორიტეტის
ავტორიტეტული
ავტორიც
ავტორმა
ავტორობა
ავტორობით
ავტორს
ავქსენტი
ავღანეთი
ავღანეთის
ავღანეთში
ავღანელი
ავღანური
აზ
აზარტული
აზერ
აზერბ
აზერბაიჯან
აზერბაიჯანელ
აზერბაიჯანელები
აზერბაიჯანელების
აზერბაიჯანელთა
აზერბაიჯანელი
აზერბაიჯანი
აზერბაიჯანიდან
აზერბაიჯანის
აზერბაიჯანისა
აზერბაიჯანმა
აზერბაიჯანს
აზერბაიჯანსა
აზერბაიჯანულ
აზერბაიჯანული
აზერბაიჯანში
აზია
აზიანებს
აზიას
აზიასა
აზიაში
აზიელი
აზიზ
აზიიდან
აზიის
აზიისა
აზისი
აზიურ
აზიური
აზნაურები
აზნაურთა
აზნაური
აზნაურის
აზოვის
აზორის
აზოტი
აზოტის
აზოტოვანი
აზრები
აზრების
აზრთა
აზრი
აზრით
აზრის
აზროვნება
აზროვნებას
აზროვნების
აზრს
ათ
ათაბაგი
ათავისუფლებს
ათავსებენ
ათავსებს
ათათურქის
ათამდე
ათანასე
ათარიღებს
ათას
ათასამდე
ათასზე
ათასი
ათასიანი
ათასობით
ათასს
ათასწლეულების
ათასწლეული
ათასწლეულის
ათასწლეულში
ათეიზმი
ათეიზმის
ათეისტი
ათენა
ათენას
ათენი
ათენის
ათენში
ათეულ
ათეული
ათეულობით
ათეულში
ათვისება
ათვისების
ათვისებული
ათვლის
ათზე
ათი
ათობით
ათონის
ათწლეულების
ათწლეულებში
ათწლეული
ათწლეულის
ათწლეულში
ათწლიანი
აი
აია
აიათოლა
აიაკუჩოს
აიაქსი
აიაქსის
აიგო
აიდა
აიდაჰოს
აივ
აივანზე
აივანი
აივზი
აივნის
აითვისა
აიკრძალა
აილენდი
აილენდის
აინ
აინტერესებდა
აინუს
აინშტაინი
აინშტაინის
აიოვის
აირები
აირების
აირესი
აირესის
აირესში
აირი
აირია
აირის
აირჩევა
აირჩია
აირჩიე
აირჩიეთ
აირჩიეს
აირჩიოთ
აირჩიოს
აისახა
აისახება
აიღეს
აიღო
აიყვანა
აიყვანეს
აიშა
აიშე
აიძულა
აიძულებდა
აიძულებდნენ
აიძულებს
აიძულეს
აიხსნას
აიხსნება
აკ
აკა
აკად
აკადემია
აკადემიამ
აკადემიას
აკადემიასთან
აკადემიაში
აკადემიის
აკადემიისა
აკადემიკოს
აკადემიკოსი
აკადემიურ
აკადემიური
აკავშირებდა
აკავშირებს
აკაკი
აკაკის
აკაცია
აკეთებდა
აკეთებდნენ
აკეთებენ
აკეთებს
აკვანი
აკვირდება
აკვირდებოდა
აკირა
აკლდა
აკლდამა
აკლდამაში
აკლდამები
აკლდამის
აკლია
აკმაყოფილებდა
აკმაყოფილებს
აკონტროლებდა
აკონტროლებდნენ
აკონტროლებენ
აკონტროლებს
აკოფოვი
აკრავს
აკრედიტაციები
აკრი
აკრის
აკრიტიკებდა
აკრიტიკებდნენ
აკრიტიკებს
აკრძალა
აკრძალეს
აკრძალვა
აკრძალვის
აკრძალულ
აკრძალული
აკრძალულია
აკუმულაციური
აკურთხა
აკურთხეს
აკუსტიკურ
აკუსტიკური
ალ
ალა
ალაგ
ალაგოასის
ალავერდი
ალავერდის
ალავის
ალაზანი
ალაზნის
ალან
ალანდის
ალანი
ალანია
ალასანია
ალასკის
ალბ
ალბა
ალბათ
ალბათობა
ალბათობით
ალბათობის
ალბათური
ალბანეთი
ალბანეთის
ალბანეთს
ალბანეთში
ალბანელები
ალბანელი
ალბანურ
ალბანური
ალბას
ალბასეტეს
ალბერ
ალბერტ
ალბერტი
ალბერტის
ალბერტო
ალბომ
ალბომად
ალბომებზე
ალბომები
ალბომების
ალბომებს
ალბომებში
ალბომზე
ალბომი
ალბომია
ალბომიდან
ალბომით
ალბომის
ალბომისთვის
ალბომმა
ალბომს
ალბომში
ალბრეხტ
ალგებრა
ალგებრის
ალგებრული
ალგეთის
ალგორითმი
ალგორითმის
ალეგორიული
ალევის
ალეკ
ალეკო
ალენ
ალენი
ალენის
ალეპო
ალეპოს
ალერგიული
ალესანდრო
ალეუტის
ალექს
ალექსანდერ
ალექსანდრ
ალექსანდრა
ალექსანდრას
ალექსანდრე
ალექსანდრემ
ალექსანდრეს
ალექსანდრია
ალექსანდრიაში
ალექსანდრიელი
ალექსანდრიის
ალექსეი
ალექსი
ალექსის
ალექსიძე
ალეხანდრო
ალვარო
ალთაის
ალი
ალია
ალიანსი
ალიანსის
ალიანსმა
ალიანსს
ალიანსში
ალიევა
ალიევი
ალიევის
ალიევმა
ალიზის
ალიკანტეს
ალიმ
ალის
ალისა
ალისას
ალისფერი
ალკკ
ალკოჰოლი
ალკოჰოლის
ალკოჰოლს
ალკოჰოლური
ალკუნი
ალმა
ალმანახი
ალმასების
ალმასი
ალმასის
ალმერიის
ალონსო
ალპები
ალპების
ალპებში
ალპინისტი
ალპურ
ალპური
ალჟირი
ალჟირის
ალჟირში
ალტა
ალტერნატივა
ალტერნატიულ
ალტერნატიული
ალტის
ალტო
ალტუ
ალუბლის
ალუვიური
ალუმინი
ალუმინის
ალფ
ალფა
ალფონს
ალფონსო
ალფონსოს
ალფრედ
ალფრედო
ალყა
ალყას
ალყაში
ალყის
ალშეევის
ალცჰაიმერის
ამ
ამა
ამადეო
ამადეუს
ამავდროულად
ამავე
ამაზე
ამაზონის
ამათ
ამათგან
ამალია
ამალიას
ამან
ამანდა
ამაოდ
ამარაგებდა
ამარცხებენ
ამარცხებს
ამას
ამასთან
ამასთანავე
ამასიის
ამასობაში
ამასონასის
ამატებენ
ამაღლდა
ამაღლება
ამაღლებას
ამაღლების
ამაღლებულ
ამაღლებული
ამაღლებულია
ამაში
ამაშუკელი
ამახვილებს
ამბავი
ამბავმა
ამბავს
ამბები
ამბების
ამბებს
ამბიდან
ამბიონი
ამბის
ამბიციური
ამბობდა
ამბობდნენ
ამბობენ
ამბობს
ამბოხება
ამბოხების
ამბოხებულებმა
ამბოხებულთა
ამბოხებული
ამბოხი
ამბოხის
ამბროლაურის
ამბროსი
ამბროსის
ამგვარ
ამგვარად
ამგვარი
ამდე
ამდენად
ამდენი
ამელია
ამენჰოტეპ
ამერიკა
ამერიკას
ამერიკასა
ამერიკაში
ამერიკელ
ამერიკელები
ამერიკელების
ამერიკელებმა
ამერიკელებს
ამერიკელთა
ამერიკელი
ამერიკელმა
ამერიკიდან
ამერიკის
ამერიკისა
ამერიკულ
ამერიკული
ამერიკულმა
ამზადებდა
ამზადებდნენ
ამზადებენ
ამზადებს
ამთავრებს
ამიერიდან
ამიერკავკასიაში
ამიერკავკასიის
ამით
ამილახვარი
ამინ
ამინდი
ამინდის
ამინდში
ამირ
ამირა
ამირან
ამირანაშვილი
ამირანი
ამირანის
ამირას
ამირეჯიბი
ამის
ამისა
ამისათვის
ამისთვის
ამიტომ
ამიტომაც
ამკობს
ამნისტია
ამო
ამობურცული
ამოდის
ამოვსებული
ამოვსებულია
ამოზნექილი
ამოიფრქვა
ამოიღეს
ამოიღო
ამოიწურა
ამოკვეთილი
ამოკვეთილია
ამომავალი
ამომრჩეველთა
ამომწყდარი
ამონიუმის
ამოსული
ამოტვიფრული
ამოუშენებიათ
ამოფრქვევა
ამოფრქვევები
ამოფრქვევის
ამოქმედდა
ამოქოლილია
ამოღება
ამოღებული
ამოღებულია
ამოყვანილი
ამოყვანილია
ამოშენებულია
ამოცანა
ამოცანაა
ამოცანას
ამოცანები
ამოცანების
ამოცანებს
ამოცანის
ამოწმებს
ამოწურვის
ამოჭრილი
ამოხსნა
ამპლიტუდა
ამჟამად
ამჟამადაც
ამჟამინდელ
ამჟამინდელი
ამჟღავნებს
ამრავლებენ
ამრიგად
ამსახველ
ამსახველი
ამსტერდამი
ამსტერდამის
ამსტერდამში
ამტკიცებდა
ამტკიცებდნენ
ამტკიცებენ
ამტკიცებს
ამურის
ამუშავდა
ამუშავებდა
ამუშავებდნენ
ამუშავებენ
ამუშავებს
ამფიბიების
ამფითეატრი
ამქვეყნად
ამქვეყნიური
ამყარებდა
ამყარებს
ამშვენებდა
ამშვენებს
ამცირებს
ამცნო
ამხანაგობა
ამხანაგურ
ამხანაგური
ამხედრებული
ამჯერად
ამჯერადაც
ამჯობინა
ამჰერსტის
ან
ანა
ანადგურებენ
ანადგურებს
ანაზღაურება
ანაზღაურების
ანათებს
ანალები
ანალიზი
ანალიზით
ანალიზის
ანალიზმა
ანალიზს
ანალიზური
ანალიზში
ანალიტიკური
ანალოგი
ანალოგია
ანალოგიურ
ანალოგიურად
ანალოგიური
ანალოგიურია
ანალური
ანამ
ანანია
ანანურის
ანარეკლი
ანარქისტი
ანარქისტული
ანარქო
ანას
ანასტასია
ანასტასიო
ანატოლი
ანატოლიაში
ანატოლიის
ანატომია
ანატომიის
ანატომიური
ანბანი
ანბანით
ანბანის
ანბანს
ანბანური
ანბანში
ანგარიშები
ანგარიშების
ანგარიშზე
ანგარიში
ანგარიშით
ანგარიშის
ანგარიშს
ანგარიშში
ანგელოზები
ანგელოზი
ანგელოზის
ანგლიკანური
ანგლო
ანგოლა
ანგოლაში
ანგოლის
ანდა
ანდაზები
ანდალუსიის
ანდების
ანდებში
ანდერსონი
ანდერსონის
ანდერსონმა
ანდერძი
ანდერძის
ანდერძში
ანდორა
ანდორის
ანდრე
ანდრეა
ანდრეას
ანდრეევკა
ანდრეი
ანდრეს
ანდრია
ანდრიას
ანდრო
ანდრომედას
ანდრონიკაშვილი
ანდრონიკაშვილის
ანდრონიკე
ანდღულაძე
ანექსია
ანექსიის
ანექსირებული
ანვარ
ანზორ
ანთაძე
ანთება
ანთებით
ანთებითი
ანთების
ანთელავა
ანთიმოზ
ანთოლოგია
ანთროპოგენური
ანთროპოლოგი
ანთროპოლოგია
ანთროპოლოგიის
ანთროპოლოგიური
ანი
ანიმაცია
ანიმაციის
ანიმაციურ
ანიმაციური
ანიმე
ანიმეს
ანისი
ანისის
ანიტა
ანიჭებდა
ანიჭებდნენ
ანიჭებენ
ანიჭებს
ანკარა
ანკარაში
ანკარის
ანკაშის
ანნა
ანონიმური
ანჟუს
ანრი
ანრიეტა
ანრიმ
ანრის
ანსამბლ
ანსამბლი
ანსამბლის
ანსამბლს
ანსამბლში
ანტანტის
ანტარქტიდა
ანტარქტიდაში
ანტარქტიდის
ანტარქტიდული
ანტარქტიკის
ანტარქტიკული
ანტი
ანტიგონე
ანტიგუა
ანტიკურ
ანტიკური
ანტილის
ანტილოპა
ანტიოკიის
ანტიოქე
ანტიოქიაში
ანტიოქიის
ანტისაბჭოთა
ანტისამთავრობო
ანტისემიტური
ანტონ
ანტონი
ანტონია
ანტონიმები
ანტონიო
ანტონის
ანტონიუ
ანტონიუსი
ანტონიუსის
ანტონიუსმა
ანტუან
ანტუანეტა
ანტუანეტი
ანტუანეტის
ანტუანი
ანუ
ანჩაბაძე
ანჩისხატის
ანხელ
ანჯაფარიძე
ანჯელეს
ანჯელესი
ანჯელესის
ანჯელესში
ანჯელო
ანჰალტ
აომორი
აპარატების
აპარატი
აპარატის
აპარატს
აპარატში
აპარტეიდის
აპენინის
აპირებდა
აპირებდნენ
აპირებენ
აპირებს
აპლიკაცია
აპლიკაციების
აპოლო
აპოლონ
აპოლონი
აპოლონის
აპრილ
აპრილამდე
აპრილი
აპრილიდან
აპრილის
აპრილისთვის
აპრილს
აპრილში
აპურიმაკის
არ
არა
არაა
არაბ
არაბები
არაბების
არაბებმა
არაბებს
არაბეთი
არაბეთის
არაბეთში
არაბთა
არაბი
არაბულ
არაბულად
არაბული
არაგ
არაგაწოტნის
არაგვი
არაგვის
არაგონელი
არაგონელის
არაგონი
არაგონის
არაგორნი
არაგუის
არაერთ
არაერთგვაროვანი
არაერთგზის
არაერთი
არაერთხელ
არავითარ
არავითარი
არავინ
არავის
არათანაბარ
არათანაბარი
არათანაბრად
არათუ
არაკომერციული
არალეგალურ
არალეგალურად
არალეგალური
არალის
არამ
არამარტო
არამატერიალური
არამდგრადი
არამედ
არამეული
არანაირ
არანაირი
არანაკიანი
არანაკლებ
არანის
არანჟირება
არაორგანული
არაოფიციალურ
არაოფიციალურად
არაოფიციალური
არაპირდაპირი
არაპოპულარული
არარატი
არარატის
არარეგულარული
არარსებობა
არარსებობის
არასათანადო
არასაკმარისი
არასამთავრობო
არასასიამოვნო
არასასურველი
არასდროს
არასოდეს
არასრული
არასტაბილური
არასტაბილურობა
არასტაბილურობის
არასწორად
არასწორი
არაუმეტეს
არაფერი
არაფერია
არაფერს
არაფორმალური
არაფრით
არაფრის
არაქსის
არაღიარებული
არაყი
არაჩვეულებრივი
არაწევრ
არაწესიერი
არაწრფივი
არახელსაყრელი
არგენტინა
არგენტინამ
არგენტინას
არგენტინაში
არგენტინელი
არგენტინის
არგენტინული
არგონავტების
არგუმენტები
არგუმენტი
არდადეგები
არე
არეალი
არეალია
არეალის
არეალს
არეალში
არეგულირებს
არეები
არეკიპის
არენა
არენაზე
არენის
არეს
არეტე
არეული
არეულობა
არეულობის
არეში
არველაძე
ართვინის
ართულებდა
ართულებს
ართურ
არი
არია
არიან
არიანე
არიდული
არის
არისტოკრატი
არისტოკრატია
არისტოკრატიის
არისტოკრატიული
არისტოტელე
არისტოტელეს
არიული
არკადი
არკადული
არმავირის
არმაზის
არმან
არმენ
არმია
არმიათა
არმიამ
არმიას
არმიასა
არმიასთან
არმიაში
არმიები
არმიების
არმიებს
არმიით
არმიის
არმიისა
არმსტრონგი
არმქონე
არნახული
არნოლდ
არნოლდი
არომატი
არომატით
არომატის
არომატული
არს
არსად
არსება
არსებას
არსებები
არსებების
არსებით
არსებითად
არსებითი
არსების
არსებობა
არსებობაზე
არსებობას
არსებობდა
არსებობდეს
არსებობდნენ
არსებობენ
არსებობით
არსებობის
არსებობს
არსებულ
არსებული
არსებულმა
არსენ
არსენა
არსენალი
არსენალის
არსენალში
არსენი
არსი
არსის
არსლან
არსს
არტ
არტაანი
არტაანის
არტანუჯი
არტაქსერქსე
არტემ
არტერიული
არტეფაქტები
არტეფაქტების
არტეფაქტი
არტი
არტიკლი
არტილერია
არტილერიის
არტის
არტისტი
არტისტის
არტისტული
არტურ
არტური
არტურო
არფა
არქანჯელო
არქაული
არქეოლოგების
არქეოლოგებმა
არქეოლოგი
არქეოლოგია
არქეოლოგიის
არქეოლოგიისა
არქეოლოგიურ
არქეოლოგიური
არქეოლოგიურმა
არქეოლოგმა
არქიეპისკოპოსი
არქიეპისკოპოსმა
არქივები
არქივი
არქივირებული
არქივის
არქივში
არქიმანდრიტი
არქიპელაგზე
არქიპელაგი
არქიპელაგის
არქიპელაგს
არქიპელაგში
არქიტ
არქიტექტორ
არქიტექტორად
არქიტექტორები
არქიტექტორების
არქიტექტორებმა
არქიტექტორთა
არქიტექტორი
არქიტექტორის
არქიტექტორმა
არქიტექტურა
არქიტექტურას
არქიტექტურაში
არქიტექტურით
არქიტექტურის
არქიტექტურისა
არქიტექტურულ
არქიტექტურული
არქიტრავით
არქიტრავის
არქიტრავული
არქონის
არქტიკის
არქტიკულ
არქტიკული
არღვევდა
არღვევს
არყი
არყის
არყოფნის
არშაკ
არჩ
არჩევა
არჩევანი
არჩევანის
არჩევანს
არჩევას
არჩევენ
არჩევით
არჩევითი
არჩევის
არჩევნებამდე
არჩევნებზე
არჩევნები
არჩევნების
არჩევნებისთვის
არჩევნებს
არჩევნებში
არჩეულ
არჩეული
არჩეულია
არჩვაძე
არჩვი
არჩია
არჩილ
არჩილი
არჩილის
არც
არცახის
არცერთ
არცერთი
არცთუ
არძინბამ
არწივი
არწივის
არხანგელსკის
არხები
არხების
არხზე
არხი
არხით
არხის
არხს
არხში
ას
ასა
ასაგებად
ასადი
ასადის
ასათიანი
ასათიანის
ასაკამდე
ასაკთან
ასაკი
ასაკიდან
ასაკიდანვე
ასაკით
ასაკის
ასაკისა
ასაკობრივ
ასაკობრივი
ასაკოვანი
ასაკს
ასაკში
ასამაღლებლად
ასამბლეა
ასამბლეამ
ასამბლეას
ასამბლეაში
ასამბლეის
ასამდე
ასასვლელი
ასაფეთქებელი
ასაფრენ
ასაფრენი
ასაღებად
ასაშენებლად
ასაცილებლად
ასახა
ასახავდა
ასახავენ
ასახავს
ასახელებდა
ასახელებენ
ასახელებს
ასახვა
ასახსნელად
ასახული
ასახულია
ასე
ასეა
ასევე
ასევეა
ასეთ
ასეთებია
ასეთი
ასეთია
ასეთივე
ასეთმა
ასეულ
ასეული
ასეულის
ასეულობით
ასეულში
ასეც
ასვლა
ასვლის
ასზე
ასი
ასიმეტრიული
ასიმილაცია
ასისტენტ
ასისტენტად
ასისტენტი
ასკაროვოდან
ასლან
ასლები
ასლი
ასლის
ასლს
ასო
ასობით
ასოები
ასოებით
ასოების
ასოთა
ასოთი
ასომთავრული
ასოს
ასოციაცია
ასოციაციამ
ასოციაციას
ასოციაციაში
ასოციაციების
ასოციაციის
ასოცირდება
ასოცირდებოდა
ასოცირების
ასოცირებული
ასპარეზზე
ასპარეზობა
ასპარეზობას
ასპარეზობდა
ასპარეზობის
ასპარეზობს
ასპექტები
ასპექტების
ასპექტებს
ასპექტი
ასპექტს
ასპექტში
ასპინძის
ასპირანტი
ასპირანტურა
ასპირანტურაში
ასპირანტურის
ასრულებდა
ასრულებდნენ
ასრულებენ
ასრულებს
ასსრ
ასტარის
ასტეროიდი
ასტონ
ასტრახანის
ასტროლოგიური
ასტრონომი
ასტრონომია
ასტრონომიაში
ასტრონომიის
ასტრონომიულ
ასტრონომიული
ასტრონომმა
ასტროფიზიკური
ასტურიის
ასულ
ასულზე
ასული
ასულის
ასულიყო
ასულმა
ასულს
ასურეთი
ასურეთის
ასურელი
ასურული
ასფ
ასწავლა
ასწავლიან
ასწავლიდა
ასწავლიდნენ
ასწავლის
ასწლეულის
ასწლიანი
ატ
ატარებდა
ატარებდნენ
ატარებენ
ატარებს
ატენის
ატლანტა
ატლანტაში
ატლანტიკის
ატლანტიკური
ატლანტის
ატლასი
ატლასის
ატლეტიკო
ატმოსფერო
ატმოსფეროს
ატმოსფეროში
ატმოსფერული
ატოლ
ატოლი
ატოლის
ატომები
ატომების
ატომებს
ატომი
ატომის
ატომს
ატომურ
ატომური
ატრიბუტი
ატყდა
აუგია
აუგიათ
აუგსბურგის
აუგუსტ
აუდიო
აუდიოს
აუდიტის
აუდიტორია
აუდიტორიას
აუდიტორიის
აუზების
აუზი
აუზის
აუზს
აუზში
აუკრძალა
აუკრძალეს
აუმჯობესებს
აურგაზის
აუტანელი
აუქციონზე
აუშენებია
აუცილებელ
აუცილებელად
აუცილებელი
აუცილებელია
აუცილებლად
აუცილებლობა
აუცილებლობას
აუცილებლობის
აუწყა
აუჯანყდა
აფასებდა
აფასებდნენ
აფასებენ
აფასებს
აფაქიძე
აფეთქდა
აფეთქება
აფეთქებას
აფეთქების
აფერხებს
აფთარი
აფინანსებდა
აფინანსებს
აფონსუ
აფორიზმები
აფრთხილებს
აფრიკა
აფრიკას
აფრიკასა
აფრიკაში
აფრიკელ
აფრიკელი
აფრიკიდან
აფრიკის
აფრიკისა
აფრიკულ
აფრიკული
აფრო
აფროამერიკელი
აფსიდა
აფსიდი
აფსიდია
აფსიდით
აფსიდის
აფსიდს
აფსიდში
აფშერონის
აფხ
აფხაზ
აფხაზავა
აფხაზები
აფხაზებმა
აფხაზეთი
აფხაზეთიდან
აფხაზეთის
აფხაზეთისა
აფხაზეთს
აფხაზეთსა
აფხაზეთში
აფხაზთა
აფხაზი
აფხაზურ
აფხაზური
აქ
აქა
აქადის
აქამდე
აქაური
აქაც
აქედან
აქეთ
აქემენიანთა
აქემენიდების
აქვე
აქვეა
აქვეყნებდა
აქვეყნებს
აქვთ
აქვს
აქლემი
აქლემის
აქსაის
აქტები
აქტების
აქტზე
აქტი
აქტივები
აქტივების
აქტივისტი
აქტივობა
აქტივობას
აქტივობები
აქტივობების
აქტივობის
აქტით
აქტის
აქტიურ
აქტიურად
აქტიური
აქტიურია
აქტიურობა
აქტიურობის
აქტს
აქტუალურ
აქტუალური
აქტუალურია
აქტში
აქცევდა
აქცევდნენ
აქცევს
აქცენტი
აქცენტს
აქცია
აქციები
აქციების
აქციეს
აქციის
აღ
აღა
აღადგინა
აღადგინეს
აღარ
აღარაა
აღარავინ
აღარასოდეს
აღარაფერი
აღარც
აღასრულა
აღბეჭდილი
აღდამის
აღდაშის
აღდგა
აღდგება
აღდგენა
აღდგენაზე
აღდგენას
აღდგენით
აღდგენითი
აღდგენილ
აღდგენილი
აღდგენილია
აღდგენის
აღდგენისა
აღდგომა
აღდგომას
აღდგომის
აღება
აღებას
აღებაში
აღებით
აღების
აღებულ
აღებული
აღებულია
აღედგინა
აღედგინათ
აღემატება
აღემატებოდა
აღემატებოდეს
აღენიშნება
აღესრულა
აღზარდა
აღზევდა
აღზევება
აღზევების
აღზრდა
აღზრდას
აღზრდაში
აღზრდილი
აღზრდის
აღთქმა
აღთქმის
აღიარა
აღიარება
აღიარებას
აღიარებდა
აღიარებდნენ
აღიარებენ
აღიარებით
აღიარების
აღიარებს
აღიარებულ
აღიარებული
აღიარებულია
აღიარეს
აღიდგინა
აღიზარდა
აღიკვეცა
აღიმართა
აღინიშნა
აღინიშნება
აღინიშნებოდა
აღინიშნოს
აღიქვამდა
აღიქვამენ
აღიქვამს
აღიქმება
აღიქმებოდა
აღკვეთა
აღკვეთილი
აღლუმი
აღმ
აღმავალი
აღმავლობა
აღმავლობას
აღმავლობის
აღმართა
აღმართეს
აღმართულ
აღმართული
აღმართულია
აღმასკომის
აღმასრულებელ
აღმასრულებელი
აღმასრულებელმა
აღმაშენებელი
აღმაშენებელმა
აღმაშენებლის
აღმზრდელი
აღმნიშვნელი
აღმოაჩენენ
აღმოაჩენს
აღმოაჩინა
აღმოაჩინეს
აღმოაჩნდა
აღმომჩენი
აღმოსავლეთ
აღმოსავლეთი
აღმოსავლეთიდან
აღმოსავლეთით
აღმოსავლეთის
აღმოსავლეთისა
აღმოსავლეთისაკენ
აღმოსავლეთისკენ
აღმოსავლეთმცოდნე
აღმოსავლეთმცოდნეობის
აღმოსავლეთს
აღმოსავლეთსა
აღმოსავლეთში
აღმოსავლურ
აღმოსავლური
აღმოსაფხვრელად
აღმოფხვრა
აღმოფხვრას
აღმოფხვრის
აღმოჩენა
აღმოჩენამ
აღმოჩენას
აღმოჩენები
აღმოჩენების
აღმოჩენილ
აღმოჩენილი
აღმოჩენილია
აღმოჩენის
აღმოჩნდა
აღმოჩნდება
აღმოჩნდეს
აღმოჩნდნენ
აღმოცენდა
აღმსარებელი
აღმსარებლობის
აღნაგობა
აღნაგობის
აღნიშვნა
აღნიშვნის
აღნიშნა
აღნიშნავდა
აღნიშნავდეს
აღნიშნავდნენ
აღნიშნავენ
აღნიშნავს
აღნიშნეს
აღნიშნულ
აღნიშნული
აღნიშნულია
აღნიშნულის
აღნიშნულმა
აღორძინდა
აღორძინება
აღორძინებას
აღორძინების
აღრიცხვა
აღრიცხვის
აღსადგენად
აღსავსე
აღსაზრდელად
აღსანიშნავად
აღსანიშნავი
აღსანიშნავია
აღსარება
აღსასრული
აღსასრულის
აღსაწერად
აღსდგა
აღსთაფის
აღსრულება
აღსრულების
აღსუს
აღუდგა
აღუდგენიათ
აღუთქვა
აღფრთოვანებული
აღქმა
აღქმის
აღქმული
აღშფოთება
აღწევდა
აღწევდნენ
აღწევენ
აღწევს
აღწერა
აღწერას
აღწერაში
აღწერდა
აღწერების
აღწერენ
აღწერეს
აღწერით
აღწერილი
აღწერილია
აღწერილობა
აღწერის
აღწერისას
აღწერს
აღჭურვილი
აღჭურვილია
აღჭურვილობა
აღჭურვილობის
აღჯაბადის
აყ
აყალიბებს
აყენებდა
აყენებენ
აყენებს
აყვავდა
აყვავება
აყვავების
აყვავებული
აყვანა
აყვანილი
აყვანის
აშ
აშანტის
აშაღი
აშენდა
აშენება
აშენებას
აშენებდნენ
აშენებენ
აშენების
აშენებს
აშენებულ
აშენებული
აშენებულია
აშკარა
აშკარაა
აშკარად
აშლილობა
აშლილობის
აშოტ
აშურ
აშუქებდა
აშუქებს
აშშ
აჩენს
აჩვენა
აჩვენებდა
აჩვენებს
აჩვენეს
აჩრდილი
აჩუქა
აჩქარება
აჩქარების
აცვია
აცილება
აცილების
აცილებული
აცნობა
აცნობეს
აცნობიერებს
აცტეკების
აცხადებდა
აცხადებდნენ
აცხადებენ
აცხადებს
აძლევდა
აძლევდნენ
აძლევენ
აძლევს
აძლიერებს
აწ
აწამეს
აწარმოა
აწარმოებდა
აწარმოებდნენ
აწარმოებენ
აწარმოებს
აწევა
აწერია
აწერს
აწესებს
აწესრიგებს
აწეული
აწეულია
აწვდიდა
აწვდის
აწმყო
აწუხებდა
აწუხებს
აწყობდა
აწყობდნენ
აწყობენ
აწყობილი
აწყობს
აწყურის
აჭარა
აჭარაში
აჭარბებს
აჭარიდან
აჭარის
აჭარისწყლის
აჭარული
ახ
ახალ
ახალბედა
ახალგაზრდა
ახალგაზრდაა
ახალგაზრდები
ახალგაზრდების
ახალგაზრდებს
ახალგაზრდებში
ახალგაზრდობა
ახალგაზრდობაში
ახალგაზრდობის
ახალგაზრდობისა
ახალგაზრდულ
ახალგაზრდული
ახალგორიდან
ახალგორის
ახალი
ახალმა
ახალსოფელი
ახალსოფლის
ახალქალაქი
ახალქალაქის
ახალშენი
ახალშობილი
ახალციხე
ახალციხეში
ახალციხიდან
ახალციხის
ახალციხისა
ახასიათებდა
ახასიათებთ
ახასიათებს
ახდენდა
ახდენდნენ
ახდენენ
ახდენს
ახერხებდა
ახერხებდნენ
ახერხებენ
ახერხებს
ახვლედიანი
ახვლედიანის
ახლა
ახლად
ახლადშექმნილ
ახლადშექმნილი
ახლავს
ახლანდ
ახლანდელ
ახლანდელი
ახლაც
ახლახანს
ახლდა
ახლებურად
ახლებური
ახლის
ახლო
ახლობელი
ახლომდებარე
ახლოს
ახლოსაა
ახმედ
ახმეტელი
ახმეტელის
ახმეტის
ახმოვანებენ
ახმოვანებს
ახორციელებდა
ახორციელებდნენ
ახორციელებენ
ახორციელებს
ახსენა
ახსენებს
ახსნა
ახსნას
ახსოვს
ახუნდოვის
აჯანყდა
აჯანყდნენ
აჯანყება
აჯანყებამ
აჯანყებას
აჯანყებაში
აჯანყებები
აჯანყებების
აჯანყების
აჯანყებულ
აჯანყებულები
აჯანყებულების
აჯანყებულებმა
აჯანყებულებს
აჯანყებულთა
აჯანყებული
აჯანყებულმა
აჯობა
აჰა
აჰმად
აჰმედ
აჰმედი
აჰმედის
ბ
ბა
ბაადურ
ბაბა
ბაბექის
ბაბილონი
ბაბილონის
ბაბილონური
ბაბილონში
ბაბუა
ბაბუის
ბაბუნაშვილი
ბაგრატ
ბაგრატი
ბაგრატიონ
ბაგრატიონთა
ბაგრატიონი
ბაგრატიონის
ბაგრატის
ბაგრატმა
ბად
ბადახოსის
ბადე
ბადენ
ბადენის
ბადი
ბადის
ბადრი
ბადრიძე
ბადრიჯანი
ბავარია
ბავარიაში
ბავარიელი
ბავარიელის
ბავარიის
ბავშვებზე
ბავშვებთან
ბავშვები
ბავშვების
ბავშვებისათვის
ბავშვებისთვის
ბავშვებს
ბავშვებში
ბავშვზე
ბავშვთა
ბავშვი
ბავშვის
ბავშვობა
ბავშვობაში
ბავშვობიდან
ბავშვობიდანვე
ბავშვობის
ბავშვს
ბაზა
ბაზაზე
ბაზალეთის
ბაზალტის
ბაზალტური
ბაზარზე
ბაზარი
ბაზარს
ბაზარში
ბაზას
ბაზაში
ბაზები
ბაზების
ბაზელის
ბაზილიკა
ბაზილიკაა
ბაზილიკაში
ბაზილიკის
ბაზის
ბაზისი
ბაზრებზე
ბაზრები
ბაზრების
ბაზრის
ბაზრობა
ბათ
ბათიაშვილი
ბათილად
ბათუმი
ბათუმიდან
ბათუმის
ბათუმისა
ბათუმში
ბათქაშით
ბაი
ბაია
ბაიაზიდ
ბაიაზიდი
ბაიას
ბაიდენი
ბაიდენის
ბაიდენმა
ბაიერნი
ბაიერნის
ბაიკალის
ბაიმაკიდან
ბაიმაკის
ბაიროითის
ბაკალავრის
ბაკალიდან
ბაკალის
ბაკი
ბაკლი
ბაკმი
ბაკურ
ბაკურიანის
ბალადა
ბალანი
ბალანსი
ბალანსის
ბალანჩივაძე
ბალახები
ბალახებია
ბალახეულით
ბალახი
ბალახით
ბალახის
ბალახოვან
ბალახოვანი
ბალდუინ
ბალეარის
ბალერინა
ბალეტი
ბალეტის
ბალეტმაისტერი
ბალზაკი
ბალი
ბალის
ბალისტიკური
ბალკანეთის
ბალკანეთში
ბალნეოლოგიური
ბალნის
ბალტიის
ბალტიისპირეთის
ბალტიმორში
ბალყარეთის
ბამბა
ბამბის
ბამბუკის
ბან
ბანაკები
ბანაკებში
ბანაკი
ბანაკიდან
ბანაკის
ბანაკს
ბანაკში
ბანანი
ბანანის
ბანგკოკის
ბანგკოკში
ბანგლადეში
ბანგლადეშის
ბანგლადეშში
ბანდა
ბანდის
ბანი
ბანია
ბანის
ბანკები
ბანკების
ბანკი
ბანკირი
ბანკის
ბანკმა
ბანკნოტები
ბანკნოტების
ბანკს
ბანკში
ბანტუს
ბარ
ბარათაშვილი
ბარათაშვილის
ბარათები
ბარათების
ბარათი
ბარაკ
ბარამიძე
ბარანგაიდ
ბარანგაის
ბარბარა
ბარბარას
ბარბარე
ბარბარეს
ბარდა
ბარდის
ბარელიეფი
ბარეტი
ბარეტის
ბართლომე
ბართლომეს
ბარი
ბარიერი
ბარიერის
ბარიერული
ბარის
ბარიუმის
ბარლოუ
ბარნი
ბარნოვი
ბარნსი
ბაროკოს
ბარონ
ბარონი
ბარონის
ბარსელონა
ბარსელონამ
ბარსელონას
ბარსელონასთან
ბარსელონაში
ბარსელონის
ბარტონი
ბარტონის
ბარტყები
ბარში
ბარძაყის
ბას
ბასი
ბასილ
ბასილი
ბასილის
ბასის
ბასისტი
ბასკ
ბასკეთის
ბასკური
ბასრი
ბატალიონი
ბატალიონის
ბატალიონს
ბატარეის
ბატი
ბატის
ბატისტ
ბატისტა
ბატლერი
ბატონ
ბატონი
ბატონის
ბატონიშვილი
ბატონიშვილის
ბატონიშვილმა
ბატონიშვილს
ბატონობა
ბატონობდა
ბატონობის
ბატონს
ბატონყმობის
ბაფთა
ბაქანზე
ბაქანი
ბაქნის
ბაქნისაგან
ბაქო
ბაქოდან
ბაქოს
ბაქოსა
ბაქოში
ბაქრაძე
ბაქრაძემ
ბაქრაძის
ბაქტერიები
ბაქტერიების
ბაქტერიული
ბაღ
ბაღდადი
ბაღდადის
ბაღდადში
ბაღდათის
ბაღები
ბაღების
ბაღებში
ბაღი
ბაღის
ბაღს
ბაღში
ბაყაყი
ბაში
ბაშირ
ბაშკ
ბაშკირები
ბაშკირეთის
ბაშკირეთში
ბაშკირული
ბახი
ბახის
ბახო
ბახტაძე
ბაჰამის
ბაჰრ
ბაჰრამ
ბაჰრეინი
ბაჰრეინის
ბაჰრეინში
ბგერა
ბგერათა
ბგერას
ბგერები
ბგერების
ბგერითი
ბგერის
ბე
ბეატრის
ბეატრისი
ბეატრიჩე
ბებერი
ბებია
ბებიასთან
ბებიის
ბეგ
ბეგი
ბეგინსი
ბეგის
ბეგუმი
ბედზე
ბედი
ბედიის
ბედის
ბედისწერის
ბედნიერად
ბედნიერება
ბედნიერების
ბედნიერი
ბედს
ბევერლი
ბევრ
ბევრად
ბევრი
ბევრია
ბევრის
ბევრმა
ბევრს
ბევრჯერ
ბეთლემის
ბეთჰოვენი
ბეთჰოვენის
ბეი
ბეიკერი
ბეილაგანის
ბეილი
ბეირუთი
ბეირუთის
ბეირუთში
ბეის
ბეისბოლის
ბეიტსი
ბეიტსის
ბეკ
ბეკი
ბეკის
ბელ
ბელა
ბელადები
ბელადი
ბელადის
ბელარ
ბელარუსები
ბელარუსი
ბელარუსის
ბელარუსული
ბელარუსში
ბელას
ბელაქანის
ბელგია
ბელგიაში
ბელგიელი
ბელგიის
ბელგიური
ბელგრადი
ბელგრადის
ბელგრადში
ბელებეიდან
ბელებეის
ბელი
ბელიზი
ბელიზის
ბელის
ბელიუ
ბელოე
ბელორეცკის
ბელორუსიის
ბელორუსის
ბელრეცკიდან
ბელუ
ბემოლ
ბენ
ბენგ
ბენგალის
ბენგალური
ბენდი
ბენდის
ბენედიქტ
ბენედიქტე
ბენეტი
ბენი
ბენიამინ
ბენინი
ბენინის
ბენის
ბენიტო
ბენუა
ბენქსი
ბენჯამინ
ბეჟან
ბეჟიტაშვილი
ბერ
ბერად
ბერაძე
ბერბერული
ბერგი
ბერგის
ბერდი
ბერები
ბერების
ბერებმა
ბერებს
ბერთა
ბერი
ბერია
ბერიას
ბერიკაშვილი
ბერინგის
ბერის
ბერისლავის
ბერიშვილი
ბერიძე
ბერკლი
ბერკლის
ბერლინი
ბერლინის
ბერლინში
ბერმა
ბერმუდის
ბერნარ
ბერნარდ
ბერნარდო
ბერნი
ბერნის
ბერნსტაინი
ბერნჰარდ
ბერს
ბერტა
ბერტოლტ
ბერტრან
ბერძ
ბერძენ
ბერძენთა
ბერძენი
ბერძენიშვილი
ბერძენიშვილის
ბერძენმა
ბერძნ
ბერძნები
ბერძნების
ბერძნებმა
ბერძნებს
ბერძნულ
ბერძნულად
ბერძნული
ბერძნულიდან
ბესარიონ
ბესარიონი
ბესიკ
ბესო
ბესტი
ბესტსელერი
ბეტა
ბეტი
ბეტმენი
ბეტმენის
ბეტონის
ბექ
ბექა
ბეღელი
ბეღურასნაირთა
ბეწვი
ბეწვით
ბეწვის
ბეჭდავდა
ბეჭდები
ბეჭდების
ბეჭდვა
ბეჭდვითი
ბეჭდვის
ბეჭდის
ბეჭდური
ბეჭედი
ბეჭედს
ბზარები
ბზიფის
ბი
ბიანკა
ბიბი
ბიბლია
ბიბლიაში
ბიბლიის
ბიბლიოგრაფია
ბიბლიოგრაფიული
ბიბლიოვიკი
ბიბლიოთეკა
ბიბლიოთეკას
ბიბლიოთეკაში
ბიბლიოთეკები
ბიბლიოთეკების
ბიბლიოთეკის
ბიბლიურ
ბიბლიური
ბიგ
ბიზანტია
ბიზანტიამ
ბიზანტიას
ბიზანტიასთან
ბიზანტიაში
ბიზანტიელები
ბიზანტიელებმა
ბიზანტიელებს
ბიზანტიელთა
ბიზანტიელი
ბიზანტიის
ბიზანტიურ
ბიზანტიური
ბიზნეს
ბიზნესი
ბიზნესის
ბიზნესისა
ბიზნესმენი
ბიზნესს
ბიზნესში
ბილ
ბილბაოს
ბილბო
ბილბორდ
ბილბორდი
ბილბორდის
ბილბოს
ბილეთების
ბილეთი
ბილი
ბილიკები
ბილიკი
ბილიკის
ბილის
ბინ
ბინა
ბინადარი
ბინადრობდა
ბინადრობდნენ
ბინადრობენ
ბინადრობს
ბინარული
ბინას
ბინაში
ბინები
ბინი
ბინის
ბინომინალური
ბინძური
ბიო
ბიოგრაფი
ბიოგრაფია
ბიოგრაფიები
ბიოგრაფიის
ბიოგრაფიულ
ბიოგრაფიული
ბიოლოგი
ბიოლოგია
ბიოლოგიაში
ბიოლოგიის
ბიოლოგიურ
ბიოლოგიურად
ბიოლოგიური
ბიომრავალფეროვნების
ბიოსფერული
ბიოქიმიის
ბიოქიმიკოსი
ბიოქიმიური
ბიჟბულიაკიდან
ბიჟბულიაკის
ბირთვების
ბირთვი
ბირთვის
ბირთვს
ბირთვულ
ბირთვული
ბირთვში
ბირმინგემის
ბირმის
ბირმული
ბირჟა
ბირჟაზე
ბირჟის
ბირსკის
ბის
ბისექსუალი
ბისზე
ბისკაიის
ბისმარკის
ბისმუთის
ბიტი
ბიტიანი
ბიურო
ბიუროკრატიული
ბიუროს
ბიუროში
ბიუსტი
ბიუჯეტი
ბიუჯეტიდან
ბიუჯეტის
ბიძა
ბიძამ
ბიძამისი
ბიძას
ბიძასთან
ბიძაშვილ
ბიძაშვილები
ბიძაშვილზე
ბიძაშვილი
ბიძაშვილის
ბიძაშვილმა
ბიძაშვილს
ბიძგი
ბიძია
ბიძინა
ბიძის
ბიჭები
ბიჭების
ბიჭებს
ბიჭვინთის
ბიჭი
ბიჭის
ბიჭს
ბიჭუნა
ბლაგოვარის
ბლაგოვეშჩენსკიდან
ბლაგოვეშჩენსკის
ბლანკა
ბლანკას
ბლანტი
ბლეზ
ბლეიკი
ბლეკ
ბლეკი
ბლეკმორი
ბლერი
ბლოგი
ბლოკადა
ბლოკადის
ბლოკები
ბლოკების
ბლოკი
ბლოკიდან
ბლოკის
ბლოკს
ბლოკში
ბლუზ
ბლუზი
ბლუზის
ბლუზური
ბმა
ბმის
ბმპ
ბმულები
ბმული
ბნელ
ბნელი
ბო
ბობ
ბობი
ბოგდან
ბოგვერაძე
ბოდბის
ბოდიში
ბოიაკის
ბოიკოტი
ბოკა
ბოლესლავ
ბოლი
ბოლივარი
ბოლივარის
ბოლივია
ბოლივიაში
ბოლივიის
ბოლნისი
ბოლნისის
ბოლო
ბოლოდან
ბოლოდროინდელი
ბოლოები
ბოლოვდება
ბოლოზე
ბოლომდე
ბოლონია
ბოლონიის
ბოლოს
ბოლოსა
ბოლოსათვის
ბოლოსთვის
ბოლოსკენ
ბოლოში
ბოლქვაძე
ბოლშევიკები
ბოლშევიკების
ბოლშევიკებმა
ბოლშევიკი
ბოლშევიკურ
ბოლშევიკური
ბომბარდირი
ბომბდამშენი
ბომბი
ბომბის
ბონ
ბონა
ბონაპარტი
ბონაპარტის
ბონდი
ბონდის
ბონდო
ბონემი
ბონი
ბონის
ბონო
ბორა
ბორბალი
ბორი
ბორის
ბოროტ
ბოროტად
ბოროტება
ბოროტების
ბოროტი
ბორტზე
ბორუსია
ბორჩალოს
ბორცვები
ბორცვზე
ბორცვი
ბორცვიან
ბორცვიანი
ბორცვის
ბორჯომი
ბორჯომის
ბორჯომში
ბოსი
ბოსნ
ბოსნია
ბოსნიაში
ბოსნიელ
ბოსნიელები
ბოსნიელი
ბოსნიის
ბოსნიისა
ბოსნიური
ბოსტნეული
ბოსტნეულის
ბოსტნეულს
ბოსტონ
ბოსტონი
ბოსტონის
ბოსტონში
ბოსფორის
ბოტანიკის
ბოტანიკოსი
ბოტანიკურ
ბოტანიკური
ბოტსვანა
ბოტსვანის
ბოუი
ბოუის
ბოქს
ბოქსი
ბოქსიტოგორსკი
ბოშა
ბოშები
ბოშების
ბოჭკოვანი
ბოჭორიშვილი
ბოჭორიძე
ბოჭორმის
ბოჰემიის
ბრაბანტის
ბრაგანსის
ბრაზილია
ბრაზილიამ
ბრაზილიას
ბრაზილიაში
ბრაზილიელი
ბრაზილიის
ბრაზილიურ
ბრაზილიური
ბრაიან
ბრაიანი
ბრალად
ბრალდება
ბრალდებები
ბრალდებით
ბრალდების
ბრალდებული
ბრალი
ბრალს
ბრანდენბურგ
ბრანდენბურგის
ბრატისლავა
ბრაუზერი
ბრაუზერის
ბრაუნი
ბრაუნის
ბრაუნმა
ბრაუნშვაიგ
ბრაუნშვაიგის
ბრეგაძე
ბრეგვაძე
ბრედ
ბრედლი
ბრეიკი
ბრემენის
ბრენდა
ბრენდი
ბრენდის
ბრესტის
ბრეტანის
ბრეხტი
ბრიგადა
ბრიგადის
ბრილიანტის
ბრინჯაო
ბრინჯაოს
ბრინჯაოსა
ბრინჯი
ბრინჯის
ბრინჯს
ბრიტანეთთან
ბრიტანეთი
ბრიტანეთიდან
ბრიტანეთის
ბრიტანეთისა
ბრიტანეთისგან
ბრიტანეთმა
ბრიტანეთს
ბრიტანეთსა
ბრიტანეთში
ბრიტანელ
ბრიტანელები
ბრიტანელების
ბრიტანელებმა
ბრიტანელებს
ბრიტანელთა
ბრიტანელი
ბრიტანელმა
ბრიტანიკა
ბრიტანიკიდან
ბრიტანულ
ბრიტანული
ბრიტანულმა
ბრიტენი
ბრიტენის
ბრიტნი
ბრიუს
ბრიუსელი
ბრიუსელის
ბრიუსელში
ბრიჯიტ
ბრმა
ბროდვეიზე
ბროდვეის
ბროკჰაუზის
ბროკჰაუზისა
ბროლის
ბროსე
ბროსეს
ბრტყელ
ბრტყელი
ბრტყელია
ბრტყლად
ბრუკლინის
ბრუკლინში
ბრუნავს
ბრუნდება
ბრუნდებიან
ბრუნდებოდა
ბრუნეი
ბრუნეის
ბრუნვა
ბრუნვაში
ბრუნვის
ბრუნო
ბრუფორდი
ბრძანა
ბრძანება
ბრძანებას
ბრძანებები
ბრძანებების
ბრძანებებს
ბრძანებით
ბრძანების
ბრძანებულება
ბრძანებულებით
ბრძანებულების
ბრძენი
ბრძოლა
ბრძოლაზე
ბრძოლამ
ბრძოლას
ბრძოლაში
ბრძოლები
ბრძოლების
ბრძოლებს
ბრძოლებში
ბრძოლით
ბრძოლის
ბრძოლისა
ბრძოლისას
ბრძოლისთვის
ბრწყინვალე
ბრწყინვალების
ბრწყინვალედ
ბუ
ბუაჩიძე
ბუბა
ბუდა
ბუდაპეშტი
ბუდაპეშტის
ბუდაპეშტში
ბუდას
ბუდე
ბუდეები
ბუდეს
ბუდეში
ბუდიზმი
ბუდიზმის
ბუდის
ბუდისტი
ბუდისტურ
ბუდისტური
ბუდობენ
ბუდობს
ბუენოს
ბუზდიაკი
ბუზდიაკის
ბუზი
ბუკერის
ბუკია
ბულბული
ბულგ
ბულგარეთი
ბულგარეთის
ბულგარეთმა
ბულგარეთს
ბულგარეთში
ბულგარელი
ბულგარულ
ბულგარული
ბულეზი
ბულვარი
ბულვარის
ბულზი
ბუმბული
ბუმბულის
ბუნდესლიგა
ბუნდესლიგაში
ბუნდესლიგის
ბუნდოვანი
ბუნდოვანია
ბუნება
ბუნებაზე
ბუნებას
ბუნებასთან
ბუნებაში
ბუნებით
ბუნებითი
ბუნების
ბუნებისა
ბუნებისმეტყველების
ბუნებისმეტყველი
ბუნებრივ
ბუნებრივად
ბუნებრივი
ბუნებრივია
ბურაევოდან
ბურაევოს
ბურბონ
ბურბონთა
ბურბონი
ბურბონის
ბურბონს
ბურგუნდიელი
ბურგუნდიის
ბურდული
ბურების
ბურთები
ბურთების
ბურთი
ბურთით
ბურთის
ბურთს
ბურკინა
ბურჟუაზიის
ბურჟუაზიულ
ბურჟუაზიული
ბურუნდი
ბურუნდის
ბურუსი
ბურჭულაძე
ბურჯანაძე
ბურჯები
ბურჯი
ბუტანის
ბუტროს
ბუქარესტი
ბუქარესტის
ბუქარესტში
ბუღა
ბუღალტრული
ბუღაძე
ბუში
ბუშის
ბუშმა
ბუშტის
ბუჩქები
ბუჩქებია
ბუჩქების
ბუჩქი
ბუჩქნარებში
ბუჩქნარი
ბუხარი
ბუხარია
ბუხარის
ბუხრის
ბჰუტანის
გ
გა
გააბა
გააგზავნა
გააგზავნეს
გააგრძელა
გააგრძელეს
გააერთიანა
გააერთიანეს
გაავრცელა
გაავრცელეს
გააზრება
გააზრებული
გაათავისუფლა
გაათავისუფლეს
გაათანაბრა
გააკეთა
გააკეთეს
გააკეთოს
გააკრიტიკა
გააკრიტიკეს
გაამაგრა
გაამაგრეს
გაამართლა
გაამახვილა
გაამდიდრა
გაამყარა
გაამწვავა
გაანადგურა
გაანადგურეს
გაანგარიშება
გაანგარიშების
გაანთავისუფლეს
გააპროტესტა
გაარემონტეს
გაასამართლეს
გაასახლეს
გაატარა
გაატარეს
გააუმჯობესა
გააუქმა
გააუქმეს
გააფართოვა
გააფართოვეს
გააფთრებული
გააფორმა
გააფორმეს
გააფრთხილა
გააქვს
გააქტიურდა
გააშენა
გააჩინა
გააჩნდა
გააჩნდათ
გააჩნია
გააჩნიათ
გააცნო
გააცნობიერა
გააძევა
გააძევეს
გააძლიერა
გაახანგრძლივა
გაახმოვანა
გაბალის
გაბატონდა
გაბატონებულ
გაბატონებული
გაბატონებულია
გაბაშვილი
გაბაშვილის
გაბედა
გაბედული
გაბესკირია
გაბნეული
გაბონის
გაბრაზებული
გაბრიელ
გაბრიელა
გაბრიელი
გაბრიელის
გაბრუნდა
გაბუნია
გაგა
გაგამ
გაგარინის
გაგას
გაგება
გაგებას
გაგებით
გაგების
გაგზავნა
გაგზავნას
გაგზავნეს
გაგზავნილ
გაგზავნილი
გაგზავნის
გაგიკ
გაგნიძე
გაგოშიძე
გაგრა
გაგრაში
გაგრის
გაგრძელდა
გაგრძელდება
გაგრძელდეს
გაგრძელება
გაგრძელებაა
გაგრძელებაზე
გაგრძელებას
გაგრძელების
გაგრძელებულა
გაგუა
გადააბარა
გადაადგილდება
გადაადგილება
გადაადგილებას
გადაადგილების
გადაადგილებულ
გადაადგილებული
გადააკეთა
გადააკეთეს
გადაარჩენს
გადაარჩინა
გადაასახლა
გადაასახლეს
გადაასვენეს
გადააქვთ
გადააქვს
გადააქცია
გადააყენა
გადააყენეს
გადააჭარბა
გადაბარგდა
გადაბეის
გადაბმული
გადადგა
გადადგმული
გადადგომა
გადადგომის
გადადიან
გადადიოდა
გადადიოდნენ
გადადის
გადადო
გადაერთო
გადაერქვა
გადაეცა
გადაეცათ
გადაეცემა
გადაეცემოდა
გადაეხადა
გადავა
გადავიდა
გადავიდეთ
გადავიდეს
გადავიდნენ
გადავიდოდა
გადაზიდვების
გადაიდო
გადაიზარდა
გადაინაცვლა
გადაინაცვლეს
გადაიტანა
გადაიტანეს
გადაიქცა
გადაიქცევა
გადაიღეს
გადაიღო
გადაიყვანა
გადაიყვანეს
გადაიცა
გადაიცემა
გადაიცემოდა
გადაიხადა
გადაიხურა
გადაკეთდა
გადაკეთება
გადაკეთების
გადაკეთებული
გადაკეთებულია
გადაკვეთა
გადაკვეთაზე
გადაკვეთის
გადაკვეთს
გადალახა
გადალახეს
გადალახვა
გადამამუშავებელი
გადამდგარი
გადამდგარიყო
გადამუშავება
გადამუშავების
გადამუშავებული
გადამფრენი
გადამწყვეტ
გადამწყვეტი
გადანაწილდა
გადანაწილება
გადანაწილების
გადარჩა
გადარჩევა
გადარჩევის
გადარჩენა
გადარჩენას
გადარჩენილ
გადარჩენილი
გადარჩენის
გადარჩენისათვის
გადარჩნენ
გადასარჩენად
გადასასვლელად
გადასასვლელი
გადასატანი
გადასაღებ
გადასაღებად
გადასაყვანად
გადასაწყვეტად
გადასაჭრელად
გადასახადები
გადასახადების
გადასახადებს
გადასახადი
გადასახადის
გადასახადს
გადასახლდა
გადასახლდნენ
გადასახლება
გადასახლებაში
გადასახლებიდან
გადასახლების
გადასახლებული
გადასვლა
გადასვლას
გადასვლის
გადასვლისას
გადასული
გადასულიყვნენ
გადასულიყო
გადასცა
გადასცემდა
გადასცემს
გადასცეს
გადატანა
გადატანას
გადატანითი
გადატანილ
გადატანილი
გადატანის
გადატრიალება
გადატრიალებას
გადატრიალების
გადაუდებელი
გადაუკეთებიათ
გადაურჩა
გადაუხადა
გადაუხადეს
გადაქცევა
გადაქცევის
გადაღება
გადაღებას
გადაღებები
გადაღებების
გადაღების
გადაღებისას
გადაღებულ
გადაღებული
გადაღებულია
გადაღმა
გადაყენება
გადაყენების
გადაყვანა
გადაყვანილ
გადაყვანილი
გადაყვანის
გადაშენდა
გადაშენება
გადაშენების
გადაშენებული
გადაცემა
გადაცემას
გადაცემაში
გადაცემები
გადაცემების
გადაცემის
გადაცემული
გადაცმული
გადაწერა
გადაწერილი
გადაწერილია
გადაწვა
გადაწვეს
გადაწყდა
გადაწყვეტა
გადაწყვეტას
გადაწყვეტენ
გადაწყვეტილება
გადაწყვეტილებამ
გადაწყვეტილებას
გადაწყვეტილებები
გადაწყვეტილებების
გადაწყვეტილებებს
გადაწყვეტილებით
გადაწყვეტილების
გადაწყვეტილი
გადაწყვეტის
გადაწყვეტს
გადაწყვიტა
გადაწყვიტეს
გადაჭარბებული
გადაჭიმული
გადაჭიმულია
გადაჭრა
გადაჭრის
გადახდა
გადახდილი
გადახდის
გადახრა
გადახრილი
გადახურვა
გადახურვები
გადახურვის
გადახურული
გადახურულია
გადაჰყვა
გადაჰყურებს
გადებული
გადიან
გადიოდა
გადიოდნენ
გადის
გადმოგვცემს
გადმოდის
გადმოვიდა
გადმოიტანეს
გადმოსაცემად
გადმოსახლებული
გადმოსცემს
გადმოცემა
გადმოცემით
გადმოცემის
გადმოცემული
გადმოცემულია
გაეგზავნა
გაეგრძელებინა
გაედინება
გაეზარდა
გაეკეთებინა
გაემართა
გაემართნენ
გაემგზავრა
გაემგზავრნენ
გაენადგურებინა
გაერთიანდა
გაერთიანდნენ
გაერთიანება
გაერთიანებამ
გაერთიანებას
გაერთიანებაში
გაერთიანებები
გაერთიანებების
გაერთიანებით
გაერთიანების
გაერთიანებულ
გაერთიანებული
გაერთიანებულია
გაერთიანებულმა
გაერო
გაერომ
გაეროს
გაეროში
გაეტარებინა
გაეყარა
გაეშვა
გაეშურა
გაეცნო
გაეწია
გაეხსნა
გავა
გავარდა
გავიგოთ
გავიდა
გავიდნენ
გავლა
გავლენა
გავლენას
გავლენები
გავლენიან
გავლენიანი
გავლენით
გავლენის
გავლით
გავლილი
გავლის
გავრცელდა
გავრცელება
გავრცელებას
გავრცელებაში
გავრცელებით
გავრცელების
გავრცელებულ
გავრცელებული
გავრცელებულია
გავრცელებულნი
გაზ
გაზარდა
გაზარდეს
გაზაფხულზე
გაზაფხული
გაზაფხულიდან
გაზაფხულის
გაზაფხულსა
გაზეთ
გაზეთები
გაზეთების
გაზეთებში
გაზეთი
გაზეთის
გაზეთმა
გაზეთს
გაზეთში
გაზელი
გაზი
გაზის
გაზომვა
გაზომვის
გაზრდა
გაზრდას
გაზრდით
გაზრდილი
გაზრდის
გაზსადენის
გათავისუფლდა
გათავისუფლება
გათავისუფლებას
გათავისუფლების
გათავისუფლებული
გათამაშება
გათამაშებაში
გათამაშების
გათვალისწინება
გათვალისწინებით
გათვალისწინებულ
გათვალისწინებული
გათვალისწინებულია
გათვლილი
გათვლილია
გათლილი
გათხარა
გათხარეს
გათხევადების
გათხოვდა
გათხოვება
გათხოვების
გათხოვილი
გათხრა
გათხრები
გათხრების
გათხრებისას
გათხრებმა
გათხრილი
გაი
გაიანა
გაიარა
გაიარეს
გაიგებს
გაიგეს
გაიგზავნა
გაიგო
გაიგოს
გაივლის
გაიზარდა
გაიზარდოს
გაიზიარა
გაიზრდება
გაითვალისწინა
გაითქვა
გაითხარა
გაიკეთა
გაილაშქრა
გაიმართა
გაიმართება
გაიმარჯვა
გაიმარჯვეს
გაიმეორა
გაიოზ
გაიჟღერა
გაირკვა
გაირჩევა
გაისმა
გაიტანა
გაიტანეს
გაიტაცა
გაიტაცეს
გაიუს
გაიფორმა
გაიქცა
გაიქცნენ
გაიღო
გაიყვანა
გაიყვანეს
გაიყვეს
გაიყიდა
გაიყო
გაიშალა
გაიჩინა
გაიცა
გაიცემა
გაიცნეს
გაიცნო
გაიცნობს
გაიწვია
გაიწვიეს
გაიწმინდა
გაიხიზნა
გაიხსენა
გაიხსნა
გაიხსნება
გაკეთდა
გაკეთება
გაკეთების
გაკეთებულ
გაკეთებული
გაკეთებულია
გაკვეთილებზე
გაკვეთილები
გაკვეთილებს
გაკვეთილი
გაკოტრდა
გალ
გალა
გალავანი
გალავანს
გალავანში
გალავნით
გალავნის
გალაკტიონ
გალაკტიონის
გალაქტიკა
გალაქტიკაში
გალაქტიკები
გალაქტიკების
გალაქტიკის
გალაქტიკური
გალეაცო
გალები
გალების
გალერეა
გალერეას
გალერეაში
გალერეები
გალერეის
გალი
გალია
გალიაში
გალიდან
გალიის
გალილეის
გალილეო
გალინა
გალის
გალისიის
გალისიური
გალობა
გალობის
გამ
გამა
გამაგრდა
გამაგრება
გამაგრების
გამაგრებულ
გამაგრებული
გამაერთიანებელი
გამავალ
გამავალი
გამავრცელებელი
გამანადგურებელი
გამართა
გამართეს
გამართვა
გამართვის
გამართულ
გამართული
გამართულია
გამართულიყო
გამარტივებული
გამარჯვება
გამარჯვებამ
გამარჯვებას
გამარჯვებაში
გამარჯვებები
გამარჯვებების
გამარჯვებით
გამარჯვების
გამარჯვებისთვის
გამარჯვებულ
გამარჯვებულად
გამარჯვებულები
გამარჯვებული
გამარჯვებულია
გამარჯვებულის
გამარჯვებულმა
გამარჯვებულს
გამარჯობა
გამგე
გამგებელი
გამგებლად
გამგებლის
გამგებლობაში
გამგედ
გამგეობა
გამგეობის
გამგზავრება
გამგზავრების
გამგის
გამეორება
გამეფდა
გამეფება
გამეფების
გამზადებული
გამზირები
გამზირზე
გამზირი
გამზირიდან
გამზირის
გამთენიისას
გამიზნული
გამიჯნული
გამო
გამოავლინა
გამოარჩევს
გამოაქვეყნა
გამოაქვეყნეს
გამოაქვს
გამოაცხადა
გამოაცხადეს
გამოგზავნა
გამოგზავნილი
გამოგონება
გამოგონების
გამოგონილ
გამოგონილი
გამოდგა
გამოდგება
გამოდიან
გამოდიოდა
გამოდიოდნენ
გამოდის
გამოედინება
გამოეთიშა
გამოეყენებინა
გამოეყენებინათ
გამოეყვნენ
გამოეყო
გამოეყოფა
გამოეცხადა
გამოეცხადებინა
გამოეწვია
გამოეხმაურა
გამოვა
გამოვარდა
გამოვიდა
გამოვიდნენ
გამოვიდოდა
გამოვიყენოთ
გამოვლენა
გამოვლენილი
გამოვლენილია
გამოვლენის
გამოვლინდა
გამოვლინება
გამოვყოთ
გამოთვლა
გამოთვლების
გამოთვლითი
გამოთვლის
გამოთქვა
გამოთქვამდა
გამოთქვამს
გამოთქვეს
გამოთქმა
გამოთქმები
გამოთქმის
გამოთქმული
გამოთქმულია
გამოიგონა
გამოიგონეს
გამოითვლება
გამოითქვა
გამოითქმის
გამოიკვეთა
გამოიკვლია
გამოიკვლიეს
გამოიმუშავა
გამოიმუშავებს
გამოირჩევა
გამოირჩევიან
გამოირჩეოდა
გამოირჩეოდნენ
გამოისახება
გამოისყიდა
გამოიტანა
გამოიღო
გამოიყენა
გამოიყენება
გამოიყენებდა
გამოიყენებდნენ
გამოიყენებენ
გამოიყენებთ
გამოიყენებოდა
გამოიყენებს
გამოიყენეს
გამოიყენონ
გამოიყენოს
გამოიყვანა
გამოიყვანეს
გამოიყო
გამოიყოს
გამოიყოფა
გამოიყურება
გამოიყურებოდა
გამოიჩინა
გამოიჩინეს
გამოიცა
გამოიცემა
გამოიცემოდა
გამოიცვალა
გამოიძახა
გამოიძახეს
გამოიწვევდა
გამოიწვევს
გამოიწვია
გამოიწვიეს
გამოიწვიოს
გამოიხატა
გამოიხატება
გამოიხატებოდა
გამოკეტა
გამოკეტეს
გამოკვეთილი
გამოკვეთილია
გამოკვლევა
გამოკვლევები
გამოკვლევების
გამოკვლევებმა
გამოკვლევებს
გამოკვლევის
გამოკვლეული
გამოკითხვა
გამოკითხვაში
გამოკითხვის
გამოკლებით
გამომავალ
გამომავალი
გამომგონებელი
გამომდინარე
გამომდინარეობს
გამომუშავება
გამომუშავებული
გამომუშავებულია
გამომც
გამომცემელი
გამომცემლობა
გამომცემლობამ
გამომცემლობის
გამომცხვარი
გამომძიებელი
გამომწვარი
გამომწვევ
გამომწვევი
გამომხატველი
გამონათქვამები
გამონაკლისი
გამონაკლისია
გამონაკლისის
გამონაკლისს
გამორიცხავს
გამორიცხული
გამორჩეულ
გამორჩეულად
გამორჩეული
გამორჩეულია
გამოსადეგი
გამოსადეგია
გამოსავალი
გამოსავლენად
გამოსაკვლევად
გამოსაყენებლად
გამოსაცემად
გამოსახავდნენ
გამოსახავენ
გამოსახავს
გამოსახატავად
გამოსახვა
გამოსახვის
გამოსახულ
გამოსახულება
გამოსახულებაა
გამოსახულებას
გამოსახულებები
გამოსახულებებით
გამოსახულებების
გამოსახულებებს
გამოსახულებით
გამოსახულების
გამოსახული
გამოსახულია
გამოსვლა
გამოსვლამდე
გამოსვლას
გამოსვლაში
გამოსვლები
გამოსვლების
გამოსვლებს
გამოსვლებში
გამოსვლიდან
გამოსვლით
გამოსვლის
გამოსვლისას
გამოსვლისთანავე
გამოსულ
გამოსულა
გამოსული
გამოსულიყო
გამოსულმა
გამოსცა
გამოსცემდა
გამოსცემს
გამოსცეს
გამოსხივება
გამოსხივებას
გამოსხივების
გამოტანა
გამოტანილი
გამოტანის
გამოტოვა
გამოუვიდა
გამოუყენებიათ
გამოუყო
გამოუშვა
გამოუშვეს
გამოუჩნდა
გამოუცემელი
გამოუცხადა
გამოუცხადეს
გამოფენა
გამოფენაზე
გამოფენას
გამოფენაში
გამოფენებზე
გამოფენები
გამოფენების
გამოფენებს
გამოფენებში
გამოფენილი
გამოფენილია
გამოფენის
გამოფიტვის
გამოქვაბულები
გამოქვაბულებში
გამოქვაბული
გამოქვაბულის
გამოქვაბულში
გამოქვეყნდა
გამოქვეყნება
გამოქვეყნების
გამოქვეყნებულ
გამოქვეყნებული
გამოქვეყნებულია
გამოღვიძება
გამოყენება
გამოყენებადი
გამოყენებაზე
გამოყენებამ
გამოყენებას
გამოყენებასთან
გამოყენებაში
გამოყენებაც
გამოყენებით
გამოყენებითი
გამოყენების
გამოყენებისა
გამოყენებისათვის
გამოყენებისას
გამოყენებისთვის
გამოყენებულ
გამოყენებული
გამოყენებულია
გამოყვანა
გამოყვანილი
გამოყვანილია
გამოყვეს
გამოყო
გამოყოფა
გამოყოფას
გამოყოფენ
გამოყოფილ
გამოყოფილი
გამოყოფილია
გამოყოფის
გამოყოფს
გამოშვება
გამოშვებას
გამოშვების
გამოშვებულ
გამოშვებული
გამოჩენა
გამოჩენამ
გამოჩენამდე
გამოჩენას
გამოჩენილ
გამოჩენილი
გამოჩენილმა
გამოჩენის
გამოჩნდა
გამოჩნდება
გამოჩნდნენ
გამოც
გამოცდა
გამოცდას
გამოცდები
გამოცდების
გამოცდილ
გამოცდილება
გამოცდილებას
გამოცდილების
გამოცდილი
გამოცდის
გამოცემა
გამოცემაზე
გამოცემამ
გამოცემამდე
გამოცემას
გამოცემაში
გამოცემები
გამოცემების
გამოცემებში
გამოცემიდან
გამოცემით
გამოცემის
გამოცემულ
გამოცემულა
გამოცემული
გამოცემულია
გამოცხადდა
გამოცხადება
გამოცხადებას
გამოცხადების
გამოცხადებულ
გამოცხადებული
გამოცხადებულია
გამოძახება
გამოძახებისას
გამოძახილი
გამოძიება
გამოძიებას
გამოძიების
გამოწვევა
გამოწვევის
გამოწვეულ
გამოწვეული
გამოწვეულია
გამოწყობილი
გამოხატა
გამოხატავდა
გამოხატავდნენ
გამოხატავენ
გამოხატავს
გამოხატეს
გამოხატვა
გამოხატვის
გამოხატულება
გამოხატულებაა
გამოხატული
გამოხატულია
გამოხმაურება
გამოჯანმრთელებული
გამოჰყოფს
გამრავლება
გამრავლების
გამრეკელი
გამსახურდია
გამსახურდიამ
გამსახურდიას
გამსჭვალული
გამტარი
გამუდმებით
გამუდმებული
გამქრალი
გამყიდველი
გამყინვარება
გამყინვარების
გამყოფი
გამყრელიძე
გამშვები
გამძლე
გამწვავდა
გამჭვირვალე
გამჭვირვალობა
გამჭოლი
გამხდარა
გამხდარიყვნენ
გამხდარიყო
გამხმარი
გან
განა
განაახლა
განაახლეს
განაგებდა
განაგებდნენ
განაგებს
განაგრძეს
განაგრძო
განაგრძობდა
განაგრძობდნენ
განაგრძობს
განადგურდა
განადგურება
განადგურებას
განადგურებით
განადგურების
განადგურებულ
განადგურებული
განადგურებულია
განავითარა
განავითარეს
განავრცო
განათავსა
განათავსეს
განათება
განათების
განათებული
განათებულია
განათლება
განათლებაზე
განათლებას
განათლებაში
განათლებით
განათლების
განათლებისა
განათლებულ
განათლებული
განამარხებული
განამტკიცა
განაპირა
განაპირას
განაპირობა
განაპირობებდა
განაპირობებს
განარისხა
განარჩევენ
განასახიერა
განასახიერებდა
განასახიერებს
განასხვავებენ
განასხვავებს
განაშენიანება
განაშენიანების
განაჩენი
განაჩენის
განაცხადა
განაცხადეს
განაცხადი
განაცხადში
განაწილება
განაწილებას
განაწილების
განაწილებული
განახლდა
განახლება
განახლებადი
განახლებას
განახლების
განახლებულ
განახლებული
განახლებულია
განახორციელა
განახორციელეს
განახორციელოს
განგის
განდალფი
განდეგილი
განდევნა
განდევნეს
განდევნილი
განდევნის
განდი
განდის
განედის
განეკუთვნება
განეკუთვნებიან
განეკუთვნებოდა
განეხორციელებინა
განვითარდა
განვითარდეს
განვითარება
განვითარებად
განვითარებადი
განვითარებაზე
განვითარებამ
განვითარებას
განვითარებასა
განვითარებასთან
განვითარებაში
განვითარებით
განვითარების
განვითარებისა
განვითარებისათვის
განვითარებისთვის
განვითარებულ
განვითარებული
განვითარებულია
განვიხილოთ
განვლო
განზომილება
განზრახ
განზრახვა
განზრახული
განთავისუფლდა
განთავისუფლება
განთავისუფლებას
განთავისუფლების
განთავისუფლებული
განთავსდა
განთავსება
განთავსების
განთავსებულ
განთავსებული
განთავსებულია
განთესილი
განთიადი
განთიადის
განთქმულ
განთქმული
განთქმულია
განი
განიარაღების
განიერ
განიერი
განიერია
განივ
განივი
განიზრახა
განიმარტება
განირჩევა
განის
განისაზღვრა
განისაზღვრება
განისაზღვრებოდა
განისაზღვროს
განისვენებს
განიცადა
განიცადეს
განიცდიან
განიცდიდა
განიცდიდნენ
განიცდის
განიხილა
განიხილავდა
განიხილავდნენ
განიხილავენ
განიხილავს
განიხილება
განიხილებოდა
განიხილეს
განკარგულება
განკარგულებაში
განკარგულებით
განკარგულების
განკითხვის
განკუთვნილ
განკუთვნილი
განკუთვნილია
განკურნება
განკურნების
განლაგდა
განლაგება
განლაგებას
განლაგების
განლაგებულ
განლაგებული
განლაგებულია
განლაგებულნი
განმავლობაში
განმავლობაშიც
განმათავისუფლებელ
განმათავისუფლებელი
განმანათლებელი
განმანათლებლის
განმანათლებლობის
განმარტა
განმარტავს
განმარტება
განმარტებას
განმარტებები
განმარტებით
განმარტებითი
განმარტების
განმარტებული
განმარტებულია
განმასხვავებელი
განმეორდა
განმეორებადი
განმეორებით
განმეორებითი
განმსაზღვრელი
განმტკიცდა
განმტკიცება
განმტკიცებას
განმტკიცების
განპირობებული
განპირობებულია
განრიგი
განრისხებული
განრისხებულმა
განსაზღვრა
განსაზღვრავდა
განსაზღვრავენ
განსაზღვრავს
განსაზღვრას
განსაზღვრება
განსაზღვრის
განსაზღვრისათვის
განსაზღვროს
განსაზღვრულ
განსაზღვრული
განსაზღვრულია
განსაკუთრებით
განსაკუთრებულ
განსაკუთრებულად
განსაკუთრებული
განსამტკიცებლად
განსახიერება
განსახიერებული
განსახილველად
განსახლების
განსახორციელებლად
განსვენებული
განსხვავდება
განსხვავდებიან
განსხვავდებოდა
განსხვავება
განსხვავებას
განსხვავებები
განსხვავებების
განსხვავებით
განსხვავების
განსხვავებულ
განსხვავებულად
განსხვავებული
განსხვავებულია
განტოლება
განტოლებები
განტოლებების
განტოლების
განუდგა
განუვითარდა
განუვითარებელი
განუმეორებელი
განურჩევლად
განუსაზღვრელი
განუყოფელ
განუყოფელი
განუცხადა
განუწყვეტელი
განუწყვეტლივ
განფენილია
განქორწინდა
განქორწინდნენ
განქორწინება
განქორწინების
განყოფილება
განყოფილებაზე
განყოფილებას
განყოფილებაში
განყოფილებები
განყოფილების
განშტოება
განშტოებას
განშტოების
განცალკევებით
განცალკევებული
განცდა
განცდილი
განცხადება
განცხადებას
განცხადებაში
განცხადებები
განცხადებით
განცხადების
განძი
განძის
განწყობა
განწყობას
განწყობილ
განწყობილი
განწყობის
განხეთქილება
განხეთქილების
განხილვა
განხილვას
განხილვების
განხილვის
განხილვისას
განხილულ
განხილული
განხილულია
განხორციელდა
განხორციელდეს
განხორციელება
განხორციელებას
განხორციელებაში
განხორციელების
განხორციელებულ
განხორციელებულა
განხორციელებული
განხრით
განჯა
განჯაში
განჯევის
განჯის
გაორმაგდა
გაჟღენთილი
გაჟღერდა
გარანტია
გარანტიას
გარანტირებული
გარბის
გარდ
გარდა
გარდაბნის
გარდაეცვალა
გარდაიქმნა
გარდაიქმნება
გარდაიცვალა
გარდაიცვალნენ
გარდამავალ
გარდამავალი
გარდამტეხი
გარდატეხა
გარდატეხის
გარდაუვალი
გარდაქმნა
გარდაქმნას
გარდაქმნის
გარდაცვალება
გარდაცვალებამ
გარდაცვალებამდე
გარდაცვალებას
გარდაცვალებიდან
გარდაცვალებით
გარდაცვალების
გარდაცვლილ
გარდაცვლილთა
გარდაცვლილი
გარდაცვლილის
გარე
გარეგან
გარეგანი
გარეგნობა
გარეგნობით
გარეგნობის
გარეგნულად
გარეგნული
გარედან
გარეთ
გარეთა
გარეთაც
გარეთკენ
გარეკანზე
გარეკანი
გარეკანის
გარემო
გარემოება
გარემოზე
გარემონტდა
გარემოს
გარემოსა
გარემოსდაცვითი
გარემოსთან
გარემოში
გარემოცვაში
გარეუბანი
გარეუბანში
გარეუბნებში
გარეულ
გარეული
გარეშე
გარეშეა
გარეშეც
გარეჯის
გართობა
გართობის
გართულდა
გართულებული
გარი
გარიბალდი
გარიბალდის
გარიგება
გარიგების
გარინჩა
გარინჩას
გარიცხეს
გარკვევა
გარკვეულ
გარკვეული
გარკვეულწილად
გარნიზონი
გარნიზონის
გარს
გარსი
გარსია
გარსის
გარუნ
გარღვევა
გარშემო
გარშემორტყმული
გარშემორტყმულია
გარჩევა
გასაბჭოების
გასაგებად
გასაგები
გასაგებია
გასაგრძელებლად
გასაზრდელად
გასათავისუფლებლად
გასათვალისწინებელია
გასაკეთებლად
გასაკვირი
გასამაგრებლად
გასამყარებლად
გასანადგურებლად
გასაოცარი
გასართობ
გასართობი
გასარკვევად
გასასვლელი
გასასვლელის
გასაუმჯობესებლად
გასაღები
გასაღების
გასაღებს
გასაყიდად
გასაძლიერებლად
გასაჭირი
გასდევს
გასეირნება
გასვლა
გასვლაზე
გასვლამდე
გასვლას
გასვლით
გასვლის
გასპარ
გასროლა
გასტანა
გასტონ
გასტროლებზე
გასტროლები
გასულ
გასული
გასულიყო
გასცა
გასცდა
გასცემს
გასცეს
გასწვრივ
გასწვრივი
გასწია
გატანა
გატანილ
გატანილი
გატანის
გატარდა
გატარება
გატარებას
გატარების
გატარებულ
გატარებული
გატაცება
გატაცების
გატაცებული
გატეხა
გატეხილი
გაუარესდა
გაუარესება
გაუარესების
გაუგებარი
გაუგზავნა
გაუგზავნეს
გაუდინარი
გაუთხოვარი
გაუკეთა
გაუკეთებია
გაუკეთეს
გაუმჯობესდა
გაუმჯობესება
გაუმჯობესებას
გაუმჯობესების
გაუმჯობესებული
გაუპატიურების
გაურკვეველ
გაურკვეველი
გაურკვეველია
გაუსვა
გაუსის
გაუსწრო
გაუტანა
გაუტოლდა
გაუქმდა
გაუქმება
გაუქმებას
გაუქმების
გაუქმებულ
გაუქმებული
გაუქმებულია
გაუშვა
გაუშვეს
გაუჩინა
გაუჩინარდა
გაუჩნდა
გაუჩნდათ
გაუძლო
გაუძღვა
გაუწია
გაუწიეს
გაუწიოს
გაუჭირდა
გაუხსნა
გაუხსნეს
გაფანტული
გაფართოება
გაფართოებას
გაფართოებით
გაფართოების
გაფართოებულ
გაფართოებული
გაფართოვდა
გაფიცვა
გაფიცვის
გაფორმდა
გაფორმება
გაფორმებაში
გაფორმების
გაფორმებული
გაფორმებულია
გაფრენა
გაფრთხილება
გაფრინდა
გაფრინდაშვილი
გაქვავებული
გაქვს
გაქრა
გაქრისტიანების
გაქრობა
გაქრობის
გაქცევა
გაქცევას
გაქცევით
გაქცევის
გაქცეული
გაქცეულიყო
გაღმა
გაყვა
გაყვანა
გაყვანას
გაყვანილი
გაყვანილია
გაყვანის
გაყიდა
გაყიდეს
გაყიდვა
გაყიდვად
გაყიდვადი
გაყიდვაში
გაყიდვები
გაყიდვების
გაყიდვებმა
გაყიდვით
გაყიდვის
გაყიდული
გაყიდულია
გაყინული
გაყოლებაზე
გაყოლებით
გაყოფა
გაყოფილი
გაყოფილია
გაყოფის
გაყრა
გაშენდა
გაშენება
გაშენებული
გაშენებულია
გაშვება
გაშვების
გაშვებულ
გაშვებული
გაშლიდან
გაშლილ
გაშლილი
გაშლილია
გაშორდა
გაჩაღდა
გაჩენა
გაჩენას
გაჩენილი
გაჩენის
გაჩერდა
გაჩერება
გაჩეჩილაძე
გაჩნდა
გაჩნდნენ
გაცემა
გაცემის
გაცემული
გაცვლა
გაცვლითი
გაცვლის
გაცილებით
გაცნობა
გაცნობის
გაცურა
გაძარცვა
გაძარცვეს
გაძევება
გაძევებული
გაძლიერდა
გაძლიერება
გაძლიერებას
გაძლიერების
გაძლიერებული
გაწევა
გაწევის
გაწევრიანდა
გაწევრიანება
გაწევრიანების
გაწეული
გაწვევის
გაწვრთნილი
გაწმენდა
გაწმენდის
გაწოლილია
გაწყვეტა
გაწყვიტა
გაწყობილი
გაჭრა
გაჭრილი
გაჭრილია
გახადა
გახარია
გახდა
გახდება
გახდებოდა
გახდეს
გახდნენ
გახვეული
გახლავთ
გახლდათ
გახმაურებული
გახსენება
გახსნა
გახსნას
გახსნეს
გახსნით
გახსნილ
გახსნილი
გახსნილია
გახსნის
გახსნისას
გახურებისას
გახშირდა
გაჯერებული
გაჰქონდათ
გაჰყვა
გაჰყოლოდა
გდრ
გე
გებრიელი
გებრიელის
გეგეშიძე
გეგეჭკორი
გეგმა
გეგმავდა
გეგმავდნენ
გეგმავს
გეგმაზე
გეგმას
გეგმაში
გეგმები
გეგმების
გეგმებს
გეგმით
გეგმის
გედევანიშვილი
გედი
გედის
გევარა
გევარას
გევინ
გეზი
გეი
გელა
გელათის
გელაშვილი
გელმანი
გელოვანი
გემ
გემებზე
გემები
გემებით
გემების
გემებს
გემზე
გემი
გემით
გემის
გემმა
გემო
გემოვნებით
გემოვნების
გემოთი
გემოს
გემრიელი
გემს
გენადი
გენდერულ
გენდერული
გენეალოგია
გენეალოგიური
გენების
გენერალ
გენერალი
გენერალმა
გენერალურ
გენერალური
გენერალურმა
გენერლები
გენერლის
გენეტიკის
გენეტიკურ
გენეტიკურად
გენეტიკური
გენი
გენის
გენო
გენოციდი
გენოციდის
გენუის
გენშტაბის
გეოგრაფები
გეოგრაფი
გეოგრაფია
გეოგრაფიას
გეოგრაფიაში
გეოგრაფიის
გეოგრაფიისა
გეოგრაფიულ
გეოგრაფიულად
გეოგრაფიული
გეოდეზიური
გეოლოგი
გეოლოგია
გეოლოგიის
გეოლოგიურ
გეოლოგიურად
გეოლოგიური
გეოლოგმა
გეომეტრია
გეომეტრიის
გეომეტრიულ
გეომეტრიული
გეომორფოლოგია
გეომორფოლოგიის
გეომორფოლოგიური
გეოპოლიტიკური
გეორგ
გეორგი
გეორგიევსკის
გეორგიოს
გეოფიზიკის
გეოფიზიკური
გერასიმე
გერბები
გერბზე
გერბთან
გერბი
გერბის
გერი
გერის
გერმ
გერმანე
გერმანელ
გერმანელები
გერმანელების
გერმანელებმა
გერმანელებს
გერმანელთა
გერმანელი
გერმანელმა
გერმანია
გერმანიამ
გერმანიას
გერმანიასა
გერმანიასთან
გერმანიაში
გერმანიიდან
გერმანიის
გერმანიისა
გერმანულ
გერმანულად
გერმანულენოვან
გერმანულენოვანი
გერმანული
გერმანულმა
გერონტი
გერჰარდ
გეტინგენის
გეუბნებით
გეღარქუნიქის
გვ
გვამი
გვამს
გვამცნობს
გვარ
გვარად
გვარდია
გვარდიამ
გვარდიის
გვარები
გვარების
გვარი
გვარია
გვარიდან
გვარით
გვარის
გვარისა
გვაროვნული
გვარს
გვარში
გვასალია
გვატემალა
გვატემალაში
გვატემალის
გვაუწყებს
გვაქვს
გვაძლევს
გვაწვდის
გვახარია
გვევლინება
გველები
გველების
გველი
გველის
გვენეტაძე
გვერდებზე
გვერდები
გვერდებიდან
გვერდების
გვერდებში
გვერდზე
გვერდი
გვერდიანი
გვერდიგვერდ
გვერდიდან
გვერდით
გვერდითა
გვერდითი
გვერდის
გვერდს
გვერდში
გვერდწითელი
გვექნება
გვთავაზობს
გვიან
გვიანდელ
გვიანდელი
გვიანდელია
გვიანი
გვინდა
გვინეა
გვინეაში
გვინეის
გვირაბების
გვირაბი
გვირაბის
გვირგვინი
გვირგვინით
გვირგვინის
გვირგვინს
გვიჩვენებს
გვრ
გვრიტიშვილი
გვსურს
გვხდება
გვხვდება
გვხვდებიან
გზა
გზაა
გზად
გზაზე
გზათა
გზამკვლევი
გზას
გზატკეცილზე
გზატკეცილი
გზატკეცილის
გზაში
გზაჯვარედინზე
გზებზე
გზები
გზებით
გზების
გზებს
გზიდან
გზით
გზის
გთავაზობთ
გი
გია
გიბრალტარის
გიბსონი
გიგა
გიგანტი
გიგანტურ
გიგანტური
გიგი
გიგინეიშვილი
გიგო
გივი
გიზი
გიზის
გიზო
გიიომ
გილ
გილანი
გილბერტი
გილბერტის
გილდიის
გილმორი
გილმორის
გილმორმა
გიმნაზია
გიმნაზიაში
გიმნაზიის
გინდა
გინეკოლოგი
გინესის
გიორგაძე
გიორგი
გიორგიმ
გიორგის
გიორგისა
გიორგობიანი
გიპუსკოის
გირეი
გირეის
გირვანქა
გიტარა
გიტარაზე
გიტარები
გიტარების
გიტარის
გიტარისტ
გიტარისტი
გიტარისტის
გიტარისტმა
გიული
გლაზგოს
გლდანის
გლენ
გლეხები
გლეხების
გლეხებმა
გლეხებს
გლეხთა
გლეხი
გლეხის
გლეხობა
გლეხობის
გლეხური
გლობალიზაციის
გლობალურ
გლობალური
გლობუსზე
გლობუსი
გლობუსის
გლოვერი
გლოვის
გლორია
გლუვი
გლუვია
გმირად
გმირები
გმირების
გმირებს
გმირთა
გმირი
გმირია
გმირის
გმირმა
გმირს
გმირულად
გმირული
გნეუს
გო
გოა
გობეჯიშვილი
გობუსტანის
გოგა
გოგებაშვილი
გოგებაშვილის
გოგი
გოგია
გოგირდი
გოგირდის
გოგირდოვანი
გოგის
გოგიტიძე
გოგიშვილი
გოგიჩაიშვილი
გოგო
გოგოლაშვილი
გოგოლაძე
გოგოლი
გოგოლის
გოგონა
გოგონათა
გოგონამ
გოგონას
გოგონები
გოგონების
გოგონებს
გოგოს
გოგრა
გოგუაძე
გოდერძი
გოდუაძე
გოეთეს
გოთას
გოთიკური
გოთური
გოიასი
გოიასის
გოიგოლის
გოლდენ
გოლები
გოლების
გოლთა
გოლი
გოლით
გოლის
გოლუეის
გოლფის
გომბორის
გომელაური
გომესი
გომის
გონდორის
გონება
გონებას
გონებაში
გონების
გონებრივი
გონიერი
გონივრული
გონს
გონსალესი
გონსალო
გონძაგა
გონძაგას
გორა
გორაზე
გორაკ
გორაკზე
გორანბოის
გორასამარხი
გორბაჩოვი
გორბაჩოვის
გორგასლის
გორგაძე
გორდა
გორდეზიანი
გორდონ
გორდონი
გორი
გორიდან
გორიო
გორის
გორკი
გორკის
გორში
გოტიკური
გოტორპის
გოტფრიდ
გოქჩაის
გოჩა
გოცირიძე
გრ
გრადუსი
გრავისით
გრავიტაცია
გრავიტაციის
გრავიტაციული
გრამატიკა
გრამატიკის
გრამატიკულ
გრამატიკული
გრამი
გრამია
გრამს
გრამფირფიტა
გრამფირფიტაზე
გრამფირფიტის
გრან
გრანადა
გრანადის
გრანდ
გრანდე
გრანდი
გრანდიოზული
გრანიტებით
გრანიტის
გრანტ
გრანტი
გრანტის
გრაუბიუნდენის
გრაფ
გრაფემა
გრაფემის
გრაფი
გრაფიკა
გრაფიკის
გრაფიკოსი
გრაფიკულ
გრაფიკული
გრაფინია
გრაფის
გრაფიტი
გრაფიტის
გრაფმა
გრაცის
გრეგ
გრეგორი
გრეი
გრეის
გრეისი
გრემ
გრემი
გრემის
გრენადერთა
გრენლანდია
გრენლანდიაში
გრენლანდიის
გრეტა
გრიბოედოვის
გრიგოლ
გრიგოლი
გრიგოლია
გრიგოლის
გრიგოლმა
გრიგორ
გრიგორი
გრიგორიანული
გრილი
გრინვიჩის
გრინი
გრიპის
გრიფინების
გრიფინი
გროვა
გროვდება
გროზნო
გროზნოს
გროზნოში
გროს
გროსუ
გროსუს
გრუზინსკი
გრუნტი
გრუნტის
გრუნტში
გრძედის
გრძელ
გრძელდება
გრძელდებოდა
გრძელვადიან
გრძელვადიანი
გრძელი
გრძელია
გრძივ
გრძივი
გრძნობა
გრძნობას
გრძნობდა
გრძნობები
გრძნობების
გრძნობებს
გრძნობის
გრძნობს
გსურთ
გუ
გუბადლის
გუბაზ
გუბერნატორ
გუბერნატორად
გუბერნატორი
გუბერნატორის
გუბერნატორმა
გუბერნატორს
გუბერნია
გუბერნიაში
გუბერნიის
გუგული
გუგუშვილი
გუდამაყრის
გუდაუთიდან
გუდაუთის
გუდიაშვილის
გულ
გულდი
გულზე
გული
გულია
გულით
გულის
გულისხმობდა
გულისხმობს
გულმკერდის
გულმოდგინედ
გულრიფშიდან
გულრიფშის
გულს
გულშემატკივართა
გულშემატკივარი
გულშემატკივრები
გულშემატკივრების
გულში
გულწრფელი
გუმბათი
გუმბათიანი
გუმბათით
გუმბათის
გუმბათოვანი
გუმბათქვეშა
გუმისთის
გუნდ
გუნდად
გუნდები
გუნდების
გუნდებმა
გუნდებს
გუნდებში
გუნდთან
გუნდი
გუნდიდან
გუნდის
გუნდისა
გუნდისთვის
გუნდმა
გუნდს
გუნდურ
გუნდური
გუნდში
გუნია
გურამ
გურამიშვილი
გურამიშვილის
გურგენ
გურგენი
გურგენიძე
გურია
გურიას
გურიასა
გურიაში
გურიელი
გურიელის
გურიელმა
გურიელს
გურიიდან
გურიის
გურუ
გურული
გურჯაანის
გურჯი
გურჯისტანის
გუსარის
გუსტავ
გუსტავი
გუტენბერგზე
გუშინ
გფრ
დ
და
დააარსა
დააარსეს
დააბრუნა
დააბრუნეს
დააგროვა
დაადანაშაულა
დაადანაშაულეს
დაადასტურა
დაადასტურეს
დაადგა
დაადგეს
დაადგინა
დაადგინეს
დაადო
დაავადდა
დაავადება
დაავადებათა
დაავადებას
დაავადებები
დაავადებების
დაავადებებს
დაავადებით
დაავადების
დაავადებულ
დაავადებულთა
დაავადებული
დაავალა
დააზარალა
დააზიანა
დააკავა
დააკავეს
დააკავშირა
დააკისრა
დააკმაყოფილა
დაამარცხა
დაამარცხეს
დაამატა
დაამატეს
დაამზადა
დაამზადეს
დაამთავრა
დაამთავრეს
დაამკვიდრა
დაამონტაჟეს
დაამტკიცა
დაამტკიცეს
დაამუშავა
დაამყარა
დაამყარეს
დაამხეს
დაამხო
დაანგრია
დაანგრიეს
დაანება
დაანონსდა
დააპატიმრა
დააპატიმრეს
დააპროექტა
დაარბია
დაარბიეს
დაარსდა
დაარსება
დაარსებას
დაარსებაში
დაარსებიდან
დაარსების
დაარსებულ
დაარსებული
დაარსებულია
დაარტყა
დაარქვა
დაარქვეს
დაარქივების
დაარქივებული
დაარქივებულია
დაარღვია
დაარწმუნა
დაასაბუთა
დაასაფლავეს
დაასახელა
დაასახელეს
დაასახლა
დაასკვნა
დაასრულა
დაასრულეს
დაასუსტა
დაატყდა
დაატყვევა
დაატყვევეს
დააფინანსა
დააფიქსირა
დააფიქსირეს
დააფუძნა
დააფუძნეს
დააქორწინა
დააქორწინეს
დააყენა
დააყენეს
დააშენეს
დააჩქარა
დააწესა
დააწინაურეს
დააწკაპუნეთ
დაახ
დაახასიათა
დაახლ
დაახლოება
დაახლოებით
დაახლოების
დაახლოებული
დააჯილდოვა
დააჯილდოვეს
დაბ
დაბა
დაბადება
დაბადებამდე
დაბადებას
დაბადებიდან
დაბადებით
დაბადების
დაბადებისას
დაბადებისთანავე
დაბადებული
დაბალ
დაბალი
დაბალია
დაბანაკდა
დაბაში
დაბეჭდა
დაბეჭდილი
დაბეჭდილია
დაბინძურება
დაბინძურების
დაბინძურებული
დაბის
დაბლა
დაბლობ
დაბლობები
დაბლობზე
დაბლობი
დაბლობის
დაბლობს
დაბლობში
დაბნელება
დაბოლოება
დაბოლოებაზე
დაბომბა
დაბომბეს
დაბომბვა
დაბომბვის
დაბრუნდა
დაბრუნდება
დაბრუნდებოდა
დაბრუნდეს
დაბრუნდნენ
დაბრუნება
დაბრუნებაზე
დაბრუნებას
დაბრუნებიდან
დაბრუნების
დაბრუნებისას
დაბრუნებისთანავე
დაბრუნებულ
დაბრუნებულა
დაბრუნებული
დაბრუნებულიყო
დაბრუნებულმა
დაგ
დაგეგმა
დაგეგმარება
დაგეგმარების
დაგეგმვა
დაგეგმვის
დაგეგმილ
დაგეგმილი
დაგეგმილია
დაგვეხმარეთ
დაგვირგვინდა
დაგლას
დაგლასი
დაგმეს
დაგმო
დაგროვება
დაგროვების
დაგროვებული
დაგროვილი
დადაბლებული
დადასტურდა
დადასტურება
დადასტურებული
დადასტურებულია
დადგა
დადგენა
დადგენას
დადგენილ
დადგენილება
დადგენილებით
დადგენილების
დადგენილი
დადგენილია
დადგენის
დადგეს
დადგინდა
დადგმა
დადგმაში
დადგმის
დადგმულ
დადგმული
დადგმულია
დადება
დადებით
დადებითად
დადებითი
დადების
დადებულ
დადებული
დადეს
დადიან
დადიანების
დადიანი
დადიანის
დადიანმა
დადიანს
დადიოდა
დადიოდნენ
დადის
დადო
დაე
დაებრუნებინა
დაებრუნებინათ
დაედევნა
დაედო
დაევალა
დაეთანხმა
დაეთმო
დაეკავებინა
დაეკავებინათ
დაეკისრა
დაემართა
დაემატა
დაემთხვა
დაემორჩილა
დაემტკიცებინა
დაემუქრა
დაემყარებინა
დაემხო
დაენიშნა
დაერთო
დაერქვა
დაერწმუნებინა
დაესვა
დაესრულებინა
დაესწრნენ
დაესწრო
დაესხა
დაესხნენ
დაეტოვებინა
დაეტოვებინათ
დაეუფლა
დაეუფლნენ
დაექვემდებარა
დაეშვა
დაეცა
დაეცვა
დაეცვათ
დაეწერა
დაეწყო
დაეწყოთ
დაეჭირა
დაეხიათ
დაეხმარა
დაეხმარება
დაეხმარებოდა
დაეხმარნენ
დაეხმაროს
დავა
დავალება
დავალებას
დავალებებს
დავალებით
დავალების
დავალებული
დავაოს
დავების
დავთარი
დავიდ
დავით
დავითაია
დავითაშვილი
დავითგარეჯის
დავითი
დავითის
დავითმა
დავითს
დავის
დავიწყებას
დავიწყებული
დავუშვათ
დაზარალდა
დაზარალებული
დაზე
დაზვერვის
დაზიანდა
დაზიანება
დაზიანებას
დაზიანებები
დაზიანების
დაზიანებულ
დაზიანებული
დაზიანებულია
დაზღვევა
დაზღვევის
დათა
დათანხმდა
დათანხმდნენ
დათარიღება
დათარიღების
დათარიღებულ
დათარიღებული
დათარიღებულია
დათბობა
დათბობის
დათვალიერება
დათვი
დათვის
დათმეს
დათმო
დათმობა
დათმობაზე
დათო
დაიან
დაიანა
დაიბადა
დაიბადნენ
დაიბარა
დაიბეჭდა
დაიბომბა
დაიბრუნა
დაიბრუნეს
დაიგეგმა
დაიდგა
დაიდო
დაითხოვა
დაითხოვეს
დაიკავა
დაიკავეს
დაიკარგა
დაიკეტა
დაიმკვიდრა
დაიმორჩილა
დაიმორჩილეს
დაიმსახურა
დაინახა
დაინახავს
დაინახეს
დაინგრა
დაინერგა
დაინიშნა
დაინიშნენ
დაინტერესდა
დაინტერესდნენ
დაინტერესება
დაინტერესებულ
დაინტერესებული
დაიპყრეს
დაიპყრო
დაირქვა
დაირღვა
დაისახა
დაისვა
დაისი
დაიტოვა
დაიფარა
დაიქირავა
დაიქირავეს
დაიღუპა
დაიღუპნენ
დაიყო
დაიყოს
დაიშალა
დაიცვა
დაიცვან
დაიცვას
დაიძაბა
დაიძრა
დაიძრნენ
დაიწერა
დაიწვა
დაიწყება
დაიწყებდა
დაიწყებოდა
დაიწყებს
დაიწყეს
დაიწყო
დაიწყოს
დაიჭირა
დაიჭირეს
დაიჭრა
დაიხარჯა
დაიხვეწა
დაიხია
დაიხიეს
დაიხურა
დაკავდა
დაკავება
დაკავებას
დაკავების
დაკავებულ
დაკავებულები
დაკავებული
დაკავებულია
დაკავებულნი
დაკავშირება
დაკავშირებით
დაკავშირების
დაკავშირებულ
დაკავშირებული
დაკავშირებულია
დაკავშირებულნი
დაკარგა
დაკარგეს
დაკარგვა
დაკარგვას
დაკარგვით
დაკარგვის
დაკარგულ
დაკარგულად
დაკარგული
დაკარგულია
დაკბილული
დაკვეთით
დაკვირვება
დაკვირვებები
დაკვირვებების
დაკვირვებით
დაკვირვების
დაკვრა
დაკვრას
დაკვრის
დაკიდებული
დაკიდეს
დაკისრებული
დაკმაყოფილდა
დაკომპლექტებული
დაკრძალეს
დაკრძალვა
დაკრძალვაზე
დაკრძალვას
დაკრძალვის
დაკრძალული
დაკრძალულია
დალაგებული
დალაი
დალას
დალაშქრა
დალაშქრეს
დალი
დალია
დალის
დამ
დამაარსებელი
დამაარსებლად
დამაარსებლის
დამაგრებული
დამაგრებულია
დამადასტურებელი
დამაკავშირებელ
დამაკავშირებელი
დამალული
დამამცირებელი
დამანგრეველი
დამარცვლა
დამარცხდა
დამარცხდნენ
დამარცხება
დამარცხებამ
დამარცხებას
დამარცხებით
დამარცხების
დამარცხებული
დამარხეს
დამარხული
დამასკო
დამასკოს
დამასკოში
დამატება
დამატებები
დამატებით
დამატებითი
დამატების
დამატებული
დამატებულია
დამატი
დამახასიათებელ
დამახასიათებელი
დამახასიათებელია
დამახინჯებული
დამახსოვრების
დამაჯერებელი
დამაჯერებლად
დამდგმელი
დამდეგს
დამზადდა
დამზადება
დამზადების
დამზადებულ
დამზადებული
დამზადებულია
დამთავრდა
დამთავრება
დამთავრებამდე
დამთავრების
დამთავრებისთანავე
დამთავრებული
დამკვიდრდა
დამკვიდრდნენ
დამკვიდრება
დამკვიდრებას
დამკვიდრების
დამკვიდრებული
დამკვირვებელთა
დამკვირვებელი
დამკვირვებლის
დამლევს
დამნაშავე
დამნაშავედ
დამნაშავეთა
დამოკიდებულება
დამოკიდებულებას
დამოკიდებულებაში
დამოკიდებულებით
დამოკიდებულების
დამოკიდებული
დამოკიდებულია
დამონტაჟდა
დამონტაჟებული
დამონტაჟებულია
დამორჩილება
დამოუკიდებელ
დამოუკიდებელი
დამოუკიდებელია
დამოუკიდებელმა
დამოუკიდებლად
დამოუკიდებლობა
დამოუკიდებლობას
დამოუკიდებლობის
დამოუკიდებლობისა
დამოუკიდებლობისათვის
დამოუკიდებლობისთვის
დამოწმება
დამოწმებას
დამოწმებული
დამპყრობელი
დამპყრობლების
დამრეცი
დამრეცია
დამსახურება
დამსახურებაა
დამსახურებით
დამსახურების
დამსახურებისათვის
დამსახურებისთვის
დამსახურებული
დამსწრე
დამსჯელი
დამტკიცდა
დამტკიცება
დამტკიცების
დამტკიცებულ
დამტკიცებული
დამტკიცებულია
დამუშავება
დამუშავებას
დამუშავებით
დამუშავების
დამუშავებული
დამუშავებულია
დამუხტული
დამფუძნებელ
დამფუძნებელი
დამფუძნებელმა
დამფუძნებლის
დამყარდა
დამყარება
დამყარებას
დამყარების
დამყარებული
დამყარებულია
დამცავი
დამცველები
დამცველთა
დამცველი
დამცველის
დამწერლობა
დამწერლობას
დამწერლობაში
დამწერლობით
დამწერლობის
დამწვარი
დამწყები
დამხმარე
დამხობა
დამხობის
დან
დანა
დანადგარები
დანადგარების
დანადგარი
დანაკარგები
დანაკარგების
დანაკარგი
დანაკვთული
დანაკლისი
დანალექი
დანამატი
დანამდვილებით
დანაოჭების
დანართი
დანარჩენ
დანარჩენები
დანარჩენი
დანაყოფები
დანაყოფი
დანაშაულები
დანაშაულების
დანაშაულებრივი
დანაშაული
დანაშაულის
დანაშაულს
დანაწევრებული
დანაწევრებულია
დანაწილება
დანაწილების
დანახვა
დანახული
დანგრევა
დანგრევის
დანგრეულ
დანგრეული
დანგრეულია
დანდი
დანებდა
დანები
დანელია
დანერგა
დანერგვა
დანერგვის
დანი
დანია
დანიამ
დანიას
დანიაში
დანიელ
დანიელი
დანიელის
დანიელმა
დანით
დანიის
დანიისა
დანის
დანიურ
დანიური
დანიშვნა
დანიშვნას
დანიშვნის
დანიშნა
დანიშნეს
დანიშნულ
დანიშნულება
დანიშნულებაა
დანიშნულებას
დანიშნულებით
დანიშნულების
დანიშნული
დანტე
დაპატიმრება
დაპატიმრების
დაპატიმრებული
დაპირდა
დაპირება
დაპირისპირება
დაპირისპირებას
დაპირისპირებაში
დაპირისპირებები
დაპირისპირების
დაპირისპირებულ
დაპირისპირებული
დაპროექტება
დაპროექტების
დაპროექტებული
დაპყრობა
დაპყრობას
დაპყრობების
დაპყრობით
დაპყრობილ
დაპყრობილი
დაპყრობის
დაჟანგვის
დაჟინებით
დაჟინებული
დარ
დარბაზ
დარბაზები
დარბაზების
დარბაზებში
დარბაზი
დარბაზის
დარბაზისაგან
დარბაზისგან
დარბაზს
დარბაზულ
დარბაზული
დარბაზულია
დარბაზში
დარბევა
დარბევის
დარგები
დარგებია
დარგების
დარგებს
დარგებში
დარგი
დარგია
დარგის
დარგობრივი
დარგს
დარგში
დარდანელის
დარეგისტრირდა
დარეგისტრირებული
დარეგისტრირებულია
დარენ
დარეჯან
დარეჯანი
დარვინი
დარვინის
დართ
დართეს
დართო
დართული
დარი
დარია
დარიალის
დარიო
დარიოს
დარიშხანის
დარტყმა
დარტყმები
დარტყმების
დარტყმით
დარტყმის
დარღვევა
დარღვევას
დარღვევები
დარღვევების
დარღვევით
დარღვევის
დარღვეული
დარჩა
დარჩათ
დარჩება
დარჩებოდა
დარჩენა
დარჩენას
დარჩენია
დარჩენილ
დარჩენილა
დარჩენილი
დარჩენილია
დარჩენილიყო
დარჩენილმა
დარჩენის
დარჩეს
დარჩიაშვილი
დარჩნენ
დარწმუნდა
დარწმუნება
დარწმუნებული
დარწმუნებულია
დას
დასაბამი
დასაბამს
დასაბრუნებლად
დასაბუთება
დასაბუთებული
დასადგენად
დასავლეთ
დასავლეთი
დასავლეთიდან
დასავლეთიდანაა
დასავლეთით
დასავლეთითაა
დასავლეთის
დასავლეთისა
დასავლეთისაკენ
დასავლეთისკენ
დასავლეთს
დასავლეთში
დასავლელი
დასავლურ
დასავლური
დასაკავებლად
დასაკმაყოფილებლად
დასამახსოვრებელი
დასამზადებლად
დასამტკიცებლად
დასამუშავებლად
დასამყარებლად
დასაპყრობად
დასარტყამ
დასარტყამი
დასარტყმელი
დასასვენებელი
დასასვენებლად
დასასრულამდე
დასასრული
დასასრულიდან
დასასრულის
დასასრულს
დასასრულსა
დასაფლავებულია
დასაქმების
დასაქმებულთა
დასაქმებული
დასაქმებულია
დასაყრდენი
დასაშვები
დასაშვებია
დასაცავად
დასაწერად
დასაწყებად
დასაწყისად
დასაწყისამდე
დასაწყისი
დასაწყისიდან
დასაწყისით
დასაწყისის
დასაწყისისათვის
დასაწყისისთვის
დასაწყისს
დასაწყისში
დასაწყისშივე
დასახელდა
დასახელება
დასახელებანი
დასახელების
დასახელებულ
დასახელებული
დასახელებულია
დასახლდა
დასახლდნენ
დასახლება
დასახლებაა
დასახლებას
დასახლებაში
დასახლებები
დასახლებების
დასახლებებს
დასახლებებში
დასახლების
დასახლებულ
დასახლებული
დასახლებულია
დასახმარებლად
დასახული
დასაჯა
დასაჯდომი
დასაჯეს
დასდეს
დასდო
დასვა
დასვენება
დასვენების
დასვენებული
დასვეს
დასთან
დასთანხმდა
დასი
დასის
დასკვნა
დასკვნამდე
დასკვნები
დასკვნით
დასკვნითი
დასკვნის
დასმა
დასმულ
დასმული
დასრულდა
დასრულდება
დასრულება
დასრულებამდე
დასრულებას
დასრულებიდან
დასრულების
დასრულებისას
დასრულებისთანავე
დასრულებულ
დასრულებულა
დასრულებული
დასრულებულია
დასრულებულიყო
დასტინ
დასტურდება
დასუსტდა
დასუსტება
დასუსტების
დასუსტებული
დასში
დასძინა
დასწრება
დასწრების
დასწრებოდა
დასჭირდა
დასჯა
დასჯას
დასჯერდა
დასჯის
დატანებული
დატანებულია
დატანილი
დატანილია
დატვირთვა
დატვირთვას
დატვირთვის
დატვირთული
დატოვა
დატოვება
დატოვებას
დატოვებდა
დატოვების
დატოვებს
დატოვებული
დატოვეს
დატოვოს
დატოტვილი
დატყვევებული
დაუახლოვდა
დაუბრუნა
დაუბრუნდა
დაუბრუნდნენ
დაუბრუნეს
დაუდ
დაუდგენელია
დაუდო
დაუთმო
დაუკავშირა
დაუკავშირდა
დაუკავშირდნენ
დაუკარგავს
დაუკრა
დაუმატა
დაუმეგობრდა
დაუმთავრებელი
დაუმორჩილებლობის
დაუმუშავებელი
დაუნიშნა
დაუპირისპირდა
დაუპირისპირდნენ
დაურთო
დაუსახლებელი
დაუსახლებელია
დაუსვა
დაუსვეს
დაუსრულებელი
დაუსწრებლად
დაუტოვა
დაუტოვებია
დაუქვემდებარა
დაუქორწინებელი
დაუყოვნებლივ
დაუშვა
დაუშვებელია
დაუშვეს
დაუშვილი
დაუცველი
დაუჭირა
დაუჭირეს
დაუჯდა
დაფა
დაფაზე
დაფარა
დაფარვა
დაფარულ
დაფარული
დაფარულია
დაფეხმძიმდა
დაფინანსება
დაფინანსებით
დაფინანსების
დაფინანსებული
დაფის
დაფიქსირდა
დაფიქსირებული
დაფიქსირებულია
დაფნის
დაფუძნდა
დაფუძნების
დაფუძნებულ
დაფუძნებული
დაფუძნებულია
დაქვეითდა
დაქვეითება
დაქვეითებული
დაქვემდებარებაში
დაქვემდებარებაშია
დაქვემდებარების
დაქვემდებარებული
დაქვრივდა
დაქვრივების
დაქვრივებულ
დაქვრივებული
დაქირავებულ
დაქირავებული
დაქორწინდა
დაქორწინდნენ
დაქორწინება
დაქორწინებას
დაქორწინების
დაქორწინებულა
დაქორწინებული
დაქორწინებულია
დაქორწინებულიყო
დაღესტანი
დაღესტანში
დაღესტნის
დაღლილი
დაღუპვა
დაღუპვის
დაღუპულ
დაღუპულთა
დაღუპული
დაყენება
დაყენების
დაყენებული
დაყენებულია
დაყო
დაყოფა
დაყოფას
დაყოფით
დაყოფილი
დაყოფილია
დაყოფის
დაყოფისა
დაყრდნობით
დაყრდნობილი
დაყრდნობილია
დაშავდა
დაშალა
დაშალეს
დაშენებული
დაშენებულია
დაშვება
დაშვების
დაშვებული
დაშვებულია
დაშლა
დაშლამდე
დაშლას
დაშლით
დაშლილი
დაშლის
დაშორდა
დაშორდნენ
დაშორება
დაშორებით
დაშორების
დაშორებულ
დაშორებული
დაშორებულია
დაშქესანის
დაცემა
დაცემას
დაცემის
დაცემული
დაცვა
დაცვაზე
დაცვას
დაცვაში
დაცვით
დაცვითი
დაცვის
დაცვისა
დაცვისათვის
დაცვისთვის
დაცილებული
დაცულ
დაცული
დაცულია
დაცურების
დაძაბულ
დაძაბული
დაძაბულობა
დაძაბულობის
დაძლევა
დაძლია
დაძმობილებული
დაწერა
დაწერეს
დაწერილ
დაწერილი
დაწერილია
დაწერის
დაწესდა
დაწესება
დაწესების
დაწესებულება
დაწესებულებაა
დაწესებულებათა
დაწესებულებას
დაწესებულებაში
დაწესებულებები
დაწესებულებების
დაწესებულებებს
დაწესებულებებში
დაწესებულების
დაწესებული
დაწესებულია
დაწვა
დაწვეს
დაწვრილებით
დაწვრილებითი
დაწინაურდა
დაწინაურდნენ
დაწინაურებული
დაწნევა
დაწნევის
დაწყება
დაწყებამდე
დაწყებას
დაწყებიდან
დაწყებით
დაწყებითი
დაწყების
დაწყებისას
დაწყებისთანავე
დაწყებულ
დაწყებულა
დაწყებული
დაწყებულიყო
დაწყებულმა
დაწყობილი
დაჭაობებულ
დაჭაობებული
დაჭერა
დაჭერის
დაჭრა
დაჭრეს
დაჭრილ
დაჭრილი
დახარჯა
დახასიათება
დახატა
დახატული
დახევა
დახევის
დახელოვნების
დახვდა
დახვდათ
დახვეული
დახვეწა
დახვეწილ
დახვეწილი
დახვრეტა
დახვრეტის
დახვრიტეს
დახმარება
დახმარებაზე
დახმარებას
დახმარებით
დახმარებითაც
დახმარების
დახმარებისათვის
დახმარებისთვის
დახმარებოდა
დახმარებოდნენ
დახოცა
დახოცეს
დახრილი
დახრილობა
დახრის
დახურა
დახურეს
დახურვა
დახურვის
დახურულ
დახურული
დახურულია
დაჯგუფება
დაჯგუფებას
დაჯგუფებები
დაჯგუფებების
დაჯგუფების
დაჯდა
დაჯილდოება
დაჯილდოებაზე
დაჯილდოების
დაჯილდოებული
დაჯილდოებულია
დაჯილდოვდა
დაჯილდოვდნენ
დაჯილდოვებული
დაჰკრავს
დაჰპირდა
დაჰყო
დგანან
დგას
დგება
დგებოდა
დგებუაძე
დგინდება
დე
დებატები
დებატების
დებენ
დებთან
დები
დების
დებიუსი
დებიუსის
დებიუტი
დებიუტის
დებორა
დებს
დებულება
დებულებები
დებულების
დედ
დედა
დედათა
დედალი
დედამ
დედამთილი
დედამისთან
დედამისი
დედამისის
დედამისმა
დედამისს
დედამიწა
დედამიწაზე
დედამიწას
დედამიწასთან
დედამიწიდან
დედამიწის
დედანი
დედას
დედასთან
დედაქალაქ
დედაქალაქად
დედაქალაქი
დედაქალაქია
დედაქალაქიდან
დედაქალაქის
დედაქალაქს
დედაქალაქში
დედები
დედინაცვალი
დედის
დედისა
დედოფალ
დედოფალთან
დედოფალი
დედოფალმა
დედოფალს
დედოფლად
დედოფლები
დედოფლის
დედოფლისა
დედოფლისწყაროს
დევდარიანი
დევი
დევიდ
დევიდი
დევიზი
დევის
დევისი
დევლეთ
დევნა
დევნას
დევნილების
დევნილთა
დევნილი
დევნილობაში
დევნის
დევს
დეი
დეიდა
დეივ
დეივიდ
დეივიდი
დეივისი
დეივისის
დეივისმა
დეილი
დეკ
დეკადის
დეკანი
დეკანის
დეკანოზი
დეკემბერი
დეკემბერს
დეკემბერში
დეკემბრამდე
დეკემბრიდან
დეკემბრის
დეკემბრისთვის
დეკლარაცია
დეკლარაციას
დეკლარაციაში
დეკლარაციის
დეკორატიულ
დეკორატიული
დეკორატიულია
დეკორაციული
დეკრეტი
დელ
დელა
დელავერის
დელეგატი
დელეგაცია
დელეგაციას
დელეგაციის
დელი
დელის
დელიში
დელტა
დელტას
დელტაში
დელტის
დელუქს
დელფინები
დელფინი
დემეტრაშვილი
დემეტრე
დემეტრეს
დემნა
დემო
დემოგრაფია
დემოგრაფიული
დემოკრატები
დემოკრატების
დემოკრატთა
დემოკრატი
დემოკრატია
დემოკრატიას
დემოკრატიის
დემოკრატიისა
დემოკრატიულ
დემოკრატიულად
დემოკრატიული
დემოკრატიულმა
დემონი
დემონსტრაცია
დემონსტრაციები
დემონსტრაციის
დემონტაჟი
დენ
დენადობის
დენვერ
დენვერის
დენი
დენიელ
დენის
დენს
დეპარტამენტად
დეპარტამენტები
დეპარტამენტი
დეპარტამენტიდან
დეპარტამენტის
დეპარტამენტმა
დეპარტამენტს
დეპარტამენტში
დეპო
დეპორტაცია
დეპორტაციის
დეპრესია
დეპრესიაში
დეპრესიის
დეპრესიული
დეპუტატ
დეპუტატად
დეპუტატები
დეპუტატების
დეპუტატებმა
დეპუტატთა
დეპუტატი
დეპუტატის
დეპუტატმა
დეპუტატობის
დეპუტატს
დერ
დერბი
დერეკ
დერეფანი
დერეფნის
დესანტი
დესანტის
დესერტი
დესპანი
დეტალები
დეტალებით
დეტალების
დეტალებს
დეტალი
დეტალურ
დეტალურად
დეტალური
დეტექტივი
დეტექტიური
დეტროიტ
დეტროიტის
დეფიციტი
დეფიციტის
დეფორმაცია
დეფორმაციის
დვალაშვილი
დვალეთის
დვალი
დვალიშვილი
დვინის
დი
დიაგნოზი
დიაგნოზის
დიაგნოსტიკა
დიაგნოსტიკის
დიაგნოსტიკური
დიადი
დიაკვანი
დიაკვნად
დიაკონი
დიაკრიტიკული
დიალექტები
დიალექტების
დიალექტზე
დიალექტი
დიალექტის
დიალექტს
დიალექტური
დიალოგები
დიალოგი
დიალოგის
დიალოგურ
დიალოგური
დიამეტრი
დიამეტრია
დიამეტრით
დიამეტრის
დიანა
დიაპაზონი
დიაპაზონის
დიაპაზონში
დიასამიძე
დიასახლისი
დიასი
დიასპორა
დიასპორის
დიახ
დიგრაფი
დიდ
დიდად
დიდგვაროვან
დიდგვაროვანი
დიდგორი
დიდგორის
დიდება
დიდების
დიდებულ
დიდებულები
დიდებულების
დიდებულებმა
დიდებულთა
დიდებული
დიდებულის
დიდი
დიდია
დიდიე
დიდის
დიდისა
დიდმა
დიდმოწამე
დიდოსტატი
დიდოსტატის
დიდს
დიდუბე
დიდუბის
დიდძალი
დიდწილად
დიდხანს
დიეგო
დივიზია
დივიზიას
დივიზიის
დივიზიონი
დივიზიონის
დივიზიონში
დიზაინერი
დიზაინი
დიზაინით
დიზაინის
დიზაინისა
დიზაინს
დიზაინში
დიზელის
დიზრაელი
დიზრაელის
დიკ
დიკი
დილა
დილან
დილანი
დილანის
დილას
დილით
დილის
დიმიტრი
დიმიტრის
დიმორფიზმი
დინ
დინა
დინამიკა
დინამიკის
დინამიკური
დინამიური
დინამო
დინამომ
დინამოს
დინამოსა
დინამოში
დინარი
დინასტია
დინასტიამ
დინასტიას
დინასტიები
დინასტიების
დინასტიიდან
დინასტიის
დინასტიური
დინგი
დინება
დინებას
დინებაში
დინების
დინი
დინის
დიო
დიოგენე
დიოდორე
დიოკლეტიანეს
დიონ
დიონისე
დიონისეს
დიოქსიდი
დიოქსიდის
დიპლომატი
დიპლომატია
დიპლომატიის
დიპლომატიურ
დიპლომატიური
დიპლომი
დიპლომით
დიპლომის
დირექტორად
დირექტორთა
დირექტორი
დირექტორია
დირექტორის
დირექტორმა
დირექტორს
დირიჟორი
დირიჟორის
დირიჟორობდა
დირიჟორობით
დის
დისერტაცია
დისერტაციის
დისკებზე
დისკები
დისკების
დისკზე
დისკი
დისკიანი
დისკის
დისკო
დისკოგრაფია
დისკოს
დისკრიმინაცია
დისკრიმინაციას
დისკრიმინაციის
დისკს
დისკუსია
დისკუსიის
დისკში
დისლოცირებული
დისნეი
დისნეის
დისტანციური
დისტრიბუცია
დისშვილი
დისციპლინა
დისციპლინის
დისწული
დიტრიხი
დიუ
დიუმა
დიურტიულიდან
დიურტიულის
დიფერენციალური
დიქსონი
დიქტატორი
დიქტატორის
დიქტატურა
დიქტატურის
დიღმის
დიჯეი
დმ
დმანისი
დმანისის
დნება
დნეპრის
დნესტრის
დნიპროპეტროვსკის
დნმ
დნობის
დო
დოგი
დოდო
დოზა
დოზით
დოზის
დოიაშვილი
დოკი
დოკუმენტაციის
დოკუმენტები
დოკუმენტების
დოკუმენტებს
დოკუმენტებში
დოკუმენტი
დოკუმენტის
დოკუმენტს
დოკუმენტურ
დოკუმენტური
დოკუმენტში
დოლარად
დოლარამდე
დოლარზე
დოლარი
დოლარია
დოლარით
დოლარის
დოლარს
დოლი
დოლიძე
დოლიძის
დომენი
დომენიკო
დომენის
დომენტი
დომინანტი
დომინანტური
დომინგო
დომინიკ
დომინიკელთა
დომინირება
დომინირებდა
დომინირებს
დომიციანე
დომიციანეს
დონ
დონა
დონალდ
დონე
დონეების
დონეზე
დონეზეა
დონელი
დონემ
დონემდე
დონეს
დონეცკის
დონი
დონიდან
დონით
დონის
დონისა
დორა
დორიან
დორის
დოროთეა
დოროთი
დოს
დოსი
დოსტოევსკი
დოსტოევსკის
დოფინ
დოფინი
დოქტორ
დოქტორი
დოქტორის
დოქტრინა
დოქტრინის
დოცენტად
დოცენტი
დოცენტის
დრაკონი
დრაკონის
დრამა
დრამატულ
დრამატული
დრამატურგი
დრამატურგის
დრამაში
დრამები
დრამერი
დრამი
დრამის
დრანდის
დრაფტზე
დრეზდენი
დრეზდენის
დრეზდენში
დრეკადი
დრო
დროა
დროდადრო
დროება
დროებით
დროებითი
დროებითმა
დროზე
დროთა
დროიდან
დროით
დროინდელ
დროინდელი
დროის
დროისა
დროისათვის
დროისთვის
დრომდე
დროს
დროსა
დროსაც
დროულად
დროული
დროშა
დროშაზე
დროშას
დროშასთან
დროშები
დროში
დროშის
დსთ
დუ
დუაიტ
დუბაი
დუბაის
დუბაიში
დუბლი
დუბლინი
დუბლინის
დუბლინში
დუგლას
დუგლასი
დუეინ
დუეტ
დუეტი
დუეტის
დუეტმა
დუმა
დუმას
დუმბაძე
დუმბაძის
დუმის
დუნაი
დუნაის
დუნდუა
დუს
დუღაბზე
დუღაბით
დუღაბის
დუღილის
დუშეთიდან
დუშეთის
დღ
დღე
დღეა
დღედ
დღეები
დღეების
დღეებს
დღეებში
დღევანდელ
დღევანდელი
დღეზე
დღეისათვის
დღეისთვის
დღემდე
დღემდეა
დღეს
დღესასწაულებზე
დღესასწაულები
დღესასწაულების
დღესასწაულზე
დღესასწაული
დღესასწაულია
დღესასწაულის
დღესასწაულს
დღესაც
დღესდღეობით
დღესვე
დღეში
დღიანი
დღიდან
დღით
დღის
დღისა
დღისით
დღიურები
დღიური
დღიურში
ე
ეახლა
ებ
ები
ების
ებრ
ებრაელ
ებრაელები
ებრაელების
ებრაელებმა
ებრაელებს
ებრაელთა
ებრაელი
ებრაულ
ებრაული
ებრძვის
ებრძოდა
ებრძოდნენ
ებრძოლა
ებს
ებჯინება
ეგ
ეგეოსის
ეგვიპტე
ეგვიპტელები
ეგვიპტელი
ეგვიპტეს
ეგვიპტესა
ეგვიპტეში
ეგვიპტიდან
ეგვიპტის
ეგვიპტურ
ეგვიპტური
ეგვტერები
ეგვტერი
ეგზ
ეგზარქოსი
ეგზემპლარი
ეგზოგენური
ეგზოტიკური
ეგიდით
ეგნატაშვილი
ეგნატე
ეგონა
ეგონათ
ეგორ
ეგრეთ
ეგრისის
ეგრისში
ეგუება
ედ
ედგა
ედგარ
ედესის
ედვარდ
ედვარდი
ედვარდსი
ედვინ
ედი
ედინბურგი
ედინბურგის
ედინბურგში
ედიტ
ედიქტი
ედიშერ
ედმუნდ
ედო
ედოს
ედუარდ
ედუარდი
ედუარდის
ედუარდო
ევა
ევაკუაცია
ევაკუაციის
ევალება
ევალებოდა
ევალებოდათ
ევანსი
ევას
ევგენი
ევგენია
ევდოკია
ევერეტი
ევლახის
ევოლუცია
ევოლუციას
ევოლუციის
ევოლუციურ
ევოლუციური
ევრაზიაში
ევრაზიის
ევრაზიული
ევრო
ევრობასკეტი
ევროდ
ევროვიზია
ევროვიზიაზე
ევროვიზიის
ევროკავშირთან
ევროკავშირი
ევროკავშირის
ევროკავშირმა
ევროკავშირს
ევროკავშირში
ევროკოდი
ევროკომისიის
ევროპა
ევროპარლამენტის
ევროპას
ევროპასა
ევროპასთან
ევროპაში
ევროპელ
ევროპელები
ევროპელების
ევროპელებმა
ევროპელთა
ევროპელი
ევროპელმა
ევროპიდან
ევროპის
ევროპისა
ევროპულ
ევროპული
ევროპულმა
ევროს
ევსტათი
ევფრატის
ეზიარა
ეზო
ეზოს
ეზოში
ეზრა
ეთამაშა
ეთანხმება
ეთანხმებოდა
ეთერ
ეთერი
ეთერის
ეთერში
ეთიკა
ეთიკის
ეთიკური
ეთიოპია
ეთიოპიაში
ეთიოპიის
ეთიოპიური
ეთმობა
ეთნიკურ
ეთნიკურად
ეთნიკური
ეთნო
ეთნოგრაფი
ეთნოგრაფია
ეთნოგრაფიის
ეთნოგრაფიისა
ეთნოგრაფიულ
ეთნოგრაფიული
ეთნოლოგია
ეთნოლოგიის
ეთნოსის
ეთქვა
ეთქვათ
ეთხოვა
ეი
ეკა
ეკავა
ეკავათ
ეკატერინა
ეკატერინბურგის
ეკატერინბურგში
ეკატერინე
ეკატერინემ
ეკატერინეს
ეკვადორი
ეკვადორის
ეკვადორში
ეკვატორის
ეკვატორულ
ეკვატორული
ეკვრის
ეკითხება
ეკიპაჟი
ეკიპაჟის
ეკისრება
ეკლესია
ეკლესიაა
ეკლესიად
ეკლესიაზე
ეკლესიათა
ეკლესიამ
ეკლესიას
ეკლესიასა
ეკლესიასთან
ეკლესიაში
ეკლესიაც
ეკლესიები
ეკლესიების
ეკლესიებს
ეკლესიებში
ეკლესიიდან
ეკლესიის
ეკლესიისა
ეკლესიისათვის
ეკლიანი
ეკო
ეკოლოგია
ეკოლოგიის
ეკოლოგიურ
ეკოლოგიური
ეკონომიკა
ეკონომიკაზე
ეკონომიკას
ეკონომიკაში
ეკონომიკის
ეკონომიკისა
ეკონომიკურ
ეკონომიკურად
ეკონომიკური
ეკონომიკურმა
ეკონომისტი
ეკონომისტის
ეკონომიური
ეკრანებზე
ეკრანზე
ეკრანი
ეკრანიზაცია
ეკრანის
ეკრძალებოდათ
ეკუთვნით
ეკუთვნის
ეკუთვნოდა
ეკუთვნოდათ
ეკუთვნოდეს
ეკურთხა
ელ
ელა
ელგუჯა
ელდარ
ელეანორ
ელეანორა
ელეგანტური
ელემენტარულ
ელემენტარული
ელემენტებთან
ელემენტები
ელემენტებია
ელემენტებით
ელემენტების
ელემენტებს
ელემენტთა
ელემენტი
ელემენტია
ელემენტის
ელემენტს
ელენ
ელენა
ელენას
ელენე
ელენეს
ელეონორ
ელეონორა
ელეონორას
ელერდაშვილი
ელექტრა
ელექტრო
ელექტროენერგია
ელექტროენერგიის
ელექტრომაგნიტურ
ელექტრომაგნიტური
ელექტრონები
ელექტრონების
ელექტრონი
ელექტრონიკის
ელექტრონის
ელექტრონულ
ელექტრონული
ელექტროსადგური
ელექტროსადგურის
ელექტრულ
ელექტრული
ელვა
ელვინ
ელვის
ელზა
ელი
ელია
ელიავა
ელიას
ელიზა
ელიზაბეთ
ელიზაბეთი
ელიზაბეთის
ელიზაბეტ
ელიზაბეტა
ელიზაბეტი
ელიზაბეტის
ელიზაბეტს
ელიზავეტპოლის
ელიზბარ
ელინისტურ
ელინისტური
ელიოტ
ელიოტი
ელის
ელისაბედ
ელისაბედი
ელისაბედის
ელისი
ელისის
ელისო
ელისონ
ელიტა
ელიტარული
ელიტის
ელიტური
ელიფსური
ელოდა
ელოდება
ელოდებოდა
ელოდნენ
ელტონ
ელფები
ელფების
ელფერი
ელფერით
ელფთა
ელფი
ელჩად
ელჩები
ელჩი
ელჩის
ელჩმა
ელჩობა
ელჩობის
ელცინის
ემ
ემა
ემანუელ
ემანუელე
ემართა
ემატება
ემატებოდა
ემბლემა
ემზადება
ემზადებოდა
ემზარ
ემთხვევა
ემთხვეოდა
ემი
ემიგრანტები
ემიგრანტების
ემიგრანტთა
ემიგრანტი
ემიგრანტული
ემიგრაცია
ემიგრაციაში
ემიგრაციის
ემილ
ემილი
ემილია
ემილიო
ემილის
ემინ
ემინემი
ემინემის
ემის
ემორჩილება
ემორჩილებოდა
ემორჩილებოდნენ
ემოციების
ემოციურ
ემოციურად
ემოციური
ემპირიული
ემსახურება
ემსახურებიან
ემსახურებოდა
ემსახურებოდნენ
ემსგავსება
ემსხვერპლა
ემუქრება
ემუქრებოდა
ემუშავა
ემყარება
ემყარებოდა
ემჩნევა
ემხრობა
ემხრობოდა
ენ
ენა
ენაა
ენად
ენაზე
ენაზეა
ენათა
ენათესავება
ენათმეცნიერება
ენათმეცნიერების
ენათმეცნიერი
ენამ
ენას
ენასა
ენასთან
ენაში
ენაცვლება
ენახა
ენგურის
ენდ
ენდემია
ენდემური
ენდემურია
ენდი
ენდობოდა
ენდოგენური
ენდრიუ
ენებზე
ენებთან
ენები
ენებია
ენებიდან
ენების
ენებისა
ენებს
ენებში
ენეოლითის
ენერგეტიკის
ენერგეტიკისა
ენერგეტიკულ
ენერგეტიკული
ენერგია
ენერგიას
ენერგიით
ენერგიის
ენერგიულად
ენერგიული
ენვერ
ენთუზიაზმით
ენი
ენიდან
ენით
ენის
ენისა
ენისეის
ენისთვის
ენიჭება
ენიჭებათ
ენიჭებოდა
ენობრივ
ენობრივი
ენრიკე
ენრიკეს
ენრიკო
ენტონი
ენუქიძე
ენციკლოპედია
ენციკლოპედიაში
ენციკლოპედიები
ენციკლოპედიიდან
ენციკლოპედიის
ენციკლოპედიური
ეპარქია
ეპარქიას
ეპარქიაში
ეპარქიები
ეპარქიის
ეპიგრაფიკული
ეპიდემია
ეპიდემიამ
ეპიდემიის
ეპიზოდები
ეპიზოდების
ეპიზოდი
ეპიზოდის
ეპიზოდისგან
ეპიზოდს
ეპიზოდურ
ეპიზოდური
ეპიზოდში
ეპიკურ
ეპიკური
ეპისკოპოს
ეპისკოპოსად
ეპისკოპოსები
ეპისკოპოსთა
ეპისკოპოსი
ეპისკოპოსის
ეპისკოპოსმა
ეპისკოპოსს
ეპისტოლე
ეპისტოლენი
ეპიფანე
ეპოსი
ეპოსის
ეპოქა
ეპოქას
ეპოქაში
ეპოქიდან
ეპოქის
ეპყრობოდა
ეჟენ
ერ
ერა
ერამდე
ერაყი
ერაყის
ერაყში
ერაში
ერგებოდა
ერგო
ერები
ერების
ერედვის
ერევა
ერევანი
ერევანში
ერევნის
ერეკლე
ერეკლემ
ერეკლეს
ერეოდა
ერექტუსის
ერვინ
ერთ
ერთა
ერთად
ერთადაც
ერთადერთ
ერთადერთი
ერთადერთია
ერთბაშად
ერთგვარ
ერთგვარად
ერთგვარი
ერთგვაროვანი
ერთგულ
ერთგულება
ერთგულებას
ერთგულების
ერთგული
ერთგულნი
ერთდროულად
ერთდროული
ერთეულად
ერთეულებად
ერთეულები
ერთეულებია
ერთეულების
ერთეულებს
ერთეულებში
ერთეულთა
ერთეული
ერთეულია
ერთეულით
ერთეულის
ერთეულს
ერთეულში
ერთვება
ერთვის
ერთვოდა
ერთზე
ერთი
ერთია
ერთიან
ერთიანად
ერთიანდება
ერთიანდებიან
ერთიანი
ერთიანობა
ერთიანობას
ერთიანობის
ერთიმეორის
ერთის
ერთიც
ერთმა
ერთმანეთზე
ერთმანეთთან
ერთმანეთი
ერთმანეთის
ერთმანეთისაგან
ერთმანეთისგან
ერთმანეთს
ერთმანეთში
ერთნავიანი
ერთნაირად
ერთნაირი
ერთნაირია
ერთობ
ერთობა
ერთობაშია
ერთობის
ერთობლივ
ერთობლივად
ერთობლივი
ერთობლიობა
ერთობლიობას
ერთპალატიანი
ერთპარტიული
ერთპიროვნულად
ერთპიროვნული
ერთს
ერთსა
ერთსართულიანი
ერთსაფეხურიანი
ერთსქესიანი
ერთტომეული
ერთუჯრედიანი
ერთში
ერთწლიანი
ერთწლოვანი
ერთხანს
ერთხელ
ერთხელაც
ერთხმად
ერთჯერადი
ერი
ერიდებოდა
ერიკ
ერიკი
ერის
ერისთავად
ერისთავები
ერისთავების
ერისთავთ
ერისთავთა
ერისთავი
ერისთავის
ერისთავმა
ერისთავს
ერისკაცობაში
ერისმთავარი
ერიტრეის
ერიხ
ერლ
ერლეუაინი
ერლი
ერმიტაჟის
ერნან
ერნესტ
ერნესტო
ერნსტ
ერო
ეროვნებით
ეროვნების
ეროვნულ
ეროვნული
ეროვნულმა
ეროზია
ეროზიის
ეროზიული
ეროსი
ეროტიკული
ერს
ერტყა
ერტყმის
ერქვა
ერქომაიშვილი
ერცჰერცოგ
ერცჰერცოგი
ერცჰერცოგინია
ერწო
ერწოს
ერწყმის
ეს
ესა
ესაა
ესაზღვრება
ესაზღვრებოდა
ესაუბრა
ესაუბრება
ესაძე
ესაჭიროება
ესაჭიროებოდა
ესე
ესეები
ესეების
ესეისტი
ესენი
ესენია
ესეც
ესვატინის
ესვენა
ესთეტიკის
ესთეტიკური
ესკიზები
ესკიზი
ესმის
ესმოდა
ესპ
ესპანეთ
ესპანეთთან
ესპანეთი
ესპანეთიდან
ესპანეთის
ესპანეთისა
ესპანეთმა
ესპანეთს
ესპანეთსა
ესპანეთში
ესპანელ
ესპანელები
ესპანელების
ესპანელებმა
ესპანელებს
ესპანელთა
ესპანელი
ესპანელის
ესპანელმა
ესპანურ
ესპანურად
ესპანურენოვანი
ესპანური
ესპერანტო
ესპირიტუ
ესროლა
ესროლეს
ესტ
ესტადიო
ესტე
ესტეს
ესტონეთი
ესტონეთის
ესტონეთში
ესტონელი
ესტონური
ესტრემადურის
ესტუმრა
ესწავლა
ესწრება
ესწრებოდა
ესწრებოდნენ
ესხმიან
ესხმის
ესხმოდნენ
ეტა
ეტაპად
ეტაპებზე
ეტაპზე
ეტაპი
ეტაპიდან
ეტაპის
ეტაპობრივად
ეტაპს
ეტიენ
ეტიმოლოგია
ეტიუდები
ეტლი
ეტლით
ეტრუსკები
ეტრუსკული
ეტყვის
ეტყობა
ეუბნება
ეუბნებოდა
ეუთო
ეუთოს
ეულის
ეულში
ეუფლება
ეუფლებოდა
ეფენდი
ეფესოს
ეფექტები
ეფექტების
ეფექტებს
ეფექტი
ეფექტიანი
ეფექტის
ეფექტს
ეფექტურ
ეფექტურად
ეფექტური
ეფექტურია
ეფექტურობა
ეფექტურობის
ეფრემ
ეფრონის
ეფუძნება
ეფუძნებოდა
ექვემდებარება
ექვემდებარებოდა
ექვემდებარებოდნენ
ექვთიმე
ექვივალენტური
ექვს
ექვსას
ექვსი
ექვსივე
ექვსჯერ
ექიმ
ექიმად
ექიმები
ექიმების
ექიმებმა
ექიმთა
ექიმი
ექიმის
ექიმმა
ექიმს
ექნება
ექნებათ
ექნებოდა
ექო
ექს
ექსკლუზიურად
ექსკლუზიური
ექსპანსია
ექსპანსიის
ექსპედიცია
ექსპედიციამ
ექსპედიციას
ექსპედიციაში
ექსპედიციები
ექსპედიციების
ექსპედიციებში
ექსპედიციის
ექსპერიმენტალური
ექსპერიმენტები
ექსპერიმენტების
ექსპერიმენტებს
ექსპერიმენტი
ექსპერიმენტის
ექსპერიმენტულ
ექსპერიმენტული
ექსპერტები
ექსპერტების
ექსპერტთა
ექსპერტი
ექსპერტიზის
ექსპლუატაცია
ექსპლუატაციაში
ექსპლუატაციის
ექსპოზიცია
ექსპოზიციის
ექსპონატები
ექსპონატების
ექსპონატებს
ექსპონატი
ექსპონატს
ექსპორტზე
ექსპორტი
ექსპორტის
ექსტრემალური
ექცევა
ექცეოდა
ეღიარებინა
ეყოლა
ეყოლათ
ეყოლებოდა
ეყრდნობა
ეყრდნობოდა
ეშვება
ეშვები
ეშინია
ეშინოდა
ეშინოდათ
ეშლი
ეშმაკი
ეშმაკის
ეშმაკნი
ეცადა
ეცემა
ეცვა
ეცვათ
ეცნობა
ეცნობოდა
ეცხოვრა
ეძახდა
ეძახდნენ
ეძახიან
ეძებდა
ეძებდნენ
ეძებენ
ეძებს
ეძინა
ეძლევა
ეძლევათ
ეძლეოდა
ეძლეოდათ
ეძღვნება
ეძღვნებოდა
ეწევა
ეწევიან
ეწეოდა
ეწეოდნენ
ეწერა
ეწერი
ეწვია
ეწვივნენ
ეწინააღმდეგება
ეწინააღმდეგებიან
ეწინააღმდეგებოდა
ეწინააღმდეგებოდნენ
ეწოდა
ეწოდათ
ეწოდება
ეწოდებათ
ეწოდებოდა
ეწოდოს
ეწყობა
ეწყობოდა
ეჭვი
ეჭვის
ეჭვმიტანილი
ეჭვს
ეჭვქვეშ
ეჭირა
ეჭირათ
ეხება
ეხებოდა
ეხმარება
ეხმარებიან
ეხმარებოდა
ეხმარებოდნენ
ვ
ვა
ვაგნერი
ვაგნერის
ვაგნერმა
ვაგონები
ვაგონი
ვაგონის
ვადა
ვადამდელი
ვადაში
ვადით
ვადიმ
ვადის
ვაზი
ვაზის
ვაზისუბნის
ვაი
ვაიმარის
ვაიოცძორის
ვაკანტური
ვაკე
ვაკეა
ვაკეებზე
ვაკეები
ვაკეზე
ვაკეს
ვაკის
ვაკუუმში
ვალ
ვალდებულება
ვალდებულებას
ვალდებულებები
ვალდებულებების
ვალდებულების
ვალდებული
ვალდებულია
ვალდებულნი
ვალდემარ
ვალე
ვალების
ვალენსია
ვალენსიაში
ვალენსიის
ვალენტინ
ვალენტინა
ვალერი
ვალერიან
ვალერიუს
ვალეს
ვალი
ვალიდე
ვალიე
ვალიკო
ვალის
ვალიშვილი
ვალსი
ვალტერ
ვალუა
ვალუას
ვალუტა
ვალუტის
ვამეყ
ვამპირი
ვამპირის
ვან
ვანანდის
ვანდა
ვანესა
ვანი
ვანის
ვანკუვერში
ვანო
ვანუატუს
ვანში
ვაჟ
ვაჟა
ვაჟები
ვაჟების
ვაჟებს
ვაჟზე
ვაჟთა
ვაჟთან
ვაჟი
ვაჟის
ვაჟიშვილი
ვაჟმა
ვაჟს
ვარ
ვარაუდი
ვარაუდით
ვარაუდობდა
ვარაუდობდნენ
ვარაუდობენ
ვარაუდობს
ვარგისი
ვარდან
ვარდარის
ვარდება
ვარდების
ვარდი
ვარდის
ვარდისუბნის
ვარდისფერ
ვარდისფერი
ვარდნა
ვარდნის
ვარდოსანიძე
ვართ
ვარიანტები
ვარიანტი
ვარიანტია
ვარიანტის
ვარიანტს
ვარიანტში
ვარიაცია
ვარიაციები
ვარლამ
ვარნის
ვარსიმაშვილი
ვარსკვლავად
ვარსკვლავები
ვარსკვლავების
ვარსკვლავებს
ვარსკვლავთა
ვარსკვლავთკარიბჭე
ვარსკვლავთკარიბჭის
ვარსკვლავთშორისი
ვარსკვლავი
ვარსკვლავია
ვარსკვლავიერი
ვარსკვლავით
ვარსკვლავის
ვარსკვლავს
ვარსკვლავურ
ვარსკვლავური
ვარშავა
ვარშავაში
ვარშავის
ვარძია
ვარძიის
ვარჯიში
ვარჯიშის
ვარჯიშობდა
ვასალი
ვასალური
ვასაძე
ვასილ
ვასილი
ვასილის
ვასკო
ვასო
ვასპურაკანის
ვატიკანი
ვატიკანის
ვაქცინა
ვაქცინის
ვაშაძე
ვაშინგტონ
ვაშინგტონი
ვაშინგტონის
ვაშინგტონში
ვაშლი
ვაშლის
ვაჩნაძე
ვაცლავ
ვაჭარ
ვაჭართა
ვაჭარი
ვაჭარმა
ვაჭრები
ვაჭრების
ვაჭრებმა
ვაჭრებს
ვაჭრის
ვაჭრობა
ვაჭრობაზე
ვაჭრობას
ვაჭრობაში
ვაჭრობდნენ
ვაჭრობით
ვაჭრობის
ვაჭრობისა
ვახტანგ
ვახტანგი
ვახტანგის
ვახტანგმა
ვახტანგს
ვახუშტი
ვახუშტის
ვე
ვებ
ვებგვერდზე
ვებგვერდი
ვებერი
ვებერნის
ვებსაიტი
ვეგა
ვეგას
ვეგასში
ვეგეტარიანული
ვეგეტატიური
ვედი
ვედრების
ვეზირად
ვეზირი
ვეზირის
ვეკუა
ველებზე
ველები
ველების
ველზე
ველი
ველიდან
ველიკა
ველის
ველს
ველურ
ველურად
ველური
ველში
ვენა
ვენაში
ვენახები
ვენახი
ვენახის
ვენერა
ვენერას
ვენესუელა
ვენესუელაში
ვენესუელის
ვენეცია
ვენეციაში
ვენეციელი
ვენეციის
ვენის
ვენური
ვერ
ვერა
ვერავინ
ვერასდროს
ვერასოდეს
ვერაფერი
ვერაფერს
ვერაფრით
ვერდე
ვერდეს
ვერდი
ვერდის
ვერიკო
ვერის
ვერმახტის
ვერნერ
ვერონიკა
ვერსალის
ვერსალში
ვერსია
ვერსიაა
ვერსიაზე
ვერსიას
ვერსიაში
ვერსიაც
ვერსიები
ვერსიების
ვერსიებს
ვერსიებში
ვერსიიდან
ვერსიით
ვერსიის
ვერტიკალურ
ვერტიკალურად
ვერტიკალური
ვერტმფრენი
ვერც
ვერცერთი
ვერცხლი
ვერცხლის
ვერცხლისა
ვერცხლისფერი
ვერცხლისწყალი
ვერცხლისწყლის
ვერცხლს
ვესტ
ვესტგუთების
ვესტი
ვესტმინსტერის
ვესტფალიის
ვეტერანთა
ვეტერანი
ვეტო
ვეტოს
ვეფხვი
ვეფხვის
ვეფხისტყაოსანი
ვეფხისტყაოსანში
ვეფხისტყაოსნის
ვექტორი
ვექტორის
ვექტორული
ვეღარ
ვეშაპების
ვეშაპი
ვეშაპის
ვეჯინის
ვთქვათ
ვი
ვია
ვიაჩესლავ
ვიბორგი
ვიბორგის
ვიგებთ
ვიდეო
ვიდეოგრამების
ვიდეოები
ვიდეოების
ვიდეოს
ვიდეოში
ვიდრე
ვიეტ
ვიეტნამი
ვიეტნამის
ვიეტნამური
ვიეტნამში
ვივარაუდოთ
ვიზა
ვიზის
ვიზიტი
ვიზიტით
ვიზიტის
ვიზიტისას
ვიზიტორთა
ვიზუალიზაციის
ვიზუალურ
ვიზუალურად
ვიზუალური
ვითარდება
ვითარდებოდა
ვითარება
ვითარებას
ვითარებაში
ვითარების
ვითარცა
ვითომ
ვიკი
ვიკივოიაჟზე
ვიკიმედია
ვიკინგები
ვიკინგების
ვიკიპედია
ვიკიპედიაში
ვიკიპედიის
ვიკისაწყობში
ვიკიში
ვიკიციტატაში
ვიკიწყაროში
ვილა
ვილაიეთი
ვილაიეთის
ვილაში
ვილემ
ვილემი
ვილი
ვილია
ვილიამ
ვილიანუევა
ვილნიუსი
ვილნიუსის
ვილნიუსში
ვილჰელმ
ვილჰელმი
ვილჰელმინა
ვილჰელმის
ვიმოქმედოთ
ვინ
ვინაა
ვინაიდან
ვინაობა
ვინაობას
ვინაობის
ვინი
ვინიციის
ვინმე
ვინმეს
ვინსენტ
ვინსენტი
ვინსენტის
ვინჩენცო
ვინჩის
ვინც
ვიოლინო
ვიოლინოზე
ვიოლინოს
ვიოლინოსა
ვირსალაძე
ვირტუალურ
ვირტუალური
ვირუსი
ვირუსით
ვირუსის
ვირუსული
ვირჯინია
ვირჯინიაში
ვირჯინიის
ვირჯინის
ვის
ვისაიასის
ვისაც
ვისენტე
ვისი
ვისკი
ვისკის
ვისკონტი
ვისოცკი
ვიტ
ვიტალი
ვიტამინი
ვიტამინის
ვიტი
ვიტორია
ვიტორიო
ვიურტემბერგის
ვიქსიკონში
ვიქტორ
ვიქტორი
ვიქტორია
ვიქტორიამ
ვიქტორიანული
ვიქტორიას
ვიქტორიასა
ვიქტორიის
ვიქტორის
ვიღაც
ვიღებთ
ვიყავი
ვიცე
ვიცი
ვიცით
ვიწრო
ვიწროა
ვიწროვდება
ვკითხულობთ
ვლადიკავკაზის
ვლადიკავკაზში
ვლადიმერ
ვლადიმერის
ვლადიმირ
ვლადიმირის
ვლადისლავ
ვლინდება
ვნება
ვნების
ვოიაჯერ
ვოკალები
ვოკალი
ვოკალით
ვოკალის
ვოკალისტ
ვოკალისტი
ვოკალისტის
ვოკალს
ვოკალურ
ვოკალური
ვოლგა
ვოლგის
ვოლგოგრადის
ვოლინის
ვოლოგდის
ვოლოდიმირ
ვოლფგანგ
ვოლფრამის
ვოლხოვი
ვონ
ვონი
ვორონეჟის
ვორონცოვის
ვრცელ
ვრცელდება
ვრცელდებოდა
ვრცელი
ვრცლად
ვსევოლოდ
ვსევოლოჟსკი
ვუ
ვუდი
ვუდრო
ვულკან
ვულკანები
ვულკანების
ვულკანი
ვულკანია
ვულკანიზმის
ვულკანის
ვულკანოგენური
ვულკანს
ვულკანურ
ვულკანური
ვფიქრობ
ვხედავ
ვხედავთ
ვხვდებით
ზ
ზა
ზაალ
ზაგოროდნაია
ზაგრები
ზაგრების
ზავი
ზავით
ზავის
ზავს
ზაზა
ზაკ
ზალცბურგი
ზალცბურგის
ზალცბურგში
ზამბია
ზამბიაში
ზამბიის
ზამბოანგის
ზამთარი
ზამთარს
ზამთარში
ზამთრით
ზამთრის
ზამთრობით
ზანგეზურის
ზანგილანის
ზანზიბარის
ზაპორიჟიის
ზარალი
ზარალის
ზარბაზანი
ზარდაბის
ზარები
ზარების
ზარი
ზარის
ზაურ
ზაფხულ
ზაფხული
ზაფხულიდან
ზაფხულით
ზაფხულის
ზაფხულობით
ზაფხულს
ზაფხულსა
ზაფხულში
ზაქათალის
ზაქარაია
ზაქარია
ზაქარიას
ზე
ზეა
ზებუნებრივ
ზებუნებრივი
ზეგავლენა
ზეგავლენას
ზეგავლენით
ზეგავლენის
ზეგანზე
ზეგანი
ზეგნის
ზედ
ზედა
ზედაზნის
ზედამხედველი
ზედამხედველობა
ზედამხედველობას
ზედამხედველობის
ზედაპირები
ზედაპირზე
ზედაპირთან
ზედაპირი
ზედაპირიდან
ზედაპირით
ზედაპირის
ზედაპირს
ზედაპირულ
ზედაპირულად
ზედაპირული
ზედიზედ
ზედმეტად
ზედმეტი
ზედმეტსახელად
ზედმეტსახელი
ზედმიწევნით
ზედსართავი
ზევიდან
ზევით
ზევსი
ზევსის
ზევსმა
ზეთი
ზეთის
ზეთისხილის
ზეთს
ზეთში
ზეითუნის
ზეიმი
ზეიმით
ზეინაბ
ზელანდია
ზელანდიას
ზელანდიაში
ზელანდიის
ზელენსკიმ
ზემო
ზემოაღნიშნული
ზემოდან
ზემოთ
ზემოთა
ზემოთკენ
ზემოთში
ზემოქმედება
ზემოქმედებას
ზემოქმედებით
ზემოქმედების
ზემოხსენებული
ზეობის
ზეპელინი
ზეპელინის
ზეპირად
ზეპირი
ზესტაფონი
ზესტაფონის
ზეციური
ზეწოლა
ზეწოლას
ზეწოლით
ზეწოლის
ზვიად
ზი
ზია
ზიანდება
ზიანი
ზიანის
ზიანს
ზიარების
ზიგმუნდ
ზიგფრიდის
ზიმბაბვე
ზიმბაბვეს
ზიმბაბვეში
ზინაიდა
ზის
ზმნა
ზმნები
ზმნიზედა
ზმნის
ზნაურის
ზნე
ზნეობრივი
ზოგ
ზოგად
ზოგადად
ზოგადი
ზოგადსაგანმანათლებლო
ზოგან
ზოგი
ზოგიერთ
ზოგიერთი
ზოგიერთის
ზოგიერთმა
ზოგიერთს
ზოგიც
ზოგმა
ზოგს
ზოგჯერ
ზოდიაქოს
ზოლები
ზოლებით
ზოლზე
ზოლი
ზოლიანი
ზოლით
ზოლის
ზოლს
ზოლში
ზომა
ზომას
ზომაში
ზომები
ზომებია
ზომებით
ზომების
ზომებს
ზომიერ
ზომიერად
ზომიერი
ზომით
ზომის
ზომისა
ზომისაა
ზონა
ზონად
ზონალური
ზონას
ზონაში
ზონდის
ზონები
ზონების
ზონებში
ზონიდან
ზონის
ზოოლოგი
ზოოლოგიის
ზოოლოგიური
ზოოპარკი
ზოოპარკის
ზოოპარკში
ზოროასტრიზმის
ზოსიმე
ზრდა
ზრდადი
ზრდამ
ზრდას
ზრდასთან
ზრდასრულ
ზრდასრულთა
ზრდასრული
ზრდიან
ზრდიდა
ზრდიდნენ
ზრდით
ზრდის
ზრდისა
ზრდისაა
ზრუნავდა
ზრუნავს
ზრუნვა
ზრუნვას
ზრუნვის
ზუგდიდი
ზუგდიდის
ზუგდიდში
ზულუს
ზურა
ზურაბ
ზურაბიშვილი
ზურაბიშვილის
ზურაბიშვილმა
ზურგზე
ზურგი
ზურგიანი
ზურგიდან
ზურგის
ზურგს
ზურგში
ზუსტ
ზუსტად
ზუსტი
ზღაპარი
ზღაპრები
ზღაპრების
ზღაპრის
ზღარბი
ზღვა
ზღვაზე
ზღვამდე
ზღვარზე
ზღვარი
ზღვარს
ზღვას
ზღვასა
ზღვასთან
ზღვაში
ზღვები
ზღვების
ზღვებში
ზღვიდან
ზღვით
ზღვის
ზღვისა
ზღვისიქითა
ზღვისკენ
ზღვისპირა
ზღვიური
ზღვრული
ზღუდავდა
ზღუდავს
ზღუდე
ზღუდის
თ
თა
თაბაშირი
თაბაშირის
თაბუკაშვილი
თაგვი
თაგუნას
თავ
თავად
თავადაზნაურთა
თავადაზნაურობა
თავადაზნაურობის
თავადაც
თავადები
თავადების
თავადვე
თავადთა
თავადი
თავადის
თავადმა
თავაძე
თავგადასავალი
თავგადასავლები
თავგადასავლების
თავდადებული
თავდამსხმელი
თავდამსხმელის
თავდაპირველ
თავდაპირველად
თავდაპირველი
თავდასხმა
თავდასხმას
თავდასხმაში
თავდასხმები
თავდასხმების
თავდასხმებს
თავდასხმის
თავდაცვა
თავდაცვით
თავდაცვითი
თავდაცვის
თავდაცვისა
თავდგირიძე
თავები
თავების
თავებს
თავზე
თავთან
თავი
თავიანთ
თავიანთი
თავიდან
თავიდანვე
თავით
თავის
თავისა
თავისებურ
თავისებურად
თავისებურება
თავისებურებანი
თავისებურებას
თავისებურებები
თავისებურებებით
თავისებურებების
თავისებურებებს
თავისებური
თავისთავად
თავისთან
თავისთვის
თავისი
თავისივე
თავისით
თავისუფალ
თავისუფალი
თავისუფალია
თავისუფლად
თავისუფლდება
თავისუფლება
თავისუფლებას
თავისუფლებების
თავისუფლებებისთვის
თავისუფლების
თავისუფლებისა
თავისუფლებისთვის
თავმოყრილი
თავმოყრილია
თავმჯდომარე
თავმჯდომარეა
თავმჯდომარედ
თავმჯდომარემ
თავმჯდომარეობდა
თავმჯდომარეობით
თავმჯდომარეს
თავმჯდომარის
თავრიზი
თავრიზის
თავრიზში
თავს
თავსა
თავსაბურავი
თავსართი
თავსდება
თავშესაფარი
თავშესაფარს
თავშესაფარში
თავშესაფრის
თავშეყრის
თავში
თავჯდომარის
თათართა
თათარი
თათები
თათრები
თათრების
თათრული
თაიფ
თალაკვაძე
თალასის
თალიბანის
თამაზ
თამამად
თამამი
თამარ
თამარი
თამარის
თამარს
თამაშად
თამაშებზე
თამაშები
თამაშების
თამაშებს
თამაშებში
თამაშზე
თამაში
თამაშიდან
თამაშით
თამაშის
თამაშისას
თამაშისთვის
თამაშმა
თამაშობდა
თამაშობდნენ
თამაშობენ
თამაშობს
თამაშს
თამაშში
თამბაქო
თამბაქოს
თან
თანა
თანაავტ
თანაავტორი
თანაავტორობით
თანაბარ
თანაბარი
თანაბრად
თანადამფუძნებელი
თანადროული
თანავარსკვლავედი
თანავარსკვლავედში
თანამგზავრი
თანამგზავრის
თანამგზავრული
თანამდებობა
თანამდებობაზე
თანამდებობას
თანამდებობებზე
თანამდებობები
თანამდებობებს
თანამდებობიდან
თანამდებობის
თანამებრძოლი
თანამეგობრობა
თანამეგობრობაში
თანამეგობრობის
თანამედროვე
თანამედროვეთა
თანამედროვეობა
თანამედროვეობის
თანამემამულე
თანამმართველად
თანამმართველი
თანამოაზრე
თანამოაზრეებთან
თანამშრომელთა
თანამშრომელი
თანამშრომლად
თანამშრომლები
თანამშრომლების
თანამშრომლებმა
თანამშრომლებს
თანამშრომლის
თანამშრომლობა
თანამშრომლობას
თანამშრომლობდა
თანამშრომლობდნენ
თანამშრომლობით
თანამშრომლობის
თანამშრომლობისა
თანამშრომლობს
თანაპროდიუსერი
თანასწორი
თანასწორობა
თანასწორობას
თანასწორობის
თანაფარდობა
თანაშემწე
თანაშემწედ
თანაც
თანაცხოვრების
თანახმა
თანახმად
თანახმადაც
თანდათან
თანდათანობით
თანდათანობითი
თანდასწრებით
თანდაყოლილი
თანმიმდევრობა
თანმიმდევრობით
თანმიმდევრული
თანმხლები
თანრიგში
თანხა
თანხას
თანხები
თანხების
თანხით
თანხის
თანხლებით
თანხმდება
თანხმდებიან
თანხმობა
თანხმობით
თანხმობის
თანხმოვანი
თაობა
თაობაზე
თაობას
თაობაში
თაობიდან
თაობის
თაოსნობით
თარაზულად
თარაზულადაა
თარაზული
თარგი
თარგის
თარგმანები
თარგმანი
თარგმანის
თარგმანს
თარგმანში
თარგმნა
თარგმნიდა
თარგმნილი
თარგმნილია
თარგმნის
თარიღად
თარიღდება
თარიღები
თარიღი
თარიღია
თარიღის
თარიღს
თარო
თაროსებრი
თარხან
თარხნიშვილი
თარჯიმანი
თასების
თასზე
თასი
თასის
თასს
თაფლი
თაფლის
თაფლობის
თაფლოვანი
თაქთაქიშვილი
თაღები
თაღებით
თაღების
თაღებს
თაღზე
თაღი
თაღია
თაღით
თაღითაა
თაღის
თაღოვან
თაღოვანი
თაღოვანია
თაღს
თაყაიშვილი
თაყაიშვილის
თაყაიშვილმა
თაყვანისმცემელი
თაყვანისცემა
თაყვანისცემის
თაყვანს
თბ
თბილ
თბილად
თბილელი
თბილი
თბილია
თბილისელები
თბილისელთა
თბილისელი
თბილისზე
თბილისი
თბილისიდან
თბილისის
თბილისისა
თბილისს
თბილისსა
თბილისური
თბილისში
თე
თეა
თეატრ
თეატრალურ
თეატრალური
თეატრები
თეატრების
თეატრებში
თეატრთან
თეატრი
თეატრის
თეატრისა
თეატრმა
თეატრს
თეატრში
თებერვალ
თებერვალი
თებერვალს
თებერვალში
თებერვლამდე
თებერვლიდან
თებერვლის
თებეს
თედო
თედორაძე
თედორე
თევდორე
თევდორეს
თევზაობა
თევზაძე
თევზები
თევზებით
თევზების
თევზებს
თევზი
თევზია
თევზით
თევზის
თევზს
თევზჭერა
თევზჭერის
თეთრ
თეთრად
თეთრი
თეთრია
თეთრიწყაროს
თეთრკანიანი
თეთრყურძნიანი
თეიმურაზ
თეიმურაზი
თეიმურაზის
თეიმურაზმა
თეიმურაზს
თეირანი
თეირანის
თეირანში
თელ
თელავი
თელავის
თელავში
თემა
თემაა
თემად
თემაზე
თემას
თემატიკა
თემატიკის
თემატური
თემებზე
თემები
თემებია
თემების
თემებს
თემებში
თემთა
თემი
თემის
თემს
თემურ
თემური
თემურლენგის
თემურლენგმა
თემში
თენგიზ
თეო
თეოდორ
თეოდორა
თეოდორე
თეოდოსი
თეოდოსიუს
თეოლოგი
თეოლოგიის
თეოლოგიურ
თეოლოგიური
თეორემა
თეორეტიკოსი
თეორია
თეორიაზე
თეორიას
თეორიასა
თეორიაში
თეორიები
თეორიების
თეორიებს
თეორიით
თეორიის
თეორიისა
თეორიულ
თეორიულად
თეორიული
თეოფანე
თეოფილე
თერაპევტი
თერაპია
თერაპიის
თერაპიული
თერგის
თერთმეტი
თერმობირთვული
თერმული
თერჯოლის
თესლი
თესლით
თესლის
თესლს
თექვსმეტი
თეძმის
თვალები
თვალებით
თვალების
თვალებს
თვალი
თვალით
თვალის
თვალს
თვალსაზრისი
თვალსაზრისით
თვალსაჩინო
თვალყურს
თვალში
თვალწარმტაცი
თვალწინ
თვე
თვეა
თვეები
თვეებია
თვეების
თვეებში
თვეზე
თვემდე
თვეს
თვეში
თვიანი
თვით
თვითგამორკვევის
თვითგამოცხადებული
თვითმავალი
თვითმკვლელობა
თვითმკვლელობით
თვითმკვლელობის
თვითმმართველი
თვითმმართველობა
თვითმმართველობის
თვითმფრინავები
თვითმფრინავების
თვითმფრინავი
თვითმფრინავით
თვითმფრინავის
თვითმფრინავმა
თვითმფრინავს
თვითნებურად
თვითონ
თვითონაც
თვითონვე
თვის
თვისება
თვისებაა
თვისებას
თვისებებზე
თვისებები
თვისებებით
თვისებების
თვისებებს
თვისების
თვიური
თვლიან
თვლიდა
თვლიდნენ
თვლის
თვრამეტი
თი
თიანეთი
თიანეთიდან
თიანეთის
თიბისი
თითები
თითების
თითი
თითის
თითო
თითოეულ
თითოეული
თითოეულის
თითოეულმა
თითოეულს
თითქმის
თითქოს
თითქოსდა
თინა
თინათინ
თინეიჯერი
თინეიჯერობის
თირკმლის
თიღვის
თიხა
თიხაფიქლებით
თიხაფიქლებითა
თიხებით
თიხით
თიხის
თლილი
თმა
თმას
თმის
თოდუა
თოვლი
თოვლიანი
თოვლით
თოვლის
თოვლისა
თოთხმეტი
თოიძე
თოლბაზიდან
თოლია
თომა
თომას
თომასი
თორა
თორი
თორის
თორმეტ
თორმეტი
თორნიკე
თოუზის
თოფურია
თოფჩიშვილი
თოჯინების
თრაკიის
თრეშ
თრიალეთის
თრილერი
თსუ
თუ
თუთაშხია
თუთია
თუთიის
თუთის
თუთიყუში
თუკი
თუმანიშვილი
თუმანიშვილის
თუმც
თუმცა
თუმცაღა
თუნდაც
თუნუქით
თუნუქის
თურმე
თურქ
თურქები
თურქების
თურქებმა
თურქებს
თურქეთ
თურქეთთან
თურქეთი
თურქეთიდან
თურქეთის
თურქეთმა
თურქეთს
თურქეთსა
თურქეთში
თურქესტანის
თურქთა
თურქი
თურქმენეთი
თურქმენეთის
თურქმენეთში
თურქმენული
თურქულ
თურქულად
თურქულენოვანი
თურქული
თუშეთი
თუშეთის
თუშეთში
თუშური
თუჯის
თქვა
თქვას
თქვენ
თქვენთვის
თქვენი
თქვენს
თქვეს
თქმა
თქმით
თქმის
თქმულება
თქმულებები
თქმულების
თხა
თხევად
თხევადი
თხელ
თხელი
თხელია
თხემზე
თხემი
თხზ
თხზულება
თხზულებათა
თხზულებანი
თხზულებაში
თხზულებები
თხზულებების
თხზულებებს
თხზულებებში
თხზულების
თხილი
თხილის
თხის
თხოვნა
თხოვნას
თხოვნით
თხოვნის
თხოვს
თხრილი
თხრობა
თხრობითი
თხრობის
თხუთმეტი
ი
ია
იაგო
იავის
იაზიკოვოდან
იაკობ
იაკობი
იაკობის
იაკობმა
იამაიკა
იამაიკის
იან
იანაული
იანაულიდან
იანაულის
იანგ
იანგი
იანგის
იანები
იანების
იანებში
იანვარ
იანვარი
იანვარს
იანვარში
იანვრამდე
იანვრიდან
იანვრის
იანვრისათვის
იანვრისთვის
იანი
იანის
იაპ
იაპონ
იაპონელ
იაპონელები
იაპონელების
იაპონელებმა
იაპონელთა
იაპონელი
იაპონელმა
იაპონია
იაპონიამ
იაპონიას
იაპონიასა
იაპონიაში
იაპონიის
იაპონურ
იაპონურად
იაპონური
იარაღად
იარაღები
იარაღების
იარაღებს
იარაღი
იარაღით
იარაღის
იარაღისა
იარაღს
იარდიმლის
იაროსლავ
იარსება
იარუსი
იასონ
იასონი
იასპარეზა
იატაკზე
იატაკი
იატაკიდან
იატაკის
იატაკქვეშა
იაფი
იაშვილი
იაჰია
იბადება
იბერია
იბერიის
იბერიულ
იბეჭდება
იბეჭდებოდა
იბნ
იბრაჰიმ
იბრაჰიმი
იბრძვიან
იბრძვის
იბრძოდა
იბრძოდნენ
იგავი
იგდეს
იგდო
იგებს
იგეგმება
იგეგმებოდა
იგზავნებოდა
იგი
იგივე
იგივეა
იგივეს
იგნასიო
იგნორირებულია
იგონებს
იგორ
იგრძნო
იგრძნობა
იგრძნობოდა
იგულისხმება
იდა
იდან
იდგა
იდგმებოდა
იდგნენ
იდეა
იდეალი
იდეალურ
იდეალური
იდეას
იდეები
იდეებით
იდეების
იდეებმა
იდეებს
იდევნებოდა
იდეით
იდეის
იდენტიფიკაცია
იდენტიფიცირება
იდენტობა
იდენტობის
იდენტური
იდენტურია
იდეოლოგი
იდეოლოგია
იდეოლოგიას
იდეოლოგიის
იდეოლოგიურ
იდეოლოგიური
იდეურ
იდეური
იდიომა
იდიოტი
იდირიჟორა
იდო
იდრის
იდუმალ
იდუმალი
იეზუიტთა
იელის
იემენი
იემენის
იემენში
იენ
იენი
იენის
იენს
იერარქია
იერარქიაში
იერარქიის
იერარქიული
იერი
იერიში
იერიშით
იერიშის
იერს
იერსახე
იერუსალიმი
იერუსალიმის
იერუსალიმში
იესე
იესო
იესომ
იესოს
იეჰოვას
ივ
ივან
ივანე
ივანეს
ივანიშვილი
ივანო
ივანოვი
ივარაუდა
ივარაუდება
ივერთა
ივერია
ივერიაში
ივერიელი
ივერიის
ივლის
ივლისამდე
ივლისი
ივლისიდან
ივლისის
ივლისს
ივლისში
ივნის
ივნისამდე
ივნისი
ივნისიდან
ივნისის
ივნისს
ივნისში
ივო
ივრის
ივსება
ივუარი
ივუარის
იზაბელ
იზაბელა
იზაბელას
იზაბელი
იზამთრებს
იზეიმა
იზიარებდა
იზიარებენ
იზიარებს
იზიდავდა
იზიდავს
იზოლაციის
იზოლირებულ
იზოლირებული
იზომება
იზოტოპები
იზოტოპების
იზოტოპი
იზოტოპის
იზრდება
იზრდებიან
იზრდებოდა
იზრდებოდნენ
ით
ითავა
ითავსებს
ითამაშა
ითამაშეს
ითარგმნა
ითარგმნება
ითვალისწინებდა
ითვალისწინებს
ითვლება
ითვლებიან
ითვლებოდა
ითვლებოდნენ
ითვლიდა
ითვლის
ითქვა
ითქვას
ითხოვა
ითხოვდა
ითხოვდნენ
ითხოვენ
ითხოვს
იისფერი
იკავებდა
იკავებდნენ
იკავებენ
იკავებს
იკარგება
იკეთებს
იკვებება
იკვებებიან
იკვეთება
იკვლევდა
იკვლევენ
იკვლევს
იკითხება
იკისრა
იკლებს
იკლო
იკრიბება
იკრიბებიან
იკრიბებოდა
იკრიბებოდნენ
იკრძალებოდა
ილ
ილარიონ
ილარიონი
ილაშქრა
ილი
ილია
ილიას
ილიკო
ილინოისი
ილინოისის
ილო
ილოკ
ილოკოსის
ილუზია
ილუსტრატორი
ილუსტრაცია
ილუსტრაციები
ილუსტრირებული
ილჰამ
იმ
იმავდროულად
იმავე
იმაზე
იმალება
იმალებოდა
იმამ
იმამი
იმან
იმანუელ
იმართება
იმართებოდა
იმარჯვა
იმარჯვებს
იმას
იმასაც
იმასთან
იმატა
იმატებს
იმაში
იმგვარად
იმდენად
იმდენი
იმდროინდელ
იმდროინდელი
იმედაშვილი
იმედგაცრუებული
იმედები
იმედი
იმედით
იმედის
იმედოვნებდა
იმედს
იმეორებდა
იმეორებს
იმერეთი
იმერეთიდან
იმერეთის
იმერეთში
იმერთა
იმერული
იმეფა
იმთავითვე
იმიგრანტების
იმიგრაციის
იმით
იმითაც
იმის
იმისა
იმისათვის
იმისდა
იმისთვის
იმიტაცია
იმიტომ
იმიშლის
იმიჯი
იმნაიშვილი
იმოგზაურა
იმოქმედა
იმპერატივი
იმპერატორ
იმპერატორად
იმპერატორები
იმპერატორების
იმპერატორთა
იმპერატორთან
იმპერატორი
იმპერატორის
იმპერატორმა
იმპერატორს
იმპერატრიცა
იმპერია
იმპერიად
იმპერიამ
იმპერიას
იმპერიასა
იმპერიასთან
იმპერიაში
იმპერიების
იმპერიიდან
იმპერიის
იმპერიისა
იმპერიულ
იმპერიული
იმპიჩმენტის
იმპორტი
იმპორტიორების
იმპორტირებული
იმპორტის
იმპოსტებს
იმპულსი
იმპულსის
იმჟამად
იმჟამინდელი
იმსახურებს
იმსხვერპლა
იმუნიტეტი
იმუნური
იმუშავა
იმუშავებს
იმღერა
იმყოფება
იმყოფებიან
იმყოფებოდა
იმყოფებოდნენ
იმხანად
ინ
ინა
ინარჩუნებდა
ინარჩუნებდნენ
ინარჩუნებენ
ინარჩუნებს
ინაუგურაცია
ინაუგურაციის
ინახავდა
ინახავდნენ
ინახავენ
ინახავს
ინახება
ინახებოდა
ინგ
ინგა
ინგვი
ინგლ
ინგლის
ინგლისელ
ინგლისელები
ინგლისელების
ინგლისელებმა
ინგლისელებს
ინგლისელთა
ინგლისელი
ინგლისელმა
ინგლისთან
ინგლისი
ინგლისიდან
ინგლისის
ინგლისისა
ინგლისმა
ინგლისს
ინგლისსა
ინგლისურ
ინგლისურად
ინგლისურენოვან
ინგლისურენოვანი
ინგლისური
ინგლისურიდან
ინგლისურის
ინგლისურს
ინგლისურში
ინგლისში
ინგოროყვა
ინგრედიენტები
ინგრედიენტების
ინგრედიენტი
ინგუშების
ინგუშეთის
ინგუშეთში
ინდექსები
ინდექსი
ინდექსით
ინდექსის
ინდი
ინდიანა
ინდიანას
ინდიელები
ინდიელების
ინდიელებს
ინდიელთა
ინდიელი
ინდივიდები
ინდივიდების
ინდივიდებს
ინდივიდი
ინდივიდის
ინდივიდს
ინდივიდუალურ
ინდივიდუალურად
ინდივიდუალური
ინდირა
ინდის
ინდო
ინდოევროპულ
ინდოევროპული
ინდოეთთან
ინდოეთი
ინდოეთიდან
ინდოეთის
ინდოეთისა
ინდოეთმა
ინდოეთს
ინდოეთსა
ინდოეთში
ინდოელ
ინდოელები
ინდოელი
ინდონ
ინდონეზია
ინდონეზიაში
ინდონეზიის
ინდონეზიური
ინდოჩინეთის
ინდუიზმი
ინდუიზმის
ინდუისტური
ინდურ
ინდური
ინდუსტრია
ინდუსტრიაში
ინდუსტრიის
ინდუსტრიულ
ინდუსტრიული
ინერტული
ინვენტარი
ინვესტიცია
ინვესტიციები
ინვესტიციების
ინი
ინიშნება
ინიციატივა
ინიციატივას
ინიციატივების
ინიციატივით
ინიციატივითა
ინიციატივის
ინიციატორი
ინკა
ინკები
ინკების
ინკუბაცია
ინო
ინოვაციების
ინოვაციური
ინოკენტი
ინჟინერ
ინჟინერთა
ინჟინერი
ინჟინერია
ინჟინერიის
ინჟინერის
ინჟინერმა
ინჟინრად
ინჟინრები
ინჟინრების
ინჟინრის
ინსპექტორად
ინსპექტორი
ინსპექტორის
ინსპექციის
ინსტიტუტად
ინსტიტუტები
ინსტიტუტების
ინსტიტუტებს
ინსტიტუტებში
ინსტიტუტთან
ინსტიტუტი
ინსტიტუტის
ინსტიტუტისა
ინსტიტუტმა
ინსტიტუტს
ინსტიტუტში
ინსტიტუციური
ინსტრუმენტებზე
ინსტრუმენტები
ინსტრუმენტების
ინსტრუმენტებს
ინსტრუმენტზე
ინსტრუმენტი
ინსტრუმენტის
ინსტრუმენტს
ინსტრუმენტულ
ინსტრუმენტული
ინსტრუქტორი
ინტეგრაცია
ინტეგრაციას
ინტეგრაციის
ინტეგრაციული
ინტეგრირებული
ინტელექტი
ინტელექტის
ინტელექტუალი
ინტელექტუალურ
ინტელექტუალური
ინტელიგენციის
ინტენსივობა
ინტენსივობის
ინტენსიურ
ინტენსიურად
ინტენსიური
ინტერაქტიული
ინტერესები
ინტერესების
ინტერესებს
ინტერესთა
ინტერესი
ინტერესით
ინტერესის
ინტერესს
ინტერვენცია
ინტერვენციის
ინტერვიუ
ინტერვიუები
ინტერვიუს
ინტერვიუში
ინტერი
ინტერიერი
ინტერიერის
ინტერიერში
ინტერის
ინტერნაციონალის
ინტერნაციონალური
ინტერნეტ
ინტერნეტთან
ინტერნეტი
ინტერნეტით
ინტერნეტის
ინტერნეტში
ინტერპრესნიუსი
ინტერპრეტაცია
ინტერპრეტაციას
ინტერპრეტაციით
ინტერპრეტაციის
ინტერტოტოს
ინტერფეისი
ინტერფეისის
ინტერფეისში
ინტიმური
ინტრიგების
ინფანტა
ინფექცია
ინფექციების
ინფექციის
ინფექციურ
ინფექციური
ინფინიტივი
ინფლაცია
ინფლაციის
ინფორმატიკის
ინფორმაცია
ინფორმაციას
ინფორმაციით
ინფორმაციის
ინფორმაციისა
ინფორმაციულ
ინფორმაციული
ინფრასტრუქტურა
ინფრასტრუქტურის
ინფრაწითელი
ინციდენტი
ინციდენტის
იო
იოანე
იოანემ
იოანეს
იოახიმ
იოდის
იოვანე
იოზეფ
იოზეფა
იოზეფი
იოკო
იოლად
იოლანდა
იოლი
იომ
იონ
იონა
იონას
იონები
იონების
იონი
იონიის
იონური
იორდანეს
იორდანია
იორდანიაში
იორდანიის
იორკ
იორკელი
იორკი
იორკიდან
იორკის
იორკში
იოსებ
იოსები
იოსების
იოსელიანი
იოსელიანის
იოჰან
იოჰანა
იოჰანეს
იოჰანი
იპოვა
იპოვეს
იპოვის
იპოვოს
იპოლიტე
იპყრობს
ირ
ირაკლი
ირაკლის
ირან
ირანელთა
ირანელი
ირანთან
ირანი
ირანიდან
ირანის
ირანისა
ირანმა
ირანს
ირანსა
ირანულ
ირანული
ირანში
ირგვლივ
ირეგულარული
ირეგულარულია
ირემაძე
ირემი
ირიბად
ირიბი
ირინა
ირინე
ირიცხება
ირიცხებოდა
ირკვევა
ირკუტსკის
ირლ
ირლანდია
ირლანდიაში
ირლანდიელი
ირლანდიის
ირლანდიისა
ირლანდიურ
ირლანდიური
ირმა
ირმების
ირმის
იროდიონ
ირღვევა
ირჩევა
ირჩევდა
ირჩევდნენ
ირჩევენ
ირჩევს
ირწმუნება
ირწმუნებოდა
ის
ისა
ისაა
ისააკ
ისააკის
ისაბელ
ისაბელა
ისაბელას
ისაბელი
ისაბელის
ისაბელმა
ისათვის
ისარგებლა
ისარგებლეს
ისარი
ისაუბრა
ისახავდა
ისახავს
ისგან
ისე
ისეა
ისედაც
ისევ
ისევე
ისეთ
ისეთები
ისეთი
ისეთივე
ისეთმა
ისთვის
ისიდორე
ისინი
ისინიც
ისიც
ისლ
ისლამ
ისლამი
ისლამის
ისლამისტური
ისლამს
ისლამურ
ისლამური
ისლამში
ისლანდია
ისლანდიაში
ისლანდიის
ისლანდიურ
ისლანდიური
ისმაილ
ისმაილი
ისმაილის
ისმენდა
ისმის
ისმოდა
ისნის
ისრაელ
ისრაელთან
ისრაელი
ისრაელის
ისრაელმა
ისრაელს
ისრაელსა
ისრაელში
ისრები
ისრის
ისტ
ისტორია
ისტორიაზე
ისტორიანი
ისტორიას
ისტორიასა
ისტორიასთან
ისტორიაში
ისტორიები
ისტორიების
ისტორიებს
ისტორიიდან
ისტორიით
ისტორიის
ისტორიისა
ისტორიისათვის
ისტორიკოს
ისტორიკოსები
ისტორიკოსების
ისტორიკოსთა
ისტორიკოსი
ისტორიკოსის
ისტორიკოსმა
ისტორიოგრაფიაში
ისტორიულ
ისტორიულად
ისტორიული
ისურვა
ისწავლა
ისწავლება
ისხდნენ
ისჯება
ისჯებოდა
იტალ
იტალია
იტალიამ
იტალიას
იტალიასა
იტალიასთან
იტალიაში
იტალიელ
იტალიელები
იტალიელებმა
იტალიელთა
იტალიელი
იტალიელმა
იტალიიდან
იტალიის
იტალიისა
იტალიურ
იტალიურად
იტალიური
იტალო
იტანს
იტანჯებოდა
იტაცებს
იტევდა
იტევს
იტყვის
იტყობინებოდა
იტყოდა
იუ
იუანის
იუბილე
იუბილეზე
იუბილეს
იუბილესთან
იუგოსლავია
იუგოსლავიაში
იუგოსლავიის
იუდა
იუდაიზმი
იუდაიზმის
იუდას
იუდეველთა
იუდეის
იუვენტუსი
იუვენტუსის
იუვენტუსმა
იუვენტუსში
იუკატანის
იულია
იულიანა
იულიუს
იულიუსის
იუმორით
იუმორის
იუმორისტული
იუნაიტედი
იუნაიტედის
იუნაიტედმა
იუნაიტედში
იუნგი
იუნგის
იუნესკო
იუნესკომ
იუნესკოს
იუნკერთა
იუპიტერი
იუპიტერის
იურგენ
იურე
იური
იურიდიულ
იურიდიულად
იურიდიული
იურის
იურისდიქცია
იურისდიქციაში
იურისდიქციის
იურისტთა
იურისტი
იურისტის
იურული
იუსტინე
იუსტინიანე
იუსტინიანეს
იუსტიციის
იუსუფ
იუტა
იუტლანდიის
იუწყება
იუხარი
იუჯინ
იფანი
იფარება
იფეთქა
იქ
იქამდე
იქაურ
იქაური
იქედან
იქვე
იქიდან
იქით
იქმნება
იქმნებოდა
იქნა
იქნას
იქნებ
იქნება
იქნებიან
იქნებოდა
იქნებოდნენ
იქნენ
იქნეს
იქონია
იქონიეს
იქორწინა
იქორწინეს
იქს
იქცა
იქცევა
იქცევიან
იქცევს
იქცეოდა
იქცნენ
იღბლიანი
იღებდა
იღებდნენ
იღებენ
იღებს
იღვიძებს
იღვწოდა
იღუმენი
იღუპება
იყალთოს
იყარა
იყენებდა
იყენებდნენ
იყენებენ
იყენებს
იყვნენ
იყიდა
იყიდება
იყიდებოდა
იყინება
იყო
იყოს
იყოფა
იყოფიან
იყოფოდა
იყრიდა
იყრის
იშვიათ
იშვიათად
იშვიათი
იშვიათია
იშვილა
იშიმბაის
იშლება
იჩენდა
იჩენს
იჩინა
იც
იცავდა
იცავდნენ
იცავენ
იცავს
იცვლება
იცვლებოდა
იცვლიდა
იცვლის
იცი
იციან
იცით
იცის
იცნობდა
იცნობდნენ
იცნობენ
იცნობს
იცოდა
იცოდნენ
იცოცხლა
იცხაკ
იცხოვრა
იძენს
იძიებს
იძლევა
იძლევიან
იძლეოდა
იძულებით
იძულებითი
იძულებულები
იძულებული
იძულებულია
იძულებულნი
იწარმოება
იწარმოებოდა
იწერდა
იწერება
იწერებოდა
იწვევდა
იწვევდნენ
იწვევენ
იწვევს
იწვის
იწვრთნება
იწინასწარმეტყველა
იწოდება
იწოდებოდა
იწოდებოდნენ
იწონიდა
იწონის
იწყება
იწყებდა
იწყებენ
იწყებოდა
იწყებს
იწყო
იჭერენ
იჭერს
იჭმება
იჭრება
იჭრებოდა
იხ
იხდიან
იხდიდა
იხდიდნენ
იხდის
იხვი
იხილა
იხილავს
იხილეთ
იხილეს
იხილოთ
იხმარება
იხმარებოდა
იხსენებდა
იხსენებს
იხსენიება
იხსენიებენ
იხსენიებიან
იხსენიებს
იხსნა
იხსნება
იჯარიდან
იჯარით
იჯარის
იჯდა
კ
კა
კაბა
კაბინეტი
კაბინეტის
კაბინეტს
კაბინეტში
კაბო
კაგაიანის
კადაფის
კადეტთა
კადისის
კადრები
კადრების
კადრი
კადრის
კავადარცის
კავალერი
კავალერია
კავალერიის
კავთისხევის
კავკასია
კავკასიას
კავკასიასა
კავკასიაში
კავკასიელ
კავკასიელი
კავკასიიდან
კავკასიის
კავკასიისა
კავკასიონზე
კავკასიონი
კავკასიონის
კავკასიურ
კავკასიური
კავსაძე
კავშირგაბმულობის
კავშირები
კავშირების
კავშირებს
კავშირზე
კავშირთან
კავშირი
კავშირიდან
კავშირით
კავშირის
კავშირისა
კავშირისგან
კავშირმა
კავშირს
კავშირსა
კავშირში
კავშირშია
კაზაკები
კაზაკების
კაზაკთა
კაზიმირ
კაზინო
კათალიკოს
კათალიკოსი
კათალიკოსის
კათარინა
კათედრა
კათედრაზე
კათედრალი
კათედრალის
კათედრალში
კათედრას
კათედრის
კათოლიკე
კათოლიკეა
კათოლიკები
კათოლიკედ
კათოლიკეები
კათოლიკეების
კათოლიკეთა
კათოლიკოს
კათოლიკოსი
კათოლიკოსის
კათოლიკურ
კათოლიკური
კათოლიკურმა
კათოლიციზმი
კათოლიციზმის
კათრინ
კაი
კაილი
კაინოზოური
კაირო
კაიროს
კაიროში
კაკაბაძე
კაკაბაძის
კაკალი
კაკაო
კაკაოს
კაკლის
კაკო
კაკულია
კალა
კალათბურთელი
კალათბურთი
კალათბურთის
კალამი
კალამს
კალანდაძე
კალანდია
კალაპოტი
კალაპოტის
კალას
კალატოზიშვილი
კალაძე
კალე
კალენდარი
კალენდარს
კალენდარულ
კალენდარული
კალენდარში
კალენდრებს
კალენდრით
კალენდრის
კალთა
კალთაზე
კალთებზე
კალთები
კალთებიდან
კალთების
კალთის
კალი
კალიბრის
კალიგრაფი
კალიგრაფია
კალიგრაფიის
კალინინგრადის
კალინინის
კალის
კალისტრატე
კალიუმის
კალიფორნია
კალიფორნიაში
კალიფორნიის
კალმარის
კალმახი
კალციუმის
კამათი
კამათის
კამათში
კამარა
კამარაც
კამარები
კამარით
კამარითაა
კამარის
კამაროვანი
კამბოჯა
კამბოჯაში
კამბოჯის
კამერა
კამერაში
კამერის
კამერულ
კამერული
კამერუნი
კამერუნის
კამეჩი
კამილ
კამილა
კამის
კამპანია
კამპანიას
კამპანიაში
კამპანიები
კამპანიის
კამპო
კამპუ
კამპუსი
კამჩატკის
კანადა
კანადასა
კანადაში
კანადელი
კანადის
კანადურ
კანადური
კანარის
კანაფის
კანდელაკი
კანდელაკის
კანდიდატად
კანდიდატები
კანდიდატების
კანდიდატებს
კანდიდატთა
კანდიდატი
კანდიდატის
კანდიდატმა
კანდიდატს
კანდიდატურა
კანდიდატურას
კანდიდატურის
კანზე
კანი
კანიონი
კანიონის
კანის
კანკელი
კანკელით
კანკელის
კანონები
კანონებით
კანონების
კანონებს
კანონთა
კანონი
კანონიერ
კანონიერად
კანონიერი
კანონით
კანონიკური
კანონის
კანონმდებლობა
კანონმდებლობით
კანონმდებლობის
კანონპროექტი
კანონპროექტის
კანონს
კანონში
კანს
კანტაბრიის
კანტატა
კანტემირის
კანტის
კანტონებად
კანტონების
კანტონი
კანტონის
კანტონში
კანტორის
კანში
კანცელარიის
კანცლერი
კანცლერის
კაპ
კაპადოკიის
კაპანაძე
კაპელა
კაპის
კაპიტალი
კაპიტალიზმი
კაპიტალიზმის
კაპიტალის
კაპიტალისტურ
კაპიტალისტური
კაპიტალური
კაპიტან
კაპიტანი
კაპიტანმა
კაპიტნად
კაპიტნის
კაპიტოლიუმის
კაპიტულაცია
კაპიტულაციის
კაპური
კაჟის
კარ
კარა
კარაველას
კარავი
კარაკასი
კარაკასის
კარამაზოვები
კარატი
კარაქი
კარაქის
კარბონატული
კარგ
კარგა
კარგად
კარგადაა
კარგავდა
კარგავენ
კარგავს
კარგი
კარგია
კარდინალ
კარდინალი
კარდინალმა
კარები
კარების
კარელ
კარელიის
კარენ
კარზე
კართაგენელები
კართაგენელებმა
კართაგენელთა
კართაგენი
კართაგენის
კართან
კარი
კარია
კარიბის
კარიბული
კარიბჭე
კარიბჭეს
კარიბჭესთან
კარიბჭის
კარიდან
კარიერა
კარიერაზე
კარიერას
კარიერაში
კარიერის
კარიერული
კარით
კარის
კარლ
კარლი
კარლის
კარლმა
კარლო
კარლოს
კარლოსი
კარლოსის
კარლოტა
კარლს
კარმა
კარმენ
კარმენი
კარნეგი
კარნეგის
კარნიზი
კაროლ
კაროლინ
კაროლინა
კაროლინას
კაროლინაში
კაროლინის
კარპატების
კარპატებში
კარს
კარსტი
კარსტულ
კარსტული
კარტერი
კარტერის
კარტნი
კარტნიმ
კარტნის
კარტოგრაფიის
კარტოგრაფიული
კარტოფილი
კარტოფილის
კარში
კასელის
კასერესის
კასიუსი
კასპაროვი
კასპაროვმა
კასპი
კასპიის
კასპის
კასრაძე
კასტელიონის
კასტილია
კასტილიაში
კასტილიელი
კასტილიის
კასტილიისა
კასტრო
კასტროს
კატ
კატა
კატალანური
კატალინა
კატალინას
კატალოგი
კატალოგიდან
კატალოგის
კატალოგში
კატალონიაში
კატალონიის
კატანგის
კატარი
კატარინა
კატარინას
კატარის
კატასტროფა
კატასტროფის
კატასტროფული
კატები
კატეგორია
კატეგორიად
კატეგორიას
კატეგორიაში
კატეგორიები
კატეგორიებში
კატეგორიის
კატეგორიულად
კატეგორიული
კატერინა
კატერინას
კატის
კატო
კატრინ
კატრინი
კაუკის
კაუჩუკის
კაფე
კაფეში
კაშკაშა
კაშხალი
კაშხლის
კაცამდე
კაცები
კაცების
კაცებს
კაცზე
კაცთა
კაცი
კაცია
კაციან
კაციანი
კაცით
კაცის
კაცისა
კაცისთვის
კაციტაძე
კაცმა
კაცობრიობა
კაცობრიობას
კაცობრიობის
კაცს
კაცხის
კაჭარავა
კახა
კახაბერ
კახამარკის
კახაძე
კახეთ
კახეთი
კახეთიდან
კახეთის
კახეთისა
კახეთს
კახეთში
კახთა
კახი
კახიანი
კახის
კახიძე
კახური
კბილები
კბილების
კბილი
კბილის
კგ
კე
კედელზე
კედელთან
კედელი
კედელს
კედელში
კედელშია
კედელშიც
კედელშიცაა
კედია
კედლებზე
კედლებთან
კედლები
კედლებიდან
კედლებით
კედლების
კედლებს
კედლებში
კედლებშია
კედლებშიცაა
კედლიდან
კედლით
კედლის
კევინ
კეთდება
კეთდებოდა
კეთება
კეთილ
კეთილდღეობა
კეთილდღეობის
კეთილი
კეთილშობილი
კეი
კეინი
კეიპ
კეისარი
კეისარმა
კეისარს
კეისრის
კეიტ
კეიჯი
კეიჯის
კეკელიძე
კეკელიძის
კელი
კელის
კელნი
კელნის
კელტების
კელტური
კემბრიჯი
კემბრიჯის
კემბრიჯში
კემპბელი
კენ
კენედი
კენედიმ
კენედის
კენეთ
კენი
კენია
კენიაში
კენიის
კენკრა
კენტავრი
კენტერბერის
კენტი
კენტის
კენტუკის
კენჭი
კენჭისყრა
კენჭისყრით
კენჭისყრის
კენჭს
კეპლერ
კეპლერის
კერა
კერაა
კერალას
კერამიკა
კერამიკის
კერამიკული
კერები
კერესელიძე
კერი
კერის
კეროლ
კერპი
კერძები
კერძების
კერძებს
კერძებში
კერძი
კერძია
კერძის
კერძო
კერძოდ
კერძს
კესარიელი
კესონის
კეტი
კეტრინ
კეუშენის
კეჩუას
კვ
კვადრატი
კვადრატის
კვადრატს
კვადრატულ
კვადრატული
კვადრატულია
კვადრები
კვადრებით
კვალდაკვალ
კვალი
კვალია
კვალის
კვალიფიკაცია
კვალიფიკაციის
კვალიფიცირებული
კვალიფიციური
კვალს
კვანტურ
კვანტური
კვანძები
კვანძების
კვანძი
კვანძია
კვანძის
კვარაცხელია
კვართის
კვარტალი
კვარტალში
კვარტეტი
კვარტეტის
კვარცხლბეკზე
კვაჭანტირაძე
კვაჭაძე
კვაჭი
კვდება
კვება
კვებავს
კვებეკის
კვებითი
კვების
კვეთა
კვეთის
კვეთს
კვენტინ
კვერთხი
კვერნა
კვერცხები
კვერცხებს
კვერცხი
კვერცხის
კვერცხისებრი
კვერცხს
კვინტუს
კვიპროსელი
კვიპროსზე
კვიპროსი
კვიპროსის
კვიპროსში
კვირა
კვირას
კვირაში
კვირაცხოვლის
კვირით
კვირიკე
კვირიკეს
კვირის
კვირკველია
კვირტის
კვლავ
კვლავაც
კვლევა
კვლევათა
კვლევამ
კვლევას
კვლევაში
კვლევები
კვლევებით
კვლევების
კვლევებისა
კვლევებმა
კვლევებს
კვლევებში
კვლევით
კვლევითი
კვლევის
კვლევისა
კვტ
კი
კიბე
კიბეა
კიბერნეტიკის
კიბით
კიბის
კიბო
კიბოთი
კიბოს
კიბოსნაირებით
კიდე
კიდეებზე
კიდეები
კიდეებით
კიდევ
კიდევაც
კიდეზე
კიდესთან
კიდეში
კიდეც
კიდის
კიდობანი
კიდურები
კიდურების
კიდური
კიევი
კიევის
კიევში
კივუს
კით
კითხვა
კითხვაზე
კითხვას
კითხვები
კითხვებს
კითხვის
კითხულობდა
კითხულობს
კიკნაძე
კილაძე
კილიკიის
კილო
კილოგრამი
კილოგრამს
კილომეტრამდე
კილომეტრზე
კილომეტრი
კილომეტრია
კილომეტრიანი
კილომეტრით
კილომეტრითაა
კილომეტრის
კილომეტრს
კილომეტრში
კილოს
კიმ
კიმი
კინაღამ
კინგ
კინგი
კინგის
კინგისეპი
კინგს
კინემატოგრაფიაში
კინემატოგრაფიის
კინემატოგრაფისტთა
კინემატოგრაფიულ
კინემატოგრაფიული
კინეტიკური
კინო
კინოაკადემიის
კინოთეატრებში
კინოთეატრი
კინოთეატრში
კინომსახიობთა
კინომსახიობი
კინორეჟისორი
კინოს
კინოსა
კინოსტუდია
კინოსტუდიის
კინოფესტივალზე
კინოფესტივალი
კინოფესტივალის
კინოფილმების
კინოფილმი
კინოში
კინწურაშვილი
კიოპენის
კიოტოს
კირ
კირა
კირიბატის
კირით
კირილ
კირილე
კირილური
კირიონ
კირის
კირიში
კირკ
კიროვის
კიროვსკი
კიროს
კირქვა
კირქვებით
კირქვებითა
კირქვებში
კირქვის
კირქვული
კირჯალის
კისერზე
კისერი
კისრის
კისტური
კიტა
კიური
კლავდიუს
კლავდიუსი
კლავდიუსის
კლავდნენ
კლავენ
კლავიატურა
კლავიატურაზე
კლავიშები
კლავიშებიანები
კლავიშებიანი
კლავიშისტი
კლავს
კლაივ
კლანი
კლანის
კლანს
კლარა
კლარას
კლარკ
კლარკი
კლარკის
კლარჯეთი
კლარჯეთის
კლარჯეთში
კლასები
კლასების
კლასებში
კლასი
კლასიდან
კლასიკურ
კლასიკური
კლასის
კლასისა
კლასიფიკაცია
კლასიფიკაციას
კლასიფიკაციით
კლასიფიკაციის
კლასიფიცირდება
კლასიციზმის
კლასობრივი
კლასს
კლასში
კლაუდია
კლაუდიო
კლაუს
კლდე
კლდეებზე
კლდეები
კლდეების
კლდეზე
კლდეკარის
კლდეში
კლდიაშვილი
კლდიაშვილის
კლდის
კლდოვან
კლდოვანი
კლება
კლებულობს
კლემენტ
კლეოპატრა
კლეოპატრას
კლეპტონი
კლერ
კლიენტებს
კლიენტი
კლივლენდ
კლივლენდის
კლიმატზე
კლიმატი
კლიმატია
კლიმატით
კლიმატის
კლიმატს
კლიმატურ
კლიმატური
კლინიკა
კლინიკაში
კლინიკის
კლინიკურ
კლინიკური
კლინტონი
კლინტონის
კლიპი
კლიპში
კლიფ
კლოდ
კლონების
კლუბ
კლუბები
კლუბების
კლუბებს
კლუბებში
კლუბთან
კლუბი
კლუბია
კლუბის
კლუბისთვის
კლუბმა
კლუბს
კლუბში
კმ
კმაყოფილი
კმეტი
კმეტის
კნუდ
კნუტ
კო
კოალიცია
კოალიციას
კოალიციაში
კოალიციის
კოალიციური
კობა
კობალტის
კობახიძე
კობერიძე
კობი
კობიაშვილი
კობურგ
კოგნიტურ
კოგნიტური
კოდალა
კოდები
კოდების
კოდექსი
კოდექსის
კოდი
კოდიდან
კოდის
კოდორის
კოდს
კოდური
კოდში
კოენი
კოეფიციენტი
კოეფიციენტის
კოზიმო
კოზმა
კოკა
კოკო
კოკოჩაშვილი
კოლა
კოლას
კოლეგა
კოლეგებთან
კოლეგია
კოლეგიის
კოლექტივი
კოლექტივის
კოლექტივმა
კოლექტივს
კოლექტიურ
კოლექტიური
კოლექცია
კოლექციას
კოლექციაში
კოლექციები
კოლექციების
კოლექციებს
კოლექციებში
კოლექციიდან
კოლექციის
კოლეჯი
კოლეჯის
კოლეჯში
კოლი
კოლინ
კოლინზი
კოლინზის
კოლის
კოლმეურნეობის
კოლონა
კოლონია
კოლონიად
კოლონიალიზმის
კოლონიალურ
კოლონიალური
კოლონიას
კოლონიაში
კოლონიებად
კოლონიები
კოლონიების
კოლონიებს
კოლონიებში
კოლონიზაცია
კოლონიზაციის
კოლონიის
კოლონის
კოლონისტების
კოლონიურ
კოლონიური
კოლორადო
კოლორადოს
კოლუმბამდელი
კოლუმბი
კოლუმბია
კოლუმბიაში
კოლუმბიელი
კოლუმბიის
კოლუმბის
კოლხეთი
კოლხეთის
კოლხეთში
კოლხური
კომარკაში
კომარკის
კომბინატი
კომბინატის
კომბინაცია
კომბინაციით
კომბინირებული
კომბოსტო
კომბოსტოს
კომედია
კომედიაში
კომედიის
კომედიურ
კომედიური
კომენდანტის
კომენტარები
კომენტარი
კომენტატორი
კომერციის
კომერციულ
კომერციულად
კომერციული
კომეტა
კომიკოსი
კომიკური
კომის
კომისართა
კომისარი
კომისარიატი
კომისარიატის
კომისია
კომისიამ
კომისიას
კომისიაში
კომისიების
კომისიის
კომისრად
კომისრის
კომიტეტები
კომიტეტების
კომიტეტთან
კომიტეტი
კომიტეტის
კომიტეტისა
კომიტეტმა
კომიტეტს
კომიტეტში
კომიქსების
კომიქსი
კომიქსის
კომიქსში
კომკავშირის
კომლი
კომნენოსი
კომნენოსის
კომორის
კომპანია
კომპანიაა
კომპანიამ
კომპანიას
კომპანიასთან
კომპანიაში
კომპანიებთან
კომპანიები
კომპანიების
კომპანიებმა
კომპანიებს
კომპანიის
კომპანიონი
კომპარტიის
კომპაქტ
კომპაქტური
კომპენსაცია
კომპენსაციის
კომპეტენციის
კომპილაცია
კომპილაციაში
კომპილაციური
კომპიუტერები
კომპიუტერების
კომპიუტერი
კომპიუტერის
კომპიუტერს
კომპიუტერულ
კომპიუტერული
კომპიუტერში
კომპლექსები
კომპლექსების
კომპლექსი
კომპლექსის
კომპლექსს
კომპლექსურ
კომპლექსური
კომპლექსში
კომპლექტი
კომპოზიტორ
კომპოზიტორები
კომპოზიტორების
კომპოზიტორთა
კომპოზიტორი
კომპოზიტორის
კომპოზიტორმა
კომპოზიტორს
კომპოზიცია
კომპოზიციას
კომპოზიციაში
კომპოზიციები
კომპოზიციების
კომპოზიციებს
კომპოზიციის
კომპოზიციური
კომპონენტები
კომპონენტების
კომპონენტი
კომპონენტია
კომპონენტის
კომპონენტს
კომუნა
კომუნად
კომუნალური
კომუნას
კომუნაში
კომუნები
კომუნიზმი
კომუნიზმის
კომუნიკაცია
კომუნიკაციების
კომუნიკაციის
კომუნის
კომუნისგან
კომუნისტები
კომუნისტების
კომუნისტებმა
კომუნისტი
კომუნისტის
კომუნისტურ
კომუნისტური
კომუნისტურმა
კომფორტული
კონ
კონა
კონან
კონაქტის
კონგი
კონგის
კონგლომერატებით
კონგო
კონგოს
კონგოში
კონგრესზე
კონგრესი
კონგრესის
კონგრესმა
კონგრესს
კონგრესში
კონგში
კონდეს
კონვენცია
კონვენციას
კონვენციის
კონი
კონიაკის
კონკრეტულ
კონკრეტულად
კონკრეტული
კონკურენტი
კონკურენტუნარიანობის
კონკურენცია
კონკურენციას
კონკურენციის
კონკურსზე
კონკურსი
კონკურსის
კონკურსში
კონორი
კონრად
კონსერვატიულ
კონსერვატიული
კონსერვატორები
კონსერვატორი
კონსერვატორია
კონსერვატორიაში
კონსერვატორიის
კონსერვაციას
კონსერვაციის
კონსოლების
კონსოლი
კონსოლის
კონსორტი
კონსტანტინ
კონსტანტინე
კონსტანტინემ
კონსტანტინეს
კონსტანტინოპოლი
კონსტანტინოპოლის
კონსტანტინოპოლს
კონსტანტინოპოლში
კონსტანტინოს
კონსტანცა
კონსტანცია
კონსტიტუცია
კონსტიტუციამ
კონსტიტუციას
კონსტიტუციაში
კონსტიტუციით
კონსტიტუციის
კონსტიტუციურ
კონსტიტუციური
კონსტრუქტორი
კონსტრუქცია
კონსტრუქციას
კონსტრუქციები
კონსტრუქციების
კონსტრუქციის
კონსტრუქციულ
კონსტრუქციული
კონსულად
კონსულები
კონსული
კონსულის
კონსულმა
კონსულტანტად
კონსულტანტი
კონტაქტები
კონტაქტი
კონტაქტის
კონტაქტს
კონტექსტში
კონტინენტების
კონტინენტზე
კონტინენტი
კონტინენტის
კონტინენტს
კონტინენტურ
კონტინენტური
კონტინენტურია
კონტის
კონტრ
კონტრაქტი
კონტრაქტით
კონტრაქტის
კონტრაქტს
კონტროლ
კონტროლდება
კონტროლერი
კონტროლი
კონტროლირდებოდა
კონტროლირებად
კონტროლირებადი
კონტროლის
კონტროლისა
კონტროლს
კონტროლქვეშ
კონტრრევოლუციური
კონტრშეტევა
კონუსი
კონუსის
კონუსური
კონფედერაცია
კონფედერაციას
კონფედერაციის
კონფედერაციული
კონფერენცია
კონფერენციაზე
კონფერენციამ
კონფერენციას
კონფერენციაში
კონფერენციები
კონფერენციების
კონფერენციის
კონფესიური
კონფიგურაცია
კონფიგურაციის
კონფისკაცია
კონფლიქტები
კონფლიქტების
კონფლიქტი
კონფლიქტის
კონფლიქტს
კონფლიქტური
კონფლიქტში
კონქი
კონქით
კონქის
კონქში
კონცენტრაცია
კონცენტრაციის
კონცენტრირებული
კონცენტრირებულია
კონცეპტუალური
კონცერტებზე
კონცერტები
კონცერტებით
კონცერტების
კონცერტებს
კონცერტზე
კონცერტი
კონცერტიდან
კონცერტით
კონცერტის
კონცერტს
კონცერტში
კონცეფცია
კონცეფციას
კონცეფციის
კონცხზე
კონცხი
კონცხის
კოორდინატები
კოორდინატების
კოორდინატთა
კოორდინატორი
კოორდინაცია
კოორდინაციას
კოორდინაციის
კოპა
კოპალიანი
კოპენჰაგენი
კოპენჰაგენის
კოპენჰაგენში
კოპტური
კორ
კორდიან
კორდილიერა
კორდილიერის
კორდობის
კორდოვის
კორეა
კორეამ
კორეას
კორეაში
კორეელი
კორეის
კორესპონდენტად
კორესპონდენტი
კორეულ
კორეული
კორი
კორნელი
კორნელის
კორნელიუს
კორონავირუსის
კორონაცია
კორონაციის
კორპორატიული
კორპორაცია
კორპორაციის
კორპუსი
კორპუსის
კორპუსს
კორპუსში
კორსაკოვის
კორტესი
კორტი
კორუნიის
კორუფცია
კორუფციის
კოსმეტიკური
კოსმონავტი
კოსმოსი
კოსმოსის
კოსმოსურ
კოსმოსური
კოსმოსში
კოსოვო
კოსოვოს
კოსოვოში
კოსტა
კოსტავა
კოსტავას
კოსტიუმების
კოსტიუმი
კოსტუმების
კოტ
კოტაიქის
კოტე
კოტეტიშვილი
კოტრიკაძე
კოული
კოფი
კოფმანი
კოშკები
კოშკების
კოშკებს
კოშკი
კოშკია
კოშკიდან
კოშკის
კოშკს
კოშკურა
კოშკში
კოჩაბამბის
კოცნა
კოცონზე
კოჭებზე
კოჭების
კოჭის
კოჯრის
კპ
კრ
კრაკოვი
კრაკოვის
კრაკოვში
კრამიტი
კრამიტით
კრამიტის
კრასნი
კრასნოდარის
კრასნოიარსკის
კრატერი
კრატერის
კრახი
კრახით
კრება
კრებაზე
კრებამ
კრებას
კრებაში
კრებითი
კრების
კრებულები
კრებული
კრებულის
კრებულს
კრებულში
კრეიგ
კრეისერი
კრემლის
კრეტა
კრეტაზე
კრეტის
კრივი
კრივის
კრივში
კრიზისი
კრიზისის
კრიზისმა
კრიზისს
კრიკეტის
კრიმინალი
კრიმინალურ
კრიმინალური
კრის
კრისი
კრისტალ
კრისტალები
კრისტალების
კრისტალის
კრისტალურ
კრისტალური
კრისტგოუ
კრისტი
კრისტიან
კრისტიანი
კრისტინ
კრისტინა
კრისტინამ
კრისტინას
კრისტის
კრისტოფ
კრისტოფერ
კრისტოფერი
კრიტერიუმები
კრიტერიუმების
კრიტერიუმი
კრიტიკა
კრიტიკას
კრიტიკის
კრიტიკოსები
კრიტიკოსების
კრიტიკოსებისგან
კრიტიკოსებმა
კრიტიკოსთა
კრიტიკოსი
კრიტიკოსის
კრიტიკოსმა
კრიტიკულ
კრიტიკულად
კრიტიკული
კრიულენის
კრონპრინც
კრონპრინცესა
კრონპრინცი
კრონშტადტის
კროსი
კრუს
კრუსი
კრუსის
კრუხობს
კრძალავდა
კრძალავს
კრწანისის
კუ
კუალა
კუბა
კუბაში
კუბელი
კუბინსკის
კუბის
კუბურ
კუბური
კუდი
კუდიანი
კუდის
კუდისა
კუები
კუედა
კუთვნილ
კუთვნილება
კუთვნილების
კუთვნილი
კუთრი
კუთხე
კუთხეები
კუთხეების
კუთხეებში
კუთხეს
კუთხესთან
კუთხეში
კუთხიდან
კუთხით
კუთხის
კუთხური
კუინზლენდის
კუკი
კუკის
კუკმა
კულინარიაში
კულინარიული
კულიჯი
კულმინაცია
კულმინაციას
კულონის
კულტი
კულტივირებული
კულტივირებულია
კულტის
კულტს
კულტურა
კულტურაა
კულტურაზე
კულტურათა
კულტურამ
კულტურას
კულტურასა
კულტურასთან
კულტურაში
კულტურები
კულტურების
კულტურებს
კულტურებში
კულტურით
კულტურის
კულტურისა
კულტურულ
კულტურულად
კულტურული
კუმსი
კუნდინამარკის
კუნთები
კუნთების
კუნთის
კუნთოვანი
კუნძულ
კუნძულებზე
კუნძულებთან
კუნძულები
კუნძულებია
კუნძულებიდან
კუნძულების
კუნძულებმა
კუნძულებს
კუნძულებსა
კუნძულზე
კუნძულთა
კუნძულთან
კუნძული
კუნძულია
კუნძულიდან
კუნძულის
კუნძულისაგან
კუნძულისგან
კუნძულოვანი
კუნძულს
კუპერი
კუპერის
კუპრაშვილი
კუპრეიშვილი
კურაპალატი
კურაპალატის
კურდღელი
კურდღლის
კურთხევა
კურთხევით
კურთხევის
კურთხეული
კურორტ
კურორტები
კურორტი
კურორტია
კურორტის
კურსდამთავრებული
კურსებზე
კურსები
კურსების
კურსებს
კურსზე
კურსი
კურსით
კურსის
კურსკის
კურსორი
კურსორის
კურსს
კურტ
კურფიურსტ
კურფიურსტი
კუს
კუსკოს
კუტუბიძე
კუჭ
კუჭის
ლ
ლა
ლაბაძის
ლაბორანტი
ლაბორატორია
ლაბორატორიას
ლაბორატორიაში
ლაბორატორიები
ლაბორატორიის
ლაბორატორიული
ლაგოდეხის
ლაგუნა
ლაგუნის
ლადო
ლავა
ლავგარდანი
ლავგარდნით
ლავგარდნის
ლავის
ლავრა
ლავრაში
ლავრენტი
ლავრენტის
ლავრის
ლავური
ლაზარე
ლაზარეს
ლაზერული
ლაზი
ლაზური
ლათ
ლათინთა
ლათინურ
ლათინურად
ლათინური
ლათინურიდან
ლაიფციგის
ლაიფციგში
ლაკობა
ლალა
ლალი
ლამა
ლამაზ
ლამაზად
ლამაზი
ლამარა
ლამას
ლამბერტი
ლამის
ლანა
ლანდშაფტები
ლანდშაფტების
ლანდშაფტი
ლანდშაფტის
ლანდშაფტური
ლანკა
ლანკაში
ლანკის
ლანჩხუთი
ლანჩხუთის
ლაო
ლაოსი
ლაოსის
ლაოსში
ლაპარაკი
ლაპარაკობდა
ლაპარაკობდნენ
ლაპარაკობენ
ლაპარაკობს
ლაპიდარული
ლარა
ლარი
ლარის
ლარისა
ლარს
ლას
ლატვ
ლატვია
ლატვიაში
ლატვიელი
ლატვიის
ლატვიური
ლატიმერი
ლაურა
ლაურეატები
ლაურეატი
ლაურეატის
ლაქა
ლაქები
ლაქებით
ლაღიძე
ლაშა
ლაშქარი
ლაშქარმა
ლაშქარს
ლაშქრით
ლაშქრის
ლაშქრობა
ლაშქრობას
ლაშქრობაში
ლაშქრობები
ლაშქრობების
ლაშქრობებში
ლაშქრობის
ლაშქრობისას
ლაჩინის
ლაცაბიძე
ლაციოს
ლგბტ
ლე
ლეა
ლებრონ
ლეგალური
ლეგენდა
ლეგენდარიუმში
ლეგენდარულ
ლეგენდარული
ლეგენდები
ლეგენდების
ლეგენდის
ლეგიონები
ლეგიონი
ლეგიონის
ლეგიონში
ლეგიტიმური
ლედ
ლედი
ლედის
ლევ
ლევან
ლევანი
ლევანის
ლევანმა
ლევი
ლევილის
ლევინი
ლევონ
ლეიბლ
ლეიბლებზე
ლეიბლზე
ლეიბლთან
ლეიბლი
ლეიბლის
ლეიბლმა
ლეიბორისტული
ლეიკერსი
ლეიკერსის
ლეილა
ლეინი
ლეიტენანტ
ლეიტენანტი
ლეიტენანტის
ლეიტეს
ლეკები
ლეკების
ლეკთა
ლელა
ლელო
ლელოს
ლემპარდმა
ლენა
ლენგის
ლენი
ლენინგრადი
ლენინგრადის
ლენინგრადში
ლენინი
ლენინიზმის
ლენინის
ლენინური
ლენის
ლენონი
ლენონის
ლენონმა
ლენსტერის
ლენტეხის
ლენქორანის
ლეო
ლეონ
ლეონარდ
ლეონარდო
ლეონი
ლეონიდ
ლეონიდე
ლეონის
ლეონიძე
ლეონიძის
ლეონტი
ლეოპარდი
ლეოპოლდ
ლეოპოლდი
ლეოპოლდის
ლეოპოლდო
ლეჟავა
ლერი
ლერიქის
ლერმონტოვის
ლერწამი
ლერწმის
ლესბოსელი
ლესელიძე
ლესლი
ლესოთოს
ლესტერ
ლექსებზე
ლექსები
ლექსების
ლექსებს
ლექსებში
ლექსთა
ლექსი
ლექსიკა
ლექსიკის
ლექსიკონი
ლექსიკონის
ლექსიკონში
ლექსიკური
ლექსის
ლექსს
ლექსში
ლექტორად
ლექტორი
ლექცია
ლექციები
ლექციების
ლექციებს
ლეჩხუმი
ლეჩხუმის
ლეჩხუმისა
ლეჩხუმში
ლეხ
ლვივის
ლვოვი
ლვოვის
ლვოვში
ლი
ლია
ლიამ
ლიანა
ლიანდაგის
ლიახვის
ლიბანელი
ლიბანი
ლიბანის
ლიბანური
ლიბანში
ლიბერალ
ლიბერალები
ლიბერალი
ლიბერალიზმი
ლიბერალიზმის
ლიბერალურ
ლიბერალური
ლიბერია
ლიბერიის
ლიბერტადის
ლიბერტადორესის
ლიბერტარიანელი
ლიბერტარიანიზმი
ლიბერტარიანული
ლიბია
ლიბიაში
ლიბიის
ლიბრეტო
ლიგა
ლიგაზე
ლიგამ
ლიგას
ლიგაში
ლიგიდან
ლიგის
ლიდერ
ლიდერად
ლიდერებთან
ლიდერები
ლიდერების
ლიდერებმა
ლიდერებს
ლიდერთა
ლიდერი
ლიდერია
ლიდერის
ლიდერმა
ლიდერობა
ლიდერობდა
ლიდერობის
ლიდერობს
ლიდერს
ლიდია
ლიეტ
ლიეტუვა
ლიეტუვაში
ლიეტუვის
ლიეტუვური
ლივერპული
ლივერპულის
ლივერპულმა
ლივერპულს
ლივერპულში
ლივიუსი
ლივონიის
ლიზა
ლითონები
ლითონების
ლითონი
ლითონია
ლითონის
ლითონური
ლიკვიდაცია
ლიკვიდაციის
ლილვი
ლილი
ლილიან
ლილის
ლიმ
ლიმა
ლიმის
ლიმონი
ლიმონის
ლიმფური
ლინ
ლინგვისტი
ლინგვისტიკის
ლინგვისტურ
ლინგვისტური
ლინდა
ლინდსი
ლინი
ლინკინ
ლინკოლნი
ლინკოლნის
ლინჩი
ლინჩის
ლიონელ
ლიონი
ლიონის
ლიონში
ლიპარიტ
ლიპარიტის
ლირა
ლირი
ლირიკა
ლირიკულ
ლირიკული
ლის
ლისაბონი
ლისაბონის
ლისაბონში
ლისის
ლისტის
ლიტ
ლიტერატორი
ლიტერატურა
ლიტერატურაზე
ლიტერატურათმცოდნე
ლიტერატურას
ლიტერატურასა
ლიტერატურაში
ლიტერატურით
ლიტერატურის
ლიტერატურისა
ლიტერატურულ
ლიტერატურული
ლიტვა
ლიტვაში
ლიტვის
ლიტლ
ლიტრი
ლიტურგია
ლიუ
ლიუდმილა
ლიფტი
ლიცენზია
ლიცენზიის
ლიცენზირებული
ლიცეუმი
ლიცეუმში
ლიხაურის
ლიხვის
ლიხის
ლიხნის
ლიხტენშტაინის
ლო
ლობიო
ლობიოს
ლობჟანიძე
ლოგიკა
ლოგიკის
ლოგიკურ
ლოგიკური
ლოგო
ლოგოს
ლოდები
ლოდებით
ლოდი
ლოზუნგი
ლოთარ
ლოთარინგიელი
ლოთარინგიის
ლოიდ
ლოკალურ
ლოკალური
ლოკი
ლოკის
ლოკომოტივი
ლოკომოტივის
ლოლა
ლოლაძე
ლომბარდიის
ლომები
ლომების
ლომთათიძე
ლომი
ლომინაძე
ლომის
ლომისის
ლომიძე
ლომონოსოვი
ლომონოსოვის
ლომოური
ლომსაძე
ლონგ
ლონდონი
ლონდონიდან
ლონდონის
ლონდონში
ლოპეს
ლოპესი
ლორა
ლორან
ლორდ
ლორდი
ლორე
ლორენ
ლორენს
ლორენცო
ლორეს
ლორეტოს
ლორთქიფანიძე
ლორთქიფანიძის
ლორი
ლორია
ლორის
ლორწოვანი
ლოს
ლოტბარი
ლოუ
ლოურენს
ლოურენსი
ლოქის
ლოცვა
ლოცვას
ლოცვები
ლოცვით
ლოცვის
ლოცულობდა
ლტოლვა
ლტოლვილების
ლტოლვილთა
ლტოლვილი
ლუ
ლუარის
ლუარსაბ
ლუგოს
ლუდვიგ
ლუდვიგი
ლუდვიგის
ლუდი
ლუდის
ლუდმილა
ლუდოვიკო
ლუდს
ლუდსახარში
ლუვრის
ლუთერ
ლუთერანები
ლუთერანული
ლუთერი
ლუთერის
ლუი
ლუიზ
ლუიზა
ლუიზას
ლუიმ
ლუის
ლუისა
ლუისი
ლუისის
ლუისონი
ლუიჯი
ლუკ
ლუკა
ლუკას
ლუკასი
ლუკასის
ლუკი
ლუკის
ლუკრეცია
ლუნა
ლუნდის
ლურსმული
ლურჯ
ლურჯი
ლუსი
ლუსია
ლუსონის
ლუქსემბურგი
ლუქსემბურგის
ლუქსემბურგში
ლუციუს
ლუჰანსკის
მ
მა
მაგ
მაგალითად
მაგალითები
მაგალითებია
მაგალითზე
მაგალითი
მაგალითია
მაგალითისთვის
მაგალითს
მაგალითში
მაგარი
მაგდალენა
მაგდალენას
მაგელანის
მაგვარი
მაგია
მაგიდა
მაგიდაზე
მაგიდის
მაგიერ
მაგივრად
მაგიის
მაგისტრალი
მაგისტრალის
მაგისტრალური
მაგისტრატურა
მაგისტრი
მაგისტრის
მაგიურ
მაგიური
მაგმური
მაგნიტუდის
მაგნიტურ
მაგნიტური
მაგნიუმის
მაგნუს
მაგრამ
მადაგასკარზე
მადაგასკარი
მადაგასკარის
მადამ
მადანი
მადლენ
მადლი
მადლიერების
მადლობა
მადლობას
მადლობის
მადმუაზელ
მადნის
მადონა
მადონას
მადრიდი
მადრიდის
მადრიდში
მავზოლეუმი
მავზოლეუმის
მავზოლეუმში
მავნე
მავნებელია
მავრიკი
მავრიკის
მავრიტანიის
მაზრა
მაზრას
მაზრაში
მაზრის
მათ
მათაც
მათგან
მათგანზე
მათგანი
მათგანის
მათგანმა
მათგანს
მათგანში
მათე
მათემატიკა
მათემატიკას
მათემატიკაში
მათემატიკის
მათემატიკისა
მათემატიკოსი
მათემატიკურ
მათემატიკური
მათეს
მათზე
მათთან
მათთვის
მათი
მათიას
მათივე
მათმა
მათს
მათში
მაია
მაიაკოვსკის
მაიამი
მაიამის
მაიამიში
მაიას
მაიერი
მაიკ
მაიკლ
მაიკლი
მაიკლის
მაილზი
მაიმუნები
მაიმუნების
მაიმუნი
მაიმუნის
მაინის
მაინც
მაიორ
მაიორი
მაიორის
მაის
მაისამდე
მაისი
მაისიდან
მაისის
მაისს
მაისურაძე
მაისური
მაისურით
მაისურის
მაისში
მაკ
მაკა
მაკალათია
მაკარი
მაკბეტი
მაკდონალდი
მაკდონალდის
მაკედ
მაკედონელი
მაკედონელის
მაკედონელმა
მაკედონია
მაკედონიაში
მაკედონიის
მაკედონური
მაკეობა
მალ
მალა
მალაგის
მალავი
მალავის
მალაიზია
მალაიზიაში
მალაიზიის
მალაის
მალაიური
მალაკის
მალარიის
მალაქია
მალდივის
მალე
მალევე
მალერი
მალერის
მალი
მალის
მალიქ
მალიში
მალკოლმ
მალმსტინი
მალმსტინის
მალტა
მალტაში
მალტის
მალულად
მალხაზ
მამა
მამად
მამათა
მამაკაცები
მამაკაცების
მამაკაცებისთვის
მამაკაცებს
მამაკაცებში
მამაკაცთა
მამაკაცი
მამაკაცია
მამაკაცის
მამაკაცს
მამალი
მამამ
მამამთავარი
მამამთილი
მამამისთან
მამამისი
მამამისის
მამამისმა
მამამისს
მამაო
მამას
მამასახლისი
მამასახლიშვილი
მამასთან
მამაც
მამაცი
მამაცობისათვის
მამაცობისთვის
მამები
მამების
მამედ
მამედოვი
მამია
მამიდა
მამის
მამისა
მამისგან
მამლის
მამლუქები
მამლუქების
მამლუქთა
მამლუქი
მამოძრავებელი
მამრ
მამრები
მამრი
მამრობითი
მამუკა
მამულები
მამულების
მამულებს
მამული
მამულის
მამულიშვილთა
მამულს
მამულში
მან
მანაგაძე
მანათობელი
მანამ
მანამდე
მანამდეც
მანანა
მანაც
მანგა
მანგანუმი
მანგანუმის
მანგლისის
მანგო
მანგროს
მანდატი
მანდატით
მანდატის
მანდელა
მანე
მანეთი
მანერა
მანერით
მანეს
მანვე
მანი
მანილა
მანილის
მანის
მანიფესტი
მანიფესტის
მანსურ
მანტუის
მანუელ
მანუჩარ
მანქანა
მანქანათმშენებლობა
მანქანათმშენებლობის
მანქანას
მანქანაში
მანქანები
მანქანებით
მანქანების
მანქანებს
მანქანით
მანქანის
მანჩესტერ
მანჩესტერი
მანჩესტერის
მანჩესტერში
მანჩის
მანძილზე
მანძილი
მანძილიდან
მანძილით
მანძილის
მანჯურიაში
მანჯურიის
მანჰეტენზე
მანჰეტენი
მანჰეტენის
მაო
მაორი
მაორის
მაპუჩეს
მაჟორი
მაჟორიტარი
მაჟორიტარობის
მაჟორიტარული
მარ
მარა
მარაგი
მარაგის
მარაგს
მარად
მარადი
მარადისობის
მარადიულ
მარადიული
მარადმწვანე
მარადონა
მარათონი
მარანი
მარანიანი
მარანიანის
მარგალიტი
მარგალიტის
მარგარეტ
მარგარეტი
მარგარეტის
მარგარიტა
მარგარიტას
მარგერიტა
მარგველაშვილი
მარგო
მარეგულირებელი
მარველის
მართა
მართავდა
მართავდნენ
მართავენ
მართავს
მართალი
მართალია
მართებული
მართვა
მართვადი
მართვას
მართვაში
მართველობის
მართვის
მართვისა
მართკუთხა
მართკუთხედის
მართლა
მართლაც
მართლმადიდებელ
მართლმადიდებელი
მართლმადიდებლები
მართლმადიდებლობა
მართლმადიდებლობის
მართლმადიდებლურ
მართლმადიდებლური
მართლმსაჯულების
მართული
მარი
მარია
მარიამ
მარიამი
მარიამის
მარიან
მარიანა
მარიანას
მარიანო
მარიას
მარიკა
მარილები
მარილების
მარილებს
მარილი
მარილიანი
მარილიანობა
მარილის
მარილს
მარინა
მარინე
მარინეს
მარინო
მარიო
მარიონ
მარიონეტული
მარის
მარიხუანის
მარკ
მარკა
მარკგრაფი
მარკები
მარკების
მარკესი
მარკეტინგის
მარკეტინგული
მარკი
მარკიზ
მარკიზი
მარკიზის
მარკის
მარკო
მარკოზ
მარკოზაშვილი
მარკოზის
მარკოს
მარკუს
მარლენ
მარლი
მარმა
მარმარილო
მარმარილოს
მარნეულის
მარნის
მარო
მაროკო
მაროკოს
მაროკოში
მარსელ
მარსელი
მარსელის
მარსელო
მარსელში
მარსზე
მარსი
მარსის
მარტ
მარტა
მარტამდე
მარტვილი
მარტვილის
მარტი
მარტიდან
მარტივ
მარტივად
მარტივი
მარტივია
მარტინ
მარტინი
მარტინის
მარტინმა
მარტის
მარტისთვის
მარტო
მარტოობის
მარტორქა
მარტოსული
მარტოხელა
მარტს
მარტყოფის
მარტში
მარუაშვილი
მარქსი
მარქსიზმ
მარქსიზმის
მარქსის
მარქსისტულ
მარქსისტული
მარშალ
მარშალი
მარშალის
მარშალმა
მარში
მარშის
მარშრუტები
მარშრუტების
მარშრუტი
მარშრუტის
მარჩელო
მარცვალი
მარცვლები
მარცვლების
მარცვლეული
მარცვლეულის
მარცვლის
მარცვლოვანი
მარცხენა
მარცხი
მარცხით
მარცხის
მარცხნიდან
მარცხნივ
მარხვა
მარხვის
მარჯანიშვილი
მარჯანიშვილის
მარჯვენა
მარჯვნიდან
მარჯვნივ
მარჯნის
მარჯნული
მას
მასა
მასაა
მასაის
მასალა
მასალაა
მასალად
მასალაზე
მასალათა
მასალას
მასალაში
მასალები
მასალებით
მასალების
მასალებს
მასალებში
მასალით
მასალის
მასალისაგან
მასალისგან
მასას
მასაჩუსეტსი
მასაჩუსეტსის
მასაჩუსეტსში
მასაც
მასები
მასების
მასვე
მასზე
მასთან
მასივები
მასივების
მასივზე
მასივი
მასივის
მასივს
მასივში
მასით
მასის
მასიურ
მასიურად
მასიური
მასიურია
მასმედიის
მასობრივ
მასობრივად
მასობრივი
მასპინძელ
მასპინძელი
მასპინძლის
მასპინძლობდა
მასპინძლობს
მასსა
მასტერინგი
მასტერსზე
მასტერსი
მასტერსის
მასში
მასშტაბები
მასშტაბებით
მასშტაბი
მასშტაბით
მასშტაბის
მასშტაბურ
მასშტაბური
მასწავლებელთა
მასწავლებელი
მასწავლებელმა
მასწავლებელს
მასწავლებლად
მასწავლებლები
მასწავლებლების
მასწავლებლებს
მასწავლებლის
მატა
მატარებელი
მატარებელია
მატარებლები
მატარებლების
მატარებლით
მატარებლის
მატება
მატებასთან
მატეო
მატერია
მატერიალის
მატერიალურ
მატერიალური
მატერიის
მატიანე
მატილდა
მატილდას
მატის
მატლები
მატლი
მატრიცა
მატუ
მატულობს
მატყლი
მატყლის
მატჩები
მატჩების
მატჩებს
მატჩებში
მატჩი
მატჩიანი
მატჩიდან
მატჩის
მატჩს
მატჩში
მაუნტ
მაუსის
მაუწყებელი
მაუწყებლის
მაუწყებლობა
მაუწყებლობის
მაუწყებლობს
მაქვს
მაქს
მაქსველის
მაქსი
მაქსიმ
მაქსიმალურ
მაქსიმალურად
მაქსიმალური
მაქსიმე
მაქსიმილიან
მაქსიმილიანი
მაქსიმუმ
მაქსიმუმი
მაქსიმუმს
მაღაზია
მაღაზიას
მაღაზიაში
მაღაზიები
მაღაზიების
მაღაზიებში
მაღაზიის
მაღალ
მაღალაშვილი
მაღალი
მაღალია
მაღალმთიან
მაღალმთიანეთში
მაღალმთიანი
მაღალმთის
მაღალხარისხიანი
მაღალხარისხოვანი
მაღარო
მაღაროებში
მაღაროს
მაღლა
მაღლდება
მაღლივი
მაღლობზე
მაღლობი
მაღლობის
მაყაშვილი
მაყურებელთა
მაყურებელი
მაყურებელმა
მაყურებელს
მაყურებლის
მაშ
მაშასადამე
მაშველი
მაშინ
მაშინაც
მაშინდელ
მაშინდელი
მაშინდელმა
მაშინვე
მაშტოცის
მაჩაბელი
მაჩაიძე
მაჩაიძემ
მაჩვენებელზე
მაჩვენებელი
მაჩვენებელია
მაჩვენებელს
მაჩვენებლები
მაჩვენებლებით
მაჩვენებლების
მაჩვენებლით
მაჩვენებლის
მაჩვი
მაჩუ
მაცივარ
მაცნე
მაცხოვარი
მაცხოვრებელთა
მაცხოვრებელი
მაცხოვრებელს
მაცხოვრებლები
მაცხოვრებლების
მაცხოვრებლებმა
მაცხოვრებლებს
მაცხოვრის
მაძიებელი
მაწანწალა
მაჭავარიანი
მახარაძე
მახარაძის
მახარებელი
მახასიათებელი
მახასიათებელია
მახასიათებლები
მახასიათებლებით
მახასიათებლების
მახასიათებლებს
მახვილი
მახვილის
მახლობელ
მახლობელი
მახლობლად
მაჰათმა
მაჰარაჯა
მაჰარაჯადჰირაჯა
მაჰმად
მაჰმადიანი
მაჰმუდ
მბეჭდავი
მბრუნავი
მბრძანებელი
მბრძანებლის
მგ
მგალობელი
მგალობლიშვილი
მგელაძე
მგელი
მგზავრები
მგზავრების
მგზავრებს
მგზავრთა
მგზავრი
მგზავრის
მგზავრობა
მგზავრობის
მგზავრს
მგზნებარე
მგლები
მგლის
მგრ
მგრძნობიარე
მდ
მდგარ
მდგარა
მდგარი
მდგომ
მდგომარეობა
მდგომარეობაზე
მდგომარეობას
მდგომარეობაში
მდგომარეობაშია
მდგომარეობდა
მდგომარეობიდან
მდგომარეობით
მდგომარეობის
მდგომარეობისა
მდგომარეობს
მდგომი
მდგრად
მდგრადი
მდგრადია
მდგრადობა
მდგრადობის
მდე
მდეა
მდებარე
მდებარეობა
მდებარეობას
მდებარეობდა
მდებარეობენ
მდებარეობით
მდებარეობის
მდებარეობს
მდედრ
მდედრები
მდედრი
მდედრობითი
მდელო
მდელოებზე
მდელოები
მდელოებია
მდელოებით
მდელოს
მდიდარ
მდიდარი
მდიდარია
მდიდრულ
მდიდრულად
მდიდრული
მდივანი
მდივანმა
მდივანს
მდივნად
მდივნის
მდინარე
მდინარეა
მდინარეებზე
მდინარეები
მდინარეებია
მდინარეების
მდინარეებს
მდინარეებში
მდინარეზე
მდინარეთა
მდინარეს
მდინარესთან
მდინარეული
მდინარეში
მდინარის
მე
მეათე
მეამბოხე
მეან
მებაღეობა
მებეტი
მებრძოლ
მებრძოლები
მებრძოლების
მებრძოლებმა
მებრძოლებს
მებრძოლთა
მებრძოლი
მებრძოლის
მეგა
მეგავატი
მეგალითური
მეგზური
მეგი
მეგობარ
მეგობართა
მეგობართან
მეგობარი
მეგობარმა
მეგობარს
მეგობრებთან
მეგობრები
მეგობრების
მეგობრებმა
მეგობრებს
მეგობრის
მეგობრობა
მეგობრობდა
მეგობრობის
მეგობრულ
მეგობრული
მეგრელიშვილი
მეგრელიძე
მეგრულ
მეგრული
მედალი
მედალოსანი
მედდა
მედეა
მედეას
მედვედევი
მედია
მედიაფაილები
მედიაში
მედიის
მედიკამენტების
მედიკოსთა
მედინა
მედისონ
მედიუ
მედიჩების
მედიჩი
მედიჩის
მედიცინა
მედიცინას
მედიცინაში
მედიცინის
მედიცინისა
მედლები
მედლებით
მედლების
მედლით
მედლის
მედრესე
მეექვსე
მეექვსედ
მევენახეობა
მევენახეობის
მევიოლინე
მეზობელ
მეზობელი
მეზობლად
მეზობლებთან
მეზობლები
მეზობლების
მეზოზოური
მეზორეგიონს
მეზღვაურები
მეზღვაური
მეთაურად
მეთაურები
მეთაურების
მეთაურთა
მეთაური
მეთაურია
მეთაურის
მეთაურმა
მეთაურობა
მეთაურობდა
მეთაურობდნენ
მეთაურობით
მეთაურს
მეთევზეთა
მეთევზეობა
მეთერთმეტე
მეთექვსმეტე
მეთვალყურეობის
მეთვრამეტე
მეთიუ
მეთოდები
მეთოდებით
მეთოდების
მეთოდებს
მეთოდი
მეთოდია
მეთოდით
მეთოდის
მეთოდს
მეთოდური
მეთოთხმეტე
მეთორმეტე
მეთხუთმეტე
მეი
მეიოს
მეის
მეისონი
მეისონის
მეიძის
მეკარე
მეკარედ
მეკარის
მეკლენბურგ
მეკობრეები
მეკობრეების
მელ
მელა
მელანი
მელბურნი
მელბურნის
მელბურნში
მელეუზიდან
მელეუზის
მელია
მელისა
მელიტონ
მელიქ
მელიქიშვილი
მელიქიშვილის
მელნით
მელოდია
მელოდიები
მელოდიის
მელოდიური
მელოუნი
მელქისედეკ
მემამულე
მემარცხენე
მემარჯვენე
მემატიანე
მემბრანის
მემკვიდრე
მემკვიდრედ
მემკვიდრეები
მემკვიდრეების
მემკვიდრეებს
მემკვიდრემ
მემკვიდრეობა
მემკვიდრეობად
მემკვიდრეობას
მემკვიდრეობით
მემკვიდრეობითი
მემკვიდრეობის
მემკვიდრეობისათვის
მემკვიდრეს
მემკვიდრის
მემორანდუმი
მემორიალი
მემორიალის
მემორიალურ
მემორიალური
მემუარები
მემუარებში
მენაბდე
მენდელეევის
მენეჯერად
მენეჯერი
მენეჯერის
მენეჯმენტი
მენეჯმენტის
მენი
მენინგი
მენის
მენიუ
მენიუს
მენიუში
მენტალური
მენშევიკების
მენჯის
მეოთხე
მეოთხედ
მეოთხედი
მეოთხედის
მეოთხედფინალში
მეოთხედში
მეოთხეული
მეომართა
მეომარი
მეომარს
მეომრები
მეომრების
მეომრებს
მეომრის
მეორადი
მეორდება
მეორე
მეორეა
მეორედ
მეორეზე
მეორემ
მეორეს
მეორეული
მეორეში
მეორეხარისხოვან
მეორეხარისხოვანი
მეორეჯერ
მეორის
მეოცე
მეოხებით
მეპატრონე
მერაბ
მერად
მერანი
მერე
მერები
მერვე
მერვედ
მერვედფინალში
მერი
მერია
მერიდიანი
მერიის
მერილენდის
მერიმ
მერის
მერკური
მერკურის
მერმა
მერსედეს
მერფი
მერქანი
მერქნის
მერყეობდა
მერყეობს
მერჩულე
მერცხალი
მესა
მესამე
მესამეა
მესამედ
მესამედი
მესამედს
მესამეზე
მესამეს
მესამეული
მესამეში
მესაქონლეობა
მესაქონლეობას
მესი
მესიეს
მესიმ
მესის
მესოპოტამია
მესოპოტამიაში
მესოპოტამიის
მესროპ
მესტიის
მესხეთი
მესხეთის
მესხეთში
მესხი
მესხია
მესხის
მესხიშვილი
მესხიშვილის
მეტ
მეტა
მეტად
მეტალ
მეტალი
მეტალიკა
მეტალიკამ
მეტალიკის
მეტალის
მეტალურგი
მეტალურგია
მეტალურგიის
მეტალურგიული
მეტამორფული
მეტეოროლოგიური
მეტეხის
მეტი
მეტია
მეტის
მეტისმეტად
მეტიც
მეტმა
მეტნაკლებად
მეტოქე
მეტოქეები
მეტოქეთა
მეტოქეობა
მეტოქეს
მეტოქის
მეტრ
მეტრამდე
მეტრამდეა
მეტრეველი
მეტრეველის
მეტრზე
მეტრი
მეტრია
მეტრიან
მეტრიანი
მეტრიდან
მეტრით
მეტრის
მეტრო
მეტროპოლიტენების
მეტროპოლიტენი
მეტროპოლიტენის
მეტროს
მეტროსადგური
მეტრს
მეტრში
მეტს
მეტსახელად
მეტსახელი
მეტყველება
მეტყველების
მეტყველებს
მეტწილად
მეტხანს
მეტჯერ
მეურვე
მეურნეობა
მეურნეობაზე
მეურნეობას
მეურნეობაში
მეურნეობით
მეურნეობის
მეურნეობისა
მეუფე
მეუღლე
მეუღლემ
მეუღლეს
მეუღლესთან
მეუღლის
მეფე
მეფედ
მეფეები
მეფეების
მეფეებმა
მეფეებს
მეფეზე
მეფეთ
მეფეთა
მეფემ
მეფეს
მეფესა
მეფესთან
მეფეც
მეფის
მეფისა
მეფისათვის
მეფისნაცვლის
მეფობა
მეფობდა
მეფობის
მეფობისას
მექანიზმები
მექანიზმების
მექანიზმებს
მექანიზმი
მექანიზმის
მექანიზმს
მექანიკა
მექანიკაში
მექანიკის
მექანიკოსი
მექანიკურ
მექანიკური
მექაში
მექსიკა
მექსიკაში
მექსიკელი
მექსიკის
მექსიკური
მეღვინეობა
მეღვინეობის
მეშვეობით
მეშვეობითაც
მეშვიდე
მეშვიდედ
მეჩაიეობა
მეჩეთები
მეჩეთი
მეჩეთის
მეჩეთს
მეჩეთში
მეჩვიდმეტე
მეჩხერი
მეც
მეცამეტე
მეცენატი
მეცნ
მეცნიერ
მეცნიერება
მეცნიერებათა
მეცნიერებას
მეცნიერებასა
მეცნიერებაში
მეცნიერებები
მეცნიერებების
მეცნიერებებს
მეცნიერებებში
მეცნიერები
მეცნიერების
მეცნიერებისა
მეცნიერებმა
მეცნიერებს
მეცნიერთა
მეცნიერი
მეცნიერის
მეცნიერმა
მეცნიერს
მეცნიერულ
მეცნიერულად
მეცნიერული
მეცო
მეცხოველეობა
მეცხოველეობას
მეცხოველეობის
მეცხრამეტე
მეცხრე
მეცხრედ
მეწამულ
მეწამული
მეწარმე
მეწყერის
მეხიკო
მეხიკოს
მეხიკოში
მეხილეობა
მეხსიერება
მეხსიერებას
მეხსიერებაში
მეხსიერების
მეხუთე
მეხუთედ
მეჯლისის
მეჰმედ
მეჰმედი
მეჰმედის
მეჰმეთ
მზა
მზად
მზადაა
მზადდება
მზადდებოდა
მზადება
მზადყოფნა
მზარდ
მზარდი
მზარეული
მზე
მზეზე
მზეთუნახავი
მზეს
მზია
მზიანი
მზიდან
მზიდი
მზის
მზისა
მზიური
მთ
მთა
მთავარ
მთავარანგელოზთა
მთავარანგელოზი
მთავარანგელოზის
მთავარეპისკოპოსი
მთავარეპისკოპოსის
მთავარეპისკოპოსმა
მთავართა
მთავარი
მთავარია
მთავარმა
მთავარს
მთავარსარდალი
მთავარსარდლად
მთავარსარდლის
მთავრად
მთავრდება
მთავრდებოდა
მთავრები
მთავრების
მთავრებს
მთავრის
მთავრობა
მთავრობამ
მთავრობას
მთავრობასა
მთავრობასთან
მთავრობაში
მთავრობები
მთავრობების
მთავრობებს
მთავრობის
მთავრობისა
მთავრობისგან
მთავრობისთვის
მთავრული
მთაზე
მთათა
მთამსვლელი
მთარგმნელი
მთარგმნელობით
მთას
მთასთან
მთაში
მთაწმინდის
მთებზე
მთები
მთებიდან
მთებით
მთების
მთებს
მთებსა
მთებში
მთელ
მთელი
მთელმა
მთელს
მთვარე
მთვარეზე
მთვარეს
მთვარის
მთვრალი
მთიან
მთიანეთი
მთიანეთის
მთიანეთში
მთიანი
მთიანია
მთიდან
მთიელთა
მთიელი
მთის
მთისა
მთისწინეთზე
მთისწინეთის
მთისწინეთში
მთიულეთი
მთიულეთის
მთლად
მთლიან
მთლიანად
მთლიანადაა
მთლიანი
მთლიანობა
მთლიანობას
მთლიანობაში
მთლიანობის
მთხრობელი
მი
მია
მიაბარა
მიაბარეს
მიაგნო
მიადგა
მიადგნენ
მიათხოვა
მიათხოვეს
მიაკვლია
მიაკუთვნა
მიაკუთვნებენ
მიაკუთვნებს
მიანიშნებს
მიანიჭა
მიანიჭეს
მიანმარი
მიანმარის
მიანმარში
მიატოვა
მიატოვეს
მიაქვთ
მიაქვს
მიაქცია
მიაღწევდა
მიაღწევს
მიაღწია
მიაღწიეს
მიაღწიოს
მიაყენა
მიაყენეს
მიაშენეს
მიაშურა
მიაჩნდა
[...]
