!
"
#
##0
##1
##10
##11
##12
##13
##14
##15
##16
##17
##18
##19
##2
##20
##21
##22
##23
##24
##25
##26
##27
##28
##29
##3
##30
##31
##32
##33
##34
##35
##36
##37
##38
##39
##4
##40
##41
##42
##43
##44
##45
##46
##47
##48
##49
##5
##50
##51
##52
##53
##54
##55
##56
##57
##58
##59
##6
##60
##61
##62
##63
##64
##65
##66
##67
##68
##69
##7
##70
##71
##72
##73
##74
##75
##76
##77
##78
##79
##8
##80
##81
##82
##83
##84
##85
##86
##87
##88
##89
##9
##90
##91
##92
##93
##94
##95
##96
##97
##98
##99
$
%
&
'
(
)
*
+
,
-
.
/
0
00
000
0001
000299
001
00360
006
01
0104
02
020
023152546
03
030
04
040
05
050
0511
055
06
064
065
066
07
0700
08
081
083
09
095
096
1
10
100
1000
101
1010
1017
10199
102
1025
1029
103
1031
1033
1036
1037
1039
104
1046
105
1050
106
1063
1066
107
108
1080
1088
109
1093
1099
11
110
1100
1101
1109
111
1111
1118
1119
112
1120
1122
1125
1127
1128
113
1130
1135
1136
114
1145
115
1155
116
117
118
1185
1187
1189
119
12
120
1200
1201
1203
1204
1205
1207
1208
1209
121
1210
1212
1214
1215
1216
1217
1218
122
1220
1221
1222
1224
1226
1227
123
1231
124
125
1250
126
1260
1263
127
1271
1273
1279
128
129
1298
13
130
1300
1304
131
1313
132
1327
133
1330
1331
134
1341
1347
1348
135
1350
1351
1353
136
1361
1368
137
1375
138
1386
139
14
140
1400
141
1410
1419
142
1420
143
1430
1431
144
1440
145
1450
146
147
1475
148
1485
1486
1488
149
1490
1492
1498
15
150
1500
151
1511
1517
152
1520
1521
1526
1527
153
1536
1538
154
1540
1542
1545
1546
1548
155
1550
1557
1558
156
1562
1564
1565
1566
157
1570
15760
1577
158
1582
159
1591
1593
1595
1596
1598
16
160
1600
1602
1603
1604
161
1610
1611
1615
1619
162
1621
1623
1629
163
1630
1638
1639
164
1641
1642
1643
1644
1645
1647
1648
165
1652
1653
1657
1659
166
1660
1663
1664
1666
1667
1669
167
1675
1678
1679
168
1680
1684
1689
169
1693
1694
1698
17
170
1700
1702
1708
1709
171
1712
1718
1719
172
1720
1726
1727
173
1732
1733
1734
1735
1737
174
1740
1742
1743
1744
1749
175
1750
1754
1755
1756
1758
1759
176
1760
1761
1762
1763
1765
1767
1768
177
1770
1771
1772
1773
1774
1775
1776
1777
1778
1779
178
1780
1782
1783
1784
1785
1786
1787
1788
1789
179
1790
1791
1792
1793
1794
1795
1796
1798
1799
18
180
1800
1801
1802
1803
1804
1805
1806
1808
1809
181
1810
1812
1813
1814
1815
1816
1817
1818
1819
182
1820
1821
1822
1823
1824
1825
1826
1827
1828
1829
183
1830
1831
1832
1833
1834
1835
1836
1837
1838
1839
184
1840
1841
1843
1844
1845
1846
1847
1848
1849
185
1850
1851
1852
1853
1854
1855
1856
1857
1858
1859
186
1860
1861
1862
1863
1864
1865
1866
1867
1868
1869
187
1870
1871
1872
1873
1874
1875
1877
1878
1879
188
1880
1881
1882
1883
1884
1885
1886
1887
1888
1889
189
1890
1891
1892
1893
1894
1895
1896
1897
1898
1899
19
190
1900
1901
1902
1903
1904
1905
1906
1907
1908
1909
191
1910
1911
1912
1913
1914
1915
1916
1917
1918
1919
192
1920
1921
1922
1923
1924
1925
1926
1927
1928
1929
193
1930
1931
1932
1933
1934
1935
1936
1937
1938
1939
194
1940
1941
1942
1943
1944
1945
1946
1947
1948
1949
195
1950
1951
1952
1953
1954
1955
1956
1957
1958
1959
196
1960
1961
1962
1963
1964
1965
1966
1967
1968
1969
197
1970
1971
1972
1973
1974
1975
1976
1977
1978
1979
198
1980
1981
1982
1983
1984
1985
1986
1987
1988
1989
199
1990
1991
1992
1993
1994
1995
1996
1997
1998
1999
2
20
200
2000
2001
2002
2003
2004
2005
2006
2007
2008
2009
201
2010
2011
2012
2013
2014
2015
2016
2017
2018
2019
202
2020
2021
2022
2024
2025
203
2032
204
205
206
2060
207
208
209
2099
21
210
211
212
213
214
215
216
217
218
219
22
220
221
222
223
224
225
226
227
228
229
23
230
2300
231
232
233
234
235
236
237
238
239
24
240
2400
241
242
243
244
245
246
247
248
249
25
250
2500
251
252
253
254
255
256
257
258
259
26
260
261
262
263
264
265
266
267
268
269
27
270
271
272
273
274
275
276
277
278
279
28
280
282
283
284
285
287
288
289
29
290
291
292
293
294
295
296
297
298
299
3
30
300
3000
301
302
303
304
305
306
307
308
309
31
310
311
312
313
314
315
316
317
318
319
32
320
3200
321
322
323
324
325
326
327
328
329
33
330
331
332
333
334
335
336
337
338
339
34
340
341
342
343
34328
344
345
346
347
348
349
35
350
352
353
354
355
356
357
358
359
36
360
361
362
363
364
364444
365
366
367
37
370
371
373
375
376
38
380
3800
381
382
384
385
39
390
391
393
394
395
396
397
398
4
40
400
401
403
404
4051
406
407
408
409
41
410
413
414
415
416
418
419
42
420
4200
422
422478
423
425
428
429
43
430
4300
431
435
436
44
440
442
443
445
45
450
4500
451
452
453
455
457
458
46
460
461
47
471
4715
475
48
480
482
483
488
489
49
490
493
494
496
498
5
50
500
501
503
504
506
51
510
511
513
516
52
520
521
525
527
528
529
53
530
533
534
537
538
539261
54
541
542
543
545
547
549
55
550
551
553
56
560
5600
57
570
574
578
58
580
581
582
586
587
588
589
59
5923
598
6
60
600
6000
601
602
605
61
610
615
6166
618
62
622
623
625
626
627
63
630
631
632
634
635
636
637
638
639
64
640
644
645
65
654
66
660
661
666
668
67
671
6718
672
675
677
679
68
680
682
684
686
687
69
690
691
694
696
7
70
700
702
704
707
71
712
713
714
716
718
7190
72
720
724
726
73
734
737
7375
739
74
74220
746
747
748
75
750
752
753
754
756
759
76
760
768
77
770
771
774
776
777
778
78
780
782
784
785
787
789
79
8
80
800
801389
81
810
815
819
82
820
821
825
825183
827
83
830
832
84
842
84270
845
848
85
850
853
857
86
860
8601
861
862
864
869
87
871
872
875
877
878
88
880
883
888
89
9
90
900
902
903
90377
907
91
911
917
92
924
926
928
9290
93
932
937
94
942
944
95
950
953
954
958
96
960
965
97
971
973
975
977
978
9789678605946
979
98
980
981
983
985
99
999
:
;
<
=
>
?
@
\
^
_
`
a
aa
aalsuppe
aam
aan
aanakan
aandi
ab
ababa
abad
abadi
abah
abahnya
abang
abas
abat
abau
abba
abbas
abbasiyah
abbott
abc
abcd
abcde
abdali
abdan
abdi
abdikasi
abdoel
abdome
abdomen
abdul
abdullah
abdurrahman
abdussamad
abe
abel
abelii
abendanon
aberani
aberdeen
abg
abhidhamma
abi
abidjan
abilis
abimanyu
abjad
abjat
abkhazia
ablasi
abolisionisme
abolition
abortus
about
abraham
abrahamik
abri
absen
absence
absolut
absorbers
abstract
abstracts
abstrak
absurditas
abu
abubakar
abugida
abuin
abul
abulung
abuse
ac
acade
academic
academy
acan
acar
acara
access
accessed
according
account
ace
aceh
achmad
aci
acid
acil
acprof
acres
across
act
action
activist
activitas
activities
acts
acuan
ad
ada
adaan
adaannya
adab
adaby
adair
adakalanya
adakan
adalah
adam
adams
adang
adanya
adaptasi
adaptif
adapun
adat
adb
addario
addis
addison
adefagia
adel
adelaide
adele
adelman
aden
adenauer
adesi
adha
adhani
adhanom
adhesi
adhi
adi
adik
adikarya
adikia
adikku
adil
adilan
ading
adingnya
adiparwa
adipati
adistana
adit
aditya
adiu
adja
adjeng
administrasi
administratif
administratifnya
administration
administratip
admiral
adnan
adolf
adonan
adonara
adonis
adopsi
adrestia
adrian
adu
aduk
adulam
adunan
adupan
advanced
advent
adventure
adventures
adverbia
ae
aeaea
aedes
aegaeon
aegina
aegle
aer
aergia
aerial
aerodinamika
aeronautics
aeronautika
aerospace
aesthetics
aether
aethiopia
afar
afdeeling
afdeling
affairs
affan
affandi
affiliation
afganistan
afghanistan
afif
afinitas
afonso
aforisma
africa
african
afrika
afro
afrodit
after
afton
ag
agak
agam
agama
agamaan
agamanya
agamawan
agamidae
agar
agder
agdistis
age
agen
agency
agent
ages
aggasing
agin
aginsi
aglaea
aglutinasi
agnes
agni
agnostik
agnostisisma
ago
agon
agong
agraris
agre
agricultural
agriculture
agrikultur
aguada
agung
agus
agustinus
agustus
agutayan
agya
ah
ahad
ahan
ahat
ahir
ahirnya
ahli
ahmad
ahmadi
ahmed
ahn
ahun
ahuy
ai
aiakos
aichi
aidos
aids
ain
ainu
ainul
ainun
aiolos
aiphama
air
airbus
aircraft
aires
airguard
airlangga
airlines
airport
aise
aisyah
aitken
aja
ajaib
ajak
ajang
ajar
ajarakan
ajaran
ajatasatu
aji
ajudan
ajung
ak
aka
akad
akademi
akademik
akademis
akademisi
akai
akal
akan
akannya
akar
akarnya
akb
akbar
akcaya
akershus
akeso
akheilos
akhelois
akhelous
akheron
akhilles
akhir
akhiran
akhirat
akhiri
akhirnya
akhlis
akhmad
akhmatova
akibat
akibatnya
akil
akimoto
akira
akis
akita
akkadia
aklamasi
akomodasi
akrab
akratopotes
akresi
akrilik
aksara
akse
akselerasi
aksen
akses
aksesi
aksi
aksial
aksiologis
aksis
akspansi
akta
aktif
aktip
aktipis
aktipitas
aktivis
aktivitas
aktor
aktris
aktur
aku
akuarium
akui
akuisisi
akulturasi
akumulasi
akun
akur
akurasi
akurat
akustik
akut
al
ala
alabio
alad
alah
alahakan
alai
alala
alalak
alam
alamat
alami
alamiah
alaminya
alamnya
alamo
alamsyah
alan
alang
alas
alasan
alasannya
alaska
alastor
alat
alawi
alaydrus
alba
albania
albanjari
albany
albay
albert
alberto
albion
album
alcaeus
alcoa
alcu
alden
aldous
alegori
alejandro
aleksander
aleksandr
alekto
alektrona
alergi
aletheia
alex
alexander
alexandre
alexandria
alexiares
alexis
alfa
alfabe
alfabet
alfeus
alfonso
alfred
alga
algea
algeria
ali
aliansi
alias
alice
alif
alifu
alighieri
alih
alihaksara
alihan
alim
alimuddin
aling
alirakan
aliran
alit
aljabar
aljajair
aljazair
alkah
alkione
alkisah
alkitab
alkohol
alkuhul
all
alla
allah
allahu
allamah
allen
alliance
allison
alluvial
alm
alma
almanak
almarhum
almasih
alokasi
alonso
alor
alpabit
alpha
alphabet
alphard
alpine
alpukat
alquran
alri
als
also
alt
alta
altai
altamont
altar
altenatif
alternasi
alternatif
altima
alto
alton
altoona
alu
aluan
aluh
aluminium
alumni
alun
alur
alus
alva
alwi
am
amal
amalan
amalia
amami
aman
amanakan
amanan
amanat
amandeme
amandit
amangnya
amar
amarika
amarta
amas
amat
amateur
amatir
amatung
amawakng
amawang
amazon
ambah
ambalau
ambang
ambawang
ambawaŋg
ambeno
amber
ambigu
ambiguitas
ambil
ambilan
ambili
ambin
ambir
ambon
amboy
amboyo
ambun
ambung
ame
amekhania
amelia
america
american
amerigo
amerika
ames
amfiaraus
amfibi
amfiktyonis
amfilogiai
amfitrit
amhar
amhara
amherst
ami
amin
aminah
amini
amino
aminullah
amir
amiriah
amirika
amiruddin
amit
amitabha
amman
ammon
amnat
among
amonia
amonthaij
amore
amos
ampadi
ampah
ampahnya
ampalas
ampang
ampar
ampas
ampat
ampe
ampel
ampelgading
ampera
amphoe
ampih
ampihakan
ampihan
ampihnya
ampir
amplitudo
ampu
ampuh
ampun
ampuni
ampunnya
amritsar
amrullah
amsterdam
amum
amun
amundsen
amunnya
amuntai
amy
amyda
an
ana
anabas
anai
anaideia
anak
anakes
anakku
anaknja
anaknya
analema
analisis
analog
analogi
analysis
anam
anan
ananda
anang
ananta
anarkis
anas
anastasia
anatole
anatolia
anatomi
anatumi
anatumis
ancak
ancalong
ancaman
ancap
anchor
ancient
and
anda
andai
andak
andakan
andakannya
andaknya
andalas
andalus
andaman
andan
anders
anderson
andes
andhika
andhra
andi
andika
andin
andir
andorra
andover
andra
andre
andrea
andreas
andres
andrew
andrews
androktasiai
andromeda
andui
andy
ane
aneh
aneka
anemoi
anfa
anfield
ang
angah
angaur
angel
angeles
angelia
angelina
angels
anggadipa
anggal
anggan
anggana
anggang
anggap
anggapan
anggaran
anggit
anggota
anggotanya
anggrek
anggun
anggur
angguta
anggutanya
angin
angiospermae
angiotensin
angka
angkanya
angkanyar
angkara
angkasa
angkasawan
angkat
angkatan
angkau
angke
angkinang
angklung
angkut
angkutan
angle
angles
anglikan
anglo
angoi
angola
angsa
angsana
angsur
angui
angus
angustifolia
anguy
anhalt
ani
aniketus
anima
animal
animalia
animasi
animation
animator
animatur
anime
anis
anita
anj
anjeunna
anjing
anjir
anjongan
anjouan
anjung
anjungan
ankara
ankle
ann
anna
annales
annan
annapolis
anne
annette
anno
annual
annya
ano
anoda
anoem
anoi
anom
anomali
anonim
anopheles
another
anri
ansambel
anse
anshar
anshari
answer
ant
anta
antai
antaludin
antang
antangan
antangannya
antapani
antar
antara
antarabangaa
antarabangsa
antaranya
antarbangsa
antarbanua
antarbenua
antarbintang
antarbuah
antariksa
antariksawan
antarktik
antarktika
antarkuta
antarnagara
antarnegara
antarpamarintah
antarplanet
antartika
antasan
antasari
ante
antemas
antena
anterior
anteros
antheia
anthology
anthony
anthousai
anti
antibakteri
antibodi
antigen
antigua
antijamur
antina
anting
antiokia
antipode
antique
antoine
antologi
anton
antoni
antonia
antonio
antonius
antony
antrasit
antropolog
antropologi
antroposentris
antrupulugi
antuk
antung
antv
antwerp
antwerpen
anu
anuar
anugerah
anugrah
anum
anumerta
anus
anwar
any
anyaman
anyan
anyar
anycall
ao
aoki
aol
aoyama
apa
apabila
apakah
apalagi
apam
apang
apapun
aparat
aparatur
apari
apartheid
apas
apate
apbd
ape
apehelion
apel
aperta
apes
apganistan
aphelion
aphid
api
apinya
apiong
aplikasi
apo
apocalittici
apocalypse
apoge
apollo
aporia
apostolik
appa
appare
apple
appleby
appleton
application
approx
appunti
apr
apresiasi
aprika
april
apu
apuao
apung
apv
aqsa
aqsha
aqua
aquinas
aquino
ar
ara
arab
arabi
arabia
arabian
arabic
arabische
arachnida
arae
arafat
arafura
aragon
arah
arahat
arahatship
arai
arak
arakan
aram
arang
aranio
aranjeunna
arap
ararat
arat
arau
arba
arbain
arc
arcadia
arcamanik
archaeological
archaeology
archer
archipelago
architecture
archive
archives
archuleta
arco
arcsec
arctic
arculf
ardiansyah
are
area
arecaceae
arecibo
areios
aren
arena
arendal
ares
arete
arethusa
argentina
argos
argues
argumen
arguments
argyle
ari
aria
ariadne
arie
arief
ariel
arif
ariffin
arifin
arilus
ario
arion
aris
aristaeus
aristokrat
aristoteles
aristotle
arit
ariya
arjasari
arjuna
arkansas
arke
arkeolog
arkeologi
arkeologis
arktik
arlington
arm
armada
armenia
arms
armstrong
army
arne
arnold
aro
aromanya
arosbaya
around
arpah
arpan
arrecife
arriba
arsenal
arsip
arsite
arsitek
arsiteknya
arsitektur
arsitiktur
arsyad
art
artefak
artemis
arthropoda
arthur
arti
artiakan
artian
article
articles
artikal
artikalnya
artikel
artikulasi
artinya
artis
artist
artistik
artos
arts
aru
aruah
aruh
arum
arung
arus
arut
aruwah
arwah
arya
aryan
as
asa
asaan
asadha
asahan
asahi
asakura
asal
asalkan
asalnya
asam
asan
asap
asar
asas
asasi
asclepius
asean
asemrowo
aseri
aset
asetat
asgard
ash
ashland
ashley
ashraf
ashton
asi
asia
asian
asih
asimilasi
asimtomatik
asin
asing
asingnya
asios
asisten
ask
askalafos
asker
askim
asklepios
asklepius
askøy
asli
aslinya
asma
asmara
asnawi
asoka
asopus
asosiasi
aspal
aspe
aspect
aspects
aspek
aspergillus
aspik
aspirasi
aspx
asrama
asri
assembly
associated
association
assyria
astambul
astanaanyar
asteroid
asteroit
asteruid
astilah
astiruit
astra
astraea
astraios
astro
astrobiologi
astrologi
astronaut
astronom
astronomi
astronomical
astronomis
astronomy
astronot
astrunum
astrunumi
asturias
asumsi
asuncio
asura
asuransi
aswan
aswatama
asy
asyura
at
ata
atakan
atan
atanapi
atang
atap
atas
atasan
atasi
atasnya
atatu
atau
ataupun
atauwa
ataw
atawa
atawapun
ate
ateis
ateisma
ath
athaillah
atheism
atheists
athena
athens
atherurus
ati
atif
atlanta
atlantic
atlantik
atlanto
atlas
atlet
atletik
atlit
atlitik
atmosfe
atmosfer
atmosfernya
atmosfir
atmuspir
atol
atom
atraksi
atribut
atropos
atta
attack
attis
attributes
atulai
atur
aturan
au
auburn
auch
audi
audiensi
audio
audisi
auditus
aue
auf
auffenberg
aufkla
aufl
auflage
august
augusta
augustine
augustus
auh
aula
aulia
auliya
aum
aur
aura
aurai
auran
aurora
aurskog
aus
aust
austin
australasia
australia
australian
austria
austrone
austronesia
austronesian
author
authority
authors
auto
autoimun
autoimunitas
automatic
aux
auxo
av
ava
available
avalon
avant
avanza
ave
averøy
aviation
avicenna
aviezer
avocado
avon
avventure
awai
awak
awaknya
awal
awalan
awali
awalnya
awam
awamnya
awan
awang
award
awards
awatara
awau
awayan
awe
awinan
axis
axl
ay
aya
ayah
ayahanda
ayahandanya
ayahnya
ayak
ayako
ayalon
ayam
ayat
ayatullah
ayer
ayeuna
ayla
ayu
ayunan
ayungannya
ayutthaya
ayyubi
ayyubiyah
az
azerbaijan
azeri
azh
azhar
azhari
aziddin
azimut
aziz
azucar
azuchi
azzam
b
ba
baa
baabad
baada
baadaptasi
baagama
baah
baahirnya
baakal
baakar
baakhir
baakhirnya
baakibat
baalamat
baalih
baaliran
baamang
baampah
baampihan
baandak
baandakan
baandi
baanggapan
baanggutaakan
baapi
baapuah
baarti
baasa
baasal
baasimilasi
baaturan
baawak
baawal
baay
baayak
baayun
bab
babad
babagai
babagi
babahagia
babahan
babahasa
babahaya
babaju
babak
babakan
babakas
babalang
baban
babanaran
babanding
babang
babangat
babantuk
babanyak
babarang
babarapa
babarasih
babaris
babasa
babasis
babasuh
babat
babatas
babatasan
babatis
babatu
babatuan
babau
babaya
babayanya
babayau
babeda
babelok
babentuk
baberapa
babes
babi
babibit
babida
babigi
babilon
babilonia
babini
babinian
babintik
babirik
baboy
babruwahana
babuah
babuat
babuhan
babujuran
babuka
babukit
babuku
babulik
babuliknya
babulu
babumbu
babun
babuncu
babungku
babungkus
babuntut
babunyi
baburu
babuyan
baby
baca
bacaan
bacabang
bacadar
bacakut
bacalak
bacampur
bacangkurah
bacaram
bacari
baciri
baciriakan
back
backbone
background
baco
bacon
bacteria
bacucubaan
bad
badagang
badagangan
badagup
badahulu
badai
badak
badakbadak
badakwah
badal
badali
badalungga
badampak
badampingan
badan
badangkak
badangsanak
badangsanakan
badapat
badapatan
badarah
badasar
badasarakan
badasarkan
badau
badauh
badaulat
badaun
badawi
badaya
bade
baden
badiam
badiameter
badiamitir
badian
badimapa
badingsanak
badiri
badirinya
badjalan
badoa
badu
badua
badudua
baduduk
baduri
badusa
badusta
baduy
bae
baekspresi
baelang
baevolusi
bafungsi
bag
bagabung
bagai
bagaimana
bagaimanapun
bagak
bagalai
bagalar
bagalumuk
bagalung
bagama
bagamat
bagamatan
bagambar
bagampiran
bagan
bagana
baganal
baganalan
baganti
bagantian
bagantukkan
bagantung
bagarak
bagarakan
bagarilya
bagaris
bagarumbung
bagasi
bagatukkan
bagawan
bagawi
bagawian
bagawinya
bagaya
bagayaan
bagdad
bagi
bagian
bagiji
bagimit
bagimitan
bagir
bagisir
bagitu
bagridae
bagu
baguguran
bagun
baguna
bagunung
baguru
bagus
bagusnya
bah
baha
bahadangan
bahadap
bahadapan
bahagia
bahagian
bahak
bahalang
bahalar
bahalat
bahalatan
bahaluan
bahama
bahamburan
bahan
bahana
bahancap
bahandang
bahanei
bahannya
bahantup
bahanu
bahara
baharaga
baharap
baharga
bahari
baharinya
bahasa
bahasanya
bahasil
bahasyim
bahatap
bahati
bahau
bahawa
bahaya
bahias
bahinak
bahintalu
bahinti
bahinu
bahira
bahkan
bahrain
bahri
bahru
bahu
bahua
bahubungan
bahujung
bahuma
bahurup
bahutbah
bahuwa
bahwa
bahwasanya
bai
baibadah
baibadat
baiduri
baigal
baihaqi
baiisi
baik
baikal
baiklah
baiklim
baiknya
bailang
bailey
baiman
baimbai
baimbaian
baimbay
baintalu
baintan
baipulusi
bairama
baisi
baisian
baisikan
baistirahat
baisukan
bait
baitul
baja
bajak
bajalan
bajalanan
bajamaah
bajamur
bajangka
bajanis
bajanji
bajapaian
bajarak
bajarang
bajaruk
bajasa
bajau
bajauh
bajawit
bajaya
bajayau
baji
bajiarah
bajo
baju
bajualan
bajuang
bajudul
bajuin
bajuluran
bajumbelah
bajumlah
bak
baka
bakabangsaan
bakadudukan
bakah
bakahancapan
bakahandak
bakait
bakaitan
bakajadian
bakajutan
bakakuatan
bakal
bakalahi
bakalakuan
bakalamin
bakali
bakaliling
bakalir
bakaluaran
bakalumpuk
bakambang
bakambuh
bakamih
bakampanyi
bakanaan
bakantan
bakantur
bakapadatan
bakapala
bakapanjangan
bakapantingan
bakapasitas
bakar
bakarangan
bakaras
bakarya
bakas
bakat
bakatawatasan
bakau
bakaw
bakawan
bakawinan
bakayakinan
bakembang
baker
bakeri
bakerjasama
bakiblat
bakihit
bakilauan
bakima
bakisah
bakisar
bakitar
bakontribusi
bakpao
bakrie
baksa
bakso
baksu
bakte
bakteri
bakterial
bakti
baku
bakualitas
bakuasa
bakuciak
bakuda
bakul
bakula
bakulih
bakuliling
bakulimbit
bakulit
bakumintar
bakumpai
bakumpul
bakumpulan
bakung
bakungan
bakunin
bakunjung
bakunyung
bakurang
bakurangnya
bakuriak
bakurinah
bakushoden
bakut
bal
bala
balabac
balabihan
balabuh
baladewa
balah
balahan
balai
balaian
balain
balainan
balairung
balajar
balajuan
balakang
balakangan
balakangnya
balaki
balaku
balalah
balalu
balam
balambangan
balampah
balamut
balanda
balang
balangan
balangdaras
balangsung
balanjut
balansiku
balantara
balap
balapan
balapis
balarut
balas
balasan
balatar
balatikon
balawa
balawan
balawanan
balayar
baldwin
bale
baleares
balearik
balears
baleendah
balen
bali
balibago
balida
balig
balik
balikat
balikpapan
baliku
balimbing
balindung
balingkar
balinjan
balipat
balistic
balit
balitung
baliuk
balkan
ball
balogo
balok
balongan
balot
baloy
baltimore
balu
baluas
balubang
baluk
balukuk
balukuknya
balulucuan
balum
baluman
balunas
baluncatan
balunggai
balura
balut
baluti
bamacam
bamadaman
bamagin
bamain
bamainan
bamakin
bamakna
bamaksud
bamalam
bamamacam
bamamakan
bamanapaat
bamandak
bamanfaat
bamara
bamarkas
bamasak
bamasalah
bamasin
bamassa
bamasyarakat
bamata
bamban
bambang
bambangan
bambino
bambu
bamesin
bamigrasi
baminyak
bamoral
bamuara
bamuatan
bamudal
bamuha
bamula
bamulai
bamulanya
bamumukaan
bamupakat
bamusuhan
bamusyawarah
bamutu
bamutur
ban
banaik
banaikan
banama
banana
banang
banar
banaran
banarsidass
banawa
bancana
bancar
banci
bancir
band
banda
bandar
bandara
bandega
banding
bandira
bandjarmasin
bandjermasin
bandung
bang
bangaran
bangat
bangau
bangawan
banggai
bangil
bangka
bangkai
bangkak
bangkal
bangkalaan
bangkalan
bangkit
bangko
bangkok
bangkong
bangkrut
bangku
bangkuang
bangladesh
bangsa
bangsanya
bangsats
bangsawan
bangsul
bangun
bangunan
bangunannya
bani
bania
baniat
banih
banilai
baning
banja
banjang
banjar
banjaran
banjarbaru
banjarejo
banjarese
banjari
banjarmasih
banjarmasin
banjarnegara
banjarwiki
banjary
banjir
banjos
bank
bankruptcy
bann
banner
banor
banri
bansir
bantai
bantal
bantalan
bantam
bantan
bantangannya
bantar
banten
banteng
bantin
bantrukan
bantu
bantuan
bantuk
bantuknya
banua
banuan
banuansa
banuanya
banumbu
banun
banyak
banyakai
banyaklah
banyaknya
banyanyi
banyu
banyuan
banyuke
banyunya
banyuwangi
baon
baong
baorientasi
bapa
bapadah
bapak
bapalang
bapaluhan
bapandal
bapandalakan
bapandapat
bapandapatan
bapande
bapandidikan
bapandir
bapandiran
bapanduduk
bapangalaman
bapangaruh
bapanggana
bapanghuni
bapangkal
bapangkat
bapanjang
bapanya
baparak
baparakan
baparan
baparang
baparangai
bapariasi
bapariuda
bapartisipasi
bapasangan
bapasir
baperan
baperioda
bapidatu
bapikir
bapindah
bapingkut
bapintal
bapisah
bapiutang
bapotongan
baptis
baptisan
bapuasa
bapukus
bapuluh
bapungsi
bapura
bapusat
bapusing
baputar
baqa
bar
bara
barabah
barabai
barabut
barack
baracun
barada
baragam
baragapan
baraitan
barakamon
barakas
barakat
barakhirnya
barambai
baramban
baramian
baranak
baranakan
baranakkan
barancana
barandak
barang
barangan
barangas
barangkali
barani
barantai
barap
barapa
barapi
bararti
baras
barasa
barasal
barasih
barat
barata
barataan
baratik
baratnya
baratus
baraung
barawa
barbados
barbagai
barbara
barbatasan
barbekyu
barbuat
barbuda
barbunyi
barburu
barcelona
bardasarkan
bardhaman
bardiam
bardudus
bare
bareng
barganti
bargarak
barhasil
barhubungan
barhulas
bari
bariakan
bariaksi
baribu
barikit
barikut
barikutnya
baring
baringei
baris
barisan
barisiko
barisnya
baristeri
baristri
barita
baritanya
barito
baritu
barjalan
barjalannya
barkacamuknya
barkaitan
barkala
barkambang
barkambangnya
barkanaan
barkat
barkata
barkembang
barlaki
barlaku
barlayar
barley
barmula
barnama
barnard
barnes
baroleh
baron
barong
baros
barparan
barpindah
barre
barrel
barry
barsadia
barsama
barsipat
barsuka
barsulam
bartaha
bartahan
bartantangan
bartinggal
bartulis
baru
baruas
barubah
barucau
baruda
baruh
barumahan
barumpakan
baruna
barunai
barunay
barunding
barupa
barutasi
barycenter
bas
basa
basadia
basagi
basah
basaing
basajak
basajarah
basakala
basakian
basaksi
basakulah
basakutu
basal
basalah
basalaman
basalang
basama
basamaan
basamangat
basambang
basambung
basambunyi
basan
basandar
basanga
basangkutan
basanjata
basanya
basapai
basapida
basar
basara
basaran
basarang
basarat
basarikat
basarnya
basarta
basatu
bascal
base
based
basho
basi
basiap
basic
basifat
basikap
basil
basilika
basin
basinar
basinggah
basipat
basirih
basirip
basis
basisiap
basisik
basisnya
baske
basket
baskit
baso
basque
basri
basry
bass
bassett
basshunter
bassis
bastatus
bastian
basuara
basubalahan
basubarangan
basudut
basuh
basuki
basuku
basumangat
basumber
basurah
basusun
baswedan
bat
bata
batabun
batagas
bataguh
batahan
batahap
batahun
batajuk
batajun
batak
batakan
batakun
batalyon
batam
batamam
bataman
batambah
batambahnya
batampai
batampat
batampur
batamu
batamuan
batan
batanaga
batanak
batanam
batanda
batanding
batanes
batang
batangan
batanggal
batanggung
batanggungjawab
batangkai
batangnya
batantangan
batantu
batapa
batapatan
batar
batara
batarbang
batari
bataruhan
batarus
batarusan
batas
batasan
batatangga
batatarikan
batatarusan
batavia
batawas
bateia
baterai
bates
bati
batian
batianan
batik
batikasan
batima
batin
batina
batindak
batinggi
batingkat
batipe
batis
batisnya
batitik
batman
bato
batoe
batrai
batriliun
battista
battle
battus
batu
batuah
batuan
batubara
batugas
batujuan
batuk
batukup
batulak
batulakan
batulang
batulicin
batulima
batulis
batulisakan
batumat
batumbang
batumbuh
batumpang
batumpu
batunduk
batung
batunggal
batungkau
batununggal
batupayung
batuq
batur
baturai
baturaja
baturut
batutur
bau
baubah
baubat
baucap
baudolino
baugah
baujak
baujar
baujud
baujung
baujut
baukir
baukis
baukuran
baulah
baulai
baulang
baulih
baulihi
baulin
baumpat
baumur
baung
baungal
bauntung
baunya
bauparasi
baupaya
baurang
baureno
baurusan
bausaha
bausia
bautista
bavaria
bavariasi
bawa
bawaakan
bawaan
bawah
bawahan
bawahnya
bawang
bawarihnya
bawarna
bawat
bawatasan
bawayang
bawihang
bawinang
baxter
bay
baya
bayam
bayan
bayangan
bayar
bayaran
bayas
bayern
bayi
bayou
bayu
bayur
bayut
bazar
baziarah
baɟaja
bbc
bbm
be
bea
beach
bean
beandak
bear
bearbeitet
beard
bearing
beasa
beasiswa
beat
beatles
beaufort
beausiti
beautiful
beauty
beaver
beban
bebanas
bebas
bebasa
bebek
bebentuk
beberapa
because
beck
becker
beckett
bed
beda
bedah
bedang
bedanya
bedford
bedil
bediri
beduai
bedug
bee
been
beer
beethoven
beetle
beetles
before
begabung
begalung
begana
begasing
begawan
begigi
beginnings
begitu
behe
behind
bei
beijing
beimbaian
being
beirut
beisi
beisian
beit
beji
bekas
bekasi
bekerja
beku
bekuan
bel
bela
belaban
belah
belahan
belajar
belakang
belalai
belaloe
belanak
belanda
belanja
belantikan
belarus
belas
belasan
belatung
belawan
belawang
belayan
bele
belengkong
belerang
belgia
belgrade
beli
beliau
belief
believe
belimbing
belipot
belitang
belitong
belitung
beliung
bell
bella
belle
bellefontaine
bellerofon
bellevue
bells
belmont
belonsat
beloyang
belt
belton
belum
belungai
belus
belut
bemacam
bemban
ben
bena
benang
benar
benawa
benazir
bencana
bend
benda
bendahara
bende
bendera
bendung
bendungan
benedikt
benevolence
bengali
bengalon
bengaran
benggala
bengkal
bengkalis
bengkawe
bengkayang
bengkok
bengkulu
benin
bening
benito
benjamin
bennett
benny
benowo
bensin
bentang
bentar
bentas
benteng
bentian
bentley
bentok
benton
bentuk
bentukan
bentuknya
benua
benuang
benz
beq
ber
berabad
beracun
berada
beradab
beradik
beragam
beragama
berahmana
berakhir
beralih
berangas
beranggapan
berani
beranotasi
berantai
berapi
berarti
beras
berasal
berat
berataan
beratap
berau
berawak
berbadan
berbagai
berbagi
berbahasa
berbahaya
berbasis
berbatasan
berbeda
berbentuk
berber
berbuah
bercocok
bercorak
berdana
berdarah
berdasarkan
berdaulat
berdefinisi
berdiri
berdirinya
berdua
beredar
berekor
bereng
berevolusi
berfungsi
berg
bergabung
bergantung
bergaya
bergelar
bergen
berger
bergerak
bergson
berguna
berguru
berhala
berharga
berhasil
berhati
berhenti
berhubungan
beribit
beriklim
berikut
berikutnya
beringin
berisi
berita
berjalan
berjanji
berjarak
berjudul
berjumlah
berkaitan
berkas
berkat
berkawat
berkayu
berkeley
berkembang
berkerabat
berkilo
berkisar
berkley
berkner
berkuasa
berkurang
berlainan
berlaku
berlangsung
berlangsungnya
berlanjut
berlin
bermain
bermakna
bermasyarakat
bermata
bermensch
bermula
bernama
bernard
bernardino
bernegosiasi
bernhardt
bernie
bernilai
berobai
beroe
beroperasi
berpendapat
berpengaruh
berperan
berperang
berpuasa
berpulang
berputar
berputra
berry
bersaing
bersama
bersamaan
bersatu
bersaudara
bersayap
bersenjata
bersifat
bersih
bersikeras
bersusunan
bertangan
bertanggung
bertanya
bertapa
bertarung
berte
bertempur
bertemu
bertenaga
bertentangan
bertepi
bertiga
bertindak
bertold
bertopik
bertrand
bertubuh
bertugas
bertujuan
bertutur
beruang
berubah
berukuran
berumur
beruntung
berupa
bervariasi
berwarna
berwenang
berwujud
besar
besaran
besarnya
beserta
besi
bessarabia
best
beta
betang
betangai
betawi
betayau
beth
bethany
bethel
betina
betlehem
beto
betok
betta
betul
betung
between
beubah
beverley
beverly
beyblade
beyond
bh
bha
bhagawadgita
bhaktapur
bhakti
bharata
bharatawarsha
bharatayuddha
bharati
bharu
bhatara
bhattacharjee
bhikkhu
bhinneka
bhismaparwa
bhopal
bhu
bhuridatta
bhutan
bhutto
bi
bia
biaju
biak
bial
biandintz
biang
biar
biara
biarawan
biarpun
bias
biasa
biasanya
biatan
biawak
biaya
biała
białostocka
bibas
bibel
bibimbap
bibinian
bibir
bibit
bible
bibliografi
bibliography
biblis
bicak
bicara
bice
bicol
bida
bidaah
bidadari
bidak
bidal
bidaman
bidan
bidang
bidawang
bidet
biding
bidingan
biduk
bie
bieber
bielefeld
bifokus
big
bigi
biginya
bigung
bihar
bihara
bij
bijak
bijaksana
biji
bijian
bijih
bijinya
bika
bikini
biksu
bila
bilah
bilang
bilangan
bilangbilangan
bilarusia
bilateral
bilingual
bill
billah
billar
billboard
billiard
bilungka
bima
bimbi
bimbingan
bin
bina
binalawan
binanun
binari
binasa
binatang
binawara
bing
bingen
bingka
bingkai
bingkarungan
bingkis
bingkudu
bingung
binh
bini
binian
biniannya
bininja
bininya
binjai
binjulan
binomial
binomio
bintan
bintang
bintangnya
binti
bintik
bintil
binting
binuang
binusan
bio
biodiversity
biofisika
biografi
biography
bioinformatika
biokimia
biola
biologi
biologis
biology
biomedis
biomolecules
bioskop
bir
bira
biranga
birayang
bird
biri
birmingham
biro
birokrasi
birth
biru
birukrat
biruni
bis
bisa
bishop
bisi
biskup
bisma
bismarck
bisnis
bissau
bistatik
bisu
bit
bitin
bituminus
biu
biulugi
biulugis
biuskup
biyuku
bizantium
bjn
bk
bkr
bl
bla
black
blackburn
blackwell
blair
blairstown
blaise
blambangan
blanchard
blanco
blandar
blangkon
blazer
bleeker
blega
bleu
blind
bloch
blog
blogger
blogspot
blok
blonde
blood
bloody
bloomfield
bloomington
blora
blossom
blu
blue
bluff
bluffs
blug
bluluk
blus
bmw
bn
bnpb
bo
boa
board
boat
bob
bobo
bobot
bocas
boccaccio
bochco
bode
bodhi
body
bodyguard
bodø
boeing
boemi
boer
boffa
boga
bogo
bogor
boh
bohemia
bohol
boiler
bojonegoro
bojongloa
bojongsari
bojongsoang
bok
bokma
bokor
bol
bola
bolaang
bolango
boleh
boli
bolivar
bolivia
bollywood
bolod
bolon
bolshevik
bolsonaro
bolu
bom
boma
bomb
bomba
bombay
bomber
bomberman
bombsight
bon
bonang
bonaparte
bondan
bondol
bone
boneka
bonel
bones
bong
bonga
bongan
bongao
bongkol
bongo
bongohulawa
bongoime
bongopini
bonito
bonjol
bonnie
bono
bontang
bonti
bontoi
book
booker
books
boom
booneville
boonville
bootes
booth
bopak
bopp
boquete
bora
bordeaux
border
borealis
boreas
borek
borgol
boris
born
borne
borneo
borobudur
borough
borus
bos
bosna
bosner
bosnia
boss
boston
bosworth
botani
both
botol
botswana
bottleneck
bottles
bound
boundaries
bow
bowker
bowles
bowling
bowman
box
boy
boyan
boyd
boyolali
boys
bp
bpbd
bpk
bps
br
brabant
bracchium
bradley
braham
brahman
brahmana
brahmi
braille
branch
brandenburg
brandon
branson
brasil
brata
bratwurst
braudel
braun
brave
brazil
break
breaker
brebes
breckenridge
breed
breeds
brekstad
bremen
brexit
brian
bridge
bridgeport
brief
brien
bright
brighton
brigjen
brigjend
brill
brimob
brisbane
briseis
briseus
brisil
bristol
bristow
britain
britania
britannica
british
britishness
britomartis
brizo
broadway
broken
bromo
bronbeek
brondong
bronkitis
bronson
bronstein
brontok
brook
brookfield
brookings
brooklyn
brooks
broteas
brother
brothers
brought
browa
brown
brownies
browning
brownsville
bru
bruari
bruce
bruijn
brun
brunai
brune
brunei
bruno
brunswick
bruntes
bruto
brutus
bryan
bryant
brzeg
bt
bu
bua
buah
buahan
buahbatu
buahnya
buan
buana
buang
buas
buat
buatan
buati
buaya
bubarnya
bubble
bubuhan
bubuhanbanjar
bubuhannya
bubujuran
bubuk
bubungan
bubur
bubut
bubutan
bucas
bucha
bucklin
bud
buda
budaja
budak
budakeszi
budapest
budaya
budayanya
budayawan
buddha
buddhahood
buddhis
buddhisma
buddhisme
buddhist
budha
budi
budidaya
budikusuma
buduk
buena
bueng
buenos
buffalo
bug
bugis
buguias
buhan
buhannya
buhaya
buhuannya
buih
buil
building
built
buitenzorg
bujang
bujangga
bujukan
bujumbura
bujur
bujuran
bujurnya
buka
bukaan
bukah
bukai
bukan
bukanlah
bukannya
bukhari
bukit
bukittinggi
bukti
buktinya
buku
bukunya
bukur
bula
bulak
bulan
bulanan
bulannya
bulat
bulatan
bulatn
buletin
bulgaria
bulih
bulik
buliknya
bulir
bull
bulletin
bullets
bulu
buluan
buluh
buluk
bulungan
bulunya
bulus
bulutangkis
bum
bumbu
bumbuan
bumi
bumiputera
bumn
bun
buncu
buncunya
bunda
bundar
bundaran
bunder
bundung
bung
bunga
bungai
bungas
bungin
bungkukan
bungkul
bungkusan
bunglon
bungsu
bungur
bungursari
bungus
bunker
buntar
buntok
buntu
buntut
buntutnya
bunuh
bunus
bunut
bunyi
bunyian
bunyinya
bunyu
bupati
bur
burden
bureau
buren
burger
buri
burinik
buriram
burit
burkain
burke
burkina
burlington
burma
burneh
burners
burnin
burning
burns
bursa
burton
buruan
buruh
buruk
burundi
burung
bury
bus
busa
busana
busang
bush
bushnell
business
busiris
buskerud
bust
busu
busuk
busur
but
buta
butar
butas
butenko
butes
buting
butingan
butir
butiran
butler
butte
butu
butuh
buya
buyut
by
byasa
byron
bytom
bærum
bø
bømlo
bœr
c
ca
cabai
cabang
cabangnya
cabgan
cabin
cabugao
cabul
cacah
cacahar
cacak
cacar
cacat
cache
cacing
cadangan
cadar
cadlao
caesar
cafe
cagar
cagaran
cagat
cagayan
cagdanao
cagla
cahaya
cahayanya
cahu
caicos
cair
cairan
cairo
cakang
cakar
cake
cakes
caket
cakra
cakram
cakrawala
cakru
cakungan
cakupan
cakupannya
cal
cala
calabagio
calah
calamus
calap
calayan
calcanei
calcaneus
caldwell
caledonia
calendar
calhoun
caliban
california
callisto
calne
calo
calon
calumet
calun
calung
calurit
calvin
calya
cam
camara
camarines
camat
cambria
cambridge
camden
came
cameo
cameron
camiguin
camilan
camilla
camp
campa
campaign
campak
campaka
campbell
campo
campos
campur
campuran
camuh
camus
can
canada
canadian
canahauan
canal
canas
canberra
cancang
cancer
candabirawa
candakiawan
candana
candi
candidate
candlemas
candy
cane
canggar
cangkal
cangkang
cangkaruk
cangkering
cangkih
cangkir
cangkriman
cangkuang
cangul
canipo
cannadine
cannon
cannot
canoe
canon
canopus
cantabile
canterbury
cantian
canton
cantung
canyon
canzoniere
cao
cap
capal
capat
cape
capita
capital
capitata
capitatum
capkala
capluk
captain
captiva
capung
car
cara
carabao
caramah
caramin
carang
caranya
carat
carbondale
carbu
cardcaptor
carducci
carey
cargo
cari
caribbean
carita
carl
carlisle
carlo
carlos
carlton
carmel
carmen
carmi
carol
carolina
carolus
carpi
carpus
carr
carritawisatacontent
carroll
carrollton
carry
cars
carta
carter
carterville
carthage
cartilaginea
cartoneros
cartoon
casa
casablanca
cascade
case
cash
cassini
cast
castellano
castello
castle
cat
catalogue
catanduanes
catatan
catch
categori
category
catfish
catherine
catholic
cattle
catur
catus
cauayan
caucasus
cauit
cauming
causa
causes
cave
cawapres
cay
caytonge
cbs
cbt
cbu
cc
ccg
cd
cdc
ce
cebu
cedar
cefiro
cekap
ceko
cekoslowakia
cekungan
celah
celebrating
cemara
cempaga
cempaka
cempedak
cendana
cendawan
cendekiawan
cenderawasih
cengkeh
census
cent
centaur
centauri
centaurs
center
centerville
central
centralia
centre
centro
centuries
century
ceo
cepat
ceramin
cerbon
cerdas
cerdik
ceremony
ceres
cerita
cermin
cerobong
cerpen
cerucuk
ceruk
cervicales
cervicalis
cet
cetak
cetakan
ceylon
cf
ch
cha
chachoengsao
chad
chagai
chai
chain
chaiya
chaiyaphum
chalid
challenge
chaloem
cham
chamaeleon
chameleon
champa
champions
championships
chan
chana
chandler
chandra
chandrayaan
chang
change
changing
channel
chanuyot
chao
chapel
chapman
chapter
char
characterization
charcot
chariklo
charles
charleston
charlotte
charoen
charon
chart
charter
chasser
chat
chaturanga
chau
chauvin
che
chechnya
cheers
cheese
cheesecake
chef
chekhov
chelsea
chemical
chen
cheng
chengdu
cheong
cher
cherokee
cheshire
chess
chester
chevalier
chevrolet
chhattisgarh
chi
chiang
chiba
chica
chicago
chicken
chico
chie
chief
child
chile
chili
chillicothe
chin
china
chinese
ching
chiquita
chiriqui
chiron
chiroptera
chita
chiyo
cho
chocolate
choi
chok
chola
chom
chon
chou
chris
christ
christiaan
christian
christianity
christiansholm
christie
christina
christine
christmas
christopher
christophorus
chronicle
chronolgies
chronology
chu
chubu
chul
chula
chum
chumphon
chun
chunchiu
church
churchill
chute
ci
cia
ciamis
cian
cianjur
cibeber
cibeunying
cibeureum
cibiru
cibuk
cicalengka
cicendo
cicero
ciciri
cidadap
cie
cihideung
cikal
cikancung
cikang
cikole
cilacap
cile
cilegon
cilengkrang
cileunyi
cili
cilik
cilodong
cimahi
cimanggis
cimarron
cimaung
cimenyan
cimicidae
cin
cina
cinambo
cincang
cincin
cindai
cinde
cinderella
cinema
cinere
cingulum
cinta
cintanya
cintapuri
cio
ciofi
cipadung
ciparay
cipari
cipayung
cipedes
cipinang
cipocok
cipta
ciptaan
ciptagelar
ciptaning
cirat
circ
circle
circleville
cirebon
ciri
cirinya
ciris
cis
cita
citak
citakan
citamiang
citangkil
citanya
citarum
cited
citeid
cites
cities
citing
citra
citrasena
citrus
city
citybike
civil
ciwandan
ciwidey
ckchen
cke
claim
claims
clair
clamp
clare
clarence
clarendon
clarias
clark
clarke
clarksdale
clarkson
clarksville
claro
class
classic
classical
classics
classroom
claude
claudia
clavicula
claviculae
clay
clayton
cle
clear
clearmont
clearwater
clementine
cleveland
clifton
climax
cline
clinical
clinton
clio
cliometrics
clock
cloud
clouded
clown
club
cluj
clyde
cm
cnn
co
coal
coast
coat
coatsworth
coba
coblong
coca
coccygis
cochran
cockfighting
cocle
coco
cocog
cocok
coconut
cocos
code
coede
coeli
coen
coendou
coeur
coffee
cogens
coggeshall
cohen
coherence
coke
cokelat
coklat
cola
cold
cole
coleman
coleoptera
colin
collected
collectie
collection
college
colliery
collins
collisional
collodi
colo
cologne
colombia
colonial
colony
color
colorado
columbia
columbus
columna
com
combustion
come
comedy
comenius
comes
comet
coming
commedia
comment
commentaries
commentary
commerce
commission
committee
common
commonly
commons
commonwealth
communication
communities
community
compa
compact
compagnie
companion
company
comparative
compatible
complete
completely
complex
composed
comprehension
comprehensive
compton
computer
con
conakry
conan
concepcio
concepcion
conception
concert
concha
conchae
concordia
condong
conference
confrontation
confronting
confucius
congkak
congress
connecticut
conrad
consell
conservation
constellation
constitution
constructions
consumer
consumption
containing
contemporary
content
continental
continue
continuum
conto
contoh
contohnya
control
controversy
convalecencia
convention
conventional
conversation
conway
cook
cookies
cooking
cool
coolidge
cooper
coordinated
coordinates
copyright
corak
coral
corbin
cork
corneille
cornelis
cornelius
cornell
corning
corolla
corona
coronal
coronavac
coronavirus
coronel
corpora
corporation
corps
corpus
corregidor
cos
cosa
cosmetics
costa
costae
costume
cot
cotatengah
cottage
cotter
cotton
cottonwood
coturnix
could
council
counties
countries
country
county
coupe
couple
cours
court
cov
cove
covers
covid
covington
cow
coward
cowboy
cows
cox
coxa
coxae
cr
craig
craigslist
crane
cranium
crassus
crater
crawford
crazy
cream
creative
crede
creek
creighton
crescent
creswell
cretaceous
crickets
crisis
cristo
critical
criticism
critics
critique
croatia
crocodile
croix
cromwell
crosby
cross
crown
crozet
cruiser
crus
crush
crusoe
crust
cruz
cry
crystal
cs
csa
cu
cuaca
cuba
cubewanos
cuboidea
cuboideum
cucak
cuci
cucu
cucubaan
cucuk
cucuku
cucumis
cucunya
cucurbitaceae
cuisine
cuk
cuka
cukai
cuklat
cukup
culas
culebra
culex
culicidae
cultural
culture
cuma
cumi
cuneiforme
cuneiformia
cungkup
cungul
cungulnya
cunningham
cunnington
cuntuh
cuntuhnya
cupak
cuping
cuplikan
cupu
curah
curak
curam
curiga
curing
curitan
curitiba
current
curtain
curtis
curug
cus
cushing
custard
customs
cut
cutbray
cuti
cuyo
cyber
cycle
cycloop
cylinder
cypress
cyril
cz
czarna
czo
d
da
daa
dabat
dabu
dabut
dabutnya
dada
dadahup
dadalang
dadanya
dadap
dadar
dadaunan
daddy
dadih
dadu
dae
daedalion
daedalus
daemones
daeng
daerah
daerahnya
daftar
dag
dagang
daging
dagingnya
dagli
dagu
dah
daha
dahai
dahal
dahan
dahi
dahian
dahinya
dahlan
dahsyat
dahtah
dahulu
dahulunya
dahuyan
dai
daihatsu
daikichi
daileader
daily
dairah
dairahnya
daisuke
dajah
dak
dakar
dakit
dakke
dakota
daku
dakuan
dakula
dakwah
dal
dalam
dalamnya
dalang
dalapan
dalas
dale
dalem
dalih
dalil
dalla
dallas
dalton
dalupiri
dam
damai
damak
daman
damang
damar
damaskus
dambung
dame
damel
dami
damia
damian
damikian
damini
damintu
damit
damiya
damokles
damon
dampak
dampaknya
dan
dana
danae
danang
dananjaya
danao
danau
danaus
danaw
dance
dancing
danda
dandam
dandang
dander
dane
dangan
dangdut
danger
dangerous
dangin
dangkal
dangkan
dangsanak
dangsanaknya
daniel
daniela
danoe
dans
dansa
dante
danum
danurejan
danville
danyut
dao
dapa
dapat
dapatan
daptar
dapur
daquit
dar
dara
darah
darahnya
darajat
daras
darasan
darat
daratan
daratnya
dardanus
dare
darfur
darham
dari
daring
dario
daripada
dark
darling
darma
darmaga
darmawan
darsono
darul
darurat
darussalam
darwin
das
dasami
dasar
dasarnya
dasawarsa
dasi
daskilus
daso
data
database
datah
datang
datangan
datangnya
datar
dataran
date
datik
dating
dato
datu
datuk
daud
daughter
dauh
dauk
daun
daunnya
daur
davao
dave
david
davidson
davis
davison
dawa
dawat
dawkins
dawson
day
daya
dayak
dayan
dayang
dayeuhkolot
days
dayton
daytona
dayung
dbd
dc
de
dea
dead
deadly
deadwood
dealer
dear
death
debat
debate
deborah
debre
debris
debu
debut
debutnya
dec
decameron
decatur
december
deception
declaration
dedai
dedaunan
deduktif
deep
deer
defence
definisi
definition
defri
dehidrasi
deianeira
deifobus
deifontes
deimakhus
deimos
deioneus
deipile
deipneus
deisma
deities
dek
dekade
dekan
dekanat
dekat
deket
deklarasi
deklinasi
del
delang
delano
delapan
delaware
deledda
delegasi
delfin
delft
delhi
deli
deliberatif
delima
dell
della
delle
dellwood
delphin
delphos
delta
deluxe
dem
demak
demam
demang
deme
demensia
dementia
demeter
demi
demikian
demikianlah
demo
democracy
democratic
demofon
demografi
demokrasi
demokrat
demokratik
demokratis
demonassa
demonike
demonstrasi
demos
den
dendam
dendang
dengan
dengue
denison
denmark
denominasi
denpasar
densitas
denton
denver
depa
depan
departemen
department
departments
depdikbud
dependen
dependensi
depkes
depok
deportasi
deposit
depresi
deputi
der
derajat
deral
deras
derawan
dermatitis
dermatologi
derogat
derogation
des
desa
desain
descartes
described
descrizioni
desember
desentralisasi
desentralistik
desert
design
deskripsi
deskriptif
desmond
despion
dessert
destroyed
detail
detailed
details
detective
detektif
detik
detrital
detroit
deui
deukalion
deungeun
deutsche
deutschen
deutscher
devanagari
development
developments
devil
devine
devon
devonian
dewa
dewan
dewanagari
dewantara
dewasa
dewata
dewi
dexamenus
dexter
dhaalu
dhabi
dhamma
dharma
dharmasetu
dhekunu
di
dia
diabadiakan
diabetes
diadaakan
diadakan
diadopsi
diagnosis
diagnostik
diagnusis
diagonal
diagram
diagunal
diajarakan
diajuakan
diajukan
diakhiri
diakibatakan
diakibatkan
diakses
diaku
diakui
dialamatakan
dialami
diale
dialect
dialek
dialihakan
dialihbasakan
dialihkeun
dialik
dialisat
dialisis
dializer
dialog
dialuk
diam
diambil
diameter
diameternya
diamitir
diamond
diampihakan
diampihi
diampuni
diampunnya
dian
diana
dianalisis
diandak
diandaki
dianggap
dianggapnya
dianggiti
dianggo
diangkat
diangkatnya
diangkut
dianjurakan
diantara
diantaranya
dianugarahi
dianugerahi
dianut
diaq
diarahkan
diardi
diario
diarsipkan
diarti
diartiakan
diartikan
diary
diasingakan
diatas
diatasi
diatur
diaturkannya
diawali
diawasi
diawitakan
dibabak
dibabat
dibaca
dibacai
dibagi
dibagiakan
dibahas
dibaiki
dibajak
dibakar
dibalah
dibalakang
dibalik
dibanam
dibanding
dibandingakan
dibandingkan
dibangun
dibantah
dibantu
dibantuk
dibantuknya
dibarakati
dibarasihakan
dibarasihi
dibari
dibariakan
dibarii
dibarikan
dibasa
dibasuh
dibatalkan
dibatasi
dibawa
dibawaakan
dibawah
dibawai
dibawanya
dibayangakan
dibayar
dibedaakan
dibedakan
dibentuk
diberi
diberikan
dibiarakan
dibiarkan
dibiayai
dibibasakan
dibibit
dibida
dibidakan
dibimbing
dibina
dibintangi
dibongkar
dibuahi
dibuang
dibuat
dibubarakan
dibubarkan
dibudidaya
dibudidayakan
dibujurakan
dibuka
dibuktiakan
dibukuakan
dibulih
dibulihakan
dibulikakan
dibumbui
dibungkus
dibunuh
dibunuhnya
diburu
dibutuhkan
dicabut
dicalunakan
dicambuk
dicampur
dicampurakan
dicampuri
dicanangakan
dicantumakan
dicapai
dicaprio
dicari
dicat
dicatat
dicatuk
dicatusakan
dicegah
dicekel
diceritakan
dicetak
dicintai
dicipta
diciptaakan
diciptakan
dicirikan
dicitak
dick
dictionary
dicuba
dicucukkan
diculik
diculupakan
dicungulakan
dicuntan
dicurigai
did
didalam
didalamnya
didamel
didanai
didangani
didapat
didapatakan
didapatakannya
didapati
didapatkan
didaptarakan
didasarakan
didasari
didasarkan
didatangakan
didatangi
didatangkan
dideduksi
didefinisikan
dideteksi
didi
didiami
didik
didinginakan
didiri
didiriakan
didiriakannya
didirikan
didominasi
didorong
didudus
diduga
didukung
diduminasi
die
diego
diejawantahkan
dieksekusi
diekstrak
dies
diesel
diet
dietrich
dieu
diferensiasi
difermentasikan
diftong
digabung
digabungakan
digabungkan
digaduh
digalar
digalari
digambar
digambarakan
digambari
digambarkan
digana
diganai
diganalakan
diganali
diganayi
diganggu
digani
diganti
digantiaakan
digantiakan
digantikan
digantung
digantungakan
digarakakan
digarumbungakan
digasak
digawi
digawiakan
digawinya
digiling
digimon
digit
digital
digolongakan
digolongkan
digosok
digugurakan
digulung
digulungakan
diguna
digunaakan
digunakan
digurakakan
dihabarakan
dihabisakan
dihadang
dihadap
dihadapi
dihadapinya
dihadiri
dihaga
dihagai
dihalatakan
dihambin
dihamburi
dihancur
dihancurakan
dihandaki
dihanyari
dihapus
dihapusakan
diharagu
diharamakan
diharapakan
diharapkan
dihargai
diharu
diharungi
diharusakan
dihasilakan
dihasilakannya
dihasilkan
dihasilkeun
diherani
dihias
dihiasi
dihibaki
dihibakii
dihidupakan
dihiga
dihija
dihilangakan
dihimpun
dihindari
dihiris
dihisap
dihitung
dihormati
dihualakan
dihubungakan
dihubungkan
dihukum
dihuni
dihurmati
diidentifikasi
diigut
diikat
diikuti
diilhami
diilustrasiakan
diimpor
diingat
diingatakan
diingkuti
diingu
diinya
diiringi
diisi
diislamkan
diithi
diitih
diitihi
diizinkan
dijabarakan
dijabarkan
dijabat
dijadi
dijadiakan
dijadikan
dijadwalakan
dijadwalkan
dijaga
dijahit
dijajah
dijalanakan
dijalasakan
dijamin
dijamur
dijanak
dijanaki
dijangkau
dijangkitakan
dijapai
dijarang
dijauhi
dijelaskan
dijual
dijuhut
dijuluki
dijulung
dijumpai
dijumput
dikacaukan
dikaduakan
dikahandaki
dikahigaakan
dikaiosyne
dikaitakan
dikaitkan
dikaji
dikalahkan
dikalasipikasiakan
dikalasnya
dikalilingi
dikaluarakan
dikaluarakannya
dikaluarkannya
dikalumpukakan
dikambangakan
dikambangkan
dikamukaakan
dikanal
dikanali
dikapalai
dikapit
dikapung
dikaranakan
dikarang
dikaringakan
dikatahuani
dikatahui
dikatakan
dikatam
dikategori
dikategorikan
dikatuhai
dikatuju
dikatujui
dikawani
dikawinakan
dike
dikelilingi
dikelola
dikelompokkan
dikembangkan
dikenakan
dikenal
dikenali
dikenalnya
diketahui
diki
dikiau
dikiaw
dikikira
dikikiraakan
dikinum
dikira
dikiraakan
dikirim
dikisahakan
dikiyau
diklaim
diklasifikasi
diklasifikasiakan
diklasifikasikan
diklasipikasikan
diklat
dikonsumsi
dikontrak
dikritik
diksi
diktator
diktis
dikuasai
dikuati
dikubur
dikuburakan
dikudak
dikukus
dikulih
dikulihakan
dikulihi
dikulilingi
dikumandangakan
dikumpulakan
dikuncangkan
dikunjungi
dikurangi
dikurung
dikutip
dikutuk
dikuya
dikuyak
dilacak
dilaga
dilahirakan
dilainakan
dilajari
dilaksana
dilaksanaakan
dilaksanakan
dilakuakan
dilakukan
dilakukeun
dilalui
dilanda
dilandasakan
dilandasi
dilang
dilangkapi
dilanjutakan
dilanjutkan
dilantik
dilapas
dilapasakan
dilapisi
dilaporakan
dilaporkan
dilapurakan
dilarang
dilatih
dilebur
dilema
dilempar
dilengkapi
dilepaskan
dilestariakan
diletakkan
dili
diliat
dilihat
dilihati
dilihatnya
dilindungi
dilipat
dilisanakan
dillon
diluar
diluasi
dilukis
dilumpuhkan
diluncurakan
diluncurkan
dilungsurakan
dimainakan
dimainkan
dimakamakan
dimakamkan
dimakan
dimakarakan
dimaksud
dimaksudakan
dimaksut
dimaksutakan
dimana
dimanangakan
dimanapaatakan
dimanfaatakan
dimanfaatkan
dimangarti
dimangsa
dimanpaatakan
dimapa
dimapaatkan
dimarga
dimargaakan
dimasa
dimasak
dimasuk
dimasukakan
dimasuki
dimasyhurkan
dimengerti
dimensi
dimiliki
dimimitian
diminsi
diminta
diminum
dimodifikasi
dimuari
dimuat
dimukrasi
dimukratis
dimula
dimulai
dimulainya
dimumuri
dimusnahkan
din
dina
dinagat
dinamai
dinamakan
dinamika
dinamis
dinantiakan
dinar
dinas
dinasti
dinding
ding
dingaranakan
dingarani
dingatani
dingin
dingsanak
dingsanaknya
dini
dinikmati
dinilai
dinis
dinobatakan
dinobatkan
dinosaurus
dinten
dinyanyiakan
dinyata
dinyataakan
dinyatakan
diobservasi
dioksida
diolah
diomedes
dionisos
dioperasikan
diores
diorganisasi
dios
dioskouri
dioskuri
dipa
dipacah
dipacahakan
dipacul
dipadahakan
dipadahkan
dipahami
dipakai
dipakaiakan
dipakainya
dipaksa
dipaksin
dipalajari
dipalu
dipanandui
dipanasakan
dipanaskan
dipancarakan
dipandalakan
dipandang
dipandirakan
dipandu
dipanen
dipangapiti
dipangaruhi
dipanggang
dipanggil
dipanjara
diparah
diparaja
diparak
diparaknya
diparamas
diparanakakan
diparangi
diparantarai
diparcaya
diparcayai
dipariksa
diparingati
diparintah
diparintahakan
diparisterikan
diparkira
diparkiraakan
diparkirakan
diparlangkapi
diparlu
diparluakan
diparlukan
diparoduksi
diparsalin
diparsalinnya
dipartahanakan
dipartimbangakan
diparuduksi
diparulih
dipasang
dipasangi
dipasarakan
dipastiakan
dipastikan
dipatak
dipate
dipati
dipatuh
dipatuhakan
dipatuhi
dipavamsa
dipe
dipegang
dipelajari
dipelihara
dipeluk
dipendakan
dipengaruhi
dipercaya
dipercayai
diperdebatkan
dipergunaakan
diperingati
diperintah
diperkenalkan
diperkirakan
diperkirakeun
diperluakan
diperoleh
dipertentangkan
diperyogikeun
dipetakan
dipicu
dipikahoyong
dipikirkan
dipilah
dipilih
dipilihnya
dipimpin
dipinadui
dipinandu
dipinanduakan
dipinandui
dipinanduwi
dipindahakan
dipingkut
dipingkuti
dipinisi
dipinjam
dipisahakan
dipisi
diploid
diplomasi
diplomat
diplomatic
diplomatik
diplumatik
dipol
dipolod
diponegoro
dipotong
diprakarsai
dipraktikakan
diproduksi
diproklamasiakan
diproses
dipruduksi
diprumusiakan
diprusis
diptera
dipublikasi
dipublikasiakan
dipuja
dipuji
dipukuli
dipupuh
dipuruk
dipurukakan
diputar
diputik
dirabut
dirabuti
diraguakan
dirahati
diraih
diraitakan
dirakit
dirampas
diranakakan
diranakan
dirancanaakan
dirancang
dirandam
dirangkap
dirasa
dirasaakan
dirasmi
dirasmiakan
dirasuk
diratifikasi
dirawat
dirayaakan
dirayakan
dire
direct
direction
directory
direklasifikasi
direktorat
direktori
direktur
direngsekeun
direstorasi
dirgantara
diri
diriakan
dirigen
diriktur
dirilis
dirinya
diriwayatkan
dirke
dirucauakan
dirujuk
dirumusakan
dirung
dirusak
dis
disa
disababakan
disababkan
disababkeun
disabarakan
disabilitas
disabut
disadari
disadia
disadiaakan
disadiakan
disahakan
disahkan
disain
disajajarakan
disaji
disajiakan
disajikan
disaksiakan
disakulilingnya
disalah
disalamatakan
disalanggara
disalanggaraakan
disalanggarakan
disalimputi
disalukut
disalurakan
disama
disamaakan
disambat
disambatakan
disambung
disambungakan
disambut
disampaiakan
disampaikan
disamping
disana
disandarakan
disanga
disangaja
disangka
disapakati
disappearance
disapu
disapunsuri
disarahkan
disaranakan
disarang
disarap
disarbu
disarihakan
disaring
disartai
disaru
disasuaiakan
disasuaikan
disatuakan
disatujuan
disatujui
disayogikeun
disbelief
disbelieve
disc
discipline
disco
discovering
discovery
disease
diseases
disebabakan
disebabkan
disebarkan
disebarkeun
disebut
diseconomy
disediakan
diselamatkan
diseleksi
diserahkan
disertasi
disewa
disiapakan
disiarakan
disiarkan
disiksa
disimber
disimbir
disimbur
disimpan
disimpani
disimpulakan
disinfe
disingkat
disini
disinilah
disiplin
disita
diskak
diskografi
diskouri
diskriminasi
diskripsi
diskusi
disney
disnomia
distal
distales
distalis
distance
distancing
distilasi
distinction
distorted
distribusi
distribution
distributor
district
distrik
disubalah
disukai
disulat
disumap
disumbalih
disunahakan
disuruh
disurung
disurungakan
disusul
disusun
disutradarai
disuuki
ditabuh
ditabuk
ditagakakan
ditagasakan
ditagasi
ditahan
ditahani
ditahun
ditajak
ditakdirkeun
ditaklukakan
ditakuti
ditaliti
ditambah
ditambahakan
ditambahi
ditambahkan
ditambai
ditambang
ditampai
ditampaiakan
ditampatakan
ditampilakan
ditampilkan
ditampuh
ditamu
ditamuakan
ditamui
ditamukan
ditamuni
ditanam
ditandai
ditandatangani
ditandatanganinya
ditanding
ditangah
ditangani
ditangat
ditangati
ditangkap
ditantang
ditanting
ditantu
ditantuakan
ditantukan
ditapas
ditarabangakan
ditarabitakan
ditarajang
ditarangi
ditarapakan
ditarbitakan
ditarbitkan
ditarik
ditarima
ditarimanya
ditarjamahakan
ditaruh
ditarusakan
ditata
ditatak
ditatapakan
ditatapkan
ditawaki
ditawan
ditawarakan
ditawari
ditayangakan
dite
ditempuh
ditemui
ditemukan
ditentukan
diterapkan
diterbitakan
diterbitkan
diterima
diterjemahkan
ditetapkan
ditikasi
ditikin
ditikinakan
ditimbai
ditimbak
ditimbulakan
ditinggal
ditinggalakan
ditinggalkan
ditingkat
ditingkatakan
ditinjau
ditiring
ditiup
ditolak
ditor
dituang
dituangakan
dituduh
ditugasakan
ditugasi
dituju
ditujuakan
ditujukan
ditukar
ditukup
ditukupi
ditulak
ditulis
ditulisakan
ditulisi
dituliskan
ditumbuhi
ditumbuk
ditumpuk
ditunda
ditunjuk
ditunjukakan
ditunjul
dituntun
dituntungakan
dituntut
dituraiakan
diturunakan
diturunkan
ditutup
ditutupi
dituturakan
diubah
diubar
diubati
diucapakan
diucapkan
diudara
diugah
diugahakan
diujaki
diujarakan
diuji
diukir
diukur
diulah
diulahakan
diulahnya
diulai
diulang
diumpatakan
diumpati
diumumakan
diumumkan
diundang
diunjuk
diunjuki
diuparasiakan
diurak
diurapi
diurus
diurutakan
dius
diusulakan
diusung
diutus
diuyahi
diva
divehi
diversity
divina
divine
diving
divisi
divisible
division
divisions
diwa
diwaca
diwadahi
diwahyuakan
diwajibakan
diwajibkan
diwajipakan
diwakili
diwalangi
diwalangiakan
diwan
diwarisakan
diwarisi
diwarnai
diwasa
diwatasi
diwawancarai
diwi
diwigasakan
diwujudakan
dixon
diyakini
dj
djaija
djaja
djantera
djazouly
djebar
djibouti
djoea
djoened
djuanda
dk
dki
dkk
dll
dlwan
dna
do
doa
dobra
dobriy
dobrzyn
doc
dock
doctor
doctrine
document
documents
dodge
dodol
doellah
doesn
dog
dogs
doha
dohong
doi
dok
dokter
doktor
doktrin
dokume
dokumen
dokumentasi
dokumenter
dolar
dolius
dolny
dolon
dolos
domain
domba
domestica
domesticus
domestik
domet
dominan
dominance
dominasi
domini
dominika
domu
don
dona
donald
dondang
dong
dongeng
donggala
donia
donna
donnelly
door
doppo
dorado
doraemon
doran
doris
dorman
dorong
dorothy
dorsal
dorus
dos
dosa
dosen
dosouk
dot
douala
double
doubleday
douglas
dougou
dover
down
dpd
dpl
dpr
dprd
dr
draft
drag
dragon
dragons
drainase
drajat
drake
drama
dramatis
dramawan
drammen
drange
drastis
dravida
dread
dream
dreams
dresden
dress
dretarastra
drew
driad
dried
drink
dristi
drive
drona
drop
dropadi
droplet
dropout
drs
drug
druk
drum
drummer
drupada
dry
dryope
dsb
du
dua
dualitas
duawalas
dubai
dublin
dubois
dudi
dudinya
dudley
duduk
dudukan
duduki
duel
dugaan
dugi
dugul
duha
duit
duka
duke
dukkha
duktur
duku
dukuh
dukumentasi
dukumin
dukumintasi
dukumintir
dukun
dukung
dukungan
dulah
dulcis
dulu
dulunya
dumai
dumas
dumba
duminan
duminasi
dumistik
dumont
dun
duncan
dundam
dundee
dunging
dungun
dunia
duniawi
dunya
duo
duquesne
dur
durait
durant
durei
durgapur
durham
duri
durian
during
durinya
durio
duryodana
duryodhana
dusa
dusin
dustaan
dusun
duta
dutanya
dutch
duwa
duyu
dvd
dwaraka
dwarf
dwi
dwight
dwo
dysnomia
dz
dziszo
dzki
dzulhijjah
dønna
dɛ
e
eagle
ean
earhart
earl
earliest
early
earring
earth
east
eastern
easton
eat
eating
eba
ec
eceran
echigo
echo
eco
ecology
economic
economist
ecuador
ed
eddie
eddy
eden
edensor
edgar
edge
edgerton
edgewood
edi
ediciones
edina
edirne
edisi
edison
edited
edition
editor
edm
edmond
edmunds
edna
edo
eds
edu
eduard
education
educational
eduksi
edvard
edward
edwin
een
eetion
efek
efektif
efemeris
effect
effective
effects
effendi
effendie
effendy
efi
efisien
efisiensi
efrata
efreisone
egg
egypt
ehsan
eide
eidothea
eidyia
eiffel
eiji
eiker
eileithyia
ein
einar
einde
einstein
eirene
eisbein
eisenhower
eivissa
ejaan
ejection
ejekan
ejektor
ek
eka
ekekheiria
ekhemus
ekhetus
ekhion
ekivalen
eklesia
ekliptika
eko
ekologi
ekonom
ekonomi
ekonomis
ekor
ekosistem
ekosistim
eksekutif
eksentrisitas
ekshibisi
eksistensi
eksistensial
eksistensialis
eksistensialisme
eksklave
eksklusif
ekspansi
ekspedisi
eksperimen
eksplisit
eksploitasi
eksplosi
eksplosif
ekspor
ekspresi
ekspresionisme
ekstensif
eksterior
eksterna
ekstra
ekstrem
ekuator
ekuestrian
ekuinoks
el
elaine
elam
elamite
elang
elantra
elatus
elbow
elder
eldon
eldorado
elefenor
eleius
elektra
elektrolisis
elektron
elektronegatif
elektronik
elektryon
elemen
eleos
elephant
elephants
eleusis
eleven
elgin
elgrand
elie
elimus
elips
elipsoid
eliptis
elit
elite
elizabeth
elk
elkton
ella
elliott
ellisville
ellsworth
elmer
elmo
elnesva
elo
elongasi
elpenor
elpis
else
elton
elvestad
ely
elysium
em
email
emanuel
emas
embaloh
ember
embrio
embun
emi
emily
emirat
emisi
emma
emmanuel
emmy
emo
emon
emory
emosi
emoto
empaka
empangau
empas
empat
empire
empoto
empu
empunya
empusa
emtek
en
enam
enceladus
encyclopaedia
encyclopedia
encyclopædia
end
endah
endang
endangered
endapan
ende
endeis
endemik
endemis
endgame
endimion
endo
endoglossic
enembe
energi
energy
eng
engagement
engan
engau
engels
engine
engke
engkurai
england
english
eni
enklave
ensiklopedi
ensiklopedia
entebah
enterprise
entertainment
entikong
entitas
entomologi
entri
entry
environment
environmental
enyalius
enyo
enzim
eo
eon
eonycteris
eos
eosen
eosforus
ep
epafus
epat
epeius
epek
epiales
epidaurus
epidemi
epidemiologi
epifani
epifron
epigrafi
epik
epikasta
epimeliad
epione
episode
epistemologis
epitel
epoch
epochen
epopeus
epos
epsilon
equatorial
equine
equus
er
era
erat
erbsensuppe
erebus
erekhtheus
erginus
eric
erich
eridani
erifile
erik
erikhthonius
eriko
erinyes
eris
eritrea
erivan
ernest
ernst
eropa
eros
erosentrisme
erotes
error
erupsi
eruption
erwin
es
esa
esai
escape
eschenbach
esculenta
esensi
esensial
esnya
eso
esofagus
esok
espace
espan
espass
esperanto
esports
essai
essays
essence
essential
essex
est
establishment
estate
estates
estetica
estetika
estetis
estonia
estrangela
eswatini
et
eta
etam
eteokles
eternal
ethiopia
ethmoidale
ethnic
ethnologue
etik
etika
etimologi
etiopia
etis
etmoid
etna
etnik
etnis
etnisitas
etnografi
etnolinguistik
etologi
eu
euclid
eufeme
eufemisme
eufrosine
euge
eugene
eugenio
euis
eukleia
eula
eulalie
eumaeus
eumelus
eun
eunomia
eunostus
euphorbiaceae
eurasia
eureka
euribia
eurikleia
eurilokhus
eurimakhus
euripilus
euristheus
eurition
euritus
euro
europa
europe
european
eurotas
eurus
euryale
euryalus
eusebeia
euthenia
euthyphro
eva
evans
evaporit
evening
events
ever
everest
everton
every
everything
evidence
evil
evje
evo
evolusi
evolusioner
evolutif
evolution
evolving
ewing
example
examples
excel
excelsior
excluidos
exil
existence
existential
exodus
experiences
exploration
explorer
expo
export
exposition
exposure
express
extensive
extra
extracellular
extrasolar
eye
eyes
eyof
ez
f
fa
fab
fabaceae
fabula
fabulous
facebook
facelift
fachrudin
facio
fact
factbook
facto
factor
facts
fadly
faenon
faethon
fagosit
fahmi
fahmy
fair
fairbanks
fairfax
fairfield
fairview
fairy
faith
fajar
fak
fakes
faksi
fakta
faktor
faktur
fakultas
falah
falak
falang
falcon
fall
fallon
falls
fame
famili
familia
familiar
family
fan
fana
fanerozoikum
fang
fantasi
fantasos
fao
faqih
far
farber
farid
farisi
farma
farmasi
farmington
farrell
farsi
fasa
fase
fashion
fasih
fasilitas
fasis
faso
fat
fate
fatehabad
fatehpur
fatimah
fatmawati
fatt
fatwa
fauna
fauzi
favorit
fayette
fc
fda
fe
feat
feb
februari
february
federal
federasi
federation
federweisser
feeding
fegeus
fei
felidae
felipe
felis
felix
female
feme
feminin
feminis
feminism
femmes
femora
femur
fenisia
fenomena
fenton
feodalisme
ferdinand
ferguson
feri
fermentasi
fernan
fernando
ferrari
ferris
ferry
fertilisasi
festival
feuerbach
feuerbachfeuerbach
ff
ffp
fi
fiba
fiber
fibula
fibulae
fiction
fide
fidel
fie
field
fields
fiesta
fifa
fight
fighter
figur
figure
figures
fiji
fikih
fiksi
fiktif
filariasis
file
filemon
filepath
files
fileus
filipina
fillmore
film
filmografi
films
filofrosine
filoktetes
filologi
filosofi
filosofis
filotes
filsafat
filsuf
filter
final
finalis
finance
financial
finca
finding
finds
fine
fineas
fineus
finisi
finkenwerder
finlandia
finn
finnmark
finnøy
fiqh
fiqih
firaun
firdaus
fire
fireball
firenze
firma
firman
first
fischer
fish
fishbase
fishbed
fisher
fishes
fisi
fisik
fisika
fisikalisma
fisikawan
fisiologi
fitri
fitur
fitzpatrick
five
fixed
fiyah
fjord
fjordane
fkip
fla
flag
flame
flap
flares
flash
flat
fle
flegethon
fleksibel
fleming
fletcher
flight
flint
flora
florence
flores
florida
floris
flower
flowers
floyd
flu
flue
fluida
flushing
fluvial
fly
flying
fm
fo
fobetor
fobos
focus
foenix
foibe
fokus
foley
folk
folklor
fonasi
fondasi
fonem
fonetik
fonik
fonoi
fonologi
food
foodfromgermany
fool
footage
for
forbes
force
forces
ford
foreign
forensik
forest
forget
fork
forkis
forma
formal
formasi
format
formation
formentera
former
formula
formulasi
forsyth
fort
fortune
fortuner
forum
foscolo
fosen
fosfor
fosil
fossil
fossils
foto
fotodisosiasi
fotografer
fotografi
fotosintesis
foucault
found
foundation
foundations
fountain
fountains
four
fox
fr
frac
fragmen
fraksi
fraksional
fraktur
frame
frameless
franc
franca
france
francesco
francia
francis
francisco
francois
francorum
frank
frankfort
frankfurt
frankfurter
franklin
franks
fransisco
fransiskan
franz
frasa
frase
fraser
fre
fred
frederic
frederich
frederick
fredericksburg
frederik
free
freedom
freeman
freeport
freewheel
freezing
fremont
french
fresh
freshwater
freud
friday
fried
friedrich
friend
friends
friendship
frigia
frigian
frike
friksi
fritz
frixus
from
frommers
front
frontal
frontale
frontenac
fru
fruit
fruitland
fruits
fræna
frøya
ft
ftonus
ftp
fu
fuel
fuga
fujairah
fuji
fujiko
fujio
fujisawa
fujita
fujiwara
fuku
fukuda
fukui
fukushima
fuli
full
fulton
fumiko
fumimaro
fumizuki
fundamental
fungi
fungsi
fungsinya
fungsional
fungsionalisme
furber
furfural
fushigi
fusi
futabatei
futurum
fx
fylke
førde
g
ga
gaafu
gabah
gabang
gabe
gabek
gabon
gabriel
gabriele
gabung
gabungan
gabus
gada
gadang
gading
gadis
gadjah
gado
gaduhan
gadung
gadungsalat
gadur
gaga
gagabungan
gagak
gagal
gagalungan
gagaman
gagasan
gagat
gagatas
gagawian
gagayaan
gagunungan
gaharu
gaia
gaib
gainesville
gair
gairah
gaius
gajah
gajala
gajalanya
gajih
gal
gala
galagah
galaganjur
galai
galaksi
galambang
galambung
galang
galangan
galapung
galar
galaran
galas
galdikas
gale
galena
galene
galeri
galia
galigo
galilean
galilei
galileo
galing
galis
galiung
gallait
gallery
gallipoli
gallus
galt
galubal
galuh
galumbang
galumuk
galung
galungsur
galur
galva
gama
gamalan
gambah
gambala
gambang
gambar
gambaran
gambarnya
gambia
gambut
game
gamelan
games
gamma
gampa
gampang
gampir
gampiran
gampirannya
gana
ganak
ganal
ganalan
ganalnya
ganap
ganarasi
gancang
ganda
gandang
gandhi
gandiwa
gandrung
gandum
gang
gangan
gangga
gangguan
gangsa
gangsing
gangsingan
gani
ganie
ganimede
ganja
ganjang
ganjil
gansing
gantang
ganti
ganting
gantinya
gantung
ganymede
gao
gapas
gapura
gara
garaha
garak
garakan
garam
garapitasi
garasi
garasik
garatis
garbang
garci
gard
garden
gardens
gardiner
gare
gareja
gareng
garfield
gargantua
garhana
garih
garija
garijawi
garilya
garing
garis
garland
garner
garong
garpu
garubak
garuda
garuhang
garumbung
garumbungan
garunggang
garut
gary
gas
gasa
gasam
gasan
gases
gasib
gasifikasi
gasin
gasing
gastropoda
gatah
gatal
gataran
gate
gates
gatif
gato
gatot
gauge
gaul
gaulle
gaun
gaung
gautama
gawang
gawe
gawi
gawian
gawiannya
gawinya
gay
gaya
gayam
gaylord
gayung
gayungan
gayus
gaza
gazal
gazali
gazetteer
gdan
gdp
ge
gear
gebang
gede
gedebage
gedhe
gedong
gedongtengen
gedung
gees
gegenwart
geger
geisel
gejala
gelang
gelanggang
gelap
gelapung
gelar
gelarnya
gelata
gelembongan
gelik
gelombang
gelung
gema
gemar
gembala
gembara
gemeente
gemelan
gemini
gempa
gemuruh
gen
gencatan
gendang
gender
gendering
gendhing
gene
genep
genera
generaal
general
generale
generally
generasi
generatif
generation
generik
genesis
genetic
genetik
genetika
genetis
geneva
genitif
genius
genji
genom
genosida
genre
genres
genteng
genting
genus
geo
geodinamo
geoffrey
geofisika
geografi
geografis
geografisnya
geographic
geographical
geography
geograpi
geokimia
geologi
geologinya
geologis
geologisnya
geology
geomagnetik
geomagnetis
geometri
geometris
geophysical
geopolitik
geordie
georg
george
georges
georgetown
georgia
ger
gerak
gerakan
gerald
gerard
geras
gerbang
gere
gereja
gerhana
gerhard
gerilya
gerindra
german
germany
gerogol
geronggang
gersang
gerunggang
geschichte
gesekan
get
getah
geun
geyser
ghaib
ghana
ghani
ghost
ghoul
gi
gia
gianni
giant
gibb
gibbon
gibson
gide
gie
gifu
gigantes
giganteus
gigi
gigis
giji
gil
gila
gilbert
gildeska
giles
gili
giliran
gilirannya
gillespie
gilman
gim
gimnospermae
gin
ginalun
gincu
gini
ginirasi
ginitik
ginjal
ginsberg
ginting
gioconda
gional
giosue
giovanni
gioventu
gipih
gipsum
gir
girard
giri
girimaya
girl
girls
giroskopik
gisikan
gislatip
gita
gitaan
gitar
gitaris
giugrapi
giugrapis
giulugi
giuseppe
give
given
giza
gizi
gje
gjøvik
gladiator
gladstone
glagah
glasgow
glasial
glass
glaukus
glen
glendale
glenn
glenwood
gletser
gli
glif
global
globe
glomerulus
glosarium
glossary
glosserman
glukosa
gm
gmt
gn
gnu
go
goa
gobel
god
godard
goddess
godot
gods
godwin
goethe
gogh
gohong
going
gold
golden
goldstein
golf
golkar
golongan
goloŋan
goncourt
gondang
gondokusuman
gondomanan
gone
gong
gonjong
gonol
good
google
gootenberg
gor
gordon
goreng
gorgon
gorontalo
gorzo
gosho
gosong
gospel
gospels
got
gotama
goth
goto
gotong
gouging
gourmet
gouverneur
gov
gove
governing
government
gowa
gp
gps
gr
grace
gradasi
grade
graeae
graeme
grafi
grafik
grafika
grafis
grafologi
grafton
graha
graham
grahi
gram
gramatika
gramatikal
gramedia
grammar
grammy
gran
granatstein
grand
grande
grandmaster
grandview
grange
granit
granite
grant
grapesda
grasindo
grass
grate
gratis
graveolens
gravida
gravitasi
gravitasinya
gray
grazia
great
greatest
greece
greek
green
greenfield
greenland
greenleaf
greenville
greenwich
greenwood
gregorian
gregorius
gregory
grenada
grenadines
gresik
griffin
griffith
grill
grimaldi
grimm
gro
grodzisk
grogot
groningen
groninger
grossmu
ground
grounds
group
groups
grove
groves
gru
grundrechte
grunt
grup
gssp
gt
gu
gua
guadeloupe
guangdong
guardian
guatemala
gubahan
gubang
gubeng
gubernur
guci
gucken
gucuh
gudalur
gudang
gue
guernica
guest
gugal
gugup
gugur
gugurnya
gugus
gugusan
guha
guhung
guide
guindacpan
guinea
guinness
guintungauan
guizhou
gujarat
gul
gula
gulaan
gulanya
gulat
gulma
gulu
gulungan
gulunya
gumbili
gumpal
gumpalan
guna
gunakan
gunanya
gunarto
gunasekara
gunawan
gundam
gundik
gundul
gung
gunma
guns
guntao
guntung
guntur
gunung
gunungpuyuh
gunungsitoli
guo
gurak
gurami
gurindam
guring
guru
gurun
gurung
gus
gusang
gusip
gustave
gusti
gutenberg
guy
guyana
gyo
gypsum
głogo
h
ha
haa
haag
haakon
haba
habad
habang
habangan
habangnya
habaon
habar
habarnya
habasy
habib
habibie
habirau
habis
habisnya
habitat
habitatnya
habitus
habsyi
habu
habuk
hacil
hackett
had
hada
hadang
hadangan
hadap
hadapan
hadapannya
hadat
hades
hadhramaut
hadi
hadiah
hadijah
hadir
hadis
hadits
hadjar
hadramaut
hadupan
hadupannya
haemon
haga
hagama
hagan
hagar
hagemann
hagian
hahanyaran
hai
haik
haikai
haiku
haines
hairul
haiti
haitsam
haja
hajar
hajatan
hajdu
haji
hajimeru
hak
hakan
hakau
hakhir
hakikat
hakikatnya
hakim
hakka
haknya
hakun
hal
halabiu
halai
halalang
halam
halaman
halamannya
halan
halang
halangan
halapat
halar
halat
halau
halden
hale
half
halfway
halian
halilintar
halim
halimah
halimun
halit
halite
hall
halle
hallsville
halnya
halo
halong
haloq
haluan
halubau
halukum
halung
halus
halusinasi
halusnya
ham
hama
hamadryad
hamak
hamami
hamar
hamarøy
hamata
hamatum
hamawang
hamba
hambal
hambanya
hambar
hambatan
hambawang
hambaya
hambuku
hamburan
hamburg
hamengkubuwana
hamid
hamidhan
hamidullah
hamil
hamilton
hamka
hammond
hammurabi
hampa
hampai
hampang
hamparan
hampatung
hampau
hampay
hampir
hampiran
hampton
hampul
hamputung
hamtaro
hamzah
han
hana
hanacaraka
hanafiah
hanau
hanaut
hanaw
hancap
hancapan
hancinema
hancock
hancur
hancurnya
hand
handa
handak
handap
handbook
handil
handler
hang
hangat
hanggan
hangit
hangover
hangsana
hangul
hani
hanja
hanley
hanoman
hans
hansen
hanta
hantakan
hantalu
hantam
hantapang
hantara
hantu
hantupan
hanura
hanya
hanyalah
hanyar
hanyaran
hanyarnya
hanyut
hanzi
hapat
hapatan
hapip
haplur
happiness
happy
har
hara
harafiah
haraga
haraganya
haram
harang
harapan
harat
harata
haratai
haratam
haratan
haratnya
harbor
harbour
harcourt
hard
hardin
hardy
harfiah
harga
harganja
harganya
hari
harian
harimau
harimaw
harinya
harit
harjamukti
harlem
harley
harmonia
harmony
harmuni
harold
harowu
harper
harpiah
harpokrates
harpy
harris
harrisburg
harrison
harry
hart
harta
hartanya
hartford
harto
hartono
hartville
haru
haruai
haruan
haruhi
haruk
harum
harun
harus
harusan
haruslah
harusnya
haruyan
harvard
harvey
has
hasal
hasan
hasanuddin
hasegawa
hashimoto
hasib
hasil
hasilna
hasilnya
hasis
hasnuryadi
hasrat
hassan
hasta
hastinapura
hastings
hasyim
hat
hatan
hatap
hatapnya
hatas
hataw
hatchback
hati
hatian
hatiku
hatinya
hats
hatta
hattori
hatung
hatungun
haul
haumea
haur
hauri
haus
have
havelaar
haven
having
hawa
hawaii
hawal
hawk
hawking
hayalan
hayam
hayao
hayat
hayati
hayden
hayes
hayq
hayti
hayu
hayworth
hb
hcov
hd
he
hea
head
health
heart
heath
heaven
heavy
hebe
hebron
hedilogos
hedmark
hedone
hee
hefaestus
hegemoni
hegemony
hei
heian
height
heights
heike
heinrich
hekaerge
hekate
hekaterus
hektor
hekuba
hel
helen
helena
helenus
helge
helikon
heliopause
helios
heliosfer
heliosheath
heliospheric
helium
helix
hell
helle
hello
helm
helmut
help
hemera
hemibagrus
hemiptera
hemisfer
hemithea
hemodialisis
hemphill
hendak
hendaknya
hendep
henderson
hendrick
hendrik
hendro
henri
henrietta
henrik
henrique
henry
hentaigana
henteu
hepburn
her
hera
herakles
heran
herat
herbal
herbert
herbivora
herder
here
hereford
heritage
hermafrodit
hermafroditisme
hermafroditus
herman
hermana
hermann
hermanos
hermansyah
hermaon
hermes
hermione
hermitage
herode
herodes
herodotus
heroes
herpes
herring
herschel
herse
herzegovina
hesperides
hesperus
hessen
hestia
het
heterogen
heuristik
hewan
hexter
hi
hiaan
hias
hiasan
hiasnya
hiawatha
hibah
hibak
hibaknya
hiburan
hibuson
hicks
hidaka
hidangan
hidayat
hidayatullah
hideki
hidrasi
hidrida
hidrofilik
hidrogen
hidroksil
hidrologi
hidrosfer
hidrostatik
hidung
hidungnya
hidup
hidupnya
hierarki
hierarkinya
hieroglif
hifa
higa
higaan
higeia
high
higher
highland
highway
higiene
higuchi
hijau
hijaw
hijet
hiji
hijir
hijrah
hijrahnya
hijriah
hijriyah
hikayat
hikmah
hikmat
hilaeira
hilaire
hilal
hilang
hilangnya
hilas
hilda
hilir
hill
hills
hillsboro
hilton
hilux
him
himachal
himalaya
himba
himenaios
himeros
himpit
himpunan
himung
hin
hina
hindau
hindaunya
hindi
hindia
hindu
hinduism
hinduisme
hindustan
hingga
hinggan
hinggap
hingkat
hini
hinokishin
hintadi
hintalu
hintalunya
hinti
hintinya
hinɛ
hiperbolik
hiperboreioi
hiperse
hipersensitivitas
hipmi
hipnos
hipotesa
hipotesis
hippodamia
hippokampos
hippokoon
hippolita
hippolitus
hippomedon
hippomenes
hipposideros
hiputisa
hiragana
hiran
hirang
hirarki
hirata
hiring
hirip
hirisan
hiro
hirohito
hiroki
hiromu
hiroshi
hiroshima
hiroyuki
hiruk
hirup
his
hisab
hisap
hisashi
hisminai
hispanic
hispaniola
histologi
historia
historian
historians
historic
historical
histories
historiografi
historiographical
historiography
historis
history
hit
hitam
hitchcock
hitler
hitra
hits
hitu
hitung
hitungan
hiu
hiv
hiwan
hj
hku
hlm
hm
hmong
ho
hobbes
hobnor
hobøl
hoc
hockley
hoesin
hoffman
hofstadter
hoi
hok
hoki
hokkaido
hokkian
hokkien
holcomb
hold
holden
holding
hole
holiday
holland
hollandsche
hollister
holly
hollywood
holmes
holocaust
holstein
holt
holta
holy
homados
home
homebase
hominidae
homme
homo
homogen
homonoia
homoseksual
honda
honduras
honey
hong
hongaria
hono
honor
honshu
hood
hoofd
hoon
hoorn
hope
hopkins
horace
horae
hordaland
horizon
horkos
hormat
hormes
hormon
hormonal
horn
hornnes
horse
horses
horst
hortikultura
host
hot
hote
hotel
houghton
hours
house
houston
houtman
how
howard
howsam
hoyt
hp
hr
hss
hst
hsu
htm
html
http
https
hu
hua
huai
hual
hub
hubbard
hubble
hubei
hubnur
hubris
hubung
hubungan
hubunganana
hubungannya
hudah
hudoq
hudson
hudutannya
hugar
hugh
hughes
huhn
huhulutan
hui
hujan
huju
hujung
hujungnya
hukum
hukuman
hukumnya
hulat
huleh
hulin
hulu
hulun
huma
human
humanis
humanisma
humanisme
humanistik
humaniter
humanity
humans
humap
humbayang
humbi
humble
humboldt
hume
humeri
humerus
humoral
humphrey
hundang
hundred
hunedoara
hung
hungaria
hungary
hungku
hunnewell
hunt
hunter
huntington
huntsville
hurai
huripan
hurley
huron
huruf
hurung
hurup
husein
husin
husni
hussain
hussein
hustle
husus
hususnya
hut
hutama
hutan
hutang
hutbah
hutchinson
hutil
hutu
huxley
hwang
hyang
hybrid
hydra
hydrogen
hye
hyeok
hyeong
hygiea
hymenoptera
hyo
hyoid
hyoideum
hystrix
hyun
hyundai
hægebostad
høyanger
i
ia
iai
iain
iaitu
ialah
iambe
ian
iaso
iau
ib
ibadah
ibadat
ibanic
ibaraki
iberia
ibiza
iblis
ibn
ibni
ibnu
ibrahim
ibrani
ibt
ibu
ibukota
ibukotanya
ibukuta
ibukutanya
ibun
ibunda
ibunya
ibus
ic
icao
icarus
iccpr
ice
icescr
ichi
ichigo
iconography
icu
id
ida
idabul
idaho
idas
ide
idea
ideal
idealisme
ideas
identification
identifikasi
identik
identitas
identity
ideografis
ideogram
ideologi
idham
idi
idial
idiologi
idioma
idisi
idiulugi
idol
idomeneus
idris
idrus
idul
idwar
ielts
ieu
if
ifad
ifigenia
ifikles
ifthime
iga
igal
igarashi
ige
igg
iggers
igm
ignatius
ignostisisma
igomo
igutan
ihara
ihtiar
ihwal
ii
iias
iii
iit
ija
ijaan
ijin
ijinakan
ijinkan
ijuk
ik
ika
ikam
ikan
ikarius
ikarus
ikat
ikatan
ikhnea
ikhthiokentaur
ikhtiar
ikikon
ikip
ikis
ikit
iklan
iklim
ikliptika
ikon
iksintriknya
iksukusi
iktikad
iktiologi
ikung
ikunugarapi
ikunum
ikunumi
ikusistim
ikusistimnya
ikut
il
ila
ilah
ilahi
ilai
ilang
ilangan
ilat
ilatnya
ile
ilegal
ilham
iliktrunik
iliptika
ilir
ilium
ill
illes
illich
illinois
ilmiah
ilmiahnya
ilmiyyah
ilmu
ilmuan
ilmunya
ilmuwan
ilo
ilocos
iloheluma
ilun
ilung
ilusi
ilustrasi
iluy
im
imadoki
image
images
imah
imajinasi
imajinatif
imajiner
imam
iman
imanensi
imbah
imbahitu
imbahnya
imbahtu
imbai
imbaian
imbal
imbang
imbrian
imbrium
imigran
imit
imitasi
imlek
immediate
immortal
immunity
impact
impaired
impairment
impaktor
imparsial
imperatif
imperial
imperialisme
imperium
impian
implementasi
implications
implikasi
implikasikan
implikasinya
implisit
implosi
implosif
impor
impur
imun
imunisasi
imunitas
imunodefisiensi
imunologi
imunosupresif
imusi
in
ina
inaccessible
inada
inan
inang
inap
inayatullah
inc
inchi
inci
incidence
includes
including
incudes
incus
indah
indahakan
indak
indallah
indan
indeks
independen
independence
independent
indera
inderapura
index
india
indian
indiana
indianola
indica
indicus
indie
indies
indihiang
indikasi
indische
individu
individual
individualisme
indo
indochina
indone
indonesai
indonesia
indonesian
indoor
indosiar
indra
indragiri
indrakila
indramayu
indraprastha
indrapura
indruk
induk
induksi
indunesia
indung
indungnagara
indunisa
indunisia
indunisian
indunisianya
indunusia
indus
industri
industrial
industries
industry
ine
inevitably
infe
infectious
infeksi
inferior
inferiores
inferno
infidels
infiksi
infinity
inflamasi
infleksi
info
informal
informasi
information
infra
infrahabang
inframerah
infrastruktur
infty
infurmasi
ing
ingat
ingatan
ingg
inggan
inggeris
inggris
ingin
ingkul
ingkut
ingkutan
ingu
inguan
ingøy
inhutani
ini
inilah
inirgi
inisiatif
inja
injaman
injection
injil
inkarnasi
inklinasi
inklusi
inkubasi
inkubator
inkus
ino
inoue
inovasi
inpurmal
inpurmasi
input
inquiry
insan
insecta
insects
inside
insiklupidia
insiktisida
insinyur
inspektur
inspirasi
instagram
instalasi
instansi
insting
institusi
institut
institute
institutes
institution
instituto
instruction
instruksi
instrumen
instrumin
insya
intaliktual
intalu
intan
intang
intangan
intangannya
intarnasiunal
intarnit
inte
integral
integrasi
integrated
integrati
intelek
intelektual
intellectual
intensif
intensitas
interactive
interaksi
interaktif
interdisipliner
interim
interior
intermedia
intermediat
intermedium
internal
internasional
internasiunal
international
internationale
interne
internet
interpretasi
interpretation
interview
inti
intinsitas
intinya
intirnit
intisari
intitas
into
intonasi
intra
intri
intrinsik
introduction
intrusi
intu
intubasi
inuyasha
invasi
invasion
inve
inventaris
invention
invertebrata
investasi
investor
invitation
inward
inya
inyaa
inyalah
io
ioc
iolaus
iole
ion
ionisasi
iowa
ipa
ipar
ipc
ipidimi
ipik
ipiktip
ipm
ipoh
iprage
ir
ira
irah
irak
iram
irama
iran
irang
iraq
irawan
ircisod
ireland
iri
irian
irigasi
iringan
iringi
iris
irisan
irish
irit
iritasi
irlandia
iron
ironi
ironton
irupa
irus
irusi
irvin
irving
irwan
irwin
is
isa
isaac
isaak
isabel
isarat
isbn
ischii
ise
isekai
ishak
ishaq
ishfaq
ishikawa
isi
isian
isim
isinya
iskandar
iskandardinata
isl
isla
islam
islami
islamic
island
islandia
islands
islas
isle
islet
islets
isma
ismail
ismaya
ismene
iso
isola
isolasi
isolat
isotop
israe
israel
israil
iss
issa
issn
issue
issues
istana
istananya
istanbul
isteri
isterinya
istiadat
istilah
istimewa
istimiwa
istirahat
istri
istrinya
isu
isuk
isukan
isuknya
isulasi
isulat
isuzu
isyana
isyarat
it
itali
italia
italian
italiana
italy
itam
itar
itb
ithaca
itih
itihan
itihi
itik
itimulugi
itis
ito
itoe
its
itu
itulah
iucn
ius
iv
ivan
ivanhoe
ivoire
ivy
iwak
iwbf
iwo
ix
ixion
iya
iyanya
iynx
izin
izu
izumi
iɲa
j
ja
jaan
jaar
jabai
jabatan
jabatannya
jabiren
jabodetabek
jabu
jabuk
jack
jackie
jackson
jacksonville
jacob
jacobus
jacques
jada
jadi
jadinya
jadwal
jae
jaga
jagabaya
jagat
jagau
jago
jagoi
jaguar
jagung
jagur
jahat
jahe
jahitan
jain
jair
jaitun
jajahan
jajak
jajakan
jajanan
jajarangan
jajaring
jajuhutan
jajung
jak
jaka
jakanya
jakarta
jakartasentris
jakartasentrisma
jakartasentrisme
jakat
jakatan
jake
jakob
jaksa
jalai
jalalabad
jalaluddin
jalan
jalanan
jalannya
jalas
jalatang
jalemu
jalil
jalur
jaluran
jam
jama
jamaah
jamaat
jamaica
jamaika
jamak
jamal
jamaluddin
jaman
jamban
jambangan
jambatan
jambi
jambu
jambul
james
jamestown
jamhar
jamhuri
jami
jamik
jamil
jaminan
jamu
jamuan
jamur
jan
janabat
janajah
janak
janakan
janaki
janan
janang
janar
janda
jandila
jane
janeiro
jangan
janggut
jangka
jangkang
jangkau
jangkauan
jangkauannya
jangkit
jangkitan
jangkrik
janin
janis
janisnya
janjang
janji
jann
jantan
janten
jantik
jantung
jantur
januari
january
janus
japai
japaian
japan
japanese
japang
japin
japonik
japun
jar
jarak
jaraknya
jarang
jarangan
jaranih
jarasanda
jaratan
jargun
jari
jariangau
jariawat
jariji
jaring
jaringan
jarman
jaro
jarrah
jaruju
jarum
jas
jasa
jasad
jasanya
jasin
jasmani
jason
jasper
jasuka
jat
jataka
jati
jatiasih
jatidiri
jatisampurna
jatmaka
jatmika
jatuh
jauh
jauhar
jauhnya
java
javanica
jawa
jawab
jawaban
jawabannya
jawaharlal
jawai
jawap
jawara
jawaw
jawawut
jawi
jay
jaya
jayadewa
jayadrata
jayakarta
jayanagara
jayanti
jayapura
jayengrana
jaza
jazirah
jazz
je
jean
jeanne
jebar
jeddah
jeep
jeff
jefferson
jeffrey
jejak
jejangkit
jejaring
jejunum
jekan
jelai
jelajah
jelapat
jelas
jelemuk
jelimpo
jelmu
jemaah
jemaat
jembatan
jembayan
jember
jempang
jenamas
jenazah
jenderal
jendral
jenewa
jengkarang
jenis
jenisnya
jenius
jenkins
jennings
jenny
jens
jentik
jeon
jeonju
jepang
jepara
jerami
jerang
jerawat
jeremy
jering
jeritan
jerman
jermanik
jero
jerome
jerry
jersey
jeruk
jerusalem
jesus
jet
jetis
jewell
jewish
jh
ji
jiarah
jibril
jidor
jigme
jihad
jihatul
jika
jikalau
jil
jilbab
jilid
jill
jim
jima
jimamun
jimmy
jin
jinak
jinderal
jindral
jing
jingah
jingga
jinjing
jins
jipang
jipangu
jirak
jiran
jirman
jiro
jiun
jiwa
jiwasraya
jk
jkt
jl
jlr
jmpl
jn
jo
joa
joan
joconde
jocson
joe
jogja
johan
johann
johannes
johansson
john
johnny
johns
johnson
johor
johr
joint
joinville
jojo
jokasta
joko
jokowi
joleq
jolo
jombang
jomon
jon
jonathan
jones
jonesboro
jong
jongkong
joong
jordan
jorjiya
jorong
jose
josef
josep
joseph
jotun
journal
journey
jovian
joyce
jp
jpeg
jpg
jr
jst
jstor
jsza
jtl
ju
jua
juaa
juai
jual
juan
juara
juata
jubah
jubilee
judi
judicial
judith
judo
judul
judulnya
juga
juhut
jujuhutan
jujur
jujutan
jujutannya
juk
jukung
jules
julhajjah
juli
julia
julian
julie
juliet
julius
juluk
julukan
julung
july
jum
jumaat
jumadil
jumahat
jumat
jumba
jumbatan
jumbelah
jumbelahnya
jumlah
jumlahna
jumlahnya
jump
jumu
jun
junaidi
junction
june
jung
jungai
jungkal
juni
junichi
junior
junjung
juno
juoi
jupiter
jupitir
jura
juragan
jurai
jurang
jure
juri
jurnal
jurnalis
jurnalistik
jurnalnya
juru
jurusan
jus
just
justifikasi
justin
justru
jusuf
juta
jutaan
jutuh
juwa
juz
jva
jw
jyela
jølster
k
ka
kaadaaan
kaadaan
kaadaannya
kaadilan
kaagamaan
kaahlian
kaajaiban
kaakhirannya
kaamanan
kaamasan
kaampat
kaampatnya
kaampunan
kaanam
kaandakan
kaanggitan
kaanggutaan
kaanggutaannya
kaasaan
kaasup
kaatas
kaayaan
kaba
kabahagiaan
kabaikan
kabajikan
kabakaran
kabaktian
kabakulihan
kabal
kabalainan
kabalikan
kabalikannya
kabalujuran
kabamacaman
kabanaran
kabangkitan
kabangsaan
kabangsawanan
kabanyakan
kabanyakannya
kabar
kabaradaan
kabaradaannya
kabaragaman
kabarasihan
kabarhasilan
kabasaan
kabeiri
kabel
kabiasaan
kabiasaannya
kabiau
kabibasan
kabibitak
kabid
kabijakan
kabijaksanaan
kabila
kabin
kabine
kabinet
kabinett
kabingungan
kabinit
kabiruan
kabisaan
kabisat
kabu
kabudayaan
kabujuran
kabuki
kabul
kabulatan
kabulatannya
kabumian
kabun
kabung
kabungasan
kabungulan
kabupate
kabupaten
kabupatin
kabur
kaburungan
kabus
kabut
kabutuhan
kaca
kacalakaan
kacamata
kacamatan
kacanduan
kacang
kacangan
kacangkalan
kacanya
kacawali
kacewa
kacil
kacilaka
kacilakaan
kacilangannya
kaciwa
kacuali
kacuklatan
kaculasan
kacungulan
kad
kada
kadaan
kadada
kadadanya
kadal
kadalah
kadalam
kadalaman
kadalapan
kadamaian
kadang
kadangaran
kadangkala
kadanya
kadap
kadapatan
kadaptar
kadar
kadatangan
kadatangannya
kadatuan
kadaulatan
kaday
kade
kader
kadewan
kadi
kadiaman
kadin
kadipaten
kadir
kadmus
kadokteran
kadua
kaduan
kaduanya
kadudua
kaduduanya
kadudukan
kadudukannya
kaduitan
kadukaan
kadukturan
kadungan
kadutaan
kaduwa
kaduwanya
kae
kaen
kaeneus
kaeng
kaeo
kaerus
kafe
kafilah
kafka
kagagalan
kagairan
kaganaan
kaganangan
kagancangan
kagiatan
kagilaan
kagoshima
kaguguran
kagum
kagunaan
kagunaannya
kagunaanya
kagungan
kaguringan
kagusangan
kaguya
kah
kahabang
kahabangan
kahabisan
kahada
kahadacucukan
kahadaparcayaan
kahadiran
kahala
kahancapan
kahancuran
kahandak
kahandakan
kahandaki
kahandaknya
kahandapan
kahangatan
kaharatan
kaharatannya
kaharingan
kahati
kahayan
kahidupan
kahidupannya
kahijauan
kahiji
kahilangan
kahimungan
kahuripan
kahurmatan
kahutanan
kahyangan
kai
kaidah
kaikaran
kaili
kailmuan
kain
kaina
kainahnya
kainanya
kaindahan
kaini
kainya
kairo
kaisar
kaistimiwaan
kaisukannya
kait
kaitan
kaitannya
kaitihan
kaito
kaitu
kaja
kajadian
kajahatan
kajajakan
kajajungan
kajalasan
kajam
kajang
kajatuhan
kajauhan
kajayaan
kajayaannya
kaji
kajian
kajoe
kajuaraan
kajuei
kajung
kajut
kak
kaka
kakabalan
kakabun
kakacauan
kakadaadilan
kakadakawaan
kakadapan
kakadarasukan
kakaisaran
kakait
kakajaman
kakak
kakakalan
kakal
kakalahan
kakalung
kakamban
kakanak
kakanakan
kakanakannya
kakandalan
kakandalannya
kakantalan
kakao
kakarabatan
kakaran
kakarasan
kakatang
kakatujuan
kakawaan
kakawalan
kakawanan
kakawanannya
kakawin
kakayaan
kakereste
kakerestenan
kakhalifahan
kakhawatiran
kaki
kakia
kakicak
kakinya
kakiraan
kakirangan
kakristenan
kaku
kakuasaan
kakuasaannya
kakuatan
kakuei
kakulaan
kakuluhan
kakumbu
kakuning
kakuningan
kakurangan
kakusungan
kala
kalabihan
kaladan
kalah
kalahiang
kalahiran
kalainan
kalajuan
kalakai
kalakuan
kalalapun
kalalawar
kalalayu
kalaluan
kalam
kalamahan
kalamari
kalambapan
kalambu
kalamin
kalampaian
kalampayan
kalan
kalang
kalangan
kalanganyar
kalangkala
kalangkapan
kalangsungan
kalanjar
kalantit
kalantukan
kalap
kalapa
kalapahan
kalapan
kalaparan
kalarang
kalaras
kalarutan
kalas
kalasik
kalasin
kalasnya
kalau
kalautan
kalayakan
kalayan
kalbar
kaldu
kale
kalebet
kaledonia
kalender
kaler
kali
kalian
kaliatan
kaliau
kalibaru
kalibata
kalidon
kaligrafer
kaligrafi
kalih
kalihaian
kalihatan
kalihatannya
kalijaga
kalike
kalikir
kalima
kalimantan
kalimanya
kalimat
kalimut
kalinci
kaling
kalingahan
kalintamui
kalinya
kaliorang
kalipso
kaliq
kalir
kalirnya
kalis
kalisz
kalitengah
kalitidu
kalium
kalkaneus
kalkhas
kalkulasi
kalkulator
kalkun
kalla
kallidike
kallirhoe
kallisto
kalo
kalompok
kalong
kalopak
kalori
kalsel
kalsium
kalskag
kalteng
kaltim
kalu
kalua
kaluang
kaluar
kaluaran
kaluarga
kaluarganya
kaluarnya
kaludan
kaluhan
kalumpang
kalumpok
kalumpuk
kalun
kalung
kalungsu
kalupak
kaluputan
kalurahan
kalutuk
kalwaria
kam
kamaboko
kamacatan
kamahaadilan
kamahabalaskasihan
kamahakuasaan
kamahapangampunan
kamaharajaan
kamahatahuan
kamahiripan
kamajuan
kamakmuran
kamakura
kamal
kamampuan
kaman
kamanakan
kamanakannya
kamanangan
kamandahan
kamanjuran
kamantarian
kamantrian
kamanusiaan
kamar
kamarau
kamardekaan
kamardikaan
kamardikaannya
kamarian
kamarnya
kamasan
kamasarakatan
kamatian
kamatiannya
kamayahan
kambang
kambangnya
kambar
kambaran
kambat
kambing
kambitin
kambiyain
kamboja
kambrium
kambuhan
kame
kamentrian
kamera
kamerdekaan
kamerun
kami
kamichama
kamien
kamienna
kamih
kamikaze
kamil
kaminting
kamipang
kamir
kamira
kamirdikaan
kamiringan
kamis
kamiskinan
kamma
kamo
kampai
kampanye
kampanyi
kamphaeng
kampil
kampong
kampuh
kampung
kampungan
kampungnya
kampuri
kampus
kamu
kamuaran
kamudi
kamudian
kamuliaan
kamunduran
kamungkinan
kamungkinannya
kamurkaan
kamus
kamutlakan
kan
kana
kanaal
kanaan
kanada
kanagaraan
kanagawa
kanahapan
kanaikan
kanak
kanakan
kanake
kanal
kanan
kanapa
kanas
kanayatn
kanbun
kancang
kancing
kandaga
kandahar
kandal
kandali
kandang
kandangan
kandangnya
kandaraan
kandawa
kandawaprastha
kandidat
kandil
kandolo
kandung
kandungan
kanduri
kaneki
kang
kangalihan
kangar
kangayan
kangean
kanggo
kangkung
kanisius
kanji
kanka
kanker
kannada
kanon
kanopi
kanor
kansai
kansas
kanselir
kanshi
kant
kantal
kantalnya
kantang
kantat
kanthus
kanto
kanton
kantong
kantor
kantuk
kantung
kantur
kanung
kanvas
kanwil
kanyamanan
kanyarakan
kanyataan
kanyataannya
kanye
kanzaki
kao
kapada
kapadanya
kapadatan
kapahlawanan
kapak
kapal
kapala
kapalanya
kapalipitan
kapamilikan
kapamimpinan
kapamimpinannya
kapandudukan
kapaneus
kapanlagi
kapantingan
kapar
kaparakan
kaparcayaan
kaparcayaannya
kaparluan
kapas
kapasitas
kapastian
kapengker
kapingin
kapintaran
kapirutan
kapis
kapita
kapitalis
kapitalisme
kapitatum
kapiting
kapitu
kapitulasi
kapitung
kaplan
kapolda
kapramukaan
kapribadian
kapsul
kapten
kaptin
kapuak
kapuas
kapuh
kapulauan
kapulawan
kapulisian
kapunahan
kapur
kaputih
kaputing
kaputingannya
kaputusan
kar
kara
karabakh
karacapan
karacunan
karaeng
karagaman
karaguan
karajaan
karajaannya
karajinan
karak
karakaian
karakatan
karaktar
karaktaristik
karakter
karakteristik
karamahan
karamat
karamian
karamik
karamunting
karana
karanakan
karananya
karancakan
karancakannya
karandahan
karang
karangan
karanganyar
karangasem
karangbinangun
karangga
karanggeneng
karangka
karangmas
karangpaci
karangpilang
karanjang
karantika
karantina
karantukal
karapan
kararangga
karariang
karas
karasikan
karasmin
karason
karat
karatas
karateristik
karaton
karau
karawang
karawila
karawitan
karbau
karbohidrat
karbon
karbonat
karbuhidrat
karburator
kardinal
kare
karel
karen
karena
karesidenan
karet
kareta
karetau
kargo
kargu
karia
karias
kariawan
karibia
karidit
karier
kariernya
karikiki
karikil
karim
karimata
karimunting
karin
karing
karir
karirnya
karis
karistal
karistin
karit
karita
karitak
karitik
karitikus
karki
karl
karlsøy
karma
karmanor
karme
karmina
karna
karnabon
karnataka
karnivora
karno
karomah
karon
karpe
karpo
karpov
karpus
karsa
karst
kartak
kartanegara
kartas
kartiasa
kartika
kartini
kartografi
karton
kartu
kartun
kartunis
karuan
karuang
karucut
karugian
karuh
karukunan
karumut
karun
karungkung
karuntuhan
karupuk
karusakan
karusen
karusuhan
karya
karyanya
karyawan
kasa
kasabarataan
kasadaran
kasadarhanaan
kasadiaan
kasadiaannya
kasai
kasaimbangan
kasajahtaraan
kasajahteraan
kasakitan
kasaksian
kasalahan
kasalahpahaman
kasalamatan
kasalametan
kasalukutan
kasaluruhan
kasamaan
kasambilan
kasampatan
kasampurnaan
kasamunyaan
kasamunyaannya
kasanga
kasanian
kasantunan
kasapakatan
kasapuluh
kasar
kasarikan
kasaroeng
kasarungan
kasasiur
kasat
kasataraan
kasatiaan
kasatimbangan
kasatmata
kasatria
kasatuan
kasau
kase
kasela
kasemen
kasepuhan
kaset
kaseueuran
kashmir
kasigaran
kasih
kasihan
kasihatan
kasihnya
kasim
kasiman
kasimpulan
kasimpunan
kasintu
kasisikat
kasisiur
kasoema
kasparov
kaspia
kasro
kassandra
kassapa
kassiopeia
kasti
kastila
kastor
kasturi
kasuburan
kasucian
kasucingan
kasugihan
kasuklatan
kasuksesan
kasuksisan
kasultanan
kasuma
kasumba
kasus
kasusastraan
kasustraan
kasyful
kat
kata
katabalan
katagangan
katagasan
kataguhan
kataguri
katahanan
katahuan
katai
katakana
katakian
katakutanan
katalan
katalis
katalog
katalu
katalung
katam
katantuan
katanya
katapang
katarak
katarampilan
katarangan
katarbatasan
katargantungan
katarjangkauan
katarsadiaan
katartiban
katasadiaan
katasampaian
katat
katawatasan
kate
katedral
kategori
kateguri
kathavatthu
katherine
kathina
kathmandu
katiadaan
katiak
katiga
katiganya
katiguri
katika
katilu
katimbang
katingan
katinggalan
katinggian
katinggiannya
katoda
katolik
katreus
katsu
katua
katuhanan
katuju
katujuh
katujui
katul
katulik
katulistiwa
katulusan
katumburan
katun
katupat
katurunan
katurunannya
kau
kauangan
kaubun
kaukasus
kaul
kaula
kaum
kauman
kaumpatan
kaunggulan
kaunikan
kauntungan
kaunus
kaur
kaus
kauskupan
kautuhan
kauyuhan
kaw
kawa
kawah
kawaian
kawajiban
kawajipan
kawal
kawalu
kawan
kawanan
kawanian
kawannya
kawarganagaraan
kawarihannya
kawasan
kawat
kawawa
kawi
kawigasan
kawin
kawinan
kawula
kawung
kaya
kayaapa
kayah
kayaitu
kayak
kayakah
kayakih
kayakinan
kayan
kayangel
kayanya
kayapa
kayapu
kaynanya
kayong
kayu
kayuangin
kayunya
kayutangi
kazakhstan
kazakstan
kazuki
kb
kbbi
kbs
kc
kdot
ke
kea
keadaan
keadilan
keagamaan
keajaiban
keamanan
keanehan
keanekaragaman
kearney
kebaikan
kebajikan
kebakaran
kebaktian
kebangkitan
kebangsaan
kebangsawanan
kebanyakan
kebebasan
kebebu
kebenaran
kebencian
keberadaan
keberak
keberanian
kebersihan
keberuntungan
kebesaran
kebiasaan
kebijakan
kebijaksanaan
kebimbangan
kebingungan
kebon
kebriones
kebudayaan
kebuddhaan
kebumian
kebun
kebutaan
kebutuhan
kecamatan
kecantikan
kecapi
kecemasan
kecenderungan
kecepatan
keceriaan
kecil
kecoklatan
kecuali
kecubung
kedah
kedalaman
kedama
kedamin
kedang
kedatangan
kedaton
kedatuan
kedaulatan
kedaulatannya
kedelai
kediaman
kediktatoran
kedindingan
kediri
kedokteran
kedua
keduanya
kedubes
kedudukan
kedukan
kedumpit
kedungadem
kedungpiring
kedungrejo
kedutaan
keemasan
keempat
keenam
kefalus
kefeus
kegelapan
kegembiraan
kegiatan
kegiatannya
kegunaan
kehadiran
kehakiman
kehancuran
keharatan
kehendak
kehidupan
kehilangan
kehormatan
kehutanan
kei
keikaku
keindahan
keinginan
keisatsutai
keisus
keith
keix
kejadian
kejahatan
kejaksan
kejam
kejatuhan
keju
kejuaraan
kekacauan
kekaisaran
kekal
kekalahan
kekangan
kekasih
kekayaan
kekayap
kekebalan
kekehan
kekeluargaan
kekerasan
kekhalifahan
kekristenan
kekrops
kekuasaan
kekuatan
kekuningan
kelabu
kelahiran
kelaino
kelak
kelakik
kelam
kelambu
kelamin
kelampai
kelampaian
kelang
kelangkang
kelantan
kelapa
kelaparan
kelas
kelawai
kelawasan
kelawit
kelay
kelayan
kelayangan
kelebihan
kelembaban
kelembe
kelengkapan
kelenjar
kelenteng
keleus
kelian
kelihatan
keliling
kelima
kelinci
keling
kelinjau
kellogg
kelly
keloid
kelompok
kelor
kelt
kelua
keluar
keluarga
keluarganya
keluas
keluhan
keluing
kelumpang
kelurahan
kelvin
kemajuan
kemakmuran
kemal
kemampuan
kemampuannya
kemangai
kemanusiaan
kemarahan
kemarau
kemas
kemasan
kematian
kematiannya
kembali
kembang
kembangbahu
kembar
kembayan
kemboja
kemdikbud
kemegahan
kemenangan
kemendagri
kementerian
kemerdekaan
kemerdekaannya
kemiri
kemiringan
kemiripan
kemiskinan
kemoralan
kemos
kempangai
kemudian
kemuliaan
kemunculan
kemungkinan
kemuning
kemurkaan
ken
kena
kenanga
kenangan
kenaya
kencana
kencang
kendala
kendali
kendang
kendaraan
kendari
kendati
kendawangan
kendayan
kendhang
kenepai
kenichi
kenikmatan
kenjeran
kenji
kenko
kennedy
kenohan
kensington
kent
kental
kentang
kentaro
kentaur
kentawan
kentjana
kenton
kentucky
kenual
kenya
kenyanyan
kenyataannya
kenyikap
kenyon
kep
kepada
kepadatan
kepala
kepalanya
kepayang
kepentingan
kepercayaan
keperluan
kepler
kepohbaru
kepolisian
keponakannya
keppres
kepresidenan
kepulauan
keputusan
ker
kera
kerabat
kerabatnya
keraguan
keraitan
kerajaan
kerajinan
kerak
kerakyatan
keramat
keramici
keramik
keran
kerang
kerangan
kerangka
kerangkeng
keranjang
keranji
keranjik
keraon
keras
keraton
kerayaan
kerbau
kerberos
kerdo
keremoi
keren
keres
kereste
keresten
kereta
keriangan
kerikil
kering
keris
kerja
kerkop
kernyanyan
kerom
keroncong
kerosene
kerry
kersik
kerta
kertak
kertas
kertasari
keruap
kerucut
kerugian
kerusakan
kerusuhan
kesadaran
kesah
kesaktian
kesalahan
kesambi
kesan
kesange
kesatria
kesatuan
kesehatan
keseimbangan
kesejahteraan
keselamatan
keseluruhan
kesempatan
kesempurnaan
kesenian
kesepakatan
kesetaraan
kesetiaan
kesimpulan
kestrinus
kesuburan
kesulitan
kesultanan
kesuma
kesunyian
kesusastraan
kesustraan
ketahanan
ketam
ketapang
ketapi
ketentuan
ketepatan
keterangan
ketersediaan
ketertarikan
ketiadaan
ketidakberartian
ketidakkongruenan
ketidaktahuan
ketidakterpahaman
ketiga
ketika
ketileng
keting
ketinggian
keto
ketsu
ketua
ketuhanan
ketuju
ketujuh
ketulusan
ketungau
keturunan
keuangan
keuletannya
keuntungan
keuskupan
keuthonimos
kevin
kewajiban
kewarganegaraan
kewenangan
key
keystone
kfc
kg
kgm
kh
kha
khabar
khae
khai
khaimah
khairul
khalid
khalifah
khalkiope
khalkodon
kham
khamsa
khan
khanda
khao
khaos
kharibdis
khariklo
kharites
kharon
khas
khasnya
khaththab
khatib
khattab
khatulistiwa
khayal
khazanah
khet
khione
khiri
khiron
khlong
khloris
khmer
kho
khok
khon
khong
khotbah
khriseis
khrises
khrisippus
khrisothemis
khrisus
khthonius
khu
khuan
khuean
khun
khuong
khusus
khususna
khususnya
ki
kia
kiai
kiamat
kiamites
kian
kiaq
kiaracondong
kiasan
kiat
kiauan
kiawan
kibele
kiblat
kiblatnya
kicauan
kicks
kido
kidoimos
kidul
kie
kiemas
kien
kierkegaard
kihit
kiii
kijang
kiju
kikhreus
kikira
kikiraan
kiklops
kiknus
kikuchi
kilang
kilangan
kilat
kilix
kill
killa
killed
killjoys
kilogram
kilokalori
kilometer
kilomitir
kiloton
kilt
kilu
kilumitir
kim
kima
kimball
kimi
kimia
kimiawan
kimka
kimopoleia
kinabalu
kindai
kindaichi
kinerja
kinetik
king
kingdom
kings
kingston
kingsville
kini
kiniras
kinki
kinortas
kintap
kinuman
kipar
kiparissus
kipas
kipit
kippur
kipselus
kira
kirbyville
kirche
kirgizstan
kiri
kiribati
kiril
kiriman
kirk
kirke
kis
kisah
kisahnya
kisaran
kisdap
kishimoto
kisi
kismis
kiss
kita
kitab
kitap
kitapnya
kitaran
kitihan
kitisorus
kitts
kitu
kiwa
kiyai
kizikus
kj
kk
kkwaenggwari
kladeus
klaim
klamath
klampis
klan
klang
klarasi
klasifikasi
klasik
klasipikasi
klassik
klaten
klavikula
klein
kleine
kleite
kleodaeus
kleokhareia
kleopatra
klerus
klimene
klimenus
klinik
klinis
klip
klitemnestra
klitie
klitius
kliwon
kloaka
kloni
klorida
klorin
kloset
klotho
klotrimazol
klub
klux
klæbu
km
knight
knik
knip
knob
know
knowledge
knox
ko
koalemos
koalisi
kobayashi
kobe
kobo
kochi
kock
kodam
kodansha
kode
kodok
kodrat
kodrati
kodrus
koe
koefisien
koes
kofi
kognitif
koh
kohesi
kohlsuppe
koi
kojiki
koki
kokin
kokitos
kokop
kokot
koksa
koksigis
kokte
kokytos
kol
kola
kolaborasi
kolaboratif
kolam
kolang
kolangan
kolek
koleksi
kolektif
koler
kollock
kolom
kolombia
kolonel
koloni
kolonial
kolonialisma
kolonialisme
kolonisasi
kom
koma
komaetho
komalasari
komam
komandan
komando
komang
kombatan
kombeng
kombinasi
kome
komedi
komentar
komersial
komersialisasi
komet
komik
komisaris
komisi
komite
komitmen
kommune
komnas
komoditas
komoditi
komodo
komodoensis
komoro
komparatif
kompas
kompeni
kompeten
kompetisi
kompi
kompilasi
komple
komplek
kompleks
komplemen
kompone
komponen
komponis
komposer
komposisi
komprehensif
komputasi
komputer
komun
komune
komunikasi
komunis
komunisme
komunitas
komunitasnya
komuniti
komus
kon
konang
kondensasi
kondisi
konduktor
konfe
konfederasi
konfere
konferensi
konfigurasi
konfirmasi
konflik
konfrontasi
konfusianisme
konfusius
kong
kongbeng
konghucu
kongo
kongres
kongsi
koni
konka
konmas
kono
konomi
konon
konotasi
konrad
konse
konsekuen
konsekutif
konsensus
konsentrasi
konsep
konseptual
konser
konservasi
konservatif
konservatori
konsesi
konsili
konsisten
konsonan
konstan
konstanta
konstantin
konstantinopel
konstelasi
konstituen
konstitusi
konstitusional
konstruksi
konstruktif
konsul
konsultan
konsumen
konsumsi
kontainer
kontak
kontaminasi
konteks
kontemporer
konten
kontes
kontinental
kontrak
kontraproduktif
kontras
kontributor
kontrol
kontrove
kontroversi
kontroversial
konvensi
konvensional
koordinasi
koordinat
koordinator
kopenhagen
koperasi
kopi
kopiah
kopra
kopreus
koptik
kopula
kor
kora
koran
korawa
korban
kore
korea
korean
korelasi
koreng
korespondensi
koretz
koribant
korik
korimbus
korinthus
korkira
koroi
koromandel
korona
koronavirus
korong
koronis
koronus
koror
korosi
korps
korpus
kort
korundum
korupsi
kos
kosakata
kosmik
kosmis
kosong
kosta
koste
kostrzyn
kota
kotabaru
kotagede
kotak
kotamadya
kotanya
kotawaringin
koto
kotoishi
kotor
kotoran
kottelat
kou
kouta
kovenan
kowal
koz
kpu
kr
kra
krabang
kraft
kragerø
krajen
krakatau
kraken
krako
kramat
kramer
kranaus
kranji
kranz
krasang
kraton
kratos
krauss
krayan
kre
kreatif
kreatip
kreativitas
kreator
kredit
krembangan
kreol
kreon
krepa
kresfontes
kresna
kreta
kretheus
kreusa
kreutz
kriket
krim
kriminal
kriminalisasi
krisis
kristal
kristalisasi
kristen
kristian
kristiansand
kristiansund
kristin
kristus
krisus
kriteria
kritik
kritikan
kritikus
kritis
kroasia
kroesus
kromium
kromosom
kronik
kronion
kronis
kronologi
kronos
krosno
krotos
kru
krung
krustasea
krynica
ks
ksatria
kse
ksi
kspor
ksual
kt
ktif
ktor
ktorat
ktur
ku
kua
kuadrat
kuah
kuala
kualan
kuali
kualitas
kualitasnya
kuan
kuangan
kuantan
kuantitas
kuantitatif
kuaro
kuarsa
kuasa
kuasai
kuasar
kuat
kuayan
kuba
kubah
kubat
kubaya
kubik
kubo
kuboid
kubu
kubur
kuburan
kuburannya
kubus
kucai
kuching
kuciakan
kucing
kuda
kudeta
kudi
kudus
kue
kufah
kugelhupf
kuhn
kuil
kuin
kuini
kuininya
kuipar
kuiper
kuit
kuitan
kuitannya
kujawski
kujuk
kuku
kukulaan
kukulai
kukumpulan
kul
kula
kulaan
kulam
kulanya
kulat
kulawarga
kulawarganya
kuliah
kulih
kulihan
kulihnya
kuliksi
kuliling
kulimbit
kulimbitnya
kuliner
kulipak
kulit
kulitnya
kulkas
kulminasi
kulon
kultivar
kultivarnya
kultur
kultural
kulturalnya
kulturnett
kulu
kuluh
kuluni
kulunial
kulur
kuma
kumaha
kumai
kuman
kumandan
kumang
kumargi
kumbang
kumbinasi
kumersial
kumidi
kumik
kumintar
kumirsial
kumisi
kumit
kumite
kumiti
kumkuma
kumpa
kumpai
kumpak
kumpang
kumpas
kumpatisi
kumpay
kumpeni
kumpilasi
kumplikasi
kumpliks
kumpulan
kumpunen
kumpunin
kumpusisi
kumputar
kumputer
kumulasi
kumulunimbus
kumulus
kumunikasi
kumunis
kumunitas
kun
kuna
kunat
kunci
kuncup
kunde
kunder
kundisi
kundur
kuneiform
kunflik
kung
kungfu
kuning
kuningan
kunjang
kunjungan
kuno
kunsip
kunsipsi
kunsiptual
kunstan
kunstitusi
kunsultan
kunsumsi
kuntak
kuntau
kunti
kuntiks
kuntin
kuntrak
kuntulwinanten
kunu
kunyit
kuo
kuota
kupang
kupi
kupiah
kuprasi
kupu
kura
kuran
kurang
kurangna
kurangnya
kuranji
kurap
kurau
kurawa
kurban
kurbannya
kurcaci
kurdi
kurdinasi
kure
kuribu
kurik
kurikulum
kuril
kurinah
kuripan
kurispundinsi
kuriya
kurniawan
kuroda
kursi
kursus
kurt
kuru
kurukshetra
kurun
kurunandana
kurung
kurupsi
kurus
kurva
kusa
kusabab
kusakata
kusam
kusambi
kusan
kushan
kusir
kusta
kusung
kusus
kut
kuta
kutabaru
kutai
kutak
kutamadya
kutang
kutanya
kutara
kutaringin
kutawaringin
kutejensis
kutika
kutip
kutipan
kutu
kutub
kutukan
kutup
kuurdinat
kuwait
kuwin
kuyang
kuyuk
kuzensof
kvitsøy
kw
kwaeng
kwan
kwang
kwanyar
kween
kyai
kyle
kyo
kyoko
kyoto
kyung
kyushu
l
la
lab
laba
labai
laban
labanan
labang
labat
labatan
labdakus
label
labi
labia
labian
labih
laboratorium
laboratory
labskaus
labu
labuan
labuhan
labuk
laburan
laburaturium
lack
lacrimale
lacrimalia
lada
ladak
ladakan
ladang
ladar
lading
ladon
laduman
lady
laem
laertes
lafal
lafayette
lafaz
laga
lagas
lagi
laginda
lagindaris
lagos
lagu
laguna
lagunya
lah
laham
lahan
lahatlahat
lahei
lahir
lahmi
lahong
lai
lain
lainan
lainlah
lainnya
laius
laja
lajang
lajar
laju
lajur
lakarsantri
lakas
lakatan
lake
lakeland
lakes
lakeside
lakeview
lakhesis
laki
lakian
lakinya
lakon
lakonia
lakrimal
laksamana
laksana
laku
lakunya
lalainan
lalak
lalakian
lalakiannya
lalamas
lalana
lalang
lalangitan
lalat
lalautan
lalawanan
lalawangan
lalean
lallement
lalu
laluan
laluhur
lalungkang
lam
lama
lamah
lamak
laman
lamandau
lamang
lamanya
lamaran
lambaga
lambah
lambang
lambangnya
lambap
lambar
lambaran
lambat
lambu
lambung
lambut
lamia
lamida
lamin
lamoanak
lamon
lamongan
lampad
lampahung
lampau
lampihong
lampin
lampinigan
lampit
lampu
lampung
lamun
lamunnya
lamunti
lamut
lan
lanah
lancap
lancar
lancaster
lancip
land
landai
landak
landap
landas
landasan
landau
landing
landir
landlocked
lands
landscape
lane
lang
langadai
langage
langan
langat
langau
lange
langensari
langgah
langgar
langgundi
langit
langka
langkah
langkai
langkang
langkap
langkapnya
langkar
langkasuka
langkuas
langkuk
langkung
langlam
langlang
langmuir
langrange
langsat
langsung
language
languages
langue
lanik
lanjar
lanjut
lanjutan
lanka
lanset
lanskap
lantai
lantainya
lantaran
lantas
lantay
lanting
lantur
lanyap
lao
laodamas
laoet
laok
laomedon
laos
lapak
lapan
lapang
lapangan
lapar
lapas
lapik
lapinig
lapinigan
lapis
lapisan
laplace
lapo
laporan
laporannya
lapri
lapuran
lapurannya
lapus
larang
larangan
laras
larasati
laredo
laren
largest
largo
lari
larry
larsen
larson
larung
larut
larutan
larva
larvae
larvik
las
lascaux
laser
laskar
lasso
last
lasung
lat
latar
latat
late
lateral
laterale
lateralia
latham
latihan
latin
latvia
lau
lauderdale
lauk
laun
launch
laung
laur
laurel
laurent
laurie
laut
lautan
lautnya
lava
lavigne
law
lawa
lawah
lawai
lawak
lawan
lawang
lawangnya
lawannya
lawas
lawasnya
laweh
lawrence
lay
layak
layaknya
layanan
layang
layap
layar
layat
layu
layung
lazim
lazimnya
lazuardi
lazuli
lazurit
lbhn
lbst
lcross
ld
ldn
ldva
le
lea
lead
leading
leads
leaf
league
leap
learn
learning
leary
leawood
lebah
lebak
lebakwangi
leban
lebang
lebanon
lebar
lebaran
leberka
lebih
lector
leda
ledak
ledakan
ledo
lee
leech
leeches
lees
left
lega
legacies
legalitas
legend
legenda
legendaris
legends
legi
legislatif
legit
leh
leher
lehigh
lehman
leicester
leiden
leikanger
leipzig
lek
lekat
leksikal
leksikografi
leksikon
lelaki
leland
lele
leleng
lelex
lemah
lemahwungkuk
lemak
leman
lembaga
lembah
lembak
lembang
lembaran
lembata
lembu
lembursitu
lembuswana
lembut
lemes
lemnos
lemon
lempar
lempeng
lemukutan
len
lencana
lendian
lenggang
lengkap
lengkapnya
lengkong
lengkungan
length
lenin
leninism
leninisme
lenong
lensa
lentera
lenyap
leo
leon
leonardo
leone
leonsis
leopard
leopold
lepakaru
lepas
lepeh
lepidoptera
lepoq
lereng
leres
lerong
les
lesi
leslar
leslie
lesotho
less
lestari
leste
lester
lesti
lestre
lesung
let
letak
lethe
letnan
lettere
letters
lettres
letusan
leukippides
leukothea
lev
levant
level
levi
lewat
lewis
lewiston
lewistown
lewisville
lex
lexington
leyte
lgia
lho
li
lia
liah
liam
liang
liao
liar
liat
liati
libanon
libar
libarnya
libas
liberal
liberalisme
liberia
liberty
libraries
library
librasi
libre
libucan
libur
liburan
libya
licak
licaon
lichi
licin
lidah
lidi
lidung
lidzbark
lie
liechtenstein
lien
lientur
lies
life
liftback
liga
ligar
light
lighthouse
ligislatip
lignit
ligor
lihai
lihat
lihati
lihum
likat
like
likus
lil
lilies
lilin
liliput
lilit
lilitkan
lillehammer
lily
lim
lima
limas
limau
limba
limbah
limbahanu
limbahitu
limbang
lime
limfosit
limited
limo
limos
limpasan
limpasu
limpat
limping
limpingan
lin
linak
linau
lincah
lincar
lincoln
linda
lindu
lindung
lindungan
line
ling
lingga
linggang
linggarjati
linggih
lingkang
lingkar
lingkaran
lingkas
lingkonong
lingkuh
lingkungan
lingkungannya
lingkup
lingsir
lingua
linguis
linguistik
linguistique
lingustik
link
linker
links
linn
linnaeus
lintah
lintang
lintas
lintasan
lintuhut
linz
lion
lip
lipan
lipas
lipat
lipatan
liputan
liquid
lirik
liring
liris
lirit
liritan
lis
lisa
lisan
lisboa
lisbon
lise
lisensi
lisichkin
lising
lissa
list
listrik
lit
litae
litar
litchfield
liter
literary
literasi
literatur
literature
literaturgeschichte
lithosphere
lithuania
litjin
litnan
litograf
litografi
little
lituania
liturgi
liu
liuk
liukan
liur
live
liverpool
lives
living
livingston
liwar
liwat
lizards
lk
lkis
ll
lla
llano
llc
ller
llo
lloyd
lm
ln
lnlycke
lnya
lo
loa
loades
loana
loban
lobang
lobate
lobed
local
location
locator
locke
lockhart
lodge
loetoeng
log
logam
logan
logaritma
logat
logical
logika
logis
logistik
logo
logogram
logos
lok
loka
lokal
lokar
lokasi
loki
lokpaikat
loksado
loksodrom
lokus
lollipop
lomba
lombok
lome
london
lone
lonely
long
longgar
longsor
longsoran
lonjong
lontar
lontara
lontong
lonuo
look
looking
lopang
lor
loran
lord
lorenzo
lori
lorong
lorosa
los
lost
lot
loteng
lots
lotus
louis
louisiana
louisville
lourdes
louvre
love
loved
lovell
lovely
lovers
lovosice
low
lowell
lower
lowrider
lowry
loxo
loyalitas
lp
lpi
ls
lselv
lsm
ltd
lu
luan
luang
luar
luarnya
luas
luasnya
luau
luay
lubakan
luban
lubang
lubelski
lubelskie
lublin
lubok
lubuk
luc
lucas
lucia
lucius
lucu
lucut
lucy
ludah
ludwig
lugam
lugat
lugu
luhur
luigi
luka
lukaan
lukal
lukas
lukasi
lukis
lukisan
luksemburg
lula
lulu
lulucuan
lulus
lulusan
lumar
lumayan
lumba
lumbah
lumbal
lumbales
lumbalis
lumbang
lumbis
lumbu
lumbuk
luminositas
lumot
lumpangi
lumpat
lumpuh
lumpur
lumrah
lun
luna
lunacy
lunak
lunan
lunar
lunata
lunatum
luncat
lunci
lund
lung
lunggai
lunggainya
lunggar
lungsur
lungur
lunjan
lunjung
lunokhod
lunta
lunuh
lunuk
lunyuk
lupa
lupak
lupar
lupus
luput
lurah
luring
lurus
lurøy
luso
lusong
lusur
luther
luting
lutung
luwu
luwuk
luxio
luzon
lv
lwo
ly
lybica
lyndon
lynn
lyon
lyons
lærdal
lødingen
lørenskog
løten
m
ma
maadaakan
maadakan
maadam
maadu
maaf
maajar
maajarakan
maakhiri
maakibatakan
maakibatkan
maaksis
maakui
maalahkan
maalami
maalir
maamati
maambah
maambil
maampah
maampahakan
maampaiakan
maampar
maampihakan
maampihi
maan
maanalisis
maancam
maandak
maandakakan
maandaki
maandaknya
maandalakan
maanganggap
maanggap
maanggapnya
maangkat
maangkut
maanjurakan
maantarakan
maanu
maanut
maanyan
maapung
maarah
maartiakan
maartikan
maas
maatasi
maatschappij
maatur
maaturi
maawali
maawasi
maawetakan
mabuk
mac
macal
macam
macamnya
macan
macarthur
macedonia
machi
machiavelli
machine
macintosh
macklemore
macmillan
macon
macquarie
mada
madagascar
madagaskar
madakaripura
madali
madame
madang
madani
made
madeira
madhi
madhya
madi
madihin
madinah
madison
madiun
madjedi
madong
madrasah
madri
madrid
madu
madura
maduran
madya
mae
maeda
maelangi
maenad
maestro
maeterlinck
mafia
mafik
magajar
magalau
magan
magatsari
magazine
magelang
magenta
maggasing
magha
maghrib
magic
magical
magin
magister
magma
magna
magnesium
magnet
magnetik
magnetis
magnetisasi
magnetometer
magnitudo
magnolia
magnus
magrib
magun
magunai
mah
maha
mahaba
mahabarakan
mahabari
mahabharata
mahabisakan
mahadang
mahadangi
mahadap
mahadapi
mahadiri
mahaga
mahak
mahakam
mahakuasa
mahal
mahalabiu
mahalangi
mahalat
mahalatakan
mahaliungakan
mahambat
mahamuk
mahancapi
mahancurakan
mahandaki
mahang
mahantup
mahap
mahapaki
mahapatih
mahapus
mahapusakan
mahapusnya
mahar
maharagu
maharaja
maharapakan
maharashtra
maharawin
mahargai
maharit
maharu
maharusakan
mahasanghika
mahasilakan
mahasilkan
mahasiswa
mahasiswanya
mahasiswi
mahatiakan
mahaur
mahavamsa
mahawasi
mahayana
mahdi
mahe
mahiasi
mahibaki
mahigaakan
mahilang
mahilangakan
mahilangkan
mahimpun
mahimungakan
mahina
mahinda
mahindari
mahingkatnya
mahingur
mahinyik
mahir
mahiring
mahiringkan
mahirip
mahirup
mahisap
mahitung
mahkamah
mahkota
mahkuta
mahligai
mahluk
mahmud
maho
mahormati
mahou
mahsa
mahual
mahubungakan
mahubungi
mahubungkan
mahukum
mahung
mahuni
mahurmati
mahuroi
mahurup
mahyudin
mai
maia
maidentifikasi
maigut
maikat
mail
mailangi
maimit
main
mainakan
mainan
maindahakan
maine
maingat
maingatakan
maingatkan
maingkut
maingkuti
maingu
mainjam
mainspirasi
maipi
maisap
maisi
maison
maitih
maitihi
maitland
maizena
majaba
majadi
majalah
majalaya
majalis
majang
majapahit
majelis
majemuk
majilis
majlis
major
majorca
majornya
maju
majunya
mak
maka
makai
makalah
makalaham
makam
makamnya
makan
makanan
makanannya
makanya
makaria
makassar
makau
make
makedonia
makemake
makers
makes
makhai
makhaon
makhluk
maki
makin
making
makkah
maklum
maklumat
makmur
makna
maknanya
mako
makrofag
maksila
maksimal
maksimum
maksud
maksudnya
maksut
maksutnya
mal
malabihi
malabuh
maladak
maladewa
maladum
malagasi
malah
malahakan
malahan
malahap
malahirakan
malahoi
malai
malaikat
malainakan
malainkan
malajari
malaka
malaksanakan
malakuakan
malakukan
malalu
malalui
malam
malamahnya
malamar
malambangakan
malambati
malamnya
malan
malancar
malancarakan
malanda
malandai
malang
malangbang
malanggar
malangkapi
malangkung
malangsungakan
malanipa
malanjut
malanjutakan
malapasakan
malapataka
malaporakan
malapurakan
malar
malarak
malarang
malaria
malariakan
malarutakan
malastariakan
malatih
malatup
malatus
malawan
malawani
malawi
malay
malaya
malayalam
malayang
malayani
malayapi
malayaustronesian
malaysia
malaysian
malayu
malcatop
malcolm
malden
maldives
male
maleus
malewati
mali
malibas
malibatakan
malibatkan
maligar
maligari
malihat
malihatakan
malihati
malihatnya
malik
malikit
maliku
malilit
malimpati
malimpuai
malin
malinau
malindugi
malindungi
maling
malingin
malingkar
malingkun
malingkung
malingkupi
malintang
malintas
malintasi
malipat
maliput
maliputi
malisanakan
malitir
maliuk
maliwati
mall
mallei
malleus
mallorca
malnutrisi
malo
malone
maloy
malta
maluap
maluas
maluasi
maluka
malukis
malukisakan
maluku
malulusakan
malumbar
malumpat
maluncati
maluncurakan
maluncurkan
malunta
malunuhakan
maluruh
malus
mama
mamaafkan
mamacah
mamacahakan
mamacul
mamadahakan
mamadahan
mamadahi
mamaduakan
mamagat
mamagatakan
mamahami
mamahit
mamainakan
mamainakannya
mamainkan
mamajuakan
mamakai
mamakainya
mamakan
mamakaninya
mamakannya
mamakay
mamaksa
mamalia
mamalihara
mamaliharakan
mamaluk
mamanah
mamanang
mamanangakan
mamanangi
mamanangkan
mamancarakan
mamancarkan
mamanda
mamandakakan
mamandang
mamandirakan
mamanfaatkan
mamang
mamangaruhi
mamanggil
mamangsa
mamanjang
mamanpaatakan
mamantingakan
mamanuhi
mamanya
mamar
mamaraki
mamarina
mamarinanya
mamarintah
mamarintahakan
mamarintahkan
mamarlu
mamarluakan
mamarlukan
mamasak
mamasang
mamasarakan
mamastiakan
mamasuk
mamasukakan
mamasuki
mamati
mamatiakan
mamatii
mamatikan
mambabak
mambabat
mambaca
mambadalakan
mambadali
mambagi
mambagiakan
mambahas
mambai
mambaiki
mambakar
mambalah
mambalas
mambalik
mambalikakan
mambang
mambangkitakan
mambangun
mambantai
mambantang
mambantu
mambantui
mambantuk
mambarasihakan
mambarasihi
mambarati
mambari
mambariakan
mambarii
mambarikan
mambarsihi
mambasmi
mambasuh
mambatasi
mambatasinya
mambawa
mambawaakan
mambawai
mambawanya
mambayangakan
mambayar
mambayari
mambebanakan
mambiarakan
mambiayai
mambibasakan
mambibit
mambicarakan
mambicarakannya
mambida
mambidaakan
mambimbing
mambina
mambingungakan
mambuang
mambuat
mambujur
mambujurakan
mambujuri
mambuka
mambuktiakan
mambukuakan
mambulat
mambulau
mambulih
mambulihakan
mambulikakan
mambulu
mambunuh
mamburu
mamburungan
mambusuk
mamegang
mami
mamicu
mamikat
mamikirakan
mamilih
mamiliki
mamimpin
maminanduakan
maminandui
mamindah
mamindahakan
mamindahkan
mamingkut
mamingkuti
maminjam
maminta
maminum
mamisah
mamisahakan
mamluk
mammalia
mammoth
mamotivasi
mampalajari
mampangaruhi
mamparcayai
mamparhatikan
mamparingati
mamparkira
mamparkiraakan
mamparluas
mamparoduksi
mamparsiapakan
mampartahanakan
mampartahankan
mampartimbangakan
mamparulih
mampasakan
mampawah
mampe
mampengaruhi
mamproduksi
mampromosiakan
mampromosikan
mampu
mampunyai
mamuat
mamugai
mamukul
mamulai
mamungkinakan
mamungkinkan
mamuruk
mamusatakan
mamusingi
mamutar
mamutusakan
man
mana
manaar
manaat
manabas
manabuh
manabuk
manabus
manado
manaf
managakakan
managasakan
management
managuk
managuknya
manahan
manahani
manaikakan
manaiki
manajak
manajeme
manajemen
manajer
manajimin
manakala
manaklukakan
manakunakan
manakuniakan
manakutani
manalipun
manaliti
manamai
manambah
manambahakan
manambahi
manambai
manambaiakan
manambon
manambus
manamoc
manampai
manampaiakan
manampaikan
manampati
manampayakan
manampik
manampikakan
manampilakan
manampuh
manampung
manamuakan
manamui
manamukan
manamuni
mananam
mananda
manandaakan
manandai
manandakan
manandatangani
manandingi
manang
manangah
manangani
manangari
manangat
manangati
mananggapi
manangguhakan
mananggulangi
manangkap
manangkis
manantang
manantu
manantuakan
manantukan
manapaat
manapun
manara
manarai
manarap
manarapakan
manarapkan
manarbitakan
manarik
manarima
manarjamahakan
manarjamahkan
manarus
manarusakan
manaruskan
manasa
manassas
manatak
manatap
manatapakan
manatapakannya
manatapkan
manau
manawak
manawarakan
manawari
manawing
mancagah
mancakup
mancalonakan
mancampurakan
mancanagara
mancantumakan
mancapai
mancaraminakan
mancari
mancarii
mancarminakan
mancatat
mancatu
mancatusakan
manchester
manchuria
mancilang
mancipta
manciptaakan
manciptakan
manciptakannya
mancitak
mancium
mancoba
mancuba
mancubai
mancucuk
mancungul
mancungulakan
mancur
mancurat
mandadak
mandahului
mandai
mandakam
mandakwahakan
mandala
mandalajati
mandalami
mandalang
mandalika
mandaliun
mandampingi
mandangani
mandangar
mandangarakan
mandao
mandapat
mandapatakan
mandapati
mandapatkan
mandaptar
mandar
mandarat
mandaratakan
mandaratkan
mandarin
mandarita
mandasak
mandasar
mandasari
mandastana
mandat
mandatangakan
mandatangi
mandatar
mandau
mandawa
mandawai
manday
mande
mandeteksi
mandi
mandiami
mandibula
manding
mandiraja
mandiri
mandiriakan
mandirikan
mando
mandominasi
mandor
mandu
manduduki
manduga
mandukumintasi
mandukung
mandukungnya
mandul
manduminasi
mandung
mandunia
mandura
mane
manewasakan
manfaat
manfaatnya
mang
manga
mangabdiakan
mangacu
mangaduakan
mangaitakan
mangajak
mangajar
mangaji
mangajut
mangajutakan
mangaka
mangakibatakan
mangaku
mangakui
mangalahakan
mangalahkan
mangalami
mangalilingi
mangalir
mangallekana
mangalola
mangaluarakan
mangaluh
mangalula
mangalumbuni
mangalumpukakan
mangambang
mangambangakan
mangambangkan
mangambara
mangambil
mangamuka
mangamukakan
mangan
manganai
manganal
manganalakan
mangancam
mangandalakan
mangandaliakan
mangandung
mangaradau
mangarang
mangarani
mangaraninya
mangaras
mangaritik
mangarti
mangaruhan
mangasahakan
mangatahuani
mangatahui
mangatam
mangaturkan
mangawaakan
mangawaiakan
mangawini
mangga
manggabungakan
manggaduh
manggagai
manggala
manggalar
manggalari
manggalungsur
manggambar
manggambarakan
manggambarkan
manggana
mangganai
mangganalakan
mangganali
mangganang
mangganggu
manggani
mangganii
manggantal
mangganti
manggantiakan
manggantikan
manggantung
manggar
manggarakakan
manggarap
manggawi
manggawiakan
manggawil
manggawinya
manggis
manggolongkan
manggugurakan
manggumpal
mangguna
manggunaakan
manggunakan
mangguncang
manggurak
manghadap
manghancurkan
manghasilakan
manghubungakan
manghurmati
mangiaw
mangibarakan
mangifera
mangikihi
mangingat
manginum
mangira
mangirim
mangirimakan
mangisahakan
mangisahkan
mangitari
mangkaji
mangkalapi
mangkaritik
mangkasar
mangkat
mangkatip
mangkawuk
mangkayahu
mangkilap
mangkilat
mangklaim
mangklasipikasikan
mangkoeboemi
mangkritik
mangku
mangkubumi
mangkubuminya
mangkuhung
mangkuk
mangkunagara
mangkupalas
mangkurat
mangorbanakan
mangrove
mangrupikeun
mangsa
mangsanya
mangsee
manguap
manguasai
manguati
mangubur
mangudak
mangulas
mangulihakan
mangulihi
mangulilingi
mangumandangakan
mangumpulakan
mangumpulkan
mangumumakan
mangundurakan
mangungsi
mangunjungi
mangurangi
mangurbanakan
mangurbit
mangutip
mangutuk
manguya
manguyak
manhattan
maniae
manian
manifestasi
manifesto
manik
manikah
manikahi
manikasi
manikin
manikinakan
manikmati
manila
manilai
manimbai
manimbak
manimbakakan
manimbulakan
manimbulkan
maninggal
maninggalakan
maninggalkan
maninggalnya
maningkat
maningkatakan
maningkatkan
maningkatnya
maninjau
manipulasi
manipura
manira
maniring
maniru
manis
manisan
manit
maniwasakan
manjabarakan
manjabat
manjadi
manjadiaakan
manjadiakan
manjadiakannya
manjadikan
manjadikannya
manjaga
manjagai
manjajah
manjajak
manjalanakan
manjalang
manjalani
manjalankan
manjalar
manjalasakan
manjalaskan
manjalin
manjalma
manjamin
manjamur
manjanak
manjanaki
manjangkau
manjangkit
manjapai
manjarang
manjauhakan
manjauhi
manjawab
manjual
manjuhut
manjul
manjulung
manjulungi
manjunjung
manjur
mankato
manning
manolak
manonjol
manpaat
mansahakan
mansapa
mansfield
mansion
mansur
mantagah
mantah
mantan
mantangai
mantap
mantari
mante
mantega
mantel
manteri
manterinya
mantewe
mantikei
mantis
mantle
mantra
mantri
mantrijeron
mantuhe
mantuil
mantuk
mantup
manu
manuai
manual
manubar
manubrium
manucan
manuel
manufaktur
manuhing
manuju
manuk
manukar
manukari
manukarinya
manukup
manukupi
manulak
manular
manulis
manulisakan
manulisakannya
manuliskan
manulung
manulungi
manumbuk
manumpuk
manunaiakan
manunaikan
manunda
manundukakan
manunggal
manunggul
manunjuk
manunjukakan
manunjukkaan
manunjukkan
manunjul
manunjulakan
manunti
manuntu
manuntung
manuntungakan
manuntut
manuraiakan
manurun
manurunakan
manurung
manurut
manuruti
manurutnya
manus
manusia
manusiawi
manuskrip
manutup
manutupi
manuum
many
manyabab
manyababakan
manyababkan
manyabak
manyabakakan
manyabar
manyabarakan
manyabung
manyadari
manyadia
manyadiaakan
manyadiakan
manyahuti
manyajiakan
manyakitkan
manyaksikan
manyala
manyalahakan
manyalam
manyalamatakan
manyalanggaraakan
manyalidiki
manyalimuti
manyalukut
manyaluruh
manyamanakan
manyamani
manyamar
manyamarkan
manyambah
manyambat
manyambatakan
manyambati
manyambatnya
manyambung
manyambungakan
manyambunyiakan
manyamburakan
manyambut
manyampaiakan
manyampaikan
manyampurnakan
manyandang
manyangan
manyangat
manyangga
manyanggul
manyangkut
manyangsarakan
manyanyiakan
manyapuakan
manyar
manyarah
manyarahakan
manyaranakan
manyarang
manyarap
manyarbu
manyarihakan
manyaruakan
manyarupai
manyasah
manyasahi
manyasal
manyasuaiakan
manyata
manyataakan
manyatakan
manyatu
manyatuakan
manyatujui
manyatukan
manyiapakan
manyiarakan
manyiksa
manyilahakan
manyilih
manyimpan
manyimpani
manyimpulakan
manyindir
manyinggung
manyingkirakan
manyiratakan
manyirit
manyisaakan
manyo
manyoi
manyubarang
manyumbang
manyumbangakan
manyunting
manyurat
manyuruh
manyuruhakan
manyuruhkan
manyurung
manyurungakan
manyuruti
manyusu
manyusui
manyusul
manyusun
manyutujui
mao
maolah
maorbit
maosanon
map
mapan
maplandia
maple
mapleton
maplewood
mapper
maps
maputo
maqdis
maqdisi
mar
mara
marabahan
marabit
marabut
marabutakan
marabuti
maradap
maraga
maragap
maraguakan
marah
maraih
marakai
marakam
marambat
maramii
maranakakan
marancanaakan
marandahakan
marandam
marang
marangkap
marangsang
marasa
marasaakan
marasani
marat
marataakan
marathi
maratifikasi
maratua
marau
maraya
marayaakan
marayaakannya
marayakan
marble
marc
march
marcinkowski
marcos
marcus
marde
mardeka
mardika
mare
mareka
maret
marga
margaasih
margahayu
marganya
margaret
margarin
margasari
margasatwa
margin
margo
margomulyo
marguerite
marhum
mari
maria
mariah
mariam
mariana
mariangin
marianna
mariap
marias
maricaban
marie
marietta
marika
marikit
marikitakan
marikoi
mariksa
marilis
marin
marina
marinduque
marine
mariner
marineris
maringgi
marino
marion
maris
marispun
marista
marit
maritam
maritim
mark
markas
markasnya
market
marketing
marks
markt
marlene
marley
marlon
marmer
maroko
marpakan
marquette
marquis
mars
marsekal
marshall
marsias
marta
martabak
martabat
martadinata
martadipura
martapoera
martapura
martasari
martasura
marti
martil
martin
martini
martins
martinsburg
martinus
martir
maru
marubuhakan
marugiakan
marujuk
marukangan
maruku
marumpak
marumusakan
maruncing
marupa
marupaakan
marupakan
marusak
marwan
marwati
marx
marxis
marxism
marxisme
mary
maryamah
marys
marysville
marzuki
mas
masa
masak
masakan
masalah
masalap
masam
masami
masanya
masarakat
masaru
masashi
masayu
masbate
masdar
masehi
mashima
masigit
masih
masihi
masilah
masin
masing
masir
masjid
masjidil
mask
maskapai
maskar
masker
maski
maskipun
maskun
maskut
mason
maspul
masqat
mass
massa
massachusetts
massaid
massal
massanya
master
masterchef
mastikeun
masuk
masukakan
masukan
masukih
masuknya
masulan
masyarakat
masyarakatnya
masyhur
masyumi
mat
mata
matahari
matam
matamatika
matan
matang
matannya
matanpada
matanya
mataram
mataraman
matarial
mate
matematika
matematikawan
matematis
materi
material
materialisme
mathi
mati
matian
matiri
matirial
matius
matsumoto
matsuo
matsya
matsyapati
matters
matthew
matthews
matthias
matton
mau
maubah
maubati
maucapakan
maudara
maugah
maugahakan
maujaki
mauji
maujut
maujutakan
mauk
maukur
maulah
maulahnya
maulana
maulangi
maulangivinaya
maulid
maulihi
maumpat
maumpatakan
maumpati
maumpatinya
maumumakan
maunciti
maundurakan
maungkaiakan
maungkapakan
maunjuk
maunjuki
maunjun
mauntungakan
maupayaakan
maupun
maurak
maurbit
mauriac
maurice
mauritania
mauritius
maurus
maurusi
mausir
mausulakan
mausulkan
maut
mautamaakan
mautamakan
mautarakan
mawaca
mawagasakan
mawah
mawai
mawajibakan
mawakili
mawan
mawang
mawar
mawarisakan
mawarnai
mawatasi
mawawancarai
mawujudakan
max
maxilla
maxillae
maxim
maxima
maxwell
may
maya
mayakinakan
mayakini
mayanau
mayang
mayar
mayasura
mayat
mayer
mayfield
mayjen
mayo
mayor
mayoritas
mayotte
maysville
mayu
mayur
mayuritas
mayus
mazda
mazhab
mazowiecka
mazowiecki
mazowieckie
małopolski
maŋgunakan
maɲebabkan
maɲebarkan
mbang
mbaru
mbc
mbe
mber
mc
mcarthur
mccain
mcdonald
mchenry
md
mdpl
me
mea
meadow
meadows
meadville
meandak
meangkut
meaning
measles
measure
meat
mecca
med
medan
medang
medea
medford
medhu
media
mediae
medial
mediale
medialia
mediator
mediawiki
medical
medicine
medieval
medio
medis
mediterania
mediterranean
medium
medon
medusa
meet
meeting
meets
mega
megaera
megah
megaregolith
megawati
megiella
mego
megumi
meh
mehibaki
mehmet
mei
meiji
meja
mekanik
mekanisme
mekanolinguistik
mekar
mekarsari
mekkah
mekong
meksiko
melah
melaham
melahirkan
melainkan
melak
melaka
melaksanakan
melakukan
melalui
melambangkan
melampus
melamut
melan
melana
melanda
melandaskan
melanesia
melanjutkan
melankolis
melanthus
melapi
melaporakan
melaporkan
melarikan
melastoma
melasu
melati
melatih
melawan
melawi
melayang
melayani
melayik
melayu
melayuonline
melbourne
meleager
melebihi
melekat
melempar
melengkung
melepaskan
melewati
meliae
meliau
melibatkan
melihat
melindungi
melinoe
melintang
melintasi
meliputi
melody
melona
melosh
meluas
melukai
melville
melvin
memadai
memahak
memainkan
memakai
memakan
memakay
memaksa
memampat
memancing
memandang
memang
memanggil
memanjang
memanjat
memaparkan
memasak
memasok
memasuki
memasukkan
mematenkan
membaca
membahas
membaiki
membakar
membangun
membantu
membantuk
membariakan
membawa
membayangakan
membayar
membedakan
membeli
membentuk
member
memberi
memberikan
membersihkan
membran
membri
membuang
membuat
membuatnya
membujuk
membuka
membulat
membunuh
membunuhnya
membusuk
membutuhkan
memegang
memelan
memelihara
memeluk
mementaskan
memenuhi
memerintah
memerintahakan
memerintahkan
memerlukan
memicu
memilih
memiliki
memimpin
memindahkan
meminta
memisahakan
memisahkan
memnon
memoar
memori
memorial
memory
mempalajari
mempatenkan
mempawah
mempelai
mempelajari
mempengaruhi
memperbaiki
mempercayai
memperingati
memperkirakan
memperoleh
memperpanjang
mempertahaankan
mempertahanakan
mempertahankan
mempertaruhkan
mempertimbangkan
memphis
memproduksi
mempromosikan
mempunyai
memukau
memulai
memuncak
memungkinkan
memutusakan
memutuskan
men
menae
menaklukan
menakon
menamainya
menambahkan
menancap
menanda
menandai
menandakan
menandatangani
menang
menanggal
menangis
menangkap
menantak
menara
menarik
menarima
menawarkan
mencakup
mencapai
mencari
mencatat
mencegah
mencela
menciptakan
mencium
mencoba
mendahului
mendakan
mendalam
mendapat
mendapatakan
mendapatkan
mendarat
mendatangi
mendawai
mendefinisikan
mendekati
mendengar
menderita
mendesain
mendik
mendirikan
mendominasi
mendon
mendorong
mendota
menduduki
mendukung
menekan
menelaus
menempati
menempuh
menemukan
menengah
menentang
menentukan
menerima
menerus
menerusakan
meneruskan
menestheus
menewaskan
mengacu
mengadakan
mengajak
mengajar
mengajarakan
mengakhiri
mengakibatkan
mengaku
mengakui
mengalahkan
mengalami
mengalir
mengambang
mengambil
menganai
mengandung
menganggap
mengangkat
menganugerahkan
menganut
mengapung
mengarah
mengatakan
mengatasi
mengatur
mengawasi
mengawini
mengelilingi
mengeluarkan
mengembangkan
mengenai
mengenal
mengenang
mengendalikan
mengerahkan
mengesankan
mengetahui
menggambarakan
menggambarkan
mengganggu
menggantiakan
menggantikan
menggaris
menggembalakan
menggunaakan
menggunakan
menghabiskan
menghadap
menghadapi
menghadiri
menghalau
menghancurkan
mengharapkan
menghasilkan
menghentikan
menghilang
menghindari
menghitung
mengiaunya
mengikuti
menginap
menginginkan
mengirimkan
mengkaji
mengklaim
mengkritik
mengoperasikan
mengorbit
menguasai
mengubah
mengumumkan
mengundurkan
mengunjungi
menguntungkan
mengurangi
mengusulkan
mengutip
menikah
menikahi
menikmati
menimbulakan
menimbulkan
menimpa
meninggal
meninggalakan
meninggalkan
meningkat
meningkatkan
menit
menjabat
menjadi
menjadikan
menjaga
menjajah
menjalanakan
menjalani
menjalankan
menjalin
menjangan
menjatuhkan
menjawab
menjelang
menjelaskan
menjemput
menjual
menjunjung
menkes
menko
menlo
menno
menoetes
menolak
menolong
menonjol
menonton
menopang
menor
menorca
mensiku
menstruasi
mensuang
mentah
mental
mentarang
mentatai
mentawa
mentaya
mentebah
mentega
menteng
menteri
menthobi
mentimun
mentoba
mentomoi
mentor
menu
menuju
menukung
menular
menulis
menunggang
menunggu
menunjukakan
menunjukkan
menunjul
menuntungakan
menunuk
menurun
menurunkan
menurut
menutupi
menyabarluaskannya
menyaingi
menyajikan
menyamar
menyambat
menyampaikan
menyangkut
menyatakan
menyebabkan
menyebar
menyebarakan
menyebarkan
menyeberangi
menyebut
menyebutnya
menyediakan
menyelamatkan
menyelenggarakan
menyelesaikan
menyerah
menyerang
menyerap
menyerupai
menyetujui
menyimpani
menyukai
menyuke
menyuruh
menyusun
menyusuri
mera
merabut
merah
meraih
merajai
merak
merancang
meranti
merapi
merasa
merasakan
meratus
merauke
merayakan
merayu
merbaboe
merbabu
merbau
mercedes
mercer
mercier
mercury
mercusuar
merdeka
merebut
merek
mereka
mergangsan
merger
meriam
meridian
merilis
merkurius
merkusuar
merope
merpak
merpati
merriam
mers
merujuk
merupa
merupakan
merusak
mesangat
mesen
mesh
mesias
mesin
mesinnya
mesir
mesiu
mesjid
meski
meskipun
mesoamerika
mesopotamia
mesozoikum
mesquite
mesra
message
messe
messene
met
meta
metacarpi
metacarpus
metafisik
metafisika
metafora
metakarpal
metal
metalik
metan
metana
metatarsi
metatarsus
meteor
meteorid
meteorit
meteoroid
meteorologi
meter
methe
method
methodius
methodology
methods
metil
metode
metodologis
metrik
metro
metropolis
metropolitan
meulah
meumpati
meunjuki
mew
mewah
mewakili
mexican
mexico
meyakinkan
mezo
mf
mg
mgr
mi
mia
miami
miang
miasteczko
miasto
miau
michael
michele
michigan
microsite
microsoft
mid
midan
midas
midden
middle
middletown
midget
midia
midnight
midori
midsummer
midway
midwest
mie
mieko
mifflin
mig
migran
migrasi
miguel
mihing
mihrab
miiko
mija
miju
mika
mikanisma
mikanisme
mikawa
mike
mikey
mikha
mikhail
miki
mikic
mikologi
mikro
mikrobiologi
mikronesia
mikroorganisme
mikroskopik
mikroskopis
mikru
mil
milan
milano
milarian
milenium
miles
milford
mili
miliar
milidetik
milik
miliki
milis
militan
militar
military
milite
militer
militernya
militir
milk
milki
mill
miller
millersburg
mills
millville
milner
milo
milton
milyar
mimak
mimang
mimbar
mimika
mimiti
mimpi
min
mina
minak
minami
minang
minangkabau
minantu
minat
mindanao
mindoro
mineral
mineralogi
mineralogy
ming
mingan
minggu
mingguan
minh
mini
miniatur
minibus
minimal
minimo
minimum
mining
miniral
minister
ministry
minivan
minjangan
minna
minneapolis
minnesota
minor
minorca
minoritas
minos
minsk
mint
minta
mintaraga
mintuhanya
minum
minuman
minuritas
minus
minya
minyak
mio
miosen
mir
miracle
mirage
mirah
miranda
miri
miriam
mirik
miring
mirip
mirkurius
mirovia
mirrha
mirror
mirtilus
mis
misa
misal
misalkan
misalnya
misery
mishima
mishnah
misi
misionaris
miskin
miss
missing
mission
mississippi
missouri
mist
misteri
misterius
mistik
mistis
mistral
mistubishi
mit
mitabulisma
mitchell
mitir
mito
mitologi
mitologis
mitos
mitra
mitsubishi
mitsumasa
mittal
mittelalter
mituda
mitudi
mitulugi
mitus
miuchi
miura
miwa
miwan
miyamoto
miyazaki
mizan
mj
mjøsa
ml
mly
mm
mnc
mo
moab
mobil
mobile
moda
modal
mode
model
modeling
modelnya
modern
moderna
moderne
modernism
modernizing
modified
modifikasi
modo
modul
modulo
modung
modus
moe
moehammad
moggaliputta
moh
moha
mohamad
mohamed
mohammad
mohammed
mohani
mohd
mohon
moines
moirae
mojo
mojokerto
mojorejo
mojosari
mokrasi
mokratik
molasses
moldavia
molde
moldova
moldy
molecular
molekul
molekular
molekuler
moline
molloy
molotov
moluska
molybdenum
momen
momentum
momoyama
momus
mon
mona
monako
monarki
monday
monet
moneter
money
mong
mongol
mongolia
mongondow
monica
monisma
monitor
monkey
monkeys
monmouth
monna
monogatari
monolog
monopoli
monoteis
monoteisme
monroe
mons
monster
mont
montale
montallat
monte
montenegro
monterado
montero
montessori
montevideo
montezuma
montgomery
monticello
montong
montreal
montrose
monumen
monyet
mood
mook
moon
moone
moor
moore
moorhead
mora
moraceae
moral
moralitas
morality
morally
moravia
more
moreh
morfem
morfeus
morfologi
morgan
mori
morikawa
morio
morley
mormo
mormon
morne
morning
moro
moroni
moros
morris
morrison
morristown
morska
morton
moscow
moshe
moskee
moskow
moskowitz
moskwa
mosque
mosquito
moss
most
moster
motang
motel
mother
motif
motilal
motilango
motivasi
moto
motogp
motor
motors
motorsports
motto
moulton
mound
mount
mountain
mountains
mouse
moutong
movie
movimiento
moya
moyang
mozambik
mozambique
mozart
mp
mpaja
mph
mpr
mpu
mpv
mr
mra
mrt
ms
msa
msf
msn
mstan
mt
mtq
mts
mu
muakad
muallim
muang
muangthai
muar
muara
muasal
muat
muatan
muawiyah
mubil
muchlis
mucius
mud
muda
mudah
mudahan
mudal
mudel
mudhori
mudik
mudil
mudirin
mudra
mueang
mufakat
mufti
mugi
muha
muhajir
muhajirin
muhammad
muhammadiyah
muhamu
muhanya
muhara
muharam
muharram
muhidin
muhtadin
muhur
mui
muid
mujai
mujan
muka
mukaan
mukaddimah
mukadimah
mukai
mukanya
mukim
mukjizat
mukok
mukti
mula
mulai
mulainya
mulan
mulanya
mulawarman
mulay
mulia
muliaq
muller
mulo
multangulum
multatuli
multi
multimedia
mulud
muluk
mulupan
mulus
mulut
mulutnya
mulya
mulyani
mulyo
mulyorejo
mumbai
mumbung
mumuka
mumukaan
mun
munch
muncul
munculnya
mundar
munduk
mundur
munggu
mungguk
mungkin
mungkur
munich
munin
muning
munippus
munir
munisipalitas
munnya
munstar
muntai
muntung
muntungnya
munupuli
mupakat
muprod
murah
murakami
mural
murasaki
murder
murid
muridnya
murit
muritnya
murjani
murka
murni
muro
muromachi
murphy
murray
mursjid
mursyid
muruk
murung
musa
musababnya
musabaqah
musafir
musang
musanna
musapir
muse
museo
muses
museum
museums
musi
musibah
music
musical
musik
musikal
musiknya
musikus
musim
musiman
musisi
musium
muslihat
muslim
muslimin
musnah
mussolini
mustafa
mustain
mustang
musti
mustika
musuh
musuhnya
musyawarah
musytari
muszaphar
mutasi
mutiara
mutif
mutip
mutlak
mutu
mutually
mutur
muyang
muyub
mw
mx
my
myanmar
mykenai
myrtaceae
myrtle
mys
mysterious
mystery
mystus
mythology
n
na
nabati
nabi
naburot
nacl
nad
nada
nadanya
nadi
nadjmi
nadong
nadu
nae
nafis
nafsiah
naftol
nag
naga
nagai
nagano
nagaoka
nagar
nagara
nagaranya
nagarao
nagarawan
nagari
nagasaki
nageri
nagon
nagorno
nagoya
nagreg
nagri
nagubat
nah
naha
nahap
nahapnya
nahdatul
nahdlatul
nahwu
nai
naiad
naias
naik
naiknya
naini
nairizi
nairobi
naitu
najis
nakayama
nakhon
nakula
nala
nalanda
nalar
nalaut
nalayan
nalika
nalungtik
nam
nama
namaku
namanya
namaste
namche
name
names
namibia
namier
nampak
nampi
namun
nan
nana
nanah
nanang
nang
nanga
nanggala
nanggalo
nanging
nangini
nangintu
nangitu
nangituh
nangka
nangkaya
nanitu
nanjing
nanjung
nanokristal
nanometer
nansen
nanta
naoki
naoko
naon
napa
napas
napigasi
naples
napoi
napoleon
napoli
napu
naputi
nara
narada
naraka
naran
narapidana
narasi
naratif
narayan
narcissus
narita
narkotika
naro
narratives
naru
naruhito
naruto
narutowicz
narvik
nasa
nasal
nasale
nasales
nasalia
nasalis
nasariley
nascar
nashville
nasi
nasib
nasibnya
nasihat
nasinal
nasional
nasionalis
nasionalisme
nasir
nasirah
nasiunal
naskah
nassau
nasution
nata
natai
natal
nation
national
nations
native
natrium
natsir
natsuki
natsume
natsumi
natty
natuna
natural
naturalis
naturalism
naturalisma
naturalisme
nature
naungan
nauru
nausika
naval
naviculare
navicularia
navigasi
navigator
navikular
nawang
naxos
naya
nayuq
nazar
nazaret
nazi
naŋ
nberg
nchen
ncov
nd
ndada
nde
ndemik
ndemisma
nderal
ndrawasih
ne
near
nebraska
nebula
nebulosa
nectaris
nedre
need
needs
nefelai
nefele
negara
negasi
negatif
negatip
negeri
negeskeun
neglasari
negosiasi
negro
nehas
nehru
neil
nek
nekan
nektar
nelayan
neleus
nelson
nelumbo
nemesis
nen
nenek
neny
neo
neofelis
neogen
neolitik
neolitikum
neon
neoptolemus
neosho
nepal
neptu
neptunus
nera
nereid
nereus
nerites
nero
neruda
nes
nestle
nestor
net
netanyahu
netherlands
netral
netralisasi
netralitas
network
neurocranium
neutron
nevada
never
nevirapin
nevis
new
newald
newark
newburgh
newcastle
newcomb
newport
news
newton
next
nfl
ng
nga
ngabang
ngabantosan
ngabuburit
ngadamel
ngadistribusikaeun
ngadorong
ngadulag
ngagaduhan
ngagaleuh
ngagambarkeun
ngagunakeun
ngah
ngahalangan
ngahasilkeun
ngajajah
ngaju
ngajual
ngakak
ngakibatkeun
ngalaksanakeun
ngalaman
ngalanggar
ngalangkungan
ngalaporkeun
ngalarang
ngaleupaskeun
ngalibatkeun
ngalih
ngalihnya
ngaluarkeun
ngam
ngamankeun
ngambon
ngamimitian
ngampilan
ngamungkinkeun
ngan
ngandelkeun
nganggo
ngantisipasi
ngara
ngaram
ngaran
ngarani
ngarannya
ngare
ngarebut
ngaren
ngarobih
ngasem
ngawangun
ngawartoskeun
ngawatesan
ngayau
ngayogyakarta
ngc
ngen
ngeri
ngeunaan
ngeureunkeun
nggada
nggal
ngganding
nghe
ngiini
ngimbang
ngingkeun
ngini
nginih
nginilah
ngintu
ngintuh
nginum
ngira
ngirangan
ngitu
ngituh
ngitulah
ngity
ngke
ngkong
ngni
ngo
ngot
ngraho
ngumumkeun
ngungkabkeun
ngurah
ngurai
nh
nha
nhs
ni
nia
niaga
niang
nias
niat
niatnya
nibbana
nibung
nic
nica
niccolo
nice
nicea
nicholas
nichols
nicolaas
nicolas
niedersachsen
niels
niemeyer
nietzsche
nieuw
nigatip
niger
nigeria
night
nights
nigri
nih
nihilism
nihilisme
nihon
niigata
nik
nika
nikah
nikaragua
nike
nikea
nikel
nikhom
nikki
nikolai
nikolaus
niks
nikteus
nil
nila
nilai
nilainya
nilam
nilles
nimfa
nimrit
nimrod
nin
nine
nineteenth
ningkat
ningkatkeun
ningrat
nini
ninih
ninja
nintu
niobe
nipa
nipah
nipis
nipisnya
nippon
niptunus
nir
nira
nirawak
nirlaba
nirodha
nirvana
nirwana
nis
nisaetus
niscaya
nissan
nitrogen
nitu
nix
nixon
nj
njo
nk
nkri
nl
nm
nnag
no
nobel
nobility
noble
nobuhiro
noc
noda
node
noeditsection
noel
noen
noi
nok
nokia
nokturnal
nom
nome
nomenclature
nomina
nominasi
nomor
nomos
non
nonbelief
nong
nonkognitivisma
noon
noor
noord
noorhaidi
nopember
nor
noran
nord
nordic
nordik
nordin
nordland
norfolk
norma
normal
norman
normandy
normatif
norse
norte
north
northern
norton
norway
norwegia
norwegian
norwich
norwood
nos
nose
nosi
not
notasi
note
notes
noto
notoc
notosudirdjo
notosusanto
notus
nouveau
nov
nova
nove
novel
novelis
novella
november
novi
novick
novo
now
nowa
nowe
nowogro
nowy
nox
noyan
nr
ns
nsasi
nsi
nsial
nsitif
nsitivitas
nster
nta
ntah
ntahan
ntahkeun
nte
nter
ntifikasi
ntt
nu
nuak
nuansa
nube
nubuat
nucifera
nuduh
nuenen
nueva
nuevo
nugini
nugraha
nugroho
nuklir
nul
numa
number
numbers
numinasi
numur
numutkeun
nun
nunjukkeun
nunukan
nunung
nuova
nupedia
nupil
nupimbir
nupul
nur
nurani
nurasat
nurdin
nuremberg
nurhaliza
nurma
nurmal
nuruddin
nurul
nurut
nus
nusa
nusakambangan
nusantara
nusia
nutfah
nutrisi
nuturkeun
nuvimbir
nv
ny
nya
nyababkeun
nyadom
nyae
nyai
nyak
nyala
nyalira
nyaman
nyamuk
nyandak
nyanggai
nyanggau
nyanyian
nyanza
nyapau
nyarak
nyarankeun
nyaring
nyarios
nyarioskeun
nyata
nyatakeun
nyatanya
nyatu
nyawa
nyayogikeun
nye
nyebar
nyebarkeun
nyelong
nyepi
nyi
nyimpen
nyingkahan
nyiru
nyita
nyiur
nyiwuh
nyo
nyobian
nyonya
nyuatan
nyuruh
nyx
nze
nøtterøy
o
oak
oakland
oakley
oaks
oakville
oas
ob
obama
obang
obat
obatan
oberon
obesitas
obje
objectivity
objects
objek
objektif
obligations
obor
oborniki
observasi
observation
observatorium
obyek
oc
occhi
occidental
occipitale
ocean
oct
october
octrooi
oda
oday
oder
odessa
odin
odisseus
odong
odore
odorico
odrzan
odyssey
oebalus
oecd
oecussi
oedipus
oedjarnja
oeneus
oenomaus
of
off
offers
office
official
og
ogden
oge
ogg
ogigus
ogong
ogooue
ografi
ogura
oh
ohchr
ohio
ohv
oil
oileus
ois
oiseau
oizys
ojk
ok
oka
okeanid
okeanos
oki
okinawa
oklahoma
oksida
oksidasi
oksige
oksigen
oksipital
oktaf
oktober
oktoberfest
oku
okultasi
okurigana
ol
ola
olah
olahraga
old
ole
oleh
olenus
olesan
olga
oligosen
olih
olimpia
olimpiade
olimpus
oling
oliver
olmek
ologi
olong
olsen
olung
olympiad
olympic
olympus
om
omaha
oman
omar
omega
omniglot
omnipotence
omniscience
omnivora
on
onap
onderafdeeling
one
oneiroi
online
only
ono
onomatope
onsoi
ontario
ontologis
oort
oost
oostindische
op
open
opera
operasi
operator
opini
opior
opole
oposisi
oppenheimer
opsional
opt
optik
opu
or
ora
oral
oran
orang
orange
orangutan
oranje
orator
orbit
orbiter
orbitnya
orchard
orcus
orde
order
ordinal
ordo
ordovisium
oread
oregon
orestes
orfeus
orfne
org
organ
organel
organic
organik
organisasi
organisation
organisma
organisme
organization
organizational
organizing
orgel
orgia
ori
orient
oriental
orientale
orientalis
orientasi
origami
origin
original
originally
origins
orion
orithia
orithyia
orkes
orleans
ornamen
oro
oroi
orthotrop
ortodoks
ortodrom
ortografi
os
osage
osaka
osamu
oscar
osceola
oseania
osilasi
osing
oslo
osman
osmanya
osobl
ossa
ossetia
ossicula
osteichthyes
osterøy
ostro
oswald
ot
otak
otentik
other
others
othman
otis
otitis
oto
otomatis
otomikosis
otomotif
otonom
otonomi
otoritas
otoritatif
otot
ottawa
otter
otto
ottoman
oupis
our
ouranos
ourea
ouroboros
out
outbreak
outer
outside
outward
ouwens
oval
over
overland
overview
oviedo
owa
owari
owl
own
owners
oxbridge
oxford
oxintes
oyah
oz
ozark
p
pa
paa
paadilan
paal
paalihan
paambilan
paampihan
paampihannya
paancapan
paandakan
paangkutan
paanjatan
paanumnya
paatasan
paaturan
paawakan
paayakan
pabandingan
pabanyuan
pabaungan
pabean
pabidaan
pabila
pablo
pabrik
pabrikan
pabrikna
pabukahan
paburuan
pacah
pacahan
pacakan
pacang
pacangan
pacar
pacat
pacatur
pace
pacet
pacific
pacinan
paciran
pacitan
paco
pact
pacu
pacubaan
pacul
pacungulan
pada
padagang
padagangan
padaha
padahal
padaidi
padalaman
padalangan
padamaian
padamel
padan
padanan
padang
padangan
padapatan
padar
padas
padat
padatuan
padawanyi
padi
padisaan
padma
pado
padu
paduan
padudian
padudusan
paduli
paduman
padung
paec
paeon
pag
pagalahan
pagalangan
pagaluyon
pagan
paganisme
pagantian
pagar
pagarakan
pagaring
pagaritan
pagat
pagatan
pagawai
pagawe
pagawi
pagawian
pagbilao
page
pager
pages
pagi
pagisiran
paglangan
pagulat
pagun
pagungan
pagunungan
paguruan
pagustian
paha
pahabaan
pahabisan
pahabisannya
pahadangan
pahagaan
pahalat
pahalatan
pahalusnya
paham
pahamburan
pahampulnya
pahancapnya
pahandapnya
pahandut
pahang
pahangai
pahangan
pahanyaran
pahanyarnya
pahapusan
paharagaan
paharaguan
paharit
paharitan
pahat
pahatian
pahiasan
pahimpunan
pahin
pahinakan
pahit
pahitungan
pahlawan
pahlawannya
pahu
pahualan
pahukuman
pahumaan
pahurmatan
pahurupan
pai
paikat
pailang
painan
paing
paingat
paingkasan
paingkut
painguan
paint
painting
paipian
pair
paitih
paitihan
paiwakan
pajabat
pajah
pajak
pajalanan
pajalanannya
pajanak
pajang
pajangan
pajangei
pajangkitan
pajanjian
pajantan
pajar
pajero
pajiarah
paju
pajuang
pajuangan
pajukungan
pak
pakabunan
pakacangan
pakai
pakaian
pakaji
pakakas
pakal
pakalahian
pakambangan
pakambangannya
pakambangbiakan
pakampungan
pakan
pakapuran
pakaq
pakar
pakara
pakarangan
pakarja
pakarjaan
pakasam
pakataan
pakawinan
pakawinannya
pakay
pakayan
paket
paki
paking
pakiraan
pakis
pakistan
pakit
paksa
paksaan
paksi
paksin
pakta
paktor
paktur
paku
pakualaman
pakuan
pakuburan
pakujuk
pakujukan
pakulih
pakulihan
pakumbang
pakumpulan
pakurungan
pakutaan
pal
pala
palabuhan
palace
paladin
palaemon
palai
palainan
palajar
palajaran
palajau
palak
palaksana
palaksanaan
palaksanaannya
palaku
palamar
palampitan
palamutan
palang
palangan
palanggan
palanggaran
palangka
palangkap
palangkaraya
palanit
palanjungan
palapasan
palapis
palaran
palarangan
palarut
palas
palasan
palastarian
palastik
palatar
palataran
palatih
palatihan
palatina
palatinum
palau
palaui
palaut
palawa
palawak
palawan
palawanan
palayan
palayanan
palayanannya
palayaran
palayarum
pale
palembang
paleogen
paleolitikum
palestina
palestine
paley
palgrave
palguna
pali
palici
palidangan
palih
palihan
palihatan
palimbangan
palin
palindung
palindungan
paling
palingan
palingkau
palioxis
palipis
palir
palistina
palita
paliulitik
paliwara
pallas
palm
palma
palmer
paloh
palopor
palsu
palu
paluang
paluaran
paluasan
paluasnya
paluh
palui
palukis
palumbahnya
paluncur
paluncuran
palunuhan
palupuh
palupur
paluru
palustris
pamacahan
pamadam
pamadatnya
pamadihin
pamahaman
pamain
pamainan
pamainnya
pamaipi
pamajah
pamakai
pamakaian
pamakaiannya
pamakainya
pamakaman
pamakan
pamakanan
pamakaran
pamaknaan
pamaksinan
pamalarakan
pamali
pamalican
pamaliharaan
paman
pamana
pamanang
pamanapa
pamanasan
pamanasnya
pamancar
pamandangan
pamandir
pamandiran
pamandirnya
pamangkalan
pamangku
pamangsa
pamanis
pamanjangnya
pamannya
pamantauan
pamantingnya
pamantunan
pamarakan
pamaraknya
pamaran
pamare
pamariksaan
pamarintah
pamarintahan
pamarintahannya
pamarugram
pamasahan
pamasalahan
pamasangan
pamasaran
pamatik
pambabakan
pambaca
pambacaan
pambadahan
pambadalan
pambagian
pambaharuan
pambahasan
pambaiknya
pambajakan
pambakal
pambakaran
pambakuan
pambalah
pambalajaran
pambalakuan
pambalap
pambalasan
pambandingan
pambangkakan
pambangkang
pambangkit
pambangunan
pambantaian
pambantu
pambantuk
pambantukan
pambantukannya
pambanyakan
pambanyaknya
pambanyuan
pambarasih
pambardayaan
pambari
pambarian
pambaritaan
pambaritahuan
pambarontak
pambarontakan
pambaruntak
pambaruntakan
pambasuhan
pambatasan
pambawa
pambayun
pambiakan
pambiasan
pambibasan
pambidaan
pambimbing
pambina
pambinaan
pambuahan
pambuangan
pambuatan
pambubaran
pambukaan
pambulikan
pambuluh
pambuman
pambunuhan
pamburu
pame
pamedangan
pamela
pamenang
pameo
pameran
pameungpeuk
pameunteu
pamikir
pamikiran
pamikirannya
pamilihan
pamilu
pamimpin
paminanduan
pamindah
paminggir
pamintaan
pamintangan
pamirit
pamiritan
pamisahan
pamitaan
pammukaan
pamong
pampang
pampanga
pampijit
pamuda
pamudilan
pamugaan
pamugaran
pamuka
pamukaan
pamukaannya
pamukan
pamukiman
pamula
pamulaan
pamulaannya
pamulalit
pamulannya
pamulihan
pamulisan
pamulisannya
pamulutan
pamungutan
pamupukan
pamuruknya
pamurus
pamusatan
pamusik
pan
pana
panabuh
panabusan
panafsiran
panah
panahan
panahnya
panai
panaimbaian
panaitan
panajam
panakawan
panakea
panaklukan
panaliti
panalitian
panalitiannya
panama
panambaan
panambahan
panambaian
panambaiannya
panambain
panambaiyan
panambangan
panambayan
panambayannya
panampaian
panampakan
panampang
panampangan
panampik
panampilan
panampilannya
panampungan
panamu
panamuan
pananam
pananaman
pananda
panandatanganan
panangah
panangahan
panangan
pananganan
pananggalan
panangguk
pananggulangan
panangian
panangkalaan
panangkapan
panantuan
panapak
panarabangan
panaraian
panarangan
panarangnya
panarapan
panarapannya
panarbangan
panarbit
panarbitan
panari
panarima
panarimaan
panarjamah
panarung
panarus
panas
panasihat
panasonic
panata
panataan
panatapan
panau
panawaran
panay
panayangan
panca
pancabutan
pancagahan
pancampuran
pancang
pancapaian
pancapaiannya
pancar
pancarahan
pancarakinan
pancari
pancarian
pancarnaan
pancasila
pancatatan
pancaw
pancawara
panchala
panci
pancipta
panciptaan
pancoran
pancungul
pancungulan
pancur
pandahan
pandahulunya
pandai
pandak
pandakatan
pandakian
pandakwah
pandal
pandalakan
pandalaman
pandan
pandanaan
pandanan
pandang
pandangan
pandangannya
pandangaran
pandapat
pandapatan
pandapatnya
pandaptar
pandarahan
pandaratan
pandaratannya
pandarita
pandaritaan
pandarus
pandatang
pandau
pandawa
pandawan
pandawanan
pande
pandeglang
pandemi
pander
pandia
pandidikan
pandidikannya
pandih
pandimi
panding
pandingin
pandinginan
pandinginnya
pandion
pandir
pandiran
pandiri
pandirian
pandirinya
pandit
pandita
pandora
pandu
panduan
pandudian
panduduk
pandudukan
panduduknya
pandukung
pandukungnya
pandulangan
pane
panekuk
panel
panembahan
panen
panenteisma
panerus
pang
pangaboman
pangacara
pangacualian
pangadapan
pangadilan
pangait
pangajar
pangajaran
pangajian
pangakuan
pangalaman
pangalasan
pangalengan
pangaluaran
pangalula
pangalulaan
pangalumpukan
pangamat
pangamatan
pangambangan
pangambara
pangambilan
pangambuhan
pangampunan
pangamudi
pangan
panganalan
panganan
pangandalian
pangandaran
pangandika
pangangkatan
pangantar
pangantin
panganugerahan
panganut
pangapungan
pangaranan
pangarang
pangarangnya
pangarat
pangaringan
pangartian
pangaruh
pangaruhnya
pangarusutan
pangas
pangasinan
pangasingan
pangatahuan
pangategorian
pangatuju
pangatur
pangaturan
pangawas
pangawasan
pange
pangea
pangencot
pangeran
pangertian
pangetahuan
pangga
panggabungan
panggaduhan
panggagai
panggagaian
panggal
panggalangan
panggalian
panggamar
panggambaran
panggana
pangganaan
pangganalnya
pangganangan
panggananya
panggang
pangganjaran
pangganti
panggantian
panggarak
panggawi
panggawian
panggawiannya
panggil
panggilan
panggubah
panggul
pangguna
panggunaan
panggunaannya
panggung
pangguringan
panghancuran
panghapusan
pangharagaan
panghargaan
panghasil
panghilangan
panghubung
panghujan
panghukuman
panghulu
panghurmatan
pangibaran
pangikisan
pangikspur
pangikut
pangikutnya
panginangan
pangiran
pangirik
pangiriman
pangisian
pangiwa
pangkajian
pangkal
pangkalan
pangkalnya
pangkan
pangkat
pangkatrejo
panglihatan
panglima
pangobatan
pangrasa
pangrawit
pangreh
pangsit
panguasa
panguasaan
panguatnya
pangubatan
pangujian
pangukuran
pangulahan
pangumpil
pangumpulan
pangumuman
pangunjung
pangunyung
pangurangan
pangurbanan
pangusaha
panikasan
panikinan
panikmatan
panilaian
panilitian
panimba
panimbaan
panimbakan
panindasan
paninggalan
paningginya
paningkatan
paninjauan
panipuan
panitia
panitikan
panjaga
panjagaan
panjajah
panjajahan
panjajak
panjalajah
panjalasan
panjalmaan
panjanak
panjanakan
panjang
panjangnya
panjara
panjat
panjauhnya
panjelmaan
panji
panjimas
panjual
panjualan
panjuhutan
panjulaknya
panjunan
panjuru
panna
pannotia
panonton
panorama
pansiun
pantagruel
pantai
pantang
pantangan
pantas
pantasi
pantay
panteisma
panther
panting
pantingnya
pantuan
pantul
pantulan
pantun
panuhanya
panukar
panukup
panukupan
panulakan
panular
panularan
panulis
panulisan
panulisannya
panumbra
panumpang
panunjang
panunjukan
panuntun
panuntungan
panurunan
panutan
panutup
panutupan
panutur
panuturnya
panuwastu
panuyukan
panyabab
panyababnya
panyabar
panyabaran
panyadia
panyair
panyajak
panyajian
panyakit
panyalaan
panyalahgunaan
panyalam
panyalamatan
panyalanggara
panyalanggaraan
panyaliban
panyalidikan
panyalukutan
panyaluran
panyamaran
panyambatan
panyambungan
panyampurnaan
panyandang
panyangga
panyanyi
panyarahan
panyarang
panyarapan
panyarbu
panyarbuan
panyarbukan
panyaringan
panyasalan
panyasuaian
panyataan
panyatuan
panyaungan
panyebaran
panyiapan
panyiaran
panyidikan
panyigar
panyiksaan
panyileukan
panyimpanan
panyipatan
panyisihan
panyiuran
panyu
panyubarangan
panyumbang
panyunting
panyurungan
panyusun
panyusunan
pao
paoh
paolo
papa
papadaan
papadah
papadahan
papaduan
papaian
papake
papan
papandiran
paparak
paparan
paparangan
papare
papari
papatah
papati
papaya
paper
paperback
papila
papua
papulir
paputaran
papuyu
papuyuan
par
para
parabutan
paracapnya
parachute
paradaban
paradah
paradangan
parade
paradigm
paradigma
paradilan
paradise
paraffin
paragap
paragraf
paraguay
parah
parahatan
parahu
parai
paraian
paraih
paraitan
parajurit
parak
parakaian
paraknya
paraktik
paraktis
paralaks
paralatan
paralel
paralimpiada
parallax
paramasan
parameter
paramita
parampahan
parampihan
parampuan
paran
parana
paranala
paranan
parancaknya
parancanaan
parancang
parancis
parandahnya
parang
parangai
paranggi
parangkat
parannya
paranormal
parantara
parantau
parantos
parapin
paras
parasa
parasaan
parasan
parasapan
parasit
parasmian
parasut
paraturan
paraunan
parawan
parawat
parawatan
parawit
parayaan
parayan
parbaikan
parbandingan
parbatasan
parbedaan
parbidaan
parbidaannya
parbuatan
parbudakan
parcaya
parcis
parcitakan
parcobaan
parcubaan
pardabatan
pardagangan
pardagangannya
pardamaian
pardana
pare
parempei
parenggean
pargantian
pargarakan
pargata
parhatan
parhatian
parhiasan
parhitungan
pari
parian
pariannya
pariasi
paribadi
paribasa
paribumi
paridaran
parietal
parietale
parietalia
parigal
parigi
parihal
parikunumian
parilaku
parimata
parindu
paring
paringatan
paringin
paringkat
parinibbana
parinsip
parintah
parintis
pariode
pariq
paris
parisai
parish
parisidin
paristiwa
parit
pariuda
pariudi
pariwisata
parjalanan
parjalanannya
parjanjian
parjuangan
park
parkabunan
parkakas
parkambangan
parkambangannya
parkara
parkataan
parkawinan
parker
parkiraan
parkumpulan
parkutaan
parlakuan
parlangkapan
parlawanan
parleme
parlemen
parlimen
parlindungan
parlu
parluasan
parlunya
parma
parmainan
parmaisuri
parman
parmanen
parmanin
parmasalahan
parmata
parmintaan
parmuhunan
parmukaan
parmukiman
parmutasi
parnah
parnell
parnikahan
parnyataan
paro
parodi
paroduk
paroduksi
parodusen
paroki
parole
paropinsi
parose
paroses
parote
parpindahan
parpisahan
parpustakaan
parrington
parsabaran
parsadiaan
parsagi
parsahabatan
parsaingan
parsamaan
parsanjataan
parsaratan
parsarikatan
parsatuan
parsatujuan
parsegian
parsial
parsiapan
parsin
parsintasi
parsis
parsons
parsualan
parsunil
parsyaratan
part
parta
partahanan
partai
partakunan
partama
partamanya
partambangan
partampuran
partamuan
partandingan
partangahan
partanian
partenogenesis
parthenopeus
parthenos
parti
partial
partiga
partikal
partikel
partikularisme
partimbangan
partisi
partisipasi
partukaran
partumbuhan
partunjukan
party
paru
parubahan
parucauan
paruduk
paruduksi
parugram
paruh
paruki
paruklamasi
parukuian
parumahan
parumus
parumusan
parumusi
paruncutan
parundingan
parunggu
parupa
parupinsi
parurangan
parusahaan
parusak
parusakan
parusis
parut
parutis
parutnya
parutukul
paruyik
parwakilan
parwira
parwujudan
pas
pasa
pasabaatan
pasadena
pasadiaan
pasagi
pasahabatan
pasai
pasaingan
pasak
pasakutuan
pasal
pasalancar
pasalisihan
pasamaan
pasamakmuran
pasan
pasandian
pasang
pasangan
pasangannya
pasangon
pasantren
pasantrin
pasar
pasaran
pasarihan
pasarikatan
pasarta
pasatuan
pasawat
pasayangan
pasca
pascal
pascasarjana
pase
paseban
paseh
paser
pashtun
pasi
pasiapan
pasidangan
pasien
pasif
pasifik
pasig
pasilitas
pasimpangan
pasipik
pasir
pasirjambu
pasisir
pasithea
paskah
pasnya
paso
pasokan
pasolini
pass
passant
passed
past
pasta
pastel
pasteur
pasti
pastor
pastorie
pastur
pasukan
pasukannya
pasupati
pasurungan
pat
pata
patabunannya
patah
patahanan
patai
patak
pataka
patakunan
patala
patama
patambaan
patampuran
patamuan
patan
patanda
patandakan
patangahan
patangkep
patani
patanian
patarikan
patarnakan
pataruman
patarungan
patatambaan
pataubatan
pate
patela
patellae
paten
patengahan
paterson
pathet
pathon
pathum
pati
patih
patik
patikuan
patin
patinggi
patir
patissiere
patiul
patmaraga
patoge
patogen
patologi
paton
patria
patricia
patrick
patriotisme
patroklus
pattani
pattela
pattern
patterns
patterson
patualangan
patugas
patuh
patulung
patumbuhan
patung
patungan
patunjuk
patunjukan
paturaian
patut
pau
paubahan
paucapan
paugahan
pauh
paujutan
pauk
paukuran
paul
paula
paulah
paulahan
paulahannya
paulaian
paulangan
paulanjaan
paulus
paumpat
pauncitan
pauncitannya
pauncitnya
paung
paunjuk
paurangan
paurusan
paus
pausahaan
pautan
paviliun
pawacaan
pawadahan
pawai
pawakilan
pawalutan
pawan
pawang
pawangi
pawangnya
pawaris
pawarisan
pawarna
pawarnaan
pawatas
pawatasan
pawayangan
pawilangan
pawn
pawnee
pawon
paya
payang
payau
payaw
payawan
payne
payu
payung
paziarah
paŋ
paŋanut
pbb
pbs
pc
pd
pdb
pdf
pe
peace
peak
peaked
pearce
pearl
pearson
pebruari
pecahan
pecahnya
pecatur
peck
pectorale
pectoralis
pedagang
pedalaman
pedang
pedesaan
pedis
pedoman
pedro
peduli
pedum
peduman
pegadaian
pegangsaan
pegawai
pegunungan
peitho
pejabat
pejeng
pejuang
pekalipan
pekalongan
pekan
pekanbaru
pekap
pekauman
pekawai
pekerja
pekerjaan
pekerti
pelabuhan
pelacakan
pelaihari
pelaik
pelajar
pelajaran
pelajau
pelakon
pelaksanaan
pelaku
pelambuan
pelana
pelanduk
pelang
pelangi
pelapis
pelarangan
pelastik
pelatih
pelaut
pelawak
pelawan
pelayanan
pelayar
pelbagai
peleliu
pelembang
pelempai
pelengkap
pelepasan
pelestarian
peleus
pelias
pelindung
pelinggang
pelita
pelopia
pelopor
pelops
pelukis
peluru
pelvis
pemahaman
pemahan
pemain
pemakaian
pemakaman
pemakan
pemalang
pemanasan
pemandangan
pemandu
pemangkat
pemangkih
pemasok
pematang
pembagian
pembakaran
pembalacanan
pembalap
pembalasan
pembalut
pembangkit
pembangunan
pembantaian
pembantu
pembatasan
pembawa
pembe
pembeli
pembeliangan
pembentuk
pembentukan
pembentukannya
pemberian
pemberontakan
pembersihan
pembinaan
pembuahan
pembuang
pembuangan
pembuat
pembuatan
pembukaan
pembunuh
pembunuhan
pemburu
pemekaran
pemekeran
pemeliharaan
pemenang
pemeran
pemerian
pemerintah
pemerintahan
pemikiran
pemilihan
pemilik
pemilu
pemimpi
pemimpin
pemimpinmu
pemisahan
pemkab
pemodelan
pemrograman
pemrosesan
pemuar
pemuda
pemukiman
pemulaan
pemulung
pemurnian
pemurus
pemusik
pen
pena
penai
penajam
penambahan
penambang
penambayan
penampakan
penanda
penaneh
penang
penanganan
penanggalan
penangkapan
penarung
penasihat
penawang
penawaran
pencak
pencarian
pencegahan
pencemaran
pencerahan
pencernaan
pencipta
pencok
pencucian
penda
pendahulu
pendakwah
pendamaran
pendapat
pendapatan
pendaratan
pendatang
pendawan
pende
pendek
pendekatan
penderita
penderitaan
pendeta
pendidikan
pendiri
pendirian
penduduk
pendudukan
penduduknya
pendukung
pendulum
penebar
peneliti
penelitian
penelope
penelusuran
penempatan
penemu
penemuan
penenang
penentuan
penerangan
penerapan
penerbang
penerbangan
penerbit
penerbitan
penerima
penerjemahan
penerus
penes
penetapan
penetrasi
peneus
pengabaian
pengacara
pengadaan
pengadan
pengadilan
pengajar
pengajaran
pengajian
pengakuan
pengalaman
pengamatan
pengambau
pengampunan
pengangguran
pengangkatan
pengantar
penganut
pengarang
pengaron
pengaruh
pengasuh
pengatur
pengeboman
pengecap
pengecualian
pengelola
pengelolaan
pengembangan
pengenalan
pengendalian
pengendapan
pengepungan
pengerat
pengertian
pengetahuan
penggabungan
pengganti
penggemar
penggubah
pengguna
penggunaan
penggunaannya
penghapusan
penghargaan
penghasil
penghilangan
penghormatan
penghujung
penghulu
penginapan
pengiriman
pengkadan
pengkhianatan
penglihatan
pengobatan
pengolahan
pengorbanan
pengorbit
penguasa
penguasaan
pengubah
pengucapan
penguin
pengukuran
pengungsi
pengunjuk
pengurangan
pengurus
pengusaha
penh
penia
penibung
penilaian
penimbunan
peninggalan
peningkatan
peninsula
peniti
penjaga
penjahat
penjajah
penjajahan
penjelajah
penjelasan
penjualan
pennsylvania
penolakan
penonton
pense
pensiun
pentas
penthesilea
pentheus
penthus
penting
penuh
penuhanya
penularan
penulis
penulisan
penumpang
penutur
penyair
penyakit
penyamaran
penyandang
penyang
penyanyi
penyebab
penyebabnya
penyebar
penyebaran
penyebarannya
penyediaan
penyelesaian
penyelidik
penyeluang
penyembuhan
penyemburan
penyengkuang
penyerahan
penyerang
penyerangan
penyerapan
penyhir
penyiaran
penyihir
penyiksaan
penyimpangan
penyinggahan
penyu
penyuguk
penyunting
people
peoria
pepatah
peperangan
pepper
pepsi
peptida
per
perabu
peradaban
perahu
perairan
perajin
perak
peralatan
perampok
peran
peranakan
peranan
perancang
perancis
perang
perangan
perangat
perangatan
peranginangin
perangkat
perannya
perapian
perasaan
peraturan
perawan
perawat
perawatan
perayaan
perbaikan
perbandingan
perbankan
perbara
perbatasan
perbatasari
perbedaan
perbuatan
perbudakan
perbukitan
perburuan
percak
percasi
percepatan
perceptions
percetakan
percy
perda
perdagangan
perdamaian
perdana
perdanakusuma
perdata
perdebatan
perdicula
perdu
perekonomian
perembang
perempuan
perencanaan
perennial
perfect
perfilman
performed
pergantian
pergelangan
pergerakan
pergeseran
pergi
pergilah
pergolakan
perguruan
perhadjatan
perhaps
perhatian
perhiasan
perhimpunan
perhutani
peri
peribahasa
peridan
perifetes
perige
perigi
perih
perihelion
perihelionnya
perikanan
perilaku
perindustrian
peringatan
peringkat
perintah
perintis
period
perioda
periode
periodik
perisai
peristiwa
periudi
periuk
perjalanan
perjalanannya
perjan
perjanjian
perjuangan
perkantoran
perkapalan
perkara
perkasa
perkataan
perkawinan
perkawis
perkebunan
perkembangan
perkins
perkiraan
perlengkapan
perlindungan
perlis
perlombaan
perlu
perluasan
permadi
permai
permainan
permaisuri
permanen
permasalahan
permata
permian
permintaan
permohonan
permukaan
permulaannya
permusyawaratan
pernah
pernapasan
pernefri
pernikahan
pernyataan
perorangan
perovinsi
perpustakaan
perputaran
perry
perryville
pers
persada
persahabatan
persajakan
persamaan
persatuan
persdelict
perse
persebaya
persediaan
persefon
persegi
persekutuan
persemakmuran
persembahan
persen
persentase
persentasenya
perseorangan
persepolis
persepsi
perserikatan
persero
perseroan
persetujuan
perseus
persi
persia
persian
persiapan
persica
persik
persoalan
person
personal
persons
perspective
perspectives
perspektif
pertahanan
pertama
pertamanya
pertambangan
pertamina
pertanda
pertandingan
pertanian
pertapa
pertapaan
pertarungan
pertelevisian
pertempuran
pertemuan
pertengahan
perth
pertimbangan
pertiwi
pertuan
pertukaran
pertumbuhan
pertunangannya
pertunjukan
pertunjukkan
peru
perubahan
perum
perumahan
perumpamaan
perunggu
perupuk
perusahaan
perusuh
perut
perwakilan
perwira
perwujudan
pes
pesaguan
pesakh
pesan
pesantren
pesat
pesawat
peseban
pesenan
peserta
pesiar
pesimisme
pesisir
peso
pesona
pesta
pestis
pestisida
pestival
peta
petak
petalangan
petani
pete
peter
peters
petersburg
peterson
peti
petinju
petir
petit
petr
petra
petrarca
petroleum
petronas
petrus
petualang
petualangan
petuk
petunjuk
pewarna
pewayangan
peyrefitte
pez
peziarah
pfalz
pfarrgarten
pfm
pfs
pg
ph
pha
phae
phai
phalanges
phalanx
phan
phanom
phantom
phd
phet
phibun
phichit
phil
philadelphia
philip
philippe
philippine
philippines
philips
philosophical
philosophy
phisai
phitsanulok
phnom
pho
phobos
phoebe
phoenician
phoenix
phon
phong
photo
photos
php
phra
phraya
phrom
phu
phuket
physical
physics
physiology
pi
piagam
piala
pialang
pian
piani
pianis
piano
piasak
piawas
pibruari
pibuari
picak
pical
picasso
pick
pickup
picture
pictures
picturing
pidana
pidato
pidatu
pidiu
piduhal
pie
piece
pieces
piedmont
pieneman
pier
pierce
pierre
pieter
pieterszoon
pigmalion
pigme
pigmen
pigur
pihak
pijl
pika
pikap
pikeun
pikir
pikiran
pikirannya
piksi
pikuk
pikul
pilades
pilang
pilar
pilem
pilica
pilihan
pilim
pilipina
pilkada
pilops
pilot
pilsapat
piluru
pimpin
pimpinan
pimping
pin
pina
pinal
pinalti
pinandu
pinandui
pinang
pinanya
pinatih
pincang
pinda
pindah
pindahan
pine
pinehurst
pines
ping
pinget
pinggang
pinggir
pinggiran
pinggul
pinggulu
pinisi
pinisia
pinjaman
pink
pinlandia
pinocchio
pinoh
pinokio
pinsil
pintang
pintangan
pintangannya
pintar
pintas
pintu
pinumina
pinus
pinyin
pinyuh
pion
pioneer
pionir
piotrko
pious
pipa
pipakan
pipi
pipih
pipikaw
pipiringan
pipit
pir
pirak
piramida
piramus
pirandello
pirate
piring
pirithous
pirrha
pirrhikhos
pirsi
pirsia
pirtikal
pirus
pisa
pisan
pisang
pisau
piscis
pisi
pisiform
pisiforme
pisiformia
pisik
pisika
pisikawan
pisit
pisode
pista
pistis
pistol
pistul
pit
pita
pitak
pitaka
pitamin
pitap
pitcher
pitnah
pitrah
pittheus
pittsburg
pitu
pitung
pitunjuk
pitur
pius
piyama
piza
pizza
pkeun
pki
pkns
pl
pla
place
places
plaeng
plagiatrop
plagioklas
plague
plaice
plain
plaine
plains
plainview
plaju
plane
planet
planetary
planeti
planetisimal
planetnya
planets
planit
plano
plant
plantar
plants
plasma
plastik
platform
platinum
plato
platte
play
playa
playbook
plaza
pleasant
pleasanton
pleiad
pleiades
pleiku
plester
pln
ploy
pltu
plummer
plus
plutino
pluto
plutoid
plutu
plutus
plymouth
pm
pn
pneumonia
png
pni
po
poaceae
pocock
podalirius
podlaski
podok
pods
poe
poelau
poem
poems
poesia
poesidon
poetry
poets
pohon
poin
poine
point
pointe
pojok
pok
pokhara
pokok
pokus
pol
pola
polandia
polar
polarizer
pole
poles
police
polideukes
polidorus
polikaon
polikristalin
polillo
polime
polimer
polinesia
poling
polinikes
polis
polisi
polites
political
politico
politics
politik
politikus
politis
politisi
polixena
pollux
polo
polong
polos
polri
polusi
polutan
pom
pomona
pomorski
pomorskie
pon
ponaq
pond
pondok
pong
pongkal
pongo
ponorogo
ponos
pontianak
pontos
pontus
ponyoi
pool
pop
popai
pope
poplar
popular
popularitas
populasi
populasinya
population
populations
popule
populer
poq
por
porcile
pordenone
pore
pori
poring
poro
porongpong
poros
porosnya
porsgrunn
port
portage
portal
porte
porter
portland
portmany
porto
portrait
portsmouth
portugal
portugis
porus
pos
poseidon
posisi
positif
positip
positivisma
possession
possible
possum
post
postal
posterior
postmodern
posu
potai
potamoi
pote
potensi
potential
pothos
poto
potongan
potret
poty
pour
powder
powell
power
pp
ppb
ppe
ppki
ppkm
ppm
ppp
pr
pra
prabu
practical
practice
pradesh
pragmatik
pragmatis
prague
praha
prairie
praja
prajurit
prajuritnya
prakan
prakte
praktek
prakteknya
praktik
praktiknya
praktis
prambanan
pramoedya
pramuka
pranala
prancis
prang
prangko
prap
prapat
prasajarah
prasarana
prasasti
prasejarah
prasetyo
prasyarat
pratapgarh
pratt
praxidike
pre
precious
predator
prefektur
prefiks
premium
prenjono
preparation
preposisi
prescott
present
presenter
preservation
presiden
president
press
prestasi
preston
presumption
pretty
pretzel
pri
pria
priam
priapus
priayi
pribadi
pribumi
price
pricks
priest
prihelion
prima
primata
prime
primer
primigenius
primitif
primitip
primordial
primum
prince
princess
princeton
principe
principles
prinsip
prinsipnya
prioritas
prisidin
pristasi
prita
prithvi
private
prix
priyayi
prize
pro
probabilitas
probolinggo
proc
process
processus
proctor
produced
production
products
produk
produksi
produksinya
produktif
produsen
produser
proetus
prof
profesional
profesor
profession
professional
professor
profil
program
programme
progresif
progreso
progressive
proioxis
project
proklamasi
prokrustes
proksimal
prominens
promosi
proof
propaganda
propeller
properti
properties
property
prophet
propinsi
proporsi
proposal
propulsion
prosa
prose
prosea
prosedur
proses
prosesi
prosesus
prosimnus
prospect
prospector
prostat
prote
protease
protection
protein
protektorat
proterozoikum
protes
protesilaus
protestan
proteus
proto
protokol
providence
province
provinsi
provinsinya
proxima
proximales
proximalis
proye
proyek
proyeksi
proyektil
pruduk
pruduksi
pruduser
prudusir
prugram
pruklamasi
prumusi
prunus
prupinsi
prusia
prusis
prussia
prutukul
pruvinsi
pruyek
pruyik
ps
psamathe
psbb
psikhe
psikis
psikolinguistik
psikolog
psikologi
psikologis
psr
psychic
psychology
pt
pte
pterelaos
pteropodidae
ptokheia
ptolemaeus
pu
pua
puak
pualam
puan
puang
puanna
puas
puasa
pub
puber
pubis
public
publication
publications
publik
publikasi
publique
published
publisher
publishers
publishing
pucat
pucuk
pudak
pudding
pudi
pueblo
puerto
puga
pugaan
pugad
puham
puhun
puhunnya
puin
puing
puisi
puitis
puja
pujangga
pujian
pujon
pujung
pujungan
pukang
puki
pukuk
pukul
pukulan
pula
pulai
pulandia
pulang
pulantan
pulau
pulaw
puli
pulisi
pulitik
pulitikus
pulitis
pulitisi
pulitzer
pulo
pulogadung
pulou
pulp
pulsar
puluh
puluhan
puluma
pulung
pulut
pumpernickel
pun
punah
punan
puncak
puncaknya
punduk
punggawa
punggung
punggungnya
pungsi
punjab
punk
punta
puntadewa
puntik
puntod
punya
pupa
pupudak
pupuh
pupuk
pupulasi
pupulasinya
pupulir
pura
purba
purbakala
purbanagara
purbaratu
purcell
pure
purei
puri
purih
puring
purmal
purmasi
purn
purna
purnama
purnima
puro
pursuit
purtugis
puruk
purun
purut
purwa
purwaharja
purwakarta
purwodadi
purwokerto
purworejo
purwosari
pus
pusaka
pusat
pusatnya
pusil
pusingan
pusingannya
pusisi
pusisinya
pusitip
puspa
pusri
pustaka
putar
putaran
putat
puter
putera
puteri
puti
putih
putihan
putik
putin
puting
putra
putranya
putri
putrinya
putty
putu
putugarapi
putus
putusan
putussibau
puyo
puyuh
puławy
px
pygmaeus
pyo
pythium
q
qa
qadeer
qadhi
qaf
qaiwain
qan
qasim
qatar
qb
qi
qian
qiblat
qin
qing
qquad
quad
quang
quantitative
quaoar
quarkkeulchen
quarles
quarter
quasar
quasi
quasimodo
quataert
quattro
qubro
que
quebec
queen
queens
queensland
quest
question
questions
quezon
quincy
quinimatin
quintus
quitman
quo
quoc
qur
quran
qusyairi
r
ra
raba
rabah
rabambang
rabasa
rabat
rabauh
rabi
rabiul
rabiulawal
rabu
rabun
rabut
racap
race
rach
rachman
racing
racun
rada
radang
radar
rade
raden
radhen
radiasi
radii
radikal
radio
radioaktif
radiokarbon
radiometri
radiometrik
raditya
radiu
radius
radja
radzyn
radøy
rae
rafael
raffi
raffles
raft
raga
ragam
ragapan
ragazzi
ragi
ragu
rah
rahang
rahasia
rahat
rahatan
rahayu
rahe
rahib
rahim
rahmah
rahman
rahmat
rahmatullah
rahula
rahuyan
rai
railway
rain
rainkarnasi
rais
raisa
raitan
raj
raja
rajagaha
rajah
rajanya
rajap
rajasthan
rajasuya
rajawali
rajendra
rajgarh
rajin
rak
raka
rakaat
rakai
rakaman
rakan
rakat
rakiat
rakit
raksanagara
raksasa
raku
rakumpit
rakun
rakungan
rakungannya
rakyat
rakyatnya
rakyatullah
rale
rally
ralph
ram
rama
ramadan
ramadhan
ramai
ramaja
ramalan
ramania
ramayana
rambah
rambangun
rambi
rambut
rambutan
rambutnya
ramen
rames
ramgarh
rami
ramlan
ramli
ramnagar
rampa
rampah
rampiau
ramping
ramus
ran
rana
ranah
ranajiit
ranak
ranaknya
rancabali
rancaekek
rancak
rancaknya
rancana
rancananya
rancang
rancangan
rancasari
rand
randa
randah
randahnya
randall
randang
randau
randolph
random
rang
rangan
rangas
range
ranger
rangga
ranggaman
ranggang
ranging
rangit
rangka
rangkaian
rangkap
rangkiang
rangkui
rangsangan
ranh
rania
ranjang
ransom
rantai
rantan
rantau
rantawan
rante
ranting
rao
rapak
rapat
rapi
rapid
rapids
rapper
rapu
raraitan
rarampah
rarampahan
rarancakan
rarasati
rarata
raray
raren
rarompok
rarujukan
rarumpakan
raruntuhan
ras
rasa
rasaku
rasanya
rasap
rasau
rashd
rashid
rasi
rasial
rasiku
rasio
rasional
rasionalistik
rasionalitas
rasisme
rasiunal
rasmi
rasminya
rasta
rastaman
rasuk
rasul
rasulullah
rasyid
rasyidin
rat
rata
ratakan
ratapan
ratchasan
ratchasima
rate
rates
ratifikasi
ratik
rating
ration
ratna
ratoe
ratu
ratus
ratusan
rav
ravada
ravenna
rawa
rawagede
rawalumbu
rawan
rawi
ray
raya
rayak
rayat
rayi
raymond
rayo
rayuan
rcti
rd
re
rea
read
reader
reading
reagan
reaksi
real
realisme
realistis
realita
realitas
reality
really
reappraisals
reason
reasons
reasuransi
rebab
rebana
rebels
rebo
received
recent
reclam
recognition
record
recordings
records
rect
recto
red
redaksi
redan
redeb
redfield
redjo
reduksi
reed
reeds
reef
referee
reference
references
referendum
referensi
reflections
refleks
refleksi
reformasi
reformed
refraksi
refugio
regan
regency
regent
reggae
regina
regine
region
regional
regnal
regol
regolith
regular
regularitas
reizen
rejo
rejosari
rekam
rekaman
rekayasa
reklasifikasi
rekomendasi
rekonstruksi
rekor
rekreasi
rektor
rektorat
rel
relaksasi
relatif
relations
relationship
relationships
relatip
relativisma
relativitas
release
relief
religi
religion
religions
religious
religius
relung
rem
remains
remaja
rembang
remis
remix
rempah
renaisans
renaissance
renault
rencana
rendah
rene
reno
renovasi
rentan
rentang
renville
report
reporter
reports
representasi
reprinted
reproduksi
reptil
reptiles
reptilia
republic
republik
republika
reputasi
res
research
resensi
resep
resepsi
reseptor
reservasi
resi
residen
residents
resin
resistance
resmi
resminingpuri
resminya
resnawan
resolusi
resonan
resonansi
resort
resource
resources
respon
respons
response
restoran
restu
rethinking
retno
retrieved
retrogade
return
rev
revel
revenge
revere
review
revised
revisi
revitalisasi
revivalistics
revolusi
revolusioner
revolution
rewriting
rex
reyes
rezim
rgi
rhadamanthus
rhadamanthys
rhea
rheinland
rhine
rhizomys
rhizopus
rhode
rhodes
rhodesia
ri
ria
riaksi
riam
rian
riang
riau
ribang
ribu
ribuan
ribut
ric
rica
ricault
rice
rich
richard
richardson
richfield
richland
richmond
richter
ricik
rick
ricklefs
ricky
rico
ridaksi
ride
rides
ridge
ridges
ridgeway
ridwan
rie
rifirinsi
rigat
rigby
rigg
right
rights
rigid
riinkarnasi
rika
riko
rikong
riktur
rikur
ril
rila
rilatip
riley
riligi
riligius
rilis
rill
rim
rima
rimba
rimpang
rimpi
rin
rinca
rinci
rincian
rindang
rindu
ring
ringan
ringen
ringgi
ringkas
ringkasan
rings
ringsaker
rinjing
rintangan
rintisan
rintitan
rio
riode
riparinsi
ripley
riptil
ripu
ripublik
ripulusi
riputasi
riri
ris
risalah
risap
risco
rise
riset
risiko
risiku
rising
risip
risit
risk
risturan
risulusi
risunan
risunansi
rita
ritan
ritter
ritual
ritus
riu
rivai
rival
river
riverdale
riverside
riverton
riviergezicht
riwayat
riwut
riza
rizal
rizieq
rizky
rk
rkiye
rma
rman
rn
rna
rnberg
ro
road
roald
robert
robertson
robin
robinson
robo
robot
robotika
roche
rocher
rochers
rock
rockaway
rocket
rockford
rockman
rocks
rockville
rocky
roco
roda
rodentia
rodinia
rogaland
roger
rogers
roh
roi
rok
rokade
rokan
roket
roko
roland
role
roll
rolla
rolland
rolling
rollmops
rom
roma
romain
romaji
roman
romance
romania
romanticism
romantisisme
romantisme
romawi
romblon
rombongan
rome
romeo
romero
romsdal
ron
ronald
ronaldo
ronde
rong
rongga
ronggo
rook
roosevelt
ropa
ros
rosa
rosario
rose
rosebud
rosehan
rosemary
roses
ross
rotan
rotasi
rotation
rote
roti
rotterdam
rotwurst
rouge
rough
round
rouse
routledge
rover
roy
royal
royale
royaume
royong
rp
rpm
rrc
rs
rsi
rsia
rsial
rsj
rsjpt
rsud
rt
rte
rttemberg
ru
ruam
ruang
ruangan
ruas
rubah
rubiaceae
rubrik
ruby
ruda
rudal
rudi
rudolf
rudra
rudy
ruea
ruf
rufus
rugbi
ruh
ruhani
ruhr
ruhui
ruhuy
ruiz
rujak
rujukan
rukam
rukh
rukma
ruku
rukun
ruler
rules
rumah
rumahnya
rumania
rumantis
rumawi
rumbia
rumbih
rumbisan
rumbungan
rumi
rumit
rumoh
rumpakan
rumpun
rumput
rumus
rumusan
run
runcing
runcut
rune
rung
rungan
rungga
runggu
rungkut
runner
running
runtuh
runtuhnya
runtutan
runway
rupa
rupanya
rupes
rupiah
rusa
rusak
rusaknya
rusdi
rush
rushville
rusia
rusli
russell
russellville
russia
russian
rusuk
rut
rutasi
rute
ruteng
ruti
rutin
ruu
ruzaidin
rvi
rwanda
rwr
rx
ry
ryan
ryeong
ryo
ryu
ryukyu
rz
s
sa
saad
saadillah
saampah
saan
saat
saatos
saba
sabaan
sabab
sababaraha
sababnya
sababutingannya
sabaga
sabagai
sabagaimana
sabagainya
sabagay
sabagian
sabah
sabahagian
sabak
sabalah
sabaliknya
sabalum
sabalumnya
saban
sabana
sabanding
sabang
sabangau
sabanyak
sabaran
sabarataan
sabarataannya
sabaratan
sabasar
sabat
sabatang
sabda
sabelah
sabelum
sabhang
sabidak
sabigi
sabigian
sabilal
sabilanya
sabit
sabon
sabrina
sabtang
sabtu
sabuah
sabubuting
sabubutingannya
sabuitng
sabujurannya
sabujurnya
sabuk
sabuku
sabukuan
sabulan
sabuluan
sabun
sabung
sabut
sabutan
sabuting
sabutingannya
sabutingnya
sabutinh
sacangkir
sacara
sacca
sachsen
sacred
sacrum
sadamia
sadamikian
sadang
sadangakan
sadangkan
sadaniang
sadar
sadarhana
sadaya
sadayana
saddam
saddle
sadewa
sadih
sadikin
sadikit
sadikitnya
sadin
sadis
saduman
sadunia
sae
saebagai
saen
saeng
saf
safe
safety
saga
sagala
sagalambang
sagan
saganal
sagar
sagara
sagarumbung
sagarumbungan
sage
sagi
sagin
sagitalu
sagitiga
sagu
sah
sahabat
sahabis
sahagian
sahalai
sahalus
saham
sahang
sahara
sahari
saharusnya
sahat
sahbirin
sahib
sahibaknya
sahibar
sahih
sahiji
sahikit
sahingga
sahubungan
sahur
sahutan
sai
saibu
said
saidah
saidullah
saifuddin
saiful
saigian
saigon
saikaku
saikit
saikung
saikungannya
sail
sailing
sailor
saimbai
saimbang
saing
saingan
saini
sains
saint
sainte
saintis
saintle
sair
sairing
saitama
saja
sajad
sajadah
sajadi
sajahtara
sajajar
sajak
sajaknya
sajalan
sajam
sajanis
sajarah
sajarahnya
sajarak
sajarawan
sajati
sajau
sajauh
saji
sajingan
sajumbelah
sajumlah
sajuta
sak
saka
sakadanya
sakadar
sakae
sakaguchi
sakahandak
sakai
sakakali
sakala
sakali
sakalian
sakaliannya
sakaligus
sakalinya
sakalipun
sakalompok
sakalumpuk
sakarang
sakarat
sakaratul
sakarila
sakarilawan
sakayapa
sakban
sake
sakedik
sakhalin
sakhon
sakian
sakiptis
sakiptisisma
sakira
sakiranya
sakit
sakitar
sakitaran
sakitarnya
sakodi
sakolah
sakral
sakramen
sakrum
saksi
sakti
saktinya
saku
sakulah
sakulahan
sakulahnya
sakulawarganya
sakuliling
sakulilingnya
sakumpulan
sakundir
sakup
sakura
sakurang
sakutu
sala
salabih
salabihnya
salad
salada
saladin
salah
salahuddin
salai
salain
salajengna
salajur
salajuran
salak
salaku
salalu
salam
salama
salamah
salamander
salamanya
salamat
salamatan
salambar
salami
salamiah
salancar
salandia
salang
salangan
salanjut
salanjutnya
salap
salasa
salaso
salat
salatan
salatannya
salatiga
salawar
salawas
salawasan
salawasnya
salaws
salber
sale
saleh
salem
salib
salibar
salihan
salim
salimput
salimut
salina
saling
salipi
salira
saliritan
salisma
salismaan
saliva
salju
salleh
sallybernstein
salman
salmon
salo
salomo
salt
saluang
saluas
salukut
salumbah
salung
salup
saluran
saluruh
saluruhnya
salut
salvador
salvatore
salya
salzburg
sam
sama
samacam
samacamnya
samadhi
samadiyami
samaenre
samagin
samakin
samalam
samalantan
samananjung
samangat
samantara
samar
samaran
samarang
samaria
samarinda
samarkand
samasa
samasta
samastinya
samata
samaya
sambah
sambahyang
sambal
sambaliung
sambang
sambangan
sambas
sambat
sambatan
sambatannya
sambeng
sambikerep
sambil
sambilan
samboja
sambung
sambungan
samburan
sambutan
sambuyan
sami
saminar
saminggu
samir
samisalnya
samoa
samothrace
sampah
sampai
sampaj
sampak
sampanahan
sampar
sampat
sampay
sampel
sampian
samping
sampingan
sampiran
sampit
sampuk
sampukan
sampul
sampurna
samrong
samsara
samsung
samu
samua
samuaan
samuanya
samudaya
samudera
samudra
samue
samuel
samui
samula
samunya
samunyaan
samunyaannya
samurai
samusim
samustinya
samut
san
sana
sanada
sanak
sanam
sanaman
sanan
sanang
sanaos
sanaray
sanayan
sanctuary
sand
sandai
sandak
sandal
sandang
sandaran
sandbox
sandera
sanders
sandi
sanding
sandiwara
sandung
sandwich
sandy
sane
sang
sanga
sangaja
sangal
sangalang
sangat
sangatlah
sangatta
sanger
sanggaok
sanggar
sanggarwasi
sanggau
sanggul
sanggup
sanggurdi
sangha
sangka
sangkaan
sangkal
sangkan
sangkima
sangking
sangkuap
sangkulirang
sangkuni
sangkut
sangu
sani
saniman
sanitasi
sanitis
sanitizer
sanja
sanjata
sanjaya
sanjungan
sanksi
sans
sansakarta
sansekerta
sanskerta
sanskrit
sant
santa
santaban
santai
santan
santiago
santo
santos
santosa
santoso
santri
santuai
santun
sanur
sanusi
sanyawa
sao
saorang
sap
sapahadangan
sapakan
sapakat
sapalih
sapalihan
sapandapat
sapanjang
sapanjangan
sapantaran
sapanuhnya
sapanyol
saparampat
sapari
saparlima
saparlunya
saparsapuluh
saparsaribu
saparti
sapartiga
sapasang
sapasialis
sapasias
sapat
sapatak
sapatu
sapawa
sapawayahan
sapertos
saphan
sapi
sapida
sapiens
sapiritual
sapisies
sapodilla
sappho
saprak
saprofit
saptimbir
saptu
sapu
sapuluh
sapupu
sapupunya
saputar
saqifah
sar
sara
saraba
sarabut
saraf
saragam
saragani
sarah
sarai
sarak
sarakham
saram
sarama
saran
sarana
sarang
sarangan
sarangga
sarangkaian
sarangnya
sarap
sarapan
sarapang
sarapat
sarasah
sarashina
sarasvati
sarat
saratov
saratus
saraung
sarawa
sarawak
sarawisa
saray
sardinia
sare
sarekat
sareng
sari
sarial
sarian
saribu
sarigala
sarik
sarikandi
sarikat
sarikaya
sarinah
saringan
sarinya
sarirejo
sarius
sarjana
sarma
saron
saros
sarpedon
sars
sarta
sartre
saruan
sarubung
sarudung
sarun
sarunai
sarung
sarupa
sarutu
sas
sasa
sasabuting
sasah
sasahan
sasaikung
sasain
sasaji
sasak
sasam
sasama
sasamaan
sasambilan
sasanggan
sasaorang
sasapaian
sasar
sasaran
sasarannya
sasat
sasaurang
sasirangan
saskatchewan
sasra
sastra
sastrawan
sastrawannya
sastrawi
sasuai
sasuatu
sasuatunya
sasudah
sasudahnya
sataan
satabal
satadiun
satahun
satahunan
satai
satalah
satampat
satan
satandar
satangah
satangahnya
satapani
satara
satarusnya
satasiun
satatus
satatusnya
sate
satelit
satelitnya
satellite
satengah
sateuacan
sateuacanna
satgas
sati
satia
satiap
satilit
satinggi
satingkat
satir
sato
satong
satria
satruktur
satrup
satu
satua
satuan
satui
satuju
satumat
satunya
satupun
satura
saturnus
satwa
satya
sau
saudagar
saudara
saudaranya
saudi
sauerbraten
sauerkraut
saukuran
saulah
saum
saumur
saun
saunders
saupama
saur
saurang
saurangan
saus
sausages
saussure
sauting
savannah
save
saw
sawagai
sawagaimana
sawah
sawahan
sawaktu
sawal
sawalas
sawalum
sawalumnya
sawan
sawang
sawangan
sawat
sawayah
sawi
sawinang
sawit
sawo
sawrang
sawrangan
sawu
saxon
say
saya
sayan
sayang
sayangnya
sayap
sayembara
sayid
sayogi
sayup
sayur
sayuran
sayyid
saɟadi
sbagai
sbs
sc
scaevola
scale
scan
scandinavia
scaphoidea
scaphoideum
scapula
scapulae
scarps
scattered
scenes
scha
schaller
schell
schenk
schieffer
schimmel
schindler
schlatter
schlegel
schleswig
schmidt
scho
scholars
scholle
school
schulz
schumacher
schwaner
schweitzer
science
sciencedaily
sciences
scientific
scientists
scott
scramble
scranton
scream
script
scripts
scritti
sctv
scuba
sculpture
sd
sdo
sdss
se
sea
seal
seals
seantero
searah
search
season
seattle
seba
sebab
sebagai
sebagaimana
sebagainya
sebagay
sebagian
sebaiknya
sebakung
sebaliknya
sebamban
sebangau
sebangki
sebanyak
sebaran
sebarataan
sebastian
sebatik
sebawi
sebayan
sebelah
sebelas
sebelum
sebelumnya
sebenarnya
seberang
seberataan
seberuang
sebesar
sebidai
sebuah
sebudak
sebujurnya
sebuku
sebulu
sebunga
seburing
sebut
sebutan
sebuting
sebutingan
secara
second
secondary
secondo
secret
secrets
secular
secundum
sedan
sedang
sedangkan
sedau
sedayu
sederhana
sedgwick
sedih
sedikit
sedikitnya
sedimen
sedjarah
sedna
see
seed
seekor
seen
segah
segak
segala
segar
segedong
segenap
segera
segi
segitiga
segmen
segudang
sehari
sehat
sehe
sehingga
sei
seikatsu
seimei
seinen
seiring
seishu
seismik
seismometer
seiya
sejahtera
sejak
sejangkung
sejarah
sejarahnya
sejarawan
sejati
sejauh
sejenis
sejiram
sejowet
sejumlah
sekadar
sekadau
sekaduyan
sekai
sekala
sekali
sekaligus
sekalinya
sekapal
sekar
sekaran
sekarang
sekata
sekatak
sekayam
sekejap
sekelompok
sekerat
sekian
sekijang
sekikilan
sekip
sekitar
sekitaran
sekitarnya
sekjen
sekolah
sekolaq
sekretariat
sekretaris
seks
seksual
sekte
sektor
sekuchen
sekuel
sekumpul
sekumpulan
sekunder
sekundernya
sekutu
sel
sela
selai
selain
selakau
selalu
selam
selama
selamat
selancar
selandia
selang
selange
selangka
selangkau
selangor
selanjutnya
selaparang
selaput
selasa
selasar
selat
selatan
selawar
selawas
selayar
seleksi
selektif
selene
selera
selesai
self
selimbau
selintas
selir
selisun
selo
seloka
selong
selor
seluang
seluas
seluler
seluluk
selumit
seluruh
semacam
semadin
semaja
semak
semakin
semampir
seman
semandang
semangat
semangau
semanget
semanggi
semangut
semantik
semapau
semar
semarang
semasa
sematu
semayang
sembakung
sembilan
sembuluh
semedang
semelagi
semele
semen
semenanjung
semenjak
sementara
semesta
semi
seminar
seminole
semiotica
semiotics
semiotika
semitau
semitik
semongan
sempadan
sempadi
sempaja
semparuk
sempat
sempayau
sempurna
semu
semua
semuaan
semunad
semuntai
semuntik
semunyaan
semut
sen
sena
senakin
senambah
senandung
senang
senantiasa
senapati
senarai
senat
senatab
senator
senayan
sendang
sendangrejo
sendi
sendiri
sendirinya
seneca
senegal
senempak
seng
sengah
sengaja
sengatok
sengkuang
seni
senibung
seniman
senin
senior
senjata
seno
sensei
senses
sensor
sensoris
sensus
sentani
sentiment
sentimeter
sentosa
sentra
sentralisasi
sentralistik
sentrifugal
sentrifugasi
senyawa
senyiur
seo
seok
seolah
seon
seorang
seoul
sepadu
sepahat
sepak
sepakat
sepakbola
sepaku
sepalih
sepalihan
sepan
sepang
sepanjang
separatis
sepasang
sepaso
sepatin
sepauk
sepekan
sepenuhnya
seperti
sepertiga
sepinggan
seponti
september
sepuh
sepuluh
sepupu
serabut
seragam
serai
serambi
seranau
serang
serangan
serangga
seranggam
serangkaian
serap
serapat
seraph
serasan
serat
seratus
serawai
serawak
serba
serbia
seremban
serena
seri
serial
seriang
seribu
serie
series
serigala
serikat
sering
seriously
serius
serjeant
serments
seroja
seronde
serrano
serratus
sersan
serta
sertipikat
seru
seruan
serumen
serumpun
serunai
serupa
seruyan
server
service
servikal
sesayap
seseorang
sesepuh
sesi
seskoad
sesuai
sesuatu
set
setabu
setahun
setan
setang
setangah
setapuk
setara
setarap
setelah
setempat
setengah
setia
setiap
setiawan
setolo
setsu
settlement
setuju
setulang
seueur
seung
seuramoe
seurang
seutuhnya
seven
sewaan
sewaktu
seward
sex
sexuality
seychelles
seymour
sfenoid
sh
sha
shackleton
shadow
shag
shah
shake
shakespeare
shakhrah
shalat
shampoo
shan
shang
shanghai
shangshu
shannon
share
sharif
sharjah
sharon
shawl
shawls
shawnee
she
sheehan
sheep
sheet
sheffield
sheikh
shelby
shelbyville
sheldon
shell
shen
sheng
shepard
sheridan
shetland
shi
shift
shijing
shikibu
shikoku
shimbun
shimei
shin
shinobu
shinshu
shinto
shio
ship
shire
shirley
shizuoka
shmuel
sho
shock
shoes
shogun
shoki
sholeh
shonen
shoot
shores
short
shot
shoujo
should
show
shower
showing
shu
shukor
shuma
shun
shura
si
sia
siaga
siagian
siak
siam
sian
siang
siantan
siap
siapa
siapakah
siapapun
siaran
siargao
siasat
siau
siayuh
sibale
sibato
sibau
sibay
siberia
sibuyan
sicilia
sick
sida
sidang
sidat
sidayu
siddharta
siddhartha
siddiq
side
sidin
siding
sidney
sido
sidodadi
sidomukti
sidomulyo
sidorejo
sie
siemens
siempre
sierra
sif
sifat
sifatnya
sigam
sigar
sight
sigin
sigmund
sign
signe
signifikan
sigra
sihat
sihir
sijau
sik
sika
sikap
sikh
sikkhapadam
siklon
siklun
siklus
siko
siksual
siktur
siku
sikumbang
sil
sila
silaba
silaban
silabik
silam
silang
silanga
silat
silatan
silau
silent
silenus
silika
silikat
silikon
silinder
siling
siliwangi
silo
silsilah
siluag
siluman
siluq
silur
silurian
silva
silver
silvestris
silvikultur
sim
sima
simak
simambang
simba
simboen
simbol
simbolik
simbolis
simbolisme
simbul
sime
simfoni
simin
simmons
simo
simokerto
simon
simpanan
simpang
simpenan
simple
simplysiti
simpson
simpsons
simpul
simpur
simulasi
simulation
simultan
simunul
sin
sina
sinai
sinapang
sinar
since
sinclair
sindang
sindhu
sinding
sindiran
sindrom
sindur
sineas
sinetron
sing
singa
singabana
singamarta
singapore
singapura
singaraja
singaringan
singasari
singel
singer
singgah
singgal
singh
singhaja
singkanung
singkat
singkatan
singkawang
singkup
single
sini
sinilah
sinkron
sinkronik
sinodik
sinonim
sinsus
sint
sintagma
sintaks
sintaksis
sintang
sintarklas
sinte
sinterklas
sintesis
sintetik
sintetis
sinti
sintimitir
sinyal
sio
sional
sioux
sipak
sipat
sipatnya
sipatu
sipil
siprage
siprus
siptimbir
siput
sir
sirah
siram
siraman
sirang
sirap
sirau
siren
siri
sirial
sirih
sirikat
sirilik
siring
sirip
sirius
sirkuit
sirkulasi
sirkus
sirop
sirsak
siruk
sirup
sis
sisa
sisanya
sisi
sisifus
sisik
sisilia
sisinya
sisiur
sistam
sistem
sistematis
sistemik
sister
sisters
sistim
sistimatis
sistimnya
siswa
sitagal
site
sites
siti
sitilohor
sitotoksik
situ
situasi
situs
siu
siwa
siwah
siwalan
six
siyai
size
sized
sjachriel
sjahranie
sjamsuddin
sk
ska
skafoid
skak
skala
skamander
skandal
skandinavia
skapula
skates
ske
skeleton
skema
skenario
skeptikus
skeptis
skeptisisma
skeptisisme
sketsa
ski
skie
skilla
skip
sko
skor
skot
skotlandia
skrik
skripsi
sky
skydiving
skyline
sl
slagahima
slater
slattery
slave
slavia
slavinskii
sleep
sleman
sloan
slovakia
slovenia
slowakia
sm
sma
small
sman
smart
smb
smelter
smith
smithsonian
smithsonite
smithville
smp
smpn
sms
sna
snakehead
sneevliet
snow
so
soal
soba
soc
social
socialist
society
socrates
soda
sodok
soe
soeara
soedah
soeharto
soekarno
soekarnoputri
soerabaja
soeria
soesilo
sofrosine
softer
software
sogn
sohc
soje
sokan
soklat
soko
sokoło
solar
soldier
soleh
solid
solidaritas
solimo
solo
solok
solokanjeruk
solokuro
solomon
soluble
solusi
som
soma
somali
somalia
sombrero
some
someity
somerset
sompak
sompol
son
sonata
sonder
song
songkhram
songkok
sono
sons
soo
sook
sop
sopan
sopang
sor
sorak
sorang
sorangan
sore
soreang
sorga
sornarin
sorotan
sorsogon
sos
sosial
sosialis
sosialisasi
sosialnya
sosio
sosiolinguistik
sosiolog
sosiologi
sosiologis
sosis
sosok
sosroningrat
soter
soteria
soto
soul
sound
soundtrack
source
sources
south
southeast
southern
soviet
soyuz
soziologie
sp
spa
space
spain
spangled
spanish
spanyol
spanyul
sparks
sparta
spe
speaks
special
specialis
species
specific
specification
spekkoek
spektrometer
spektrum
spencer
sperber
sperma
spesial
spesies
spesiesnya
spesifik
spesifikasi
spesipikasi
sphenoidale
sphiggurus
spike
spinosus
spiral
spirit
spiritual
spiritus
splendid
split
spon
spongebob
spons
sponsor
spora
sporangium
sport
sports
spot
spp
spratly
spring
springdale
springfield
springs
spuler
spuria
sqrt
square
squarepants
sr
sreedharan
sri
srikandi
srilangka
srimulat
srimulyo
srinanti
srivijaya
sriwijaya
ss
ssh
st
sta
staatsblad
stabil
stabilitas
stadion
stadium
stadiun
staf
stafford
stahl
stainless
stalin
stalinis
stalinisme
stamps
stan
stand
standar
standard
stanfield
stanford
stanhope
stanley
stanton
stapedes
stapes
star
stars
stasi
stasiun
state
states
station
statis
statistics
statistik
status
statusnya
statuta
stavanger
stay
ste
steel
steen
stefan
stein
stenochlaena
step
stephen
steril
sterling
stern
sterni
sternum
sterol
sterope
steve
steven
stevenson
stevie
stewart
sthaviravada
sthenelus
stheno
stik
stilbon
stilistika
still
stime
stina
stirner
stival
stix
stock
stockholm
stockton
stoianovich
stok
stollen
stone
stones
storan
storia
stories
storm
story
stra
strabo
strange
strasbourg
strata
strategi
strategis
stratigis
stratigraphy
stratum
strauss
strawberry
streaming
street
stress
strip
stripping
stroke
structure
struktur
struktural
strukturalisme
strzelce
stuart
stuchtey
student
students
studi
studies
studio
study
stupid
sturgeon
stuttgart
style
styles
styx
su
suah
suak
suakong
sual
suami
suan
suang
suara
suaranya
suasana
suato
suatu
sub
subadra
subah
subalah
subalum
subamanggala
subang
subangsa
subarang
subfamilia
subic
subje
subject
subjek
subjik
subkalas
subordo
subroto
subsidi
subspe
subspesies
substansi
substantif
substitusi
subtropis
subuh
subur
subyek
such
suci
sucinya
sud
suda
sudah
sudan
sudarso
sudi
sudirman
suduk
sudut
suez
suffolk
sufi
sufyan
sugar
sugiarto
sugih
sugihwaras
sugio
suhaid
suhail
suhasin
suhu
suhunya
suhur
suicide
sujau
suji
sujud
suk
suka
sukaan
sukabumi
sukadana
sukajadi
sukamaju
sukamara
sukamenak
sukamulya
sukapura
sukar
sukarama
sukarelawan
sukarila
sukarno
sukasari
suke
sukhoi
sukhothai
suklat
sukma
sukmajaya
sukmaraga
sukodadi
sukolilo
sukomanunggal
sukorame
sukorejo
sukosewu
sukra
sukrosa
sukses
suksesi
suksis
suku
sukun
sula
sulaiman
sulangkit
sulap
sular
sulawe
sulawesi
sule
sulejo
sulfat
sulfur
suling
sulingan
sulisih
sulit
sulla
sullivan
sulphur
sultan
sulu
suluh
sulung
sulur
suluran
sulusi
sum
sumalah
sumandi
sumangat
sumatera
sumatra
sumba
sumbahyang
sumbangan
sumbangannya
sumbangsih
sumbar
sumbawa
sumber
sumberagung
sumberdaya
sumberejo
sumberjo
sumbernya
sumbir
sumblimasi
sumbu
sumenep
sumenggung
sumilon
sumitra
summarized
summary
summer
summit
sumner
sumpah
sumping
sumsum
sumur
sumurbandung
sun
sunah
sunan
sunda
sunday
sung
sungai
sungainya
sungay
sungguh
sungkai
sungkul
sunglap
sungrazers
sungsang
sungsum
sungsung
sunni
sunny
sunrise
sunset
sunshine
suntikan
sunting
sunyi
sup
supan
supaya
super
superbanua
superbenua
superior
superjet
superlautan
supernatural
supernova
supersonik
superuomo
supir
supjik
suplai
supraba
supranatural
sur
sura
surabaya
surah
surai
surakarta
surambi
surang
surangan
surapati
surat
suratnya
surau
surealisme
surface
surfing
surga
surgi
suri
suria
suriah
surian
suriansyah
surigao
suriname
surjan
suruh
suruhan
suruk
surung
surungan
surut
survei
survey
surveyor
survival
surya
suryaganggawangsa
suryanata
suryani
suryanullah
suryawangsa
sus
susan
susanto
susial
susilo
susis
suspensi
susu
susudu
susuhunan
susuk
susunan
susuruhan
suta
sutarta
sutasoma
sutera
suti
sutra
sutradara
sutta
suv
suwah
suwalih
suzue
suzuki
suzumiya
sv
sva
svalbard
svg
swab
swabs
swadaya
swan
swarga
swargi
swasembada
swasta
swastika
swatantra
swaziland
swe
sweden
swedia
swedish
sweet
sweety
sweter
swift
swiss
swt
sy
sya
syafi
syah
syahadat
syahbandar
syahputra
syaifuddin
syaifullah
syaikh
syair
syairnya
syam
syamsuddin
syamsudin
syamsul
syarat
syarh
syari
syariah
syariat
syarif
syarifah
syarikat
syarkawi
syarkawie
syarwani
syco
sydney
syeikh
syekh
syi
syiah
sylvia
syn
syracuse
syria
system
systematic
systems
syukur
sz
szczecin
sze
sør
søren
søy
t
ta
taal
taala
taancam
taancap
taanum
taat
taatur
taba
tabaca
tabagi
tabagus
tabah
tabaik
tabakar
tabal
tabalar
tabalik
tabalong
tabanam
tabang
tabanio
tabantang
tabantuk
tabantuknya
tabanyak
tabarakati
tabarat
tabasahi
tabasar
tabat
tabatan
tabatas
tabawa
tabel
tabelak
tabentuk
tabi
tabiasa
tabib
tabing
tabla
tablas
table
tablet
tabriz
tabu
tabuah
tabuan
tabuat
tabugon
tabuh
tabuhan
tabuik
tabujur
tabuk
tabuka
tabukan
tabukti
tabun
tabung
tabungan
tabunganen
tabungkus
tabur
tacampur
tacantum
tacatat
tacipta
tacucuk
tada
tadah
tadahulu
tadalam
tadampak
tadangar
tadapat
tadaptar
tadehidrasi
tadeteksi
tadi
tadih
tadingin
tadiri
tadoan
tadudi
taduga
tadung
taekwondo
taeng
tafsir
tafsiran
tag
tagab
tagabung
tagak
tagal
tagalog
tagambar
taganal
taganalnya
tagangan
taganggu
tagantung
tagar
tagas
tagolong
taguh
tagul
tagulung
taguring
taha
tahaba
tahadap
tahaga
tahalat
tahalus
tahan
tahanan
tahancap
tahandap
tahanyar
tahap
tahapan
taharat
tahi
tahibaki
tahil
tahir
tahitung
tahiyatul
tahlilullah
tahmidillah
tahmidullah
tahta
tahtanya
tahu
tahubung
tahun
tahunan
tahunnya
tai
taidintipikasi
taikat
tail
tailhami
taimpa
tainfeksi
tainspirasi
taionisasi
taipei
taishi
taisho
taisi
taitihi
taiwan
taja
tajabak
tajadi
tajadinya
tajah
tajalin
tajam
tajanak
tajanaki
tajangak
tajangkau
tajangkit
tajarat
tajau
tajauh
tajikistan
tajual
tajuddin
tajuk
tajuknya
tajul
tajun
tajungan
tak
taka
takabul
takada
takadang
takahashi
takait
takajut
takal
takaluar
takambuh
takamuka
takana
takanal
takanan
takananya
takandal
takandala
takandung
takao
takaoi
takaran
takaras
takaring
takatuju
takbir
takdir
take
takeshi
takhta
takikis
takipai
takipit
takisung
takluk
takominusi
taksi
taksonomi
taktakan
taktik
takuat
takuk
takumpul
takumpulan
takun
takunan
takunci
takur
takurihing
takurung
takut
takutan
talaah
talabih
taladan
talaga
talah
talaken
talalu
talamah
talambat
talang
talangkah
talango
talanjang
talapak
talapas
talarut
talarutakan
talatak
talatih
talavera
talawang
talawas
tale
tales
tali
talian
talib
taliban
talibat
talibun
taligar
talihat
talindungi
talinga
talipuk
talipun
talisayan
taliwang
talk
tallapoosa
talmud
talontar
talu
taluas
taluk
talun
talung
talus
tama
tamako
tamam
taman
tamandak
tamanggung
tamansari
tamasuk
tamat
tambaga
tambah
tambahan
tambahi
tambak
tambakrejo
tambaksari
tambalangan
tamban
tambang
tambangan
tambelan
tambikar
tambirah
tambon
tamboo
tambuk
tambun
tambunan
tambus
tamiang
tamil
tamjidillah
tamjidullah
tampa
tampaian
tampak
tampaknya
tampan
tampang
tampat
tampatan
tampatnya
tampelas
tampik
tampil
tampilan
tampung
tampur
tampurung
tampuyak
tamsil
tamu
tamui
tamuka
tamunih
tamura
tamurah
tamurun
tan
tana
tanaga
tanah
tanahap
tanahmerah
tanahnya
tanaka
tanakh
tanam
tanaman
tanang
tanao
tanda
tandes
tanding
tandingan
tanduk
tang
tanga
tangah
tangahnya
tangalih
tangan
tangani
tangannya
tanganyika
tangaran
tangatan
tangerang
tangga
tanggal
tanggalan
tanggalnya
tanggap
tanggapan
tanggara
tanggiling
tangguh
tanggui
tanggul
tanggung
tanggungan
tangi
tangis
tangisan
tangkawang
tangki
tangkis
tangkit
tangkorak
tangkuban
tangkui
tangkuk
tangkurak
tanguingui
tani
taniguchi
taniran
tanjung
tanjungpinang
tanjungpura
tanjungpuri
tank
tanka
tanks
tanpa
tanta
tantalus
tantang
tantangan
tantara
tantu
tantunya
tanya
tanyaman
tanzania
tao
tap
tapa
tapacah
tapacul
tapadat
tapagat
tapahuya
tapai
tapak
tapakai
tapakan
tapakng
tapaksa
tapalampang
tapaling
tapanas
tapang
tapangaruh
tapanjang
tapanting
tapanya
taparak
tapas
tapasana
tapasang
tapasena
tapat
tapatak
tapatnya
tapatuh
tape
tapen
tapenting
tapi
tapih
tapilah
tapilih
tapin
tapinandu
tapis
tapisah
tapiuka
tapos
tapung
tapus
taqabbalallahu
tar
tara
tarabah
tarabang
taracap
taradisi
taradisiunal
tarah
tarait
tarakan
tarakhir
taranak
tarancak
tarancam
tarandah
tarandam
tarang
tarangan
taranggana
tarapan
tarapi
tarapung
taras
tarasa
taratai
tarawih
tarbagi
tarbaik
tarbang
tarbantuk
tarbanyak
tarbatas
tarbit
tarbuat
tarbuka
tardapat
tardiri
targantung
target
tarhadap
tari
tariak
tarian
tarik
tarikan
tarikh
tarim
tarima
tarinci
taringen
tarinsing
tarjadi
tarjadinya
tarjamahakan
tarjamahan
tarjun
tarkacuali
tarkait
tarkanal
tarkandung
tarkenal
tarlabih
tarlalu
tarlibat
tarmasuk
tarminal
tarnak
tarpinandu
tarsabut
tarsabutkan
tarsadia
tarsebut
tarsebutkan
tarsebutlah
tarsi
tarsuratkan
tarsus
tartantu
tartarus
tartentu
tartinggi
tartulak
tartulis
taruhan
tarumanagara
taruna
tarung
tarupis
tarus
tarusan
tarutama
tas
tasabak
tasabar
tasabut
tasadia
tasadikit
tasalukut
tasambat
tasambung
tasandat
tasangkut
tasapu
tasarang
tasawuf
tasawup
tasebut
tasiar
tasik
tasikmalaya
tasimbaya
tasimpan
tasinggung
tasisa
tasmak
tasmania
tasugih
tasuhur
tasunduk
tasusun
tat
tata
tataan
tatacara
tatah
tatahan
tatak
tatakan
tatakunan
tatamba
tatambaian
tatambaiannya
tatambayan
tatambayannya
tatampaian
tatamu
tatamuan
tatanaman
tatanan
tatandak
tatangga
tatangganya
tatangkap
tatantu
tatap
tatapi
tataplah
tatarang
tatarik
tatarstan
tatarusan
tatas
tatautan
tatawas
tate
tatinggal
tatinggi
tatkala
tato
tattoos
tatuang
tatuha
tatukup
tatulis
tatumbalik
tatumbuhan
tatunda
tatunggul
tatutup
tau
taufik
taufiq
taught
tauhid
taujak
taulah
taulang
taulih
taum
taumpat
taun
tauncit
taungkap
taurai
taurat
tauris
taurus
tautama
tautamanya
tautan
tavera
tawahan
tawanan
tawang
tawar
tawaran
tawas
tawatas
tawau
tawilan
tawing
tawingnya
taxonomic
tayan
tayang
tayangan
tayap
taygete
taylor
tayur
tb
tbk
tbr
te
tea
teacher
teachers
teaching
team
teana
teang
tears
teater
tebal
tebangan
tebas
tebelian
tebing
tebisaq
tebu
technical
technische
technologies
technology
tecumseh
ted
tedapat
tedros
tegak
tegal
tegalrejo
tegalsari
tegea
teh
tehang
teika
teis
teisma
teisme
teistik
teka
tekaban
tekad
tekanan
tekarang
teke
tekelak
teki
teknik
teknis
teknologi
teknologinya
teks
tekstil
tekstur
tektonik
tektonis
telaga
telah
telamon
telan
telang
telawang
tele
telecommuting
telefus
telegram
telekomunikasi
telemakhus
telemark
telen
telepisi
telepon
telesforus
teleskop
teleskopis
telete
televisi
telework
telinga
telkhines
telkom
telling
telokair
telor
telp
telu
telugu
teluk
telur
telurnya
tema
teman
temanggung
temasuk
temayang
tembaga
tembakau
tembalang
tembang
tembawang
tembikar
tembok
tembus
temen
temenggung
temiang
temila
tempat
tempatan
tempe
tempera
templar
templat
temple
templeton
tempo
tempoak
temporal
temporale
temporalia
tempunak
tempur
tempurung
temu
temui
temurun
ten
tenaga
tenang
tende
tendean
tendiq
tendon
tengah
tengang
tenggara
tenggarong
tenggelam
tengguli
tengkajau
tengkak
tengkorak
tengku
tengkuk
tenis
tennessee
tennis
tenno
tenor
tenri
tenrikyo
tensi
tentang
tentara
tentu
tenun
teodisi
teolog
teologi
teologis
teorema
teoretis
teori
teoritis
teotihuacan
tepat
tepatnya
tepi
tepian
tepung
ter
teradisi
terakhir
terancam
terang
terantang
terap
terapan
terapi
terapung
teras
terasing
teratai
terate
terawal
terbagi
terbaik
terbakar
terbang
terbaru
terbatas
terbenam
terbentang
terbentuk
terbentuklah
terbentuknya
terbesar
terbit
terbitlah
terbuat
terbuka
terbukti
tercatat
tercemar
terdaftar
terdahulu
terdapat
terdeposisi
terdiri
terduga
terengganu
tergabung
terganal
tergantung
tergenang
tergolong
terhadap
terhentinya
terhindarkan
teriak
terigu
terikat
tering
teringin
terios
teritip
teritori
terjadi
terjadinya
terjangkit
terjatuh
terjauh
terjemahan
terjun
terkadang
terkait
terkandung
terkecil
terkemuka
terkena
terkenal
terkesan
terkonsentrasi
terkontrol
terlalu
terlarut
terlebih
terletak
terlibat
terlihat
terluar
term
terma
termas
termasuk
termasyhur
terminal
terminasi
terminologi
termonuklir
ternak
ternama
ternate
ternyata
terompet
teropong
terpadu
terpanas
terpenting
terra
terrace
terrae
terre
terrestrial
territory
terror
terry
tersebar
tersebut
tersedia
tersendiri
tersier
tersisa
tersusun
tertentu
tertib
tertinggi
tertingginya
tertinjau
tertium
tertua
tertulis
terus
terusan
terutama
tes
tesak
tesaurus
tesbe
tesis
test
testament
testing
tetaban
tetangga
tetap
tetapi
tetep
tetesan
tethys
tetrahidrokanabinol
tetsuo
teu
teuker
tewah
tewai
tewang
tewas
teweh
texas
text
textbook
textrm
texts
tezuka
th
tha
thaha
thahir
thai
thailand
thalassa
thalia
thalib
thallo
thames
thamrin
than
thanatos
thang
thanh
thani
thap
that
thatcher
thaumas
thayer
the
theater
theatre
thebes
thecurus
thefreedictionary
theia
their
them
themes
then
theodore
theoklimenus
theological
theory
thep
theravada
there
thermodynamic
thersander
thersites
these
theseus
thesis
thessali
thetis
they
thickness
thie
thiestes
thiet
thimoetes
thin
things
third
this
thisbe
tho
thom
thomas
thompson
thomson
thong
thoosa
thor
thoracica
thoracicae
thorax
those
though
thought
thracia
threat
threatened
three
throbbing
through
thrust
thu
thule
thumb
thumbnail
thumbtime
thung
ti
tia
tiada
tian
tianan
tiang
tiap
tiasa
tiba
tibarau
tibet
tibi
tibia
tibiae
tibya
tidak
tidaklah
tide
tideus
tidung
tidur
tie
tien
tiga
tigarun
tiger
tigray
tigrinya
tih
tihang
tihik
tii
tija
tijdschrift
tik
tika
tikan
tikar
tikas
tiket
tikhe
tikin
tikinan
tikit
tiknik
tiknis
tiknulugi
tikstur
tiktunik
tikung
tikungan
tikus
tilam
tilambung
tilamnya
tilanjang
tilawatil
tilikumunikasi
tilipisi
tiliskup
tilongkabila
tim
tima
timah
timang
timbako
timbaku
timbau
timbuk
timbul
timbulnya
time
times
timor
timpah
timpakul
timpani
timur
timurlaut
timus
tina
tinaga
tinago
tinampak
tindak
tindakan
tindareus
tindih
tingang
tinggal
tinggalam
tinggalamnya
tinggi
tingginya
tinggiran
tingkah
tingkat
tingkatan
tingkau
tinis
tinjakan
tinjauan
tinju
tinta
tintah
tintamas
tintin
tiong
tionghoa
tiongkok
tip
tipakan
tipayan
tipe
tipi
tipis
tipitaka
tipologi
tips
tipton
tipu
tique
tiram
tiran
tiraspol
tiri
tirik
tiringi
tirinya
tiroid
tirta
tis
tisifone
tisna
tissa
tisu
titan
titania
titanic
titanium
tithonus
titi
titian
titik
titikan
titir
titis
titisan
title
titus
tiunghua
tiungkok
tiungkuk
tiuri
tiuritis
tiwa
tiwadak
tiwas
tjokroaminoto
tjong
tk
tkr
tld
tle
tlepolemus
tlogoagung
tmii
tmnr
tn
tnam
tni
tnis
to
tob
toba
tobago
toc
tochigi
today
todd
toe
toefl
toehan
toemenggoeng
toenggal
toer
togan
togashi
together
togo
toho
tohoku
toilet
tojo
tokaya
tokek
toko
tokoh
tokong
tokubetsu
tokyo
tol
tolak
toledo
toli
tom
toma
toman
tomat
tome
tommongong
tommy
ton
tonak
tondo
tong
tonga
tongas
tonggak
tongkanan
tongkat
tongkok
tongkonan
tonight
tonjolan
top
topan
tope
topeng
topi
topics
topik
topografi
torah
toraja
torakal
toraks
tornado
toro
toronto
torpedo
torsi
torte
tosh
toshiro
total
totally
toto
tour
touring
tourism
toward
towards
tower
town
towns
toyota
tozhe
tpg
tpi
tr
trabajadores
tract
tracy
trade
tradisi
tradisional
tradisiunal
tradition
traditional
traditions
tragedi
tragis
traian
trail
train
trak
traksi
traktar
traktat
tralala
trang
trans
transaksi
transendensi
transfer
transfers
transfigured
transformasi
transfusi
transgender
transisi
transit
translated
translation
translations
transmigrasi
transmisi
transnistria
transplantasi
transport
transportasi
transpurtasi
trapezia
trapezium
trapezoid
trapezoidea
trapezoideum
trash
travel
travels
travis
tre
treatment
tree
tren
trend
trends
trenton
tres
trevor
tri
trial
triangle
trias
tribun
tribune
tribunnews
trident
trigonometri
trik
trikuetrum
triliun
trimurti
trinidad
trinity
trio
tripitaka
triple
tripoli
tripura
triquetra
triquetrum
tris
trisakti
trisuci
trisula
triteia
triton
tritones
tritunggal
trivia
trofonius
trojan
troms
trondheim
tropenmuseum
tropika
tropis
tropolitan
trotoar
trotsky
troy
troya
trucuk
trudgen
true
truesdale
truman
trump
trupis
truth
trygve
trøndelag
ts
tsar
tsfjord
tsing
tsu
tsubasa
tsuboi
tsukasa
tsunami
tsurayuki
tsurezuregusa
ttchen
tu
tua
tual
tualan
tuan
tuang
tuanku
tuannya
tuas
tuban
tubang
tubbataha
tube
tubrukan
tubu
tubuh
tubuhnya
tucker
tuduhan
tuff
tugas
tugu
tuh
tuha
tuhan
tuhanya
tuhuk
tuhup
tujuan
tujuannya
tujuh
tujuhbelasan
tujum
tujung
tukal
tukang
tukar
tukau
tuku
tukuh
tukul
tukun
tukung
tukuq
tulak
tulang
tulin
tuliransi
tulis
tulisa
tulisan
tulisannya
tulung
tumanggung
tumansky
tumat
tumatan
tumbak
tumbang
tumbuh
tumbuhan
tumbuhannya
tumbuhnya
tumbukan
tumbung
tumenggung
tumit
tumpal
tumpang
tumpek
tumpiangin
tumpuan
tumpuk
tumpukan
tumpul
tumuk
tun
tuna
tunas
tundakan
tunduk
tung
tunggal
tunggang
tunggara
tungging
tunggul
tunggulo
tungkai
tungkaran
tungkat
tungkau
tungku
tunisia
tunjuk
tunjulan
tunjung
tunnel
tuntunan
tuntung
tuntungnya
tuntutan
tuo
tupang
tupi
tupik
tur
turai
turak
turbo
turgenev
turi
turkey
turki
turkish
turkmenistan
turks
turner
turtle
turun
turunan
turunnya
turut
tusang
tusculan
[...]
