!
"
#
##0
##1
##10
##11
##12
##13
##14
##15
##16
##17
##18
##19
##2
##20
##21
##22
##23
##24
##25
##26
##27
##28
##29
##3
##30
##31
##32
##33
##34
##35
##36
##37
##38
##39
##4
##40
##41
##42
##43
##44
##45
##46
##47
##48
##49
##5
##50
##51
##52
##53
##54
##55
##56
##57
##58
##59
##6
##60
##61
##62
##63
##64
##65
##66
##67
##68
##69
##7
##70
##71
##72
##73
##74
##75
##76
##77
##78
##79
##8
##80
##81
##82
##83
##84
##85
##86
##87
##88
##89
##9
##90
##91
##92
##93
##94
##95
##96
##97
##98
##99
$
%
&
'
(
)
*
+
,
-
.
/
0
00
000
001
002
003
004
005
006
007
008
009
01
010
011
016
017
018
019
02
020
021
023
027
03
030
033
034
035
036
037
038
039
04
040
041
042
043
046
049
05
050
051
053
055
058
06
061
062
063
064
066
067
068
069
07
070
071
072
076
079
08
080
081
082
084
085
09
090
091
092
095
096
097
098
099
1
10
100
1000
1001
1005
1009
101
1010
1012
1013
1014
1015
1016
1018
102
1020
1022
1024
1028
103
1030
1031
1032
1033
1034
1035
104
1040
1043
1045
1046
105
1050
1058
106
1060
1066
107
1070
1071
108
1080
1082
1084
1086
1087
109
1090
1093
1094
1097
1098
1099
11
110
1100
1102
1105
1107
1108
111
1111
1117
1118
112
1120
1124
1125
1126
113
1130
1139
114
1143
115
1150
1152
1153
1154
1156
1157
1158
116
1160
1165
1167
117
1170
1172
118
1180
1184
1185
1187
1189
119
1190
1191
1194
1195
1197
1198
1199
12
120
1200
1202
1204
1205
1206
121
1210
1212
1214
1216
1219
122
1220
1225
1227
123
1230
1233
1237
1239
124
1240
1241
1242
1246
1249
125
1250
1253
1254
1258
1259
126
1260
1261
1263
1265
1266
1268
127
1270
1271
1273
1274
1276
1278
1279
128
1280
1282
1283
1284
1285
1286
1287
129
1290
1291
1292
1294
1295
1296
1297
1298
13
130
1300
1301
1302
1304
1305
1306
1307
1308
1309
131
1314
1316
1318
1319
132
1320
1321
1322
1326
1327
1328
1329
133
1330
1332
1333
1334
1336
1338
134
1340
1342
1344
1345
1346
135
1350
1352
1353
1356
1357
136
1360
1364
1367
1368
137
1370
1371
1372
1375
1377
1378
138
1380
1381
1384
1385
1386
1387
1388
1389
139
1390
1391
1392
1394
1397
1398
14
140
1400
1401
1402
1403
1404
1405
1406
1408
141
1410
1411
1412
1413
1415
1417
1418
142
1420
1421
1422
1424
1425
1426
1428
1429
143
1430
1431
1434
1435
1436
1437
1438
1439
144
1440
1443
1444
1445
1447
1448
1449
145
1450
1451
1452
1453
1454
1455
1456
1457
1458
1459
146
1460
1461
1462
1463
1464
1465
1466
1467
1468
1469
147
1470
1471
1472
1473
1475
1476
1477
1478
1479
148
1480
1481
1482
1483
1484
1485
1486
1488
1489
149
1490
1491
1492
1493
1494
1495
1496
1497
1498
1499
15
150
1500
1501
1502
1503
1504
1505
1506
1508
1509
151
1510
1511
1512
1513
1514
1515
1516
1517
1519
152
1520
1521
1522
1523
1524
1525
1526
1527
1528
1529
153
1530
1531
1532
1533
1534
1535
1536
1537
1538
1539
154
1540
1541
1542
1543
1544
1545
1546
1547
1548
1549
155
1550
1551
1552
1553
1554
1555
1556
1557
1558
1559
156
1560
1561
1562
1563
1564
1565
1566
1567
1568
1569
157
1570
1571
1572
1573
1574
1575
1576
1577
1578
1579
158
1580
1581
1582
1583
1584
1585
1586
1587
1588
1589
159
1590
1591
1592
1593
1594
1595
1596
1597
1598
1599
16
160
1600
1601
1602
1603
1604
1605
1606
1607
1608
1609
161
1610
1611
1612
1613
1614
1615
1616
1617
1618
1619
162
1620
1621
1622
1623
1624
1625
1626
1627
1628
1629
163
1630
1631
1632
1633
1634
1635
1636
1637
1638
1639
164
1640
1641
1642
1643
1644
1645
1646
1647
1648
1649
165
1650
1651
1652
1653
1654
1655
1656
1657
1658
1659
166
1660
1661
1662
1663
1664
1665
1666
1667
1668
1669
167
1670
1671
1672
1673
1674
1675
1676
1677
1678
1679
168
1680
1681
1682
1683
1684
1685
1686
1687
1688
1689
169
1690
1691
1692
1693
1694
1695
1696
1697
1698
1699
17
170
1700
1701
1702
1703
1704
1705
1706
1707
1708
1709
171
1710
1711
1712
1713
1714
1715
1716
1717
1718
1719
172
1720
1721
1722
1723
1724
1725
1726
1727
1728
1729
173
1730
1731
1732
1733
1734
1735
1736
1737
1738
1739
174
1740
1741
1742
1743
1744
1745
1746
1747
1748
1749
175
1750
1751
1752
1753
1754
1755
1756
1757
1758
1759
176
1760
1761
1762
1763
1764
1765
1766
1767
1768
1769
177
1770
1771
1772
1773
1774
1775
1776
1777
1778
1779
178
1780
1781
1782
1783
1784
1785
1786
1787
1788
1789
179
1790
1791
1792
1793
1794
1795
1796
1797
1798
1799
18
180
1800
1801
1802
1803
1804
1805
1806
1807
1808
1809
181
1810
1811
1812
1813
1814
1815
1816
1817
1818
1819
182
1820
1821
1822
1823
1824
1825
1826
1827
1828
1829
183
1830
1831
1832
1833
1834
1835
1836
1837
1838
1839
184
1840
1841
1842
1843
1844
1845
1846
1847
1848
1849
185
1850
1851
1852
1853
1854
1855
1856
1857
1858
1859
186
1860
1861
1862
1863
1864
1865
1866
1867
1868
1869
187
1870
1871
1872
1873
1874
1875
1876
1877
1878
1879
188
1880
1881
1882
1883
1884
1885
1886
1887
1888
1889
189
1890
1891
1892
1893
1894
1895
1896
1897
1898
1899
19
190
1900
1901
1902
1903
1904
1905
1906
1907
1908
1909
191
1910
1911
1912
1913
1914
1915
1916
1917
1918
1919
192
1920
1921
1922
1923
1924
1925
1926
1927
1928
1929
193
1930
1931
1932
1933
1934
1935
1936
1937
1938
1939
194
1940
1941
1942
1943
1944
1945
1946
1947
1948
1949
195
1950
1951
1952
1953
1954
1955
1956
1957
1958
1959
196
1960
1961
1962
1963
1964
1965
1966
1967
1968
1969
197
1970
1971
1972
1973
1974
1975
1976
1977
1978
1979
198
1980
1981
1982
1983
1984
1985
1986
1987
1988
1989
199
1990
1991
1992
1993
1994
1995
1996
1997
1998
1999
2
20
200
2000
2001
2002
2003
2004
2005
2006
2007
2008
2009
201
2010
2011
2012
2013
2014
2015
2016
2017
2018
2019
202
2020
2021
2022
2024
203
204
205
206
207
208
209
21
210
2100
211
212
2120
213
214
2141
215
216
217
218
219
22
220
2200
221
222
223
224
225
226
227
228
229
23
230
2300
231
232
233
2330
234
235
236
237
238
239
24
240
241
242
2420
243
244
245
246
247
248
249
25
250
2500
251
252
253
254
255
256
257
258
259
26
260
2600
261
262
263
264
265
266
267
268
269
27
270
271
272
273
274
275
276
277
278
279
28
280
281
282
283
284
285
286
287
288
289
29
290
291
292
293
294
295
296
297
298
299
3
30
300
3000
301
302
303
304
305
306
307
308
309
31
310
311
312
313
314
315
316
3166
317
318
319
32
320
321
322
323
324
325
326
327
328
329
33
330
331
332
333
334
335
336
337
338
339
34
340
341
342
343
344
345
346
347
348
349
35
350
3500
351
352
353
354
355
356
357
358
359
36
360
361
362
363
364
365
366
367
368
369
37
370
371
372
373
374
375
376
377
378
379
38
380
381
382
383
384
385
386
387
388
389
39
390
391
392
393
394
395
396
397
398
399
4
40
400
4000
401
402
403
404
405
406
407
408
409
41
410
411
412
413
414
415
416
417
418
419
42
420
421
422
423
424
425
426
427
428
429
43
430
431
432
433
434
435
436
437
438
439
44
440
441
442
443
444
445
446
447
448
449
45
450
451
452
453
454
455
456
457
458
459
46
460
461
462
463
464
465
466
467
468
469
47
470
471
472
473
474
475
476
477
478
479
48
480
481
482
483
484
485
486
487
488
489
49
490
491
492
493
494
495
496
497
498
499
5
50
500
5000
501
502
503
504
505
506
507
508
509
51
510
511
512
513
514
515
516
517
518
519
52
520
521
522
523
524
525
526
527
528
529
53
530
531
532
533
534
535
536
537
538
539
54
540
541
542
543
544
545
546
547
548
549
55
550
5500
551
552
553
554
555
557
558
559
56
560
562
563
564
565
566
567
568
569
57
570
571
572
573
575
576
577
578
579
58
580
581
582
583
584
585
586
587
588
59
590
591
593
594
595
596
597
598
599
6
60
600
6000
601
602
603
604
605
606
607
608
609
61
610
611
612
613
614
615
616
617
618
62
620
621
622
623
624
625
626
627
628
629
63
630
631
632
633
634
635
636
637
638
639
64
640
641
642
643
644
645
646
647
648
649
65
650
652
653
654
655
656
657
658
659
66
660
661
662
663
664
665
666
667
668
669
67
670
671
672
673
674
675
676
677
678
679
68
680
681
682
683
684
685
686
687
688
689
69
690
691
692
693
694
695
696
697
698
699
7
70
700
7000
701
702
703
704
705
706
707
708
709
71
710
711
712
713
714
715
716
717
718
719
72
720
721
722
723
724
725
726
727
728
729
73
730
731
732
733
734
735
736
737
738
739
74
740
741
742
743
744
745
746
747
748
749
75
750
751
752
753
754
755
756
757
759
76
760
761
762
763
764
765
766
767
768
769
77
770
771
772
773
77320
774
775
776
777
778
779
78
780
781
782
783
784
785
786
787
788
789
79
790
792
793
794
795
796
797
798
8
80
800
8000
801
802
803
804
805
806
807
808
809
81
810
811
812
813
814
815
816
818
819
82
820
821
822
823
824
825
826
827
828
829
83
830
831
833
834
835
836
837
839
84
840
841
842
843
844
845
846
847
848
849
85
850
8500
851
852
853
854
855
856
857
858
859
86
860
861
862
863
864
865
866
867
868
87
870
870978
871
872
873
874
875
876
877
878
879
88
880
881
882
883
884
885
886
887
888
889
89
890
891
892
893
894
895
896
897
898
899
9
90
900
901
904
905
906
907
908
909
91
910
911
912
913
914
915
917
918
919
92
920
921
922
923
924
925
926
927
928
929
93
930
931
932
933
934
935
936
937
938
939
94
940
941
943
944
945
947
948
949
95
950
951
952
953
954
955
956
957
958
959
96
960
961
962
963
964
965
966
967
968
969
97
970
971
972
973
974
975
976
977
978
979
98
980
981
983
984
985
986
987
988
989
99
990
991
992
994
995
996
997
998
999
:
;
<
=
>
?
@
\
^
_
`
a
aa
aachen
aalborg
aalen
aaliyah
aam
aan
aaready
aargau
aarhus
aaron
aathegither
aaways
ab
aba
ababa
abad
abadan
abajo
abandon
abandoned
abandonment
abandont
abasolo
abbas
abbasid
abbasids
abbe
abbess
abbey
abbeys
abbot
abbots
abbott
abbottabad
abbreviated
abbreviation
abbreviations
abbreviatit
abburu
abc
abd
abdallah
abdel
abdic
abdicate
abdicates
abdication
abdicatit
abdomen
abdominal
abdu
abdul
abdulaziz
abdullah
abe
abeelity
abel
abellio
abeno
aberdeen
aberdeenshire
abernethy
aberystwyth
abi
abigail
abilities
ability
abit
abja
abkhaz
abkhazia
abkhazie
able
ablo
ablow
abnormal
abode
abolished
abolisht
abolition
aboot
aboriginal
abortion
about
above
abovyan
abra
abraham
abril
abroad
abruzzo
abs
absence
absent
absolute
absorbed
absorbit
absorption
abstract
absu
abu
abuin
abuis
abundance
abundant
abuse
aby
ac
acacia
acade
academia
academic
academical
academics
academies
academy
acame
acapulco
acasaguastla
acatla
acause
accedit
accelerate
acceleration
acceleratit
accelerator
accent
accents
accept
acceptable
acceptance
accepted
acceptin
acceptit
accepts
access
accessed
accessible
accession
accessories
accident
accidental
accidentally
accidents
acclaim
acclaimed
acclaimit
accolades
accommodate
accommodation
accompanied
accompaniet
accompanyin
accomplished
accomplishments
accoont
accoontin
accoontit
accoonts
accord
accordance
accordin
according
accordinly
accordion
accords
account
accounts
accreditit
accuised
accuracy
accurate
accurately
accusations
accused
ace
aceca
aceh
acer
aces
acessado
acetyl
achaemenid
achieve
achieved
achievement
achievements
achieves
achievin
achievit
achilles
acid
acidic
acids
acinonyx
acknawledged
acknawledgit
acknowledged
acks
acome
acomin
acosta
acoustic
acquire
acquired
acquirin
acquisition
acre
acres
acronym
acropolis
across
act
acted
acteeve
acteevities
acteevity
actes
actin
acting
action
actions
actit
actium
active
actively
activism
activist
activists
activities
activity
actor
actors
actress
actresses
acts
actual
actually
acun
acute
ad
ada
adae
adair
adalbert
adam
adams
adamson
adana
adapt
adaptation
adaptations
adapted
adaptit
add
addams
added
addeetion
addeetional
addeetionally
addiction
addin
adding
addis
addit
addition
additional
additionally
additions
address
addressed
addresses
adds
ade
adelaide
adele
adelheid
aden
adequate
adherence
adherents
adige
adj
adjacent
adjective
adjectives
adjoinin
adler
admeenister
admeenistered
admeenisters
admeenistrated
admeenistration
admeenistrations
admeenistrative
admeenistrativelaw
admeenistratively
admeenistrator
admeenistrators
administered
administration
administrative
administratively
administrator
admiral
admirals
admiralty
admired
admission
admit
admitted
admittit
ado
adobe
adolf
adolfo
adolph
adolphe
adolphus
adonis
adopt
adopted
adoptin
adoption
adoptit
adopts
adorned
adposeetion
adposeetions
adria
adrian
adrianople
adriatic
adrien
adrienne
adult
adults
adv
advance
advanced
advancement
advances
advancin
advancit
advantage
advent
adventur
adventure
adventurer
adventures
adventurs
adverbs
adverteesin
advertised
advertisement
advertisements
advertisin
advertising
advice
advised
adviser
advisor
advisors
advisory
advocacy
advocate
advocates
advocatit
ae
aegean
aegon
aegviidu
aen
aeneid
aerial
aerlie
aero
aerodrome
aerodynamics
aeropuerto
aerospace
aes
aesome
aest
aesthetic
aesthetics
af
afa
afar
afc
aff
affair
affairs
affcome
affect
affected
affectin
affection
affectit
affects
affen
affensive
affer
affered
afferin
affers
affice
afficer
afficers
affiliate
affiliated
affiliation
affiliatit
affine
affleck
affluent
afford
affordable
affs
affshore
affspring
afghan
afghanistan
afi
afonso
afore
aforehaun
aforehaund
aforementioned
afraid
africa
africae
african
africans
afrikaans
afro
aft
aften
after
afterwards
ag
again
against
agarak
agassi
agatha
agaunst
agdash
age
aged
agencies
agency
agenda
agent
agents
ages
agglomeration
agglomerations
aggregate
aggression
aggressive
agia
agile
agin
agios
agit
aglae
agnes
agnew
agnieszka
agnostics
ago
agony
agosto
agr
agra
agrarian
agree
agreed
agreement
agreements
agrees
agribusiness
agricola
agricultur
agricultural
agriculture
agrigento
agrippa
agu
agua
aguascalientes
aguilar
aguilera
aguirre
agus
agusti
agustin
ah
ahead
aheid
ahind
ahint
ahl
ahli
ahmad
ahmed
ahmet
ahome
ahora
ai
aiberdeen
aiberdeenshire
aibey
aiblins
aiccess
aichi
aicht
aichteen
aichteent
aichties
aichty
aid
aidit
aids
aifter
aignan
aiguillon
aik
aiken
aileen
aim
aimag
aimags
aime
aimed
aimit
aims
ain
aince
ained
ainer
ainimal
ainimals
ainimatit
ainlie
ainly
ains
aiple
aiples
air
airasia
airbase
airbus
airch
airchaeological
airchaeologist
airchaeologists
airchaeology
airchangel
airchbeeshop
airchbeeshops
airchbishop
airchdiocese
airchduchess
airchduchesses
airchduke
airchdukes
aircheological
airchery
airches
airchipelago
airchipelagoes
airchitect
airchitects
airchitectur
airchitectural
aircraft
airctic
airdrie
airdrieonians
aire
aired
aires
airfield
airie
airin
airing
airisch
airlan
airline
airliner
airlines
airly
airm
airmed
airmie
airmies
airmistice
airmit
airmour
airmoured
airms
airmy
airn
airplane
airplanes
airplay
airport
airports
airs
airt
airteestic
airticle
airticles
airtifacts
airtifeecial
airtificial
airtillery
airtin
airtins
airtisans
airtist
airtistic
airtists
airtit
airts
airtwark
airtwirk
airways
ais
aise
aisie
aisle
aisles
aisne
ait
aither
aitken
aits
aix
aj
ajax
ajman
ak
aka
akbar
akershus
aki
akin
akira
akita
akkadian
akov
akp
akron
akrotiri
aks
aksaray
aksu
aktobe
al
ala
alabama
alabina
aladdin
alagoas
alain
alajuela
alam
alan
alanbrooke
alane
alang
alangside
alanie
alaouite
alas
alasdair
alaska
alastair
alaverdi
alawi
alawite
alawites
alb
alba
albacete
alban
albania
albanian
albanians
albanie
albanies
albano
albany
albarradas
albeit
alberdi
albert
alberta
albertina
albertine
alberto
albi
albiol
albion
alborz
albrecht
album
albums
albuquerque
alca
alcala
alcalde
alcaldedis
alcamo
alcanzar
alchemy
alcobendas
alcohol
alcoholic
alcoholism
alcorco
aldama
alder
aldo
ale
alec
alegre
alejandra
alejandro
aleko
aleksander
aleksandr
aleksi
alemannic
alenc
alentejo
aleppo
alert
alessandria
alessandro
alex
alexander
alexandr
alexandra
alexandre
alexandria
alexandrine
alexandro
alexandropol
alexandrovich
alexandrovsk
alexandrovsky
alexei
alexey
alexeyevka
alexeyevsky
alexis
aley
alfa
alfie
alfons
alfonso
alford
alfred
alfredo
algae
algarrobo
algarve
algarves
algebra
algebraic
algeria
algerian
algerie
algiers
algorithm
algorithms
ali
alia
alias
alicante
alice
alicia
alien
alighieri
align
alignbars
aligned
aligudarz
alike
alingsa
alison
alive
alix
aliyah
aliyev
alkali
alkaline
all
alla
allae
allaed
allaes
allah
allan
allcroft
alle
allee
alleed
allegations
alleged
allegedly
allegiance
allegit
allegro
alleles
allen
allende
allenstein
allers
alley
alliance
alliances
allied
allier
allies
alligator
allitt
allium
allmusic
alloa
allocated
allocatit
allou
alloued
allouin
allouit
allous
allowa
allowed
allows
alloy
alloys
alluvial
ally
alma
almagro
almaist
almaty
almeida
almeri
almirante
almodo
almohad
almost
alo
alois
alone
along
alongside
alonso
alp
alpes
alpha
alphabet
alphabetical
alphabets
alphonse
alpina
alpine
alps
already
alright
als
alsace
alsae
alsina
also
alt
alta
altai
altamira
altamirano
altar
altas
altay
altenburg
alter
alterations
altered
alternate
alternates
alternatin
alternative
alternatively
altho
althou
although
altiplano
altitude
altitudes
alto
altos
alumeenium
aluminium
aluminum
alumni
alvarez
alvaro
alvear
alves
always
alzheimer
am
ama
amadeo
amadeus
amador
amadora
amagasaki
amaist
amal
amalgamation
amalgamatit
amalia
amalie
amanda
amang
amangst
amapa
amar
amaranth
amaranthus
amaro
amarte
amassed
amateur
amatla
amazin
amazing
amazon
amazonas
amazons
ambassador
ambassadors
amber
ambient
ambiguous
ambition
ambitions
ambitious
ambulance
ambush
ame
amedeo
amelia
amen
amendi
amendit
amendment
amenities
america
americae
americaes
american
americana
americans
americas
amerika
amerindian
amerindians
ames
ami
amid
amidst
amiens
amigo
amin
amino
amir
amman
ammunition
amnesty
amo
amok
among
amongst
amoont
amoonts
amor
amore
amores
amos
amount
amounts
amour
amphibians
amphibious
amphitheatre
amphoe
amr
ams
amsterdam
amt
amta
amtrak
amu
amunts
amur
amusement
amy
an
ana
anadolu
anagoria
anaheim
anakin
anakkale
anal
analog
analogous
analysis
analyst
analysts
analytic
analytical
anana
anarchism
anarchist
anarchists
anarchy
anas
anastasia
anastasius
anastasiya
anatolia
anatolian
anatolie
anatoly
anatomist
anatomy
anaw
anbar
anc
ance
ancestor
ancestors
ancestral
ancestry
anchor
anchorage
anchors
ancien
ancient
ancona
ancora
and
anda
andaluci
andalus
andalusie
andaman
andamanese
andean
anderlecht
anders
andersen
anderson
andersson
andes
andhra
andijan
andorra
andorrae
andra
andrade
andras
andre
andrea
andreas
andrei
andres
andreu
andrew
andrews
andrey
android
andromeda
andrzej
andy
ane
aneath
anelie
anely
anent
anerlie
anerly
anes
ang
ange
angel
angela
angeles
angelica
angelina
angelique
angelo
angels
anger
angiosperm
angiosperms
angle
angles
anglesey
anglia
anglican
anglicans
anglicised
anglo
angola
angolae
angora
angostura
angoule
angra
angry
anguilla
angular
angus
anhalt
anhui
ani
anija
animal
animals
animas
animate
animated
animation
animatit
animator
animators
anime
anist
anita
anither
anithir
anjou
ankara
ankle
anly
anlıurfa
ann
anna
annals
annan
annandale
anne
annecy
annex
annexation
annexed
annexes
annie
anniversar
anniversary
anno
annobo
annoonced
annooncement
annooncit
announced
announcement
announces
annual
annually
annum
annunced
annunciation
annunziata
annus
ano
anoia
anonymous
another
ans
ansbach
anselm
anseong
anser
ansett
anshan
anstruther
answer
answered
answers
ant
anta
antagonist
antakya
antalya
antarctic
antarctica
antarcticae
antelope
antenna
anthem
anthems
anthology
anthony
anthrax
anthropologie
anthropologist
anthropologists
anthropology
anthropomorphic
anti
antichrist
anticipatit
antigua
antiguo
antilles
antin
antioch
antioquia
antiquarian
antique
antiquities
antiquity
antisemitism
antium
anto
antofagasta
antoine
antoinette
anton
antoni
antonia
antonie
antonietta
antonin
antonine
antoninus
antonio
antonius
antony
antrim
ants
antsla
antti
antwerp
anwar
anwoth
any
anyang
anyone
anything
anzio
anzoa
ao
aor
aosta
ap
apache
apairt
apairtment
apairtments
aparan
apart
apartheid
apartment
apartments
ape
apennines
apertur
apertura
apes
apex
apg
aphrodite
apiaceae
apo
apocalypse
apocalyptic
apocryphal
apodaca
apollo
apollonia
apostle
apostles
apostolic
apostrophe
app
apparatus
apparent
apparently
apparition
appeal
appealed
appeals
appear
appearance
appearances
appeared
appearin
appearit
appears
appen
appened
appenin
appent
appert
apple
applee
appleed
applees
apples
appleton
appliances
applicable
application
applications
applied
applies
apply
appointed
appointit
appointment
appreciation
apprentice
approach
approached
approaches
approachin
appropriate
approval
approved
approx
approximate
approximately
approximation
appruival
appruived
appruivit
appynt
appyntit
appyntment
apr
apricot
april
aprile
aprilia
apryle
apulia
apulie
aqaba
aqua
aquarium
aquatic
aquatics
aqueduct
aquila
aquino
aquitaine
ar
ara
arab
araba
arabi
arabia
arabian
arabic
arabie
arable
arabs
aracataca
arad
arafat
aragatsotn
arago
aragon
aragonese
aragua
araguaia
arak
aral
aram
aramaic
arana
arani
ararat
aras
arauca
araya
arbat
arbetarpartiet
arbor
arbroath
arc
arca
arcade
arcades
arcadia
arce
arch
archaeological
archaeology
archaic
archangelgorod
archbishop
archduchess
archduke
archeological
archer
archibald
archie
archipelago
architect
architects
architectur
architectural
architecture
archive
archived
archives
arcos
arctic
arctica
ardabil
ardahan
arde
ardea
arden
ardennes
ardwell
are
area
areas
arena
arenae
arenas
areni
arenys
arequipa
ares
arezzo
arganzo
argent
argentina
argentinae
argentinas
argentine
argentines
argentinian
argentino
argentinos
argied
argolis
argos
arguably
argue
argued
argues
argument
arguments
argyle
argyll
ari
aria
ariana
ariane
arias
arica
arid
arie
ariel
arise
aristocracy
aristocrat
aristocratic
aristotle
arithmetic
arizona
arjen
arjona
ark
arkansas
arkhangelsk
arkona
arles
arlington
arm
armada
armadillo
armageddon
armagh
armagnac
armand
armande
armando
armas
armavir
arme
armed
armenia
armenian
armenians
armenie
armenies
armies
armigerous
armin
armistice
armor
armored
armour
armoured
arms
armstat
armstrong
army
arn
arna
arnae
arnhem
arno
arnold
aroma
aromatic
aroon
aroond
arose
aroun
around
arous
arpitan
arque
arquien
arran
arranged
arrangement
arrangements
arranger
arrangit
arras
array
arrest
arrested
arrestit
arrests
arriaga
arriba
arrival
arrive
arrived
arrives
arrivin
arrivit
arrondissement
arrondissements
arrow
arroyo
arroyos
ars
arsames
arse
arsenal
arsizio
arsoli
art
artashat
arte
arteaga
artemis
artemisa
artemisia
artery
artes
arteta
arthropods
arthur
arthurian
article
articles
artifacts
artifeecial
artificial
artigas
artillery
artisans
artist
artistic
artists
artois
arts
artsakh
artur
arturo
artvin
aruba
aruku
arvensis
arxiv
aryan
as
asa
asadabad
asahi
asan
asbestos
ascania
ascender
ascendin
ascendit
ascension
ascenso
ascent
asco
asean
asesino
ash
ashdod
ashes
ashgabat
ashkelon
ashley
ashman
ashtarak
ashton
asi
asia
asian
asiana
asiatic
aside
asie
asies
asimov
asio
ask
asked
askin
askit
asks
aslaug
asmara
asociacio
asp
aspect
aspects
asphalt
aspirin
aspx
asquith
ass
assad
assam
assassin
assassination
assassinatit
assassins
assault
assembled
assemblies
assembly
assemmly
assertit
assessed
assessment
asset
assets
assigned
assimilatit
assirie
assiries
assisi
assist
assistance
assistant
assisted
assistin
assistit
assists
associac
associate
associated
associates
association
associations
associatit
associe
assr
assume
assumed
assumit
assumption
assynt
assyrian
astana
astara
asteraceae
asteroid
asteroids
asti
astley
aston
astra
astrakhan
astrid
astrologer
astrology
astronaut
astronauts
astronomer
astronomers
astronomical
astronomy
astropheesicist
asturian
asturias
asturies
astvatsatsin
asuncio
asuncion
aswan
asylum
asyut
at
ata
atacama
atalca
atarfe
atas
atatu
atayim
ate
ath
athdrawal
athdrew
atheism
atheist
atheists
athena
athenian
athens
athin
athlete
athletes
athletic
athletics
atholl
athoot
athort
athos
athout
atkinson
atla
atlanta
atlantic
atlantique
atlantiques
atlantis
atlas
atle
atlus
atmosphere
atmospheric
atoll
atolls
atom
atomic
atoms
atop
atouer
atour
atp
attached
attacht
attack
attacked
attackin
attackit
attacks
attain
attained
attempt
attempted
attemptin
attemptit
attempts
attenborough
attend
attendance
attended
attendin
attendit
attends
attention
attestit
attic
attica
attiki
attitude
attitudes
attorney
attorneys
attract
attracted
attractin
attraction
attractions
attractit
attractive
attracts
attribute
attributes
attributit
atween
atweesh
atwein
au
aube
aubl
aubraham
aucht
auchtertool
auckland
auction
aude
audeetion
audience
audiences
audio
audition
auditioned
auditorio
auditorium
auditory
audrey
auf
aug
augents
augist
augsburg
august
augusta
auguste
augustin
augustine
augustinian
augusto
augustus
auld
aulder
auldest
aulnay
aumale
aumont
aun
auncestor
auncient
aundraes
aung
aunt
aurelian
aurelius
aurie
auries
aurisina
aurora
aus
auschwitz
auspices
austen
austin
austrailie
australasie
australia
australian
australie
australien
austria
austrian
austrians
austrick
austro
authentic
author
authored
authorised
authoritarian
authorities
authority
authors
autism
autistic
auto
autobiografers
autobiografie
autobiographical
autobiography
automaker
automatic
automatically
automatit
automobile
automobiles
automotive
autonomous
autonomy
autopista
autozam
autumn
auvergne
aux
auxiliary
av
ava
availability
available
avan
avant
avatar
ave
avellaneda
avengers
avenida
avenue
avenues
average
averages
averagin
avery
aveyron
avgvstvs
aviation
aviator
aviators
avignon
aviv
aviz
avna
avnem
avocado
avocados
avoid
avon
avril
aw
awa
awaird
awairded
awairdit
awairds
award
awarded
awardit
awards
awareness
awaur
away
awbeit
awbesit
awbody
awdry
awe
awes
awey
awfu
awin
awmaist
awmonds
awn
awned
awner
awners
awnership
awns
awnt
awready
awreidy
awso
awthegither
awtho
awthou
ax
axe
axel
axis
axle
axles
ay
ayacucho
ayatollah
aydın
aye
ayen
ayes
ayeweys
aymara
ayn
ayont
ayora
ayr
ayrshire
aysel
ayuntamiento
ayutla
ayutthaya
ayyubid
az
azad
azarenka
azerbaijan
azerbaijani
azerbaijanis
azeri
azeris
azhar
aziz
azores
azov
azraq
aztec
azteca
aztecs
azul
azur
azure
b
ba
baa
baabda
baalbek
bab
baba
babak
babel
babies
baboon
baboons
babushkina
babushkinsky
baby
babylon
babylonie
bac
bach
bachelor
bachelors
back
backbone
backdrop
backed
background
backgroundcolors
backgrund
backgrunds
backin
backing
backit
backs
backstroke
bacon
bacteria
bacterial
bad
badajoz
badalona
bade
baden
badge
badged
badger
badgers
badia
badly
badminton
badr
bae
baekje
bafta
bag
bagdogra
bages
baghdad
bagnan
bagpipes
bagratuni
baha
bahah
bahamas
bahasa
bahi
bahia
bahmanabad
bahn
bahr
bahrain
bai
baie
baikonur
baile
bailey
bailiwick
baillie
bain
bains
baird
bairn
bairnheid
bairns
baist
baith
baix
baja
bajo
bak
baked
baker
bakhtiari
bakiyev
bakr
baku
bal
bala
balaguer
balance
balashikha
balboa
baldwin
bale
balearic
balfour
bali
balkan
balkans
ball
ballad
ballads
ballantyne
ballet
balliol
ballistic
ballivia
ballon
balloon
ballot
balls
bally
balmaclellan
balmaghie
balmoral
balochistan
balqa
balsa
balta
baltes
baltic
baltimore
baluchestan
bam
bamberg
bambi
bamboo
bamff
ban
bananae
bananaes
bananas
banat
banchry
banco
band
banda
bandar
bandera
bandit
bands
bandy
bane
banes
banff
banfield
bang
bangalore
bangkok
bangladesh
bangladeshi
bangor
bangui
bani
banished
baniyas
banja
banjul
bank
banker
bankin
banking
banknotes
bankrupt
bankruptcy
banks
banned
banner
bannerman
banners
bannockburn
bans
banska
bantam
bantu
banu
baobab
baotou
bapteesm
baptised
baptism
baptist
baptiste
baptists
baquerizo
bar
bara
barack
barajas
barangay
barangays
baratay
barbados
barbara
barbarian
barbarossa
barbary
barbera
barbour
barbuda
barburgh
barby
barca
barcelona
barchfeld
barcinski
barclay
bard
barda
bardata
bardi
bardsir
bare
barely
bari
barinas
baritone
bark
barker
barley
barn
barnaul
barnes
barney
barnsley
baron
baroness
baronet
baronets
baronial
barons
barony
baroque
barr
barra
barraba
barracks
barranquilla
barrel
barrels
barren
barrett
barrie
barrier
barrio
barrios
barris
barros
barrow
barry
bars
bart
barthe
bartholomew
bartlett
bartolo
bartolome
bartolomeo
barton
bartussek
baruch
bas
basal
basalt
base
baseball
basebaw
based
basel
basement
bases
basha
bashar
bashkortostan
basic
basically
basil
basilica
basilicata
basin
basins
basis
basit
basket
basketbaa
basketball
basketbaw
basque
basques
bass
basse
bassist
bastard
bat
bataille
batangas
bate
bates
bath
bathin
bathory
baths
batin
batista
batken
batman
bator
battalion
battenberg
batteries
battery
battista
battle
battled
battlefield
battles
battleship
batumi
batya
bau
bauer
bauld
baume
baunatal
baund
baunds
baunk
baunks
baur
baurley
bautista
bautzen
bavarian
bavarie
baw
bawl
bawls
baws
baxter
bay
bayan
bayankhongor
bayda
bayer
bayern
bayonne
bayreuth
bays
bayswater
bayt
bazaar
bazar
bbc
bc
bce
bd
be
beach
beaches
beads
beagador
beagle
beak
beam
bean
beans
bear
beard
bearer
bearin
bearing
bears
bearsden
beast
beastie
beasties
beasts
beat
beaten
beatin
beatles
beatrice
beatrix
beatriz
beats
beaufort
beauharnais
beaujolais
beaulieu
beaumont
beautifu
beautiful
beauty
beauvau
beauvoir
beaver
bec
becam
became
because
beck
becker
beckham
becky
become
becomes
becomin
becoming
becum
bed
bede
bedford
bedfordshire
bedouin
bedroom
beds
bee
beech
beef
been
beer
beersheba
bees
beeshops
beetle
beets
bef
before
beg
began
begin
beginnin
beginning
beginnings
beginnins
begins
begonia
begoud
begun
behalf
behauf
behavior
behaviour
behaviours
behind
bei
beihai
beijing
bein
being
beins
beir
beira
beirin
beirs
beirut
beit
beja
bek
bel
bela
belang
belanged
belangin
belangit
belangs
belaroushie
belaroushies
belarus
belaw
bele
belen
belfast
belfort
belfry
belgian
belgians
belgique
belgium
belgorod
belgrade
belgrano
belief
beliefs
believe
believed
believers
believes
believin
believit
belike
belinda
belize
bell
bella
belle
belles
bellevue
bello
bells
belly
belmont
belmonte
belo
belonged
belongs
beloved
belovo
belovsky
below
belozersky
belt
beltinci
belton
beltra
belts
belvedere
ben
bench
bend
beneath
benedetto
benedict
benedicta
benedictine
beneficial
benefit
benefits
benevento
benfica
bengal
bengali
benghazi
beni
benin
benito
benjamin
bennett
benny
bens
benson
bent
bentley
benxi
benz
beopjeong
beqaa
ber
berat
berber
berbers
berd
berdych
berg
bergamo
bergen
berger
bergisch
bergisches
bergman
bergueda
berk
berkeley
berkley
berkshire
berlin
berliner
bern
bernabe
bernadotte
bernal
bernard
bernardino
bernardo
bernburg
berne
bernhard
bernie
berries
berry
bertha
bertrand
berwick
berwickshire
bes
besanc
beside
besides
besieged
besiegit
besnate
beso
bessarabie
best
bestial
bestowed
bestseller
bet
beta
betfred
beth
bethlehem
betis
betrayal
betrayed
bette
better
betty
between
beuk
beuks
beverage
beverages
beverly
bevern
bey
beyonce
beyond
bezirk
bhp
bhutan
bhutto
bi
bianca
biarritz
biała
bible
biblical
bibliografie
bicycle
bicycles
bid
bide
bided
biden
bides
bidin
bidit
bield
bien
biennial
big
bigger
biggest
biggin
biggins
biggit
bihar
bike
bikin
bikini
bikol
bila
bilateral
bilbao
bile
bilingual
bilingualism
bill
billboard
billiard
billiards
billie
billings
billion
billionaire
bills
billy
bilocate
bin
bindin
bing
bingen
bingham
bingo
bingtao
binh
bint
binyamina
bio
biochemist
biodiversity
biografers
biografie
biographical
biographie
biography
bioko
biological
biologie
biologist
biologists
biology
biosphere
biota
biotechnology
bipolar
bir
bira
biratnagar
birch
bird
birds
bireh
birger
birk
birkenfeld
birkenhead
birmingham
birnam
birobidzhan
biron
birth
birthday
birthplace
births
bis
biscay
biscuit
bisexual
bishkek
bishop
bishopric
bishops
biskupiec
bismarck
bison
bissau
bisset
bit
bite
bitin
bits
bittencourt
bitter
bittie
bizarre
bizerte
bjo
bl
blabbermouth
black
blackburn
blackened
blackhall
blackpool
blacks
blacksmith
blackthorn
blackwell
blackwood
blad
blade
blades
bladnoch
blae
blaidnoch
blair
blaise
blake
blanc
blanca
blanche
blanco
blank
blantyre
blas
blasphemy
blast
blazon
blazoned
bleach
bleed
blekinge
blend
blendit
blessed
blew
blica
blind
blitz
blizzard
bloc
block
blockade
blocks
blog
bloggers
blois
bloke
blond
blonde
blood
bloody
bloom
bloomberg
bloomsbury
blossom
bloudan
blow
blowin
blown
blu
blue
bluebell
blues
bluid
bluidit
bluids
bluidy
blumenau
blunt
bluth
blvd
blythe
bmc
bmg
bmw
bmx
bnei
bnf
bnl
bnp
bo
boa
boar
board
boards
boastit
boasts
boat
boats
bob
bobby
bobcat
boca
boccoli
bocht
bochum
bodie
bodied
bodies
body
bodyguard
bodø
boeing
boer
bog
bogart
bogdan
bogie
bogomolets
bogota
bohemian
bohemie
bohol
bohr
boi
boilin
bois
boksitogorsk
bol
bolan
bold
boleyn
boli
bolivar
bolivia
bolivie
bollywood
bologna
bolshaya
bolshevik
bolsheviks
bolshoy
bolt
bolton
bolus
bolzano
bom
bomb
bombardment
bombay
bombed
bomber
bombers
bombin
bombins
bombs
bombus
bon
bona
bonaparte
bond
bonds
bone
bones
bonfim
boniface
bonita
bonn
bonnet
bonneval
bonnie
bonny
bonus
boo
book
booker
books
boom
boon
boond
boondar
boondaries
boondars
boondary
boondit
boonds
boord
boost
boostit
boot
booth
boothroyd
boots
bor
bora
borbo
bordeaux
border
bordered
borderin
borderline
borders
bordj
bore
borg
borghese
borgia
borgo
boring
boris
borisov
borja
born
borne
borneo
borough
boroughs
borraed
borrowed
borussia
boryokudan
boryspil
bos
bosch
bosco
bosnia
bosniak
bosniaks
bosnian
bosnie
bosphorus
bosque
boss
boston
boswell
bosworth
bot
botafogo
botanic
botanical
botanist
botanists
botany
both
bothy
botswana
bottle
bottled
bottles
bottom
bou
bouches
boufflers
bought
bouillon
bouk
bouks
boulevard
boulevards
boulogne
bound
boundaries
boundary
bour
bourbon
bourbons
bourg
bourgeois
bourgeoisie
bourguiba
bournemouth
bout
boutiques
bow
bowes
bowie
bowl
bowling
box
boxer
boxes
boxin
boy
boyaca
boycott
boyd
boyer
boyfriend
boyle
boys
bp
br
bra
brabant
bracciano
brace
brackets
brad
bradford
bradley
brady
brae
braemar
braes
braga
bragado
braganc
braganza
brahim
brahma
braid
braidcast
braidcaster
braidcastin
braider
braidly
braille
brain
brainch
brainches
brak
brake
braken
brakes
brakin
braks
bram
brancas
branch
branches
branco
brand
brandenburg
brandit
brandon
brands
brandt
brandy
bras
brasi
brasil
brasileira
brasileiro
brass
brassica
brassicaceae
bratislava
braun
braunau
braunschweig
brava
brave
bravery
bravo
braw
brawness
brazil
brazilian
brazilians
brazzaville
brc
bre
breach
bread
break
breakdoun
breaker
breakfast
breakin
breaking
breaks
breakthrou
breakthrough
breakup
breast
breath
breathe
brecel
brechin
brecon
bred
breda
breed
breedin
breeds
breetain
breetany
breetish
breeze
breid
breisgau
bremen
bren
brenda
brendan
brennan
brenner
brent
brentwood
brera
brescia
bresse
brest
bretagne
breton
breuk
breuken
brewer
brewery
brewin
brewster
brexit
brez
brezhnev
bri
brian
bricen
bricht
brichtest
brichtness
brick
bricks
bride
brides
bridge
bridgend
bridges
bridget
brie
brief
briefly
brien
brig
brigade
brigadier
bright
brighton
brigs
brill
brilliant
bring
bringin
bringing
brings
brisbane
brissac
bristol
brit
britain
britannia
britannica
brither
britherheid
brithers
britian
british
britons
britt
brittany
brittonic
brno
bro
broad
broadcast
broadcaster
broadcastin
broadcasting
broadcasts
broader
broadly
broadrick
broadway
broccoli
broch
brocht
brochure
brock
brod
brody
broglie
broke
broken
bromwich
bronte
bronx
bronze
brook
brooke
brooklyn
brooks
bros
brother
brotherhood
brothers
broucht
broughton
broun
brouser
brow
brown
browne
bru
bruce
bruges
bruikit
bruiks
brunei
bruno
brunswick
brus
brush
brussels
brutal
brutality
brutus
bryan
bryansk
bryant
brydekirk
bryn
brythonic
bsd
bsharri
bt
bu
bubble
bubbles
buccleuch
buchan
buchanan
bucharest
buck
bucket
buckie
buckingham
buckinghamshire
budapest
buddha
buddhism
buddhist
buddhists
buddy
budget
buds
buena
buenaventura
buenavista
bueng
buenos
buff
buffalo
buffer
bug
bugatti
bugs
buick
buik
buiks
build
builder
builders
buildin
building
buildings
built
buim
buir
buird
buirds
buirial
buirials
buiried
buirit
buist
buists
buit
buits
buk
bukhara
bulacan
bulgaria
bulgarian
bulgarians
bulgarie
bulgaries
bulk
bull
bullen
bullet
bulletin
bullets
bulls
bumper
bumpers
bun
bunch
bund
bundang
bundaries
bundary
bundesliga
bundestag
bundit
bunker
burana
burbank
burden
bureau
burg
burgas
burgenland
burger
burgess
burgh
burghs
burgos
burgundy
buri
burial
burials
buried
buriet
burj
burke
burkina
burlington
burma
burmese
burn
burned
burnett
burnham
burnin
burning
burnquist
burns
burnt
burraes
bursa
burslem
burst
bursts
burt
burton
burundi
bury
bus
busan
busca
buses
bush
bushehr
bushes
busiest
business
businesses
businessfowk
businessman
businessmen
businesswoman
businesswumman
busk
buskerud
buss
bussola
bust
busto
busy
but
butcher
bute
buteo
butler
butter
buttercup
butterflee
butterflees
butterfly
button
buy
buyers
buyin
buzz
by
byblos
byd
bydgoszcz
byds
bye
bygane
byleid
byleids
bylin
byname
byordinar
bypass
byrd
byrne
byron
bystrica
bytimes
byzantine
byzantines
byzantium
c
ca
caa
caaed
cab
caballero
cabaret
cabbitch
cabecera
caber
cabin
cabinet
cable
cables
cabo
cabral
cabrera
cabriolet
cacao
caccamo
cachapoal
cachorro
cacique
cactus
cadell
cadet
cadillac
cadiz
cadzow
caen
caerlaverock
caerphilly
caesar
caesarea
caesarian
caesarion
caetano
caf
cafe
cafes
cagayan
cage
cagliari
caguas
cahill
cai
caipita
caipital
caipitalism
caipitals
caiptain
caird
cairdiff
cairds
cairied
cairies
cairit
cairl
cairn
cairns
cairo
cairpet
cairried
cairt
cairtel
cairtels
cairts
cairved
cairy
cairyin
caithness
cajamarca
cake
cakes
cal
calabarzon
calabria
calabrie
calabro
calais
calatrava
calcio
calcium
calculate
calculations
calculatit
calculus
calcutta
caldas
calder
caldera
caldero
caldwell
cale
caledon
caledonia
caledonian
calendar
calendars
calera
calgary
cali
california
californie
caligula
caliph
caliphate
caliphs
call
callaghan
callao
calle
called
calling
callisto
callit
calls
callum
calm
calton
calvados
calvert
calvin
calvinist
calvo
calzada
cam
camagu
camajuani
camargo
camarines
camarones
cambio
cambodia
cambodian
cambodie
cambrai
cambrian
cambridge
cambridgeshire
camden
came
camel
cameo
camera
cameras
cameron
cameroon
cami
camila
camilla
camille
camillo
camino
camp
campaign
campaigned
campaignin
campaigns
campania
campanie
campanile
campbell
campeche
campeo
campeonato
campeones
campestre
campin
campinas
campo
campobasso
campos
camps
campus
campuses
camshaft
can
canada
canadae
canadian
canadians
canal
canals
canaria
canary
canavese
canberra
canceled
cancellation
cancelled
cancer
cancio
cancu
candela
candelaria
candia
candidacy
candidate
candidates
candlelight
candy
cane
canela
canelones
cangas
canine
canines
canis
canmore
canna
cannabis
cannae
cannes
cannin
cannon
cannot
canobie
canoe
canoein
canon
canongate
canons
canorus
cans
canta
cantabrie
cantal
canterbury
canto
canton
cantonese
cantonment
cantons
cantopop
cantos
canute
canvas
canyon
cao
cap
capabilities
capability
capable
capacitors
capacity
capaldi
capcom
cape
capetillo
capilla
capinota
capistrano
capita
capital
capitalism
capitals
capitol
capo
capped
capper
capri
caprice
capris
caps
capsicum
captain
captains
captive
captivity
captur
capture
captured
capturin
capturt
caqueta
car
cara
carabobo
caracas
caravan
caravans
caravanserai
carbohydrates
carbon
carbonate
carbonatit
carburettor
carcass
card
cardener
cardiac
cardiff
cardinal
cardinals
cardioid
cardiovascular
cardona
cards
carduelis
care
career
careers
carefully
carey
cargen
cargo
caribbean
carignano
carinthie
carl
carla
carlaw
carles
carlinwark
carlisle
carlist
carlo
carlos
carlota
carlotta
carlton
carly
carlyle
carmarthen
carmarthenshire
carmel
carmen
carmichael
carmo
carmona
carnegie
carniola
carnival
carnivals
carnivore
carnivorous
caro
carol
carolina
caroline
carolingian
carpathian
carpathie
carpenter
carpentier
carpet
carr
carranza
carrara
carrasco
carren
carretera
carrick
carried
carrier
carriers
carries
carriet
carrillo
carrington
carrion
carroll
carron
carrot
carry
carryin
carrying
cars
carse
carson
carsphairn
cart
carta
cartagena
cartago
cartel
carter
carthage
carthaginian
carthaginians
cartier
cartoon
cartoonist
cartoons
carty
carvalho
carved
carvin
carvins
carvit
cary
casa
casablanca
casale
casanova
casas
cascade
cascais
case
caseros
caserta
cases
casey
cash
casimir
casino
caspian
cassano
cassava
cassette
cassidy
cassini
cassino
cassiopeia
cassius
cast
castan
castano
castel
castell
castellana
castellar
castelletto
castelli
castello
castellvi
castelnuovo
castelo
castes
castiglione
castil
castile
castilian
castilla
castillo
castin
casting
castle
castles
castor
castro
castrum
casual
casualties
cat
catalan
catalana
catalina
catalog
catalogue
catalonia
catalonie
catalunya
catalyst
catamarca
catania
catanzaro
catarina
catastrophic
catch
catches
catchin
catchment
catcht
catedral
categories
category
caterham
caterin
caterina
cathedral
cathedrals
catherine
catholic
catholicism
catholics
cathy
cato
cats
cattle
cauca
caucasian
caucasus
caucht
caud
caudron
cauf
caught
cauld
caulder
cauldest
caumont
caur
caurbon
caurie
caurs
cause
caused
causes
causey
causin
causit
cava
cavalera
cavalry
cave
cavendish
caves
cavite
cavity
caw
cawed
cawin
caws
cayetano
cayman
cayo
cbc
cbe
cbn
cbs
cc
cd
cdp
cds
cdu
ce
ceara
cease
ceased
ceasefire
cebu
cebuano
cecil
cecilia
cecilie
cedar
cede
cedit
cedric
ceetie
ceeties
ceetizen
ceetizens
ceetizenship
ceety
ceetyscape
ceevic
ceevil
ceevilian
ceevilians
ceevilisation
ceevilisations
ceevilization
ceevilizations
ceiba
ceilin
ceip
ceitie
ceities
ceity
cekic
celebrate
celebrated
celebrates
celebratin
celebration
celebrations
celebratit
celebrities
celebrity
celeste
celestial
celia
celje
cell
cellar
celle
celles
cello
cells
cellular
cellulose
celsius
celta
celtic
celts
cement
cementit
cemeteries
cemetery
cen
censorship
census
censuses
cent
centenario
centenary
centennial
centeotl
center
centered
centers
centimetres
central
centrales
centralised
centrally
centre
centred
centres
centrist
centro
centur
centurie
centuries
century
centurys
ceo
cep
ceramic
ceramics
cercado
cerda
cerdanya
cerdanyola
cereal
cereals
cerebral
ceremonial
ceremonies
ceremony
ceres
cerknica
cern
cerrito
cerro
certain
certainly
certaint
certifee
certificate
certification
certifications
certified
cervantes
cesar
cesare
cesena
ceukit
ceul
ceuler
ceuta
ceyhan
ceylon
cf
cfa
cfb
cgi
ch
cha
chablais
chabot
chaco
chad
chadwick
chagatai
chai
chain
chainel
chains
chaipel
chaipter
chair
chairacter
chairactereestics
chairacterised
chairacteristics
chairacters
chairge
chairged
chairges
chairgit
chairity
chairman
chairmen
chairperson
chairs
chairt
chairter
chairtin
chairtit
chairts
chakvetadze
chal
chalandri
chalatenango
chalco
chalk
challenge
challenged
challenger
challenges
challengin
chalmers
chalon
cham
chamber
chamberlain
chambers
chambord
champagne
champion
champions
championship
championships
champs
chan
chance
chancellor
chancellors
chances
chandi
chandler
chang
changchun
change
changed
changes
changin
changing
changwat
channel
channels
chantal
chantilly
chanyu
chao
chaos
chaotic
chapa
chapala
chapare
chapel
chapels
chaplain
chaplin
chapman
chapter
chapultepec
character
characterised
characterisit
characteristic
characteristics
characterized
characterizit
characters
charcas
charcoal
charente
charge
charged
charges
charing
chariot
charitable
charities
charity
charlemagne
charleroi
charles
charleston
charlie
charlotte
charlton
charm
charny
charoen
charolais
chart
charter
chartres
charts
charvet
chase
chassis
chateau
chatham
chatino
chaulnes
chaumer
chavez
chayanta
che
cheap
cheaper
cheboksary
chechen
chechens
chechnie
check
checkpoint
checks
cheddar
chedi
cheek
cheen
cheenae
cheenese
cheenge
cheenges
cheese
cheetah
cheetahs
chef
chefs
chekhov
chellah
chelsea
cheltenham
chelyabinsk
chemical
chemically
chemicals
chemist
chemistrie
chemistry
chemists
chemnitz
chen
cheng
chengdu
chennai
cher
cherepovets
cherepovetsky
cherkasy
chernihiv
chernivtsi
chernobyl
cherokee
cherry
chesapeake
cheshire
chess
chest
chester
chetumal
chevalier
chevaliers
chevette
chevreuse
chevrolet
chewin
chi
chiang
chiapas
chiara
chiba
chica
chicago
chick
chicken
chickens
chico
chief
chiefly
chiefs
chieftain
chiel
chiels
chiesa
chieti
chihuahua
chilapa
child
childbirth
childer
childhood
childhuid
childless
children
childrens
chile
chilean
chili
chilly
chilpancingo
chiltern
chimaltenango
chin
china
chinatown
chinese
chip
chipp
chips
chiquimula
chiquinquira
chira
chirac
chis
chita
chittagong
chivalry
chiyoda
chloride
cho
choco
chocolate
choi
choice
choir
choiseul
chok
cholera
cholula
chom
chong
chongqing
chontal
choose
chooses
chopin
chopra
choral
choreographer
chores
chornobyl
chornomorsk
chorus
chose
chosen
chouf
chris
christ
christchurch
christenmas
christi
christian
christiane
christianity
christians
christie
christina
christine
christmas
christoph
christophe
christopher
chromatin
chrome
chromium
chromosome
chromosomes
chronic
chronicle
chronicler
chronicles
chronological
chronology
chrysanthemum
chrysler
chu
chubut
chuck
chuise
chuisen
chuisin
chukotka
chulalongkorn
chun
chung
chunhyang
chuquisaca
church
churches
churchill
churchyard
chuvash
chuvashie
chuy
chyce
chynge
chynged
chynges
chyngin
chyngit
ci
cia
cicada
cicero
cid
cidade
cie
cielo
cienfuegos
cierzyna
cigarette
cigarettes
cigars
cilicie
cincinnati
cinco
cinderella
cindy
cine
cinema
cinemas
cinematic
cio
circa
circle
circles
circuit
circuits
circular
circulation
circumference
circumscription
circumstances
circus
cirrus
cirsium
cis
cistercian
cit
citadel
cite
cited
cites
citie
cities
citin
citing
citit
citizen
citizens
citizenship
citroe
citrus
citta
city
citypopulation
ciudad
ciutat
civer
civic
civil
civilian
civilians
civilization
civitas
civitella
ck
cken
ckero
ckisch
cksburg
cl
cla
clachan
clackmannanshire
clade
claedin
claes
claik
claim
claimant
claimed
claimin
claimit
claims
claimt
claire
claith
clan
clanranald
clans
clara
clare
clarity
clark
clarke
clarkson
clart
clash
clashed
clashes
class
classes
classic
classical
classics
classifee
classifeed
classification
classifications
classified
claude
claudia
claudio
claudius
claus
clause
clausura
claw
claws
clay
clayton
cle
clean
cleaner
cleanin
clear
clearance
clearances
cleared
clearin
clearly
cleckit
cleese
cleidin
clematis
clemens
clement
clemente
clementina
clements
cleopatra
clergy
clergyman
cleric
clerical
clerk
clermont
cless
clesses
clessic
clessical
clessifee
clessification
cleveland
clever
cleves
cley
click
client
cliff
cliffs
clifton
clijsters
climate
climates
climatic
climax
climb
climbed
climbin
clinched
clinic
clinical
clinics
clint
clinton
clints
clip
clipper
clips
clitoris
clive
clock
clocks
clockwise
clone
clood
cloods
close
closeburn
closed
closely
closer
closes
closest
closin
closur
closure
cloth
clothes
clothin
clotilde
cloud
cloudfront
clouds
clovis
club
clube
clubs
cluj
cluster
clusters
clutch
clyde
clydebank
clydesdale
cm
cn
cne
cnn
cntry
cnut
co
coa
coach
coached
coaches
coachin
coahuila
coal
coaleetion
coalition
coalitions
coar
coars
coast
coastal
coaster
coastline
coasts
coat
coatbrig
coatla
coats
cobalt
cobra
coburg
coca
cocaine
cochabamba
cochrane
cock
coco
cocoa
coconut
code
codename
codes
codex
coe
coffee
cognate
cognates
cognitive
cohen
cohesion
coil
coimbra
coin
coinage
coincide
coincides
coincidin
coincidit
coined
coins
coixtlahuaca
cojedes
coke
col
cola
colbert
colchagua
colchester
cold
cole
colegio
coleman
coles
colima
colin
coll
collaboration
collaborations
collaboratit
collaborative
collaborator
collaborators
collapse
collapsed
collapses
collar
collars
colle
colleague
colleagues
collect
collected
collectin
collection
collections
collectit
collective
collectively
collectivity
collector
collectors
collects
college
colleges
collegiate
collide
colliery
collin
collins
collision
colloquial
colloquially
colmenar
colo
coloane
cologne
coloma
colombia
colombian
colombie
colombies
colombo
colon
colonel
colonia
colonial
colonialism
colonias
colonies
colonisation
colonised
colonists
colonization
colonna
colony
color
colorada
colorado
colored
colorful
colors
colour
coloured
colourfu
colourful
colourin
colourless
colours
coluim
columba
columbia
columbian
columbie
columbus
column
columns
colville
colwyn
com
coma
comarca
comarcal
comarcas
comarques
comatee
combat
combatants
combination
combinations
combine
combined
combines
combinin
combo
combustion
comcast
come
comeback
comedian
comedians
comedic
comedienne
comedies
comedy
comes
comet
comets
comfort
comfortable
comic
comics
comin
coming
command
commander
commanders
commandery
commandeurs
commandin
commandit
commandos
commands
commemorate
commemorates
commemoratin
commemoration
commemoratit
commemorative
commenced
commencit
comment
commentary
commentator
commentators
commented
commentit
comments
commerce
commercial
commercially
commercials
commission
commissioned
commissioner
commissioners
commit
commitment
commitments
commits
committed
committee
committees
committin
committit
commodities
commodity
commodore
common
commonly
commons
commonties
commonty
commonwalth
commonwealth
commonweel
communal
commune
communes
communicate
communication
communications
communion
communism
communist
communists
communitie
communities
community
commute
commuter
commuters
como
comodoro
comoros
compact
compan
companies
companion
companions
company
comparable
comparative
comparatively
compare
compared
comparin
comparison
comparisons
compartment
compass
compatible
compatriot
compensation
compete
competeetion
competeetions
competencia
competes
competin
competit
competition
competitions
competitive
competitor
competitors
compilation
compilations
compiled
compiler
complained
complaints
complement
complete
completed
completely
completes
completin
completion
completit
complex
complexes
complexity
complicated
complications
complicatit
comply
compone
componed
component
components
componer
componers
componin
componit
compoond
compoonds
compose
composed
composeetion
composeetions
composer
composers
composite
composition
compositions
compostela
compound
compounds
comprehensive
compressed
compression
comprise
comprised
comprises
comprisin
comprising
compton
compulsory
compund
computation
computational
computer
computers
computin
computing
comrat
comte
comuna
comune
comunes
comuni
comunidad
comyn
con
conan
concacaf
concedit
conceic
conceits
conceived
conceivit
concentrate
concentrated
concentration
concentrations
concentratit
concepcio
concept
conception
concepts
conceptual
concern
concerned
concernin
concerns
concert
concerto
concerts
concessions
concise
concluded
concludit
conclusion
concord
concorde
concordia
concrete
concurrent
concurrently
conde
condeetion
condeetions
condemned
condensed
condition
conditionin
conditions
condor
conduct
conducted
conductin
conductit
conductor
conductors
cone
confectionery
confederate
confederation
confederations
conference
conferences
conferred
confessed
confession
confessions
confidence
confident
configuration
configurations
confined
confirm
confirmed
confirmin
confirmit
confirms
confirmt
confiscatit
conflict
conflicts
confluence
conform
conformity
confrontation
confrontations
confuised
confused
confusion
congestion
conglomerate
congo
congolese
congregation
congregations
congress
congressional
congressman
coniferous
conjunction
conmebol
conn
connacht
connect
connected
connecticut
connectin
connection
connections
connectit
connects
connolly
connor
conquer
conquered
conquerin
conqueror
conquest
conquests
conquistador
conquistadors
conrad
conscience
consciousness
consecratit
consecutive
conseeder
conseederable
conseedered
conseedert
conseest
conseestin
conseestit
conseests
conseidered
conseidert
consejo
consensus
consent
consequence
consequences
consequently
conservation
conservatism
conservative
conservatives
conservatoire
conservatory
conservit
consider
considerable
considerably
consideration
considered
considerin
considerit
considers
considert
consist
consisted
consistent
consistently
consistin
consisting
consistit
consists
console
consoles
consolidate
consolidation
consolidatit
consonant
consonants
consort
consortium
consorts
conspicuous
conspiracy
constable
constance
constant
constantin
constantine
constantinian
constantinople
constantly
constants
consteetuency
constellation
constellations
constitucio
constituencies
constituency
constituent
constitute
constitutes
constitutin
constitution
constitutional
constitutit
construct
constructed
construction
constructions
constructit
consul
consular
consulate
consulates
consuls
consultant
consultin
consumed
consumer
consumers
consumin
consumption
contact
contacts
contain
contained
container
containin
containing
contains
conteen
conteena
conteenad
conteenaed
conteenas
conteened
conteenin
conteenous
conteens
conteenuin
contemporar
contemporaries
contemporary
content
contents
conter
contest
contestant
contestants
contested
contestit
contests
context
contexts
conti
contiguous
continent
continental
continents
contingent
continually
continuation
continue
continued
continues
continuin
continuity
continuous
continuously
continuum
contra
contract
contraction
contractit
contractor
contracts
contrary
contrast
contrasts
contreibution
contreibutions
contreibutit
contreras
contribute
contributed
contributes
contributin
contribution
contributions
contributit
contributor
control
controlled
controllin
controls
controversial
controversies
controversy
conurbation
convener
convenience
convenient
convent
convention
conventional
conventionally
conventions
converge
convergence
conversation
conversely
conversion
convert
converted
converter
convertible
convertibles
convertin
convertit
converts
convey
convicted
conviction
convictit
convince
convinced
convoy
conway
conwy
coo
cook
cooke
cooking
cool
cooled
cooncil
cooncillor
cooncillors
cooncils
coonsel
coont
coonter
coonterpairt
coontess
coontesses
coontie
coonties
coontin
coontit
coontless
coonts
coonty
cooper
cooperate
cooperation
cooperative
coordinate
coordinates
coordination
coordinatit
coorse
coorses
coort
coorts
copa
copacabana
cope
copenhagen
copernicus
copied
copies
coppa
copper
coptic
copy
copyricht
copyright
corac
coral
corazo
corbie
corbyn
corcel
cord
cordero
cordillera
cordoba
cordons
core
corfu
corinth
corinthians
cork
corn
cornelius
cornell
corner
corners
cornish
cornwall
corolla
corona
coronado
coronation
coronavirus
coronel
corp
corporate
corporation
corporations
corps
corpse
corpus
corrado
corral
corre
correa
correct
corregimientos
correlation
correspond
correspondence
correspondent
correspondents
correspondin
corresponds
corridor
corrientes
corrosion
corrupt
corruption
corse
corsewall
corsica
corsicae
corsican
corte
cortes
cortina
corts
corun
corvette
corvus
cosa
cosenza
cosgrave
cosimo
cosmetic
cosmetics
cosmic
cosmo
cosmology
cosmonaut
cosmopolitan
cossack
cossacks
cosse
cost
costa
costly
costs
costume
costumes
cot
coterminous
coti
cots
cottage
cottages
cottbus
cottesmore
cotton
cou
coud
coudna
cougar
could
couldn
council
councillors
councils
count
countdown
counter
countess
counties
countries
country
countryside
county
coup
coupe
coupes
couple
coupled
couples
coupling
coups
courage
courcillon
courier
courland
course
courses
court
courtesy
courts
courtyard
cous
cousin
cousins
cov
covadonga
covalent
cove
covenant
covenanter
covenanters
coventry
cover
coverage
covered
coverin
covers
covert
coves
covid
covilha
cow
cowan
cowboy
cox
coyote
coyotes
coz
cpc
cr
crab
crack
cradle
craft
craftit
crafts
craftsmen
craig
craigie
craitur
craiturs
crane
crannog
craon
crap
craps
crash
crashed
crashes
crater
craters
crave
craw
crawford
crawfurd
crawick
crazy
crc
cre
cream
create
created
creates
creatin
creation
creatit
creative
creativity
creator
creators
creatur
creatures
creaut
creautin
creaution
creautit
creautor
credit
credited
creditit
credits
cree
creebridge
creed
creek
creeme
creemes
creeminal
creeminals
creesis
creestals
creetic
creetical
creetically
creeticised
creeticism
creetics
creetoun
cremona
creole
crescent
crespo
crest
cretaceous
crete
creuse
crew
crews
cri
crichton
cricket
cricketer
cricketers
cried
cries
crime
crimea
crimean
crimes
criminal
crimson
crisis
cristal
cristiano
cristina
cristo
criteria
critic
critical
critically
criticised
criticism
criticized
critics
critique
croat
croatia
croatian
croatie
croats
croce
crockett
crocodile
crocodiles
croft
croix
cromarty
cromwell
cronus
crop
crops
cross
crossed
crosses
crossin
crossing
crossins
crossmickle
crossover
crossroads
croud
croudit
croun
crouned
crouns
crow
crowd
crown
crowned
croy
croydon
crozat
cruces
crucial
crucible
crucifix
crucifixion
crude
cruel
cruggleton
cruise
cruiser
cruises
crusade
crusader
crusaders
crusades
crush
crushed
crussol
crust
crustaceans
cruz
cruzeiro
cruzes
cry
cryed
cryin
crypt
crystal
crystalline
crystals
cs
csa
csi
cska
csx
ct
ctor
cu
cua
cuadros
cuando
cuatro
cuauhte
cuautitla
cub
cuba
cuban
cube
cubic
cubs
cuckoo
cuculus
cud
cue
cuenca
cuernavaca
cues
cueva
cugat
cuicatla
cuid
cuiked
cuikin
cuil
cuiled
cuiler
cuilin
cuisin
cuisine
cuit
culiaca
culinary
cullen
culloden
culminatin
culminatit
cult
cultivar
cultivars
cultivate
cultivation
cultivatit
cultur
cultura
cultural
culturally
culture
cultures
culturs
cum
cumberland
cumbria
cumbric
cummings
cumnock
cums
cundinamarca
cuneiform
cuneo
cunha
cunningham
cunyie
cunyies
cup
cups
curac
cure
cured
curie
curious
curitiba
curler
curlers
curlin
curn
currency
current
currently
currents
curriculum
curry
curse
curtain
curtis
curtiz
curve
curved
cusco
custody
custom
customary
customer
customers
customs
cut
cuthbert
cuts
cuttie
cuttin
cutty
cuyo
cv
cvh
cvt
cwa
cx
cycle
cycles
cyclin
cycling
cyclist
cyclists
cyclone
cygnus
cylinder
cylinders
cymru
cynon
cypress
cyprian
cypriot
cyprus
cyr
cyrenaica
cyrillic
cyrus
czartoryski
czech
czechoslovak
czechoslovakie
d
da
dabaittie
dacha
dad
daddy
dade
dae
daechi
daegu
daein
daejeon
daena
daes
daesna
daewoo
daf
daffodil
dafni
dag
dagestan
dagger
dahl
dai
daihatsu
dail
daily
daimler
dair
dairy
daisy
daith
daiths
dakar
dakhla
dakota
dakshin
dal
dalai
dalarna
dale
dalen
daley
dali
dalian
dalkeith
dallas
dalmatian
dalmatie
dalry
dalrymple
dalton
dam
damage
damaged
damagit
damascus
dame
dames
damien
damietta
dammartin
damnation
damned
damon
damp
dams
dan
dana
dance
dancer
dancers
dances
dancin
dancing
dane
danes
danger
dangerous
dani
daniel
daniela
daniele
danish
dannebrog
danny
dans
dante
danube
danzig
dar
daraa
dare
darfur
darg
dari
dario
darius
darjeeling
dark
darker
darkest
darkgrey
darkhan
darkness
darling
darlington
darmstadt
darnley
darren
darth
darwin
darya
das
dash
dashboard
dasht
dashti
dat
data
database
databases
date
dated
dateformat
dates
datin
datit
dauchter
dauchters
daugavpils
daughter
daughters
daun
dauphin
dauphine
dauphins
daurk
daurker
dauvit
davao
davarzan
dave
davenport
david
davidson
davie
davies
davis
davy
davydenko
dawbeattie
dawn
dawson
day
daylicht
daylight
dayr
days
daytime
dayton
daytona
db
dc
dd
de
dea
deacon
dead
deadliest
deadly
deaf
deal
dealer
dealers
dealin
deals
dealt
dean
dear
dearborn
death
deaths
deba
debate
debates
debatit
debbie
debian
deborah
debris
debt
debts
debut
debutant
debuted
debutin
debuts
dec
decade
decades
decay
deceased
deceesion
deceesions
december
decide
decided
decides
decidin
deciding
decidit
deciduous
decimal
decision
decisions
decisive
deck
declaration
declare
declared
declares
declarin
declarit
decline
declined
declinin
deco
decommissioned
decommissioning
decorated
decoration
decorations
decoratit
decorative
decrease
decreased
decreases
decreasin
decree
decreed
decrees
dedicated
dedication
dedicatit
dedovichi
dee
deed
deeds
deeferent
deegit
deegital
deegits
deemed
deep
deeper
deepest
deeply
deepth
deer
dees
deeside
deestrict
deet
def
defait
default
defeat
defeated
defeatin
defeatit
defeats
defence
defences
defend
defended
defender
defenders
defendin
defendit
defense
defensive
defiance
deficit
define
defined
defineetion
defineetions
defines
definin
definite
definitely
definition
definitions
definitive
definitively
defunct
degli
degree
degrees
deh
dehavilland
dehnow
dei
deid
deidliest
deif
deil
deimos
deir
deit
deith
deities
deity
deja
del
delaware
delay
delayed
delegaciones
delegate
delegates
delegation
deleted
delfan
delft
delgada
delgado
delhi
deli
deliberate
deliberately
delicias
delimitation
delimitit
deliver
delivered
deliverin
delivers
delivery
dell
della
delle
dels
delta
deluxe
dem
demand
demandin
demandit
demands
demarcation
dementia
dementieva
demeter
demille
demise
demission
demit
demits
demittit
demo
democracie
democracy
democrat
democratic
democratically
democrats
demografic
demografics
demografie
demographic
demographics
demography
demolished
demolisht
demolition
demon
demons
demonstrate
demonstrated
demonstrates
demonstratin
demonstration
demonstrations
demonstratit
demonstrators
demonym
demos
dempster
den
dena
denbighshire
dene
deng
deni
denial
denied
denis
denizli
denmark
dennis
denny
denomination
denominations
denote
denotes
denotit
dens
dense
densely
densest
densitie
densities
density
dental
dentro
denver
depairt
depairtit
depairtment
depairtmental
depairtments
depairtur
departamento
departamentos
departement
department
departments
departure
depend
dependence
dependencies
dependency
dependent
dependin
dependit
depends
depict
depicted
depictin
depiction
depictions
depictit
depicts
deployed
deponed
deportit
deportivo
deposed
deposit
deposits
depot
depression
depth
depths
depute
deputies
deputy
der
derbent
derbies
derby
derbyshire
derecho
derek
derivation
derivative
derivatives
derive
derived
derives
derivin
derivit
derling
dermanland
derna
derrick
derry
des
desarrollo
descartes
descend
descendant
descendants
descended
descendin
descendit
descends
descent
descentralizacion
describe
described
describes
describin
describing
describit
descrieve
descrieved
descrievin
description
descriptions
descrive
descrived
descrives
descrivin
desert
desertit
deserts
design
designate
designated
designation
designations
designatit
designed
designer
designers
designs
designt
desirable
desire
desired
desires
desk
desktop
desmond
despair
desperate
despite
despoina
despoine
dessau
dessert
destination
destinations
destinct
destined
destino
destiny
destrict
destricts
destrik
destroy
destroyed
destroyer
destroyin
destroys
destruction
destructive
det
detached
detachment
detail
detailed
details
detained
detainees
detection
detectit
detective
detention
determination
determine
determined
determinin
detmold
detroit
deuk
deuks
deutsche
deutscher
deux
devastatin
devastation
devastatit
develop
developed
developer
developers
developin
developit
development
developmental
developments
develops
developt
devi
device
devices
devil
devildriver
devils
devised
devolution
devolved
devon
devoted
devotion
devotit
devourment
dew
dewar
dexter
dez
dfb
dfl
dh
dhabi
dhaka
dhamar
dhekelia
di
dia
diab
diabetes
diablo
diadema
diagnosed
diagnosis
diagonal
diagram
dialect
dialects
dialogue
diameter
diamond
diamonds
diana
diane
diaries
diario
diary
dias
diaspora
diaz
dibe
dice
dick
dickens
dickinson
dickson
dictator
dictators
dictatorship
dictionar
dictionaries
dictionary
did
didier
didn
didna
didnae
dido
die
died
diego
diem
dies
diesel
diet
dieter
dietrich
differ
differed
difference
differences
different
differential
differentiate
differently
differin
differs
differt
difficult
difficulties
difficulty
dig
digeestive
digital
digits
dignity
digoxin
digraph
dili
dillon
dima
dimas
dimashq
dimension
dimensional
dimensions
diminished
diminutive
dimitrov
dimona
din
dinajpur
dinamo
dinara
ding
dingwall
dinin
dinna
dinnae
dinner
dino
dinosaur
dinosaurs
dinter
dio
diocese
diocletian
dion
dionysius
dionysus
dios
dioxide
dip
diploid
diploma
diplomacy
diplomat
diplomatic
diplomats
diputacio
dir
direct
directed
directin
direction
directions
directit
directly
director
directorate
directors
directory
dirk
dirkschneider
dirom
dirt
dirty
dis
disabeelities
disabilities
disabled
disagreement
disagreements
disambiguation
disappeared
disappears
disaster
disasters
disastrous
disbandit
disc
discharge
disciple
disciples
discipline
disciplines
disco
discografie
discography
discogs
discontent
discontinued
discover
discovered
discoveries
discoverin
discoverit
discovers
discovery
discrete
discrimination
discs
discuss
discussed
discusses
discussin
discussion
discussions
disease
diseases
disestablished
disestablishments
disguised
dish
dishes
disintegration
disk
diskivered
diskivert
diskivery
dismantled
dismissed
disna
disnae
disney
disneyland
disorder
disorders
dispatched
dispersed
dispersion
displaced
displacement
displacit
display
displayed
displayin
displays
dispute
disputed
disputes
disputit
disruption
dissolution
dissolved
dissolvit
dist
distance
distances
distant
disteenction
distillery
distinct
distinction
distinctive
distinctly
distinguish
distinguished
distinguishes
distinguishin
distinguisht
distortit
distress
distribute
distributed
distribution
distributions
distributit
distributor
district
districts
distrito
disuised
dit
ditch
ditions
diva
diveesion
diveesions
divers
diverse
diversifee
diversified
diversity
divert
divide
divided
divides
dividin
dividit
divin
divine
divinity
divisio
division
divisions
divorce
divorced
divorcit
dixie
dixon
diz
dizember
dizzy
dj
djembe
djibouti
djokovic
djs
dk
dm
dmitri
dmitrovsky
dmitry
dn
dna
dnieper
dniester
dnipro
dnipropetrovsk
do
doberdo
dobong
dobson
doc
dochter
dochters
dock
docklands
docks
doctor
doctorate
doctors
doctrine
document
documentar
documentaries
documentary
documentation
documentit
documents
dodge
dodger
does
doesn
doesna
dog
dogana
dogs
doha
dohc
doherty
doi
doin
doing
dolby
dole
doll
dollan
dollar
dollars
dolls
dolly
dolmens
dolores
dom
domain
domains
dombes
dome
domenico
domes
domestic
domestically
domesticatit
domi
dominance
dominant
dominate
dominated
dominates
dominatin
domination
dominatit
domingo
domingos
domini
dominic
dominica
dominican
dominie
dominik
dominion
dominions
dominique
domino
domitian
domjur
domodedovo
domodossola
dompierre
don
dona
donald
donaldson
donation
donations
donatit
done
donegal
donets
donetsk
dong
dongdaemun
dongguan
dongjak
dongs
donkey
donna
donnell
donor
donostia
donovan
doo
dooble
doobles
doom
doon
door
doors
dor
dora
dorado
dordogne
dordrecht
doria
dorian
doric
doris
dormant
dormitory
dornoch
doro
dorogomilovo
dorothea
dorothy
dorrian
dorsal
dorset
dortmund
dos
dot
dott
dou
douala
douard
double
doubled
doubles
doubs
doubt
doug
douglas
douglases
douma
doun
dounload
douns
dounset
dounsets
dounstream
dountoun
dout
douthwaite
douz
dove
dover
dow
dowager
down
downey
downing
download
downs
downtown
dowphin
dowphins
doyle
dozen
dozens
dprk
dq
dr
dra
dracula
draft
drag
drago
dragon
dragonforce
dragons
draigon
draigons
drain
drainage
drained
drains
drake
drama
dramas
dramatic
dramatically
dramatist
dramatists
drap
drapetsona
drappit
drastically
draucht
draw
drawin
drawing
drawings
drawins
drawn
draws
drax
dream
dreams
dreamworks
dree
dreed
drenthe
dresden
dress
dressage
dressed
drest
dreux
drew
dried
drier
driest
drift
drink
drinkin
drinks
drive
driven
driver
drivers
drives
drivin
dro
drocht
drog
drogs
dromo
drone
drop
dropped
droppin
dropping
droppit
drops
drounin
drove
drug
drugs
drum
drumlanrig
drummer
drummers
drummin
drummond
drummore
drums
druze
dry
dryin
drymon
drz
ds
dsl
dt
dte
du
dual
duarte
dub
dubai
dubbed
dubbit
dublin
dubrovnik
duc
ducal
duchess
duchesse
duchesses
duchy
duck
ducks
ducts
dudley
due
duel
duen
duet
duets
duff
duffy
dug
dugs
duin
duino
duisburg
dujail
duke
dukedom
dukes
dulce
dull
duma
dumbairton
dumbarton
dumfries
dumfriesshire
dumont
dun
dunams
dunbar
dunbartonshire
dunblane
duncan
dundas
dundee
dundonal
dune
dunedin
dunes
dunfaurlin
dunfermline
dunkeld
dunkirk
dunlop
dunn
dunoon
dunragit
duns
dunskey
duo
duomo
duos
dup
dupont
duque
dura
duran
durand
durangaldea
durango
duras
duration
durban
durfort
durham
durin
during
durlach
durre
dushanbe
dust
dutch
duties
duty
duvalier
dvd
dvds
dvina
dvorna
dw
dwallin
dwarf
dwellin
dwellins
dwight
dye
dyes
dyin
dying
dyke
dylan
dynamic
dynamics
dynamite
dynamo
dynastic
dynasties
dynasty
dz
dzerzhinsky
dzor
dzs
dzyrzec
dır
e
ea
each
eager
eagle
eagles
ear
earache
eared
earl
earldom
earlie
earlier
earliest
earls
early
earn
earned
earnest
earnin
earnins
earnt
ears
earth
earthquake
earthquakes
ease
easier
easily
east
eastbourne
easter
eastern
eastlins
eastmaist
easton
eastren
eastrenmaist
eastriggs
eastwaird
eastward
eastwood
easy
eat
eaten
eatin
eats
eb
ebdon
ebert
ebi
ebreu
ebro
ebrue
ec
ecatepec
eccentric
ecclefechan
ecclesiastical
echeverri
echo
echt
ecija
eck
eclectic
eclipse
eclipses
ecliptic
eco
ecological
ecologie
ecology
economic
economical
economically
economics
economie
economies
economist
economists
economy
ecoregions
ecoseestem
ecoseestems
ecotourism
ecstasy
ecuador
ecuadorian
ed
eda
edda
eddicate
eddicated
eddication
eddicational
eddicatit
eddicator
eddicators
eddie
eddy
edeetion
edeetions
eden
eder
edessa
edf
edfu
edgar
edge
edges
edible
edicions
edict
edifice
edinburg
edinburgh
edinburrie
edirne
edison
edit
edited
edith
edition
editions
editit
editor
editorial
editors
edmond
edmonton
edmund
edmunds
edo
edom
eds
edu
eduard
eduardo
educated
education
educational
educatit
educator
edward
edwardian
edwards
edwin
ee
eed
eeditor
eeditors
eel
eemage
eemages
eembucu
eemocks
een
effect
effective
effectively
effects
efficiency
efficient
effort
efforts
eften
efter
eftercast
efterhaund
eftermath
efternuin
efterwairds
efterwards
efterwart
eftir
eg
egg
eggs
ego
egon
egyp
egypt
egyptian
egyptians
eh
ehir
ei
eibar
eicht
eifel
eight
eighteen
eighth
eighty
eik
eikin
eikit
eilat
eild
eilean
ein
eindhoven
eine
einstein
eintracht
eisenach
eisenberg
eisenhower
eisner
eist
eith
either
ej
eje
ejido
ejutla
ek
ekaterina
ekena
ekmece
ekron
el
ela
elaborate
elaine
elba
elbasan
elbe
elbeuf
elbow
elder
elderly
elders
eldest
ele
eleanor
eleckit
elect
elected
election
elections
electit
elector
electoral
electorate
electorates
electors
electra
electress
electric
electrical
electrically
electricity
electro
electrodynamics
electromagnetic
electromagnetism
electron
electronic
electronics
electrons
elects
elegance
elegant
elegy
eleiven
eleivent
element
elemental
elementar
elementary
elements
elena
eleonora
eleonore
elephant
elephants
eleusis
elevation
elevations
elevatit
eleven
eleventh
elgin
eli
elia
elias
eligible
eliminate
elimination
eliminatit
elinor
elisa
elisabeth
elisabetta
elite
elizabeth
elizabethan
elk
elknamit
ella
elle
ellen
elliot
elliott
ellis
elm
elo
elongatit
elorrio
elphinstone
elpida
elrig
els
elsa
else
elsewhaur
elsewhere
elsie
elton
elvis
em
emancipation
emanuel
emanuele
embankment
embarkit
embassies
embassy
embedded
embeddit
emblem
emblems
embra
embrace
embraced
embraces
embro
embu
embury
emerald
emerge
emerged
emergence
emergency
emergin
emerging
emergit
emeritus
emi
emigrants
emigrated
emigration
emigratit
emil
emile
emilia
emiliano
emilie
emilio
emily
eminent
emir
emirate
emirates
emission
emissions
emit
emittit
emma
emmanuel
emmaste
emmy
emotion
emotional
emotions
emperor
emperors
emphasis
empire
empires
empirical
employ
employed
employee
employees
employer
employers
employin
employment
employs
emporda
empress
empresses
empty
en
enable
enabled
enables
enablin
enactit
encarnacio
encarta
enchanted
enciclopedia
enclave
enclaves
enclosed
enclosur
encompass
encompassed
encompasses
encompassin
encoonter
encoontered
encounter
encounters
encourage
encouraged
encouragin
encouragit
encyclopaedia
encyclopedia
encyclopædia
end
endangered
ended
endemic
endin
ending
endins
endit
endless
endorsed
ends
endue
endurance
endured
endurin
enemies
enemy
energetic
energy
eneuch
enfield
enforcement
eng
engage
engaged
engagement
engagin
engagit
engel
engels
enghien
engine
engined
engineer
engineered
engineering
engineers
engines
england
english
enhanced
enjoy
enjoyed
enjoys
enlairged
enlairgement
enlairgit
enlarged
enlichtenment
enlichtment
enlightenment
enna
ennio
enoch
enormous
enough
enpa
enri
enrico
enrique
enrolled
ensample
ensaumple
ensaumples
ensemble
ensenada
ensiferum
ensign
enslavement
ensminger
enso
ensued
ensuin
ensur
ensure
ensured
ensurin
enter
entered
enterin
enterkin
enterkinfuit
enterprise
enterprises
enters
entertainer
entertainment
enterteener
enterteeners
enterteenment
enthusiastic
enthusiasts
entire
entirely
entities
entitled
entity
entjur
entrance
entrants
entre
entrepreneur
entrepreneurs
entries
entry
environment
environmental
environmentalists
environments
environs
envoy
enzo
enzymes
eo
eocene
eon
ep
epic
epica
epidemic
epilepsy
epirus
episcopal
episcopalians
episode
episodes
epistemology
epithet
epoch
eponymous
epping
eps
equal
equaliser
equality
equally
equals
equation
equations
equator
equatorial
equestrian
equilibrium
equinox
equipment
equipped
equipt
equivalent
equus
er
era
eras
erasmus
ercole
erdenet
erdmuthe
erdog
erdogan
ere
erect
erected
erectit
eredivisie
eres
erest
erfurt
eric
erich
erick
ericsson
erie
erik
eriksson
eris
eritrea
erivan
erlangen
erlewine
ermita
ermua
ernest
ernestine
ernesto
ernie
ernst
ero
eros
erosion
errani
errol
erroll
erroneously
error
errors
erse
erskine
eruption
eruptions
eruptit
erupts
erwin
erzurum
es
esbjerg
escalatit
escape
escaped
escapes
escapit
escobar
escobedo
escondido
escorial
escort
escudo
escuela
escuintla
escutcheon
esh
esk
eskdale
eskis
esmeralda
esmeraldas
esp
espan
especially
espeicially
esperanto
esperanza
espi
espinal
espino
espn
espoo
esporte
esquel
essay
essayist
essayists
essays
esse
essen
essence
essential
essentially
essex
esslingen
essonne
est
esta
establish
established
establishes
establishin
establishit
establishment
establishments
establisht
estacio
estadi
estadio
estado
estados
estaiblished
estaiblishment
estaiblisht
estancia
estate
estates
este
esteban
esteem
estefan
estelle
estero
esteros
esteve
esther
estimate
estimated
estimates
estimatit
estonia
estonian
estonie
estonies
estorne
estrada
estre
estrella
estuar
estuaries
estuary
estudiantes
et
eta
etawah
etc
eternal
eternity
ether
ethical
ethics
ethiopia
ethiopian
ethiopie
ethnic
ethnically
ethnicities
ethnicity
ethno
ethnography
ethnologue
etienne
etimolos
etla
eton
etruscan
ett
ettelt
etten
ettle
ettled
ettles
ettlin
ettore
etymological
etymologie
etymologies
etymology
eu
eucalyptus
eudicots
euge
eugen
eugene
eugenia
eugenie
eugenio
eukaryotes
eukaryotic
euler
eunuch
eunuchs
eup
euphrates
eurasian
eurasie
eure
eureka
euro
europa
europaea
europaeus
europe
european
europeans
euros
eurosport
eurostat
eurovision
eurozone
eusebius
euskomedia
euston
ev
eva
evac
evacuation
evacuatit
evaluation
evan
evangelical
evangelist
evans
eve
evelyn
even
evenin
evening
evenly
event
eventin
events
eventual
eventually
ever
everest
everett
evergreen
evert
everton
evertype
every
everybody
everyday
everyone
everything
evic
evidence
evidenced
evident
evidents
evil
evo
evolution
evolutionary
evolve
evolved
evolvit
ewan
ewart
ewing
ewtn
ex
exact
exactly
examination
examined
example
examples
exaumple
excavation
excavations
excavatit
exceed
exceedin
exceedit
exceeds
excel
excellence
excellent
except
exception
exceptional
exceptionally
exceptions
excerpts
excess
excessive
exchange
exchanges
exchequer
exchynge
exchynges
excitin
exclave
exclaves
excludin
excludit
exclusion
exclusive
exclusively
excommunicatit
execute
executed
execution
executions
executit
executive
executives
exeest
exeestence
exeests
exemplar
exemplars
exemple
exercise
exercised
exercises
exert
exeter
exhaust
exhibeetion
exhibit
exhibition
exhibitions
exhibitit
exhibits
exile
exiled
exiles
exist
existed
existence
existin
existing
existit
exists
exit
exitos
exits
exodus
exotic
expand
expanded
expandin
expandit
expanse
expansion
expatriate
expatriates
expectancy
expectations
expected
expectin
expecting
expectit
expedeetion
expedition
expeditions
expelled
expenditure
expense
expensive
experience
experienced
experiences
experiencin
experiencit
experiment
experimental
experimentation
experiments
expert
expertise
experts
explain
explained
explains
explanation
explanations
expleen
explicit
explicitly
explodit
exploit
exploitation
exploitit
exploration
explore
explored
explorer
explorers
explosion
explosions
explosive
explosives
expo
exponential
export
exportin
exportit
exports
exposed
exposition
exposur
exposure
express
expressed
expresses
expressin
expression
expressions
expressway
expresswey
expulsion
ext
extant
extend
extended
extendin
extendit
extends
extension
extensions
extensive
extensively
extent
exterior
extermination
external
extinct
extinction
extinctions
extra
extract
extraction
extractit
extradition
extraordinary
extremadura
extreme
extremely
extremes
extremist
extremity
ey
eye
eyed
eyeem
eyes
eyre
ez
ezeiza
ezekiel
ezequiel
ezra
f
fa
faa
fabaceae
fabian
fabio
fabric
fabrizio
fabulous
fac
facade
face
facebook
faced
faceelitys
facelift
faces
facial
facilitate
facilities
facility
facin
facing
facit
fact
factbook
faction
factions
facto
factor
factories
factors
factory
facts
faculdade
faculties
faculty
fad
fadrique
fae
faer
fafara
fagin
fahd
fahm
fahraj
fahrenheit
fail
failed
failin
fails
failt
failur
failure
failyie
faimilie
faimilies
faimily
faimin
faimlie
faimlies
faimly
fair
faire
fairfield
fairlie
fairly
fairm
fairmin
fairms
fairs
fairy
faisal
faith
faither
faithered
faitherland
faithers
faithful
faiyum
fajardo
fake
fala
falafel
falco
falcon
falconer
faliscan
falkirk
falkland
falklands
fall
fallen
fallin
falling
falls
false
famagusta
fame
famed
familia
familiar
familie
families
family
famous
famously
fan
fancy
fand
fanning
fanny
fans
fantasie
fantastic
fantasy
far
fara
farah
farc
fare
fareham
farewell
farfar
fari
farina
farm
farmer
farmers
farmhouse
farmin
farms
farnese
faro
faroe
faroes
faroese
farrant
fars
farther
farthest
fascism
fascist
fascists
fashion
fashionable
fashioned
faso
fast
faster
fastest
fastiv
fat
fatal
fatalities
fate
fates
father
fatih
fatimid
fats
fatty
fauch
fauldit
faulkner
fault
fauna
faur
faurer
faust
fausto
faut
favor
favorable
favored
favorite
favorites
favour
favourable
favoured
favourite
faw
fawen
fawin
fawkirk
faws
fay
fbi
fc
fd
fdl
fdp
fe
fear
feared
fears
feast
feat
feather
feathers
featur
feature
featured
features
featurin
featuring
featurs
featurt
feb
febrero
februar
february
fecht
fechter
fechters
fechtin
fechts
feck
fed
federacio
federal
federalismo
federally
federation
federatit
federative
federer
federico
fee
feebre
feection
feectional
feed
feedback
feedin
feeds
feegur
feegurs
feel
feelin
feeling
feelins
feels
feenal
feenalists
feenally
feenals
feenish
feenished
feenishes
feenishin
feenisht
feerst
fees
feet
feliciano
felicitas
felid
felipe
feliu
felix
fell
fellae
fellaes
fellow
felt
female
females
feminine
feminism
feminist
feminists
femme
fence
fencin
fend
fender
fenerbahc
feodor
feodorovna
fer
feral
ferdinand
ferdinanda
ferdinando
fergal
fergana
fergus
ferguson
fergusson
ferm
fermanagh
fermentation
fermer
fermers
fermhoose
fermi
fermin
fermland
fermlands
ferms
fermstockin
fern
ferna
fernanda
fernandez
fernandina
fernando
ferns
ferrara
ferrari
ferreira
ferrer
ferreyra
ferries
ferro
ferrocarril
ferrous
ferry
ferte
fertile
fertility
fertilizer
fes
fess
fest
festa
festival
festivals
festivities
fetus
feud
feudal
feudalism
fever
few
fewer
fey
feynman
fez
fezzan
ff
ffle
fgc
fi
fia
fiance
fianna
fiat
fiber
fichas
ficht
fichtin
fico
fiction
fictional
fiddle
fide
fidel
fidelity
fief
field
fields
fierce
fiercely
fiesta
fiestas
fifa
fife
fift
fifteen
fifteent
fifteenth
fifth
fifty
fig
fight
fighter
fighters
fighting
figs
figueroa
figur
figure
figures
figurs
fiji
fijian
fila
filadelfia
file
filed
files
filiberto
filip
filipe
filipino
filippo
fill
filled
fillin
fillum
fillums
film
filmed
filmin
filmit
filmmaker
filmmakers
filmmakker
filmografie
filmography
films
filosofer
filosofers
filosofical
filosofie
filosopher
fils
filth
filton
fin
fina
final
finale
finalist
finalists
finally
finals
finance
financed
finances
financial
financially
financin
finch
find
findhorn
findin
finding
findings
findins
finds
fine
fined
finely
finest
finger
fingers
finish
finished
finishes
finishin
finishing
finland
finlay
finn
finnan
finned
finnic
finnish
finno
finns
finntroll
fins
fintry
fiona
fiorentina
fiorentino
fir
fire
fireairm
fired
firefly
firenze
fires
firewirks
fireworks
firin
firm
firmly
firms
first
firstly
firth
firthen
firthit
firths
fiscal
fischer
fish
fisher
fisheries
fisherman
fishermen
fishers
fishery
fishes
fishin
fishing
fission
fist
fit
fitba
fitbaa
fitbaw
fitbawer
fitbawers
fitmerks
fitness
fits
fitt
fitted
fittin
fittit
fitz
fitzgerald
fiumicino
five
fiver
fix
fixed
fixtur
fixture
fixturs
fjord
fjords
fk
fl
flag
flags
flagship
flair
flame
flamenco
flames
flanders
flanked
flanks
flap
flash
flat
flats
flavour
flaws
flax
fled
flee
fleece
fleein
flees
fleet
fleming
flemish
flensburg
flesh
flet
fletcher
fleuk
fleurs
flew
flewn
flexible
flicht
flichts
flies
flight
flights
flint
flintshire
flit
flittin
flittit
float
floatin
floating
flodden
flood
floodin
floodit
floods
floor
floors
flor
flora
floral
florence
florencio
florentine
flores
florian
florida
flouer
flouerin
flouers
flour
flourish
flourished
flourishin
flow
flowe
flower
flowers
flowes
flowin
flows
floyd
flu
fluent
fluid
fluids
fluir
fluminense
fluorine
flute
flutes
flux
fly
flyin
flying
flynn
flyweight
fm
fmf
fn
fo
foal
focal
focht
focus
focused
focuses
focusin
fog
foil
foix
folk
folklore
follae
follaed
follaeed
follaein
follaeing
follaer
follaers
follaes
follow
followed
followers
followin
following
follows
fominsky
fond
fonda
fonseca
font
fontaine
fontainebleau
fontana
fontenelle
fontsize
food
foods
foond
foondation
foondations
foonded
foonder
foonders
foondin
foondit
foondry
foonds
foontain
foot
football
footballer
footnotes
for
fora
forage
foragin
forbes
forbidden
forby
forbye
force
forced
forces
forcibly
forcin
forcit
ford
forder
fordert
fore
foreanent
foregane
foreign
foreigners
foremaist
forensic
forenuin
forerunner
forest
forestit
forestry
forests
forever
forge
forged
forget
forgotten
fork
forli
form
formal
formally
format
formation
formations
formats
formed
former
formerly
formidable
formin
forming
formit
formosa
forms
formt
formula
formulation
forordinar
forordnar
forres
forrest
forrit
forrits
forster
forsyth
fort
fortaleza
forte
forth
fortifee
fortifeed
fortification
fortifications
fortified
fortress
fortresses
forts
fortunata
fortune
fortunes
forty
forum
forward
fosse
fossil
fossils
foster
fostered
foto
fou
foucht
fought
foul
foulds
found
foundation
founded
founder
founding
foundit
fountain
four
fourteen
fourth
fower
fowert
fowerteen
fowerteent
fowerth
fowerty
fowk
fowklair
fowklear
fowkpairty
fowkrepublic
fowks
fowler
fox
foy
foz
fr
fra
frac
fraction
frae
fragment
fragments
frainch
frame
framed
frames
framewark
framewirk
framework
franc
franca
france
frances
francesca
francesco
franche
franchise
franchises
francia
francis
francisca
franciscan
franciscans
francisco
franco
francois
franconian
franconie
frank
frankenstein
frankfurt
frankie
frankish
frankivsk
franklin
franks
franz
franziska
fraser
fraternity
fraucht
fraud
fraunce
fraxinus
fray
frazione
frazioni
frbnf
frc
fre
fred
freddie
frederica
frederick
fredericka
frederik
fredrik
free
freed
freedom
freedoms
freely
freeman
freemasons
freemit
freend
freends
freendship
freers
freestyle
freeway
freewey
freezin
freguesia
freguesias
freiburg
freight
fremmit
french
frenchman
frente
frequency
frequent
frequentit
frequently
fresco
frescoes
fresh
freshwater
freshwatter
fresno
freud
freyja
freyr
fri
friar
friars
fricative
fricht
friday
fridays
fride
fried
friederike
friedrich
friedrichshain
friend
friendly
friends
friendship
friendships
frigate
fringe
frisian
frisie
fritz
friuli
fro
frog
frogs
from
fronsac
front
frontal
frontera
frontier
frontiers
frontit
frontman
frosinone
frost
frozen
frs
frse
fructose
fruit
fruits
frunze
fry
fryday
fs
ft
fu
fuck
fuego
fuel
fuels
fuente
fuentes
fuerte
fuerza
fugier
fuid
fuids
fuird
fuirm
fuirms
fuirsday
fuit
fuitage
fuithills
fuitnotes
fuitwear
fuji
fujian
fujimori
fukuda
fukuoka
fukushima
fulda
fulfil
fulfilled
fulham
full
fuller
fully
fulton
fulvia
fun
funabashi
funchal
function
functional
functioned
functionin
functions
fund
fundacio
fundamental
fundazioa
fundin
funding
fundit
funds
funen
funeral
fungi
fungus
funk
funnd
funny
funtain
fur
furious
furm
furmed
furmin
furms
furnitur
furniture
furren
furrin
furst
furtado
furth
further
furthermair
furthermore
furthset
fury
fuse
fused
fusion
fustat
futbol
futebol
futsal
futuna
futur
futura
future
fuxin
fußball
fyfe
fynd
fyndin
fyndins
fynds
fyodor
g
ga
gaba
gabala
gabe
gabon
gabriel
gabriela
gabriele
gabriella
gabrielle
gabrovo
gaby
gacy
gaddafi
gadgets
gae
gaed
gaein
gael
gaelic
gaels
gaes
gaetano
gafsa
gaga
gagarin
gagauz
gagauzia
gagauzie
gai
gaia
gailerie
gaileries
gailey
gaiman
gain
gained
gainin
gains
gainsbourg
gaird
gairden
gairdenin
gairdens
gairds
gairten
gait
gaither
gaitherin
gaithoose
gaits
gaius
gal
gala
galactic
galante
galapagos
galaxy
galbraith
gale
galeana
gali
galicia
galician
galicie
galilee
galilei
galileo
galite
galium
gall
gallagher
gallardo
gallen
galleria
galleries
gallery
galliera
gallipoli
gallo
gallon
gallopin
gallowa
galloway
gallus
galway
gama
gamal
gambie
game
gameplay
games
gamma
gan
gandersheim
gandhi
gane
gang
gangdong
gangin
gangnam
gangs
gangseo
gangster
ganja
gansu
ganymede
gap
gar
garage
garay
garbage
garci
garcia
gard
garde
garden
gardens
gardiner
gardner
gare
gareth
garfield
gari
garibaldi
garioch
garland
garlic
garlieston
garmisch
garmsar
garnered
garni
garonne
garraf
garrison
garros
garry
gars
gart
gartnait
garuda
gary
garza
gas
gascon
gases
gash
gaspar
gaspard
gasteiz
gaston
gastone
gastronomy
gat
gata
gatchinsky
gate
gatepiers
gates
gateway
gatewey
gath
gather
gathered
gatherin
gathering
gau
gauge
gaul
gaulle
gauls
gaun
gauss
gave
gavin
gay
gaz
gaza
gazelle
gazette
gazetteer
gazi
gaziantep
gaziosmanpas
gb
gd
gdan
gdp
gdynia
ge
gear
gearbox
gears
ged
geddes
gedera
geese
gegharkunik
geiger
gelderland
gelotte
gem
gemini
gemm
gemme
gemmes
gemmin
gemms
gems
gen
gena
gender
gene
genealogical
genealogy
genera
general
generalitat
generally
generals
generate
generated
generates
generatin
generating
generation
generations
generatit
generator
generators
generic
genes
genesis
genest
genetic
genetically
geneticist
genetics
geneva
genevie
genghis
genie
genitals
genitive
genius
genki
gennaro
genoa
genocide
genoese
genome
genomics
genre
genres
gent
gentbrugge
gentile
gentiles
gentle
gentleman
gentlemen
gently
gentry
genuine
genus
geo
geoffrey
geografer
geografi
geografic
geografical
geografically
geografie
geografski
geograph
geographer
geographic
geographical
geographically
geography
geohive
geologic
geological
geologie
geologist
geologists
geology
geometric
geometry
geopedia
geordie
georg
george
georges
georgetown
georgi
georgia
georgian
georgians
georgie
georgies
geospatial
ger
gerais
gerald
geranium
gerard
gerardo
gerhard
germ
germa
germain
german
germania
germanic
germans
germany
gerrard
gerry
gers
gert
gertrudis
geschichte
gesellschaft
gestation
get
geta
getafe
getashen
gets
gettin
getting
geun
geva
gevorg
gey
ghaist
ghana
ghanaian
gharbi
ghat
ghent
ghetto
ghia
ghil
ghosh
ghost
ghosts
gi
gia
giacomo
gian
gianna
gianni
giant
giants
gibb
gibbon
gibbs
gibraltar
gibson
gica
gico
gie
gied
giein
gien
gies
gif
gifford
gift
gifts
gifu
gig
gigantic
gigs
gijo
gil
gilan
gilber
gilbert
gilberto
gilderoy
giles
gilgit
gill
gille
gilles
gillespie
gilligan
gime
gimhae
gimpo
gin
gina
ginger
gino
gion
giorgio
giorgos
giovanna
giovanni
gipuzkoa
giraffe
girardot
giratagh
girgenti
girl
girlfriend
girls
giro
girona
gironde
girse
girugamesh
girvan
gisela
git
gits
giulia
giuliano
giuseppe
giv
givat
give
given
gives
givin
giving
giza
gje
gl
gla
glacial
glacier
glaciers
gladbach
gladstone
glamorgan
gland
glands
glas
glasgow
glass
glen
glencairn
glencoe
glendale
glenelg
glenlochar
glenluce
glenluice
glenn
glenrothes
glens
glesca
glesga
glesgae
gless
gli
gloamin
global
globalization
globally
globe
gloria
glorious
glory
glossary
gloucester
gloucestershire
glover
glu
glucose
glycerol
gm
gma
gmbh
gmc
gmina
gminas
gmt
gnaeus
gne
gnu
go
goa
goal
goalkeeper
goalkeepers
goals
goalscorer
goat
goats
gob
gobabis
gobernador
gobi
gobierno
god
goddess
goddesses
godefroy
godfaither
godfather
godmither
godoy
godparents
gods
godwin
goes
goethe
gogh
goguryeo
goi
goia
goierri
goin
going
goku
gol
golan
gold
goldberg
golden
goldman
goldwyn
golf
golfo
gomel
gomera
gomes
gomez
gon
gonc
gondrin
gone
gong
gonghang
gonna
gontaut
gonza
gonzaga
gonzalez
gonzalo
goo
good
goodbye
goodness
goods
goodwill
google
goose
gopalganj
gora
gorbachev
gorda
gordon
gordons
gore
gorgan
gorge
gori
gorica
goris
gorizia
gorky
gornji
gorod
gorodetsky
gorodok
goryeo
gospel
gospels
got
gotha
gothenburg
gothic
goths
gotland
goto
gotoku
gotten
gottfried
gottlieb
gottorp
gou
gouda
gough
gould
gov
govan
governance
governed
governess
governin
government
governmental
governments
governor
governorate
governorates
governors
govi
govrenance
govrened
govrenin
govrening
govrenment
govrenmental
govrenments
govrenor
govrenorate
govrenorates
govrenors
gowan
gowd
gowden
gowf
gowfer
gowfers
gowk
goya
gp
gpl
gr
gra
grace
gracia
grad
grade
gradec
grades
grado
gradual
gradually
graduate
graduates
graduatin
graduation
graduatit
graeme
graf
graff
graffiti
graham
grain
grains
graith
gral
gram
grammar
grammatical
grammy
grammys
gramont
gran
granada
grand
grandchilder
granddaughter
granddochter
grande
grandee
grandees
grandes
grandfaither
grandfather
grandmaster
grandmither
grandmother
grandparents
grands
grandson
graneros
grange
granite
granja
granollers
grant
granted
grantit
grants
grape
grapes
graphic
graphical
graphics
graphite
grass
grassland
grasslands
grave
gravel
graves
graveyard
gravitational
gravity
grawn
graws
gray
graz
grazin
gre
great
greater
greatest
greatly
greco
gree
greeance
greece
greed
greek
greeks
greement
greements
green
greene
greenery
greenland
greenlandic
greenock
greens
greenville
greenway
greenwich
greenwood
grees
greet
greetin
greg
gregg
gregor
gregorian
gregorio
gregory
greit
grenada
grenadines
grenoble
gress
gresses
gressoney
gret
greta
gretna
grew
grey
greyfriars
gri
grid
gridcolor
grief
grierson
griffin
griffith
griffiths
grigor
grill
grille
grim
grimaldi
grimm
grind
grindcore
grip
gro
groats
grobin
grocery
grodno
groningen
groom
groond
groove
gross
grossed
grosseto
grossin
grossing
grosso
grotesque
grotto
grouls
ground
group
grouped
groupin
groupit
groups
grove
grover
groves
grow
growe
growed
growen
growes
growin
growing
grown
grows
growt
growth
growthe
growthie
growthiness
grozny
großkreutz
gru
gruffalo
grund
grunds
grunge
grupo
gs
gt
gto
gtx
gu
gua
guadalajara
guadalupe
guadeloupe
guaini
guajira
guam
guanacaste
guanajuato
guangdong
guangxi
guangzhou
guanta
guantanamo
guarani
guarantee
guaranteed
guard
guarda
guardia
guardian
guardians
guards
guarulhos
guastalla
guatemala
guatemalan
guava
guaviare
guayabal
guayaquil
guayas
guaynabo
gue
guelatao
guelders
guelphic
guernsey
guerra
guerre
guerrero
guerrilla
guerrillas
guest
guests
guetta
guevara
guez
guggenheim
guglielmo
gui
guia
guiana
guiche
guid
guidal
guidance
guide
guides
guidit
guidman
guido
guids
guidwife
guila
guild
guildhall
guilin
guillaume
guillermo
guillotine
guilty
guimara
guinea
guinness
guise
guiss
guitar
guitarist
guitarists
guitars
guizhou
gujarat
gules
gulf
gumi
gummez
gun
gunma
gunmen
gunn
gunnar
gunpouder
guns
gunsan
gunter
guodong
gur
guri
gurion
guro
guru
gus
gush
gust
gustaf
gustav
gustave
gustavo
gustavus
gut
gutenberg
guthrie
gutie
guwf
guy
guyana
guyo
guyok
guzma
gverdtsiteli
gwangjin
gwangju
gwangmyeong
gwen
gwent
gwr
gwynedd
gyeonggi
gyeongsang
gymnasium
gymnast
gymnastics
gyo
gypsies
gypsy
gyumri
h
ha
haakon
haapsalu
haaretz
haayin
habana
habib
habit
habitat
habitation
habitats
habits
habo
habsburg
habsburgs
hacavitz
hacienda
had
hadar
haddie
haddington
haddock
hadera
hades
hadoa
hadrian
hae
haed
haedna
haein
haen
haes
haesna
haeundae
hafar
hafei
hafez
haffah
hagen
haggis
hagi
hague
hahn
hai
haiducii
haifa
haig
haikou
hail
haile
hailed
hails
haily
haim
haimer
hain
hainan
hainaut
hainin
haiphong
hair
haird
hairs
hairsk
hairst
hairy
haiti
haitian
haji
hajj
hakka
hal
haldane
hale
halely
halen
halep
half
haliday
halidays
halifax
hall
halland
halle
halloween
halt
halth
haly
halych
halyruid
ham
hama
hamadan
hamakita
hamamatsu
hamas
hambleton
hamburg
hame
hameland
hameless
hamelt
hamepage
hames
hamespun
hametoun
hamgyong
hamgyongnam
hamid
hamilton
hamiltoun
hamish
hamlet
hamlets
hammadi
hammam
hammer
hammerfall
hammerfield
hammersmith
hammett
hammond
hampden
hampshire
hampstead
hampton
hamsun
han
hana
hanau
hancock
hand
handbaw
handbook
hande
handed
handicrafts
handle
handled
handles
handlin
handling
hands
handsome
haneda
hang
hanged
hangin
hanging
hangul
hangzhou
hani
hanja
hank
hanks
hankyu
hanna
hannah
hannibal
hanoi
hanover
hans
hanseatic
hansen
hanshin
hantle
hapoel
happen
happened
happenin
happens
happent
happiness
happy
hara
harald
harare
harbin
harbor
harbour
harbours
harcourt
hard
hardcore
hardie
harding
hardly
hardouin
hardtop
hardware
hardy
hare
haredi
harem
harju
harku
harlequin
harm
harmony
harn
harold
harp
harper
harpercollins
harris
harrisburg
harrison
harrow
harry
harsh
harsk
hart
hartford
harun
harvard
harvest
harvestit
harvey
haryana
has
hasakah
hasan
hasbro
hasharon
hashemite
hashemites
haskovo
hassan
hassi
hastings
hat
hatay
hatch
hatchback
hatchbacks
hate
hato
hatred
hats
haud
hauden
hauder
haudin
haudit
hauds
hauf
haufwey
haugh
haul
hauld
haulder
haulders
hauldin
haulds
haun
haund
haundbaw
haundful
haundit
haundle
haundlin
haunds
haunt
haunted
hauntit
hauptbahnhof
haurd
haurdly
haurdware
haut
haute
hautes
hauts
havana
have
haven
havilland
havin
having
havre
haw
hawaii
hawaiian
hawick
hawk
hawke
hawkins
hawks
haws
hay
haya
hayden
haye
hayes
hayk
hays
hazard
hazards
hbo
hc
hd
hdi
hdis
he
head
headed
headquartered
headquarters
heads
heal
healcare
healey
healin
health
healthcare
healthy
hear
heard
hearin
hearing
heart
hearts
heat
heath
heather
heathrow
heatin
heatit
heats
heaven
heavily
heavy
heavyweight
hebdo
hebei
hebrew
hebrides
hebron
hectare
hectares
hector
hed
hedge
hedmark
hedwig
hee
heel
heestoric
heestorical
heestorically
heestory
hegel
hegemony
heian
heich
heicher
heichest
heichland
heichlands
heichlichtin
heichlichtit
heichlichts
heichlie
heichly
heichmaist
heichs
heicht
heid
heidelberg
heider
heidin
heidit
heidlichts
heidmaist
heidquairtered
heidquairters
heidquartered
heidquarters
heidquartert
heids
heidsman
heidsteid
height
heights
heikki
heilongjiang
heineken
heinrich
heinz
heir
heiress
heirs
heirship
heiven
hejaz
hel
held
helen
helena
helene
helens
helicopter
helicopters
helios
helium
hell
hellenes
hellenic
hellenistic
hellersdorf
hello
helloween
helly
helm
helmet
helmut
help
helped
helpin
helpit
helps
helsingborg
helsingør
helsinki
helwan
hemisphere
hempstead
hen
henan
henares
hence
henderson
hendrik
hendrix
hendry
henin
henman
henri
henrietta
henriette
henrik
henrique
henry
henryson
hepburn
hephaestus
heping
her
hera
heraklion
herald
heraldic
heraldry
heras
herat
herbaceous
herbert
herbour
herbours
hercule
hercules
herd
herds
here
heredia
hereditary
hereford
herefordshire
herge
heritage
herman
hermann
hermel
hermit
hermitage
hermosa
herna
hernandez
hernando
hero
heroes
heroi
heroic
heroin
heroine
heron
herrera
herrin
herring
herschel
hersel
hersh
hert
hertfordshire
hertland
herts
herzegovina
herzegovinae
herzl
herzliya
herzog
hes
hesiod
hesse
het
hetfield
hettest
hewitt
hexagonal
hey
heydar
heyday
hezbollah
hi
hiatus
hibernian
hicht
hichter
hichtest
hichtlie
hichts
hid
hidalgo
hidden
hide
hides
hidin
hie
hiech
hieland
hielanders
hielands
hier
hierarchy
hieway
higashi
higgins
higginson
high
highbury
higher
highest
highfield
highland
highlands
highly
highness
highway
highways
hiiu
hijet
hijos
hikin
hilal
hilary
hilbert
hilda
hildburghausen
hill
hillary
hillenburg
hillman
hills
hillside
hilltop
hilly
hilton
him
himalayan
himalayas
himeji
himsel
himself
hin
hinckley
hind
hindenburg
hinder
hinderly
hindermaist
hindi
hindu
hinduism
hindus
hingis
hings
hinkley
hinnie
hint
hinterland
hintle
hints
hip
hipo
hippolytus
hiragana
hired
hiroshima
his
hispania
hispanic
hispaniola
hissel
histerie
histo
histoire
historia
historian
historians
historic
historical
historically
historie
histories
history
hit
hitchcock
hitler
hits
hittin
hittite
hiv
hivier
hiviest
hivily
hivy
hj
hk
hl
hlin
hm
hmong
hms
ho
hoa
hobbit
hobyo
hochtaunuskreis
hockey
hockley
hod
hof
hoffmann
hofkirche
hogan
hogg
hogmanay
hohenlohe
hohenzollern
hohmann
hoi
hoist
hokkaido
hoku
holbrook
hold
holden
holder
holders
holding
holdings
holds
hole
holes
holgui
holiday
holidays
holiest
holland
hollow
holloway
holly
hollywood
holm
holmes
holmgren
holocaust
holocene
holon
holstein
holt
holy
homage
hombre
homburg
home
homepage
homer
homes
homme
homonymous
homosexual
homosexuality
homs
hon
honda
hondo
honduran
honduras
honest
honey
hong
honneur
honolulu
honor
honorar
honorary
honore
honored
honorific
honors
honour
honoured
honourees
honours
honshu
hoo
hood
hook
hoos
hoose
hoosed
hoosehaud
hoosehauds
hoosehauld
hoosehaulder
hoosehaulds
hooses
hoosin
hoosit
hoover
hop
hope
hoped
hopes
hopkins
hopman
hopper
horace
horacio
hordaland
horde
horizon
horizons
horizontal
horizontally
horizonte
hormone
hormones
horn
horned
horns
horny
horror
horse
horseback
horsepouer
horses
horseshoe
horst
horta
hortense
horticultural
horus
hosni
hospice
hospital
hospitalet
hospitality
hospitals
hossein
host
hostage
hosted
hostile
hostilities
hostility
hostin
hostit
hosts
hot
hotel
hotels
hotspur
hottle
hottles
hou
houaniver
houever
houghton
houiver
houlet
houlets
houn
hounaiver
hound
hour
hours
house
household
households
housepian
houses
housing
housome
housomeiver
housomeivver
housomever
housomiver
houss
houston
hovhannes
how
howard
howe
however
howp
howpin
howpit
howrah
hoy
hp
hq
hqn
hr
hradecka
hrazdan
hrer
hrib
hringen
htm
html
http
https
hu
hua
huac
huai
huajuapan
huang
huatl
huatulco
huautla
hub
hubbard
hubble
hubei
hubert
hubs
hud
huddersfield
hudson
hue
huehuetenango
huelva
huesca
huge
hugh
hughes
hugo
huguenots
hui
huid
huif
huila
huitzilopochtli
huixquilucan
hull
hulunbuir
human
humanist
humanists
humanitarian
humanities
humanity
humans
humber
humble
humboldt
hume
humid
humidity
hummels
humor
humour
humphrey
hun
hunan
hunder
hunders
hunderyear
hunderyears
hundred
hung
hungarian
hungarians
hungary
hunger
hungry
hunner
hunsru
hunt
hunter
hunters
huntin
hunting
huntingdon
huntington
huntit
huntly
hunts
hurghada
hurlingham
huron
hurricane
hurricanes
hurt
hus
husayn
husband
husbandry
husby
hush
hussein
huston
hut
hutt
hutton
hutu
huv
huygens
hybrid
hybrids
hyde
hyderabad
hydra
hydraulic
hydro
hydrochloric
hydrodynamic
hydroelectric
hydrogen
hydrografie
hydrology
hydropouer
hydroxide
hydroxyl
hye
hyena
hyenas
hyeon
hygiene
hymettus
hymir
hymn
hymns
hyne
hyo
hypotheses
hypothesis
hyun
hyundai
hyvinka
hz
i
ia
iai
iain
ian
ias
iata
iauliai
iba
ibaraki
ibarra
ibb
ibe
iberia
iberian
iberie
ibge
ibid
ibiza
ibm
ibn
ibrahim
ibrox
ic
ica
ice
iced
iceland
icelanders
icelandic
ich
icon
iconic
icons
icw
id
ida
idaho
idea
ideal
ideals
ideas
identical
identifee
identifeed
identification
identified
identifier
identifies
identify
identifyin
identities
identity
ideological
ideologies
ideology
idi
idle
idlib
idol
idols
idris
ie
ieee
if
iffhs
ig
iga
iglesia
iglesias
ign
ignacio
igneous
ignition
ignored
igor
iguac
iguala
igualada
iguana
ihue
ii
iii
ija
ik
ike
ikea
iksan
il
ila
ilam
ilan
iland
ilands
ildefonso
ile
iles
ili
iliad
ilic
iliopoulos
ilk
ilka
ilkane
ill
illegal
illegitimate
illinois
illit
illness
illnesses
illusion
illustrated
illustration
illustrations
illustratit
illustrator
illustrious
illyrian
ilmarinen
ilocos
iloilo
ils
ilya
ilyich
im
ima
image
imagery
images
imagesize
imaginary
imam
imamiya
imatra
imax
imdb
imen
imeni
imereti
img
immaculate
immediate
immediately
immense
immigrant
immigrants
immigration
immigratit
immortal
immune
immunity
imp
impact
impeachment
imperator
imperia
imperial
imperialism
implement
implementation
implementit
implements
import
importance
important
importantly
importit
imports
imposed
imposin
impossible
impreesoned
impreesonment
impressed
impression
impressive
imprint
imprisoned
imprisonment
improve
improved
improvement
improvements
impruive
impruived
impruivement
impruivements
impruivin
impruivit
imre
imsil
in
ina
inactive
inadequate
inadvertently
inappropriate
inari
inaugural
inauguration
inauguratit
inbhir
inby
inc
inca
incarnation
incentive
inception
inch
incheon
inches
incident
incidents
incisors
inclined
include
included
includes
includin
including
includit
incluidin
inclusion
inclusions
inclusive
income
incomin
incomplete
incorporate
incorporated
incorporates
incorporatin
incorporation
incorporatit
incorrect
incorrectly
increase
increased
increases
increasin
increasing
increasingly
increasinly
increment
incumbent
incursions
indec
indeed
independence
independencia
independent
independently
independiente
index
indi
india
indian
indiana
indianapolis
indians
indicate
indicated
indicates
indicatin
indication
indicatit
indicative
indicator
indicators
indie
indien
indies
indigenous
indigo
indira
indirect
indirectly
indiveedual
individual
individuals
indo
indocheenae
indonesia
indonesian
indonesie
indoor
indore
indre
induced
inductees
inductit
indus
industrial
industrialisation
industrialised
industrialisit
industrialist
industrialization
industrialized
industrie
industries
industry
indwallers
indwellers
ine
ineetial
ineetially
ineetiatit
inegi
inen
inequality
ines
infamous
infancy
infant
infanta
infantas
infante
infantes
infantry
infants
infarction
infaw
infection
infections
infectious
infectit
inferior
infernal
inferno
infinite
infinity
infirmary
inflation
influence
influenced
influences
influencit
influential
influenza
influx
info
infobox
informa
informacio
informal
informally
information
informed
infrastructur
infrastructure
ing
inga
ingan
ingang
ingans
inge
ingine
ingined
ingineer
ingineered
ingineerin
ingineers
ingines
ingland
ingles
inglis
inglish
ingredient
ingredients
ingrid
ingrie
ingushetie
inh
inhab
inhabit
inhabitant
inhabitants
inhabited
inhabitin
inhabitit
inherit
inheritance
inherited
inheritit
ini
initial
initially
initials
initiatit
initiative
injection
injectit
injured
injuries
injurin
injury
ink
inland
inlet
inline
inmates
inn
inna
inner
innerness
innes
innin
innocence
innocent
innocenti
innovation
innovations
innovative
inns
innsbruck
inorganic
input
inquiry
inrowed
ins
insaumple
inscribed
inscribit
inscription
inscriptions
insect
insects
insee
inside
insignia
insistit
inspecially
inspection
inspector
inspiration
inspired
instability
installation
installations
installed
installment
instance
instances
instant
instawed
instead
insteid
institut
institute
institutes
institution
institutional
institutions
institutit
instituto
instruction
instructions
instrument
instrumental
instrumentalist
instrumentation
instruments
insufficient
insular
insulin
insurance
insurgency
int
inta
intact
intae
intake
integer
integers
integral
integrate
integrated
integration
integratit
integrity
intel
intellectual
intellectuals
intelligence
intelligent
intelligibility
intelligible
intended
intendencia
intendit
intends
intense
intensity
intensive
intent
intention
intentions
inter
interact
interaction
interactions
interactive
interamericana
interceety
interceptor
intercession
interchynge
interchyngeably
intercity
intercontinental
intercoorse
interest
interested
interestin
interestingly
interestit
interests
interface
interference
interim
interior
interiors
interlingua
intermediate
internacional
internaitional
internaitionally
internal
internally
international
internationale
internationally
internazionali
internet
interpret
interpretation
interpretations
interpreter
interpreters
interpretit
interregnum
interruptit
intersection
interstate
intertoto
interval
intervals
intervention
interview
interviewed
interviews
interwar
intil
intimate
intlab
into
intro
introduce
introduced
introduces
introducin
introducit
introduction
introductions
invade
invaded
invaders
invades
invadin
invadit
invariant
invasion
invasions
invasive
invention
inventions
inventit
inventor
inventors
inventory
inverclyde
inverness
invertebrates
inverurie
investigation
investigations
investigators
investit
investment
investments
investor
investors
invicta
invierno
invisible
invitation
invited
invitit
involve
involved
involvement
involves
involvin
involvit
io
ioannis
ioc
iodine
ion
iona
ionian
ionic
ions
ios
iowa
ip
ipa
ipsp
ipswich
ir
ira
iran
iranian
iranica
iraq
iraqi
irbid
ireann
ireland
irene
irina
iris
irish
irkutsk
irma
irn
iron
ironically
irons
irregular
irrigation
irrigatit
irtysh
irun
irvine
irving
irwin
is
isa
isaac
isabel
isabela
isabella
isabelle
isaf
isaiah
isan
isbn
ise
isernia
isfahan
ishikawa
ishtar
isidore
isidro
isis
isla
islam
islamabad
islamic
islamist
island
islander
islanders
islands
islas
islay
isle
isles
islet
islets
islington
ismael
ismail
ismailia
isna
isnae
iso
isolate
isolation
isolatit
isonzo
isotope
isotopes
isparta
israel
israeli
israelis
issue
issued
issues
issyk
ist
istanbul
istat
isthmus
istmo
isurus
isuzu
it
ita
itabira
ital
italia
italian
italiana
italians
italic
italics
italo
italy
itchy
ite
item
items
iter
itf
ither
ithers
itherwise
ithir
ito
its
itsel
itself
itunes
iturbide
ituzaingo
itv
iu
iucn
iupac
iv
iva
ivan
ivano
ivanovic
ivanovo
ivanovsky
ivar
iver
ivery
iveryday
iverything
ivo
ivoire
ivor
ivory
ivy
ix
ixelles
ixtla
iyas
iz
iza
izabal
izhevsk
iziaslav
izz
j
ja
jaani
jabal
jableh
jabotinsky
jacinto
jack
jackal
jackie
jackson
jacksonville
jacob
jacobite
jacobites
jacobo
jacobs
jacqueline
jacques
jade
jae
jafar
jaffa
jaguar
jahra
jaime
jakarta
jake
jakob
jalal
jalandhar
jalapa
jalisco
jalouse
jaloused
jalouses
jam
jamahiriya
jamaica
jamaican
jame
james
jamestown
jamie
jamiltepec
jammu
jan
jane
janeiro
janet
jani
jankovic
janne
janos
januar
januarius
january
japan
japanese
jar
jarawa
jardi
jared
jari
jarl
jaruco
jasmine
jason
jasper
jaume
java
javan
javanese
javier
jaw
jawa
jawf
jawi
jaws
jay
jays
jazeera
jazz
jbeil
jcag
je
jealous
jean
jeanne
jeb
jebel
jeddah
jedi
jeff
jefferson
jeffrey
jeju
jelena
jelly
jena
jenin
jenkins
jenner
jennifer
jennings
jenny
jens
jensen
jeollabuk
jeongeup
jeonju
jerash
jeremiah
jeremy
jericho
jermuk
jero
jerome
jerry
jersey
jerusalem
jerzy
jese
jesper
jesse
jessica
jessie
jester
jesu
jesuit
jesuits
jesus
jet
jette
jew
jewel
jewellery
jewelry
jewels
jewish
jews
jex
jezersko
jezzar
jharkhand
ji
jiang
jiangsu
jiangxi
jilin
jill
jilotepec
jim
jime
jimi
jimmy
jin
jinan
jinotega
jinshan
jintly
jiquipilco
jisr
jist
jiuquan
jo
joa
joachim
joan
joana
joanna
joaqui
joaquin
joaquina
job
jobs
jocelyn
jock
jockey
joe
joel
joensuu
joey
johan
johann
johanna
johannes
johannesburg
johansson
john
johnny
johns
johnson
johnston
johnstone
johor
join
joined
joinin
joining
joins
joint
jointly
joinville
joke
jokes
joki
jolie
jolly
jolo
jomala
jon
jonah
jonas
jonathan
jones
jong
jongno
jonubi
jordan
jordanian
jordi
jorge
jose
josef
josefa
joseon
josep
joseph
josepha
josephine
josh
joshua
josias
jouk
joukahainen
joule
jounieh
journal
journalism
journalist
journalists
journals
journey
journeys
jouy
jovi
joy
joyce
joyeuse
jp
jpg
jr
jsc
jstor
ju
jua
juan
juana
juanes
juarez
jubilee
juchita
judah
judaism
judas
judd
jude
judge
judged
judges
judgment
judicial
judiciary
judith
judo
judoka
judy
juha
juice
juidge
juin
juist
juistice
jujuy
jukka
jul
jules
julia
julian
juliana
juliane
julie
julien
juliet
julieta
julio
julius
july
jump
jumpin
jun
junction
junctions
juncus
june
jung
jungle
jungnang
junhui
juni
junior
juniors
juniper
junius
juno
junta
jupiter
juquila
jura
jurassic
jure
jurisdiction
jurisdictions
jurist
jurnal
jurnalism
jurnalist
jurnalists
jurney
jury
jus
just
juste
justice
justify
justin
justine
justinian
justo
jutiapa
jutland
juuru
juvenile
juveniles
juventud
juventus
jyle
jyn
jyne
jyned
jynes
jynin
jyns
jynt
jyntly
jyva
k
ka
kaarina
kabardino
kabila
kabukicho
kabul
kadett
kadima
kadıko
kafka
kafr
kagawa
kagoshima
kah
kahak
kahn
kahnuj
kahramanmaras
kai
kaido
kail
kainuu
kairouan
kaiser
kaiserslautern
kaiu
kajaran
kakheti
kakhovka
kala
kalajoki
kale
kalevala
kali
kalimantan
kalina
kaliningrad
kalininsky
kallikratis
kalmah
kalmar
kaluga
kama
kamal
kamchatka
kamensk
kamensky
kamianets
kamianske
kampong
kan
kana
kanagawa
kandahar
kane
kangaroo
kanji
kanpur
kansai
kansas
kant
kantele
kanto
kanye
kaohsiung
kaori
kapan
kapi
kapok
kar
kara
karaag
karabakh
karachi
karak
karakalpakstan
karakol
karamyshevo
karbala
kardzhali
karelia
karelian
karelie
karen
karim
karin
karl
karlsruhe
karlstad
karma
karnataka
karolina
karoline
kars
karst
kartli
karvina
kasem
kashmir
kassar
kassel
kasserine
kat
katakana
kate
katharina
katharine
katherine
kathleen
kathmandu
kathy
katie
kato
katowice
katra
katrina
katy
katyn
katzenberg
kaufmann
kaunas
kauniainen
kavala
kawasaki
kay
kayseri
kazakh
kazakhs
kazakhstan
kazan
kazimierz
kc
ke
keane
keating
kebili
keelung
keen
keeng
keengs
keep
keeper
keepers
keepin
keepit
keeps
kef
kehra
kehtna
kei
keio
keir
keisei
keith
kellie
kello
kellogg
kells
kelly
kelsae
kelso
kelvin
kem
kemal
kemerovo
kemp
kemps
ken
kenari
kendrick
kenmerk
kenmure
kenned
kennedy
kenneth
kennin
kennington
kennt
kenny
kens
kensington
kenspeckle
kent
kenton
kentucky
kenyae
kenyan
kepler
kept
ker
kerala
kerava
kerber
kerfeldt
keri
kerk
kerman
kermanshah
kernel
kernu
kerr
kerrang
kerry
kerse
kesfehe
kevin
kew
key
keyboard
keyboards
keybuird
keybuirdist
keybuirds
keynes
keys
kf
kfar
kg
kgb
kha
khabarovsk
khaimah
khaled
khalid
khalifa
khalil
khan
khanate
khanong
khanty
khao
kharga
kharkiv
kharkov
khartoum
khasan
khen
kherson
khet
khimki
khirbet
khlong
khmelnytskyi
khmer
khndzoresk
kho
khodro
khojavend
khomein
khomeini
khorasan
khosrowabad
khovd
khru
khrushchev
khrustalny
khu
khusf
khutor
khuzestan
khwaeng
khyber
ki
kia
kibbutz
kibbutzim
kichmengsko
kichmengsky
kick
kickin
kickit
kid
kidnapped
kidnappin
kids
kie
kiel
kiesling
kiev
kievan
kifisia
kiili
kil
kilbride
kildare
kilis
kilkenny
kill
killed
killer
killers
killin
killing
killins
killit
kills
killt
kilmarnock
kilometer
kilometers
kilometre
kilometres
kilpatrick
kilt
kim
kimberly
kin
kinabalu
kincardine
kind
kindergarten
kindergartens
kinds
kineshma
kinetic
king
kingdom
kingdoms
kingisepp
kings
kingston
kinrick
kinricks
kinross
kins
kinshasa
kintetsu
kintra
kintras
kintraside
kintyre
kipchak
kipling
kirby
kirchner
kiribati
kirik
kirilenko
kirillov
kirillovsky
kirk
kirkbride
kirkcoam
kirkcolm
kirkcoubrie
kirkcoubrieshire
kirkcowan
kirkcudbright
kirkcudbrightshire
kirkgunzeon
kirkinner
kirkkonummi
kirkland
kirkmaiden
kirkpatrick
kirks
kirkwaa
kirkwall
kirkyaird
kirnel
kirov
kirovohrad
kirovsk
kirovsky
kirsten
kiryat
kis
kiss
kisser
kist
kit
kita
kitakyushu
kitchen
kitchener
kite
kits
kitsap
kitts
kiver
kivered
kiverin
kivers
kivert
kizlyar
kladus
klaipe
klaukkala
klaus
klein
km
kmt
knawledge
knee
knees
knesset
knew
knicht
knichts
knife
knight
knights
knightsbridge
knives
knock
knocked
knockit
knockout
knopf
knot
know
knowe
knowledge
knowles
known
knows
knox
knupp
ko
kobarid
kobayashi
kobe
koblenz
koc
kocaeli
koch
kocjan
kocoum
koen
koga
koha
kohila
kohlschreiber
koidula
koigi
kokura
kola
kolkata
kolomna
kolpa
kom
koma
komi
kommun
kommunar
kommune
komsomolsk
komsomolsky
kon
kone
kong
kongo
konrad
konstantin
konya
koper
korail
korc
korea
korean
koreans
korn
korolyov
korpiklaani
kortrijk
koryo
kos
kose
koskinen
kosovo
kosovska
kostanay
kostanjevica
kostel
kostroma
kota
kotayk
kotka
kouros
kova
kovrov
kowloon
koyunlu
kr
kra
krab
krabs
kragujevac
krai
kraj
krako
kraljestev
kranj
kranjsko
krasnaya
krasnoarmeysky
krasnodar
krasnogorsk
krasnogorsky
krasnogvardeysky
krasnoselsky
krasnoyarsk
krasnoyarsky
krasny
kratovo
krefeld
kreis
kremlin
kreuzberg
kris
krishna
kristian
kristina
kronoberg
kronor
krs
kruger
krung
krus
krusty
krylos
ksar
kstovo
kt
ktx
ku
kuala
kuban
kublai
kuching
kufra
kuhbanan
kul
kullervo
kum
kumamoto
kun
kunda
kung
kunga
kunming
kunth
kuomintang
kuopio
kura
kurdish
kurdistan
kurds
kuressaare
kurgan
kursk
kurt
kush
kuusalu
kuusiku
kuwait
kuybyshev
kuybyshevsky
kuznetsky
kuznetsova
kv
kvitova
kw
kwazulu
kye
kyi
kyiv
kyle
kylie
kynd
kynds
kyo
kyoto
kyren
kyrgyz
kyrgyzstan
kythe
kythed
kythes
kythin
kyths
kyu
kyushu
kz
l
la
laa
label
labeled
labelled
labels
labor
laboratories
laboratory
laborers
labour
labrador
labs
labyrinth
lac
lachaise
lachixi
lack
lacked
lackin
lacks
lacrosse
lacuna
lad
lada
lade
laden
ladies
ladin
ladoga
ladro
lads
lady
laeken
laem
lafayette
lag
laga
lago
lagoa
lagoni
lagoon
lagoons
lagopus
lagos
laguardia
laguna
lagunas
lagunillas
lahannya
laheda
lahore
lahti
lai
laich
laicher
laid
laing
lair
laird
lairds
lairdship
lairge
lairgely
lairger
lairgest
laither
laitin
lajas
lak
lake
lakes
lallans
lam
lama
lamas
lamb
lamballe
lambert
lambeth
lame
lamont
lamp
lamps
lan
lana
lanarkshire
lancashire
lancaster
lance
lancer
lancia
land
landau
lander
landes
landfaw
landgrave
landgraves
landgravine
landgravines
landin
landing
landit
landlocked
landlockit
landmark
landmarks
landranger
lands
landscape
landscapes
landslide
landwart
lane
lanes
lang
langage
langenburg
langer
langest
langfin
langham
langholm
langitude
langside
langtime
language
languages
langue
languedoc
lanka
lankaran
lanrickshire
lanrik
lanrikshire
lanu
lanzhou
lao
laoghaire
laos
lap
lapland
lappeenranta
lar
lara
laramie
laredo
laren
large
largely
larger
largest
largo
larissa
larnaca
larrie
larries
larrington
larry
lars
larsen
larson
larsson
larus
las
lasa
laser
laserdisc
lass
lassie
lassies
last
lasted
lastin
lastit
lasts
lat
latakia
late
lately
later
lateral
latest
latgale
latha
latin
latina
latino
latitude
latitudes
latium
latter
latvian
latvie
lauchsta
lauder
lauderdale
lauenburg
launch
launched
launches
launchin
launcht
laund
laundawner
laundforms
laundin
laundit
laundmerk
laundmerks
launds
laundscape
laura
laure
laureate
laureates
laurel
lauren
laurence
laurent
laurie
laurieston
lauro
lausanne
lauzun
lava
laval
lavalle
lavalleja
lave
laverock
lavoisier
law
lawer
lawers
lawest
lawland
lawlands
lawn
lawrence
laws
lawson
lawsuit
lawyer
lawyers
lay
laye
layer
layered
layers
layin
layoot
layout
lays
lazarus
laze
lazio
lazkao
lb
lbf
lc
ld
le
lea
lead
leader
leaders
leadership
leadin
leading
leads
leaf
leaflets
leafs
league
leagues
leal
lealholm
lealtie
lean
leandro
leanin
leap
lear
learin
learn
learned
learnin
learning
learnt
lease
leased
least
leather
leave
leaves
leavin
leaving
lebanese
lebanon
lebor
lecce
lecco
lech
leck
lecturer
lectures
led
leddies
leddy
ledengskoye
lee
leeberal
leeberalism
leeberals
leeberation
leeberatit
leeberty
leebrar
leebrary
leed
leeds
leegend
leegendar
leegends
leein
leek
leemit
leemitit
leemits
leerical
leerics
lees
leet
leeteracy
leeteral
leeterally
leeterar
leeterary
leeteratur
leetin
leetit
leets
leeve
leeved
leeves
leevin
lefkada
left
leg
lega
legacy
legal
legally
legane
leganza
legend
legendar
legendary
legends
legged
legion
legions
legislation
legislative
legislatur
legitimacy
legitimate
legitimised
legnano
legs
lei
leiberal
leibniz
leicester
leicestershire
leid
leiden
leids
leif
leigh
leiningen
leinster
leipzig
leisur
leisure
leith
lejo
leksikon
lemminka
lemon
lempa
lempira
lemur
lemurs
lemy
len
lena
lend
lendl
length
lengthy
lenin
leningrad
leningradsky
leninism
leninist
leninsk
leninsky
lennon
lennox
lens
lent
lenth
lenths
leo
leon
leonard
leonardo
leone
leonese
leonid
leonor
leopard
leopards
leopold
leopoldina
leopoldine
leopoldo
lepidoptera
lepidus
lerdo
lerik
lerma
leroy
lerwick
les
lesbian
leslie
lesotho
less
lesser
lesson
lessons
lest
leste
leswalt
leszczyn
let
letelier
lethal
letizia
letter
letters
lettres
leuchtenberg
leuk
leukin
leukit
leuks
leumit
leung
leuven
lev
levant
level
levelled
levels
leven
leverkusen
levi
levin
levy
lewis
lex
lexical
lexicon
ley
leyland
leyte
leyva
lez
lezhe
lezion
lf
lff
lg
lgbt
lheim
li
lia
liam
lian
liang
liaoning
liberal
liberation
liberatit
liberator
liberie
libertad
libertador
libertadores
libertarian
liberties
liberty
libian
libie
librar
libraries
librars
library
libre
libres
libya
libyan
lica
lice
licence
license
licensed
licenses
lich
licht
lichter
lichthoose
lichthooses
lichtin
lichtly
lichtnin
lichts
licite
lid
liddell
lidko
lie
liebe
liechtenstein
lies
lieutenancy
lieutenand
lieutenant
lieutenants
life
lifeboat
lifelang
lifes
lifespan
lifestyle
lifetime
lift
liftin
liftit
lifts
lig
liga
light
lightgrey
lighthouse
lightning
lights
lightweight
ligne
ligs
ligue
ligurian
ligurie
lik
like
liked
likely
likeness
likes
likewise
likit
likwise
lil
lille
lilter
liltin
lily
lima
limassol
limburg
limburgish
lime
limerick
limestane
limestone
limit
limited
limitit
limits
limmy
limo
limousin
limousine
lin
linares
lincoln
lincolnshire
linda
lindberg
linden
lindroos
lindsay
lindsays
lindsey
line
lineage
linear
lined
linen
liner
lines
lineup
ling
lingua
lingueestic
lingueestics
linguist
linguistic
linguistically
linguistics
linguists
linin
link
linked
linkin
linking
linkit
linko
links
linn
linna
linnaeus
lint
lintie
linus
linux
linz
lio
lion
lionel
lioness
lionesses
lions
lip
lipa
lipetsk
lipid
lipids
lipin
lipovec
lippe
lips
lipton
lique
liquid
liquids
liquor
liria
lis
lisa
lisabeth
lisboa
lisbon
lisesi
lisicki
lisowski
list
listed
listen
listenin
listing
listit
lists
lit
liter
literacy
literal
literally
literary
literatur
literature
lithgae
lithium
lithuania
lithuanian
lithuanie
lito
litoral
litre
litres
litter
litters
little
littoral
litueche
liturgical
liu
liv
live
lived
lively
liver
liverpool
liverpuil
lives
livestock
livia
livin
living
livingston
livingstone
livit
livonie
livorno
livre
livy
liwa
lix
liz
lizard
lizards
lizzy
ljubljana
ljungstro
ll
lla
llanelli
llanfair
llano
llanos
llar
llc
lle
lleida
ller
llewelyn
lleyton
llez
lln
llnir
llobregat
llorenc
lloyd
llwynypia
llywelyn
lmsxlb
ln
lna
lndal
lo
load
loaded
loads
loan
loanwirds
lobkowicz
lobkowitz
lobo
lobos
loca
local
localidad
localities
locality
locally
locals
locate
located
location
locations
locatit
loch
lochaber
lochalsh
lochinvar
lochlands
lochmaben
lochnaw
lochs
lock
locked
lockerbie
lockheed
lockit
locks
loco
locomotive
locomotives
locus
lod
lodge
log
logan
loggin
logic
logical
logie
logistics
logo
logos
lohja
loir
loire
loiret
lois
lok
loka
loki
lokomotiv
lola
loma
lomas
lombard
lombards
lombardy
lomond
lomonosovsky
lon
london
lone
lonely
long
longer
longest
longitude
longueville
longyan
lons
look
looked
lookin
looking
looks
loomis
loop
loose
loosely
lopburi
lopez
lorca
lord
lordegan
lordi
lords
lordship
lore
lorena
lorenz
lorenzo
lorestan
loreto
lorges
lori
lorimer
lorne
lorraine
los
lose
loser
losers
loses
losin
losing
loss
losses
lossin
lost
lot
lothian
lots
lottery
lotus
lou
loud
loudoun
louhi
louis
louisa
louise
louisiana
louisville
lourdes
lourenc
lourinha
lousada
louth
louvois
louvre
love
lovech
loved
lover
lovers
loves
loviisa
lovin
loving
lovisa
low
lowden
lowell
lower
lowest
lowp
lowse
lowsed
lowsin
lowther
loxicha
loyal
loyalist
loyola
lp
lpg
ls
lsch
lson
lt
ltd
lu
luanda
luang
luath
lublin
luc
luca
lucas
lucca
luce
lucena
lucerne
lucero
luci
lucia
lucie
lucien
lucifer
lucius
luck
lucknow
lucky
lucrezia
lucy
ludovico
ludovika
ludwig
ludwigsburg
ludwik
lufthansa
luftwaffe
lug
luga
lugano
lugar
luggage
lugo
lugs
luhansk
lui
luice
luigi
luino
luis
luisa
luise
luisin
luiz
luja
luka
lukas
luke
lula
lulu
lum
lumie
lumpur
luna
lunar
lund
lune
lung
lunnon
lunnonderry
luo
luoyang
lupita
lupo
luque
lush
lust
luther
lutheran
lutheranism
lutherans
luton
luv
luve
luver
luxe
luxembourg
luxemburg
luxor
luxurious
luxury
luynes
luz
luzia
luzon
lv
lva
lvarez
lvaro
lviv
lx
ly
lyal
lyce
lyceum
lychnis
lydia
lyga
lyin
lyk
lynch
lyndon
lynn
lynx
lynxes
lyon
lypeaux
lyricist
lyrics
lys
lyu
m
ma
maa
maastricht
mac
macanese
macao
macarthur
macau
macbeth
maccabees
maccabi
maccabim
macclesfield
macclintock
macdiarmid
macdonald
macdonalds
macdowall
macedon
macedonia
macedonian
macedonie
macgreegor
macgregor
machado
machars
machine
machinery
machines
machynlleth
maci
macintosh
mack
mackay
mackenzie
mackerel
mackie
mackintosh
maclean
macleod
macmillan
macomber
macondo
macpherson
macron
macropus
mad
madaba
madagascar
madame
maddalena
madden
maddie
made
madeira
madeleine
mademoiselle
madero
madhya
madinah
madison
madness
madonna
madre
madrid
madrilen
madryn
mae
mafia
maflin
mafra
mafraq
mag
magallanes
magazine
magazines
magdalena
magdalene
magdeburg
magellan
magenta
maggie
maggiore
maghreb
magic
magical
magma
magna
magnate
magnesium
magnet
magnetic
magnetism
magnificent
magnitude
magnox
magnum
magnus
magnusson
mago
maguire
magway
maha
mahal
maharashtra
mahdia
mahilyow
mahlsdorf
mahmoud
mahmud
mahogany
mai
maid
maiden
maidla
mail
mailin
maille
mailly
main
maine
mainer
mainland
mainlaund
mainline
mainly
mains
mainstream
maintain
maintained
maintainin
maintains
mainteen
mainteened
maintenance
maintenon
mainz
maior
maipu
mair
mairage
mairch
mairched
mairches
mairchit
maire
mairiage
mairiages
mairied
mairiet
mairit
mairower
mairriage
mairriet
mairtial
mairtyr
mairtyrs
mairy
mais
maisie
maison
maist
maister
maisters
maistlie
maistlins
maistly
maiter
maiters
maitland
maize
majd
majestic
majesty
majewski
major
majority
majors
mak
makar
makarova
makars
makati
make
maker
makers
makes
makeup
makhachkala
makin
making
makit
makker
makkers
makkin
makkit
mako
maks
makup
mal
mala
malacca
malafeev
malafoustert
malagasy
malaria
malatya
malawi
malay
malaya
malaysia
malaysian
malaysie
malcolm
maldives
maldonado
male
males
malfranteaux
mali
malibu
malik
mall
malley
mallorca
mallory
malls
malmo
malo
malta
maltae
maltese
malvi
malvinas
mam
mama
mamey
mamluk
mamluks
mammal
mammalian
mammals
mammoth
man
mana
manabi
manage
managed
management
manager
managerial
managers
manages
managin
managit
managua
manama
manapiare
manatiq
manaus
mancha
manche
manchester
manchu
manchurie
mancini
mandalay
mandarin
mandate
mandatit
mandatory
mandela
mandelstam
mandir
mandolin
mane
maned
manes
manfred
mang
manga
manganese
mango
mangoes
manhattan
manhuac
manifesto
manila
manipulation
manisa
manitoba
mankind
mann
manned
manner
manners
mannheim
manor
manors
manouba
manowar
manresa
mans
manse
mansi
mansion
mansions
mansiysk
manson
mansoura
mansur
mantiqah
mantle
mantua
manual
manuel
manuela
manufactur
manufacture
manufactured
manufacturer
manufacturers
manufactures
manufacturin
manufacturing
manufacturs
manufacturt
manuscript
manuscripts
manx
many
manzana
manzanares
mao
maori
map
maplandia
maple
mapo
maps
mapusa
mar
mara
maracaibo
maracay
maradona
maranha
marat
marathi
marathon
marbach
marble
marburg
marc
marca
marcel
marcela
marcello
marcellus
marcelo
march
marche
marches
marcin
marco
marconi
marcos
marcus
mardin
marduk
mare
marek
maresme
margaret
margarete
margarida
margarita
marget
margherita
margin
margrave
margravine
margrethe
marguerite
mari
maria
mariachi
mariakerke
marian
mariana
marianne
mariano
maribor
marie
mariehamn
marilyn
marin
marina
marinas
marine
mariner
marines
marino
marinus
mario
marion
marios
marisol
marit
maritime
maritimes
marius
marj
marjorie
mark
markaz
markazi
marked
market
marketed
marketin
marketing
marketit
markets
markin
markina
marking
markit
marko
marks
markt
markus
marmara
marne
maro
maronite
maroon
marousi
marque
marques
marquess
marquesses
marquis
marquise
marquises
marquiss
marr
marrakech
marriage
marriages
married
marriet
marrit
marry
mars
marsa
marsan
marseille
marsh
marshal
marshall
marshals
marshes
marston
marstrand
marsupials
mart
marta
martens
martha
marti
martial
martin
martina
martinez
martinique
martino
martinozzi
martins
martorell
martuni
martyr
martyrs
marvdasht
marvel
marvin
marx
marxism
marxist
mary
maryland
marylebone
marz
mas
masaryk
masaya
mascot
masculine
maserati
masha
mashhad
mashke
masis
masjid
mask
masks
mason
masonry
masquerade
masrik
mass
massa
massachusetts
massacre
massacred
massacres
masses
massif
massimo
massive
masson
mast
master
mastercastle
mastered
masterin
masterpiece
masters
masturbation
masurie
mat
mata
matamoros
matanza
matanzas
mataro
match
matched
matches
mate
matein
mateo
material
materials
maternal
maternity
mates
mathemateecian
mathematica
mathematical
mathematician
mathematicians
mathematics
mathias
mathieu
mathilde
matigara
matignon
matilda
matlab
matn
mato
matos
matriculation
matrix
mats
matsuda
matsumoto
matsuri
matt
matteo
matter
matters
matthew
matthews
matthias
matti
matur
mature
maturity
maud
mauger
maugre
maule
maun
mauresmo
maurice
mauricio
mauritanie
mauritius
maurizio
mauro
maurs
mausoleum
maut
maw
maws
max
maxi
maxim
maxima
maximilian
maximiliane
maximilien
maximum
maximus
maxwell
maxwells
maxwelltoun
may
maya
mayabeque
mayan
maybe
maybole
mayenne
mayer
mayfair
mayhem
mayo
mayor
mayoral
mayors
mayotte
mazandaran
mazarin
mazatec
mazatla
mazda
maze
mazinan
mazkeret
mbe
mblad
mc
mccain
mccarthy
mccartney
mccoll
mcconnell
mccoy
mcculloch
mccurdy
mcd
mcdermid
mcdonald
mcdonnell
mcdowell
mcfarland
mcgill
mcgovern
mcgraw
mcgregor
mcguinness
mckenna
mckenzie
mckinley
mclaren
mclean
mcleod
mcmahon
mcmanus
mcneill
mcpherson
md
me
meadaes
meadow
meadows
meal
meals
mean
meanchey
meanin
meaning
meanings
meanins
means
meant
meanwhile
measur
measure
measured
measurement
measurements
measures
measurin
measurs
measurt
meat
meath
mebbe
mecca
mechanical
mechanics
mechanism
mechanisms
mecklenburg
med
medal
medalist
medallist
medallists
medals
medan
medelli
medenine
media
mediaeval
medial
median
medical
medici
medicinal
medicinar
medicine
medieval
medina
medio
mediterranean
medium
medley
mee
meeko
meeneral
meenerals
meenister
meenisters
meenistries
meenistry
meenit
meenits
meerit
meesion
meesionar
meesteries
meestery
meet
meeth
meethical
meethological
meethologie
meethology
meeths
meetin
meeting
meetins
meets
meg
mega
megadeth
megalithic
megami
megara
meghan
meghri
mehmed
mehmet
mei
meidae
meiji
meilleraye
mein
meinin
meiningen
meins
meir
meisur
meisurin
meisurment
meisurments
meisurs
meisurt
mejor
meknes
mekong
mel
melanie
melbourne
meldrum
melle
melo
melodic
melodies
melody
melon
melons
melrose
melt
meltin
melun
melville
member
members
membership
membrane
memmer
memmers
memoir
memoirists
memoirs
memorable
memorial
memorials
memories
memory
memphis
men
menai
mendel
mendes
mendoza
mengs
menken
mennock
menreith
mense
ment
mental
mentally
mentha
mentine
mention
mentioned
mentions
mentiont
mentor
menudo
menzel
menzies
meps
mer
mercado
mercat
mercatin
mercatit
mercatplace
mercats
merced
mercedes
mercenaries
mercenary
mercer
merchand
merchandise
merchant
merchants
mercia
mercur
mercury
mercy
mercœur
mere
merely
merge
merged
merger
mergers
merges
mergin
mergit
meri
merida
meriden
meridian
merit
merk
merked
merkel
merkin
merkit
merks
mermaid
merriam
merry
merseburg
mersey
merseyside
mersin
merthyr
merton
meru
merv
merya
mes
mesa
mesoamericae
mesoamerican
mesolithic
mesopotamie
mesoregion
mess
message
messages
messenger
messi
messiah
messier
messina
mestizo
mestizos
mesto
met
meta
metabolism
metal
metalcore
metallic
metallica
metallum
metallurgical
metallurgy
metals
metamorphosis
meteor
meteorite
meteorological
meteorologist
meteorology
metepec
meter
meters
methane
method
methodist
methodists
methodology
methods
metre
metres
metric
metro
metropolis
metropolitan
metropolitana
metropolitano
mets
metsamor
metsku
mettmann
metz
meurthe
meuse
mevaseret
mexica
mexicali
mexican
mexicana
mexicano
mexicans
mexico
mey
meyer
mez
mezcal
mezzo
mg
mgm
mi
mia
miahuatla
miami
mibbe
mica
micaela
mice
michael
michaelsen
michal
michel
michelangelo
michele
michelle
michigan
michoaca
michoacana
micht
mick
mickey
micro
micronesie
microphone
microregion
microscope
microscopic
microsoft
mid
midden
middle
middleport
middlesbrough
middlesex
middleweight
middlin
midfield
midfielder
midfielders
midget
midi
midland
midlands
midlothian
midlowden
midnicht
midnight
mids
midst
midwastren
midway
mie
mifflin
might
mighty
migrant
migrants
migrate
migratin
migration
migrations
migratit
migratory
miguel
mika
mikael
mike
mikel
mikhail
mikhailovna
mikko
mil
milan
milanese
milano
milanovac
mild
milder
mile
miles
milestone
miley
milie
militant
militants
militar
military
militia
milk
milkins
milky
mill
milla
millar
mille
millennia
millennium
miller
millimetres
million
millions
mills
milne
milngavie
milos
milton
milwaukee
milȝeoun
min
mina
minami
minaret
minas
minato
minburi
mind
mindanao
mine
mined
mineiro
mineral
minerals
miners
mines
ming
minh
mini
miniature
minimal
minimum
minin
mining
miniseries
minister
ministerio
ministers
ministry
minivan
minneapolis
minnesota
minnigaff
minnock
minnyhive
minogue
minor
minoritie
minorities
minority
minsk
mint
minus
minute
minutes
minya
mio
miocene
mir
mira
miracle
mirador
miraflores
miramar
miranda
miren
miriam
miro
mirow
mirren
mirror
mirrors
mirza
mis
miscellaneous
mise
misery
mishanter
misio
misiones
misrata
miss
missed
missile
missiles
missin
missing
mission
missionar
missionaries
missionary
missions
mississippi
misso
missouri
missy
mist
mistak
mistake
mistaken
mistakenly
mister
mistress
mistresses
mit
mita
mitch
mitchell
mither
mithers
mitherwall
mitla
mitochondrial
mitre
mitrovica
mitsubishi
mitte
mitton
mitu
mix
mixe
mixed
mixes
mixin
mixtec
mixteca
mixtepec
mixtur
mixture
miyagi
mizque
mjo
mk
mkhitar
ml
mls
mm
mme
mo
moa
moab
moat
mob
mobile
mobility
moc
moch
mochis
mochrum
mochs
moctezuma
moda
modal
mode
model
modeled
modelled
models
modena
moderate
moderately
moderator
modern
modes
modest
modi
modica
modifee
modification
modifications
modified
modren
modrenist
modrijan
moffat
mogadishu
mogilev
mogilevich
mohamed
mohammad
mohammed
mohsen
moi
moiane
moille
moines
moira
moist
mojo
moka
molars
moldavian
moldavie
moldova
moldovae
moldovan
moldovans
mole
molecular
molecule
molecules
molenbeek
molie
molina
molise
molla
molluscs
molly
molotov
molybdenum
moment
moments
momentum
mon
mona
monaco
monagas
monaghan
monanday
monarch
monarchies
monarchists
monarchs
monarchy
monasteries
monastery
monastic
monastir
monday
monde
monetary
money
monfalcone
monfils
mong
mongol
mongolia
mongolian
mongolic
mongolie
mongols
monica
monie
moniker
moniment
monitor
monk
monkey
monkeys
monks
monmouth
monmouthshire
monopoly
monroe
mons
monsieur
monsoon
monster
monsters
mont
montagu
montaldo
montan
montana
montbazon
montcada
monte
montenegrin
montenegro
monterey
montero
monterrey
montes
montespan
montesson
montevideo
montferrat
montfort
montgomery
month
monthly
months
monti
montigny
montijo
montle
montmorency
montpellier
montpensier
montre
montreal
montrose
montserrat
montsoreau
monument
monumental
monuments
mony
monza
mood
moon
moond
moonlight
moonspell
moont
moontain
moontainous
moontains
moor
moore
moorish
moors
moose
mooth
mor
mora
moral
morales
morality
morandi
moratorium
moravie
moray
moraza
morbid
mordovie
more
moreira
morel
morelia
morelos
moreno
morgan
morganatic
morganatically
mori
moritz
mormaer
mormaers
mormon
mormons
morn
mornin
morning
moro
moroccan
morocco
moroni
morphological
morphology
morricone
morris
morrison
morro
morsi
mort
mortal
mortality
mortem
mortemart
morten
morton
mosaic
mosaics
moscow
moselle
moses
mosh
moshav
moshavim
moshe
moskovsky
moskva
moskvitch
mosley
mosque
mosques
moss
most
mostazal
mostly
mosul
mota
mote
mothe
mother
mothers
motherwal
motherwell
motier
motif
motifs
motion
motivatit
motive
moto
motogp
motor
motorcycle
motorcycles
motors
motorsport
motorsports
motorwa
motorway
motorwey
motorweys
motta
motte
motto
mou
mouchy
moulay
mound
mount
mountain
mountains
mountbatten
mounted
mountit
mourinho
mouse
mouth
move
moved
movement
movements
moves
movie
movies
movin
moving
movses
mowbray
moxos
moya
mozambique
mozart
mozhaysky
mp
mpg
mph
mps
mpv
mqi
mr
mrs
ms
msa
msn
msp
msps
mt
mter
mtland
mtskheta
mtv
mu
muammar
muban
mubarak
much
muchalls
muckle
mucklemaist
muckler
mucklest
mud
muddy
mueang
muerte
mufasa
muffat
mugabe
muggia
mughal
muhafazah
muhammad
muin
muins
muir
muirhead
muisic
muisical
muisically
muisician
muisicians
muisicker
muisickers
muive
muived
muivement
muivements
muives
muivin
muivit
mujer
mujeres
muju
mukacheve
mukachevo
mukkil
mukkilest
mule
mull
multi
multicultural
multilingual
multimedia
multinaitional
multinational
multiplayer
multiple
multitude
mumbai
mummy
mun
mund
mundell
mundo
mungo
munich
municipal
municipalidad
municipalite
municipalities
municipality
municipallaw
municipally
municipio
municipios
municipium
munro
munster
munt
muntain
muntainous
muntains
muntit
murad
mural
murals
murat
murcia
murcie
murder
murdered
murdoch
mures
murillo
murmansk
murom
murphy
murray
murrayfield
murther
murtherer
murtherers
murthers
murthert
murzuq
mus
musa
musardie
muscat
muscle
muscles
muse
museo
museum
museums
music
musica
musical
musicals
musician
musicians
musique
musker
muslim
muslims
mussolini
must
mustafa
mustafi
mustaine
mustang
mustard
mutations
mute
mutina
mutiny
mutton
mutua
mutual
mutually
muy
mv
mw
mwe
mx
my
myanmar
mycenaean
myeon
myers
mygrain
mykolaiv
mynd
myndit
mynt
myocardial
myrtle
myself
myskina
mysore
myspace
mysteries
mysterious
mystery
mystic
mystical
myth
mythology
mytishchi
n
na
nabatieh
nabeul
nabi
nablus
nacer
nach
nacional
nad
nada
nadal
nadia
nadie
nadu
nae
naebody
naething
nafplio
nag
naga
nagano
nagar
nagasaki
nagorno
nagoshi
nagoya
naha
nahariya
nahiya
nahiyah
nahuatl
nai
nails
nairae
nairn
nairobi
naither
naition
naitional
naitionalism
naitionalist
naitionalists
naitionalities
naitionality
naitionally
naitionals
naitions
naitionwide
naitur
naitural
naituralised
naituralist
naiturally
najaf
naka
nakano
naked
nakhchivan
nakhon
nakit
nala
nalbandian
nalut
nam
namba
name
named
namely
nameplate
names
namesake
namibie
namin
namit
namo
namp
namsan
namur
namwon
namyangju
nan
nancy
nane
nanetheless
nang
nanjing
nanning
nantes
naomi
napalm
napier
naples
napole
napoleon
napoleonic
napoli
nara
narada
naranjo
narciso
narcotics
nargis
narin
narita
narmashir
naro
narod
narrae
narraely
narrative
narrator
narrow
narrowly
narva
naryn
nas
nasa
nasal
nascar
naselij
nash
nashville
nasir
nasr
nassau
nasser
nat
natal
natalia
natalie
natasha
nate
nathalie
nathan
nation
national
nationale
nationalism
nationalist
nations
nationwide
native
natives
nativity
nato
natur
natural
naturalist
naturally
nature
nau
naucalpan
naur
naurby
naurhaun
naurhaund
nauru
nautical
navajo
naval
navarre
navarro
navas
nave
navidad
navigable
navigation
navigator
navy
naw
nawa
nawahi
nawal
naxalbari
nayarit
naypyidaw
nazareth
nazario
nazi
nazis
nazism
nba
nbc
nc
nchen
nchengladbach
nchez
ncia
ncipe
ncr
nd
nda
nde
nden
ndez
ne
nea
neal
neapolitan
near
nearbi
nearby
nearest
nearhaun
nearly
neath
neb
nebraska
nebula
neburg
nec
necessar
necessarily
necessary
neck
neckar
necklace
necropolis
ned
neebour
neebourheid
neebourheids
neebourin
neebours
neeburheid
need
needed
needin
needit
needle
needs
neep
neeps
neer
neffae
nefta
negative
negatively
negev
neglect
neglectit
neglinnaya
negotiate
negotiations
negotiatit
negra
negro
negros
nehemiah
neighbor
neighborhood
neighborhuid
neighborhuids
neighborin
neighboring
neighbors
neighbour
neighbourhood
neighbourhuids
neighbourin
neighbouring
neighbours
neil
neill
neilson
neist
neither
nejd
nek
nel
nelly
nelson
nelspruit
nemm
nemo
nemours
nen
nena
nenets
neo
neoclassical
neoclessical
neolithic
neon
neotibicen
nepal
nepalese
nepali
nephew
nepomuk
neptune
nerkin
nern
nero
nerva
nerve
nervous
nes
ness
nest
nestin
nestle
nestor
nests
net
netanya
netflix
nether
netherlands
nets
netwark
netwirk
netwirks
network
networkin
networks
neuburg
neucha
neue
neufville
neuilly
neuk
neuko
neuque
neuss
neustadt
neuter
neutral
neutrality
neutron
neutrons
neva
nevada
neve
never
nevers
neves
neville
nevis
nevs
nevsky
new
newark
newbury
newcastle
newcomer
newell
newer
newest
newfoundland
newham
newlins
newly
newman
newport
newry
news
newsletter
newspaper
newspapers
newton
newtoun
newtown
next
neymar
nez
nezahualco
nfl
ng
nga
nge
ngel
ngeles
ngo
nguema
nguez
nguye
nguyen
nh
nha
nhk
nhl
nhs
ni
nia
niall
nic
nica
nicaragua
nicaraguan
niccolo
nice
niche
nicholas
nicholson
nicht
nichtclub
nichtclubs
nichtlife
nichts
nichttime
nick
nickel
nickelodeon
nicki
nickname
nicknamed
nicknames
nicky
nico
nicol
nicola
nicolas
nicolaus
nicole
nicosia
nie
niece
niels
nielsen
niemeyer
nietzsche
nieves
nig
nigel
niger
nigerian
nigerie
night
nightmare
nightrage
nights
nightwish
nigra
nigsberg
nihon
niigata
nijmegen
nik
nikaia
nike
nikita
niklas
niko
nikola
nikolai
nikolaus
nikolay
nikolsk
nikolskaya
nikolskoye
nikolsky
nikopol
nikos
nile
nilsson
nimo
nin
nina
ninawa
nine
nineteen
nineteent
ninety
ning
ningbo
ningxia
ninh
ninian
ninja
nino
ninoy
nint
nintendo
ninth
nio
nippon
nirvana
nis
nisbet
nishapur
nishi
nishikori
nishinomiya
nishizawa
nissan
nit
nitero
nith
nithsdale
nitric
nitrogen
nits
niven
niver
nivertheless
nixon
nixt
niyazov
nizhny
nj
nk
nko
nl
nls
nm
nn
nne
nnrot
no
noa
noah
noailles
nobel
nobility
noble
nobleman
nobles
noblewoman
nobody
noche
nochixtla
nocht
nocturnal
node
nodes
noe
noel
nogales
noguera
nohur
noi
noir
noise
noisy
nokia
nolan
nom
noma
nomad
nomadic
nomads
nombre
nome
nomenclatur
nomenclature
nominal
nominally
nominated
nomination
nominations
nominatit
nominee
nominees
nompar
non
none
nong
nonhyeon
nonlinear
nonprofit
nonthaburi
noo
nooh
noon
noons
nopal
noppon
nor
nora
norashen
norawa
norbert
nord
nordegren
nordic
nordland
nordstro
norfolk
noriega
norlin
norlins
norm
norma
normal
normally
norman
normandie
normandy
normans
norms
norn
norrbotten
norrie
norrko
norrowegian
norrowey
norse
norsemen
norte
north
northampton
northamptonshire
northeast
northeasterly
northeastern
northeastren
norther
northern
northmaist
northren
northrenmaist
northrop
northumberland
northumbria
northumbrian
northumbrie
northward
northwast
northwastren
northwest
norton
norwalk
norway
norwegian
norwich
nos
nose
nossa
not
notable
notably
notation
note
noted
notes
notewirthy
noteworthy
nothin
nothing
notice
noticeable
noticed
noticit
notin
notion
notit
notoc
notorious
notre
notting
nottingham
nottinghamshire
nou
nouadays
nouakchott
noun
nouns
nourice
nouveau
nouvelle
nov
nova
novak
novara
novaya
novel
novelist
novelists
novella
novelle
novelles
novello
novels
november
novgorod
novi
noviembre
novo
novokuznetsk
novoselytsia
novosibirsk
novy
now
nowon
nowt
nr
nrhp
ns
nsa
nster
nsw
nt
ntara
nther
ntico
ntsa
nu
nuckelavee
nuclear
nuclei
nucleons
nucleus
nude
nuestra
nuestro
nueva
nueve
nuevo
nuin
nukus
number
numbered
numberin
numbers
numeral
numerals
numerical
numerics
numerous
nummer
nummered
nummerin
nummers
nun
nunavut
nunca
nuns
nuova
nur
nuremberg
nurme
nurmija
nurse
nursery
nussbaum
nutreetion
nutrients
nuts
nuweiba
nw
nwa
ny
nya
nyi
nymph
nytimes
nyuksenitsa
nyuksensky
o
oa
oak
oakham
oakland
oaks
oan
oara
oases
oasis
oath
oaxaca
oaxacan
ob
obama
obc
obd
obe
obey
obi
obiang
obispo
obituary
object
objective
objectives
objects
oblast
oblasts
obliteration
oblivion
obninsk
obolon
obrego
obscure
observance
observances
observation
observations
observatory
observe
observed
observer
observers
observes
observit
obshtina
obshtini
obsolete
obtain
obtained
obteened
obvious
obviously
oc
oca
ocampo
occasion
occasional
occasionally
occasions
occidental
occitan
occult
occupation
occupations
occupee
occupeed
occupeein
occupees
occupied
occupies
occupy
occupyin
occur
occurred
occurrence
occurrin
occurring
occurs
ocean
oceania
oceanic
oceanie
oceans
ocei
och
ocht
oclc
ocotepec
ocotla
oct
octane
octave
octavia
octavian
octavius
october
od
odd
odds
ode
odense
odeon
oder
odes
odessa
odin
odio
odoardo
odos
odose
odyssey
oe
oecd
oed
oeiras
oels
oeste
oettingen
of
off
offeecial
offeecially
offeecials
offeicial
offence
offences
offensive
offer
offered
offerin
offers
offert
office
officer
officers
offices
official
officially
officials
officiers
officinalis
offs
oficial
often
og
ogden
oghuz
ogilvy
oguz
oh
ohc
ohio
ohrid
ohv
oi
oil
ois
oise
oishi
ojinaga
ojo
ok
oka
okayama
okhotsk
okinawa
oklahoma
okrug
okrugs
oktyabrsky
ol
ola
olaf
olav
old
oldenburg
older
oldest
oldham
oldsmobile
ole
oleg
olevano
olga
oliphant
olivar
olive
oliveira
oliver
olives
olivia
olivier
olivos
ollie
olmec
olof
olomouc
olona
olonets
olsztyn
olya
olympia
olympiacos
olympiad
olympian
olympic
olympics
olympique
olympus
om
omaha
oman
omar
omega
omen
omer
omnibus
omnivorous
omri
omsk
on
onca
once
oncome
one
onega
ones
ongangin
onge
ongoin
ongoing
onie
online
only
ono
onore
ons
onset
ontae
ontaen
ontario
onto
onwairds
onward
onwards
onwart
ony
onyane
onybody
onymair
onything
onywey
onywhaur
oo
ooen
oor
oors
oostit
oot
ootbrak
ootbreak
ootby
ootcome
ootdoor
ooter
oothrou
ootlets
ootline
ootlyin
ootower
ootpost
ootput
ootset
ootside
ootskirts
ootspoken
ootstaundin
ootthrou
ootwi
op
opeenion
opel
open
openbsd
opened
openin
opening
openly
opens
openssh
opent
opera
operas
operate
operated
operates
operatic
operatin
operating
operation
operational
operations
operatit
operative
operator
operators
opeth
opinion
opium
opold
opole
opossum
oppenheimer
oppland
oppone
opponed
opponent
opponents
opportunities
opportunity
opposed
opposeetion
opposin
opposite
opposition
oprah
opt
optical
optics
option
optional
options
opuntia
opus
or
ora
oral
oran
orange
oranger
oranges
orator
orbit
orbital
orbiter
orbitin
orbits
orcadian
orchard
orchards
orchestra
orchestral
orchid
order
ordered
orderin
orders
ordinair
ordinance
ordinar
ordinary
ordnance
ordre
ordynka
ore
oreegin
oreeginal
oreeginally
oreeginate
oreeginates
oreeginatin
oreeginatit
oreegins
oregon
orenburg
ores
org
organ
organic
organisation
organisations
organise
organised
organisers
organises
organisin
organisit
organism
organisms
organization
organizational
organizations
organize
organized
organizit
organs
ori
orieginal
orient
oriental
orientale
orientation
oriente
oriented
orientit
origin
original
originally
originatit
origins
orinoco
orion
orkhon
orkney
orlando
orle
orleans
ornamental
ornaments
orne
ornithologist
oro
oromo
orontes
orozco
orphaned
orpheus
orr
orra
orsini
ortega
orthodox
orthodoxy
orthografie
orthography
ortiz
oruro
orwell
oryol
oryx
os
osa
osaka
osama
osan
osbourne
oscar
oscars
osce
osco
osh
oskar
oslo
osman
osmaniye
osnabru
oso
osona
osorio
ospreys
oss
ossetie
ossola
osta
ostrich
ostrobothnie
ostrogoths
ostrov
ostrovsky
osuna
oswald
ot
otago
other
others
otherwise
otho
otomi
otra
otro
ottawa
otter
otto
ottoman
ottomans
ou
ouagadougou
oud
oued
ouest
oujda
oul
ouled
oulu
our
ourense
ouro
out
outbreak
outdoor
outer
outline
output
outside
outstanding
outwith
ov
ova
oval
over
overall
overcame
overseas
overview
oviedo
owain
owen
owens
ower
oweraw
owercome
owerheid
owerins
owerlap
owerleukin
owerleuks
owernicht
owersaw
owerseas
owerseein
owerseen
owersees
owerset
owersettin
owerthraw
owerthrow
owerthrown
owerview
owerwhelmin
owerwhelmingly
own
owned
owner
owners
owre
owthor
ox
oxford
oxfordshire
oxidation
oxide
oxides
oxygen
oyabun
oye
oz
ozolotepec
ozzy
p
pa
pablo
pac
pace
paceefic
pacheco
pachuca
paci
pacific
pacifist
pack
package
packages
packagin
packard
packet
packs
pact
paddington
paddy
paderno
padise
padma
padre
padua
pae
paedophiles
pagan
paganism
page
pageant
pages
pagos
pahlavi
pai
paid
pailace
pailaces
pailin
pain
painch
paint
painted
painter
painters
paintin
painting
paintins
paintit
pair
paired
pairin
pairish
pairishes
pairk
pairkin
pairks
pairlament
pairlamentar
pairlamentary
pairlaments
pairliament
pairs
pairt
pairteecipants
pairteecipatin
pairteecular
pairteecularly
pairth
pairtial
pairtially
pairticipant
pairticipants
pairticipate
pairticipatin
pairticipation
pairticipatit
pairticle
pairticles
pairticular
pairticularly
pairtie
pairties
pairtisan
pairtisans
pairtit
pairtition
pairtly
pairtner
pairtnered
pairtners
pairtnership
pairtnerships
pairts
pairty
paisley
paith
pajero
pak
pakhtunkhwa
pakistan
pakistani
pakse
pal
pala
palace
palacio
palafox
palais
palatinate
palatine
palau
palazzo
pale
palencia
paleolithic
paleontology
palermo
palestina
palestine
palestinian
palestinians
pali
pallas
palm
palma
palmar
palmares
palmas
palmer
palmerston
palmilla
palmira
palms
palo
paloma
palomar
palos
palpatine
palustris
pam
pambak
pamela
pampa
pampanga
pamphlet
pamplona
pan
panaji
panama
panamanian
panchayat
panchayats
panchla
pancras
pancreatic
panda
pandemic
pando
panel
panels
paneve
pangasinan
panic
panjim
panorama
panoramic
panoramio
pantera
pantheon
panther
panthera
pantomime
pantone
paola
paoli
paolo
papa
papacy
papal
papaloapan
papaya
papayas
pape
paper
paperback
papers
papes
paphos
papua
par
para
parade
paradigm
paradis
paradise
paradiso
paraffin
paraguay
paraguayan
parai
paraje
parallel
parallels
paramilitar
paramount
parana
parasitic
paraskevi
parc
pardaillan
pardes
pardo
pardus
pare
parent
parentheses
parents
parfaite
pari
paribas
paris
parish
parishes
parity
park
parker
parkinson
parks
parkway
parliament
parliamentary
parliaments
parma
parody
parole
parque
parrot
parrott
parsons
part
parte
parteecular
parteecularly
parteicular
partement
partements
partenkirchen
parthian
partial
partially
participant
participants
participate
participated
participation
participatit
partick
particles
particular
particularly
particuliers
partido
partidos
parties
partille
partisans
partition
partly
partner
partners
partnership
partnerships
parton
parts
party
parvati
pas
pasadena
pasay
pascal
pascual
paseo
pasha
pashto
pasio
pasiones
paso
pasquel
pass
passage
passages
passed
passenger
passengers
passerine
passes
passin
passing
passion
passionate
passport
passt
past
pasteur
pastor
pastoral
pastry
pastur
pasturs
pat
pata
patagonie
patch
patches
patent
patents
paternal
paterson
path
pathet
pathom
paths
pathum
patient
patients
patos
patras
patria
patriairch
patriarch
patrice
patricia
patrick
patriot
patriotic
patriotism
patriots
patrol
patron
patronage
patroness
patrons
patsy
pattern
patterns
patterson
patty
pau
paul
paula
pauli
paulina
pauline
paulista
paulo
paum
paurents
pausanias
paved
pavel
pavement
pavia
pavilion
pavin
pavit
pavlodar
pavlovna
pavlovsky
pavogur
paw
paws
pay
paykan
payment
payne
pays
paz
pbs
pc
pcbs
pdc
pdf
pe
peabody
peace
peacefu
peaceful
peacefully
peach
peaches
peacock
peahoone
peak
peaked
peakin
peakit
peaks
peanuts
pearl
pearson
peasant
peasants
pease
peat
pec
pecado
pechersk
pechorsky
pechory
pecht
pechts
peck
peculiar
pedagogical
pedal
pedersen
pedestrian
pedestrians
pedraza
pedrito
pedro
pee
peebles
peel
peer
peerage
peers
pefki
pegasus
peggy
peipus
peir
peking
pekka
pele
pelican
pella
peloponnese
pembrokeshire
pen
pena
penal
penalties
penalty
penang
penede
penguin
penguins
penh
peningham
peninsula
peninsulae
peninsular
penis
penn
pennsylvania
pennsylvanie
penny
penpont
pension
pent
penteli
penter
penters
penthie
pentin
pentins
pentit
penultimate
penygraig
penza
people
peoples
pepe
pepper
peppers
pepsi
per
peralta
perceived
percent
percentage
perception
percussion
percussions
percy
pere
pereira
perennial
peres
perez
perfaisional
perfect
perfectly
perform
performance
performances
performed
performer
performers
performin
performing
performit
performs
performt
perfume
pergusa
perhaps
perimeter
period
periodic
periodicals
periods
peripheral
periphery
perished
perito
perkins
perm
permanent
permanently
permission
permit
permits
permittit
pernambuco
pero
perodua
perpetual
perro
perry
persecution
persecutit
persephone
perseus
persian
persians
persie
persies
persistent
persistit
person
persona
personal
personalities
personality
personally
personification
personnel
persons
perspective
perspectives
persuadit
pertainin
pertect
pertected
pertection
pertectit
perth
perthshire
peru
perugia
perugino
peruvian
pervomaysky
pescara
peshawar
pesos
pest
pet
petah
petals
petapa
pete
peter
peterborough
peterhead
peterheid
peters
petersburg
petersen
peterson
petit
petite
petition
petkovic
petra
petri
petro
petrochemical
petrol
petroleum
petrov
petrovsky
petrozavodsk
pets
petty
peugeot
pey
peyed
pez
pf
pfa
pg
ph
pha
phanie
phantom
pharaoh
pharmaceutical
pharmaceuticals
pharmacy
phase
phases
phd
phe
pheasant
pheesical
pheesically
pheesician
pheesicist
pheesicists
pheesics
pheesiologist
pheesiology
phelps
phenomena
phenomenon
phenoteep
phet
phetchabun
phil
philadelphia
philanthropist
philanthropists
philharmonic
philibert
philip
philipp
philippe
philippine
philippines
philippsthal
philips
phillip
phillips
philosopher
philosophers
philosophical
philosophie
philosophy
phine
phitsanulok
phli
phnom
pho
phobos
phoebe
phoenician
phoenicians
phoenicie
phoenix
phone
phoneme
phonemes
phones
phonetic
phonetics
phong
phonology
phosphate
photae
photo
photografie
photograph
photographed
photographer
photographers
photographs
photography
photon
photos
photosynthesis
php
phra
phrase
phrases
phraya
phu
phylogenetic
phylogeny
phylum
physeecian
physeecians
physical
physician
physicist
physicists
physics
physiological
physiology
pi
pia
piacenza
pianae
pianist
pianists
piano
piaui
piazza
pic
pica
picard
picardy
picasso
pichilemu
pick
picked
pickin
pickit
picks
pickup
picnic
pico
picter
pictish
picts
pictur
picture
pictured
pictures
picturesque
picturs
pie
piece
pieces
pied
piedmont
piedra
piedras
piel
piemont
pier
pierce
piero
pierre
piers
pies
pieter
pietro
pieve
pig
pigeon
pigs
pike
pila
pilar
pile
pilgrimage
pilgrims
pillar
pillars
pilot
pilots
pilton
pimentel
pin
pina
pinal
pinar
pine
pineapple
pines
ping
pingdingshan
pininfarina
pink
pinkie
pino
pinochet
pinos
pinotepa
pintado
pinte
pintle
pinto
pinyin
pio
pioneer
pioneered
pioneerin
pioneers
piotr
pious
pipe
pipeline
piper
pipes
pira
piracy
piraeus
piran
pirapora
pirate
pirates
pirkanmaa
pirkkala
pis
pisa
pisco
pistol
piston
pit
pitch
pitched
pits
pitt
pitten
pittin
pittsburgh
piu
pius
pivotal
pixar
pizarro
pizza
pl
pla
place
placed
placement
placename
placenames
placer
places
placin
placit
plague
plaid
plain
plainfield
plains
plan
planck
plane
planes
planet
planetarium
planetary
planets
planina
plankton
planman
planned
plannin
planning
plano
plans
plant
plantago
plantation
plantations
plantin
plantit
plants
plaque
plasencia
plasma
plastic
plastics
plata
plate
plateau
plateaus
plates
platform
platforms
plath
platinum
plato
platz
plaunt
plaunts
play
playa
playable
playaff
playback
played
player
players
playin
playing
playit
plays
playstation
playwricht
playwrichts
plaza
plazas
plc
pleasant
please
pleasence
pleasure
plebiscite
pleistocene
pleisur
plenty
plessis
pleven
pleyer
pleyers
pliny
pliocene
pliska
pliver
pljevlja
plo
plot
plotarea
plotdata
plots
plovdiv
ploy
plug
plum
plumage
plural
plurality
plurals
plus
plutarch
pluto
plymouth
pm
pneumonia
png
po
pob
pobeda
poblacio
poblacion
pocahontas
pochutla
pocket
pockets
pod
podgorica
podilskyi
podkraj
podlaski
podolsk
poe
poem
poems
poesy
poet
poetic
poetry
poets
poggio
pohang
pohjola
point
pointe
pointit
points
poison
poissy
poitiers
poitou
poix
pokal
poke
poker
pokr
pol
poland
polanski
polar
pole
poleetical
poleetically
poleetics
poleitical
poles
polga
poli
police
policies
policy
polignac
polis
polisario
polish
politburo
politeecal
politeecian
politeecians
political
politically
politician
politics
poljane
polje
polk
poll
polled
pollen
pollock
polls
pollution
polo
polonia
pols
poltava
poly
polyana
polymath
polymer
polynesie
polytechnic
polyxena
pombal
pomelo
pomeranie
pompadour
pompeius
pompey
ponce
pond
ponds
ponikve
pont
ponta
ponte
pontevedra
pontiac
pontifical
ponts
pontus
pontypool
pontypridd
pony
pool
poomjaeng
poond
poonds
poor
poorest
poorly
pop
pope
popeda
poppy
popular
popularity
popularly
populated
population
populations
populatit
populist
populous
por
porcelain
porfirio
pork
porsche
port
porta
portable
portal
portchester
porte
porter
portici
portico
portion
portions
portland
porto
portocarrero
portpaitrick
portpatrick
portrait
portraits
portray
portrayal
portrayed
portrayin
portrays
portree
ports
portsmouth
portugal
portuguesa
portuguese
porvenir
porvoo
pos
posad
posed
poseetion
poseetioned
poseetions
poseidon
position
positions
positive
positively
possess
possessed
possesses
possession
possessions
possibility
possible
possibly
post
postage
postal
postcode
postgraduate
posthumous
posthumously
postit
postponed
posts
pot
potamogeton
potassium
potato
potatoes
potemkin
potent
potential
potentially
potenza
potok
potomac
potosi
potrero
potro
pots
potsdam
potted
potter
pottery
potting
pouder
pouer
pouered
pouerfu
pouerful
pouers
poultry
pound
poupe
pour
poust
poutrie
poverty
pow
powell
power
powered
powerful
powers
powhatan
pownd
pownie
pownies
powys
poznan
pozo
pozzo
pp
ppd
ppen
ppingen
ppp
pps
pr
pra
practical
practically
practice
practiced
practices
practicit
practisit
pradaeng
pradesh
prado
prague
praia
prairie
praise
praised
praisent
prakan
praslin
prat
pratensis
prato
pravoslavie
prawet
pray
prayer
prayers
prc
pre
preacher
preceded
precedin
precedit
precinct
precincts
precious
precipitation
precise
precisely
precision
precursor
precursors
predation
predator
predators
predatory
predecessor
predecessors
predictit
predominant
predominantly
preeson
preesoner
preesoners
preevat
prefect
prefectur
prefectural
prefecture
prefectures
prefecturs
prefer
preference
preferred
prefers
prefix
prefixes
pregnancy
pregnant
prehistoric
prehistory
prejudice
prekmurje
preliminar
preliminary
premier
premiere
premiered
premieres
premiership
premio
premios
premises
premium
premolars
prent
prentice
prentin
prentit
preparation
preparations
preparatory
prepare
prepared
preparin
preposeetion
preposeetional
preposeetions
prequel
pres
presbyterian
presbyterians
presbytery
preschuil
presence
present
presentation
presented
presenter
presenters
presentin
presentit
presently
presents
preservation
preserve
preserved
preserves
preservin
preservit
preses
presidency
president
presidente
presidential
presidents
presidin
presidio
presidit
presidium
presley
press
pressed
pressin
pressur
pressure
prestige
prestigious
preston
prestwick
presumably
presumptive
pretender
pretenders
preto
pretoria
pretty
prevail
prevailed
prevailin
prevalence
prevalent
prevent
preventin
prevention
preventit
preview
previous
previously
prey
pri
price
priced
prices
prickly
pride
priest
priests
prieto
prima
primar
primarily
primary
primate
primates
primavera
prime
primeira
primer
primera
primero
primetime
primitive
primo
primordial
primorsk
primorsky
primrose
primula
prince
princely
princeps
princes
princess
princesse
princesses
princeton
principal
principales
principalities
principality
principally
principate
principle
principles
print
printed
printin
printing
printit
prints
prior
priority
priory
prism
prison
prisoner
prisoners
pristina
private
privately
privatisation
privilege
privileges
privolzhsky
privy
prix
prize
prizes
prizren
pro
probability
probable
probably
probe
problem
problems
procedures
proceed
proceedings
proceedins
proceedit
proceeds
process
processed
processes
processin
processing
procession
proclaimed
proclaimit
proclamation
prodigy
produce
produced
producer
producers
produces
producin
producing
producit
product
production
productions
productive
products
prof
profeesional
profeesionally
profession
professional
professionally
professionals
professor
profile
profiles
profit
profitable
profits
profoond
prog
progenitor
program
programme
programmer
programmes
programmin
programming
programs
progreso
progress
progressed
progression
progressive
progressively
prohibition
prohibitit
projeck
projecks
project
projected
projection
projectit
projects
proleefic
proletarsky
prolific
prologue
promenade
prometheus
prominence
prominent
prominently
promise
promised
promises
promisin
promo
promontory
promote
promoted
promotes
promotin
promotion
promotional
promotions
promotit
promptit
promptly
promuivin
pron
prone
pronoonce
pronoonced
pronooncit
pronounced
pronunced
pronunciation
pronunciations
proof
propaganda
propaled
propales
propelled
proper
properly
properties
property
prophecy
prophet
prophets
propone
proponed
proponit
proportion
proportional
proportions
proposal
proposals
proposed
proprietary
proscriptor
prose
prosecution
prosecutit
prosecutor
prospect
prospective
prospects
prosper
prospered
prosperity
prosperous
prostitute
protagonist
protagonists
protect
protected
protectin
protection
protectit
protective
protector
protectorate
protects
protein
proteins
protest
protestant
protestantism
protestants
protesters
protests
proto
protocol
protocols
proton
protons
prototype
prototypes
proud
proushie
proved
proveesion
proveesional
proveesions
proven
provenc
provence
proverbs
provide
provided
providence
providencia
provider
providers
provides
providin
providit
province
provinces
provincia
provincial
provision
provisional
provisions
provo
provoked
provost
provribs
prowess
proximity
proxy
pru
pruif
pruive
pruived
pruiven
pruivit
prunus
prussia
prussian
prut
ps
psa
psalms
psaums
pseudo
pseudonym
pskov
pskovsky
psl
psy
psychedelic
psychiatric
psychiatrist
psychiko
psychoanalyst
psychological
psychologie
psychologist
psychology
psychotria
pt
ptolemaic
ptolemy
pu
pub
puberty
publeeshed
public
publication
publications
publicity
publicly
publique
publish
published
publisher
publishers
publishes
publishin
publishing
publisht
publius
pubs
puckle
puddock
puebla
pueblo
puente
puerta
puerto
pugacheva
puig
puil
puils
puir
pula
pulitzer
pull
pulled
pullin
pulling
pulo
pulp
pulses
puma
pumbaa
pump
pumpin
pumpkin
punctuation
pund
punic
punish
punishment
punjab
punjabi
punk
puno
punta
pupils
puppet
puppets
puppy
pur
purcell
purchase
purchased
purchases
purchasin
pure
purely
purges
puri
purim
purity
purpie
purple
purpose
purposes
pursue
pursued
pursuit
push
pushed
pushin
pushion
pushionin
pushionous
pushkin
pushkinsky
put
putin
putla
putnam
puts
puttin
putumayo
puy
puzzle
pwi
px
pxhay
pyatnitskaya
pyeongchang
pyha
pyla
pyne
pynt
pyntin
pyntit
pynts
pyongannam
pyongyang
pyotr
pyramid
pyramids
pyre
pyrenees
pyrmont
python
pza
q
qa
qabala
qaeda
qajar
qamishli
qara
qardaha
qasim
qasimi
qasr
qassim
qatar
qazvin
qena
qi
qin
qing
qingdao
qinghai
qom
qu
qua
quadrant
quail
quairs
quairter
quairters
quaisten
quaistens
quakers
qualifee
qualification
qualified
qualifier
qualifiers
qualify
qualifyin
qualifying
qualities
quality
quang
quantitative
quantities
quantity
quantum
quarks
quarrel
quarries
quarry
quarter
quarterfeenal
quarterfeenals
quarterfinal
quarterfinals
quarterly
quarters
quartet
quartets
quartz
quasi
quat
quatre
quay
qudsaya
que
queanbeyan
quebec
quebrada
quechua
queen
queens
queensberry
queensferry
queensland
quentin
quere
quest
question
questioned
questions
quetzalcoatl
quetzaltenango
quez
quezon
qui
quibdo
quiche
quick
quickly
quiero
quiet
quill
quilliam
quilmes
quine
quinn
quinta
quintana
quintets
quiroga
quirze
quit
quite
quito
quneitra
quo
quorthon
quotation
quote
quoted
quotes
quotit
qur
quran
qusayr
quseir
quy
r
ra
raadt
rab
rabat
rabbi
rabbit
rabbits
rabies
rabin
rac
raccoon
raccoons
race
raced
racehorse
racer
races
rachel
racial
racin
racing
racism
racist
rack
racket
rad
rada
radar
rade
radial
radiation
radiator
radical
radicalism
radio
radioactive
radioactivity
radius
radomir
raduzhny
radwan
radziwiłł
rae
raf
rafael
rafaela
rafah
rafsanjan
rage
rags
ragusa
rahman
rahn
rai
raid
raiders
raidit
raids
raiganj
raiglar
raikku
rail
railings
railroad
railroads
rails
railwa
railway
railways
railwey
railweys
rain
rainbow
rainer
rainfall
rainfaw
rainforest
rainforests
raing
rainier
rains
rainy
raion
raions
raise
raised
raises
raisin
raisit
raison
raisons
raith
raither
raj
raja
rajasthan
rajshahi
raka
rake
rakitic
rale
raleigh
rallies
rally
ralph
ram
rama
ramallah
ramat
ramatayim
ramazzotti
ramfeeselt
rami
ramirez
ramkhamhaeng
ramla
rammstein
ramo
ramon
ramos
rampairt
rampant
ramsay
ramsey
ran
ranch
ranches
ranchin
rancho
rand
randolph
random
randy
rangamati
range
ranged
ranger
rangers
ranges
rangin
rangpur
ranieri
rank
ranked
rankin
ranking
rankings
rankins
rankit
ranks
ransom
ranta
ranuccio
ranunculaceae
ranunculales
ranunculus
raonic
raoul
rap
rape
raped
raphae
raphael
rapid
rapidly
rapids
rapla
rapper
rappers
raqqah
raquel
rard
rare
rarely
rarest
rarity
ras
raseborg
rashid
rashidun
rasmus
rasmussen
rasputin
rat
ratcliffe
rate
rated
rates
rathaus
rather
ratifee
ratification
ratin
rating
ratings
ratins
ratio
ration
rational
ratios
ratit
ratledge
rattlesnake
rau
rauch
raugrave
raul
rault
rauma
ravagit
raven
ravenna
ravne
raw
rawson
raxed
ray
raymond
rayon
rays
razavi
razit
rbara
rbig
rc
rca
rcahms
rd
rda
rde
rdenas
rdoba
re
rea
reach
reached
reaches
reachin
reaching
react
reaction
reactions
reactive
reactor
reactors
read
reader
readers
readily
readin
reading
readins
reads
ready
reagan
reak
reakin
reakit
real
reale
realised
realism
realistic
reality
realized
really
realm
realms
rear
reardon
reason
reasonable
reasons
rebadged
rebecca
rebel
rebelled
rebellion
rebellions
rebellious
rebels
rebiggin
rebiggit
rebirth
rebro
rebuilt
rebus
recalled
recaptured
recaws
receive
received
receives
receivin
receiving
receivit
recensement
recent
recently
recep
reception
recession
recife
recipe
recipes
recipient
recipients
reclaimed
reclaimit
recogneetion
recognisable
recognise
recognised
recognises
recognisit
recognition
recognize
recognized
recognizit
recommendation
recommendations
recommended
recommendit
reconciliation
reconnaissance
reconquista
reconstruction
reconstructit
recopa
record
recorded
recorder
recordin
recording
recordings
recordins
recordit
records
recort
recover
recovered
recovery
recreation
recreational
recruit
recruitit
recruitment
rect
rectangle
rectangular
rector
rectors
recurrin
recurring
red
redd
reddin
reddish
redesign
redesigned
redevelopment
rediscovered
rediscoving
reds
reduce
reduced
reduces
reducin
reducit
reduction
ree
reece
reed
reeds
reef
reefs
reel
reelectit
reenge
rees
reest
reestablished
reestit
ref
refer
referee
reference
referenced
references
referendum
referred
referrin
referring
refers
refert
refined
refineries
refinery
refinin
reflect
reflected
reflectin
reflection
reflections
reflectit
reflects
refoondit
reform
reforma
reformation
reformed
reformer
reformit
reforms
refrain
refuge
refugee
refugees
refuised
refurbished
refusal
refused
refuses
regain
regained
regaird
regairdin
regairdit
regairdless
regard
regarded
regardin
regarding
regardit
regards
regency
regeneration
regensburg
regent
regents
reggae
reggio
regia
regierungsbezirk
regime
regiment
regiments
regimes
regina
reginald
regio
region
regional
regionales
regionalliga
regions
regis
register
registered
registers
registrar
registration
registry
regnant
regolith
regular
regularly
regulation
regulations
regulatit
rehabilitation
rehearsal
rehovot
rei
reich
reichstag
reid
reiddish
reign
reigned
reignin
reigning
reigns
reilly
reims
reina
reinforced
reinforcit
reinhold
reinstatit
reintroduced
reissue
reissued
reitherman
reject
rejected
rejectin
rejectit
rejects
relapse
relate
related
relates
relatin
relating
relation
relations
relationship
relationships
relatit
relative
relatively
relatives
relativity
relay
release
released
releases
releasin
releasit
releegion
releegions
releegious
relegated
relegation
relegatit
relevant
reliability
reliable
relic
relics
relied
relief
relies
religion
religions
religious
relocate
relocation
relocatit
rely
remain
remainder
remained
remainin
remaining
remains
remairit
remak
remake
remarkable
remarkably
remarks
remastered
rembrandt
remedios
remeen
remeened
remeenin
remeens
remember
remembered
remembrance
reminiscent
remix
remixed
remixes
remnant
remnants
remote
removal
remove
removed
remuival
remuive
remuived
remuivin
remuivit
ren
renaissance
renal
rename
renamed
renamin
renamit
renato
renault
rendered
renderin
rendsburg
rene
renegade
renewable
renewal
renewed
renfe
renfrew
renfrewshire
rengo
rennes
rennie
reno
renouned
renovation
renovatit
renowned
rent
rental
reopened
reorganisation
reorganization
repair
repaired
repairs
repeat
repeated
repeatedly
repeatit
repeatitly
repens
repertoire
replace
replaced
replacement
replaces
replacin
replacing
replacit
replay
replica
replication
repone
report
reported
reportedly
reporter
reportin
reportit
reportitly
reports
represent
representation
representations
representative
representatives
represented
representin
representit
represents
repression
reprint
reprise
reprised
repro
reproduced
reproduction
reproductive
repsol
reptile
reptiles
repu
republic
republican
republicanism
republicans
republics
republika
repulsed
reputation
reputit
request
requested
requestit
requiem
require
required
requirement
requirements
requires
requirin
reroute
res
resairch
rescue
rescued
research
researcher
researchers
reseda
reseestance
resemblance
resemble
resembled
resembles
resemblin
resende
reservation
reserve
reserved
reserves
reservit
reservoir
reservoirs
resettled
reside
residence
residences
residency
resident
residenters
residential
residents
resides
residin
residit
residues
resign
resignation
resigned
resigns
resist
resistance
resistant
resistit
resistor
resolution
resolve
resoorce
resoorces
resort
resorts
resource
resources
respect
respectit
respective
respectively
respects
respiratory
respond
responded
respondit
responds
response
responses
responsibilities
responsibility
responsible
respublika
rest
restaurant
restaurants
restin
restless
restoration
restore
restored
restorin
restrictions
restrictit
rests
restyled
result
resultados
resulted
resultin
resultit
results
resume
resumed
resumit
resurrection
retail
retailer
retailers
retain
retained
retainin
retains
retalhuleu
retaliation
rete
reteerin
reteert
retire
retired
retirement
retiring
retirit
retiro
retour
retoured
retreat
retreatit
retribution
retrieve
retrieved
return
returned
returnin
returning
returns
returnt
reunification
reunion
reunitit
reuss
reuters
reutlingen
rev
reveal
revealed
revealin
reveals
reveesion
revelation
revenge
revenue
revenues
revered
reverend
reverse
reversed
reverted
revertit
review
reviewed
reviewer
reviews
revised
revision
revival
revive
revived
revivit
revolt
revoltit
revolts
revolution
revolutionar
revolutionaries
revolutionary
revolutions
revolver
revue
rewaird
reward
rex
rey
reyes
reykjavi
reynolds
rez
reza
rfc
rg
rga
rgb
rgen
rhapsody
rhea
rhead
rhein
rheinisch
rhetoric
rhine
rhineland
rhino
rhinoceros
rhins
rho
rhode
rhodes
rhodesie
rhondda
rhone
rhyme
rhymes
rhythm
rhythmic
rhythms
ri
ria
riaa
riadec
rialb
rib
ribagorc
ribas
ribbon
ribe
ribeira
ribeiro
ribera
ribes
ribnica
ric
rica
ricadi
rican
ricardo
ricaurte
rice
rich
richard
richards
richardson
richelieu
riches
richest
richie
richly
richmond
richt
richter
richtly
richts
rick
ricky
rico
rid
rida
riddarholmen
riddell
ridden
ride
rider
riders
rides
ridge
ridges
ridin
riding
ridley
rie
rieti
rif
riffa
riffs
rifle
rifles
rift
rig
riga
rigaud
rigg
right
rights
rigid
rigorous
rihanna
riihima
rijeka
rik
riksdag
riley
rim
rimini
rin
rinco
rinconada
ring
ringan
ringed
ringin
ringo
rings
rink
rinkeby
rinner
rinners
rinnin
rins
rio
rioja
rios
riot
riots
rip
ripe
ripoll
ris
risaralda
rise
risen
rises
rishon
risin
rising
risins
risk
rita
ritchie
rite
rito
ritual
rituals
ritus
rivadavia
rival
rivalries
rivalry
rivals
rivas
rivat
river
rivera
rivers
riverside
rivie
riviera
rivne
riyadh
rizal
rj
rjamaa
rk
rkmenbas
rko
rl
rm
rma
rmb
rmland
rms
rn
rna
rnu
ro
road
roadrunner
roads
roadster
roald
roam
roar
rob
robben
robbery
robbie
robert
roberta
roberto
roberts
robertson
robin
robinson
robles
robot
robson
robust
roc
roca
rocca
rocco
roces
roch
rocha
roche
rochechouart
rochefort
rochefoucauld
roches
rochester
rock
rockefeller
rocket
rockets
rocko
rocks
rockstar
rocky
rod
roda
roddick
rode
rodent
rodents
rodeo
rodney
rodolfo
rodovia
rodri
rodrigo
rodriguez
rods
roe
roemer
rogaland
roger
rogers
rohan
roi
rojas
rojo
roland
role
roles
rolex
rolf
roll
rolled
roller
rollin
rolling
rolls
rom
roma
romagna
romain
roman
romana
romance
romances
romanesque
romani
romania
romanian
romanie
romanies
romanised
romanisit
romanization
romanized
romanizit
romano
romanov
romans
romansh
romantic
romanticism
rome
romeo
romero
rommel
romulus
ron
ronald
ronaldo
ronan
rondo
ronnie
roo
roof
roofs
rookie
room
rooms
roond
roondit
roonds
rooney
roosevelt
rooster
root
rootes
roots
rope
roque
roquelaure
roraima
rorippa
rory
ros
rosa
rosaceae
rosales
rosali
rosalie
rosario
rosas
roscommon
rose
rosen
rosenberg
roses
rosh
roskilde
ross
rossi
roster
rostock
rostov
rostro
rotana
rotary
rotation
rotenburg
roth
rothes
rothesay
rothschild
rotten
rotterdam
rotting
roubaix
rouen
rouge
rough
roughly
roum
roumainie
roun
round
rounds
rourke
roushae
roushian
roushie
roushies
roushifee
roussillon
route
routes
routine
routledge
rouvas
rouvroy
rover
rovere
rovers
row
rowan
rowe
rowell
rowin
rowling
rows
rowth
roxburgh
roxburghe
roxburghshire
roy
royal
royale
royalty
royce
rpm
rquez
rr
rrez
rriais
rryda
rs
rsa
rsfsr
rshavn
rska
rsssf
rsssfbrasil
rst
rsta
rt
rtingen
rtir
rttemberg
ru
rubber
rubbers
rube
ruben
rubens
rubi
rubio
ruby
rudd
rude
rudolf
rudolph
rudolstadt
rudy
rue
rufino
rufus
rugby
ruggit
rugs
ruhr
rui
ruid
ruif
ruifs
ruim
ruin
ruined
ruins
ruint
ruit
ruitit
ruits
ruiz
rule
ruled
ruler
rulers
rules
rulin
ruling
rum
rumex
rumors
rumours
rump
run
rune
runner
runners
runnin
running
runs
runway
runwey
rupert
rural
rus
ruse
rusedski
rush
ruslan
russell
russia
russian
russo
rust
rusyn
ruta
ruth
ruthenian
ruthenie
rutherford
rutland
ruud
rv
rva
rve
rvenpa
rvi
rwanda
rwandan
ry
ryal
ryalist
ryalty
ryan
ryazan
rye
ryu
rz
rzburg
rður
rı
s
sa
saab
saale
saalfeld
saarbru
saare
saaremaa
saari
saarland
saatse
saavedra
saba
sabadell
sabah
sabana
sabaneta
sabbath
sabha
sabina
sabinas
sabine
sable
sabzevar
sac
sacaba
sacatepe
sack
sacked
sackit
sacramento
sacred
sacrifice
sacro
sad
sadat
saddam
saddle
sadness
sadovniki
sadr
sae
saengkham
saenz
saets
safaga
safari
safavi
safavid
safe
safed
safeguard
safety
safin
safina
safira
saft
saftware
saga
sagas
sage
sagua
saguenay
sahak
sahara
saharan
sahrawi
sai
saicont
saicret
said
saigon
sail
sailed
sailin
sailor
sailors
sails
saint
sainte
saints
saip
sair
sairch
saison
saisonal
saisons
saitama
sajik
saka
sakai
sakarya
sake
sakha
sakhalin
sakhalinsk
sakhnin
sakhon
sakis
saku
sal
sala
salad
saladin
salado
salads
salah
salamanca
salamina
salar
salaried
salaries
salas
salazar
sale
salekhard
salem
salerno
sales
salford
salim
salina
salinas
salisbury
salkhad
sall
sally
salm
salman
salmon
salmond
salo
salon
salonga
saloon
saloons
salsa
salt
salta
saltillo
saltire
salto
salvador
salvaje
salvatierra
salvation
salvator
salvatore
salvesen
salzburg
sam
sama
samantha
samara
samarkand
samarqand
samarra
same
sami
sammy
samoa
samokov
sampdoria
sample
samples
sampo
samsung
samuel
samurai
samut
san
sana
sanatorium
sanchar
sanchez
sancho
sancti
sanctioned
sanctions
sanctuar
sanctuary
sand
sandager
sanders
sandoval
sandra
sandro
sands
sandwich
sandy
sang
sanger
sangin
sangli
sangre
sangs
sangster
sangsters
sangwriter
sangwriters
sangwritin
sanitary
sanjak
sank
sankrail
sankt
sanomat
sanremo
sanskrit
sant
santa
santana
santander
santaolalla
santare
santi
santiago
santo
santos
santurce
sao
sap
saphan
sapodilla
sar
sara
saraburi
saracens
sarah
sarajevo
sarandi
saratov
sarawak
sardarapat
sardinian
sardinie
sargis
sark
sarkozy
sarmiento
sarraute
sarria
sars
sarthe
sarwar
sas
sasanian
sash
sasha
saskatchewan
saskatoon
sassanid
sassounian
sat
satan
satanic
satellite
satellites
sati
satirical
satisfee
sattlement
saturday
saturn
sau
sauce
saucrit
saud
saudi
saue
sauf
sauftie
saul
sauld
saumon
saund
saunders
saunds
saundstane
saundy
saunt
saunts
sausage
saut
sauts
sava
savage
savanna
savannah
save
saved
saves
savin
saving
savior
saviour
savit
savoie
savonie
savoy
savoyard
saw
sawan
sax
saxe
saxifraga
saxon
saxons
saxony
saxophone
saxt
saxteen
saxteent
saxty
say
sayd
sayed
sayin
saying
sayins
says
sayyaf
sazu
sbs
sc
sca
scale
scalemajor
scaleminor
scales
scan
scandal
scandals
scandinavian
scandinavie
scanie
scar
scarce
scarlet
scars
scattered
scaur
scene
scenery
scenes
scenic
scent
scg
schaerbeek
schalke
schaller
schame
schaumburg
schedule
scheduled
scheffler
scheldt
scheme
schemes
schiller
schiphol
schizophrenia
schlei
schleswig
schloss
schmidt
schneider
scho
scholar
scholarly
scholars
scholarship
scholart
scholarts
school
schoolhouse
schools
schooner
schro
schu
schuil
schuilin
schuils
schuilteachers
schule
schultz
schumacher
schuster
schwa
schwantes
schwartz
schwarzburg
schwarze
schwarzenberg
schwarzenegger
schwarzmann
schwerin
sci
science
sciences
scienteefic
scientific
scientist
scientists
scilab
sclave
sclavery
sclaves
sco
scone
scope
score
scored
scorer
scorers
scores
scorin
scoring
scorpion
scorpions
scorsese
scot
scota
scotch
scotia
scotlan
scotland
scotrail
scots
scotsman
scott
scottis
scottish
scout
scouts
scowth
scrapped
scream
screamin
screen
screenplay
screenplays
screens
screenwriter
screenwriters
screived
screiven
screiver
screivin
scribner
scrieve
scrieved
scrieven
scriever
scrievers
scrieves
scrievin
scrievins
scrievit
script
scripts
scroll
scrotum
scrub
scrum
scuba
scuil
scullard
sculls
sculptor
sculptors
sculptur
sculpture
sculptures
sculpturs
scum
sd
se
sea
seabird
seabirds
seafuid
seal
sealed
seals
sean
seanad
seaport
search
sears
seas
seaside
season
seasonal
seasons
seat
seater
seatin
seatit
seats
seattle
sebastia
sebastian
sec
seccio
secciones
secession
seco
secoint
second
secondary
secondly
seconds
secret
secretar
secretariat
secretaries
secretary
secretly
secrets
sect
sectarian
section
sections
sector
sectors
secular
secur
secure
secured
securin
securitie
security
sedan
sedans
see
seed
seeding
seedit
seeds
seegnal
seegnals
seein
seek
seekin
seeking
seeks
seelent
seem
seembol
seembolic
seembolise
seembolises
seembolisin
seembolism
seembolizes
seembols
seemed
seemetry
seemilar
seemit
seemptoms
seems
seen
sees
seestem
seestematic
seestems
seeven
sega
segment
segments
segni
segovia
segre
segunda
segundo
segura
seicond
seicont
seicontar
seicontary
seiconts
seigneur
seimilar
seina
seine
seismic
seiven
seivent
seiventeen
seiventeent
seiventy
seiveral
seize
seized
seizin
seizit
sejm
sejong
sel
sela
selangor
selassie
selby
select
selected
selection
selectit
selective
selene
seleucid
self
selim
seljuk
seljuq
selkirk
sell
sellafield
seller
sellers
sellin
selling
sells
sellt
selo
selseleh
selsovet
selsovets
selsoviet
selsoviets
selt
selva
sembat
semi
semiconductor
semifeenal
semifeenals
semifinal
semifinals
seminal
seminar
seminiferous
semitic
semme
semnan
semple
semply
sen
senate
senator
senatorial
senators
send
sendai
sendin
sends
senegal
senhora
senior
senna
sens
sensation
sense
sensei
senses
sensitive
sensitivity
sensory
sent
sentence
sentenced
sentences
sentencit
sentiment
sentinel
seo
seocho
seongdong
seongnam
seoul
sep
sepang
separate
separated
separately
separates
separatin
separation
separatist
separatit
sephardic
sept
september
septic
septuagint
sepulchre
sepultura
sequel
sequels
sequence
sequences
sequoia
ser
seraphim
serb
serbia
serbian
serbie
serbo
serbs
serena
serene
serge
sergei
sergey
sergi
sergio
sergipe
sergius
serial
serie
series
serious
seriously
sermon
serpent
serra
serrano
serravalle
serrin
serrt
sers
sert
serta
sertab
servand
servant
servants
serve
served
server
servers
serves
service
services
servin
serving
servit
sesame
sesniki
session
sessions
sesto
set
setback
seth
seto
seton
sets
setten
setter
settimo
settin
setting
settle
settled
settlement
settlements
settlers
settlin
setturday
setu
setup
seturday
seu
sevan
sevastopol
seven
sevent
seventh
several
severe
severed
severely
severin
severn
severny
severo
severus
sevilla
seville
sewage
sex
sexes
sexo
sextus
sexual
sexuality
sexually
seychelles
seymour
sez
sezen
sfax
sfondo
sforza
sfsr
sg
sh
sha
shaanxi
shadae
shade
shades
shadmehr
shadow
shadows
shady
shae
shaft
shah
shahar
shahba
shahr
shahrabad
shahumyan
shaidae
shairk
shairks
shairp
shake
shakespeare
shakespearean
shakhtar
shaki
shakira
shale
shall
shallae
shallow
shalom
shaman
shams
shan
shandong
shane
shanghai
shannon
shantou
shanxi
shao
shap
shape
shaped
shapes
shapin
shapit
shaps
sharapova
share
shared
shares
sharif
sharin
sharjah
shark
sharks
sharon
sharp
sharply
sharqiyah
shaun
shaw
shawed
shawin
shawn
shaws
shaykh
she
shed
sheena
sheep
sheer
sheet
sheets
shefa
sheffield
sheikh
shek
sheksna
sheksninsky
shelby
shelf
shell
shelley
shells
shelter
sheltered
shelters
shemesh
shenyang
shenzhen
shepard
shepherd
sheridan
sheriff
sheriffs
sherlock
sherman
shetland
shetlandic
shevchenko
shi
shia
shias
shiel
shield
shields
shift
shiftit
shifts
shijiazhuang
shilin
shilong
shimbun
shimizu
shimon
shin
shine
shining
shinjuku
shinkansen
shinto
shinty
ship
shipbiggin
shipman
shipped
shippin
shipping
shippit
ships
shipyard
shirak
shiraz
shire
shirley
shirra
shirt
shirts
shirvan
shizuoka
shkode
shmuel
sho
shock
shoe
shoes
shogi
shohreh
shoot
shootin
shooting
shop
shoppin
shopping
shops
shore
shoreline
shores
short
shortage
shortened
shorter
shortest
shortly
shorts
shot
shotgun
shots
shoubak
shoud
shouder
should
shoulder
show
showcase
showed
showin
showing
shown
showrunner
shows
shrek
shrewsbury
shrimp
shrine
shrines
shropshire
shrub
shrubs
shu
shuai
shuid
shuin
shuit
shuiter
shuitin
shuits
shumen
shusha
shut
shutoko
shutter
shuttle
shuya
shvedova
shy
shyampur
shymkent
si
sia
siam
siamese
sib
sibelius
siberian
siberie
sibling
siblings
siblins
sibylle
sic
sica
siccar
siccarity
sich
sicht
sichtins
sichts
sichuan
sicilia
sicilian
sicilies
sicily
sick
sickle
sickness
siclik
siclike
sicna
sico
sicweys
sid
side
sidelined
sidereal
sides
sidevalve
sidi
sidit
sidney
sidon
sidonia
sie
sieg
siege
siemens
siempre
siena
sierra
sieven
sig
sight
sights
sigismund
sigmaringen
sigmund
sign
signal
signals
signatur
signature
signed
signeeficance
signeeficant
signeeficantly
significance
significant
significantly
signifies
signify
signin
signs
sigtuna
sigurd
sikh
silacayoapam
sile
silence
silencio
silene
silent
silesian
silesie
silhouette
silicon
siliguri
silk
silla
siller
sillers
sillery
silva
silver
silves
silvia
silvio
sim
sima
simba
simbirsk
simca
sime
simeon
similar
similarities
similarity
similarly
simmer
simmers
simmons
simo
simon
simona
simone
simple
simpler
simplifee
simplified
simply
simpson
simpsons
sims
simulation
simulink
simultaneous
simultaneously
sin
sinai
sinaloa
sinan
sinatra
since
sinclair
sinder
sinderin
sindert
sindh
sindhi
sindrie
sindry
sing
singapore
singer
singers
singh
singil
singin
singing
single
singles
sings
singular
sinister
sinkin
sinks
sinn
sinner
sino
sinop
sins
sinsa
sint
sintesisestadistica
sintra
sinyavino
sio
sipoo
siquijor
sir
sire
sirian
sirie
sirjan
sirt
sirte
sisi
sisian
siskel
sistan
sistema
sister
sisters
sit
sita
sitapur
sitar
sitcom
sitcoms
site
sites
sith
sitio
sito
sitra
sits
sittin
situate
situated
situation
situations
situatit
sivas
six
sixteen
sixteenth
sixth
sixtus
sizable
size
sizeable
sized
sizes
sjo
sk
ska
skaith
skanderbeg
skare
skared
skares
skate
skater
skatin
skeels
skeitcher
skeitchers
skeitchin
skelet
skeletal
skeleton
skenderun
skene
sketch
sketches
ski
skier
skiers
skies
skiin
skill
skilled
skills
skin
skinner
skins
skip
skirt
sko
skopje
sku
skull
sky
skye
skyla
skyline
skyscraper
skyscrapers
skywalker
sl
sla
slab
slain
slake
slalom
slam
slams
slang
slate
slater
slaughter
slave
slavery
slaves
slavic
slavonic
slavs
slavyanka
slaw
slawly
slayer
sleat
sleep
sleepin
sleeping
sleeves
slender
slessor
slicht
slichtly
slide
slidin
sligo
slim
slip
slivko
sloboda
slogan
slope
slopes
slot
slovak
slovakie
slovaks
slovar
slovene
slovenes
slovenia
slovenian
slovenie
slovenskih
slow
slowed
slower
slowly
sludge
sm
sma
smaa
smairt
small
smaller
smallest
smallpox
smara
smart
smash
smaw
smawer
smawest
smawpox
smear
smell
smeltin
smetona
smiddy
smile
smith
smithy
smo
smoke
smokin
smolensk
smolyan
smooth
smuggled
smugglin
smuith
sn
snail
snake
snakes
snaw
snawfaw
snawy
snd
sniper
snoj
snooker
snow
snp
so
soap
soares
soberano
sobieska
sobieski
sobre
sobriquet
soc
soccer
soccernet
soccerway
sochi
socht
social
socialdemokratiska
socialism
socialist
socialists
socialite
socially
socie
sociedad
societie
societies
society
socio
socioeconomic
sociological
sociologie
sociologist
sociologists
sociology
socks
socrates
socratic
soda
sodger
sodgers
sodi
sodium
sofi
sofia
sofla
soft
software
sohag
sohc
soho
soi
soil
soils
soilwork
soissons
sokol
sokolniki
sokolsky
sol
sola
solano
solar
sold
soldier
soldiers
sole
soledad
solely
soli
solicitor
solid
solidaridad
solidarity
solihull
solingen
solit
solitar
solitary
solitude
solms
solo
soloist
solola
solomon
solos
solsone
solstice
soluble
solution
solutions
solve
solway
som
soma
somali
somalie
somaliland
some
someane
somebody
someone
somerled
somerset
somethin
something
sometime
sometimes
somewha
somewhat
somewhaur
somewhit
somm
somme
son
sonata
sonderburg
sondershausen
song
songkhla
songkhram
songpa
songs
songshan
songwriter
songwriters
sonia
sonic
sono
sonora
sons
sonse
sonsie
sony
soo
soon
soond
soondin
soondit
soonds
soondtrack
soondtracks
soorce
soorces
sooth
sootheast
sootheastren
sootherly
soothern
soothlins
soothmaist
soothren
soothrenmaist
soothwart
soothwast
soothwastren
sophia
sophie
sophisticatit
sopot
sopra
soprano
sopranos
sora
sorbian
sorbie
sorghum
soria
soriano
sorrow
sorry
sort
sortit
sorts
sorvali
sosa
sot
soto
sotomayor
sotto
sottunga
soubise
soucht
sought
souk
soul
souls
soum
soumin
soummer
soummers
soummin
sound
sounds
soundtrack
soup
sour
source
sources
sous
sousa
sousse
south
southampton
southeast
southeastern
southern
southren
southwark
southwest
souvenir
souza
sovereign
sovereignty
sovetskaya
sovetsky
soviet
soviets
sox
soy
sp
spa
space
spacecraft
spaceflicht
spaces
spacious
spaek
spaekers
spaghetti
spain
spaingie
spainish
spainyie
spairsely
spak
spake
spaken
spakken
span
spaniard
spaniards
spanish
spanned
spannin
spans
spare
spared
spark
sparked
sparks
sparrae
sparsely
sparta
spas
spassky
spatial
spawned
spd
speak
speaker
speakers
speakin
speaking
speaks
speal
spear
spears
speceefic
speceefically
special
specialised
specialises
specialisin
specialisit
specialist
specializes
specially
specials
specialty
species
specific
specifically
specification
specifications
specified
specify
specimen
specimens
spectacular
spectators
spectral
spectre
spectroscopy
spectrum
speculation
speculatit
speech
speeches
speed
speeder
speeders
speeds
speelin
speerit
speeritual
speicial
speir
speired
speirin
speirt
spell
spelled
spellin
spelling
spellins
spells
spellt
spelt
spencer
spend
spendin
spends
spent
sperm
spermatogenesis
speshies
speyer
spezia
sphere
spheres
spherical
spi
spice
spices
spider
spiel
spielberg
spiels
spies
spik
spike
spikkers
spin
spine
spinefarm
spinnin
spinoza
spiral
spire
spirit
spirits
spiritual
spiritus
spit
spitak
spite
spl
spleet
splendid
split
splits
splittin
splodes
sploration
splorer
splorers
splosion
spoke
spoken
spokesman
spokesperson
sponge
spongebob
sponsor
sponsored
sponsors
sponsorship
spooses
sport
sportin
sporting
sportivo
sports
sportsfowk
sportsman
spot
spots
spottit
spouse
spouses
spp
sprawl
sprawlin
spread
spreadin
spreading
spreads
spree
spreid
spremembe
spring
springburn
springer
springfield
springheid
springs
sprint
sprung
spur
spurs
spv
spy
sq
squad
squadron
squads
square
squarepants
squares
squash
squerr
squez
squire
squirrel
sr
srath
sri
srpska
ss
sse
sseldorf
ssp
ssr
st
sta
stability
stable
stables
stack
stad
stade
stadio
stadion
stadium
stadiums
stadt
staff
staffordshire
stage
staged
stages
stagin
stagnation
stained
stair
staircase
stairs
stairt
stairted
stairtin
stairtit
stairts
stake
stakes
stalin
stalingrad
stalinist
stalk
stalks
stamford
stamp
stamps
stan
stanbul
stance
stand
standard
standards
standin
standing
stands
stane
stanes
staneykirk
stanford
stanislas
stanisław
stanitsa
stanley
stanza
stap
staple
stappit
staps
star
stara
staraya
stare
stari
stark
starn
starned
starnin
starns
starr
starred
starrin
starring
starry
stars
start
started
startin
starting
startit
starts
stat
state
stated
stateestical
stateestics
statehood
statement
statements
staten
states
statesman
static
statin
station
stationed
stations
statistical
statistics
statit
statoids
stats
statue
statues
status
statute
statutes
statutory
staund
staundart
staundarts
staundin
staundins
staunds
staunin
stauns
stavanger
stavropol
stay
stayed
stayin
stays
ste
steadily
steading
steady
steal
steam
steamboat
steamer
steamship
sted
steel
steep
steeplechase
steer
steerin
steering
stefan
stefano
steffi
steid
steidit
steids
stein
steinberg
steiner
stella
stellar
stem
stems
sten
stendin
stendit
stends
stenkil
stent
stents
stenungsund
step
stepan
stepanakert
stephan
stephanie
stephen
stephens
stephenson
steppe
stepped
steppes
steps
stera
sterbotten
stereo
stergo
sterling
stern
sterna
sternorrland
sterreich
stertit
steve
steven
stevens
stevenson
stewart
stewartrie
stewartry
stewarts
stey
steyed
sti
stica
stick
sticks
sticky
still
stillborn
sting
stipulates
stir
stirlin
stirling
stirlingshire
stirlinshire
stjørdal
stmanland
sto
stock
stockholm
stockport
stocks
stockton
stoke
stol
stolen
stone
stoner
stones
stood
stop
stopped
stoppin
stoppit
stops
stora
storage
store
stored
stores
storey
storia
storie
stories
storm
storms
stornowa
storp
storuman
story
storyboard
stosur
stott
str
stra
strabo
strachan
strae
straicht
straight
strain
strained
strains
strait
straits
stramash
strand
strands
strang
strange
stranger
strangest
stranghauld
strangly
stranraer
stranrawer
strasbourg
strategic
strategically
strategy
stratford
strathclyde
strathearn
stratovarius
strauchle
straucht
strauss
straw
straße
streak
stream
streamin
streams
street
streetcar
streets
strelitz
strength
strengthen
strengthened
strenth
stress
stressed
stretch
stretched
stretches
stretchin
strick
strict
strictly
strid
strife
strike
striker
strikes
strikin
string
strings
strip
stripe
striped
stripes
stripped
strippit
strips
stritz
stro
stroessner
stroke
strokes
stromness
strong
stronger
strow
struan
struck
structur
structural
structure
structured
structures
structurs
struggle
struggled
struggles
strugglin
strumnis
strynd
stryndants
sts
stuart
stucco
stuck
studebaker
student
students
studie
studied
studies
studiet
studio
studios
studit
study
studyin
stuff
stuid
stunnin
stupid
stupino
sturdy
sturgeon
stuttgart
stv
style
styled
styles
stylin
styling
stylised
stylized
styrie
su
sua
suan
sub
subarctic
subaru
subatomic
subcompact
subcontinent
subdestrict
subdestricts
subdiveesion
subdiveesions
subdividit
subdivisions
subfaimilies
subfaimily
subfamily
subgenre
subgenres
subgroup
subiaco
subjeck
subject
subjectit
subjects
submachine
submarine
submarines
submit
submitted
submittit
suborder
subordinance
subordinate
subordination
subordinatit
subotica
subphylum
subprefectur
subprefecturs
subregion
subscription
subsequent
subsequently
subsidiar
subsidiaries
subsidiary
subsistence
subspecies
subspeshies
substance
substances
substantial
substantially
substantious
substitute
substitutes
substitutit
substring
subterranean
subtle
subtribe
subtropical
suburb
suburban
suburbs
subway
subwey
succar
succarcane
succars
succeed
succeeded
succeedin
succeeding
succeedit
succeeds
success
successes
successfu
successful
successfully
succession
successive
successor
successors
such
suchitepe
sucre
sud
sudamericana
sudan
sudanese
sudden
suddenly
suddent
sue
sued
suen
suetonius
suez
suffer
suffered
sufferin
suffers
sufficient
sufficiently
suffix
suffolk
suffrage
suffragette
sufi
sugar
suggest
suggestin
suggestion
suggestions
suggestit
suggests
suharto
sui
suicide
suicides
suin
suit
suitable
suite
suitit
suits
suji
sukhoi
sukhona
sukhothai
sukhumi
sul
sula
sulawesi
suleiman
sulfur
sulla
sullivan
sulmona
sulphur
sultan
sultanate
sultans
sulu
sulzbach
sum
sumatra
sumerian
sumiyoshi
summary
summer
summers
summit
summits
sums
sumy
sun
sund
sunda
sunday
sundays
sunderland
sundial
sunflouer
sung
sungri
sunk
sunlicht
sunni
sunny
sunrise
suns
sunset
sunshine
suo
super
superb
supercentenarian
supercopa
supercoppa
supercup
superga
superhero
superior
superiority
superliga
superman
supermercat
supermercats
supermini
supernaitural
supernatural
supersedit
superveesion
supervisin
supervising
supper
supplee
suppleed
supplees
supplement
supplementit
supplied
supplier
supplies
supply
supplyin
support
supported
supporter
supporters
supportin
supporting
supportit
supportive
supports
supposed
supposedly
suppress
suppressed
supremacy
supreme
sur
sura
surakarta
surat
surb
sure
surf
surface
surfaces
surfers
surfin
surge
surgeon
surgeons
surgery
surgical
suriname
surintendante
surname
surnames
surpassed
surpassin
surplus
surprise
surprised
surprisingly
surrender
surrendered
surrenders
surrey
surroond
surroondin
surroondins
surroondit
surroonds
surrounding
surroundit
surveillance
survey
surveys
survival
survive
survived
survives
survivin
surviving
survivit
survivor
survivors
sus
susa
susan
susana
suspect
suspectit
suspendit
suspension
suspicion
suspicious
sussex
sustainable
sustained
sutherland
sutton
suu
suv
suva
suvorov
suvs
suwayda
suwon
suzanne
suzdal
suzhou
suzuka
suzuki
sv
svalbard
svaneti
sven
svensson
sverdlovsk
sverdlovsky
sverker
svetlana
svetogorsk
svg
sw
swabian
swabie
swaddish
swaden
swades
swadish
swallae
swamp
swamps
swan
swans
swansea
sway
swaziland
sweden
swedish
sweet
sweeties
swept
swift
swimmer
swindon
swine
swing
swiss
swisserland
switch
switchblade
switched
switchin
swith
switzerland
sword
swords
sworn
swuird
swuirds
sy
syamzha
syamzhensky
syd
sydney
sykes
syktyvkar
syle
sylhet
syllable
syllables
sylveste
sylvester
sylvestris
sylvia
symbol
symbolic
symbols
syme
symmetry
symphonic
symphony
symposium
symptoms
syn
synagogue
synagogues
synchronized
syndicate
syndrome
syne
synonym
synonymous
syntax
synth
synthesis
synthesised
synthesizer
synthesizers
synthetic
syracuse
syria
syriac
syrian
syrie
system
systematic
systems
syunik
sz
szczecin
sze
szolnok
sønderborg
t
ta
taba
tabasco
table
tables
tablesfq
tablet
tablets
tabloid
tabriz
tabuk
tac
tacitus
tackle
tackled
tacoma
tactical
tactics
tadeusz
tae
taed
taedong
taekwondo
taen
taes
taewart
taf
taff
tafilah
taft
tag
tagalog
tagil
tagus
taha
tahrir
tahta
tai
taif
taiga
tail
tailed
tails
tain
tainan
taingealachd
taipa
taipei
tairget
taisho
tait
taiwan
taiwanese
taiyuan
taj
tajabad
tajik
tajikistan
tajiks
tajura
tak
takasaki
take
taken
takes
takin
taking
takken
takkin
taks
tal
taland
talas
talbot
talca
tale
talent
talents
tales
talian
taliban
talin
talk
talkin
talking
talks
tall
tallest
talleyrand
tallinn
tally
tam
tama
tamanrasset
tamara
tamaulipas
tamazula
tambacounda
tambie
tambon
tambov
tame
tamerlane
tamil
tammie
tampere
tan
tang
tanganyika
tangier
tango
tangshan
tanimachi
tank
tanker
tanks
tanner
tannin
tanta
tanto
tanzanie
tao
taoiseach
tap
tape
tapes
tapia
tapir
tappit
tar
tara
taranto
taraz
tarbert
tarff
target
targetit
targets
tarija
tarja
tarn
tarnogsky
tarnovo
taro
tarragona
tarsus
tartan
tartans
tartu
tartus
tas
tashkent
tashko
task
tasks
tasmania
tasmanie
taste
tat
tata
tataouine
tatar
tatars
tatarstan
tate
tatev
tatiana
tattie
tatties
tattoo
tattoos
tau
taucht
taught
tauld
taunus
taurage
tauris
taurus
tausug
tavastie
tavern
tavria
tavush
taw
tawest
tax
taxa
taxation
taxes
taxi
taxis
taxon
taxonomic
taxonomy
tay
taylor
tayyip
tba
tbilisi
tbol
tc
tchaikovsky
te
tea
teach
teacher
teachers
teaches
teachin
teaching
teachins
teachtai
team
teamed
teammate
teammates
teams
tear
tears
teatro
teau
teaux
teborg
tech
technical
technically
technique
techniques
techno
technological
technologie
technologies
technology
techt
tecnolo
tectonic
ted
teddy
tee
teeger
teemu
teen
teenage
teenager
teenagers
teens
teep
teepical
teepically
teeps
tees
teeth
teetle
teetled
teetles
teetular
tegucigalpa
tegui
teh
tehran
tehuantepec
tei
tekirdag
tel
telecom
telecommunication
telecommunications
telegraph
telemark
telemundo
telenovela
telenovelas
telephone
telescope
telet
teletubbies
televeesion
televisa
televised
television
telfair
telford
tell
tellier
tellin
telling
tells
telly
tels
telt
tem
temperament
temperate
temperatur
temperature
temperatures
temperaturs
temperley
templar
template
temple
temples
templeton
tempo
temporal
temporar
temporarily
temporary
temps
temptation
ten
tenango
tenant
tenants
tend
tendency
tender
tendit
tends
tenerife
tengri
tennant
tennessee
tennis
tenno
tenochtitlan
tenor
tenryu
tens
tense
tensei
tension
tensions
tent
tentative
tenth
tenure
teo
teodoro
teotitla
teposcolula
tequila
ter
teramo
tercera
terek
terence
teresa
teresita
term
terme
termed
terminal
terminals
terminator
termini
terminology
terminus
termites
terms
tern
terni
ternopil
terra
terrace
terraces
terrain
terrassa
terregles
terrestrial
terrible
terrier
territorial
territories
territory
terror
terrorism
terrorist
terrorists
terrorizer
terry
tertiary
teruel
tes
teschen
test
testament
testes
testicle
testicles
testicular
testimony
testin
testis
testit
testosterone
tests
tetovo
teuch
teuk
teutonic
texas
texcoco
text
textcolor
textdata
textile
textiles
texts
textur
tez
th
tha
thae
thai
thailand
thaim
thaimsels
thair
thairsels
thali
thames
than
thani
thank
thanks
thanksgivin
thanksgiving
thar
thare
thareaboot
tharebi
thareby
thareefter
tharefore
thasos
that
thatcham
thatched
thatcher
thaur
thay
the
theater
theaters
theatre
theatres
theatrical
thebe
theday
thee
theft
thegether
thegither
their
them
theme
themed
themes
themsels
themselves
then
theo
theodor
theodore
theogony
theologian
theologians
theological
theology
theorem
theoretical
theoretically
theories
theorist
theorists
theory
theotokos
thepchaiya
therapeutic
therapy
there
thereafter
thereefter
therefore
theresa
therese
theresia
thermal
thermodynamics
theropod
thes
thesaban
thesaury
these
thesis
thessaloniki
theta
they
thi
thick
thicke
thicker
thickness
thie
thief
thierry
thimphu
thin
thine
thing
things
think
thinker
thinkers
thinkin
thinking
thinks
thir
third
thirds
thirteen
thirteent
thirty
this
thisted
thistle
thit
tho
thocht
thochts
thole
thom
thomas
thompson
thomson
thon
thong
thoosan
thoosand
thoosands
thoosans
thor
thorax
thorburn
thorn
thorne
thornhill
thorns
thoroughly
thory
those
thou
thouars
thoucht
though
thought
thousand
thousands
thrace
thrang
thrash
thraw
thrawn
threap
threapit
threaps
threat
threaten
threatened
threats
threave
three
threit
threw
thrid
thrie
thrift
thrifts
thriller
thristle
thrive
thrivin
thro
throat
throne
thrones
throu
throuch
through
throughoot
throughout
throuoot
throw
throwin
thrown
thu
thumb
thumbnail
thunder
thunderball
thunderbird
thune
thung
thunner
thuringie
thurn
thursday
thus
thy
ti
tian
tianjin
tiara
tibbitt
tiber
tiberias
tiberius
tibet
tibetan
tica
ticht
ticino
ticket
tickets
tico
tid
tidal
tide
tides
tie
tiebreak
tiebreaker
tied
tiempo
tien
tiene
tienne
tier
tierra
tiers
ties
tift
tiger
tigers
tight
tigre
tigres
tigris
tijuana
tikva
til
tila
tile
tiles
till
tillon
tilt
tim
tima
timbaland
timber
timberlake
timbuktu
time
timeaxis
timed
timeline
times
timis
timmer
timo
timole
timon
timor
timothy
timur
timurid
tin
tina
tindouf
tinky
tint
tintin
tiny
tio
tion
tip
tipperary
tips
tirana
tiraspol
tire
tired
tires
tis
tishie
tishies
tiskarna
tissue
titan
titanic
titanium
titans
tither
titicaca
title
titled
titles
tito
titular
titus
titut
tivoli
tjo
tl
tlacolula
tlacotepec
tland
tlatelolco
tlaxcala
tlaxiaco
tlazolteotl
tlemcen
tnar
to
tobacco
tobago
tobias
tobruk
tocantins
tod
today
todd
todo
todos
tods
toei
together
togliatti
togo
toilet
toivonen
toki
tokmok
tokoname
tokugawa
tokyo
told
toledo
tolerance
tolima
tolkien
toll
tolmin
tolosa
tolstoy
toluca
tolyatti
tom
toma
tomas
tomaso
tomato
tomatoes
tomb
tombs
tome
tomkins
tommaso
tommy
tomorrow
tomsk
ton
tone
tones
tong
tonga
tongland
tongue
tongues
toni
tonight
tonnes
tons
tony
too
took
tool
toole
tools
toon
toornament
toornaments
top
topic
topics
topografie
topographic
topography
toponym
toponyms
toponymy
topped
toppin
toppit
tops
tor
tora
torah
toray
torbat
torch
tore
tori
torinese
torino
tormes
torn
tornado
tornadoes
torneo
toro
toronto
torpedo
torpoint
torque
torre
torreo
torres
torso
tort
tortoise
tortosa
tortuga
tortur
torture
torun
torvalds
tory
tosca
tosnensky
tot
total
totally
totals
totemsky
totma
toto
totora
tottenham
tottori
touch
touched
touches
touer
touers
tough
toulon
toulouse
toun
touns
tounship
tounships
tour
touraine
toured
tourer
tourin
touring
tourism
tourist
touristic
tourists
tournament
tournaments
tours
tout
tovar
tovuz
toward
towards
tower
towers
town
towns
townsend
township
toxic
toy
toyota
toys
tozeur
tr
tra
trabant
trace
traced
traces
tracit
track
trackin
trackleet
tracks
tract
traction
tractor
tractors
tracts
tracy
trade
tradeetion
tradeetional
tradeetionally
tradeetions
tradeitional
trademark
traders
trades
tradin
trading
tradit
tradition
traditional
traditionally
traditions
trafalgar
traffec
traffeck
traffic
trafford
tragedy
tragic
trail
trailed
trailer
trailing
trails
train
trained
trainer
trainin
training
trains
traison
trait
traits
traivel
traivelin
traivels
traivelt
trajan
trakai
tram
tramp
trampoline
trams
tramway
trang
tranquillity
trans
transactions
transatlantic
transcaucasian
transcaucasie
transcription
transeetion
transfer
transferred
transfers
transform
transformation
transformed
transformers
transformin
transformit
transgender
transit
transition
transitional
transjordan
translate
translated
translates
translation
translations
translatit
translator
translators
transleeteratit
translit
transliterated
transliteration
transliteratit
transmission
transmissions
transmitter
transmittit
transnational
transnistria
transnistrie
transparent
transport
transportation
transportin
transportit
transports
transvaal
transverse
transylvanie
trap
trapani
trapped
trauma
travel
traveled
travelers
travelin
travelled
traveller
travellers
travellin
travelling
travels
traversed
travis
tre
treason
treasur
treasure
treasures
treasury
treat
treateth
treaties
treatin
treatise
treatit
treatment
treaty
trebinje
treble
tred
tredin
tree
treed
trees
trefethen
treforest
trek
trelew
tremendous
trench
trend
trends
trent
trentino
trenton
tres
trevi
trevin
trevor
tri
trial
trials
triangle
triangular
trianon
triassic
tribal
tribe
tribes
tribunal
tribune
tributar
tributaries
tributars
tributary
tribute
trick
tricks
tricolor
tricolour
tried
trier
tries
trieste
trifolium
triggered
trillion
trilogy
trim
trinidad
trinity
trio
trios
trip
tripartite
triple
tripoli
tripolitanie
trips
tristan
triton
triumph
triumphal
triumvirate
triumvirs
triunfo
tro
trofeo
trois
troisdorf
troitsk
trojan
troke
trokin
troll
trollha
troms
tromsø
trondheim
troop
troops
tropea
trophies
trophy
tropic
tropical
tropics
troqueer
trotsky
trouble
troubled
troubles
troupe
troy
tru
truce
truck
trucks
true
truin
truips
truith
trujillo
truly
truman
trump
trumpet
trung
trunk
trust
trusty
truth
try
tryin
trying
trøndelag
ts
tsaghkadzor
tsar
tsavo
tsentralny
tsonga
tsu
tsunami
tsunamis
tt
ttan
tte
ttel
ttingen
ttir
tu
tuareg
tube
tuberculosis
tubes
tubules
tucker
tucson
tucuma
tudor
tuesday
tuik
tuil
tuils
tuin
tuith
tula
tulip
tulum
tuna
tunari
tunas
tunceli
tundra
tune
tuned
tunes
tung
tunheimr
tunis
tunisia
tunisian
tunisie
tunnel
tunnels
tuomas
tupi
tupolev
tur
tura
turbine
turbines
turbo
turbocharged
turbulent
turdus
turenne
turf
turin
turisas
turk
turkestan
turkey
turkic
turkis
turkish
turkmen
turkmenistan
turks
turku
turn
turnbull
turned
turner
turnin
turning
turnoot
turns
turnt
turtle
turtles
turunen
tuscan
tuscany
tuttle
tuusula
tuvalu
tuxtepec
tuxtla
tuzla
tv
tvb
tver
tverskaya
tverskoy
tvo
twa
twae
twain
twal
twaler
twalt
tweed
tweeddale
twelfth
twelve
twentiet
twentieth
twenty
twice
twilight
twin
twinned
twinnin
twinning
twinnins
twins
twintie
twintiet
twinty
twist
twisted
twitter
two
ty
tyin
tyler
tym
tyme
tyne
tyneside
tynwald
type
types
typhoon
typical
typically
tyr
tyrannosaurus
tyrant
tyre
tyrol
tyrone
tyrrhenian
tysday
tyumen
tz
u
ua
uae
uber
uc
uccle
uci
ucla
ud
udal
ude
udi
udine
udo
ue
uefa
uel
ufa
ufo
uganda
ugly
ugric
ui
uig
uijeongbu
uis
uisage
uise
uised
uisefu
uiseful
uiser
uisers
uises
uisin
uising
uiss
uissage
uisses
uissfu
uist
uisual
uisually
uk
ukmerge
ukraine
ukrainian
ukrainians
ukurova
ul
ulaanbaatar
ulan
ulla
ulm
ulrich
ulrika
ulrike
ulsan
ulste
ulster
ultimate
ultimately
ultimatum
ultra
ultraviolet
uluberia
ulyanovsk
ulysses
um
uma
umadija
umar
umay
umayyad
umayyads
umberto
umbrella
umbrian
umbrie
umeda
umm
umwhile
umwhyl
un
una
unable
unabridged
unaizah
unalike
unam
unbeaten
unbroken
uncertain
uncertaint
uncertainty
unchynged
unchyngit
uncle
unclear
unco
uncommon
unconscious
unconventional
uncovered
und
under
underground
understand
understanding
underwater
undiscovered
undisputit
undp
une
unearthed
unemployment
unesco
unfeenished
unfinished
unfortunate
unfortunately
ungulates
unhappy
unia
unicef
unicode
unicorn
unidad
unifee
unifeed
unification
unified
uniform
uniforms
unilingually
unincorporatit
uninhabitit
unio
union
unionist
unionists
unions
unique
uniquely
unit
unitar
unitary
unite
united
unites
unitin
unitit
units
unity
univ
universal
universally
universe
universidad
universidade
universita
universite
universities
university
univision
unix
unkent
unknown
unleash
unless
unlik
unlike
unlikely
unlimited
unmairit
unnamed
unner
unnergane
unnergo
unnergrund
unnerlyin
unnerneath
unnerstaund
unnerstaundin
unnerstuid
unnertaken
unnerteuk
unnerwarld
unnerwatter
unnerwent
uno
unoffeecial
unofficial
unpavit
unplugged
unpopular
unprecedentit
unrecognised
unrelatit
unreleased
unrest
unsaturatit
unseedit
unstable
unsuccessfu
unsuccessful
unter
unthirldom
unthirlt
unthrildom
until
unuised
unuisual
unuisually
unusual
unveiled
unwin
up
upazila
upcomin
upcoming
update
updated
updates
updatit
upgrade
upgrades
upgradit
uphaud
uphaudin
uphaudit
upland
uplands
upmak
upo
upon
upper
uppingham
uppsala
upricht
upright
uprisin
uprising
uprisins
ups
upscale
upset
upstream
ur
ural
urals
uranium
uranus
urartian
urbain
urban
urbana
urbanisation
urbanisit
urbanization
urbanized
urbino
urdaneta
urdu
ure
urfa
urge
urgell
uri
uribe
urine
url
urmia
urr
uruguay
uruguayan
urumita
us
usa
usage
usd
use
used
uses
usher
usin
using
usit
uss
ussr
ussuriysk
ust
ustyug
usual
usually
ut
utah
utc
uthai
uthman
utilities
utility
utilize
utilized
utopia
utrecht
utsunomiya
uttar
uul
uusimaa
uv
uxoris
uyezd
uyezds
uyghur
uz
uzbek
uzbekistan
uzbeks
uze
uzhhorod
uzi
v
va
vacancy
vacant
vacas
vacation
vaccine
vacuum
vader
vaga
vagina
vaginal
vague
vaige
vaiges
vailyie
vain
val
valais
valcuvia
valde
valdemar
valdivia
vale
valence
valencia
valencian
valencie
valenti
valentia
valentina
valentine
valentino
valentinois
valenzuela
valera
valeria
valerie
valeriya
valga
valid
validated
vall
valladolid
valle
vallecas
valles
[...]
