!
"
#
##0
##1
##10
##11
##12
##13
##14
##15
##16
##17
##18
##19
##2
##20
##21
##22
##23
##24
##25
##26
##27
##28
##29
##3
##30
##31
##32
##33
##34
##35
##36
##37
##38
##39
##4
##40
##41
##42
##43
##44
##45
##46
##47
##48
##49
##5
##50
##51
##52
##53
##54
##55
##56
##57
##58
##59
##6
##60
##61
##62
##63
##64
##65
##66
##67
##68
##69
##7
##70
##71
##72
##73
##74
##75
##76
##77
##78
##79
##8
##80
##81
##82
##83
##84
##85
##86
##87
##88
##89
##9
##90
##91
##92
##93
##94
##95
##96
##97
##98
##99
$
%
&
'
(
)
*
+
,
-
.
/
0
00
000
0001
0003
0004
001
002
003
004
005
006
007
008
009
00996
01
010
011
012
013
014
0140
015
016
017
018
019
02
020
021
022
023
024
025
026
027
028
029
03
030
0305
031
032
033
034
035
036
0362
037
038
039
04
040
042
043
044
045
046
0460
047
048
0486
049
05
050
051
053
054
055
058
06
060
061
062
063
064
065
066
067
068
069
07
070
071
072
073
076
077
078
079
08
080
081
082
083
084
085
086
087
088
089
09
090
091
092
094
095
096
097
098
099
1
10
100
1000
1001
1002
1005
1006
1007
101
1012
1014
1015
1016
1017
102
1021
1024
1029
103
1035
1038
1039
104
1040
1046
105
1050
1051
1057
1058
106
1063
1066
107
1070
1071
1073
108
1080
1086
1088
109
1093
1095
1097
1098
1099
11
110
1100
1101
1103
1106
1107
1108
111
1111
1117
112
1120
1124
1125
1126
113
1130
1136
1139
114
1146
115
1150
1153
1154
116
1160
1165
117
1170
1172
1178
118
1186
1187
1189
119
1191
1194
1197
1198
1199
12
120
1200
1204
1207
121
1210
1214
1215
1216
1219
122
1224
1225
1227
123
1230
1235
1237
124
1240
1241
1242
1249
125
1250
1251
126
1260
1266
1268
127
1270
1271
1274
128
1283
1284
1285
1286
129
1290
1291
1292
1294
1295
1296
1297
1298
13
130
1300
1301
1302
1305
1306
1307
1308
1309
131
1314
1316
1318
132
1320
1326
1327
1328
1329
133
1330
1332
1333
1336
134
1340
1341
1346
135
1350
1353
1357
136
1365
1367
1368
137
1370
1371
1375
1378
138
1380
1385
1389
139
1390
1392
14
140
1400
1402
1404
1405
141
1411
1413
1415
142
1420
1421
1422
1424
1425
1429
143
1430
1431
1435
1437
144
1440
1444
1445
1447
145
1450
1451
1452
1453
1455
1458
146
1460
1463
1466
1468
1469
147
1470
1471
1472
1473
1475
1476
1477
1478
1479
148
1480
1481
1482
1483
1484
1485
1486
1488
1489
149
1490
1491
1492
1493
1494
1495
1496
1497
1498
1499
15
150
1500
1501
1502
1503
1504
1505
1506
1508
1509
151
1510
1511
1512
1513
1514
1515
1516
1517
1519
152
1520
1521
1522
1523
1524
1525
1526
1527
1528
1529
153
1530
1531
1532
1533
1534
1535
1536
1537
1538
1539
154
1540
1541
1542
1543
1544
1545
1546
1547
1548
1549
155
1550
1551
1552
1553
1554
1555
1556
1557
1558
1559
156
1560
1561
1562
1563
1564
1565
1566
1567
1568
1569
157
1570
1571
1572
1573
1574
1575
1576
1577
1578
1579
158
1580
1581
1582
1583
1584
1585
1586
1587
1588
1589
159
1590
1591
1592
1593
1594
1595
1596
1597
1598
1599
16
160
1600
1601
1602
1603
1604
1605
1606
1607
1608
1609
161
1610
1611
1612
1613
1614
1615
1616
1617
1618
1619
162
1620
1621
1622
1623
1624
1625
1626
1627
1628
1629
163
1630
1631
1632
1633
1634
1635
1636
1637
1638
1639
164
1640
1641
1642
1643
1644
1645
1646
1647
1648
1649
165
1650
1651
1652
1653
1654
1655
1656
1657
1658
1659
166
1660
1661
1662
1663
1664
1665
1666
1667
1668
1669
167
1670
1671
1672
1673
1674
1675
1676
1677
1678
1679
168
1680
1681
1682
1683
1684
1685
1686
1687
1688
1689
169
1690
1691
1692
1693
1694
1695
1696
1697
1698
1699
17
170
1700
1701
1702
1703
1704
1705
1706
1707
1708
1709
171
1710
1711
1712
1713
1714
1715
1716
1717
1718
1719
172
1720
1721
1722
1723
1724
1725
1726
1727
1728
1729
173
1730
1731
1732
1733
1734
1735
1736
1737
1738
1739
174
1740
1741
1742
1743
1744
1745
1746
1747
1748
1749
175
1750
1751
1752
1753
1754
1755
1756
1757
1758
1759
176
1760
1761
1762
1763
1764
1765
1766
1767
1768
1769
177
1770
1771
1772
1773
1774
1775
1776
1777
1778
1779
178
1780
1781
1782
1783
1784
1785
1786
1787
1788
1789
179
1790
1791
1792
1793
1794
1795
1796
1797
1798
1799
18
180
1800
1801
1802
1803
1804
1805
1806
1807
1808
1809
181
1810
1811
1812
1813
1814
1815
1816
1817
1818
1819
182
1820
1821
1822
1823
1824
1825
1826
1827
1828
1829
183
1830
1831
1832
1833
1834
1835
1836
1837
1838
1839
184
1840
1841
1842
1843
1844
1845
1846
1847
1848
1849
185
1850
1851
1852
1853
1854
1855
1856
1857
1858
1859
186
1860
1861
1862
1863
1864
1865
1866
1867
1868
1869
187
1870
1871
1872
1873
1874
1875
1876
1877
1878
1879
188
1880
1881
1882
1883
1884
1885
1886
1887
1888
1889
189
1890
1891
1892
1893
1894
1895
1896
1897
1898
1899
19
190
1900
1901
1902
1903
1904
1905
1906
1907
1908
1909
191
1910
1911
1912
1913
1914
1915
1916
1917
1918
1919
192
1920
1921
1922
1923
1924
1925
1926
1927
1928
1929
193
1930
1931
1932
1933
1934
1935
1936
1937
1938
1939
194
1940
1941
1942
1943
1944
1945
1946
1947
1948
1949
195
1950
1951
1952
1953
1954
1955
1956
1957
1958
1959
196
1960
1961
1962
1963
1964
1965
1966
1967
1968
1969
197
1970
1971
1972
1973
1974
1975
1976
1977
1978
1979
198
1980
1981
1982
1983
1984
1985
1986
1987
1988
1989
199
1990
1991
1992
1993
1994
1995
1996
1997
1998
1999
2
20
200
2000
2001
2002
2003
2004
2005
2006
2007
2008
2009
201
2010
2011
2012
2013
2014
2015
2016
2017
2018
2019
202
2020
2021
2022
2025
203
204
205
2050
206
207
208
209
21
210
211
2112
212
213
214
215
216
217
218
219
22
220
2200
221
222
223
224
225
226
227
228
229
23
230
2305
2307
231
232
233
234
235
236
237
238
239
24
240
241
242
243
244
245
246
247
248
249
25
250
2500
251
252
253
254
25483
25486
255
256
257
258
259
26
260
261
262
263
264
265
266
267
268
269
27
270
271
272
273
274
275
276
277
278
279
28
280
2809
281
282
283
284
285
286
287
288
289
29
290
291
2916
292
293
294
295
296
2969
297
298
299
3
30
300
3000
301
302
303
304
305
306
307
308
309
31
310
311
312
313
314
315
316
3166
317
318
319
32
320
321
322
323
324
325
326
327
328
329
33
330
331
332
333
334
335
336
337
338
339
34
340
341
342
343
344
345
346
347
348
349
35
350
3500
351
352
353
354
355
356
357
358
359
36
360
361
362
363
364
365
366
367
368
369
37
370
371
372
373
374
375
376
377
378
379
38
380
381
382
383
384
385
386
387
388
389
39
390
391
392
393
394
395
396
397
398
399
4
40
400
4000
401
402
4020
403
404
405
406
407
408
409
41
410
411
412
413
414
415
416
417
418
419
42
420
421
422
423
424
425
426
427
428
429
43
430
4309
431
432
433
4331
434
435
436
437
438
439
44
440
441
442
443
444
445
446
447
448
449
45
450
451
452
453
454
455
456
457
458
459
46
460
461
462
463
464
465
466
467
468
469
47
470
471
472
473
474
475
476
4765
477
478
479
48
480
481
482
483
484
485
486
487
488
489
49
490
491
492
493
494
495
496
497
498
499
5
50
500
5000
50000
501
502
503
504
505
506
507
508
509
51
510
511
512
513
514
515
516
517
518
519
52
520
521
522
523
524
525
526
527
528
529
53
530
531
532
533
534
535
536
537
538
539
54
540
541
542
543
544
545
546
547
548
549
55
550
551
552
553
554
555
556
557
558
559
56
560
561
562
563
564
565
566
567
568
569
57
570
571
572
573
574
575
576
577
578
579
58
580
581
582
583
584
585
586
587
588
589
59
590
591
592
593
594
595
596
597
598
599
6
60
600
6000
601
602
603
604
605
606
607
608
609
61
610
611
612
613
614
615
616
617
618
619
62
620
621
622
62265494
623
624
625
626
627
628
629
63
630
631
632
633
634
635
636
6361
637
638
639
64
640
641
642
643
644
645
646
647
648
649
65
650
651
652
653
654
655
656
657
658
659
66
660
661
662
663
664
665
666
667
668
669
67
670
671
672
673
6736
674
675
676
677
678
679
68
680
681
682
683
684
685
686
687
688
689
69
690
691
692
693
694
695
696
697
698
699
7
70
700
7000
701
702
703
704
705
706
707
708
709
71
710
7107
711
712
713
714
715
716
7167
717
718
719
72
720
721
722
723
724
725
726
727
728
729
73
730
731
732
733
734
735
736
737
738
739
7399
74
740
741
742
743
744
745
746
747
748
7486
749
75
750
751
752
753
754
755
756
757
759
76
760
761
762
763
764
765
766
767
768
769
77
770
771
772
773
774
775
776
777
778
779
78
780
781
782
783
784
785
786
7864
787
788
789
79
790
791
792
793
794
795
796
797
798
799
8
80
800
8000
801
8018
802
803
804
805
806
807
808
809
81
810
811
812
813
814
815
816
817
818
819
82
820
821
822
8221
823
824
825
826
827
828
829
83
830
831
832
833
8339
834
835
836
837
838
839
84
840
841
84195
842
843
844
845
84596
846
847
848
849
8493
85
850
851
852
85260
853
854
855
856
857
858
859
86
860
861
862
863
865
866
867
868
869
87
870
870978
871
87135
872
873
874
875
876
877
878
879
88
880
881
882
88221
883
884
885
8859
886
887
888
889
89
890
891
892
893
894
895
896
897
898
899
9
90
900
901
901824
902
903
904
905
906
907
908
909
91
910
911
912
913
914
915
917
918
919
92
920
921
922
923
924
925
926
927
928
929
93
930
931
932
933
934
935
936
937
938
939
94
940
941
942
943
944
945
946
947
948
95
950
951
952
953
954
955
956
957
958
959
96
960
961
962
963
964
965
966
967
968
969
97
970
971
972
973
974
975
976
977
978
979
98
980
981
982
983
984
985
986
987
988
989
99
990
991
992
993
994
9949
995
996
997
998
999
:
;
<
=
>
?
@
[
\
]
^
_
`
a
aa
aachen
aalborg
aan
aargau
aarhus
aaron
aathegither
aaways
ab
aba
ababa
abad
abadan
abandoned
abandont
abasolo
abba
abbas
abbasid
abbasids
abbe
abbess
abbey
abbot
abbott
abbottabad
abbreviated
abbreviation
abbreviations
abbreviatit
abburu
abc
abd
abdallah
abdel
abdic
abdicate
abdication
abdicatit
abdomen
abdu
abdul
abdulaziz
abdulfattah
abdullah
abe
abeelity
abel
abeno
aberdeen
aberdeenshire
abernethy
aberystwyth
abgerufen
abi
abigail
abilities
ability
abingdon
abja
abkhaz
abkhazia
abkhazie
able
ablo
ablow
abode
abolished
abolishin
abolishing
abolisht
abolition
aboot
aboriginal
abortion
about
above
abovyan
abprs
abra
abraham
abril
abroad
abrogating
abruzzo
abs
absence
absent
absolute
absolutely
absorbed
absorbit
absorption
abstract
absu
abu
abuin
abuja
abundance
abundant
abuse
aby
ac
acacia
acade
academia
academic
academical
academics
academies
academy
acame
acapulco
acasaguastla
acatla
acause
accelerate
acceleration
acceleratit
accent
accents
accept
acceptable
acceptance
accepted
acceptit
accepts
access
accessdate
accessed
accessible
accession
accessories
accident
accidental
accidentally
accidents
acclaim
acclaimed
acclaimit
accolades
accommodate
accommodation
accompanied
accompaniet
accompanyin
accomplished
accomplishments
accoont
accoontin
accoontit
accoonts
accord
accordance
accordin
according
accordinly
accordion
accords
account
accounts
accra
accuised
accuracy
accurate
accurately
accusations
accused
ace
aceca
acer
achaemenid
achieve
achieved
achievement
achievements
achieves
achievin
achievit
acid
acids
acinonyx
acknowledged
acks
acome
acomin
acosta
acoustic
acquire
acquired
acquires
acquirin
acquisition
acre
acres
acronym
across
act
acta
acted
acteeve
acteevities
acteevity
actin
acting
action
actions
actit
active
actively
activism
activist
activists
activities
activity
actor
actors
actress
actresses
acts
actual
actually
actueel
acun
acute
ad
ada
adae
adair
adalbert
adam
adams
adamson
adana
adapt
adaptation
adaptations
adapted
adaptit
add
added
addeetion
addeetional
addeetionally
addin
adding
addis
addit
addition
additional
additionally
additions
address
addressed
addresses
adds
ade
adelaide
adele
adelheid
aden
adequate
adherence
adherents
adi
adidas
adige
adj
adjacent
adjective
adjectives
adjoinin
adjustit
adler
adlington
admeenister
admeenistered
admeenisters
admeenistrated
admeenistration
admeenistrations
admeenistrative
admeenistratively
admeenistrator
admin
administered
administration
administrations
administrative
administratively
administrator
admiral
admiralty
admired
admission
admit
admits
admitted
admittit
ado
adobe
adolescent
adolf
adolfo
adolph
adolphe
adonis
adopt
adopted
adopting
adoption
adoptit
adopts
adorned
adposeetion
adposeetions
adria
adrian
adriana
adrianople
adriatic
adrien
adrienne
adult
adults
adv
advance
advanced
advancement
advances
advancin
advancit
advantage
advent
adventur
adventure
adventurer
adventures
adventurs
adverteesin
advertisements
advertiser
advertisin
advertising
advice
advised
adviser
advisor
advisory
advocacy
advocate
advocatit
adygea
ae
aegean
aegviidu
aen
aerial
aerlie
aero
aeroflot
aeronautics
aeropuerto
aerospace
aes
aesome
aest
aesthetic
aesthetics
af
afa
afc
aff
affair
affaires
affairs
affcome
affect
affected
affectin
affection
affectit
affects
affen
affensive
affer
affered
afferin
affers
affice
afficer
affiliate
affiliated
affiliation
affiliatit
affine
affleck
affluent
affordable
affshore
affspring
afghan
afghanistan
afi
afonso
afore
aforehaund
aforementioned
afp
afraid
africa
africae
african
africans
afrikaans
afro
aft
aften
after
aftermath
afternoon
afterwards
ag
again
against
agarak
agassi
agatha
agder
age
aged
agence
agencies
agency
agenda
agent
agents
ages
agglomeration
agglomerations
aggregate
aggression
aggressive
agia
agin
agios
agit
aglae
agnes
agnew
agnieszka
ago
agony
agosto
agra
agrarian
agree
agreed
agreement
agreements
agrees
agribusiness
agricola
agricultur
agricultural
agriculture
agrippa
agua
aguascalientes
aguilar
aguilera
aguirre
agus
agusti
agustin
ah
ahead
aheid
ahind
ahint
ahl
ahli
ahmad
ahmed
ahmet
ahome
ai
aiberdeen
aiberdeenshire
aibey
aiblins
aiccess
aichi
aicht
aichteen
aichteent
aichty
aid
aidit
aids
aifter
aignan
aiguillon
aik
aiken
aileen
aim
aimag
aimags
aime
aimed
aimit
aims
ain
aince
ained
ainer
ainimal
ainimals
ainlie
ainly
ainmean
aiple
aiples
air
airasia
airbase
airbus
airch
airchaeological
airchaeologist
airchaeologists
airchbeeshop
airchbishop
airchdiocese
airchduchess
airchduke
aircheological
airches
airchipelago
airchitect
airchitects
airchitectur
airchitectural
airchived
aircraft
airctic
airdrie
airdrieonians
aire
aired
aires
airfield
airie
airin
airisch
airlan
airline
airliner
airlines
airm
airmed
airmie
airmies
airmistice
airmit
airmour
airms
airmy
airn
airplane
airplanes
airplay
airport
airports
airs
airt
airteestic
airticle
airticles
airtifacts
airtifeecial
airtificial
airtillery
airtin
airtins
airtist
airtistic
airtists
airtit
airts
airtwirk
airways
ais
aise
aisie
aisne
ait
aither
aitken
aits
aix
aj
ajax
ajman
ajuntament
ak
aka
akbar
akershus
akira
akita
akkadian
akkar
akov
akp
akron
aksaray
aksu
aktobe
al
ala
alabama
alabina
aladdin
alagoas
alain
alajuela
alam
alan
alanbrooke
alane
alang
alangside
alania
alanie
alas
alasdair
alaska
alastair
alaverdi
alawi
alawite
alawites
alb
alba
albacete
alban
albania
albanian
albanians
albanie
albanies
albano
albany
albarradas
albeit
alberdi
albert
alberta
albertine
alberto
albiol
albion
alborz
albrecht
album
albums
albuquerque
alca
alcala
alcalde
alcaldedis
alcamo
alchemist
alcobendas
alcohol
alcoholic
alcoholism
aldama
alder
aldo
aldrich
ale
alec
alegre
alejandra
alejandro
aleksander
aleksandr
alema
alemannic
alenc
alender
aleppo
alert
alessandria
alessandro
alevik
alex
alexa
alexander
alexandra
alexandre
alexandria
alexandrine
alexandro
alexandrovich
alexandrovsk
alexandrovsky
alexei
alexey
alexeyevka
alexeyevsky
alexis
aley
alfa
alfie
alfons
alfonso
alford
alfred
alfredo
algae
algarrobo
algarve
algarves
algebra
algebraic
algeria
algerian
algerie
algiers
algorithm
algorithms
ali
alia
alias
alicante
alice
alicia
alien
aliens
aligned
alike
alingsa
alison
alistair
alive
alix
aliyev
alkali
alkaline
all
alla
allaed
allaes
allah
allan
allcroft
alle
allee
alleed
allegations
alleged
allegedly
allegiance
allegit
allen
allende
allenstein
alley
allgemeine
alliance
alliances
allied
allier
allies
alligator
allison
allitt
allium
allmovie
allmusic
alloa
allocatit
allou
alloued
allouin
allous
allow
alloway
allowed
allows
alloy
alloys
allure
alluvial
ally
alma
almaist
almanac
almaty
almeida
almeri
almirante
almis
almodo
almohad
almost
alo
alois
alone
along
alongside
alonso
alp
alpes
alpha
alphabet
alphabetical
alphabets
alphonse
alpine
alps
already
als
alsace
alsae
alsina
also
alt
alta
altai
altamira
altamirano
altar
altas
altay
altenburg
alter
alterations
altered
alternate
alternatin
alternative
alternatively
alternatives
altho
althou
although
altiplano
altitude
altitudes
alto
altos
alu
aluminium
aluminum
alumni
alva
alvarez
alvear
alves
always
alyga
alytus
alzheimer
am
ama
amadeo
amadeus
amadora
amagasaki
amaist
amalgamation
amalgamatit
amalia
amalie
amanda
amang
amangst
amapa
amar
amaranth
amaranthus
amaro
amarte
amassed
amateur
amatla
amazing
amazon
amazonas
amazons
amb
ambassador
ambassadors
amber
ambient
ambiguous
ambition
ambitions
ambitious
amc
ame
amedeo
amelia
amen
amended
amendi
amendin
amending
amendit
amendment
amendments
amenities
america
americae
americaes
american
americana
americans
americas
amerika
amerindian
ames
ami
amid
amidst
amiens
amin
amino
amir
ammad
amman
ammonia
ammunition
amnesty
amo
among
amongst
amoont
amoonts
amor
amore
amos
amount
amour
amp
amphibian
amphibians
amphibious
amphitheatre
amphoe
amr
ams
amsterdam
amt
amu
amunts
amur
amusement
amy
an
ana
anadolu
anaheim
anakin
anakkale
analog
analogous
analyses
analysis
analyst
analysts
analytic
analytical
anana
anand
anarchism
anarchist
anas
anastasia
anatolia
anatolian
anatolie
anatoly
anatomist
anatomy
anaw
anbar
ance
ancelotti
ancestor
ancestors
ancestral
ancestry
anchor
ancien
ancient
and
andaluci
andalus
andalusie
andaman
andamanese
andean
anderlecht
anders
andersen
anderson
andersson
andes
andhra
andorra
andorrae
andra
andrade
andras
andre
andrea
andreas
andrei
andres
andreu
andrew
andrews
andrey
android
andrzej
andy
ane
aneath
anelie
anely
anent
anerlie
anerly
anes
ang
ange
angel
angela
angeles
angelica
angelina
angelique
angelis
angelo
angels
anger
angers
angiosperm
angiosperms
angle
angles
anglesey
anglia
anglican
anglicised
anglo
angola
angolae
angora
angostura
angoule
angra
angry
anguilla
angular
angus
anhalt
anhui
ani
anija
animal
animals
animas
animated
animation
animatit
animator
animators
anime
anist
anita
anither
anjou
ankara
ankle
anly
anlıurfa
ann
anna
annals
annan
annandale
annapolis
anne
annex
annexation
annexed
annexes
annie
anniversar
anniversary
anno
annoonced
annooncement
annooncit
annotated
announce
announced
announcement
announces
annual
annually
annum
annunced
annunziata
ano
anoia
anonymous
another
anqing
ans
ansbach
anselm
anser
anshan
answer
answered
answers
ant
anta
antagonist
antakya
antalya
antarctic
antarctica
antarcticae
antelope
anthem
anthology
anthony
anthrax
anthropologie
anthropologist
anthropology
anthropomorphic
anti
antigua
antilles
antin
antioch
antioquia
antiquarian
antique
antiquities
antiquity
antisemitism
anto
antofagasta
antoine
antoinette
anton
antoni
antonia
antonie
antonietta
antonin
antonine
antoninus
antonio
antonius
antony
antrim
ants
antsla
antti
antwerp
anwar
anwoth
any
anyone
anything
anzio
anzoa
ao
aor
aosta
aoste
ap
apa
apache
apairt
apairtment
apairtments
aparan
apart
apartheid
apartment
ape
apennines
apertura
apes
apex
apg
aphrodite
apj
apo
apocalypse
apocalyptic
apodaca
apollo
apostle
apostles
apostolic
app
apparatus
apparent
apparently
appeal
appealed
appeals
appear
appearance
appearances
appeared
appearin
appearit
appears
appen
appendix
appenin
appent
appert
apple
applee
appleed
applees
appleton
applicable
application
applications
applied
applies
apply
appointed
appointit
appointment
appointments
appoints
appreciation
apprentice
approach
approached
approaches
approachin
appropriate
approval
approved
approves
approx
approximate
approximately
approximation
appruival
appruivit
apps
appyntit
appyntment
apr
apricot
april
aprile
apryle
apulia
apulie
aqaba
aquarium
aquatic
aqueduct
aquila
aquino
aquitaine
ar
ara
arab
araba
arabi
arabia
arabian
arabic
arabie
arable
arabs
aracataca
arad
arafat
aragats
aragatsotn
arago
aragon
aragonese
aragua
arak
aral
aram
aramaic
aran
arana
arani
ararat
aras
arauca
arbeiten
arbetarpartiet
arbor
arbroath
arc
arcade
arcades
arcadia
arce
arch
archaeological
archaeology
archaic
archangelgorod
archant
archbishop
archduchess
archduke
archeological
archer
archibald
archie
archipelago
architect
architects
architectural
architecture
archive
archived
archives
arctic
ardabil
ardahan
arde
ardea
ardennes
ardwell
are
area
arealstatistik
areas
arena
arenae
arenas
areni
arenys
arequipa
ares
arezzo
argent
argentina
argentinae
argentinas
argentine
argentines
argentinian
argentino
argied
argolis
argos
arguably
argued
argument
arguments
argyll
ari
aria
ariana
ariane
arias
arica
arid
arie
ariel
arise
aristocracy
aristocrat
aristocratic
aristotle
arithmetic
arizona
arjen
arjona
ark
arkansas
arkhangelsk
arkona
arles
arlington
arm
armada
armadillo
armageddon
armagh
armand
armande
armando
armas
armavir
arme
armed
armenia
armenian
armenians
armeniapedia
armenie
armenies
armies
armigerous
armistice
armored
armour
arms
armstat
armstats
armstrong
army
arn
arna
arnae
arne
arnhem
arno
arnold
arnott
aroma
aromatic
aroon
aroond
arose
around
arpitan
arque
arran
arranged
arrangement
arrangements
arrangit
array
arrest
arrested
arrestit
arrests
arriaga
arriba
arrival
arrive
arrived
arrives
arrivin
arrivit
arrondissement
arrondissements
arrow
arroyo
arroyos
ars
arsames
arsenal
arsenic
arsizio
arsoli
art
artashat
arte
arteaga
artemis
artemisa
artemisia
artery
artes
arteta
arthropods
arthur
arti
article
articles
artifacts
artificial
artigas
artillery
artist
artistic
artists
artois
arts
artsakh
artur
arturo
artvin
aruba
aruku
arv
arvensis
arxiv
aryan
as
asa
asad
asadabad
asahi
asan
asbestos
ascendit
ascension
ascenso
ascent
ascii
asco
asean
ash
ashdod
asher
ashes
ashgabat
ashgate
ashkelon
ashkenazi
ashley
ashman
ashtarak
ashton
asi
asia
asian
asiana
asiatic
aside
asie
asimov
asio
ask
asked
askin
askit
asks
aslaug
asmara
asociacio
asp
aspect
aspects
aspirin
aspx
asquith
assad
assam
assange
assassin
assassination
assassinatit
assassins
assault
assembled
assemblies
assembly
assemmly
assertit
assessment
asset
assets
assigned
assirie
assiries
assisi
assist
assistance
assistant
assisted
assistit
assists
associac
associate
associated
associates
association
associations
associatit
associe
assr
assume
assumed
assumit
assumption
astana
astara
astdys
asteraceae
asteroid
asteroids
aston
astra
astrakhan
astrid
astro
astrologer
astrology
astronaut
astronomer
astronomers
astronomical
astronomy
astropheesicist
astrophysical
astrophysics
asturian
asturias
asturies
astvatsatsin
asuncio
asuncion
aswan
asylum
asyut
at
ata
atacama
atalca
atarfe
atas
atatu
ate
atenas
ath
athdrew
atheist
athena
athens
athin
athlete
athletes
athletic
athletics
atholl
athoot
athort
athos
athout
atkinson
atla
atlanta
atlantic
atlantique
atlantiques
atlantis
atlas
atle
atlus
atmosphere
atmospheric
atoll
atolls
atom
atomic
atoms
atop
atouer
atp
attached
attack
attacked
attackin
attackit
attacks
attained
attempt
attempted
attemptin
attemptit
attempts
attenborough
attend
attendance
attended
attendin
attendit
attention
attestit
attica
attiki
attitude
attitudes
attorney
attract
attracted
attractin
attraction
attractions
attractit
attractive
attracts
attribute
attributes
attribution
attributit
atween
atweesh
atwein
au
aube
aubraham
aubrey
auburn
auch
auchencairn
aucht
auchtertool
auckland
auction
aude
audience
audiences
audio
audit
auditioned
auditorium
audrey
auf
aug
augist
augsburg
august
augusta
auguste
augustin
augustine
augusto
augustus
auld
aulder
auldest
aulnay
aumale
aumont
aun
auncient
aundraes
aung
aunt
aurelian
aurelius
aurie
auries
aurisina
aurora
aus
auschwitz
ausgewa
auspices
austen
austin
austrailie
australia
australian
australians
australie
australien
austria
austrian
austrick
austro
authentic
author
authored
authorised
authoritarian
authorities
authority
authors
autism
autistic
auto
autobiografie
autobiography
automaker
automatic
automatically
automobile
automobiles
automotive
autonomous
autonomy
autopista
autozam
autumn
auvergne
aux
auxiliary
av
ava
availability
available
avant
avatar
ave
avec
avellaneda
avengers
avenida
avenue
avenues
average
averages
averagin
avery
avgvstvs
avianca
aviation
aviator
avignon
aviv
avna
avnem
avocado
avocados
avoid
avon
avril
avtovaz
aw
awa
awaird
awairded
awairdit
awairds
award
awarded
awardit
awards
awareness
away
awbeit
awbesit
awbody
awdry
awe
awes
awey
awfu
awin
awmaist
awn
awned
awner
awners
awnership
awns
awnt
awready
awso
awthegither
awtho
awthou
ax
axe
axel
axis
axle
ay
ayacucho
ayala
ayatollah
aydın
aye
ayen
ayeweys
aymara
ayn
ayont
ayr
ayrshire
ayse
aysel
ayuntamiento
ayutla
ayutthaya
ayyubid
az
azad
azarenka
azerbaijan
azerbaijani
azerbaijanis
azeri
azeris
aziz
azores
azov
azraq
aztec
azteca
aztecs
azul
azur
azure
azərbaycan
aɪ
b
ba
baa
baabda
baalbek
bab
baba
babak
babel
baboon
baboons
babushkinsky
baby
babylon
babylonie
bac
bach
bachelor
back
backbone
backed
background
backgrund
backgrunds
backin
backing
backit
backs
backstroke
bacon
bacteria
bacterial
bad
badajoz
badalona
bade
baden
badge
badged
badia
badly
badminton
badr
bae
baekje
baer
bafta
bag
bages
baghdad
bagpipes
bah
baha
bahah
bahamas
bahasa
bahi
bahia
bahmanabad
bahn
bahr
bahrain
bai
baie
baikonur
baile
bailey
bailiwick
baillie
bain
baird
bairn
bairnheid
bairns
baist
baith
baix
baixa
baja
bajo
bak
baker
bakr
baku
bal
bala
balaguer
balance
balashikha
balboa
baldwin
bale
balearic
balfour
bali
balkan
balkans
ball
ballad
ballads
ballet
balliol
ballistic
ballivia
ballot
balls
bally
balmaclellan
balmaghie
balmoral
balochistan
balqa
balta
baltazar
baltic
baltimore
baltistan
bamboo
ban
bananae
bananaes
bananas
banat
banchry
banco
band
banda
bandai
bandar
bandera
bands
bandy
bane
banes
banff
banfield
bang
bangalore
bangkok
bangladesh
bangladeshi
bangor
bangui
bani
banja
banjul
bank
banker
bankin
banking
bankrupt
bankruptcy
banks
banned
banner
bannerman
banners
bannockburn
bans
banska
bantam
bantu
banu
baotou
baptised
baptism
baptist
baptiste
baquerizo
bar
barack
barajas
barangay
barangays
barbados
barbara
barbarian
barbarossa
barbary
barbera
barbour
barbuda
barburgh
barca
barcelona
barchfeld
barcinski
barclay
barclays
bard
barda
bare
barely
bari
barinas
bark
barker
barley
barlow
barn
barnaul
barnes
barney
barnsley
baron
baroness
baronet
barons
barony
baroque
barr
barra
barraba
barracks
barranquilla
barrel
barrett
barrie
barrier
barrio
barrios
barris
barros
barrow
barry
bars
bart
barthe
bartholomew
bartlett
bartoli
bartolo
bartolome
barton
bartussek
bas
basal
basalt
base
baseball
basebaw
based
basel
basement
bases
bashir
bashkortostan
basi
basic
basically
basil
basilica
basilicata
basin
basins
basis
basit
basket
basketbaa
basketball
basketbaw
basque
basques
bass
basse
basshunter
bassist
bat
batangas
bate
bates
bath
bathin
bathory
baths
batista
batken
batman
bator
battalion
battenberg
batteries
battery
battista
battle
battlefield
battles
battleship
batumi
batya
bau
bauer
bauld
baume
baumeister
baunatal
baund
baunds
baunk
baunks
baur
baurley
bautista
bautzen
bavarian
bavarie
baw
bawl
baxter
bay
bayan
bayankhongor
bayda
bayer
bayerisches
bayern
bayonne
bayreuth
bays
bayswater
bayt
bazaar
bazar
bbc
bc
bce
bd
bdfutbol
be
beach
beaches
beacon
beagle
beak
beam
bean
beans
bear
beard
bearin
bearing
bears
bearsden
beast
beastie
beasties
beasts
beat
beaten
beatin
beatles
beatrice
beatrix
beatriz
beats
beattie
beaufort
beauharnais
beaulieu
beaumont
beautiful
beauty
beauvau
beauvoir
beaver
bec
becam
became
because
beck
becker
beckett
beckham
become
becomes
becomin
becoming
bed
bede
bedford
bedfordshire
bedouin
bedroom
beds
bee
beech
beef
been
beer
beersheba
bees
beetle
bef
before
beg
began
begin
beginnin
beginning
beginnings
beginnins
begins
begonia
begoud
begun
behalf
behauf
behavior
behaviour
behaviours
behind
bei
beijing
bein
being
beins
beir
beira
beirin
beirs
beirut
beit
beja
bek
bel
bela
belang
belanged
belangin
belangit
belangs
belaroushie
belaroushies
belarus
belaw
bele
belediyesi
belen
belfast
belfort
belfry
belgian
belgians
belgique
belgium
belgorod
belgrade
belgrano
belief
beliefs
believe
believed
believers
believes
believit
belinda
belize
bell
bella
belle
bells
belly
belmonte
belo
belomorsky
belonged
belonging
belongs
beloved
belovo
belovsky
below
belozersky
belt
beltinci
belton
beltra
ben
bench
bend
beneath
benedetto
benedict
benedicta
benedictine
beneficial
benefit
benefits
benevento
benfica
bengal
bengali
benghazi
beni
benin
benito
benjamin
benn
bennett
benny
bens
benson
bent
bentley
benxi
benz
benzene
beopjeong
beqaa
ber
berat
berber
berbers
berdych
berg
bergamo
bergen
berger
bergisch
bergisches
bergman
bergueda
berichtsmonate
berk
berkeley
berkley
berkshire
berlin
berliner
bermuda
bern
bernabe
bernal
bernard
bernardino
bernardo
berne
bernhard
bernie
bernstein
berries
berry
bertha
bertrand
berwick
bes
beside
besides
besieged
besnate
beso
bessarabie
best
bestial
bests
bet
beta
betfair
betfred
beth
bethlehem
betis
betrayed
bette
better
betty
between
beuk
beuks
beverage
beverages
beverly
bevern
bevo
bevolkingsontwikkeling
bey
beyonce
beyond
bezirk
bezirke
bf
bg
bh
bhp
bhutan
bhutto
bi
biała
bibcode
bible
biblical
bibliography
biblioteca
bibliotheca
bicornis
bicycle
bid
bide
biden
bides
bidin
bidit
bids
bieber
bielenstein
bien
biennial
big
bigger
biggest
biggin
biggins
biggit
bihar
bike
bikes
bikini
bikol
bila
bilateral
bilbao
bilecik
bilingual
bilingualism
bill
billboard
billiard
billiards
billie
billings
billion
billionaire
bills
billy
bilocate
bin
binary
bing
bingen
bingham
bingo
bingtao
bint
bio
biochemical
biochemist
biochemistry
biodiversity
biografi
biografie
biographical
biographie
biographies
biography
bioko
biological
biologist
biology
biosphere
biosynthesis
biotechnology
bir
bira
biratnagar
birch
bird
birdlife
birds
bireh
birk
birkenhead
birlinn
birmingham
birnam
birobidzhan
biron
birth
birthday
birthplace
births
bis
biscay
biscuit
bishkek
bishop
bishopric
bishops
biskupiec
bismarck
bison
bissau
bit
bite
bits
bitter
bittie
biuro
bizarre
bizerte
bjo
bjp
bk
bl
blabbermouth
black
blackburn
blackhall
blackie
blackpool
blacks
blacksmith
blackthorn
blackwell
blackwood
blade
blades
bladnoch
blae
blaidnoch
blair
blaise
blake
blanc
blanca
blanche
blanco
blantyre
blas
blasphemy
blast
blazon
bleach
bled
blekinge
blend
blendit
blessed
blessing
blica
blind
blitz
blizzard
bloc
block
blockade
blocks
blog
blogger
blogs
blogspot
blois
bloke
blood
bloody
bloom
bloomberg
bloomington
bloomsbury
bloudan
blow
blows
blu
blue
bluebird
blues
blueyonder
bluid
blumenau
blunt
bluth
bma
bmc
bmg
bmj
bmw
bn
bnei
bnp
bo
boa
boar
board
boards
boas
boasts
boat
boats
bob
bobby
bobcat
boca
boccoli
bocht
bochum
bodie
bodied
bodies
body
bodyguard
boeing
boer
bog
bogart
bogomolets
bogota
bohemian
bohemie
bohol
bohr
boi
bois
bol
bolan
bold
boli
bolivar
bolivia
bolivian
bolivie
bollywood
bologna
bolshaya
bolshevik
bolsheviks
bolt
bolton
bolzano
bom
bomb
bombardment
bombay
bombed
bomber
bombers
bombin
bombing
bombins
bombs
bombus
bon
bona
bonaire
bonaparte
bond
bonds
bone
bones
boniface
bonita
bonn
bonnet
bonneval
bonnie
bonny
bonus
book
booker
books
boom
boon
boond
boondar
boondaries
boondars
boondary
boondit
boonds
boone
boost
boostit
boot
booth
boots
bor
bora
borbo
bordeaux
border
bordered
borderin
borderline
borders
bore
borg
borghese
borgia
borgo
borgue
boris
borisov
borja
born
borne
borneo
borough
boroughs
borraed
borrowed
borussia
boryokudan
boryspil
bos
bosch
bosco
bosnia
bosniaks
bosnian
bosnie
bosphorus
bosque
boss
boston
boswell
bosworth
bot
botafogo
botanic
botanical
botanist
botany
both
bothy
botswana
bottle
bottles
bottom
bou
bouches
boufflers
bought
bouillon
bouk
bouks
boulder
boulevard
boulevards
boulogne
bound
boundaries
boundary
bounty
bourbon
bourbons
bourg
bourgeois
bourguiba
bournemouth
bow
bowers
bowes
bowie
bowl
bowling
box
boxer
boxes
boxin
boxoffice
boy
boyaca
boycott
boyd
boyer
boyfriend
boyle
boys
bp
br
bra
brabant
bracciano
brace
brackets
brad
bradford
bradley
bradt
brady
brae
braemar
braes
braga
braganza
braid
braidcast
braidcaster
braidcastin
braider
braille
brain
brainch
brainches
brak
brake
braken
brakes
brakin
braks
brancas
branch
branches
branco
brand
brandenburg
brandon
brands
brandt
brandy
bras
brasi
brasil
brasileira
brasileiro
brass
brassica
bratislava
braun
braunau
braunschweig
brava
brave
bravery
bravo
braw
brawness
brazil
brazilian
brazilians
brc
bre
breach
bread
break
breakdown
breaker
breakfast
breakin
breaking
breaks
breakthrou
breakthrough
breakup
breast
breath
breazeale
brecel
brechin
brecon
bred
breed
breedin
breeds
breetain
breetany
breetish
breeze
breid
breisgau
bremen
bren
brenda
brendan
brennan
brenner
brent
brera
brescia
bresse
brest
bretagne
breton
breuk
breuken
brew
brewer
brewery
brewin
brewster
brexit
brez
brezhnev
bri
brian
bricht
brichtest
brichtness
brick
bricks
bride
brides
bridge
bridgend
bridges
bridget
brief
briefing
briefly
brien
brig
brigade
brigadier
briggs
bright
brighton
brigs
brill
brilliant
bring
bringin
bringing
brings
brink
brisbane
brissac
bristol
brit
britain
britannia
britannica
brither
britherheid
brithers
british
britons
brits
britt
brittany
brittonic
brno
bro
broad
broadcast
broadcaster
broadcastin
broadcasting
broadcasts
broader
broadly
broadway
broccoli
broch
brocht
brochure
brock
brod
brody
broglie
broke
broken
bromwich
bronte
bronx
bronze
brook
brooke
brookings
brooklyn
brooks
bros
brother
brotherhood
brothers
broucht
brought
broughton
broun
brouser
brow
brown
browne
brownsville
browser
bru
bruce
bruges
bruikit
brunei
bruno
brunswick
brus
brussels
brutal
brutality
bruto
brutus
bruxelles
bryan
bryansk
bryant
bryn
brythonic
bs
bsd
bsharri
bt
bu
bubble
bubo
buccleuch
buchan
buchanan
bucharest
buck
bucket
buckie
buckingham
buckinghamshire
buckley
bucks
budapest
buddha
buddhism
buddhist
buddy
budget
budyonnovsk
buena
buenaventura
buenavista
bueng
buenos
buffalo
buffer
buffett
bug
bugatti
buick
buik
buiks
build
builder
builders
buildin
building
buildings
built
buird
buirds
buirial
buirit
buist
buists
buit
buk
bukhara
bulacan
bulgaria
bulgarian
bulgarians
bulgarie
bulgaries
bulk
bull
bullet
bulletin
bullets
bullock
bulls
bumper
bumpers
bun
bunch
bund
bundang
bundaries
bundary
bundesla
bundesliga
bundestag
bundit
burana
burbank
burden
burdur
bureau
burg
burgas
burgenland
burger
burgess
burgh
burghs
burgos
burgundy
buri
burial
buried
buriet
burj
burke
burkina
burlington
burma
burmese
burn
burned
burnett
burnham
burnin
burning
burnquist
burns
burnt
burroughs
bursa
burslem
burt
burton
burundi
bury
buryat
buryatia
bus
busan
buses
bush
bushehr
busiest
business
businesses
businessman
businessmen
businessweek
businesswoman
businesswumman
busk
buskerud
buss
bust
busto
busy
but
butcher
bute
buteo
butler
butt
butter
buttercup
butterflee
butterflees
butterflies
butterfly
button
buurten
buy
buyers
buyin
buys
buzz
by
byblos
byd
byds
bye
bygane
byleid
byleids
byordinar
bypass
byrd
byrne
byron
bystrica
byzantine
byzantines
byzantium
bɑ
c
ca
caa
caaed
cab
caballero
caballeros
cabaret
cabbitch
cabecera
caber
cabin
cabinet
cable
cables
cabo
cabral
cabrera
cabriolet
cabuyao
cacao
cachapoal
cacique
cactus
cadell
cadet
cadillac
cadiz
caen
caerlaverock
caerphilly
caesar
caesarea
caesium
caetano
cafe
cafes
cage
cagliari
caguas
cahill
cain
caipita
caipital
caipitals
caiptain
caird
cairdiff
cairds
cairied
cairies
cairl
cairn
cairns
cairo
cairpet
cairried
cairt
cairtel
cairts
cairved
cairy
cairyin
caithness
caixa
cajonos
cajt
cake
cakes
cal
calabarzon
calabria
calabrie
calabro
calais
calcio
calcium
calculate
calculated
calculatin
calculations
calculatit
calculus
caldas
calder
caldera
caldero
caldwell
cale
caledon
caledonia
caledonian
calendar
calendars
calera
calgary
cali
calif
california
californie
caligula
caliph
caliphate
caliphs
call
callaghan
callao
calle
called
calling
callisto
callit
calls
callum
calm
calvados
calvet
calvillo
calvin
calzada
cam
camagu
camajuani
camara
camargo
camarones
cambodia
cambodian
cambodie
cambrai
cambrian
cambridge
cambridgeshire
camden
came
camel
cameo
camera
cameras
cameron
cameroon
cami
camila
camilla
camille
camillo
camino
camp
campaign
campaigned
campaignin
campaigns
campanie
campbell
campeche
campeo
campeonato
campeones
campestre
campin
campinas
campo
campobasso
campos
camps
campus
campuses
can
canada
canadae
canadian
canadians
canal
canals
canaria
canario
canary
canavese
canberra
canceled
cancelled
cancer
cancio
cancu
candela
candelaria
candidacy
candidate
candidates
candlelight
candy
cane
canela
canelones
canine
canis
canmore
canna
cannabis
cannae
cannes
cannin
cannon
cannot
canobie
canoe
canon
canongate
cans
cantabrie
canterbury
canto
canton
cantonese
cantons
cantopop
cantos
canvas
canyon
cao
cap
capabilities
capability
capable
capacity
capaldi
capcom
cape
capetillo
capilla
capinota
capistrano
capita
capital
capitalism
capitals
capitol
capo
capped
capper
capra
capri
caprice
caps
capsicum
captain
captive
captivity
captur
capture
captured
captures
capturt
caqueta
car
cara
carabobo
caracas
caravan
caravans
caravanserai
carbohydrates
carbon
carbonate
carburettor
carcass
card
cardiac
cardiff
cardinal
cardona
cards
carduelis
care
career
careers
carefully
carey
cargo
caribbean
caribe
carignano
carinthie
carl
carla
carlaw
carles
carlisle
carlo
carlos
carlota
carlotta
carlsen
carlton
carly
carlyle
carmarthen
carmarthenshire
carmel
carmen
carmo
carmona
carnegie
carniola
carnival
carnivora
carnivore
carnivores
carnivorous
caro
carol
carolina
caroline
carolingian
carolyn
carpathian
carpenter
carpet
carpio
carr
carranza
carrara
carrasco
carren
carretera
carrick
carrie
carried
carrier
carriers
carries
carriet
carrillo
carrington
carroll
carruthers
carry
carryin
carrying
cars
carse
carson
carsphairn
cart
carta
cartagena
cartago
carte
cartel
cartels
carter
carthage
carthaginian
carthaginians
cartier
cartoon
cartoonist
cartoons
carvalho
carved
carvin
carvins
carvit
cary
casa
casablanca
casale
casanova
casas
cascade
cascais
case
caseros
caserta
cases
casey
cash
casimir
casino
casos
caspian
cassell
cassette
cassidy
cassini
cassiopeia
cassius
cast
castan
castano
castel
castell
castellana
castellanos
castellar
castelletto
castelli
castello
castelnuovo
castelo
castiglione
castil
castile
castilian
castilla
castillo
castin
castle
castles
castro
castrum
casual
casualties
casualty
cat
cata
catalan
catalana
catalina
catalog
catalogue
catalonia
catalonie
catalunya
catamarca
catania
catanzaro
catarina
catastrophe
catastrophic
catch
catches
catchment
catedral
categories
category
catenanuova
caterham
caterin
caterina
cathedral
cathedrals
catherine
catholic
catholicism
catholics
cathy
cato
cats
catta
cattle
cauca
caucasian
caucasus
caucht
caught
cauld
caulder
cauldest
caumont
caur
caurbon
caurs
cause
caused
causes
causin
causit
cava
cavalera
cavalier
cavalry
cave
cavendish
caves
cavity
caw
cawed
cawin
caws
cayetano
cayman
cayo
cbc
cbe
cbn
cbs
cbssyr
cc
cd
cdc
cdp
cds
cdu
ce
ceann
ceara
cease
ceased
ceasefire
cebu
cebuano
cecil
cecilia
cecilie
cedar
cedit
ceetie
ceeties
ceetizen
ceetizens
ceetizenship
ceety
ceevic
ceevil
ceevilian
ceevilians
ceevilisation
ceevilisations
ceevilization
ceevilizations
ceiba
ceip
ceitie
ceities
ceity
celebrate
celebrated
celebrates
celebratin
celebrating
celebration
celebrations
celebratit
celebrities
celebrity
celeste
celestial
celia
celje
cell
celle
celles
cello
cells
cellular
celsius
celta
celtic
celts
cement
cemeteries
cemetery
cen
cengage
censo
censorship
censos
census
censuses
censusindia
cent
centenary
centennial
center
centered
centers
centimetre
central
centralbyra
centrales
centralised
centrally
centre
centred
centres
centrist
centro
centur
centurie
centuries
century
centurys
ceo
cep
ceramic
ceramics
cercado
cerda
cerdanya
cereal
cereals
ceremonial
ceremonies
ceremony
ceres
cerklje
cerknica
cerkno
cern
cerrito
cerro
certain
certainly
certaint
certifee
certificate
certification
certifications
certified
cervantes
cesar
cesare
cesena
ceul
ceuler
ceuta
ceyhan
ceylon
cf
cfa
cgi
ch
cha
chablais
chaco
chad
chadwick
chagatai
chai
chain
chainel
chains
chaipel
chaipter
chair
chairacter
chairacterised
chairacteristics
chairacters
chairge
chairged
chairges
chairgit
chairity
chairman
chairperson
chairt
chairter
chairtit
chairts
chal
chalatenango
chalco
challenge
challenged
challenger
challenges
challengin
chalmers
chalon
cham
chamber
chamberlain
chambers
champagne
champion
champions
championship
championships
champs
chan
chance
chancellor
chances
chandi
chandigarh
chandler
chang
change
changed
changes
changing
changwat
channel
channels
chantal
chantilly
chao
chaos
chapala
chapare
chapel
chapels
chaplin
chapman
chapo
chapter
character
characterised
characterisit
characteristic
characteristics
characterized
characterizit
characters
charcas
charente
charge
charged
charges
charing
charitable
charity
charlemagne
charles
charleston
charlie
charlotte
charlton
charm
charny
charoen
charolais
chart
charter
chartres
charts
charvet
chase
chassis
chat
chateau
chatino
chaulnes
chaumer
chavez
chayanta
che
cheap
cheaper
cheboksary
chechen
chechens
chechnie
chechnya
check
checklist
checkpoint
cheen
cheena
cheenae
cheenese
cheenge
cheese
cheetah
cheetahs
chef
chekhov
chelsea
chelyabinsk
chem
chemerivtsi
chemical
chemically
chemicals
chemist
chemistrie
chemistry
chemnitz
chen
cheng
chengdu
chennai
cher
cherepovets
cherepovetsky
cherkasy
chernihiv
chernivtsi
chernobyl
cherokee
cherry
chesapeake
cheshire
chess
chest
chester
chetumal
cheung
chevalier
chevette
chevreuse
chevrolet
cheyenne
chi
chiang
chiapas
chiara
chiba
chica
chicago
chicken
chickens
chico
chief
chiefly
chiefs
chieftain
chiel
chiesa
chieti
chihuahua
chilapa
child
childbirth
childer
childhood
childless
children
chile
chilean
chilena
chili
chilpancingo
chimaltenango
chimborazo
chin
china
chinatown
chinese
chip
chips
chira
chis
chisholm
chita
chittagong
chivas
chiyoda
chloe
chloride
cho
choco
chocolate
choi
choice
choices
choir
choiseul
cholera
cholula
chomsky
chongqing
chontal
choose
chooses
chopin
choreographer
chornobyl
chornomorsk
chorus
chose
chosen
chouf
chris
christ
christenmas
christi
christian
christiane
christianity
christians
christie
christina
christine
christmas
christoph
christophe
christopher
chromatin
chrome
chromium
chromosome
chromosomes
chronic
chronicle
chronicles
chronological
chronology
chrysanthemum
chrysler
chrysostom
chu
chubut
chuck
chuise
chuisen
chukotka
chulalongkorn
chung
chuquisaca
church
churches
churchill
churchyard
chuvash
chuvashie
chuy
chyce
chynge
chynged
chynges
chyngin
chyngit
ci
cia
cicada
cicero
cid
cidade
cie
cielo
cienfuegos
cierre
cierzyna
cifras
cigarette
cigarettes
cigars
cill
cina
cincinnati
cinderella
cindy
cine
cinema
cinemas
cinematic
cio
circa
circle
circles
circuit
circuits
circular
circulation
circumference
circumscription
circumstances
circus
cirrus
cirsium
cis
cistercian
cit
citadel
citation
cite
cited
cites
cities
citin
citing
citit
citizen
citizens
citizenship
citroe
citrus
citta
city
citymayors
citypopulation
ciudad
ciudades
ciutat
civer
civic
civil
civilian
civilians
civilisation
civilization
civitas
civitella
ck
cken
ckero
cksburg
cl
cla
clachan
clackmannanshire
clade
claes
claim
claimant
claimed
claimin
claimit
claims
claimt
clair
claire
claith
clan
clanranald
clans
clara
clare
clarendon
clarity
clark
clarke
clarkson
clart
clash
clashes
class
classes
classic
classical
classics
classifee
classifeed
classification
classifications
classified
claude
claudia
claudio
claudius
claus
clause
clauses
clausura
clav
claws
clay
clayton
cle
clean
cleaner
cleanin
cleanup
clear
clearance
clearances
cleared
clearin
clearly
cleckit
cleese
cleidin
clematis
clemens
clement
clemente
clementina
clements
cleopatra
clergy
clergyman
clerk
clermont
cless
clesses
clessic
clessical
clessifee
clessifeein
clessification
cleveland
cleves
cley
click
clicking
client
cliff
cliffs
clifton
clijsters
climate
climates
climatic
climatolo
climatological
climb
climbed
climbin
clinic
clinical
clinics
clint
clinton
clio
clip
clips
clitoris
clive
clock
clocks
clockwise
clone
clood
cloods
clope
close
closeburn
closed
closely
closer
closes
closest
closin
closur
closure
cloth
clothes
clothin
clotilde
cloud
cloudfront
clouds
club
clube
clubs
cluj
cluster
clusters
clutch
clyde
clydebank
clydesdale
cm
cn
cne
cnn
cntry
cnut
co
coa
coach
coached
coaches
coachin
coahuila
coal
coaleetion
coalition
coast
coastal
coaster
coastline
coasts
coat
coatecas
coatla
coatlicue
coats
coauthors
cobalt
cobra
cobridge
coburg
coca
cocaine
cochabamba
cochrane
cock
coco
cocoa
coconut
cod
code
codes
codex
coe
coefficient
coffee
cognate
cognates
cognitive
cohen
coil
coimbra
coin
coincide
coinco
coined
coins
coixtlahuaca
cojedes
coke
col
cola
colbert
colchagua
colchester
cold
cole
colegio
coleman
coles
colima
colin
coll
collaboration
collaborations
collaboratit
collaborative
collapse
collapsed
collapses
collar
colle
colleagues
collect
collected
collectin
collection
collections
collectit
collective
collectively
collectivite
collectivity
collector
collectors
collects
college
colleges
collegiate
colli
collide
collider
collier
colliery
collin
collins
collision
colloquial
colloquially
colmenar
colo
coloane
cologne
coloma
colombia
colombian
colombie
colombies
colombo
colon
colonel
colonia
colonial
colonialism
colonias
colonies
colonisation
colonists
colonization
colonna
colony
color
colorada
colorado
colored
colorful
colors
colosseum
colour
coloured
colourfu
colourful
colourless
colours
coltauco
coluim
columba
columbia
columbian
columbie
columbus
column
columnist
columns
com
coma
comarca
comarcal
comarcas
comarques
comatee
combat
combatants
combination
combinations
combine
combined
combines
combinin
combustion
comcast
come
comeback
comedian
comedic
comedienne
comedies
comedy
comelec
comes
comet
comfort
comfortable
comic
comics
comin
coming
command
commander
commanders
commandit
commands
commemorate
commemorates
commemoratin
commemoration
commemoratit
commemorative
commenced
comment
commentary
commentator
commented
commentit
comments
commerce
commercial
commercially
commercials
commission
commissioned
commissioner
commissioners
commissions
commit
commitment
commits
committed
committee
committees
committit
commodities
commodity
commodore
common
commonly
commons
commonties
commonty
commonwalth
commonwealth
commonweel
communal
commune
communes
communicate
communication
communications
communion
communism
communist
communists
communitie
communities
community
commute
commuter
commuters
como
comodoro
comoros
compact
compan
companies
companion
companions
company
comparable
comparative
comparatively
compare
compared
comparin
comparison
comparisons
compartment
compass
compatible
compatriot
compendium
compensation
compete
competeetion
competeetions
competes
competin
competit
competition
competitions
competitive
competitor
competitors
compilation
compiled
compiler
complaints
complement
complete
completed
completely
completes
completin
completion
completit
complex
complexes
complexity
complications
complicatit
compone
componed
component
components
componer
componers
componin
componit
compoond
compoonds
composed
composeetion
composer
composers
composite
composition
compositions
compostela
compound
compounds
comprehensive
compressed
compression
comprise
comprised
comprises
comprisin
comprising
compton
compulsory
computation
computational
computations
computer
computers
computin
computing
comrat
comte
comune
comunes
comuni
comunidad
comyn
con
conan
concacaf
conceic
conceits
conceived
concentrate
concentrated
concentration
concentrations
concentratit
concepcio
concept
conception
concepts
concern
concerned
concernin
concerning
concerns
concert
concerto
concerts
concessions
concise
concluded
concludit
conclusion
concord
concorde
concordia
concrete
concurrent
conde
condeetion
condeetions
condemned
condensed
conder
condition
conditions
condor
conduct
conducted
conductin
conductit
conductor
cone
confederacy
confederate
confederation
confederations
conference
conferences
conferred
confession
confessions
confidence
confident
configuration
configurations
confined
confirm
confirmed
confirmit
confirms
conflict
conflicts
confluence
conform
confrontation
confused
confusion
congestion
conglomerate
congo
congolese
congregation
congress
congressional
congressman
coniferous
conjunction
conmebol
conn
connacht
connect
connected
connecticut
connectin
connection
connections
connectit
connects
connery
connolly
connor
conquer
conquered
conqueror
conquest
conquests
conquistador
conrad
conscience
consciousness
consecratit
consecutive
conseeder
conseederable
conseedered
conseedert
conseest
conseestin
conseests
conseidered
conseidert
conseil
consejo
consensus
consent
consequence
consequences
consequently
conservancy
conservation
conservatism
conservative
conservatives
conservatory
consider
considerable
considerably
consideration
considered
considerin
considerit
considers
considert
consist
consisted
consistent
consistently
consistin
consisting
consistit
consists
console
consoles
consolidated
consolidation
consolidatit
consonant
consonants
consort
consortium
conspiracy
constable
constance
constant
constantine
constantinople
constantly
constants
consteetuency
constellation
constellations
constitucio
constituencies
constituency
constituent
constitute
constitutes
constitutin
constitution
constitutional
constitutit
construct
constructed
construction
constructions
constructit
consul
consular
consulate
consulates
consuls
consultant
consumed
consumer
consumers
consumption
contact
contacts
contae
contagem
contain
contained
container
containin
containing
contains
conte
conteen
conteena
conteenad
conteenas
conteened
conteenin
conteenous
conteens
contemporar
contemporaries
contemporary
content
contents
conter
contest
contestant
contested
contestit
context
contexts
conti
contiguous
continent
continental
continents
contingent
continually
continuation
continue
continued
continues
continuin
continuing
continuity
continuous
continuously
continuum
contra
contract
contraction
contractit
contractor
contrary
contrast
contrasts
contreibution
contreibutions
contreibutit
contribute
contributes
contributin
contribution
contributions
contributit
contributor
contributors
control
controlled
controllin
controls
controversial
controversies
controversy
conurbation
convener
convenient
convenor
convent
convention
conventional
conventions
converge
convergence
conversation
conversely
conversion
convert
converted
converter
convertible
convertin
convertit
converts
convey
convicted
conviction
convictit
convinced
convoy
conway
conwy
coo
cook
cookie
cooking
cool
cooled
cooncil
cooncillor
cooncillors
cooncils
coont
coonter
coonterpairt
coontess
coontie
coonties
coontin
coontit
coonts
coonty
coope
cooper
cooperation
cooperative
coordinate
coordinates
coordination
coordinatit
coorse
coorses
coort
coorts
copa
copacabana
cope
copenhagen
copernicus
copied
copies
coppa
copper
coppola
cops
coptic
copy
copyright
coral
corazo
corbyn
corcel
cordero
cordillera
cordoba
core
corfu
corinth
corinthians
cork
corn
cornelis
cornelius
cornell
corner
corners
cornish
cornwall
corolla
corona
coronado
coronation
coronavirus
coronel
corp
corporate
corporation
corporations
corps
corpse
corpus
corral
corre
correa
correct
corregimientos
correspond
correspondence
correspondent
correspondin
corresponding
corresponds
corridor
corrie
corrientes
corrosion
corrupt
corruption
corse
corsewall
corsica
corsicae
corsican
corte
cortes
cortina
corts
corun
corvette
corvus
cosa
cosenza
cosgrave
cosimo
cosmetic
cosmic
cosmo
cosmology
cosmonaut
cosmopolitan
cosmos
cossack
cossacks
cosse
cost
costa
costs
costume
costumes
cot
coterminous
cots
cottage
cottages
cottbus
cottesmore
cotton
cou
coud
coudna
cougar
could
council
councillors
councils
count
countdown
counter
countess
counties
counting
countries
country
countryside
counts
county
coup
coupe
couple
coupled
couples
coupling
coups
courage
courier
courland
course
courses
court
courtesy
courts
courtyard
cous
cousin
cousins
cov
covalent
cove
covenanter
covenanters
coventry
cover
coverage
covered
coverin
covers
coves
covid
cow
cowan
cowboy
cowdenbeath
cox
coyote
coyotes
cp
cpc
cr
crab
crack
cradle
craft
crafts
craftsmen
craig
craigie
craitur
craiturs
crane
crannog
craon
crap
craps
crash
crashed
crashes
crater
craters
craw
crawford
crawfurd
crawick
crazy
crc
cre
creacio
cream
create
created
creates
creatin
creating
creation
creatit
creative
creator
creators
creatures
creaut
creautin
creaution
creautit
creautor
credit
credited
creditit
credits
cree
creebridge
creed
creek
creeme
creemes
creeminal
creesis
creestals
creetic
creetical
creetically
creeticism
creetics
creetoun
cremona
creole
crescent
crespigny
crespo
crest
cretaceous
crete
creuse
crew
cri
crichton
cricket
cricketer
cried
cries
crime
crimea
crimean
crimes
criminal
crimson
crisis
cristal
cristiano
cristina
cristo
criteria
critic
critical
critically
criticised
criticism
criticized
critics
critique
cro
croat
croatia
croatian
croatie
croats
croce
crockett
crocodile
crocodiles
croft
croix
cromarty
cromwell
cronquist
cronus
crop
crops
crosby
cross
crossed
crosses
crossin
crossing
crossins
crossover
crossroads
croud
croudit
croun
crouned
crouns
crow
crowd
crown
crowned
croy
cruces
crucial
crucible
crucifix
crude
cruel
cruise
cruiser
cruises
crusade
crusader
crusaders
crusades
crush
crushed
crussol
crust
crustaceans
cruz
cruzeiro
cry
cryed
cryin
crypt
crystal
crystalline
crystals
cs
csa
cska
cso
csv
ct
ctor
cu
cua
cuadros
cuatro
cuauhte
cuautitla
cub
cuba
cuban
cube
cubic
cubs
cuckoo
cud
cue
cuenca
cuentame
cuernavaca
cues
cueva
cugat
cuicatla
cuid
cuikin
cuil
cuilin
cuisin
cuisine
cuisines
culiaca
culinary
cullen
culloden
culminatin
culminatit
cult
cultivar
cultivars
cultivate
cultivation
cultivatit
cultur
cultura
cultural
culturally
culture
cultures
culturs
culver
cum
cumberbatch
cumberland
cumbria
cumbric
cummings
cumnock
cums
cumulative
cundinamarca
cuneiform
cuneo
cunha
cunningham
cunyies
cup
cups
cura
curac
cure
cured
curie
curious
curitiba
curler
curlie
curlin
curn
currency
current
currently
currents
curriculum
curry
curse
curtain
curtis
curve
curved
cusco
custody
custom
customary
customer
customers
customs
cut
cuthbert
cuts
cuttie
cuttin
cutty
cuyo
cv
cx
cycle
cycles
cyclin
cycling
cyclist
cyclone
cygnus
cylinder
cylinders
cymru
cynon
cynthia
cypriot
cyprus
cyrenaica
cyril
cyrillic
cyrus
cz
czartoryski
czech
czechoslovak
czechoslovakie
d
da
dabaittie
dacha
dad
daddy
dade
dae
daechi
daegu
daein
daejeon
daena
daes
daesna
daewoo
daf
dafabet
daffodil
dafni
daft
dag
dagestan
dagger
dahl
dai
daihatsu
dail
daily
daimler
dair
dairy
daisy
daith
daiths
dakar
dakhla
dakota
dal
dalai
dalarna
dale
dalen
dali
dalian
dallas
dalmatian
dalmatie
dalry
dalrymple
dalton
daly
dam
damage
damaged
damagit
damascus
dame
damian
damietta
dammartin
damned
damon
dams
dan
dana
dance
dancer
dancers
dances
dancin
dancing
dane
danes
danger
dangerous
dani
daniel
daniela
danish
danny
dans
dante
danube
danzig
daphne
dar
daraa
dare
darfur
darg
dari
dario
darius
darjeeling
dark
darker
darkest
darkhan
darkness
darling
darlington
darmstadt
darnley
darren
darts
darwin
darya
das
dash
dashboard
dasht
dat
data
database
databases
date
dated
datenverarbeitung
dates
datin
dating
datit
datos
dauchter
dauchters
dauersiedlungsraum
daugavpils
daughter
daughters
daun
dauphin
dauphine
daurk
daurker
dauvit
davao
davarzan
dave
davenport
david
davidson
davie
davies
davis
davy
dawbeattie
dawn
dawson
day
daylicht
daylight
days
daytime
dayton
daytona
db
dbe
dc
dd
de
dea
deacon
dead
deadliest
deadline
deadly
deadurl
deaf
deal
dealer
dealers
dealin
dealing
deals
dealt
dean
dear
dearborn
death
deaths
deba
debate
debates
debatit
debbie
debian
deborah
debrett
debris
debt
debts
debut
debuted
debuts
dec
decade
decades
decay
deceased
deceesion
december
decentralised
decide
decided
decides
decidin
deciding
decidit
deciduous
decision
decisions
decisive
deck
declaration
declare
declared
declares
declarin
declarit
decline
declined
declinin
deco
decommissioned
decommissioning
decoration
decorations
decoratit
decorative
decrease
decreased
decreasin
decree
decreed
decrescente
dedicated
dedication
dedicatit
dedovichi
dee
deed
deeds
deeferent
deegit
deegital
deemed
deep
deeper
deepest
deeply
deepth
deer
dees
deeside
deestrict
deet
def
default
defeat
defeated
defeatin
defeatit
defeats
defects
defence
defences
defend
defender
defenders
defendin
defendit
defense
defensive
deficit
define
defined
defineetion
defineetions
defines
definin
defining
definite
definitely
definition
definitions
definitive
definitively
deforestation
defunct
degli
degree
degrees
deh
dehnow
dei
deid
deif
deil
deir
deit
deith
deities
deity
del
delaware
delay
delayed
delegacio
delegaciones
delegate
delegates
delegation
deleuze
delft
delgada
delgado
delhi
deliberate
deliberately
delight
delimitation
delimitit
deliver
delivered
deliveries
deliverin
delivers
delivery
dell
della
delle
dels
delta
deluxe
dem
demand
demandin
demandit
demands
demarcation
dementia
dementieva
demeter
demi
demille
demise
demission
demit
demits
demo
democracie
democracies
democracy
democrat
democratic
democratically
democrats
demografic
demografics
demografie
demographia
demographic
demographics
demography
demolished
demolisht
demolition
demon
demons
demonstrate
demonstration
demonstrations
demonstratit
demonym
demos
demoscope
den
dena
denbighshire
deneuve
deng
deni
denial
denied
denies
denis
denise
denizli
denmark
dennis
denomination
denominations
denote
denotes
denotit
dens
dense
densely
densitie
densities
density
dent
dental
dentro
denver
depairtit
depairtment
depairtmental
depairtments
depairtur
departamental
departamento
departamentos
department
departments
departure
depend
dependence
dependencies
dependency
dependent
dependin
depends
depicted
depictin
depiction
depictions
depictit
depicts
deployed
deponed
deportes
deportit
deportivo
deposed
deposit
deposits
depot
depp
deprecated
deprecatit
depression
dept
depth
depute
deputies
deputy
der
derbent
derby
derbyshire
derek
derivation
derivative
derivatives
derive
derived
derives
derivin
derivit
dermanland
derna
derrick
derry
des
desarrollo
descartes
descend
descendant
descendants
descended
descendit
descends
descent
descentralizacion
descentralized
desconocido
describe
described
describes
describin
describing
describit
descrieved
description
descriptions
descriptive
descrive
descrived
descrives
desde
desenvolvimento
desert
desertit
deserts
design
designate
designated
designation
designations
designatit
designed
designer
designers
designs
designt
desirable
desire
desired
desk
desktop
desmond
despair
desperate
despina
despite
despoina
dessau
dessert
destination
destinations
destinct
destined
destino
destiny
destrict
destricts
destrik
destroy
destroyed
destroyer
destroyin
destroys
destruction
destructive
det
detached
detail
detailed
details
detained
detection
detectit
detective
detention
determination
determine
determined
detroit
deuk
deuks
deutsch
deutsche
deutschen
deutscher
deutschland
deux
dev
devastatin
devastation
devastatit
develop
developed
developer
developers
developin
developing
developit
development
developmental
developments
develops
developt
devi
device
devices
devil
devildriver
devils
devin
devised
devolution
devolved
devon
devoted
devotion
devotit
devourment
dewar
dexter
dez
dezember
df
dfb
dg
dhabi
dhaka
dhamar
di
dia
diab
diablo
diagnosed
diagnosis
diagnostic
diagonal
diagram
dialect
dialects
dialogue
diameter
diamond
diamonds
diana
diane
diaries
diario
diary
dias
diaspora
diaz
dibe
dicaprio
diccionario
dice
dick
dickens
dickinson
dickson
dictator
dictators
dictatorship
dictionar
dictionaries
dictionary
dictionnaire
did
diderot
didier
didn
didna
didnae
dido
die
died
diego
diem
dies
diesel
diet
dieter
dietrich
differ
differed
difference
differences
different
differential
differentiate
differently
differin
differs
difficult
difficulties
difficulty
diffusion
digest
digital
digits
dignity
dili
dillon
dima
dimas
dimashq
dimension
dimensional
dimensions
diminished
diminutive
dimitrov
dimona
din
dinajpur
dinamo
dinara
ding
dinin
dinna
dinnae
dinner
dino
dinosaur
dinosaurs
dio
diocese
diocletian
dion
dionisio
dionysius
dionysus
dios
dioxide
dip
diploma
diplomacy
diplomat
diplomatic
diputacio
diputados
dir
direct
directed
directin
direction
directions
directit
directly
director
directorate
directors
directory
dirk
dirkschneider
dirt
dirty
dis
disability
disabled
disagreements
disambiguation
disappeared
disappears
disaster
disasters
disastrous
disbandit
disc
discharge
disciples
discipline
disciplines
disco
discografie
discography
discogs
discontent
discontinued
discos
discourse
discover
discovered
discoveries
discoverit
discovers
discovery
discrete
discrimination
discs
discuss
discussed
discusses
discussion
discussions
disease
diseases
dish
dishes
disintegration
disk
diskivered
diskivert
diskivery
dismantled
dismissed
disna
disnae
disney
disneyland
disorder
disorders
dispersed
dispersion
displaced
displacement
displacit
display
displayed
displayin
displays
displaystyle
disposable
dispute
disputed
disputes
disputit
dissident
dissolution
dissolved
dissolvit
distance
distances
distant
distillery
distinct
distinction
distinctive
distinguish
distinguished
distinguisht
distribute
distributed
distribution
distributions
distributit
distributor
district
districts
distrito
disuised
dit
ditch
ditions
diva
diveesion
diveesions
divers
diverse
diversifee
diversified
diversity
divide
divided
divides
dividin
dividit
divin
divine
divisa
divisio
division
divisions
divorce
divorced
divorcit
dixie
dixon
diz
dizember
dj
djembe
djibouti
djokovic
dk
dm
dmitri
dmitrovsky
dmitry
dn
dna
dnieper
dniester
dnipro
dnipropetrovsk
do
dobrich
dobson
doc
dochter
dochters
dock
docks
doctor
doctorate
doctors
doctrine
document
documentar
documentaries
documentary
documentation
documentit
documents
dodge
dodger
does
doesn
doesna
dog
dogana
dogs
doha
dohc
doherty
doi
doin
doing
dolby
dole
dolina
doll
dollan
dollar
dollars
dolls
dolly
dolomite
dolores
dom
domain
domains
dombes
dome
domenico
domestic
domestically
domestication
domesticatit
domi
dominance
dominant
dominate
dominated
dominates
dominatin
domination
dominatit
domingo
domingos
domini
dominic
dominica
dominican
dominie
dominion
dominions
dominique
domino
domitian
domodedovo
dompierre
don
dona
donald
donaldson
donation
donations
donatit
donau
done
donegal
donets
donetsk
dong
dongguan
dongjak
dongs
donna
donne
donnell
donor
donostia
donovan
doo
dooble
doom
doon
door
doors
doosan
dor
dora
dordogne
dordrecht
doria
dorian
doric
doris
dorling
dormant
dormitory
dornoch
doro
dorogomilovo
dorothea
dorothy
dorsal
dorset
dortmund
dos
dot
dott
dou
douard
double
doubled
doubleday
doubles
doubs
doubt
doug
douglas
douglases
douma
doun
dounset
dounsets
dounstream
dountoun
dout
douthwaite
dove
dover
dow
dowager
down
downer
downey
downing
download
downs
downtown
dowphin
dowphins
doyle
dozen
dozens
dp
dprk
dq
dr
dra
dracula
draft
drag
dragon
dragons
draigon
draigons
drain
drainage
drained
drains
drake
drama
dramas
dramatic
dramatically
dramatist
drap
drappit
drastically
draucht
draw
drawin
drawing
drawings
drawins
drawn
draws
drax
dream
dreams
dreamworks
dree
drenthe
dresden
dress
dressed
drest
dreux
drew
drexler
dried
drier
driest
drift
drink
drinkin
drinks
drive
driven
driver
drivers
drives
drivin
driving
dro
drocht
drog
drogs
dromo
drop
dropped
droppin
dropping
droppit
drops
drove
drug
drugs
drum
drumlanrig
drummer
drummond
drummore
drums
druze
dry
dryin
drymon
drz
ds
dsl
dt
dte
dtepartnerschaften
dtirol
du
dual
duarte
dub
dubai
dubbed
dubbit
dublin
dubrovnik
duc
ducal
duchess
duchesse
duchy
duck
ducks
dudley
due
duel
duen
duet
duets
duff
duffy
dug
dugs
duin
duino
duisburg
dujail
duke
dukedom
dukes
dulce
duma
dumbairton
dumbarton
dumfries
dumfriesshire
dumont
dun
dunams
dunbar
dunbartonshire
dunblane
duncan
dundas
dundee
dune
dunedin
dunes
dunfaurlin
dunfermline
dunkeld
dunkirk
dunlop
dunn
dunoon
dunragit
duns
dunskey
duo
dup
dupuy
duque
dura
duran
durand
durangaldea
durango
durant
duras
duration
durban
durfort
durham
durin
during
durlach
durre
dushanbe
dust
dutch
duties
duty
dvd
dvds
dvina
dvorna
dw
dwallin
dwallins
dwarf
dwarfs
dwellin
dwelling
dwellins
dwight
dx
dy
dye
dyin
dying
dyke
dylan
dynamic
dynamics
dynamo
dynastic
dynasties
dynasty
dz
dzerzhinsky
dzor
dzs
dır
dɐ
də
dʒi
e
ea
each
eagle
eagles
ear
earache
earl
earldom
earlie
earlier
earliest
earls
early
earn
earned
earnin
earnings
earnins
earnt
ears
earth
earthquake
earthquakes
ease
easier
easily
east
easter
eastern
eastlins
eastmaist
easton
eastren
eastrenmaist
eastriggs
eastward
eastwood
easy
eat
eaten
eatin
eats
eb
ebert
ebola
ebreu
ebro
ebrue
ec
ecatepec
eccentric
ecclefechan
eccleshall
ecclesiastical
echeverri
echo
echt
eck
eckernfo
eclectic
eclipse
eclipses
eco
ecological
ecology
economic
economical
economically
economics
economie
economies
economist
economists
economy
ecoseestems
ecotourism
ecstasy
ecuador
ecuadorian
ecumenical
ed
eda
edad
edda
eddication
eddicational
eddicatit
eddicator
eddie
eddy
edeetion
edeetions
eden
edf
edfu
edgar
edge
edges
edible
edicions
edict
edifice
edinburg
edinburgh
edirne
edison
edited
edith
edition
editions
editit
editor
editorial
editors
edmond
edmonton
edmund
edmunds
edn
edo
eds
edu
eduard
eduardo
educacio
educated
education
educational
educatit
educator
edward
edwards
edwin
ee
eeditor
eeditors
eel
eemage
eemages
eembucu
eemocks
een
eesti
ef
efe
effect
effective
effectively
effects
efficiency
efficient
effort
efforts
eften
efter
eftercast
efterhaund
eftermath
efternuin
efterwairds
efterwards
efterwart
eftir
eg
egg
eggs
ego
egyp
egypt
egyptian
egyptians
eh
ehir
ei
eibar
eicht
eifel
eiffel
eight
eighteen
eighteenth
eighth
eighty
eik
eikin
eikit
eild
eilean
ein
eindhoven
eine
einstein
eisenach
eisenberg
eisenhower
eist
eith
either
ej
eje
ejido
ejutla
ek
ekaterina
ekena
eki
eklund
ekmece
ekron
el
ela
elaborate
elaine
elanike
elba
elbe
elbeuf
elbla
elbow
elder
elderly
elders
eldership
eldest
ele
eleanor
eleckit
elect
elected
election
elections
electit
elector
electoral
electorate
electors
electress
electric
electrical
electricity
electro
electromagnetic
electromagnetism
electron
electronic
electronics
electrons
elects
elegant
eleiven
eleivent
element
elemental
elementar
elementary
elements
elena
eleonora
eleonore
elephant
elephants
elevation
elevations
elevatit
eleven
eleventh
elgin
eli
elia
elias
eligibility
eligible
eliminate
elimination
eliminatit
elinor
elisa
elisabeth
elisabetta
elite
elizabeth
elk
elknamit
ella
elle
ellen
elliot
elliott
ellis
elo
elon
eloratings
elorrio
elphinstone
elpida
elrig
els
elsa
else
elsevier
elsewhaur
elsewhere
elsie
elton
elvira
elvis
em
emancipation
emanuel
emanuele
embankment
embassies
embassy
emblem
emblems
embra
embrace
embraces
embro
embu
embury
emerald
emerge
emerged
emergence
emergency
emerges
emergin
emerging
emergit
emeritus
emi
emigrants
emigrated
emigration
emigratit
emil
emile
emilia
emiliano
emilie
emilio
emily
eminent
emir
emirate
emirates
emission
emissions
emittit
emma
emmanuel
emmaste
emmy
emotion
emotional
emotions
empas
emperor
emperors
emphasis
empire
empires
empirical
employ
employed
employee
employees
employer
employers
employin
employment
employs
emporda
emporis
empress
empty
en
enable
enabled
enables
enablin
enactit
encarnacio
encarta
enchanted
enciclopedia
enclave
enclaves
enclosed
encodins
encompass
encompassed
encompasses
encompassin
encoonter
encoontered
encounter
encounters
encourage
encouraged
encouragit
encyclopaedia
encyclopedia
encyclopedie
encyclopædia
end
endangered
ended
endemic
endin
ending
endit
endless
endorsed
endowment
ends
endured
enemies
enemy
energetic
energy
enero
eneuch
enfield
enforcement
eng
engage
engaged
engagement
engagit
engel
engels
enghien
engine
engined
engineer
engineered
engineering
engineers
engines
england
englefield
english
enhanced
enjoy
enjoyed
enjoys
enlairged
enlairgit
enlarged
enlichtenment
enlightenment
enna
ennakkotilasto
enoch
enormous
enough
enri
enrico
enrique
enrolled
enrollment
ensample
ensaumple
ensaumples
ensemble
ensenada
ensiferum
ensign
enslavement
ensminger
enso
ensuin
ensure
ensured
enteetled
enter
entered
enterin
entering
enterprise
enterprises
enters
entertainer
entertainment
enterteener
enterteenment
enthusiasts
entire
entirely
entities
entitled
entity
entjur
entrance
entre
entrepreneur
entrepreneurs
entries
entry
envigado
environment
environmental
environments
environs
envoy
enzo
enzymes
eo
ep
epic
epica
epidemic
epirus
episcopal
episode
episodes
epithet
epoch
eponymous
epp
eps
epsom
epstein
equal
equality
equally
equals
equation
equations
equator
equatorial
equestrian
equilibrium
equine
equinox
equipment
equipped
equipt
equivalent
equivalised
equus
er
era
eras
erasmus
ercole
erdenet
erdog
erdogan
ere
erect
erected
erectit
eredivisie
eres
erfurt
eric
erich
ericsson
erie
erik
erin
eris
eritrea
erlangen
erlanger
erlewine
ermita
ermua
ernest
ernestine
ernesto
ernst
ero
eros
erosion
errol
erroll
erroneously
error
errors
erse
erskine
eruption
eruptit
erupts
erwin
erzincan
erzurum
es
esa
escape
escaped
escapes
escapit
escobar
escobedo
escondido
escorial
escort
escudo
escuela
escuintla
escutcheon
esenler
esh
esk
eske
eskis
esmas
esmeralda
esmeraldas
esp
espan
especial
especially
espeicially
esperanto
esperanza
espi
espino
espn
espoo
esporte
esquel
essay
essayist
essays
essen
essence
essential
essentially
essex
est
esta
establish
established
establishes
establishin
establishing
establishit
establishment
establishments
establisht
estacio
estadi
estadio
estadistica
estado
estados
estaiblished
estaiblishment
estaiblisht
estancia
estatal
estate
estates
estati
estatistica
este
esteban
estefan
estero
esteve
esther
estimate
estimated
estimates
estimation
estimatit
estimativa
estimativas
esto
estonia
estonian
estonie
estonies
estorne
estrada
estre
estrella
estuar
estuaries
estuary
estudiantes
estudios
et
eta
etawah
etc
eternal
ethanol
ether
ethical
ethics
ethiopia
ethiopian
ethiopie
ethnic
ethnically
ethnicities
ethnicity
ethno
ethnography
ethnologue
etienne
etla
etruscan
ettelt
etten
ettle
ettles
ettlin
ettore
etymological
etymologie
etymologies
etymology
etymonline
eu
eucalyptus
euclid
eudicots
euge
eugen
eugene
eugenia
eugenie
eugenio
eukaryotes
eukaryotic
euler
eunuchs
eup
euphrates
eurasia
eurasian
eurasie
eure
eureka
euro
europa
europaea
europe
european
europeans
euros
eurosport
eurostat
eurovision
eurozone
euskal
euskaltzaindia
euskara
euskomedia
eustatius
ev
eva
evac
evacuation
evacuatit
evaluation
evan
evangelical
evans
eve
evelyn
even
evenin
evening
event
events
eventual
eventually
ever
everest
everett
evergreen
evert
everton
evertype
every
everybody
everyday
everyone
everything
evic
evidence
evident
evidents
evil
evo
evolution
evolutionary
evolve
evolved
evolvit
ew
ewan
ewart
ewing
ewtn
ex
exact
exactly
examination
examined
example
examples
exaumple
excavation
excavations
excavatit
exceed
exceedin
exceedit
exceeds
excel
excellence
excellency
excellent
except
exception
exceptional
exceptions
excerpt
excerpts
excess
excessive
exchange
exchanges
exchequer
exchynge
exclave
exclude
excludes
excludin
excluding
excludit
exclusion
exclusive
exclusively
execute
executed
execution
executions
executit
executive
executives
exeest
exemplar
exemple
exercise
exercised
exercises
exeter
exhaust
exhibeetion
exhibit
exhibition
exhibitions
exhibitit
exhibits
exile
exiled
exist
existed
existence
existin
existing
existit
exists
exit
exits
exodus
exotic
expand
expanded
expandin
expanding
expandit
expands
expanse
expansion
expatriate
expatriates
expectancy
expectations
expected
expectit
expedeetion
expedition
expeditions
expelled
expenditure
expense
expensive
experience
experienced
experiences
experiencin
experiencit
experiment
experimental
experimentation
experiments
expert
experts
explain
explained
explains
explanation
explanations
expleen
explicit
explicitly
explodes
exploit
exploitation
exploitit
exploration
explore
explored
explorer
exploring
explosion
explosions
explosive
expo
exponential
export
exportin
exportit
exports
exposed
exposition
exposur
exposure
express
expressed
expresses
expressin
expression
expressions
expressway
expresswey
expulsion
ext
extant
exte
extend
extended
extendin
extendit
extends
extension
extensions
extensive
extensively
extent
exterior
extermination
external
extinct
extinction
extra
extract
extraction
extractit
extracts
extradition
extraordinary
extremadura
extreme
extremely
extremes
extremity
ey
eye
eyed
eyeem
eyes
eyre
ez
ezeiza
ezra
f
fa
faa
fabaceae
faber
fabian
fabio
fable
fabric
fabrizio
fabulous
fac
facade
face
facebook
faced
facelift
faces
facial
facilitate
facilities
facility
facin
facing
facit
fact
factbook
factfinder
faction
factions
facto
factor
factories
factors
factory
facts
factsheet
faculties
faculty
fading
fadrique
fae
faenza
faer
fafara
fagin
fahd
fahrenheit
fail
failed
failin
fails
failur
failure
failyie
faimilie
faimilies
faimily
faimin
faimlie
faimlies
faimly
fair
fairbanks
faire
fairfax
fairlie
fairly
fairm
fairms
fairs
fairy
faisal
faith
faither
faithers
faithful
faiyum
fake
fala
falco
falcon
falconer
falkirk
falkland
falklands
fall
fallen
fallin
falling
falls
false
famagusta
fame
famed
familia
familiar
familie
families
familjebok
family
famine
famous
famously
fan
fancy
fand
fanning
fanny
fans
fansite
fantasie
fantastic
fantasy
fao
faq
far
fara
farah
farc
fare
fareham
farewell
farfar
fari
farina
farm
farmer
farmers
farmhouse
farmin
farms
farnese
faro
faroe
faroes
faroese
farrant
fars
farther
farthest
fascism
fascist
fashion
fashionable
fashioned
faso
fast
faster
fastest
fastiv
fat
fatal
fatalities
fate
father
fatih
fatimid
fats
fatty
fauch
faulkner
fault
fauna
faur
faurer
faust
faut
favor
favorable
favored
favorite
favour
favourable
favoured
favourite
faw
fawen
fawin
fawkirk
faws
fay
faye
faz
fbi
fc
fdp
fe
fear
feared
fears
feast
feat
feather
feathers
featur
feature
featured
features
featurin
featuring
featurs
featurt
feb
febrero
februar
february
fec
fecht
fechter
fechters
fechtin
fechts
feck
fed
federacio
federal
federalismo
federally
federation
federatit
federative
federer
federico
fee
feebre
feection
feectional
feed
feedin
feeds
feegur
feegurs
feel
feelin
feeling
feelins
feels
feenal
feenalists
feenally
feenals
feenish
feenished
feenishin
feenisht
feet
feldman
felicitas
felidae
felipe
felis
feliu
felix
fell
fellae
fellow
fellows
felt
female
females
feminine
feminist
femme
fend
fender
fenerbahc
fenton
feodor
feodorovna
fer
feral
ferdinand
ferdinanda
ferdinando
fergana
fergus
ferguson
fergusson
ferm
fermanagh
fermer
fermers
fermi
fermin
fermland
fermlands
ferms
fermstockin
fern
ferna
fernanda
fernandes
fernandez
fernandina
fernando
ferrara
ferrari
ferreira
ferrer
ferries
ferro
ferrocarril
ferrous
ferry
ferte
fertile
fertility
fertilizer
fes
fess
fest
festa
festival
festivals
festivities
feud
feudal
fever
few
fewer
fey
feynman
fez
fezzan
ff
ffle
fgc
fi
fia
fiance
fianna
fiat
fiber
fica
fichas
fichte
fichtin
fico
fiction
fictional
fiddle
fide
fidel
fief
field
fields
fierce
fiercely
fiesta
fiestas
fifa
fife
fift
fifteen
fifteent
fifteenth
fifth
fifty
fig
figaro
fight
fighter
fighters
fighting
figueroa
figur
figure
figures
figurs
fiji
fijian
filadelfia
file
filed
files
filiberto
filing
filip
filipe
filipino
filipinos
filippo
fill
filled
fillin
fillum
film
filmed
filmin
filmit
filmmaker
filmmakers
filmreference
films
filosofer
filosofical
filosofie
filosopher
fils
filth
filton
fin
fina
final
finale
finalist
finalists
finally
finals
finance
finances
financial
financially
financin
finch
find
findhorn
findin
finding
findins
finds
fine
finest
finger
fingers
finish
finished
finishes
finishin
finishing
finland
finn
finnan
finned
finnic
finnish
finno
finns
finntroll
fins
fiona
fiorentina
fiorentino
fir
fire
fired
firefox
fires
firewirks
fireworks
firin
firm
firmly
firms
first
firstly
firth
firthen
firthit
firths
fis
fiscal
fischer
fish
fishbase
fisher
fisheries
fishermen
fishery
fishes
fishin
fishing
fission
fist
fit
fitba
fitbaa
fitbastats
fitbaw
fitbawer
fitbawers
fitness
fitt
fitted
fittin
fittit
fitz
fitzgerald
fitzpatrick
fiumicino
five
fiver
fix
fixed
fixture
fjord
fk
fl
flag
flags
flagship
flair
flame
flamenco
flames
flanders
flanked
flanks
flash
flat
flats
flavius
flavour
flaws
flax
fled
flee
fleein
flees
fleet
fleming
flemish
flensburg
flesh
flet
fletcher
fleuk
flew
flewn
flexible
flicht
flichts
flickr
flies
flight
flights
flint
flintshire
flit
flittin
flittit
floatin
flodden
flood
floodin
floods
floor
floors
flor
flora
floral
florence
florencia
florencio
florentine
flores
florian
florida
flouer
flouerin
flouers
flour
flourish
flourished
flourishin
flow
flowe
flower
flowering
flowers
flowes
flowin
flows
floyd
flu
fluent
fluid
fluids
fluir
fluminense
fluoride
fluorine
flute
flux
fly
flyin
flying
flynn
fm
fn
fo
focal
focht
focus
focused
focuses
focusin
fog
foix
foley
folk
folklore
folkma
follae
follaed
follaeed
follaein
follaeing
follaers
follaes
follow
followed
followers
followin
following
follows
fominsky
fond
fonda
fonseca
font
fontaine
fontainebleau
fontana
fontenelle
food
foods
fool
foond
foondation
foondations
foonded
foonder
foonders
foondin
foondit
foondry
foonds
foontain
foot
footage
football
footballer
footballers
for
forage
forbes
forbidden
forby
forbye
force
forced
forces
forcibly
forcin
forcit
ford
forder
fordert
fore
forecast
foregane
foreign
foreigners
foremaist
forensic
forest
forestit
forestry
forests
forever
forfar
forge
forget
forgotten
fork
forkel
forli
form
formal
formally
format
formation
formations
formats
formed
formemrs
former
formerly
formin
forming
formit
formosa
forms
formt
formula
formulation
forordinar
forordnar
forres
forrest
forrit
forster
forsyth
fort
fortaleza
forte
forth
fortifee
fortifeed
fortification
fortifications
fortified
fortress
fortresses
forts
fortschreibung
fortunata
fortune
fortunes
forty
forum
forums
forward
fossil
fossils
foster
fou
foucht
fought
foul
foulds
found
foundation
foundations
founded
founder
founders
founding
foundit
fountain
four
fourier
fourteen
fourth
fower
fowert
fowerteen
fowerteent
fowerth
fowerty
fowk
fowklair
fowklear
fowkpairty
fowkrepublic
fowks
fowler
fox
foxes
foy
fr
fra
frac
fraction
frae
fragments
frainch
frame
framed
frames
framewirk
framework
franc
franca
france
frances
francesca
francesco
franche
franchise
franchises
francia
francis
francisca
franciscan
francisco
franco
francois
franconian
frank
frankfurt
frankish
frankivsk
franklin
franks
frans
franz
franziska
fraser
fraserburgh
fraternity
fraucht
fraud
fraunce
fraxinus
fray
frazione
frazioni
frc
fre
fred
freddie
freddy
frederica
frederick
frederik
fredrik
free
freed
freedom
freedoms
freely
freeman
freemit
freend
freends
freers
freestyle
freeway
freewey
freezin
freguesia
freiburg
freight
freistaates
fremmit
french
frente
frequency
frequent
frequentit
frequently
fresco
frescoes
fresh
freshwater
freshwatter
fresno
freud
freyja
fri
friar
friars
fricative
fricht
friday
fride
fried
friederike
friedman
friedrich
friend
friendly
friends
friendship
frigate
fringe
frisian
frisie
friskin
fritz
friuli
froese
frog
frogs
from
front
frontal
frontera
frontier
frontiers
frontline
frontman
frosinone
frost
frozen
frs
frse
fructose
fruit
fruits
frunze
fry
fryday
frye
ft
fu
fuck
fuego
fuel
fuels
fuente
fuentes
fuerte
fuid
fuids
fuirm
fuirsday
fuit
fuithills
fuji
fujian
fujimori
fukuda
fukuoka
fukushima
fulfil
fulfilled
fulham
full
fuller
fully
fulton
fun
funabashi
function
functional
functioned
functionin
functions
fund
fundacio
fundamental
fundamentalism
fundazioa
fundin
funding
fundit
funds
funen
funeral
fungi
fungus
funk
funnd
funny
funtain
fur
furious
furm
furmed
furms
furnitur
furniture
furrin
furst
furtado
furth
further
furthermair
furthset
fury
fused
fusion
futbol
futebol
futsal
futuna
futur
futura
future
futures
fuxin
fußball
fy
fyfe
fynd
fyndins
fynds
fyodor
fz
g
ga
gabala
gabe
gabon
gabriel
gabriela
gabriele
gabriella
gabrielle
gabrovo
gaby
gacy
gaddafi
gae
gaed
gael
gaelic
gaels
gaes
gaetano
gafsa
gaga
gagarin
gagauz
gagauzia
gage
gai
gaia
gail
gailerie
gailey
gaiman
gain
gained
gainin
gains
gainsbourg
gaird
gairden
gairdenin
gairdens
gaisha
gait
gaither
gaitherin
gaithoose
gaits
gaius
gal
gala
galactic
galapagos
galatasaray
galaxy
galbraith
gale
galeana
gales
galicia
galician
galicie
galilee
galilei
galileo
galite
galium
gall
gallagher
gallardo
galleries
gallery
galliera
gallipoli
gallo
gallon
gallowa
galloway
gallus
galway
gama
gamal
gambia
gambie
gamble
game
games
gamespot
gamma
gan
gana
gandersheim
gandhi
gane
gang
gangdong
gangin
gangnam
gangs
gangseo
gangster
ganja
gansu
gao
gap
gar
garage
garay
garbage
garci
garcia
gard
garde
garden
gardens
gardiner
gardner
gareth
garfield
garibaldi
garioch
garland
garlic
garlieston
garmisch
garmsar
garner
garnered
garni
garonne
garraf
garrison
garros
garry
gart
gartnait
garuda
gary
garza
gas
gases
gash
gaspar
gasteiz
gaston
gastone
gastronomy
gat
gatchinsky
gate
gatepiers
gates
gateway
gatewey
gather
gathered
gatherin
gathering
gation
gau
gauge
gaul
gaulle
gauls
gaun
gauss
gauteng
gave
gavin
gawc
gay
gaz
gaza
gazelle
gazeta
gazeteer
gazette
gazetteer
gazi
gaziantep
gaziosmanpas
gazprom
gb
gc
gcb
gd
gdan
gdp
gdynia
ge
gear
gearbox
gears
gebietsstand
geburtsort
ged
geddes
gedera
geese
gegharkunik
geiger
geim
gelderland
gelotte
gem
gemeente
gemeinde
gemeinden
gemini
gemm
gemme
gemmes
gemms
gems
gen
gender
gene
genealogical
genealogy
genera
general
generalitat
generally
generals
generate
generated
generates
generatin
generating
generation
generations
generatit
generator
generic
genes
genesis
genetic
genetically
geneticist
genetics
geneva
genevie
geng
genghis
genie
genital
genitive
genius
genki
gennaro
genoa
genocide
genoese
genome
genomics
genre
genres
gent
gentle
gentleman
gently
gentry
genuine
genus
geo
geoff
geoffrey
geogra
geografer
geografi
geografia
geografic
geografical
geografically
geografie
geografski
geograph
geographer
geographic
geographical
geographically
geographische
geographischen
geography
geohive
geologic
geological
geologie
geologist
geology
geometric
geometry
geoname
geonames
geonet
geopedia
geophysical
geordie
georg
george
georges
georgetown
georgia
georgian
georgians
georgie
georgies
geospatial
ger
gerais
gerald
geranium
gerard
gerardo
gerhard
germa
germain
german
germania
germanic
germans
germany
germplasm
gerrard
gerry
gers
gertrudis
geschichte
geschlecht
gesellschaft
get
geta
getafe
getashen
gets
gettin
getting
getty
geun
geva
gey
ghaist
ghana
gharbi
ghat
ghent
ghetto
ghia
ghil
ghosh
ghost
ghosts
gi
gia
giacomo
gian
gianna
gianni
giant
giants
gibb
gibbon
gibbs
gibraltar
gibson
gica
gicas
gico
gie
gied
giein
gien
gies
gif
gifford
gift
gifts
gifu
gig
gigs
gijo
gil
gilan
gilbert
gilderoy
giles
gilgit
gill
gilles
gillespie
gillian
gillies
gilligan
gilmour
gime
gimhae
gimpo
gin
gina
ginger
gini
gino
gion
gions
giorgio
giorgos
giovanna
giovanni
gipuzkoa
girardot
giratagh
girl
girlfriend
girls
giro
girona
gironde
girse
girugamesh
girvan
gis
git
gitashenasi
giulia
giuliano
giuseppe
giv
givat
give
given
gives
givin
giving
giza
gks
gl
gla
glacial
glacier
glaciers
gladbach
gladstone
glamorgan
glance
gland
glands
glantz
glas
glasgow
glass
glen
glencairn
glencoe
glendale
glenlochar
glenluce
glenluice
glenn
glenrothes
glens
glesca
glesga
glesgae
gless
gli
gliederungen
gloamin
global
globalization
globally
globalsecurity
globe
gloria
glorious
glory
glossary
glottolog
gloucester
gloucestershire
glover
glu
glucose
gm
gma
gmbh
gmc
gmina
gmt
gne
gnu
go
goa
goal
goalkeeper
goals
goat
goats
gob
gobase
gobernacion
gobernador
gobi
gobierno
god
goddess
goddesses
godefroy
godfather
godmither
gododdin
godoy
gods
godwin
godzilla
goes
goethe
gogh
goguryeo
goi
goia
goierri
goin
going
gol
golan
gold
goldberg
golden
goldman
golf
golfo
gomel
gomera
gomes
gomez
gon
gonc
gondrin
gone
gong
gonghang
gontaut
gonza
gonzaga
gonzalez
gonzalo
good
goodbye
goodman
goods
goodwill
goody
google
googoosh
goose
gopalganj
gora
gorbachev
gorda
gordon
gore
gorgan
gorge
gori
gorica
goris
gorizia
gorky
gornji
gorod
gorodetsky
gorodok
goryeo
gospel
gospels
gosstandart
got
gotha
gothenburg
gothic
goths
gotland
goto
gotoku
gotten
gottfried
gottlieb
gottorp
gou
gouda
goudie
gould
gov
govan
governance
governed
governess
governin
government
governmental
governments
governor
governorate
governorates
governors
govi
govrenance
govrened
govrenin
govrening
govrenment
govrenmental
govrenments
govrenor
govrenorate
govrenorates
govrenors
govt
gowan
gowd
gowden
gowf
gowfer
gowk
goya
gp
gpiatlantic
gpl
gps
gq
gr
gra
grace
gracia
grad
grada
grade
gradec
grades
gradual
gradually
graduate
graduatin
graduation
graduatit
grady
graeme
graf
graff
graffiti
graham
grain
grains
graith
gram
grammar
grammatical
grammy
grammys
gramont
gran
granada
grand
granddaughter
granddochter
grande
grandee
grandes
grandfaither
grandfather
grandmaster
grandmither
grandmother
grandparents
grandson
graneros
grange
granite
granja
grant
granted
granting
grantit
grants
grape
grapes
graphene
graphic
graphical
graphics
graphite
graphs
grass
grassic
grassland
grasslands
grave
graves
graveyard
gravitational
gravity
gray
graz
grazin
gre
great
greater
greatest
greatly
greco
gree
greeance
greece
greed
greek
greeks
greement
greements
green
greene
greenery
greenland
greenlandic
greenock
greens
greenville
greenway
greenwich
greenwood
grees
greet
greg
gregg
gregor
gregorian
gregorio
gregory
greit
grenada
grenadines
grenoble
gress
gressoney
gret
greta
gretna
grew
grey
grid
grief
grierson
griffin
griffith
griffiths
grigor
grille
grimaldi
grimm
grin
grind
grindcore
grip
gro
groats
grocery
grodno
groningen
groond
groove
gross
grossed
grosses
grossin
grossing
grosso
grotto
grouls
ground
grounds
group
groupe
grouped
groupin
groupit
groups
grove
groves
grow
growe
growed
growen
growes
growin
growing
grown
grows
growt
growth
growthe
growthie
growthiness
grozny
gru
grubb
grund
grunds
grunge
grupo
gruyter
gs
gt
gto
gtx
gu
gua
guadalajara
guadalupe
guadeloupe
guajira
guam
guanacaste
guanajuato
guangdong
guangxi
guangzhou
guanta
guantanamo
guarani
guarantee
guaranteed
guard
guarda
guardia
guardian
guardians
guardiola
guards
guarulhos
guastalla
guatemala
guatemalan
guava
guaviare
guayabal
guayaquil
guayas
gue
guernsey
guerra
guerre
guerrero
guerrilla
guerrillas
guest
guests
guetta
guevara
guez
gui
guia
guiana
guiche
guid
guidance
guide
guidelines
guides
guidit
guidman
guido
guids
guidwife
guije
guila
guild
guildhall
guilin
guillaume
guillermo
guilty
guinea
guinness
guise
guiss
guitar
guitarist
guitarists
guitars
guizhou
gujarat
gules
gulf
gumi
gun
gunma
gunmen
gunn
gunpouder
guns
gunsan
gunter
guo
gur
guri
gurion
guro
guru
gus
gush
gust
gustaf
gustav
gustave
gustavo
gut
gutenberg
guthrie
gutie
guwf
guy
guyana
guyo
guyok
guzma
gwangju
gwent
gwynedd
gyeonggi
gyeongsang
gymnasium
gymnast
gymnastics
gyo
gypsies
gypsy
gyumri
h
ha
haakon
haapsalu
haaretz
habana
habib
habit
habitacio
habitat
habitation
habitats
habits
habo
habsburg
habsburgs
hacienda
had
hadar
haddie
haddington
hadera
hadoa
hadrian
hae
haed
haedna
haein
haen
haengjeong
haes
haesna
haeundae
hafei
hafez
haffah
hagen
haggis
hague
hahn
hai
haiducii
haifa
haig
haikou
hail
haile
hailed
hails
haim
haimer
hainan
hainaut
hainin
haiphong
hair
haird
hairsk
hairst
hairy
haiti
haitian
haji
hajj
hakka
hal
haldane
hale
halely
halen
half
haliday
hall
halland
halle
halley
halliwell
halloween
halt
halth
haly
halych
halyruid
ham
hama
hamadan
hamamatsu
hamas
hambleton
hamburg
hame
hameland
hameless
hamelt
hamepage
hames
hamespun
hametoun
hamgyongnam
hamid
hamilton
hamiltoun
hamish
hamlet
hamlets
hammadi
hammam
hammarstro
hammer
hammerfall
hammersmith
hammond
hampden
hampshire
hampstead
hampton
hamsun
han
hancock
hand
handbaw
handbook
hande
handed
handicrafts
handle
handled
handles
handlin
handling
hands
haneda
hang
hanged
hangin
hanging
hangul
hangzhou
hanja
hank
hanko
hanks
hankyu
hanna
hannah
hannibal
hannover
hanoi
hanover
hans
hansard
hanseatic
hansen
hanshin
hantle
hapoel
happen
happened
happenin
happens
happent
happiness
happy
har
hara
harald
haram
harare
harbin
harbor
harbour
harcourt
hard
hardcore
hardcover
harding
hardware
hardy
hare
haredi
harju
harku
harlequin
harley
harlow
harm
harmony
harn
harold
harp
harper
harpercollins
harris
harrisburg
harrison
harrow
harry
harsh
hart
hartford
harv
harvard
harvest
harvey
harvie
haryana
has
hasakah
hasan
hasbro
hasharon
hashemite
haskovo
haspelmath
hassan
hassi
hastings
haswell
hat
hatay
hatch
hatchback
hate
hatred
hats
haud
hauden
haudin
haudit
hauds
hauf
haufwey
haul
hauld
haulder
hauldin
haulds
haun
haund
haundit
haundle
haundlin
haunds
haunt
haunted
hauptbereichen
haurd
haurdly
haus
haute
hautes
hauts
havana
have
havel
haven
havilland
havin
having
havre
haw
hawai
hawaii
hawaiian
hawick
hawk
hawking
hawkins
hawks
haws
hay
hayden
haye
hayes
hayk
haynes
hayward
hazara
hazards
hbo
hc
hd
hdi
he
head
headed
heading
headline
headquartered
headquarters
heads
heal
healey
healin
healing
health
healthcare
healthy
hear
heard
hearin
hearing
hearn
heart
hearts
heat
heath
heather
heathrow
heatin
heatit
heaven
heavily
heavy
heavyweight
hebdo
hebei
hebrew
hebrides
hebron
hectare
hectares
hector
hedgehog
hedmark
hedwig
hee
heel
heestoric
heestorical
heestorically
heestory
hegel
hegemony
heian
heich
heicher
heichest
heichlands
heichlie
heichly
heichmaist
heichs
heicht
heid
heidelberg
heidi
heidin
heidit
heidlichts
heidmaist
heidquairtered
heidquairters
heidquartered
heidquarters
heidquartert
heids
heidsman
heidsteid
heights
heilongjiang
heineken
heinemann
heinrich
heinz
heir
heiress
heirs
heiven
hejaz
hel
held
helen
helena
helene
helens
helicopter
helicopters
helium
hell
helle
hellenic
hellenistic
hellersdorf
hello
helloween
helly
helm
helmet
helmut
help
helped
helpin
helpit
helps
helsingborg
helsingin
helsingør
helsinki
helwan
hemisphere
hen
henan
henares
hence
henderson
hendrik
hendry
henin
henman
henri
henrietta
henriette
henrik
henrique
henry
hepburn
heping
her
hera
heraklion
herald
heraldic
heraldry
heraldscotland
heras
herb
herbaceous
herbert
herbour
hercule
hercules
herd
here
heredia
hereditary
herefordshire
herge
heritage
herman
hermanadas
hermann
hermel
hermit
hermitage
hermosa
hermosillo
herna
hernandez
hernando
hero
heroes
heroic
heroin
heroine
heron
herrera
herrin
herring
herschel
hersel
herself
hersh
hert
hertfordshire
herts
herzegovina
herzegovinae
herzl
herzliya
herzog
hes
hesiod
hess
hesse
hessen
het
hettest
hewitt
hey
heyday
hezbollah
hi
hiatus
hibernian
hicht
hichter
hichtest
hichtlie
hichts
hicks
hid
hidalgo
hidden
hide
hideo
hides
hidin
hie
hieland
hielands
hier
hierarchy
hieway
higashi
higgins
high
highbeam
higher
highest
highland
highlander
highlands
highlights
highly
highness
highway
hiiu
hikin
hilary
hilbert
hilda
hildburghausen
hill
hillary
hillenburg
hillman
hills
hillside
hilltop
hilly
hilton
him
himachal
himalayan
himalayas
himeji
himsel
himself
hin
hinckley
hindenburg
hinder
hinderly
hindermaist
hindi
hindu
hinduism
hindus
hindustani
hingis
hings
hinkley
hinojosa
hint
hinterland
hintle
hip
hipo
hiragana
hire
hired
hiroshima
hirota
his
hispania
hispanic
hispaniola
hissel
histo
histoire
historia
historian
historians
historic
historical
historically
historicenvironment
historie
histories
history
hit
hitchcock
hitler
hits
hittin
hittite
hiv
hivier
hiviest
hivily
hivy
hj
hjaltalin
hk
hl
hlin
hlter
hm
hmong
hms
ho
hoa
hobart
hobbit
hobyo
hoc
hockey
hod
hof
hoffman
hoffmann
hogan
hogg
hogmanay
hohenlohe
hohenzollern
hohmann
hoi
hoist
hokkaido
hoku
holbrook
hold
holden
holder
holding
holdings
holds
hole
holes
holgui
holiday
holidays
holiest
holland
hollande
hollow
holloway
holly
hollywood
holm
holmes
holmgren
holocaust
holodomor
holon
holstein
holt
holy
holyrood
homage
hombre
homburg
home
homeland
homepage
homer
homes
homme
homo
homonymous
homosexual
homosexuality
homs
hon
honda
hondo
honduran
honduras
honest
honey
hong
honnef
honneur
honolulu
honor
honorar
honorary
honore
honored
honorific
honors
honour
honourable
honoured
honours
honshu
hood
hoogtebestand
hook
hoose
hoosed
hoosehaud
hoosehauds
hoosehauld
hoosehaulds
hooses
hoosin
hoover
hop
hope
hoped
hopes
hopkins
hopper
horace
hordaland
horde
horizon
horizons
horizontal
horizontally
horizonte
hormone
hormones
horn
horned
hornos
horns
horny
horodok
horror
horse
horseback
horsepouer
horses
horst
horta
hortense
horticultural
horus
hosni
hospital
hospitalet
hospitality
hospitals
hossein
host
hostage
hosted
hostile
hostilities
hostin
hostit
hosts
hot
hotel
hotels
hotspur
hottest
hottle
hottles
hou
houaniver
houever
houghton
houiver
houlet
houlets
hounaiver
hound
hour
hours
house
household
households
housepian
houses
housing
housomeiver
housomeivver
housomever
housomiver
houss
houston
hovhannes
how
howard
howe
however
howp
howrah
hoy
hp
hq
hr
hrazdan
hrib
hrsg
hs
hsbc
htm
html
http
https
hu
hua
huac
huai
huajuapan
huang
huatl
huatulco
huautla
hub
hubbard
hubble
hubei
hubert
hubs
hud
huddersfield
hudson
hue
huehuetenango
huelva
huesca
huey
huffington
huge
hugh
hughes
hugman
hugo
hui
huid
huila
huixquilucan
hulk
hull
human
humanist
humanitarian
humanities
humanity
humano
humans
humber
humble
humboldt
hume
humid
humidity
hummels
humor
humour
humphrey
hun
hunan
hunder
hunders
hunderyear
hunderyears
hundred
hundreds
hung
hungarian
hungarians
hungary
hunger
hungry
hunner
hunsru
hunt
hunter
hunters
huntin
hunting
huntingdon
huntington
huntit
huntly
hurghada
hurlingham
hurricane
hurt
hus
husband
husbandry
husby
hush
hussein
huston
hut
hutt
hutton
hutu
huv
huygens
hwang
hybrid
hyde
hyderabad
hydraulic
hydro
hydrochloric
hydroelectric
hydrogen
hydrology
hydroxide
hyena
hyenas
hygiene
hymn
hymns
hyne
hyo
hyphen
hypotheses
hypothesis
hyun
hyundai
hyvinka
hɑ
i
ia
iaaf
iai
iain
ian
ias
iata
iau
iba
ibarra
ibb
ibe
iberia
iberian
iberie
ibge
ibm
ibn
ibrahim
ibrox
ic
ica
icao
icar
icarus
ice
iceland
icelanders
icelandic
ich
icon
iconic
icons
icw
id
ida
idaho
idea
ideal
idealism
ideals
ideas
identical
identifee
identifeed
identification
identified
identifier
identifies
identify
identifyin
identities
identity
ideological
ideology
idescat
idh
idhlig
idi
idle
idlib
idol
idris
ie
ieee
if
ifa
ifam
iffhs
ifpi
ig
iga
iglesia
iglesias
ign
ignacio
ignatius
ignition
ignored
igor
iguala
igualada
iguana
ii
iii
ija
ik
ike
ikea
iksan
il
ila
ilan
iland
ilands
ildefonso
ile
iles
ili
iliad
ilina
ilk
ilka
ilkane
ill
illegal
illegitimate
illeir
illinois
illit
illness
illusion
illustrated
illustration
illustrations
illustratit
illustrator
illustrious
ilmarinen
ilocos
ils
ilya
im
ima
image
imagery
images
imaginary
imam
imatra
imax
imdb
imeni
imereti
imf
immaculate
immanuel
immediate
immediately
immense
immigrant
immigrants
immigration
immigratit
immortal
immune
imp
impact
imperator
imperia
imperial
imperialism
implement
implementation
implementit
implications
implies
import
importance
important
importantly
importit
imports
imposed
imposin
impossible
impreesoned
impreesonment
impressed
impression
impressive
imprint
imprisoned
improve
improved
improvement
improvements
impruive
impruived
impruivement
impruivements
impruivin
impruivit
impulse
imre
imsil
in
ina
inactive
inafed
inappropriate
inari
inaugural
inauguration
inauguratit
inbhir
inby
inc
inca
incarnation
incentive
inception
inch
incheon
inches
incidence
incident
incidents
include
included
includes
includin
including
includit
incluidin
inclusion
inclusive
income
incomplete
incorporate
incorporated
incorporates
incorporatin
incorporation
incorporatit
incorrect
incorrectly
increase
increased
increases
increasin
increasingly
increasinly
incredible
incumbent
indec
indeed
independence
independencia
independent
independently
independiente
index
indi
india
indian
indiana
indianapolis
indians
indicate
indicates
indicatin
indication
indicatit
indicative
indicator
indicators
indie
indien
indies
indigenous
indigo
indirect
indirectly
individual
individuals
indo
indocheenae
indonesia
indonesian
indonesie
indoor
indore
indre
induced
inductit
indus
industrial
industrialisation
industrialisit
industrialist
industrialization
industrialized
industrie
industries
industry
indwallers
indwellers
ine
ineetial
ineetially
ineetiatit
inegi
inen
inequality
ines
infamous
infancy
infant
infanta
infante
infantry
infants
infaw
infection
infections
infectious
infectit
inferior
infernal
inferno
infinite
infinity
infirmary
inflation
influence
influenced
influences
influencit
influential
influx
info
infobase
infobox
inforama
informa
informacio
informal
informally
informatics
information
informed
infrared
infrastructur
infrastructure
ing
inga
ingan
ingang
ingans
ingine
ingined
ingineer
ingineered
ingineerin
ingineers
ingines
ingland
ingles
inglis
inglish
ingolstadt
ingram
ingredient
ingredients
ingrid
ingush
ingushetia
ingushetie
inh
inhab
inhabit
inhabitant
inhabitants
inhabited
inhabitin
inhabitit
inherit
inheritance
inherited
inheritit
ini
initial
initially
initials
initiatit
initiative
injection
injectit
injured
injuries
injurin
injury
ink
inland
inlet
inline
inn
inner
innerness
innes
innocence
innocent
innocenti
innovation
innovations
innovative
inns
innsbruck
inorganic
inpit
input
inquirer
inquiry
inquisivi
inrowed
ins
insaumple
inscribed
inscribit
inscription
inscriptions
insect
insects
insee
inside
insider
insight
inspecially
inspection
inspector
inspiration
inspire
inspired
insse
instability
instagram
installation
installations
installed
installment
instance
instances
instant
instawed
instead
insteid
institut
institute
institutes
institution
institutional
institutionellen
institutions
institutit
instituto
instruction
instructions
instrument
instrumental
instrumentalist
instruments
insufficient
insular
insurance
insurgency
int
inta
intact
intae
integer
integral
integrate
integrated
integration
integratit
integrity
intel
intellectual
intellectuals
intelligence
intelligent
intelligibility
intelligible
intended
intendencia
intendit
intense
intensity
intensive
intent
intention
inter
interact
interaction
interactions
interactive
interchynge
interchyngeably
intercity
intercontinental
intercoorse
intercourse
intercultural
interest
interestin
interesting
interestit
interests
interface
interfax
interference
interim
interior
interiors
interlingua
intermediate
internacional
internaitional
internaitionally
internal
internally
international
internationale
internationales
internationally
internazionale
internet
interno
interpret
interpretation
interpretations
interpreters
interpretit
interregional
interruptit
intersection
interstate
interstellar
intertoto
interval
intervals
intervention
interview
interviewed
interviews
intil
intimate
intlab
into
intramuros
intro
introduce
introduced
introduces
introducin
introducing
introducit
introduction
introductory
inva
invade
invaded
invaders
invades
invadin
invadit
invalid
invasion
invasions
invasive
invented
invention
inventions
inventit
inventor
inventors
inventory
inverclyde
inverness
invertebrates
inverurie
invest
investigate
investigation
investigations
investment
investments
investor
investors
invicta
invisible
invitation
invited
invitit
involve
involved
involvement
involves
involvin
involvit
io
ioannis
ioc
iodine
ion
iona
ionian
ionic
ions
ios
iowa
ip
ipa
ipad
ipdl
iphone
ipswich
iqbal
ir
ira
iran
iranian
iranians
iranica
iraq
iraqi
irbid
ire
ireann
ireland
irene
iri
irina
iris
irish
irkutsk
irn
iron
irons
irregular
irrigation
irrigatit
irtysh
irun
irvine
irving
irwin
is
isa
isaac
isabel
isabella
isabelle
isaiah
isbn
ise
isfahan
ishikawa
ishtar
isidore
isidro
isis
isla
islam
islamabad
islamic
islamist
island
islander
islanders
islands
islas
islay
isle
isles
islets
islington
ismail
isn
isna
isnae
iso
isolation
isolatit
isonzo
isotope
isotopes
isparta
israel
israeli
israelis
issn
issue
issued
issues
issyk
ist
istanbul
istat
isthmus
istmo
isu
isurus
isuzu
it
ita
itabira
ital
italia
italian
italiana
italiani
italiano
italians
italic
italics
italo
italy
itchy
ite
item
itemid
items
iter
itf
ithaca
ither
ithers
itherwise
ithir
itis
ito
its
itsel
itself
itunes
iturbide
ituzaingo
itv
iu
iucn
iucnredlist
iupac
iv
iva
ivan
ivano
ivanovic
ivanovo
ivanovsky
ivar
iver
ivery
iveryday
iverything
ivo
ivoire
ivory
ivy
ix
ixelles
ixtla
iyas
iz
izabal
izhevsk
iziaslav
izz
j
ja
jaani
jabal
jableh
jabotinsky
jacinto
jack
jackal
jackie
jackson
jacksonville
jacob
jacobite
jacobites
jacobo
jacobs
jacqueline
jacques
jade
jae
jafar
jaffa
jaguar
jahra
jahrbuch
jail
jailed
jaime
jakarta
jake
jakob
jalal
jalandhar
jalapa
jalisco
jalouse
jaloused
jam
jama
jamahiriya
jamaica
jamaican
jame
james
jamestown
jamie
jamiltepec
jammu
jan
jane
janeiro
janet
janice
jankovic
janne
janos
januar
januari
january
japan
japanese
jar
jardi
jardine
jared
jarl
jaruco
jasmine
jason
jasper
jaume
java
javan
javanese
javascript
javed
javier
jaw
jawa
jawf
jawi
jaws
jay
jays
jazeera
jazz
jb
jbeil
jcag
je
jean
jeanne
jeb
jebel
jedburgh
jeddah
jedi
jeff
jefferson
jeffery
jeffrey
jeju
jelena
jena
jenin
jenkins
jenner
jennifer
jenny
jens
jensen
jeollabuk
jeongeup
jeonju
jerash
jeremy
jericho
jermuk
jero
jerome
jerry
jersey
jerusalem
jerzy
jese
jesper
jesse
jessica
jessie
jester
jesu
jesuit
jesuits
jesus
jet
jets
jew
jeweils
jewel
jewellery
jewelry
jewels
jewish
jews
jex
jezersko
jharkhand
ji
jia
jiang
jiangsu
jiangxi
jilin
jill
jim
jime
jimi
jimmy
jin
jinping
jinshan
jisr
jist
jj
jm
jo
joa
joachim
joan
joana
joanna
joanne
joaqui
joaquin
joaquina
job
jobs
jocelyn
jock
jockey
jodie
joe
joel
joensuu
joey
johan
johann
johanna
johannes
johannesburg
johansson
john
johnny
johns
johnson
johnston
johnstone
johor
join
joined
joinin
joining
joins
joint
jointly
joinville
joke
joki
jolly
jolo
jomala
jon
jonah
jonas
jonathan
jones
jong
jongno
jordan
jordanian
jordi
jorge
jose
josef
josefa
joseon
josep
joseph
josepha
josephine
josh
joshua
josias
joule
jounieh
journal
journalism
journalist
journalists
journals
journey
jouy
jovi
joy
joyce
joyeuse
jp
jpg
jpl
jr
jsc
jsp
jstor
ju
jua
juan
juana
juanes
juarez
jubatus
jubilee
juchita
judah
judaism
judas
judd
jude
judge
judges
judging
judgment
judicial
judiciary
judith
judo
judoka
judy
jueves
juha
juice
juidge
juin
juist
juistice
jujuy
jukka
jul
jules
julho
julia
julian
juliana
juliane
julie
julien
juliet
julieta
julio
julius
july
jumelages
jump
jumpin
jun
junction
juncus
june
jung
jungle
junhui
juni
junio
junior
juniors
junius
juno
junta
jupiter
juquila
jura
jurassic
jure
juris
jurisdiction
jurisdictions
jurist
jurnal
jurnalism
jurnalist
jurney
jury
jus
just
justice
justification
justin
justine
justinian
justo
jutiapa
jutland
juuru
juvenile
juventud
juventus
juxtlahuaca
jyle
jyn
jyne
jyned
jynes
jynin
jyns
jynt
jyntly
jyva
k
ka
kaarina
kabardino
kabila
kabukicho
kabul
kabushiki
kadett
kadıko
kafka
kafr
kagawa
kagoshima
kah
kahak
kahn
kahramanmaras
kai
kaido
kail
kainuu
kairouan
kaiser
kaiu
kajaran
kaka
kakheti
kakhovka
kala
kalajoki
kale
kalevala
kali
kalimantan
kalina
kaliningrad
kalininsky
kallikratis
kalmah
kalmar
kaluga
kama
kamal
kamchatka
kamensk
kamensky
kamianets
kamnik
kampong
kan
kana
kanagawa
kanazawa
kandahar
kane
kangaroo
kanji
kanpur
kansai
kansas
kant
kantele
kanto
kanye
kaohsiung
kaori
kapan
kapi
kapok
kar
kara
karaag
karabakh
karachay
karachi
karak
karakol
karamyshevo
karbala
kardes
kardzhali
karel
karelia
karelian
karelie
karen
karim
karin
karl
karlsruhe
karlstad
karma
karnataka
karolina
karoline
kars
karst
kartli
karvina
kas
kasem
kashmir
kass
kassar
kassel
kat
katakana
kate
katharina
katharine
katherine
kathleen
kathmandu
kathryn
kathy
katie
kato
katowice
katra
katrina
katy
katz
katzenberg
kaufman
kaufmann
kaunas
kauniainen
kavala
kavalerovsky
kawasaki
kay
kayseri
kazakh
kazakhs
kazakhstan
kazan
kazimierz
kb
kc
ke
keane
keating
keats
kebili
keegan
keel
keelung
keen
keeng
keengs
keep
keeper
keepin
keeping
keepit
keeps
kehra
kehtna
kei
keio
keir
keisei
keith
kellie
kello
kells
kelly
kelpie
kelsae
kelso
kelvin
kem
kemal
kemerovo
kemp
ken
kendall
kenmerk
kenmure
kenned
kennedy
kennel
kenneth
kennin
kennington
kennt
kenny
kens
kensington
kenspeckle
kent
kenton
kentucky
kenya
kenyae
kenyan
kepler
kept
ker
kerala
kerava
kerber
kerman
kermanshah
kerncijfers
kernu
kerr
kerry
kerse
kesfehe
kevin
kew
key
keyboard
keyboards
keybuird
keybuirdist
keybuirds
keynes
keys
kf
kfar
kg
kh
kha
khabarovsk
khaimah
khaled
khalid
khalifa
khalil
khan
khanate
khanong
khanty
khao
kharga
kharkiv
khartoum
khasan
khashoggi
khen
kherson
khet
khimki
khlibko
khlong
khmelnytskyi
khmer
khndzoresk
kho
khodro
khojavend
khomeini
khorasan
khosrowabad
khovd
khru
khrushchev
khrustalny
khu
khulna
khusf
khutor
khuzestan
khwaeng
khyber
ki
kia
kibbutz
kichmengsko
kichmengsky
kick
kicker
kickin
kid
kidnapped
kids
kie
kiel
kieran
kiesling
kiev
kievan
kifisia
kiili
kil
kilbride
kildare
kilis
kilkenny
kill
killed
killer
killers
killin
killing
killins
kills
killt
kilmarnock
kilo
kilogram
kilometer
kilometers
kilometre
kilometres
kilpatrick
kilt
kim
kimberly
kin
kinabalu
kincardine
kind
kindergarten
kindergartens
kinds
kineshma
kinetic
king
kingdom
kingdoms
kings
kingston
kinrick
kinricks
kinross
kins
kinshasa
kintetsu
kintra
kintras
kintraside
kintyre
kipchak
kipling
kirby
kirchner
kiribati
kirillovsky
kirk
kirkbride
kirkcolm
kirkconnel
kirkcoubrie
kirkcoubrieshire
kirkcowan
kirkcudbright
kirkcudbrightshire
kirkgunzeon
kirkinner
kirkkonummi
kirkland
kirkmaiden
kirkpatrick
kirks
kirkwaa
kirkwall
kirkyaird
kirkyard
kirnel
kirov
kirovohrad
kirovsky
kirsten
kirsty
kiryat
kis
kiss
kisser
kit
kita
kitakyushu
kitchen
kitchener
kite
kits
kitsap
kitts
kiver
kivered
kiverin
kivers
kivert
kizlyar
kj
kladus
klaipe
klaukkala
klaus
klein
klm
klu
kluwer
km
kmt
knawledge
knee
knesset
knew
knicht
knichts
knife
knight
knights
knives
knock
knocked
knopf
knot
know
knowledge
knowles
known
knows
knox
ko
kobarid
kobayashi
kobe
koc
kocaeli
koch
kocjan
kocoum
koen
koga
koh
kohila
kohtla
koidula
koigi
kojima
kok
kola
kolkata
kolomna
kolpa
kolsky
kom
komi
kommun
kommunar
kommunarealer
kommune
kommuner
komsomolsk
komsomolsky
kon
konami
kong
kongo
konrad
konstantin
konya
koper
korc
korea
korean
koreans
korn
korolyov
koros
kortrijk
koryo
kos
kose
koski
kosovo
kosovska
kostanay
kostanjevica
kostel
kostelu
kostiantynivka
kostroma
kota
kotayk
kotka
kouros
kova
kovrov
kowloon
kr
kra
kragujevac
krai
krais
kraj
krako
krakow
kraljestev
kramer
kranj
kranjsko
krasnaya
krasnoarmeysky
krasnodar
krasnogorsk
krasnogorsky
krasnogvardeysky
krasnoselsky
krasnoyarsk
krasnoyarsky
krause
kreis
kremlin
kris
krishna
kristian
kristin
kristina
kronoberg
krs
kru
kruger
krung
krylos
ks
kstovo
kt
ku
kuala
kuan
kuban
kublai
kuching
kufa
kufra
kuhn
kul
kum
kumamoto
kumar
kun
kunda
kung
kunga
kunming
kuomintang
kuopio
kura
kurdish
kurdistan
kurds
kuressaare
kurgan
kursk
kurt
kush
kuusalu
kuwait
kuybyshev
kuybyshevsky
kuznetsky
kuznetsova
kv
kvartal
kvitova
kw
ky
kye
kyi
kyiv
kyle
kylie
kynd
kynds
kyo
kyoto
kyren
kyrgyz
kyrgyzstan
kythe
kythed
kythes
kythin
kyu
kyushu
kz
kırklareli
kɑ
kɔ
kə
l
la
laa
lab
label
labeled
labelled
labels
labinsky
labor
laboratories
laboratory
labour
labrador
labs
lac
lachixi
lack
lackin
lacks
lacrosse
lad
lada
lade
laden
ladies
ladin
ladoga
lads
lady
lafayette
lag
laga
lago
lagoa
lagoon
lagoons
lagos
laguardia
laguna
lagunas
lagunillas
laheda
lahore
lahti
lai
laich
laicher
laid
laing
lair
laird
lairds
lairge
lairgely
lairger
lairgest
laither
laitin
lajas
lak
lake
lakes
lakh
lakota
lallans
lam
lama
lamas
lamb
lamballe
lambert
lambeth
lamont
lamp
lamps
lan
lana
lanark
lanarkshire
lancashire
lancaster
lance
lancet
lancia
land
landareal
landau
lander
landes
landesamt
landesbetrieb
landeshauptstadt
landfaw
landgrave
landgravine
landin
landing
landit
landkreis
landlocked
landlockit
landmark
landmarks
landranger
lands
landscape
landscapes
landslide
landwart
lane
lanes
lang
langage
langer
langest
langfin
langham
langholm
langitude
langley
langtime
language
languages
langue
languedoc
lanham
lanka
lankaran
lanrikshire
lanu
lanzhou
lao
laos
lap
lapland
lara
laramie
laredo
large
largely
larger
largest
largo
larissa
larnaca
larrie
larries
larrington
larry
lars
larson
larsson
larus
las
lasa
laser
lass
lassie
lassies
last
lastauthoramp
lasted
lastin
lastit
lasts
lat
lata
latakia
late
lately
later
lateral
latest
latex
latin
latina
latino
latitude
latitudes
latium
latter
latvia
latvian
latvie
lau
lauder
lauderdale
lauenburg
launch
launched
launches
launchin
launching
launcht
laund
laundawner
laundin
laundit
laundmerk
laundmerks
launds
laundscape
laura
laure
laureate
laurel
lauren
laurence
laurent
laurie
laurieston
lauro
lausanne
lauzun
lava
laval
lavalle
lavalleja
lave
lavoisier
law
lawer
lawest
lawland
lawlands
lawn
lawph
lawrence
laws
lawson
lawsuit
lawyer
lax
lay
laye
layer
layers
layin
layoot
layout
lays
laze
lazio
lb
lc
lccn
ld
ldinfo
le
lea
lead
leader
leaders
leadership
leadin
leading
leads
leaf
leaflets
leafs
league
leagues
leal
lealholm
lean
leap
lear
learn
learned
learnin
learning
learnt
lease
least
leather
leave
leaves
leavin
leaving
lebanese
lebanon
lebor
lecce
lech
lecture
lecturer
lectures
led
leddy
ledengskoye
ledger
lee
leeberal
leeberation
leeberatit
leeberty
leebrar
leebraries
leebrary
leed
leeds
leein
leemit
leemitit
leemits
leerical
leerics
lees
leet
leeteracy
leeterally
leeterar
leeterary
leeteratur
leetin
leetit
leets
leeve
leeved
leeves
leevin
lefkada
left
leg
lega
legacy
legal
legally
legane
leganza
legend
legendar
legendary
legends
legged
leggett
legion
legions
legislation
legislative
legislatur
legislatura
legislature
legitimacy
legitimate
legitimised
legnano
legs
lei
leiberal
leibniz
leicester
leicestershire
leid
leiden
leids
leigh
leiningen
leinster
leipzig
leisur
leisure
leith
lejo
leksikon
lemon
lempa
lemur
lemurs
lemy
len
lena
lend
lendl
length
lengua
lenin
leningrad
leningradsky
leninism
leninist
leninsk
leninsky
lennon
lennox
lens
lent
lenth
lenths
leo
leon
leonard
leonardo
leone
leonese
leonhard
leonid
leonor
leopard
leopards
leopardus
leopold
leopoldina
leopoldine
leopoldo
lepidoptera
lepidus
lerdo
lerwick
les
lesbian
lescharts
leslie
lesotho
less
lesser
lesson
lessons
lest
leste
lester
leswalt
leszczyn
let
letelier
lethal
letizia
letter
letters
lettres
leuchtenberg
leuk
leukin
leukit
leuks
leung
lev
levant
level
levels
leven
leverkusen
levi
levine
levy
lewis
lex
lexical
lexicon
lexicorient
lexikon
lexington
ley
leyland
leyte
lez
lezgins
lezion
lf
lg
lgbt
lheim
li
lia
liam
lian
liang
liaoning
lib
liberal
liberation
liberatit
liberia
liberie
libertad
libertador
libertadores
libertarian
liberties
liberty
libian
libie
librar
libraries
librars
library
libre
libres
libya
libyan
lica
lice
licence
license
licensed
licenses
licensing
lich
lichfield
licht
lichter
lichthoose
lichtin
lichtnin
lichts
licite
lid
liddell
lide
lidko
lie
liechtenstein
lies
lieutenand
lieutenant
lieutenants
life
lifeboat
lifelang
lifes
lifespan
lifestyle
lifetime
lift
liftit
lifts
liga
light
lighthouse
lightning
lights
ligne
ligs
ligue
ligurian
ligurie
lik
like
liked
likely
likes
likewise
likit
likwise
lil
lilian
lille
liltin
lily
lim
lima
limassol
limburg
limburgish
lime
limerick
limestane
limestone
limit
limited
limites
limitit
limits
limmy
limo
limond
limousin
limousine
lin
linares
lincoln
lincolnshire
linda
linden
lindsay
lindsey
line
lineage
linear
lined
linen
liner
lines
lineup
ling
lingu
lingua
lingueestic
lingueestics
linguist
linguistic
linguistically
linguistics
linguists
link
linked
linkin
linkit
linko
links
linn
linna
linnaeus
linnean
lint
lintie
linus
linux
linz
lio
lion
lionel
lioness
lionesses
lions
lip
lipa
lipetsk
lipid
lipids
lipin
lipovec
lippe
lips
lipton
lique
liquid
liquor
liria
lis
lisa
lisabeth
lisboa
lisbon
lisesi
lisicki
lisowski
list
lista
listado
listed
listen
listenin
lister
listing
listit
lists
lit
liter
literacy
literal
literally
literary
literatur
literature
lithgae
lithium
lithuania
lithuanian
lithuanie
lito
litoral
litre
litres
litter
little
littlefield
littoral
litueche
liturgical
liu
liv
live
lived
lively
liver
liverpool
liverpuil
lives
livestock
livia
livin
living
livingston
livingstone
livit
livonie
livorno
livre
livy
liwa
lix
liz
lizard
lizards
lizzy
ljubljana
lkerung
lkerungsstand
lkerungsstandes
ll
lla
llano
llanos
llar
llc
lle
lleida
ller
lleste
llewelyn
llez
lln
llobregat
llorenc
lloyd
llwynypia
llywelyn
lmsxlb
ln
lndal
lo
load
loaded
loads
loan
lobkowicz
lobo
lobos
loca
local
localidad
localidades
localities
locality
locally
locals
locate
located
location
locations
locatit
loch
lochaber
lochalsh
lochinvar
lochlands
lochmaben
lochnaw
lochs
lock
lockerbie
locks
loco
locomotive
locomotives
lod
lodge
log
logan
loggin
logic
logical
logician
logie
logistics
logo
logos
lohja
loir
loire
loiret
lok
loka
loki
lola
loma
lomas
lombard
lombards
lombardy
lomond
lon
london
lone
lonely
long
longer
longest
longevity
longitude
longman
longueville
longyan
lons
look
looking
looks
lookup
loop
loose
loosely
lopburi
lopes
lopez
lorca
lord
lordegan
lordi
lords
lordship
lore
lorena
lorenz
lorenzo
lorestan
loreto
lorges
lori
lorimer
lorraine
los
lose
loser
loses
losin
losing
loss
losses
lossin
lost
lot
lothian
lots
lottery
lotus
lou
loud
louis
louisa
louise
louisiana
louisville
lourdes
lourenc
lourinha
louth
louvois
louvre
love
loved
lovell
lover
lovers
loves
loviisa
loving
low
lowden
lowe
lowell
lower
lowest
lowp
lowse
lowsed
lowther
loxicha
loyal
loyalist
loyola
lp
ls
lson
lt
ltd
ltu
lu
lua
luanda
luang
luath
lublin
luc
luca
lucas
lucca
luce
lucena
lucerne
lucero
luci
lucia
lucie
lucifer
lucille
lucius
luck
lucknow
lucky
lucrezia
lucy
ludnos
ludovico
ludovika
ludwig
ludwigsburg
lufthansa
luftwaffe
lug
luga
lugano
lugar
lugo
lugs
luhansk
lui
luice
luigi
luino
luis
luisa
luise
luisin
luiz
luja
luka
lukas
luke
lukovica
lula
lulu
lum
lumie
lumpur
luna
lunar
lund
lung
lunnon
lunnonderry
luo
luoyang
luque
lush
luther
lutheran
luton
lutz
luv
luve
luver
luxembourg
luxemburg
luxor
luxurious
luxury
luynes
luz
luzhniki
luzia
luzon
lv
lva
lvarez
lvaro
lviv
lx
lxi
ly
lyal
lyceum
lychnis
lydia
lyga
lyin
lynch
lyndon
lynn
lynne
lynx
lyon
lyons
lypeaux
lyricist
lyrics
lys
lɑ
lɔ
lə
lɛ
m
ma
maa
maand
maarten
maastricht
mac
macanese
macao
macau
macbeth
macbride
maccabi
macclesfield
macclintock
macdiarmid
macdonald
macdonalds
macedon
macedonia
macedonian
macedonie
macgreegor
macgregor
mach
machado
machali
machars
machine
machinery
machines
machynlleth
maci
macintosh
mack
mackay
mackenzie
mackie
mackintosh
maclean
macleod
macmillan
macomber
macpherson
macquarie
macron
macropus
mad
madaba
madagascar
madame
maddalena
madden
maddie
made
madeira
madeleine
mademoiselle
madero
madhya
madison
madness
madonna
madre
madrid
mae
mafia
maflin
mafra
mafraq
mag
magadan
magallanes
magazine
magazines
magdalena
magdalene
magdeburg
magellan
magenta
maggie
maggiore
maghreb
magic
magical
magistra
magna
magnate
magnesium
magnet
magnetic
magnetism
magnificent
magnitude
magnox
magnum
magnus
mago
maguire
magyar
mah
maha
mahal
maharashtra
mahdia
mahilyow
mahmoud
mahmud
mahogany
mai
maid
maiden
maidla
mail
maille
mailly
main
maine
mainland
mainlaund
mainline
mainly
mains
mainstream
maint
maintain
maintained
maintainin
maintains
mainteen
mainteened
maintenance
maintenon
mainz
maipu
mair
mairage
mairch
mairched
mairches
mairchit
maire
mairiage
mairiages
mairie
mairied
mairiet
mairit
mairower
mairriage
mairriet
mairtial
mairtyr
mairy
mais
maisie
maist
maister
maisters
maistlie
maistlins
maistly
maiter
maiters
maitland
maize
majd
majestic
majesty
major
majority
mak
makar
makars
makati
make
makemake
maker
makers
makes
makeup
makhachkala
makin
making
makit
makker
makkers
makkin
makkit
mako
maks
makup
mal
mala
malacca
malafoustert
malagasy
malaria
malatya
malawi
malay
malaya
malaysia
malaysian
malaysie
malcolm
maldives
maldonado
male
males
malfranteaux
mali
malibu
malik
mall
malley
malloa
mallorca
mallory
malls
malmo
malo
malta
maltae
maltese
maluku
malvi
malvinas
mam
mama
mamdouh
mamey
mamluk
mamluks
mammal
mammalian
mammals
man
manabi
manage
managed
management
manager
managers
manages
managin
managing
managit
managua
manama
manapiare
manaus
mancha
manche
manchester
manchu
manchurie
mancini
mandalay
mandarin
mandate
mandatory
mandela
mandelstam
mandir
mane
manga
manganese
mangeshkar
mango
manhattan
mani
manifesto
manila
manisa
manitoba
mankind
mann
manner
mannheim
manor
manors
manowar
manresa
mans
manse
mansi
mansion
mansions
mansiysk
manson
mansoura
mansur
mantiqah
mantle
mantua
manual
manuel
manuela
manufactur
manufacture
manufactured
manufacturer
manufacturers
manufactures
manufacturin
manufacturing
manufacturt
manuscript
manuscripts
manx
many
manzana
manzanares
mao
maori
map
mapa
mapas
maplandia
maple
mapo
mapping
maps
mapusa
mar
mara
maracaibo
maracay
maradona
maranha
marat
marathi
marathon
marbach
marbella
marble
marburg
marc
marca
marcel
marcela
marcello
marcelo
march
marche
marches
marco
marcos
marcus
mardin
mare
marek
maresme
margaret
margarete
margarida
margarita
margherita
margin
margins
margot
margrave
margravine
margrethe
marguerite
mari
maria
mariachi
mariakerke
mariam
marian
mariana
marianne
mariano
maribor
marie
mariehamn
marijuana
marilyn
marin
marina
marine
mariner
marines
marino
marinus
mario
marion
marios
marit
maritime
maritimes
marius
marj
marjorie
mark
markaz
markazi
marked
marker
market
marketed
marketin
marketing
marketit
markets
markin
markina
markit
marko
marks
markt
markup
markus
marlene
marmara
marne
maronite
maroon
marousi
marque
marques
marquess
marquis
marquise
marr
marrakech
marriage
marriages
married
marries
marriet
marrit
marry
mars
marsa
marsden
marseille
marsh
marshal
marshall
marshes
marston
marsupials
mart
marta
martens
martha
marti
martial
martin
martina
martinez
martinique
martino
martinozzi
martins
martinus
martorell
martuni
martyn
martyr
martyrs
marvdasht
marvel
marvin
marx
marxism
marxist
mary
maryland
marylebone
marz
marzes
mas
masaryk
masaya
mascot
masculine
maserati
masha
mashhad
mashke
masis
masjid
mask
masks
mason
masonry
masrik
mass
massa
massachusetts
massacre
massacred
massacres
masses
massif
massimo
massive
masson
mast
master
mastered
masterin
masterpiece
masters
masturbation
masurie
mat
mata
matamoros
matanza
matanzas
mataro
match
matched
matches
matchroom
mate
matein
mateo
material
materials
maternal
maternity
math
mathemateecian
mathematica
mathematical
mathematician
mathematicians
mathematics
mathias
mathieu
mathilde
matilda
matit
matlab
matn
mato
matos
matriculation
matrix
mats
matsuda
matsumoto
matsuri
matt
matteo
matter
matters
matthew
matthews
matthias
matti
matur
mature
maturity
matzen
maud
mauger
maugre
maule
maun
maureen
mauresmo
maurice
mauricio
mauritanie
mauritius
maurizio
mauro
maurs
mausoleum
maut
maw
maws
max
maxi
maxim
maxima
maximilian
maximilien
maximum
maximus
maxwell
maxwelltoun
may
maya
mayabeque
mayan
maybe
mayenne
mayer
mayhem
mayo
mayor
mayoral
mayors
mayotte
maz
maza
mazandaran
mazarin
mazatec
mazatla
mazda
maze
mazinan
mazkeret
mb
mbe
mblad
mc
mccain
mccall
mccarthy
mccartney
mccoll
mcconnell
mccoy
mcculloch
mccurdy
mcdermid
mcdonald
mcdonnell
mcdowell
mcfarland
mcgill
mcgovern
mcgraw
mcgregor
mcguinness
mcintosh
mckellen
mckenna
mckenzie
mckinley
mckinney
mclaren
mclean
mcleod
mcmahon
mcmanus
mcmillan
mcneill
mcpherson
md
me
mead
meadaes
meadow
meadows
meal
mean
meanchey
meanin
meaning
meanings
meanins
means
meant
meanwhile
measur
measure
measured
measurement
measurements
measures
measurin
measuring
measurs
measurt
meat
meath
mebbe
mecca
mechanical
mechanics
mechanism
mechanisms
mecklenburg
med
medal
medalist
medallist
medals
medan
medelli
medenine
media
mediaeval
median
medical
medici
medicinal
medicinar
medicine
medien
medieval
medina
medio
mediterranean
medium
medley
mee
meeneral
meenerals
meenister
meenisters
meenistries
meenistry
meenit
meenits
meesionar
meestery
meet
meeth
meethical
meethological
meethologie
meethology
meeths
meetin
meeting
meetins
meets
meg
mega
megadeth
megalithic
megami
megara
meghalaya
meghan
mehmed
mehmet
mei
meija
meiji
meilleraye
mein
meinin
meiningen
meir
meisur
meisurin
meisurment
meisurs
meisurt
meitner
mejor
mekong
mel
melanie
melbourne
meldrum
melissa
melle
melo
melodic
melodies
melody
melon
melons
melrose
melt
meltin
melville
melvin
member
members
membership
membrane
memmer
memmers
memoir
memoirs
memorable
memorial
memories
memory
memphis
men
menace
mendel
mendes
mendoza
mengs
menken
menreith
mense
ment
mental
mentally
mentha
mentine
mention
mentioned
mentionin
mentions
mentiont
mentor
menzel
menzies
meps
mer
mercado
mercat
mercatin
mercatit
mercats
merced
mercedes
mercenaries
mercenary
mercer
merchand
merchandise
merchant
merchants
mercia
mercur
mercury
mercy
mere
merely
merge
merged
merger
mergers
mergin
mergit
meri
merida
meriden
meridian
merit
merk
merked
merkel
merkin
merkit
merks
mermaid
merpalu
merriam
merrill
merry
merseburg
mersey
merseyside
mersin
merthyr
meru
merya
mes
mesa
mesoamerican
mesolithic
mesopotamie
mesoregion
mess
message
messages
messenger
messi
messiah
messier
messina
mesta
mestizo
mestizos
mesto
met
meta
metabolism
metacritic
metal
metalcore
metallic
metallica
metallum
metallurgical
metallurgy
metals
metamorphosis
metaphysics
meteor
meteorite
meteorological
meteorology
metepec
meter
meters
methane
method
methodist
methodology
methods
metre
metres
metric
metro
metrology
metropolis
metropolitan
metropolitana
metropolitano
mets
metsamor
mettmann
metz
meuse
mex
mexica
mexicali
mexican
mexicana
mexicano
mexicans
mexico
mey
meyer
mez
mezcal
mfa
mg
mgm
mh
mi
mia
miahuatla
miami
miasta
miasto
mica
micaela
mice
michael
michel
michelangelo
michele
michelin
michelle
michigan
michoaca
michoacana
micht
mick
mickey
micro
microbiology
micronesie
microphone
micropolitan
microregion
microscope
microsoft
mid
middle
middleport
middlesbrough
middlesex
middlin
midfield
midfielder
midget
midi
midland
midlands
midlothian
midlowden
midnicht
midnight
mids
midsummer
midwastren
midway
mie
mifflin
might
mighty
migrant
migrants
migrate
migratin
migration
migrations
migratit
migratory
miguel
mika
mikael
mike
mikel
mikhail
mikko
mil
milan
milanese
milano
milanovac
mild
milder
mile
milenio
miles
milestone
milie
militant
militants
militar
military
militia
milk
milkins
milky
mill
milla
millar
mille
millennia
millennium
miller
millet
millimetre
millimetres
million
millions
mills
milne
milos
milton
milwaukee
min
mina
minaj
minami
minaret
minas
minato
mind
mindanao
mindat
minds
mine
mined
mineiro
mineral
mineralogy
minerals
miners
mines
ming
minh
mini
miniature
minimal
minimum
minin
mining
miniseries
ministe
minister
ministerial
ministerio
ministers
ministry
minneapolis
minnesota
minnigaff
minnock
minnyhive
minogue
minor
minorities
minority
minsk
mint
minus
minute
minutes
minya
mio
miquelon
mir
mira
miracle
mirada
miraflores
miramar
miranda
miren
miriam
miro
mirow
mirren
mirror
mirrors
mirza
mis
miscellaneous
mise
misery
mishanter
misio
misiones
mismatch
misrata
miss
missed
missile
missiles
missin
missing
mission
missionar
missionaries
missionary
missions
mississippi
missouri
missy
mist
mistake
mistaken
mistakenly
mister
mistress
mit
mitch
mitchell
mither
mithers
mitherwall
mitla
mitochondria
mitochondrial
mitrovica
mitsubishi
mitte
mitu
mix
mixe
mixed
mixes
mixin
mixtape
mixtec
mixteca
mixtepec
mixtur
mixture
miyagi
mizque
mjo
mk
mkhitar
ml
mla
mlb
mls
mm
mme
mo
moa
moat
mob
mobile
moc
moch
mochis
mochrum
mochs
moda
mode
model
modeled
models
modena
moderate
moderately
moderator
modern
modes
modest
modi
modifee
modification
modifications
modified
modren
modrenist
module
moffat
mogadishu
mogilevich
mohamed
mohammad
mohammed
moi
moiane
moille
moines
moira
moist
mojo
moka
mol
moldavian
moldavie
moldova
moldovae
moldovan
moldovans
mole
molecular
molecule
molecules
molina
molise
molla
molluscs
molly
molotov
molybdenum
mom
moment
moments
momentum
mon
mona
monaco
monagas
monaghan
monanday
monarch
monarchies
monarchs
monarchy
monasteries
monastery
monastic
monastir
monatsende
moncada
monday
monde
monetary
money
monfils
mong
mongol
mongolia
mongolian
mongolic
mongolie
mongols
monica
monie
moniker
moniment
monitor
monitoring
monk
monkey
monkeys
monks
monmouth
monmouthshire
monographs
monopoly
monorail
monroe
mons
monsieur
monsoon
monster
monsters
mont
montagu
montan
montana
montbazon
monte
montenegrin
montenegro
monterey
montero
monterrey
montes
montespan
montesson
montevideo
montferrat
montfort
montgomery
month
monthly
months
monti
montigny
montijo
montmorency
montpellier
montpensier
montre
montreal
montrose
montserrat
monument
monumental
monuments
mony
monza
moody
moon
moond
moonlight
moonspell
moont
moontain
moontains
moor
moore
moorish
moors
moose
mooth
mor
mora
moral
morales
morality
morandi
moravie
moray
moraza
morbid
mordovia
mordovie
more
morel
morelia
morelos
moreno
morgan
morganatic
morganatically
mori
moritz
mormon
mormons
morn
mornin
morning
moro
moroccan
morocco
moroni
morphological
morphology
morris
morrison
morro
morsi
mort
mortal
mortality
mortem
mortemart
morton
mos
mosaic
mosaics
moscow
moselle
moses
mosh
moshav
moshe
moskva
moskvitch
mosley
mosque
mosques
moss
most
mostazal
mostly
mosul
mota
mote
mothe
mother
motherwal
motherwell
motier
motifs
motion
motivatit
motive
moto
motor
motorcycle
motorcycles
motors
motorsport
motorwa
motorway
motorwey
motorweys
motte
motto
mou
mouchy
moulay
mound
mount
mountain
mountains
mountbatten
mounted
mountit
mourinho
mouse
mouth
move
moved
movement
movements
moves
movie
movies
movin
moving
movses
mowbray
moxos
moya
mozambique
mozart
mozhaysky
mozilla
mp
mpg
mph
mps
mpv
mr
mrs
ms
msa
msk
msn
msnbc
msp
msps
mt
mter
mtland
mtskheta
mtv
mu
muammar
muban
mubarak
much
muchalls
muckle
mucklemaist
muckler
mucklest
mud
muddy
mueang
mueller
muerte
mufasa
muffat
mugabe
muggia
mughal
muh
muhafazah
muhammad
muin
muins
muir
muirhead
muisic
muisical
muisically
muisician
muisicker
muisickers
muive
muived
muivement
muivements
muives
muivin
muivit
mujer
mujeres
muju
mukachevo
mukkil
mukkilest
mule
mull
multi
multicultural
multilingual
multimedia
multinaitional
multiple
mumbai
mun
mundell
mundi
mundo
mungo
muni
munich
munici
municipal
municipalidad
municipalidades
municipalite
municipalities
municipality
municipally
municipi
municipio
municipios
munlist
munro
munster
munt
muntain
muntainous
muntains
muntit
mur
murad
mural
murals
murat
murcia
murcie
murder
murdered
murderer
murders
murdoch
murillo
murmansk
murom
murphy
murray
murrayfield
murt
murther
murtherer
murthers
murthert
mus
musa
muscat
muscle
muscles
muse
museo
museum
museums
music
musica
musical
musicbrainz
musician
musicians
musicmight
musique
musk
musker
muslim
muslims
musselburgh
mussolini
must
mustafa
mustafi
mustang
mustard
mute
mutiny
mutton
mutual
mutually
muy
mv
mw
mwe
mx
my
myanmar
myeon
myers
mykolaiv
mynd
mynt
myriam
myrtle
myself
myskina
mysore
myspace
mysteries
mysterious
mystery
mystic
myth
mythical
mythology
myths
mytishchi
mɑ
mɔ
mə
mɛ
n
na
nabatieh
nabi
nablus
nac
nach
nacio
nacional
nad
nadal
nadia
nadie
nadu
nae
naebody
naething
nag
naga
nagaland
nagano
nagar
nagasaki
nagorno
nagoshi
nagoya
naha
nahariya
nahiya
nahiyah
nahuatl
nai
nails
nairae
nairn
nairobi
naither
naition
naitional
naitionalism
naitionalist
naitionalists
naitionalities
naitionality
naitionally
naitionals
naitions
naitionwide
naitur
naitural
naituralist
naiturally
najaf
nakai
nakano
naked
nakhchivan
nakhon
nakit
nalut
nam
namba
namco
name
named
namely
nameplate
names
namesake
namibia
namibie
namin
naming
namit
namo
namsan
namyangju
nan
nancagua
nancy
nane
nanetheless
nanjing
nanning
nantes
naomi
napalm
napier
naples
napole
napoleon
napoleonic
napoli
nara
naranjo
narco
narcotics
nare
nargis
narin
narita
naro
narod
narrae
narrative
narrator
narrow
narrowly
narva
naryn
nas
nasa
nasal
nascar
nasdaq
naselij
nash
nashville
nasir
nasmyth
nasr
nassau
nasser
nat
natal
natalia
natalie
natasha
nate
nathalie
nathan
nation
national
nationale
nationalencyklopedin
nationalism
nationalist
nationalists
nationalita
nationalities
nationality
nationals
nations
nationwide
native
natives
nativity
nato
natur
naturae
natural
naturalist
naturally
nature
naturæ
nau
naucalpan
naur
naurhaun
nauru
nautical
nava
navajo
naval
navarre
navarro
navas
nave
naver
navi
navidad
navigable
navigation
navigator
navy
nawa
nawahi
nawal
naxalbari
nayarit
naypyidaw
nazareth
nazario
nazi
nazionale
nazis
nazism
nba
nbc
nbcolympics
nc
ncbi
nchen
nchengladbach
nchez
ncia
ncipe
ncr
nd
nda
nde
nden
nder
ndez
ndige
ne
nea
neal
neale
neapolitan
near
nearbi
nearby
nearest
nearly
neas
neath
neb
nebraska
nebula
neburg
nec
necessar
necessarily
necessary
neck
neckar
necropolis
ned
nederland
neebour
neebourheid
neebourheids
neebourin
neebours
neeburheid
need
needed
needin
needit
needle
needs
neep
neeps
neer
nefta
negative
negev
neglect
negotiate
negotiations
negra
negro
negros
neighbor
neighborhood
neighborhuid
neighborhuids
neighborin
neighboring
neighbors
neighbour
neighbourhood
neighbourhoods
neighbourin
neighbouring
neighbours
neil
neill
neilson
neist
neither
nejd
nel
nelly
nelson
nelspruit
nemo
nemours
nen
nena
nenets
neo
neoclassical
neolithic
neon
neotibicen
nepal
nepali
nephew
nepomuk
neptune
nerkin
nern
nero
nerva
nerve
nervous
nes
nesbitt
ness
nest
nestin
nestle
nests
net
netanya
netflix
nether
netherlands
neto
nets
netwark
netwirk
netwirks
network
networks
neuburg
neucha
neue
neuer
neufville
neuk
neuko
neuroscience
neuss
neustadt
neuter
neutral
neutrality
neutron
neutrons
neva
nevada
neve
never
nevers
neville
nevis
nevs
nevsky
new
newark
newbery
newbury
newcastle
newcomer
newell
newer
newest
newfoundland
newly
newman
newport
newry
news
newsletter
newspaper
newspapers
newsquest
newsweek
newswire
newton
newtoun
newtown
next
neymar
nez
nezahualco
nfl
ng
nga
ngd
nge
ngel
ngeles
ngelholm
ngo
ngs
ngu
nguema
nguez
nguye
nguyen
nh
nha
nhk
nhl
nhs
ni
nia
niall
nic
nica
nicaragua
nicaraguan
niccolo
nice
niche
nicholas
nichols
nicholson
nicht
nichtclub
nichtclubs
nichtlife
nichts
nichtsta
nichttime
nick
nickel
nickelodeon
nicki
nickname
nicknamed
nicknames
nicky
nico
nicol
nicola
nicolas
nicolaus
nicole
nicosia
nie
niece
niedersachsen
niels
nielsen
niemeyer
nieto
nietzsche
nieves
nig
nigel
niger
nigeria
nigerian
nigerie
night
nightmare
nightrage
nights
nigra
nih
nihon
niigata
nijmegen
nik
nike
nikita
niklas
niko
nikolai
nikolaus
nikolay
nikolayevich
nikolsk
nikolskaya
nikolskoye
nikolsky
nile
nimo
nin
nina
nine
nineteen
nineteent
nineteenth
ninety
ning
ningbo
ningxia
ninh
ninian
ninja
ninoy
nint
nintendo
ninth
nio
niosh
nippon
nis
nisbet
nishapur
nishi
nishikori
nishinomiya
nishizawa
nissan
nist
nit
nitero
nith
nithsdale
nitric
nitrogen
nits
niven
niver
nivertheless
nixon
niyazov
nizhny
nj
nk
nkischen
nko
nl
nls
nm
nme
nn
nne
nnrot
no
noa
noaa
noah
noailles
noam
nobel
nobelprize
nobility
noble
nobleman
nobles
noblewoman
nobody
noche
nochixtla
nocht
nocturnal
node
noe
noel
nogales
noguera
nohur
noi
noir
noise
nokia
nolan
nom
noma
nomadic
nomads
nombre
nome
nomenclatur
nomenclature
nominal
nominally
nominated
nomination
nominations
nominatit
nominee
nominees
nompar
non
none
nong
nonhyeon
nonlinear
nonthaburi
noo
nooh
noon
nor
nora
norawa
norbert
nord
nordegren
nordhoff
nordic
nordisk
nordland
nordrhein
nordsieck
nordstro
norfolk
noriega
norlin
norlins
norm
norma
normal
normales
normally
normals
norman
normandie
normandy
normans
norms
norn
norrbotten
norrie
norrko
norrowey
norse
norte
north
northampton
northamptonshire
northeast
northeasterly
northeastern
northeastren
norther
northern
northmaist
northren
northrenmaist
northumberland
northumbria
northumbrian
northumbrie
northward
northwast
northwastren
northwest
northwestern
norton
norwalk
norway
norwegian
norwich
nos
nose
nossa
nostalgia
not
notable
notably
notation
note
noted
notes
notewirthy
nothing
notice
noticeable
noticed
notices
noticias
notin
notion
notit
notorious
notre
notting
nottingham
nottinghamshire
nou
nouadays
noun
nouns
nouveau
nouvelle
nov
nova
novads
novak
novara
novaya
novel
novelist
novella
novelle
novelles
novels
november
novgorod
novi
novo
novokuznetsk
novorossiysk
novoselytsia
novosibirsk
novosti
novy
now
nowt
npr
nr
nrw
ns
nsa
nster
nsw
nt
ntara
nther
ntico
ntsa
nu
nuckelavee
nuclear
nuclei
nucleus
nude
nuestra
nuestro
nueva
nueve
nuevo
nuin
nukus
number
numbered
numbering
numbers
numeral
numerals
numeric
numerical
numerics
numerous
nummer
nummered
nummerin
nummers
nun
nunavut
nunca
nuns
nuova
nur
nuremberg
nurme
nurmija
nurse
nursery
nusra
nussbaum
nutrient
nutrients
nutrition
nuts
nuweiba
nw
nwa
nws
nx
ny
nya
nyc
nye
nymphalidae
nyse
nytimes
nyukhchinskoye
nyuksenitsa
nyuksensky
nz
nɔ
nə
nɛ
o
oa
oak
oakham
oakland
oaks
oan
oara
oases
oasis
oath
oaxaca
oaxacan
ob
obama
obc
obd
obe
obi
obiang
obispo
obituaries
obituary
object
objective
objectives
objects
oblast
oblasts
obliteration
obninsk
obolon
obrego
obs
observation
observations
observatorio
observatory
observe
observed
observer
observers
observes
observit
obshtina
obshtini
obsolete
obtain
obtained
obvious
obviously
oc
oca
ocampo
occasion
occasional
occasionally
occasions
occidental
occitan
occult
occupancy
occupation
occupee
occupeed
occupees
occupied
occupies
occupy
occupyin
occur
occurred
occurrence
occurrin
occurring
occurs
ocean
oceania
oceanic
oceanie
oceans
ocei
och
ochs
oclc
ocotepec
ocotla
oct
octane
octave
octavian
octavius
october
od
oda
odd
odds
ode
odense
oder
odes
odessa
odin
odnb
odoardo
odos
odose
odyssey
oe
oecd
oed
oeste
oettingen
of
off
offeecial
offeecially
offeecials
offeicial
offences
offensive
offer
offered
offerin
offers
office
officer
officers
offices
official
officially
officials
officiel
officinalis
oficial
oficiales
oficina
often
og
ogden
oghuz
oguz
oh
ohio
ohrid
ohv
oi
oil
ois
oise
oishi
ojinaga
ojo
ok
oka
okayama
oker
okinawa
oklahoma
okrug
okrugs
oktyabrsky
ol
ola
olac
olaf
old
oldenburg
older
oldest
oldham
ole
oleg
oles
olga
oli
oliphant
olivar
olive
oliveira
oliver
olives
olivia
olivier
olmec
olof
olona
olsen
olsztyn
olympia
olympiacos
olympiad
olympian
olympic
olympics
olympique
olympus
om
omaha
oman
omar
omega
omer
omnibus
omri
omsk
on
once
oncome
one
onega
ones
ongangin
ongoin
oni
onie
online
only
ono
onore
ons
onset
ontae
ontario
onto
onwairds
onward
onwards
onwart
ony
onyane
onybody
onything
onywhaur
oo
oor
oors
oot
ootbrak
ootbreak
ootby
ootcome
ootdoor
ooter
oothrou
ootlyin
ootower
ootpost
ootput
ootset
ootside
ootskirts
ootstaundin
ootthrou
ootwi
op
opeenion
opel
open
openbsd
opened
openin
opening
openly
opens
openssh
openstreetmap
opent
opera
operandi
operas
operate
operated
operates
operatic
operatin
operating
operation
operational
operations
operatit
operative
operator
operators
opeth
opinion
opinions
opium
opola
opold
opole
opossum
oppland
opponed
opponent
opponents
opportunities
opportunity
oppose
opposed
opposeetion
opposin
opposite
opposition
oprah
ops
optical
optics
option
optional
options
opuntia
opus
or
ora
oral
oran
orange
oranger
oranges
oras
orbit
orbital
orbitin
orbits
orcadian
orchard
orchards
orchestra
orchestral
orchid
order
ordered
orderin
orders
ordinair
ordinance
ordinar
ordinary
ordnance
ore
oreegin
oreeginal
oreeginally
oreeginate
oreeginates
oreeginatin
oreeginatit
oreegins
oregon
orenburg
ores
org
organ
organic
organisation
organisations
organise
organised
organises
organisit
organism
organisms
organization
organizations
organize
organized
organizit
organs
ori
orieginal
orient
oriental
orientation
oriente
orientit
origen
origin
original
originally
originatit
origins
orinoco
orion
orkhon
orkney
orkneyinga
orkneyjar
orlando
orle
orleans
ornamental
orne
ornithologist
oro
oromo
orontes
orozco
orphaned
orr
orsini
ortega
orthodox
orthodoxy
orthography
ortiz
oruro
orwell
oryol
oryx
os
osa
osaka
osama
osbourne
oscar
oscars
osce
osh
oskar
oslo
osman
osmaniye
oso
osona
osorio
osprey
ossetia
ossetian
ossetie
ossola
osta
ostrich
ostrobothnie
ostrogoths
ostrov
ostrovsky
osuna
oswald
ot
other
others
otherwise
otho
otomi
otra
otro
ottawa
otter
otto
ottoman
ottomans
ou
ouagadougou
oued
ouest
oujda
oul
ouled
oulu
oup
our
ourense
ouro
out
outbreak
outer
outlaw
outline
outlook
output
outside
outstanding
ov
ova
oval
over
overall
overseas
overview
oviedo
owen
owens
ower
oweraw
owercome
owerheid
owerins
owerlap
owerleukin
owerleuks
owernicht
owerseas
owerset
owersettin
owerthrow
owerthrown
owerview
owerwhelmin
owerwhelmingly
own
owned
owner
owners
ownership
owre
owthor
ox
oxford
oxfordshire
oxidation
oxide
oxides
oxygen
oy
oye
oz
ozolotepec
ozyorsky
ozyory
oʊ
p
pa
pablo
pac
pace
paceefic
pacheco
pachuca
paci
pacific
pacifist
pack
package
packages
packard
packer
pact
paddington
paddy
paderno
padise
padre
padro
padua
pae
paedophiles
pagan
paganism
page
pageant
pageid
pages
pagos
pahlavi
pai
paid
paige
pailace
pailaces
pailin
pain
painch
paint
painted
painter
paintin
painting
paintings
paintins
paintit
pair
paired
pairish
pairishes
pairk
pairkin
pairks
pairlament
pairlamentar
pairlamentary
pairliament
pairs
pairt
pairteecipation
pairteecular
pairteecularly
pairth
pairtial
pairtially
pairticipate
pairticipatin
pairticipation
pairticipatit
pairticle
pairticles
pairticular
pairticularly
pairtie
pairties
pairtisan
pairtit
pairtition
pairtly
pairtner
pairtnered
pairtners
pairtnership
pairtnerships
pairts
pairty
pais
paisley
paith
pak
pakhtunkhwa
pakistan
pakistani
pal
pala
palace
palacio
palafox
palais
palatinate
palatine
palau
palazzo
pale
palencia
paleolithic
paleontology
palermo
palestina
palestine
palestinian
palestinians
palgrave
pali
palikir
palin
pallas
palm
palma
palmares
palmas
palmer
palmerston
palmilla
palmira
palms
palo
paloma
palustris
pam
pamela
pampa
pamphlet
pamplona
pan
panaji
panama
panamanian
panareda
panchayat
panchayats
panda
pandemic
pando
panel
panels
paneve
pangasinan
pangolin
panic
panorama
panoramic
pantera
pantheon
panther
panthera
pantone
paola
paoli
paolo
papa
papacy
papal
papaloapan
papaya
pape
paper
paperback
papers
papes
paphos
papua
par
para
paracetamol
parade
paradigm
paradis
paradise
paradox
paraffin
paragraph
paraguay
paraguayan
parai
paraje
parallel
parameter
parameters
paramilitar
paramount
parana
parasitic
paraskevi
parc
parcel
pardaillan
pardes
pardo
pardus
paredones
parent
parentheses
parents
parganas
pari
paribas
parinacota
paris
parish
parishes
parity
park
parker
parks
parkway
parlamentario
parliament
parliamentary
parliaments
parma
parole
parque
parra
parrot
parrott
pars
parsons
part
parte
parteecular
parteecularly
partement
partements
partenkirchen
parthian
partial
partially
participant
participants
participate
participated
participation
participatit
partick
particle
particles
particular
particularly
partido
partidos
parties
partille
partition
partly
partner
partners
partnership
partnerships
partnerskie
parton
parts
party
pas
pasadena
pasay
pascal
pascual
paseo
pasha
pashto
pasio
paso
pasquel
pass
passage
passages
passed
passenger
passengers
passerine
passes
passin
passing
passion
passionate
passport
passt
past
pasteur
pastor
pastoral
pastry
pastur
pasturs
pat
pata
patagonie
patch
patches
patel
patent
patents
paternal
paterson
path
pathet
pathom
paths
pathum
patient
patients
patois
patras
patria
patriairch
patriarch
patrice
patricia
patrick
patriot
patriotic
patriotism
patriots
patrol
patron
patronage
patroness
patrons
pattern
patterns
patterson
pau
paul
paula
pauli
paulina
pauline
pauling
paulista
paulo
pauly
paum
paurents
pausanias
pausini
paved
pavel
pavia
pavilion
pavit
pavlodar
pavlovna
pavlovsky
pavogur
paw
paws
pay
paykan
payment
payne
pays
paz
pbs
pc
pcbs
pdc
pdf
pe
peace
peaceful
peach
peaches
peacock
peak
peakbagger
peaked
peakin
peakit
peaklist
peaks
peanuts
pearce
pearl
pearson
peasant
peasants
pease
peat
pec
pecado
pechersk
pechorsky
pechory
pechts
peck
peculiar
pedagogical
pedal
pedersen
pedestrian
pedestrians
pedraza
pedro
pee
peebles
peel
peer
peerage
peers
pefki
pegasus
peggy
peipus
peir
peking
pekka
pele
pelican
peloponnese
pembrokeshire
pen
pena
penalties
penalty
penang
penduduk
penede
penguin
penguins
penh
peningham
peninsula
peninsulae
peninsular
penis
penn
pennsylvania
pennsylvanie
penny
penpont
pension
penske
pent
pentagon
penteli
penter
penthie
pentin
pentins
pentit
penultimate
penygraig
penza
people
peoples
pep
pepe
pepper
peppers
pepsi
per
peralillo
peralta
perceived
percent
percentage
perception
percussion
percy
pere
pereira
perennial
peres
perez
perfaisional
perfect
perfectly
perfil
perform
performance
performances
performed
performer
performers
performin
performing
performit
performs
perfume
perhaps
peri
perimeter
period
periodic
periods
peripheral
periphery
perished
perito
perkins
perl
perm
permanent
permanently
permission
permit
permittit
pernambuco
pero
perodua
perpetual
perry
persecution
persephone
perseus
persia
persian
persians
persie
persies
persistit
person
persona
personal
personalities
personality
personally
personnel
persons
perspective
perspectives
pertainin
pertect
pertection
pertectit
perth
perthshire
peru
perugia
peruvian
pervomaysky
pescara
peshawar
peso
pesomexicano
pesos
pessoas
pest
pet
petah
petals
petapa
pete
peter
peterborough
peterhead
peterheid
peters
petersburg
petersen
peterson
petit
petite
petition
petra
petri
petro
petrochemical
petrol
petroleum
petrov
petrozavodsk
pets
petty
peugeot
pew
pewdiepie
pey
peyed
pez
pf
pfa
pg
ph
pha
phan
phanie
phantom
pharaoh
pharmaceutical
pharmacology
pharmacy
phase
phases
phd
phe
pheesical
pheesically
pheesician
pheesicist
pheesics
pheesiologist
pheesiology
phelps
phenomena
phenomenology
phenomenon
phetchabun
phil
philadelphia
philanthropist
philharmonic
philibert
philip
philipp
philippe
philippine
philippines
philippsthal
philips
phillip
phillips
philosopher
philosophers
philosophical
philosophie
philosophy
phine
phitsanulok
phli
phnom
pho
phobos
phoebe
phoenician
phoenicians
phoenicie
phoenix
phone
phoneme
phonemes
phones
phonetic
phong
phonographic
phonology
phosphate
photaes
photo
photografie
photograph
photographer
photographic
photographs
photography
photos
photosynthesis
php
phra
phrase
phrases
phraya
phu
phyllis
phylogenetic
phylogeny
phylum
phys
physeecian
physical
physician
physicist
physics
physiological
physiology
pi
pia
piacenza
pianae
pianist
piano
piaui
piazza
pic
pica
picard
picardy
pichilemu
pick
picked
pickin
picks
pickup
pico
pictish
picts
pictur
picture
pictures
picturesque
picturs
pie
piece
pieces
piedmont
piedra
piedras
piel
piemont
pier
pierce
piero
pierre
piers
pieter
pieters
pietro
pieve
pig
pigs
pike
pila
pilar
pile
pilgrimage
pilgrims
pillar
pillars
pilot
pilots
pimentel
pin
pina
pinal
pinar
pine
pineapple
pines
ping
pingdingshan
pininfarina
pink
pinkie
pino
pinos
pinotepa
pintado
pinte
pintle
pinto
pinyin
pio
pioneer
pioneered
pioneerin
pioneers
pios
piotr
pious
pipe
pipeline
pipelines
piper
pipes
piracy
piraeus
piran
pirapora
pirate
pirates
pirkanmaa
pirkkala
pis
pisa
pistol
piston
pit
pitcairn
pitch
pitched
pits
pitt
pitten
pittin
pittsburgh
piu
pius
pivotal
pixar
pizarro
pizza
pk
pl
pla
place
placed
placement
placename
placenames
placer
places
placilla
placin
placit
plague
plaid
plain
plainfield
plains
plan
plana
planck
plane
planes
planet
planetary
planets
planina
planned
plannin
planning
plano
plans
plant
plantaginaceae
plantago
plantation
plantations
plantin
plantit
plants
plaque
plasma
plastic
plastics
plata
plate
plateau
plateaus
plates
platform
platforms
plath
platinum
plato
plaunt
plaunts
play
playa
playable
played
player
players
playin
playing
playit
plays
playstation
playwricht
playwright
plaza
plazas
plc
pleasant
please
pleasence
pleasure
plebiscite
pledge
pleistocene
pleisur
plenipotentiary
plenty
plessis
pleven
pliny
pliver
pljevlja
plo
plos
plot
plots
plovdiv
plug
plugin
plum
plumage
plural
plurality
plus
pluto
plymouth
pm
pmc
pmid
pnas
pneumonia
png
pnud
po
pob
poblacio
poblacion
pocahontas
pochutla
pocket
pockets
pod
podcast
poder
podgorica
podilskyi
podkraj
podolsk
poe
poem
poems
poet
poetic
poetry
poets
poggio
pogoda
pohang
pohjola
point
pointit
points
poison
poissy
poitou
poix
poke
poker
pokr
pol
poland
polanski
polar
pole
poleetical
poleetically
poles
polga
polgar
poli
police
policies
policy
polignac
polis
polisario
polish
politburo
politeecal
politeecian
politeecians
political
politically
politician
politicians
politico
politics
politischen
polity
poljane
polk
poll
pollen
polls
pollution
polo
pols
polska
poltava
polyana
polygon
polymath
polymer
polynesie
polytechnic
polyxena
pombal
pomegranate
pomeranie
pompeius
pompey
ponce
pond
ponds
pone
ponikve
pons
pont
ponta
ponte
pontevedra
pontiac
ponts
ponty
pontypridd
pony
pool
poole
poond
poor
poorest
poorly
pop
pope
popper
poppy
populac
populacao
popular
popularity
popularly
populat
populated
population
populations
populatit
populist
popullsia
populous
por
porcelain
porfirio
pork
porsche
port
porta
portable
portal
portchester
porte
porter
portfolio
portico
portion
portions
portland
porto
portocarrero
portpaitrick
portpatrick
portrait
portraits
portray
portrayal
portrayed
portrayin
portrays
portree
ports
portsmouth
portugal
portugue
portuguesa
portuguese
porvenir
porvoo
posad
posadsky
posed
poseetion
poseetioned
poseetions
poseidon
position
positions
positive
positively
possess
possessed
possesses
possession
possessions
possibilities
possibility
possible
possibly
post
postage
postal
postcode
postcodetool
poster
postgraduate
posthumous
posthumously
postit
postponed
posts
postwar
pot
potamogeton
potassium
potato
potatoes
potent
potential
potentially
potenza
potok
potomac
potosi
potrero
potro
pots
potsdam
potted
potter
pottery
pouer
pouered
pouerfu
pouerful
pouers
poultry
pound
pour
poust
poverty
pow
powell
power
powered
powerful
powers
powhatan
pownd
pownie
pownies
powys
poznan
pozo
pozzo
pp
ppd
ppen
ppingen
ppp
pr
pra
practical
practically
practice
practices
practicit
pradaeng
pradesh
prado
prague
praia
prairie
praise
praised
praisent
prakan
praslin
prat
pravda
pravoslavie
prawet
pray
prayer
prayers
prc
pre
preacher
precedin
precedit
precinct
precincts
precious
precipitation
precise
precisely
precision
precursor
predation
predator
predators
preddvor
predecessor
predecessors
predictit
predominant
predominantly
preeson
preesoner
preesoners
preevat
preface
prefect
prefectur
prefectural
prefecture
prefectures
prefecturs
prefeitura
prefekturave
prefer
preference
preferred
prefers
prefix
prefixes
pregnancy
pregnant
prehistoric
prehistory
prejudice
prekmurje
preliminary
premier
premiere
premiered
premieres
premiership
premio
premios
premises
premium
prensa
prent
prentice
prentin
prentit
preparation
preparations
prepare
prepared
preparin
preposeetion
preposeetional
preposeetions
prequel
pres
presbyterian
presbytery
preschuil
presence
present
presentation
presented
presenter
presentit
presently
presents
preservation
preserve
preserved
preserves
preservin
preservit
preses
presidency
president
presidente
presidential
presidents
presidio
presidit
presidium
presley
press
presse
pressed
presses
pressur
pressure
prestige
prestigious
preston
prestwick
presumably
presumptive
pretender
preto
pretoria
pretty
prevailin
prevalence
prevalent
prevent
preventin
prevention
preventit
preview
previous
previously
prey
pri
price
priced
prices
prickly
pride
priest
priests
prieto
prima
primar
primarily
primary
primate
primates
primavera
prime
primer
primera
primero
primetime
primitive
primo
primordial
primorsk
primorsky
primrose
primula
prince
princely
princes
princess
princesse
princeton
principal
principales
principalities
principality
principally
principate
principle
principles
print
printed
printin
printing
printit
prints
prinz
prior
priority
priory
pris
prism
prison
prisoner
prisoners
pristina
private
privately
privilege
privileges
privolzhsky
privy
prix
prize
prizes
prizren
pro
probability
probable
probably
probe
problem
problems
proc
procedures
proceedings
proceedit
process
processed
processes
processin
processing
procession
proclaimed
proclaimers
proclaimit
proclamation
prodigy
produce
produced
producer
producers
produces
producin
producing
producit
product
production
productions
productive
products
produto
prof
profeesional
profeesionally
profession
professional
professionally
professionals
professor
profile
profiles
profit
profitable
profits
profoond
program
programa
programme
programmer
programmes
programmin
programming
programs
progreso
progress
progressed
progression
progressive
prohibition
prohibitit
projeck
projecks
project
projected
projection
projections
projectit
projects
proleefic
proletarsky
prolific
prologue
promenade
prometheus
prominence
prominent
prominently
promise
promised
promises
promisin
promo
promocji
promontory
promote
promoted
promotes
promotin
promotion
promotional
promotit
promptit
prone
pronoonce
pronoonced
pronooncit
pronounce
pronounced
pronouncing
pronunced
pronunciation
pronunciations
proof
propaganda
propaled
propales
propelled
proper
properly
properties
property
prophecy
prophet
prophets
proponed
proportion
proportional
proportions
proposal
proposals
proposed
proprietary
propulsion
proscriptor
prose
prosecution
prosecutor
prospect
prospective
prospects
prosper
prospered
prosperity
prosperous
protagonist
protect
protected
protectin
protection
protectit
protective
protector
protectorate
protects
protein
proteins
protest
protestant
protestants
protesters
protests
proto
protocol
protocols
proton
protons
prototype
prototypes
proud
proushie
proved
proveesion
proveesional
proven
provenc
provence
provide
provided
providence
providencia
provider
provides
providin
providit
province
provinces
provincia
provincial
provinciales
provincias
provinsi
provisional
provisions
provo
provost
proximity
proxy
proyecciones
pru
pruif
pruived
pruiven
pruivit
prunus
prussian
ps
psa
psaums
pseudo
pseudonym
psgc
pskov
pskovsky
psl
psy
psychedelic
psychiatric
psychiatrist
psychiatry
psychiko
psycho
psychological
psychologie
psychologist
psychology
pt
ptolemaic
ptolemy
pu
pub
pubchem
public
publication
publications
publicity
publicly
publique
publish
published
publisher
publishers
publishes
publishin
publishing
publisht
publius
pubs
puckle
puddock
puebla
pueblo
pueblos
puente
puerta
puerto
pugacheva
puig
puil
puils
puir
pula
pulitzer
pull
pulled
pullin
pulls
pulp
pulse
pulses
puma
pumanque
pumbaa
pump
pumpkin
punctuation
pund
pune
punic
punishment
punjab
punjabi
punk
puno
punta
puntland
pupil
pupils
puppet
pur
purcell
purchase
purchased
purchasin
pure
purely
puri
purim
purity
purpie
purple
purpose
purposes
pursue
pursued
pursuit
push
pushed
pushion
pushkin
pushkinsky
put
putin
putla
putnam
puts
puttin
putting
putumayo
puy
puyo
puzzle
pwi
pwp
px
pxweb
py
pyeongchang
pyne
pynt
pyntin
pyntit
pynts
pyongan
pyongannam
pyongyang
pyotr
pyramid
pyramids
pyre
pyrenees
pyrmont
python
pɔ
pə
pɾi
q
qa
qabala
qaeda
qajar
qamishli
qara
qardaha
qarku
qasim
qasimi
qasr
qassim
qatar
qazvin
qena
qi
qin
qing
qingdao
qinghai
qom
qosfc
qu
qua
quadrant
quail
quair
quairter
quairters
quaisten
quaistens
qualifee
qualification
qualified
qualifier
qualifiers
qualify
qualifyin
qualifying
qualities
quality
quantitative
quantities
quantity
quantum
quarks
quarrel
quarries
quarry
quartal
quarter
quarterfeenals
quarterfinal
quarterfinals
quarterly
quarters
quartet
quartz
quat
quay
qudsaya
que
queanbeyan
quebec
quechua
queen
queens
queensberry
queensferry
queensland
quentin
quere
query
quest
question
questioned
questions
quetzalcoatl
quetzaltenango
quez
quezon
qui
quibdo
quiche
quick
quickfacts
quickly
quickstats
quie
quiero
quiet
quill
quilliam
quilmes
quincy
quine
quinn
quinta
quintana
quintanar
quintero
quirze
quit
quite
quito
quits
quneitra
quo
quorthon
quotations
quote
quoted
quotes
quotit
qur
quran
quy
r
ra
raadt
rab
rabat
rabbi
rabbit
rabbits
rabella
rabies
rabin
rac
raccoon
raccoons
race
raced
racer
races
rachel
racial
racin
racing
racism
racist
rack
racket
rad
rada
radar
radcliffe
radial
radiation
radiator
radical
radicalism
radikal
radio
radioactive
radius
radom
radomir
raduzhny
radwan
rae
raf
rafa
rafael
rafaela
rafah
raffles
rage
ragusa
rahman
rahn
rai
raid
raiders
raidit
raids
raiglar
raikku
rail
railings
railroad
railroads
rails
railscot
railwa
railway
railways
railwey
railweys
rain
rainbow
rainer
rainfall
rainfaw
rainforest
rainforests
raing
rainier
rains
rainy
raion
raions
raise
raised
raises
raisin
raison
raisons
raith
raither
raj
raja
rajasthan
rajshahi
raka
rake
rakitic
ral
rale
raleigh
rally
ralph
ram
rama
ramallah
ramat
ramazzotti
ramensky
ramfeeselt
rami
ramirez
ramla
ramo
ramon
ramos
rampant
ramsar
ramsay
ramsey
ran
ranch
ranches
ranchin
rancho
rand
randall
randolph
random
randy
range
ranged
ranger
rangers
ranges
rangin
rangpur
ranieri
rank
ranked
rankin
ranking
rankings
rankins
rankit
ranks
ransom
ranta
ranuccio
ranunculaceae
ranunculus
raonic
rap
rapa
rape
raphae
raphael
rapid
rapidly
rapids
rapla
rapper
raquel
rard
rare
rarely
rarity
ras
rashid
rasmussen
rat
ratcliffe
rate
rated
rates
rather
ratifee
ratification
ratified
ratin
rating
ratings
ratins
ratio
ration
ratios
ratit
raton
rau
rauch
raugrave
raul
rault
rauma
raven
ravenna
ravne
raw
rawson
raxed
ray
raymond
rayon
rays
razavi
rbara
rc
rca
rcahms
rd
rda
rde
rdenas
rdoba
re
rea
reach
reached
reaches
reachin
reaching
reaction
reactions
reactive
reactor
reactors
read
reader
readers
readily
readin
reading
reads
ready
reagan
reak
reakit
real
reale
realised
realism
realistic
reality
really
realm
realms
rear
reardon
reas
reason
reasonable
reasons
rebadged
rebecca
rebel
rebelled
rebellion
rebellions
rebellious
rebels
rebiggin
rebiggit
rebirth
rebro
rebuilt
rebus
rec
receive
received
receives
receivin
receiving
receivit
recensement
recent
recently
recep
reception
recession
recife
recipe
recipes
recipient
reclaimed
reclaimit
recogneetion
recognise
recognised
recognises
recognisit
recognition
recognize
recognized
recognizes
recognizit
recommendation
recommendations
recommended
recommendit
reconciliation
reconnaissance
reconquista
reconstruction
reconstructit
recopa
record
recorded
recordin
recording
recordings
recordins
recordit
records
recort
recover
recovered
recovery
recreation
recreational
recruitit
rectangle
rectangular
rector
recurrin
red
redd
reddish
redesign
redesigned
redevelopment
redford
rediscovered
rediscovering
rediscoving
redistricting
reds
reduce
reduced
reducin
reducit
reduction
ree
reece
reed
reeder
reef
reefs
reel
reelectit
reenge
rees
reese
reest
reestit
reeves
ref
refer
referee
reference
references
referendum
referred
referrin
referring
refers
refert
refined
refineries
refinery
refinin
reflect
reflected
reflectin
reflection
reflections
reflectit
reflects
reform
reforma
reformation
reformed
reformer
reformit
reforms
refs
refuge
refugee
refugees
refuised
refused
refuses
regain
regained
regaird
regairdin
regairdit
regairdless
regal
regard
regarded
regardin
regarding
regardit
regards
regency
regeneration
regensburg
regent
regents
reggae
reggio
regia
regierungsbezirk
regime
regiment
regiments
regimes
regina
reginald
regio
region
regional
regionales
regione
regiones
regions
register
registered
registers
registrar
registration
registry
regnum
regular
regularly
regulation
regulations
regulatit
rehabilitation
rehearsal
rehovot
rei
reich
reid
reign
reigned
reignin
reigning
reigns
reilly
reims
reina
reinhard
reinhold
reino
reinstatit
reintroduced
reissue
reissued
reject
rejected
rejectit
rejects
relapse
relate
related
relates
relatin
relating
relation
relations
relationship
relationships
relatit
relative
relatively
relatives
relativity
relay
release
released
releases
releasin
releasit
releegion
releegions
releegious
relegated
relegation
relegatit
relevant
reliability
reliable
relic
relics
relief
relies
relieve
religion
religions
religious
relocation
relocatit
rely
remain
remainder
remained
remainin
remains
remairit
remak
remake
remarkable
remarks
remastered
rembrandt
remedios
remeen
remeened
remeenin
remeens
remember
remembered
remembrance
reminiscent
remix
remixes
remnant
remnants
remote
removal
remove
removed
remuival
remuive
remuived
remuivin
remuivit
ren
renaissance
rename
renamed
renamin
renaming
renamit
renault
rendered
renderin
rendsburg
rene
renewable
renewal
renewed
renfe
renfrew
renfrewshire
rengo
rennes
rennie
reno
renouned
renovation
renovatit
renowned
rent
rental
rentals
reopened
reorganisation
reorganization
rep
repair
repairs
repeat
repeated
repeatedly
repeatit
repertoire
replace
replaced
replacement
replaces
replacin
replacit
replica
report
reporte
reported
reportedly
reporter
reportin
reporting
reportit
reportitly
reports
represent
representation
representations
representative
representatives
represented
representin
representit
represents
repression
reprint
reprinted
reproduced
reproduction
reproductive
repsol
reptile
reptiles
repu
repubblica
republic
republica
republican
republicans
republics
republik
republika
reputation
reputit
request
requestit
require
required
requirement
requirements
requires
requirin
res
resairch
rescue
rescued
research
researcher
researchers
researches
reseestance
resemblance
resemble
resembled
resembles
resemblin
resende
reservation
reserve
reserved
reserves
reservit
reservoir
reservoirs
resettled
reside
residence
residences
residency
resident
residenters
residential
residents
resides
residin
residit
resign
resignation
resigned
resigns
resist
resistance
resistant
resistencia
resistit
resolution
resolutions
resolve
resoorce
resoorces
resort
resorts
resource
resources
respect
respectit
respective
respectively
respects
respiratory
respond
respondit
response
responses
responsibilities
responsibility
responsible
respublika
rest
restaurant
restaurants
restin
restoration
restore
restored
restorin
restrictions
restrictit
rests
restyled
result
resultados
resultantes
resulted
resultin
resultit
results
resume
resumed
resumen
resumit
resurgence
resurrection
retail
retailer
retain
retained
retainin
retains
reteerin
reteert
retire
retired
retirement
retirit
retiro
retour
retoured
retreat
retreatit
retrieved
return
returned
returnin
returning
returns
returnt
reunification
reunion
reunitit
reuss
reuters
reutlingen
rev
reveal
revealed
reveals
revelation
revenge
revenue
revenues
revered
reverend
reverse
reversed
reverted
revertit
review
reviewed
reviews
revised
revisio
revision
revisited
revista
revival
revive
revived
revivit
revolt
revolts
revolution
revolutionar
revolutionaries
revolutionary
revolutions
revolver
revue
rex
rey
reyes
reykjavi
reynolds
rez
reza
rfc
rg
rga
rgen
rhapsody
rhea
rhead
rhein
rhetoric
rhine
rhineland
rhino
rhinoceros
rhins
rho
rhode
rhodes
rhodesie
rhondda
rhone
rhyme
rhymes
rhythm
rhythmic
rhythms
ri
ria
riaa
riadec
riau
rib
ribagorc
ribas
ribbon
ribe
ribeira
ribeiro
ribera
ribes
ribnica
riby
ric
rica
ricadi
rican
ricardo
ricci
rice
rich
richard
richards
richardson
richelieu
riches
richest
richie
richly
richmond
richness
richt
richter
richts
rick
ricky
rico
ricos
rid
rida
ridden
ride
rider
riders
rides
ridge
ridges
ridin
riding
ridley
rie
rieti
rieure
rif
riffs
rifle
rifles
rift
rig
riga
right
rights
rigid
rigkeit
rihanna
riihima
rijeka
rik
riket
riksdag
riley
rim
rimini
rin
rinco
rinconada
ring
ringan
ringed
ringen
ringer
ringin
rings
rink
rinnin
rins
rio
rioja
rios
riot
riots
ripoll
ripper
ris
risaralda
rise
risen
rises
rishon
risin
rising
risk
rita
ritchie
rite
rito
ritual
rituals
ritus
riva
rivadavia
rival
rivalries
rivalry
rivals
rivas
river
rivera
rivers
riverside
rivie
riviera
rivne
riyadh
rizal
rj
rjamaa
rk
rkisches
rkiye
rko
rl
rlamaid
rldens
rlts
rm
rmb
rmland
rms
rn
rna
rnu
ro
road
roadrunner
roads
roadster
roald
roar
rob
robben
robbery
robbie
robert
roberta
roberto
roberts
robertson
robespierre
robin
robinson
robles
robot
robredo
robson
roc
roca
rocca
rocco
roch
rocha
roche
rochechouart
rochefort
rochefoucauld
rochester
rock
rockefeller
rocket
rockets
rocks
rockstar
rockville
rocky
rod
roddick
rode
rodent
rodents
rodeo
rodgers
rodney
rodolfo
rodovia
rodri
rodrigo
rodriguez
rods
roemer
rogaland
roger
rogers
rogue
rohan
roi
rojas
rojo
roketsan
roland
role
roles
roll
roller
rollin
rolling
rolls
rom
roma
romagna
romain
roman
romana
romance
romances
romanesque
romani
romania
romanian
romanie
romanies
romanised
romanisit
romanization
romanized
romanizit
romano
romans
romansh
romantic
romanticism
rome
romeo
romero
romney
romo
ron
ronald
ronaldo
ronan
rondo
ronnie
roo
roof
room
rooms
roond
roondit
roonds
rooney
roosevelt
rooster
root
rootes
roots
rope
roque
roraima
rory
ros
rosa
rosaceae
rosales
rosalie
rosalind
rosario
rosas
rosberg
rose
rosen
rosenberg
roses
rosetta
rosh
rosie
ross
rossi
rosstat
roster
rostock
rostov
rotana
rotary
rotation
rotenburg
roth
rothes
rothesay
rotten
rotterdam
rotting
roubaix
rouen
rouge
rough
roughly
roum
roumainie
round
rourke
roushae
roushian
roushie
roushien
roushies
roushifee
roussillon
route
routes
routledge
rouvas
rouvroy
rovensky
rover
rovere
rovers
rovi
row
rowan
rowe
rowin
rowland
rowling
rowman
rowth
roxburgh
roxburghe
roy
royal
royale
royce
rpm
rquez
rr
rrach
rretheve
rrez
rriais
rryda
rs
rsa
rsbm
rsfsr
rska
rspb
rsssf
rst
rsta
rt
rte
rtel
rterbuch
rth
rttemberg
ru
rubber
rube
ruben
rubens
rubi
rubiaceae
rubin
rubio
ruby
rudd
rudolf
rudolph
rudolstadt
rue
rufino
rufus
rugby
ruggit
ruhr
rui
ruid
ruif
ruifs
ruim
ruin
ruined
ruins
ruint
ruit
ruitit
ruits
ruiz
rule
ruled
ruler
rulers
rules
rulin
ruling
rum
rumex
rumi
rumors
rump
run
runner
runners
runnin
running
runs
runway
runwey
rupert
rural
rus
ruse
rusedski
rush
ruslan
russell
russia
russiaadmmunref
russian
russo
rusyn
ruta
rutgers
ruth
ruthenie
rutherford
ruthless
rutland
rva
rve
rvenpa
rvi
rwanda
ry
ryal
ryalist
ryalty
ryan
ryazan
rye
ryo
ryu
ryukyu
rz
rzburg
rður
rı
rə
s
sa
saale
saalfeld
saarbru
saare
saaremaa
saarland
saatse
saavedra
saba
sabadell
sabah
sabana
sabaneta
sabbath
sabha
sabina
sabinas
sabine
sable
sabzevar
sac
sacatepe
sachiko
sachsen
sack
sacked
sacks
sacra
sacramento
sacred
sacrifice
sacro
sad
saddam
saddle
sadness
sadr
sae
saenz
saets
safaga
safari
safavid
safe
safeguard
safety
safin
safina
safira
saft
saftware
saga
sagas
sage
sagua
saguenay
sahara
saharan
sahrawi
sai
saicont
saicret
said
saigon
sail
sailed
sailin
sailor
sailors
sails
saint
sainte
saints
saip
sair
sairch
saison
saisonal
saisons
saitama
sajik
saka
sakai
sakarya
sake
sakha
sakhalin
sakhalinsk
sakhnin
sakhon
sakis
sakk
saku
sal
sala
saladin
salado
salads
salah
salamanca
salamina
salar
salaried
salary
salas
salazar
sale
saleh
salekhard
salem
salerno
sales
salford
salibi
salim
salina
salinas
salinity
salisbury
sall
sally
salm
salman
salmon
salmond
salo
salon
salonga
saloon
saloons
salsa
salt
salta
saltillo
saltire
salto
salud
salvador
salvatierra
salvation
salvator
salvatore
salvesen
salzburg
sam
sama
samandag
samantha
samara
samarkand
samarqand
same
sami
sammy
samoa
samokov
sampdoria
sample
samples
sampo
samsung
samuel
samurai
samut
san
sana
sanatorium
sanchar
sanchez
sancho
sancti
sanctioned
sanctions
sanctuar
sanctuary
sand
sandager
sanders
sandoval
sandra
sandro
sands
sandwich
sandy
sang
sanger
sangin
sangli
sangre
sangs
sangster
sangsters
sangwriter
sangwritin
sanitary
sanjak
sank
sankt
sanomat
sanquhar
sanremo
sans
sanskrit
sant
santa
santana
santander
santare
santi
santiago
santo
santos
santurce
sao
sap
saphan
sapodilla
sar
sara
sarah
sarajevo
sarandi
saransk
saratov
sarawak
sardarapat
sardinian
sardinie
sark
sarkozy
sarmiento
sarraute
sarria
sars
sarthe
sartre
sarwar
sas
sasanian
sasha
saskatchewan
saskatoon
sassafras
sassanid
sassounian
sassuolo
sat
satan
satanic
satellite
satellites
sati
satirical
sattlement
saturday
saturn
sauce
saucrit
saud
saudi
saue
sauf
saul
sauld
saumon
saund
saunders
saunds
saundstane
saundy
saunt
saunts
sausage
saut
sauts
sava
savage
savanna
savannah
save
saved
saves
savin
saving
savior
saviour
savoia
savoie
savonie
savoy
savoyard
saw
sawan
sax
saxe
saxifraga
saxon
saxons
saxony
saxt
saxteen
saxteent
saxty
say
sayd
sayed
sayin
saying
says
sazu
sb
sbs
sc
sca
scale
scales
scan
scandal
scandinavian
scandinavie
scanie
scar
scarce
scarecrow
scarlet
scattered
scaur
scene
scenery
scenes
scenic
scent
scg
schaerbeek
schalke
schaller
schame
schaumburg
schedule
scheduled
scheme
schemes
schiller
schiphol
schizophrenia
schleswig
schloss
schmidt
schneider
scho
scholar
scholarly
scholars
scholarship
scholart
scholarts
school
schoolhouse
schools
schopenhauer
schro
schu
schubert
schuil
schuilin
schuils
schule
schultz
schumacher
schuster
schwa
schwantes
schwartz
schwarzburg
schwarzenberg
schwarzenegger
schweiz
schwerin
sci
science
sciences
scienteefic
scientific
scientist
scientists
scilab
sclave
sclavery
sco
scone
scoop
scooter
scope
score
scored
scorer
scores
scorin
scoring
scorpion
scorpions
scorsese
scot
scota
scotch
scotia
scotlan
scotland
scotlandsplaces
scotrail
scots
scotsman
scott
scottis
scottish
scottisharchitects
scout
scowth
scream
screen
screenplay
screens
screenwriter
screived
screiver
scribner
scrieve
scrieved
scrieven
scriever
scrievers
scrievin
scrievins
scrievit
script
scripts
scroll
scrotum
scrub
scuba
scuderia
scuil
sculptor
sculptur
sculpture
sculptures
sculpturs
scum
sd
sderot
se
sea
seafuid
seal
sealed
seals
sean
seaport
search
sears
seas
seaside
season
seasonal
seasons
seat
seater
seatin
seatit
seaton
seats
seattle
sebastia
sebastian
sec
seccio
secciones
secession
second
secondary
secondly
seconds
secret
secretar
secretari
secretariat
secretary
secretly
secrets
sect
sectarian
section
sections
sector
sectors
secular
secundum
secur
secure
secured
securities
security
sedan
sedans
sedesol
see
seed
seedit
seeds
seegnal
seegnals
seein
seeing
seek
seekin
seeking
seeks
seelent
seem
seembol
seembolic
seembolise
seembolises
seembolisin
seembolism
seembolizes
seembols
seemed
seemetry
seemilar
seems
seen
sees
seestem
seestematic
seestems
seeven
sega
segment
segments
segovia
segre
segu
segunda
segundo
segura
seicond
seicont
seicontar
seicontary
seiconts
seimas
seimilar
seine
seismic
seiven
seivent
seiventeen
seiventeent
seiventy
seize
seized
sejong
sel
sela
selangor
selassie
selby
select
selected
selection
selectit
selective
seleucid
self
selim
seljuk
selkirk
sell
sellafield
seller
sellers
sellin
selling
sells
sellt
selo
selsovet
selsovets
selsoviet
selsoviets
selt
selva
semana
semi
semiconductor
semifeenal
semifeenals
semifinal
semifinals
seminal
seminar
semitic
semme
semnan
semple
semply
sen
senado
senadores
senate
senator
senatorial
senators
send
sendai
sendin
sends
senegal
senhora
senior
senkaku
senna
sens
sensation
sense
sensei
senses
sensitive
sensitivity
sent
sentence
sentenced
sentences
sentencit
sentiment
sentinel
seo
seocho
seoul
sep
sepang
separate
separated
separately
separates
separatin
separation
separatist
separatit
separator
sept
september
sepultura
sequel
sequels
sequence
sequences
sequoia
ser
sera
serb
serbia
serbian
serbie
serbo
serbs
serena
serene
serengeti
serge
sergei
sergey
sergio
sergipe
sergius
serial
serie
series
serious
seriously
sermon
serpent
serra
serrano
serravalle
serrin
serrt
sers
sert
serta
servant
servants
serve
served
server
serves
service
services
servicio
servin
serving
servit
ses
sesame
sesniki
session
sessions
sesto
set
seth
seto
sets
setten
settimo
settin
setting
settle
settled
settlement
settlements
settlers
settlin
setturday
setu
setup
seturday
seu
sevan
sevastopol
seven
sevent
seventh
several
severe
severed
severely
severn
severny
severo
severozapaden
severus
sevilla
seville
sewage
sex
sexes
sexo
sexual
sexuality
sexually
seychelles
seymour
sez
sezen
sfax
sforza
sfsr
sg
sh
sha
shaanxi
shadae
shade
shades
shadow
shadows
shae
shaft
shah
shahr
shahrabad
shahumyan
shaidae
shairk
shairks
shairp
shake
shakespeare
shaki
shakira
shale
shall
shallae
shallow
shalom
shaman
shamoon
shams
shan
shandong
shane
shanghai
shannon
shantou
shanxi
shap
shape
shaped
shapes
shapin
shapiro
shapit
shaps
sharapova
shard
share
shared
shares
sharif
sharin
sharjah
shark
sharks
sharma
sharon
sharp
sharpe
sharqiyah
shaun
shaw
shawed
shawin
shawn
shaws
shaykh
she
shearer
shed
sheena
sheep
sheet
sheets
shefa
sheffield
sheik
sheikh
sheila
shek
sheksna
sheksninsky
shelby
shelf
shell
shelley
shells
shelter
sheltered
shemesh
shenyang
shenzhen
shepherd
sheridan
sheriff
sherlock
shetland
shetlandic
shevchenko
shi
shia
shield
shields
shift
shiftit
shifts
shiite
shijiazhuang
shilin
shimbun
shimizu
shimon
shin
shine
shines
shining
shinjuku
shinto
ship
shipbiggin
shipman
shipped
shippin
shipping
ships
shipyard
shirak
shiraz
shire
shirley
shirt
shirts
shizuoka
shmuel
sho
shock
shoes
shogi
shoot
shootin
shooting
shop
shoppin
shopping
shops
shore
shoreline
shores
short
shortened
shorter
shortest
shortly
shorts
shot
shots
shoubak
shoud
shouder
should
shoulder
show
showcase
showed
showin
showing
shown
shows
shrek
shrewsbury
shrimp
shrine
shrines
shropshire
shrub
shrubs
shtml
shu
shuid
shuin
shuit
shuitin
shuits
shusha
shut
shutoko
shutter
shuttle
shuya
shy
shymkent
si
sia
siam
siamese
sib
sibelius
siberia
siberian
siberie
siblings
sibylle
sic
sica
siccar
siccarity
sich
sicht
sichts
sichuan
sicilia
sicilian
sicilies
sicily
sick
sickle
siclik
siclike
sicna
sico
sicweys
sid
side
sides
sidi
sidit
sidney
sidon
sidonia
sie
sieg
siege
siempre
siena
sierra
sieven
sig
sight
sigismund
siglo
sigmaringen
sign
signal
signals
signatur
signature
signed
signeeficance
signeeficant
signeeficantly
significance
significant
significantly
signifies
signify
signin
signing
signs
sigtuna
sigurd
sikh
sikkim
sil
silacayoapam
silc
sile
silence
silene
silent
silesian
silesie
silhouette
silica
silicon
silk
silla
siller
sillers
sillery
silva
silver
silves
silvia
silvio
sim
sima
simba
simbad
simbirsk
simca
sime
simeon
similar
similarities
similarity
similarly
simmer
simmers
simmons
simo
simon
simone
simple
simpler
simplifeed
simplified
simply
simpson
simpsons
simulation
simultaneous
simultaneously
sin
sinai
sinaloa
sinan
sinatra
since
sinclair
sinder
sindert
sindh
sindhi
sindrie
sindry
sing
singapore
singer
singers
singh
singin
singing
single
singles
sings
singular
sinister
sinkin
sinks
sinn
sino
sinop
sins
sinsa
sint
sintesisestadistica
sintra
sio
sipas
sipoo
siquijor
sir
sire
sirian
sirie
sirt
sirte
sisi
siskel
sistan
sistema
sister
sisters
sit
sita
sitapur
sitcom
site
sites
sith
sitio
sito
sitra
sits
sittin
situate
situated
situation
situations
situatit
sivas
six
sixteen
sixteenth
sixth
sixtus
sizable
size
sizeable
sized
sizes
sizewell
sj
sjo
sk
ska
skaith
skanderbeg
skara
skare
skared
skate
skater
skatin
skating
skeitcher
skeitchin
skelet
skeleton
skenderun
skene
sketch
sketches
ski
skier
skies
skiin
skill
skilled
skills
skin
skinner
skirt
sko
skopje
sku
skull
sky
skye
skyfall
skyla
skyline
skyscraper
skyscrapers
skywalker
sl
sla
slain
slake
slam
slams
slang
slate
slater
slaughter
slave
slavery
slaves
slavic
slavonic
slavs
slavyanka
slaw
slawly
slayer
sleep
sleepin
sleeping
slender
slessor
slicht
slichtly
slide
slightly
slim
slip
slivko
sloboda
slogan
slope
slopes
slot
slovak
slovakie
slovar
slovene
slovenes
slovenia
slovenian
slovenie
slovenj
slovenskih
slow
slower
slowly
sm
sma
smaa
small
smaller
smallest
smallpox
smart
smash
smaw
smawer
smawest
smawpox
smell
smetona
smile
smith
smithsonian
smo
smoke
smokin
smolensk
smolyan
smooth
smugglin
smuith
snake
snakes
snaw
snawy
snd
sniper
snk
snoj
snooker
snow
snp
snyder
so
soap
soberano
sobieska
sobieski
sobre
sobriquet
soc
soccer
soccerbase
soccernet
soccerway
sochi
socht
social
socialdemokratiska
socialism
socialist
socialists
socialite
socially
socie
sociedad
societie
societies
society
socio
socioeconomic
sociological
sociologie
sociologist
sociology
socks
socrates
socratic
sodger
sodgers
sodi
sodium
sofi
sofia
soft
software
sohag
sohc
soi
soil
soils
soilwork
soissons
sokolniki
sokolsky
sol
sola
solano
solar
sold
soldier
soldiers
sole
soledad
solely
soli
solicitor
solid
solidaridad
solidarity
solids
solihull
solingen
solit
solitary
solo
soloist
solola
solomon
solos
solsone
solstice
soltis
soluble
solution
solutions
solve
solved
solway
som
soma
somali
somalia
somalie
somaliland
some
someane
somebody
someone
somerset
somethin
something
sometime
sometimes
somewha
somewhat
somewhaur
somewhit
somm
somme
son
sonderband
sonderburg
sondershausen
song
songkhla
songpa
songs
songwriter
sonia
sonic
sonora
sons
sonsie
sony
soo
soon
soond
soondin
soondit
soonds
soondtrack
soorce
soorces
sooth
sootheast
sootheastren
sootherly
soothern
soothlins
soothmaist
soothren
soothrenmaist
soothwart
soothwast
soothwastren
sophia
sophie
sophisticatit
sopot
sopra
soprano
sorbian
sorbie
sorghum
soria
soriano
sorrow
sorry
sort
sortit
sorvali
sosa
sot
soto
sotto
sottunga
soubise
sought
souk
soul
souls
soum
soummer
soummin
sound
soundcloud
sounds
soundtrack
soup
sour
source
sources
sous
sousa
sousse
south
southampton
southeast
southeastern
southern
southren
southwark
southwest
souvenir
souza
sovereign
sovereignty
sovetskaya
sovetsky
soviet
soviets
sox
soy
sp
spa
space
spacecraft
spaces
spaek
spaekers
spain
spaingie
spainie
spainish
spainyie
spairsely
spak
spake
spaken
spakken
span
spaniard
spaniards
spanish
spanned
spannin
spans
spare
spared
spark
sparkford
sparks
sparrae
sparsely
sparta
spas
spassky
spatial
spawned
spd
speak
speaker
speakers
speakin
speaking
speaks
speal
spear
spears
speceefic
speceefically
special
specialised
specialises
specialisin
specialisit
specialist
specialized
specializes
specially
specials
specialty
species
specifee
specific
specifically
specification
specifications
specified
specify
specimen
specimens
specs
spectacular
spectator
spectators
spectral
spectroscopy
spectrum
speculation
speculatit
speech
speeches
speed
speeder
speeders
speeds
speerit
speicial
speir
speirt
spell
spelled
spellin
spelling
spellins
spells
spelt
spence
spencer
spend
spendin
spends
spent
sperm
speshies
speyer
spfl
sphere
spheres
spherical
spi
spice
spices
spider
spiegel
spielberg
spik
spike
spikkers
spin
spinefarm
spinoza
spiral
spirit
spirits
spiritual
spit
spitak
spite
spl
splash
spleet
splendid
split
splits
splittin
splodes
sploration
splorer
splorers
splosion
spoke
spoken
spokesman
spokesperson
sponge
spongebob
sponsor
sponsored
sponsors
sponsorship
sport
sportin
sporting
sportivo
sports
sportsman
spot
spotify
spotlight
spots
spottit
spouse
spp
spra
spread
spreadin
spreads
spree
spreid
spremembe
spring
springburn
springer
springfield
springheid
springs
sprint
sprung
spur
spurs
spv
spy
spyro
sq
squad
squadron
squads
square
squarepants
squares
squash
squerr
squez
squire
squirrel
sr
srath
srebrenica
sri
sritis
srpska
ss
ssb
ssc
sse
sseldorf
ssp
ssr
st
sta
staatsangeho
stability
stable
stables
stack
stad
stade
stadio
stadion
stadium
stadiums
stadt
staff
stafford
staffordshire
stage
staged
stages
stained
stair
stairs
stairt
stairted
stairtin
stairtit
stairts
stake
stakes
stalin
stalingrad
stalks
stamford
stamp
stampede
stamps
stan
stanbul
stance
stand
standard
standards
standin
standing
stands
stane
stanes
staneykirk
stanford
stanislas
stanisław
stanitsa
stanley
stanton
stanza
stap
staple
stappit
staps
star
stara
staraya
starch
stare
stari
stark
starn
starned
starnin
starns
starr
starred
starrin
starring
stars
start
started
startin
starting
startit
starts
stat
statcan
state
stated
stateestical
stateestics
statehood
statement
statements
staten
states
statesman
statesymbolsusa
static
statin
station
stationed
stations
statistic
statistical
statistics
statistik
statistikamt
statistique
statistiques
statistisches
statistiska
statit
statline
statoids
stats
statue
statues
status
statuses
statute
statutes
statutory
staund
staundart
staundartisation
staundarts
staundin
staunds
stauns
stavanger
stavropol
stay
stayed
stayin
stays
ste
steadily
steading
steady
steal
steam
steamer
steamship
sted
steel
steep
steer
steerin
steering
stefan
stefano
steid
steidit
steids
stein
steinberg
steiner
stella
stellar
stem
stems
stendit
stent
stenungsund
step
stepan
stephan
stephanie
stephen
stephens
stephenson
steppe
stepped
steppes
steps
stera
sterbotten
stereo
stergo
sterling
stern
sterna
sternorrland
sterreich
stertit
steve
steven
stevens
stevenson
stewart
stewartrie
stewartry
stey
steyed
sti
stica
sticas
stick
sticky
stico
stiers
still
stillborn
sting
stipulates
stirlin
stirling
stirlingshire
stirlinshire
stjørdal
stm
stmanland
sto
stock
stockholm
stocks
stockton
stoja
stoke
stokes
stol
stolen
stone
stones
stood
stop
stopped
stoppin
stopping
stoppit
stops
stor
stora
storage
store
stored
stores
storey
storia
storie
stories
storm
storms
storp
storuman
story
stosur
stott
str
stra
strabo
strachan
straicht
straight
strain
strait
straits
strand
strands
strang
strange
stranger
strangest
stranghauld
strangly
stranraer
stranrawer
strasbourg
strategic
strategically
strategies
strategy
stratford
strath
strathclyde
strathearn
straucht
strauss
streak
stream
streamin
streaming
streams
street
streetcar
streets
strelitz
strength
strengthen
strenth
stress
stressed
stretch
stretched
stretches
stretchin
strichen
strict
strictly
strife
strike
striker
strikes
strikin
string
strings
strip
stripe
striped
stripes
stripped
strippit
strips
stro
stroke
stromness
strong
stronger
strongest
strow
struan
struck
structur
structural
structure
structured
structures
structurs
struggle
struggled
struggles
strugglin
strynd
stryndants
sts
stu
stuart
stub
stuck
studebaker
student
students
studie
studied
studies
studiet
studio
studios
studit
study
studyin
stuff
stuid
stupid
stupino
sturgeon
stuttgart
stv
style
styled
styles
stylin
styling
stylised
stylized
styrie
su
sua
suan
suarez
sub
subaru
subatomic
subcompact
subcontinent
subdestrict
subdestricts
subdiveesion
subdiveesions
subdividit
subdivision
subdivisions
subfaimilies
subfaimily
subfamily
subgenre
subgroup
subiaco
subject
subjectit
subjects
submachine
submarine
submit
submittit
suborder
subordinance
subordinate
subordinatit
subotica
subphylum
subregion
subscription
subsequent
subsequently
subsidiar
subsidiaries
subsidiary
subsistence
subspecies
subspeshies
substance
substances
substantial
substantially
substitute
substitutit
substring
subtle
subtropical
suburb
suburban
suburbs
subway
subwey
succar
succarcane
succars
succeed
succeeded
succeedin
succeedit
succeeds
success
successes
successfu
successful
successfully
succession
successive
successor
successors
such
suchitepe
sucre
sud
sudamericana
sudan
sudanese
sudden
suddenly
suddent
sue
suef
suen
suetonius
suez
suffer
suffered
sufferin
suffering
suffers
sufficient
suffix
suffolk
suffrage
suffragette
sufi
sugar
suggest
suggested
suggestin
suggestion
suggestions
suggestit
suggests
sugihara
suharto
suicide
suin
suisse
suit
suitable
suite
suitit
suji
sukhoi
sukhona
sukhothai
sukhumi
sul
sula
sulawesi
suleiman
sulfur
sullivan
sulphur
sultan
sultanate
sulu
suluhu
sulzbach
sulzberger
sum
sumatra
sumerian
sumiyoshi
summary
summer
summers
summit
summits
sumposadskoye
sums
sumy
sun
sund
sunda
sunday
sundays
sunderland
sundial
sunflouer
sung
sungri
sunk
sunlicht
sunni
sunny
sunrise
sunset
sunshine
suny
suo
suomen
suomi
super
superb
supercentenarian
supercopa
supercoppa
supercup
superficie
superhero
superior
superiority
superman
supermercat
supermercats
supermini
supernaitural
supernatural
supersedit
superstar
superveesion
supervisin
supervising
supper
supplee
suppleed
supplees
supplement
supplementing
supplements
supplied
supplier
supplies
supply
supplyin
support
supported
supporter
supporters
supportin
supporting
supportit
supports
supposed
supposedly
suppressed
supremacy
supreme
sur
surb
sure
surf
surface
surfaces
surfers
surfin
surge
surgeon
surgery
surgical
suriname
surname
surnames
surpassed
surpassin
surprise
surprisingly
surrender
surrendered
surrenders
surrey
surroond
surroondin
surroondins
surroondit
surroonds
surrounding
surveillance
survey
surveys
survival
survive
survived
survives
survivin
surviving
survivit
survivor
survivors
sus
susan
susana
susanna
susceptibility
suspect
suspected
suspectit
suspects
suspended
suspendit
suspension
suspicion
sussex
sustainable
sustained
sutherland
sutton
suu
suv
suva
suvs
suwayda
suwon
suzanne
suzdal
suzhou
suzuki
sv
svalbard
svaneti
sven
svenska
sverdlovsk
sverdlovsky
sverige
svetlana
svetogorsk
svt
sw
swabie
swaddish
swaden
swades
swadish
swaidish
swallae
swamp
swamps
swan
swans
swansea
swaziland
sweden
swedish
sweet
swept
swift
swimmer
swimming
swing
swiss
swisserland
switch
switchblade
switched
swith
switzerland
sword
swords
sworn
swuird
sy
syamzhensky
syd
sydney
sykes
syktyvkar
syle
sylhet
syllable
syllables
sylvester
sylvestris
sylvia
symbol
symbolic
symbols
symmetry
symphonic
symphony
symposium
symptoms
syn
synagogue
synagogues
syndicate
syndrome
syne
synonym
synonymous
syntax
synthesis
synthesizer
synthetic
syracuse
syria
syriac
syrian
syrie
system
systema
systematic
systematics
systems
syunik
syutsugan
szczecin
sze
szolnok
sɑ
sɔ
sə
sɛ
t
ta
tab
taba
tabasco
tabelle
table
tables
tablesl
tablet
tablets
tabloid
tabriz
tac
tacitus
tackle
tactical
tactics
tadeusz
tae
taed
taedong
taekwondo
taen
taes
taewart
taf
taff
tafilah
taft
tag
tagalog
taganrog
tagil
tags
tagus
tah
taha
tahrir
tahya
tai
taichung
taiga
tail
tailed
tails
tain
tainan
taipa
taipei
taisho
tait
taiwan
taiwanese
taj
tajabad
tajik
tajikistan
tajiks
tak
take
taken
takes
takin
taking
takken
takkin
taks
tal
taland
talas
talbot
talca
tale
talent
talents
tales
talian
talib
taliban
talin
talk
talkin
talking
talks
tall
tallest
talleyrand
tallinn
tally
tam
tama
tamanrasset
tamara
tamaulipas
tamazula
tambacounda
tambon
tambov
tame
tamerlane
tamil
tammie
tammikuu
tampa
tampere
tan
tang
tangled
tango
tank
tanker
tanks
tanta
tanto
tanzania
tanzanie
tao
taoiseach
tap
tape
tapes
tapir
tappit
tar
tara
taranto
tarff
target
targetit
targets
tarija
tarja
tarn
tarnogsky
tarnovo
taro
tarragona
tarsus
tartan
tartu
tartus
tas
tashkent
tashko
task
tasks
tasmania
tasmanian
tasmanie
taste
tastes
tat
tata
tataouine
tatar
tatars
tatarstan
tate
tatev
tatiana
tattie
tatties
tattoo
tau
taucht
taught
tauld
taunus
taurage
tauris
taurus
tavastie
tavern
tavush
taw
tawest
tawse
tax
taxa
taxation
taxes
taxi
taxis
taxon
taxonomic
taxonomy
tay
taylor
tayyip
taðo
tb
tba
tbilisi
tbol
tc
tcm
te
tea
teach
teacher
teachers
teaches
teachin
teaching
teachins
team
teamed
teams
tear
tears
teatro
teau
teborg
tecate
tech
technetium
technical
technically
technik
technique
techniques
techno
technological
technologie
technologies
technology
tecnolo
ted
tee
teeger
teemu
teen
teenage
teenager
teenagers
teens
teep
teepical
teepically
teeps
tees
teeth
teetle
teetled
teetles
teetular
tegucigalpa
tegui
teh
tehran
tehuantepec
tekirdag
tel
telecom
telecommunication
telecommunications
telegraph
telemark
telemundo
telenovela
telenovelas
telephone
telescope
telet
teletubbies
televeesion
televisa
televised
television
telford
tell
tellier
tellin
tells
telly
telt
tem
temperate
temperatur
temperature
temperatures
temperaturs
temperley
templar
template
temple
temples
templeton
tempo
temporal
temporar
temporarily
temporary
temps
temptation
ten
tenango
tenant
tenants
tend
tendency
tender
tendit
tends
tenerife
tengri
tennant
tennessee
tennis
tenno
tenochtitlan
tenor
tens
tense
tensei
tension
tensions
tent
tentative
tenth
tenure
teo
teodoro
teotitla
teposcolula
tequila
ter
tera
teramo
tercera
terence
teresa
term
terme
termed
terminal
terminals
termination
terminator
terminology
terminus
termites
terms
tern
terni
ternopil
terra
terrace
terraces
terrain
terrassa
terrestrial
terrible
terrier
territoire
territoriais
territorial
territories
territorio
territory
terror
terrorism
terrorist
terrorists
terrorizer
terry
tertiary
teruel
tes
teschen
tesco
test
testament
testes
testicle
testicles
testicular
testimony
testin
testis
testit
tests
tetovo
teuch
teuk
teutonic
texas
texcoco
text
textbeuks
textbook
textile
textiles
texts
tez
tg
tgm
th
tha
thae
thai
thailand
thaim
thaimsels
thair
thairsels
thali
thames
than
thani
thank
thanks
thanksgivin
thanksgiving
thar
thare
thareaboot
tharebi
thareby
thareefter
tharefore
thasos
that
thatcham
thatcher
thaur
thay
the
theater
theaters
theatre
theatres
theatrical
thebe
thee
theft
thegether
thegither
their
them
theme
themed
themes
themsels
themselves
then
theo
theodor
theodore
theogony
theologian
theological
theology
theorem
theoretical
theoretically
theories
theorist
theorists
theory
thepchaiya
therapeutic
therapy
there
thereafter
thereefter
therefore
theresa
therese
theresia
thermal
thermodynamics
theropod
thes
thesaban
these
thesis
thessaloniki
theta
they
thi
thick
thicke
thie
thief
thierry
thin
thing
things
think
thinker
thinkers
thinkin
thinking
thinks
thir
third
thirds
thirteen
thirteent
thirteenth
thirty
this
thistle
thit
tho
thocht
thochts
thom
thomas
thompson
thomson
thon
thong
thoosan
thoosand
thoosands
thoosans
thor
thorburn
thorn
thorne
thornhill
thornton
thoroughly
thory
those
thou
thouars
thoucht
though
thought
thousand
thousands
thrace
thrang
thrash
thraw
thrawn
threap
threapit
threaps
threat
threatened
threats
threave
three
threw
thrid
thrie
thrift
thriller
thristle
thrive
thrivin
thro
throat
throne
thrones
throu
throuch
through
throughoot
throughout
throuoot
throw
thrown
thu
thunder
thune
thung
thunner
thuringie
thurn
thursday
thus
thy
ti
tia
tian
tianjin
tiberius
tibet
tibetan
tica
ticht
ticino
ticket
tickets
tico
tid
tidal
tide
tides
tie
tiebrakers
tied
tiempo
tien
tiene
tienne
tier
tierra
tiers
ties
tiger
tigers
tight
tigre
tigres
tigris
tijuana
tikva
til
tila
tilasto
tilcoco
tile
tiles
till
tillon
tim
tima
timbaland
timber
timberlake
timbuktu
time
timed
timeform
timeline
times
timetable
timing
timis
timmer
timo
timole
timon
timor
timothy
timur
timurid
tin
tina
tindouf
tint
tintin
tiny
tio
tion
tip
tipperary
tips
tirana
tiraque
tiraspol
tire
tired
tires
tis
tishie
tishies
tiskarna
tissue
titan
titanic
titanium
titans
tither
title
titled
titles
tito
titular
titus
titut
tjo
tl
tlacolula
tlacotepec
tland
tlatelolco
tlaxcala
tlaxiaco
tlemcen
tm
to
tobacco
tobago
tobias
tobruk
toby
tocantins
tod
today
todd
todo
todos
tods
toei
together
togo
toilet
toivonen
tokmok
tokoname
tokugawa
tokyo
told
toledo
tolerance
tolima
tolkien
toll
tolmin
tolosa
tolstoy
toluca
tolyatti
tom
toma
tomas
tomaso
tomatoes
tomb
tombs
tome
tomkins
tommaso
tommy
tomorrow
tomsk
ton
tone
tones
tong
tonga
tongland
tongue
tongues
toni
tonight
tonnes
tons
tony
too
took
tool
toole
tools
toon
toornament
toornaments
top
topeka
topic
topics
topografie
topographic
topographical
topography
toponym
toponyms
topped
toppit
tops
tor
torah
torch
tore
torfaen
tori
tories
torinese
torino
tormes
torn
tornado
torneo
toro
toronto
torpedo
torphins
torque
torre
torreo
torres
torso
tort
torternas
torthorwald
tortoise
tortosa
tortur
torture
torvalds
tory
tosca
tot
total
totally
totals
totemsky
totma
toto
totonac
totora
tottenham
touch
touches
touer
touers
tough
toulon
toulouse
toun
touns
tounship
tounships
tour
toure
toured
tourin
touring
tourism
tourist
touristic
touristical
tourists
tournament
tournaments
tours
tout
tovar
tovuz
toward
towards
tower
towers
town
towns
townsend
township
townsville
toxic
toy
toyota
toys
tozeur
tr
tra
trace
traced
traces
tracit
track
tracks
tract
traction
tractor
tractors
tracts
tracy
trad
trade
tradeetion
tradeetional
tradeetionally
tradeetions
tradeitional
trademark
traders
trades
tradin
trading
tradit
traditeeonal
tradition
traditional
traditionally
traditions
trafalgar
traffec
traffeck
traffic
trafficking
trafford
tragedy
tragic
trail
trailer
trails
train
trained
trainer
trainin
training
trains
traison
trait
traits
traivel
traivelin
traivels
trajan
trakai
tram
tramp
trams
tramway
trang
trange
tranquillity
trans
transaction
transactions
transatlantic
transcript
transcription
transeetion
transfer
transferred
transfers
transform
transformation
transformed
transformers
transformin
transformit
transgender
transit
transition
transitional
transjordan
translate
translated
translates
translation
translations
translatit
translator
transleeteratit
translit
transliterated
transliteration
transliteratit
transmission
transmissions
transmitter
transmittit
transnational
transnistrie
transparent
transport
transportation
transportin
transportit
transvaal
transverse
transylvanie
trap
trapani
trapped
trauma
travel
traveled
travelers
travelin
travelled
traveller
travellers
travellin
travelogue
travels
traversed
travis
tre
treasure
treasures
treasury
treat
treaties
treatin
treatise
treatit
treatment
treaty
trebinje
treble
tred
tree
treed
trees
treforest
trek
trelew
tremendous
trench
trend
trends
trent
trentino
trenton
tres
trevi
trevin
trevor
tri
tria
trial
trials
triangle
triangular
trianon
tribal
tribe
tribes
tribunal
tribune
tributar
tributaries
tributars
tributary
tribute
tributes
trick
tricks
tricolor
tricolour
tried
trier
tries
trieste
trifolium
triggered
trillion
trilogy
trim
trinidad
trinity
trio
trip
triple
tripoli
tripolitanie
trips
tripura
tristan
triumph
triumvirate
triunfo
tro
trofeo
troitsk
trojan
troke
trokin
troll
trollha
troms
tron
trondheim
troop
troops
tropea
trophies
trophy
tropic
tropical
tropicos
tropics
troqueer
trossachs
trotsky
trouble
troubled
troupe
troy
tru
truce
truck
trucks
true
truips
trujano
trujillo
truly
truman
trump
trumpet
trung
trunk
trust
truth
try
tryin
trying
trøndelag
ts
tsa
tsaghkadzor
tsar
tsentralny
tserkva
tsonga
tsu
tsunami
tsunamis
tt
ttan
tte
ttel
tteroth
ttingen
ttir
tu
tuareg
tube
tuberculosis
tubes
tucker
tucson
tucuma
tudes
tudor
tuesday
tuik
tuil
tuils
tuin
tuith
tula
tule
tulip
tulo
tulsa
tulum
tuna
tunari
tunas
tunceli
tundra
tune
tuned
tunes
tung
tunis
tunisia
tunisian
tunisie
tunnel
tunnels
tupi
tupolev
tur
tura
turbine
turbines
turbo
turbocharged
turbulent
turdus
turenne
turf
turin
turismo
turk
turkestan
turkey
turkic
turkis
turkish
turkmen
turkmenistan
turks
turku
turn
turnbull
turned
turner
turnin
turning
turns
turnt
turtle
turtles
turunen
tus
tuscan
tuscany
tuttle
tututepec
tuusula
tuvalu
tuxtepec
tuxtla
tuzla
tv
tvb
tver
tverskaya
tverskoy
tvo
tw
twa
twae
twain
twal
twalt
tweed
tweeddale
tweet
twelfth
twelve
twentiet
twentieth
twenty
twice
twilight
twin
twinned
twinnin
twinning
twinnings
twins
twintie
twintiet
twinty
twist
twitter
two
ty
tyler
tym
tyme
tyne
tyneside
type
types
typha
typhoon
typical
typically
tyr
tyrannosaurus
tyrant
tyre
tyrol
tyrone
tyrrhenian
tysday
tyumen
tz
tə
tʃi
u
ua
uae
uber
uc
uccle
uci
ucl
ucla
ud
udal
ude
udi
udine
udmurt
udo
ue
uefa
uel
ufa
ufficiale
uganda
ugly
ugric
ui
uisage
uise
uised
uisefu
uiseful
uiser
uisers
uises
uisin
uising
uiss
uissage
uisses
uissfu
uist
uisual
uisually
uk
ukip
ukraine
ukrainian
ukrainians
ukurova
ukwhoswho
ul
ulaanbaatar
ulan
uli
ulla
ulm
ulrich
ulrike
ulsan
ulste
ulster
ultimate
ultimately
ultimatum
ultra
ultraviolet
uluberia
ulyanovsk
ulysses
um
uma
umar
umay
umayyad
umayyads
umberto
umbrella
umbrian
umbrie
umeda
umm
umwhile
umwhyl
un
una
unable
unabridged
unadjusted
unaizah
unalike
unam
unbeaten
uncertain
uncertainty
unchynged
uncle
unclear
unco
uncommon
unconventional
uncovered
und
under
underground
understand
understanding
undiscovered
undp
une
unemployment
unesco
unfinished
unfortunately
ungulates
unhappy
unhcr
unia
unicef
unicode
unicorn
unidas
unifee
unification
unified
uniform
uniforms
unilingually
unincorporatit
uninhabitit
unio
union
unionist
unionists
unions
unique
uniquely
unit
unitar
unitary
unite
united
unitin
unitit
units
unity
univ
universal
universally
universe
universidad
universidade
universita
universite
universities
university
univision
unix
unkent
unknown
unless
unlik
unlike
unlikely
unlimited
unmairit
unnamed
unner
unnergane
unnergrund
unnerlyin
unnerneath
unnerstaund
unnerstaundin
unnerstuid
unnertaken
unnerteuk
unnerwarld
unnerwatter
unnerwent
uno
unoffeecial
unofficial
unplugged
unpopular
unprecedentit
unrecognised
unrelatit
unreleased
unreliable
unrest
unstable
unsuccessfu
unsuccessful
unsupported
unthirldom
unthirlt
unthrildom
until
unuisual
unuisually
unusual
unveiled
unveils
unwin
up
upazila
upcomin
upcoming
update
updated
updates
updatit
upgrade
upgrades
upgradit
uphaud
upland
uplands
upo
upon
upper
uppingham
uppsala
upricht
uprisin
uprising
uprisins
ups
upscale
upset
upstream
ur
ural
uralic
urals
uranium
uranus
urartian
urbaine
urban
urbana
urbanisation
urbanisit
urbanization
urbanized
urbino
urdaneta
urdu
ure
urfa
urge
urgell
uri
uribe
urine
url
urmia
urr
ursula
ursus
uruguay
uruguayan
urza
us
usa
usage
usain
usd
usda
use
used
user
users
uses
usgs
usin
using
usit
uss
ussr
ussuriysk
ust
ustyug
usual
usually
ut
utah
utc
utility
utopia
utrecht
utsunomiya
uttar
uul
uusimaa
uwe
uyezd
uyezds
uyghur
uz
uzbek
uzbekistan
uzbeks
uzhhorod
uzi
v
va
vacancy
vacant
vacas
vacation
vaccine
vaccines
vacuum
vader
vaga
vagina
vaginal
vaige
vailyie
vain
val
valcuvia
vald
valde
valdemar
valdez
valdivia
vale
valence
valencia
valencian
valencie
valenti
valentia
valentina
valentine
valentino
valenzuela
valerie
valeriya
valga
valid
validated
valkeakoski
valladolid
vallas
valle
vallecas
valles
valley
valleys
vallie
valois
valor
valparai
valuable
value
valued
values
valve
valves
vampire
van
vana
vanadzor
vanamo
vancouver
vandals
vanderbilt
vandi
vanessa
vanguard
vanguardia
vanilla
vanity
vans
vantaa
vanuatu
var
vara
varadero
varela
varese
vargas
variable
variables
variant
variants
variation
variations
varied
varies
variet
varieties
variety
various
variously
varna
varsitie
varsities
varsity
vary
varyin
vas
vasa
vasak
vasco
vascular
vashkinsky
vasily
vassal
vast
vatican
vaucluse
vaud
vaughan
vault
vaupe
vauxhall
vayots
vaz
ve
vector
vectors
ved
vedette
veectory
veelage
veelagers
veelages
veellage
veeolence
veeolent
veesible
veesion
veesit
veesitin
veesitit
veesitor
veesitors
veesits
veesual
vega
vegas
vegetable
vegetables
vegetarian
vegetation
vehicle
vehicles
veil
vein
vejle
vel
vela
velasco
velika
velikaya
velike
veliko
velikoustyugsky
veliky
velocity
velvet
velyka
vende
venditti
vendo
vendors
venegas
venerable
veneratit
venetian
veneto
venezia
venezuela
venezuelan
venganza
vengeance
venice
vennskapsbyer
venom
venomous
ventadour
ventimiglia
ventur
ventura
venture
ventures
venue
venues
venus
venustiano
ver
vera
veracruz
verano
verapaz
verb
verbal
verbs
verdasco
verde
verdi
verdict
vergara
verge
verification
verified
verin
verizon
verkhovazhsky
verkhovazhye
verkhovna
verkkojulkaisu
verlag
vermont
vernacular
verne
vernon
vero
verona
veronica
verra
versa
versailles
versatile
versatility
verse
verses
version
versions
versus
vert
vertebrate
vertebrates
vertical
vertically
vertigo
very
veski
vespasian
vessel
vessels
vest
vesta
veteran
veterans
veterinary
vettel
vez
vh
vhs
vi
via
viacom
viaduct
viana
vibo
vibrant
vic
vicar
vice
vicenc
vicente
vicenza
viceroy
viceroyalty
viceryalty
vichada
vichy
vicinity
victim
victims
victoire
victor
victoria
victorian
victories
victorious
victory
victurnien
vida
vidal
video
videos
vie
vieja
viejo
vienna
vienne
vientiane
viet
vietnam
vietnamese
view
viewed
viewer
viewers
views
vigala
vignerot
vigo
vii
viii
viking
vikings
viktor
viktoria
vil
vila
vilafranca
vilanova
vilassar
vilayet
viljandi
villa
villafranca
village
villagers
villages
villain
villalba
villanueva
villar
villarreal
villars
villas
villaverde
ville
villefranche
villeneuve
villeroy
villes
villeurbanne
vilnius
viloyat
viloyati
vin
vince
vincent
vincenzo
vinci
vine
vines
vineyard
vineyards
vinni
vinnytsia
vintage
vintimille
vinyl
viola
violante
violence
violent
violet
violin
violinist
viral
virallinen
virgen
virgil
virgin
virginia
virginie
virtual
virtually
virtue
viru
virus
viruses
vis
visa
visayas
viscoont
viscount
viscum
viseu
vishnu
visible
vision
visions
visit
visited
visitin
visiting
visitit
visitor
visitors
visits
visitscotland
vissi
vista
visual
vita
vital
vitamin
vitebsk
viterbo
viti
vito
vitoria
vitry
vittoria
vittorio
viva
vives
vivian
vivienda
vivir
vivo
vixens
viz
vlad
vladimir
vladimirovich
vladivostok
vleborg
vlore
vn
vo
voblast
vocabulary
vocal
vocalist
vocalists
vocals
vocational
vogue
voice
voiced
voiceless
voices
void
voiron
voivodeship
voivodship
vojvodina
vol
volcanae
volcanic
volcanism
volcano
volcanoes
volga
volgograd
volhynie
volkhov
volkswagen
volleybaw
vollum
volodymyr
vologda
vologodsky
volosovo
volost
volosts
vols
volt
volta
voltage
voltaire
volume
volumes
voluntary
volunteer
volunteers
volution
volvo
volyn
volzhsky
vom
von
voodoo
voor
vopnafjo
vor
vorarlberg
voronezh
vorpommern
vorstand
vosges
voskresensky
vostochny
vote
voted
voters
votes
votic
votin
votit
vouel
vouels
vowel
vowels
voy
voyage
voyager
voyages
voz
vozhegodsky
vr
vre
vres
vreux
vrh
vrillie
vs
vsevolozhsky
vu
vulgare
vulgaris
vulnerable
vulpes
vulva
vw
vy
vyacheslav
vyborgsky
vyce
vyced
vyces
w
wa
wab
wabpage
wabsite
wabsteid
wabsteids
wad
waddin
wade
wadensday
wadi
wadna
wae
wage
wages
wagner
wagon
wagons
wahat
waik
waird
wairds
wairm
wairmer
wairmest
wait
waitin
waiting
wake
wakefield
walcome
wald
waldeck
waldemar
walden
wale
waled
wales
walid
walin
walk
walker
walkers
walkin
walking
walks
wall
wallaby
wallace
wallachie
walled
wallie
wallis
wallonie
walloon
walls
walpole
walsall
walsh
walt
walter
walters
walth
walthiest
walthy
walton
walvis
wan
wanderers
wang
wanlockhead
wanlockheid
want
wanted
wantin
wantit
wants
wappen
wappens
war
ward
wards
ware
warfare
wark
warkers
warks
warld
warlds
warldsnooker
warldsnookerdata
warldwide
warlord
warm
warmest
warmie
warned
warner
warning
warrant
warren
warrin
warrior
warriors
wars
warsaw
warships
warst
warstler
warstlin
warszawa
warszawy
wartime
warwick
warwickshire
was
waseda
washin
washington
wasn
wasps
wast
waste
waster
wastern
wastlins
wastmaist
wastmeenster
wastmeinster
wastren
wastrenmaist
wat
watch
watched
watchin
water
waterford
waterfront
waterloo
waters
waterschapshuis
watford
wather
watson
watt
watter
watterfaw
watterfaws
watters
wattershed
watterwey
wattir
watts
waur
wave
waverley
waves
wavy
waw
wawed
wawrinka
waws
wax
way
wayback
waybackmachine
wayne
ways
wb
wcw
wd
we
weak
weakened
wealth
wealthiest
wealthy
weans
weapon
weapons
wear
wearin
wearing
weather
weatherbase
weaver
weavin
web
webarchive
webb
webcite
weber
webmineral
webpage
website
websteid
webster
wecht
wechts
wed
weddin
wedding
wedge
wednesday
wee
weed
weeds
week
weekend
weekends
weekly
weeks
weel
weemen
weemin
weeng
weengs
weet
wehbe
wei
weight
weights
weil
weilburg
weill
weimar
weir
weird
weirs
weiss
weissenfels
weizmann
welcome
welcomed
welcomes
welfare
well
wellington
wells
welsh
welshpool
welt
wembley
wen
wenbo
wendy
went
wer
were
werner
wertheim
wes
wesley
wessex
west
westchester
western
westfalens
westfield
westminster
weston
westphalia
westphalie
westport
westren
westview
westwood
wet
wetland
wetlands
wettest
wettin
wetzlar
wexford
wey
weys
wha
whae
whale
wham
whan
whar
whare
whareas
wharf
whase
what
whatever
whaul
whauls
whaur
whauras
wheat
wheel
wheelbase
wheeler
wheels
wheen
when
where
whereas
whether
which
whig
while
whiles
whilies
whilk
whilka
whilst
whin
whip
whishaw
whiskey
whisky
whit
whitaker
white
whitehouse
whites
whither
whithorn
whitney
whittingehame
who
whole
wholesale
wholly
whom
whose
why
wi
wichita
wicht
wick
wicked
wicker
wid
widden
wide
widely
wider
widespread
widespreid
widest
widow
widowed
widower
widrawal
widrew
wids
width
wie
wien
wiesbaden
wife
wigan
wight
wigtoun
wigtounshire
wigtown
wigtownshire
wii
wiin
wijken
wiki
wikibooks
wikileaks
wikilink
wikimedia
wikinews
wikipaedia
wikipedia
wikiquote
wikisource
wikispecies
wikiversity
wikivoyage
wiktionar
wiktionary
wilaya
wilbur
wild
wildcard
wilde
wilder
wilderness
wildlife
wiley
wilfried
wilhelm
wilhelmina
wilhelmine
wilkes
wilkins
wilkinson
will
willard
willem
william
williams
williamson
williamstown
willie
willis
willow
willy
wilmington
wilson
wiltshire
wimbledon
win
winchester
wind
windae
windaes
windhoek
windin
windmill
window
windows
winds
windscreen
windsor
windy
wine
winehouse
winery
wines
wing
winged
winger
wings
winner
winners
winnin
winning
winnipeg
wins
winston
winter
winters
wintersun
wioot
wir
wird
wirds
wire
wired
wireless
wirk
wirked
wirker
wirkers
wirkin
wirkit
wirks
wirkshop
wirkshops
wirship
wirst
wirth
wis
wisconsin
wisdom
wise
wish
wished
wishes
wiska
wisna
wisnae
wit
witch
witchcraft
witches
with
withdraw
withdrawal
withdraws
withdrew
withers
within
withoot
without
witness
witnessed
witnesses
wittelsbach
wittgenstein
wittins
wives
wizard
wm
wmo
wo
wohnbevo
wolf
wolfenbu
wolfgang
wolfram
wolfsburg
wolseley
woluwe
wolverhampton
wolves
woman
women
won
wonder
wonderful
wonderland
wonders
woners
wong
woo
wood
woodland
woodley
woodrow
woods
woody
woolf
woondit
worcester
worcestershire
word
wordpress
words
wore
work
worked
worker
workers
workin
working
workit
works
workshop
world
worldcat
worldcitypopulation
worlds
worldsnooker
worldtimezones
worldwide
worm
worms
worn
worship
worst
worth
woud
wouf
woufs
would
wound
wounded
woundit
wounds
woven
wow
wozencraft
wozniacki
wp
wpbsa
wps
wrack
wran
wrang
wrap
wrapped
wrat
wrate
wrath
wreath
wrestler
wrestlin
wrestling
wrexham
wright
wrist
writ
write
writer
writers
writes
writin
writing
writings
writins
written
wrocht
wrocław
wrong
wrote
ws
wta
wto
wu
wud
wuhan
wuid
wulfrun
wullie
wumman
wun
wuornos
wuppertal
wur
wurld
wus
wut
ww
wwe
wwf
wwii
www
wycombe
wye
wylie
wyoming
władysław
x
xa
xalapa
xavier
xbox
xe
xenon
xi
xia
xiamen
xiao
xico
xie
xifres
xii
xiii
xinhua
xinjiang
xiongnu
xitos
xiv
xix
xixt
xl
xls
xo
xols
xu
xv
xvi
xvii
xviii
xx
xxi
xxiii
xxt
y
ya
yacht
yah
yahoo
yahya
yaird
yakimanka
yakutsk
yakuza
yala
yale
yalova
yam
yamaguchi
yamaha
yamalo
yamanashi
yan
yanbu
yang
yangjae
yangon
yangtze
yankee
yanukovych
yao
yar
yard
yards
yarmolyntsi
yaroslavl
yaroslavsky
yat
yatsugatake
yautepec
yavne
yazd
ye
year
yearbook
yearhunner
yearly
yearning
years
yeghegnadzor
yehuda
yeir
yeirhunder
yeirhunner
yeirs
yekaterinburg
yellae
yellow
yellowknife
yeltsin
yemen
yemeni
yemenite
yen
yener
yeni
yeongdeungpo
yeouido
yer
yerb
yerbaceous
yerbs
yerevan
yerl
yerls
yes
yesterday
yet
yett
yevlakh
yew
yi
yiddish
yield
yieldit
yields
yin
ying
yins
yird
yirdquauk
yirdquauks
yit
yitzhak
yle
yn
yo
yoch
yoga
yogyakarta
yokneam
yokohama
yolanda
yolande
yom
yon
yona
yong
yongin
yongsan
yonne
yoo
yoon
york
yorker
yorkshire
yoro
yoruba
yotl
you
young
younger
youngest
your
yourself
youssef
youth
youtube
yr
ys
yu
yuan
yucata
yue
yug
yugoslav
yugoslavia
yugoslavie
yugoslavs
yugra
yuil
yukari
yukon
yule
yun
yung
yungas
yunger
yunis
yunnan
yuri
yuridia
yusuf
yuzhno
yvelines
yves
yzr
z
za
zaachila
zabadani
zacapa
zacatecas
zacatepec
zachary
zack
zagora
zagreb
[...]
