!
"
#
##0
##1
##10
##11
##12
##13
##14
##15
##16
##17
##18
##19
##2
##20
##21
##22
##23
##24
##25
##26
##27
##28
##29
##3
##30
##31
##32
##33
##34
##35
##36
##37
##38
##39
##4
##40
##41
##42
##43
##44
##45
##46
##47
##48
##49
##5
##50
##51
##52
##53
##54
##55
##56
##57
##58
##59
##6
##60
##61
##62
##63
##64
##65
##66
##67
##68
##69
##7
##70
##71
##72
##73
##74
##75
##76
##77
##78
##79
##8
##80
##81
##82
##83
##84
##85
##86
##87
##88
##89
##9
##90
##91
##92
##93
##94
##95
##96
##97
##98
##99
$
%
&
'
(
)
*
+
,
-
.
/
0
00
000
0000
0001
001
002
003
005
005073
006
007
01
0100000
010210
010220
013
02
020
026438
03
04
05
050
054
06
07
08
09
1
10
100
1000
1002
1007
101
1010
1016
1017
102
1020
103
1030
1038
104
1040
10427
105
1050
105584
106
1060
1063
1066
107
1070
10700
1073
108
1080
1086
109
1090
1093
1098
11
110
1100
111
1110
1111
112
1120
1126
113
1130
1136
114
1140
115
1150
116
1160
117
1170
1177
118
1180
1188
119
1190
12
120
1200
121
1210
12148
122
1220
123
1230
124
1240
125
1250
12540
126
1260
127
1270
1272
128
1280
1282
1283
1284
129
1290
13
130
1300
131
1310
132
1320
133
1330
134
1340
135
1350
13550863
136
1360
137
1370
138
1380
139
1390
14
140
1400
141
1410
1415
142
1420
143
1430
144
1440
145
1450
146
1460
147
1470
148
1480
1485
149
1490
1492
15
150
1500
1509
151
1510
1515
152
1520
1521
1525
153
1530
1534
1536
154
1540
1541
1542
154245
1543
1544
1545
1547
155
1550
1551
1552
1553
1554
1555
1556
1557
1558
1559
156
1560
1564
1565
1567
1568
157
1570
1571
1572
158
1580
1584
1585
1586
1587
1588
1589
159
1590
1592
1593
1594
1595
1596
1597
1598
1599
16
160
1600
1600000
1601
1603
1604
1605
1606
1607
1608
1609
161
1610
1611
1612
1614
1616
1617
1618
162
1620
1621
1622
1623
1625
1626
1629
163
1630
1631
1632
1633
1634
1634044354308
1635
1637
1638
1639
164
1640
1641
1642
1643
1644
1645
1646
1647
1648
1649
165
1650
1651
1652
1653
1654
1656
1658
1659
166
1660
1661
1662
166259
1663
1664
1665
1666
1667
1668
167
1670
1671
1672
1673
1674
1675
1676
1677
1679
168
1680
1682
1683
1685
1688
1689
169
1690
1691
1692
1693
1694
1695
1696
1697
169802
1699
17
170
1700
1701
1702
1703
1705
1707
1708
1709
171
1710
1711
1713
1714
1715
1716
1717
1718
1719
172
1720
1721
1722
1723
1724
1725
1726
1727
1728
1729
173
1730
1731
1732
1733
1734
1735
1736
1737
1738
1739
174
1740
1741
1742
1743
1744
1745
1746
1747
1748
1749
175
1750
1751
1752
1753
1754
1755
1756
17565097
1757
1758
1759
176
1760
1761
1762
1763
1764
1765
1766
1767
1768
1769
177
1770
1771
1772
1773
1774
1775
1776
1777
1778
1779
178
1780
1781
1782
1783
1784
1785
1786
1787
1788
1789
179
1790
1791
1792
1793
1794
1795
1796
1797
1798
1799
18
180
1800
1801
1802
1803
1804
1805
1806
1807
1808
1809
181
1810
1811
1812
1813
1814
1815
1816
1817
1818
1819
182
1820
1821
1822
1823
1824
1825
1826
1827
1828
1829
183
1830
1831
1832
1833
1834
1835
1836
1837
1838
1839
184
1840
1841
1842
1843
1844
1845
1846
1847
1848
1849
185
1850
1851
1852
1853
1854
1855
1856
1857
1858
1859
186
1860
1861
1862
1863
1864
1865
1866
1867
1868
1869
187
1870
1871
1872
1873
1874
1875
1876
1877
1878
1879
188
1880
1881
1882
1883
1884
1885
1886
1887
1888
1889
189
1890
1891
1892
1893
1894
1895
1896
1897
1898
1899
19
190
1900
1901
1902
1903
1904
1905
1906
1907
1908
1909
191
1910
1911
1912
1913
1914
1915
1916
1917
1918
1919
192
1920
1921
1922
1923
1924
1925
1926
1927
1928
1929
193
1930
1931
1932
1933
1934
1935
1936
1937
1938
1939
194
1940
1941
1942
1943
1944
1945
1946
1947
1948
1949
195
1950
1951
1952
1953
1954
1955
1956
1957
1958
1959
196
1960
1961
1962
1963
1964
1965
1966
1967
1968
1969
197
1970
1971
1972
1973
1974
1975
1976
1977
1978
1979
198
1980
1981
198182
1982
1983
1984
1985
1986
1987
1988
1989
199
1990
1991
1992
1993
1994
1995
1996
1997
1998
1999
2
20
200
2000
2001
2002
2003
2004
20040610130433
2005
200587
2006
2007
2008
2009
201
2010
2011
2012
2013
2014
2015
20150601
2016
2017
2018
2019
202
2020
2021
2022
2026256
203
204
2049
205
206
207
208
209
2094
21
210
211
212
213
214
21401824
215
216
217
218
219
22
220
221
222
223
224
225
226
227
228
229
23
230
2307
231
232
233
234
235
236
237
238
239
24
240
2400
241
241600000
242
243
244
245
2452
246
247
248
249
2494649
25
250
251
252
253
254
255
256
257
258
259
26
260
261
262
263
264
265
266
267
268
269
27
270
271
272
273
274
275
276
277
278
279
28
280
281
282
283
284
285
286
287
288
289
29
290
291
292
293
294
295
296
297
298
299
3
30
300
3000
301
302
303
304
305
306
307
308
309
31
310
311
3114843001
312
313
314
315
316
317
318
319
32
320
321
322
323
324
325
326
327
328
329
33
330
331
332
333
334
335
336
337
338
339
34
340
341
342
343
344
345
346
34697500
347
348
349
35
350
351
352
353
354
355
356
357
358
359
36
360
361
362
363
364
365
36578
366
367
368
369
36995
37
370
371
372
373
37312
374
375
376
377
378
379
38
380
381
382
383
384
385
386
387
388
389
39
390
391
392
393
394
395
396
397
398
399
4
40
400
401
402
403
404
405
406
407
408
409
41
410
4100
411
412
413
414
415
416
417
418
419
42
420
421
422
423
424
425
426
427
428
429
43
430
431
432
433
434
435
436
437
438
439
44
440
441
442
443
444
445
446
447
448
449
45
450
451
452
453
454
455
456
457
458
459
46
460
461
462
463
464
465
466
467
468
469
47
470
471
472
473
474
475
476
477
478
479
48
480
481
482
483
484
485
486
487
488
489
49
490
491
492
493
494
495
496
497
498
499
5
50
500
501
502
504
505
506
507
508
509
51
510
511
512
513
515
517
5175126002
518
519
52
520
521
522
524
525
526
527
528
529
53
530
531
532
533
534
536
537
538
539
54
540
541
542
543
544
545
546
547
548
549
54919
55
550
552
553
554
555
55581
56
560
561
563
564
565
566
567
57
570
571
573
575
576
577
579
58
580
581
582
584
585
586
589
59
590
593
594
595
596
597
598
6
60
600
601
602
603
604
605
60525
606
608
609
609410106
61
610
613
614
615
616
618
62
620
625
627
63
630
631
632
633
634
636
637
638
639
64
640
641
642
646
649
65
650
652
653
658
66
660
661
662
663
664
666
668
67
670
671
674
676
679
68
680
681
684
687
688
69
690
691
7
70
700
701
7083
71
710
711
712
715
72
720
73
730
735
74
740
7461
75
750
754
76
760
768
77
770
774
78
780
784
785
79
790
8
80
800
804
81
810
813
814
82
820
825
83
830
84
840
843
85
850
855
86
860
87
870
88
880
881
89
890
892
899
9
90
900
91
910
911
915
919
92
920
93
930
94
940
942
95
950
957
96
960
962
965
97
970
974
978
9780198606697
9780198614128
98
980
981
99
990
999
:
;
<
=
>
?
@
[
\
]
^
_
`
a
aa
aage
aarhus
aaron
ab
abad
abart
abaty
abbas
abbey
abbot
abbott
abc
abchasia
abd
abdomen
abdul
abdullah
abe
abel
aber
aberaeron
aberafan
aberaman
aberangell
aberarad
aberarth
aberbowlan
aberbra
aberbythych
abercarn
abercastell
abercegir
aberchwiler
aberconwy
abercraf
abercrychan
abercuch
abercwmboi
abercynon
abercywyn
aberda
aberdar
aberdaron
aberdaugleddau
aberddawan
aberdeen
aberdesach
aberdyfi
aberedw
abereiddi
abererch
aberffraw
abergele
abergorlech
abergwaun
abergwenffrwd
abergwesyn
abergwili
abergwydol
abergwyngregyn
abergynolwyn
aberhafesb
aberhonddu
aberhosan
aberllefenni
aberllydan
aberllynfi
abermagwr
abermaw
abermeurig
abernant
aberoedd
aberogwr
aberpennar
aberporth
aberriw
abersoch
abertawe
aberteifi
aberth
aberthin
aberthu
abertridwr
aberu
aberysgir
aberystwyth
abigail
abingdon
abl
abner
about
above
abraham
abrahams
abram
abrams
abril
absalom
abse
absennol
absenoldeb
absoliwt
abu
ac
acad
acade
academaidd
academi
academia
academic
academicals
academy
academydd
acanthagrion
acanthizidae
access
accessdate
accessed
accipitridae
according
account
ace
acen
acer
ach
achau
achille
achlysur
achlysurol
achlysuron
achos
achosi
achosion
achosir
achosodd
achoswyd
achternbusch
achub
aci
acid
acids
acqua
acrefair
across
acsiwn
act
acta
actau
actif
actifydd
actin
actio
action
activated
activating
activation
activist
activity
acton
actor
actores
actorion
actors
actress
acts
acute
acw
ad
ada
adael
adain
adair
adalwyd
adam
adams
adamson
adar
adargraffiad
adatai
adawodd
adawyd
adda
addams
addas
addasedig
addasiad
addasiadau
addasu
addaswyd
addaw
addawodd
addawol
addef
addewid
addewidion
addfwyn
addison
addo
addoldy
addoli
addoliad
addurn
addurniadau
addurno
addysg
addysgiadol
addysgol
addysgu
addysgwr
addysgwyd
ade
adeg
adegau
adeilad
adeiladau
adeiladodd
adeiladu
adeiladwaith
adeiladwyd
adeiledig
adeingoch
adeinwyn
adelaide
adele
aden
adennill
adenydd
aderyn
adfa
adfail
adfeiliedig
adfeilion
adfer
adferiad
adferwyd
adfywiad
adfywio
adgofion
adio
aditya
adlais
adler
adlewyrchu
adloniant
administration
administrative
adnabod
adnabu
adnabyddiaeth
adnabyddid
adnabyddir
adnabyddus
adnabyddwyd
adnewyddu
adnod
adnodau
adnodd
adnoddau
adolf
adolfi
adolfo
adolph
adolphe
adolygiad
adolygiadau
adolygu
adorocinema
adpar
adra
adran
adrannau
adre
adref
adria
adrian
adriana
adriano
adrien
adrienne
adrodd
adroddai
adroddiad
adroddiadau
adroddir
adroddodd
adroddwr
adroddwyd
adult
advanced
adventure
adventures
adverse
advertiser
adwaenid
adwaenir
adwaith
adweithiau
adweithio
adwy
ae
aed
aeddfed
ael
aelod
aelodaeth
aelodau
aelwyd
aelwyn
aent
aer
aeron
aeshna
aeshnidae
aeth
aethai
aethant
aethom
aethpwyd
aethum
af
afael
afal
afalau
afan
afc
afel
affair
affairs
affganistan
affleck
affrica
affricanaidd
affricaneg
afghanistan
afi
afiach
afiechyd
afiechydon
aflan
aflonyddu
aflonyddwch
aflwyddiannus
afon
afonydd
afreolaidd
africa
african
afrikaans
after
afu
ag
aga
again
against
agaricales
age
aged
agency
agenda
agent
ager
ages
agne
agnes
agnieszka
ago
agor
agored
agoriad
agoriadol
agorodd
agorwyd
agos
agosa
agosach
agosaf
agreement
agricola
agriculture
agriocnemis
aguilar
aguirre
agusti
agwedd
agweddau
ah
ahmad
ahmed
ahn
ai
aid
aida
aidan
aidd
aids
aiff
aifft
ail
ailadeiladu
ailadeiladwyd
ailadrodd
aileni
ailenwyd
ailfesurwyd
ailgylchu
aime
ain
ainmean
aipht
aiphtiaid
air
aires
airport
ais
aise
aisne
aix
ajay
ak
aki
akira
akkineni
al
alabama
alabiso
alaeth
alain
alan
alar
alarch
alaska
alastair
alaudidae
alaw
alawon
alba
alban
albanaidd
albaneg
albania
albans
albanwr
albanwyr
albany
albert
alberta
alberti
albertini
alberto
albion
albrecht
album
albwm
albymau
alcedinidae
alcohol
alda
aldershot
aldo
aldridge
alec
alecsander
alecsandria
aled
alejandro
aleksandar
aleksander
aleksandr
alena
alessandra
alessandro
alessio
alex
alexander
alexandra
alexandre
alexandria
alexandru
alexis
alf
alfio
alfonso
alfred
alfredo
alfredson
algebra
algebraidd
alger
algeria
algorithm
ali
alias
alice
alicia
alida
alien
aliens
alina
aline
alison
alistair
alive
all
alla
allaf
allai
allan
allanol
allant
allasai
alle
allegheny
allen
allent
aller
allerdale
alles
alley
allforio
alliance
allier
allison
allmovie
allmusic
allo
allocine
allor
allowed
allt
alltud
alltudiaeth
alltudio
alltwalis
alltwen
alltyblaca
allu
alluoedd
alluog
alluogi
allwedd
allweddellau
allweddol
allwn
allyriadau
alma
almaen
almaenaidd
almaeneg
almaenig
almaenwr
almaenwyr
almeida
almirante
almodo
almost
alois
alone
along
alonso
alpaidd
alpau
alpes
alpha
als
also
alstrup
alterio
alternative
alto
alton
altrincham
alumni
alun
alvaro
alves
alvin
alw
alwad
always
alwedigaeth
alwodd
alwyd
alwyn
alyn
alys
alzheimer
am
ama
amadeus
amadori
amaeth
amaethdy
amaethwr
amaethwyr
amaethyddiaeth
amaethyddol
amalia
aman
amanda
amar
amason
amato
amatur
amau
amazing
amazon
ambell
amber
ambrose
ambrosio
amcan
amcangyfrif
amcangyfrifir
amcangyfrifwyd
amcanion
amdani
amdano
amdanynt
amddifad
amddiffyn
amddiffynfa
amddiffynfeydd
amddiffyniad
amddiffynnol
amddiffynwr
amddiffynwyr
ame
amedeo
amelia
amen
amendola
america
american
americana
americanaidd
americanes
americans
americanwr
americanwyr
americas
amerig
amersham
ames
amffibiaid
amgen
amgodio
amgoed
amgrwm
amgueddfa
amgueddfeydd
amgylch
amgylchedd
amgylcheddol
amgylchiad
amgylchiadau
amgylchynu
amharu
amherst
amheuaeth
amheus
amhosib
amhosibl
ami
amico
amin
amino
amir
amit
aml
amlach
amlaf
amlder
amleto
amlwch
amlwg
amlycaf
amlygrwydd
amlygu
amman
ammon
amo
amod
amodau
among
amor
amore
amos
amour
amparo
amroth
amrwd
amryfal
amryliw
amryw
amrywiad
amrywiadau
amrywiaeth
amrywio
amrywiol
ams
amser
amserau
amseroedd
amsterdam
amsugno
amwythig
amy
amynedd
an
ana
anabledd
anadl
anadlu
anaf
anafiadau
anafu
anafwyd
analysis
anaml
anand
anarferol
anatidae
anatole
anatolia
anatomeg
anatomy
anawsterau
anb
anc
ancestry
ancestrylibrary
anchors
ancient
and
andere
anders
andersen
anderson
andersson
andes
andhra
andorra
andra
andrade
andras
andre
andrea
andreas
andrei
andreu
andrew
andrews
andrey
andrzej
andy
ane
aned
aneddiadau
anedig
aneglur
aneirin
anelu
anerchiad
aneurin
anfantais
anfarwol
anfarwolion
anfeidrol
anferth
anferthol
anffawd
anffodus
anffurfiol
anflodeuol
anfodlon
anfon
anfonodd
anfonwyd
anfynych
ang
angau
ange
angel
angela
angeles
angelica
angelina
angelis
angelo
angels
angen
angenrheidiol
angenrheidrwydd
angerdd
angerddol
angeu
angharad
anghenfil
anghenfilod
anghenion
angheuol
anghofio
anghydffurfiol
anghydffurfwyr
anghydfod
anghyfannedd
anghyffredin
anghyfiawn
anghyfiawnder
anghyflawn
anghyfreithlon
anghysbell
anghytuno
anghywir
angie
angladd
angle
anglesey
anglia
anglicanaidd
anglo
angola
angor
angst
angus
angylion
anhapus
anhawdd
anhawster
anheddiad
anhrefn
anhwylder
anhwylderau
anhygoel
anhysbys
ani
anial
anialwch
anian
anifail
anifeiliaid
anil
animal
animals
animation
anime
animeiddiedig
animeiddio
anita
anja
anjou
ankara
anker
ankst
ann
anna
annakin
annales
annals
anne
annedd
annelise
annerch
annette
annhebyg
annhebygol
anni
annibyniaeth
annibynnol
annibynol
annibynwyr
annie
annilys
annisgwyl
anniversary
anno
annog
announced
annual
annuwiol
annwn
annwyd
annwyl
annymunol
anobaith
anodd
anogaeth
another
anrhaith
anrheg
anrhegion
anrheithio
anrhydedd
anrhydeddau
anrhydeddu
anrhydeddus
ans
ansawdd
anseriformes
ansicr
ansicrwydd
ansoddair
answyddogol
ant
antarctig
antel
anterth
anthem
anthony
anthropoleg
anti
anticancer
antigen
antiochus
antiquities
anto
antoine
antoinette
anton
antonella
antonelli
antoni
antonia
antonietta
antonio
antonius
antony
antur
anturiaeth
anturiaethau
antwerp
anu
anuniongyrchol
anwar
anweledig
anwes
anwiredd
anwybodaeth
anwybodus
anwybyddu
anwyd
anwyl
anwylyd
any
anything
ao
aodou
ap
apache
apartheid
ape
apelio
apfel
api
apocalypse
apocolyptaidd
apodidae
apodiformes
apollo
apoptosis
apostol
apostolion
appendix
apple
applied
approach
april
apwyntiwyd
aquitaine
ar
ara
arab
arabaidd
arabeg
arabia
arabiaid
arachis
arad
aradr
araeth
araf
arafu
arago
aragon
araith
arall
aran
aranda
arbed
arbenig
arbenigo
arbenigol
arbenigwr
arbenigwyr
arbennig
arberth
arbrawf
arbrofi
arbrofion
arbrofol
arc
arcadia
arch
archaea
archaeoleg
archaeolegol
archaeolegwyr
archaeological
archaeology
archainbaud
archdderwydd
archddiacon
archentaidd
archeolegol
archer
archesgob
archibald
archie
archif
archifau
archifdy
archifwyd
architecture
archive
archived
archives
archoffeiriad
archwiliad
archwilio
arctic
arctig
ardal
ardaloedd
ardalydd
ardd
arddangos
arddangosfa
arddangosfeydd
arddegau
arddegwyr
arddel
ardderchog
arddlin
arddull
arddulliau
arde
ardeidae
arden
ardennes
ardudwy
are
area
areas
aredig
areithiau
areithio
arena
arennau
arestio
arestiwyd
arf
arfaethedig
arfau
arfbais
arfer
arferai
arferiad
arferid
arferion
arferol
arfog
arfon
arfordir
arfordiroedd
arfordirol
arg
argae
argentina
argento
argia
argiolestes
arglwyd
arglwydd
arglwyddes
arglwyddi
arglwyddiaeth
argoed
argraff
argraffiad
argraffiadau
argraffu
argraffwyd
argraffydd
argraphu
argrephid
argus
argyfwng
argyhoeddi
argyhoeddiad
argymell
arholiad
arholiadau
arhosodd
ari
aria
arian
ariane
arianneg
ariannin
ariannol
ariannu
arias
arie
ariel
aristide
arizona
arjun
ark
arkansas
arkın
arlein
arlen
arlette
arlington
arllechwedd
arllwys
arloesol
arloeswr
arloeswyr
arlunwyr
arlunydd
arlywydd
arlywyddiaeth
arlywyddol
armand
armando
armenda
armeneg
armenia
armin
armor
arms
armstrong
army
arna
arnaf
arnaldo
arnat
arnaud
arndt
arne
arni
arno
arnoch
arnold
arnom
arnon
arnynt
arogl
arolwg
arolygiad
arolygu
arolygwr
arolygydd
aros
arosodd
around
arquette
arretes
arrow
arsenal
arswyd
arswydus
arsyllfa
arsylwi
art
arte
artes
arth
arthog
arthritis
arthur
article
articleid
articlerender
articles
artid
artiffisial
artis
artist
artiste
artistiaid
artistig
artists
arts
artsy
artur
arturo
arun
arundel
aruthrol
arvid
arvor
arw
arwain
arweiniad
arweiniodd
arweiniol
arweiniwyd
arweinwyr
arweinydd
arweinyddiaeth
arweinyddion
arwel
arwr
arwrgerdd
arwrol
arwydd
arwyddair
arwyddion
arwyddlun
arwyddo
arwyddoca
arwyddocaol
arwyddodd
arwyddwyd
arwyneb
arwynebedd
arwyr
arysgrif
arysgrifau
as
asa
asana
asanas
asau
aserbaijan
aserbaijaneg
asesu
asgell
asgwrn
ash
ashby
asher
ashfield
ashford
ashley
ashok
ashtanga
ashton
asia
asiaidd
asian
asiant
asiantaeth
asiantaethau
asid
asidau
asidig
ask
aslan
asp
aspect
aspx
asquith
assad
assembly
assessment
assets
associated
association
aster
asteraceae
asteroid
asthma
aston
astor
astrid
astud
astudiaeth
astudiaethau
astudio
astudiodd
asturias
aswy
asyn
asyria
at
ataf
atal
atat
ateb
atebai
atebiad
atebion
atebodd
atebol
atgenhedlu
atgof
atgofion
atgyfnerthu
atgyfodiad
atgyweirio
athen
athenaeum
athens
atherton
athletau
athlete
athletes
athletic
athletwr
athletwyr
athraw
athrawes
athrawiaeth
athrawiaethau
athrawon
athro
athrofa
athrofaol
athroniaeth
athronwyr
athronydd
athronyddol
athrylith
ati
atkins
atkinson
atlanta
atlantel
atlantic
atlantique
atlantiques
atlas
atmosffer
ato
atoch
atodiad
atolwg
atom
atomau
atomfa
atomig
atp
atrice
attack
attal
attenborough
attila
attilio
atyniad
atyniadau
atynt
au
aube
aubrey
auckland
aucklandartgallery
aude
audience
audrey
auer
auf
august
augusta
auguste
augusto
augustus
aumont
aur
aure
aurelio
aurelius
aurora
aus
auschwitz
austell
austen
austin
australia
australian
austrian
autant
author
authorities
authority
authors
autism
auto
autobiography
autority
autumn
aux
av
ava
avant
avati
ave
avec
avenue
avery
aveyron
avi
avibase
avildsen
aviv
avn
avon
avril
award
awards
away
awdl
awdur
awdurdod
awdurdodau
awdurdodi
awdurdodol
awdures
awduron
awdwr
aweigh
awel
awelon
awen
awenau
awgrym
awgryma
awgrymir
awgrymodd
awgrymu
awgrymwyd
awn
awr
awron
awst
awstin
awstralaidd
awstralia
awstria
awtomatig
awydd
awyddus
awyr
awyren
awyrennau
awyrgylch
awyrlu
axel
axt
ay
ayala
ayb
aylesbury
ayr
ayres
ayyb
az
azerbaijan
azerbaijanfilm
aziz
b
ba
baal
bab
baba
babaeth
baban
babanod
babbler
babel
babell
babi
babilon
babu
baby
babyddol
bace
bach
bachan
bachchan
bachelldref
bachgen
bachigyn
back
backed
background
bacon
bacteria
bad
baddon
baden
badger
bae
baedd
baent
baentio
baer
bafaria
bafta
bag
baghdad
bagillt
baglan
baglor
bahamas
bai
baich
bailey
baird
bakaleinikoff
baker
baku
bal
bala
balas
balcanau
balch
balchder
baldassarre
baldi
balducci
baldwin
bale
balesteina
balfour
bali
ball
ballad
ballard
ballet
balling
balliol
baltig
baltimore
ban
banana
banarsidass
banbury
banc
banciau
bancroft
bancycapel
bancyfelin
band
banda
bandiau
baner
baneri
bang
bangalore
bangkok
bangladesh
bangor
bank
banks
banna
bannau
baptist
baptiste
bapur
bapurau
bar
bara
barack
baradwys
baragli
baragraff
baratoi
barbados
barbara
barbed
barbedau
barber
barbet
barbier
barc
barcelona
barch
barchu
barchus
barcud
bard
bardd
barddas
barddol
barddoniaeth
barddonol
bardem
bare
barf
barfog
bargod
bargyfreithiwr
barhaodd
barhaol
barhau
barhaus
bari
baris
barker
barlow
barlys
barn
barnard
barnes
barnet
barnett
barney
barnsley
barnu
barnwr
barnwyr
baro
barod
barodd
barodi
baron
baroncelli
barr
barrau
barre
barreto
barrett
barri
barrie
barrier
barrington
barron
barros
barrow
barry
barrymore
bart
barth
bartholomew
barti
bartlett
bartner
bartneriaeth
barton
barwn
barwnig
bas
base
baseball
based
basel
basg
basgeg
bashar
basic
basil
basildon
basilica
basingstoke
basio
basis
basiwyd
basketball
basn
bass
bassett
basterds
bastien
bat
bata
bataliwn
batel
bateman
bates
bath
bathodyn
bathwyd
batman
batri
batrwm
battaglia
battle
bauer
bauman
baumann
baumgartner
bautista
bava
bavaria
bavarian
bawb
bawd
baxter
bay
bayard
bayerische
bayern
bbc
bbfc
bc
bcl
bd
be
beach
beaconsfield
bean
bear
beast
beasts
beat
beatles
beatrice
beatriz
beatty
beau
beaudine
beaufort
beaumont
beautiful
beauty
beaux
beaver
bebe
bec
beca
because
bech
bechgyn
bechod
bechodau
beck
becker
beckett
become
bed
bedair
bedd
beddau
beddgelert
beddrod
beddrodau
bedford
bedo
bedr
bedw
bedwar
bedwaredd
bedwas
bedwellte
bedwerydd
bedwyr
bedydd
bedyddio
bedyddiwyd
bedyddwyr
bee
beebe
been
beer
beery
beethoven
before
begeli
begin
beginning
begins
behavior
behind
behn
bei
beibl
beiblaidd
beic
beichiogrwydd
beiciau
beicio
beidio
beifil
beijing
beili
being
beinn
beirdd
beiriannau
beiriannydd
beiriant
beirniad
beirniadaeth
beirniadol
beirniadu
beirniaid
beirut
bel
bela
belarws
belarwseg
bele
belfast
belffast
belfort
belg
belgrade
beli
believe
belinda
bell
bella
bellach
bellamy
belle
belled
belli
bellied
bello
bellocchio
bellter
belmont
below
beltra
ben
benaf
bencadlys
bencampwr
bencampwriaeth
bend
bendant
bender
benderfyniad
benderfynodd
benderfynol
benderfynu
bendigaid
bendigedig
bendith
bendithio
bene
bened
benedetti
benedict
benfras
benfro
bengal
bengaleg
benglog
bengt
beni
benillion
benito
benjamin
benllech
benn
bennaeth
bennaf
bennal
bennau
bennet
bennett
bennill
benno
bennod
bennu
benny
benod
benodau
benodi
benodol
benodwyd
benoi
benrhyn
bensaerni
benson
bent
benthyciad
benthyg
bentley
benton
bentref
bentrefi
bentwrch
benvenuti
benwyn
benyw
benywaidd
benywod
benz
beograd
ber
bera
berber
berchen
berchennog
bererindod
beresford
berffaith
berfformiad
berfformiadau
berfformio
berfformiwyd
berg
bergen
berger
bergman
beri
bering
berke
berkeley
berkshire
berle
berlin
berlinale
berliner
berllan
berman
bermo
bern
bernadette
bernal
bernard
bernardi
bernardino
bernardo
bernd
bernds
bernhard
bernhardt
bernie
bernstein
berri
berry
bers
berson
bersonau
bersonol
bersonoliaeth
berswadio
bert
berta
berth
bertha
berthe
berthnasol
bertholau
berthomieu
berthyn
berthynas
berto
bertolini
bertolucci
bertram
bertrand
berw
berwi
berwyn
berygl
beryglus
beryl
bess
bessie
best
bet
beta
betalau
beth
bethan
bethania
bethau
bethel
bethesda
bethlehem
beti
betsy
bette
better
betti
bettina
betty
between
betws
beudy
beulah
beuno
beunydd
bevan
beverley
beverly
bexhill
beyer
beyond
bf
bfi
bhatt
bhushan
bi
bia
bianca
bianchi
bianco
bibcode
bibell
bibi
bible
bibliography
bid
biden
big
bihan
bil
bilbao
bilbo
bilen
biliwn
bill
billancourt
billboard
bille
billed
billi
billie
billy
bilwg
bin
binc
binding
bing
bingen
binger
bio
bioamrywiaeth
biochem
biochemistry
biochim
biodisplay
biodiversity
biografisch
biographical
biographies
biography
bioguide
biol
bioleg
biolegol
biolegydd
biological
biology
biomarker
biophys
bios
bir
birch
bird
birds
birger
birgit
birgitte
birmingham
birth
birthday
bis
bishop
bismarck
bit
bitstream
bitto
bivouac
biwmares
biwro
bizet
bjarne
bjerre
bjo
bjørn
bkmk
bl
bla
blache
black
blackburn
blackheath
blackpool
blackton
blackwell
blade
blaen
blaenaf
blaenannerch
blaenau
blaenclydach
blaencwm
blaengar
blaengweche
blaenllaw
blaenllechau
blaenor
blaenoriaid
blaenorol
blaenos
blaenpennal
blaenplwyf
blaenporth
blaenrhondda
blaid
blaidd
blaine
blair
blake
blanc
blanca
blanchard
blanche
blanco
blaned
blanhigion
blanhigyn
blant
blas
blasco
blawd
blaz
ble
bleddyn
bledrws
blegid
bleidiau
bleidlais
bleidleisiau
bleidleisio
blentyn
blentyndod
bleser
blew
blewog
blewyn
blier
blimp
blin
blind
blinder
blino
blith
bloc
bloch
block
blodau
blodeugerdd
blodeuo
blodeuol
blodeuwedd
blodyn
blog
blom
blonde
blood
bloody
bloom
bloomsbury
blossoms
blu
blue
blues
blum
blwch
blwydd
blwyddyn
blwyf
blwyfi
blygu
blynedd
blynyddau
blynyddoedd
blynyddol
blystone
blyth
blythe
blyton
bmc
bner
bnf
bo
board
boat
bob
bobby
bobi
bobl
bobloedd
boblogaeth
boblogaidd
boblogrwydd
bobol
boced
bochrwyd
bocs
bod
boda
bodau
bodd
boddi
bodedern
bodelwyddan
bodewryd
bodfari
bodffordd
bodil
bodloni
bodolaeth
bodoli
boduan
body
boed
boen
boer
boese
boeth
bogart
bogdan
bogota
bohdan
bohemia
bohm
bohumil
bois
boist
bojan
bol
bolas
bold
bolek
boli
bolifia
bolisi
bologna
bolognini
bolton
bolva
bom
bomb
bombay
bomiau
bomio
bon
bonaparte
boncath
bond
bone
bonedd
boneddigion
boneddwr
bonet
bong
bonheddig
boni
bonn
bonnard
bonner
bonnet
bonnie
bont
bontdolgadfan
bontnewydd
bontuchel
bonyn
book
booker
booking
books
boom
boone
boot
booth
bootle
boots
bop
bopeth
bor
bora
borcosque
bordeaux
borden
border
borderie
bore
boreu
boreuol
borffor
borg
borges
boris
born
bornograffig
boro
borough
borsody
borth
borthladd
bortiwgal
bortread
bortreadau
bortreadu
borzage
bos
bosch
bose
bosherston
bosib
bosibl
bositif
bosnia
boss
bost
boston
bosworth
bot
botaneg
botanegydd
botanists
botany
both
bottom
botwm
botwnnog
bouches
bouillaud
boulder
boulogne
bound
bounty
bouquet
bourbon
bourne
bournemouth
bow
bowen
bowers
bowman
bowys
box
boxofficemojo
boy
boyd
boyer
boyle
boyr
boys
boz
bp
bpn
br
bra
brabant
bracknell
brad
bradbury
bradford
bradley
bradshaw
brady
braemar
braf
bragaglia
bragdy
brahms
braich
braidd
brain
braint
braintree
bran
branch
branco
brand
brandenburg
brando
brandon
brandt
branko
branwen
bras
brasil
brasseur
braster
bratislava
brau
brauer
braun
brauner
brave
braveheart
bravo
braw
brawd
brawddeg
brawf
bray
brazil
bre
break
breakfast
breaking
breast
breasted
brech
brechfa
brechlyn
breckland
brecon
brecwast
breese
brefi
bregeth
bregethau
bregethu
bregethwr
bregethwyr
bregus
breichiau
breifat
breintiau
breisgau
breision
breizh
bremen
bren
brenda
brendan
brenhines
brenhiniaeth
brenhinllin
brenhinoedd
brenhinol
brenin
brennan
brenon
brent
brentis
brentwood
bres
bresbyteraidd
brescia
bresennol
bresenol
bresenoldeb
brest
breswyl
breswylwyr
bretagne
bretherton
brethyn
breton
brett
bretton
breuan
breuddwyd
breuddwydio
breuddwydion
breudeth
breverton
brewer
brewster
brexit
bri
brialy
brian
brice
brid
bridd
bride
bridell
bridge
bridges
bridget
bridgwater
bridio
brief
brien
brif
brifathro
brifddinas
briffordd
brifysgol
brifysgolion
brig
briger
bright
brighton
brigitte
brignone
brill
brin
bring
bringing
brint
briod
briodas
briodi
briododd
briodol
briodoli
briodolir
briodweddau
brion
bris
brisbane
bristol
britain
britannia
britanniae
britannica
brith
brithdir
brithion
brithyll
british
britt
brittany
britton
brizzi
bro
broad
broadcasting
broadland
broadway
broblem
broblemau
broderick
brodie
brodor
brodorion
brodorol
brody
brodyr
broffesiynol
brofi
brofiad
brofiadau
brofion
broken
bromley
bromwich
bron
bronaber
bronant
brongoch
bronington
bronllys
bronson
bronwydd
bronwyn
bronx
bronze
brook
brooke
brooklyn
brooks
broom
bropoganda
bros
broses
brosiect
brosiectau
brotest
brotestiadau
brother
brothers
broughton
brown
browne
browning
broz
bru
bruce
bruckman
brudd
brunel
bruni
brunius
bruno
brunswick
brut
brutus
bruun
brwd
brwdfrydedd
brwsel
brwydr
brwydrau
brwydro
brwyn
brwynog
bryan
bryant
bryce
brych
brychan
brychdyn
brycheiniog
brychion
bryd
brydain
brydeinig
bryder
bryderus
brydferth
brydferthwch
brydiau
brydles
brydydd
bryfaid
bryfed
brymbo
bryn
brynaman
brynberian
brynbuga
bryncir
bryncroes
bryncrug
bryneglwys
brynffordd
bryngaer
bryngaerau
bryngwran
bryngwyn
brynhawn
brynhyfryd
bryniau
brynrefail
brynsiencyn
brynteg
brynu
brys
brysiodd
bryste
brysur
brython
brythoneg
brythoniaid
bu
buan
buarth
buasai
buasent
buaswn
buch
buchanan
buchedd
buck
buckingham
buckland
buckley
bud
budapest
budd
buddha
buddhism
buddhist
buddiannau
buddiol
buddsoddi
buddug
buddugol
buddugoliaeth
buddy
budr
buenos
buffalo
bugail
bugeildy
bugeiliaid
build
building
buildings
built
bulkeley
bull
bulletin
bullock
bum
bumed
bump
bun
bunnau
buom
buont
bur
burbank
bureau
buren
burg
burger
burgess
burke
burlington
burman
burn
burnett
burnham
burning
burnley
burns
burr
burroughs
burry
burt
burton
burum
bury
bus
busch
bush
business
busnes
busnesau
bussie
buster
but
bute
butler
butterfly
buttolph
button
buwch
buy
buzzanca
bw
bwa
bwcare
bwch
bwcle
bwdhaeth
bwdhaidd
bwerau
bwlbwl
bwlbwliaid
bwlch
bwlchgwyn
bwlchnewydd
bwlchtocyn
bwletin
bwlgareg
bwlgaria
bwn
bwnc
bwncath
bwrdd
bwrdeisdref
bwrdeistref
bwrdeistrefi
bwriad
bwriadu
bwrpas
bwrw
bws
bwthyn
bwy
bwyd
bwydo
bwydydd
bwyll
bwyllgor
bwynt
bwyntiau
bwys
bwysau
bwysicaf
bwysig
bwysigrwydd
bwyso
bwystfil
bwyta
bwytai
bwyty
by
bychain
bychan
byd
bydd
byddaf
byddai
byddant
bydded
byddem
byddent
byddi
byddin
byddinoedd
byddo
byddwch
byddwn
bydol
bydysawd
bye
bygwth
bygythiad
bylchau
byllau
bymtheg
bynag
bynciau
bynea
bynnag
byr
byrd
byrddau
byrfodd
byrion
byrne
byron
byrth
bys
bysantaidd
bysedd
bysgod
bysgodyn
bysgota
bysiau
byth
bythefnos
byw
bywgraffiad
bywgraffiadur
bywiadur
bywiog
bywoliaeth
bywyd
bywydau
bəkirzadə
c
ca
caba
caban
cabanne
cabinet
cabiria
cable
cabot
cad
cadair
cadarn
cadarnhaodd
cadarnhaol
cadarnhau
cadarnhawyd
cadeirydd
cadell
cader
cadfan
cadfridog
cadi
cadlywydd
cadno
cadoediad
cadw
cadwai
cadwaladr
cadwallon
cadwgan
cadwodd
cadwraeth
cadwyd
cadwyn
cae
caeathro
caeau
caeedig
caego
cael
caent
caeo
caeodd
caer
caerau
caerdydd
caeredin
caereinion
caerfaddon
caerffili
caerfyrddin
caergaint
caergeiliog
caergrawnt
caergwrle
caergybi
caergystennin
caerhirfryn
caerhun
caeriw
caerliwelydd
caerllion
caerloyw
caerlwytgoed
caerly
caernarfon
caersallog
caersw
caerwedros
caerwrangon
caerwynt
caerwys
caerwysg
caesar
caeth
caethion
caethiwed
caethwasiaeth
caethweision
caewyd
caf
cafe
caffe
caffi
cafn
cafodd
cafwyd
cage
cahen
cahn
cai
caiff
cain
cainc
caine
caint
caio
cairn
cairngorms
cairns
cairo
cais
cal
cala
calais
calan
calch
calchfaen
calcium
calcutta
caldwell
cale
caleb
caled
caledfryn
caledonia
calendar
calendr
calfinaidd
calhoun
cali
califfornia
california
caligari
call
called
calls
calon
calonnau
calopterygidae
calsiwm
calvados
calvert
calvin
calvo
cam
camau
cambodia
camborne
cambrensis
cambria
cambrian
cambridge
camden
came
camel
cameo
camera
camerini
cameron
camerw
camgymeriad
camilla
camille
camillo
camino
camlas
camp
campaign
campanile
campau
campbell
campephagidae
campo
campogalliani
campos
campus
campws
camros
camus
camwy
can
canaan
canada
canadaidd
canadian
canai
canal
cancer
cancr
candidate
candy
caneuon
canfod
canfu
canfuwyd
cangen
canghellor
canghennau
caniadau
caniata
caniatad
caniatau
caniateir
canllaw
canllawiau
canlyn
canlyniad
canlyniadau
canlynol
canmlwyddiant
canmol
cannavale
cannes
cannoedd
cannon
cannwyll
canodd
canoga
canol
canolbarth
canolbwynt
canolbwyntio
canolbwyntiodd
canoldir
canolfan
canolfannau
canolig
canoloesol
canolog
canon
canran
canrif
canrifoedd
canser
cant
cantal
canterbury
canto
canton
cantoneg
cantor
cantores
cantorion
cantref
cantrefi
canu
canwr
canyon
canys
cao
cap
capan
cape
capel
capeli
capiau
capital
capitol
capitonidae
capped
capra
capri
caprimulgidae
caprimulgiformes
caprioli
capt
captain
capten
capuano
car
cara
caracas
caradog
caragiale
carbon
carchar
carcharor
carcharorion
carcharu
carcharwyd
carcinoma
card
cardiau
cardiff
cardinal
cardona
care
caredig
caredigrwydd
career
carewe
carey
carfan
cariad
caribbean
caribi
cario
carl
carla
carles
carleton
carlisle
carlo
carlos
carlsen
carlson
carlyle
carmarthen
carmel
carmelo
carmen
carmet
carmichael
carmine
carn
carne
carnedd
carneddau
carneddi
carnegie
carno
caro
carol
carola
carole
carolina
caroline
carolus
carolyn
caron
carotenuto
carpenter
carpi
carr
carradine
carre
carreg
carreglefn
carreras
carrie
carrillo
carrog
carroll
carry
cars
carson
carsten
carter
carthago
cartref
cartrefi
cartrefol
cartw
caru
caruso
carw
carwe
carwyn
cary
caryl
cas
casa
casablanca
casachstan
casanova
casas
case
cases
casey
casgliad
casgliadau
casglodd
casglu
casglwr
casglwyd
casgob
cash
casino
casllwchwr
casmorys
casnewydd
casnodyn
casper
caspia
cass
cassel
cassidy
cassini
cast
castel
castell
castellani
castellano
castellari
castellhywel
castellmartin
castellnewydd
castilla
castillo
castle
castles
castro
cat
catalaneg
catalina
catalog
catalogue
catalonia
catalunya
catalwnia
catania
catch
cate
catecism
categori
category
caterina
cath
cathedin
catherine
cathod
catholic
catholig
cathy
cato
catrawd
catrin
cats
cau
causa
cause
causes
cava
cave
cavendish
cawcasws
cawl
cawn
cawod
cawr
caws
cawsai
cawsant
cawsom
cayatte
cb
cbac
cbc
cbe
cbs
cc
ccc
cccp
ccma
cd
cdc
cdot
ce
ceccarelli
cecchi
cecil
cecilia
cedar
cedewain
cedric
cedsci
cedwid
cedwir
cedyrn
cefais
ceffyl
ceffylau
cefn
cefnau
cefnddwysarn
cefnder
cefndir
cefneithin
cefnfor
cefnog
cefnogaeth
cefnogi
cefnogodd
cefnogol
cefnogwyr
ceg
cegidfa
cegin
cei
ceibr
ceid
ceidrych
ceidwad
ceidwadol
ceidwadwr
ceidwadwyr
ceiliog
ceiliogod
ceinewydd
ceiniog
ceir
ceirch
ceiri
ceiriog
ceirw
ceisiai
ceisio
ceisiodd
celebrity
celeste
celf
celfyddyd
celfyddydau
celfyddydol
celia
cell
cellan
celloedd
cells
cellular
celt
celtaidd
celtiaid
celtic
celwydd
celyn
cemaes
cemais
cemeg
cemegol
cemegydd
cen
cenarth
cenedl
cenedlaethau
cenedlaethol
cenedlaetholdeb
cenedlaetholgar
cenedlaetholwyr
cenhadol
cenhadon
cenhadwr
cenhedlaeth
cenhedloedd
cenhedlu
cenia
cennad
cennin
cennog
census
cent
center
central
centre
century
cerbyd
cerbydau
cerdd
cerddai
cerdded
cerddi
cerddodd
cerddor
cerddorfa
cerddoriaeth
cerddorion
cerddorol
cerdyn
ceredig
ceredigion
ceremonies
cerflun
cerfluniau
cerflunydd
ceri
ceriagrion
ceridwen
ceris
cernyw
cernyweg
cerrig
cerrigceinwen
cerrigydrudion
cerrynt
cervantes
cervi
ces
cesail
cesar
cesare
cestyll
ceudod
ceunant
cewch
cewri
cf
cfilm
cgi
ch
cha
chabrol
chad
chadw
chadwick
chadwraeth
chael
chaer
chaerdydd
chafodd
chafwyd
chai
chaiff
chain
chair
chakraborty
chakravarthy
challenge
chalon
cham
chamber
chamberlain
chambers
champion
champions
championship
chan
chanada
chance
chanddi
chanddo
chanddynt
chandler
chandra
chaneuon
chaney
chanfod
chang
change
changes
changing
channel
channing
chano
chanol
chanolbarth
chanolfan
chant
chantal
chantores
chantref
chanu
chanwr
chao
chaos
chapel
chapelle
chaplin
chapman
chapter
chapters
character
characterization
characters
charadriidae
charadriiformes
charente
chariad
charles
charley
charlie
charlotte
charlton
charly
charreg
chart
charter
chartref
charts
chase
chasgliad
chasglu
chastell
chat
chatham
chatterjee
chau
chautard
chawn
chawsant
che
cheadle
check
chefais
chefn
chefnfor
chefnogaeth
cheh
chei
cheiniog
cheir
cheisio
cheisiodd
chelf
chelmsford
chelsea
cheltaidd
cheltenham
chem
chemical
chemistry
chen
cheng
chennai
cher
cherdd
cherdded
cherddi
cherddor
cherddorfa
cherddoriaeth
cherokee
cherrig
cherry
cheryl
chesham
cheshire
chester
chesterfield
chestnut
cheung
chevalier
cheyenne
chi
chiara
chicago
chichester
chico
chief
child
childhood
children
chile
chin
china
chinese
ching
chipio
chipping
chips
chladdu
chladdwyd
chloe
chlorocyphidae
chlwb
chlywais
chlywed
cho
chodi
chododd
chodwyd
choed
chofio
chofnod
chofrestru
choi
choice
choleg
cholli
chollodd
chomedi
chopa
chopra
chor
chorff
chorley
choron
chow
chre
chredir
chrefft
chrefydd
chrefyddol
chreu
chris
christ
christa
christchurch
christensen
christiaan
christian
christiane
christianity
christiansburg
christiansen
christie
christina
christine
christmas
christoph
christophe
christopher
christy
chroen
chromosome
chronic
chronicle
chronicles
chronology
chryn
chu
chubut
chuck
chun
chung
church
churches
churchill
chw
chwaer
chwaeth
chwaith
chwalu
chwant
chwarae
chwaraeir
chwaraeodd
chwaraeon
chwaraewr
chwaraewyd
chwaraewyr
chwarddodd
chwarddwr
chware
chwarel
chwareli
chwarelwr
chwarelwyr
chwarennau
chwareu
chwareus
chwarren
chwarter
chwarterol
chwe
chwech
chweched
chwedl
chwedlau
chwedloniaeth
chwedlonol
chwefror
chwerthin
chwerw
chwi
chwibanwr
chwibanwyr
chwifio
chwiler
chwiliad
chwilio
chwiliwch
chwilog
chwim
chwiorydd
chwip
chwitffordd
chwith
chwithau
chwmni
chwmpas
chwmwd
chwpan
chwrs
chwyddo
chwydu
chwyldro
chwyldroadol
chwyrn
chwys
chwyth
chwythu
chychwyn
chychwynwyd
chyd
chyda
chydag
chydnabod
chyfaill
chyfansoddi
chyfansoddwr
chyfansoddwyd
chyfanswm
chyfarfod
chyfarwyddo
chyfarwyddwr
chyfeillion
chyffro
chyfiawnder
chyfieithiad
chyfieithu
chyfieithydd
chyflogodd
chyflwyno
chyflwynydd
chyfnod
chyfoeth
chyfraith
chyfrannwch
chyfres
chyfrol
chyhoeddi
chyhoeddodd
chyhoeddwr
chyhoeddwyd
chylch
chymdeithas
chymdeithasol
chymer
chymeriad
chymeriadau
chymerodd
chymeryd
chymorth
chymraeg
chymru
chymryd
chymuned
chymunedau
chymydau
chymysgu
chyn
chynffon
chynghrair
chyngor
chynhaliwyd
chynhwysiad
chynhyrchu
chynhyrchydd
chynnal
chynnwys
chyrhaeddodd
chyrraedd
chysegru
chysylltiad
chysylltiadau
chysylltu
ci
cia
ciccio
cicer
cicero
ciconiformes
cielo
cig
cigydd
cigyddion
cika
cil
cilan
cilcain
cilcennin
cile
cilfynydd
cilgedin
cilgerran
cilgeti
cilgwri
cilgwrrwg
cilgwyn
ciliau
cilio
cilmeri
cilomedr
cilometr
cilsan
cincinnati
cindy
cine
cinedatabase
cinema
cinemarx
cinematograffeg
cinematografica
cinematografiche
cinematografo
cines
cinio
cinmel
cinquini
cio
cipio
cipiodd
cipiwyd
cipriani
circle
circus
ciro
cite
cities
citizen
citta
city
ciudad
civil
civilization
ciwba
cj
ck
cker
cking
cl
cla
claddu
claddwyd
claes
claf
clai
claim
clair
claire
clancy
clara
clarach
clare
clarence
clarendon
clark
clarke
clarkson
clas
class
classic
classical
classics
classification
clasurol
clasuron
clatter
claude
claudia
claudine
claudio
claudius
claus
clausen
clav
clawdd
clawr
clay
clayton
cle
clear
cleddyf
cledrau
clefyd
clefydau
clegg
cleifion
cleirwy
clemens
clement
cleo
cleopatra
clerc
clerigwr
clerigwyr
clermont
cleveland
cleveleys
cliff
clifford
clifton
climate
clin
cline
clinical
clinigol
clint
clinton
clio
clip
clir
clirio
clive
clo
cloc
clocaenog
cloch
clochydd
clochyddyn
clock
clockwork
clod
cloddiau
cloddio
clogwyn
clogwyni
clogyn
cloi
cloning
close
cloud
clough
clown
club
clud
cludiant
cludo
cludwyd
cluj
clun
clunderwen
clust
clustiau
clwb
clwstwr
clwyd
clybiau
clychau
clyd
clydach
clydau
clyde
clydogau
clymblaid
clymu
clyn
clynnog
clyw
clywai
clywais
clywch
clywed
clywir
clywodd
cm
cmc
cmd
cn
cnau
cnawd
cnc
cnewyllyn
cnn
cnocell
cnocellau
cnocellod
cnoi
cnwch
cnwclas
cnwd
cnydau
co
coach
coal
coast
coates
cob
cobb
cobden
coblyn
coblynnod
coburn
coch
cochion
cochrane
coco
cocos
cod
codai
codau
code
coden
codi
codiad
cododd
codwyd
cody
coe
coed
coedcae
coeden
coediog
coedpoeth
coedwig
coedwigoedd
coedybrenin
coedydd
coel
coelbren
coeliccia
coen
coenagrion
coenagrionidae
coes
coesau
coesyn
coeth
coetiroedd
cof
cofeb
coffa
coffadwriaeth
coffee
coffi
cofia
cofiadwy
cofiaf
cofiant
cofio
cofir
cofiwch
coflein
cofnod
cofnodi
cofnodion
cofnodir
cofnododd
cofnodwyd
cofrestr
cofrestredig
cofrestru
cofrestrwyd
cog
cogau
coginio
cogydd
cohen
cohl
cohn
coire
col
cola
colangeli
colbert
colchester
cold
cole
coleg
colegau
coleman
colette
coli
colin
coll
colle
collected
collection
collections
colled
colledion
colleen
college
colli
collier
collin
collins
collodd
collwyd
colm
colman
colofn
colofnau
colombia
colombier
colombo
colomen
colomennod
colon
colonel
color
colorado
colorectal
colour
coluddyn
columba
columbia
columbidae
columbiformes
columbus
colwyn
com
comawndwr
combined
come
comedi
comediwr
comedy
comencini
comes
comfort
comic
comics
comin
coming
comins
comisiwn
comisiynwyd
comisiynydd
comiwnyddol
command
commandeur
commission
committee
common
commons
commonwealth
commun
commune
communes
communication
communications
community
como
companion
company
comparative
competition
complement
complete
complex
complutense
composer
comprehensive
compton
computer
comune
con
conan
concert
concerto
concise
concordia
concwest
conde
condemnio
confensiwn
confensiynol
conference
confessions
conflict
cong
congo
congress
connah
connaitre
connecticut
connection
connell
connery
connie
connolly
connor
conquest
conrad
conseil
conservation
conservatoire
conservatory
constance
constant
constantin
constantine
constitution
consultation
conswl
contact
containing
conte
contemporary
content
context
conti
contra
contract
contre
contreras
contro
control
convention
conway
conwra
conwy
cook
cooke
cool
coolidge
cooper
cop
copa
copaon
copeland
copenhagen
copi
copog
copper
coppola
copr
copy
cor
cora
corach
coraciiformes
coral
coratifs
corau
corbett
corbin
corbucci
corc
corduliidae
core
corea
coreeg
corey
corff
corfflu
corfforol
corhedydd
corinne
corinth
cork
corn
cornbig
cornbigau
corneille
cornel
cornelia
cornelius
cornell
corner
corniog
cornish
corntwn
cornwall
cornwy
coron
corona
coronafeirws
coronation
coronavirus
coroni
coronog
corporation
corps
corpus
corrado
corre
corrigan
corris
cors
corse
corsica
corsydd
corte
cortese
cortez
cortinariaceae
corun
corvidae
corwen
corwynt
cory
cos
cosaciaid
cosb
cosbi
cosheston
cosi
cosofo
cost
costa
costau
costello
costio
cot
cothi
cotinga
cotingaod
cotingidae
cotoneaster
cotswold
cottage
cotton
cotwm
cou
could
council
count
counties
countries
country
county
coup
courage
cours
course
court
courtney
cove
covent
coventry
cover
covid
cowan
cowboi
cowbois
cowboy
cox
cp
cpat
cph
cpm
cra
crabb
crad
craff
craft
crai
craidd
craig
cramer
cranbrook
crane
cras
crash
craven
crawford
crawley
crawshay
crazy
cre
creadigol
creadur
creaduriaid
creag
cream
creation
creator
cred
credai
credid
credir
credo
credoau
credu
credwn
credyd
creek
crefft
crefftwr
crefydd
crefyddau
crefyddol
crefyddwyr
cregyn
crehyrod
creighton
creigiau
creigiog
creodd
creseli
crested
creu
creuddyn
creulon
creuse
crew
crewe
crewyd
cri
crib
cribog
cribyn
criced
cricedwr
crichton
cricieth
cricket
crime
crimea
crimes
criminal
crimson
crisis
crisp
crist
cristian
cristina
cristion
cristionogaeth
cristionogol
cristnogaeth
cristnogion
cristnogol
cristo
critical
critics
criw
criwserod
croateg
croatia
crochan
crochenwaith
croen
croenddu
croes
croesau
croesawu
croesgadwyr
croesi
croeso
croesor
croesoswallt
croesyceiliog
crogen
crogi
croix
cromlech
cromwell
cronenberg
cronfa
cronfeydd
cronicl
cronig
cronwern
crook
cropiwr
cropwyr
crosby
crosland
cross
crosses
crossing
crow
crowe
crowley
crown
crowned
croydon
croyw
crucornau
crucywel
crug
crugiau
crugion
cruise
cruz
cruze
crwbin
crwn
crwst
crwydro
crwyn
crwys
cry
crybwyll
crybwyllwyd
crydd
cryf
cryfach
cryfaf
cryfder
cryfhau
cryfion
cryg
crymlyn
crymych
cryn
crynhoi
crynion
cryno
crynodeb
crynu
crynwedd
crynwyr
crys
crysau
crystal
cs
csfd
csv
ct
ctor
cu
cuba
cube
cuckoo
cuculidae
cuculiformes
cudd
cuddio
cufydd
cukor
cul
culfor
culhwch
cullen
cultura
cultural
culture
cumberland
cumbria
cummings
cunedda
cunha
cunningham
cup
cur
curiad
curig
curly
curo
current
currie
curry
curse
curt
curtis
curtiz
cusack
custer
cut
cw
cwbl
cwblhaodd
cwblhau
cwblhawyd
cwbwl
cwch
cwestiwn
cwestiynau
cwlen
cwlwm
cwm
cwmaman
cwmbra
cwmcarfan
cwmdeuddwr
cwmdu
cwmduad
cwmfelin
cwmfelinmynach
cwmgwili
cwmhiraeth
cwmifor
cwmisfael
cwmllyfri
cwmni
cwmniau
cwmorthin
cwmpas
cwmpasu
cwmwd
cwmwl
cwmystwyth
cwn
cwpan
cwpl
cwpwrdd
cwr
cwrdd
cwrel
cwrs
cwrt
cwrtnewydd
cwrw
cwsg
cwt
cwta
cwtiad
cwtiaid
cwymp
cwympo
cwympodd
cwyno
cwyr
cwyrbig
cwyrbigau
cy
cychod
cychwyn
cychwyniad
cychwynnodd
cychwynnol
cychwynnwyd
cychwynodd
cychwynwyd
cycle
cycling
cycyllog
cyd
cydbwysedd
cydio
cydnabod
cydnabuwyd
cydnabyddiaeth
cydnabyddir
cydraddoldeb
cydweithio
cydweithrediad
cydweithredol
cydweli
cydwybod
cydymaith
cydymdeimlad
cydymffurfio
cyf
cyfaddef
cyfadran
cyfagos
cyfaill
cyfaint
cyfalaf
cyfamod
cyfamser
cyfan
cyfandir
cyfandirol
cyfansawdd
cyfansoddi
cyfansoddiad
cyfansoddiadau
cyfansoddiadol
cyfansoddion
cyfansoddodd
cyfansoddol
cyfansoddwr
cyfansoddwyd
cyfansoddwyr
cyfanswm
cyfarch
cyfarfod
cyfarfodydd
cyfarfu
cyfartal
cyfartaledd
cyfartalog
cyfarthfa
cyfarwydd
cyfarwyddiadau
cyfarwyddo
cyfarwyddwr
cyfarwyddwyd
cyfarwyddwyr
cyfarwyddyd
cyfateb
cyfatebol
cyfathrach
cyfathrebu
cyfeiliog
cyfeillgar
cyfeillgarwch
cyfeillion
cyfeiria
cyfeiriad
cyfeiriadau
cyfeiriadur
cyfeirio
cyfeiriodd
cyfeirir
cyfeiriwyd
cyfeirnod
cyfenw
cyfer
cyferbyniad
cyfesurynnau
cyffelyb
cyffiniau
cyffordd
cyffredin
cyffredinol
cyffro
cyffrous
cyffur
cyffuriau
cyffwrdd
cyffylliog
cyfiawn
cyfiawnder
cyfiawnhau
cyfieithiad
cyfieithiadau
cyfieithir
cyfieithodd
cyfieithu
cyfieithwyd
cyfieithydd
cyflafan
cyflawn
cyflawni
cyflawniad
cyflawnodd
cyfle
cyflenwad
cyflenwi
cyfleoedd
cyfleu
cyfleus
cyfleusterau
cyflog
cyflogau
cyflogi
cyflwr
cyflwyniad
cyflwynir
cyflwyno
cyflwynodd
cyflwynwyd
cyflwynydd
cyflym
cyflymder
cyfnewid
cyfnewidiad
cyfnod
cyfnodau
cyfnodol
cyfnodolyn
cyfochrog
cyfod
cyfodi
cyfododd
cyfoes
cyfoeth
cyfoethog
cyfradd
cyfraddau
cyfraith
cyfran
cyfraniad
cyfraniadau
cyfrannodd
cyfrannu
cyfredol
cyfreithiau
cyfreithiol
cyfreithiwr
cyfreithlon
cyfreithwyr
cyfres
cyfresi
cyfri
cyfrif
cyfrifiad
cyfrifiadur
cyfrifiadurol
cyfrifiaduron
cyfrifo
cyfrifol
cyfrifoldeb
cyfrifon
cyfrin
cyfrinach
cyfrinachol
cyfrol
cyfrolau
cyfrwng
cyfrwy
cyfryngau
cyfryw
cyfundeb
cyfundrefn
cyfuniad
cyfuno
cyfweliad
cyfyd
cyfyng
cyfyngedig
cyfyngiadau
cyfyngu
cyhoedd
cyhoeddi
cyhoeddiad
cyhoeddiadau
cyhoeddir
cyhoeddodd
cyhoeddus
cyhoeddwr
cyhoeddwyd
cyhoeddwyr
cyhuddiad
cyhuddiadau
cyhuddo
cyhuddwyd
cyhyd
cyhydedd
cyhyrau
cylch
cylchdro
cylchdroi
cylchfa
cylchgrawn
cylchgronau
cylchoedd
cylchrediad
cylchynol
cyll
cyllid
cymaint
cymal
cymalau
cymau
cymdeithas
cymdeithasau
cymdeithasedwardllwyd
cymdeithasfa
cymdeithasol
cymdogion
cymedrol
cymer
cymeradwyo
cymerai
cymeriad
cymeriadau
cymerodd
cymerwch
cymerwyd
cymeryd
cymesuredd
cymhareb
cymharer
cymhariaeth
cymharol
cymharu
cymhleth
cymhlyg
cymhwyso
cymmer
cymmrodorion
cymoedd
cymorth
cymraeg
cymrawd
cymreig
cymro
cymrodoriaeth
cymru
cymrufyw
cymry
cymryd
cymun
cymundeb
cymuned
cymunedau
cymunedol
cymwys
cymylau
cymysg
cymysgedd
cymysgu
cyn
cynal
cynaliadwy
cynan
cynddelw
cynefin
cynefinoedd
cynffig
cynffon
cynffondaenwr
cynffongoch
cynffonhir
cynffonwyn
cynfyn
cyngerdd
cynghanedd
cyngherddau
cynghorau
cynghordy
cynghori
cynghorwr
cynghorwyr
cynghorydd
cynghrair
cynghreiriaid
cyngor
cyngres
cynhadledd
cynhaeaf
cynhaliodd
cynhaliwyd
cynhanesyddol
cynharach
cynharaf
cynheidre
cynhelid
cynhelir
cynhenid
cynhesu
cynhwysfawr
cynhwysir
cynhyrchiad
cynhyrchiol
cynhyrchion
cynhyrchir
cynhyrchodd
cynhyrchu
cynhyrchwyd
cynhyrchydd
cynifer
cynigiodd
cynigion
cynigiwyd
cynllun
cynlluniau
cynllunio
cynlluniwyd
cynllwyn
cynnal
cynnar
cynnes
cynnig
cynnwys
cynnydd
cynnyrch
cynnyws
cynog
cynon
cynorthwyo
cynorthwyol
cynradd
cynrychiolaeth
cynrychioli
cynrychiolir
cynrychiolodd
cynrychiolwyr
cynrychiolydd
cynt
cynta
cyntaf
cyntedd
cyntefig
cynthia
cynulleidfa
cynulleidfaoedd
cynulliad
cynwal
cynwyd
cynwyl
cynwys
cynyddodd
cynyddol
cynyddu
cyp
cyperaceae
cyprus
cyraedd
cyrch
cyrchiad
cyrchoedd
cyrchu
cyrchwyd
cyrff
cyrhaedd
cyrhaeddoch
cyrhaeddodd
cyril
cyriog
cyrn
cyrnol
cyrraedd
cyrs
cyrsiau
cyrus
cysefin
cysegr
cysegredig
cysegrwyd
cysgod
cysgodion
cysgodol
cysgu
cyson
cystadlaethau
cystadleuaeth
cystadleuol
cystadlodd
cystadlu
cystal
cystennin
cysur
cyswllt
cysylltiad
cysylltiadau
cysylltiedig
cysylltir
cysylltu
cysyniad
cysyniadau
cythraul
cythryblus
cytiau
cytseiniaid
cytser
cytundeb
cytundebau
cytuno
cytunodd
cytunwyd
cyw
cywilydd
cywion
cywir
cywrain
cywydd
cywyddau
cz
cziffra
cœur
d
da
dachwedd
dacw
dad
dada
dadansoddi
dadansoddiad
dadasaheb
dadau
daddy
dade
dadeni
dadl
dadlau
dadleu
dadleuai
dadleuodd
dadleuol
dadleuon
dae
daear
daeareg
daearegol
daearegwr
daeargi
daeargryn
daearol
daearyddiaeth
daearyddol
daearyddwr
daer
daeth
daethai
daethant
daethom
daethpwyd
daf
dafad
dafarn
daff
dafis
daflu
dafod
dafodiaith
dafydd
dag
dagmar
dagrau
dahl
dai
daid
dail
daily
daioni
daionus
dair
daisy
daith
dakota
dal
dalai
dalaith
dalban
dalcen
daldra
dale
daleithiau
dalen
dalent
daley
dali
daliadau
daliai
dalio
daliodd
daliwyd
dall
dallas
dalton
dalu
daly
dam
damage
damaid
damascus
damcaniaeth
damcaniaethau
dame
dameidiau
damian
damiani
damiano
damien
damned
damon
damwain
damweiniau
dan
dana
danaf
dance
dancing
dane
daneg
danfon
danfonodd
danfonwyd
danger
dangerous
dangos
dangosir
dangosodd
dangoswyd
dani
daniaid
danie
daniel
daniela
daniele
danielle
daniels
danilo
danish
danmark
dannebrog
dannedd
danny
dano
dans
danske
dant
dante
danwydd
dany
danynt
daphne
dar
darddiad
dare
darfod
darfu
darganfod
darganfu
darganfuwyd
darganfyddiad
darganfyddiadau
dari
darian
daring
dario
darius
dark
darkness
darling
darlington
darlith
darlithio
darlithydd
darllediad
darlledu
darlledwr
darlledwyd
darllen
darllenodd
darllenwyr
darllenydd
darlun
darluniadol
darluniau
darlunio
darlunydd
darn
darnau
daro
darogan
daron
darostwng
darowen
darpar
darpariaeth
darparu
darren
darrieux
darryl
dart
dartford
darth
dartmouth
darwen
darwin
daryl
das
dasari
dasg
data
database
databasefootball
datblygedig
datblygiad
datblygiadau
datblygodd
datblygu
datblygwyd
date
dates
datgan
datganiad
datganiadau
datganodd
datganoli
datganwyd
datgelu
datguddiad
dathliadau
dathlu
datrys
dau
daughter
daughters
dauphin
dave
davenport
david
davide
davidsen
davidson
davies
davis
davison
davy
daw
dawel
dawg
dawkins
dawley
dawn
dawns
dawnsio
dawnsiwr
dawnswyr
dawson
day
days
daytime
db
dbid
dc
dchen
dd
dda
ddadansoddi
ddadl
ddadlau
ddadleuol
ddadleuon
ddaear
ddaearegol
ddaearyddiaeth
ddaearyddol
ddaeth
ddaethai
ddaethant
ddafad
ddafydd
ddagrau
ddaiar
ddail
ddaioni
ddal
ddalen
ddalfa
ddaliodd
ddall
ddamcaniaeth
ddamwain
ddanfon
ddangos
ddangosodd
ddannedd
ddarfod
ddarfu
ddarganfod
ddarganfuwyd
ddarlith
ddarlithydd
ddarlledu
ddarlledwyd
ddarllen
ddarllenwyr
ddarlun
ddarluniau
ddarlunio
ddarn
ddarnau
ddarpariaeth
ddarparu
ddaru
ddata
ddatblygiad
ddatblygodd
ddatblygu
ddatblygwyd
ddatgan
ddatganiad
ddatganoli
ddatgelu
ddathlu
ddatrys
ddau
ddaw
ddawn
ddawns
ddawnsio
dde
ddeall
ddealltwriaeth
ddechrau
ddechreu
ddechreuad
ddechreuodd
ddeddf
ddeddfau
ddeddfwriaeth
ddedfryd
ddedfrydu
ddedwydd
ddefaid
ddeffro
ddefnydd
ddefnyddiau
ddefnyddid
ddefnyddio
ddefnyddiodd
ddefnyddiol
ddefnyddir
ddefnyddiwyd
ddefnyddwyr
ddefod
ddefodau
ddeg
ddegawd
ddeheuol
ddehongli
ddeilen
ddeiliaid
ddeiseb
ddel
ddelio
ddelo
ddelw
ddelwedd
ddelweddau
ddemocrataidd
ddena
ddeng
ddengys
ddenmarc
ddenu
dderbyn
dderbyniad
dderbyniodd
dderbyniwyd
dderw
dderwen
ddetholiad
ddeuai
ddeuawd
ddeud
ddeuddeg
ddeufaen
ddeugain
ddeunaw
ddeunawfed
ddeunydd
ddew
ddewi
ddewiniaeth
ddewis
ddewiswyd
ddewr
ddewrder
ddi
ddial
ddiameu
ddianc
ddiau
ddibenion
ddibynnol
ddibynnu
ddichon
ddiddordeb
ddiddorol
ddiddymu
ddieithr
ddienyddio
ddifa
ddifetha
ddiffinio
ddiffyg
ddiflannu
ddifrif
ddifrifol
ddifrod
ddig
ddigidol
ddigofaint
ddigon
ddigonol
ddigri
ddigwydd
ddigwyddiad
ddigwyddiadau
ddigwyddodd
ddileu
ddillad
ddilyn
ddilyniant
ddilynodd
ddilynol
ddilynwyr
ddilys
ddim
ddimensiwn
ddinas
ddinasoedd
ddinasyddion
ddinbych
ddinesig
ddinesydd
ddinistrio
ddiod
ddioddef
ddiogel
ddiogelu
ddiogelwch
ddiolch
ddiolchgar
ddirfawr
ddirgel
ddirgelwch
ddirprwy
ddisg
ddisgiau
ddisglair
ddisgrifiad
ddisgrifio
ddisgrifir
ddisgwyl
ddisgybl
ddisgyblaeth
ddisgyblion
ddisgyn
ddisgynyddion
ddisodli
ddistaw
ddistopaidd
ddiswyddo
ddisymwth
dditectif
ddiwedd
ddiweddaf
ddiweddar
ddiweddarach
ddiwethaf
ddiwrnod
ddiwrthwynebiad
ddiwyd
ddiwydiannau
ddiwydiannol
ddiwydiant
ddiwygiad
ddiwygiadau
ddiwygio
ddiwylliannau
ddiwylliannol
ddiwylliant
ddo
ddod
ddodrefn
ddoe
ddoeth
ddoethineb
ddoethuriaeth
ddofn
ddogfen
ddogfennau
ddogfennol
ddolen
ddoleri
ddolgellau
ddoniau
ddoniol
ddosbarth
ddosbarthiad
ddosbarthiadau
ddosbarthu
ddosbarthwyd
ddraenen
ddraig
ddrama
ddramatig
ddringo
ddrud
ddrwg
ddrws
ddrygioni
ddu
ddug
ddugiaeth
ddull
ddulliau
dduon
ddur
dduw
dduwiau
dduwies
dduwiol
ddw
ddwbl
ddweud
ddweyd
ddwfn
ddwfr
ddwg
ddwy
ddwyfol
ddwyieithog
ddwylaw
ddwylo
ddwyn
ddwyrain
ddwyreiniol
ddwyryd
ddwys
ddwywaith
ddy
ddychanol
ddychryn
ddychwel
ddychwelodd
ddychwelyd
ddychymyg
ddydd
ddyddiad
ddyddiau
ddyddio
ddyddiol
ddyfais
ddyfal
ddyfeisio
ddyffryn
ddyfnaint
ddyfnder
ddyfnynir
ddyfod
ddyfodiad
ddyfodol
ddyfroedd
ddygasant
ddygwyd
ddylai
ddylanwad
ddylanwadol
ddylanwadu
ddyled
ddyledswydd
ddyledus
ddyletswydd
ddylid
ddylunio
ddymchwel
ddymuniad
ddyn
ddynes
ddynion
ddynodi
ddynodwyd
ddynol
ddynoliaeth
ddyrchafu
ddysg
ddysgeidiaeth
ddysgodd
ddysgu
ddysgwyr
ddystopaidd
ddywed
ddywedai
ddywedais
ddywedasant
ddywedir
ddywedodd
ddywedyd
ddyweyd
de
deacon
dead
deadline
deadly
deadurl
deal
deall
deallodd
dealltwriaeth
deallus
deallusol
dean
deane
dear
dearden
dearg
death
deaths
deau
debbie
deborah
debra
debycach
debyg
debygol
dec
decatur
december
decennial
deces
dechneg
dechnegol
dechnoleg
dechrau
dechre
dechreu
dechreuad
dechreuodd
dechreuwyd
decine
decoin
decoteau
deddf
deddfau
deddfwriaeth
deddfwriaethol
dedfrydwyd
dedwydd
dee
deep
deer
defa
defaid
default
defence
deffro
deffroad
deficiency
definition
defnydd
defnyddiau
defnyddid
defnyddio
defnyddiodd
defnyddiol
defnyddir
defnyddiwr
defnyddiwyd
defnyddwyr
defod
defodau
defynnog
deg
degannwy
degau
degawd
degawdau
degfed
degli
degwch
degwm
deheubarth
deheudir
deheuol
dehongli
dehongliad
dehydrogenase
dei
deilen
deiliad
deiliaid
deillio
deilwng
deilyngdod
deimlad
deimladau
deimlo
deiniolen
deio
deirgwaith
deithiau
deithio
deithwyr
deitl
deitlau
dek
dekalb
dekker
del
delannoy
delaware
deledu
delerau
delerue
delgado
delhi
delia
delio
dell
della
delle
delli
delluc
delon
delor
delphine
delta
delw
delwedd
delweddau
delyn
delyth
dem
demange
demare
demetrius
demille
deml
demme
democracy
democrataidd
democratiaeth
democratiaid
demon
den
denau
denbigh
denbighshire
deneuve
deng
dengys
denham
denis
denise
denison
denmarc
denmark
dennis
denny
dent
denton
denu
denver
denys
deon
deor
depardieu
departamant
departed
department
dependent
depp
deppe
der
derby
derbyn
derbyniad
derbyniodd
derbyniwyd
derek
derfel
derfyn
derfynau
derfynol
deri
derived
derm
dermau
dern
derry
derw
derwen
derwent
derwydd
derwyddon
deryn
des
desai
deschamps
description
desert
design
desire
desmond
destament
destination
destino
destiny
destun
destunau
det
detail
details
detective
dethlir
dethol
detholiad
detroit
deuai
deuawd
deud
deuddeg
deugain
deugotyledon
deulu
deuluoedd
deuluol
deunaw
deunydd
deunyddiau
deuocsid
deus
deutsch
deutsche
deutscher
deutschland
deuwch
deux
dev
deva
development
devi
devil
devine
devon
devonport
dew
dewch
dewey
dewi
dewin
dewiniaeth
dewis
dewisodd
dewiswyd
dewitt
dewr
dewrder
dexter
deyd
deyrn
deyrnas
deyrnasiad
deyrnasodd
deyrnasoedd
deyrnasu
deyrnged
dfi
dharma
di
dia
diabetes
diafol
diagnosis
diagram
dial
diamedr
diamond
diamonds
diana
dianc
diane
diar
diaries
diary
diau
diawl
diaz
diben
dibynnu
dic
dichon
dick
dickens
dickinson
dickson
dico
dicter
dictionary
did
diddordeb
diddordebau
diddorol
diddymu
diddymwyd
didi
didier
die
died
diego
dieithr
dieithriaid
dienw
dienyddio
dienyddiwyd
dies
diesel
diet
dieter
dieterle
dietmar
dietrich
difa
difetha
diffeithwch
different
differential
differentiation
differol
diffiniad
diffinio
diffinir
diffyg
diflannodd
diflannu
difrifol
difrod
difrodi
difyr
dig
digidol
digital
digofaint
digon
digonol
digrif
digrifwr
digwydd
digwyddai
digwyddiad
digwyddiadau
digwyddodd
dihangodd
dihewyd
dileu
dillad
dilledyn
dillon
dillwyn
dilyn
dilyniant
dilynodd
dilynol
dilynwyd
dilynwyr
dilys
dim
dimau
dimensiwn
dimitri
din
dina
dinamo
dinas
dinasoedd
dinasyddiaeth
dinasyddion
dinbych
dinefwr
dinesen
dinesh
dinesig
dinesydd
dinistr
dinistrio
dinistriwyd
diniwed
dinlle
dinner
dino
dinorben
dinorwig
dio
diod
dioddef
dioddefaint
dioddefodd
dioddefwyr
diodydd
diogel
diogelu
diogelwch
diolch
diolchgarwch
diplomydd
diplomyddol
dipyn
dir
direct
director
directory
direidus
dirfawr
dirffurfiau
dirgel
dirgelwch
diriogaeth
diriogaethau
dirion
dirk
dirmyg
diroedd
dirprwy
dirty
dirwasgiad
dirwedd
dirwest
dirwestol
dirywiad
dirywio
dirywiodd
dis
discogs
discovery
disease
diseases
diserth
disg
disglair
disgrifiad
disgrifiadau
disgrifio
disgrifiodd
disgrifir
disgrifiwyd
disgwyl
disgwyliad
disgwylir
disgybl
disgyblaeth
disgyblion
disgyn
disgynnodd
disgynodd
disgynyddion
disgyrchiant
disney
disodli
disodlwyd
disorder
disorders
displaystyle
distaw
distawrwydd
distribution
distributors
district
ditectif
dithau
diversity
divine
division
diwaith
diwedd
diweddaf
diweddar
diweddarach
diweddaraf
diweddarwch
diweddu
diweithdra
diwethaf
diwinydd
diwinyddiaeth
diwinyddol
diwrnod
diwyd
diwydiannau
diwydiannol
diwydiannwr
diwydiant
diwygiad
diwygiadau
diwygiedig
diwygio
diwygiwr
diwygwyr
diwylliannau
diwylliannol
diwylliant
dix
dixon
dj
djvu
dk
dl
dlawd
dll
dlodi
dlodion
dlos
dlws
dmitry
dmytryk
dna
do
doc
dociau
docs
doctor
documentary
documents
dod
dodd
dodge
dodi
dodrefn
dodwy
doe
doedd
does
doeth
doethineb
doethion
doethor
doethur
doethuriaeth
dof
dofwyd
dog
dogfen
dogfennau
dogs
doi
dokumentarfilm
dokumentum
dol
dolanog
dolbenmaen
dolen
dolfor
dolgarrog
dolgellau
dolgran
doli
doll
dollar
dolly
dolores
dolur
dolwyddelan
dolydd
dom
domain
domainfalsefalse
domainpublic
domains
domen
domenico
domestic
domestig
domingo
dominic
dominica
dominik
dominique
dominyddu
don
dona
donald
donaldson
donatello
donau
donaw
doncaster
done
donen
dong
doniau
doniol
donn
donna
donnau
donne
donnell
donnelly
donner
donostia
donovan
doo
door
dor
dora
doran
dorchester
dordogne
dorf
dori
doria
doriad
dorian
doris
dorling
dorothea
dorothy
dorri
dorrodd
dorset
dos
dosbarth
dosbarthiad
dosbarthiadau
dosbarthu
dosbarthwyd
dosberthir
dost
dot
dottesio
douard
double
doubs
doug
douglas
douglass
dove
dover
dowch
dowlais
down
downey
downing
doyle
dp
dq
dr
dra
drachefn
dracula
draddodiad
draddodiadau
draddodiadol
draed
draeth
draethau
draethawd
draethodau
drafferth
drafod
drafodaeth
drag
dragan
dragomir
dragon
dragonflies
dragons
dragwyddol
dragywydd
draig
drain
drais
drake
drakeford
drama
dramatic
dramatig
dramatique
dramodydd
dramor
drannoeth
dranoeth
draper
dras
draul
draw
drawiad
drawodd
draws
drawsnewid
drawsryweddol
dre
dream
dreams
dreamworks
drech
drechu
dref
drefaldwyn
drefedigaeth
drefgordd
drefi
drefn
drefnu
drefnwyd
drefol
dreftadaeth
drei
dreigiau
dreinbig
dreisio
drenau
drenewydd
drepanosticta
dresden
dress
dreth
dreulio
dreuliodd
drew
dreyer
dreyfus
dri
dric
drigo
drigolion
drin
drindod
dringo
driniaeth
driphlyg
drist
drive
driver
dro
droad
drodd
droed
droedfeddi
droediwr
droeon
drofannol
droi
drom
dros
drosedd
droseddau
drosglwyddo
drosodd
drosti
drosto
drostynt
druan
drud
drudwen
drudwy
drug
drugaredd
drugs
drum
drummond
drwch
drwg
drwm
drws
drwy
drwyadl
drwydded
drwyddi
drwyddo
drwyn
dry
drych
drychfilod
drychineb
drycin
drydan
drydanol
drydedd
drydydd
drygioni
drygionus
drymiau
drysau
dryslwyn
drysor
drysorfa
drysu
dryswch
dryw
drywanu
drywod
drywydd
ds
dt
du
dual
duar
duarte
dublin
dubois
duc
duccio
duck
dudalen
dudalennau
dudley
due
duedd
dueddol
duff
duffy
dug
duges
duilio
duke
dulas
dull
dulliau
dulyn
dumas
dumfries
dumont
dumps
duncan
dundee
dunlap
dunn
dunne
dunwyd
duon
dupont
dur
dura
durand
durante
durham
during
dus
duse
dust
dustin
dutch
dutt
dutta
duval
duvall
duvivier
duw
duwdod
duwiau
duwies
duwiesau
duwiol
duwioldeb
dvd
dvds
dvor
dw
dwad
dwan
dwbl
dweud
dweyd
dwf
dwfn
dwfr
dwg
dwi
dwight
dwll
dwnn
dwr
dwrci
dwristiaid
dwrn
dwsin
dwy
dwyfech
dwyfol
dwyfor
dwygyfylchi
dwyieithog
dwylaw
dwyll
dwyllo
dwylo
dwymyn
dwyn
dwyrain
dwyran
dwyreiniol
dwys
dwysedd
dwywaith
dx
dy
dyben
dybio
dychan
dychanol
dychanu
dychmygol
dychmygu
dychryn
dychwel
dychwela
dychweliad
dychwelodd
dychwelyd
dychymyg
dydd
dyddiad
dyddiadau
dyddiadur
dyddiaduron
dyddiau
dyddiedig
dyddio
dyddiol
dyddlyfr
dyddordeb
dyddorol
dyddyn
dydi
dydy
dyer
dyfais
dyfalu
dyfan
dyfarnu
dyfarnwyd
dyfawden
dyfed
dyfeisio
dyfeisiodd
dyfeisiwr
dyfeisiwyd
dyffryn
dyffrynnoedd
dyfi
dyfnaf
dyfnaint
dyfnant
dyfnder
dyfod
dyfodd
dyfodiad
dyfodol
dyfrdwy
dyfrig
dyfroedd
dyfrol
dyfu
dyfyniad
dyfyniadau
dyfynnu
dygaf
dygasant
dygodd
dygwch
dygwyd
dying
dyke
dylai
dylan
dylanwad
dylanwadau
dylanwadol
dylanwadu
dylanwadwyd
dyled
dyledswydd
dyletswydd
dyletswyddau
dylid
dylife
dyluniad
dylunio
dyluniwyd
dylunydd
dylwyth
dyma
dymchwel
dymchwelwyd
dymer
dymheredd
dymor
dymuniad
dymuno
dymunol
dyn
dyna
dynamics
dyneiddiaeth
dyner
dynes
dyngarol
dyngarwr
dynged
dyniaethau
dynion
dynn
dynnodd
dynnu
dynodi
dynodwr
dynodwyd
dynol
dynoliaeth
dynu
dynwared
dyrau
dyrchafiad
dyrchafu
dyrchafwyd
dyrfa
dyrnu
dyro
dysg
dysgedig
dysgeidiaeth
dysgodd
dysgu
dysgwyr
dyst
dystiolaeth
dystion
dystopaidd
dyw
dywed
dywedai
dywedais
dywedasant
dywediad
dywedid
dywedir
dywedodd
dywedwch
dywedwyd
dywedyd
dyweyd
dywod
dywydd
dywyll
dywyllwch
dywysog
dywysogaeth
dywysoges
dywysogion
dz
e
ea
each
eagle
ealing
eames
eang
earl
earle
earliest
early
earth
eason
east
eastbourne
eastern
eastleigh
eastman
easton
eastwood
easy
eat
eaton
eb
ebai
ebba
ebbe
ebe
ebenezer
eberhard
ebol
ebr
ebrill
ebrwydd
ebwy
ec
eccles
echel
echelin
echo
eco
ecoleg
ecolegol
ecology
economaidd
economeg
economegydd
economi
economic
economically
economics
economist
economy
ecosystem
ecosystemau
ecwador
ed
edau
edd
edda
eddi
eddie
eddy
edefyn
eden
edern
edeson
edgar
edge
edifeirwch
edigaeth
edinburgh
edison
edited
edith
edition
editions
editor
editorial
editors
edmon
edmond
edmonton
edmund
edmunds
edmwnd
edmygedd
edmygu
edn
edna
ednod
ednyfed
edo
edoardo
edom
edrych
edrychai
edrychais
edrychodd
edrychwch
eds
edu
eduard
eduardo
education
educational
edvard
edvin
edward
edwards
edwin
ee
ef
efa
efail
efailnewydd
efallai
efe
efelffre
efelychu
efenechtyd
efengyl
efengylaidd
effaith
effect
effects
effeithiau
effeithio
effeithiodd
effeithiol
effeithlon
effraim
effro
efo
efrog
efydd
eg
egin
eginyn
eglur
eglurhad
egluro
eglurodd
eglwys
eglwysi
eglwysig
eglwyswen
eglwyswrw
egni
egon
egwyddor
egwyddorion
egypt
ehangach
ehangodd
ehangu
ehangwyd
ehedydd
ehir
ei
eich
eichberg
eichhorn
eidal
eidalaidd
eidaleg
eidalwr
eiddew
eiddil
eiddo
eidion
eif
eifftiaid
eifion
eifionydd
eight
eigion
eil
eileen
eiliad
eillio
eilwaith
ein
einar
eine
einer
eines
eingl
einioes
einion
einon
einsiob
einstein
einzelansicht
eira
eirian
eiriau
eirin
eirinen
eirth
eis
eisiau
eisieu
eisoes
eistedd
eisteddai
eisteddfod
eisteddfodau
eisteddfodol
eisteddodd
eitem
eitemau
eitha
eithaf
eithafol
eithin
eithr
eithriad
eithriadau
eithriadol
eithrio
ej
ek
ekman
el
ela
elai
elaine
elan
elbe
elder
eleanor
election
elections
electric
electromagnetig
electron
electronau
electronig
elements
elen
elena
eleni
eleonora
elephant
eleri
elfael
elfed
elfelt
elfen
elfennau
elfennol
elfyn
eli
elia
elias
elidir
eliffant
elijah
elin
elinor
elio
eliot
elis
elisa
elisabeth
elise
elisha
elite
eliza
elizabeth
elk
elke
ell
ella
elle
ellen
ellesmere
elli
ellid
elliot
elliott
ellir
ellis
elmer
elmo
elmore
elo
elokuva
elonet
eloy
elsa
else
elsevier
elsie
elton
eluned
elusen
elusennol
elvey
elvira
elvis
elw
elwa
elwid
elwir
elwyn
ely
elyn
elynion
em
emanuel
embassy
emberizidae
emerald
emeric
emerson
emery
emi
emil
emile
emilia
emilie
emilio
emily
emir
emiradau
emlyn
emma
emmanuel
emmanuelle
emmerich
emmet
emmett
emmott
emmy
emo
emory
emosiynol
emperor
empire
empty
emrallt
emrys
emyn
emynau
emynydd
emyr
en
ena
enaid
enallagma
enau
enbyd
encilio
encino
encyclopaedia
encyclopedia
encyclopædia
end
ende
endid
endocrinol
endothelial
ene
enedigaeth
enedigol
eneidiau
enemy
energy
eneth
enfant
enfants
enfawr
enfield
enfys
engel
engels
enghraifft
enghreifftiau
engineering
england
english
englyn
englynion
engraifft
enhances
eni
enid
enill
enillod
enillodd
enillwyd
enillwyr
enillydd
enlli
ennill
ennio
ennyd
ennyn
enoc
enoch
enough
enrico
enright
enrique
ensemble
ensymau
entertainment
entre
entry
environment
environmental
enw
enwad
enwadau
enwau
enwebiad
enwebu
enwebwyd
enwedig
enwi
enwir
enwocaf
enwodd
enwog
enwogion
enwogrwydd
enwyd
enynnau
enz
enzo
enzyme
eog
eolss
eos
ep
epa
epic
epig
epil
epilepsi
episode
epithelial
epping
epsom
epstein
er
era
eraill
erasmus
erbistog
erbyn
erch
erchyll
ereill
eren
erfyn
ergyd
eric
erica
erich
ericson
erie
erik
erika
erin
erioed
erle
erledigaeth
erlid
erlidwyr
erling
erlyn
ermanno
erna
ernest
ernesto
ernie
ernst
erny
eros
erotica
erotig
errol
error
ers
erthygl
erthyglau
erw
erwd
erwin
eryr
eryri
eryrys
erys
es
esa
esau
esblygiad
esblygodd
esblygu
esboniad
esboniadur
esbonio
escape
escobar
esgair
esgairgeiliog
esgeuluso
esgid
esgidiau
esgob
esgobaeth
esgobion
esgor
esgus
esgyll
esgyn
esgyniad
esgyrn
esher
esiampl
esiamplau
eske
esmwyth
espan
espero
espn
esposito
espresso
esq
essay
essays
essential
essex
essonne
est
esta
estate
este
esteban
estelle
ester
esther
estoneg
estonia
estrada
estrildidae
estron
estyn
estynedig
estyniad
estynnodd
estynwyd
esyllt
et
eta
etc
ethan
ethanol
ethel
ethiopia
ethnic
ethnig
ethol
etholaeth
etholaethau
etholedig
etholfraint
etholiad
etholiadau
etholiadol
etholwyd
etholwyr
ethyl
etifedd
etifeddiaeth
etifeddodd
etifeddol
etifeddu
etive
eto
eton
etto
ettore
eu
euclid
euge
eugen
eugene
eugenia
eugenio
euog
euphaeidae
eur
euraid
euraidd
eure
euro
europa
europe
european
europeanfilmacademy
europeanfilmawards
euros
eurovision
euryn
euthum
euxoa
ev
eva
evan
evans
eve
evelyn
even
evening
event
events
ever
everest
everett
evert
everton
every
everything
evic
evidence
evil
evolution
ew
ewa
ewald
ewch
ewclidaidd
ewell
ewenni
ewig
ewing
ewlo
ewrasia
ewro
ewrob
ewrop
ewropeaid
ewropeaidd
ewyllys
ewyllysgar
ewyllysio
ewyn
ewyrth
ewythr
ex
exchange
exclusive
executive
exeter
exhibition
exodus
exorcist
exp
experience
explore
express
expression
extinction
extra
eye
eyes
ez
ezio
ezra
f
fa
fab
fabaceae
faber
fabian
fabio
fabre
fabrice
fabrizi
fabrizio
fabwysiadu
fabwysiadwyd
face
facebook
faced
faces
fach
fachgan
fachgen
fachynlleth
fact
factfinder
factor
factors
factory
facts
faculty
fad
fadarchen
fadog
fae
faen
faenol
faenor
faer
faerdref
faes
faestrefol
faesyfed
faglor
fagu
fagwyd
fai
faich
fain
fainc
faint
fair
fairbanks
fairbourne
fairfax
fairfield
fairy
fait
faith
faivre
fal
falch
falchder
falco
falcon
falconidae
falconiformes
fali
falk
falkirk
fall
falls
false
falu
fam
famaliaid
fame
families
family
familysearch
famous
fampir
fan
fanc
fanceinion
fand
fandango
fandiau
faner
fangor
fangre
fannau
fanny
fantais
fantasmagorie
fantastic
fantasy
fanteision
fantell
fanwl
fanylion
fap
fapiau
far
fara
farch
farchnad
farchnata
farchog
farchogion
fardd
farddoniaeth
fareham
farewell
farf
fargen
farkas
farley
farm
farmer
farn
farnu
farnum
farnwr
faro
farrar
farre
farrell
farrow
farw
farwn
farwnad
farwnig
farwol
farwolaeth
farwolaethau
fas
fasa
fasged
fashion
fasnach
fasnachol
fasnachu
fassbinder
fast
fat
fate
fater
faterion
fath
fathafarn
fathau
fathemateg
fathemategol
father
fatican
fatty
faulkner
faust
fausto
faversham
fawcett
fawl
fawr
fawredd
fawreddog
fawrth
fay
faye
fayette
fc
fcgi
fe
feallai
fear
feast
feature
features
february
febs
fechan
fechgyn
fecsico
fector
fed
fedal
fedd
feddai
feddal
feddiannu
feddiant
feddrod
feddu
feddw
feddwl
feddyg
feddygaeth
feddyginiaeth
feddygol
feddyliau
federal
federalcodes
federation
federico
fedi
fedr
fedra
fedrai
fedru
fedrus
fedrwn
fedw
fedyddio
fedyddiwr
feel
feet
fehefin
fei
feibion
feibl
feichiog
feicoleg
feini
feirch
feirdd
feirionnydd
feirionydd
feirniad
feirniadaeth
feirniadol
feirniadu
feirniaid
feirw
feirws
feistr
feithrin
fel
feldman
felen
felffre
felice
felin
felindre
felinfach
felinganol
felinheli
felipe
felix
fell
felleghy
fellini
fellows
felltith
felly
felyn
felys
female
feminist
femme
femmes
fen
fendith
fendithio
feneswela
feng
fenis
fenni
fenter
fenthyg
fenton
fenyw
fenywaidd
fenywod
fer
ferch
ferched
ferdinand
ferdinando
ferenc
ferf
ferguson
fern
ferna
fernand
fernanda
fernandel
fernandez
fernando
fernhill
fernsehpreistraeger
ferrara
ferrari
ferrer
ferreri
ferreyra
ferrier
ferris
ferry
fersiwn
fersiynau
ferthyr
fertig
fertigol
ferwallt
ferwi
ferwig
festa
festival
fesul
fesur
fesurau
fetel
fethiant
fethodistaidd
fethu
fetropolitan
feuillade
fever
few
fewn
fewnfudwyr
fewnol
feysydd
ff
ffa
ffactor
ffactorau
ffafr
ffafrio
ffafriol
ffagan
ffair
ffaith
ffaldybrenin
ffantasi
ffarm
ffarmers
ffarmwr
ffaro
ffarwel
ffasgaidd
ffasiwn
ffasiynol
ffatri
ffawd
ffe
ffederal
ffederasiwn
ffeil
ffeiliau
ffeiriau
ffeithiau
ffeithiol
ffeminist
ffeministaidd
ffenest
ffenestr
ffenestri
ffeniau
ffenomen
fferi
fferm
ffermdy
ffermio
ffermwr
ffermwyr
ffermydd
fferyllydd
ffesant
ffesantod
ffestiniog
ffi
ffiaidd
ffibr
ffidil
ffieidd
ffigur
ffigurau
ffigwr
ffigyrau
ffiji
ffilm
ffilmiau
ffilmio
ffilmiwyd
ffim
ffin
ffindir
ffiniau
ffinio
ffinneg
ffion
ffiseg
ffisegol
ffisegydd
ffisioleg
ffitio
fflach
fflam
fflamau
fflandrys
fflat
fflatiau
fflint
ffliw
ffliwt
fflorens
fflur
fflwrens
fflyffi
ffo
ffoaduriaid
ffocws
ffodd
ffodus
ffoes
ffoi
ffol
ffolineb
ffon
ffont
ffordd
fforddio
ffordun
fforest
fforestydd
fforio
fforiwr
fformat
fformiwla
ffortiwn
fforwm
ffos
ffosil
ffosiliau
ffostrasol
ffosydd
ffotograff
ffotograffau
ffotograffi
ffotograffiaeth
ffotograffydd
ffowc
ffra
ffrae
ffraeth
ffraid
ffrainc
fframwaith
ffrances
ffranciaid
ffrancod
ffrancolin
ffrancwr
ffrancwyr
ffraneg
ffrangeg
ffransis
ffre
ffrengig
ffrenig
ffres
ffridd
ffrind
ffrindiau
ffrio
ffrith
ffriw
ffrwd
ffrwydrad
ffrwydro
ffrwydrodd
ffrwyth
ffrwythau
ffrwythlon
ffrwythlondeb
ffrwythloni
ffrydiau
ffrynt
ffug
ffugenw
ffuglen
ffuglennol
ffuglenol
ffugwyddonol
ffurf
ffurfafen
ffurfiau
ffurfio
ffurfiodd
ffurfiol
ffurfir
ffurfiwyd
ffwlbart
ffwng
ffwrdd
ffwrn
ffwrnais
ffwyst
ffwythiannau
ffwythiant
ffydd
ffyddlawn
ffyddlon
ffyddlondeb
ffyddloniaid
ffyn
ffyngau
ffynhonnau
ffynhonnell
ffyniant
ffynnon
ffynnongroyw
ffynnu
ffynon
ffynonellau
ffyrdd
ffyrnig
fi
fiala
ficer
fichefilm
fiction
fictoraidd
fictoria
fidel
fideo
fideos
fiedler
field
fielding
fields
fiena
fienna
fietnam
fietnameg
fifa
fife
fifth
fifty
figaro
fight
fighting
figueroa
figures
fil
file
fileadmin
files
filho
filip
filipino
filippo
filiwn
fille
filltir
filltiroedd
film
filmaffinity
filmalkotasok
filmbemutatok
filmdatabas
filmdienst
filme
filmek
filmes
filmfare
filmkritikerprisen
filmlexikon
filmografi
filmow
filmportal
filmpreis
films
filmstarts
filoedd
fils
filwr
filwrol
filwyr
fin
final
financial
finch
find
findagrave
finding
fine
finest
finger
finiste
finlandia
finn
finna
finnau
fintai
fioled
fiona
fiore
fire
fireo
fireod
first
firth
firws
fis
fischer
fish
fisher
fisigothiaid
fisoedd
fisol
fitamin
fitz
fitzgerald
fitzmaurice
five
fiwsical
fix
fk
fl
flaen
flaenaf
flaenau
flaenllaw
flaenor
flaenoriaid
flaenorol
flag
flags
flaherty
flame
flanagan
flas
flash
flat
flavin
flavio
flawd
fleck
fleet
fleetwood
fleischer
fleming
flemming
flesh
fletcher
fleur
flew
flewog
flight
flin
flino
flint
flodau
flodeugerdd
flodeuo
flodyn
flood
flor
flora
florence
florent
flores
florey
florian
florida
flower
flowers
floyd
flwydd
flwyddyn
fly
flycatcher
flying
flynedd
flynn
flynyddau
flynyddoedd
flynyddol
fm
fn
fo
foch
focus
fod
fodau
fodd
foddi
foddion
fodel
fodern
fodlon
fodolaeth
fodoli
fodrwy
foel
foelgastell
foelrhon
foesol
fog
folcanig
foley
folk
folkestone
folklore
follow
following
folsey
foment
fomio
fon
fonda
foneddiges
fonesig
fons
fonseca
fontaine
fontana
food
foot
football
for
forbert
forbes
forbidden
force
forces
ford
fordaith
forde
fore
foreign
forest
foreu
forever
forgalmi
forgannwg
forget
forgotten
form
forman
format
formation
former
formicariidae
forque
forrest
forsberg
forster
forsyth
fort
forte
fortuna
fortunato
fortune
forum
forward
forwyn
fory
foss
foster
fotanegydd
fotogramas
foulkes
found
foundation
four
fournier
fourth
fowler
fox
fr
fra
frac
frad
fraich
fraint
fraith
fran
franc
franca
france
frances
francesc
francesca
francesco
franchi
francis
francisco
franck
franco
frank
frankel
frankenstein
frankfurt
frankie
franklin
franklyn
frans
frantis
franz
franziska
fras
fraser
frasil
fraticelli
frau
frauen
frawd
frawddeg
frawdoliaeth
frazer
fre
frech
fred
freda
freddie
freddy
frederic
frederick
fredericks
frederik
frederiksberg
frederiksen
fredrik
free
freebase
freedom
freeman
freep
freiburg
freichiau
fremont
french
frenhines
frenhiniaeth
frenhinllin
frenhinoedd
frenhinol
frenin
freshwater
frest
freud
freuddwyd
frey
freystrop
fri
fric
frida
friday
friedkin
friedl
friedman
friedrich
friend
friends
fries
frig
friis
fringillidae
frisk
frith
fritsch
fritz
fro
frodor
frodorion
frodorol
frodyr
froelich
from
frome
fron
froncysyllte
front
fronted
frontier
frost
frown
frs
fru
fruit
frwd
frwydr
frwydrau
frwydro
fry
frycheiniog
fryd
fryn
fryngaer
fryngaerau
fryniau
frys
frythoneg
ft
fu
fuan
fuasai
fuchedd
fud
fudd
fuddiol
fuddugol
fuddugoliaeth
fuddugoliaethau
fudiad
fudiadau
fuentes
fukuoka
fulci
fulham
full
fullcredits
fuller
fulton
fulvio
fum
fun
function
functional
functions
fund
fune
funeral
fung
fungal
funny
funud
fuont
fur
furia
furiau
furie
furnariidae
furness
furry
fursennod
fury
fusnes
future
fuwch
fwa
fwg
fwlch
fwnt
fwrdd
fwrdeistref
fwriad
fwriadol
fwriadu
fwrw
fwslimiaid
fwsoglau
fwthyn
fwy
fwyaf
fwyafrif
fwyd
fwydo
fwyfwy
fwyn
fwynhau
fwyta
fy
fychan
fyd
fydd
fydda
fyddaf
fyddai
fyddant
fyddent
fyddi
fyddin
fyddinoedd
fyddo
fyddwch
fyddwn
fydeang
fyfyriwr
fyfyrwyr
fygwth
fygythiad
fylde
fymryn
fyn
fynachlog
fynd
fyned
fynedfa
fynediad
fynegi
fynegodd
fynglwyd
fynnai
fynnu
fynu
fynwent
fynwes
fynwy
fyny
fynych
fynychaf
fynychu
fynydd
fynyddig
fynyddoedd
fyr
fys
fysantaidd
fysedd
fyth
fytholeg
fytholwyrdd
fyw
fywgraffyddol
fywiog
fywoliaeth
fywyd
fywydau
fønss
g
ga
gabe
gabriel
gabriela
gabriele
gabriella
gabrielle
gaby
gad
gadael
gadair
gadarn
gadarnhau
gadawodd
gadawyd
gadeiriol
gadeirlan
gadeirydd
gader
gadewch
gadfridog
gadw
gadwodd
gadwraeth
gadwraethol
gadwyn
gae
gaeaf
gaeau
gael
gaeleg
gaeltacht
gaer
gaerdydd
gaerfyrddin
gaergrawnt
gaergybi
gaerhirfryn
gaerloyw
gaerly
gaernarfon
gaerwen
gaerwrangon
gaetano
gaeth
gaethiwed
gaethweision
gaf
gafael
gafodd
gafr
gafwyd
gai
gaiff
gail
gain
gainc
gainsborough
gainsbourg
gaint
gair
gais
gaius
gal
gala
galabru
galaeth
galan
galar
galaru
galaxy
gale
galed
galena
galicia
galilea
galindo
galisia
galisieg
gall
gallaf
gallagher
gallai
gallant
gallasai
gallem
gallent
gallery
gallesid
gallia
galliformes
gallo
gallodd
gallone
galloway
gallt
gallu
galluoedd
galluog
galluogi
gallwch
gallwn
galon
galveston
galw
galwad
galwadau
galwai
galwedigaeth
galwodd
galwyd
gam
gamau
game
games
gamlas
gamma
gamp
gampau
gampwaith
gan
ganada
ganai
gance
ganddi
ganddo
ganddyn
ganddynt
gandhi
gandryll
ganed
ganeuon
ganfod
gang
gangen
ganghellor
ganghennau
gangster
gangstyrs
ganiata
ganiatad
ganllwyd
ganlyn
ganlyniad
ganlyniadau
ganlynol
ganmol
gannoedd
ganodd
ganol
ganolbarth
ganolbwynt
ganolbwyntio
ganolfan
ganolfannau
ganoloesol
ganolog
ganrif
ganrifoedd
ganser
gant
gantores
gantorion
gantref
gantt
ganu
ganwr
ganwyd
gao
gap
gapel
gapiau
gaplan
gapten
gar
garate
garchar
garcharor
garcharorion
garcharu
garci
garcia
gard
gardd
garde
garden
gardens
gardiner
gardner
garedig
garedigrwydd
gareg
gareth
garfan
garfield
gargam
gari
gariad
gario
garland
garmon
garn
garnant
garndolbenmaen
garnedd
garner
garnett
garonne
garreg
garrel
garrett
garrone
garry
garson
garth
gartheli
garthynty
gartref
gartrefi
garu
garw
gary
gas
gaseg
gasgliad
gasgliadau
gasglodd
gasglu
gasglwyd
gasnewydd
gasnier
gassman
gast
gastell
gaston
gastric
gate
gategori
gates
gath
gatholig
gatholigion
gatrawd
gau
gauaf
gaudi
gaulle
gaumont
gavin
gawn
gawr
gawsai
gawsant
gay
gaza
gazette
gazetteer
gb
gdan
gdp
ge
gedwir
gee
gefais
gefeillio
geffyl
geffylau
gefn
gefnder
gefndir
gefnfor
gefnogaeth
gefnogi
gefnogol
gefnogwr
gefnogwyr
geg
gegin
gei
geidwad
geidwadol
geifr
geiniog
geir
geirfa
geiriadur
geiriau
geisio
geisiodd
gel
gelf
gelfyddyd
gell
gelli
gellid
gellifedw
gellifor
gellilydan
gellir
gelloedd
geltaidd
gelteg
gelwid
gelwir
gelwydd
gelyn
gelynion
gem
gemau
gemeg
gemegol
gemeinsame
gemma
gen
genau
gender
gene
genedigaeth
genedigol
genedl
genedlaethau
genedlaethol
genefa
genera
general
generation
genes
genesis
genet
geneth
genetic
genetig
geneva
genevie
genhadaeth
genhedlaeth
genhedlodd
genhedloedd
geni
genina
genius
gennad
gennaro
gennych
gennyf
gennym
gennyt
genoa
genome
genomics
genova
genre
gent
gentleman
gentner
gentry
genws
genyf
genym
genyn
genynnau
geo
geoff
geoffrey
geograph
geographic
geographies
geography
geometreg
geometrig
geonames
georg
george
georgeg
georges
georgetown
georgi
georgia
georgina
ger
geraint
gerald
geraldine
gerallt
gerard
gerardo
gerasimov
gerbron
gerbyd
gerbydau
gerd
gerda
gerdd
gerdded
gerddi
gerddor
gerddorfa
gerddoriaeth
gerddorion
gerddorol
geredigion
gerhard
gerllaw
germa
germain
germaine
german
germanaidd
germania
germany
gernyw
gernyweg
gero
gerrig
gerry
gers
gert
gertrud
gertrude
geschichte
gestyll
get
gethin
gets
getting
getty
gewch
gf
ghana
gheorghe
ghosh
ghost
ghosts
gi
gia
giacomo
gian
giancarlo
gianfranco
gianluca
gianni
giannini
giant
gibbs
gibraltar
gibson
gift
gig
gigi
gigydd
gigyddion
gil
gilbert
gilberto
gilda
gildas
gilead
giles
gilfach
gilio
gill
gilles
gillespie
gillian
gillingham
gilmore
gilwern
gilydd
gime
gin
gina
ginette
ginger
gini
ginio
gino
gion
giordano
giorgio
giorno
giovanna
giovanni
gipio
girard
girardot
girl
girls
giro
girolami
gironde
gis
gise
gisela
gish
gist
gita
gitar
gitarydd
giuffre
giulia
giuliano
giulio
giuseppe
give
gl
gla
glabra
gladdu
gladdwyd
gladiator
gladstone
gladwriaeth
gladys
glaf
glais
glamorgan
glan
glanaman
glanhau
glanio
glaniodd
glannau
glanrafon
glantwymyn
glas
glasgoed
glasgow
glasgwm
glasinfryn
glasoed
glass
glasur
glasurol
glaswellt
glaw
glawdd
glawr
gleason
gleddyf
glefyd
gleifion
gleision
glen
glenda
glendale
glenn
gli
glicio
glin
glir
glirio
glo
global
globe
gloc
gloch
glod
gloddio
glofa
gloi
gloria
glory
glos
gloucester
glover
glowyr
gloynnod
gloyw
glu
gludiant
gludo
glun
glust
glustiau
glwb
glwydd
glybiau
glybu
glycine
glycyrrhiza
glymblaid
glyn
glyndw
glyndwr
glyndyfrdwy
glynn
glynne
glynrhedynog
glynu
glywais
glywed
glywodd
gm
gnawd
gnd
go
gobaith
gobeithio
gobion
goch
god
godard
goddard
goddef
godfather
godfrey
godi
godiad
godidog
godio
gododd
gododdin
godre
godro
gods
godwin
godwyd
goed
goeden
goedwig
goes
goesau
goesyn
goethe
goetre
gof
gofal
gofalu
gofalus
gofeb
goffa
goffadwriaeth
goffau
goffi
goffredo
gofiant
gofid
gofilon
gofio
gofnod
gofnodi
gofnodion
gofnodwyd
gofod
gofrestr
gofrestru
gofyn
gofynai
gofynion
gofynnais
gofynnodd
gofynodd
gog
gogarth
gogh
goginan
goginio
gogledd
gogleddol
gogoneddus
gogoniant
gogwydd
gogwyddion
gohebydd
going
goire
gol
golan
golau
golchi
gold
goldberg
golden
goldenhorse
goldman
goldsmith
goldstein
goldwyn
goleg
golegau
goleu
goleuad
goleuadau
goleudy
goleuni
goleuo
golfan
golfanod
golff
goliau
goll
golled
golli
gollodd
gollwng
gollwyd
golofn
golofnau
golud
golwg
golwyn
golygai
golygfa
golygfeydd
golygiad
golygodd
golygu
golygwyd
golygydd
golygyddion
gomedi
gomer
gomez
gomin
gomisiwn
gomisiynydd
gomiwnyddol
gomphidae
gomphus
goncwest
gondemnio
gone
gonest
gongl
gonswl
gonza
gonzalez
gonzalo
good
goodbye
goodman
goodwin
goodwins
google
goose
gopa
gopal
gopalakrishnan
gopaon
gopi
gor
gora
goran
gorarwr
gorau
gorbryder
gorchfygodd
gorchfygu
gorchfygwyd
gorchmynion
gorchmynnodd
gorchudd
gorchuddio
gorchwyl
gorchymyn
gordon
gore
goresgyn
goresgyniad
goresgynwyr
goreu
goreuon
gorff
gorffen
gorffenaf
gorffennaf
gorffennodd
gorffennol
gorfforol
gorffwys
gorfod
gorfodaeth
gorfodi
gorfodol
gorfodwyd
gorfoledd
gorfu
gori
gorky
gorlech
gorllewin
gorllewinol
gorllwyn
gorman
gormes
gormod
gorn
gornel
gornest
goroesi
goroesodd
goron
goroni
goronwy
goror
gororau
gorphen
gorphenaf
gorris
gors
gorsaf
gorsafoedd
gorsedd
gorseinon
goruchaf
goruchafiaeth
goruchwyliwr
goruwchnaturiol
gorwedd
gorweddai
gorwel
gorymdaith
gorynys
gosb
gosbi
gosod
gosodir
gosododd
gosodwyd
gospel
gosport
gost
gostwng
gostyngiad
gostyngodd
got
gothi
gothiaid
gothig
gottfried
gottlieb
gough
gould
goulding
gouv
gov
government
gowboi
gower
goya
gp
gpc
gr
gra
grace
grach
gracia
graciela
grad
gradd
graddau
graddfa
graddio
graddiodd
graddol
grady
graeanrhyd
graeme
graf
graff
graffig
graffiti
grafton
graham
graig
graigfechan
gram
gramadeg
grammar
grammy
grampians
gran
granada
grand
grande
grange
granger
grangier
grant
granville
gras
grass
grasse
grassia
grau
grave
graves
grawn
grawnwin
gray
grayson
graz
grazia
graziani
gre
greadigaeth
greadur
greaduriaid
greal
great
greater
greatest
greco
gred
gredu
greek
green
greenaway
greenberg
greene
greenwich
greenwood
greer
gref
grefft
grefydd
grefyddol
grefyddwyr
greg
gregers
gregg
gregor
gregori
gregorio
gregory
greigiau
greodd
gresffordd
gresynni
gret
greta
grete
grethe
greu
greulon
grewyd
grey
gri
grib
grid
grieco
griff
griffin
griffith
griffiths
grigor
grimaldi
grimm
grimme
grimsby
grisial
grisiau
grist
gristion
gristionogol
gristnogaeth
gristnogion
gristnogol
griw
gro
groeg
groegaidd
groegiaid
groen
groes
groesawu
groesffordd
groesgad
groesi
groeslon
groeso
grog
grogi
gromosom
gron
gronant
gronfa
gronw
gronyn
gronynnau
gross
groth
ground
group
groups
grove
grover
growing
growth
große
gru
gruber
gruff
gruffudd
gruffydd
grug
grugiau
gruiformes
grund
grundy
grw
grwp
grwpiau
grwydro
grybwyll
gryf
gryfach
gryfder
gryfhau
gryg
grym
grymoedd
grymus
gryn
grynno
gryno
grys
grysmwnt
grzegorz
gta
gu
guadeloupe
guangzhou
guardian
gudd
guddio
gudrun
gue
guerra
guerre
guerrero
guest
guez
guggenheim
guglielmo
guiana
guide
guides
guido
guild
guildford
guillaume
guillermo
guilty
guinness
gul
gull
gumfreston
gump
gun
gunn
gunnar
guns
gunther
gupta
gur
guro
guru
gus
gustaf
gustav
gustave
gustavo
guthrie
gutie
guto
gutun
guy
guyane
guys
guzma
gw
gwa
gwadd
gwadu
gwae
gwaed
gwaedd
gwaeddi
gwaeddodd
gwaedlyd
gwael
gwaelod
gwaenysgor
gwaeth
gwaetha
gwaethaf
gwag
gwahaniaeth
gwahaniaethau
gwahaniaethu
gwahanol
gwahanu
gwahardd
gwaharddiad
gwaharddwyd
gwahodd
gwahoddiad
gwahoddwyd
gwair
gwaith
gwalch
gwalchmai
gwales
gwalia
gwaliau
gwall
gwallgof
gwallt
gwallter
gwan
gwanhau
gwanwyn
gwarchae
gwarcheidiol
gwarchod
gwarchodfa
gwarchodlu
gwared
gwaredu
gwaredwr
gwareiddiad
gwario
gwarth
gwartheg
gwas
gwasanaeth
gwasanaethau
gwasanaethodd
gwasanaethu
gwasg
gwasgaru
gwasgu
gwastad
gwastadedd
gwastadeddau
gwastraff
gwatemala
gwau
gwaun
gwawd
gwawr
gwbert
gwbl
gwblhau
gwbwl
gwch
gwddf
gwe
gwedd
gweddi
gweddill
gweddillion
gweddio
gweddol
gweddus
gweddw
gwedi
gwefan
gwefr
gwefusau
gwehelog
gwehydd
gweiddi
gweilch
gweini
gweinidog
gweinidogaeth
gweinidogion
gweinyddiaeth
gweinyddol
gweinyddu
gweision
gweithdy
gweithfeydd
gweithgar
gweithgaredd
gweithgareddau
gweithgarwch
gweithiai
gweithiau
gweithio
gweithiodd
gweithiol
gweithiwr
gweithred
gweithrediad
gweithrediadau
gweithredoedd
gweithredol
gweithredu
gweithwyr
gwel
gweladwy
gwelaf
gwelai
gwelais
gweld
gweled
gweledigaeth
gweledol
gwelem
gwelent
gweler
gwelid
gwelir
gwell
gwella
gwelliant
gwellt
gwelodd
gwelsom
gwelw
gwelwch
gwelwn
gwelwyd
gwely
gwelyau
gwen
gwenallt
gwenddwr
gwendid
gwendolyn
gwendraeth
gwener
gwenfo
gwenith
gwenlais
gwenllian
gwenno
gwennol
gwenoliaid
gwent
gwenu
gwenwyn
gwenwynig
gwenyn
gweog
gwerful
gwerin
gweriniaeth
gweriniaethol
gweriniaethwyr
gwerinol
gwern
gwernaffield
gwernesni
gwernogle
gwernymynydd
gwersi
gwersyll
gwersyllfeydd
gwersylloedd
gwersyllt
gwerth
gwerthfawr
gwerthfawrogwn
gwerthiant
gwerthodd
gwerthoedd
gwerthu
gwerthuso
gwerthwr
gwerthwyd
gwestai
gwestiwn
gwestiynau
gwesty
gweunydd
gwialen
gwilen
gwili
gwilym
gwin
gwinau
gwion
gwir
gwirfoddol
gwirion
gwirionedd
gwirioneddol
gwiro
gwisg
gwisgo
gwisgodd
gwisgoedd
gwiw
gwla
gwlad
gwladfa
gwladgarol
gwladgarwch
gwladgarwr
gwladol
gwladweinydd
gwladwriaeth
gwladwriaethau
gwlan
gwlaw
gwledd
gwledig
gwledydd
gwleidydd
gwleidyddiaeth
gwleidyddion
gwleidyddol
gwlff
gwlith
gwlyb
gwlyptiroedd
gwm
gwmni
gwmpas
gwmwd
gwmwl
gwn
gwna
gwnaed
gwnaeth
gwnaethant
gwnaethpwyd
gwnaf
gwnai
gwnawn
gwndy
gwnei
gwneir
gwneud
gwneuthur
gwneuthurwr
gwnewch
gwneyd
gwobr
gwobrau
gwobrwywyd
gwpan
gwr
gwrach
gwrachod
gwragedd
gwraidd
gwraig
gwrandawyr
gwrandewch
gwrando
gwrdd
gwregys
gwreiddiau
gwreiddiol
gwreiddyn
gwres
gwresog
gwridog
gwrol
gwrs
gwrth
gwrthdaro
gwrtheyrn
gwrthod
gwrthododd
gwrthodwyd
gwrthrych
gwrthrychau
gwrthryfel
gwrthryfela
gwrthryfelwyr
gwrthsefyll
gwrthwyneb
gwrthwynebiad
gwrthwynebu
gwrthwynebwyr
gwrthwynebydd
gwrw
gwrych
gwrychog
gwryw
gwrywaidd
gwsg
gwthio
gwy
gwybed
gwybedog
gwybedogion
gwybod
gwybodaeth
gwych
gwydd
gwyddai
gwyddau
gwyddbwyll
gwyddeleg
gwyddelig
gwyddelod
gwyddelwern
gwyddgrug
gwyddno
gwyddoch
gwyddom
gwyddoniadur
gwyddoniaeth
gwyddonias
gwyddonol
gwyddonwyr
gwyddonydd
gwyddor
gwyddorau
gwyddwn
gwyddys
gwydion
gwydr
gwyfyn
gwyfynod
gwyl
gwylan
gwylanod
gwyliau
gwyliedydd
gwylio
gwyliwr
gwyll
gwyllt
gwylltion
gwylwyr
gwymp
gwyn
gwyneb
gwynedd
gwyneth
gwynfe
gwynfor
gwynfryn
gwynion
gwynn
gwynne
gwynt
gwyntoedd
gwyr
gwyrdd
gwyrddion
gwyrfai
gwytherin
gychod
gychwyn
gychwyniad
gychwynnodd
gyd
gyda
gydag
gyddf
gyddfddu
gyddfgoch
gyddfwyn
gydnabod
gydnabyddiaeth
gydol
gydweithio
gydwladwyr
gydwybod
gydymaith
gydymdeimlad
gyfadran
gyfagos
gyfaill
gyfamod
gyfan
gyfandir
gyfandirol
gyfangwbl
gyfansoddi
gyfansoddiad
gyfansoddiadau
gyfansoddodd
gyfansoddwr
gyfansoddwyd
gyfanswm
gyfarch
gyfarfod
gyfarfodydd
gyfartal
gyfartaledd
gyfarwydd
gyfarwyddo
gyfarwyddwr
gyfarwyddwyd
gyfarwyddyd
gyfathrebu
gyfeillgar
gyfeillgarwch
gyfeillion
gyfeiriad
gyfeiriadau
gyfeirio
gyfer
gyferbyn
gyffelyb
gyffes
gyffin
gyffiniau
gyffordd
gyffredin
gyffredinol
gyffro
gyffrous
gyffur
gyffuriau
gyffwrdd
gyfiawn
gyfiawnder
gyfieithiad
gyfieithu
gyflafan
gyflawn
gyflawni
gyflawniadau
gyflawnodd
gyfle
gyflenwi
gyfleu
gyflog
gyflogaeth
gyflogi
gyflwr
gyflwyno
gyflwynodd
gyflwynwyd
gyflwynydd
gyflym
gyflymach
gyflymder
gyflyrau
gyfnewid
gyfnod
gyfnodau
gyfochrog
gyfodi
gyfododd
gyfoedion
gyfoes
gyfoeth
gyfoethog
gyfradd
gyfraith
gyfran
gyfraniad
gyfraniadau
gyfrannu
gyfredol
gyfreithiau
gyfreithiol
gyfreithiwr
gyfreithlon
gyfres
gyfresi
gyfri
gyfrif
gyfrifiadurol
gyfrifo
gyfrifol
gyfrifoldeb
gyfrin
gyfrinach
gyfrinachol
gyfrol
gyfrolau
gyfrwng
gyfryngau
gyfun
gyfundrefn
gyfuniad
gyfuno
gyfunol
gyfyd
gyfyng
gyfyngedig
gyfyngu
gyfystyr
gyfystyron
gyhoeddi
gyhoeddiad
gyhoeddiadau
gyhoeddir
gyhoeddodd
gyhoeddus
gyhoeddwyd
gyhuddiad
gyhuddo
gylch
gylchgrawn
gylchgronau
gylchoedd
gylchog
gylchrediad
gyllell
gyllenhaal
gymaint
gymal
gymanfa
gymanwlad
gymar
gymdeithas
gymdeithasau
gymdeithasfa
gymdeithasol
gymdogaeth
gymdogion
gymer
gymeradwyo
gymerasant
gymeriad
gymeriadau
gymerodd
gymerth
gymerwyd
gymeryd
gymesur
gymharol
gymharu
gymhleth
gymhwyso
gymnasteg
gymorth
gymraeg
gymraes
gymrawd
gymreig
gymro
gymru
gymry
gymryd
gymuned
gymunedau
gymunedol
gymwys
gymydog
gymydogaeth
gymysg
gymysgedd
gymysgu
gyn
gynacantha
gynal
gynefin
gynefinoedd
gynffon
gyngerdd
gynghanedd
gynghori
gynghorwyr
gynghorydd
gynghrair
gyngor
gyngres
gynhadledd
gynhaliwyd
gynhanesyddol
gynharach
gynharaf
gynhelir
gynhenid
gynhesu
gynhwysyn
gynhyrchir
gynhyrchu
gynhyrchwyd
gynhyrchydd
gynifer
gynllun
gynlluniau
gynllunio
gynlluniwyd
gynnal
gynnar
gynnau
gynnes
gynnig
gynnwys
gynnydd
gynnyrch
gynorthwyo
gynorthwyydd
gynradd
gynrychioli
gynrychiolwyr
gynrychiolydd
gynt
gynta
gyntaf
gynted
gynulleidfa
gynulliad
gynyddol
gynyddu
gyo
gyrchfan
gyrchu
gyrfa
gyrff
gyrhaedd
gyrhaeddodd
gyriog
gyrion
gyrn
gyrraedd
gyrrodd
gyrru
gyrrwr
gyrrwyd
gyru
gysegredig
gysegru
gysgod
gysgu
gyson
gystadleuaeth
gystadlu
gystal
gystudd
gysur
gysurus
gyswllt
gysylltiad
gysylltiadau
gysylltiedig
gysylltir
gysylltu
gysyniad
gytundeb
gytuno
gyula
gywilydd
gywir
gywydd
h
ha
haag
haas
habana
haber
habib
hachos
hachub
hackney
had
hadau
hadbilen
haddasu
haddysg
haddysgu
haddysgwyd
hadeiladu
hadnabod
hadrian
hadrodd
haearn
haeddu
hael
haelioni
haelodau
haen
haenau
haf
hafal
hafaliad
hafaliadau
hafan
hafesb
hafod
hafren
hag
hagen
hagor
hagr
hague
hahn
hai
haiarn
haid
haidd
hail
haines
haint
hair
haiti
hal
halbwm
hale
halen
haley
half
halifax
halit
hall
hallam
halle
haller
hallt
halm
halogi
halton
ham
hamas
hamburg
hamdden
hamddenol
hamddiffyn
hamgylch
hamilton
hamlet
hammer
hammersmith
hammond
hampshire
hampstead
hampton
hamser
han
hana
hancock
hand
handbook
handel
handle
hands
haner
hanes
hanesion
haneswyr
hanesydd
hanesyddol
hanesyn
hanfod
hanfodol
hanfon
hangen
haniaethol
hank
hanks
hanmer
hanna
hannah
hannelore
hanner
hannes
hannibal
hannibyniaeth
hanno
hannover
hanns
hannu
hanover
hans
hansard
hansen
hanson
hanterth
hanu
hanus
hap
hapfasnachol
happened
happiness
happy
hapus
hapusrwydd
hara
harald
harbor
harborough
harbour
harbwr
harcourt
hard
hardd
harddangos
harddegau
harddwch
hardin
harding
hardt
hardy
hare
harestio
harfau
harglwydd
hari
harian
hariannodd
harishchandra
harlan
harlech
harlem
harley
harlow
harmon
harmony
harold
harper
harpercollins
harri
harries
harriet
harrington
harris
harrison
harrow
harry
hart
hartford
hartl
hartlepool
hartley
hartmann
harv
harvard
harvest
harvey
harwain
harwood
harwynebedd
has
hasan
hasguard
haskell
hassan
hasse
hasselbalch
hastings
hat
hatal
hate
hatfield
hatgyfnerthu
hatha
hathaway
hatton
hau
hauer
haul
haunted
haus
hauser
haut
haute
hautes
hauts
havana
havant
havard
have
haven
hawaii
hawdd
hawddgar
hawk
hawke
hawkins
hawks
hawksworth
hawl
hawlfraint
hawliau
hawlio
haws
hay
hayden
haydn
hayes
hayley
haynes
hayward
hazel
hbo
hdl
he
head
headed
health
heard
heart
hearts
heat
heath
heather
heaven
heavy
heb
heblaw
hebog
hebogiaid
hebraeg
hebron
hebrwng
hecht
hectar
hector
hedd
heddiw
heddlu
heddwas
heddwch
heddychlon
heddychol
heddyw
hedfan
hedvig
hedyn
hee
heffron
hefin
hefo
hefyd
hei
heibio
heiddo
heidegger
heidelberg
heidi
heights
heini
heinrich
heintiau
heintio
heintus
heinz
hel
hela
helaeth
helaethach
held
heledd
helen
helena
helene
helens
helfa
helga
helge
heli
heliwr
hell
helle
heller
hello
helm
helmut
helmuth
help
helpodd
helpu
helsinki
helwyr
helyg
helygain
helygen
helynt
helyntion
hemingway
hemisffer
hempstead
hen
henaid
henaint
henderson
hendre
hendrik
hendy
heneb
henebion
heneglwys
heneiddio
henffordd
henfyd
henfynyw
hengastell
hengoed
henley
henllan
hennill
henning
henny
heno
henri
henrietta
henriette
henrik
henriksen
henry
henryd
henryk
henson
henuriaid
henw
henwau
henwebu
henwi
henwlad
heol
heolydd
hepatitis
hepatocellular
hepburn
hepgor
hepworth
her
herald
herbert
herbrandston
herbyn
here
heredia
heresi
hergest
herio
heritage
herman
hermann
hermine
hermon
herna
hero
herod
heroes
herr
herrera
herrero
herrmann
herschel
hersholt
hertford
hertz
herve
herwgipio
herwydd
herz
herzl
herzog
heseceia
hesg
hesgen
hess
heston
het
heteragrion
hethol
hetiau
heulog
heulwen
hewitt
heymann
heywood
hi
hiaith
hickman
hickox
hicks
hidalgo
hidden
hideo
hierarchy
higgins
high
higher
highland
highway
hil
hilary
hilda
hilde
hildebrand
hildegard
hiliaeth
hiliogaeth
hiliol
hill
hillary
hiller
hillfort
hills
hillyer
hillyn
hilmar
hilton
him
himalaya
himmel
hin
hindi
hinds
hindu
hinduism
hindw
hines
hinsawdd
hip
hir
hirach
hiraddug
hiraeth
hiraethog
hiraf
hirbig
hirgrwn
hirion
hiroshi
hiroshima
hiroyuki
hirsch
hirundinidae
hirwaun
his
hiscott
histoire
histone
historia
historic
historical
history
hit
hitchcock
hithau
hitler
hits
hiv
hiver
hiwmor
hjalmar
hl
hler
hlich
hm
hms
hn
hne
ho
hobart
hoci
hockey
hodder
hoddnant
hodge
hodges
hodni
hoel
hoelion
hoes
hoew
hofer
hoff
hoffai
hoffi
hoffman
hoffmann
hoffter
hofmann
hogan
hogia
hogiau
hogyn
hol
holau
holbrooke
hold
holden
hole
holger
holi
holiday
holl
hollalluog
holland
hollol
hollow
holloway
hollt
hollti
holly
hollywood
holm
holman
holmes
holocost
holst
holt
holy
holyhead
hombre
home
homer
homme
homo
hon
honedig
honey
honeyeater
hong
hongian
honi
honiad
honiadau
honiton
honneur
honni
honnir
honno
honnodd
hono
honolulu
honom
honor
honorary
honore
honoris
honors
honour
honours
honynt
hood
hook
hooper
hop
hopcyn
hope
hopkin
hopkins
hopper
horace
horacio
horeb
horn
horne
horner
horror
horse
horses
horsham
horst
horton
hospital
hossein
host
hot
hotel
hough
houghton
hour
hours
house
houses
houston
hove
how
howard
howe
howel
howell
howells
howland
hoyt
hoyw
hr
hrus
hsp
htm
html
http
https
htv
hu
hua
huang
hubbard
hubert
huchaf
hud
huddersfield
hudo
hudol
hudson
huerta
hufen
hugain
hugh
hughes
hugo
hugon
hugues
hui
hull
hum
human
humans
humber
humberto
humboldt
hume
hump
humphrey
humphreys
hun
hunain
hunan
hunangofiannol
hunangofiant
hunaniaeth
hunanladdiad
hunanlywodraeth
hundleton
hundred
hung
hunger
hunig
huno
hunt
hunter
huntingdon
huntingdonshire
huntington
huntley
hur
hurst
hurt
husband
hussain
hussein
huston
hutchinson
hutt
hutton
huw
huws
huygens
hw
hwb
hwch
hwiangerdd
hwiangerddi
hwlffordd
hwn
hwngareg
hwngari
hwnnw
hwnt
hwnw
hwrdd
hwy
hwyaden
hwyaf
hwyaid
hwyl
hwyliau
hwylio
hwyliodd
hwylus
hwyluso
hwyneb
hwynebau
hwynt
hwyr
hwyrach
hwythau
hwytyn
hy
hyawdledd
hybarch
hyblyg
hybu
hyd
hyde
hyder
hyderabad
hyderus
hydref
hydrogen
hydroxy
hyfforddi
hyfforddiant
hyfforddwr
hyfryd
hyfrydwch
hygrophoraceae
hylif
hyll
hymddangosiad
hymeniwm
hymgorffori
hymn
hymnau
hymyl
hyn
hynaf
hynafiaethau
hynafiaethydd
hynafiaid
hynafol
hynaws
hynek
hynny
hynod
hynt
hyny
hypanthiwm
hypogaea
hyrwyddo
hysbrydoli
hysbys
hysbysebion
hysbysebu
hysbysiad
hysbysu
hysgrifennu
hystyried
hystyrir
hythe
hytrach
hyun
hywel
i
ia
iach
iacha
iachau
iachawdwriaeth
iachus
iacob
iago
iaid
iain
iaith
ian
iar
iard
iarll
iarllaeth
iarlles
ias
iau
iawn
iawndal
ib
iba
iberia
ibis
ibn
ibrahim
ibsen
ic
ice
ich
ichi
ichikawa
ici
icteridae
id
ida
idaho
iddew
iddewiaeth
iddewig
iddewon
iddi
iddo
iddyn
iddynt
idea
ideas
identification
identified
identities
identity
ideoleg
idris
idwal
ie
iechyd
ieir
ieithoedd
ieithydd
ieithyddiaeth
ieithyddol
iemen
iestyn
iesu
iets
ieuainc
ieuan
ieuanc
ieuangaf
ieuenctid
ieuenctyd
ieuengaf
if
ifainc
ifan
ifanc
ifans
iffr
ifor
ifori
ig
iglesia
iglesias
ign
ignacio
ignazio
ignored
igor
ii
iii
il
ilaiyaraaja
ildio
ildiodd
ill
ille
illinois
illustrated
ilona
ilse
im
image
images
imdb
imi
imiwnedd
immigrant
immunol
impact
imperial
imperialaeth
imperiale
implications
important
impossible
in
ina
inau
inc
inca
incalculable
ince
inception
including
increased
incwm
indecs
indemnity
independence
independent
index
india
indiaid
indiaidd
indian
indiana
indiancine
indiv
indo
indoneseg
indonesia
indre
induced
induces
indus
industrial
industrie
industry
ine
inf
infante
infection
inferno
influence
info
information
ing
inge
ingeborg
inger
inglourious
ingmar
ingolf
ingraham
ingram
ingrassia
ingrid
inhibition
inhibitor
inhibits
ini
injan
inkpot
inn
inna
innau
inner
inni
innocent
ins
insecta
insee
inside
insights
institut
institute
institution
instituto
insulin
int
integreiddio
intelligence
interacting
interaction
interactions
interactive
interfilmes
international
internationale
internet
interstellar
interview
intifada
into
intolerance
introduction
invasion
inverness
invest
invisible
involved
io
ioan
iocyn
ioga
iolo
ion
ionawr
iorddonen
iorwerth
ioseff
iou
iowa
ip
ipa
ipcc
ipswich
ir
ira
irac
iran
irani
iraq
ire
ireann
ireland
irena
irene
irid
irina
iris
irish
irma
iron
irvin
irvine
irving
irwin
is
isa
isaac
isabart
isabel
isabella
isabelle
isaf
isatyn
isbert
isbn
ischnura
ise
isel
iselder
iseldiraidd
iseldireg
iseldiroedd
isetholiad
ishii
isio
islam
islamaidd
islamic
island
islandeg
islands
islaw
isle
islington
islwyn
ismael
ismail
iso
isod
isoform
isradd
israel
israelaidd
israeli
israeliaid
issn
issue
issues
ist
istanbul
istva
it
itala
italia
italian
italiana
italic
italo
italy
ite
item
itemid
ithel
iti
ito
its
itunes
itv
iucn
iv
iva
ivan
ivana
ivano
ivar
iversen
ives
ivo
ivojinovic
ivor
ivory
ivy
iw
iwan
iwerddon
iwerydd
iwgoslafia
ix
iyengar
iz
iſrael
j
ja
jaap
jac
jacek
jack
jackie
jackson
jacky
jacob
jacobs
jacobsen
jacobson
jacoby
jacqueline
jacques
jade
jae
jag
jahresarchive
jahresblatt
jai
jaime
jain
jakarta
jake
jakob
jakub
jam
jamaica
james
jameson
jamie
jan
jana
jane
janeiro
janet
jang
janine
jansen
janson
janssen
january
janus
janusz
japan
japaneaidd
japaneg
japanese
jaque
jared
jarl
jarman
jarmila
jaromi
jaroslav
jaroslava
jarre
jarvis
jasmine
jason
jasper
javier
jay
jayne
jazeera
jazz
je
jean
jeanette
jeanne
jedi
jeff
jefferson
jeffrey
jeffreyston
jek
jeli
jen
jena
jenkin
jenkins
jenna
jennie
jennifer
jennings
jenny
jeno
jens
jensen
jeong
jeremeia
jeremiah
jeremy
jericho
jeriwsalem
jerome
jerry
jersey
jerusalem
jerwsalem
jerzy
jesper
jess
jesse
jessica
jessie
jesu
jesus
jet
jewish
jews
ji
jia
jiang
jill
jim
jime
jimmy
jin
jindr
jing
jir
jitka
jiwbili
jo
joa
joab
joachim
joan
joanna
joanne
joaqui
joaquim
job
jocelyn
jochen
jodie
joe
joel
joey
johan
johann
johanna
johanne
johannes
johannesburg
johansen
johansson
john
johnes
johnnie
johnny
johns
johnson
johnston
join
joint
jolivet
jon
jonah
jonas
jonathan
jones
jong
joon
jorda
jordan
jordi
jorge
jose
josef
joseff
josep
joseph
josephine
josephson
josh
joshua
josiah
josiane
josua
jour
journal
journals
journey
jovan
jovanovic
joy
joyce
jozef
jp
jpg
jr
jstor
ju
juan
juana
judd
jude
judge
judith
judy
jugnot
jules
julia
julian
julie
julien
juliet
juliette
julio
julius
july
jun
junction
june
jung
junge
jungermanniales
jungermanniopsida
jungle
junior
juno
jura
juraj
jurassic
jury
just
justice
justin
jutta
jwda
jwdas
jwdea
jyngl
jørgen
jørgensen
jørn
k
ka
kabul
kahlo
kahn
kai
kaiser
kamal
kamil
kan
kane
kang
kannada
kansas
kant
kaplan
kapoor
kar
kara
karachi
karel
karen
kari
karim
karin
karina
karl
karlheinz
karma
kaspar
kasper
kate
katharina
katharine
katherine
kathleen
kathryn
kathy
katia
katie
katja
katrin
katrine
katy
katz
kaufman
kaufmann
kaurisma
kavi
kay
kaye
kazan
kazimierz
kazuo
kb
kbe
ke
keane
keaton
keefe
keenan
keep
kei
keighley
keir
keith
keller
kelley
kelly
kelsey
kemal
kemp
kemper
kemr
ken
kendall
kenji
kennedy
kenneth
kenny
kensington
kent
kenton
kentucky
kenyon
kerala
kern
kerr
kerry
kesteven
kevin
kew
key
keynes
kg
khan
khanna
ki
kiarostami
kid
kids
kiev
kill
killed
killer
killing
kim
kimberly
kinase
kind
kinder
kindersley
king
kingdom
kingfisher
kings
kingsley
kingston
kinnerton
kinokalender
kinokritiken
kinopoisk
kinski
kirby
kirk
kirkby
kirkland
kirkwood
kirsten
kiss
kit
kitchen
kitchener
kitty
kjeld
kjell
kla
klaus
klein
kleine
klercker
kline
klondike
km
knew
knight
know
knowledge
knowles
known
knox
knud
knudsen
knut
ko
kobayashi
koch
koepp
kohout
kolkata
kon
kong
konrad
konstantin
korda
korea
korean
kos
kosovo
kossuth
koster
kova
kr
kra
krako
krakow
kramer
kraus
krause
krauss
kris
krishna
krishnan
kristen
kristian
kristin
kristina
kritiken
kro
kru
kruger
krzysztof
ks
ku
kuala
kubrick
kultur
kulturnav
kulturze
kumar
kumuniou
kung
kunst
kunstpreis
kurt
kurtz
kwai
kwan
kwon
ky
kyiv
kyle
kymwt
kyo
kyoto
l
la
laa
lab
laban
label
labor
laboratory
labordy
labour
lac
lacey
lachman
ladd
laddiad
laddodd
laddwyd
ladies
ladin
ladislav
lado
ladrad
ladrata
ladron
lady
laemmle
laeth
lafar
lafayette
lafont
lafur
laga
lago
lagos
laguna
lahiri
lahore
lai
laila
lain
laine
lais
lajos
lake
lakeland
lakes
lal
lalo
lam
lama
lamac
lamar
lamas
lamb
lambert
lamberto
lambs
lamont
lamp
lamprecht
lan
lana
lanark
lanc
lanca
lancaster
lance
lancet
land
landa
landau
landers
landes
landi
landis
lando
landscape
lane
lang
langberg
langdon
lange
language
languages
lanhau
lanie
laniidae
lanio
lanishen
lanka
lannau
lansdowne
lansio
lansiodd
lansiwyd
lanw
laos
lara
larfa
large
largest
laridae
lark
larkin
larnog
larry
lars
larsen
larson
larsson
las
lasalle
lasky
lasoed
lasse
last
late
later
latfia
latfieg
lathyrus
latin
lattuada
lau
lauderdale
laughing
laura
laure
laureate
laureates
laurel
lauren
laurence
laurent
laurenti
laurentiis
laurie
lauritz
lauritzen
lausanne
lautner
lavagnino
laval
law
lawen
lawenydd
lawer
lawn
lawnt
lawr
lawrence
lawrlwytho
laws
lawson
lawton
lawysgrifau
laxmikant
lazaga
lb
ld
le
lea
lead
leader
leaders
leading
leaf
league
leah
lean
learning
least
leave
leaves
lebanon
leben
leblanc
lec
lech
lechi
leclerc
leconte
led
leda
ledaenu
leddfu
lederman
ledled
lednentydd
lee
leeds
lef
lefant
lefarodd
lefaru
lefe
lefebvre
lefel
lefelau
lefiaid
lefric
left
lefydd
legacy
legal
legend
legends
legio
legion
legislators
legrand
lehmann
lei
leiaf
leicester
leiden
leidr
leif
leigh
leighton
leihau
leila
lein
leinster
leipzig
leisiau
leisydd
lek
leland
lelouch
lem
lemon
len
lena
lene
leni
lenin
leningrad
lenka
lennart
lennon
lenny
lenoir
lenor
lenorion
lens
lenwi
lenyddiaeth
lenyddol
lenz
leo
leoedd
leol
leoli
leoliad
leolir
leon
leonard
leonardo
leone
leoni
leonid
leonor
leonora
leopold
leopoldo
lepidoptera
ler
lerner
leroy
lerpwl
les
lesaint
lesbiaidd
lesley
leslie
less
lesser
lester
lestri
let
leth
lethrau
lett
letter
letters
lettres
lety
letzte
leuad
leucu
leukemia
leung
leusa
lev
level
levels
leven
levi
levin
levine
levy
lew
lewes
lewis
lewisham
lewsyn
lewys
lex
lexington
lez
lf
lgbt
lhdt
lhuyd
li
lia
liam
liana
liath
liaws
lib
libanus
libellulidae
liberal
liberty
libia
library
libre
libreto
libris
libus
libya
lica
lid
lidia
lido
lie
liebe
liebeneiner
liechtenstein
lien
lies
lieutenant
lif
life
lifo
liga
liger
light
lights
liguoro
like
lil
lila
lili
lilian
liliana
liliane
lille
lilli
lillian
lilly
lily
lim
lima
limestone
limited
lin
lina
linach
lincoln
lind
linda
lindberg
lindeboom
linden
linder
lindgren
lindon
lindsay
lindsey
lindys
lindysyn
line
linell
linellau
lines
ling
lingen
lingoed
link
linked
links
linn
linnaeus
lino
lio
lion
lionel
lionello
lipsky
lis
lisa
lisabeth
lisbon
lise
list
listed
lister
listing
listings
lists
literary
literature
lithwaneg
lithwania
lito
little
littlefield
littlehampton
liu
liv
live
lively
liver
liverpool
lives
living
livingston
livingstone
livio
liw
liwiau
liwt
lix
liz
liza
lizzani
lizzie
ljubljana
lkova
ll
llachar
lladd
lladdodd
lladdwyd
lladin
lladrad
lladron
llaeth
llaethog
llafar
llafariad
llafariaid
llafn
llafur
llafurio
llafurus
llai
llaid
llain
llais
llaith
llall
llan
llanaber
llanaelhaearn
llanafan
llanallgo
llanandras
llananno
llanarfan
llanarmon
llanarth
llanarthne
llanasa
llanbabo
llanbadarn
llanbadog
llanbedr
llanbedrgoch
llanbedrog
llanberis
llanbister
llanboidy
llanbradach
llanbryn
llanbrynmair
llanc
llancaeo
llancarfan
llancatal
llanciau
llandaf
llandanwg
llanddaniel
llanddarog
llanddeiniol
llanddeiniolen
llandderfel
llanddeusant
llanddewi
llanddingad
llanddinol
llanddona
llanddowror
llanddulas
llanddunwyd
llanddwywe
llanddyfnan
llandecwyn
llandegai
llandegfan
llandegfedd
llandegla
llandegwning
llandeilo
llandenni
llandidiwg
llandinam
llandochau
llandogo
llandre
llandrillo
llandrindod
llandrinio
llandudno
llandudoch
llandw
llandwrog
llandybi
llandyfa
llandyfaelog
llandyfri
llandyfrydog
llandyga
llandyrnog
llandyry
llandysilio
llandysul
llanedi
llanedwen
llanegryn
llanegwad
llaneilian
llanelen
llanelidan
llanelli
llanelltyd
llanelwedd
llanelwy
llanenddwyn
llanengan
llanerch
llanerfyl
llaneurgain
llanfable
llanfachraeth
llanfachreth
llanfaelog
llanfaelrhys
llanfaenor
llanfaethlu
llanfaglan
llanfair
llanfairfechan
llanfallteg
llanfarian
llanfechain
llanfechell
llanferres
llanfihangel
llanfleiddan
llanfocha
llanfor
llanfrothen
llanfrynach
llanfwrog
llanfyllin
llanfynydd
llanfyrnach
llangadfan
llangadog
llangadwaladr
llangaffo
llangamarch
llangan
llangasty
llangathen
llangatwg
llangedwyn
llangefni
llangeinwen
llangeitho
llangeler
llangelynnin
llangennech
llangernyw
llangi
llangiwa
llanglydwen
llangoed
llangoedmor
llangofen
llangollen
llangolman
llangrannog
llangristiolus
llangurig
llangwm
llangwnadl
llangwyfan
llangwyllog
llangwyryfon
llangybi
llangyfelach
llangyndeyrn
llangynfelyn
llangynhafal
llangynidr
llangynin
llangynllo
llangynnwr
llangynog
llangynwyd
llangynydd
llangynyw
llangywer
llanhamlach
llanharan
llanhari
llanhenwg
llanhuadain
llanidloes
llaniestyn
llanigon
llanilar
llanilltud
llanio
llanisan
llanishmel
llanisien
llanllawddog
llanllechid
llanllugan
llanllwch
llanllwchaearn
llanllwni
llanlly
llanllyfni
llanllywel
llanmilo
llannerch
llannewydd
llannon
llannor
llanofer
llanoronwy
llanpumsaint
llanrhaeadr
llanrhian
llanrhidian
llanrhuddlad
llanrhystud
llanrug
llanrwst
llansadwrn
llansanffraid
llansannan
llansantffraed
llansantffraid
llansanwyr
llansawel
llansilin
llanstadwel
llansteffan
llantrisant
llanuwchllyn
llanw
llanwarw
llanwddyn
llanwenarth
llanwenog
llanwinio
llanwnda
llanwnnen
llanwnnog
llanwrda
llanwrin
llanwrthwl
llanwrtyd
llanwyddelan
llanwynell
llanwynno
llanwytherin
llanybydder
llanychaer
llanycil
llanycrwys
llanymawddwy
llanymddyfri
llanymynech
llanynghenedl
llanynys
llanystumdwy
llanywern
llath
llaw
llawdriniaeth
llawen
llawenydd
llawer
llawfeddyg
llawlyfr
llawn
llawnach
llawr
llawysgrif
llawysgrifau
lle
llech
llechau
llechfaen
llechi
llechryd
llechrydau
llechwedd
llecyn
lled
lledaenu
lleddir
lledr
lledrith
lledrod
lledu
llef
llefain
llefara
llefarodd
llefaru
llefarydd
lleferydd
llefydd
lleiaf
lleiafrif
lleian
lleidr
lleied
lleihau
lleill
lleisiau
lleisiol
lleithder
llen
lleng
llengfilwr
llengoedd
llenni
llenor
llenorion
llenwi
llenyddiaeth
llenyddol
lleoedd
lleol
lleoli
lleoliad
lleoliadau
lleolir
lleolwyd
ller
lles
llesg
llestr
llestri
llethol
llethr
llethrau
llety
lletya
lleu
lleuad
lleucu
llew
llewellyn
llewelyn
llewod
llewyrchus
lleyn
llgc
lli
lliain
lliaws
llid
llif
llifa
llifo
llifogydd
llin
llinach
llinell
llinellau
llinol
llinos
llinyn
llinynnol
llithfaen
llithro
lliw
lliwgar
lliwiau
lliwio
llo
lloches
lloegr
lloer
lloeren
llofft
llofrudd
llofruddiaeth
llofruddio
llofruddiwyd
llon
llond
llong
llongau
llonydd
llorweddol
llosg
llosgfynydd
llosgi
llosgwyd
llostfain
llowes
lloyd
llu
lluaws
lludd
lludw
llui
llun
llundain
lluniau
llunio
lluniodd
lluniwyd
lluoedd
lluosflwydd
lluosi
lluosog
llw
llwch
llwm
llwy
llwybr
llwybrau
llwyd
llwydcoed
llwyddiannus
llwyddiant
llwyddianus
llwyddo
llwyddodd
llwyddwyd
llwydiarth
llwydion
llwydlo
llwyfan
llwyfandir
llwyn
llwyncelyn
llwyndafydd
llwyneliddon
llwyngwril
llwynhendy
llwyni
llwynog
llwyr
llwyth
llwythau
llwythi
lly
llychlyn
llychlynwyr
llydan
llydanbig
llydaw
llydaweg
llydewig
llyffant
llyfn
llyfr
llyfrau
llyfrgell
llyfrgelloedd
llyfrgellydd
llyfryddiaeth
llyfryn
llygad
llygadwyn
llygadwynion
llygaid
llygod
llygoden
llygredd
llygredig
llym
llyn
llyncu
llynges
llynnoedd
llyr
llys
llysenw
llysfaen
llysgennad
llysiau
llysieuyn
llysoedd
llyswyrny
llythrennau
llythrennol
llythynwg
llythyr
llythyrau
llythyren
llyw
llywarch
llywel
llywelyn
llywern
llywodraeth
llywodraethau
llywodraethiaeth
llywodraethol
llywodraethu
llywodraethwr
llywodraethwyr
llywydd
ln
lo
loach
loc
local
localization
location
loch
locke
lockhart
lockwood
locomotif
locomotifau
lodge
loegr
loerennau
loes
loew
lofruddiaeth
lofruddio
log
logan
loggerheads
login
logo
loi
loir
loire
loiret
lois
lol
lola
lolfa
lom
lombard
lombardi
lon
london
lone
lonely
long
longau
longford
longman
longmans
longo
lonsdale
lonydd
look
looking
loos
lopes
lopez
lord
lords
lore
loren
lorentz
lorentzen
lorenzo
loretta
lori
lorici
loris
lorraine
los
losgi
loss
lost
lot
lothar
lothian
lotte
lotus
lou
louis
louisa
louise
louisiana
louisville
loup
love
loved
lovely
lover
lovers
loves
loving
low
lowe
lowell
lower
lowri
lowry
loy
loyw
lozano
loze
lp
lpa
lpg
ls
lt
ltd
lu
lubin
lubitsch
lubomi
luc
luca
lucas
luce
luci
lucia
luciana
luciano
lucie
lucien
luciffer
lucille
lucio
lucius
luck
lucky
lucy
lude
ludovico
ludwig
lui
luigi
luis
luisa
luise
luiz
luka
lukas
luke
lulli
lumet
lumie
lumpur
lun
luna
lund
lundain
lundy
lunel
lung
luniau
lunio
luniwyd
luoedd
luosog
lusgo
luther
luton
lutz
lux
luz
lvarez
lvaro
lviv
lw
lwc
lwch
lwcsembwrg
lwybr
lwybrau
lwyd
lwyddiannus
lwyddiant
lwyddo
lwyddodd
lwyfan
lwyr
lwyth
lwythau
ly
lyce
lydan
lydaw
lydia
lyfr
lyfrau
lyfrgell
lyga
lygad
lygaid
lygliw
lyle
lyme
lyn
lynch
lyne
lynges
lynn
lynne
lynnoedd
lyon
lyons
lyrics
lys
lysiau
lythyr
lythyrau
lythyren
lywelyn
lywodraeth
lywodraethau
lywodraethol
lywodraethu
lywodraethwr
lywydd
m
ma
maas
mab
mabel
mabinogi
mabinogion
mabon
mabwysiadodd
mabwysiadu
mabwysiadwyd
mac
macarthur
macbeth
macclesfield
macdonald
macedon
macedonia
mach
macha
machado
machen
machgen
machine
machlud
machynlleth
maciej
mack
mackay
mackenzie
maclean
macleod
macmillan
macon
macrae
macromia
macromiidae
macsen
mad
madagascar
madagasgar
madam
madame
madarch
madarchen
made
madeleine
madfallod
madge
madison
madness
madog
madonna
madre
madrid
madryn
mads
madsen
mady
mae
mael
maelgwn
maelor
maen
maenaddwyn
maenan
maenclochog
maenor
maenorby
maenordeifi
maenordeilo
maent
maentwrog
maer
maerdy
maes
maeshafn
maesteg
maestref
maesyfed
maeth
maethiad
maethlon
maffia
mag
maga
magazine
magda
magdalena
magee
magellan
maggi
maggie
maggio
maghreb
magic
magna
magnetig
magnus
magnussen
magu
magwyd
magwyr
mahadevan
mahesh
mahmoud
mai
maid
maiden
maidenhead
maidstone
mail
main
maine
maint
mainwaring
mainz
mair
maison
maith
maitland
maj
maja
majewski
major
mak
make
makerfield
makes
making
makwarth
mal
mala
malaialam
malaialeg
malaria
malawi
malaysia
malcolm
maldives
maldon
maldwyn
male
maleieg
maleisia
mali
malibu
malignant
malik
mall
malley
malling
mallinson
mallorca
malltraeth
mallwyd
malmo
malo
malone
malta
malu
malvern
maly
mam
mama
mamal
mamaliaid
mamau
mamheilad
mamiaith
mammalian
mamwlad
man
manacin
manacinod
manafon
management
manasse
manau
manaw
manaweg
manceinion
manche
manchester
mancini
mancot
mandad
mandarin
mande
mandela
mandy
manfred
manfredi
manga
mangladesh
mangor
mangre
manhattan
mani
manila
mankiewicz
mann
mannau
manning
mannog
mano
manoel
manoj
manolo
manon
manor
manorowen
mansel
mansfield
manson
mantais
manteision
mantell
manu
manual
manuel
manuela
manufacturing
manwl
many
manylion
mao
maori
map
mapiau
mapping
maps
mar
mara
maratheg
marathi
marathon
marburg
marc
marceau
marcel
marcela
marcella
marcelle
marcello
marcelo
march
marchand
marchantiophyta
marche
marchent
marchnad
marchnadoedd
marchnata
marchog
marchogaeth
marchogion
marchwiail
marcia
marciau
marcin
marco
marcos
marcroes
marcus
mare
maredudd
marek
mares
marford
margam
margaret
margarete
margarethe
margarita
marged
margherita
margheriti
margit
margo
margot
marguerite
mari
maria
marian
mariana
marianglas
marianne
mariano
marie
marilyn
marin
marina
marine
marinespecies
marino
mario
marion
marisa
marischka
maritime
maritimes
marius
marjorie
mark
marker
market
markku
marko
markovic
marks
markup
markus
marlborough
marlene
marley
marloes
marlon
marlowe
marmor
marn
marne
marquand
marquis
marriage
married
marros
mars
marsden
marseille
marsh
marshal
marshall
marston
marta
martha
marthe
marti
martial
martin
martina
martine
martinelli
martinez
martini
martinique
martino
martins
martletwy
marton
marty
martyn
marvel
marvell
marvin
marw
marwnad
marwol
marwolaeth
marwolaethau
marx
mary
maryland
mas
masahiro
masi
mask
masnach
masnachol
masnachu
masnachwr
masnachwyr
mason
mass
massachusetts
massacre
massey
massimo
mast
master
masters
mastrocinque
mastroianni
mat
matarazzo
match
matchid
mate
mateo
mater
materion
materol
math
mathaeser
matharn
mathau
mathbf
mathemateg
mathemategol
mathemategydd
mathematical
mathematics
matheson
mathew
mathews
mathias
mathieu
mathilde
mathis
matholwch
mathonwy
mathot
mathri
mathrm
matilda
matilde
matographiques
matrix
mats
matt
mattei
matteo
matter
matthew
matthews
matthias
matti
mattoli
mattsson
mau
maud
maude
maugham
maureen
maurer
maurice
mauricio
maurits
mauritz
maurizio
mauro
maury
mawddach
mawddwy
mawl
mawn
mawr
mawredd
mawreddog
mawrhydi
mawrion
mawrth
max
maxim
maxime
maximilian
maxwell
may
maya
mayenne
mayer
maynard
mayo
mayor
mayotte
mbe
mc
mcbride
mccain
mccall
mccann
mccarey
mccarthy
mccartney
mccoy
mccullough
mcd
mcdaniel
mcdonald
mcdowell
mcfarland
mcgill
mcgowan
mcgrath
mcgraw
mcgregor
mcguire
mckay
mckee
mckenna
mckenzie
mclaglen
mclean
mcleod
mcnamara
mcqueen
mcteigue
mctiernan
md
me
mead
meade
meall
mean
meaning
means
mebyd
mec
mecaneg
mecanyddol
mecca
mechain
mechanism
mecsicanaidd
mecsico
med
medal
medd
medda
meddaf
meddai
meddal
meddalwedd
meddiannu
meddiannwyd
meddiant
meddir
meddu
meddwi
meddwl
meddwn
meddyg
meddygaeth
meddyginiaeth
meddyginiaethau
meddygol
meddygon
meddyliau
meddyliol
medi
media
mediated
medical
medici
medicine
medienpreise
medieval
medina
medr
medrai
medru
medrus
medusa
meek
meet
meeting
meg
megan
megapodagrionidae
megis
megys
mehefin
mehmet
mehta
mei
meibion
meic
meidrim
meifod
meilyr
mein
meinciau
meine
meini
meinir
meinwe
meirch
meiriadog
meirion
meirionnydd
meirionydd
meirw
meisgyn
meistr
meistri
meithrin
mel
melan
melangell
melanie
melanoma
melbourne
melford
melin
melinau
meliphagidae
melissa
mellon
mellt
mellteyrn
melltith
melodrama
melodramatig
melody
melton
melus
melville
melvin
melyd
melyn
melynwyrdd
melys
melysor
melysorion
member
members
membrane
memoirs
memorial
memories
memory
memphis
men
menahem
menai
mendes
mendoza
menna
menon
ment
mental
menter
mentrau
menyn
menyw
menywod
menzel
mer
mercedes
mercer
merch
merchant
merched
mercher
mercia
mercier
mercury
meredith
meredydd
mererid
meri
merian
merino
meritorious
merlin
merlini
merriam
merrill
merry
mers
merswy
merthyr
mervyn
mes
mesenchymal
mesopotamia
message
messina
mesur
mesurau
met
meta
metab
metacritic
metal
metastasis
metel
metelau
methiant
methling
method
methodd
methodist
methodistaidd
methodistiaeth
methodistiaid
methods
methu
methyl
methylation
metr
metro
metrolink
metropoles
metropolis
metropolitan
mette
metz
meudwy
meurig
meurthe
meuse
mewn
mewnfudo
mewnfudwyr
mewnol
mexico
meyer
meyers
meyrick
meysydd
mez
mg
mha
mhalas
mhalesteina
mharc
mharis
mhell
mhellach
mhen
mhencampwriaeth
mhencampwriaethau
mhennal
mhentref
mhlith
mhlwyf
mhob
mhobl
mhorth
mhowys
mhrifysgol
mhrydain
mi
mia
miami
mic
micha
michael
michaela
michal
michał
miche
michel
michelangelo
michele
micheline
michelle
michigan
mick
mickey
micro
microbiology
microsoft
mid
middle
middlesbrough
middlesex
middleton
middletown
midland
midnight
mie
mieczysław
mifflin
mig
migration
miguel
miha
mihangel
miike
mika
mikael
mike
mikhail
miki
mikkel
miklo
mil
mila
milan
milano
mildred
mile
milena
milenia
mileniwm
miles
milestone
milford
milie
military
miliwn
miliynau
milk
mill
milland
millar
millard
milldir
mille
millennium
miller
million
mills
milltir
milly
milner
milo
miloedd
milos
miloslav
milton
milwaukee
milwr
milwrol
milwyr
mimi
mimmo
min
mina
minau
mind
mine
miner
mineral
minerva
minffordd
ming
mini
mining
miniog
minister
ministry
minllyn
minnau
minneapolis
minnelli
minnesota
minnie
mino
minor
minsk
minster
mintai
minute
minutes
mio
mir
mira
miracle
mirage
miramax
miranda
mircea
mireille
mirella
miriam
mirko
miro
miroslav
mirror
mis
mischa
mishra
misoedd
misol
miss
missing
mission
mississippi
missouri
mister
mistral
mit
mitchell
mitchum
mithridates
mitochondrial
mitra
miwl
miwsig
miwsigal
mix
ml
mlaen
mlwydd
mlynedd
mlynyddoedd
mm
mo
moab
mobile
moch
mochdre
mochnant
mochyn
mocky
mod
modd
moddion
mode
model
modelau
models
modelu
modern
modfedd
modot
modrwy
modryb
modur
moe
moel
moelfre
moelwyn
moes
moesau
moeseg
moesol
moesoldeb
moethus
mogens
mohamed
mohammad
mohammed
mohan
mohanlal
mohr
moi
moira
mol
molander
moldofa
mole
moleciwlau
molecular
moliant
molina
molinaro
moll
molly
mom
moment
mon
mona
monaco
monadh
monarchidae
monca
mond
monde
mondo
monet
money
mongolia
monica
monicelli
monika
monique
monk
monkey
monmouth
monmouthshire
monocotaidd
monogram
monroe
mons
monsieur
monster
monsters
mont
montagu
montana
montanari
monte
montenegro
montes
montevideo
montgomery
month
monthly
monti
montre
montreal
montrose
montserrat
montuori
monty
monuments
moody
moon
moor
moore
mor
mora
moral
morales
moran
moray
morbihan
mordaith
more
moreau
morecambe
morel
moreno
moretti
morfa
morfil
morfilod
morfudd
morfydd
morgan
morgannwg
morganwg
morgen
morgrug
morgrugydd
mori
morin
moritz
morley
morning
moroco
moroedd
morol
morra
morricone
morris
morrison
morrissey
morrow
morse
mort
morte
morten
morthwyl
mortimer
morton
morus
morwr
morwrol
morwyn
morwynion
morwyr
morynion
morys
mosambic
moscaw
moscfa
moscow
moselle
moser
moses
mosg
moss
most
mostyn
mot
motacillidae
moth
mother
motilal
motion
motor
mount
mountain
mountains
mounton
mouse
mouth
move
movement
movie
movies
moving
mowbray
mower
mozart
moſes
mp
mr
mrasil
mrawd
mrenhiniaeth
mri
mritish
mrna
mro
mron
mrs
mrwydr
mryniau
mryste
ms
msa
mt
mtv
mu
muallt
much
mud
mudiad
mudiadau
mudo
mudol
mueller
muerte
muhammad
muir
mujer
mukherjee
mul
mulfrain
mulfran
muller
multiple
mumbai
mun
munch
mundo
munich
munnicipality
munro
munros
munud
mur
muradov
murali
murat
murder
murders
murdo
muriau
muriel
murphy
murray
mursen
mursennod
musa
muscicapidae
muscle
muse
museum
music
musical
muslim
mussolini
musson
must
mustafa
mutation
mutations
mutiny
mw
mwg
mwlgaria
mwmbwls
mwnci
mwnt
mwrdeisdref
mwrdeistref
mwslemiaid
mwslimaidd
mwslimiaid
mwy
mwya
mwyach
mwyaf
mwyafrif
mwyn
mwynau
mwynglawdd
mwyngloddio
mwynhad
mwynhau
my
myanmar
mycorhisa
myd
myddfai
myddin
myeloid
myers
myfanwy
myfi
myfyr
myfyrdod
myfyrio
myfyriwr
myfyrwyr
mygydog
mykes
myles
myn
mynach
mynachlog
mynachlogydd
mynachod
mynd
myned
mynedfa
mynediad
mynegai
mynegi
mynegiannol
mynegiant
mynegodd
mynegol
mynnai
mynnodd
mynnu
mynwent
mynwes
mynwy
mynych
mynychodd
mynychu
mynydd
mynydda
mynyddig
mynyddoedd
mynyddog
mynytho
myrdd
myrddin
myriam
mysg
mysore
myspace
mystery
myth
mytholeg
mytholegol
mywyd
møller
n
na
nabod
nac
nach
nacho
nacht
nacional
nad
nada
naddo
naddu
nadia
nadine
nadolig
nadoligaidd
nadroedd
nag
nage
nageswara
nagy
nai
naid
naill
nain
nair
nakamura
naked
nam
name
named
names
namibia
namyn
nan
nana
nancy
nando
nanhyfer
nanmor
nannau
nannerch
nanni
nant
nanternis
nantgaredig
nantgarw
nantglyn
nantlle
nantmel
nantmor
nantwich
naomi
naoned
napier
napoleon
napoli
narasimha
naratif
narayana
nas
nasa
nasareth
nash
nassau
nat
natale
natalia
natalie
natasha
natblygiad
nate
nathalie
nathan
nathaniel
nation
national
nationalbibliothek
nationale
nationales
nationalfedcodes
nations
native
natl
nato
natsi
natur
natural
nature
naturiaethwr
naturiaethwyr
naturiol
nau
navarre
navarro
navra
navy
naw
nawdd
nawddsant
nawfed
nawr
naws
nazarro
nazim
nazionale
nb
nbc
nc
ncbi
nchen
nchez
nd
nder
ndez
ndl
ndor
ne
neal
near
neb
nebo
nebraska
nechrau
nechreu
neck
nectarinidae
ned
nedd
nederland
need
needham
needs
nef
nefoedd
nefol
nefyn
negatif
negative
neges
negeseuon
negesydd
negro
negyddol
neidio
neidiodd
neidr
neifion
neil
neilan
neill
neillduol
neilltu
neilltuo
neilltuol
neithdar
neithiwr
nek
nel
nell
nella
nello
nelly
nelson
nemawr
nen
nenfwd
nenmarc
nennius
nentydd
neo
neolithig
nepal
nepaleg
nepell
ner
nercwys
nerf
nerfau
nerfol
neri
nero
nerth
nerthol
nes
nesa
nesaf
ness
nest
nestor
net
netflix
network
neu
neuadd
neuaddau
neubwll
neud
neue
neufeld
neuilly
neumann
neurol
nevada
never
neville
new
newark
newbridge
newbury
newcastle
newell
newfield
newfoundland
newid
newidiadau
newidiodd
newidiwyd
newidyn
newman
newmeyer
newnham
newport
news
newspapers
newton
newydd
newyddiadur
newyddiaduraeth
newyddiaduron
newyddiadurwr
newyddiadurwraig
newyddiadurwyr
newyddion
newyn
next
ney
neyland
neyt
nez
nf
nfl
ng
nga
ngc
nge
ngeiriadur
ngeiriau
ngel
ngela
ngemau
ngenau
nghaer
nghaerdydd
nghaeredin
nghaerfyrddin
nghaergrawnt
nghaernarfon
nghaint
nghalendr
nghalon
nghanada
nghanol
nghanolbarth
nghanolfan
nghantref
nghapel
ngharchar
nghariad
nghartref
nghasgliad
nghasnewydd
nghastell
nghefn
ngheredigion
nghernyw
nghinmeirch
ngholeg
nghornwy
nghorris
nghrist
nghwm
nghwmni
nghwpan
nghyd
nghyda
nghyfaill
nghyfarfod
nghyfnod
nghyfraith
nghyfres
nghyfrifiad
nghylch
nghylchred
nghymdeithasfa
nghymru
nghymuned
nghynghrair
nghynhadledd
nghysgod
nghystadleuaeth
nglyn
ngofal
ngogledd
ngolwg
ngorffennaf
ngorllewin
ngs
nguyen
ngw
ngwaelod
ngwaith
ngwanwyn
ngwas
ngwasanaeth
ngweddill
ngweriniaeth
ngwlad
ngwledydd
ngwleidyddiaeth
ngwobrau
ngwyneb
ngwynedd
ngwynfa
nh
nhachwedd
nhad
nhadau
nhalaith
nhermau
nheulu
nheyrnas
nhi
nhir
nhraddodiad
nhraed
nhref
nhrefn
nhs
nhw
nhwrci
nhy
nhymor
nhywyn
ni
nia
niagara
nibelungen
nic
nica
nice
nicholas
nicholaston
nicholls
nichols
nicholson
nicht
nick
nicky
niclas
nico
nicola
nicolae
nicolai
nicolas
nicole
nicolson
nid
nie
niels
nielsen
nier
nieto
nifer
niferoedd
niferus
nifwl
nig
nigel
niger
nigeria
nigh
night
nightmare
nights
nih
nihon
niki
nikita
nikki
niko
nikola
nikolai
nikolaj
nikolay
nikos
nils
nilsson
nin
nina
ninas
ninau
ninbych
ninchi
nine
nineteenth
ning
nini
ninja
ninnau
nino
nio
niort
niro
nis
nissen
nith
nitrogen
niven
niwbwrch
niwclear
niwed
niwedd
niweidio
niweidiol
niwgwl
niwl
niwmonia
niwrnod
niwtral
niwylliant
nixon
nj
nkc
nkova
nkp
nl
nlm
nm
nmhh
nn
no
noa
noah
nobel
noble
nobody
noche
nod
noda
nodau
noddfa
noddi
noddwr
noddwyr
noddy
nodedig
noder
nodi
nodiadau
nodiant
nodigedig
nodir
nododd
nodwedd
nodweddiadol
nodweddion
nodweddir
nodweddu
nodwyd
nodwydd
nodyn
noe
noel
noeth
nofel
nofelau
nofelydd
nofio
noir
nol
nolan
nolgellau
nolton
noma
nomination
nominations
non
nonguet
nor
nora
norbert
nord
nordig
nordisk
norfolk
norm
norma
normal
norman
normanaidd
normandi
normaniaid
normdatei
norris
norsk
north
northampton
northern
northumberland
northumbria
northwestern
norton
norwich
norwood
norwy
norwyaidd
norwyeg
nos
noson
nososticta
noswaith
nosweithiau
not
notais
note
notes
nothing
notice
notre
notte
nottingham
nous
nouvelle
nov
nova
novak
novel
novello
november
novo
novotny
now
nr
ns
nsky
nster
nt
nter
nther
nu
nuclear
nucleic
nucleotide
nugent
nuit
null
nulyn
number
numbers
nun
nuneaton
nunzio
nur
nuttall
nuw
nuys
nw
nwerthu
nwy
nwyddau
nwylo
nwyon
nwyrain
ny
nydd
nyddiau
nyffryn
nyfnaint
nyi
nyilvantartasa
nyni
nyrs
nyrsio
nyt
nyth
nythu
nytimes
nz
nzel
o
oak
oakeley
oakland
oaks
ob
obaith
obama
obe
obeithio
obituaries
obituary
object
oblast
oblegid
oblegyd
observer
oc
ocean
oceania
och
ochor
ochr
ochrau
oclc
ocsigen
oct
october
od
odan
odd
oddef
oddeutu
oddi
oddiamgylch
oddiar
oddieithr
oddigerth
oddiwrth
oddiwrtho
oddiyma
oddiyno
ode
oder
odessa
odette
odfa
odid
odl
odlau
odnb
odonata
odoratus
odre
odyn
odyssey
oed
oedd
oeddem
oeddent
oeddid
oeddwn
oeddym
oeddyn
oeddynt
oedfa
oedi
oedolion
oedolyn
oedran
oen
oer
oerfel
oeri
oes
oesau
oesoedd
of
ofal
ofalu
ofalus
ofdb
ofer
oferedd
off
offa
offeiriad
offeiriaid
offer
offeren
offeryn
offerynau
offerynnau
office
officer
offices
official
officier
offrwm
offrymau
ofid
ofn
ofna
ofnadwy
ofnai
ofnau
ofni
ofnus
ofod
ofyn
ofynnodd
ofynnol
og
ogam
ogden
ogledd
ogleddol
ogof
ogofa
ogoniant
ogwen
ogwr
ogystal
oh
ohebydd
oherwydd
ohio
ohne
ohoni
ohono
ohonoch
ohonom
ohonot
ohonyn
ohonynh
ohonynt
oi
oil
ois
oise
ok
oklahoma
ol
ola
olaf
olau
olav
olchi
olcott
old
oldham
oldr
ole
oleg
olen
olesen
oleu
oleuni
oleuo
olew
olewydd
olga
olin
olion
olive
oliveira
oliver
olivera
olivia
olivier
oll
ollwng
olmi
olof
olrhain
olsen
olsson
olwen
olwg
olwyn
olwynion
olygfa
olygfeydd
olygiaeth
olygu
olygydd
olympaidd
olympia
olympic
olympics
olyniaeth
olynodd
olynol
olynu
olynwyd
olynydd
om
omaha
oman
omar
omega
on
once
oncogene
oncol
oncotarget
ond
ondr
one
onepage
ones
onest
ongl
onglau
oni
onid
onide
online
onllwyn
only
onnen
ontario
ony
op
open
opera
operatig
operation
operatorname
ophu
opinion
or
ora
oral
orange
orau
orchestra
orchfygu
orchmynion
orchmynnodd
orchuddio
orchwyl
orchymyn
ordeinio
ordeiniwyd
orden
order
orders
ordnance
ordnans
ordre
oregon
oren
oresgyn
oreste
oreu
orffen
orffenedig
orffennaf
orffwys
orfod
orfodi
orfodol
org
organ
organau
organeb
organebau
organig
organisation
organization
organydd
orgraff
orhan
ori
oriau
oriel
orient
oriental
orientales
origin
original
origins
orion
orlando
orleans
orllewin
orllewinol
orme
ormod
orne
ornella
ornest
oro
oroesi
orphen
orr
orsaf
orsafoedd
orsay
orsedd
orseddfainc
orson
ortega
ortiz
ortolani
oruchwyliaeth
orwedd
orymdaith
os
osaka
osborne
oscar
oscars
osgo
osgoi
osian
oskar
oslo
osman
osod
osododd
osodwyd
osszes
osten
ostwng
osvaldo
oswald
ota
otakar
otello
otero
other
others
otho
otis
otomanaidd
otomaniaid
otomatig
ots
ottawa
otto
ottoman
ou
oup
our
ours
out
outside
outstanding
ov
ova
ovarian
ove
over
overexpression
overview
ow
owain
owen
owens
owl
own
owrtyn
oxford
oxforddnb
oxwich
oz
ozores
p
pa
pab
pabell
pablo
pac
pacific
pacistan
paco
padarn
paddington
paddy
padma
padova
padre
padrig
paen
paent
paentio
paffiwr
pafiliwn
paganaidd
page
pages
paget
paham
pai
paid
paill
pain
painter
painting
pair
pais
paith
pakistan
pal
pala
palace
palacios
palaemnema
palaeos
palakollu
palas
pale
palermi
palermo
palesteina
palesteinaidd
palesteiniaid
palestina
palestine
palestinian
palgrave
pali
palin
palisades
palm
palma
palme
palmer
palmwydd
palo
pam
pamela
pamffled
pan
panama
pancreatic
pandemig
pandy
panel
pang
pankhurst
pant
panther
pantycelyn
pantyffynnon
paola
paolella
paolo
papa
paper
papers
papua
papur
papurau
papwa
par
para
parade
paradis
paradise
paradwys
paragwa
paralympaidd
parameter
paramount
parasite
paratoi
parau
parc
parch
parchedig
parchn
parchu
parchus
parciau
parcio
parddu
pare
parent
parenti
parhad
parhaodd
parhaol
parhau
parhaus
paris
parish
park
parker
parkinson
parks
parliament
parliamentary
parlwr
parma
parnell
parod
parodd
parodi
parodio
parot
parotiaid
parra
parri
parrish
parrog
parrot
parry
parsons
part
partement
partements
parth
parthau
parthed
parthia
parti
parties
partner
partneriaeth
partners
parts
party
paruliadae
parys
pas
pasadena
pascal
pascale
pascual
pasg
pasio
pasiodd
pasiwyd
paso
pasolini
pasquale
pass
passage
passer
passeriformes
passion
past
pastard
pastor
pastore
pastrone
pastwn
pat
patagonia
patanjali
patel
patent
paterson
path
pathe
pathol
pathway
patient
patients
paton
patriarch
patrice
patricia
patricio
patrick
patrwm
patrymau
patsy
patterson
patti
patton
pau
paul
paula
paulette
pauli
pauline
paulo
paulsen
paulson
pavel
pavement
pavese
pavilion
pavli
pawb
paweł
pawl
paxton
pay
payne
pays
paz
pazzafini
pbs
pc
pdf
pdfir
pe
peace
peak
peakbagger
pearce
pearl
pearson
pebyll
pechadur
pechod
pechodau
peck
pecyn
pedair
pedersen
pedol
pedr
pedro
pedryn
pedrynnod
pedwar
pedwarawd
pedwerydd
peebles
peel
peer
peerage
peggy
pegwn
peidio
peidiwch
peilot
peintio
peintiwr
peiriannau
peirianneg
peiriannydd
peiriant
pekka
pel
peli
pelicula
peliculas
pell
pellach
pellaf
pellegrini
pellter
pelydr
pelydrau
pembroke
pembrokeshire
pen
penaeth
penaethiaid
penaf
penalun
penarla
penarth
penau
penbedw
penbryn
pencader
pencadlys
pencampwr
pencampwriaeth
pencampwriaethau
pencampwyr
pencarnisiog
pencarreg
pencelli
pencerdd
pencraig
pendant
penddu
pendefig
pendefigion
penderfyniad
penderfyniadau
penderfynodd
penderfynu
penderfynwyd
penderyn
pendeulwyn
pendleton
pendyrus
penegoes
penelope
penfro
pengam
pengefnffordd
pengelli
pengoch
pengorffwysfa
penguin
peniarth
peniel
penillion
peninsula
penllwyd
penllyn
penmachno
penmaen
penmaenmawr
penmorfa
penmynydd
penn
pennaeth
pennaf
pennal
pennant
pennard
pennau
pennill
pennod
pennon
pennsylvania
pennu
penny
penod
penodau
penodedig
penodi
penododd
penodol
penodwyd
penparc
penrherber
penrhiw
penrhiwllan
penrhos
penrhosgarnedd
penrhyn
penrhyndeudraeth
penrhys
penri
penrith
pensaer
pensaerni
pensarn
pentan
pentir
pentraeth
pentre
pentrecagal
pentrecelyn
pentrecwrt
pentredw
pentref
pentrefan
pentrefelin
pentrefi
pentrefoelas
pentrefol
pentreuchaf
pentywyn
penuwch
penwyn
penybont
penyparc
penysarn
people
peoples
pepe
pepper
peppino
per
peraidd
perchen
perchennog
perchnogion
percival
percy
peredur
pereira
pererin
perez
perfect
perffaith
perfformiad
perfformiadau
perfformio
perfformiodd
perfformiwyd
performance
peri
period
peris
periw
perkins
pero
perret
perrin
perry
perseg
persia
persiaid
person
personal
personality
personau
personol
personoliaeth
persoon
perspective
perspectives
persson
perswadio
perth
perthnasau
perthnasol
perthyn
perthynai
perthynas
perthynol
perwyl
perygl
peryglon
peryglus
pes
petai
petal
petalau
petar
pete
peter
peterborough
peters
petersburg
petersen
peterson
peth
pethau
petit
petr
petra
petri
petrie
petrisen
petter
pez
pfeiffer
pg
ph
pha
phalke
phan
phane
phantom
pharao
pharaoh
pharch
pharhad
pharhaodd
pharo
phaseolus
phasianidae
phawb
phd
phe
phedair
phedwar
pheidio
phelps
phen
phencadlys
phenderfynodd
phennaeth
phenodwyd
phenotype
phensaerniaeth
phentref
phentrefi
pherfformiad
pherfformiadau
pherfformio
pheri
pherthynas
pheth
phethau
phiano
phil
philadelphia
philip
philipinau
philipp
philippe
philipps
philips
philistiaid
phillip
phillips
philo
philosophical
philosophy
phlaid
phlanhigion
phlant
phlentyn
phlwyf
phob
phobl
phoblogaeth
phoblogaidd
phoebe
phoenix
pholisi
phont
phorthladd
phosphatase
phosphorylation
photo
photographers
phowys
php
phregethu
phrif
phrifddinas
phrifysgol
phriodas
phriodi
phriododd
phroblemau
phrofiad
phryd
phrydain
phsrc
phstart
phum
phump
phwrpas
phwy
phwynt
phwysig
phylip
phyllis
physical
physics
physiol
pi
pia
piano
pianydd
pibellau
pibydd
pibyddion
pica
picasso
piccadilly
piccioni
piccoli
picellwyr
picidae
piciformes
pick
pickens
pickering
pickford
pictiaid
picton
picture
pictures
pid
pidyn
pie
piel
pier
pierce
piero
pierre
pierson
pieter
pietro
pig
pigeon
pigfain
pigog
pigwr
pigwyr
pike
pila
pilalau
pilaon
pilar
piler
pilot
pim
pin
pina
pinc
pincod
pine
pinewood
ping
pinged
pink
pino
pinto
pinwydd
pinyin
pio
pioneer
piotr
piovani
piper
pippo
pipton
pirates
pis
pisa
pistyll
pisum
pit
pita
pitaod
pitt
pitts
pittsburgh
piu
piws
pl
pla
plac
place
places
placido
plaen
plaid
plain
plains
plan
planed
planedau
planet
planhigion
planhigyn
plannu
plans
plant
plants
plas
plasdy
plasma
plastic
plastig
plasty
plata
platfform
platiau
platon
platt
platte
platycnemididae
platystictidae
play
player
players
playhouse
playing
plays
playstation
plaza
plc
ple
pleasant
please
pleasure
pleidiau
pleidlais
pleidleisiau
pleidleisio
pleidleisiodd
plentyn
plentyndod
pleser
plith
ploceidae
plos
plot
plu
plummer
plus
plwm
plwmp
plwy
plwyf
plwyfi
plxmqdd
plygain
plygu
plymouth
pm
pmc
pmcentrez
pmid
pnas
po
poaceae
pob
pobl
pobloedd
poblog
poblogaeth
poblogaethau
poblogaidd
poblogrwydd
pobol
pobty
poced
pocket
poe
poems
poen
poeni
poet
poeth
poetry
poets
pohl
point
points
poirier
poke
pol
pola
poland
pole
poli
police
policy
polis
polish
polisi
political
politics
polito
polk
pollack
pollak
pollard
pollock
polly
polo
polonia
polygon
polymerase
polymorphism
polymorphisms
polytechnig
pompeius
ponciau
pons
pont
pontaman
pontantwn
pontardawe
pontarddulais
pontarfynach
pontblyddyn
ponterwyd
pontfadlen
pontfadog
pontfaen
pontgarreg
ponti
pontio
pontllyfni
pontneddfechan
pontrhydfendigaid
pontrhydybont
pontrhydygroes
pontrobert
pontsenni
pontyberem
pontydd
pontypridd
pool
poole
poor
pop
poparh
pope
popeth
popular
population
populations
por
porffor
pori
port
porta
portaal
portal
porter
porth
porthaethwy
porthcawl
porthladd
porthllechog
porthmadog
portiwgal
portiwgaleg
portland
portman
portmeirion
porto
portrait
portread
portreadau
portreadu
portsmouth
portugal
pose
posib
posibilrwydd
posibl
positif
positive
possible
post
pot
potel
potensial
potential
potsdam
potter
poul
poulsen
pound
pour
powdr
powdwr
powell
power
powers
powys
pp
ppp
pr
pra
practice
prada
pradesh
prado
praemium
praemiumimperiale
prag
praidd
prairie
praise
prakash
prasad
pratt
prawf
prayer
pre
preben
preblyn
preblynnod
predicts
predrag
pregeth
pregethai
pregethau
pregethodd
pregethu
pregethwr
pregethwyr
preifat
preis
preiss
prem
premier
premiere
premierfilmek
preminger
premio
pren
prenteg
pres
preseli
presennol
presenol
presenoldeb
present
presenting
preservation
presidency
president
presidential
presley
press
pressburger
prestatyn
preston
preswyl
preswyliai
preswylio
preswylwyr
pretty
pri
price
prichard
pridd
pride
prif
prifardd
prifathro
prifddinas
priffordd
prifysgol
prifysgolion
prima
primary
prime
primetime
primo
prin
prince
princes
princess
princeton
principality
principles
prinder
prinia
print
priod
priodas
priodasau
priodi
priododd
priodol
priodoli
priodolir
priodweddau
prion
prior
priordy
pris
priscilla
prisiau
prison
prisoner
pritchard
private
prix
priyadarshan
prize
prizes
pro
problem
problemau
problems
proc
proceedings
procellariidae
producers
product
production
productions
professor
proffesiynol
proffil
proffwyd
proffwydi
profi
profiad
profiadau
profiadol
profile
profiles
profion
profodd
prognosis
prognostic
progomphus
program
programme
programs
progress
progression
project
proliferation
proll
promoter
promotes
propaganda
properties
proses
prosesau
prosesu
prosiect
prosiectau
prospects
prostate
protection
protein
proteins
protest
protestannaidd
protestiadau
protestio
protestwyr
proto
protocol
protoneuridae
provence
providence
province
pru
prudd
prwsia
pry
pryce
pryd
prydain
prydein
prydeinig
prydeinwyr
pryder
pryderi
pryderon
prydferth
prydferthwch
prydnawn
prydydd
pryf
pryfaid
pryfed
prynhawn
prynodd
prynu
prynwyd
pryor
prys
pryse
prysgoed
prysor
prysur
ps
pseudagrion
psittacidae
psittaciformes
psychiatry
psycho
psychology
pt
ptolemi
ptolemy
pu
pub
pubchem
public
publication
publications
published
publisher
publishers
publishing
publius
pubmed
pubmedcentral
puccini
pucciniaceae
puente
puerto
puget
pugh
pughe
puglia
pulaski
pulitzer
pulpit
pulpud
pum
pumed
pumlumon
pump
pumsaint
punch
punjab
punjabi
punk
punt
pupi
pur
purcell
pure
puri
purple
pursuit
put
putin
putnam
putney
puw
puy
pw
pwdin
pwerau
pwerus
pwll
pwllgloyw
pwllgwyngyll
pwllheli
pwllmeurig
pwnc
pwrpas
pwrpasol
pwtyn
pwy
pwyl
pwylaidd
pwyleg
pwyll
pwyllgor
pwynt
pwyntiau
pwys
pwysau
pwysedd
pwysicaf
pwysig
pwysigrwydd
pwyslais
pwysleisio
pwyso
py
pyarelal
pycnonotidae
pydew
pyllau
pymtheg
pync
pynciau
pyotr
pyramid
pyre
pyrth
pys
pysgod
pysgodyn
pysgota
pysgotwr
pysgotwyr
pythefnos
q
qatar
qc
qi
qqspaqaaiaaj
qu
quaid
quarry
quarterly
que
quebec
queen
queens
queensferry
queensland
queer
quentin
quest
question
questions
qui
quickfacts
quiet
quincy
quinn
r
ra
rab
rabal
rabbi
rabbit
rabenalt
rac
race
rachael
rachel
rachid
rachub
racing
rad
rada
radcliffe
radd
raddau
raddfa
raddio
raddol
rade
radical
radicalaidd
radio
radiws
radu
rae
raf
rafael
raff
raffaele
raffaello
rag
ragfyr
raghavendra
raglaw
raglen
raglenni
ragnar
ragor
ragorol
rahel
rahman
rahul
rai
raid
raiders
rail
railway
railways
raimondo
rain
rainbow
rainer
rainham
raj
raja
rajendra
rajesh
rajkumar
raju
ral
raleigh
ralf
rali
rallidae
ralph
ram
rama
ramadeg
ramakrishna
ramant
ramantus
ramesh
rami
ramiz
ramo
ramon
ramos
ramsay
ramsey
ran
ranau
ranbarth
ranbarthau
ranbarthol
rancho
randall
randolph
random
randy
range
rangers
rank
rankin
rannau
rannu
rao
raoul
rap
raphae
raphael
rapids
rard
rare
ras
rashid
rasio
rasmus
rasmussen
raspberry
rasys
rat
rathbone
ratio
ration
rau
rault
raven
ravi
raw
rawlins
rawson
ray
raymond
razzies
rbiger
rd
rdoba
re
read
reader
reading
ready
reagan
real
realaeth
realgm
realiti
reality
really
rear
reason
rebecca
rebel
rec
recent
receptor
rechercheconsultation
recipients
recognition
record
recordiad
recordiadau
recordiau
recordio
recordiodd
recordiwyd
records
recriwtio
red
redberth
reddy
redeg
redgrave
redistricting
redodd
redruth
reed
reenberg
rees
reeve
reeves
ref
refeniw
reference
references
refferendwm
refig
refn
reg
reggie
regina
reginald
region
regional
regis
regist
register
registry
regulated
regulates
regulation
regulator
regulatory
regum
rei
reich
reicher
reid
reidio
reidiwr
reidrwydd
reidwyr
reigate
reilffordd
reilffyrdd
reilly
reine
reiner
reinhard
reinhardt
reinhold
reinl
reis
reisner
reit
reithgor
relangi
related
relations
relationship
release
releaseinfo
releases
releasing
religion
religions
religious
remains
remarks
remember
remo
ren
rena
renaissance
renal
renard
renata
renate
renato
renaud
rene
reno
renoir
rent
renzo
reolaeth
reolaidd
reolau
reoli
reolir
reolwr
rep
repair
repertoire
report
reporter
reports
representation
republic
republiky
requiem
required
requires
rer
res
research
reservoir
resistance
resog
resolution
resource
resources
response
rest
restituta
restr
restru
results
reswm
resymau
ret
retrieved
return
returns
reuben
reuters
rev
revealed
reveals
revenge
review
reviews
revised
revisited
revolution
rew
rex
rey
reyes
reykjavi
reynalton
reynolds
reynoldston
rez
reza
rg
rgen
rgens
rgio
rgy
rh
rhad
rhaeadr
rhaff
rhag
rhagair
rhagbrofol
rhagddo
rhagdybiaeth
rhagfarn
rhagflaenydd
rhagfyr
rhaglan
rhaglaw
rhaglen
rhaglenni
rhagluniaeth
rhagor
rhagori
rhagorol
rhagrith
rhagweld
rhagymadrodd
rhai
rhaid
rhain
rhamant
rhamantaidd
rhamantus
rhan
rhanau
rhanbarth
rhanbarthau
rhanbarthol
rhandir
rhaniad
rhannau
rhannodd
rhannol
rhannu
rhannwyd
rhea
rhed
rhedai
rhedeg
rhediad
rhedodd
rhedwr
rhedyn
rheged
rhegen
rhegennod
rheidol
rheilffordd
rheilffyrdd
rhein
rheini
rheiny
rheithor
rheng
rhennir
rhent
rheol
rheolaeth
rheolaidd
rheolau
rheoleiddio
rheoli
rheoliadau
rheolir
rheolodd
rheolwr
rheolwyr
rhes
rhesi
rhesog
rhestr
rhestrau
rhestredig
rhestri
rhestrir
rhestru
rheswm
rhesymau
rhesymeg
rhesymegol
rhesymol
rhew
rhewi
rhewl
rhewlif
rhian
rhiannon
rhianon
rhieni
rhif
rhifau
rhifedi
rhifo
rhifyddeg
rhifyn
rhigos
rhin
rhine
rhinocypha
rhinwedd
rhinweddau
rhinweddol
rhionaeschna
rhisga
rhisgl
rhisiart
rhisierdyn
rhith
rhiw
rhiwabon
rhiwlas
rho
rhod
rhodd
rhoddaf
rhoddai
rhoddais
rhoddes
rhoddi
rhoddid
rhoddion
rhoddir
rhoddodd
rhoddwch
rhoddwyd
rhode
rhodes
rhodesia
rhodfa
rhodio
rhodri
rhoes
rhoi
rhondda
rhos
rhosaman
rhoscolyn
rhoscrowdder
rhosesmor
rhosfarced
rhosgadfan
rhoshirwaun
rhosili
rhoslan
rhoslefain
rhosllannerchrugog
rhosmeirch
rhosneigr
rhostrehwfa
rhostryfan
rhostyllen
rhosybol
rhosydd
rhosymedre
rhosyn
rhosynnau
rhowch
rhtfel
rhuallt
rhuban
rhuddlan
rhufain
rhufeiniaid
rhufeinig
rhugl
rhun
rhuthro
rhuthrodd
rhuthun
rhwd
rhwng
rhws
rhwyd
rhwydd
rhwydwaith
rhwyfo
rhwyg
rhwygo
rhwym
rhwymo
rhwystr
rhwystrau
rhwystro
rhy
rhybudd
rhybuddio
rhychau
rhyd
rhydaman
rhydargaeau
rhydau
rhydcymerau
rhydd
rhydderch
rhyddfrydol
rhyddfrydwr
rhyddfrydwyr
rhyddhad
rhyddhaodd
rhyddhau
rhyddhawyd
rhyddiaith
rhyddid
rhyddion
rhydieithon
rhydlewis
rhydowen
rhyduchaf
rhydweli
rhydwyn
rhydychain
rhydychen
rhydyclafdy
rhydyfelin
rhydymain
rhydypennau
rhyfedd
rhyfeddod
rhyfeddodau
rhyfeddol
rhyfel
rhyfela
rhyfeloedd
rhyfelwr
rhyfelwyr
rhyl
rhymni
rhyng
rhyngddi
rhyngddo
rhyngddynt
rhyngom
rhyngrwyd
rhyngweithio
rhyngwladol
rhys
rhythm
rhyw
rhywbeth
rhywbryd
rhywdro
rhywedd
rhywfaint
rhywiol
rhywioldeb
rhywle
rhywogaeth
rhywogaethau
rhywun
ri
ria
ribble
ribero
ric
rica
ricardo
riccardo
ricci
rice
rich
richard
richards
richardson
richland
richmond
richter
rick
ricky
rico
ride
rider
riders
ridge
ridgwell
riding
ridley
rie
riemann
rieni
rier
rieur
rieure
rif
rifau
rifyn
riga
rigaud
righelli
right
rights
rik
riley
rin
rina
rinaldi
ring
rings
rinwedd
rio
rioed
rip
ripley
ris
rise
risg
risi
rising
risk
rita
ritchie
rite
ritter
riva
river
rivera
rivero
rivers
riverside
rivie
riz
rizzo
rje
rk
rkd
rkdartists
rko
rn
rna
rnberg
ro
roach
road
roald
roazhon
rob
robat
robbie
robbins
robert
roberta
roberto
roberts
robertson
robin
robinod
robinson
robot
robson
robyn
roc
rocco
roced
rocha
rochdale
roche
rochefort
rochelle
rochester
rochestervoices
rock
rocks
rockwell
rocky
rod
rodd
roddaf
roddai
roddais
roddes
roddi
roddid
roddion
roddir
roddodd
roddwyd
roddy
rode
roderick
rodfa
rodgers
rodio
rodney
rodni
rodolfo
rodri
rodrigo
rodriguez
roe
roedd
roedden
roeddent
roeddwn
roeddynt
roeg
roegaidd
roemheld
roes
rogell
roger
rogers
rogiet
rohmer
roi
rois
rojo
rol
roland
rolant
rolau
role
roles
rolf
rolfe
roll
rollin
rolling
roly
rom
roma
romain
roman
romana
romance
romania
romano
romantic
rome
romeo
romero
romney
romsey
romy
ron
ronald
ronique
ronnie
room
rooney
roos
roosevelt
root
roots
roque
roquevert
rory
ros
rosa
rosaceae
rosalind
rosanna
rosario
roscoe
rose
rosemary
rosen
rosenberg
rosenthal
roses
rosi
rosie
rosita
ross
rossellini
rossi
rossini
rosso
rosson
rota
roth
rotherham
rothwell
rotten
rottentomatoes
rotterdam
rouen
rouge
rough
round
rourke
rousseau
roussel
route
routledge
roux
rover
rovere
rovers
row
rowan
rowe
rowen
rowland
rowlands
rowley
rowling
rownd
rowndiau
roy
royal
royton
rozier
rquez
rrez
rs
rsamling
rsfsr
rshavn
rspb
rss
rsssf
rt
rta
rte
rtner
rttemberg
ru
rube
ruben
rubin
rubini
rubio
rublan
ruby
rudbaxton
rudd
rudolf
rudolph
rudy
rue
rufain
rufeinig
ruffini
rufous
rufus
rug
rugby
ruggero
ruggles
ruislip
ruiz
rule
rules
rum
run
rune
runner
running
rupert
rural
rus
rush
russ
russell
russia
russian
russo
russulaceae
russulales
rust
rustichelli
ruth
rutherford
rutland
rw
rwan
rwanda
rwber
rwbio
rwmaneg
rwmania
rwseg
rwsia
rwsiaid
rwsiaidd
rwsieg
rwy
rwydd
rwydwaith
rwyf
rwymo
rwystro
rwyt
ry
ryan
rybuddio
rydau
rydd
ryddfrydol
ryddhau
ryddhawyd
ryddiaith
ryddid
ryder
rydw
rydych
rydychen
rydym
rye
ryfedd
ryfeddodau
ryfeddol
ryfel
ryfela
ryfeloedd
rygbi
rym
rymus
ryngwladol
rysa
ryseitiau
ryszard
ryu
ryw
rywbeth
rywbryd
rywfaint
rywiol
rywle
rywogaeth
rywogaethau
rywun
s
sa
sabbath
sabboth
sabbothol
sabine
saboth
sabrina
sac
sach
sacha
sachs
sacramento
sacred
sacsonaidd
sacsoniaid
sad
saddle
sadie
sadwrn
saer
saesneg
saesnes
saesnig
saeson
saeth
saethau
saethodd
saethu
saethwyd
safai
safbwynt
safbwyntiau
safe
safety
saffron
safle
safleoedd
safn
safodd
safon
safonau
safoni
safonol
safonwyd
saga
sage
sahara
sai
said
saif
sail
sain
saint
sainte
saints
sainwales
sais
saith
sal
sala
salaberry
salce
salcedo
sale
salem
salerno
sales
salesbury
salford
salim
salinas
salisbury
salkow
salle
sally
salm
salmau
salmon
salmond
salome
salon
salt
salter
saltney
salusbury
salvador
salvatore
salvo
salwch
salzburg
sam
samantha
samaria
same
sami
sammy
samoa
sampl
sample
sampson
samson
samuel
san
sana
sancho
sancle
sanctaidd
sancteiddrwydd
sand
sandberg
sande
sanders
sandler
sandra
sandrine
sandro
sands
sandwich
sandy
sanford
sang
sanjay
sans
sansgrit
sant
santa
santell
santes
santiago
santis
santley
santo
santos
sao
sapiens
sapienza
saproffytig
sar
sara
saraceni
sarah
sarajevo
sarde
sardinia
sarff
sargent
sarhad
sarn
sarnau
saron
sarthe
sasha
satan
satellite
sativum
sato
saturday
saturn
saudi
saul
saunders
saundersfoot
saura
savage
save
saved
saville
savina
saving
savoie
saw
sawdi
sawdl
sawl
saws
sawtell
sawyer
saxon
say
says
sbaen
sbaenaidd
sbaeneg
sbaenwyr
sbageti
sbarduno
sbectol
sbectrwm
sbeiral
sbeit
sberm
sblatro
sborau
sbrint
sbwriel
sc
scala
scandal
scar
scarborough
scarecrow
scarlet
scha
schaffner
schamyl
schenstrøm
schertzinger
schiller
schlesinger
schmid
schmidt
schnedler
schneider
scho
schoedsack
school
schools
schorr
schrader
schreiber
schro
schroeder
schrøder
schu
schubert
schultz
schulz
schumacher
schumann
schuster
schwartz
schwarz
schønberg
sci
science
sciences
scientific
scipio
scleddau
scola
scolopacidae
scorsese
scotia
scotland
scots
scott
scotti
scottish
scratch
scream
screen
screenwriter
script
scripts
se
sea
sealand
sean
search
searchers
searchwithinvolume
searle
sears
season
seat
seaton
seattle
sebastia
sebastian
sebon
sec
seciwlar
second
secondary
secret
secretary
secrets
sect
section
sector
security
sedd
seddau
seddi
sedgwick
see
seen
sef
sefnyn
sefton
sefydledig
sefydliad
sefydliadau
sefydlodd
sefydlog
sefydlogrwydd
sefydlu
sefydlwyd
sefydlwyr
sefydlydd
sefyll
sefyllfa
sefyllfaoedd
segal
segment
segundo
segur
segura
sei
seiadau
seiat
seibiant
seiclo
seiclwr
seicoleg
seicolegol
seicolegydd
seigner
seiler
seiliau
seiliedig
seilio
seiliwyd
sein
seine
seiniau
seintiau
seion
seiri
seiriol
seisnig
seisonig
seiter
seithfed
seitz
sek
sel
sela
seland
selander
selar
selby
selected
selection
seleucaidd
self
selio
sellers
selma
selog
selwyn
selys
sem
sen
senedd
seneddol
seneddwr
seneddwyr
senegal
senghennydd
sengl
senglau
senior
sennett
senni
sense
sensitif
senza
seok
seoul
sepal
september
sequence
ser
sera
serach
serandrei
serbeg
serbia
serbo
serch
serchog
seremoni
seremoniau
seren
serena
serennodd
serennu
serge
sergeant
sergei
sergey
sergio
series
sero
serra
serrano
serth
serum
service
services
seryddiaeth
seryddol
seryddwr
sesiwn
sesiynau
sessions
set
seth
setiau
setlo
sets
sette
seung
seven
sevenoaks
several
severn
severus
sevilla
sewell
sex
sexual
seymour
sf
sffe
sfi
sg
sgandal
sgerbwd
sgethrog
sgeti
sgi
sgil
sgiliau
sgiwed
sgiwen
sgo
sgops
sgorio
sgoriodd
sgoteg
sgrech
sgri
sgrin
sgript
sgriptiau
sgriptiwr
sgriptiwyd
sgurr
sgwa
sgwar
sgweier
sgwennu
sgwennwyd
sgwrs
sgwrsio
sh
sha
shadow
shadows
shah
shakespeare
shakti
shall
shams
shane
shanghai
shankar
shannon
shapiro
sharif
shark
sharma
sharon
sharp
sharpe
shaun
shaw
shawn
she
shea
shearer
sheen
sheep
sheet
sheffield
sheikh
sheila
shelby
sheldon
shelley
sheng
shepard
shepherd
sheridan
sheriff
sherlock
sherman
sherry
sherwood
shetland
shi
shia
shield
shields
shin
shinc
shinji
ship
shire
shirley
shiva
sho
shock
shoot
shop
shore
shoreham
shores
short
shot
shotton
should
shoulder
show
shows
shrike
shtml
shu
shyam
si
sia
siam
siambr
siambrau
siamzone
sian
sianel
sianeli
siani
siap
siapan
siarad
siaradai
siaradodd
siaradwr
siaradwyr
siaredir
siarl
siarlymaen
siart
siarter
siartiau
siasbar
siawns
siberia
sibrwd
sic
sica
sicilia
siciliano
sicl
sicr
sicrhaodd
sicrhau
sicrwydd
sid
sidan
side
sidi
sidney
sie
sied
sieffre
siegel
siegfried
siencyn
sierra
sifil
sifiliaid
sig
siglen
siglennod
siglo
sign
signal
signaling
signe
significance
signs
sigrid
sigurd
silence
silent
silesia
silff
sili
silkeborg
sillaf
sillafiad
sillafu
silstwn
silva
silvana
silvano
silver
silverman
silvia
silvio
sim
sima
simbabwe
simeon
simi
simmons
simo
simon
simona
simone
simonelli
simple
simpson
sims
simwnt
sin
sinai
sinatra
since
sinclair
sind
sinema
sinemalar
sinematograffydd
sing
singapo
singapore
singer
singh
singin
singing
single
singleton
sings
sinha
sinn
sio
sioc
siocled
sioe
sioeau
siom
siomedig
siomi
sion
sioned
siop
siopa
siopau
siorys
sioux
sipsiwn
sir
sirc
siriol
siro
siroedd
sirol
siryf
siryfion
sisili
sister
sisters
sisticola
site
sites
sittingbourne
siu
siv
siw
siwan
siwgr
siwgwr
siwr
siwrnai
six
size
sj
sjo
sk
ska
skarsga
skates
skelton
ski
skin
skinner
skondrup
sky
skye
sla
slafaidd
slate
slater
slave
slaveowners
slebets
sleep
sleeping
slim
sling
sloane
slobodan
slofaceg
slofacia
slofeneg
slofenia
sloman
slough
sluhy
sm
small
smart
smiley
smith
smithsonian
smoke
smotiau
smotyn
smyth
sn
snake
snead
snell
snow
snowdonia
snp
snwcer
snyder
so
soar
soc
soccerdonna
social
society
soddga
soderbergh
sodiwm
sodom
soe
soffici
sofia
sofie
sofietaidd
sofliar
sofran
sofraniaeth
soho
sol
sola
solar
solares
soldier
soldiers
sole
soledad
soleil
soler
solet
solfach
solid
solihull
solitude
solo
solomon
som
somalia
sombi
some
somerset
somerville
something
somme
sommer
son
sonata
song
songs
sonia
soniodd
sonir
sonja
sonne
sonny
sono
sons
sony
soo
sophia
sophie
soprano
sorbonne
sordi
sorrentino
sort
sosialaeth
sosialaidd
soto
soul
souls
sound
source
sources
sous
south
southampton
southend
southern
southerndown
southgate
southport
souza
soviet
sowth
soya
sp
spa
spaak
space
spadaro
spain
spanish
sparks
sparrow
sparta
speak
special
species
specific
spectrum
speech
speed
spencer
speyer
spider
spiegel
spielberg
spike
spirit
spittal
splicing
split
sport
sports
spot
spotted
spring
springer
springfield
springs
springsteen
spy
sqrt
squad
squamous
square
squire
sr
sri
srinivasa
ss
sse
ssel
sseldorf
sssi
st
sta
stable
stacey
stack
stacy
stad
stade
stadium
stadiwm
stadt
stafell
staff
stafford
stagbwll
stage
stahl
stalin
stallone
stalybridge
stamford
stamp
stan
stand
standard
standing
stanford
stanislas
stanislav
stanisław
stanley
stanton
stapleton
star
stark
starling
starr
stars
start
state
statement
states
station
statistical
statistics
statswales
statud
statudol
status
statws
stay
ste
steel
steele
steen
stefan
stefania
stefano
steffan
steffen
steiger
steil
stein
steiner
stella
stellan
stelvio
stem
sten
step
stepaside
stephan
stephanie
stephen
stephens
stephenson
steps
sterling
stern
steve
steven
stevens
stevenson
steward
stewart
stig
still
stiller
stirling
stiward
stiwdio
stiwdios
stm
stmwi
sto
stob
stoc
stock
stockholm
stockport
stockton
stockwell
stoke
stokes
stole
stoloff
stone
stones
stonewall
stop
stopio
stopklatka
stoppa
stor
store
stori
storia
storiau
stories
storio
storm
stormydd
story
stra
stradling
straen
straeon
straight
strand
strange
strangelove
stranger
strangers
strata
strategaeth
strategol
strategy
stratford
stratton
strauss
strayer
street
streetcar
streetcheck
streetmap
streets
streic
stress
stretford
stretton
stribed
stribedi
stribolt
strigidae
strigiformes
strike
strikes
stro
strong
strood
stroud
structural
structure
struggle
strwythur
strwythurau
stryd
strydoedd
stryt
stu
stuart
student
students
studies
studio
studios
study
stumog
sturgeon
sturges
sturnidae
stuttgart
style
su
sua
sub
subunit
success
successsource
such
suchenach
sud
sudbrook
sudd
suddo
sue
suez
suffolk
suffrage
sugar
sugno
suicide
suite
suke
sul
sulla
sullivan
sully
sultan
sum
summary
summer
summers
summit
sun
sunday
sunderland
sune
sung
sunil
sunni
sunny
sunset
sunshine
suo
supe
super
superior
superman
supplement
support
supporting
suppressor
sur
suresh
surface
surop
surrey
surrounding
survey
survival
surya
sus
susan
susana
susanna
susanne
susceptibility
sussex
sut
sutherland
sutton
suzanne
suzuki
suzy
sv
svatopluk
sve
sven
svend
svendsen
svensk
svenskfilmdatabas
svoboda
sw
swahili
swallow
swan
swansea
swdan
swedaidd
swedeg
sweden
swedish
sweeney
sweet
swffrage
swift
swil
swindon
swing
swinton
swiss
swistir
switch
switzerland
swllt
swltan
swm
swn
swnio
sword
swp
swper
swrdwal
swydd
swyddfa
swyddfeydd
swyddffynnon
swyddi
swyddog
swyddogaeth
swyddogaethau
swyddogion
swyddogol
swyn
swynion
swyno
swynol
sy
sych
sycharth
sychder
sychdyn
syched
sychu
syd
sydd
sydney
sydow
sydyn
sykes
sylen
sylfaen
sylfaenol
sylfaenwyr
sylfaenydd
sylfeini
syllu
sylva
sylvain
sylvester
sylvia
sylvie
sylviidae
sylw
sylwadau
sylwebydd
sylwedd
sylweddau
sylweddol
sylweddoli
sylweddolodd
sylwer
sylwi
sylwodd
symbol
symbolaidd
symbolau
symboleiddio
symffoni
symiau
syml
symleiddio
symptomau
symud
symudiad
symudiadau
symudodd
symudol
symudwyd
syn
synagog
synau
synchronkartei
syndod
syndrom
syndrome
syniad
syniadaeth
syniadau
synnu
synnwyr
synod
synthesis
synthetig
synwyr
sypyn
syr
syracuse
syrcas
syria
syrth
syrthio
syrthiodd
system
systematic
systematig
systemau
systems
syth
sz
szabo
sze
szlo
szo
søren
sørensen
t
ta
tab
tabernacl
tabl
table
tables
tablesl
tachwedd
tacitus
tacoma
tacson
tacsonomegol
tad
tadau
tadeusz
tadic
tae
taf
tafarn
tafarnau
taflodd
taflu
tafod
tafodiaith
tafodieithoedd
tafwys
tag
tagalog
tage
tagell
tahiti
tai
taid
tail
tailed
taipei
tair
tait
taith
taiwan
tak
takashi
take
taken
takes
takeshi
taking
tal
talacharn
talachddu
talacre
talaith
talbot
talcen
tale
taleithiau
taleithiol
talent
talerddig
tales
talfan
talfyriad
talfyrir
talgarreg
talgarth
talhaearn
taliaris
taliban
taliesin
talk
talking
talks
tall
talodd
talog
talon
talsarnau
talu
talwm
talwrn
talybont
talyllychau
tama
tamaid
tamara
tamil
tamileg
tamworth
tan
tanager
tanagr
tanagrod
tanaka
tanddaearol
tandem
tang
tangnefedd
tango
tania
tanio
tanllyd
tannau
tanner
tano
tansani
tant
tanwydd
tanya
tanygrisiau
tanysgrifiad
tap
tara
taranau
tarantino
taranto
tarawodd
tarddiad
tarddle
tarddodd
tarddu
targed
target
targeting
tarian
tarn
taro
tarw
tarzan
tasg
tasgau
tasmania
taste
tat
tate
tathan
tatiana
tatws
tau
taunton
taurog
tavernier
taviani
taw
tawe
tawel
tawelwch
taxi
taxonomy
tay
taylor
tbilisi
td
te
tea
teacher
team
tears
teatro
teau
teborg
tebyg
tebygol
tebygolrwydd
tebygrwydd
techneg
technegau
technegol
technoleg
technology
teclyn
tecwyn
ted
teddy
tedeschi
teen
teenage
tees
teg
tegeirian
tegid
tegryn
tegyll
tehran
teifi
teigr
teil
teiliwr
teilo
teilwng
teilyndod
teilyngdod
teimlad
teimladau
teimlai
teimlo
teimlodd
teimlwn
teinobasis
teisen
teithiau
teithio
teithiodd
teithiol
teithiwr
teithlyfr
teithwyr
teitl
teitlau
tel
telebasis
teledu
telegraph
telerau
television
telford
tell
telor
teloriaid
telorion
telugu
telyn
telynor
teml
temple
tempo
temps
tempus
ten
tenantiaid
tenau
tenis
tennant
tennessee
tennis
tenor
ter
terence
teresa
tereza
terfyn
terfynau
terfynol
terfysg
terfysgaeth
terfysgoedd
terfysgol
terfysgwyr
teri
terjesztett
term
termau
terminal
terminator
terms
terra
terrace
terre
terrence
territoire
territory
terror
terry
tes
tesla
tessari
test
testament
testun
testunau
testyn
teulu
teuluaidd
teuluoedd
teuluol
tew
tewdwr
tewkesbury
texas
text
texts
teyrn
teyrnas
teyrnasiad
teyrnasodd
teyrnasoedd
teyrnasu
teyrnged
tgau
th
tha
thad
thai
thair
thaith
thalaith
thalu
thames
than
thanet
tharo
that
thatcher
the
thea
theartofpainting
theater
theatr
theatrau
theatre
theatreworldawards
thebyg
thechnoleg
theft
theguardian
theimlai
their
theledu
thelma
thelwall
them
thema
themen
then
theo
theodor
theodore
theophilus
theorem
theori
theory
thepeerage
therapi
therapy
there
theresa
thermau
these
theta
theulu
they
theyrnas
thi
thief
thiele
thierry
thin
thing
things
think
thir
third
thiriogaeth
thiriogaethau
thiruvananthapuram
this
thithau
tho
thom
thomas
thompson
thomsen
thomson
thor
thorne
thornton
thorpe
thorri
those
thought
thousand
thra
thrachefn
thraddodiadau
thraed
thramor
thraw
three
thref
threfi
threfn
threfnu
threuliodd
thri
thrigain
thrigolion
thrin
thro
throated
throdd
throed
throi
thros
throsedd
throsodd
through
thrush
thrwy
thrywanu
thu
thua
thudalennau
thunberg
thunder
thurston
thwndra
thy
thyfodd
thynnu
thyroid
thywysogion
ti
tiberius
tibet
tid
tie
tien
tienne
tierney
tierra
tiers
tiffany
tiger
til
till
tilly
tim
timaliidae
timau
time
timeline
times
timor
timothy
tin
tina
tinamw
tindrom
tingoch
tino
tinwen
tiny
tip
tippett
tipyn
tir
tirabad
tirana
tirfeddiannwr
tiriogaeth
tiriogaethau
tirlenwi
tiroedd
tirwedd
tirweddol
tisch
tissier
tissue
tit
titanic
titanus
titel
tithau
title
tito
titus
titw
tiverton
tiwb
tiwnis
tiwnisia
tlawd
tlodi
tlodion
tlws
tlysau
to
tobias
toby
toc
tocyn
tod
today
todd
toddi
todi
together
tognazzi
toho
toi
tokyo
toledo
toll
tom
toma
tomas
tomasz
tomatoes
tomb
tome
tomen
tomenni
tomennydd
tomlinson
tommy
tomorrow
tomos
ton
tonau
tonbridge
tone
tong
tonga
toni
tonight
tonino
tonnau
tony
tonypandy
tonyrefail
tonysguboriau
too
tool
toole
tools
tooting
top
topograffig
tor
torben
torchog
toreithiog
torf
torfaen
torfelyn
torfol
torgoch
tori
toriad
torino
toro
torodd
toronto
torre
torres
torri
torrodd
torrwyd
torsten
torwyn
toscana
tost
total
totnes
toto
tottenham
touch
touchstone
toulouse
tour
tourjansky
tourneur
tours
tout
tova
tove
towards
tower
towers
town
towns
townsend
township
towyn
toy
tr
tra
trac
tracey
traciau
track
tracy
traddodiad
traddodiadau
traddodiadol
traddododd
trade
tradition
traditional
traditions
traean
traed
traeth
traethau
traethawd
traethodau
traethodydd
trafferth
trafferthion
traffic
traffig
trafnidiaeth
trafod
trafodaeth
trafodaethau
trafodwch
tragedy
tragwyddol
tragwyddoldeb
trahaearn
trail
train
trains
trais
trajan
trallong
trallwng
tram
tramffordd
tramor
trannoeth
trans
transactions
transcription
transcriptional
transgender
transition
translation
transport
trap
travel
travers
travis
trawiad
trawiadol
trawodd
traws
trawsfynydd
trawsnewid
tre
trealaw
treamlod
trearddur
treasure
treatment
trebefered
treborth
trecastell
trecelyn
trechu
trecw
trecynon
tredegar
tredeml
tree
trees
tref
trefaldwyn
trefaser
trefdraeth
trefeca
trefedigaeth
trefedigaethol
trefeglwys
trefelen
trefenter
trefflemin
trefforest
treffynnon
trefgarn
trefi
trefilan
trefin
treflan
trefn
trefnant
trefniadau
trefniant
trefnir
trefnodd
trefnu
trefnwyd
trefnydd
trefnyddion
trefol
trefor
treforys
trefriw
treftadaeth
trefwrdan
trefydd
trefynwy
tregaron
tregatwg
tregeiriog
tregele
treglarbes
tregolwyn
tregynon
trehafod
treherbert
treial
treialon
treiddio
treisgar
trek
trelawnyd
trelech
treletert
trelogan
trelystan
tremadog
tremain
tremarchog
tremeirchion
tren
trenau
trent
trenton
treorci
tres
tresglen
tresglod
tresimwn
treth
trethi
tretw
treuddyn
treulio
treuliodd
trevaughan
trevor
tri
trial
triangle
triawd
tribune
tribute
tricholomataceae
trier
trieste
trigai
trigo
trigolion
trimsaran
trin
triniaeth
trinidad
trinity
trintignant
trio
trioedd
triongl
trip
triple
trist
tristan
tristwch
triumph
tro
troad
trochilidae
trodd
troddi
troed
troedfedd
troedyraur
troellog
troellwr
troellwyr
troes
trofannol
troglodytidae
trogon
troi
trois
trojan
trollope
troma
tropez
tropole
tros
trosedd
troseddau
troseddol
troseddwr
troseddwyr
trosglwyddo
trosglwyddwyd
trosi
trosiad
trosodd
trouble
trovaioli
trove
trowbridge
trowyd
troy
truan
trude
true
trueba
truenus
truffaut
trugaredd
truman
trump
truro
trust
truth
trwch
trwchus
trwm
trwodd
trwsio
trwy
trwydded
trwyddo
trwyn
try
trychineb
trydan
trydanol
trydedd
trydydd
trydyddol
tryfan
tryleg
trymion
trysor
trysorlys
trystan
tryweryn
ts
tsang
tsar
tsiec
tsieceg
tsiecoslofacia
tsieina
tsieineaidd
tsieineeg
tsile
tsili
tsunami
tt
tter
ttingen
ttir
tu
tua
tuag
tucci
tucker
tud
tudal
tudalen
tudalennau
tudes
tudful
tudor
tudur
tuduriaid
tudweiliog
tuedd
tueddu
tulio
tullio
tully
tumor
tumour
tun
tunbridge
tunnell
turdidae
turin
turkey
turn
turner
turtur
turturod
turturro
tutti
tuttle
tv
tvurce
tw
tweed
twelve
twentieth
twenty
twf
twice
twickenham
twilight
twin
twist
twitter
twll
twm
twmpath
twmpathau
twnnel
two
twr
twrcaidd
twrceg
twrch
twrci
twristiaeth
twristiaid
twrnamaint
twyll
twyllo
twymyn
twyn
twyni
twynllannan
ty
tybaco
tybed
tybiai
tybied
tybiedig
tybio
tybir
tybiwn
tyd
tyddewi
tyddyn
tydfil
tydi
tyf
tyfiant
tyfodd
tyfu
tyler
tyllau
tyllog
tylluan
tylluanod
tylwyth
tymbl
tymheredd
tymhorau
tymhorol
tymor
tyn
tyndyrn
tyne
tyner
tynewydd
tynged
tynnodd
tynnu
tynnwyd
tynu
type
tyrannidae
tyrant
tyrau
tyrceg
tyred
tyrfa
tyrone
tyrosine
tyst
tystiolaeth
tystion
tystysgrif
tyweli
tywi
tywod
tywydd
tywyll
tywyllwch
tywyn
tywys
tywysog
tywysogaeth
tywysoges
tywysogion
tz
u
ubaldo
ube
ubiquitin
ucha
uchaf
uchafbwynt
uchafswm
uchder
uchel
ucheldir
ucheldiroedd
uchelgais
uchelgeisiol
uchelwr
uchelwyr
uchod
uci
ucicky
ud
uda
udd
udo
ue
uefa
uel
uffern
ufudd
ufuddhau
ugain
ugeinfed
ugeiniau
ugent
ugly
ugo
ui
uicn
uk
ukip
ukraine
ukrainian
ulan
ulf
ulla
ulloa
ulrich
ulrike
ulster
ultimate
ultra
um
uma
umberto
ume
un
una
unawd
unben
unc
uncle
und
undated
undeb
undebau
undebol
under
underground
understanding
undod
une
uned
unedau
unedig
unedol
unesco
unfed
unffurf
unger
uniad
uniaethu
uniaith
uniawn
unig
unigedd
unigol
unigolion
unigolyn
unigrwydd
unigryw
unincorporated
union
uniongred
uniongyrchol
unionsyth
unit
united
universal
universe
universidad
universite
university
universum
unknown
unlle
unman
uno
unodd
unol
unoliaethol
unrecognized
unrhyw
unter
until
unwaith
unwyd
uomo
up
update
upload
uploads
upon
upper
uppsala
upton
ur
urban
urdd
urddas
urddasol
urddau
urddo
urddwyd
urien
url
urs
ursula
urueta
us
usa
use
used
usepub
user
uses
usgs
using
usk
uslchampionship
ussr
ustus
ut
utah
utc
utgorn
utica
utner
utrecht
uwch
uwcharwr
uwchben
uwchefrydiau
uwchlaw
uwchradd
uwe
uzmaston
v
va
vadim
vajda
val
valde
valdemar
vale
valencia
valentin
valentina
valentine
valentino
valeria
valerie
valerio
valle
valley
valli
valls
valor
value
values
vampire
van
vancouver
vanessa
vangelis
vanni
vanzina
var
varda
varela
vargas
variant
variants
variation
variety
various
varma
varnel
vas
vasco
vaucluse
vaughan
vaughn
ve
ved
veda
vega
vegas
veit
vela
velasco
velimir
velvet
ven
vende
vendetta
venezuela
vengeance
venice
venin
venkata
venkatesh
venkateswara
ventura
venu
venus
vera
verbinski
verde
verdi
verdier
verdone
verhoeven
verlag
vermont
verne
verneuil
vernon
vero
verona
veronica
veronika
versailles
version
vertigo
very
vespasian
vestergaard
vez
vi
via
viaf
viareggio
vibeke
vic
vice
vicente
vicky
vico
victor
victoria
victorian
victory
vida
vidal
video
vidor
vie
vienna
vienne
vietnam
view
views
viggo
vii
viii
vijay
viking
vikram
viktor
vila
vilaine
vilhelm
villa
village
villages
ville
villeneuve
villiers
vilnius
vin
vince
vincent
vincenzo
vinci
vinod
viola
violence
violet
viral
virgil
virgilio
virgin
virginia
virginie
virtual
virus
vis
visconti
vishal
vision
visit
vista
visual
vita
vitale
vitali
vito
vitro
vittoria
vittorio
viva
vivek
vivian
vivo
vka
vlad
vladimi
vladimir
vlasta
vlastimil
vn
vo
vocab
vocabularies
vogel
vogt
voice
voices
voigt
vol
volga
volker
volkswagen
volta
volume
vom
von
vor
vos
vosges
vost
vote
vous
voyage
voyager
vra
vre
vres
vs
vu
vuelta
vy
vychan
w
wa
wachowski
waddod
wade
wadi
waed
waedlyd
wael
waelod
waered
waeth
waethaf
wag
wagner
waha
wahan
wahaniaeth
wahaniaethu
wahanol
wahanu
wahardd
wahodd
wahoddiad
wai
wain
wair
waith
waiting
wajda
wake
wakefield
wal
wald
waldemar
walden
waldo
wales
walesonline
walford
waliau
walk
walker
walking
wall
walla
wallace
wallasey
walle
waller
wallis
walls
wallt
wally
walsall
walsh
walt
walter
walters
waltham
walther
walton
waltz
wan
wanda
wanderers
wang
want
wantage
wanted
wants
war
warbler
warburton
warchae
warchod
warchodfa
ward
warden
ware
wared
waredu
warhol
warner
warren
warrington
warrior
warriors
wars
warsaw
wartheg
warwick
was
wasanaeth
wasanaethau
wasanaethodd
wasanaethu
waseda
wasg
wasgar
wasgu
washington
washingtonpost
wastad
wastadedd
wastadol
waszyn
watanabe
watch
water
waterloo
waters
waterston
watford
watkin
watkins
watson
watt
watts
waun
waunclunda
waunfawr
wave
waves
wawr
waxman
way
wayback
wayne
ways
wch
wcra
wcrain
wcreineg
wddf
wdig
we
weald
wealden
wear
weather
weaver
web
webb
webber
weber
website
webster
wechanged
wed
wedd
weddi
weddill
weddillion
wedding
weddol
weddw
wedi
wedyn
week
weekend
weekly
weeks
wefan
wefusau
weg
wegener
wei
weimar
weini
weinidog
weinidogaeth
weinidogion
weinstein
weinyddiaeth
weinyddol
weinyddu
weir
weirglodd
weision
weiss
weisz
weithgar
weithgaredd
weithgareddau
weithian
weithiau
weithio
weithiodd
weithiwr
weithred
weithredoedd
weithredol
weithredu
weithredwr
weithwyr
wel
weladwy
welaf
welai
welais
welaist
welch
welcome
weld
wele
weled
weledigaeth
weli
welid
welir
well
wella
welles
wellington
wellman
wells
wellt
welodd
welsai
welsant
welsh
welsom
welt
welwch
welwn
welwyd
welwyn
wely
wen
wenders
wendid
wendy
wener
wenith
wenn
wennol
went
wenwyn
wenwynig
wenyn
wer
werdd
were
werin
weriniaeth
weriniaethol
wern
werner
wers
wersi
wersyll
wert
werth
werthfawr
werthu
wertmu
wes
wesleaidd
wesley
wessex
west
western
westlake
westminster
westmoreland
westmorland
weston
westy
wettbewerbe
weybridge
wganda
whale
wharton
what
wheat
wheel
wheeler
whelan
when
where
which
while
whistler
whitaker
white
whitefield
whitehead
whitman
whitney
who
whole
whose
why
wi
wialen
wica
wici
wiciadur
wicibrosiect
wicidata
wicipedia
wide
wie
wien
wiene
wiener
wiesbaden
wife
wig
wigan
wiggins
wiki
wikidata
wikileaks
wikimedia
wikipedia
wikiquote
wikisource
wil
wilberforce
wilbur
wilcox
wild
wilde
wilder
wildlife
wiley
wilfred
wilfrid
wilhelm
wili
wiliam
wilkes
wilkins
wilkinson
will
willard
willem
willi
william
williams
williamson
williamston
willie
willis
willow
wills
willy
wilson
wilton
wiltshire
wim
wimbledon
win
winchester
wind
winding
window
windows
windsor
wine
wing
winged
wings
winifred
winkler
winner
winners
winnie
winning
winnipeg
wins
winston
winter
winters
winterstein
wir
wire
wirfoddol
wirionedd
wis
wisconsin
wisdom
wise
wiseman
wisg
wisgo
wish
witch
witchcraft
witches
with
withers
within
without
witness
witney
witold
witt
wives
wiw
wla
wlad
wladfa
wladol
wladwriaeth
wladwriaethau
wledd
wledig
wledydd
wleidydd
wleidyddiaeth
wleidyddol
wlster
wlyb
wm
wn
wna
wnaed
wnaeth
wnaethai
wnaethant
wnaethost
wnaethpwyd
wnaf
wnai
wnawn
wncwl
wnei
wneir
wnelo
wneud
wneuthum
wneuthur
wnewch
wneyd
wo
wobr
wobrau
wobrwyo
wojciech
woking
wokingham
wolf
wolfe
wolff
wolfgang
wolfram
wolter
wolverhampton
wolves
woman
women
won
wonder
wonderful
wonderland
wong
woo
wood
woodford
woodland
woodpecker
woodrow
woods
woodstock
woodward
woody
woolf
woolwich
wootton
worcester
word
words
wordsworth
work
workers
working
workington
works
world
worlds
worldwide
worms
worsley
worst
worth
worthing
worthington
would
wp
wqs
wr
wrach
wrachyddiaeth
wragedd
wraidd
wraig
wrandawyr
wrando
wranws
wray
wrddymbre
wrdw
wrecsam
wreiddiau
wreiddiol
wrekin
wren
wres
wrexham
wright
writer
writers
writing
written
wrocław
wrong
wrth
wrthblaid
wrthdaro
wrthi
wrtho
wrthod
wrthododd
wrthrych
wrthrychau
wrthryfel
wrthsefyll
wrthwynebiad
wrthwynebu
wrthwynebwyr
wrthwynebydd
wrthych
wrthyf
wrthym
wrthynt
wrthyt
wrwgwa
ws
wsbecistan
wt
wthio
wu
www
wy
wyatt
wyau
wybedogion
wybod
wybodaeth
wybren
wybu
wybyddus
wych
wycombe
wyd
wydd
wyddai
wyddel
wyddeleg
wyddelig
wyddfa
wyddgrug
wyddoch
wyddom
wyddoniaeth
wyddonias
wyddonol
wyddonwyr
wyddor
wyddost
wyddwn
wyddys
wydr
wyf
wyl
wylan
wyler
wyliau
wylio
wyllie
wyllt
wylo
wylwyr
wyn
wyndham
wyneb
wynebau
wynebddu
wynebodd
wynebu
wynedd
wynn
wynne
wynorski
wynt
wyoming
wyr
wyrdd
wyre
wyres
wyrion
wysg
wyt
wyth
wythfed
wythnos
wythnosau
wythnosol
władysław
x
xan
xaver
xavier
xcnewsplus
xi
xico
xii
xiii
xiv
xls
xlsx
xue
xv
xvi
xvii
xx
xxx
y
ya
yahoo
yale
yamada
yamaguchi
yamamoto
yan
yang
yann
yannick
yao
yarbrough
yard
yarmouth
yates
yau
ych
ychen
ychwaith
ychwaneg
ychwanegir
ychwanegodd
ychwanegol
ychwanegu
ychwanegwyd
ychydig
yd
ydach
ydd
ydi
ydoedd
ydw
ydwyf
ydwyt
ydy
ydych
ydym
ydyn
ydynt
ydys
ydyw
ye
year
yearling
years
yellow
yen
yeong
yeovil
yerbeston
yes
yet
yevgeny
yfed
yfory
yg
yi
yin
yip
yl
ym
yma
ymadael
ymadawiad
ymadawodd
ymadrodd
ymadroddion
ymaith
ymarfer
ymarferion
ymarferol
ymatal
ymateb
ymatebodd
ymbelydredd
ymborth
ymchwil
ymchwiliad
ymchwiliadau
ymchwilio
ymchwilwyr
ymchwilydd
ymddangos
ymddangosai
ymddangosiad
ymddangosiadau
ymddangosodd
ymddengys
ymddeol
ymddeoliad
ymddeolodd
ymddiddan
ymddiddori
ymddiried
ymddiriedolaeth
ymddiriedolwyr
ymddiswyddiad
ymddiswyddo
ymddiswyddodd
ymddwyn
ymddygiad
ymdeimlad
ymdopi
ymdrech
ymdrechion
ymdrechu
ymdrin
ymelwi
ymennydd
ymenyn
ymerawdwr
ymerawdwyr
ymerodraeth
ymerodres
ymerodrol
ymestyn
ymfudo
ymfudodd
ymfudwyr
ymgais
ymgartrefodd
ymgartrefu
ymgasglu
ymgeisio
ymgeiswyr
ymgeisydd
ymgom
ymgorffori
ymgymerodd
ymgymryd
ymgynghori
ymgynghorydd
ymgynnull
ymgyrch
ymgyrchoedd
ymgyrchu
ymgyrchwyr
ymgyrchydd
ymhell
ymhellach
ymhen
ymherawdwr
ymhlith
ymhob
ymladd
ymladdodd
ymladdwyd
ymlaen
ymledodd
ymledu
ymlid
ymlusgiaid
ymneillduol
ymneillduwyr
ymofyn
ymolchi
ymosod
ymosodiad
ymosodiadau
ymosododd
ymosodol
ymosodwyd
ymostwng
ymraniad
ymrannu
ymreolaeth
ymreolaethol
ymroddedig
ymroddiad
ymroddodd
ymron
ymrwymiad
ymrwymo
ymryson
ymsefydlodd
ymsefydlu
ymsefydlwyr
ymuno
ymunodd
ymwahanu
ymwared
ymweld
ymweled
ymweliad
ymweliadau
ymwelodd
ymwelwyr
ymwelydd
ymwneud
ymwrthod
ymwybodol
ymwybyddiaeth
ymyl
ymylol
ymylon
ymyrraeth
ymyrryd
ymysg
yn
yna
ynad
ynadon
ynddi
ynddo
ynddynt
ynfyd
yng
ynganiad
ynganu
ynghanol
ynghlwm
ynghy
ynghyd
ynghylch
ynghynt
yngly
ynglyn
ynni
ynnod
yno
ynof
ynot
yntau
ynte
ynteu
yny
ynys
ynysdawe
ynysforgan
ynysgynwraidd
ynysig
ynysoedd
ynysu
ynysybw
yo
yoga
yong
yonne
yoon
york
yorker
yorkshire
you
young
your
youth
youtube
yp
yr
yrfa
yrru
ys
ysbaid
ysbail
ysbeilio
ysbi
ysblennydd
ysbryd
ysbrydion
ysbrydol
ysbrydoli
ysbrydoliaeth
ysbrydolwyd
ysbytai
ysbyty
ysgafn
ysgafnach
ysgariad
ysgarodd
ysgaru
ysgeifiog
ysgerbwd
ysglyfaeth
ysgogi
ysgogiad
ysgol
ysgoldy
ysgolfeistr
ysgolhaig
ysgolheictod
ysgolheigaidd
ysgolheigion
ysgolion
ysgoloriaeth
ysgoloriaethau
ysgrif
ysgrifau
ysgrifen
ysgrifena
ysgrifenedig
ysgrifeniadau
ysgrifennai
ysgrifennir
ysgrifennodd
ysgrifennu
ysgrifennwr
ysgrifennwyd
ysgrifennydd
ysgrifenodd
ysgrifenu
ysgrifenwyd
ysgrifenwyr
ysgrifenydd
ysgrifenyddion
ysgubol
ysgubor
ysgwyd
ysgwydd
ysgwyddau
ysgyfaint
ysgyfarnog
ysgyryd
ysgythrwr
ysmygu
yspryd
ysprydol
ysta
ystad
ystadau
ystadegaeth
ystadegau
ystadegol
ystafell
ystafelloedd
ystalyfera
ystlys
ystod
ystog
ystori
ystorm
ystrad
ystradenni
ystradgynlais
ystradowen
ystryd
ystum
ystumiau
ystumllwynarth
ystumtuen
ystwyth
ystyr
ystyriaeth
ystyriai
ystyrid
ystyried
ystyrir
ystyriwyd
ystyron
ysw
yswiriant
yu
yuan
yuen
yun
yuri
yvan
yvelines
yves
yvette
yvonne
yw
ywen
yılmaz
z
za
zacari
zach
zachary
zack
zagreb
zampa
zangenberg
zanussi
zar
zaragoza
zardi
zasłuz
zbigniew
zdene
ze
zealand
zef
zeit
zel
zelenka
zelluloid
zelnik
zeman
zemeckis
zen
zero
zeus
zhang
zhao
zhi
zhou
zi
zidi
ziegler
zigler
zimmer
zinc
zip
zit
zita
zmir
zo
zoe
zola
zolta
zombie
zone
zoran
zosteropidae
zquez
zsa
zslav
zu
zucker
zukor
zum
zur
zurich
zuzana
zwei
zweitausendeins
zygmunt
{
|
}
~

¡
£
§
©
«
¬
­
®
¯
°
±
²
³
´
µ
¶
·
º
»
¼
½
¿
×
ß
æ
ð
þo
ı
ł
ło
ȝe
ə
ɛ
ʰ
ʲ
ʹ
ʻ
ʼ
ʾ
ʿ
ˈ
ˌ
ː
ˠ
̀
́
̂
̃
̄
̆
̇
̈
̉
̊
̋
̌
̑
̒
̓
̔
̛
̞
̣
̥
̦
̧
̨
̩
̪
̯
̱
̸
̼
͂
͡
α
β
γ
δ
ε
η
θ
ι
κ
κης
λ
μ
μυ
ν
ο
π
ρ
ς
σ
στη
φ
χ
ψ
ω
ϕ
а
в
и
к
м
н
на
о
с
у
я
і
ְ
ִ
ֵ
ֶ
ַ
ָ
ֹ
ּ
א
ב
ה
ל
ר
ש
ת
ا
ب
ت
ك
م
و
َ
ُ
ِ
ّ
ْ
ٓ
ٔ
ٕ
ँ
ं
ई
क
ख
ग
च
ज
ट
ड
ण
त
थ
द
ध
न
प
फ
ब
भ
म
य
र
ल
व
श
ष
स
ह
़
ा
ि
ी
ु
ू
े
ै
ॉ
ो
ौ
्
ং
ক
খ
গ
চ
জ
ট
ড
ত
দ
ন
প
ব
ভ
ম
য
র
ল
শ
স
হ
়
া
ি
ী
ু
ে
্
ਾ
க
ங
ச
ஜ
ட
ண
த
ந
ன
ப
படம
ம
ய
ர
ற
ல
ள
ழ
வ
ஸ
ா
ி
ீ
ு
ூ
ெ
ே
ை
்
్
ಂ
ಕ
ಗ
ಚ
ಜ
ಟ
ಡ
ಣ
ತ
ದ
ನ
ಪ
ಬ
ಮ
ಯ
ರ
ಲ
ಳ
ವ
ಶ
ಷ
ಸ
ಹ
ಾ
ಿ
ು
ೂ
ೃ
ೆ
್
ೕ
ം
ക
ഗ
ച
ജ
ട
ഡ
ണ
ത
ദ
ന
പ
ബ
മ
യ
ര
റ
ല
ള
വ
ശ
ഷ
സ
ഹ
ാ
ി
ീ
ു
ൂ
െ
േ
ൈ
്
ൻ
ൽ
น
ั
ิ
ี
ื
ุ
่
้
์
་
​
‌
‎
‐
–
—
‖
‘
’
“
”
„
†
•
…
‬
′
″
⁄
⁠
⁡
₁
₂
₃
₄
₅
₆
₇
₈
₉
€
ℓ
←
→
↔
↷
⇒
∀
∁
∂
∈
∑
−
∘
√
∞
∣
∩
∪
∫
≈
≤
≥
⋅
⋯
③
④
⑦
△
●
♀
♂
♠
♦
♭
⟨
⟩
⺀
⺄
⺆
⺈
⺊
⺌
⺕
⺝
⺸
⺼
⿰
⿱
⿲
⿳
⿴
⿵
⿶
⿷
⿸
⿹
⿺
⿻
、
〜
〢
あ
い
う
え
お
か
き
く
け
こ
さ
し
す
そ
た
ち
っ
つ
て
と
な
に
の
は
ひ
ふ
へ
ほ
ま
み
も
ゃ
よ
ら
り
る
れ
わ
を
ん
゙
゚
ア
ィ
イ
ウ
ェ
エ
オ
カ
キ
ク
ケ
コ
サ
シ
ス
セ
ソ
タ
チ
ッ
ツ
テ
ト
ナ
ニ
ノ
ハ
ヒ
フ
ヘ
ホ
マ
ミ
ム
メ
モ
ャ
ュ
ユ
ョ
ラ
リ
ル
レ
ロ
ワ
ン
・
ー
㇁
㇂
㇄
㇇
㇈
㇉
㇓
㐁
㐄
㐅
㐌
㐫
㐬
㐭
㐮
㐱
㑒
㒵
㒸
㒼
㓁
㓞
㔾
㕛
㕣
㖾
㘝
㚅
㚇
㚔
㚘
㝉
㝡
㝴
㝵
㞋
㞢
㞷
㠩
㠭
㠯
㡀
㡭
㡿
㢲
㢴
㣇
㣺
㥯
㪅
㫄
㫐
㫒
㫺
㬅
㬎
㬥
㬰
㲋
㳄
㷠
㸒
㸚
㸦
㼌
㼲
㽞
㿟
䀠
䂞
䍃
䏍
䒑
䖍
䖒
䖝
䖵
䙴
䚻
䜌
䝿
䡛
䧹
䪞
一
丁
丂
七
丄
丅
丆
万
丈
三
上
下
丌
不
与
丏
丐
丑
专
且
丕
世
丘
丙
业
东
丞
丢
丣
两
严
並
丨
丩
个
丫
丬
中
丮
丰
丱
串
丵
丶
丷
丸
丹
为
主
丽
丿
乀
乂
乃
久
乆
乇
么
义
之
乌
乍
乎
乏
乐
乑
乔
乖
乗
乘
乙
乚
乛
乜
九
乞
也
习
乡
乳
乾
亀
亅
了
亇
予
争
事
二
亍
于
亏
亐
云
互
亓
五
井
亘
亚
亜
亞
亟
亠
亡
亢
交
亥
亦
产
亨
亩
享
京
亭
亮
亯
亰
亲
亳
亶
亷
人
亻
亼
亾
仁
今
介
仌
从
仐
仑
仒
仓
仕
他
付
仝
代
令
以
任
企
伊
伏
伐
休
会
伝
伯
但
位
何
佘
余
作
佥
使
來
侈
侌
侖
侯
侵
便
保
俞
信
修
倉
倍
候
倠
備
僉
僕
儿
兀
允
兂
元
兄
充
兆
兇
先
光
兊
克
兌
免
兑
兒
兓
兔
党
兜
兟
入
全
兩
兪
八
公
六
兮
兰
共
关
兵
其
具
典
兹
兼
冀
冂
冃
冄
内
冈
冉
冊
冋
册
再
冎
冏
冐
冒
冓
冖
冗
冘
军
农
冝
冡
冥
冫
冬
冷
几
凡
凢
凵
凶
凷
凸
凹
出
函
凾
刀
刁
刂
刃
刄
刅
分
切
刍
刑
刕
刖
列
刘
则
初
別
利
别
到
制
刺
則
削
剌
前
剡
剽
劇
劉
力
功
加
劦
助
劫
劳
劵
勃
勇
勉
勒
動
務
勞
勤
勹
勺
勻
勾
勿
匀
匂
包
匆
匈
匊
匋
匍
匕
化
北
匚
匝
匡
匪
匱
匸
匹
区
医
匽
匿
區
十
卂
千
卄
卅
卆
升
午
卉
半
卌
华
卑
卒
卓
单
卖
南
卜
卝
卞
占
卡
卢
卣
卤
卦
卩
卪
卬
卯
印
危
即
却
卵
卷
卸
卻
厂
厃
厄
历
厈
厉
厌
厓
厘
厚
原
厤
厥
厨
厭
厲
厶
厷
厸
去
厼
厽
叀
参
參
叅
又
叉
及
友
双
反
叐
发
叒
叔
叕
取
受
叚
叜
叟
口
古
句
另
叩
只
召
可
台
叱
史
右
叵
号
司
叹
吂
各
吅
合
吉
吊
吋
同
名
后
吏
向
吕
君
吝
吞
否
含
启
吳
吴
吹
吾
呂
呆
呈
告
员
呙
周
命
咅
和
咎
咠
咢
咨
咸
咼
哀
品
哉
員
哥
哲
唐
商
啇
問
啚
啬
啻
善
喜
喬
單
喿
嗇
噩
嚴
囊
囗
囘
囙
囚
四
回
囟
因
囧
囬
困
囱
囷
固
国
圂
圅
國
圍
圓
土
圡
圣
圥
在
圭
地
圶
圼
坐
坒
坚
坴
垂
垔
垚
埀
埋
城
埶
執
基
堂
堅
堆
堇
堯
場
塞
墨
壘
士
壬
壯
声
壳
壴
壹
壺
壽
夂
处
夅
夆
备
夊
夋
夌
复
夏
夒
夕
外
夗
夘
多
夜
夢
大
夨
天
太
夫
夬
夭
央
失
夲
头
夷
夸
夹
夻
夾
奂
奄
奇
奈
奉
奎
奏
奐
契
奓
奔
奚
奞
奠
奢
奥
奭
女
奴
奻
好
如
妄
妙
妟
妥
妻
妾
姑
委
姜
威
娄
婁
婴
嬰
嬴
子
孑
孔
孕
孖
字
存
孚
孛
孝
孟
季
孤
学
孫
孱
學
宀
宁
宂
它
宅
宇
守
安
宋
完
宏
宓
宗
官
定
宛
宜
宝
客
宣
室
宮
宰
害
家
容
宾
宿
寄
寅
密
富
寒
察
寧
審
寫
寬
寮
寸
对
寺
寻
寽
対
寿
封
尃
射
将
將
專
尉
尊
尋
尌
對
小
少
尒
尓
尔
尖
尗
尚
尞
尢
尣
尤
尧
尨
尭
就
尸
尹
尺
尻
尼
尽
尾
尿
局
居
屈
屋
屎
屏
屑
展
屖
屚
属
屠
屡
屬
屮
屯
屰
山
屵
屾
岁
岂
岑
岡
岩
岳
岸
峯
島
崇
崑
崔
崖
崙
崩
嵬
嶲
巂
巛
川
州
巟
巠
巢
巤
工
左
巧
巨
巩
巫
差
己
已
巳
巴
巷
巸
巽
巾
巿
帀
市
布
希
帚
帛
帝
带
師
席
帶
常
干
平
年
幵
并
幷
幸
幺
幻
幼
幽
幾
广
広
庄
床
底
店
庚
府
度
座
庫
庭
庶
康
庸
廉
廌
廛
廣
廩
廴
延
廷
建
廾
廿
开
弁
弃
弄
弇
弋
式
弓
弔
引
弗
弘
弜
弟
弥
弦
弱
張
強
强
彊
彌
彎
彐
彑
当
彔
录
彖
彗
彡
形
彥
彦
彧
彭
影
彳
役
彼
往
待
律
徒
得
徙
從
復
微
徵
心
忄
必
忌
忍
志
忝
忠
忩
快
念
忽
忿
思
怠
急
怪
怱
恆
恋
恒
恩
恭
息
悉
患
悤
悲
悶
情
惠
惡
惢
愁
愈
意
愛
感
慈
慧
慮
憂
憲
應
戀
戈
戉
戊
戋
戌
戍
戎
成
我
戒
戔
或
戚
戠
戢
戦
截
戲
戶
户
戹
戼
戾
房
所
扁
扇
手
扌
才
打
托
执
承
折
拉
拜
拳
拿
掌
推
提
摩
支
攴
攵
收
攸
改
放
政
敄
敏
敕
敖
敗
敝
敞
敢
散
敦
敫
敬
数
敷
數
斂
文
斉
斊
斗
斤
斥
斩
斬
斯
新
方
於
施
斿
旁
旋
族
无
旡
既
旣
日
旦
旧
旨
早
旬
旱
旲
时
旾
昆
昇
昌
昍
明
昏
易
昔
昗
昜
星
映
春
昬
是
昱
昴
昷
時
晃
晋
晏
普
景
晶
智
暑
暴
曇
曩
曰
曲
曳
更
曷
書
曹
曼
曾
替
最
朁
會
月
有
朋
服
朔
朕
朗
望
朝
木
朩
未
末
本
札
朮
术
朱
朵
朶
朿
杀
杏
杜
束
条
来
東
杲
杳
松
析
林
枚
果
枝
枲
枼
某
柔
查
柬
柰
柴
栗
桀
桑
桼
梁
條
梟
梨
棘
棠
棥
森
楚
業
楽
榮
樂
樊
欠
次
欣
欮
欲
欶
欽
款
歆
歇
歛
止
正
此
步
武
歨
歪
歮
歯
歰
歲
歴
歷
歸
歹
歺
死
殳
段
殷
殸
殹
殺
殻
殿
毋
毌
母
每
毒
比
毕
毚
毛
毳
氏
氐
民
气
氣
水
氵
氶
氷
永
氺
氾
求
汝
汞
江
沃
沓
沙
沝
泉
法
波
泣
泥
泰
洛
洪
活
派
流
浦
浪
浮
海
淡
淮
清
渚
渠
湯
滿
漸
火
灬
灭
灰
灵
灷
炅
炎
炏
炗
炙
炭
為
烈
烏
烝
焉
無
焦
焱
然
煞
熊
熏
燕
營
燮
爪
爫
爭
爯
爰
爱
爲
爵
父
爻
爽
爾
爿
片
牙
牚
牛
牜
牟
牢
牧
物
牪
牽
犀
犬
犭
犮
狂
狄
狊
独
狺
猋
猒
猪
献
獻
玄
率
玉
王
玟
玨
珎
班
琴
瑟
瑩
瓜
瓦
甘
甚
生
産
用
甫
甬
田
由
甲
申
电
甶
男
甸
甹
画
甾
畀
界
畏
畐
留
畜
畟
畢
畧
畨
番
畫
異
畱
當
畺
畾
疊
疋
疌
疑
疒
疾
癶
癸
癹
登
發
白
百
皀
皃
的
皆
皇
皋
皐
皕
皮
皷
皿
盃
盆
盇
盈
益
盍
盎
监
盒
盖
盛
盡
監
盤
盧
目
直
相
盾
省
眇
眉
看
県
眔
眞
真
眷
眼
眾
着
睘
睪
睿
瞏
瞢
瞿
矍
矛
矞
矢
矣
知
矦
短
石
破
碎
磊
磨
示
礻
礼
神
祟
票
祭
禀
禁
福
禸
禹
禺
离
禽
禾
禿
秀
秃
秉
秋
科
秝
秦
移
稟
穀
穌
穴
究
穹
空
穿
突
窄
窒
立
竒
竜
竝
竟
章
童
竹
笑
笠
筆
等
答
箕
算
箴
節
篤
篭
米
粉
粛
粟
粤
粦
粲
糞
糸
糹
系
約
納
素
索
紫
累
細
絜
絫
絲
維
綿
縣
繇
纍
纟
缶
网
罒
罔
罕
罗
罙
罡
罢
罪
署
罷
羅
羊
羌
羍
美
羔
羕
羗
羞
羡
羣
群
義
羲
羸
羽
翁
翏
習
翕
翟
翠
翼
老
耂
考
者
耆
而
耎
耑
耒
耳
耴
耶
耷
聂
聊
聖
聚
聶
聿
肀
肃
肅
肉
肖
肙
肥
肩
肯
育
肴
胃
背
胡
胥
能
脊
脩
膚
臣
臤
臧
自
臬
臭
臯
臱
至
致
臺
臼
臽
臾
臿
舀
舂
舄
與
興
舉
舌
舍
舛
舜
舞
舟
般
艮
良
色
艸
艹
艾
芒
芔
芬
芮
花
芳
芺
芻
苔
苗
苟
若
苦
英
茶
茸
荅
草
荒
荣
荼
莆
莧
莫
莽
菆
菊
菐
華
萬
落
葉
著
葛
董
葵
蒙
蒦
蒼
蓋
蓬
蓺
蔑
蔡
蕉
蕭
薄
薛
薦
薰
藍
藏
藥
蘭
虍
虎
虐
虒
虔
處
虖
虗
虘
虚
虛
虜
虞
虫
虽
蚤
蚩
蜀
蜜
蟲
蠡
血
行
衍
衛
衣
衤
表
衮
衰
袁
袞
褭
褱
襄
襾
西
覀
要
覃
見
規
覓
覧
親
覽
见
角
解
言
訁
訇
計
記
詹
語
誩
諸
讠
谷
豆
豈
豊
豐
豕
豖
豙
象
豦
豩
豪
豸
貇
貝
貞
貟
負
貢
貧
貪
貫
責
貳
貴
買
費
賁
資
賈
賏
賓
賔
賛
賞
賢
賣
質
賴
贊
贝
贡
责
贯
贲
贵
赖
赞
赤
赦
走
越
足
路
蹇
身
躬
車
軍
軎
軟
輦
车
辛
辜
辟
辥
辰
辱
農
辵
辶
边
达
过
近
连
迷
追
退
送
逆
逐
通
速
造
逢
連
逮
進
遀
遂
過
道
達
遣
適
遷
遺
邊
邑
邕
那
邦
邪
郎
部
郭
都
鄉
酉
酋
配
酓
釆
采
里
重
野
量
金
釒
錢
钅
長
镸
长
門
閃
閉
開
閏
閑
閒
間
閔
閵
閻
闌
门
间
闷
阑
阜
阝
阿
降
陳
陽
隆
隊
隋
隡
隨
隱
隶
隹
隺
隻
隼
隽
难
雀
雁
集
雈
雋
雍
雐
雔
雙
雚
雜
雝
離
難
雨
雩
雪
雲
零
雷
電
需
霍
霜
霝
霞
霸
靈
靑
青
非
靡
面
靣
革
韋
韦
韭
韯
韱
音
頁
頃
項
須
頗
頡
頭
頻
顛
页
風
风
飛
飞
食
飠
養
饣
首
香
馬
馮
駦
马
骨
高
髟
鬥
鬯
鬲
鬼
魔
魚
魯
鮮
鱼
鲁
鳥
鳳
鸟
鹵
鹿
麃
麗
麥
麦
麻
黃
黄
黍
黎
黑
黒
黨
黹
黽
黾
鼎
鼓
鼠
鼻
齊
齋
齐
齒
齿
龍
龙
龜
龟
龠
龰
龱
龴
龵
龶
龷
龸
龹
ꝛ
者
艹
ﬁ
﻿
：
？
𠀁
𠀃
𠀆
𠀉
𠀎
𠀐
𠁁
𠁣
𠂆
𠂇
𠂈
𠂉
𠂊
𠂋
𠂎
𠂒
𠂔
𠂛
𠂡
𠂢
𠂤
𠂬
𠂭
𠂹
𠃊
𠃋
𠃌
𠃍
𠃎
𠃑
𠃓
𠃔
𠃜
𠄌
𠄎
𠄠
𠄢
𠆢
𠆥
𠇍
𠈌
𠌵
𠓜
𠔉
𠔥
𠔼
𠔽
𠔿
𠕀
𠕁
𠕋
𠘧
𠘨
𠙻
𠙼
𠚏
𠚒
𠚤
𠚪
𠣏
𠤎
𠤕
𠥓
𠦄
𠦑
𠦝
𠧒
𠧗
𠧪
𠩺
𠪚
𠫓
𠫔
𠫤
𠬛
𠬝
𠬞
𠬢
𠬤
𠬶
𠮛
𠮦
𠮷
𠯑
𠱠
𠳮
𠷎
𡈼
𡉀
𡉵
𡌥
𡍮
𡏳
𡕒
𡕩
𡕰
𡖅
𡗗
𡗜
𡘆
𡘤
𡧱
𡨄
𡩧
𡬠
𡭽
𡰣
𡰥
𡰪
𡰯
𡰱
𡷈
𡸁
𡿨
𡿩
𡿪
𡿺
𢀖
𢀛
𢀩
𢁙
𢆉
𢆰
𢆶
𢇁
𢇇
𢉖
𢌬
𢌿
𢏚
𢑑
𢑚
𢖻
𢙣
𢛳
𢦏
𢦒
𢧵
𢼄
𢾕
𣁋
𣄼
𣅀
𣅽
𣍘
𣎳
𣎵
𣏋
𣏼
𣗥
𣥂
𣥖
𣦵
𣦼
𣧄
𣪊
𣪠
𣬉
𣳾
𣶒
𤇾
𤊽
𤐫
𤓰
𤔔
𤕨
𤣩
𤰇
𤰔
𤰞
𤴓
𤴔
𤽄
𥁑
𥁕
𥃦
𥃩
𥃭
𥇡
𥑟
𥘅
𥘈
𥝢
𥫗
𥱡
𦈢
𦉪
𦉬
𦉼
𦍌
𦍒
𦎧
𦐇
𦓔
𦔮
𦘒
𦙃
𦚏
𦣝
𦣞
𦣻
𦥑
𦥔
𦥯
𦨉
𦭝
𦰩
𧆞
𧈧
𧘇
𧰨
𧴪
𧴮
𧵩
𧾷
𨸏
𨾴
𩙿
𩠐
𩫏
𩵋
𪉷
𪜀
𪟽
𪠲
𪩲
𫇦
𫔭
𫜸
𫝀
𫠣
𫠩
𫢉
𫥞
𫩏
𫩠
𫪡
𫲽
𫶧
𬀷
𬐘
𬗌
𬙙
𬛸
𬜯
𬟩
𬯁
𬴘
𬺻
𬼉
𬼖
𭀰
𭁈
𭁨
𭅰
𭑈
𭕄
𭗼
𭤨
𭥫
𭻾
𮅕
𮊿
𮍌
𮍏
𮓗
𮥼
𮧮
廾
𰀁
𰀄
𰀈
𰀉
𰀕
𰀠
𰀡
𰀢
𰀪
𰁜
𰃮
𰆊
𰆘
𰋙
𰕎
𰢴
𰧭
𰯲
00--
000--
001--
002--
003--
005--
006--
007--
0080--
0082--
0083--
0085--
0086--
0089--
0090--
0093--
01--
0109--
013--
02--
020--
03--
04--
05--
06--
07--
08--
09--
100--
103--
104--
105--
107--
118--
119--
120--
121--
122--
123--
124--
125--
126--
129--
133--
137--
144--
146--
149--
500--
546--
55--
56--
57--
58--
59--
61--
62--
64--
65--
67--
68--
69--
70--
71--
72--
73--
74--
75--
76--
77--
78--
79--
80--
81--
82--
83--
84--
85--
86--
87--
88--
89--
90--
91--
92--
93--
94--
95--
96--
97--
978--
98--
99--
a--
aa--
ab--
abd--
aber--
abil--
ac--
acci--
ach--
act--
actu--
acw--
ad--
ada--
addu--
ade--
adeil--
adein--
adel--
adhe--
adlewyr--
adna--
adwa--
adwei--
ae--
ael--
af--
ag--
aga--
age--
agos--
ah--
ai--
ail--
air--
ait--
aj--
ak--
al--
alba--
albi--
alder--
aleg--
alek--
aler--
ales--
alf--
ali--
all--
alph--
als--
alt--
alta--
alw--
am--
ama--
amal--
ambi--
ame--
ami--
aml--
an--
ana--
anar--
anc--
and--
andal--
ane--
anesm--
anfei--
ang--
anghy--
anghyd--
angio--
ani--
aniby--
ann--
anna--
anne--
anni--
anog--
ans--
ansefyd--
ant--
anter--
anti--
anu--
any--
ao--
ap--
ape--
api--
apoc--
apocry--
appe--
applic--
aq--
aqu--
aqui--
ar--
ara--
arc--
arch--
arche--
ardd--
are--
areit--
arf--
arg--
argen--
argyho--
arho--
ari--
ark--
art--
arw--
as--
asa--
ash--
ask--
asp--
assa--
assass--
astro--
astrono--
at--
ato--
au--
aur--
aus--
auto--
av--
ava--
ave--
avi--
aw--
ax--
ay--
ayles--
az--
b--
ba--
bab--
bach--
back--
bact--
bad--
bag--
bahr--
bai--
bal--
bala--
ball--
bam--
ban--
bar--
bara--
barn--
bas--
basg--
bat--
batti--
bau--
bay--
bc--
be--
beau--
bec--
beck--
bed--
bee--
beg--
behr--
bei--
bel--
ben--
ber--
berchno--
beren--
berg--
bet--
bex--
bhas--
bi--
bia--
bibl--
biblio--
bid--
bien--
big--
bil--
bin--
bio--
bir--
bis--
bit--
bje--
bl--
bla--
black--
blaen--
bland--
ble--
bleid--
blue--
bo--
bob--
boch--
bod--
bog--
bol--
bon--
bor--
borg--
bos--
bot--
bou--
boult--
bour--
bout--
bow--
box--
boy--
br--
bra--
bras--
bre--
brez--
bri--
brif--
brig--
bro--
brock--
brofedi--
broff--
bron--
brown--
bru--
bruck--
bryn--
bu--
bub--
bucc--
bud--
bugei--
buko--
bul--
bun--
bundes--
bur--
bus--
but--
butter--
buz--
bw--
bwr--
bwrie--
bwy--
bwys--
by--
byd--
bygy--
byr--
bys--
byw--
bø--
c--
ca--
cad--
cadei--
cae--
caer--
caf--
cai--
cal--
call--
cam--
camp--
can--
cang--
cap--
capit--
car--
cara--
cars--
cartha--
cas--
casa--
cass--
cast--
cat--
cau--
cava--
cd--
ce--
ceder--
cefn--
cei--
cele--
celebra--
cen--
cer--
cerfi--
ces--
ceu--
ch--
cha--
chal--
cham--
chan--
char--
charn--
chat--
che--
chened--
cher--
chi--
chlo--
chlu--
chly--
cho--
chofi--
chry--
chryf--
chu--
chw--
chy--
chyd--
chyfei--
chyfl--
chyl--
chym--
chyma--
chyn--
chyr--
chys--
chyw--
ci--
cicc--
cig--
cil--
cinder--
cine--
cinn--
cir--
cirg--
ciw--
ck--
cl--
cla--
cle--
clim--
clo--
cly--
cn--
co--
cob--
cock--
cod--
coe--
coes--
cof--
cog--
coim--
col--
cold--
cole--
coll--
com--
comiw--
compo--
con--
confi--
construct--
contri--
convers--
cop--
cor--
corn--
corti--
corun--
cos--
cot--
cou--
cour--
cow--
cra--
cre--
creu--
cri--
crib--
criti--
cro--
croc--
croes--
crom--
cron--
cru--
crus--
crw--
crwy--
cry--
cs--
ct--
cu--
cul--
cumm--
cur--
custo--
cut--
cuth--
cw--
cwm--
cwn--
cwr--
cwyn--
cy--
cycl--
cyd--
cydna--
cydym--
cyf--
cyfan--
cyfarf--
cyfieit--
cyfun--
cylch--
cym--
cymdog--
cymhwy--
cymm--
cymydog--
cyn--
cynhwy--
cynhyr--
cynorthwy--
cynry--
cynyr--
cyp--
cyr--
cyrd--
cysy--
cyt--
cyth--
cyto--
cyts--
cyw--
cz--
d--
da--
dad--
dae--
daf--
dag--
dai--
dal--
dam--
dan--
dar--
dargan--
darms--
das--
dat--
data--
datbl--
datgel--
dath--
dau--
daw--
day--
dd--
dda--
ddamw--
ddar--
ddargan--
ddaros--
ddat--
ddath--
dde--
ddeheu--
ddel--
ddeu--
ddi--
ddiby--
ddien--
ddifl--
ddirw--
ddist--
ddo--
ddry--
ddu--
ddw--
ddwy--
ddy--
ddychmy--
ddyfn--
ddyfr--
ddyn--
ddyr--
de--
deb--
dec--
ded--
defen--
defi--
deg--
dei--
deint--
del--
dem--
democ--
demog--
den--
der--
derfys--
des--
det--
deter--
deu--
deud--
deur--
dev--
dew--
dha--
di--
dia--
diag--
diar--
diby--
dic--
diction--
did--
diddy--
die--
diffe--
difl--
dig--
dim--
dimen--
din--
dio--
dipl--
dir--
dis--
dj--
dl--
do--
dob--
doc--
dod--
dog--
dol--
dom--
don--
dona--
dor--
dos--
dot--
dou--
dow--
down--
dr--
dra--
draws--
dre--
dri--
drin--
dro--
droed--
dros--
dru--
dry--
du--
duc--
dug--
dum--
dur--
dus--
duwin--
dw--
dwr--
dwy--
dy--
dyfei--
dyfn--
dyfr--
dym--
dyn--
dyr--
dyrcha--
dyw--
dz--
e--
ea--
east--
eat--
eb--
ec--
ech--
eck--
eco--
ed--
edaf--
edel--
edmy--
ee--
ef--
efeill--
effei--
efry--
eg--
ehan--
ehe--
ehr--
ei--
eich--
eifft--
eil--
ein--
eir--
eiria--
eis--
eisen--
ej--
ek--
el--
ela--
elea--
elec--
electro--
eleg--
elek--
elem--
eli--
elk--
ell--
elo--
em--
emer--
emi--
en--
ena--
end--
ene--
eng--
enghr--
enter--
enw--
ep--
epid--
epip--
epist--
equ--
equi--
er--
erw--
ery--
es--
esg--
esper--
est--
et--
ethn--
etym--
eu--
euog--
euph--
eur--
euro--
ev--
evalu--
eve--
ever--
ew--
ex--
exam--
exp--
explo--
extre--
ey--
ez--
f--
fa--
fab--
fact--
fad--
fae--
faes--
fag--
fai--
fair--
fal--
falk--
falken--
fam--
fan--
fanta--
fante--
far--
farn--
fas--
fat--
fau--
favor--
fe--
feat--
fecan--
fed--
fei--
fel--
fen--
fer--
ferte--
fetho--
ff--
ffa--
ffe--
ffi--
ffo--
ffor--
ffoto--
ffroe--
ffrwy--
ffry--
ffw--
fi--
fig--
fil--
film--
fin--
fir--
fire--
fis--
fitz--
fl--
flavi--
flint--
flo--
flu--
fly--
fo--
fod--
fog--
fol--
folt--
fon--
foot--
for--
fore--
fou--
fow--
fox--
fr--
fra--
fre--
free--
fri--
fried--
fro--
fron--
fry--
fu--
fugei--
fuka--
fuku--
ful--
fun--
fund--
fur--
fw--
fwl--
fwr--
fws--
fwslem--
fwy--
fwyn--
fy--
fyfyr--
fyn--
fyneg--
fyr--
fyw--
g--
ga--
gab--
gad--
gae--
gaf--
gag--
gai--
gal--
gam--
gan--
gania--
gar--
garn--
gas--
gau--
gay--
gaz--
ge--
gee--
geheim--
gei--
gel--
gem--
gen--
geo--
ger--
ghi--
gi--
gia--
gian--
gib--
gig--
gil--
gin--
gior--
girl--
gl--
gla--
glan--
glas--
glen--
gler--
gli--
glo--
glod--
glu--
gly--
glyn--
glyw--
gna--
gno--
go--
gob--
gobei--
god--
goel--
gof--
gog--
gol--
gold--
goll--
gonc--
gont--
good--
gor--
gorch--
gorchfy--
gorth--
goru--
gorym--
got--
gotts--
gou--
gour--
gov--
gover--
gr--
gra--
grand--
gre--
green--
gri--
gro--
gron--
gru--
gu--
guar--
gue--
guer--
guil--
guis--
gul--
gun--
gur--
gus--
guy--
gw--
gwa--
gwar--
gwarad--
gwatw--
gwayw--
gwe--
gwein--
gweir--
gweith--
gwen--
gwib--
gwin--
gwly--
gwn--
gwr--
gwrei--
gwrth--
gwy--
gwyn--
gy--
gyd--
gydna--
gydym--
gyf--
gyfad--
gyfan--
gyfei--
gyfieith--
gyfl--
gyfod--
gyho--
gyl--
gylch--
gym--
gymmer--
gyn--
gynghrei--
gynhyr--
gynry--
gynyr--
gyp--
gyr--
gys--
gyseg--
gyw--
h--
ha--
hack--
had--
haf--
hag--
hai--
hail--
haj--
hal--
hall--
halog--
ham--
han--
hand--
hap--
har--
hard--
harg--
harw--
harwein--
has--
hat--
hau--
hav--
hawt--
hay--
he--
head--
heb--
hebre--
hed--
hei--
heine--
hel--
hell--
hen--
henei--
her--
hes--
het--
heu--
hi--
hierar--
high--
hil--
hills--
him--
hin--
hip--
hir--
his--
hit--
hl--
hm--
hn--
ho--
hob--
hoch--
hodg--
hof--
hol--
holl--
holm--
home--
homo--
hon--
hop--
hor--
horn--
hot--
hou--
how--
hr--
hu--
hub--
hud--
hum--
hun--
hunan--
hur--
hut--
hw--
hy--
hyd--
hye--
hymd--
hyn--
hyper--
hyrd--
hys--
hysg--
hø--
i--
ia--
ib--
ic--
ice--
id--
iden--
idio--
ie--
ieu--
if--
ig--
ign--
ike--
il--
ill--
illum--
illus--
im--
imag--
in--
inc--
indic--
inf--
ing--
initi--
ins--
inspi--
int--
integ--
inter--
inven--
io--
ip--
ir--
iron--
is--
isa--
ishi--
iso--
ist--
it--
iu--
iv--
iw--
ix--
iz--
j--
ja--
jac--
jae--
jag--
jai--
jam--
jan--
jar--
jay--
je--
jeho--
jen--
jer--
ji--
jo--
job--
jon--
jor--
jou--
jp--
ju--
jun--
jy--
k--
ka--
kai--
kal--
kamp--
kan--
kar--
kas--
kash--
kata--
kato--
kay--
kazu--
ke--
kei--
kel--
ken--
ker--
kers--
kess--
key--
kha--
kho--
ki--
kib--
kid--
kil--
kim--
kins--
kirch--
kirk--
kit--
kiyo--
kje--
kla--
kle--
klu--
kna--
kni--
kno--
knock--
ko--
kol--
kon--
kor--
kos--
kr--
kra--
kreuz--
kro--
krys--
ks--
ku--
kul--
kur--
ky--
kø--
kı--
l--
la--
lab--
lac--
lady--
lal--
lam--
lan--
land--
lang--
lar--
las--
lau--
laugh--
law--
laz--
ld--
le--
lea--
lec--
lech--
led--
lee--
lef--
leg--
legi--
lei--
lem--
len--
leo--
leon--
ler--
les--
let--
leu--
lev--
lew--
ley--
li--
lia--
lib--
liber--
libra--
lich--
lichten--
lid--
lie--
lif--
life--
lim--
lin--
lind--
link--
lis--
literatur--
liw--
lju--
ll--
llan--
llaw--
lle--
lled--
lleiha--
lli--
llif--
llo--
llofnod--
llu--
llwyd--
llwyn--
lly--
llys--
lo--
loc--
lock--
log--
lohm--
lom--
lon--
long--
lor--
los--
lot--
lou--
love--
low--
ls--
lt--
lu--
luc--
lud--
ludo--
lw--
ly--
lyk--
lym--
lymp--
lyn--
lys--
lythren--
m--
ma--
mab--
mac--
mack--
macro--
mad--
maddeu--
made--
maes--
mag--
magnifi--
mah--
mai--
maj--
mak--
mal--
mala--
mam--
man--
mante--
manu--
map--
mar--
march--
mari--
mary--
mas--
mat--
mau--
may--
maz--
mał--
mc--
mccor--
me--
meas--
mec--
mecan--
med--
meddyl--
medi--
meg--
meh--
mei--
mel--
mem--
men--
mer--
mes--
met--
meta--
mete--
mewn--
mexi--
mha--
mhen--
mher--
mhl--
mho--
mhr--
mi--
mic--
micro--
mid--
mig--
mik--
mil--
milit--
mill--
min--
mio--
mir--
mis--
mit--
miya--
ml--
mm--
mo--
mod--
modu--
moi--
mol--
mom--
mon--
monocoty--
mont--
monte--
moon--
moor--
mor--
mos--
mosc--
mot--
mou--
mous--
movie--
mp--
mr--
ms--
mt--
mu--
mud--
muk--
mul--
multi--
mun--
mur--
musk--
mw--
mwy--
mwyn--
my--
myd--
myn--
myneg--
myste--
n--
na--
nach--
nad--
nag--
naj--
naka--
nam--
nan--
nant--
nar--
nas--
nasci--
nat--
nau--
naz--
nb--
nc--
nd--
ne--
neander--
neb--
nef--
nehe--
neighbo--
nen--
neo--
ner--
nes--
net--
nether--
neu--
neuro--
new--
news--
nf--
ng--
nga--
nge--
nghe--
nghl--
ngho--
nghr--
nghy--
nghymd--
nghyn--
ngw--
nh--
nhal--
nhir--
nhy--
ni--
nic--
nie--
nig--
nij--
nik--
nin--
nir--
nis--
niw--
niwr--
nn--
no--
nod--
non--
nor--
nord--
north--
nos--
not--
nou--
nov--
now--
nr--
ns--
nt--
nu--
nur--
nw--
nwy--
ny--
nym--
nør--
o--
oak--
oaken--
oat--
ob--
obe--
ober--
oc--
occi--
och--
ocsi--
oct--
od--
oddi--
oer--
oes--
of--
off--
offen--
ofn--
og--
ogone--
oh--
oi--
ok--
ol--
old--
oll--
olyg--
olyn--
om--
on--
one--
op--
oppen--
oppo--
or--
ora--
orchfy--
ordei--
ordin--
orfo--
ori--
oro--
oroes--
oru--
os--
ott--
ou--
out--
ov--
over--
ow--
ox--
oxi--
oz--
p--
pa--
pab--
pac--
pachyce--
pag--
pal--
pam--
pan--
pant--
papa--
par--
para--
pas--
pasqu--
pass--
pat--
pau--
pav--
pay--
pe--
pedia--
peirian--
pel--
pen--
peny--
per--
perchno--
peri--
peru--
pes--
ph--
pha--
phalac--
phar--
phe--
pheir--
phen--
pher--
phor--
phortiw--
phos--
phosph--
phreget--
phres--
phro--
phry--
phyl--
phys--
pi--
pia--
pid--
pie--
pier--
pig--
pil--
pin--
pio--
pis--
pit--
piwritani--
piz--
pl--
pla--
plan--
play--
ple--
pleid--
plis--
plou--
plu--
plym--
po--
pob--
poe--
pog--
pol--
poly--
polyp--
pont--
ponty--
pop--
popu--
por--
porno--
posi--
post--
pot--
pou--
pow--
poz--
pp--
pr--
pra--
pre--
presby--
pri--
prif--
pro--
proc--
proces--
profess--
propo--
pru--
pry--
ps--
psil--
psychia--
pt--
pu--
pul--
punc--
pur--
put--
pw--
py--
pyr--
pytha--
q--
qi--
qu--
quat--
que--
qui--
quint--
quo--
r--
ra--
rab--
rac--
rad--
radio--
rag--
rai--
raj--
ral--
ram--
rama--
ran--
rap--
ras--
rat--
rau--
ravi--
raw--
ray--
rd--
re--
rec--
recom--
red--
ref--
refor--
reg--
regu--
reho--
rei--
rela--
rem--
ren--
reol--
rep--
repos--
res--
resol--
resur--
ret--
rev--
rew--
rey--
rez--
rg--
rh--
rhag--
rhan--
rhei--
rheith--
rheu--
rhiw--
rho--
rhos--
rhu--
rhut--
rhw--
rhwyd--
rhwym--
rhy--
rhyd--
rhyng--
ri--
rie--
rif--
rig--
rik--
rin--
ring--
rip--
ris--
rk--
rn--
ro--
road--
rob--
roc--
rock--
rod--
roe--
rom--
ron--
ros--
rose--
ross--
rou--
row--
rs--
rt--
ru--
rufi--
rug--
rum--
run--
rus--
rut--
rw--
rwy--
ry--
rydd--
ryw--
rza--
rø--
s--
sa--
saar--
sac--
sad--
sai--
sak--
sal--
salt--
sam--
san--
sanctei--
sand--
sar--
saty--
sau--
saw--
sax--
say--
sc--
scal--
scar--
scat--
sche--
schi--
schl--
schm--
schn--
scho--
schw--
schwei--
schy--
sci--
sco--
scor--
sculp--
se--
sea--
sec--
see--
sef--
sefyd--
sei--
sek--
sel--
sem--
sen--
ser--
set--
sett--
seve--
sex--
sey--
sf--
sg--
sgand--
sgi--
sgo--
sgyr--
sh--
sha--
she--
sher--
shi--
shin--
sho--
show--
shu--
si--
sia--
sic--
sid--
sidd--
sie--
sig--
sik--
sil--
silve--
silw--
sim--
sin--
sir--
sit--
siv--
six--
sk--
ska--
skel--
ski--
sku--
sky--
sla--
slafi--
sli--
slo--
sm--
smoo--
sn--
so--
soc--
socie--
sog--
sol--
solut--
som--
some--
son--
sor--
sou--
south--
sp--
spa--
spec--
spel--
spine--
spo--
squ--
sr--
sree--
sri--
ss--
st--
sta--
stan--
star--
ste--
ster--
stimu--
sto--
stour--
stra--
stre--
strei--
stu--
stw--
su--
sub--
sud--
sue--
sug--
sul--
sum--
sun--
super--
supp--
sur--
sus--
sut--
sv--
sw--
sweet--
swim--
swn--
sy--
syfr--
sylweb--
sym--
symm--
symp--
syn--
syr--
sz--
sø--
t--
ta--
tab--
tad--
tae--
taf--
tag--
tai--
tak--
takah--
tal--
talia--
tam--
tan--
tap--
tar--
tard--
tash--
tat--
tau--
tay--
te--
tea--
tech--
teg--
teign--
teim--
teir--
tel--
temp--
ten--
ter--
terri--
tes--
teu--
tew--
th--
tha--
the--
thechne--
ther--
thi--
thir--
tho--
thor--
thra--
thre--
threu--
thri--
thros--
thry--
thu--
thur--
thy--
thym--
thynn--
ti--
tib--
til--
tim--
tin--
tip--
tir--
tit--
to--
toc--
tod--
toi--
toku--
tol--
tom--
ton--
too--
top--
tor--
tou--
tour--
toy--
toz--
tr--
tra--
tram--
trans--
traws--
tre--
tref--
treu--
tri--
trig--
tro--
troed--
tros--
tru--
try--
ts--
tsie--
tsuk--
tt--
tu--
tua--
tud--
tum--
tun--
tur--
turn--
tv--
tw--
twr--
ty--
tym--
tyn--
tyr--
tz--
u--
ucc--
uch--
ud--
ue--
ui--
uk--
ul--
ull--
ult--
um--
un--
unc--
und--
under--
unic--
univ--
up--
ur--
us--
ut--
uwch--
v--
va--
vacc--
val--
van--
var--
varia--
vas--
ve--
ven--
ver--
verg--
vers--
vi--
via--
vic--
vie--
view--
vig--
vil--
vin--
vir--
vis--
vo--
voj--
vol--
von--
vor--
vro--
vu--
vul--
vy--
w--
wa--
wag--
wahl--
wai--
wal--
wan--
war--
ware--
was--
wash--
wat--
water--
waw--
way--
wayw--
wcre--
we--
web--
wed--
wei--
weith--
wel--
wen--
wer--
wes--
west--
wester--
wex--
whis--
whit--
white--
wi--
wici--
wick--
wid--
wie--
wig--
wik--
wiki--
wil--
wild--
wim--
win--
wind--
wir--
wis--
wlad--
wm--
wn--
wo--
wol--
woo--
wood--
wor--
wr--
wrei--
wrth--
wryw--
ws--
wu--
wy--
wyl--
wyn--
wynep--
wyr--
x--
xan--
xi--
xiao--
xx--
y--
ya--
yasu--
ych--
yd--
yddf--
ye--
yes--
yi--
yl--
ym--
yma--
ymddi--
ymdro--
ymff--
ymgas--
ymgel--
ymgyngho--
ymyr--
yn--
yng--
ynys--
yo--
yoko--
yoshi--
you--
yr--
ys--
ysgog--
ysgry--
ysgrythu--
ysgrythy--
ysgu--
ysgy--
yst--
yu--
yuki--
yun--
z--
za--
zam--
zar--
ze--
zel--
zen--
zer--
zi--
zim--
zo--
zor--
zu--
ß--
æ--
ð--
ø--
đ--
ı--
ſ--
ə--
μ--
ν--
τ--
м--
с--
ال--
स--
க--
த--
ம--
₁--
₂--
--0
--00
--01
--02
--03
--04
--05
--06
--07
--08
--09
--1
--10
--11
--12
--13
--14
--15
--16
--17
--18
--19
--2
--20
--21
--22
--23
--24
--25
--26
--27
--28
--29
--3
--30
--31
--32
--33
--34
--35
--36
--37
--38
--39
--4
--40
--41
--42
--43
--44
--45
--46
--47
--48
--49
--5
--50
--51
--52
--53
--54
--55
--56
--57
--58
--59
--6
--60
--61
--62
--63
--64
--65
--66
--67
--68
--69
--7
--70
--71
--72
--73
--74
--75
--76
--77
--78
--79
--8
--80
--81
--82
--83
--84
--85
--86
--87
--88
--89
--9
--90
--91
--92
--93
--94
--95
--96
--97
--98
--99
--a
--aa
--ab
--aba
--able
--aby
--ac
--aca
--acci
--aceae
--ach
--ack
--acy
--ad
--ada
--adau
--ade
--adi
--adl
--ado
--adol
--ador
--adr
--adu
--adur
--adwr
--adwri
--adwy
--adwyaeth
--ady
--ae
--aeg
--aeschna
--aeth
--aethau
--af
--afol
--ag
--age
--agh
--ah
--ahan
--ahl
--ai
--aia
--aich
--aid
--aidd
--aig
--aim
--ain
--air
--aire
--ais
--aist
--aith
--aj
--ak
--aka
--ako
--al
--ala
--ald
--aldi
--ale
--aleg
--ales
--alis
--ality
--all
--alon
--alya
--am
--an
--ana
--anaidd
--and
--ander
--ane
--ani
--ania
--aniaeth
--aniaid
--ann
--ano
--anod
--ans
--ant
--ante
--anus
--anza
--ao
--ap
--api
--ar
--ara
--arat
--ard
--ardi
--ardo
--ards
--are
--ared
--ari
--aris
--arn
--aro
--ars
--art
--aru
--ary
--as
--asai
--asant
--asco
--ase
--asent
--asid
--asoch
--asom
--ass
--ast
--aswn
--at
--ata
--ate
--ated
--ates
--ath
--athan
--ati
--ation
--ato
--atra
--ats
--ature
--atus
--au
--aud
--aux
--av
--aw
--awa
--awd
--awg
--awiad
--awl
--awodd
--awr
--ax
--ay
--aya
--ayo
--ays
--az
--azzi
--azzo
--b
--ba
--bach
--back
--ban
--bar
--bau
--baum
--bb
--bbs
--be
--bel
--berg
--bes
--bh
--bha
--bi
--bie
--bier
--big
--bl
--ble
--blo
--bo
--boa
--body
--bol
--bor
--boro
--boy
--bria
--bs
--bst
--bt
--bu
--bul
--burg
--bury
--by
--byn
--bæk
--c
--ca
--cal
--cat
--cchi
--cchio
--cco
--ce
--cea
--ceae
--ced
--cel
--cer
--ces
--cey
--ch
--che
--chi
--cht
--chu
--chy
--ci
--cia
--cie
--cies
--cin
--cina
--cing
--cini
--cio
--ck
--cka
--cke
--ckel
--cken
--cki
--ckley
--cks
--cl
--co
--cock
--con
--cott
--cr
--croft
--cs
--ct
--cter
--ction
--ctis
--ctod
--cton
--cts
--cu
--cus
--cy
--cyn
--cz
--d
--da
--daceae
--dae
--daf
--dai
--dale
--dan
--das
--dasant
--dau
--day
--dberg
--dd
--dden
--ddi
--ddio
--ddion
--ddol
--ddu
--de
--dea
--deb
--ded
--def
--deg
--den
--der
--derau
--des
--dest
--deu
--dey
--df
--dfa
--dge
--dh
--dhar
--di
--dia
--diad
--diannau
--diau
--did
--dig
--dil
--din
--dio
--dion
--dir
--dis
--ditch
--dl
--dlaw
--dle
--dler
--dley
--dlys
--dn
--do
--dod
--dodau
--dog
--dol
--don
--dor
--dou
--dova
--down
--dr
--dra
--dro
--droea
--droi
--drus
--ds
--dsen
--dsky
--dt
--dtke
--du
--duaeth
--dum
--dur
--dw
--dwn
--dwr
--dwy
--dwyd
--dwyr
--dy
--dydd
--dylluan
--dyr
--e
--ea
--ead
--eae
--eaid
--eaidd
--eal
--ean
--ear
--eau
--eb
--ebau
--ebu
--ec
--eca
--ecca
--ece
--ech
--eck
--ect
--ection
--ed
--eda
--edd
--eddau
--eddu
--ede
--edi
--edig
--edigion
--edl
--edydd
--ee
--eed
--een
--eer
--eers
--eev
--ef
--efig
--eg
--ega
--eger
--egion
--ego
--egol
--egydd
--eh
--ei
--eia
--eidd
--eiddio
--eidfa
--ein
--eit
--ej
--ek
--eke
--el
--ela
--eld
--ele
--eler
--eley
--eli
--ell
--elli
--els
--em
--ema
--eman
--ement
--en
--ence
--end
--eni
--ennau
--enne
--enni
--eno
--enog
--ens
--ense
--ensis
--ent
--ents
--eo
--eon
--eous
--ep
--er
--era
--ere
--erer
--erg
--eri
--eria
--erior
--ern
--erne
--ero
--ers
--erson
--ert
--erton
--erty
--erve
--ery
--es
--esau
--esco
--escu
--ese
--esen
--esgop
--esh
--esi
--eson
--ess
--esse
--est
--et
--ete
--eter
--eth
--ethau
--ets
--ett
--etta
--ette
--etti
--ety
--etz
--eu
--eur
--eus
--eux
--ev
--ew
--ewi
--ex
--ext
--ey
--eydd
--ez
--eze
--f
--fa
--fab
--faen
--fal
--fan
--fau
--fawr
--fe
--fed
--feld
--feldt
--fer
--ferase
--fes
--fey
--feydd
--ff
--fft
--fi
--fia
--fiad
--field
--fig
--film
--fio
--fir
--fit
--fl
--flu
--fnidiaeth
--fo
--fod
--fol
--for
--ford
--forio
--fr
--fraint
--fro
--fs
--ft
--fu
--ful
--fus
--fwr
--fy
--fyd
--g
--ga
--gaard
--gaidd
--gal
--gan
--gar
--garol
--garwch
--gas
--gate
--gau
--gc
--ge
--ged
--gedd
--gel
--gen
--ger
--ges
--gfa
--gford
--gg
--ggio
--ggs
--gh
--gham
--ghlin
--ghor
--ght
--gi
--gid
--gie
--gio
--gir
--git
--giu
--gl
--gle
--gley
--glo
--glor
--gn
--gna
--gne
--gny
--go
--goch
--godd
--gol
--gon
--gos
--gr
--graph
--grawn
--gren
--gs
--gt
--gth
--gton
--gu
--gua
--gue
--gues
--gui
--gwr
--gwyn
--gy
--gybi
--gydd
--gyr
--gys
--gystennin
--h
--ha
--had
--hall
--ham
--han
--haodd
--haol
--har
--hau
--haw
--hawyd
--he
--head
--hed
--heg
--heim
--heir
--hem
--heon
--hes
--heu
--hi
--hia
--hill
--hin
--hio
--hip
--hir
--hl
--hlan
--hmi
--hn
--ho
--hoe
--hof
--hoff
--hoi
--hood
--hor
--hot
--hou
--hr
--hra
--hs
--ht
--hte
--hty
--hu
--hua
--hue
--hus
--hy
--hyrfu
--hyrfus
--i
--ia
--iac
--iaceae
--iad
--iadau
--iadol
--iadur
--iaduron
--iadwy
--iae
--iaeth
--iaethau
--iaethus
--iaf
--iah
--iai
--iaid
--iais
--ial
--iam
--ian
--iannaeth
--iannau
--iannodd
--iannol
--iannwr
--iano
--ians
--iant
--ianu
--ianwyr
--ias
--iasai
--iasant
--iata
--iateir
--iation
--iau
--ib
--ible
--ic
--ica
--icach
--ical
--ice
--ich
--ick
--icki
--ico
--ics
--icus
--icz
--id
--ida
--idae
--idd
--iddio
--ide
--ident
--ides
--idi
--idio
--idiol
--ido
--idon
--ie
--ied
--iedig
--ieg
--iel
--ield
--ien
--ienne
--ient
--ier
--ieri
--ies
--ieu
--iewicz
--if
--ifer
--iff
--ify
--ig
--igaeth
--igan
--iger
--ight
--igion
--igo
--igrwydd
--ih
--ii
--ik
--ika
--iko
--il
--ila
--ile
--ili
--ilia
--iliad
--ility
--ill
--illo
--ilo
--ily
--im
--ima
--iman
--imir
--in
--ina
--inck
--ind
--inda
--ine
--ineb
--inen
--ines
--ineura
--ing
--ingham
--ings
--ington
--ini
--ino
--ins
--inus
--io
--iodd
--iog
--iol
--iola
--ioli
--ion
--ions
--ionydd
--ios
--ip
--iq
--ique
--ir
--ira
--ire
--iri
--iriog
--iro
--iroedd
--irs
--is
--isch
--ise
--ish
--ished
--isia
--islav
--ism
--ison
--isse
--ist
--ists
--it
--ita
--ite
--ith
--itha
--ithiau
--ithio
--ithiol
--ithiwr
--ities
--itis
--ito
--itro
--its
--itt
--itti
--ity
--itz
--iu
--ium
--ius
--iv
--ive
--iver
--iw
--iwch
--iwm
--iwn
--iwr
--iwyd
--ix
--iya
--iynu
--iz
--iza
--ization
--ized
--j
--ja
--jak
--jan
--jar
--je
--ji
--jit
--jk
--jn
--jo
--js
--ju
--k
--ka
--kar
--kat
--ke
--kel
--ker
--kers
--kes
--ket
--kh
--kha
--ki
--kie
--kin
--kine
--kins
--kis
--kley
--ko
--koff
--kopf
--kov
--kovsky
--kowski
--ks
--kt
--ku
--ky
--l
--la
--lad
--lade
--laer
--lah
--lan
--land
--lao
--lar
--lard
--las
--lat
--lated
--lation
--lau
--lav
--lawn
--lay
--lba
--lc
--lch
--ld
--lde
--ldi
--ldo
--le
--lea
--leby
--led
--ledd
--lee
--leg
--leirdeb
--leirio
--leisio
--len
--ler
--les
--less
--let
--leton
--leuwyr
--leuydd
--ley
--lf
--li
--lia
--liad
--lian
--lic
--lich
--lie
--lier
--lieu
--lig
--lin
--line
--ling
--lio
--lion
--lir
--lis
--lity
--liw
--lk
--lka
--ll
--lla
--llau
--lle
--lleon
--lli
--llo
--lls
--llu
--lly
--llyd
--llys
--lm
--lo
--lock
--lod
--lodd
--log
--logical
--logy
--lon
--lor
--los
--lot
--lov
--lova
--low
--ls
--lt
--lter
--lton
--lu
--lun
--lus
--lw
--lwg
--lwr
--lwyd
--lwyn
--ly
--lyd
--lydd
--lyn
--lys
--lz
--m
--ma
--man
--mann
--mans
--mar
--matory
--mau
--mb
--mba
--mbo
--mder
--me
--meg
--men
--ment
--mer
--mes
--mey
--mi
--mic
--mig
--min
--mis
--miwr
--mley
--mm
--mma
--mmer
--mo
--mon
--mor
--more
--mos
--mp
--mper
--ms
--mu
--mus
--my
--n
--na
--nac
--naeth
--naf
--nah
--nai
--naidd
--nais
--nal
--nan
--nard
--nas
--nath
--nau
--nay
--nberg
--nburg
--nbury
--nc
--nce
--ncey
--nch
--ncy
--nd
--nda
--nde
--nden
--nder
--ndi
--ndo
--ndon
--ndr
--ndra
--nds
--ndt
--ne
--neau
--ned
--nedd
--neg
--nei
--nel
--nen
--ner
--nes
--ness
--net
--ney
--ng
--nge
--nger
--ngham
--ngo
--ngton
--ni
--nia
--niaeth
--niaid
--nid
--nig
--nik
--nil
--nin
--nio
--nion
--nir
--nis
--nius
--nk
--nka
--nko
--nley
--nn
--nna
--nnau
--nne
--nnig
--nnu
--no
--noch
--nock
--nod
--nodd
--noedd
--nog
--nol
--nom
--non
--nor
--nos
--nox
--ns
--nse
--nsi
--nsis
--nski
--nson
--nstein
--nt
--nta
--ntal
--nte
--nti
--ntini
--ntio
--nto
--nton
--nts
--ntura
--nu
--num
--nus
--nwald
--nwch
--nwn
--nwr
--nwrf
--nws
--nwyd
--nwyr
--ny
--nya
--nydd
--nyg
--nyn
--nz
--nza
--nzo
--o
--oa
--oam
--obi
--oc
--ocaf
--och
--ock
--oco
--od
--oda
--odau
--odd
--odi
--odiad
--odion
--ody
--oe
--oedd
--of
--off
--og
--ogaeth
--ogen
--ogi
--ogiad
--ogical
--ogion
--ogue
--ogwyr
--ogy
--ogydd
--oi
--oid
--ois
--ok
--oka
--oke
--oko
--ol
--ola
--olaeth
--oldeb
--oledig
--oli
--oliaeth
--olion
--olo
--olodd
--ology
--olt
--olyn
--om
--oma
--ombe
--ome
--omi
--omo
--on
--ona
--onau
--one
--onen
--ong
--oni
--onia
--onne
--ons
--ont
--onte
--onydd
--oo
--ood
--oon
--op
--opi
--ops
--opus
--or
--ora
--oraeth
--ord
--ore
--orn
--orol
--ors
--ort
--orth
--orthwy
--orwyd
--ory
--os
--osa
--ose
--osg
--osi
--osis
--oslav
--oso
--oss
--ost
--ot
--ote
--oth
--otig
--oto
--ott
--otte
--otti
--otus
--ou
--oud
--oun
--ous
--out
--oux
--ov
--ova
--ovic
--ovich
--ovsky
--ow
--owicz
--ows
--owski
--ox
--oy
--oz
--ozzi
--p
--pa
--pe
--pect
--ped
--pet
--pf
--ph
--phic
--phus
--phy
--pi
--pin
--pl
--po
--port
--position
--pot
--pp
--ppa
--ppe
--ppey
--ps
--pt
--pton
--pus
--py
--pyn
--q
--quay
--que
--quist
--qvist
--r
--ra
--rach
--rad
--radd
--raeth
--rai
--raki
--ram
--ran
--rau
--rb
--rc
--rch
--rd
--rdd
--rdi
--rdo
--re
--rea
--reau
--red
--redd
--ree
--rel
--rell
--rella
--relli
--ren
--res
--ret
--rew
--rey
--rf
--rff
--rg
--rge
--rger
--rhyn
--ri
--ria
--riaeth
--riaid
--ric
--rid
--ridae
--rie
--ries
--rif
--rig
--rill
--rim
--rin
--rini
--rio
--rir
--ris
--rit
--rith
--rity
--rius
--riw
--rix
--riz
--rk
--rl
--rla
--rm
--rman
--rmiwr
--rmwyr
--rn
--rne
--rni
--ro
--rod
--rog
--rol
--ron
--ros
--rot
--rov
--roy
--rp
--rr
--rra
--rre
--rs
--rson
--rt
--rth
--rton
--rts
--rty
--ru
--rum
--rup
--rus
--rwch
--rwm
--rwr
--rwydd
--ry
--ryd
--ryn
--rys
--ryw
--rz
--s
--sa
--sai
--san
--sant
--sas
--sau
--sb
--sburg
--sbwrg
--sby
--scent
--sch
--sche
--schi
--sco
--scu
--se
--sea
--sed
--seg
--sekhar
--sen
--ser
--ses
--set
--seus
--sey
--sfa
--sford
--sg
--sgaard
--sgar
--sgate
--sh
--shan
--shi
--ship
--shire
--si
--sia
--siad
--siau
--sid
--side
--sil
--sin
--sio
--sis
--sit
--sity
--siwn
--siwyd
--sk
--ska
--ske
--ski
--sky
--sl
--sley
--slo
--sm
--sman
--smo
--sner
--so
--soddyn
--sol
--som
--son
--sor
--ss
--ssa
--sse
--sson
--ssy
--st
--sta
--stedt
--stein
--ster
--sticta
--stl
--sto
--ston
--stone
--stown
--stream
--strup
--sts
--su
--sus
--sville
--sworth
--swth
--swyd
--swyr
--sy
--sys
--sø
--sław
--t
--ta
--tach
--tad
--taf
--tal
--tam
--tan
--tar
--tard
--tas
--tation
--tau
--tb
--tch
--te
--ted
--teg
--tein
--ten
--ter
--terau
--tes
--tet
--teur
--th
--thiau
--thwr
--thwy
--ti
--tia
--tiaid
--tial
--tian
--tiau
--tic
--tice
--tics
--tier
--ties
--tig
--times
--tin
--tine
--ting
--tini
--tinum
--tio
--tion
--tions
--tir
--tis
--tius
--tive
--tl
--tle
--tner
--to
--tod
--toft
--tol
--ton
--tor
--tors
--tos
--tow
--town
--tr
--tra
--tre
--tris
--tro
--trup
--ts
--tsen
--tsk
--tsu
--tt
--tta
--tte
--tten
--tti
--tto
--tty
--tu
--tum
--tur
--ture
--tus
--twng
--tws
--ty
--tys
--tz
--tze
--tzer
--tzky
--u
--ua
--uai
--ual
--ub
--uc
--ucci
--uced
--uch
--uchi
--ud
--ue
--uen
--uer
--ues
--uf
--ug
--ugh
--ught
--ui
--uil
--uistics
--uja
--uk
--uke
--uki
--ul
--ula
--ular
--ulata
--ule
--uli
--ull
--ulo
--ult
--ulus
--um
--umi
--un
--ung
--unt
--uo
--uol
--uon
--up
--ur
--ura
--urai
--ure
--urg
--uri
--urn
--uro
--uron
--us
--use
--ust
--ut
--uta
--ute
--uto
--utti
--uw
--ux
--uya
--uyn
--uz
--uzzi
--v
--va
--vais
--val
--van
--vation
--vaux
--ve
--ved
--vel
--ver
--vers
--ves
--vey
--vi
--via
--vic
--vich
--vig
--vil
--ville
--vity
--vko
--vna
--vo
--vois
--vsky
--vus
--vy
--w
--wa
--wad
--wan
--was
--way
--wb
--wc
--wch
--wd
--we
--web
--wedd
--well
--wen
--west
--wf
--wg
--wi
--wich
--wick
--wicz
--wig
--winau
--witz
--wl
--wm
--wn
--wng
--wo
--wod
--wodd
--won
--wood
--wort
--worth
--wr
--wraig
--wrfa
--wriaeth
--wrn
--ws
--wska
--wski
--wsom
--wsus
--wy
--wyd
--wyf
--wyfyn
--wyl
--wyn
--wyo
--wyol
--wyr
--wys
--x
--xa
--xe
--xi
--xia
--xo
--xy
--y
--ya
--yan
--yc
--ych
--ychu
--ychwyr
--yd
--ydan
--ydd
--yddiaeth
--yddion
--yddol
--yddu
--ye
--yer
--yev
--yf
--yg
--yga
--ygiad
--ygid
--ygu
--yi
--yk
--yl
--yle
--yliais
--ylio
--yliodd
--yliwr
--yll
--ylwyr
--ym
--ymu
--yn
--yne
--yngwyd
--ynnau
--ynnu
--ynt
--ynu
--ynwy
--yo
--yon
--yr
--yra
--yrch
--yre
--ys
--ysor
--yt
--yte
--yw
--yx
--z
--za
--zan
--zano
--zar
--zata
--ze
--zek
--zer
--zes
--zetti
--zh
--zi
--zia
--zin
--zio
--zo
--zon
--zoni
--zt
--zu
--zy
--zz
--zza
--zzi
--zzo
--zzy
--ß
--ße
--ð
--ø
--ı
--ın
--ław
--ι
--ς
--υ
--а
--е
--и
--я
--ن
--₀
