!
"
#
##0
##1
##10
##11
##12
##13
##14
##15
##16
##17
##18
##19
##2
##20
##21
##22
##23
##24
##25
##26
##27
##28
##29
##3
##30
##31
##32
##33
##34
##35
##36
##37
##38
##39
##4
##40
##41
##42
##43
##44
##45
##46
##47
##48
##49
##5
##50
##51
##52
##53
##54
##55
##56
##57
##58
##59
##6
##60
##61
##62
##63
##64
##65
##66
##67
##68
##69
##7
##70
##71
##72
##73
##74
##75
##76
##77
##78
##79
##8
##80
##81
##82
##83
##84
##85
##86
##87
##88
##89
##9
##90
##91
##92
##93
##94
##95
##96
##97
##98
##99
$
%
&
'
(
)
*
+
,
-
.
/
0
00
000
001
01
02
03
04
05
050
06
07
08
09
1
10
100
1000
101
1010
102
1020
103
1030
104
1040
105
1050
106
1060
1063
1066
107
1070
10700
108
1080
109
1090
1093
11
110
1100
111
1110
112
1120
113
1130
1137
114
1140
115
1150
1153
116
1160
117
1170
118
1180
1188
119
1190
12
120
1200
121
1210
1215
122
1220
123
1230
124
1240
125
1250
12540
126
1260
1267
127
1270
1277
128
1280
1282
1283
1284
129
1290
1294
13
130
1300
131
1310
132
1320
133
1330
134
1340
135
1350
136
1360
137
1370
138
1380
139
1390
14
140
1400
1404
141
1410
1415
142
1420
143
1430
144
1440
145
1450
1453
146
1460
1461
147
1470
1471
148
1480
1483
1485
149
1490
1492
1499
15
150
1500
1502
1503
1504
1509
151
1510
1519
152
1520
1521
1523
1525
1527
153
1530
1533
1534
1535
1536
154
1540
1541
1542
1543
1544
1545
1546
1547
155
1550
1551
1552
1553
1554
1555
1556
1557
1558
1559
156
1560
1561
1562
1563
1564
1565
1566
1567
1568
1569
157
1570
1571
1572
1574
1575
1576
158
1580
1581
1584
1585
1586
1587
1588
1589
159
1590
1592
1593
1594
1595
1596
1597
1598
1599
16
160
1600
1601
1602
1603
1604
1605
1606
1607
1608
1609
161
1610
1611
1612
1613
1614
1615
1616
1617
1618
1619
162
1620
1621
1622
1623
1624
1625
1626
1627
1628
1629
163
1630
1631
1632
1633
1634
1635
1636
1637
1638
1639
164
1640
1641
1642
1643
1644
1645
1646
1647
1648
1649
165
1650
1651
1652
1653
1654
1655
1656
1657
1658
1659
166
1660
1661
1662
1663
1664
1665
1666
1667
1668
1669
167
1670
1671
1672
1673
1674
1675
1676
1677
1678
1679
168
1680
1681
1682
1683
1684
1685
1686
1687
1688
1689
169
1690
1691
1692
1693
1694
1695
1696
1697
1698
1699
17
170
1700
1701
1702
1703
1704
1705
1706
1707
1708
1709
171
1710
1711
1712
1713
1714
1715
1716
1717
1718
1719
172
1720
1721
1722
1723
1724
1725
1726
1727
1728
1729
173
1730
1731
1732
1733
1734
1735
1736
1737
1738
1739
174
1740
1741
1742
1743
1744
1745
1746
1747
1748
1749
175
1750
1751
1752
1753
1754
1755
1756
1757
1758
1759
176
1760
1761
1762
1763
1764
1765
1766
1767
1768
1769
177
1770
1771
1772
1773
1774
1775
1776
1777
1778
1779
178
1780
1781
1782
1783
1784
1785
1786
1787
1788
1789
179
1790
1791
1792
1793
1794
1795
1796
1797
1798
1799
18
180
1800
1801
1802
1803
1804
1805
1806
1807
1808
1809
181
1810
1811
1812
1813
1814
1815
1816
1817
1818
1819
182
1820
1821
1822
1823
1824
1825
1826
1827
1828
1829
183
1830
1831
1832
1833
1834
1835
1836
1837
1838
1839
184
1840
1841
1842
1843
1844
1845
1846
1847
1848
1849
185
1850
1851
1852
1853
1854
1855
1856
1857
1858
1859
186
1860
1861
1862
1863
1864
1865
1866
1867
1868
1869
187
1870
1871
1872
1873
1874
1875
1876
1877
1878
1879
188
1880
1881
1882
1883
1884
1885
1886
1887
1888
1889
189
1890
1891
1892
1893
1894
1895
1896
1897
1898
1899
19
190
1900
1901
1902
1903
1904
1905
1906
1907
1908
1909
191
1910
1911
1912
1913
1914
1915
1916
1917
1918
1919
192
1920
1921
1922
1923
1924
1925
1926
1927
1928
1929
193
1930
1931
1932
1933
1934
1935
1936
1937
1938
1939
194
1940
1941
1942
1943
1944
1945
1946
1947
1948
1949
195
1950
1951
1952
1953
1954
1955
1956
1957
1958
1959
196
1960
1961
1962
1963
1964
1965
1966
1967
1968
1969
197
1970
1971
1972
1973
1974
1975
1976
1977
1978
1979
198
1980
1981
1982
1983
1984
1985
1986
1987
1988
1989
199
1990
1991
1992
1993
1994
1995
1996
1997
1998
1999
2
20
200
2000
2001
2002
2003
2004
2005
2006
2007
2008
2009
201
2010
2011
2012
2013
2014
2015
2016
2017
2018
2019
202
2020
2021
2022
203
2030
204
2049
205
206
207
208
209
21
210
211
212
213
214
215
216
217
218
219
22
220
221
222
223
224
225
226
227
228
229
23
230
231
232
233
234
235
236
237
238
239
24
240
2400
241
242
243
244
245
246
247
248
249
25
250
251
252
253
254
255
256
257
258
259
26
260
261
262
263
264
265
266
267
268
269
27
270
271
272
273
274
275
276
277
278
279
28
280
281
282
283
284
285
286
287
288
289
29
290
292
293
294
295
297
299
3
30
300
3000
301
302
303
304
305
306
307
308
309
31
310
311
312
313
314
315
316
317
318
319
32
320
321
322
323
325
326
33
330
331
333
334
335
336
337
338
339
34
340
342
344
346
347
35
350
351
352
353
354
355
356
357
358
359
36
360
361
363
364
365
367
37
370
375
378
38
380
383
384
385
388
39
390
395
399
4
40
400
401
405
408
41
410
4100
415
42
420
425
43
430
44
440
45
450
451
455
457
46
460
465
466
468
47
470
473
475
476
477
48
480
482
483
484
485
487
49
490
494
496
499
5
50
500
51
510
52
520
525
53
530
54
540
546
55
550
55581
56
560
57
570
58
580
59
590
6
60
600
61
610
62
620
63
630
64
640
65
650
66
660
67
670
68
680
684
69
690
7
70
700
7083
71
710
72
720
73
730
74
740
75
750
76
760
77
770
78
780
79
790
8
80
800
8000
81
810
82
820
83
830
84
840
85
850
86
860
87
870
88
880
89
890
9
90
900
91
910
92
920
93
930
94
940
95
950
957
96
960
97
970
978
98
980
99
990
999
:
;
<
=
>
?
@
\
^
_
`
a
aa
aage
aalto
aarhus
aaron
ab
abad
abaty
abbas
abbey
abbott
abc
abchasia
abd
abdel
abdomen
abdul
abdullah
abe
abel
aber
aberaeron
aberafan
aberconwy
aberda
aberdaron
aberdaugleddau
aberdeen
aberdyfi
aberffraw
abergele
abergwaun
abergwyngregyn
aberhonddu
abermaw
aberoedd
aberpennar
abertawe
aberteifi
aberth
aberthu
abertyleri
aberu
aberystwyth
abigail
about
above
abraham
abrahams
abram
abril
abruzzo
abse
absennol
absenoldeb
absoliwt
abu
ac
acade
academaidd
academi
academic
academicals
academy
academydd
academyddion
acads
acanthagrion
acanthizidae
accessed
accipitridae
according
ace
acen
acer
ach
achau
achille
achlysur
achlysurol
achlysuron
achos
achosi
achosion
achosir
achosodd
achoswyd
achub
acqua
acre
across
acsiwn
act
actau
actif
actifydd
actio
action
acton
actor
actores
actorion
acw
acwstig
ad
ada
adael
adain
adair
adalwyd
adam
adams
adamson
adar
adargraffiad
adawodd
adawyd
adda
addams
addas
addasiad
addasiadau
addasu
addaswyd
addawodd
addewid
addison
addo
addoli
addoliad
addurniadau
addurno
addysg
addysgol
addysgu
addysgwr
addysgwyd
addysgwyr
ade
adeg
adegau
adeilad
adeiladau
adeiladodd
adeiladu
adeiladwaith
adeiladwyd
adeiledd
adeiledig
adeingoch
adelaide
adele
aden
adennill
adenydd
aderyn
adfail
adfeilion
adfer
adferiad
adferwyd
adfywiad
adfywio
adio
aditya
adlais
adler
adlewyrchiad
adlewyrchu
adloniant
adnabod
adnabuwyd
adnabyddid
adnabyddir
adnabyddus
adnabyddwyd
adnewyddadwy
adnewyddu
adnodd
adnoddau
adolf
adolfi
adolfo
adolph
adolphe
adolygiad
adolygiadau
adolygu
adran
adrannau
adre
adref
adria
adrian
adriana
adriano
adrien
adrienne
adrodd
adroddiad
adroddiadau
adroddir
adroddodd
adroddwr
adroddwyd
adventure
adventures
adverse
advertiser
adwaenid
adwaenir
adwaith
adweithiau
adweithio
ae
aeddfed
aeddfedu
aeleg
aelod
aelodaeth
aelodau
aelwyd
aelwyn
aer
aeron
aeshna
aeshnidae
aeth
aethant
aethpwyd
af
afael
afal
afalau
afan
afc
affair
affairs
affganistan
affleck
affrica
affricanaidd
affricaneg
afghanistan
afi
afiechyd
afiechydon
aflonyddu
aflonyddwch
aflwyddiannus
afon
afonydd
afreolaidd
africa
african
afrikaans
after
afu
ag
aga
again
against
agaricaceae
agaricales
agatha
age
agency
agenda
agent
ager
ages
agne
agnes
agnieszka
agor
agored
agoriad
agoriadol
agorodd
agorwyd
agos
agosa
agosach
agosaf
agostino
agricola
agriocnemis
aguilar
aguirre
agusti
agwedd
agweddau
ah
ahmad
ahmed
ahn
ai
aid
aida
aidan
aidd
aids
aiff
aifft
ail
ailadeiladu
ailadeiladwyd
ailadrodd
ailagor
aileni
ailenwyd
ailfesurwyd
ailgylchu
aime
ain
ainmean
aipht
air
aires
ais
aise
aix
ajay
ak
akerman
aki
akira
akkineni
al
alabama
alabiso
alain
alamitos
alan
alarch
alaska
alastair
alaudidae
alaw
alawon
alba
alban
albanaidd
albaneg
albania
albaniaid
albans
albanwyr
albany
albert
alberta
alberti
albertini
alberto
albion
albrecht
album
albwm
albymau
alcali
alcedinidae
alcohol
alda
alderson
aldo
ale
alec
alecsander
alecsandria
aled
alejandro
aleksandar
aleksander
aleksandr
alena
alessandra
alessandro
alessio
alex
alexa
alexander
alexandra
alexandre
alexandria
alexandru
alexis
alf
alffa
alfio
alfonso
alfre
alfred
alfredo
alfredson
alga
algebra
algebraidd
alger
algeria
algorithm
ali
alice
alicia
alida
alien
aliens
align
alina
aline
alison
alistair
alive
all
alla
allai
allan
allanol
allant
alle
allegheny
allen
allende
aller
allerdale
alles
alley
allforio
alliance
allison
allor
allt
alltud
alltudiaeth
alltudio
allu
alluogi
allwedd
allweddellau
allweddol
allyriadau
allyrru
alma
almaen
almaenaidd
almaeneg
almaenig
almaenwr
almaenwyr
almeida
almirante
almodo
almost
alois
alone
along
alonso
alpaidd
alpau
alpe
alper
alpes
alpha
als
alsace
also
alstrup
alt
altai
alten
alterio
alto
alton
alun
alvaro
alves
alvin
alw
alwad
always
alwedigaeth
alwin
alwodd
alwyd
alwyn
alyn
alys
am
ama
amadeus
amadori
amaeth
amaethyddiaeth
amaethyddol
amalia
aman
amanda
amanita
amar
amato
amatur
amau
amazing
amazon
amazonas
ambell
amber
ambiwlans
ambrose
ambrosio
amcan
amcangyfrif
amcangyfrifir
amcangyfrifon
amcangyfrifwyd
amcanion
amdani
amdano
amdanynt
amddifad
amddiffyn
amddiffynfa
amddiffynfeydd
amddiffyniad
amddiffynnol
amddiffynwr
amddiffynwyr
ame
amedeo
amelia
amendola
america
american
americanaidd
americanwr
americanwyr
americas
amerig
ames
amffibiaid
amgen
amgodio
amgueddfa
amgueddfeydd
amgylch
amgylchedd
amgylcheddau
amgylcheddol
amgylchiadau
amgylchynu
amharu
amhenodol
amherst
amheuaeth
amheus
amhosib
amhosibl
ami
amico
amin
amir
amit
amitabh
aml
amlach
amlaf
amlder
amledd
amleto
amlinellu
amlwch
amlwg
amlycaf
amlygrwydd
amlygu
amman
amnest
amo
amod
amodau
amodol
among
amor
amore
amos
amour
amparo
amrediad
amrwd
amryfal
amryliw
amryw
amrywiad
amrywiadau
amrywiaeth
amrywiaethau
amrywio
amrywiol
amser
amserau
amserlen
amseroedd
amsterdam
amsugno
amwythig
amy
an
ana
anabl
anabledd
anadl
anadlu
anaf
anafiadau
anafu
anafwyd
analysis
anaml
anand
anarferol
anas
anatidae
anatole
anatolia
anatomeg
anawsterau
anc
anchors
ancient
and
anda
andaluci
anders
andersen
anderson
andersson
andes
andhra
andorra
andra
andrade
andre
andrea
andreas
andrei
andreu
andrew
andrews
andrey
android
andromeda
andrzej
andwyol
andy
ane
aned
aneddiadau
anedig
aneglur
aneirin
anelu
aneurin
anfarwolion
anfeidredd
anfeidrol
anferth
anferthol
anffodus
anffurfiol
anffyddwyr
anflodeuol
anfodlon
anfon
anfonodd
anfonwyd
ang
angau
ange
angel
angela
angeles
angelica
angelika
angelina
angelis
angelo
angels
angen
angenrheidiol
angharad
anghenfil
anghenfilod
anghenion
angheuol
anghofio
anghydffurfiaeth
anghydffurfiol
anghydffurfwyr
anghydfod
anghyffredin
anghyflawn
anghyfreithlon
anghymesur
anghysbell
anghytundeb
anghytuno
anghywir
angie
angladd
anglesey
anglia
anglicanaidd
anglo
angola
angst
angus
angylion
anhapus
anhawster
anheddiad
anhrefn
anhwylder
anhwylderau
anhygoel
anhysbys
ani
anialwch
anifail
anifeiliaid
anil
animal
animals
animation
anime
animeiddiad
animeiddiedig
animeiddio
anita
anja
anjou
ankara
anker
ankst
ann
anna
annabella
annales
annals
annatod
anne
anneliese
annelise
annerch
annette
annhebygol
anni
annibyniaeth
annibynnol
annibynol
annibynwyr
annie
annisgwyl
anniversary
anno
annog
annual
annwn
annwyl
anodd
anogodd
another
anouk
anrheg
anrhegion
anrheithio
anrhydedd
anrhydeddau
anrhydeddu
anrhydeddus
ans
ansawdd
ansefydlog
anseriformes
ansicr
ansicrwydd
ansoddair
answyddogol
ant
antarctica
antarctig
antel
anterth
anthem
anthemau
anthony
anthropoleg
anti
antilles
antioch
antiochus
antiquities
anto
antoine
antoinette
anton
antonella
antonelli
antoni
antonia
antonie
antonietta
antonin
antonio
antonius
antony
antrim
antur
anturiaethau
antwerp
anu
anuniongyrchol
anwar
anwedd
anweledig
anwes
anwybyddu
anwyd
any
ao
aodou
ap
apache
apartheid
ape
apelio
apfel
apiaceae
apocalypse
apocalyptig
apocolyptaidd
apodidae
apodiformes
apollo
apostol
apostolion
apple
april
apwyntiwyd
aqaba
aquitaine
ar
ara
arab
arabaidd
arabeg
arabia
arabiaid
arachis
arad
araf
arafu
arago
aragon
araith
arall
aran
aranda
arbed
arbenigedd
arbenigo
arbenigol
arbenigwr
arbenigwyr
arbennig
arberth
arbo
arbrawf
arbrofi
arbrofion
arbrofol
arc
arcadia
arcand
arce
arch
archaea
archaeoleg
archaeolegol
archaeolegwyr
archaeological
archaeology
archainbaud
archdderwydd
archddiacon
archddug
archentaidd
archeolegol
archer
archesgob
archibald
archie
archif
archifau
archifdy
archifwyd
architecture
archive
archived
archives
archoffeiriad
archwiliad
archwilio
arctic
arctig
arcy
ardal
ardaloedd
ardalydd
ardd
arddangos
arddangosfa
arddangosfeydd
arddegau
arddegwyr
arddel
ardderchog
arddull
arddulliau
ardeidae
arden
ardudwy
are
area
aredig
areithiau
aren
arena
arennau
arestio
arestiwyd
arf
arfaethedig
arfau
arfbais
arfer
arferai
arferiad
arferid
arferion
arferol
arfog
arfon
arfordir
arfordiroedd
arfordirol
arg
argae
argentina
argento
argia
argiolestes
arglwyd
arglwydd
arglwyddes
arglwyddi
arglwyddiaeth
argraff
argraffiad
argraffiadau
argraffu
argraffwyd
argraffydd
argyfwng
argyhoeddi
argyll
argymell
argymhellion
argymhellir
arholiad
arholiadau
arhosodd
ari
aria
arian
ariane
ariannin
ariannol
ariannu
arianrhod
arias
ariel
arietinum
arif
aristide
aristoteles
arizona
arjun
ark
arkansas
arkın
arlein
arlen
arlette
arlington
arllechwedd
arloesi
arloesol
arloeswr
arloeswyr
arlunio
arlunwyr
arlunydd
arlywydd
arlywyddiaeth
arlywyddion
arlywyddol
armand
armando
armenda
armeneg
armenia
armin
armor
arms
armstrong
army
arnaldo
arnaud
arndt
arne
arnfried
arni
arno
arnold
arnynt
arogl
arolwg
arolygon
arolygu
arolygydd
aros
arosodd
around
arquette
arrow
arsenal
arswyd
arsyllfa
arsylwadau
arsylwi
art
arte
arteffactau
artemis
arth
arthur
article
articles
artiffisial
artist
artistiaid
artistig
artists
arts
artur
arturo
arun
aruthrol
arvid
arvor
arw
arwahanu
arwain
arweiniad
arweiniodd
arweiniol
arweiniwyd
arweinwyr
arweinydd
arweinyddiaeth
arweinyddion
arwel
arwr
arwrgerdd
arwrol
arwydd
arwyddair
arwyddion
arwyddlun
arwyddo
arwyddoca
arwyddocaol
arwyddodd
arwyddwyd
arwyn
arwyneb
arwynebau
arwynebedd
arwyr
arwystli
ary
arysgrif
arysgrifau
as
asana
asanas
asau
aserbaijan
aserbaijaneg
asesu
asgell
asgwrn
ash
ashby
asher
ashfield
ashford
ashley
ashok
ashtanga
ashton
asia
asiaidd
asiant
asiantaeth
asiantaethau
asiantau
asid
asidau
asidig
aslan
aspect
asquith
assad
assembly
associated
association
aster
asteraceae
asthma
aston
astor
astrid
astudiaeth
astudiaethau
astudio
astudiodd
asturias
asylum
at
atacama
atal
ateb
atebion
atebodd
atebol
atgenhedlu
atgofion
atgyfnerthu
atgyfodiad
atgynhyrchu
atgyweirio
athen
athena
athenaidd
athens
atherton
athletau
athletic
athletwr
athletwyr
athrawes
athrawiaeth
athrawon
athro
athrofa
athrofaol
athroniaeth
athronwyr
athronydd
athronyddol
ati
atkins
atkinson
atlanta
atlantel
atlantic
atlantique
atlas
atmosffer
ato
atodiad
atom
atomau
atomfa
atomig
atp
atrice
attack
attal
attenborough
attila
attilio
atwood
atyniad
atyniadau
atynt
au
aubrey
auckland
aud
audrey
auer
auf
august
augusta
auguste
augusto
augustus
aumont
aur
aure
aurel
aureli
aurelio
aurelius
aurora
aus
auschwitz
austen
austin
australia
australian
autant
author
auto
autobiography
autumn
auvergne
aux
av
ava
avant
avati
ave
avec
avenue
avery
avi
avibase
avildsen
aviv
avon
avril
award
awards
away
awdl
awdur
awdurdod
awdurdodaeth
awdurdodau
awdures
awduron
aweigh
awen
awenau
awgrym
awgryma
awgrymir
awgrymodd
awgrymu
awgrymwyd
awn
awr
awst
awstin
awstralaidd
awstralia
awstraliaid
awstria
awstriaidd
awtomatig
awydd
awyddus
awyr
awyren
awyrennau
awyrgylch
awyrlu
axel
axt
ay
ayala
ayb
ayr
ayres
ayyb
az
azerbaijan
azerbaijanfilm
aziz
b
ba
bab
baba
babaeth
baban
babanod
babbler
babell
babi
babilon
babu
baby
babyddol
bach
bachchan
bachgen
bacistan
back
backed
baco
bacon
bacteria
bacteriol
bad
baddon
baden
badger
bae
baedd
baentiadau
baentio
baer
bafaria
bafta
bag
baggot
baghdad
baglan
baglor
bagolini
bahamas
bahrain
bai
bailey
bains
baird
bakaleinikoff
baker
baku
bal
bala
balas
balcanau
balchder
baldassarre
baldi
balducci
baldwin
bale
baledi
balesteina
balfour
bali
ball
ballad
ballard
ballet
balling
balliol
baltig
baltimore
ban
banana
banc
banciau
bancroft
band
banda
bandiau
banel
baner
baneri
banfi
bang
bangalore
bangkok
bangladesh
bangor
bank
banks
bannau
bannon
bappi
baptiste
bapur
bapurau
bar
bara
barack
baragli
baratoi
barau
barbados
barbara
barbari
barbed
barbedau
barber
barbero
barbet
barbier
barbora
barc
barcelona
barch
barclay
barcud
bard
bardd
barddas
barddol
barddoniaeth
barddonol
bardem
bare
barfog
bargyfreithiwr
barhaodd
barhaol
barhau
barhaus
bari
bariau
baris
barker
barlow
barlys
barn
barnard
barnes
barnet
barnett
barney
barnsley
barnwr
barnwyr
baro
barod
barodd
barodi
baron
baroncelli
barr
barra
barre
barreto
barrett
barri
barrie
barrington
barros
barrow
barry
barrymore
bart
barth
bartholomew
barti
bartlett
bartner
bartneriaeth
barton
barwn
barwniaid
barwnig
bas
base
based
basel
basg
basgaidd
basgeg
bashar
basil
basilica
basingstoke
basio
basiwyd
basn
bass
basse
bassett
basterds
bastien
bat
bata
bataliwn
bateman
bates
bath
bathodyn
bathwyd
batman
batri
batrwm
batrymau
battaglia
battle
batumi
bauer
bauman
baumann
baumgartner
bautista
bava
bawb
bawd
baxter
bay
bayard
bayo
bbc
bc
bce
bd
be
beach
bean
bear
beast
beasts
beat
beate
beatles
beatrice
beatriz
beatty
beau
beauchamp
beaudine
beaufort
beaumont
beautiful
beauty
beaux
beaver
bebb
bebe
bec
beca
because
bech
bechgyn
beck
becker
beckett
bective
bed
bedair
bedd
beddau
beddgelert
beddrod
beddrodau
bedford
bedr
bedw
bedwar
bedwaredd
bedwerydd
bedwyr
bedydd
bedyddiwyd
bedyddwyr
bee
beebe
been
beer
beery
beethoven
before
begin
behind
behn
bei
beibl
beiblaidd
beic
beichiogrwydd
beiciau
beicio
beidio
beijing
beili
being
beinn
beintio
beirdd
beiriannau
beiriannydd
beiriant
beirniad
beirniadaeth
beirniadol
beirniadu
beirniadwyd
beirniaid
beirut
beit
bel
bela
belarws
belarwseg
bele
belfast
belffast
belg
belgaidd
belgrade
beli
believe
belinda
bell
bella
bellach
bellamy
belle
belled
belli
bellied
bello
bellocchio
bells
bellter
belly
belmont
below
beltra
ben
bencadlys
bencampwr
bencampwriaeth
bencampwyr
bend
bendant
bender
benderfyniad
benderfynodd
benderfynol
benderfynu
bendith
bendix
bene
bened
benedetti
benedict
benfro
bengal
bengaleg
benglog
bengt
beni
benillion
benin
benito
benjamin
benn
bennaeth
bennaf
bennet
bennett
bennill
benno
bennod
bennu
benny
benodau
benodi
benodol
benodwyd
benoi
benrhyn
bensaerni
benson
bent
benthyg
bentley
benton
bentref
bentrefi
benvenuti
benyw
benywaidd
benywod
beograd
ber
berber
berchen
berchennog
berchnogaeth
berchnogion
bererindod
beresford
berfeddwlad
berffaith
berfformiad
berfformiadau
berfformio
berfformiwyd
berg
berge
bergen
berger
bergerac
bergman
bergmann
beri
bering
beriw
berke
berkeley
berkshire
berle
berlin
berliner
berman
bermo
bern
bernadette
bernal
bernard
bernardi
bernardino
bernardo
bernd
bernds
bernhard
bernhardt
bernie
bernier
bernstein
berri
berry
bers
berson
bersonol
bersonoliaeth
berswadio
bert
berta
bertha
berthe
berthnasau
berthnasol
berthomieu
berthynas
bertin
berto
bertolini
bertolucci
bertram
bertrand
berwi
berwyn
berygl
beryglus
beryl
bess
bessie
besson
best
bet
beta
betalau
beth
bethan
bethau
bethel
bethesda
bethlehem
beti
betsy
bette
better
betti
bettina
betty
between
betws
beudy
beulah
beuno
bevan
bever
beverley
beverly
bey
beyer
beyond
bhatt
bi
bianca
bianchi
bianchini
bianco
biano
bibi
bible
biden
bieta
big
bihan
bil
bilbao
bilbo
bilen
biliwn
bill
billancourt
billboard
bille
billed
billi
billie
billy
bin
binc
binding
bing
bingen
binger
bio
bioamrywiaeth
biocemegydd
biographical
biography
bioleg
biolegol
biolegydd
biology
bir
birch
bird
birds
birger
birgit
birgitte
birmingham
birth
birthday
bishop
bismarck
bit
bitto
biwmares
bizet
bjarne
bjerre
bjo
bjørn
bl
bla
blache
black
blackburn
blackheath
blackpool
blackton
blackwell
blade
blaen
blaenau
blaengar
blaenllaw
blaenoriaeth
blaenorol
blaid
blaidd
blain
blair
blake
blanc
blanca
blanchard
blanche
blanco
blaned
blanhigion
blanhigyn
blant
blas
blasco
blasetti
blastig
blawd
blaz
ble
bleddyn
bleidiau
bleidlais
bleidleisiau
bleidleisio
bleidleisiodd
blentyn
blentyndod
blew
blewog
blewyn
blier
blimp
blin
blind
blith
blitz
bloc
bloch
block
blodau
blodeugerdd
blodeugerddi
blodeuo
blodeuol
blodeuwedd
blodyn
blog
blom
blonde
blood
bloody
bloom
bloomsbury
blossoms
blu
blue
blues
blum
blwch
blwydd
blwyddyn
blwyf
blwyfi
blygu
blynedd
blynyddoedd
blynyddol
blystone
blyth
blythe
blyton
bner
bo
board
boat
boaz
bob
bobby
bobi
bobl
bobloedd
boblogaeth
boblogaidd
boblogrwydd
bobol
bocs
bocsio
bod
boda
bodau
boddi
bodedern
bodil
bodloni
bodolaeth
bodoli
bodorgan
body
boed
boen
boer
boese
boesen
boeth
boetticher
bogart
bogdan
bogota
bohdan
bohemia
bohm
bohumil
bohus
bois
boist
bojan
bol
bolas
bolek
boletaceae
boletales
boli
bolifia
bolisi
bologna
bolognini
bolton
bolva
bom
bombay
bomiau
bomio
bon
bonanni
bonaparte
bond
bone
bonedd
bong
bonheddig
boni
bonion
bonn
bonnard
bonnet
bonnie
bont
bontnewydd
bonws
bonyn
book
booker
books
boom
boone
boorman
boos
booth
boots
bop
bopeth
bor
bora
borcosque
bordeaux
borden
border
borderie
bore
borffor
borg
borges
boris
born
bornograffig
boro
borough
borsody
borth
borthladd
borthladdoedd
bortiwgal
bortread
bortreadau
bortreadu
borzage
bos
bosch
bosco
bose
bosib
bosibl
bositif
bosnia
bosnieg
boss
bost
boston
boswell
bosworth
bot
botaneg
botanegwyr
botanegydd
botany
boteler
both
bottom
botwm
botwnnog
botymau
boucher
bouillaud
boulder
boulogne
boulting
bound
bounty
bouquet
bourbon
bourne
bournemouth
bow
bowen
bowers
bowman
bowys
box
boy
boyd
boyer
boyle
boys
boz
br
bra
brabant
brabin
bracknell
brad
bradbury
bradford
bradley
bradshaw
brady
braemar
braf
bragaglia
bragdy
brahms
braich
braidd
brain
braintree
bran
branch
branco
brand
brandenburg
brando
brandon
brandt
branko
branwen
bras
brasil
brasilaidd
brasseur
brassicaceae
braster
bratislava
brau
braun
brauner
brave
braveheart
bravo
brawd
brawf
bray
brazzi
bre
break
breakfast
breaking
breasted
brech
brechlyn
breckland
brecwast
breese
bregeth
bregethu
bregethwr
bregus
breichiau
breifat
breisgau
breision
breizh
bremen
bren
brenda
brendan
brenhines
brenhiniaeth
brenhinllin
brenhinoedd
brenhinol
brenin
breninesau
brennan
brenon
brent
brentis
brentwood
bresbyteraidd
brescia
bresennol
bresenoldeb
brest
breswyl
bretagne
bretherton
brethyn
breton
brett
breuddwyd
breuddwydion
breverton
brewer
brexit
brezhoneg
bri
brialy
brian
brice
brics
brid
bridd
bride
bridge
bridges
bridget
bridiau
bridio
brie
brief
brien
brif
brifathro
brifddinas
briffordd
brifysgol
brifysgolion
brig
briger
briggs
bright
brighton
brigitte
brignone
brill
brin
bringing
brint
briod
briodas
briodi
briododd
briodol
briodolir
briodweddau
brion
bris
brisbane
bristol
britain
britannia
britanniae
britannica
brith
brithdir
brithion
brithyll
british
britt
britta
brittany
britton
brizzi
bro
broad
broadcasting
broadland
broadway
broblem
broblemau
brochard
brock
broderick
brodie
brodor
brodorion
brodorol
brodsky
brody
brodyr
broffesiynol
brofi
brofiad
brofiadau
brofion
broken
bromley
bromwich
bron
brongoch
bronisław
bronson
bronwen
bronwyn
bronx
brook
brooke
brooklyn
brooks
broom
bropoganda
bros
broses
brosesau
brosesu
brosiect
brosiectau
brotest
brotestannaidd
brotestiadau
brotestio
brotestwyr
brother
brothers
broughton
brower
brown
browne
browning
broz
bru
bruce
bruckman
brunel
bruni
brunius
bruno
brunswick
brut
brutus
bruun
brwd
brwsel
brwydr
brwydrau
brwydro
bryan
bryant
bryce
brych
brychan
brycheiniog
brychion
bryd
brydain
brydeinig
bryder
brydesen
brydferth
brydydd
bryfaid
bryfed
bryn
brynbuga
bryngaer
bryngaerau
bryniau
brynu
brys
bryste
brysur
brython
brythoneg
brythoniaid
bu
buan
buasai
bucerotidae
buch
buchanan
buchedd
buck
buckingham
buckland
buckley
bucks
bud
budapest
budd
buddiannau
buddsoddi
buddsoddiad
buddug
buddugol
buddugoliaeth
buddugoliaethau
buddy
buenos
buff
buffalo
bugail
buhr
build
building
buildings
bulkeley
bull
bulletin
bullock
bum
bumed
bump
bun
buont
bur
burbank
bureau
burg
burger
burgess
burke
burlington
burma
burman
burn
burnett
burnham
burning
burns
burr
burroughs
burt
burton
burum
bury
bus
busby
busch
bush
business
busnes
busnesau
bussie
buster
bustos
but
bute
butler
butterfly
buttolph
button
buwch
buzzanca
bw
bwa
bwcare
bwdha
bwdhaeth
bwdhaidd
bwerau
bwerus
bwlbwl
bwlbwliaid
bwlch
bwletin
bwlgareg
bwlgaria
bwnc
bwncath
bwrcina
bwrdd
bwrdeisdref
bwrdeisdrefi
bwrdeistref
bwrdeistrefi
bwrgwyn
bwriad
bwriadu
bwrpas
bwrw
bws
bwthyn
bwv
bwy
bwyd
bwydo
bwydydd
bwyllgor
bwynt
bwyntiau
bwys
bwysau
bwysicach
bwysicaf
bwysig
bwysigrwydd
bwyslais
bwysleisio
bwystfil
bwyta
bwytadwy
bwytai
bwyty
by
bychain
bychan
byd
bydd
byddai
byddant
byddent
byddin
byddinoedd
byddwch
bydysawd
bye
bygwth
bygythiad
bygythiadau
bylchau
byllau
bymtheg
bynciau
bynnag
byr
byrd
byrddau
byrfodd
byrion
byrne
byron
bys
bysantaidd
bysedd
bysgod
bysgodyn
bysgota
bysiau
byth
byw
bywgraffiad
bywgraffiadau
bywgraffiadur
bywgraffyddol
bywiadur
bywiog
bywoliaeth
bywyd
bywydau
bəkirzadə
c
ca
caba
caban
cabanne
cabaret
cabinet
cabiria
cable
cabo
cabot
cabrera
cadair
cadarn
cadarnhaodd
cadarnhaol
cadarnhau
cadarnhawyd
cadeirydd
cadell
cader
cadet
cadfan
cadfridog
cadfridogion
cadi
cadlywydd
cadoediad
cadw
cadwaladr
cadwallon
cadwgan
cadwodd
cadwraeth
cadwyd
cadwyn
cae
caeau
caeedig
cael
caeodd
caer
caerau
caerdroea
caerdydd
caeredin
caereinion
caerfaddon
caerffili
caerfyrddin
caergaint
caergrawnt
caergybi
caergystennin
caerhirfryn
caerhun
caerliwelydd
caerllion
caerloyw
caerly
caernarfon
caerwrangon
caerwynt
caerwys
caerwysg
caesar
caeth
caethiwed
caethwasiaeth
caethweision
caewyd
cafe
caffe
caffi
cafodd
cafwyd
cage
cahen
cahn
cai
caiff
cain
cainc
caine
caint
cairn
cairngorms
cairo
cais
cala
calabria
calais
calan
calch
calchfaen
calcutta
calcwlws
caldwell
cale
caleb
caled
caledonia
calendar
calendr
calfinaidd
calgary
calhoun
cali
califf
califfornia
california
caligari
call
callaghan
called
calon
calopterygidae
calsiwm
calvert
calvin
calvo
cam
camarweiniol
camau
cambodia
cambria
cambriae
cambrian
cambridge
camden
came
camel
cameo
camera
camerini
cameron
camerw
camgymeriad
camilla
camille
camillo
camino
camlas
camp
campaign
campania
campanile
campanini
campau
campbell
campephagidae
campion
campo
campogalliani
campos
campws
camus
can
canaan
canada
canadaidd
canadian
canal
cancer
cancr
candy
caneuon
canfod
canfu
canfuwyd
canfyddiad
cangen
canghellor
canghennau
canhwyllau
caniadau
caniata
caniatau
caniatawyd
caniateir
canllaw
canllawiau
canlyniad
canlyniadau
canlynol
canmlwyddiant
canmol
cannavale
cannes
canning
cannoedd
cannon
canodd
canoga
canol
canolbarth
canolbwynt
canolbwyntio
canolbwyntiodd
canoldir
canolfan
canolfannau
canolig
canoloesol
canolog
canon
canran
canrif
canrifoedd
canser
cant
cantata
canterbury
canto
canton
cantoneg
cantor
cantores
cantorion
cantorum
cantref
cantrefi
canu
canwr
canyon
canys
cao
cap
capannau
cape
capel
capeli
capellani
capiau
capital
capitani
capitol
capitonidae
capped
capra
capri
caprimulgidae
caprimulgiformes
caprioli
capt
captain
capten
capuano
car
cara
caracas
caradog
caragiale
carbon
carchar
carchardai
carcharor
carcharorion
carcharu
carcharwyd
card
cardiau
cardiff
cardinal
cardinale
cardona
care
carewe
carey
carfan
cargo
cariad
cariadon
caribbean
caribi
cario
carl
carla
carle
carles
carleton
carlisle
carlo
carlos
carlsen
carlson
carlsson
carlyle
carmel
carmelo
carmen
carmet
carmine
carn
carne
carnedd
carneddau
carnegie
caro
carol
carola
carole
carolina
caroline
carolus
carolyn
caron
carotenuto
carpenter
carpi
carr
carradine
carre
carreg
carreras
carrie
carrillo
carrol
carroll
carry
carson
carstairs
carsten
carter
carthago
cartier
cartref
cartrefi
cartw
cartwnau
cartwright
caru
caruso
carver
carw
carwyn
cary
caryl
caryophyllaceae
cas
casa
casablanca
casachstan
casanova
casas
case
casey
casgliad
casgliadau
casglodd
casglu
casglwr
casglwyd
cash
casineb
casino
casnewydd
casper
caspia
cass
cassandra
cassavetes
cassel
cassidy
cassini
cast
castel
castell
castellani
castellano
castellari
castilla
castillo
castle
castro
cat
catalaneg
catalina
catalog
catalonia
catalunya
catalwnia
catania
catch
cate
catecism
categori
category
caterina
cath
cathedral
catherine
cathod
catholic
catholig
catholigion
cathy
cato
catrawd
catrin
cats
cau
cause
cava
cavalcanti
cave
cavendish
cawcasws
cawl
cawn
cawod
cawr
caws
cawsant
cayatte
cbac
cbe
cbs
cc
ccc
cd
cdot
ce
ceccarelli
cecchi
cecil
cecilia
cedar
cedric
cedwir
ceffyl
ceffylau
cefn
cefnder
cefndir
cefnfor
cefnforoedd
cefnog
cefnogaeth
cefnogi
cefnogodd
cefnogol
cefnogwyr
ceg
cegin
cei
ceid
ceidwad
ceidwadol
ceidwadwyr
ceiliog
ceiliogod
ceiniog
ceir
ceirch
ceiri
ceiriog
ceirw
ceisio
ceisiodd
celan
celebrity
celentano
celeste
celf
celfyddyd
celfyddydau
celfyddydol
celia
cell
celloedd
celtaidd
celtiaid
celtic
celwydd
celyn
cemaes
cemais
cemeg
cemegol
cemegydd
cen
cenedl
cenedlaethau
cenedlaethol
cenedlaetholdeb
cenedlaetholgar
cenedlaetholwyr
cenhadaeth
cenhadon
cenhadwr
cenhedlaeth
cenhedloedd
cenhedlu
cenia
cennog
census
cent
center
central
centre
century
cerbyd
cerbydau
cerdd
cerdded
cerddi
cerddor
cerddorfa
cerddoriaeth
cerddorion
cerddorol
cerdyn
ceredigion
cerflun
cerfluniau
cerflunydd
ceri
ceriagrion
ceridwen
cernyw
cernyweg
cerrig
cerrynt
certain
cervantes
cervi
cesar
cesare
cestyll
ceudod
ceunant
cewri
cf
ch
cha
chabrol
chad
chadw
chadwick
chadwraeth
chadwraethau
chael
chaer
chaerdydd
chafodd
chafwyd
chai
chaiff
chain
chakraborty
chakravarthy
challenge
chalon
cham
chamber
chamberlain
chambers
champagne
champaign
champion
championship
chan
chanada
chance
chanddi
chanddo
chanddynt
chandler
chandra
chandrasekhar
chaneuon
chaney
chanfod
chang
change
chaniata
channel
channing
chano
chanol
chanolbarth
chanolfan
chant
chantal
chantores
chantref
chanu
chanwr
chao
chaos
chapel
chapelle
chaplin
chapman
chapter
chapters
charadriidae
charadriiformes
chariad
charing
charles
charley
charlie
charlotte
charlton
charly
charnedd
charreg
charter
chartref
chase
chasgliad
chasglu
chastell
chat
chatham
chatterjee
chau
chautard
chawsant
che
checchi
check
chefn
chefnfor
chefnogaeth
chefnogi
chefnogwyr
cheh
cheir
cheisio
chelf
chelmsford
chelsea
cheltaidd
cheltenham
chen
cheng
chennai
cher
cherbydau
cherddi
cherddor
cherddorfa
cherddoriaeth
cherokee
cherrig
cherry
cheryl
chester
chesterfield
chestnut
cheung
chevalier
cheyenne
chi
chiang
chiara
chiari
chiba
chicago
chichester
chickpea
chico
chief
child
children
chile
chin
china
chinese
ching
chipio
chipping
chips
chladdu
chladdwyd
chloe
chlorocyphidae
chlwb
chmereg
cho
chocolate
chodi
chodwyd
choed
choesau
chofadeiladau
chofnod
chofrestru
choi
choice
choire
choleg
cholli
chollodd
cholmondeley
chomedi
chomo
chopa
chopra
chor
chorff
chorley
chow
chre
chredir
chrefft
chrefydd
chrefyddol
chreu
chris
christ
christa
christchurch
christen
christensen
christi
christiaan
christian
christiane
christiansburg
christiansen
christie
christina
christine
christmas
christoph
christophe
christopher
christy
chriw
chronicle
chronicles
chu
chubut
chuck
chun
chung
church
churches
churchill
chw
chwaer
chwaith
chwalu
chwalwyd
chwant
chwarae
chwaraeir
chwaraeodd
chwaraeon
chwaraewr
chwaraewyd
chwaraewyr
chware
chwarel
chwareli
chwarelwr
chwarelwyr
chwarennau
chwarren
chwarter
chwe
chwech
chweched
chwedl
chwedlau
chwedloniaeth
chwedlonol
chwefror
chwerthin
chwerw
chwi
chwibanwyr
chwifio
chwiler
chwilio
chwiorydd
chwith
chwmni
chwmpas
chwmwd
chwpan
chwrs
chwyddo
chwydu
chwyldro
chwyldroadol
chwyldroadwyr
chwyrn
chwythu
chychwyn
chyd
chyda
chydnabod
chyfaill
chyfansoddi
chyfansoddwr
chyfansoddwyd
chyfanswm
chyfarwyddo
chyfarwyddwr
chyfeirir
chyffro
chyfiawnder
chyfieithiad
chyfieithu
chyfieithydd
chyflogodd
chyflwyno
chyflwynydd
chyfnod
chyfraith
chyfres
chyfrol
chyhoeddi
chyhoeddodd
chyhoeddwr
chyhoeddwyd
chylch
chymdeithas
chymdeithasau
chymdeithasol
chymeriad
chymeriadau
chymerodd
chymorth
chymraeg
chymreig
chymru
chymryd
chymuned
chymunedau
chymydau
chymysgu
chyn
chynffon
chynghrair
chyngor
chynhaliwyd
chynhwysiad
chynhyrchu
chynhyrchydd
chynllunio
chynnal
chynnwys
chynnydd
chyrhaeddodd
chyrraedd
chysegru
chysylltiad
chysylltiadau
chysylltu
chytundeb
ci
cia
ciccio
cicer
cicero
ciconiformes
cid
cielo
cig
cigydd
cigyddion
cika
cil
cile
cilgant
cilgerran
cilgwri
cilomedr
cilometr
cincinnati
cinderella
cindy
cine
cinema
cinematograffeg
cinematografica
cines
cinio
cinquini
cio
cipio
cipiodd
cipiwyd
cipriani
circle
circus
ciro
cit
cite
cities
citizen
citta
citti
city
ciudad
civil
ciwb
ciwba
ciwbig
cj
ck
cken
cking
cl
cla
claddu
claddwyd
claes
claf
clai
clair
claire
clan
clancy
clara
clare
clarence
clark
clarke
clarkson
clas
class
classic
classical
classics
clasurol
clasuron
claude
claudia
claudine
claudio
claudius
claus
clausen
clav
clawdd
clawr
clay
clayton
cle
clear
cleddyf
cledrau
clefyd
clefydau
clegg
cleifion
clemens
clement
clemente
cleo
cleopatra
clerc
clerigwr
clerigwyr
clermont
cleveland
cliff
clifford
clift
clifton
climate
cline
clinigol
clint
clinton
clip
clir
clirio
clive
clo
cloc
cloch
clock
clockwork
clod
cloddiau
cloddio
clogwyn
clogwyni
clogyn
cloi
clooney
close
cloud
clown
club
clud
cludiant
cludo
cluj
clun
clust
clustiau
clwb
clwstwr
clwyd
clybiau
clychau
clydach
clyde
clymblaid
clymu
clynnog
clystyrau
clyw
clywed
clywedog
clywir
clywodd
cm
cmc
cn
cnau
cnawd
cnewyllyn
cnn
cnocell
cnocellau
cnocellod
cnwd
cnydau
co
coal
coast
coat
coates
cob
cobb
coblyn
coblynnod
coburn
coca
coch
cochion
cochlea
coco
cocos
cod
codau
code
codi
codiad
cododd
codwyd
cody
coe
coed
coeden
coediog
coedwig
coedwigaeth
coedwigoedd
coel
coeliccia
coen
coenagrion
coenagrionidae
coes
coesau
coesyn
coesynnau
coetiroedd
cof
cofeb
coffa
coffee
coffey
coffi
cofiadwy
cofiannau
cofiant
cofio
cofir
coflein
cofnod
cofnodi
cofnodion
cofnodir
cofnododd
cofnodwyd
cofrestr
cofrestredig
cofrestru
cofrestrwyd
cog
cogau
coginiaeth
coginio
cogydd
cohen
cohl
cohn
coire
col
cola
colangeli
colbert
colchester
cold
cole
coleg
colegau
coleman
colette
colin
coll
collared
colle
collected
collection
colled
colledion
colleen
college
colli
collier
collin
collins
collodd
collwyd
colm
colman
colofn
colofnau
colombia
colombier
colombo
colomen
colomennod
colonel
color
colorado
colour
coltrane
coluddyn
columba
columbia
columbidae
columbiformes
columbus
colur
colwyn
com
come
comedi
comediau
comediwr
comedy
comencini
comes
comfort
comic
comics
comig
comin
coming
comisiwn
comisiynwyd
comisiynydd
comiwnyddiaeth
comiwnyddion
comiwnyddol
command
comme
commission
committee
common
commons
commune
communes
community
como
companion
company
complement
complete
complex
complutense
compton
computer
comte
comune
con
conan
concert
concerto
concordia
concwest
conde
condemnio
confensiwn
confensiynol
conference
confessions
conflict
cong
congo
conklin
connacht
connecticut
connell
connery
connie
connolly
connor
conor
conquest
conrad
conservation
conservatoire
conservatory
constance
constant
constantin
constantine
constantius
constituency
conswl
containing
conte
contemporary
content
conti
contra
contract
contreras
contro
control
conway
conwy
coogan
cook
cooke
cool
coolidge
coop
cooper
cop
copa
copaon
copeland
copenhagen
copi
copog
coppola
copr
cor
cora
corach
coraciiformes
coral
coran
coratifs
corau
corawl
corbet
corbett
corbin
corbucci
corc
cordulegastridae
corduliidae
cordy
core
corea
coreeg
corelli
corey
corff
corfflu
corfforol
corhedydd
corinne
corinth
cork
corn
cornbig
cornbigau
corneille
cornel
cornelia
cornelius
cornell
corner
corniog
cornish
cornwall
coron
corona
coronafeirws
coronation
coroni
corporation
corps
corpus
corrach
corrado
corrigan
corris
cors
corsica
corsydd
corte
cortese
cortez
cortinariaceae
corun
corvidae
corwen
corws
cory
cos
cosaciaid
cosb
cosbi
cosi
cosma
cosofo
cost
costa
costau
costello
costio
cothi
cotinga
cotingaod
cotingidae
cotoneaster
cotswold
cotta
cottage
cotton
cotwm
could
council
count
counties
country
county
coup
cour
courage
cours
court
courtney
cove
covent
coventry
cover
covid
cowan
cowboi
cowbois
cowboy
cowl
cownt
cox
cp
cra
crabb
cracidae
craft
crai
craidd
craig
cramer
crane
crash
craven
crawford
crawshay
crazy
cre
creadigol
creadur
creaduriaid
creag
cream
cred
credai
credid
credir
credo
credoau
credu
credyd
creek
crefft
crefydd
crefyddau
crefyddol
cregyn
crehyrod
creighton
creigiau
creigiog
creodd
crested
creta
cretasaidd
creu
creuddyn
crewyd
cri
crib
cribog
criced
cricedwr
crichton
cricieth
crime
crimea
criminal
crimson
crisis
crisp
crist
cristian
cristina
cristion
cristnogaeth
cristnogion
cristnogol
cristo
critical
criw
criwserod
cro
croateg
croatia
croatiaid
crochenwaith
crociani
croen
croenddu
croes
croesau
croesawu
croesgadwyr
croesi
croeso
croesodd
croesoswallt
crogi
croix
cromlech
cromwell
cronfa
cronfeydd
cronicl
cronig
cropiwr
cropwyr
crosby
crosland
cross
crossing
crow
crowe
crowley
crown
crowned
croydon
croyw
crug
crugiau
cruise
cruz
cruze
crwban
crwn
crwst
crwydro
crwydrol
crwyn
cry
crybwyll
cryf
cryfaf
cryfder
cryfhau
cryn
crynhoi
crynion
cryno
crynodeb
crynodiad
crynswth
crynwyr
crys
crysau
crystal
cs
ct
ctor
cu
cuba
cuckoo
cuculidae
cuculiformes
cudd
cuddio
cukor
cul
culfor
culhwch
cullen
cultural
culture
culver
cum
cumberland
cumbria
cummings
cunard
cunedda
cunha
cunningham
cup
cur
curiad
curig
curly
curo
currie
currier
curry
curse
curt
curtis
curtiz
cusack
custer
cut
cw
cwantwm
cwbl
cwblhaodd
cwblhau
cwblhawyd
cwbwl
cwch
cwestiwn
cwestiynau
cwis
cwlen
cwlt
cwlwm
cwm
cwmbra
cwmni
cwmniau
cwmpas
cwmpasu
cwmwd
cwmwl
cwningod
cwpan
cwpanau
cwpannau
cwpl
cwr
cwrasowiaid
cwrdd
cwrdistan
cwrel
cwrs
cwrt
cwrw
cwsg
cwt
cwta
cwtiad
cwtiaid
cwymp
cwympo
cwympodd
cwyno
cwyr
cwyrbigau
cy
cychod
cychwyn
cychwynnodd
cychwynnol
cychwynnwyd
cychwynodd
cycling
cycyllog
cyd
cydbwysedd
cydnabod
cydnabuwyd
cydnabyddedig
cydnabyddiaeth
cydnabyddir
cydraddoldeb
cydweithio
cydweithiodd
cydweithrediad
cydweithredol
cydweli
cydwybodol
cydymaith
cyf
cyfaddef
cyfadran
cyfagos
cyfaill
cyfaint
cyfalaf
cyfamod
cyfamser
cyfan
cyfandir
cyfandirol
cyfanrif
cyfansawdd
cyfansoddi
cyfansoddiad
cyfansoddiadau
cyfansoddiadol
cyfansoddion
cyfansoddodd
cyfansoddol
cyfansoddwr
cyfansoddwyd
cyfansoddwyr
cyfansoddyn
cyfanswm
cyfarfod
cyfarfodydd
cyfarfu
cyfarpar
cyfartal
cyfartaledd
cyfartalog
cyfarthfa
cyfarwydd
cyfarwyddiadau
cyfarwyddo
cyfarwyddwr
cyfarwyddwyd
cyfarwyddwyr
cyfateb
cyfatebol
cyfathrach
cyfathrebu
cyfeiliog
cyfeillgar
cyfeillgarwch
cyfeillion
cyfeiria
cyfeiriad
cyfeiriadau
cyfeiriadedd
cyfeiriadur
cyfeirio
cyfeiriodd
cyfeirir
cyfeiriwyd
cyfeirnod
cyfenw
cyfer
cyferbyniad
cyfesurynnau
cyffelyb
cyffiniau
cyffordd
cyffredin
cyffredinol
cyffro
cyffrous
cyffur
cyffuriau
cyffwrdd
cyfiawn
cyfiawnder
cyfieithiad
cyfieithiadau
cyfieithir
cyfieithodd
cyfieithu
cyfieithwyd
cyfieithwyr
cyfieithydd
cyflafan
cyflawn
cyflawni
cyflawnodd
cyfle
cyflenwad
cyflenwi
cyfleoedd
cyfleu
cyfleusterau
cyflog
cyflogaeth
cyflogau
cyflogi
cyflogwyd
cyflwr
cyflwyniad
cyflwyniadau
cyflwynir
cyflwyno
cyflwynodd
cyflwynwyd
cyflwynwyr
cyflwynydd
cyflym
cyflymaf
cyflymder
cyflyrau
cyfnewid
cyfnod
cyfnodau
cyfnodol
cyfnodolion
cyfnodolyn
cyfochrog
cyfoes
cyfoeth
cyfoethocaf
cyfoethog
cyfradd
cyfraddau
cyfraith
cyfran
cyfraniad
cyfraniadau
cyfrannodd
cyfrannu
cyfred
cyfredol
cyfreithiau
cyfreithiol
cyfreithiwr
cyfreithlon
cyfreithwyr
cyfres
cyfresi
cyfri
cyfrif
cyfrifiad
cyfrifiadur
cyfrifiadureg
cyfrifiadurol
cyfrifiaduron
cyfrifo
cyfrifoldeb
cyfrin
cyfrinach
cyfrinachol
cyfrol
cyfrolau
cyfrwng
cyfryngau
cyfryw
cyfundrefn
cyfuniad
cyfuno
cyfweliad
cyfyng
cyfyngedig
cyfyngiadau
cyfyngu
cyfystyron
cyhoedd
cyhoeddi
cyhoeddiad
cyhoeddiadau
cyhoeddir
cyhoeddodd
cyhoeddus
cyhoeddwr
cyhoeddwyd
cyhoeddwyr
cyhuddiad
cyhuddiadau
cyhuddo
cyhuddwyd
cyhydedd
cyhyr
cyhyrau
cylch
cylchdro
cylchdroi
cylchgrawn
cylchgronau
cylchoedd
cylchog
cylchol
cylchrediad
cyllid
cymaint
cymal
cymalau
cymdeithas
cymdeithasau
cymdeithaseg
cymdeithasol
cymdogion
cymedr
cymedrol
cymer
cymeradwyo
cymeriad
cymeriadau
cymerodd
cymerwyd
cymeryd
cymesuredd
cymhareb
cymhariaeth
cymharol
cymharu
cymhleth
cymhlyg
cymhwyso
cymmrodorion
cymoedd
cymorth
cymraeg
cymrawd
cymreig
cymro
cymru
cymrufyw
cymry
cymryd
cymun
cymuned
cymunedau
cymunedol
cymydau
cymylau
cymysg
cymysgedd
cymysgu
cyn
cynadleddau
cynaliadwy
cynan
cynddelw
cynefin
cynefinoedd
cynffon
cynffonau
cynffonhir
cyngerdd
cynghanedd
cyngherddau
cynghorau
cynghori
cynghorwyr
cynghorydd
cynghrair
cynghreiriaid
cynghreiriau
cyngor
cyngres
cynhadledd
cynhaeaf
cynhaliodd
cynhaliwyd
cynhanes
cynhanesyddol
cynharach
cynharaf
cynhelir
cynhenid
cynhesu
cynhwysfawr
cynhwysion
cynhwysir
cynhyrchiad
cynhyrchiol
cynhyrchion
cynhyrchir
cynhyrchodd
cynhyrchu
cynhyrchwyd
cynhyrchwyr
cynhyrchydd
cynigiodd
cynigiwyd
cynllun
cynlluniau
cynllunio
cynlluniodd
cynlluniwyd
cynllunydd
cynllwyn
cynnal
cynnar
cynnes
cynnig
cynnwys
cynnydd
cynnyrch
cynnyws
cynog
cynon
cynorthwyo
cynorthwyol
cynorthwyydd
cynradd
cynrychiolaeth
cynrychioli
cynrychiolir
cynrychiolodd
cynrychiolwyr
cynrychiolydd
cynt
cynta
cyntaf
cyntefig
cynthia
cynulleidfa
cynulleidfaoedd
cynulliad
cynwyd
cynyddodd
cynyddol
cynyddu
cynyrchiadau
cyperaceae
cyprus
cyrch
cyrchfan
cyrchoedd
cyrchwyd
cyrdeg
cyrff
cyrhaeddodd
cyril
cyrn
cyrnol
cyrraedd
cyrs
cyrsiau
cyrus
cysawd
cysefin
cysegr
cysegredig
cysegrwyd
cysgod
cysgodion
cysgodol
cysgu
cyson
cystadlaethau
cystadleuaeth
cystadleuol
cystadleuwyr
cystadleuydd
cystadlodd
cystadlu
cystal
cystennin
cyswllt
cysylltiad
cysylltiadau
cysylltiedig
cysylltir
cysylltu
cysyniad
cysyniadau
cythryblus
cytiau
cytsain
cytseiniaid
cytser
cytundeb
cytundebau
cytuno
cytunodd
cytunwyd
cyw
cywilydd
cywion
cywir
cywydd
cywyddau
cziffra
cœur
d
da
dabl
dachwedd
dacia
dad
dada
dadansoddi
dadansoddiad
dadasaheb
daddy
dadeni
dadl
dadlau
dadleuodd
dadleuol
dadleuon
dadsefydliadau
dae
daear
daeareg
daearegol
daearegwr
daeargi
daeargryn
daearol
daearyddiaeth
daearyddol
daearyddwr
daeth
daethant
daethpwyd
daf
dafad
dafarn
dafis
daflu
dafod
dafodiaith
dafodieithoedd
dafydd
dag
dagmar
dagr
dagrau
dahl
dai
daid
dail
daily
dair
daisy
daith
daiwan
dakota
dal
dalaith
dalban
daldra
dale
daleithiau
dalen
dalgylch
dali
daliadau
dalio
daliodd
daliwyd
dall
dallas
dalton
dalu
daly
dam
damascus
damcaniaeth
damcaniaethau
damcaniaethol
dame
dameidiau
damian
damiani
damiano
damien
damon
damwain
damweiniau
dan
dana
danaidd
dance
dancing
danddaearol
dane
daneg
danfon
danfonwyd
danger
dangerous
dangos
dangosir
dangosodd
dangoswyd
dani
daniaid
danie
daniel
daniela
daniele
danielle
daniels
danilo
danish
danmark
dannedd
danny
dano
dans
dant
dante
danwydd
dany
daphne
dar
darddiad
dare
darfod
darfu
darganfod
darganfu
darganfuwyd
darganfyddiad
darganfyddiadau
darged
dari
darian
dario
darius
dariusz
darjeeling
dark
darkness
darling
darlington
darlith
darlithio
darlithoedd
darlithydd
darllediad
darllediadau
darlledu
darlledwr
darlledwyd
darllen
darllenwyr
darllenydd
darlun
darluniadol
darluniau
darlunio
darlunydd
darmstadt
darn
darnau
daro
darogan
darpar
darpariaeth
darparodd
darparu
darrell
darren
darrieux
darryl
dart
dartiau
dartmouth
darwin
daryl
das
dasari
dasg
dash
data
database
datblygedig
datblygiad
datblygiadau
datblygodd
datblygu
datblygwyd
date
datgan
datganiad
datganiadau
datganodd
datganoli
datganwyd
datgelodd
datgelu
datgelwyd
datguddiad
dathliad
dathliadau
dathlu
datrys
datrysiad
dau
daughter
daughters
dauphin
dave
davenport
daves
david
davide
davidsen
davidson
davies
davis
davison
davy
daw
dawel
dawkins
dawley
dawn
dawns
dawnsio
dawnsiwr
dawnswyr
dawson
day
days
db
dc
dchen
dd
dda
ddadansoddi
ddadansoddiad
ddadl
ddadlau
ddadleuol
ddaear
ddaearegol
ddaeargryn
ddaearyddol
ddaeth
ddaethant
ddafad
ddail
ddal
ddalfa
ddaliodd
ddall
ddamcaniaeth
ddamcaniaethau
ddamwain
ddanfon
ddangos
ddannedd
ddarganfod
ddarganfuwyd
ddarganfyddiadau
ddarlith
ddarlithoedd
ddarlithydd
ddarlledu
ddarlledwyd
ddarllen
ddarllenwyr
ddarluniau
ddarlunio
ddarn
ddarnau
ddarparu
ddata
ddatblygiad
ddatblygodd
ddatblygu
ddatblygwyd
ddatgan
ddatganiad
ddatganoli
ddatgelu
ddathlu
ddatrys
ddau
ddaw
ddawn
ddawns
ddawnsio
dde
ddeall
ddealltwriaeth
ddechrau
ddechreuodd
ddeddf
ddeddfau
ddeddfwriaeth
ddedfryd
ddedfrydu
ddefaid
ddefnydd
ddefnyddiau
ddefnyddid
ddefnyddio
ddefnyddiodd
ddefnyddiol
ddefnyddir
ddefnyddiwyd
ddefnyddwyr
ddefod
ddefodau
ddeg
ddegawd
ddegawdau
ddeheubarth
ddeheuol
ddehongli
ddeilen
ddeiliaid
ddeiseb
ddelio
ddelwedd
ddelweddau
ddemocrataidd
ddena
ddeng
ddenmarc
ddenu
dderbyn
dderbyniodd
dderbyniwyd
dderwen
ddethol
ddetholiad
ddeuawd
ddeuddeg
ddeugain
ddeunawfed
ddeunydd
ddeunyddiau
ddeuryw
ddewi
ddewiniaeth
ddewis
ddewiswyd
ddi
ddial
ddianc
ddibenion
ddibynnol
ddibynnu
ddibynol
ddiddordeb
ddiddordebau
ddiddorol
ddiddymu
ddienyddio
ddifetha
ddiffiniad
ddiffinio
ddiffyg
ddiflannu
ddifrifol
ddifrod
ddifrodi
ddigidol
ddigon
ddigonol
ddigri
ddigwydd
ddigwyddiad
ddigwyddiadau
ddigwyddodd
ddihirod
ddileu
ddillad
ddilyn
ddilyniant
ddilynodd
ddilynol
ddilynwyr
ddilys
ddim
ddimensiwn
ddinas
ddinasoedd
ddinasyddion
ddinbych
ddinesig
ddinesydd
ddinistrio
ddiod
ddioddef
ddioddefwyr
ddiogel
ddiogelu
ddiogelwch
ddirgel
ddirgelwch
ddirprwy
ddirywiad
ddisg
ddisgiau
ddisgrifiad
ddisgrifio
ddisgrifir
ddisgwyl
ddisgybl
ddisgyblaeth
ddisgyblion
ddisgyn
ddisgynnydd
ddisgynyddion
ddisodli
ddistopaidd
ddiswyddo
dditectif
ddiwedd
ddiweddar
ddiweddarach
ddiweddaraf
ddiwethaf
ddiwinyddiaeth
ddiwrnod
ddiwrthwynebiad
ddiwydiannau
ddiwydiannol
ddiwydiant
ddiwygiadau
ddiwygiedig
ddiwygio
ddiwylliannau
ddiwylliannol
ddiwylliant
ddo
ddod
ddoe
ddoethuriaeth
ddogfen
ddogfennau
ddogfennol
ddolen
ddoleri
ddoniol
ddosbarth
ddosbarthiad
ddosbarthiadau
ddosbarthu
ddosbarthwyd
ddraenen
ddraig
ddrama
ddramatig
ddringo
ddrwg
ddrws
ddu
ddug
ddugiaeth
ddull
ddulliau
ddulyn
dduon
dduw
dduwiau
dduwies
ddw
ddwbl
ddweud
ddwfn
ddwy
ddwyfol
ddwyieithog
ddwylo
ddwyn
ddwyrain
ddwyreiniol
ddwys
ddwywaith
ddychanol
ddychwelodd
ddychwelyd
ddydd
ddyddiad
ddyddiadur
ddyddiaduron
ddyddiau
ddyddio
ddyddiol
ddyfais
ddyfarnu
ddyfeisio
ddyffryn
ddyfnder
ddyfnynir
ddyfod
ddyfodiad
ddyfodol
ddylai
ddylanwad
ddylanwadau
ddylanwadol
ddylanwadu
ddyletswydd
ddyletswyddau
ddylid
ddyluniad
ddylunio
ddyluniwyd
ddymchwel
ddyn
ddynes
ddynion
ddynodi
ddynodwyd
ddynol
ddynoliaeth
ddyrchafu
ddysgeidiaeth
ddysgodd
ddysgu
ddysgwyr
ddystopaidd
ddywedodd
ddywedyd
de
deacon
dead
deadly
deal
deall
dealltwriaeth
deallusol
dean
deane
dear
dearden
dearg
death
debbie
deborah
debra
debycach
debyg
debygol
dec
december
dechneg
dechnegau
dechnegol
dechnoleg
dechrau
dechreuad
dechreuodd
dechreuwyd
decoin
decoteau
deddf
deddfau
deddfwriaeth
deddfwriaethol
dedfrydwyd
dedwydd
dee
deep
deepak
deer
defa
defaid
deffro
defnydd
defnyddiai
defnyddiau
defnyddid
defnyddio
defnyddiodd
defnyddiol
defnyddir
defnyddiwr
defnyddiwyd
defnyddwyr
defod
defodau
defodol
deg
degau
degawd
degawdau
degfed
degli
degol
degwm
deheubarth
deheuol
dehongli
dehongliad
dei
deiliad
deiliaid
deillio
deilwng
deimlo
deinosoriaid
deirgwaith
deiseb
deithiau
deithio
deithwyr
deitl
deitlau
dejan
dek
dekalb
dekker
del
delannoy
delaware
deledu
delerau
delerue
delgado
delhi
delia
delio
dell
della
delle
delli
delmer
delmont
delon
delor
delphine
delta
delwedd
delweddau
delyn
delyth
dem
demange
demare
demetrius
demille
deml
demme
democracy
democrataidd
democratiaeth
democratiaid
demograffeg
demon
den
denau
denbighshire
dendrocolaptidae
deneuve
deng
dengys
denham
denis
denise
denison
denmarc
denmark
dennis
denny
denodd
dent
denton
denu
denver
denys
deon
deor
depardieu
departamant
departed
department
depp
deppe
der
derby
derbyn
derbyniad
derbyniodd
derbyniwyd
derbynnydd
derek
derfyn
derfynol
derm
dermau
dern
derry
derw
derwen
derwyddon
des
desai
deschamps
desert
design
desire
desmond
destament
destino
destiny
destun
destunau
det
detective
dethlir
dethol
detholiad
detroit
deuawd
deuddeg
deugain
deugotyledon
deulu
deuluoedd
deuluol
deunaw
deunydd
deunyddiau
deuocsid
deuol
deus
deutsch
deutsche
deutschland
deux
dev
deva
development
devereux
devi
devil
devine
devon
devonport
dew
dewey
dewi
dewin
dewiniaeth
dewis
dewisodd
dewiswyd
dewitt
dewr
dewrder
dexter
deyrnas
deyrnasiad
deyrnasoedd
deyrnged
dharma
di
dia
diafol
diagnosis
diagram
dial
diamedr
diamond
diamonds
diana
dianc
diane
diarddel
diaries
diary
diaz
diben
dibyniaeth
dibynnu
dic
dicaeidae
dicia
dick
dickens
dickinson
dickson
dicter
dictionary
did
diddordeb
diddordebau
diddorol
diddymu
diddymwyd
didi
didier
die
died
diego
diehl
dieithr
dienw
dienyddio
dienyddiwyd
dies
diesel
diet
dieter
dieterle
dietmar
dietrich
difa
difetha
diffeithwch
different
differol
diffiniad
diffiniadau
diffinio
diffinir
diffinnir
diffyg
diflanedig
diflannodd
diflannu
difodiant
difrifol
difrod
difrodi
difyr
dig
digidol
digital
digon
digonol
digri
digrifwr
digrifwyr
digwydd
digwyddiad
digwyddiadau
digwyddodd
dihangodd
dileu
dillad
dillon
dillwyn
dilyn
dilyniannau
dilyniant
dilynodd
dilynol
dilynwyd
dilynwyr
dilys
dim
dimau
dimensiwn
dimitri
din
dina
dinamo
dinas
dinasoedd
dinasyddiaeth
dinasyddion
dinbych
dinefwr
dinesen
dinesh
dinesig
dinesydd
dinistr
dinistrio
dinistriol
dinistriwyd
dino
dinorben
dinorwig
dio
diod
dioddef
dioddefaint
dioddefodd
dioddefwr
dioddefwyr
diodydd
diogel
diogelu
diogelwch
diolch
diploma
diplomydd
diplomyddion
diplomyddol
dipyn
dir
director
dirffurfiau
dirgel
dirgelwch
diriogaeth
diriogaethau
dirk
diroedd
dirprwy
dirty
dirwasgiad
dirwedd
dirwest
dirywiad
dirywio
dirywiodd
disco
disg
disgfyd
disglair
disgograffi
disgrifiad
disgrifiadau
disgrifio
disgrifiodd
disgrifir
disgrifiwyd
disgrio
disgwyl
disgwylir
disgybl
disgyblaeth
disgyblion
disgyddiaeth
disgyn
disgynyddion
disgyrchiant
disney
disodli
disodlwyd
distribution
district
ditectif
diversity
division
diwaith
diwedd
diweddar
diweddarach
diweddaraf
diweithdra
diwethaf
diwinydd
diwinyddiaeth
diwinyddion
diwinyddol
diwrnod
diwrthwynebiad
diwtor
diwydiannau
diwydiannol
diwydiannwr
diwydiant
diwygiad
diwygiadau
diwygiedig
diwygio
diwygiwr
diwylliannau
diwylliannol
diwylliant
dix
dixon
dj
djvu
dl
dlawd
dlodi
dmitri
dmitry
dmytryk
dna
do
dobson
doc
dociau
doctor
documentary
docynnau
dod
dodd
dodrefn
dodwy
doedd
does
doeth
doethineb
doethur
doethuriaeth
dof
dofwyd
dog
dogfen
dogfennau
dogs
doi
dokumentarfilm
dol
dolbenmaen
dolce
dolen
dolennau
dolenni
dolgellau
doll
dollar
dolly
dolores
dolur
dolwyddelan
dolydd
dom
domain
domen
domenico
domestig
domingo
dominic
dominica
dominik
dominique
dominyddu
don
donald
donaldson
donau
donaw
doncaster
done
donen
dong
doniol
donna
donne
donnell
donnelly
donner
donostia
donovan
doo
door
dor
dora
doran
dorf
dori
doria
doriad
dorian
doris
dorling
dorothea
dorothy
dorri
dorrodd
dorsal
dorset
dos
dosbarth
dosbarthiad
dosbarthiadau
dosbarthu
dosbarthwyd
dosberthir
dot
dottesio
douard
double
doug
douglas
douglass
dove
dover
dovzhenko
down
downey
downing
downs
doyle
dr
dra
drac
drachefn
dracula
draddodiad
draddodiadau
draddodiadol
draed
draenio
draenog
draeth
draethau
draethawd
draethodau
drafferth
drafod
drafodaeth
drafodaethau
drag
dragan
dragomir
dragon
dragonflies
dragons
draig
drain
drais
drake
drakeford
drama
dramatic
dramatig
dramatique
dramodwyr
dramodydd
dramor
dras
draul
draw
drawiad
draws
drawsnewid
drawsryweddol
dre
dream
dreams
dreamworks
drechu
dref
drefaldwyn
drefedigaeth
drefedigaethau
drefedigaethol
drefgordd
drefi
drefn
drefnu
drefnwyd
drefol
dreftadaeth
drei
dreifuss
dreigiau
dreinbig
dreisio
drenau
drenewydd
drepanosticta
dresden
dress
dreth
dreulio
dreuliodd
drew
dreyer
dreyfus
dri
dric
drigolion
drin
drindod
dringo
driniaeth
driphlyg
driscoll
drive
driver
dro
droad
drodd
droed
droediwr
droedwyr
drofannol
droi
dros
drosedd
droseddau
drosglwyddo
drosodd
drosto
drudwen
drudwy
drugaredd
drummond
drwch
drwg
drwm
drws
drwy
drwydded
dry
drych
drychfilod
drychineb
drycin
drydan
drydanol
drydedd
drydydd
drygioni
drymiau
drymiwr
drysau
drysor
drysu
dryswch
dryw
drywanu
drywod
drywydd
ds
dt
du
duarte
dubai
dublin
dubois
duc
duccio
duchamp
duck
dudalen
dudalennau
dudley
due
duedd
dueddol
duff
duffy
dug
duges
dugiaeth
duilio
duke
dulas
dull
dulliau
dulyn
dumas
dumfries
dumont
duncan
dundee
dunlap
dunn
dunne
duon
dupont
dupuis
dur
dura
durand
durango
durante
durham
during
dus
duse
dust
dustin
dutch
dutt
dutta
dutton
duval
duvall
duvivier
duw
duwdod
duwiau
duwies
duwiesau
duwiol
dvd
dvds
dvor
dvorsky
dw
dwan
dwbl
dweud
dwf
dwfn
dwfr
dwi
dwight
dwll
dwr
dwrci
dwristiaid
dwsin
dwy
dwyfol
dwyfor
dwyieithog
dwyll
dwylo
dwymyn
dwyn
dwynwen
dwyrain
dwyreiniol
dwys
dwysedd
dwywaith
dx
dy
dychan
dychanol
dychanu
dychmygol
dychryn
dychwela
dychweliad
dychwelodd
dychwelwyd
dychwelyd
dychymyg
dydd
dyddiad
dyddiadau
dyddiadur
dyddiaduron
dyddiau
dyddiedig
dyddio
dyddiol
dyddlyfr
dydy
dyer
dyfais
dyfarniad
dyfarnodd
dyfarnu
dyfarnwr
dyfarnwyd
dyfed
dyfeisiau
dyfeisio
dyfeisiodd
dyfeisiwr
dyfeisiwyd
dyfeisydd
dyffryn
dyffrynnoedd
dyfi
dyfnaint
dyfnder
dyfod
dyfodd
dyfodiad
dyfodol
dyfrdwy
dyfrig
dyfroedd
dyfrol
dyfu
dyfyniad
dyfyniadau
dyfynnu
dying
dyke
dylai
dylan
dylanwad
dylanwadau
dylanwadodd
dylanwadol
dylanwadu
dylanwadwyd
dyled
dyletswydd
dyletswyddau
dylid
dyluniad
dylunio
dyluniwyd
dylunydd
dylwyth
dyma
dymchwel
dymchwelwyd
dymheredd
dymor
dymuniad
dymuno
dyn
dyna
dynes
dyngarol
dyngarwr
dyniaethau
dynion
dynn
dynnu
dynnwyd
dynodi
dynodir
dynodwr
dynodwyd
dynol
dynoliaeth
dyodiad
dyrau
dyrchafiad
dyrchafu
dyrchafwyd
dyrnu
dysg
dysgedig
dysgeidiaeth
dysgodd
dysgu
dysgwyr
dyst
dystiolaeth
dystopaidd
dysynni
dyw
dywed
dywedir
dywedodd
dywedwyd
dywod
dywydd
dywyll
dywysog
dywysogaeth
dywysoges
dywysogion
dz
e
ea
each
eagle
ealing
eames
eang
earl
earle
earliest
early
earth
eason
east
eastern
eastman
easton
eastwood
easy
eat
eaton
ebba
ebbe
ebenezer
eberhard
ebrill
ebro
ebwy
echdynnu
echel
echelin
echo
eco
ecoleg
ecolegol
economaidd
economeg
economegwyr
economegydd
economi
economic
economically
economics
ecosystem
ecosystemau
ecwador
ed
eda
edau
edd
edda
eddie
eddy
edefyn
eden
edeson
edgar
edgardo
edge
edigaeth
edinburgh
edison
edited
edith
edition
editor
edmond
edmondo
edmonton
edmund
edmunds
edmwnd
edn
edna
ednod
ednyfed
edo
edoardo
edrych
eds
edu
eduard
eduardo
education
edvard
edvin
edward
edwards
edwige
edwin
ee
ef
efa
efail
efallai
efe
efeilliaid
efelychu
efengyl
efengylaidd
effaith
effeithiau
effeithio
effeithiodd
effeithiol
effeithiolrwydd
effeithiwyd
effeithlon
efo
efrog
efydd
eg
egil
egin
eglur
egluro
eglwys
eglwysi
eglwysig
egni
egon
egwyddor
egwyddorion
egypt
ehangach
ehangodd
ehangu
ehangwyd
ehedydd
ei
eich
eichberg
eichhorn
eiconig
eidal
eidalaidd
eidaleg
eidalwyr
eiddew
eiddo
eidion
eif
eifftaidd
eifftiaid
eifion
eifionydd
eight
eighteenth
eil
eilaidd
eileen
eiliad
eillio
eilwaith
ein
einar
eine
einer
eines
eingl
einioes
einion
einstein
eira
eirian
eiriau
eirin
eirinen
eirth
eisenhower
eisiau
eisoes
eistedd
eisteddfod
eisteddfodau
eisteddfodol
eitem
eitemau
eitha
eithaf
eithafol
eithin
eithr
eithriad
eithriadau
eithriadol
eithrio
ej
ek
ekman
el
ela
elaine
elan
elbe
elder
eleanor
election
electric
electromagnetig
electron
electronau
electronig
elen
elena
eleni
eleonora
elephant
eleri
elfed
elfelt
elfen
elfennau
elfennol
elfo
elfyn
eli
elia
elias
elidir
eliffant
elin
elina
elinor
elio
eliot
elis
elisa
elisabeth
elise
elisha
eliza
elizabeth
elk
elke
ell
ella
elle
ellen
ellesmere
elli
ellid
elliot
elliott
ellir
ellis
elmer
elmo
eloy
elsa
else
elsie
elton
eluned
elusen
elusennau
elusennol
elvey
elvira
elvis
elw
elwa
elwid
elwir
elwyn
ely
elyn
elynion
elz
em
eman
emanuel
emanuele
emberizidae
emeric
emerson
emery
emi
emil
emile
emilia
emilie
emilio
emily
emir
emiradau
emlyn
emma
emmanuel
emmanuelle
emmerich
emmet
emmett
emmott
emmy
emo
emory
emosiynol
emperor
empire
empty
emrallt
emrys
emyn
emynau
emynwyr
emynydd
emyr
en
ena
enaid
enallagma
enbyd
encilio
encino
encyclopaedia
encyclopedia
encyclopædia
end
ende
endid
ene
enedigaeth
enedigol
eneidiau
enemy
energy
enfants
enfawr
enfys
engel
engels
enger
enghraifft
enghreifftiau
engineering
engl
england
english
englyn
englynion
eni
enid
enillod
enillodd
enillwyd
enillwyr
enillydd
enlli
ennill
ennio
ennyn
enough
enrico
enright
enrique
ensemble
ensym
ensymau
enterprises
entertainment
entre
environment
environmental
enw
enwad
enwadau
enwau
enwebiad
enwebiadau
enwebu
enwebwyd
enwedig
enwi
enwir
enwocaf
enwodd
enwog
enwogion
enwogrwydd
enwol
enwyd
enynnau
enz
enzo
eo
eog
eolss
eos
ep
epa
epig
episod
episode
epoc
epping
epstein
er
era
eraill
eraldo
erasmus
erbyn
erch
erchyll
erfyn
ergyd
eric
erica
erich
ericht
ericson
erie
erik
erika
erin
erioed
eritrea
erle
erledigaeth
erlid
erling
erlyn
ermanno
erna
ernest
ernesto
ernie
erno
ernst
erny
eros
erotica
erotig
errol
ers
erthygl
erthyglau
erthyliad
erw
erwin
erydiad
eryr
eryri
erys
es
esblygiad
esblygodd
esblygu
esboniad
esbonio
escape
escobar
esgid
esgidiau
esgob
esgobaeth
esgobion
esgor
esgus
esgyn
esgyniad
esgyrn
esiampl
esiamplau
esmeralda
espan
espero
esposito
espresso
essay
essays
essex
est
esta
estate
este
esteban
estelle
ester
esther
estoneg
estonia
estrada
estrildidae
estron
estyn
estynedig
estyniad
estynwyd
esyllt
et
eta
etc
etchebehere
ethan
ethanol
ethel
ethiopia
ethnig
ethnigrwydd
ethol
etholaeth
etholaethau
etholedig
etholfraint
etholiad
etholiadau
etholiadol
etholir
etholwyd
etholwyr
etifedd
etifeddiaeth
etifeddodd
etifeddol
etifeddu
etive
eto
eton
ettore
etymoleg
eu
euclid
euge
eugen
eugene
eugenia
eugenio
euler
eun
euog
euphaeidae
euraid
euraidd
euro
europa
europe
european
euros
eurovision
euryn
eurynnod
euxoa
ev
eva
evan
evans
eve
evelyn
even
evening
events
ever
everest
everett
evert
everton
every
everything
evi
evic
evidence
evil
evolution
ew
ewa
ewald
ewan
ewch
ewclidaidd
ewig
ewing
ewrasia
ewro
ewrop
ewropeaid
ewropeaidd
ewyllys
ewyn
ewythr
ex
example
exchange
exeter
exodus
exorcist
experience
express
eye
eyed
eyes
eyre
ez
ezio
ezra
f
fa
fab
fabaceae
faber
fabian
fabien
fabienne
fabio
fabre
fabrice
fabrizi
fabrizio
fabwysiadu
fabwysiadwyd
face
facebook
faced
faces
fach
fachgen
facto
factor
factory
facts
faculty
fadog
fae
faen
faenol
faenor
faer
faes
faestrefol
faesyfed
fagu
fai
fain
fainc
faint
fair
fairbanks
fairfax
fairfield
fairy
faith
faithfull
faivre
fal
falch
falco
falcon
falconidae
falconiformes
faleisia
fali
falk
falkirk
fall
falls
false
falstaff
falu
fam
famaliaid
fame
families
family
famous
fampir
famwlad
fan
fanc
fanceinion
fand
fandaliaid
fandiau
faner
faneri
fangladesh
fangor
fannaichs
fannau
fanny
fantais
fantasia
fantasmagorie
fantastic
fantasy
fanteisio
fantell
fanwl
fanylion
fap
fapiau
far
fara
farchnad
farchnata
farchog
farchogion
fardd
farddoniaeth
farina
farkas
farley
farm
farmer
farn
farnum
farnwr
faro
farr
farrar
farre
farrell
farrow
faruk
farw
farwn
farwnad
farwnig
farwolaeth
farwolaethau
fas
fasged
fasnach
fasnachol
fasnachu
fassbinder
fast
fat
fate
fater
faterion
fath
fathau
fathemateg
fathemategol
father
fatican
faulkner
faust
fausto
fawcett
fawr
fawrth
fay
faye
fayette
fbi
fc
fe
fear
features
february
fechan
fechgyn
fecsico
fector
fed
fedal
fedd
feddal
feddiannu
feddiant
feddrod
feddwl
feddyg
feddygaeth
feddyginiaeth
feddygol
federal
federation
federico
fedi
fedrai
fedru
fedyddio
feet
fehefin
fei
feibion
feic
feichiog
feicoleg
feini
feinwe
feiolin
feirdd
feirionnydd
feirniad
feirniadaeth
feirniadol
feirniadu
feirniaid
feirws
feistr
feithrin
fel
felan
feldman
felen
felice
felin
felindre
felipe
felix
fell
felleghy
fellini
felly
felyn
female
femme
femmes
feneswela
feng
fenis
fenni
fenter
fenthyg
fenton
fenyw
fenywaidd
fenywod
fer
ferch
ferched
ferdinand
ferdinando
ferenc
ferf
ferguson
fermat
fern
ferna
fernand
fernanda
fernandel
fernandez
fernando
ferrando
ferrara
ferrari
ferreira
ferrer
ferreri
ferreyra
ferrier
ferris
ferruccio
ferry
fersiwn
fersiynau
fertebra
fertebratau
ferthyr
fertig
fertigau
fertigol
festa
festival
fesul
fesur
fesurau
fetel
fethiant
fethu
fetr
fetropolitan
feuer
feuillade
fever
few
fewn
fewnfudwyr
fewnol
feysydd
ff
ffa
ffactor
ffactorau
ffafr
ffafrio
ffafriol
ffagan
ffair
ffaith
ffans
ffansi
ffantasi
ffarm
ffaro
ffarwel
ffasa
ffasgaidd
ffasiwn
ffasiynol
ffaso
ffatri
ffawd
ffe
ffederal
ffederasiwn
ffeil
ffeiliau
ffeinal
ffeiriau
ffeithiau
ffeithiol
ffeminist
ffeministaidd
ffeministiaeth
ffeministiaid
ffenest
ffenestr
ffenestri
ffeniau
ffenomen
ffenomenau
fferi
fferm
ffermdy
ffermio
ffermwr
ffermwyr
ffermydd
fferyllydd
ffesant
ffesantod
ffestiniog
ffi
ffibr
ffibrau
ffidil
ffigur
ffigurau
ffigwr
ffigyrau
ffiji
ffilm
ffilmiau
ffilmio
ffilmiwyd
ffilmyddiaeth
ffim
ffin
ffindir
ffiniai
ffiniau
ffinio
ffinnaidd
ffinneg
ffion
ffiseg
ffisegol
ffisegwyr
ffisegydd
ffisioleg
ffisiolegydd
ffitio
ffiwg
fflach
fflam
fflandrys
fflat
fflatiau
fflint
ffliw
ffliwt
fflora
fflorens
fflur
fflyd
fflyffi
ffo
ffoaduriaid
ffocws
ffodd
ffoes
ffoi
ffon
ffonau
ffordd
fforest
fforestydd
fforio
fforiwr
fformat
fformiwla
ffortiwn
fforwm
fforwyr
ffos
ffosfforws
ffosil
ffosilau
ffosiliau
ffosydd
ffotograff
ffotograffau
ffotograffi
ffotograffiaeth
ffotograffwyr
ffotograffydd
ffowc
ffra
ffrae
ffraeth
ffraid
ffrainc
fframwaith
ffranciaid
ffrancod
ffrancwr
ffrancwyr
ffraneg
ffrangeg
ffransis
ffrengig
ffrenig
ffres
ffridd
ffrind
ffrindiau
ffrio
ffriseg
ffrisia
ffrwd
ffrwydrad
ffrwydradau
ffrwydro
ffrwydrodd
ffrwydron
ffrwyth
ffrwythau
ffrwythlon
ffrwythlondeb
ffrwythloni
ffrynt
ffug
ffugenw
ffuglen
ffuglennol
ffuglenol
ffugwyddonol
ffurf
ffurfiau
ffurfio
ffurfiodd
ffurfiol
ffurfir
ffurfiwyd
ffwlbart
ffwng
ffwrdd
ffwythiannau
ffwythiant
ffydd
ffyddlon
ffyddlondeb
ffyngau
ffynhonnau
ffynhonnell
ffyniant
ffynnon
ffynnu
ffynonellau
ffyrdd
ffyrnig
fi
fiala
fianna
ficer
fiction
fictoraidd
fictoria
fidel
fidelio
fideo
fideos
fiedler
field
fielding
fields
fiena
fienna
fiennes
fietnam
fietnameg
fifa
fife
fifth
figaro
fight
fighting
figueroa
fil
file
files
filho
filip
filipino
filipovsky
filippo
filiwn
fille
filltir
filltiroedd
film
films
filoedd
fils
filwr
filwrol
filwyr
fin
final
finch
find
finding
fine
finger
finiste
finlay
finn
fiola
fioled
fiolegol
fiona
fiore
fips
firaol
fire
fireod
firmin
first
firth
firws
firysau
fis
fischer
fish
fisher
fisigothiaid
fisoedd
fitamin
fitz
fitzgerald
fitzmaurice
five
fiwsical
fix
fk
fl
flaen
flaenau
flaenllaw
flaenorol
flag
flags
flaherty
flame
flanagan
flas
flash
flat
flavin
flavio
fle
fleck
fleet
fleischer
fleming
flemming
flesh
fletcher
fleur
flew
flewog
flight
flint
flodau
flodeugerdd
flodeuo
flodyn
flood
flora
florence
florent
flores
florey
floria
florian
florida
flower
flowers
floyd
flwyddyn
fly
flycatcher
flying
flynedd
flynn
flynyddoedd
flynyddol
fm
fo
foch
focus
fod
fodau
fodd
foddi
fodel
fodern
fodlon
fodolaeth
fodolai
fodoli
foel
foesol
folcanig
folco
foley
folk
folkestone
following
folsey
fomio
fonda
foneddiges
fonesig
fong
fons
fonseca
font
fontaine
fontana
food
fool
foot
football
for
forbert
forbes
force
forces
ford
fordaith
forde
fore
foreign
forest
forever
forgannwg
forget
forgotten
forladron
form
forman
formicariidae
foroco
forque
forrest
forsberg
forster
forsyth
fort
forte
fortuna
fortunato
fortune
forum
forwyn
foryd
foss
foster
fotanegydd
foulkes
found
foundation
four
fournier
fourth
fowler
fox
fr
fra
frac
frad
fraich
fraith
fran
franc
franca
france
frances
francesc
francesca
francesco
franchi
francine
francis
francisco
franck
franco
frank
frankel
frankenstein
frankfurt
frankie
franklin
franklyn
frans
frantis
franz
franziska
fras
fraser
frasil
fraticelli
frau
frauen
frawd
frawddeg
fre
frech
fred
freda
freddie
freddy
frederic
frederick
fredericks
frederik
frederiksberg
frederiksen
fredersdorf
fredric
fredrik
free
freedom
freeman
freiburg
fremont
french
frenhines
frenhiniaeth
frenhinllin
frenhinoedd
frenhinol
frenin
frenkel
frest
freud
freuddwyd
freund
frey
fri
friars
fric
frida
friday
friedkin
friedl
friedman
friedrich
friend
friends
fries
frig
friis
fringillidae
frisk
frith
fritsch
fritz
fro
frodor
frodorion
frodorol
frodyr
froelich
from
frome
fron
front
fronted
frontier
frost
frown
frs
fru
fruit
frwd
frwydr
frwydrau
frwydro
fry
frycheiniog
frye
fryn
fryngaer
fryngaerau
fryniau
frys
fryste
frythoneg
ft
fu
fuan
fuasai
fud
fudd
fuddugol
fuddugoliaeth
fuddugoliaethau
fudiad
fudiadau
fuentes
fukasaku
fulci
fulham
full
fuller
fulton
fulvio
fun
fund
fune
funeral
fung
fungal
funny
funud
fur
furia
furiau
furie
furnariidae
furry
fursennod
fury
fusco
fusnes
fusnesau
future
fuwch
fwa
fwg
fwlch
fwlgaria
fwnt
fwrdd
fwrdeistref
fwrdeistrefi
fwriad
fwriadol
fwrw
fwslimaidd
fwslimiaid
fwsoglau
fwy
fwyaf
fwyafrif
fwyd
fwydo
fwydydd
fwyfwy
fwyn
fwynhau
fwyta
fy
fychan
fyd
fydd
fyddai
fyddant
fyddin
fyddinoedd
fyddo
fydeang
fydr
fyfyriwr
fyfyrwyr
fygwth
fygythiad
fymryn
fynachlog
fynachod
fynd
fyned
fynedfa
fynediad
fynegi
fynnu
fynwent
fynwy
fyny
fynych
fynychu
fynydd
fynyddig
fynyddoedd
fyr
fysantaidd
fyth
fytholeg
fytholwyrdd
fyw
fywgraffiaduron
fywgraffyddol
fywiog
fywyd
fywydau
fønss
g
ga
gabby
gabe
gabin
gable
gabriel
gabriela
gabriele
gabriella
gabrielle
gaby
gad
gadael
gadair
gadarn
gadarnhau
gadawodd
gadawyd
gadeiriol
gadeirlan
gadeirydd
gadewch
gadfridog
gadw
gadwraeth
gadwraethol
gadwyn
gae
gaeaf
gaeafau
gaeau
gael
gaeleg
gaeltacht
gaer
gaerdydd
gaerfyrddin
gaergrawnt
gaerhirfryn
gaerloyw
gaerly
gaernarfon
gaerwrangon
gaetano
gaeth
gaethwasiaeth
gaethweision
gafael
gafodd
gafr
gafwyd
gai
gaiff
gail
gain
gainc
gainsborough
gainsbourg
gaint
gair
gais
gaius
gal
gala
galabru
galaeth
galaethau
galan
galar
galaru
galaxy
galch
gale
galed
galeri
galicia
galiffornia
galindo
galisia
galisieg
gall
gallagher
gallai
gallant
gallent
gallery
gallia
galliformes
gallitti
gallo
gallone
galloway
gallu
galluoedd
galluog
galluogi
gallwch
gallwn
galon
galveston
galw
galwad
galwadau
galway
galwodd
galwyd
gam
gamau
gambia
game
games
gamlas
gamma
gamp
gampwaith
gampws
gan
ganada
ganai
gance
gancr
ganddi
ganddo
ganddyn
ganddynt
gandhi
gandryll
ganed
ganesh
ganeuon
ganfod
gang
gangen
ganghellor
ganghennau
gangiau
gangster
gangsters
gangstyrs
ganiata
ganlyn
ganlyniad
ganlyniadau
ganlynol
gannoedd
ganodd
ganol
ganolbarth
ganolbwynt
ganolbwyntio
ganolfan
ganolfannau
ganoloesol
ganolog
ganran
ganrif
ganrifoedd
ganser
gant
gantores
gantorion
gantref
ganu
ganwr
ganwyd
gap
gapel
gapiau
gapten
gar
garate
garchar
garcharor
garcharorion
garcharu
garci
garcia
gard
gardd
garde
garden
gardens
gardiner
gardner
garej
gareth
garfan
garfield
gargan
gariad
gario
garland
garmon
garn
garnedd
garner
garnett
garonne
garreg
garrel
garrett
garrone
garrulax
garry
garsiwn
garson
garth
gartref
gartrefi
garu
garw
gary
gas
gaseg
gasgliad
gasgliadau
gasglu
gasglwyd
gasnewydd
gasnier
gassman
gast
gastell
gaston
gastone
gate
gategori
gates
gath
gatholig
gatholigion
gatrawd
gau
gaudi
gaudin
gaulle
gaumont
gautam
gavin
gawr
gay
gaynor
gaza
gazette
gdan
ge
gedichte
gedwir
gee
gefeilldrefi
gefeillio
geffyl
geffylau
gefn
gefnder
gefndir
gefnfor
gefnogaeth
gefnogi
gefnogol
gefnogwr
gefnogwyr
geg
gegin
geidwad
geidwadol
geifr
geiniog
geir
geirdarddiad
geirfa
geiriadur
geiriaduron
geiriau
geirionydd
geisha
geisio
geisiodd
gel
gelf
gelfyddyd
gell
gelli
gellid
gellir
gelloedd
geltaidd
gelteg
gelwid
gelwir
gelyn
gelynion
gem
gemau
gemegol
gemma
gemwaith
gen
genau
gender
gene
genedigaeth
genedigaethau
genedl
genedlaethol
genedlaetholdeb
genefa
genera
general
generation
genesis
geneteg
genetig
geneva
genevie
genhadaeth
genhedlaeth
genhedloedd
geni
genina
gennaro
gennyf
gennym
genoa
genova
genre
gent
gentle
gentleman
gentner
genws
genyn
genynnau
geo
geoff
geoffrey
geograph
geography
geometreg
geometrig
georg
george
georgeg
georges
georgetown
georgette
georgi
georgia
georgina
ger
geraint
gerald
geraldine
gerallt
gerard
gerardo
gerasimov
gerbron
gerbyd
gerbydau
gerd
gerda
gerdd
gerdded
gerddi
gerddor
gerddorfa
gerddoriaeth
gerddorion
gerddorol
geredigion
gerhard
gerllaw
germa
germain
germaine
german
germanaidd
germania
germany
gernot
gernyw
gernyweg
gero
gerrard
gerrig
gerry
gert
gertrud
gertrude
geschichte
gestyll
get
gethin
gets
getting
getty
ghana
gheorghe
ghita
ghosh
ghost
gi
gia
giacomo
gian
giancarlo
gianfranco
gianluca
gianni
giannini
giant
gibbs
gibraltar
gibson
gica
gideon
giese
gif
gift
gig
gigi
gigydd
gigyddion
gil
gilbert
gilberto
gilda
gildas
giles
gilfach
gill
gilles
gillespie
gillian
gilling
gilmore
gilydd
gime
gina
ginette
ginger
gini
gino
gion
giordano
giorgio
giorno
giovanna
giovanni
gipio
gipiodd
girard
girardot
giraud
girl
girls
giro
girolami
gis
gisa
gise
gisela
gish
gita
gitar
gitarydd
giuffre
giulia
giuliano
giulio
giuseppe
give
giwba
gje
gl
gla
glabra
gladdu
gladiator
gladstone
gladys
glamorgan
glan
glangwili
glanhau
glanio
glaniodd
glannau
glas
glasgow
glaslyn
glasoed
glass
glasur
glasurol
glaswellt
glaw
glawr
gleason
glefyd
glefydau
gleifion
gleision
glen
glenda
glendale
glendalough
glenn
gli
glin
glir
glirio
glise
glo
global
globe
gloch
glod
gloddio
glofa
gloi
gloria
glory
glover
glowyr
gloynnod
gloyw
glu
gludo
glust
glwb
glybiau
glycine
glycyrrhiza
glymblaid
glyn
glyndw
glyndwr
glynn
glynne
glywed
glywodd
gm
gnaeus
go
gobaith
gobbi
gobeithio
goch
god
godard
goddard
godfather
godfrey
godi
godio
gododd
gododdin
godre
gods
godwyd
goed
goeden
goedwig
goedwigoedd
goes
goesau
goesyn
goethe
goetz
gof
gofal
gofalu
gofeb
goffa
goffau
goffi
goffredo
gofiant
gofid
gofio
gofnod
gofnodi
gofnodion
gofnodwyd
gofod
gofrestr
gofrestru
gofyn
gofynion
gofynnodd
gofynnwyd
gog
gogarth
gogh
goginio
gogledd
gogleddol
gogoniant
gogwydd
gogwyddion
gohebydd
going
goire
gol
golan
golau
golchi
gold
goldberg
golden
goldman
goldsmith
goldstein
goldwyn
goleg
golegau
goleuadau
goleudy
goleuni
goleuo
golfanod
golff
goliau
goll
golled
golli
gollodd
gollwng
gollwyd
golofn
golombia
golwg
golyga
golygai
golygfa
golygfeydd
golygiad
golygodd
golygu
golygwyd
golygydd
golygyddion
golygyddol
gomedi
gomer
gomez
gomisiwn
gomisiynydd
gomiwnyddol
gomphidae
gonc
goncwest
gone
gonswl
gontract
gonwy
gonza
gonzalez
gonzalo
good
goodbye
goodman
goodwin
goodwins
goody
google
goose
gopa
gopal
gopalakrishnan
gopaon
gopi
gor
gora
goran
gorarwr
gorau
gorbryder
gorchfygodd
gorchfygu
gorchfygwyd
gorchmynion
gorchmynnodd
gorchudd
gorchuddio
gorchymyn
gordon
gore
goresgyn
goresgyniad
goresgynwyr
goreuon
gorff
gorffen
gorffenaf
gorffennaf
gorffennodd
gorffennol
gorfforaeth
gorfforol
gorffwys
gorfod
gorfodaeth
gorfodi
gorfodol
gorfodwyd
gorgyffwrdd
gori
gorky
gorllewin
gorllewinol
gorman
gormes
gormod
gorn
gornel
gornest
goroesi
goroesodd
goron
goroni
goronwy
gororau
gors
gorsaf
gorsafoedd
gorsedd
goruchaf
goruchafiaeth
goruchwylio
goruwchnaturiol
gorwedd
gorweddai
gorwel
gorymdaith
gorymdeithiau
gorynys
gosb
gosbi
gosod
gosodir
gosododd
gosodwyd
gospel
gost
gostwng
gostyngiad
gostyngodd
got
gothiaid
gothig
gottfried
gottlieb
gough
gould
goulding
gov
government
gowboi
gower
goya
gp
gpc
gra
graatkjær
grace
gracia
graciela
gradd
graddau
graddfa
graddio
graddiodd
grady
graeme
graf
graff
graffeg
graffig
graffiti
grafton
graham
grahame
graig
gram
gramadeg
grammar
grammy
grampians
gran
granada
grand
grande
grange
granger
grangier
grant
grantiau
granville
gras
grass
grasse
grassia
grau
grave
graves
grawn
gray
grayson
graz
grazia
gre
greadigaeth
greadigol
greaduriaid
greal
great
greater
greatest
greco
gred
gredoau
gredu
greek
green
greenaway
greenbaum
greenberg
greene
greenwich
greenwood
greer
gref
grefft
grefydd
grefyddau
grefyddol
greg
gregers
gregg
gregor
gregori
gregorio
gregory
gregson
greigiau
grenada
grenville
greodd
gret
greta
grete
grethe
greu
grewyd
grey
grib
grid
grieco
griff
griffin
griffith
griffiths
grigor
grimaldi
grimm
grimsby
grisial
grisiau
grist
gristnogaeth
gristnogion
gristnogol
griw
gro
groatia
groeg
groegaidd
groegiaid
groen
groes
groesffordd
groesgad
groesi
grog
grogi
gromosom
gron
gronfa
gronw
gronyn
gronynnau
gross
grosso
grosvenor
groth
grothe
ground
group
grove
grover
growth
große
gru
gruber
gruff
gruffudd
gruffydd
grug
grugiau
gruiformes
grund
grundy
grw
grwp
grwpiau
grwpio
grybwyll
gryf
gryfach
gryfder
gryfhau
grym
grymoedd
grymus
gryn
grynno
gryno
grzegorz
gt
gta
gu
guangdong
guangzhou
guardian
guazzoni
gudd
guddio
gudrun
gue
guerra
guerre
guerrero
guerrini
guest
guevara
guez
guggenheim
guglielmo
guide
guido
guildford
guillaume
guille
guillermo
guilty
guinness
gul
gull
gump
gun
gunn
gunnar
guns
gunther
gupta
guro
guru
gus
gustaf
gustav
gustave
gustavo
guter
guthrie
gutie
guto
guy
guzma
gw
gwa
gwadd
gwaddol
gwadu
gwae
gwaed
gwaedlyd
gwael
gwaelod
gwaetha
gwaethaf
gwag
gwahaniaeth
gwahaniaethau
gwahaniaethu
gwahanol
gwahanu
gwahardd
gwaharddiad
gwaharddwyd
gwahodd
gwahoddiad
gwahoddwyd
gwair
gwaith
gwalch
gwalchmai
gwales
gwalia
gwallt
gwallter
gwan
gwanas
gwanhau
gwanwyn
gwarchae
gwarcheidiol
gwarchod
gwarchodfa
gwarchodfeydd
gwarchodlu
gwared
gwaredu
gwareiddiad
gwariant
gwario
gwartheg
gwas
gwasanaeth
gwasanaethau
gwasanaethodd
gwasanaethu
gwasg
gwasgaru
gwasgedd
gwasgu
gwastad
gwastadedd
gwastadeddau
gwastraff
gwatemala
gwaun
gwawr
gwbl
gwblhau
gwbwl
gwch
gwddf
gwe
gwedd
gweddi
gweddill
gweddillion
gweddol
gweddw
gwefan
gwefannau
gwefr
gwefusau
gwehydd
gweilch
gweini
gweinidog
gweinidogion
gweinyddiaeth
gweinyddol
gweinyddu
gweision
gweithdai
gweithdy
gweithfeydd
gweithgar
gweithgaredd
gweithgareddau
gweithgarwch
gweithgynhyrchu
gweithiau
gweithio
gweithiodd
gweithiol
gweithiwr
gweithred
gweithrediad
gweithrediadau
gweithredoedd
gweithredol
gweithredu
gweithredwr
gweithredwyr
gweithwyr
gweladwy
gweld
gweled
gweledigaeth
gweledol
gweler
gwelir
gwell
gwella
gwelliannau
gwelliant
gwellt
gwelodd
gwelw
gwelwch
gwelwn
gwelwyd
gwely
gwen
gwenallt
gwendraeth
gwener
gwenith
gwenllian
gwenno
gwennol
gwenoliaid
gwent
gwenwyn
gwenwynig
gwenwynwyn
gwenyn
gweog
gwerful
gwerin
gweriniaeth
gweriniaethau
gweriniaethol
gweriniaethwyr
gwerinol
gwern
gwersi
gwersyll
gwersyllfeydd
gwersylloedd
gwerth
gwerthfawr
gwerthfawrogwn
gwerthiant
gwerthodd
gwerthoedd
gwerthu
gwerthuso
gwerthwr
gwerthwyd
gwestai
gwesteion
gwesty
gweunydd
gwilen
gwilym
gwin
gwinau
gwion
gwir
gwireddu
gwirfoddol
gwirfoddolwyr
gwirionedd
gwirioneddol
gwiro
gwisg
gwisgo
gwisgodd
gwisgoedd
gwjarati
gwla
gwlad
gwladfa
gwladgarol
gwladol
gwladweinydd
gwladwriaeth
gwladwriaethau
gwladychu
gwledd
gwledig
gwledydd
gwleidydd
gwleidyddiaeth
gwleidyddion
gwleidyddol
gwlff
gwlyb
gwlyptiroedd
gwm
gwmni
gwmniau
gwmpas
gwmwd
gwn
gwna
gwnaed
gwnaeth
gwnaethant
gwnaethpwyd
gwneir
gwneud
gwneuthur
gwneuthurwr
gwneuthurwyr
gwnstabl
gwobr
gwobrau
gwobrwyo
gwobrwywyd
gwpan
gwr
gwrach
gwrachod
gwragedd
gwraidd
gwraig
gwrando
gwrdd
gwregys
gwreiddiau
gwreiddiol
gwreiddyn
gwres
gwrs
gwrth
gwrthdaro
gwrthdro
gwrtheyrn
gwrthod
gwrthododd
gwrthodwyd
gwrthrych
gwrthrychau
gwrthryfel
gwrthryfela
gwrthryfelwyr
gwrthsefyll
gwrthwyneb
gwrthwynebiad
gwrthwynebu
gwrthwynebwyr
gwrthwynebydd
gwrw
gwrychog
gwryw
gwrywaidd
gwrywod
gwthio
gwy
gwybed
gwybedog
gwybedogion
gwybod
gwybodaeth
gwybyddol
gwych
gwyddau
gwyddbwyll
gwyddeleg
gwyddelig
gwyddelod
gwyddoch
gwyddom
gwyddoniadur
gwyddoniaeth
gwyddonias
gwyddonol
gwyddonwyr
gwyddonydd
gwyddor
gwyddorau
gwyddys
gwydion
gwydir
gwydn
gwydr
gwyfyn
gwyfynod
gwyl
gwylan
gwylanod
gwyliau
gwylio
gwyllt
gwylwyr
gwymp
gwyn
gwyndaf
gwynedd
gwyneth
gwynfor
gwynfryn
gwynion
gwynionydd
gwynn
gwynne
gwynt
gwyntoedd
gwyr
gwyrdd
gwyrddion
gwyrfai
gychod
gychwyn
gyd
gyda
gydag
gyddf
gyddfddu
gyddfgoch
gyddfwyn
gydnabod
gydnabyddiaeth
gydol
gydweithio
gyfadran
gyfagos
gyfaill
gyfan
gyfandir
gyfandirol
gyfangwbl
gyfansoddi
gyfansoddiad
gyfansoddiadau
gyfansoddiadol
gyfansoddwr
gyfansoddwyd
gyfansoddwyr
gyfanswm
gyfarfod
gyfarfodydd
gyfartal
gyfartaledd
gyfarwydd
gyfarwyddo
gyfarwyddwr
gyfarwyddwyd
gyfarwyddwyr
gyfarwyddyd
gyfathrebu
gyfeillgar
gyfeillgarwch
gyfeillion
gyfeiriad
gyfeiriadau
gyfeirio
gyfenw
gyfer
gyferbyn
gyffes
gyffordd
gyffredin
gyffredinol
gyffro
gyffrous
gyffur
gyffuriau
gyffwrdd
gyfiawnder
gyfieithiad
gyfieithiadau
gyfieithu
gyflafan
gyflawn
gyflawni
gyfle
gyflenwi
gyfleu
gyflog
gyflogaeth
gyflogi
gyflwr
gyflwyno
gyflwynodd
gyflwynwyd
gyflwynydd
gyflym
gyflymach
gyflymder
gyflyrau
gyfnewid
gyfnewidfa
gyfnod
gyfnodau
gyfochrog
gyfoes
gyfoeth
gyfoethog
gyfradd
gyfraith
gyfran
gyfraniad
gyfraniadau
gyfrannu
gyfredol
gyfreithiau
gyfreithiol
gyfreithiwr
gyfreithlon
gyfres
gyfresi
gyfri
gyfrif
gyfrifiadur
gyfrifiadurol
gyfrifo
gyfrifol
gyfrifoldeb
gyfrin
gyfrinach
gyfrinachol
gyfrol
gyfrolau
gyfrwng
gyfryngau
gyfun
gyfundrefn
gyfuniad
gyfuno
gyfunol
gyfyngedig
gyfyngiadau
gyfyngu
gyfystyr
gyfystyron
gyhoeddi
gyhoeddiad
gyhoeddiadau
gyhoeddir
gyhoeddodd
gyhoeddus
gyhoeddwyd
gyhuddiad
gyhuddo
gylch
gylchgrawn
gylchgronau
gylchoedd
gylchog
gyllenhaal
gyllid
gyllideb
gymaint
gymal
gymanfa
gymanwlad
gymdeithas
gymdeithasau
gymdeithasol
gymdogaeth
gymeradwyo
gymeriad
gymeriadau
gymerodd
gymerwyd
gymeryd
gymesur
gymhareb
gymharol
gymharu
gymhleth
gymhwyso
gymhwysol
gymnasteg
gymorth
gymraeg
gymraes
gymrawd
gymreig
gymro
gymru
gymry
gymryd
gymuned
gymunedau
gymunedol
gymwys
gymydog
gymysg
gymysgedd
gymysgu
gyn
gynderfynol
gynefin
gynefinoedd
gynffon
gyngerdd
gynghanedd
gyngherddau
gynghorydd
gynghrair
gyngor
gyngres
gynhadledd
gynhaliwyd
gynhanesyddol
gynharach
gynharaf
gynhelir
gynhenid
gynhesu
gynhwysfawr
gynhwysyn
gynhyrchiad
gynhyrchion
gynhyrchir
gynhyrchu
gynhyrchwyd
gynhyrchydd
gynllun
gynlluniau
gynllunio
gynlluniwyd
gynnal
gynnar
gynnau
gynnes
gynnig
gynnwys
gynnydd
gynnyrch
gynorthwyo
gynradd
gynrychiolaeth
gynrychioli
gynrychiolwyr
gynrychiolydd
gynt
gyntaf
gynted
gynulleidfa
gynulliad
gynyddol
gynyddu
gyo
gyrchfan
gyrfa
gyrff
gyrhaeddodd
gyrion
gyrn
gyrnol
gyrraedd
gyrrodd
gyrru
gyrrwr
gyrrwyd
gyrwyr
gysegredig
gysegru
gysgu
gyson
gystadlaethau
gystadleuaeth
gystadlu
gyswllt
gysylltiad
gysylltiadau
gysylltiedig
gysylltir
gysylltu
gysyniad
gysyniadau
gytiau
gytundeb
gytundebau
gytuno
gyu
gyula
gywir
gywydd
h
ha
haag
haas
habana
haber
habib
hachub
hackney
had
hadau
haddasu
haddysg
haddysgu
haddysgwyd
hadeiladu
hadnabod
hadrian
haearn
hael
haelodau
haen
haenau
haf
hafal
hafaliad
hafaliadau
hafan
hafau
hafod
hafren
hagen
hagor
hahn
hai
haidd
haifa
hail
haint
hair
haiti
hakim
hal
halbwm
hale
halen
haley
half
halifax
halina
halit
hall
halle
haller
hallt
halm
halsey
halton
ham
hamas
hamburg
hamdden
hamddiffyn
hamgylchynu
hamilton
hamlet
hammer
hammond
hampshire
hampstead
hampton
hams
hamser
han
hana
hanafu
hanbury
hancock
hand
handbook
handel
hands
hanes
hanesion
haneswyr
hanesydd
hanesyddion
hanesyddol
hanfod
hanfodol
hanfon
hangen
haniaethol
hank
hanks
hanmer
hanna
hannah
hannelore
hanner
hannes
hannibal
hannibyniaeth
hanno
hannover
hanns
hannu
hanover
hans
hansard
hansen
hanson
hanterth
hanu
hanus
hap
hapfasnachol
happened
happiness
happy
hapus
hapusrwydd
hara
harald
harbor
harborough
harbour
harbwr
harcourt
hard
hardd
harddangos
harddegau
harddwch
hardin
harding
hardt
hardy
hare
harestio
hari
hariannodd
harishchandra
hark
harlan
harlech
harlem
harlequins
harley
harline
harlow
harmon
harold
harper
harpercollins
harri
harries
harriet
harrington
harris
harrison
harrow
harry
hart
hartford
hartl
hartlepool
hartley
hartmann
harvard
harvest
harvey
harwain
harwynebedd
has
hasan
haskell
hassan
hasse
hasselbalch
hastings
hat
hatal
hatfield
hatgyfnerthu
hatha
hathaway
hattie
hatton
hau
hauer
haul
haunted
haus
hauser
haut
haute
hautes
havana
havard
have
haven
hawaii
hawdd
hawick
hawk
hawke
hawkins
hawks
hawksworth
hawl
hawlfraint
hawliau
hawlio
hawliodd
haws
hay
hayden
haydn
hayes
hayley
haynes
hayward
hazel
hbo
he
head
headed
health
heard
heart
hearts
heat
heath
heather
heaven
heb
heblaw
hebog
hebogiaid
hebraeg
hebreaid
hebron
hebrwng
hecht
hectar
hector
hedd
heddiw
heddlu
heddwas
heddwch
heddychlon
hedfan
hedmann
hedvig
hee
heffeithio
heffron
hefin
hefo
hefyd
hegel
hei
heibio
heide
heidegger
heidelberg
heidi
heights
heimatfilm
heinemann
heini
heinrich
heintiau
heintio
heintus
heinz
hel
hela
helaeth
held
heledd
helen
helena
helene
helfa
helga
helge
heliwr
hell
helle
heller
hello
helm
helmut
helmuth
help
helpodd
helpu
helsengreen
helsinki
helwyr
helyg
helygen
helynt
helyntion
hemingway
hemisffer
hen
henabery
henaint
henderson
hendre
hendrik
hendrix
hendy
heneb
henebion
heneiddio
henffordd
henfyd
henley
henllan
hennill
henning
henny
heno
henoed
henri
henrietta
henriette
henrik
henriksen
henry
henryk
henson
henw
henwau
henwebu
henwi
heol
hepburn
hepgor
hepworth
her
herald
herb
herbert
herbier
herbyn
hercegovina
here
heredia
heresi
hergest
heriau
hering
herio
heritage
herman
hermann
hermine
herna
hernandez
hero
herod
heroes
herr
herrera
herrero
herrmann
herschel
hertford
hertsegofina
hertz
herve
herwgipio
herwydd
herz
herzl
herzog
hesgen
hess
hessen
hester
het
heteragrion
hethol
hetholwyd
heulwen
hewitt
heymann
heyne
heywood
hi
hiaith
hickman
hickox
hicks
hidalgo
hidden
hideo
higgins
high
higher
highland
highway
hil
hilary
hilda
hilde
hildebrand
hildegard
hiliaeth
hiliol
hill
hillary
hiller
hills
hillyer
hilmar
hilton
him
himalaya
himmel
hindi
hinds
hindu
hindw
hines
hinsawdd
hinz
hip
hippolyte
hir
hirach
hiraeth
hiraethog
hiraf
hirdymor
hirion
hiroshi
hiroshima
hiroyuki
hirsch
hirundinidae
his
hiscott
histoire
historia
historic
historical
history
hit
hitchcock
hitchhiker
hithau
hitler
hits
hiv
hively
hiwmor
hjalmar
hl
hle
hler
hlich
hm
hmann
hms
hn
hne
ho
hobart
hobbes
hoci
hodder
hodge
hodges
hoes
hofbauer
hofer
hoff
hoffi
hoffman
hoffmann
hofmann
hofrennydd
hogan
hokusai
holbrook
holbrooke
hold
holden
hole
holger
holi
holiday
holl
holland
hollbwysig
hollol
hollow
holloway
hollt
hollti
holly
hollywood
holm
holman
holmes
holocost
holst
holt
holy
hombre
home
homer
homme
hommes
homo
hon
hondwras
honedig
honey
honeyeater
hong
hongian
honiad
honiadau
honneur
honni
honnir
honno
honnodd
honolulu
honor
honore
hood
hook
hooper
hooson
hop
hope
hopkin
hopkins
hopper
hopwood
horace
horacio
hormonau
horn
horne
horner
horror
horse
horses
horsky
horst
horton
hospital
hoss
hossein
hot
hotel
hotspur
houghton
hour
hours
house
houses
houston
hove
how
howard
howe
howel
howell
howells
howland
hoyt
hoyw
hoywon
hr
hrus
hsfp
htm
html
http
https
htv
hu
hua
huang
hubbard
hubert
hud
hudol
hudson
huerta
hufen
hugain
hugh
hughes
hugo
hugon
hugues
hui
hull
human
humber
humberstone
humberto
humboldt
hume
hump
humphrey
humphreys
hun
hunain
hunan
hunangofiannau
hunangofiannol
hunangofiant
hunaniaeth
hunanladdiad
hunanlywodraeth
hunanlywodraethol
hundred
hung
huno
hunt
hunter
huntingdon
huntingdonshire
huntington
huntley
huppert
hur
hurst
hurt
husband
husberg
hussain
hussein
huston
hutchinson
hutton
huw
huws
hwb
hwch
hwdis
hwiangerdd
hwiangerddi
hwlffordd
hwn
hwngaraidd
hwngareg
hwngari
hwngariaid
hwnnw
hwnt
hwy
hwyaden
hwyaid
hwyl
hwyliau
hwylio
hwyliodd
hwyluso
hwynt
hwyr
hwyrach
hwythau
hy
hyams
hyblyg
hybu
hychwanegu
hyd
hyde
hyder
hyderabad
hydoddiant
hydref
hydrogen
hyfforddi
hyfforddiant
hyfforddodd
hyfforddwr
hyfforddwyr
hyfryd
hygrophoraceae
hylif
hylifau
hyll
hymgorffori
hymgyrch
hyn
hynaf
hynafiad
hynafiaethau
hynafiaethwyr
hynafiaethydd
hynafiaid
hynafol
hynek
hynny
hynod
hynt
hypanthiwm
hypogaea
hyrwyddo
hysbrydoli
hysbys
hysbyseb
hysbysebion
hysbysebu
hysbysu
hysgrifennu
hystyried
hystyrir
hythe
hytrach
hyun
hywel
i
ia
iach
iacha
iachawdwriaeth
iago
iain
iaith
ian
iard
iarll
iarllaeth
iarlles
iau
iawn
iawndal
ib
iba
iberia
ibis
ibn
ibrahim
ibsen
ic
ica
ice
ich
ichi
ichikawa
ichiro
icteridae
id
ida
idaho
idaw
iddew
iddewiaeth
iddewig
iddewon
iddi
iddo
iddyn
iddynt
idea
identity
ideoleg
idris
idwal
ie
iechyd
ieir
ieirll
ieithoedd
ieithydd
ieithyddiaeth
ieithyddion
ieithyddol
iemen
iestyn
iesu
ieuaf
ieuan
ieuanc
ieuenctid
ieuengaf
if
ifainc
ifan
ifanc
ifans
ifor
ifori
ig
iglesia
iglesias
ignacio
ignazio
igor
ii
iii
ija
ik
il
ilaiyaraaja
ildio
ildiodd
ill
ille
illinois
illtud
illustrated
ilona
ilse
ilya
im
image
images
imam
imdb
imi
imiwnedd
immigrant
imperial
imperialaeth
imperialaidd
important
impossible
imre
in
ina
inc
inca
ince
inception
incertae
including
incwm
indecs
indemnity
independence
independent
index
india
indiaid
indiaidd
indian
indiana
indo
indoneseg
indonesia
indus
industrial
industry
ine
inez
inferno
info
information
infty
ing
inga
inge
ingeborg
inger
ingle
inglourious
ingmar
ingolf
ingraham
ingram
ingrassia
ingrid
injan
inn
inni
innocent
ins
insecta
insee
inside
institut
institute
instituto
int
integreiddio
international
internationale
internet
interstellar
interview
intifada
into
intolerance
introduction
invasion
inverness
invisible
io
ioan
ioga
iolo
ion
ionawr
iorciaid
iorddonen
iorwba
iorwerth
iowa
ipa
ipcc
ipswich
iquino
ir
ira
irac
iran
iranaidd
irani
iraq
ire
ireann
ireland
irena
irene
irina
iris
irish
irma
iron
irvin
irvine
irving
irwin
is
isa
isaac
isabel
isabella
isabelle
isaf
isbert
isbn
ischnura
isel
iselder
iseldiraidd
iseldireg
iseldiroedd
isetholiad
ishii
isla
islam
islamaidd
island
islandeg
islands
islaw
isle
islwyn
ismael
ismail
iso
isod
isoform
isradd
israddol
israel
israelaidd
israeli
israeliaid
issue
ist
istanbul
istva
it
itala
italia
italian
italiana
italo
ite
ithel
ito
its
itv
iucn
iv
iva
ivan
ivana
ivano
ivar
iversen
ives
ivo
ivojinovic
ivor
ivory
ivy
iw
iwan
iwerddon
iwerydd
iwgoslafia
ix
iyengar
iz
iſrael
j
ja
jaap
jac
jacek
jack
jackie
jackson
jacky
jacob
jacobs
jacobsen
jacobson
jacoby
jacopo
jacqueline
jacques
jade
jae
jaffa
jag
jahn
jai
jaime
jain
jainiaeth
jakarta
jake
jakob
jakub
jam
jamaica
james
jameson
jamie
jamil
jan
jana
jane
janeiro
janet
jang
janine
janne
jansen
janson
janssen
january
janus
janusz
japan
japaneaidd
japaneg
japanese
jaque
jar
jared
jarl
jarman
jarmila
jaromi
jaroslav
jaroslava
jarosław
jarre
jarvis
jasmin
jasmine
jason
jasper
jaume
java
javier
jay
jayne
jazeera
jazz
je
jean
jeanette
jeanne
jedi
jeff
jefferson
jeffrey
jeffries
jek
jeli
jen
jena
jenkin
jenkins
jenna
jenner
jennifer
jennings
jenny
jeno
jens
jensen
jeong
jeremiah
jeremy
jericho
jeriwsalem
jerome
jerry
jersey
jerusalem
jerwsalem
jerzy
jesper
jess
jesse
jessica
jessie
jesu
jesus
jet
jette
jewish
jh
jha
ji
jia
jiang
jidaigeki
jill
jim
jime
jimmy
jin
jindr
jing
jir
jira
jitka
jo
joa
joachim
joan
joanna
joanne
joannon
joaqui
joaquim
job
jocelyn
jochen
jodie
joe
joel
joey
johan
johann
johanna
johanne
johannes
johannesburg
johansen
johansson
john
johnes
johnnie
johnny
johns
johnson
johnston
jois
jolanda
jolivet
jon
jonah
jonas
jonathan
jone
jones
jong
jonson
joon
jorda
jordan
jordi
jorge
joris
jos
jose
josef
joseff
josep
joseph
josephine
josephson
josh
joshua
josiah
josiane
josie
jour
jourdan
journal
journey
jovan
jovanovic
joy
joyce
jozef
jp
jpeg
jpg
jr
ju
juan
juana
jud
judd
jude
judge
judith
judy
jugnot
jules
julia
julian
julie
julien
juliet
juliette
julio
julius
july
jun
junction
june
jung
junge
jungermanniales
jungermanniopsida
jungle
junior
juno
jura
juraj
jurassic
just
justice
justin
jutta
jwda
jwdas
jwdea
jyngl
jytte
jørgen
jørgensen
jørn
k
ka
kabul
kac
kachyn
kader
kahlo
kahn
kai
kaiser
kaj
kamal
kamil
kamin
kan
kane
kang
kannada
kansas
kant
kaplan
kapoor
kar
kara
karachi
karel
karen
kari
karim
karin
karina
karl
karlheinz
karloff
karlson
karma
karnataka
karol
kashmir
kaspar
kasper
kasserine
kassila
kat
kate
katharina
katharine
katherine
kathleen
kathryn
kathy
katia
katie
katja
katowice
katrin
katrine
katy
katz
kaufman
kaufmann
kaurisma
kay
kaye
kazan
kazimierz
kazuo
ke
keane
keaton
keefe
keenan
keep
kei
keighley
keir
keisuke
keitel
keith
keller
kelley
kelly
kelsey
kemal
kemp
kemper
kemr
ken
kenan
kendall
kenji
kennedy
kenneth
kenny
kenosha
kensington
kent
kenton
kentucky
kenya
kenyon
kerala
kern
kerr
kerry
kesteven
kevin
kew
key
keynes
kg
khan
khanna
ki
kiarostami
kid
kids
kiel
kiev
kill
killed
killer
killing
kim
kimberly
kinase
kind
kinder
kindersley
king
kingdom
kingfisher
kings
kingsley
kingston
kinross
kinski
kirby
kirk
kirkby
kirkland
kirkwood
kirsten
kishore
kiss
kit
kitchen
kitchener
kitty
kjeld
kjell
kla
klaus
klein
kleine
kleinert
klercker
klimovsky
kline
klondike
km
knew
knight
know
knowles
known
knox
knud
knudsen
knut
ko
kobayashi
koch
koepp
kohout
kola
kolkata
kolker
kon
kong
konrad
konstantin
koppel
korda
korea
kos
kosovo
koster
kotagiri
kova
kr
kra
krako
kramer
krasner
kraus
krause
krauss
krejc
kress
krim
kris
krishna
krishnamacharya
krishnan
kristen
kristian
kristiansen
kristin
kristina
kro
kru
kruger
krzysztof
ks
ku
kuala
kubrick
kumar
kumuniou
kung
kurosawa
kurt
kuz
kwai
kwan
kwok
kwon
ky
kyffin
kyiv
kyle
kymwt
kyo
kyoto
kyu
l
la
label
labeli
labordy
labour
labrador
labro
lac
lacey
lachman
lacombe
ladd
ladder
laddiad
laddodd
laddwyd
ladies
ladin
ladislav
lado
ladrad
ladrata
ladron
lady
laemmle
laeth
lafar
lafayette
lafont
lafur
laga
lago
lagos
lagrange
laguna
lahiri
lahore
lai
laila
lain
laine
lais
lajos
lake
lakeland
lakes
lal
lalo
lam
lama
lamac
lamar
lamas
lamb
lambert
lamberto
lambeth
lambs
lamiaceae
lamont
lamp
lamprecht
lan
lana
lanark
lanca
lancaster
lancastriaid
lance
land
landa
landau
landers
landi
landis
lando
landry
landscape
lane
lanelli
lang
langberg
langdon
lange
langer
langley
language
languages
lanhau
lanie
laniidae
lanio
lanishen
lanka
lannau
lansdowne
lansiad
lansio
lansiodd
lansiwyd
lao
laos
lapio
lara
larfa
large
laridae
lark
larkin
larquey
larry
lars
larsen
larsson
larus
laryncs
las
lasalle
lasky
lasoed
lasse
last
laszlo
late
later
latfia
latfieg
lathyrus
latin
latte
lattuada
lau
laughing
laura
laure
laurel
lauren
laurence
laurent
laurenti
laurentiis
laurey
laurie
lauritz
lauritzen
lauro
lausanne
lautner
lavagnino
laval
law
lawdriniaeth
lawen
lawer
lawn
lawnt
lawr
lawrence
lawrlwytho
laws
lawson
lawton
lawysgrifau
laxmikant
lazaga
lazar
lazio
lb
ld
le
lea
lead
leader
leaf
league
leah
leal
lean
learning
leary
leave
leaves
leben
leblanc
lech
lechi
leclerc
leconte
led
leda
ledaenu
leddfu
lederman
ledled
lednentydd
lee
leeds
lefant
lefe
lefebvre
lefel
lefelau
left
lefydd
legacy
legal
legend
legends
legio
legrand
legume
lehmann
lei
leiaf
leiden
leidr
leif
leigh
leighton
leihau
leila
lein
leinster
leipold
leipzig
leisen
leisydd
lek
leland
lelouch
lem
lemaire
lemon
len
lena
lene
leni
lenin
leningrad
lenka
lennart
lennon
lenny
lenoir
lenorion
lenwi
lenyddiaeth
lenyddol
lenz
leo
leoedd
leol
leoli
leoliad
leoliadau
leolir
leolwyd
leon
leonard
leonardo
leone
leoni
leonid
leonor
leonora
leopardi
leopold
leopoldo
lepidoptera
ler
lerner
leroy
lerpwl
les
lesaint
lesley
leslie
lesotho
lesser
lester
let
leth
lethrau
letter
letters
letzte
leuad
leung
lev
level
leven
levi
levin
levine
levinson
levy
lew
lewes
lewin
lewis
lewys
lex
lez
lgbt
lhdt
lhuyd
li
lia
liam
liana
liath
libanus
libellulidae
liber
liberia
liberty
libia
library
libre
libreto
libus
libya
licrs
lida
lidia
lido
lie
liebe
liebeneiner
liechtenstein
lieder
lien
lies
lif
life
lifo
lifogydd
liga
liger
light
lights
liguoro
liguria
like
lil
lila
lili
lilian
liliana
liliane
lille
lilli
lillian
lilly
lily
lim
lima
limerick
limited
lin
lina
linach
lincoln
lind
linda
lindberg
linden
linder
lindgren
lindon
lindsay
lindsey
lindstro
lindys
lindysyn
line
linell
linellau
ling
lingen
link
linn
linnaeus
lino
lio
lion
lionel
lionello
lipsky
lis
lisa
lisabeth
lisbon
lise
list
lister
literary
literature
lithwaneg
lithwania
little
littlefield
liu
liv
live
lively
liverpool
lives
living
livingston
livingstone
livio
liw
liwgar
liwiau
liwt
lix
liz
liza
lizzani
lizzi
ljubis
ljubljana
lkova
ll
llachar
lladd
lladdodd
lladdwyd
lladin
lladrad
lladron
llaeth
llaethog
llafar
llafariad
llafariaid
llafn
llafur
llai
llain
llais
llaith
llall
llan
llanarmon
llanbadarn
llanbedr
llanberis
llanc
llandaf
llanddeiniolen
llanddewi
llandeilo
llandinam
llandrillo
llandrindod
llandudno
llandwrog
llandysilio
llandysul
llanelli
llanelwy
llanfair
llanfairfechan
llanfihangel
llanfyllin
llangatwg
llangefni
llangollen
llangwm
llangybi
llanidloes
llanilltud
llanllechid
llanllyfni
llannerch
llanofer
llanrhaeadr
llanrug
llanrwst
llansanffraid
llansannan
llantrisant
llanuwchllyn
llanw
llanwnda
llanymddyfri
llanymynech
llanystumdwy
llath
llaw
llawdriniaeth
llawen
llawenydd
llawer
llawfeddyg
llawlyfr
llawn
llawr
llawysgrif
llawysgrifau
lle
llech
llechi
llechwedd
llecyn
lled
lledaeniad
lledaenodd
lledaenu
lleddir
lledr
lledu
llefaru
llefarydd
lleferydd
llefydd
lleiaf
lleiafrif
lleiafrifoedd
lleiafrifol
lleian
lleidr
lleihau
lleill
lleisiau
lleisio
lleisiol
lleithder
llen
lleng
llengoedd
llenor
llenorion
llenwi
llenyddiaeth
llenyddol
lleoedd
lleol
lleoli
lleoliad
lleoliadau
lleolir
lleolwyd
ller
lles
llestr
llestri
llethr
llethrau
llety
lleu
lleuad
lleucu
llew
llewellyn
llewelyn
llewod
llewyrchus
llgc
llid
llif
llifa
llifo
llifogydd
llin
llinach
llinell
llinellau
llinol
llinos
llinyn
llinynnau
llinynnol
llithro
lliw
lliwgar
lliwiau
lliwio
llo
lloches
lloegr
lloer
lloeren
lloerennau
llofnododd
llofnodwyd
llofrudd
llofruddiaeth
llofruddio
llofruddiwyd
llond
llong
llongau
llonydd
llorweddol
llosg
llosgfynydd
llosgfynyddoedd
llosgi
llosgwyd
llostfain
lloyd
llu
lludd
lludw
llui
llun
llundain
lluniau
llunio
lluniodd
lluniwyd
lluoedd
lluosflwydd
lluosi
lluosog
llw
llwch
llwybr
llwybrau
llwyd
llwyddiannau
llwyddiannus
llwyddiant
llwyddo
llwyddodd
llwyddwyd
llwydion
llwydni
llwyfan
llwyfandir
llwyn
llwyni
llwynog
llwyr
llwyth
llwythau
llwythi
lly
llychlyn
llychlynwyr
llydan
llydanbig
llydaw
llydaweg
llydewig
llyfn
llyfr
llyfrau
llyfrgell
llyfrgelloedd
llyfrgellydd
llyfryddiaeth
llyfryn
llygad
llygadwyn
llygadwynion
llygaid
llygod
llygoden
llygredd
llym
llyn
llynges
llynnoedd
llys
llysenw
llysgenhadaeth
llysgennad
llysiau
llysieuol
llysieuyn
llysoedd
llystyfiant
llythrennau
llythrennedd
llythrennol
llythyr
llythyrau
llythyren
llyw
llywarch
llywelyn
llywio
llywodraeth
llywodraethau
llywodraethiaeth
llywodraethol
llywodraethu
llywodraethwr
llywodraethwyr
llywydd
ln
lo
loach
lobi
local
loch
lochy
locke
lockhart
lockwood
locomotif
locomotifau
lodge
loegr
loerennau
lofruddiaeth
lofruddio
log
logan
logo
lohmann
loi
loire
lois
lola
lolfa
lolita
lombard
lombardi
lombardia
lombardo
lommel
lomond
lon
london
lone
lonely
long
longau
longford
longman
longo
lonsdale
look
looking
loos
lope
lopes
lopez
lord
lords
loredana
loren
lorentz
lorentzen
lorenz
lorenzo
loretta
lori
loridae
loris
lorraine
los
losgi
lost
lot
lothar
lothian
lotte
lotus
lou
louis
louisa
louise
louisiana
louisville
loup
louvre
love
lovely
lover
lovers
loves
loving
low
lowe
lowell
lower
lowri
lowry
loy
lozano
lp
ls
lt
ltd
lu
lubin
lubitsch
lubomi
luc
luca
lucas
luce
luci
lucia
luciana
luciano
lucidi
lucie
lucien
lucille
lucio
lucius
luck
lucky
lucy
lude
ludmila
ludovico
ludwig
lui
luigi
luis
luisa
luise
luiz
luka
lukas
luke
lukes
lulli
lumet
lumie
lumpur
lun
luna
lund
lundain
lune
lunel
lung
luniau
lunio
luniwyd
luoedd
lupino
lupo
luther
lutz
lux
luxembourg
luz
lvarez
lvaro
lviv
lw
lwc
lwch
lwcsembwrg
lwybr
lwybrau
lwyd
lwyddiannus
lwyddiant
lwyddo
lwyddodd
lwyfan
lwyth
lwythau
ly
lyce
lydaw
lydaweg
lydia
lyfr
lyfrau
lyfrgell
lygad
lygaid
lygredd
lyle
lyn
lynch
lyne
lynges
lynn
lynne
lynnoedd
lyon
lyons
lyrics
lys
lysenw
lysiau
lythrennau
lythyr
lythyrau
lythyren
lywelyn
lywodraeth
lywodraethau
lywodraethol
lywodraethu
lywodraethwr
lywydd
m
ma
maas
mab
mabel
mabinogi
mabinogion
mabon
mabwysiadodd
mabwysiadu
mabwysiadwyd
mac
macau
macbeth
macchi
macdonald
macedon
macedonia
mach
macha
machado
machen
machine
machlud
machynlleth
maciej
mack
mackay
mackenzie
maclean
macleod
macmillan
macon
macrae
macromia
macromiidae
macsen
mad
madagascar
madagasgar
madam
madame
madarch
madarchen
made
madeira
madeleine
madfallod
madge
madhu
madison
madness
madog
madonna
madras
madre
madrid
madryn
mads
madsen
mady
mae
maelgwn
maelor
maen
maenor
maent
maentwrog
maer
maes
maesteg
maestref
maesyfed
maeth
maetholion
maffia
maga
magazine
magda
magdalena
magee
magellan
maggi
maggie
maggio
maghreb
magic
magna
magnetig
magnificent
magnus
magnussen
magu
magwraeth
magwyd
mahadevan
mahesh
mahler
mahmoud
mai
maid
maidenhead
maidstone
mail
main
maine
maint
mainwaring
mainz
mair
maison
maith
maitland
maj
maja
majewski
major
mak
make
makes
making
makwarth
mal
mala
malaialam
malaialeg
malaria
malawi
malaysia
malcolm
maldives
maldwyn
male
maleieg
maleisia
malene
mali
malibu
malik
malley
malling
mallorca
malmo
malo
malone
malta
malu
malvern
maly
mam
mama
mamal
mamaliaid
mamau
mamiaith
mamma
mamwlad
man
manacinod
management
manaw
manaweg
manawydan
manceinion
manchester
mancini
mancori
mandad
mandarin
mande
mandela
mandy
manfred
manfredi
manga
mangladesh
mangor
manhattan
mani
maniffesto
manila
manitoba
mankiewicz
mann
mannau
mannheim
manning
mannog
mano
manoel
manoj
manolo
manon
manor
mansel
mansfield
manson
mantais
manteisio
manteision
mantell
mantra
manu
manual
manuel
manuela
manwl
many
manylion
mao
maori
map
mapiau
mar
mara
marais
maratheg
marathi
marathon
marburg
marc
marceau
marcel
marcela
marcella
marcelle
marcello
marcelo
march
marchal
marchand
marchantiophyta
marche
marchell
marchent
marchetti
marchnad
marchnadoedd
marchnata
marchog
marchogaeth
marchogion
marcia
marciau
marcin
marco
marconi
marcos
marcus
mare
mared
maredudd
maree
marek
mares
margam
margaret
margarete
margarita
marged
margherita
margheriti
margit
margo
margot
marguerite
mari
maria
marian
mariana
mariangela
marianne
mariano
marie
marilyn
marin
marina
marine
marinespecies
marino
mario
marion
marisa
marischka
maritime
marius
mariusz
marjorie
mark
marker
market
markku
marko
markovic
marks
markus
marlborough
marlene
marley
marlon
marlowe
marmor
marne
marquand
marquis
marriage
married
mars
marsden
marseille
marsh
marshal
marshall
marston
marta
martha
marthand
marthe
marti
martial
martin
martina
martine
martinelli
martinez
martini
martino
martins
marton
marty
martyn
marvan
marvel
marvell
marvin
marw
marwnad
marwol
marwolaeth
marwolaethau
marx
mary
maryland
mas
masahiro
masi
mask
masnach
masnachol
masnachu
masnachwr
masnachwyr
mason
mass
massachusetts
massacre
massey
massi
massimo
mast
master
masters
masterson
mastrocinque
mastroianni
mat
mata
matarazzo
match
mate
mateo
mater
materion
materol
math
mathau
mathbf
mathemateg
mathemategol
mathemategwyr
mathemategydd
mathematics
matheson
mathew
mathews
mathias
mathieu
mathilde
mathis
mathonwy
mathot
mathrm
matilda
matilde
matographiques
matrics
matrix
mats
matt
mattei
matteo
matter
matthew
matthews
matthias
matti
mattoli
mattsson
mau
maud
maude
maugham
maura
maureen
maurer
maurice
mauricio
maurits
mauritz
maurizio
mauro
maury
mawddach
mawddwy
mawl
mawn
mawr
mawreddog
mawrion
mawrth
max
maxim
maxime
maximilian
maximus
maxwell
may
maya
mayer
maynard
mayne
mayo
mayor
małgorzata
mbe
mbox
mc
mcbride
mccain
mccall
mccann
mccarey
mccarthy
mccartney
mccormack
mccoy
mccullough
mcdaniel
mcdonald
mcdowell
mcewan
mcgann
mcgill
mcgowan
mcgrath
mcgraw
mcgregor
mcguire
mckay
mckean
mckee
mckenna
mckenzie
mclaglen
mclean
mcleod
mcnamara
mcqueen
mcteigue
mctiernan
md
me
mead
meall
meaning
mec
mecaneg
mecanwaith
mecanyddol
mecca
mechain
mecsicanaidd
mecsico
med
medal
medalau
medd
meddai
meddal
meddalwedd
meddiannu
meddiannwyd
meddiant
meddu
meddwl
meddyg
meddygaeth
meddyginiaeth
meddyginiaethau
meddygol
meddygon
meddylfryd
meddyliau
meddyliol
medi
media
medical
medici
medicine
medieval
medina
medr
medru
medrus
medusa
meek
meet
meg
megan
megapodagrionidae
megis
mehdi
mehefin
mehmet
mehta
mei
meibion
meic
meidraidd
meifod
meiji
meilyr
mein
meine
meini
meinir
meintiau
meinwe
meinweoedd
meirch
meirion
meirionnydd
meirionydd
meirw
meisel
meistr
meistri
meithrin
mel
melangell
melanie
melbourne
melford
melin
melinau
meliphagidae
melissa
mellon
mellt
melodrama
melodramatig
melody
melton
melville
melvin
melyn
melynwyrdd
melys
melysion
melysor
melysorion
member
members
memoirs
memorial
memories
memory
memphis
men
menahem
menai
mendes
mendoza
meniconi
menna
menon
ment
menter
mentrau
menyn
menyw
menywod
menzel
mequinenza
mer
merayo
mercator
mercedes
mercer
merch
merchant
merched
mercher
mercia
mercier
mercury
meredith
meredydd
mererid
merian
merino
merkel
merle
merlin
merlini
merlod
merrill
merry
mers
merswy
merthyr
merthyron
merton
mervyn
mes
mesopotamia
messe
messina
mesur
mesurau
mesuriadau
mesurir
met
metal
metel
metelau
methiant
methling
method
methodd
methodistaidd
methodistiaeth
methodistiaid
methu
metr
metro
metrolink
metropolis
metropolitan
mette
metty
metz
meudwy
meurig
mewn
mewnforio
mewnfudo
mewnfudwyr
mewnol
mewnwladol
mexico
meyer
meyerinck
meyers
meyrick
meysydd
mez
mezzo
mg
mhalas
mhalesteina
mhalestina
mharc
mharis
mhatagonia
mhen
mhencampwriaeth
mhencampwriaethau
mhennod
mhennsylvania
mhentref
mhlwyf
mhnt
mhob
mhortiwgal
mhowys
mhrag
mhrifysgol
mhrydain
mi
mia
miami
micha
michael
michaela
michaels
michal
michał
miche
michel
michelangelo
michele
micheli
micheline
michelle
michigan
mick
mickey
micro
microbiology
microsoft
mid
middle
middlesex
middleton
midi
midland
midlands
midnight
mie
mieczysław
mig
miguel
miha
mihangel
miike
mika
mikael
mike
mikel
mikhail
miki
mikio
mikkel
mikkelsen
miklo
mil
mila
milada
milan
milano
mildred
mile
milena
milenia
mileniwm
miles
milestone
milford
milie
milisia
military
miliwn
miliynau
milk
mill
milland
millar
millard
mille
miller
million
mills
milltir
milly
milne
milner
milo
miloedd
milos
miloslav
milton
milwaukee
milwr
milwrol
milwyr
mimi
mimmo
min
mina
mind
mine
miner
minerva
mines
ming
mingozzi
minh
mini
miniog
minister
minnau
minneapolis
minnelli
minnesota
minnie
mino
minor
minsk
minute
minutes
mio
miodrag
miou
miquel
mir
mira
miracle
mirage
miramax
miranda
mircea
mireille
mirella
miriam
mirko
miro
miroslav
mirror
mis
misc
mischa
mishra
mislif
misoedd
misol
miss
missing
mission
mississippi
missouri
mister
mistral
mit
mitch
mitchell
mitchum
mithridates
mithun
mitra
miwsigal
mix
ml
mlaen
mlwydd
mlynedd
mlynyddoedd
mm
mo
mobile
moch
mochnant
mochyn
mockridge
mocky
mod
modd
moddion
mode
model
modelau
modelu
modern
moderniaeth
modfedd
modi
modot
modrwy
modryb
modur
moe
moel
moelfre
moelwyn
moesau
moeseg
moesol
moesoldeb
moethus
mogens
mohamed
mohammad
mohammed
mohan
mohanlal
mohr
moi
moira
mojica
mol
molander
moldofa
mole
moleciwl
moleciwlau
molina
molinaro
moll
molly
mom
moment
mon
mona
monaco
monadh
monarchidae
monca
mond
monde
mondo
monet
money
mongolia
monica
monicelli
monika
monique
monitro
monk
monkey
monkstown
monmouth
monmouthshire
monocotaidd
monocotyledon
monogram
monroe
mons
monsieur
monster
mont
montagnani
montagu
montana
montanari
monte
montenegro
montero
montes
montevideo
montgomery
monti
montre
montreal
montrose
montserrat
montuori
monty
monument
moody
moon
moor
moore
mor
mora
morales
moran
moray
morbihan
mordaith
more
moreau
morel
moreno
moretti
morfa
morffoleg
morfil
morfilod
morgan
morgannwg
morganwg
morgen
morgi
morglawdd
morgrug
mori
morin
moritz
morley
morning
moroco
moroedd
morol
morra
morricone
morris
morrison
morrissey
morrow
morse
mort
morte
morten
mortensen
morthwyl
mortimer
morton
morus
morwr
morwrol
morwyn
morwyr
morys
mosambic
moscfa
moscow
moselle
moser
moses
mosg
moshe
mosley
moss
most
mostyn
motacillidae
moth
mother
motion
motor
moulin
mount
mountain
mountains
mouse
movement
movie
movies
moving
mowbray
mower
mozart
moſes
mp
mr
mrasil
mrenhiniaeth
mritish
mro
mrs
mrwsel
mrwydr
mryniau
mryste
ms
mt
mtv
mu
muallt
much
mud
mudiad
mudiadau
mudo
mudol
mueller
muerte
muhammad
muir
mujer
mukherjee
mule
mulfrain
mulfran
muller
mumbai
mun
munch
mundo
munich
municipality
munk
munro
munros
munud
mur
muradov
murali
murat
murder
murders
murdo
muriau
muriel
murlun
murphy
murray
mursen
mursennod
musa
muscicapidae
muse
museo
museum
music
musical
mussolini
musson
must
mustafa
mutiny
mw
mwd
mwg
mwletin
mwlgaria
mwnci
mwnt
mwrdeisdref
mwrdeistref
mwslemiaid
mwslimaidd
mwslimiaid
mwy
mwya
mwyach
mwyaf
mwyafrif
mwyn
mwynau
mwynglawdd
mwyngloddio
mwynhau
my
myanmar
myd
myddelton
myddfai
myddin
myers
myfanwy
myfi
myfyr
myfyrdod
myfyrio
myfyriwr
myfyrwyr
mygydog
mykes
myles
mynach
mynachlog
mynachlogydd
mynachod
mynd
myned
mynedfa
mynediad
mynegai
mynegi
mynegiannol
mynegiant
mynegodd
mynnodd
mynnu
mynwent
mynwy
mynychodd
mynychu
mynydd
mynydda
mynyddig
mynyddoedd
mynyddog
myrddin
myriam
myrna
mysg
mysore
myspace
mystery
myth
mytholeg
mytholegol
mywyd
møldrup
møller
n
na
nablus
nabucco
nac
nach
nacho
nacht
nacional
nad
nada
nadia
nadine
nadja
nadolig
nadoligaidd
nadroedd
nadu
nag
naga
nagasaki
nageswara
nagy
nai
naid
naidu
naill
nain
nair
nairobi
nakamura
naked
nam
name
named
names
namibia
namyn
nan
nana
nancy
nando
nanna
nannau
nanni
nant
nantlle
naomi
naoned
napier
napoca
napoleon
napoli
narasimha
naratif
narayana
narayanan
narberth
narrow
naruto
nas
nasa
nash
nashville
nassau
nat
natale
natalia
natalie
natasha
natblygiad
nate
nathalie
nathan
nathaniel
nation
national
nationale
nations
native
nato
natsi
natsiaid
natur
natural
nature
naturiaethwr
naturiaethwyr
naturiol
nau
naval
navarra
navarre
navarro
navra
navy
naw
nawdd
nawddsant
nawfed
nawr
naws
nazarro
nazim
nbc
ncbi
nchen
nchez
nd
nde
nder
ndez
ndor
ne
neal
near
neb
nebo
nebraska
nechrau
nectarinidae
ned
nedd
need
needs
nef
nefoedd
nefyn
negatif
neges
negeseuon
negesydd
negro
negyddol
neidio
neidr
neifion
neighborhood
neil
neilan
neill
neilltuo
neilltuol
neithdar
nek
nel
nell
nella
nello
nelly
nelson
nen
nenfwd
nenmarc
nennius
nentydd
neo
neolithig
nepal
nepaleg
nepell
ner
nerf
nerfau
nerfol
neri
nerio
nero
nerth
nerthol
nes
nesa
nesaf
ness
nest
nestor
net
netflix
network
neu
neuadd
neuaddau
neue
neufeld
neuilly
neumann
nevada
never
neville
nevis
new
newark
newcastle
newell
newfield
newfoundland
newid
newidiadau
newidiodd
newidiwyd
newidyn
newidynnau
newman
newmeyer
newnham
newport
news
newton
newydd
newyddiaduraeth
newyddiadurwr
newyddiadurwraig
newyddiadurwyr
newyddion
newyn
next
ney
neyt
nez
nf
nfelder
ng
nga
ngc
nge
ngeiriadur
ngel
ngela
ngemau
nghaer
nghaerdydd
nghaeredin
nghaerfyrddin
nghaergrawnt
nghaergystennin
nghaernarfon
nghaint
nghalendr
nghaliffornia
nghalon
nghanada
nghanol
nghanolbarth
nghanolfan
nghantref
nghapel
ngharchar
nghartref
nghasgliad
nghasnewydd
nghastell
nghefn
nghefnfor
ngheredigion
nghernyw
ngholeg
nghonwy
nghorsica
nghwm
nghwmni
nghwpan
nghyd
nghyffiniau
nghyfnod
nghyfraith
nghyfres
nghyfrifiad
nghylchgrawn
nghylchred
nghymru
nghymuned
nghynghrair
nghyngor
nghynhadledd
nghystadleuaeth
nghytundeb
ngofal
ngogledd
ngorffennaf
ngorllewin
ngorsaf
nguyen
ngw
ngwaith
ngwanwyn
ngwasanaeth
ngweddill
ngweriniaeth
ngwlad
ngwledydd
ngwleidyddiaeth
ngwobrau
ngwynedd
nh
nhachwedd
nhad
nhadau
nhalaith
nhaleithiau
nhalgylch
nhermau
nheulu
nheyrnas
nhi
nhiriogaeth
nhiwnisia
nhraddodiad
nhref
nhrefn
nhw
nhwrci
nhy
nhymor
ni
nia
niagara
niall
nibelungen
niblo
nic
nica
nicaragwa
niccolo
nice
nicholas
nicholls
nichols
nicholson
nicht
nick
nicky
niclas
nico
nicola
nicolae
nicolai
nicolas
nicole
nicolson
nid
nie
niels
nielsen
nier
nieto
nieves
nifer
niferoedd
niferus
nifwl
nig
nigel
niger
nigeria
nigh
night
nightingale
nightmare
nights
nihon
niki
nikita
nikki
niko
nikola
nikolai
nikolaj
nikolay
nikolic
nikos
nils
nilsson
nin
nina
ninas
ninbych
ninchi
nine
ning
nini
ninja
nino
nintendo
nio
niort
niro
nis
nissen
nith
nitrogen
niven
niwbwrch
niwclear
niwed
niwedd
niweidio
niweidiol
niwl
niwmonia
niwrnod
niwtral
niwylliant
nixon
nkova
nl
nlw
no
noa
noah
nobel
noble
nobody
noche
nod
noda
nodau
noddfa
noddi
noddir
noddwr
noddwyr
noddy
nodedig
noder
nodi
nodiadau
nodiant
nodigedig
nodir
nododd
nodwedd
nodweddiadol
nodweddion
nodweddir
nodweddu
nodwyd
nodwydd
nodyn
noe
noel
noeth
nofel
nofelau
nofelwyr
nofelydd
nofio
noir
noiret
nol
nolan
nolgellau
noma
non
nonguet
nora
norbert
nord
nordig
norfolk
norm
norma
normal
norman
normanaidd
normandi
normaniaid
norris
norseg
norsk
north
northampton
northern
northumberland
northumbria
northwestern
norton
norwich
norwood
norwy
norwyaidd
norwyeg
nos
noson
nososticta
nosweithiau
noswyl
not
note
notes
nothing
notre
notte
nottingham
nous
nouvelle
nova
novak
novel
novelli
novello
november
novgorod
novotny
now
nr
nrama
ns
nsky
nster
nt
nter
nther
nu
nuclear
nugent
nuit
null
nulyn
number
numbers
nun
nunzio
nur
nurse
nuttall
nuys
nwerthu
nwy
nwyddau
nwylo
nwyon
nwyrain
ny
nyddiau
nyffryn
nyfnaint
nyi
nyrs
nyrsio
nyt
nyth
nythod
nythu
nzel
nørgaard
o
oak
oakeley
oakland
oaks
obaith
obama
obe
obituary
oblast
oblegid
observer
oc
ocean
oceania
och
ochr
ochrau
ocsigen
ocsitaneg
october
od
odan
odd
oddeutu
oddi
oddiar
ode
oder
odesa
odessa
odette
odl
odo
odonata
odoratus
odyn
odyssey
oed
oedd
oeddent
oeddwn
oeddyn
oeddynt
oedi
oedolion
oedolyn
oedran
oen
oer
oerach
oeri
oes
oesoedd
of
ofal
ofalu
ofalus
ofer
off
offa
offeiriad
offeiriaid
offer
offeren
offeryn
offerynnau
offerynnol
office
official
offred
ofn
ofnadwy
ofni
ofod
ofyn
ofynnol
og
ogam
ogden
ogg
ogledd
ogleddol
ogof
ogofa
ogwen
ogwr
ogystal
oh
ohebydd
oherwydd
ohio
ohirio
ohne
ohoni
ohono
ohonyn
ohonynh
ohonynt
oi
oil
ois
oise
ok
okinawa
oklahoma
ol
ola
olaf
olau
olav
olchi
olcott
old
oldham
oldr
ole
oleg
olen
olesen
oleuedigaeth
olew
olewydd
olga
olin
olion
olive
oliveira
oliver
olivera
olivia
olivier
oll
ollwng
olmi
olof
olrhain
olsen
olsson
olwen
olwg
olwyn
olwynion
olygfa
olygfeydd
olygu
olygwyd
olygydd
olygyddiaeth
olympaidd
olympia
olympic
olyniaeth
olynodd
olynol
olynu
olynwyd
olynydd
om
omaha
oman
omar
omega
on
onau
once
ond
ondr
one
ongl
onglau
oni
onid
online
only
onnen
ontario
op
ope
open
opera
operatig
operation
operatorname
or
ora
orange
oratorio
orau
orchestra
orchfygu
orchidaceae
orchuddio
orchymyn
ordeinio
ordeiniwyd
order
oregon
oren
oresgyn
oreste
orestes
orffen
orffenedig
orffennaf
orffennodd
orffwys
orfod
orfodi
orfodol
org
organ
organau
organeb
organebau
organig
organisation
organization
orgraff
orhan
ori
oriau
oriel
orielau
oriental
origin
original
origins
orion
orlando
orle
orleans
orllewin
orllewinol
ormond
ornella
ornest
oro
oroesi
oroesodd
orr
orsaf
orsafoedd
orsedd
orsi
orson
ortega
ortiz
ortolani
orwedd
orymdaith
os
osaka
osborne
oscar
oscars
osgo
osgoi
osian
oskar
oslo
osman
osmond
osod
osododd
osodwyd
osten
ostwng
osvaldo
oswald
ota
otakar
otello
otero
other
others
otho
otis
otomanaidd
otomaniaid
ottawa
otto
ottoman
ou
our
out
outside
ov
ova
ove
over
owain
owen
owens
owl
own
oxford
oz
ozores
p
pa
paa
pab
pabau
pablo
pac
pachycephalidae
pacific
pacistan
paco
padarn
paddington
paddy
padova
padre
padrig
paentiad
paentiadau
paentio
paffiwr
pafiliwn
paganaidd
page
pages
paget
pagh
paham
pai
paid
paill
pain
pair
paith
pal
pala
palace
palacios
palaemnema
palaeos
palakollu
palas
palau
palazzo
pale
palermi
palermo
palesteina
palesteinaidd
palesteiniaid
palestina
palestine
palestinian
palgrave
palin
palisades
palm
palma
palme
palmer
palmwydd
pam
pamela
pamffled
pan
panama
pandemig
pandy
panel
pang
pankhurst
pannonia
panorama
pant
pantheon
panther
pantycelyn
paola
paolella
paoli
paolo
papa
paper
papers
papua
papur
papurau
papwa
par
para
parade
paradis
paradisaedae
paradise
paradocs
paradwys
paragwa
paralympaidd
paramount
parasite
paratoi
parau
parc
parch
parchedig
parciau
parcio
parddu
pardo
pare
parenti
parhad
parhaodd
parhaol
parhau
parhaus
pari
paridae
paris
parish
park
parke
parker
parkinson
parks
parliament
parliamentary
parma
parnell
parod
parodi
parodio
parot
parotiaid
parra
parri
parrish
parrot
parry
parsons
part
partement
partements
parth
parthau
parthed
parthia
parthiaid
parti
partial
partido
partisan
partner
partneriaeth
party
paru
paruliadae
parys
pas
pasadena
pascal
pascale
pascual
pasg
pasio
pasiodd
pasiwyd
paso
pasolini
pasquale
pass
passage
passer
passeriformes
passion
past
pastor
pastore
pastrone
pastwn
pat
patagonia
patanjali
patel
patent
paterson
path
pathe
paton
patriarch
patrice
patricia
patricio
patrick
patrizio
patrol
patrwm
patrymau
patsy
patterson
patti
patton
patty
pau
paul
paula
paulette
pauli
pauline
paulo
paulsen
pauly
pavel
pavese
pavli
pawb
paweł
pawl
paxton
payne
pays
paz
pazzafini
pc
pdf
pe
peace
peach
peacock
peak
pearce
pearl
pearson
pechod
peck
pecyn
pedair
pedersen
pedia
pedr
pedro
pedryn
pedrynnod
pedwar
pedwarawd
pedwaredd
pedwerydd
peebles
peel
peer
peerage
peggy
pegwn
pei
peidio
peidiwch
peilot
peintio
peintiwr
peiriannau
peirianneg
peiriannydd
peiriant
peirianwyr
pekka
pel
peli
pell
pellach
pellaf
pellegrini
pellter
pellteroedd
pelydr
pelydrau
pembroke
pembrokeshire
pen
penaethiaid
penarla
penarth
penbedw
pencadlys
pencampwr
pencampwriaeth
pencampwriaethau
pencampwyr
pendant
penddu
penderfyniad
penderfyniadau
penderfynodd
penderfynu
penderfynwyd
pendleton
penelope
penfro
penglog
pengoch
penguin
peniarth
penillion
penllwyd
penllyn
penmaenmawr
penmynydd
penn
pennaeth
pennaf
pennal
pennant
pennau
pennill
pennod
pennsylvania
pennu
penny
penodau
penodi
penododd
penodol
penodwyd
penrhyn
penrhyndeudraeth
penry
pensaer
pensaerni
penseiri
pentan
pentir
pentre
pentref
pentrefan
pentrefi
penwythnos
people
pepe
pepper
peppino
per
perchennog
perchnogaeth
perchnogion
percival
percy
pere
peredur
perego
pereira
pererindod
perez
perfect
perffaith
perfformiad
perfformiadau
perfformio
perfformiodd
perfformiwr
perfformiwyd
perfformwyr
peri
peris
periw
perkins
pernille
pero
perpignani
perret
perrin
perry
perseg
persia
persiaid
person
personal
personol
personoliaeth
persoon
perspective
persson
perswadio
perth
perthnasau
perthnasol
perthyn
perthynas
perygl
peryglon
peryglus
pes
pesce
petai
petal
petalau
petar
pete
peter
peterborough
peters
petersburg
petersen
peterson
peth
pethau
petit
petr
petra
petri
petrie
petroicidae
petrovic
petter
pez
pezizales
pfeiffer
pg
ph
pha
phalacrocoracidae
phalke
phan
phane
phantom
pharao
pharc
pharhad
pharhaodd
phaseolus
phasianidae
phd
phe
phedair
phedwar
phelps
phen
phencadlys
phenderfynodd
phennaeth
phenodwyd
phensaerni
phensaerniaeth
phentref
phentrefi
pherfformiad
pherfformiadau
pherfformio
pherthynas
pheth
phiano
phil
philadelphia
philip
philipinau
philipp
philippe
philipps
philips
phillip
phillips
philo
philogenia
philosophy
phlaid
phlanhigion
phlant
phlentyn
phlentyndod
phlwyf
phob
phobl
phoblogaeth
phobol
phoebe
phoenix
pholisi
phont
phorthladd
phosibl
phowys
php
phrawfddarllen
phrif
phrifddinas
phrifysgol
phriodas
phriodi
phriododd
phroblemau
phrofiad
phrydain
phum
phump
phwrpas
phwynt
phwysau
phwysig
phylip
phyllis
phyllomacromia
physics
pi
pia
piano
pianydd
piazza
pibydd
pibyddion
pica
picasso
piccadilly
piccioni
piccoli
picellwyr
pichel
picidae
piciformes
pick
pickford
pictiaid
picton
picture
pictures
pidyn
pie
piel
pier
pierce
piero
pierre
piers
pierson
pieter
pietro
pig
pigeon
pigfain
pigwr
pigwyr
pike
pila
pilaon
pilar
piler
pill
pin
pina
pinc
pincod
pine
pinewood
ping
pini
pink
pino
pinto
pinwydd
pio
piotr
piovani
piper
pippo
pipridae
pirates
pis
pisa
pisano
pisu
pisum
pit
pita
pitaod
pitt
pitts
pittsburgh
piu
piwritaniaid
piws
pl
pla
plac
place
places
placido
plaen
plaid
plain
plan
planed
planedau
planet
planhigion
planhigyn
plannu
plant
plants
plas
plasdy
plastic
plastig
plasty
plata
platen
platfform
platiau
platon
platt
platte
platycnemididae
platystictidae
play
player
players
playhouse
plays
playstation
plaza
plc
pleasant
please
pleasence
pleasure
pleidiau
pleidlais
pleidleisiau
pleidleisio
pleidleisiodd
pleidleiswyr
plentyn
plentyndod
pleser
plith
plo
ploceidae
plot
plu
plummer
plus
plwm
plwyf
plwyfi
plygain
plygu
plymio
plymouth
pm
pmid
png
po
poaceae
pob
pobi
pobl
pobloedd
poblog
poblogaeth
poblogaethau
poblogaidd
poblogrwydd
pobol
pobty
podalyde
podesta
poe
poems
poen
poeni
poet
poeth
poetry
poets
pohl
point
poire
poirier
poitiers
poke
pol
pola
pole
poli
police
policy
polis
polisi
political
politics
polito
polk
pollack
pollard
pollock
polly
polo
polygon
polynesia
polynomial
polyporales
polytechnig
polythoridae
pommer
pompeius
pons
pont
ponte
ponti
pontio
pontydd
pontypridd
pony
pool
poole
poor
pop
pope
popescu
popeth
popular
population
por
porffor
pori
pornograffig
port
porta
portal
porte
porter
porth
porthaethwy
porthladd
porthladdoedd
porthmadog
portillo
portiwgal
portiwgaleg
portland
portman
porto
portrait
portread
portreadau
portreadu
portsmouth
posib
posibilrwydd
posibl
positif
post
poster
pot
potel
potensial
potsdam
potter
potts
poul
poulsen
pound
pour
powdr
powell
power
powers
powys
poznan
pp
ppp
pr
pra
practice
prada
pradesh
prado
prag
prairie
prakash
prasad
pratchett
pratt
prawf
pre
preben
preblyn
preblynnod
predrag
pregethu
pregethwr
pregethwyr
preifat
preiss
preliwd
prem
premie
premier
preminger
pren
pres
presbyteraidd
preseli
presennol
presenoldeb
present
president
presley
press
pressburger
prestatyn
preston
preswyl
pretty
previn
pri
price
prichard
pridd
pride
priestley
prif
prifardd
prifathro
prifddinas
prifddinasoedd
priffordd
prifysgol
prifysgolion
prima
primary
prime
primo
prin
prince
princes
princess
princeton
principality
principles
prinder
prinia
print
printiau
priod
priodas
priodasau
priodi
priododd
priodol
priodoli
priodolir
priodweddau
prior
priordy
pris
priscilla
prisiau
prison
prisoner
pritchard
private
prix
priyadarshan
prize
pro
problem
problemau
procellariformes
procellariidae
procha
prodasineura
production
productions
professor
proffesiynol
proffil
proffwyd
proffwydi
profi
profiad
profiadau
profiadol
profile
profion
profodd
profwyd
progress
project
propaganda
propoganda
proses
prosesau
prosesu
prosiect
prosiectau
protein
proteinau
protest
protestaniaid
protestannaidd
protestiadau
protestio
protestwyr
proto
protocol
protoneuridae
protosticta
provence
providence
pru
prwsia
pry
pryce
pryd
prydain
prydein
prydeinig
prydeinwyr
pryder
pryderi
pryderon
prydydd
pryf
pryfaid
pryfed
prynhawn
prynodd
prynu
prynwyd
pryor
prys
pryse
prysgoed
prysor
prysur
ps
pseudagrion
psilander
psittacidae
psittaciformes
psycho
pt
ptolemi
ptolemy
pu
public
publications
published
publishers
publishing
publius
puccini
pucciniaceae
pucciniales
puente
puerto
pugh
pughe
puglia
pulaski
pulitzer
pum
pumed
pumlumon
pump
punch
punjab
punjabi
punk
pupi
pur
purcell
puri
purple
pursuit
put
putin
putnam
puw
pw
pwdin
pwer
pwerau
pwerus
pwll
pwllheli
pwnc
pwrpas
pwrpasol
pwtyn
pwy
pwyl
pwylaidd
pwyleg
pwyll
pwyllgor
pwynt
pwyntiau
pwys
pwysau
pwysedd
pwysicaf
pwysig
pwysigrwydd
pwyslais
pwysleisio
pwyso
px
py
pyarelal
pycnonotidae
pyllau
pymtheg
pync
pynciau
pyotr
pyramid
pyre
pys
pysgod
pysgodyn
pysgota
pysgotwr
pysgotwyr
pythagoras
pythefnos
python
pyun
q
qaeda
qatar
qi
qin
qing
qu
quaid
que
quebec
queen
queens
queensland
quentin
quest
question
qui
quiet
quincy
quinn
r
ra
rab
rabal
rabat
rabbit
rabenalt
rac
race
rachael
rachel
rachid
racing
rad
rada
radame
radcliffe
radd
raddau
raddedig
raddfa
raddio
raddol
rade
radical
radicalaidd
radio
radiws
radu
rae
raf
rafael
raffaele
raffaello
ragfyr
raghavendra
raglaw
raglen
raglenni
ragnar
ragor
rahi
rahman
rahul
rai
raid
raiders
rail
railway
railways
raimondo
rain
rainbow
rainer
raj
raja
rajan
rajendra
rajesh
rajiv
rajkumar
raju
ral
rald
raleigh
ralf
rali
rallidae
ralph
ram
rama
ramachandra
ramadeg
ramakrishna
ramant
ramantaidd
ramantus
ramesh
rami
ramiz
ramo
ramon
ramos
ramphastidae
ramsay
ramsey
ran
ranbarth
ranbarthau
ranbarthol
rancho
rand
randall
randolph
random
randy
range
rangers
rankin
rannau
rannoch
rannu
ranunculaceae
rao
raoul
rap
raphae
raphael
rapids
raquel
rard
ras
rashid
rasio
rasmus
rasmussen
rasys
rat
rathbone
ratio
ration
rau
raven
ravi
ravn
raw
rawlins
ray
raymond
rbara
rbiger
rca
rd
rdoba
re
rea
read
reader
reading
reagan
real
realaeth
realiti
reality
really
rear
reason
rebecca
rebel
rec
receptor
record
recordiad
recordiadau
recordiau
recordio
recordiodd
recordiwyd
records
recriwtio
red
reddy
redeg
redgrave
reed
reenberg
rees
reeve
reeves
refeniw
reference
references
refferendwm
refig
refn
reg
regency
reggie
regina
reginald
region
regional
regis
regum
rei
reich
reichenbach
reicher
reid
reidio
reidiwr
reidrwydd
reidwyr
reiki
reilffordd
reilffyrdd
reilly
reine
reiner
reinhard
reinhardt
reinhold
reinl
reis
reisner
relangi
related
relations
religion
religious
rembrandt
remember
remo
ren
rena
renaissance
renard
renata
renate
renato
renaud
rene
renfrew
reng
rennie
reno
renoir
rent
renzo
reolaeth
reolaidd
reolau
reoli
reolir
reolwr
repertoire
report
representation
republic
requiem
rer
res
research
reservoir
resog
restr
restru
reswm
resymau
ret
retrieved
return
returns
rev
revenge
review
revisited
revolution
rex
rey
reyes
reykjavi
reynolds
rez
reza
rg
rgen
rgens
rgio
rgy
rh
rhad
rhaeadr
rhag
rhagair
rhagarweiniol
rhagbrofol
rhagdybiaeth
rhagflaenydd
rhagfyr
rhaglan
rhaglaw
rhaglen
rhaglenni
rhaglennu
rhagor
rhagorol
rhagweld
rhagymadrodd
rhai
rhaid
rhain
rhamant
rhamantaidd
rhamantus
rhan
rhanbarth
rhanbarthau
rhanbarthol
rhaniad
rhannau
rhannodd
rhannol
rhannu
rhannwyd
rhatach
rhea
rhed
rhedeg
rhediad
rhedodd
rhedwr
rhedyn
rheged
rhegen
rhegennod
rheidol
rheilffordd
rheilffyrdd
rhein
rheini
rheiny
rheithgor
rheithor
rheng
rhennir
rhentu
rheol
rheolaeth
rheolaidd
rheolau
rheoleiddio
rheoli
rheoliadau
rheolir
rheolodd
rheolwr
rheolwyr
rhes
rhesi
rhesog
rhestr
rhestrau
rhestredig
rhestri
rhestrir
rhestru
rhestrwyd
rheswm
rhesymau
rhesymeg
rhesymegol
rhesymol
rhew
rhewi
rhewlif
rhewlifol
rhian
rhiannon
rhieni
rhif
rhifau
rhifiadol
rhifolion
rhifyddeg
rhifyn
rhinocypha
rhinwedd
rhinweddau
rhinweddol
rhisgl
rhisiart
rhith
rhiw
rhiwabon
rho
rhodd
rhoddi
rhoddir
rhoddodd
rhoddwyd
rhode
rhodes
rhodesia
rhodfa
rhodri
rhoi
rhondda
rhos
rhosyn
rhosynnau
rhosyr
rhuban
rhuddlan
rhufain
rhufeiniaid
rhufeinig
rhugl
rhun
rhuthun
rhwd
rhwng
rhwydd
rhwydwaith
rhwydweithiau
rhwyfo
rhwyg
rhwymo
rhwystr
rhwystrau
rhwystro
rhy
rhybudd
rhybuddio
rhychwantu
rhyd
rhydaman
rhydau
rhydd
rhydderch
rhyddfrydiaeth
rhyddfrydol
rhyddfrydwr
rhyddfrydwyr
rhyddhad
rhyddhaodd
rhyddhau
rhyddhawyd
rhyddiaith
rhyddid
rhydweli
rhydychen
rhyfedd
rhyfeddod
rhyfeddol
rhyfel
rhyfela
rhyfeloedd
rhyfelwr
rhyfelwyr
rhyl
rhymni
rhyng
rhyngddo
rhyngddynt
rhyngrwyd
rhyngweithio
rhyngwladol
rhys
rhythm
rhyw
rhywbeth
rhywbryd
rhywdro
rhywedd
rhywfaint
rhywiol
rhywioldeb
rhywle
rhywogaeth
rhywogaethau
rhywun
ri
ria
ribble
ribero
ric
rica
ricardo
riccardo
ricci
rice
rich
richard
richards
richardson
richie
richland
richmond
richter
rick
ricketts
ricky
rico
ride
rider
riders
ridge
ridgwell
riding
ridley
rie
riemann
rieni
rier
rieur
rieure
rif
rifau
riga
rigaud
rigby
righelli
right
rights
rigoletto
rijn
rik
riley
rilla
rily
rimini
rin
rina
rinaldi
rinaldo
ring
rings
rio
rip
ripley
riquelme
rise
risg
rishi
risi
rising
rita
ritchie
rite
ritter
riva
rivas
river
rivera
rivero
rivers
rivie
riviera
riz
rizzo
rje
rk
rko
rkova
rn
rna
rnberg
rner
ro
roach
road
roald
roazhon
rob
robards
robat
robbie
robbins
robert
roberta
roberto
roberts
robertson
robin
robinod
robinson
robles
robot
robson
robyn
roc
rocca
rocco
roced
rocedi
rocha
rochdale
roche
rochefort
rochelle
rochester
rock
rocket
rockies
rockwell
rocky
rod
rodd
roddi
roddir
roddodd
roddwyd
roddy
rode
roderick
rodgers
rodney
rodolfo
rodri
rodrigo
rodriguez
roe
roedd
roedden
roeddent
roeddwn
roeddynt
roeg
roegaidd
roemheld
roes
rogell
roger
rogers
rohmer
roi
rois
rojo
rol
roland
rolando
rolau
role
rolf
rolfe
roll
rollin
rolling
rolls
roly
rom
roma
romagna
romain
roman
romana
romance
romane
romani
romania
romano
rome
romeo
romero
romolo
ron
ronald
ronique
ronnie
rooke
room
rooney
roos
roosevelt
root
roots
roque
roquevert
rory
ros
rosa
rosaceae
rosalind
rosanna
rosario
roscoe
rose
rosemary
rosen
rosenberg
rosenthal
roses
roset
rosi
rosie
rosina
rosita
ross
rossellini
rossi
rossini
rosso
rosson
rota
roth
rother
rotherham
rotterdam
rotulorum
roubaix
roud
rouen
rouge
rough
round
roundel
rourke
rousseau
roussel
route
routledge
roux
rover
rovere
rovers
row
rowan
rowe
rowland
rowlands
rowley
rowling
rownd
rowndiau
roy
royal
royale
rozier
rquez
rr
rrez
rs
rsamling
rshavn
rspb
rt
rta
rte
rth
rtl
rtner
rttemberg
ru
rube
ruben
rubens
rubin
rubini
rubio
ruby
rudd
rudi
rudolf
rudolph
rudy
rue
rufain
rufeinig
ruffini
rufous
rufus
rug
rugby
ruggeri
ruggero
ruggles
ruiz
rule
rules
rum
run
rune
runner
running
rupert
rural
rus
rush
ruskin
russ
russell
russia
russian
russo
russulaceae
russulales
rust
rustichelli
rusty
ruth
rutherford
rutland
rw
rwanda
rwber
rwbio
rwmaneg
rwmania
rws
rwseg
rwsia
rwsiaid
rwsiaidd
rwsieg
rwy
rwydwaith
rwyf
rwystro
ry
ryan
rydau
rydd
ryddfrydol
ryddhau
ryddhawyd
ryddiaith
ryddid
ryder
rydych
rydychen
rydym
rydyn
rye
ryfel
ryfela
ryfeloedd
rygbi
rym
ryngwladol
ryo
rysa
ryseitiau
ryszard
ryu
ryw
rywbeth
rywbryd
rywfaint
rywiol
rywogaeth
rywogaethau
rywun
s
sa
sabina
sabine
sabrina
sacha
sachs
sacramento
sacred
sacsonaidd
sacsoniaid
sad
sadwrn
saer
saesneg
saesnig
saeson
saeth
saethodd
saethu
saethwyd
safai
safbwynt
safbwyntiau
safety
safle
safleoedd
safodd
safon
safonau
safoni
safonol
saga
sage
sahara
sai
said
saif
sail
sain
saint
sainte
saints
sainwales
sais
saith
sal
sala
salaberry
salamanca
salazar
salce
salcedo
sale
salem
salerno
salesbury
salfa
salford
sali
salim
salinas
salisbury
salix
salkow
salle
sally
salmau
salmon
salmond
salome
salomon
salon
salt
salter
salusbury
salvador
salvatore
salvo
salwch
salzburg
sam
samantha
sambia
same
sami
sammy
samoa
sampl
samplau
sample
sampson
samson
samuel
samuelson
san
sana
sancho
sancsiynau
sanctaidd
sand
sandberg
sande
sander
sanders
sandler
sandra
sandrine
sandrini
sandro
sands
sandwich
sandy
sanford
sang
sanjay
sans
sansgrit
sant
santa
santana
santell
santes
santesau
santiago
santis
santley
santo
santos
sao
sapiens
sapienza
sar
sara
saraceni
sarah
sarajevo
sarandon
sarde
sardinia
sargent
sarn
sas
sascha
sasha
sasso
satan
sativum
sato
saturday
saudi
sauer
saul
saunders
saura
savage
save
saved
saville
savina
saving
savoie
saw
sawdi
sawl
saws
sawtell
sawyer
saxon
say
says
sbaen
sbaenaidd
sbaeneg
sbaenwyr
sbageti
sbarduno
sbectrwm
sbeiral
sberm
sblatro
sborau
sbrint
sbwriel
scala
scalera
scandal
scar
scarlet
scha
schaefer
schaffner
schamyl
schell
schenstrøm
schertzinger
schiff
schiller
schlesinger
schlo
schloss
schlu
schmid
schmidt
schnedler
schneider
scho
schoedsack
schola
school
schools
schrader
schreiber
schro
schroeder
schrøder
schu
schubert
schultz
schulz
schumacher
schumann
schuster
schwartz
schwarz
schønberg
science
sciences
scientific
scipio
scola
scolopacidae
scorpion
scorsese
scotia
scotland
scots
scott
scotti
scottish
scratch
scream
screen
screwball
se
sea
sean
search
searchers
searle
sears
season
seat
seaton
seattle
sebastia
sebastian
sebon
sec
seciwlar
second
secret
secrets
section
sector
security
sedd
seddau
seddi
sedgwick
sedis
sedla
see
seen
sef
sefydledig
sefydliad
sefydliadau
sefydlodd
sefydlog
sefydlogi
sefydlogrwydd
sefydlu
sefydlwyd
sefydlwyr
sefydlydd
sefyll
sefyllfa
sefyllfaoedd
segal
segment
segundo
segura
sei
seiclo
seiclwr
seiclwraig
seiclwyr
seicoleg
seicolegol
seicolegydd
seigner
seiler
seiliau
seiliedig
seilio
seilir
seiliwyd
seilwaith
sein
seine
seinegol
seiniau
seintiau
seion
seiri
seiriol
seisnig
seiter
seithfed
seitz
sek
seland
selander
selar
selected
seleucaidd
self
selio
selma
selwyn
semitaidd
sen
senedd
seneddol
seneddwr
seneddwyr
senegal
sengl
senglau
senior
sennett
sense
sensitif
sensoriaeth
senta
senza
seok
seoul
sepal
sepp
sept
september
ser
sera
serandrei
serato
serbeg
serbia
serbiaid
serbo
serch
seremoni
seremoniau
seren
serena
serennodd
serennu
serge
sergei
sergey
sergio
series
sero
serra
serrano
serrault
serth
service
services
seryddiaeth
seryddol
seryddwr
seryddwyr
sesiwn
sesiynau
sessions
set
seth
setiau
setlo
sette
seung
seven
sevenoaks
several
severn
severus
sevilla
seville
sewell
sex
sexual
seychelles
seymour
sf
sffe
sg
sgandal
sgerbwd
sgi
sgil
sgiliau
sglefrio
sgo
sgops
sgorio
sgoriodd
sgoteg
sgrech
sgri
sgrin
sgript
sgriptiau
sgriptiwr
sgriptiwyd
sgriptwyr
sgurr
sgwa
sgwar
sgwariau
sgwennodd
sgwennu
sgwennwyd
sgwrs
sgyrsiau
sh
sha
shadow
shadows
shah
shakespeare
shakti
shall
shan
shane
shanghai
shankar
shannon
shapiro
sharif
shark
sharma
sharon
sharp
sharpe
shaun
shaw
shawn
she
shea
shearer
sheen
sheffield
sheikh
sheila
shelby
sheldon
shelley
sheng
shepard
shepherd
sheppard
sheridan
sheriff
sherlock
sherman
sherry
sherwood
shetland
shetty
shi
shia
shield
shields
shift
shilts
shima
shin
shindo
shinji
shinya
ship
shire
shirley
shiva
sho
shochiku
shop
shore
shores
short
shot
should
shoulder
show
shrike
shu
shyam
si
sia
siambr
siambrau
sian
sianel
sianeli
siani
siap
siapan
siapaneaidd
siapiau
siapio
siarad
siaradodd
siaradwr
siaradwyr
siaredir
siarl
siarlymaen
siart
siarter
siartiau
siasbar
siawns
siberia
sic
sica
sich
sicilia
siciliano
sicr
sicrhaodd
sicrhau
sicrwydd
sid
sidan
side
sidi
sidney
sie
sieffre
siegel
siegfried
sielo
sierra
sifil
sifiliaid
sig
siglennod
siglo
sign
signal
signalau
signe
sigrid
sigurd
sikkim
silence
silent
silesia
silkeborg
sillaf
sillafiad
sillafu
silva
silvana
silvano
silver
silverman
silvia
silvio
silyn
sim
sima
simbabwe
simi
simmons
simo
simon
simona
simone
simonelli
simple
simpson
sims
sin
sinai
sinatra
since
sinclair
sind
sinema
sinematig
sinematograffydd
sing
singapo
singapore
singer
singh
singin
singing
single
singleton
sings
sinha
sinhala
sinn
sio
sioc
siocled
siodmak
sioe
sioeau
siom
sion
sioned
siop
siopa
siopau
sioux
sipsiwn
sir
siracusa
sirk
siro
siroedd
sirol
siryf
siryfion
sisili
sister
sisters
site
siu
siwan
siwgr
siwgwr
six
sj
sjo
sk
ska
skarsga
ski
skin
skinner
skondrup
sky
skye
sla
slade
slafaidd
slafiaid
slang
slate
slater
slave
sleep
sleeping
slim
sloane
slobodan
slofaceg
slofacia
slofeneg
slofenia
slogan
sloman
small
smart
smiley
smith
smithsonian
smoke
smotiau
smotyn
smyth
sn
snell
snow
snowdonia
snp
snwcer
snyder
so
soar
social
socialist
society
soddga
soderbergh
sodiwm
soffici
sofia
sofie
sofietaidd
sofliar
sofran
sofraniaeth
soho
sol
sola
solanas
solar
solares
soldati
soldier
soldiers
sole
soledad
soleil
soler
solet
solid
solitude
solo
solomon
som
somalia
sombi
some
somerset
somerville
something
somme
sommer
son
sonata
soned
song
songs
sonia
soniodd
sonir
sonja
sonne
sonny
sono
sons
sony
soo
soper
sophia
sophie
soprano
sorbonne
sordi
sorrentino
sosialaeth
sosialaidd
sosialwyr
sosialydd
soto
soul
souls
sound
source
sources
sous
south
southampton
southern
souza
soviet
sownd
soya
spa
spaak
space
spadaro
spain
spang
spanish
sparrow
sparta
special
species
spectrum
speech
speed
speerger
spencer
speyer
spider
spiegel
spielberg
spike
spirit
split
spoletini
sport
sports
spot
spotify
spotted
spottiswoode
spring
springer
springfield
springs
springsteen
sprogøe
spy
sqrt
square
squire
sr
sreekar
sri
sridhar
srinivasa
ss
ssel
sseldorf
sssi
st
sta
stacey
stack
stacy
stad
stade
stadiwm
stadt
stafell
staff
stafford
stage
stahl
stalin
stallone
stamford
stamp
stan
stand
standard
standing
stanford
stanislas
stanislav
stanisław
stanley
stanton
stapleton
star
stark
starling
starr
stars
start
state
states
station
statistics
statud
statudol
status
statws
staudte
staunton
ste
steel
steele
steen
stefan
stefani
stefania
stefano
steffan
steffen
steiger
steil
stein
steinbeck
steiner
steinhoff
stella
stellan
stelvio
sten
step
stephan
stephanie
stephen
stephens
stephenson
sterling
stern
sternberg
steve
steven
stevens
stevenson
stewart
stig
still
stiller
stine
stirling
stiwdio
stiwdios
sto
stob
stoc
stock
stockholm
stockport
stockton
stockwell
stoke
stokes
stole
stoloff
stone
stones
stonewall
stop
stopio
stoppa
stor
store
storfa
stori
storia
storiau
stories
storio
storm
stormydd
story
stout
stra
stradling
straen
straeon
straight
strand
strange
strangelove
stranger
strangers
strasbourg
strasbwrg
strata
strategaeth
strategol
stratford
strauss
strayer
street
streetcar
streetmap
streets
streic
streiciau
stretton
stribed
stribedi
stribolt
strigidae
strigiformes
strike
strikes
stro
strong
strophariaceae
stroud
strwythur
strwythurau
strwythurol
stryd
strydoedd
stryt
stu
stuart
studies
studio
studiocanal
studios
study
stumog
sturgeon
sturges
sturnidae
stuttgart
style
su
sua
sub
subunit
such
sud
sudd
suddo
sue
suez
suffolk
suffrage
sugar
sugno
suite
suke
sul
sulla
sullivan
sully
sultan
sum
summer
summers
summit
sun
sunbird
sunday
sunderland
sune
sung
sunil
sunni
sunny
sunset
sunshine
supe
super
superior
superman
support
sur
suresh
surop
surrey
surry
survey
surya
sus
susan
susana
susanna
susanne
susi
sussex
sut
sutherland
sutton
suzanne
suzuki
suzy
sv
svatopluk
sve
sven
svend
svendsen
sverre
svetlana
svg
svoboda
sw
swahili
swale
swallow
swamy
swan
swansea
swdan
swedaidd
swedeg
sweden
sweeney
sweet
swffrage
swffragetiaid
swift
swindon
swing
swisaidd
swistir
swllt
swltan
swm
sword
swydd
swyddfa
swyddfeydd
swyddi
swyddog
swyddogaeth
swyddogaethau
swyddogion
swyddogol
swyn
sy
sybil
sych
sychder
sychu
syd
sydd
sydney
sydow
sydyn
syfrdanol
sykes
sylfaen
sylfaenol
sylfaenwyr
sylfaenydd
sylfeini
sylva
sylvain
sylvester
sylvia
sylvie
sylviidae
sylw
sylwadau
sylwebaeth
sylwebydd
sylwedd
sylweddau
sylweddol
sylweddoli
sylweddolodd
sylwer
sylwi
symbol
symbolaeth
symbolaidd
symbolau
symboleiddio
symffoni
symiau
syml
symphony
symptomau
symud
symudiad
symudiadau
symudodd
symudol
symudwyd
symyd
syn
synau
syndod
syndrom
syniad
syniadaeth
syniadau
synnwyr
synod
synthetig
syr
syracuse
syrcas
syria
syrthio
syrthiodd
system
systematig
systemau
systems
syth
sz
szabo
sze
szlo
szo
søren
sørensen
t
ta
tabernacl
tabl
table
tachwedd
tacitus
tacoma
tacsi
tacson
tacsonomegol
tactegau
tad
tadau
tadeusz
tadic
tae
taek
taf
tafarn
tafarndai
taflen
taflu
tafod
tafodiaith
tafodieithoedd
tafwys
tag
tagalog
tage
tagell
tahiti
tai
taid
tail
tailed
taipei
tair
tait
taith
taiwan
tajicistan
tak
takashi
take
takes
takeshi
taking
tal
talaith
talbot
talcen
tale
taleithiau
taleithiol
talent
tales
talfan
talfyriad
talfyrir
talgarth
taliadau
taliban
taliesin
talk
talking
tall
tallinn
talodd
talsarnau
talu
talwrn
talybont
tam
tama
tamara
tamberlani
tamil
tamileg
tampon
tan
tanager
tanagr
tanagrod
tanaka
tancred
tanddaearol
tanfor
tang
tango
tania
tanio
tannau
tanner
tano
tansani
tanwydd
tanya
taoiseach
tar
tara
tarantino
taranto
tarddiad
tarddle
tarddu
targed
targedu
tarian
tariq
taro
tarw
tarzan
taschner
tasg
tasgau
tasmania
tat
tate
tatiana
tatineni
tatws
tau
taurog
tavernier
taviani
taw
tawe
tawel
taxi
tay
taylor
tbilisi
td
te
tea
team
teatro
teau
teborg
tebot
tebyg
tebygol
tebygolrwydd
tebygrwydd
techneg
technegau
technegol
technoleg
technology
tecstilau
tecwyn
ted
teddy
tedeschi
teen
teenage
tees
tefan
teg
tegeingl
tegeirian
tegid
tegla
tegyll
tehran
teifi
teignbridge
teigr
teil
teilo
teilyngdod
teimlad
teimladau
teimlo
teinobasis
teithiau
teithio
teithiodd
teithiol
teithlyfr
teithlyfrau
teithwyr
teitl
teitlau
tel
telebasis
teledu
telegraph
telerau
television
telford
tell
telor
teloriaid
telorion
telugu
telyn
telynegion
telynor
teml
tempest
temple
tempo
temps
tempus
ten
tenau
tenis
tennant
tennessee
tennis
tenor
tensiynau
ter
teras
terence
teresa
tereza
terfyn
terfynol
terfysg
terfysgaeth
terfysgoedd
terfysgol
teri
term
termau
terminal
terminator
terminoleg
terms
tern
terra
terre
terrence
terror
terry
tes
tessari
test
testament
testun
testunau
teulu
teuluoedd
teuluol
tew
tewdwr
tewkesbury
texas
text
teyrn
teyrnas
teyrnasiad
teyrnasoedd
teyrnasu
teyrngarwch
teyrnged
teyrniaid
teyrnoedd
tgau
th
tha
thad
thai
thair
thaith
thalaith
thames
than
tharddiad
tharo
that
thatcher
the
thea
theartofpainting
theater
theatr
theatrau
theatre
thebai
thebyg
thechnoleg
theft
theguardian
their
theledu
thelma
thelwall
them
thema
then
theo
theodor
theodore
theodosius
theophilus
theorem
theori
theory
therapi
there
theresa
thermau
these
theta
theulu
they
theyrnas
thi
thief
thiele
thierry
thin
thing
things
think
thir
third
thiriogaeth
thiriogaethau
thiruvananthapuram
this
tho
thom
thomas
thompson
thomsen
thomson
thor
thorn
thorne
thornton
thorpe
thorri
those
thought
thousand
thra
thrac
thrace
thraddodiad
thraddodiadau
thraethodwyr
thrafod
thramor
three
thref
threfi
threfn
threfnu
threuliodd
thri
thrigain
thrigolion
thrin
thro
throated
throdd
throi
thros
throsedd
throsglwyddo
throsodd
through
thrush
thrwy
thrywanu
thu
thua
thumb
thunder
thurston
thwf
thwndra
thwrci
thy
thyfodd
thymheredd
thynnu
ti
tia
tiberius
tibet
tibeteg
tibor
tich
tico
tide
tien
tienne
tierney
tierra
tiffany
tiger
til
tilda
till
tilly
tim
timaliidae
timau
time
times
timo
timor
timothy
tin
tina
tinamidae
tinamw
tindrom
tingoch
tinling
tino
tiny
tipyn
tir
tirana
tirfeddiannwr
tiriogaeth
tiriogaethau
tiriogaethol
tirlenwi
tirlun
tiroedd
tirol
tirwedd
tirweddol
tisch
tissier
tit
titanic
titanus
title
tito
titus
titw
titwod
tiwb
tiwnis
tiwnisia
tlawd
tlodi
tlodion
tlws
tlysau
to
tobago
tobias
toby
tocynnau
tod
today
todd
toddi
todi
toes
together
tognazzi
toi
tokusatsu
tokyo
toledo
tolkien
toll
tollau
toluca
tom
toma
tomas
tomassi
tomasz
tomb
tome
tomen
tomenni
tomennydd
tomlinson
tommy
tomorrow
tomos
toms
ton
tonbridge
tone
tong
tonga
toni
tonight
tonino
tonnau
tonti
tony
too
toole
top
topograffig
toppdoma
tor
torben
torchog
tordi
toreithiog
torf
torfaen
torfelyn
torfol
torgny
torgoch
tori
toriad
torino
toro
toronto
torre
torres
torri
torridge
torrodd
torrwyd
torsten
torwyn
tosca
toscana
tost
total
toth
toto
touch
touchstone
toulouse
tour
tourjansky
tourneur
tours
tout
tova
tove
tower
towers
town
towns
townsend
township
towyn
toy
tozzi
tr
tra
trac
tracey
traciau
track
tracy
traddodiad
traddodiadau
traddodiadol
trade
tradition
traean
traed
traeth
traethau
traethawd
traethodau
traethodydd
trafferth
trafferthion
traffig
trafnidiaeth
trafod
trafodaeth
trafodaethau
trafodion
tragwyddol
trail
train
trains
trais
trajan
trallwng
tram
tramffordd
tramor
trans
transgender
transit
translation
translations
transylfania
trap
trasig
travel
travers
travis
travolta
trawiad
trawiadol
traws
trawsfynydd
trawsnewid
trawsrywedd
trawsryweddol
tre
treasure
trechodd
trechu
trechwyd
tredegar
tree
trees
tref
trefaldwyn
trefedigaeth
trefedigaethau
trefedigaethol
treffynnon
trefi
treflan
treflannau
trefn
trefniadau
trefniant
trefnir
trefnodd
trefnu
trefnwyd
trefnydd
trefol
trefor
treftadaeth
trefynwy
tregaron
treial
treialon
treisgar
trek
tren
trenau
trent
tres
tresglod
treth
trethi
treulio
treuliodd
trevor
tri
trial
triawd
tricholomataceae
trier
trieste
trigai
trigo
trigolion
trin
triniaeth
triniaethau
trinidad
trinity
trintignant
trio
trioedd
triongl
trionglau
trip
tristan
tro
troad
trochilidae
trodd
troed
troedfedd
troell
troellog
troellwr
troellwyr
trofannol
troglodytidae
trogon
trogoniaid
trogonidae
troi
trois
trojan
trollope
troma
tropea
tropez
tros
trosedd
troseddau
troseddol
troseddwr
troseddwyr
trosglwyddo
trosglwyddodd
trosglwyddwyd
trosi
trosiad
trouble
trovaioli
trovatore
trowbridge
troy
trude
true
trueba
truffaut
truman
trump
trust
truth
trwch
trwchus
trwm
trwy
trwydded
trwyddo
trwyn
trwynol
trychineb
trychinebau
trydan
trydanol
trydedd
trydydd
trydyddol
tryfan
trysor
trysorlys
trystan
trywanu
tryweryn
ts
tsang
tsar
tsiad
tsiec
tsiecaidd
tsieceg
tsiecoslofacia
tsieina
tsieineaidd
tsieineeg
tsile
tsili
tsunami
tt
tter
ttingen
ttir
tu
tua
tuag
tubas
tucci
tucker
tud
tudalen
tudalennau
tudalenol
tudes
tudful
tudno
tudor
tudur
tuduriaid
tudwal
tue
tuedd
tueddu
tulio
tullio
tully
tump
tun
tunbridge
tunisia
tunnell
turdidae
turdus
turin
turkey
turn
turner
turpin
turtur
turturod
turturro
tutti
tuttle
tv
tw
tweed
twentieth
twenty
twf
twice
twickenham
twilight
twin
twist
twitter
twll
twm
twmpathau
twnnel
two
twr
twrcaidd
twrceg
twrch
twrci
twristaidd
twristiaeth
twristiaid
twrnai
twrnamaint
twyll
twyllo
twymyn
twyn
twyni
ty
tybaco
tybed
tybiedig
tybio
tybir
tyddewi
tyddyn
tydi
tyf
tyfiant
tyfodd
tyfu
tyler
tyllau
tyllog
tylluan
tylluanod
tylwyth
tymheredd
tymhorau
tymhorol
tymor
tyne
tynged
tynnodd
tynnu
tynnwyd
type
tyrannidae
tyrant
tyrau
tyrceg
tyrone
tyst
tystiolaeth
tywi
tywod
tywydd
tywyll
tywyllwch
tywyn
tywysog
tywysogaeth
tywysoges
tywysogion
tz
u
uab
ubaldo
ucha
uchaf
uchafbwynt
uchafbwyntiau
uchafswm
uchder
uchel
ucheldir
ucheldiroedd
uchelgais
uchelgeisiol
uchelwr
uchelwyr
uchod
uci
ucicky
ud
uda
udd
udo
ue
uefa
uel
uffern
ufudd
ugain
ugeinfed
ugly
ugo
uicn
uk
ukip
ukraine
ulf
ulla
ulli
ulloa
ulmer
ulrich
ulrike
ulster
ultimo
ultra
um
uma
umberto
umiliani
un
una
unawd
unben
uncle
und
undated
undeb
undebau
undebol
under
underground
undod
une
uned
unedau
unedig
unedol
unesco
unfed
unffurf
unger
uniad
uniaethu
uniaith
unicode
unig
unigol
unigolion
unigolyn
unigryw
unincorporated
union
uniongred
uniongyrchol
unionsyth
united
universal
universe
universidad
universite
university
universum
unknown
uno
unodd
unol
unoliaethol
unoliaethwyr
unreviewed
unrhyw
unrwa
unter
until
unwaith
unwyd
uomo
up
upon
upper
uppsala
upright
upton
ur
urban
urdd
urddau
urddo
urddwyd
urien
url
urs
ursula
urueta
uruguay
us
usa
use
used
ustus
usui
utah
utc
utica
utner
utrecht
uttlesford
uwch
uwcharwr
uwchben
uwchefrydiau
uwchgapten
uwchgynghrair
uwchgynhadledd
uwchlaw
uwchradd
uwe
v
va
vadim
vajda
val
valde
valdemar
vale
valencia
valenti
valentin
valentina
valentine
valentino
valeria
valerie
valerio
valle
valley
valli
valls
valois
vampire
van
vancouver
vanel
vanessa
vangelis
vanni
vanzina
var
varda
varela
vargas
variety
varma
varnel
vas
vasa
vasco
vasily
vaughan
vaughn
ve
veda
vega
vegas
veit
vela
velasco
velimir
velvet
velyne
vendetta
veneto
venice
venin
venkata
venkatesh
venkateswara
ventura
venu
venus
vera
verbinski
verde
verdi
verdier
verdone
verdun
verhoeven
verlag
vermont
verne
verneuil
vernon
vero
verona
veronica
veronika
versailles
version
vert
vertigo
very
vespasian
vest
vestergaard
vez
vi
via
vibeke
vic
vice
vicente
vicky
vico
victor
victoria
victory
vida
vidal
video
vidor
vie
vienna
vietnam
view
vieyra
viggo
vigo
vii
viii
vijay
vijaya
viking
vikram
viktor
vila
vilaine
vilhelm
villa
village
villages
ville
villeneuve
villiers
vilnius
vin
vince
vincent
vincente
vincenzo
vinci
vingelli
vinod
viola
violence
violet
violetta
vireonidae
virgil
virgilio
virgin
virginia
virginie
visconti
vishal
vishnu
vision
vista
viswanathan
vita
vitagraph
vitale
vitali
vito
vittoria
vittorio
viva
vivek
vivian
viviane
vka
vlad
vladimi
vladimir
vlasta
vlastimil
vn
vo
vogel
vogt
vohrer
voice
voices
voigt
vojte
vol
volga
volker
volkswagen
volta
volume
vom
von
vor
vos
vosges
vost
vous
voyage
vra
vre
vres
vs
vu
vuelta
vulgaris
vy
w
wa
wachowski
waddod
wade
wadi
waed
waedlyd
wael
waelod
waeth
wag
wagner
waha
wahan
wahaniaeth
wahaniaethu
wahanol
wahanu
wahardd
wahodd
wahoddiad
wai
wain
wair
waith
waiting
wajda
wake
wakefield
wal
wald
waldemar
walden
waldo
wales
walesonline
walford
waliau
walk
walker
walking
wall
walla
wallace
walle
waller
wallis
walls
wallt
wally
walsh
walt
walter
walters
walther
walton
waltz
wan
wanda
wanderers
wang
want
wanted
war
warbler
warburton
warchae
warchod
warchodfa
ward
warden
warhol
warlight
warner
warren
warrington
warrior
wars
warsaw
wartheg
warwick
was
wasanaeth
wasanaethau
wasanaethodd
wasanaethu
waseda
wasg
wasgar
washington
wastad
wastraff
waszyn
watanabe
watch
water
waterloo
waters
watkin
watkins
watson
watsonians
watt
watts
waun
waunfawr
wave
wawr
waxman
way
wayne
wcra
wcrain
wcreinaidd
wcreineg
wddf
we
wealden
wear
weather
weaver
web
webb
webber
weber
website
webster
wedd
weddi
weddill
weddillion
wedding
weddol
weddw
wedi
wedyn
week
weekend
weekly
weeks
weel
wefan
weg
wegener
wei
weimar
weini
weinidog
weinidogaeth
weinidogion
weinyddiaeth
weinyddol
weinyddu
weir
weision
weiss
weisz
weithgar
weithgaredd
weithgareddau
weithiau
weithio
weithiodd
weithiwr
weithred
weithredoedd
weithredol
weithredu
weithredwr
weithredwyr
weithwyr
wel
weladwy
welch
welcome
weld
wele
weled
weledigaeth
weledol
welir
well
wella
welles
wellington
wellman
wells
welodd
welsh
welt
welwyd
wely
wembley
wen
wendell
wenders
wendy
wener
wenn
wennol
wenoliaid
went
wenwyn
wenwynig
wenyn
werdd
were
werin
weriniaeth
weriniaethol
werker
wern
werner
wernydd
wersyll
werth
werthfawr
werthoedd
werthu
wertmu
wes
wesleaidd
wesley
wessex
west
westai
western
westlake
westminster
westmoreland
weston
westy
wg
wganda
whale
wharton
what
wheat
wheel
wheeler
whelan
when
where
which
while
whistler
whitaker
white
whitehead
whitman
whitney
who
whole
why
wica
wici
wiciaddysg
wiciaid
wicibrosiect
wicidestun
wicille
wicipedia
wicipobl
wicipop
wicklow
wie
wien
wiene
wiener
wiesbaden
wife
wig
wigan
wiggins
wiki
wikileaks
wikimedia
wikipedia
wiktor
wil
wilberforce
wilbur
wilcox
wild
wilde
wilder
wiley
wilfred
wilfrid
wilhelm
wiliam
wilkins
wilkinson
will
willard
willem
willi
william
williams
williamson
willie
willis
willow
wills
willumsen
willy
wilson
wilton
wiltshire
wim
wimbledon
win
winchester
wind
windham
winding
window
windows
windsor
wine
wing
winged
wings
winifred
winkler
winner
winnie
winnipeg
winston
winter
winters
winterstein
wir
wirfoddol
wirfoddolwyr
wirioneddol
wischniewsky
wisconsin
wisdom
wise
wiseman
wisg
wisgo
wish
witch
witches
with
withers
within
without
witness
witney
witold
witt
wives
wla
wlad
wladfa
wladol
wladwriaeth
wladwriaethau
wladwriaethol
wledig
wledydd
wleidydd
wleidyddiaeth
wleidyddion
wleidyddol
wlster
wlyb
wm
wn
wna
wnaed
wnaeth
wnaethant
wnaethon
wnaethpwyd
wneir
wneud
wneuthur
wns
wo
wobr
wobrau
wobrwyo
wojciech
wokingham
wolf
wolfe
wolff
wolfgang
wolfram
wolter
wolverhampton
wolves
woman
women
won
wonder
wonderful
wonderland
wong
woo
wood
woodland
woodpecker
woodrow
woods
woodward
woody
wootton
worcester
word
words
wordsworth
work
working
works
world
worlds
worms
worth
worthing
worthington
would
wr
wrach
wrachyddiaeth
wragedd
wraidd
wraig
wrando
wranws
wray
wrdw
wrecsam
wreiddiau
wreiddiol
wrekin
wren
wres
wrexham
wright
writer
writers
writing
written
wrocław
wrong
wrth
wrthblaid
wrthdaro
wrthi
wrtho
wrthod
wrthododd
wrthrych
wrthrychau
wrthryfel
wrthsefyll
wrthwynebiad
wrthwynebu
wrthwynebwyr
wrthwynebydd
wrthynt
wrwgwa
wrwgwaiaidd
wrywaidd
ws
wsbecistan
wspu
wsr
wthio
wu
www
wy
wyatt
wyau
wybedogion
wybod
wybodaeth
wych
wyd
wyddeleg
wyddelig
wyddfa
wyddgrug
wyddom
wyddoniaeth
wyddonias
wyddonol
wyddonwyr
wyddor
wyddys
wydr
wyf
wyl
wyler
wyliau
wylio
wyllt
wylwyr
wyn
wyndham
wyneb
wynebau
wynebodd
wynebu
wynedd
wynn
wynne
wynorski
wynt
wyoming
wyr
wyrdd
wyre
wyres
wysg
wyt
wyth
wythfed
wythnos
wythnosau
wythnosol
władysław
x
xamis
xan
xaver
xavier
xi
xico
xii
xiii
xiv
xv
xvi
xx
xxx
y
ya
yahoo
yale
yamada
yamaguchi
yamamoto
yan
yang
yangtze
yann
yannick
yao
yarbrough
yard
yarmouth
yasujiro
yates
yau
ych
ychwaith
ychwanegir
ychwanegodd
ychwanegol
ychwanegu
ychwanegwyd
ychydig
yd
ydd
ydi
ydoedd
ydw
ydwyf
ydy
ydych
ydym
ydyn
ydynt
ydyw
ye
year
yearling
years
yee
yellow
yen
yeong
yes
yevgeny
yfed
yfory
yg
yi
yin
ying
yip
yl
ym
yma
ymadael
ymadawiad
ymadawodd
ymadrodd
ymadroddion
ymaith
ymarfer
ymarferion
ymarferol
ymarferwyr
ymateb
ymatebion
ymatebodd
ymbelydredd
ymbelydrol
ymchwil
ymchwiliad
ymchwiliadau
ymchwilio
ymchwilwyr
ymchwilydd
ymddangos
ymddangosiad
ymddangosiadau
ymddangosodd
ymddengys
ymddeol
ymddeoliad
ymddeolodd
ymddiddan
ymddiddori
ymddiried
ymddiriedolaeth
ymddiswyddiad
ymddiswyddo
ymddiswyddodd
ymddwyn
ymddygiad
ymdeimlad
ymdopi
ymdrech
ymdrechion
ymdrechu
ymdrin
ymelwad
ymelwi
ymennydd
ymerawdwr
ymerawdwyr
ymerodr
ymerodraeth
ymerodraethau
ymerodres
ymerodrol
ymerodron
ymestyn
ymfudo
ymfudodd
ymfudwyr
ymgais
ymgartrefodd
ymgartrefu
ymgasglu
ymgeiswyr
ymgeisydd
ymgorffori
ymgorfforwyd
ymgymryd
ymgynghori
ymgynghorol
ymgynghorydd
ymgynnull
ymgyrch
ymgyrchodd
ymgyrchoedd
ymgyrchu
ymgyrchwyr
ymgyrchydd
ymhell
ymhellach
ymhen
ymhlith
ymhob
ymlacio
ymladd
ymladdodd
ymladdwyd
ymlaen
ymlediad
ymledodd
ymledu
ymlid
ymlusgiaid
ymosod
ymosodiad
ymosodiadau
ymosododd
ymosodol
ymosodwyd
ymrannu
ymreolaeth
ymreolaethol
ymroddedig
ymrwymiad
ymrwymo
ymryson
ymsefydlodd
ymsefydlu
ymsefydlwyr
ymuno
ymunodd
ymweld
ymweliad
ymweliadau
ymwelodd
ymwelwyr
ymwelydd
ymwneud
ymwrthod
ymwybodol
ymwybyddiaeth
ymyl
ymylol
ymylon
ymyrraeth
ymyrryd
ymysg
yn
yna
ynad
ynadon
ynddi
ynddo
ynddynt
yng
ynganiad
ynganu
ynghanol
ynghlwm
ynghy
ynghyd
ynghylch
ynghynt
yngly
ynni
ynnod
yno
yntau
ynteu
yny
ynys
ynysig
ynysoedd
ynysu
yo
yoga
yokohama
yong
yoon
york
yorkshire
you
young
your
youth
youtube
yp
yr
yrfa
yrru
ys
ysbeidiol
ysbeilio
ysbi
ysblennydd
ysbryd
ysbrydion
ysbrydol
ysbrydoli
ysbrydoliaeth
ysbrydolodd
ysbrydolwyd
ysbytai
ysbyty
ysgafn
ysgafnach
ysgariad
ysgarodd
ysgaru
ysgerbwd
ysglyfaeth
ysglyfaethwyr
ysgogi
ysgol
ysgolfeistr
ysgolhaig
ysgolheictod
ysgolheigaidd
ysgolheigion
ysgolion
ysgoloriaeth
ysgrif
ysgrifau
ysgrifen
ysgrifenedig
ysgrifeniadau
ysgrifennai
ysgrifennir
ysgrifennodd
ysgrifennu
ysgrifennwr
ysgrifennwyd
ysgrifennydd
ysgrifenwyr
ysgrifenyddion
ysgrifwyr
ysgubol
ysgubor
ysgwyd
ysgwydd
ysgwyddau
ysgyfaint
ysgythrwr
ysmygu
ysta
ystad
ystadau
ystadegaeth
ystadegau
ystadegol
ystafell
ystafelloedd
ystalyfera
ystlys
ystod
ystrad
ystradgynlais
ystum
ystwyth
ystyr
ystyriaeth
ystyrid
ystyried
ystyrir
ystyriwyd
ystyron
yswiriant
yu
yuan
yue
yuen
yun
yuri
yvan
yvelines
yves
yvette
yvonne
yw
yılmaz
z
za
zacari
zach
zachary
zack
zagreb
zampa
zangenberg
zanne
zanussi
zapata
zaporizhzhia
zar
zaragoza
zardi
zbigniew
zdene
ze
zealand
zef
zeit
zelenka
zelnik
zeman
zemeckis
zen
zeno
zero
zeus
zhang
zhao
zhou
zidi
ziegler
zigler
zimbabwe
zimmer
zimmerman
zita
zo
zoe
zola
zolta
zombie
zone
zoo
zoran
zosteropidae
zquez
zsa
zslav
zu
zucker
zukor
zum
zur
zurich
zuzana
zwei
zygmunt
zøg
{
|
}
~

¡
£
§
«
­
°
±
²
³
´
µ
·
º
»
½
¾
¿
×
ß
æ
ð
ø
þo
ı
ł
ło
ɔ
ə
ɛ
ʰ
ʲ
ʹ
ʻ
ʼ
ʾ
ʿ
ˈ
ˌ
ː
ˠ
̀
́
̂
̃
̄
̆
̇
̈
̉
̊
̋
̌
̑
̒
̓
̔
̛
̣
̦
̧
̨
̪
̮
̯
̱
̼
͂
͏
α
β
γ
δ
ε
η
θ
κης
λ
μ
μυ
ν
ο
π
ρ
ς
σ
στη
φ
χ
ω
в
д
е
и
к
м
н
на
о
с
у
я
і
ְ
ִ
ֵ
ֶ
ַ
ָ
ֹ
ּ
א
ב
ה
ל
ר
ש
ת
ا
ب
ت
ك
م
و
َ
ُ
ِ
ّ
ْ
ٓ
ٔ
ٕ
ँ
ं
ई
क
ख
ग
च
छ
ज
ट
ड
ण
त
थ
द
ध
न
प
फ
ब
भ
म
य
र
ल
व
श
ष
स
ह
़
ा
ि
ी
ु
ू
े
ै
ॉ
ो
ौ
्
ং
ক
খ
গ
চ
জ
ট
ড
ত
দ
ন
প
ব
ভ
ম
য
র
ল
শ
ষ
স
হ
়
া
ি
ী
ু
ে
্
ਾ
க
ங
ச
ஜ
ட
ண
த
ந
ன
ப
படம
ம
ய
ர
ற
ல
ள
ழ
வ
ஸ
ா
ி
ீ
ு
ூ
ெ
ே
ை
்
ಂ
ಕ
ಗ
ಚ
ಜ
ಟ
ಡ
ಣ
ತ
ದ
ಧ
ನ
ಪ
ಬ
ಭ
ಮ
ಯ
ರ
ಲ
ಳ
ವ
ಶ
ಷ
ಸ
ಹ
ಾ
ಿ
ು
ೂ
ೃ
ೆ
್
ೕ
ೖ
ം
ക
ഗ
ങ
ച
ചലച
ജ
ഞ
ട
ഡ
ണ
ത
ദ
ന
പ
ബ
മ
യ
ര
റ
ല
ള
ഴ
വ
ശ
ഷ
സ
ഹ
ാ
ി
ീ
ു
ൂ
െ
േ
ൈ
്
ൻ
ൽ
น
ั
ิ
ี
ื
ุ
ู
่
้
์
་
​
‎
‏
–
—
‘
’
“
”
„
†
•
…
‬
′
″
⁄
⁠
₂
₃
₄
₅
₆
₇
₈
₉
€
→
↔
↷
⇒
∈
−
∗
≈
≤
③
④
⑦
△
●
☆
♀
♂
♦
⟨
⟩
⺀
⺄
⺆
⺈
⺊
⺌
⺕
⺝
⺸
⺼
⿰
⿱
⿲
⿳
⿴
⿵
⿶
⿷
⿸
⿹
⿺
⿻
、
〜
〢
あ
い
う
え
お
か
き
く
け
こ
さ
し
す
せ
そ
た
ち
っ
つ
て
と
な
に
の
は
ひ
ふ
へ
ほ
ま
み
め
も
ゃ
よ
ら
り
る
れ
わ
を
ん
゙
゚
ァ
ア
ィ
イ
ウ
エ
オ
カ
キ
ク
ケ
コ
サ
シ
ス
セ
タ
チ
ッ
ツ
テ
ト
ナ
ニ
ノ
ハ
ヒ
フ
ヘ
ホ
マ
ミ
ム
メ
ャ
ュ
ユ
ョ
ラ
リ
ル
レ
ロ
ワ
ン
・
ー
㇁
㇂
㇄
㇇
㇈
㇉
㇓
㐁
㐄
㐅
㐌
㐫
㐬
㐭
㐮
㐱
㑒
㒵
㒸
㒼
㓁
㓞
㔾
㕛
㕣
㖾
㘝
㚅
㚇
㚔
㚘
㝉
㝡
㝴
㝵
㞋
㞢
㞷
㠩
㠭
㠯
㡀
㡭
㡿
㢲
㢴
㣇
㣺
㥯
㪅
㫄
㫐
㫒
㫺
㬅
㬎
㬥
㬰
㲋
㳄
㷠
㸒
㸚
㸦
㼌
㼲
㽞
㿟
䀠
䂞
䍃
䏍
䒑
䖍
䖒
䖝
䖵
䙴
䚻
䜌
䝿
䡛
䧹
䪞
一
丁
丂
七
丄
丅
丆
万
丈
三
上
下
丌
不
与
丏
丐
丑
专
且
丕
世
丘
丙
业
东
丞
丢
丣
两
严
並
丨
丩
个
丫
丬
中
丮
丰
丱
串
丵
丶
丷
丸
丹
为
主
丽
丿
乀
乂
乃
久
乆
乇
么
义
之
乌
乍
乎
乏
乐
乑
乔
乖
乗
乘
乙
乚
乛
乜
九
乞
也
习
乡
乳
乾
亀
亅
了
亇
予
争
事
二
亍
于
亏
亐
云
互
亓
五
井
亘
亚
亜
亞
亟
亠
亡
亢
交
亥
亦
产
亨
亩
享
京
亭
亮
亯
亰
亲
亳
亶
亷
人
亻
亼
亾
仁
今
介
仌
从
仐
仑
仒
仓
仕
他
付
仝
代
令
以
任
企
伊
伏
伐
休
会
伝
伯
但
位
何
佘
余
作
佥
使
來
侈
侌
侖
侯
侵
便
保
俞
信
修
倉
倍
候
倠
備
僉
僕
儿
兀
允
兂
元
兄
充
兆
兇
先
光
兊
克
兌
免
兑
兒
兓
兔
党
兜
兟
入
全
兩
兪
八
公
六
兮
兰
共
关
兵
其
具
典
兹
兼
冀
冂
冃
冄
内
冈
冉
冊
冋
册
再
冎
冏
冐
冒
冓
冖
冗
冘
军
农
冝
冡
冥
冫
冬
冷
几
凡
凢
凵
凶
凷
凸
凹
出
函
凾
刀
刁
刂
刃
刄
刅
分
切
刍
刑
刕
刖
列
刘
则
初
別
利
别
到
制
刺
則
削
剌
前
剡
剽
劇
劉
力
功
加
劦
助
劫
劳
劵
勃
勇
勉
勒
動
務
勞
勤
勹
勺
勻
勾
勿
匀
匂
包
匆
匈
匊
匋
匍
匕
化
北
匚
匝
匡
匪
匱
匸
匹
区
医
匽
匿
區
十
卂
千
卄
卅
卆
升
午
卉
半
卌
华
卑
卒
卓
单
卖
南
卜
卝
卞
占
卡
卢
卣
卤
卦
卩
卪
卬
卯
印
危
即
却
卵
卷
卸
卻
厂
厃
厄
历
厈
厉
厌
厓
厘
厚
原
厤
厥
厨
厭
厲
厶
厷
厸
去
厼
厽
叀
参
參
叅
又
叉
及
友
双
反
叐
发
叒
叔
叕
取
受
叚
叜
叟
口
古
句
另
叩
只
召
可
台
叱
史
右
叵
号
司
叹
吂
各
吅
合
吉
吊
吋
同
名
后
吏
向
吕
君
吝
吞
否
含
启
吳
吴
吹
吾
呂
呆
呈
告
员
呙
周
命
咅
和
咎
咠
咢
咨
咸
咼
哀
品
哉
員
哥
哲
唐
商
啇
問
啚
啬
啻
善
喜
喬
單
喿
嗇
噩
嚴
囊
囗
囘
囙
囚
四
回
囟
因
囧
囬
困
囱
囷
固
国
圂
圅
國
圍
圓
土
圡
圣
圥
在
圭
地
圶
圼
坐
坒
坚
坴
垂
垔
垚
埀
埋
城
埶
執
基
堂
堅
堆
堇
堯
場
塞
墨
壘
士
壬
壯
声
壳
壴
壹
壺
壽
夂
处
夅
夆
备
夊
夋
夌
复
夏
夒
夕
外
夗
夘
多
夜
夢
大
夨
天
太
夫
夬
夭
央
失
夲
头
夷
夸
夹
夻
夾
奂
奄
奇
奈
奉
奎
奏
奐
契
奓
奔
奚
奞
奠
奢
奥
奭
女
奴
奻
好
如
妄
妙
妟
妥
妻
妾
姑
委
姜
威
娄
婁
婴
嬰
嬴
子
孑
孔
孕
孖
字
存
孚
孛
孝
孟
季
孤
学
孫
孱
學
宀
宁
宂
它
宅
宇
守
安
宋
完
宏
宓
宗
官
定
宛
宜
宝
客
宣
室
宮
宰
害
家
容
宾
宿
寄
寅
密
富
寒
察
寧
審
寫
寬
寮
寸
对
寺
寻
寽
対
寿
封
尃
射
将
將
專
尉
尊
尋
尌
對
小
少
尒
尓
尔
尖
尗
尚
尞
尢
尣
尤
尧
尨
尭
就
尸
尹
尺
尻
尼
尽
尾
尿
局
居
屈
屋
屎
屏
屑
展
屖
屚
属
屠
屡
屬
屮
屯
屰
山
屵
屾
岁
岂
岑
岡
岩
岳
岸
峯
島
崇
崑
崔
崖
崙
崩
嵬
嶲
巂
巛
川
州
巟
巠
巢
巤
工
左
巧
巨
巩
巫
差
己
已
巳
巴
巷
巸
巽
巾
巿
帀
市
布
希
帚
帛
帝
带
師
席
帶
常
干
平
年
幵
并
幷
幸
幺
幻
幼
幽
幾
广
広
庄
床
底
店
庚
府
度
座
庫
庭
庶
康
庸
廉
廌
廛
廣
廩
廴
延
廷
建
廾
廿
开
弁
弃
弄
弇
弋
式
弓
弔
引
弗
弘
弜
弟
弥
弦
弱
張
強
强
彊
彌
彎
彐
彑
当
彔
录
彖
彗
彡
形
彥
彦
彧
彭
影
彳
役
彼
往
待
律
徒
得
徙
從
復
微
徵
心
忄
必
忌
忍
志
忝
忠
忩
快
念
忽
忿
思
怠
急
怪
怱
恆
恋
恒
恩
恭
息
悉
患
悤
悲
悶
情
惠
惡
惢
愁
愈
意
愛
感
慈
慧
慮
憂
憲
應
戀
戈
戉
戊
戋
戌
戍
戎
成
我
戒
戔
或
戚
戠
戢
戦
截
戲
戶
户
戹
戼
戾
房
所
扁
扇
手
扌
才
打
托
执
承
折
拉
拜
拳
拿
掌
推
提
摩
支
攴
攵
收
攸
改
放
政
敄
敏
敕
敖
敗
敝
敞
敢
散
敦
敫
敬
数
敷
數
斂
文
斉
斊
斗
斤
斥
斩
斬
斯
新
方
於
施
斿
旁
旋
族
无
旡
既
旣
日
旦
旧
旨
早
旬
旱
旲
时
旾
昆
昇
昌
昍
明
昏
易
昔
昗
昜
星
映
春
昬
是
昱
昴
昷
時
晃
晋
晏
普
景
晶
智
暑
暴
曇
曩
曰
曲
曳
更
曷
書
曹
曼
曾
替
最
朁
會
月
有
朋
服
朔
朕
朗
望
朝
木
朩
未
末
本
札
朮
术
朱
朵
朶
朿
杀
李
杏
杜
束
条
来
東
杲
杳
松
析
林
枚
果
枝
枲
枼
某
柔
查
柬
柰
柴
栗
桀
桑
桼
梁
條
梟
梨
棘
棠
棥
森
楚
業
楽
榮
樂
樊
欠
次
欣
欮
欲
欶
欽
款
歆
歇
歌
歛
止
正
此
步
武
歨
歪
歮
歯
歰
歲
歴
歷
歸
歹
歺
死
殳
段
殷
殸
殹
殺
殻
殿
毋
毌
母
每
毒
比
毕
毚
毛
毳
氏
氐
民
气
氣
水
氵
氶
氷
永
氺
氾
求
汝
汞
江
沃
沓
沙
沝
泉
法
波
泣
泥
泰
洛
洪
活
派
流
浦
浪
浮
海
淡
淮
清
渚
渠
湯
滿
漸
火
灬
灭
灰
灵
灷
炅
炎
炏
炗
炙
炭
為
烈
烏
烝
焉
無
焦
焱
然
煞
熊
熏
燕
營
燮
爪
爫
爭
爯
爰
爱
爲
爵
父
爻
爽
爾
爿
片
版
牙
牚
牛
牜
牟
牢
牧
物
牪
牽
犀
犬
犭
犮
狂
狄
狊
独
狺
猋
猒
猪
献
獻
玄
率
玉
王
玟
玨
珎
班
琴
瑟
瑩
瓜
瓦
甘
甚
生
産
用
甫
甬
田
由
甲
申
电
甶
男
甸
甹
画
甾
畀
界
畏
畐
留
畜
畟
畢
畧
畨
番
畫
異
畱
當
畺
畾
疊
疋
疌
疑
疒
疾
癶
癸
癹
登
發
白
百
皀
皃
的
皆
皇
皋
皐
皕
皮
皷
皿
盃
盆
盇
盈
益
盍
盎
监
盒
盖
盛
盡
監
盤
盧
目
直
相
盾
省
眇
眉
看
県
眔
眞
真
眷
眼
眾
着
睘
睪
睿
瞏
瞢
瞿
矍
矛
矞
矢
矣
知
矦
短
石
破
碎
磊
磨
示
礻
礼
神
祟
票
祭
禀
禁
福
禸
禹
禺
离
禽
禾
禿
秀
秃
秉
秋
科
秝
秦
移
稟
穀
穌
穴
究
穹
空
穿
突
窄
窒
立
竒
竜
竝
竟
章
童
竹
笑
笠
筆
等
答
箕
算
箴
節
篤
篭
米
粉
粛
粟
粤
粦
粲
糞
糸
糹
系
約
納
素
索
紫
累
細
絜
絫
絲
維
綿
縣
繇
纍
纟
缶
网
罒
罔
罕
罗
罙
罡
罢
罪
署
罷
羅
羊
羌
羍
美
羔
羕
羗
羞
羡
羣
群
義
羲
羸
羽
翁
翏
習
翕
翟
翠
翼
老
耂
考
者
耆
而
耎
耑
耒
耳
耴
耶
耷
聂
聊
聖
聚
聶
聿
肀
肃
肅
肉
肖
肙
肥
肩
肯
育
肴
胃
背
胡
胥
能
脊
脩
膚
臣
臤
臧
自
臬
臭
臯
臱
至
致
臺
臼
臽
臾
臿
舀
舂
舄
與
興
舉
舌
舍
舛
舜
舞
舟
般
艮
良
色
艸
艹
艾
芒
芔
芬
芮
花
芳
芺
芻
苔
苗
苟
若
苦
英
茶
茸
荅
草
荒
荣
荼
莆
莧
莫
莽
菆
菊
菐
華
萬
落
葉
著
葛
董
葵
蒙
蒦
蒼
蓋
蓬
蓺
蔑
蔡
蕉
蕭
薄
薛
薦
薰
藍
藏
藥
蘭
虍
虎
虐
虒
虔
處
虖
虗
虘
虚
虛
虜
虞
虫
虽
蚤
蚩
蜀
蜜
蟲
蠡
血
行
衍
衛
衣
衤
表
衮
衰
袁
袞
褭
褱
襄
襾
西
覀
要
覃
見
規
覓
覧
親
覽
见
角
解
言
訁
訇
計
記
詹
語
誩
諸
讠
谷
豆
豈
豊
豐
豕
豖
豙
象
豦
豩
豪
豸
貇
貝
貞
貟
負
貢
貧
貪
貫
責
貳
貴
買
費
賁
資
賈
賏
賓
賔
賛
賞
賢
賣
質
賴
贊
贝
贡
责
贯
贲
贵
赖
赞
赤
赦
走
越
足
路
蹇
身
躬
車
軍
軎
軟
輦
车
辛
辜
辟
辥
辰
辱
農
辵
辶
边
达
过
近
连
迷
追
退
送
逆
逐
通
速
造
逢
連
逮
進
遀
遂
過
道
達
遣
適
遷
遺
邊
邑
邕
那
邦
邪
郎
部
郭
都
鄉
酉
酋
配
酓
釆
采
里
重
野
量
金
釒
錢
钅
長
镸
长
門
閃
閉
開
閏
閑
閒
間
閔
閵
閻
闌
门
间
闷
阑
阜
阝
阿
降
陳
陽
隆
隊
隋
隡
隨
隱
隶
隹
隺
隻
隼
隽
难
雀
雁
集
雈
雋
雍
雐
雔
雙
雚
雜
雝
離
難
雨
雩
雪
雲
零
雷
電
需
霊
霍
霜
霝
霞
霸
靈
靑
青
非
靡
面
靣
革
韋
韦
韭
韯
韱
音
頁
頃
項
須
頗
頡
頭
頻
顛
页
風
风
飛
飞
食
飠
養
饣
首
香
馬
馮
駦
马
骨
高
髟
鬥
鬯
鬲
鬼
魔
魚
魯
鮮
鱼
鲁
鳥
鳳
鸟
鹵
鹿
麃
麗
麥
麦
麻
黃
黄
黍
黎
黑
黒
黨
黹
黽
黾
鼎
鼓
鼠
鼻
齊
齋
齐
齒
齿
龍
龙
龜
龟
龠
龰
龱
龴
龵
龶
龷
龸
龹
ꝛ
者
艹
ﬁ
：
？
𠀁
𠀃
𠀆
𠀉
𠀎
𠀐
𠁁
𠁣
𠂆
𠂇
𠂈
𠂉
𠂊
𠂋
𠂎
𠂒
𠂔
𠂛
𠂡
𠂢
𠂤
𠂬
𠂭
𠂹
𠃊
𠃋
𠃌
𠃍
𠃎
𠃑
𠃓
𠃔
𠃜
𠄌
𠄎
𠄠
𠄢
𠆢
𠆥
𠇍
𠈌
𠌵
𠓜
𠔉
𠔥
𠔼
𠔽
𠔿
𠕀
𠕁
𠕋
𠘧
𠘨
𠙻
𠙼
𠚏
𠚒
𠚤
𠚪
𠣏
𠤎
𠤕
𠥓
𠦄
𠦑
𠦝
𠧒
𠧗
𠧪
𠩺
𠪚
𠫓
𠫔
𠫤
𠬛
𠬝
𠬞
𠬢
𠬤
𠬶
𠮛
𠮦
𠮷
𠯑
𠱠
𠳮
𠷎
𡈼
𡉀
𡉵
𡌥
𡍮
𡏳
𡕒
𡕩
𡕰
𡖅
𡗗
𡗜
𡘆
𡘤
𡧱
𡨄
𡩧
𡬠
𡭽
𡰣
𡰥
𡰪
𡰯
𡰱
𡷈
𡸁
𡿨
𡿩
𡿪
𡿺
𢀖
𢀛
𢀩
𢁙
𢆉
𢆰
𢆶
𢇁
𢇇
𢉖
𢌬
𢌿
𢏚
𢑑
𢑚
𢖻
𢙣
𢛳
𢦏
𢦒
𢧵
𢼄
𢾕
𣁋
𣄼
𣅀
𣅽
𣍘
𣎳
𣎵
𣏋
𣏼
𣗥
𣥂
𣥖
𣦵
𣦼
𣧄
𣪊
𣪠
𣬉
𣳾
𣶒
𤇾
𤊽
𤐫
𤓰
𤔔
𤕨
𤣩
𤰇
𤰔
𤰞
𤴓
𤴔
𤽄
𥁑
𥁕
𥃦
𥃩
𥃭
𥇡
𥑟
𥘅
𥘈
𥝢
𥫗
𥱡
𦈢
𦉪
𦉬
𦉼
𦍌
𦍒
𦎧
𦐇
𦓔
𦔮
𦘒
𦙃
𦚏
𦣝
𦣞
𦣻
𦥑
𦥔
𦥯
𦨉
𦭝
𦰩
𧆞
𧈧
𧘇
𧰨
𧴪
𧴮
𧵩
𧾷
𨸏
𨾴
𩙿
𩠐
𩫏
𩵋
𪉷
𪜀
𪟽
𪠲
𪩲
𫇦
𫔭
𫜸
𫝀
𫠣
𫠩
𫢉
𫥞
𫩏
𫩠
𫪡
𫲽
𫶧
𬀷
𬐘
𬗌
𬙙
𬛸
𬜯
𬟩
𬯁
𬴘
𬺻
𬼉
𬼖
𭀰
𭁈
𭁨
𭅰
𭑈
𭕄
𭗼
𭤨
𭥫
𭻾
𮅕
𮊿
𮍌
𮍏
𮓗
𮥼
𮧮
廾
𰀁
𰀄
𰀈
𰀉
𰀕
𰀠
𰀡
𰀢
𰀪
𰁜
𰃮
𰆊
𰆘
𰋙
𰕎
𰢴
𰧭
𰯲
00--
01--
02--
03--
04--
05--
06--
07--
09--
29--
40--
41--
42--
43--
44--
46--
50--
51--
55--
56--
57--
71--
84--
85--
86--
90--
95--
978--
a--
aa--
ab--
aber--
abil--
abing--
ac--
ach--
act--
acu--
ad--
ada--
addu--
addur--
ade--
adein--
adel--
adfei--
adlewyr--
admini--
adna--
adu--
adwei--
ae--
ael--
af--
ag--
aga--
agu--
ah--
ai--
ail--
air--
ait--
aj--
ak--
akh--
al--
alba--
albi--
ale--
alerg--
aless--
ali--
all--
allu--
alph--
als--
alt--
alw--
am--
ama--
amal--
ame--
amffi--
ami--
aml--
amo--
amy--
an--
ana--
anar--
anc--
and--
ander--
ane--
aner--
ang--
anghy--
anghyd--
anghyfi--
angio--
angli--
ani--
ann--
anna--
anne--
anni--
anog--
ans--
ant--
anter--
antho--
anti--
anu--
any--
ao--
ap--
ape--
apocry--
appro--
aq--
aqu--
aqui--
ar--
ara--
arc--
arch--
ardi--
are--
arf--
arg--
argen--
arho--
ari--
ark--
arloes--
arol--
art--
arve--
arw--
ary--
as--
ash--
aspi--
assas--
ast--
astro--
at--
athr--
ato--
au--
aud--
auf--
aur--
aus--
auto--
av--
ava--
ave--
avi--
avig--
aw--
awyr--
ax--
ay--
ayles--
az--
b--
ba--
bab--
bach--
back--
bact--
bad--
bag--
bai--
bal--
bala--
ball--
bam--
bamff--
ban--
bapt--
bar--
bara--
bart--
bas--
base--
bat--
bata--
batti--
bau--
bay--
baz--
be--
beau--
beck--
bed--
bee--
beg--
behr--
bei--
bel--
ben--
bendefig--
ber--
beren--
berg--
bert--
bet--
beun--
bey--
bha--
bhas--
bhu--
bi--
biblio--
bick--
bids--
bie--
bien--
big--
bil--
bin--
bio--
bir--
bis--
bit--
bje--
bl--
bla--
black--
blaen--
bland--
blat--
ble--
bleid--
blo--
blos--
blu--
blue--
bo--
bob--
boch--
bod--
boe--
bog--
bol--
bom--
bon--
bor--
borg--
bos--
bot--
bou--
bour--
bouz--
bow--
br--
bra--
brad--
brahm--
bram--
bran--
bras--
bre--
bress--
bri--
brif--
brig--
bro--
broff--
bron--
bru--
bruck--
brun--
bryn--
bu--
bub--
bucc--
bud--
buge--
buko--
bul--
bun--
bundes--
bur--
bus--
but--
butter--
buz--
bw--
bwr--
bwy--
by--
byd--
byr--
bys--
byw--
bø--
c--
ca--
cad--
cadei--
cae--
caer--
cag--
cai--
cait--
cal--
cald--
call--
calo--
cam--
camp--
can--
cap--
car--
cara--
cartha--
carto--
cas--
casa--
cast--
casu--
cat--
cate--
cau--
caw--
ce--
cecc--
ceder--
cefn--
cei--
cele--
cen--
cer--
cerfi--
ceu--
cf--
ch--
cha--
chal--
cham--
chan--
char--
chart--
chat--
chau--
che--
chened--
cher--
chi--
chle--
chlo--
chlu--
chly--
cho--
chry--
chu--
chw--
chy--
chyd--
chyf--
chyfar--
chyfei--
chyfeill--
chyfl--
chyflwyn--
chyl--
chym--
chyn--
chyr--
chys--
chyw--
ci--
cian--
cicc--
cig--
cil--
cin--
cir--
cirg--
cit--
ck--
cl--
cla--
clav--
cle--
clin--
clo--
clu--
cly--
cn--
co--
cob--
cock--
cod--
coe--
coed--
coes--
cof--
cog--
coim--
col--
cole--
coll--
com--
compo--
con--
confi--
connect--
contri--
convers--
cop--
cor--
corn--
cos--
cosmo--
cou--
cous--
cow--
cra--
cran--
cre--
cres--
cri--
crib--
cro--
croes--
crom--
cromo--
cron--
cru--
crus--
crw--
crwy--
cry--
cs--
ct--
cu--
cul--
cum--
cup--
cur--
custo--
cut--
cuth--
cw--
cwm--
cwns--
cwr--
cws--
cy--
cycl--
cyd--
cydna--
cydym--
cyf--
cyfeir--
cyfun--
cylch--
cym--
cymdog--
cymhwy--
cymwy--
cyn--
cyng--
cynhwy--
cynhyr--
cynig--
cynry--
cynyr--
cyrd--
cyrhae--
cysy--
cysyll--
cyt--
cyw--
cz--
cze--
d--
da--
dab--
dad--
daf--
dag--
dai--
dal--
dam--
dan--
dar--
dargan--
dart--
das--
dat--
datbl--
dath--
dau--
day--
dc--
dd--
dda--
ddar--
ddargan--
ddarpari--
ddat--
ddath--
dde--
ddel--
ddemo--
ddeu--
ddewr--
ddi--
ddiag--
ddiby--
ddiddym--
ddifl--
ddiplo--
ddir--
ddiwy--
ddo--
ddoe--
ddol--
ddry--
ddw--
ddy--
ddych--
ddychmy--
ddyf--
ddyfr--
ddyg--
ddyl--
ddym--
ddyr--
ddyw--
de--
dead--
deb--
dec--
ded--
defi--
deg--
dei--
deint--
del--
dem--
democ--
den--
der--
derfysg--
des--
det--
deu--
deur--
dev--
dew--
deyr--
dha--
di--
dia--
diag--
diar--
dias--
diby--
dibyn--
dic--
did--
diddy--
die--
died--
dieny--
diff--
difl--
dig--
dim--
din--
dio--
diors--
dir--
dis--
disco--
diso--
dist--
diwyd--
diwyl--
dj--
dl--
dnie--
do--
doc--
dod--
dog--
doi--
dol--
dom--
domin--
don--
donat--
doo--
dor--
dos--
dot--
dou--
dow--
down--
dr--
dra--
dram--
draws--
dre--
dri--
drin--
dro--
dru--
dry--
du--
dub--
duc--
dug--
dum--
dun--
dur--
dus--
dw--
dwr--
dwy--
dy--
dybi--
dyf--
dyfr--
dylun--
dyn--
dynei--
dyr--
dyw--
dz--
e--
ea--
east--
eb--
ecc--
ech--
eck--
eco--
ecs--
ed--
eda--
edeirn--
edel--
edmy--
ee--
ef--
effei--
efry--
eg--
ehan--
ehe--
ehr--
ei--
eich--
eil--
ein--
eir--
eiria--
eis--
eisen--
ej--
ek--
el--
ela--
ele--
elect--
eleg--
elek--
eli--
elk--
ell--
em--
emer--
emi--
en--
end--
ene--
eng--
enghr--
england--
eni--
enter--
eo--
ep--
epid--
epil--
epist--
equ--
er--
ere--
ero--
ers--
erw--
ery--
es--
escu--
esg--
esgeu--
esper--
est--
et--
ethn--
eu--
euph--
eur--
eurg--
euse--
ev--
eve--
ever--
ew--
ex--
experi--
explo--
ey--
ez--
f--
fa--
fab--
fabu--
fact--
faes--
fai--
fair--
fal--
falk--
falken--
fam--
fan--
far--
fas--
fat--
fau--
faw--
fe--
feat--
fecan--
fed--
fei--
fel--
fen--
fent--
fer--
feth--
feu--
fewn--
ff--
ffa--
ffasg--
ffe--
ffi--
ffo--
ffon--
ffoto--
ffran--
ffrwy--
ffry--
ffwr--
fi--
fig--
figue--
fil--
film--
fin--
fir--
fire--
fis--
fitz--
fl--
flavi--
fle--
flint--
flo--
flu--
fly--
fo--
fod--
fol--
foleci--
foot--
for--
fore--
fos--
fou--
fow--
fox--
fr--
fra--
fras--
fre--
free--
fri--
fried--
fro--
fron--
fru--
fry--
fu--
fuku--
ful--
fun--
fur--
fus--
fw--
fwr--
fws--
fwy--
fwyn--
fy--
fyfyr--
fyn--
fyr--
fyw--
g--
ga--
gad--
gae--
gag--
gai--
gal--
galw--
gam--
gan--
gap--
gar--
garri--
gas--
gatal--
gau--
gaws--
gay--
gaz--
ge--
gee--
geheim--
gel--
gem--
gen--
geo--
ger--
gerflun--
ghi--
gi--
gia--
gian--
gib--
gig--
gil--
gior--
gis--
gl--
gla--
glan--
glas--
glau--
glei--
glen--
gler--
gli--
glo--
glu--
gly--
glyn--
glyw--
gm--
gno--
go--
god--
gof--
gog--
gogyn--
gol--
gold--
goleu--
goll--
gomisiyn--
gon--
gons--
good--
gor--
gorchfy--
goru--
gorym--
gos--
got--
gotts--
gou--
gour--
gov--
gra--
grand--
gre--
green--
gri--
grin--
gro--
gron--
gru--
grun--
gry--
gu--
guar--
gub--
gue--
guil--
guis--
gul--
gun--
gur--
gus--
gutt--
guy--
gw--
gwa--
gwall--
gwar--
gwatw--
gwe--
gwein--
gweir--
gweit--
gweith--
gwen--
gwerd--
gwib--
gwin--
gwn--
gwr--
gwrth--
gwy--
gwyn--
gy--
gyd--
gydna--
gydym--
gyf--
gyfa--
gyfan--
gyfar--
gyfei--
gyfiawn--
gyfiei--
gyfieith--
gyfl--
gyflwyn--
gyfun--
gyfy--
gyho--
gyhy--
gyl--
gylch--
gym--
gyn--
gyngho--
gynghrei--
gynhwy--
gynhyr--
gynig--
gynorthwy--
gynry--
gynyr--
gyp--
gyr--
gyrha--
gys--
gyts--
gyw--
h--
ha--
haar--
hack--
had--
haf--
hag--
hai--
hail--
haj--
hal--
hall--
ham--
han--
hand--
hap--
har--
hard--
hare--
harg--
harr--
harwein--
has--
hat--
hau--
hav--
haw--
hay--
he--
head--
heb--
hecs--
hed--
heg--
hei--
hel--
hell--
helo--
hen--
her--
herw--
hes--
het--
heu--
hi--
hierar--
hig--
high--
hil--
hill--
him--
hin--
hins--
hip--
hir--
his--
hit--
hl--
hm--
hn--
ho--
hob--
hoch--
hod--
hodg--
hok--
hol--
holl--
holm--
holo--
holy--
holz--
home--
hon--
hop--
hor--
horn--
hors--
hou--
hous--
how--
hr--
hru--
hu--
hub--
hud--
hul--
hun--
hunan--
hune--
hur--
hut--
hux--
hw--
hwy--
hy--
hyd--
hydroc--
hym--
hymd--
hyn--
hyper--
hypot--
hyrwy--
hys--
hø--
i--
ia--
ib--
ic--
ice--
id--
ie--
if--
ig--
igu--
ii--
ik--
il--
illus--
im--
imag--
in--
inc--
infl--
ing--
inn--
innoc--
ins--
int--
integ--
inter--
inu--
inve--
invent--
io--
ips--
ir--
iron--
is--
isa--
ish--
ishi--
iso--
ist--
it--
itz--
iu--
iv--
iw--
ix--
iz--
j--
ja--
jab--
jac--
jae--
jag--
jai--
jam--
jan--
jar--
jas--
jay--
je--
jen--
ji--
jim--
jin--
jiw--
jo--
job--
jou--
ju--
jun--
juve--
k--
ka--
kai--
kal--
kala--
kamp--
kan--
kar--
kas--
kass--
kast--
kat--
kay--
kaz--
kazu--
ke--
kei--
kel--
ken--
ker--
kers--
kess--
key--
kha--
kho--
khu--
ki--
kib--
kid--
kil--
kilo--
kim--
kin--
kins--
kir--
kirch--
kirk--
kit--
kiyo--
kje--
kla--
kle--
klu--
kna--
kni--
kno--
ko--
kok--
kon--
kor--
korn--
kos--
kot--
kou--
kr--
kra--
kreuz--
kro--
krys--
ks--
ku--
kul--
kun--
kur--
kuz--
kwa--
ky--
kø--
l--
la--
lac--
ladi--
lai--
lal--
lam--
lan--
land--
lang--
lans--
lar--
larr--
las--
lau--
laugh--
lave--
law--
lax--
laz--
ld--
le--
lea--
lech--
lect--
led--
lee--
leg--
lei--
leice--
lem--
len--
leo--
leon--
ler--
les--
lesbi--
let--
leu--
lev--
lew--
lex--
lher--
li--
lia--
lich--
lichten--
lie--
lieu--
lif--
life--
lim--
lin--
lind--
link--
lis--
litho--
lju--
ll--
llan--
llansant--
llaw--
lle--
lled--
lleiha--
llit--
llo--
llof--
llu--
llwyd--
llwyn--
lly--
llys--
lo--
lof--
log--
lon--
long--
los--
lot--
lou--
love--
low--
loy--
ls--
lt--
lu--
luc--
lud--
ludo--
lug--
lw--
ly--
lyk--
lym--
lyn--
lys--
lyu--
m--
ma--
mab--
mac--
mack--
macro--
mad--
made--
mae--
maen--
maes--
mag--
mah--
mai--
maj--
mak--
mal--
mala--
mam--
man--
map--
mar--
marc--
march--
mari--
mary--
mas--
mat--
mau--
may--
maz--
mc--
mckin--
me--
mec--
med--
meg--
mei--
meill--
mel--
melan--
men--
mer--
mes--
met--
metab--
metaf--
meteo--
meu--
meur--
mewn--
mexi--
mhen--
mhl--
mho--
mhorth--
mhr--
mi--
micro--
mid--
mig--
mik--
mil--
milit--
mill--
min--
mir--
mis--
mit--
mitro--
miya--
ml--
mm--
mo--
mod--
moh--
moi--
mol--
mon--
mont--
monte--
moon--
moor--
mor--
mos--
mou--
mour--
mous--
mp--
mr--
ms--
mt--
mu--
mud--
mug--
muk--
mul--
mull--
mun--
mur--
mus--
musi--
musk--
mw--
mwy--
mwyn--
my--
myd--
myn--
myny--
myste--
mø--
n--
na--
nach--
nad--
nag--
naj--
nak--
naka--
nam--
nan--
nant--
nar--
narr--
nas--
nasci--
nat--
nau--
naz--
nd--
ne--
neander--
nef--
neg--
nen--
neo--
ner--
nes--
net--
neu--
new--
news--
ng--
nga--
nge--
ngho--
nghr--
nghy--
nghymd--
nghyn--
ngw--
nh--
nhre--
nhy--
ni--
nic--
nie--
nieder--
nig--
nigs--
nik--
nin--
nine--
nir--
nis--
niw--
niwr--
no--
nobu--
nod--
nol--
non--
nor--
nord--
north--
nos--
not--
nou--
now--
noz--
ns--
nt--
nu--
nun--
nut--
nw--
ny--
nym--
nør--
o--
oak--
oat--
ob--
obe--
ober--
obje--
obs--
oc--
och--
octa--
od--
oddi--
odo--
oer--
of--
off--
offen--
og--
oh--
oi--
ok--
ol--
old--
olim--
oll--
olyn--
om--
on--
one--
op--
ope--
oppen--
or--
ora--
orchfy--
orchmy--
ori--
oro--
ortho--
oru--
os--
ostro--
ott--
ou--
out--
ov--
ova--
over--
ox--
oz--
p--
pa--
pab--
pac--
pad--
paen--
pag--
pal--
pam--
pan--
pant--
papa--
par--
para--
pas--
pasqu--
pass--
pat--
path--
pau--
pav--
pavlo--
pe--
pei--
pel--
pen--
pendefi--
peny--
penyg--
per--
peri--
peru--
pes--
pett--
ph--
pha--
phe--
pheir--
phen--
pher--
pho--
phor--
phos--
photo--
phrif--
phro--
phry--
phwy--
phyl--
phyllos--
phys--
pi--
pia--
pick--
pid--
pie--
pier--
pig--
pil--
pin--
pio--
pis--
pit--
piz--
pl--
pla--
plas--
play--
plei--
plis--
plo--
plu--
po--
pob--
pod--
poe--
pog--
pol--
poli--
poly--
polyp--
pon--
pont--
pop--
por--
porno--
pors--
pos--
posei--
posi--
poss--
post--
pot--
pou--
pow--
poz--
pp--
pr--
pra--
pre--
presby--
pri--
prif--
pro--
proceed--
profess--
pros--
pru--
pry--
ps--
pt--
pu--
pue--
pul--
pum--
pur--
put--
pw--
px--
py--
q--
qi--
qu--
quat--
que--
qui--
quint--
quo--
r--
ra--
rab--
rac--
rad--
radio--
raf--
rag--
rai--
raj--
ral--
ram--
rama--
ran--
rap--
ras--
rat--
rau--
ravi--
raw--
ray--
rd--
re--
rea--
real--
reb--
rec--
red--
reflect--
reg--
reh--
rei--
reich--
reit--
rela--
ren--
reol--
res--
ret--
reu--
rev--
rew--
rey--
rg--
rh--
rhag--
rhan--
rhei--
rhet--
rhig--
rho--
rhos--
rhu--
rhwy--
rhwymedi--
rhy--
rhyd--
rhyng--
ri--
rie--
rif--
rig--
rin--
rip--
ris--
rk--
rn--
ro--
road--
rob--
roc--
rock--
rod--
roe--
roh--
rol--
rom--
ron--
ros--
rosa--
rose--
ross--
roths--
rou--
row--
roz--
rr--
rs--
rt--
ru--
rubi--
rufi--
rum--
run--
rus--
rush--
rut--
rw--
rwy--
ry--
rym--
ryngwei--
ryw--
rz--
rza--
røn--
s--
sa--
saar--
sab--
sacs--
sad--
sai--
sak--
sal--
salva--
sam--
san--
sand--
sar--
sas--
saty--
sau--
saw--
sax--
say--
sbecto--
sc--
sca--
scan--
scar--
scare--
scat--
sch--
sche--
schi--
schle--
schlie--
scho--
schw--
schy--
sci--
sco--
se--
sea--
sec--
sed--
see--
sef--
sefyd--
sego--
sei--
seibi--
seico--
sek--
sel--
sen--
ser--
set--
sett--
seve--
sex--
sey--
sf--
sg--
sgand--
sgar--
sgi--
sgo--
sh--
sha--
she--
sher--
shi--
shin--
sho--
shoo--
shu--
si--
sia--
siar--
sid--
sidd--
sie--
sig--
sil--
sili--
silw--
sim--
sin--
sio--
sir--
sistic--
sit--
sitt--
siw--
sk--
ska--
ski--
skol--
sku--
sky--
sla--
slafo--
sli--
slo--
smo--
smy--
sn--
sni--
so--
soci--
soffi--
sog--
soko--
sol--
solit--
som--
some--
son--
sor--
sou--
sound--
spa--
spe--
spect--
spen--
sper--
spi--
spin--
spl--
spo--
squ--
sr--
sree--
sri--
ss--
st--
sta--
stall--
stan--
star--
ste--
sten--
ster--
sti--
sto--
stra--
strei--
stru--
stu--
stw--
su--
sub--
sud--
sue--
suk--
sul--
sum--
sun--
super--
supp--
sur--
survi--
sus--
sut--
sv--
sw--
swan--
sweet--
sy--
sych--
syl--
sylw--
sym--
symp--
syn--
syr--
sz--
sø--
t--
ta--
tad--
taf--
tafle--
tag--
tai--
tak--
takah--
tal--
tam--
tan--
tar--
tas--
tash--
tat--
tau--
tay--
te--
tea--
tech--
tect--
teg--
teim--
teir--
teit--
tel--
teleg--
temp--
ten--
ter--
terri--
tes--
teu--
tew--
th--
tha--
the--
thechne--
ther--
thi--
thir--
tho--
thor--
thraws--
threskior--
thri--
thro--
thry--
thu--
thun--
thur--
thwr--
thy--
thywyso--
ti--
tig--
til--
tim--
tin--
tir--
tit--
tiw--
tiz--
to--
tod--
toi--
tol--
tols--
tom--
ton--
too--
top--
tor--
tou--
tour--
toy--
tr--
tra--
tran--
trans--
traws--
tre--
tref--
trem--
tres--
treu--
tri--
trig--
tro--
troed--
tros--
tru--
trw--
try--
ts--
tsie--
tsiets--
tsu--
tsuk--
tt--
tu--
tud--
tul--
tum--
tun--
tur--
turn--
tv--
tw--
twm--
twr--
ty--
tym--
tymer--
tyn--
tyr--
tyst--
tz--
u--
ucc--
ud--
ue--
ug--
uk--
ul--
ull--
ult--
um--
un--
und--
under--
univ--
up--
ur--
us--
ut--
utt--
uwch--
uz--
v--
va--
val--
van--
var--
vas--
vau--
ve--
vel--
ven--
vend--
venez--
venge--
vent--
ver--
vera--
verd--
verg--
vers--
ves--
vi--
via--
vic--
vie--
vig--
vigil--
vil--
vin--
vis--
visi--
vo--
voj--
vojvo--
vol--
von--
vor--
vu--
vul--
vy--
w--
wa--
wag--
wahl--
wai--
wal--
wall--
wan--
war--
was--
wash--
wat--
water--
way--
we--
web--
wei--
weiny--
weis--
weith--
weiß--
wel--
well--
wen--
wend--
wer--
wes--
west--
wester--
wex--
whis--
whit--
white--
wi--
wib--
wic--
wici--
wid--
wie--
wig--
wiki--
wil--
wild--
wim--
win--
wind--
wins--
wir--
wis--
wit--
wiz--
wm--
wn--
wo--
wol--
woo--
wood--
wor--
wr--
wrei--
wrth--
ws--
wu--
wy--
wyd--
wyn--
wyr--
x--
xan--
xi--
xiao--
xx--
xyl--
y--
ya--
yas--
ych--
yd--
ye--
yes--
yev--
yi--
yl--
ym--
yma--
ymddi--
ymm--
yn--
yng--
yo--
yoshi--
yp--
yr--
ys--
ysgog--
ysgrythu--
ysgy--
yst--
yu--
yuki--
yun--
yw--
z--
za--
zam--
zan--
zar--
ze--
zen--
zer--
zi--
zie--
zil--
zin--
zo--
zoo--
zu--
ß--
ø--
đ--
ı--
ſ--
ə--
μ--
ρ--
в--
д--
м--
н--
с--
ال--
क--
र--
க--
ச--
த--
ப--
ம--
வ--
₁--
₂--
--0
--1
--2
--3
--4
--5
--6
--7
--8
--88
--9
--a
--aa
--aat
--ab
--abi
--able
--abo
--aby
--ac
--aca
--acci
--aceae
--ach
--acin
--acio
--ack
--ad
--ada
--adau
--ade
--adi
--adl
--ado
--adol
--ads
--adu
--adur
--aduriaid
--adwy
--ady
--ae
--aea
--ael
--aeschna
--aeth
--aethau
--af
--afarn
--afon
--ag
--age
--aggio
--agh
--ago
--ah
--ahan
--ai
--aid
--aidd
--aig
--ain
--aine
--aint
--air
--aire
--ais
--aist
--aith
--aj
--ak
--aka
--ako
--al
--ala
--ald
--aldi
--ale
--ales
--alis
--all
--alog
--alya
--am
--ama
--ami
--amura
--an
--ana
--anaidd
--ance
--and
--ander
--ane
--ango
--ani
--aniaeth
--ann
--ano
--anod
--ans
--ant
--ante
--anus
--anza
--ao
--ap
--api
--ar
--ara
--arat
--ard
--ardi
--ardo
--are
--ari
--aris
--arn
--aro
--arro
--ars
--art
--aru
--ary
--as
--asa
--asai
--asant
--ase
--asig
--asol
--ass
--ast
--at
--ata
--ate
--ated
--ates
--ath
--ati
--ation
--ato
--atra
--atur
--atus
--au
--aux
--aw
--awa
--awd
--awu
--ax
--ay
--aya
--ays
--az
--azzi
--b
--ba
--bach
--back
--ban
--bar
--bau
--bault
--baum
--bb
--bbs
--be
--bel
--berg
--bes
--bet
--bh
--bha
--bi
--bia
--bie
--big
--bird
--bl
--ble
--blo
--bo
--boa
--bol
--bon
--bor
--bourg
--boy
--bp
--bs
--bt
--bu
--bul
--burg
--bury
--bwn
--by
--byn
--bynnu
--bæk
--c
--ca
--caceae
--cal
--cchi
--cchio
--cci
--cco
--ce
--cea
--ceae
--ced
--cel
--cer
--ces
--cet
--ceus
--cey
--ch
--che
--chi
--chke
--cht
--chu
--chus
--chy
--ci
--cia
--ciau
--cie
--cin
--cina
--cini
--cio
--ck
--cka
--cke
--ckel
--cker
--cket
--ckett
--cki
--cks
--cky
--cl
--co
--cock
--cot
--cote
--cott
--cq
--cs
--ct
--cter
--ctis
--ctod
--cts
--cu
--cus
--cws
--cy
--cyn
--czyk
--d
--da
--dae
--dai
--dale
--dan
--das
--dat
--dau
--day
--dberg
--dd
--dden
--ddi
--ddio
--ddion
--ddo
--ddol
--ddu
--ddyn
--de
--dea
--deb
--ded
--def
--deg
--del
--den
--der
--derau
--des
--dey
--dez
--df
--dfa
--dge
--dh
--dha
--di
--dia
--diad
--diaeth
--dianus
--diau
--did
--dig
--dil
--din
--dio
--dion
--dir
--dis
--diwyd
--dl
--dlaw
--dle
--dler
--do
--dod
--dodau
--dog
--dol
--don
--dor
--dos
--dou
--dova
--down
--dr
--dra
--dre
--dro
--droi
--ds
--dsen
--dt
--du
--dum
--dur
--dus
--dwn
--dwr
--dwy
--dwyd
--dwyr
--dy
--dyn
--dyr
--dze
--e
--ea
--ead
--eae
--eaid
--eaidd
--ean
--ear
--eau
--eb
--ebau
--ebu
--eby
--ec
--eca
--ece
--ech
--eck
--ect
--ed
--edd
--eddau
--ede
--edi
--edig
--edigion
--edin
--ee
--een
--eev
--ef
--eff
--eg
--eger
--ego
--egol
--egryn
--egwyr
--egydd
--eh
--ei
--eia
--eid
--eiddio
--ein
--eis
--eit
--ej
--ek
--eke
--el
--ela
--eld
--ele
--eley
--eli
--ell
--elli
--ello
--elm
--els
--em
--ema
--en
--enay
--enberg
--enc
--ence
--end
--eng
--eni
--enko
--ennau
--enne
--enni
--enon
--ens
--ensis
--ent
--ente
--eo
--eoli
--eon
--ep
--er
--era
--eras
--ere
--eren
--erer
--erg
--eri
--eria
--eris
--ern
--erne
--ero
--erre
--ers
--erson
--ert
--ery
--es
--esa
--esan
--esco
--escu
--ese
--esen
--esgop
--esh
--esi
--eson
--ess
--esse
--est
--et
--ete
--eter
--eth
--ethau
--ets
--ett
--etta
--ette
--etti
--etto
--etus
--ety
--etz
--eu
--euon
--eur
--eus
--eux
--ev
--ew
--ex
--ey
--ez
--eze
--f
--fa
--fab
--faen
--fan
--fau
--fe
--fed
--feg
--feld
--feldt
--fen
--fer
--fes
--feydd
--ff
--ffad
--ffili
--fft
--fi
--fia
--fiad
--fiau
--field
--fig
--film
--fio
--fion
--fiotigau
--fir
--fit
--flun
--fn
--fo
--fog
--fol
--fon
--foot
--for
--ford
--forio
--fr
--fraint
--fro
--frydedd
--frydig
--fs
--ft
--fu
--ful
--fwch
--fy
--fyd
--fyn
--g
--ga
--gaard
--gaf
--gal
--gan
--gar
--garol
--garwch
--gas
--gate
--gau
--ge
--ged
--gedd
--gel
--gen
--ger
--ges
--gg
--ggio
--ggs
--gh
--ghlin
--ghorwr
--ght
--gi
--gie
--gin
--ging
--gio
--gir
--giu
--gl
--gle
--gler
--gley
--glia
--glo
--glwyddiad
--glwyddwyd
--gn
--gna
--gne
--gni
--gno
--gny
--go
--goch
--gol
--gomphus
--gon
--gos
--gr
--gren
--gri
--grion
--gs
--gt
--gton
--gu
--gua
--gue
--gues
--gui
--gula
--gwa
--gwefan
--gwr
--gwydd
--gy
--gybi
--gydd
--gyr
--gys
--gystennin
--h
--ha
--had
--hak
--hall
--ham
--han
--haodd
--haol
--har
--hau
--haw
--hawyd
--he
--head
--hed
--heg
--heim
--heir
--hem
--hes
--heu
--heus
--hi
--hia
--hic
--hill
--hin
--hini
--hino
--hio
--hion
--hip
--hir
--hl
--hlan
--hli
--hly
--hm
--hma
--hman
--hmi
--hn
--ho
--hodd
--hoe
--hof
--hog
--hoi
--holz
--hood
--hor
--hos
--hot
--hou
--hr
--hra
--hs
--ht
--http
--hty
--hu
--hua
--hus
--hy
--hydi
--i
--ia
--iaceae
--iad
--iadau
--iadol
--iadur
--iae
--iaeth
--iaethau
--iaethus
--iaf
--iah
--iai
--iaid
--iaidd
--iak
--ial
--iam
--ian
--iana
--iannaeth
--iannau
--iannodd
--iannol
--iannwr
--iano
--ians
--iant
--ianwyr
--iar
--iaru
--ias
--iateir
--iau
--iazzo
--ib
--ibert
--ible
--ic
--ica
--ical
--ice
--ich
--ici
--icia
--icity
--ick
--icki
--ico
--ics
--icus
--icwlwm
--icz
--id
--ida
--idae
--idd
--iddio
--ide
--ident
--ider
--ides
--idio
--idiol
--ido
--idog
--idor
--ie
--ied
--iedig
--ieg
--ieithol
--iel
--ield
--ien
--iensis
--ient
--iente
--ier
--ieri
--iero
--ies
--iewicz
--if
--ifer
--iff
--ification
--ig
--igan
--igau
--iger
--igh
--igion
--igir
--igo
--igol
--igrwydd
--ih
--ii
--ijn
--ik
--ika
--iko
--il
--ila
--ile
--ili
--ilia
--iliad
--ilis
--illo
--ilo
--im
--ima
--iman
--ime
--imetr
--imir
--in
--ina
--ind
--inda
--ine
--ineb
--ines
--ing
--ingham
--ings
--ington
--ini
--iniaid
--inio
--iniog
--ino
--ins
--inus
--io
--iodd
--iog
--iol
--iola
--ioli
--ion
--ions
--ior
--ios
--ious
--ip
--iq
--ique
--ir
--ira
--ire
--iri
--irio
--iro
--is
--isch
--ise
--ised
--ish
--ished
--isi
--isio
--isk
--ism
--ison
--isse
--ist
--ista
--istig
--ists
--it
--ita
--itas
--ite
--ith
--ithiau
--ithio
--ithiol
--ithiwr
--iti
--ities
--itis
--ito
--itt
--itto
--ity
--itz
--iu
--ium
--ius
--iv
--ive
--ivity
--iw
--iwch
--iwed
--iwm
--iwn
--iwr
--iwyd
--ix
--iy
--iya
--iynu
--iz
--iza
--ization
--j
--ja
--jah
--jak
--jan
--je
--jevic
--ji
--jic
--jit
--jk
--jn
--jo
--jou
--joy
--js
--ju
--k
--ka
--kamp
--kar
--kas
--ke
--kel
--ker
--kers
--kes
--ket
--kh
--kha
--khov
--ki
--kia
--kie
--kin
--kine
--kins
--kis
--kki
--kley
--ko
--koff
--kopf
--kov
--kovic
--kovsky
--kow
--kowski
--ks
--ksey
--kt
--ku
--ky
--l
--la
--lad
--lah
--lak
--lan
--land
--lar
--lard
--las
--lat
--lata
--lau
--lav
--law
--lay
--lb
--lba
--lc
--lch
--ld
--lde
--ldi
--ldo
--ldy
--le
--led
--ledd
--leg
--lel
--len
--ler
--les
--less
--let
--ley
--lf
--lfa
--li
--lia
--liad
--liaid
--lich
--lid
--lie
--lier
--lif
--lifiad
--lig
--lin
--line
--ling
--lio
--lion
--lir
--lis
--lito
--lity
--liw
--lk
--lka
--ll
--lla
--llah
--llau
--lle
--lli
--lliad
--llio
--llir
--llis
--llo
--lls
--llt
--lly
--llyd
--lm
--lman
--lo
--lock
--lod
--lodd
--log
--logy
--lom
--lon
--londeb
--lor
--lore
--lot
--lov
--lova
--ls
--lsen
--lt
--lto
--lton
--ltz
--lu
--lum
--lun
--lus
--lw
--lwr
--lwyd
--lwyn
--lwyr
--ly
--lyd
--lydd
--lyn
--lys
--lz
--m
--ma
--man
--mann
--mans
--mar
--mau
--mb
--mba
--mbo
--me
--meg
--mel
--men
--ment
--mer
--mes
--mey
--mi
--mic
--mig
--min
--mio
--mis
--mley
--mlin
--mm
--mma
--mmer
--mo
--mon
--mor
--more
--mos
--mot
--mouth
--mp
--ms
--mu
--mus
--musik
--mut
--my
--myn
--n
--na
--nac
--naeth
--nah
--nai
--naidd
--nal
--nan
--nar
--nard
--nath
--nau
--nay
--nburg
--nc
--nce
--ncey
--nco
--nd
--nda
--nde
--nder
--ndi
--ndo
--ndon
--ndr
--ne
--neau
--ned
--neer
--neg
--nen
--ner
--nes
--ness
--net
--newydd
--ney
--ng
--nge
--nger
--ngo
--ngton
--ni
--nia
--niaeth
--niaid
--nie
--nig
--nik
--nil
--nin
--ning
--nio
--nir
--nius
--niwm
--nk
--nka
--nko
--nley
--nn
--nna
--nne
--nni
--nnir
--nnium
--nnu
--no
--nock
--nod
--nodd
--noedd
--nog
--nol
--nomy
--non
--nor
--nov
--ns
--nse
--nsis
--nski
--nson
--nstein
--nt
--nta
--ntal
--nte
--nti
--ntiad
--ntini
--nto
--nton
--nts
--ntura
--ntus
--nu
--num
--nus
--nwad
--nwr
--nwyd
--nwyr
--ny
--nya
--nydd
--nyn
--nz
--nza
--nze
--nzi
--nzo
--o
--oa
--ob
--oc
--occo
--och
--ock
--od
--oda
--odau
--odd
--odi
--odiad
--odion
--oe
--oedd
--of
--off
--og
--ogaeth
--ogen
--ogenau
--ogi
--ogiad
--ogion
--ogir
--ogodd
--ogol
--ogomphus
--ograffi
--ogue
--ogwyr
--ogy
--oi
--oid
--ois
--ok
--oka
--oke
--oko
--ol
--ola
--oldeb
--oledig
--oleg
--oli
--oliaeth
--olithig
--olo
--olodd
--ology
--olt
--olwch
--olwyd
--olwyr
--olyn
--om
--oma
--ome
--omeg
--omi
--omo
--on
--ona
--one
--ong
--oni
--onia
--onne
--ono
--ons
--ont
--onte
--ony
--oo
--ood
--oon
--op
--opi
--ops
--opsis
--or
--ora
--oraeth
--ord
--ore
--orn
--orno
--ors
--ort
--orus
--ory
--os
--osa
--ose
--osi
--osis
--oslav
--oso
--ost
--ot
--otig
--oto
--ott
--otta
--otte
--otti
--otus
--ou
--oud
--ough
--oun
--ous
--out
--oux
--ov
--ova
--ovic
--ovich
--ow
--owicz
--ows
--owska
--owski
--owsky
--ox
--oy
--oya
--oz
--ozzi
--p
--pa
--pe
--ped
--pet
--pf
--ph
--phi
--phic
--phs
--phus
--phy
--pi
--pin
--ple
--po
--port
--pp
--ppa
--ppe
--pper
--ppo
--ps
--pt
--ption
--pton
--pus
--py
--q
--qa
--que
--quist
--qvist
--r
--ra
--rad
--radd
--raeth
--rag
--rai
--raki
--ram
--ran
--rau
--raz
--rb
--rby
--rc
--rce
--rch
--rd
--rda
--rdd
--rdi
--rdo
--re
--rea
--rebu
--red
--redd
--ree
--ref
--rel
--rell
--rella
--relli
--ren
--res
--ress
--ret
--reth
--rew
--rey
--rf
--rg
--rge
--rhyn
--ri
--ria
--riaeth
--riaid
--ric
--rid
--ridae
--rie
--ries
--rif
--rig
--rin
--rini
--rio
--rir
--ris
--rit
--rius
--riw
--riwm
--rix
--rk
--rka
--rks
--rl
--rla
--rley
--rly
--rm
--rman
--rmir
--rn
--rne
--ro
--rog
--rol
--ron
--rop
--ropodau
--ros
--rot
--rov
--rova
--row
--roy
--rp
--rr
--rra
--rs
--rson
--rt
--rton
--rts
--ru
--rugog
--rum
--rup
--rus
--rw
--rwch
--rwm
--rwr
--rwyd
--rwydd
--ry
--ryd
--ryn
--rys
--ryw
--rz
--rzi
--s
--sa
--sac
--safiad
--sai
--sallog
--san
--sau
--sburg
--sby
--sc
--sch
--schi
--sco
--scu
--se
--sed
--sel
--sell
--sen
--ser
--ses
--set
--sey
--sfield
--sford
--sg
--sgaard
--sgar
--sh
--shi
--ship
--shire
--si
--sia
--siaeth
--siau
--sid
--side
--sig
--sil
--sin
--sio
--sis
--sit
--siwn
--siwr
--sk
--ska
--ske
--ski
--skov
--sky
--sl
--sley
--slo
--slyd
--sm
--sma
--sman
--smith
--smo
--snay
--sner
--so
--soch
--sol
--son
--sor
--sos
--sow
--ss
--ssa
--sse
--ssen
--sser
--ssi
--sson
--ssy
--st
--sta
--stedt
--stein
--ster
--stes
--sti
--sto
--ston
--strup
--sts
--stwch
--su
--sus
--sville
--sworth
--sws
--swyd
--swyr
--sy
--sys
--sz
--sø
--sław
--t
--ta
--tach
--tad
--taf
--tal
--tan
--tas
--tau
--tch
--te
--ted
--teg
--tein
--tek
--ten
--ter
--terau
--ters
--tes
--teur
--th
--tha
--the
--thiau
--thwch
--thwy
--ti
--tia
--tiaeth
--tiaid
--tian
--tiau
--tic
--tica
--tice
--tics
--tid
--tie
--tier
--tieri
--ties
--tig
--tik
--time
--tin
--tine
--ting
--tini
--tio
--tiol
--tion
--tions
--tir
--tirion
--tis
--tius
--tive
--tke
--tl
--tle
--tner
--to
--tock
--toft
--tol
--ton
--tor
--tory
--tos
--tov
--tow
--town
--tr
--tra
--tre
--trig
--tris
--tro
--trup
--try
--trydd
--ts
--tsen
--tsk
--tsu
--tt
--tta
--tte
--tten
--tti
--tto
--tton
--tty
--tu
--tum
--tur
--ture
--tus
--tw
--tws
--twyd
--ty
--tyn
--tys
--tz
--tzer
--u
--ua
--uai
--ual
--uan
--ub
--uc
--uca
--ucci
--uch
--uchi
--ucus
--ud
--ue
--uen
--uer
--ues
--uf
--ug
--ugh
--ught
--ugno
--ui
--uil
--uja
--uk
--uke
--uki
--ul
--ula
--ular
--ulata
--uli
--ull
--ulo
--ult
--ulus
--uly
--um
--ume
--umi
--un
--ung
--uni
--unt
--uo
--uol
--uon
--uot
--up
--ur
--ura
--urai
--ure
--urg
--uri
--uro
--urs
--us
--use
--usion
--usrwydd
--ust
--ut
--uta
--ute
--uth
--ution
--uto
--utti
--uw
--ux
--uy
--uya
--uz
--uzzi
--v
--va
--vaca
--vais
--val
--van
--vaux
--ve
--vec
--ved
--veen
--vel
--ven
--ver
--vers
--ves
--vi
--via
--vic
--vich
--vig
--vil
--ville
--vin
--vir
--vis
--vko
--vna
--vo
--vois
--vski
--vsky
--vus
--vy
--vyn
--w
--wa
--wad
--wan
--was
--way
--ways
--wb
--wc
--wch
--wd
--we
--wed
--wedd
--well
--wen
--wer
--west
--wg
--wi
--wick
--wicz
--wig
--win
--winau
--witz
--wl
--wley
--wm
--wn
--wng
--wnia
--wo
--wod
--wodd
--wol
--wood
--wort
--wr
--wra
--wraig
--wrfa
--wriaeth
--wrn
--ws
--wska
--wski
--wt
--wy
--wyck
--wyd
--wydd
--wyfyn
--wyn
--wyo
--wyr
--wys
--x
--xa
--xe
--xi
--xo
--y
--ya
--yah
--yal
--yam
--yan
--yc
--ych
--ychiaeth
--ychu
--ychwr
--ychwyr
--yd
--ydd
--yddiaeth
--yddion
--yddol
--yddu
--yddwyr
--ye
--yer
--yev
--yf
--yg
--ygu
--yi
--yil
--yk
--yl
--yle
--yliaeth
--yliwr
--yll
--ylwyr
--ym
--ymu
--yn
--yne
--yngwyd
--ynnau
--ynnu
--ynol
--ynt
--ynwy
--yo
--yon
--yr
--yra
--yre
--ys
--ysarn
--ysor
--ysu
--yt
--yth
--yu
--yw
--yx
--z
--za
--zak
--zan
--zano
--ze
--zek
--zel
--zer
--zetti
--zh
--zi
--zia
--zies
--zil
--zin
--zio
--zky
--zo
--zon
--zoni
--zt
--zu
--zy
--zyn
--zz
--zza
--zzi
--zzo
--zzy
--ß
--ße
--ø
--ı
--ın
--ła
--ław
--ə
--α
--ι
--ς
--υ
--а
--е
--и
--н
--о
--я
--ن
--₀
--₁
