!
"
#
##0
##1
##10
##11
##12
##13
##14
##15
##16
##17
##18
##19
##2
##20
##21
##22
##23
##24
##25
##26
##27
##28
##29
##3
##30
##31
##32
##33
##34
##35
##36
##37
##38
##39
##4
##40
##41
##42
##43
##44
##45
##46
##47
##48
##49
##5
##50
##51
##52
##53
##54
##55
##56
##57
##58
##59
##6
##60
##61
##62
##63
##64
##65
##66
##67
##68
##69
##7
##70
##71
##72
##73
##74
##75
##76
##77
##78
##79
##8
##80
##81
##82
##83
##84
##85
##86
##87
##88
##89
##9
##90
##91
##92
##93
##94
##95
##96
##97
##98
##99
$
%
&
'
(
)
*
+
,
-
.
/
0
00
000
0004
0006
001
002
0022
0026
003
004
005
006
007
008
009
01
010
011
012
013
014
015
016
017
018
019
02
020
021
024
025
03
030
0302
032
033
0355
0362
039
04
0405
042
045
0490
05
050
055
0554
06
063
0636
07
070
071
0734
08
082
0828
083
09
090
1
10
100
1000
10000
1001
1002
1006
1007
101
1010
1012
1015
1016
1017
1018
102
1020
1021
1022
1023
1024
1025
1028
1029
103
1030
1037
1038
104
1040
1042
1046
105
1050
1051
1054
1055
1056
106
1060
1061
1063
1066
107
1070
1071
1073
107343683
1074
1075
1076
1078
108
1080
1083
1085
10855166
1086
1088
1089
109
1090
1091
1093
1095
1096
1097
1098
1099
11
110
1100
1101
1103
110360213
1105
1109
111
1110
1111
1113
1119
112
1120
1124
1125
1126
1127
1128
113
1130
1134
1135
1136
1137
1139
114
1140
1142
1145
1146
1147
115
1150
1152
1154
1155
1156
1158
116
1160
1161
1163
117
1170
1172
1175
1177
118
1180
1185
1186
1187
119
1190
1194038
1198
12
120
1200
1201
1204
1205
1206
121
1210
1212
122
1220
1223
123
1230
1234
1235
1238
1239
124
1240
1241
12411
1242
1243
1246
125
1250
126
1260
127
1270
128
1280
1285
129
1290
1292
13
130
1300
1301
131
1310
1319
132
1320
133
1330
13371586
134
1340
1348
1349
135
1350
13550863
1359
136
1360
1364
1365
137
1370
1371
1377
138
1380
1382
1385
1386
1387
1389
139
1390
1392
1394
1395
1399
14
140
1400
1401
1402
141
1410
1413
1415
142
1420
1422
1425
1428
143
1430
1431
1432
1433
1434
1435
1438
1439
144
1440
1444
145
1450
1453
1458
146
1460
1461
1463
1467
1469
147
1470
1471
1474
1475
1476
1478
148
1480
1481
1482
1483
1485
149
1490
1492
1493
1494
1495
1497
1498
1499
15
150
1500
1501
1502
1503
1504
1505
1506
1507
1508
1509
151
1510
1511
1512
1513
1514
1515
1516
1517
1518
1519
152
1520
1521
1522
1523
1524
1525
1526
1527
1528
1529
153
1530
1531
1532
1533
1534
1535
1536
1537
1538
1539
154
1540
1541
1542
1543
1544
1545
1546
1547
1548
1549
155
1550
1551
1552
1553
1554
1555
1556
1557
1558
1559
156
1560
1561
1562
1563
1564
1565
1566
1567
1568
1569
157
1570
1571
1572
1573
1574
1575
1576
1577
1578
1579
158
1580
1581
1582
1583
1584
1585
1586
1587
1588
1589
159
1590
1591
1592
1593
1594
1595
1596
1597
1598
1599
16
160
1600
1601
1602
1603
1604
1605
1606
1607
1608
1609
161
1610
1611
1612
1613
1614
1615
1616
1617
1618
1619
162
1620
1621
1622
1623
1624
1625
1626
1627
1628
1629
163
1630
1631
1632
1633
1634
1635
1636
1637
1638
1639
164
1640
1641
1642
1643
1644
1645
1646
1647
1648
1649
165
1650
1651
1652
1653
1654
1655
1656
1657
1658
1659
166
1660
1661
1662
1663
1664
1665
1666
1667
1668
1669
167
1670
1671
1672
1673
1674
1675
1676
1677
1678
1679
168
1680
1681
1682
1683
1684
1685
1686
1687
1688
1689
169
1690
1691
1692
1693
1694
1695
1696
1697
1698
1699
17
170
1700
1701
170109
1702
1703
1704
1705
1706
1707
1708
1709
171
1710
1711
1712
1713
1714
1715
1716
1717
1718
1719
172
1720
1721
1722
1723
1724
1725
1726
1727
1728
1729
17299517
173
1730
1731
1732
1733
1734
1735
1736
1737
17378135
1738
1739
174
1740
1741
1742
1743
1744
1745
1746
1747
1748
1749
175
1750
1751
1752
1753
1754
1755
1756
1757
1758
1759
176
1760
1761
1762
1763
1764
1765
1766
1767
1768
1769
177
1770
1771
1772
1773
1774
1775
1776
1777
1778
1779
178
1780
1781
1782
1783
1784
1785
1786
1787
1788
1789
179
1790
1791
1792
1793
1794
1795
1796
1797
1798
1798125
1799
18
180
1800
18002875
1801
1802
1803
1804
1805
1806
1807
1808
1809
181
1810
1811
1812
1813
1814
1815
1816
1817
1818
1819
182
1820
1821
1822
1823
1824
1825
1826
1827
1828
1829
183
1830
1831
1832
1833
1834
1835
1836
1837
1838
1839
184
1840
1841
1842
1843
1844
1845
1846
1847
1848
1849
185
1850
1851
1852
1853
1854
1855
1856
1857
1858
1859
186
1860
1861
1862
1863
1864
1865
1866
1867
1868
1869
187
1870
1871
1872
1873
1874
1875
1876
1877
1878
1879
188
1880
1881
1882
1883
1884
1885
1886
1887
1888
1889
189
1890
1891
1892
189289
1893
1894
1895
1896
1897
1898
1899
19
190
1900
1901
1902
1903
1904
1905
1906
1907
1908
1909
191
1910
1911
1912
1913
1914
1915
1916
1917
1918
1919
192
1920
1921
1922
1923
1924
1925
1926
1927
1928
1929
193
1930
1931
1932
1933
1934
1935
193563
1936
1937
1938
1939
194
1940
1941
1942
1943
1944
1945
1946
1947
1948
1949
195
1950
1951
1952
1953
1954
1955
1956
1957
1958
1959
196
1960
1961
1962
1963
1964
1965
1966
1967
1968
1969
197
1970
1971
1972
1973
1974
1975
1976
1977
1978
1979
198
1980
1981
1982
1983
1984
19847326
19847329
1985
1986
1987
1988
1989
199
1990
19908137
1991
1992
1993
19938912
1994
1995
1996
1997
1998
1999
2
20
200
2000
2001
2002
2003
2004
2005
2006
2007
2008
2009
201
2010
2011
2012
2013
2014
2015
2016
2017
2018
2019
202
2020
2021
2022
2023
2024
2025
203
2030
204
205
206
2061
207
2074
208
209
21
210
2100
211
212
2121
2127
213
214
21401824
215
2154
216
217
217595
218
219
22
220
2200
221
222
223
224
225
226
227
228
229
23
230
2300
2307
231
232
233
234
235
236
237
237227
238
239
24
240
2400
241
242
243
244
2449070
245
246
247
248
249
25
250
2500
2501
251
252
253
254
255
256
256507
257
258
2586178
259
2596504
26
260
2600
261
262
263
264
265
265049
266
267
268
269
27
270
2700
271
272
273
27302
274
275
276
277
278
279
28
280
2800
281
282
2826570
283
284
285
286
287
288
289
29
290
291
292
293
294
295
296
297
298
29861311
299
3
30
300
3000
301
302
303
304
304037
305
306
307
308
309
31
310
311
312
313
314
315
316
317
318
319
32
320
3200
321
322
323
324
325
326
327
328
329
33
330
331
3314880
332
333
334
335
336
337
338
339
34
340
341
342
343
344
345
346
347
348
349
35
350
3500
351
352
353
354
355
356
3561957
357
358
359
36
360
361
362
363
364
365
36578
366
367
368
369
37
370
371
372
373
37312
374
375
376
377
378
379
3792
38
380
381
382
383
384
385
386
387
388
389
39
390
391
392
393
394
395
396
397
398
399
4
40
400
4000
401
402
403
404
405
406
407
408
4081
409
41
410
411
412
413
414
415
416
417
418
419
42
420
421
422
423
424
425
426
427
428
429
43
430
431
432
433
4331
434
435
436
437
438
439
44
440
441
442
443
444
445
446
447
448
449
45
450
4500
451
452
453
454
455
456
457
458
459
46
460
461
462
463
464
464633
465
466
467
468
469
47
470
471
472
473
474
475
476
477
47757534
478
479
48
480
481
482
483
484
485
486
487
488
489
49
490
491
492
493
494
495
496
497
498
499
5
50
500
5000
501
502
503
504
504063
505
506
507
508
509
51
510
511
512
513
514
515
516
517
518
519
52
520
521
522
523
524
525
526
527
528
529
53
530
531
532
533
534
535
536
537
5375741
538
539
54
540
541
542
543
544
545
546
547
548
54837
549
54919
55
550
551
552
553
554
55434785
555
556
557
558
559
56
560
561
562
56239490
563
564
565
566
567
568
569
57
570
571
572
573
574
575
576
577
57740
578
579
58
580
581
582
583
584
585
586
587
588
589
59
590
591
592
593
594
595
596
597
59767631
598
599
6
60
600
6000
601
602
602358
603
604
605
606
607
608
609
61
610
611
612
613
614
615
616
617
618
619
62
620
621
622
623
624
625
626
627
628
629
63
630
63056
631
632
633
634
635
636
6361
637
638
639
64
640
641
642
643
644
645
646
647
648
649
65
650
651
652
653
654
655
656
657
658
659
66
660
661
662
663
664
665
666
667
668
669
67
670
671
67129259
672
673
674
675
676
677
678
679
68
680
681
682
683
683713
684
685
686
687
688
689
69
690
691
692
693
694
695
696
697
698
699
7
70
700
7000
701
7014
702
7022
703
704
705
706
707
708
709
71
710
711
712
713
714
715
716
717
718
719
72
720
721
722
723
724
725
726
727
728
729
73
730
731
732
733
734
735
736
737
738
739
74
740
7407
741
742
743
744
745
746
747
748
749
7492
75
750
751
752
753
754
755
7553
756
7565
75653886
757
758
759
76
760
761
762
763
764
7648
765
766
767
768
769
77
770
7707
771
772
773
774
775
776
777
778
779
78
780
7804
781
782
783
784
785
786
787
788
789
79
790
791
792
793
794
795
796
797
798
799
8
80
800
8000
801
802
8022
803
804
805
806
807
808
809
81
810
811
812
813
8132
8133
814
815
816
81631189
817
818
819
82
820
821
822
823
824
825
826
827
828
829
829984
83
830
830106
831
83157917
832
833
834
835
836
837
838
839
84
840
841
842
843
844
845
846
847
848
849
85
850
851
852
85270
853
854
855
856
857
858
859
86
860
861
862
863
864
865
866
867
868
869
87
870
871
872
873
874
875
876
877
878
879
88
880
881
882
883
884
885
88500
886
887
888
889
89
890
891
892
893
894
895
896
897
898
899
9
90
900
9000
901
902
903
904
905
906
907
908
909
91
910
911
912
912887
913
914
915
916
917
918
919
92
920
921
922
923
924
925
926
927
928
929
93
930
931
932
933
934
935
936
937
938
939
94
940
941
942
943
944
945
946
947
948
949
95
950
951
952
953
954
955
956
95606922
957
958
959
96
960
961
962
963
964
965
966
9666315467
967
968
969
97
970
971
972
973
974
975
976
977
978
979
98
980
981
982
983
984
985
986
987
988
989
99
990
991
992
993
994
995
996
997
998
999
:
;
<
=
>
?
@
[
\
]
^
_
`
a
aa
aaron
aasta
ab
abc
abes
abgerufen
about
above
abraham
abs
abstract
ac
acad
acade
academia
academic
academy
access
accessdate
accessed
according
account
ace
acer
acid
acids
acm
across
act
acta
action
activation
active
activity
actor
actress
ad
adam
adams
add
address
adds
administration
administrative
adobe
adolf
adrian
adult
advance
advanced
advances
adventure
adventures
ae
aero
af
affairs
afghanistan
africa
african
after
ag
again
against
age
agency
agent
ages
agreement
agriculture
agrilus
ah
ahead
ai
aid
ain
air
airbus
aircraft
aires
airlines
airport
airways
ais
aise
aj
ak
akademia
akademie
akademii
al
alabama
alan
alaska
alba
albania
albert
alberto
album
albums
alegeri
ales
alessandro
alex
alexander
alexandra
alfa
alfred
algorithm
algorithms
ali
alice
alien
aligned
alive
all
alla
allan
allen
allgemeine
alliance
allied
allies
allium
allmovie
allmusic
allocine
allplayers
alma
aloe
alone
alpha
alpine
als
also
alt
alternative
always
am
amanda
amaryllidaceae
amazing
amazon
ambassador
amc
amd
ame
america
american
americana
amg
amnesty
among
amore
amp
amsterdam
amt
amy
an
ana
analysis
anas
anatomy
ancient
and
anders
anderson
andre
andrea
andreas
andreeva
andrew
android
andrzej
andy
angel
angeles
angewandte
anglo
ani
animal
animals
animation
anime
ann
anna
annales
annals
annapolis
anne
anniversary
anno
announce
announced
announces
annual
another
ans
ant
antarctic
anthony
anthus
anti
anton
antoni
antonio
anua
anual
any
ao
aou
ap
apache
api
apollo
app
apple
application
applications
applied
approach
approved
approx
apr
april
ar
arab
arabia
arc
arch
archaeological
archaeology
archinform
architecture
archiv
archive
archived
archives
archiveurl
arctic
are
area
areas
arena
argentina
arh
aria
arizona
arm
armenia
armenian
arms
armstrong
army
arnold
around
array
ars
arsenal
art
arte
arthur
article
articles
artificial
artist
artists
arts
arxiv
as
asia
asian
asp
asparagus
aspects
aspx
assassin
assault
assembly
assessment
associated
associates
association
associations
asteraceae
aston
astra
astragalus
astro
astron
astronomical
astronomy
astrophys
astrophysical
astrophysics
at
atari
athens
athletes
athletics
atlanta
atlantic
atlas
atmospheric
atomic
atp
attack
attribution
au
audi
audio
auf
auflage
aug
august
aujourd
aus
austin
australia
australian
austria
austrian
author
authority
authors
auto
automoto
aux
av
available
avant
avec
avengers
aves
aviation
avibase
avn
award
awards
away
ax
az
azerbaijan
b
ba
baby
back
background
bad
baden
bafta
bailey
baker
balance
ball
baltic
baltimore
ban
band
bang
bangladesh
bank
banks
bar
barbara
barcelona
barnes
barry
bas
base
based
basic
basin
basis
basketball
bass
batman
battle
bay
bayerische
bayerischen
bb
bbc
bbrc
bc
bd
bdfutbol
be
beach
bear
beast
beat
beatles
beautiful
beauty
because
beck
become
becomes
been
before
begin
beginning
begins
behavior
behind
bei
beijing
being
beitra
belarus
belgium
believe
bell
ben
benjamin
bennett
benz
ber
berg
berger
berkeley
berlin
bernard
best
beta
betta
better
between
bevo
beyond
bf
bg
bhutan
bi
bibcode
bible
biblio
bibliographisches
bibliography
bibliothe
bieber
big
biggest
bill
billboard
billion
billy
bin
binding
bio
biochem
biochemistry
biodiversity
biograficzny
biographical
biographie
biographisches
biography
biol
biological
biology
biophys
bird
birdlife
birds
biroul
birth
birthday
bis
bishop
bit
biz
bl
blabbermouth
black
blackwell
blind
block
blog
blogs
blogspot
blood
bloomberg
blu
blue
blues
bluetooth
bmatrix
bmw
bner
bnf
bo
board
boat
bob
body
boeing
boldsymbol
bomb
bon
bond
bone
book
books
boot
border
boris
born
borough
boss
boston
bot
botanical
botany
both
box
boxing
boxrec
boy
boys
bp
br
bra
bradley
brain
branch
brand
brandenburg
brasil
bratislava
braun
brazil
break
breaking
brian
bridge
brief
brill
bring
bristol
britain
britannica
british
broadcasting
broadway
brockhaus
broken
brooklyn
bros
brother
brothers
brown
browser
bru
bruce
bruno
bryan
bts
bu
buck
budapest
buenos
build
building
bulbophyllum
bulgaria
bull
bullet
bulletin
bureau
burke
burns
bus
busch
bush
business
but
butler
buy
bwv
by
byzantine
c
ca
cabinet
cable
cactus
cada
cafe
calendri
calidris
california
call
called
calls
cambridge
came
camera
cameron
camp
campaign
campbell
camponotus
can
canada
canadian
cancer
cannes
canon
cap
cape
capital
capitol
captain
car
carabus
carbon
card
care
career
carex
cargo
caribbean
carl
carlo
carlos
carol
carolina
caroline
carrier
cars
carter
cas
casa
case
cases
cash
cassini
cast
castle
cat
catalana
catalog
catalogue
category
catherine
catholic
cato
cause
cave
cbc
cbs
cc
cd
cdc
cdna
cdot
cdots
cdp
ce
cell
cells
cellular
celtic
censos
census
cent
center
central
centre
centuries
century
ceo
certifications
cf
cgi
ch
cha
chain
chains
challenge
chamber
champion
champions
championship
championships
chan
chance
chang
change
changes
changing
channel
chaos
chapman
chapter
character
characteristics
characterization
characters
charadrius
charakteristika
charles
charlie
charlotte
chart
charts
che
check
checklist
chelsea
chem
chemical
chemistry
chen
cher
chess
chessgames
chevrolet
chi
chicago
chief
chiefs
chiffres
child
children
chile
china
chinese
cho
choice
chris
christ
christian
christie
christine
christmas
christoph
christopher
chromosome
chronicle
chronicles
chronology
chrysler
church
ci
cia
ciach
cie
cifras
cine
cinema
cio
circ
circle
circus
cit
cite
cites
cities
citroe
cittadini
city
citypopulation
civil
civilization
ck
cl
claims
claire
clan
clark
clarke
class
classic
classical
classics
classification
claude
cle
clerck
click
climate
climatology
clinical
clio
cloning
close
cloud
club
cluster
cm
cn
cnmnc
cnn
co
coach
coast
code
codes
coding
cohen
col
cold
cole
coleophora
coleoptera
colin
coll
collected
collection
collections
college
collegium
collins
colombia
colon
color
colt
columbia
com
combat
combinedfleet
come
comedy
comes
comet
comic
comics
coming
command
commander
commentary
commerce
commercial
commission
commitee
committee
common
commons
commonwealth
commun
commune
communes
communication
communications
community
companies
companion
company
comparative
comparison
compendium
competition
complete
complex
composition
comprehensive
comptes
computational
computer
computing
comune
con
concept
concert
conde
conference
confirmed
confirms
conflict
congo
congress
connection
connor
conquest
conservation
const
constant
constitution
construction
consulte
contact
containing
contemporary
content
contest
context
continental
contract
contribution
contributions
control
convention
convert
conway
cook
cool
cooper
copa
copy
core
cornell
corona
coronavirus
corp
corporate
corporation
corps
corpus
correspondence
cortex
cortinarius
cos
cost
costa
could
council
count
countdown
counter
counties
countries
country
counts
county
coupe
course
court
cov
cover
covid
cox
cp
cr
craig
crash
crazy
crc
creation
creative
credits
creed
creek
cretaceous
crew
crime
criminal
crisis
critical
critics
croatia
croatian
cross
crown
cruz
cry
crystal
cs
ct
cu
cult
cultural
culture
cum
cup
current
curtis
cut
cv
cvk
cw
cy
cycle
cyprus
cz
czech
d
da
daily
daimler
dal
dallas
dam
dame
dan
dana
dance
dancing
daniel
danish
dans
dark
das
data
database
datasets
date
datenbank
dates
daughter
dave
david
davies
davis
dawn
day
days
db
dc
dd
ddr
de
dead
deadline
deal
dean
death
deaths
debut
dec
december
decennial
decentralization
decision
deep
def
default
defence
defense
definition
degli
dei
del
delhi
dell
della
delle
delta
deluxe
dem
demand
democracy
demografica
demographic
den
denis
denise
denmark
dennis
department
dependent
depo
depuis
der
des
description
desde
desert
design
destroyers
det
detail
details
detection
detector
detroit
deutsch
deutsche
deutschen
deutscher
deutschland
dev
developer
development
devil
dezember
df
dh
di
dia
diamond
diana
diccionario
dick
dictionary
dictionnaire
did
die
diego
dies
diesel
dieter
different
digest
digital
din
dinosaurs
dio
dir
direct
direction
director
directory
dirty
discography
discogs
discovery
discussion
disease
diseases
disney
display
displayauthors
displaystyle
distribution
district
dition
ditions
diversity
division
divisions
dj
djvu
dk
dla
dn
dna
dnia
dniu
do
doc
docs
doctor
document
documentary
documents
dodge
does
dog
doi
dom
domain
domainfalsefalse
domainpublic
domestic
don
donald
donne
donsker
doom
door
dos
dot
dots
double
doubleday
doubles
douglas
dover
down
download
dp
dr
draft
dragon
dragons
drama
draw
draws
dream
dreams
drive
drop
drug
drugs
druk
ds
dt
du
dual
dublin
due
duke
duponchel
during
dutch
duty
dvd
dw
dx
dy
dylan
dynamic
dynamics
dynasty
dz
dzenie
dziejo
dztwa
dztwie
e
ea
each
eagle
earl
earliest
early
earth
east
eastern
easy
ec
echo
ecology
economic
economics
economist
economy
ed
edgar
edge
edicions
edinburgh
edit
edited
edition
editions
editor
editorial
editors
eds
edu
education
educational
edward
edwards
ee
eesti
effect
effective
effects
efloras
egypt
egyptian
ehess
ei
eight
ein
eine
einer
einwohnerzahlen
ek
ekonomicznych
el
elachista
election
elections
electoral
electric
electronic
electronics
elegans
element
elements
elisabeth
elite
eliteprospects
elizabeth
ell
elle
elliott
ellis
elor
else
elsevier
em
emberiza
emergency
emi
emily
emma
empire
emploi
en
enciclope
enciclopedia
enciklopedija
encoding
encyclopaedia
encyclopedia
encyclopædia
encyklopedia
end
energy
enero
eng
engine
engineering
england
english
enter
enterprise
entertainment
entoloma
entre
entry
environment
environmental
ep
epic
episode
epsilon
equiv
er
era
eric
erich
ericsson
erik
ernest
ernst
es
esa
escape
eske
esky
espan
esper
espn
espreso
esquire
essays
essential
est
estati
estimates
estonia
esu
et
eta
etc
ethernet
ethnic
ethnologue
etno
eu
eugene
eupithecia
eur
euro
eurogamer
europa
europaea
europe
european
eurostat
eurovision
ev
eva
evaluation
evans
eve
even
evening
event
events
ever
every
everything
evidence
evil
evolution
evolutionary
ex
example
exchange
exclusive
executive
exhibition
exp
expansion
expedition
experience
experimental
expert
exploration
explorer
express
expressed
expression
extended
extra
extragalactic
extreme
eye
eyes
ez
f
fa
faber
fabricius
face
facebook
faces
fact
factbook
factfinder
factor
factors
factory
facts
fair
faith
falco
falcon
fall
falls
false
fame
families
family
famous
fan
fans
fantasy
faq
far
farm
fashion
fast
fat
fate
father
fauna
fbref
fc
fda
fe
fear
feat
feature
features
featuring
feb
february
federal
federation
feel
felix
fellgiebel
female
feminist
ferdinand
ferna
fernando
ferrari
fest
festival
fever
ff
ffer
fi
fiat
fick
fiction
fide
field
fields
fifa
fifth
fight
fighter
fighting
figure
figures
file
files
film
filmportal
films
fina
final
finals
finance
financial
find
fine
finger
finland
finnish
fire
firefox
first
fis
fiscaux
fischer
fish
fishbase
fisher
fishes
five
fl
flag
flash
fleet
fleming
flight
flora
florida
flow
flowers
floyd
fly
flycatchers
flying
fm
fn
fo
focus
folk
following
food
foot
football
footballdatabase
footballfacts
footbook
for
forall
forbes
force
forces
ford
foreign
forel
forest
forever
forgotten
form
format
formation
former
forms
formula
fort
fortschreibung
fortune
forum
forward
fossil
foster
found
foundation
foundations
four
fourth
fox
fr
fra
frac
frame
framework
franc
france
francesco
francis
francisco
franco
frank
frankfurt
franklin
franz
fre
fred
frederick
free
freedom
freeman
french
friday
friedrich
friend
friends
fritz
froese
from
front
frontier
ft
fte
fu
full
fun
function
functional
functions
fund
fungi
fungorum
fussballdaten
future
fx
g
ga
gabriel
galaxy
gale
gallery
gallimard
game
gamer
gamerankings
games
gamespot
gaming
gamma
gaon
gap
garci
garden
gardens
gardner
gary
gas
gate
gates
gay
gazeta
gazette
gazetteer
gb
gc
gdan
ge
gear
gebietsstand
gemeinden
gen
gender
gene
genealogics
genealogy
genera
general
generation
generis
genes
genesis
genet
genetic
genetics
geni
genius
genocide
genome
genomics
genus
geo
geoffrey
geograficzny
geographic
geographical
geography
geological
geology
geometry
geonames
geonet
georg
george
georges
georgia
geq
ger
gerais
gerald
gerhard
german
germany
germplasm
geschichte
geschlecht
gesellschaft
get
gets
getting
ghidul
ghost
gi
giant
gibson
gilbert
gill
gionales
gions
giovanni
girl
girls
github
giuseppe
give
gives
gl
glass
gli
global
globalenergyobservatory
globe
gloria
glory
gm
gmbh
gmina
gminach
gminy
gnome
gnu
go
goal
god
gods
goes
going
gold
golden
golf
gone
good
google
gordon
got
gov
government
gp
gps
gr
gra
grace
graham
grammy
gran
grand
grande
grant
graph
graphics
graphs
grave
gray
gre
great
greatest
greece
greek
green
greenwood
greg
gregory
grey
grid
grin
gro
ground
group
groups
grove
growth
gru
grundlage
grup
gruyter
gs
gsc
gsmarena
gt
gu
guardian
guerra
guide
guides
guinea
guitar
gulf
gun
guns
gus
gustav
guy
gło
h
ha
had
hal
half
hall
halo
hamburg
hamilton
hammer
hampson
han
hand
handbook
handbuch
hands
hans
happy
hard
harold
harper
harris
harrison
harry
hart
harvard
harvey
has
hasta
hat
hautes
have
haven
hawaii
haworth
hbar
hbo
hd
he
head
heads
health
heart
hearts
heat
heaven
heavy
hecho
hedgehog
heer
heidelberg
heinrich
heinz
held
helen
hell
hello
helm
help
helsinki
henri
henry
her
herald
herbarz
herbert
here
heritage
hermann
hero
heroes
herrich
het
hg
hgmn
hgnc
hi
hidden
hierarchy
high
higher
highway
hijmans
hilary
hill
hills
him
hindu
hip
hipparcos
his
histo
histoire
historia
historic
historical
historicus
historii
historique
history
hit
hitler
hitparade
hits
hk
hl
hms
ho
hockey
hoffmann
hold
holding
holdings
hole
holiday
holland
hollywood
holmes
holocaust
holstein
holy
home
homepage
homme
homo
honda
hong
honor
hop
hope
hopkins
horizon
horizons
horror
horse
hospital
host
hot
hotel
hour
hours
house
housing
houston
how
howard
hoyo
hp
hr
hromadske
hrsg
htm
html
http
https
hu
huang
huawei
hub
hudson
hufnagel
hugh
hughes
hugo
hui
hum
human
humans
hung
hungarian
hungary
hunt
hunter
hurricane
hustota
hybrid
hydro
hydroelectric
hyundai
i
ia
iaaf
ian
iata
iau
ib
ibm
ic
icao
icarus
ice
iceland
ich
ictv
id
idea
identifiants
identification
identity
ie
iec
ieee
iei
if
ifpi
ign
ii
iihf
iii
ij
ik
il
illinois
illustrated
im
ima
image
images
imdb
imienia
impact
imperial
implications
import
important
in
ina
inc
inch
including
income
incorporated
independence
independent
index
india
indian
indiana
individual
indonesia
induced
industrial
industries
industry
ine
infanterie
infantry
infinite
influence
info
inform
information
infty
inhaber
inhabitants
innovation
innych
inocybe
insee
inside
insider
instagram
institut
institute
institution
instituto
instytut
int
integrated
intel
intelligence
inter
interaction
interactive
interface
interior
international
internationale
internet
interview
into
introduction
invasion
investigation
io
ioc
ion
ios
ip
ipa
ipad
iphone
ipni
ir
iran
iraq
irbis
ireland
iris
irish
iron
is
isaac
isbn
islam
islamic
island
islands
iso
isolation
israel
israeli
iss
issn
issue
issues
ist
istanbul
istat
it
italia
italian
italiana
italy
item
itf
itis
its
itunes
iu
iucn
iv
ivan
ix
iz
j
ja
jack
jackson
jacob
jacques
jaguar
jahre
jam
james
jan
jane
january
janvier
japan
japanese
jason
java
javascript
jay
jazz
jbc
je
jean
jeff
jeffrey
jena
jenkins
jennifer
jensen
jeremy
jerry
jersey
jerusalem
jerzy
jessica
jesu
jesus
jet
jewish
jews
jg
ji
jim
jimmy
jin
jo
joachim
joan
jobling
joe
joel
johan
johann
johannes
john
johnny
johns
johnson
johnston
join
joins
joint
jon
jonathan
jones
jordan
jorge
jose
josef
joseph
josh
joshua
journal
journals
journey
joy
jp
jpg
jpl
jr
js
jstor
ju
juan
julia
julian
julius
july
jump
jun
june
jung
junior
jupiter
just
justice
justin
k
ka
kai
kaiser
kansas
karen
karl
kate
kazimierz
kb
kc
kde
ke
keep
keith
kelly
ken
kennedy
kenneth
kent
kenya
kepler
kevin
kew
key
kg
kh
khan
kharkov
ki
kia
kid
kids
kiev
kill
killed
killer
killing
kim
kinase
kind
kindred
king
kingdom
kings
kino
kirk
kiss
kit
kladna
klaus
klein
km
kmu
knight
know
knowledge
known
ko
koch
koda
kommandanten
kong
korea
korean
korona
korrespondent
kos
kosovo
kp
kr
krako
kreise
krieg
kro
ks
ksia
ksie
kt
kto
ku
kunst
kurt
kyiv
kz
l
la
lab
label
labor
laboratory
labour
ladies
lady
lake
lambda
lambert
lan
land
landesamt
landesamtes
lands
lane
lang
langle
language
languages
lanka
large
largest
larry
lars
las
last
lat
late
later
latest
latin
lau
launch
launches
laura
laurent
law
lawrence
laws
lb
lc
ld
ldots
le
lead
leader
leaders
leads
league
learning
leave
leaves
leben
lections
lecture
led
lee
left
legacy
legal
legend
legends
lego
leiden
leipzig
leksikon
length
lenta
leo
leon
leonard
lepidoptera
leq
leqslant
les
leslie
less
lestwa
let
lett
letter
letters
letzten
level
lewis
lex
lexikon
lez
lg
li
lib
liberty
library
libris
license
lico
lie
lietuvos
life
liga
light
lights
like
lil
lim
limitation
limited
limits
lin
lincoln
linda
line
linear
lines
linguistics
lingvarium
link
linked
links
linnaeus
linux
lion
lisa
lisboa
list
lista
listen
lists
literary
literature
lithuania
little
liu
live
livejournal
liverpool
lives
living
lkerung
lkerungsstand
lkerungsstandes
ll
llc
ller
lloyd
ln
lo
loadmap
loan
local
locale
localita
localization
location
lockheed
locuint
locus
log
logic
logo
london
lonely
long
longrightarrow
look
looking
lord
los
loss
lost
lotus
louis
louise
love
loves
low
lower
lp
lt
ltd
lu
lua
lublin
lucas
ludnos
ludnosc
ludwig
luftwaffe
lui
luis
luke
lunar
lundy
lutz
lv
lviv
lvivcenter
lwo
lwowa
lwowie
lwowskiego
lynx
lyon
m
ma
mac
macbook
macdonald
machine
macmillan
mad
madagascar
made
madrid
mag
magazine
magic
magnetic
magnum
magyar
mai
mail
main
major
make
makes
making
malaysia
malcolm
male
mali
malta
mammal
mammalia
mammalian
mammals
mammillaria
man
management
manager
manchester
manfroid
manga
mann
manual
manuel
many
map
mapping
mapquest
maps
mar
marc
marca
marcel
march
marco
marcus
mare
marek
margaret
mari
maria
marie
marilyn
marina
marine
mario
maritime
mark
market
marketing
marriage
mars
marshall
marti
martin
marvel
mary
maryland
mas
mashke
mason
mass
massachusetts
massive
master
masters
match
matches
material
materials
math
mathbb
mathbf
mathcal
mathematical
mathematics
mathfrak
mathrm
mathworld
matrix
matt
matter
matthew
maurice
max
may
maya
mayor
mayr
mb
mbc
mbox
mc
mcb
mcgraw
md
me
mean
meaning
mechanics
med
medal
media
medical
medicine
medien
medieval
mediterranean
medium
meet
meeting
mega
melbourne
member
members
membership
membrane
memoirs
memorial
memories
memory
men
mendes
mental
mer
mercedes
mercury
mes
message
met
meta
metacritic
metal
metallica
meter
method
methods
metro
metropolitan
mexico
meyer
meyrick
mg
mgc
mgm
mh
mi
mia
miami
miasta
michael
michel
michelle
michigan
microsoft
mid
middle
midnight
mie
miejscowos
might
migration
miguel
mike
mil
milan
milano
miles
military
millennium
miller
million
min
mind
mindat
mine
mineral
mineralogical
mineralogy
minerals
mini
mining
minister
ministra
ministry
minnesota
minor
minorplanetcenter
minsk
minut
minutes
mir
mirror
miss
missile
missing
mission
mit
mitchell
mitochondrial
mitsubishi
mix
mixed
mk
ml
mls
mm
mn
mo
mobile
mod
mode
model
modeling
models
modern
modifiant
module
mojo
mol
moldova
molecular
molecule
moment
mon
monaco
monday
monde
money
monitor
monster
monte
month
monthly
montreal
monuments
moon
moore
more
morgan
morning
morphology
morris
mortal
moscow
most
mother
motion
moto
motogp
motor
motors
mount
mountain
mountains
mouse
move
movement
moves
movie
movies
mozilla
mp
mr
mrs
ms
mt
mtv
mu
much
multi
multiple
mundo
municipal
municipale
municipalities
municipality
municipii
munzinger
murder
murphy
murray
muse
museo
museum
museums
music
musical
must
mv
mw
mx
my
mycena
mycobank
myspace
mystery
myth
mythology
n
na
nabla
nach
nacional
nad
nages
name
named
names
nancy
narod
narodowy
nas
nasa
nat
nathan
nation
national
nationalbibliothek
nationale
nationalita
nations
native
natl
nato
natur
natural
nature
nauk
naval
naver
navy
nb
nba
nbc
nbuv
nc
nchen
nd
nde
nder
ndez
ne
near
need
neil
nel
nellie
nelson
neo
neq
ner
nes
nestor
net
netflix
netherlands
network
networks
neue
neural
neuroscience
never
new
news
newspaper
newsru
newsweek
newton
next
nez
nf
ng
ngc
nh
nhl
ni
nia
nica
nice
nicholas
nichols
nick
nicolas
nicole
nie
niedersachsen
niei
nielsen
niesiecki
niger
nigeria
night
nih
nine
nintendo
nirvana
nissan
nj
nk
nl
nm
nme
nn
no
noaa
nobel
noble
node
nokia
nombres
nomencla
nomenclature
nominations
nominees
non
nord
norderstedt
nordic
normal
norman
north
northern
norton
norway
norwegian
nos
not
note
notes
nothing
notice
notices
nouvelle
nov
nova
novel
november
now
nowy
np
npr
nr
ns
nsv
nt
nther
ntul
nu
nuclear
null
number
numberedmps
numbers
nuts
nv
nvidia
ny
nyc
nytimes
nz
o
obce
obci
obituary
object
observations
observatory
observer
obyvatel
ocean
och
oclc
oct
october
od
oder
odessa
of
off
office
official
officiel
offshore
oficial
oficiales
og
oh
ohio
oil
ois
ok
ol
old
olimpbase
oliver
olympedia
olympic
olympics
om
omega
on
once
one
online
only
ontario
op
opel
open
opening
opens
openstreetmap
opera
operation
operations
operatorname
opinion
oplus
optical
option
opus
or
oracle
oragos
oral
orange
oras
orchestra
order
orders
oregon
org
organisation
organization
oricon
oriental
orientalis
origin
original
origins
ornithologists
orthodox
os
oscar
osnabru
osprey
ossolin
ost
other
others
otto
ottoman
ou
oup
our
out
ov
ova
over
overline
overview
owen
own
oxford
oz
p
pa
pacific
pack
package
padro
page
pages
pai
pain
painting
pakistan
pal
palace
paleontology
palestine
palgrave
pallas
palm
palmer
pamela
pan
pandemic
panorama
panoramio
panzer
paper
papers
par
para
paradise
paramount
paris
park
parker
parks
parliament
part
partementales
partial
partir
partner
partners
party
pas
pascal
pass
past
patent
path
patients
patricia
patrick
pattern
patterns
patzwall
paul
paulo
pauly
pay
pays
pb
pc
pdf
pe
peace
peak
pearl
pearson
pedro
peerage
pen
penguin
penicillium
pennsylvania
people
peoples
per
percent
pereira
perfect
performance
period
perry
person
personal
personen
persons
perspective
perspectives
peru
peste
peter
peters
petit
peugeot
pfalz
pg
ph
phalaenopsis
phase
phc
phd
pheidole
phi
phil
philadelphia
philip
philippe
philippines
phillips
philosophical
philosophy
phoenix
phone
phosphorylation
photo
photos
php
phyllonorycter
phylloscopus
phylogenetic
phylogenetics
phylogeny
phys
physical
physics
physiology
pi
piano
picture
pictures
pie
pierre
pilot
pink
pinus
pioneer
piotr
pipeline
pitchfork
pl
place
places
plan
plane
planet
planetary
planning
plans
plant
plantbase
plants
plate
platform
platinum
play
player
players
playing
playmakerstats
playstation
plc
pliko
plos
pls
plus
pm
pmatrix
pmc
pmid
pnas
png
po
poblacio
poblacionales
poblaciones
poc
pocket
pod
podl
poe
poetry
pohlavia
point
points
poje
poland
police
policy
polish
political
politics
polsce
polska
polski
polskich
polskie
polskiego
polskiej
polygon
pone
pop
populac
popular
populat
population
populations
por
porsche
port
portal
porter
porto
portrait
portugal
portuguese
poshta
position
positive
possible
post
postal
potential
potter
pour
power
powierzchnia
poz
poznan
pp
pr
practical
practice
praha
pravda
pre
predefiniowanych
prediction
preliminary
premier
premiere
prentice
present
president
presidential
press
presse
pressure
prevention
preview
pri
price
pride
prima
primari
primary
prime
prince
princess
princeton
principles
print
printing
private
prix
prize
pro
probability
problem
problems
proc
proceedings
process
processes
processing
product
production
productions
products
prof
professional
professor
profil
profile
profiles
program
programme
programming
progress
project
projects
prometheus
properties
prosopography
protection
protein
proteins
protocol
province
provincia
przekroju
przewodnik
przez
przy
ps
psi
psychological
psychology
psychotria
pt
pterostichus
pu
pub
public
publication
publications
publicznej
published
publisher
publishers
publishing
pubmed
puis
punk
pure
purple
put
putin
py
python
q
qatar
qquad
qt
quad
qualifying
quality
quantum
quartal
quarterly
que
queen
quercus
quest
question
questions
qui
quickfacts
quid
quo
r
ra
race
rachel
racing
rad
rada
radac
radeon
radiation
radio
rafael
rahvaloendus
rai
rail
railway
railwayz
rain
rainbow
rainer
ralph
ram
random
range
rangle
ranking
rankings
rap
rapid
rare
ras
rasmussen
rat
rate
rating
ratings
ration
raw
ray
raymond
rb
rc
rca
rd
re
read
reader
reading
ready
real
reality
really
rebecca
rebel
rec
recensa
recensami
recenseamentos
recensement
recent
receptor
recipients
recognition
record
recorded
recording
recordings
records
red
redmi
reed
ref
reference
references
regiment
region
regional
regions
regioset
register
regulation
reich
reid
reign
rejestr
relacio
related
relations
relationships
relative
release
released
releases
religion
religious
remington
remix
renaissance
renault
rene
renson
rentiels
report
reporter
reports
reprint
reptile
reptiles
repubblica
republic
republiky
required
res
research
reserve
residence
resident
resistance
resolution
resource
resources
respectivos
response
result
results
retrieved
return
returns
reuters
rev
reveal
revealed
reveals
revenus
review
reviews
revised
revisio
revision
revista
revngcic
revolution
revue
rex
rey
rez
rfc
rg
rgen
rheinland
rho
ri
ria
riaa
rica
rice
rich
richard
rick
rico
ricordi
ride
rie
rifle
right
rightarrow
rights
riilor
ring
ringer
rio
riot
rise
rising
risk
rite
ritterkreuztra
river
rk
rkdartists
rm
rn
rna
ro
road
rob
robert
roberto
roberts
robertson
robin
robinson
roc
rock
rocket
rodrigues
roger
rogers
rok
roku
roland
role
roll
rolling
rolls
rom
roma
roman
romance
romania
romanian
romano
rome
romeo
ron
ronald
room
roots
ros
rosa
rose
ross
rotten
round
route
routledge
rover
row
roy
royal
royce
rozloha
rozporza
rpm
rr
rs
rsssf
rt
rttemberg
ru
rubus
ruby
rudolf
rule
rules
run
running
rus
rush
russell
russia
russian
russula
ruth
rv
ry
ryan
rycerstwa
rz
rzeczypospolitej
s
sa
safety
saga
sage
said
saint
sainte
sale
sales
salt
salvador
salvia
sam
same
samsung
samuel
san
sans
sant
santa
santos
sar
sara
sarah
sars
satellite
saturday
saturn
saudi
savage
save
say
says
sb
sbc
sc
scale
scene
scha
schedule
scherzer
schiffermu
schiffermuller
schleswig
schmadel
schmidt
schneider
scho
scholar
school
schools
schuster
sci
science
sciences
scientific
scientist
scientists
scopoli
scopus
score
scotland
scott
scottish
screen
script
sd
se
sea
sean
search
season
seattle
sebastian
sec
second
secret
secretary
secrets
section
security
seds
see
sega
seine
select
selected
selection
self
selon
semi
sen
senate
sep
september
sequence
sequences
ser
serie
series
server
service
services
ses
session
set
setlabeldescriptionaliases
sets
settlement
seven
seventh
sex
sexe
sexual
sf
sfd
sg
sh
sha
shadow
share
shaw
shawn
she
sheet
shell
shi
ship
ships
shock
shooting
shop
short
shot
should
show
shows
shtml
si
sic
side
sie
siemens
sierra
sig
sigma
sign
signal
signs
silence
silene
silent
silva
silver
sim
simbad
simc
simon
simple
simpson
simpsons
sims
sin
since
sing
singapore
singer
singh
single
singles
sio
sir
sister
site
sites
situation
six
size
sj
sk
ska
ski
skich
skie
skiego
skl
skorowidz
sky
sl
sla
sleep
slims
slovak
slovenskej
sm
small
smart
smith
smithsonian
sms
sn
snac
snow
so
soc
soccer
soccerbase
soccerpunter
soccerway
social
sociales
socie
societatis
society
sodbtn
sofia
soft
software
solanum
solar
solaris
soldier
soldiers
solid
solo
solution
solutions
some
something
son
song
songs
sonic
sons
sony
sophie
sos
soul
sound
sounds
soundtrack
source
sources
sous
south
southeast
southern
soviet
sowie
sp
spa
space
spacex
spain
span
spanish
spatial
special
species
specific
specifications
spectrum
speculative
speech
speed
spencer
spider
spiegel
spin
spirit
split
sport
sportbox
sports
spotify
spp
spraw
spring
springer
spy
sql
sqrt
squad
square
sr
sri
ss
sse
st
sta
staatsbibliothek
stabila
stadium
stadt
staff
stage
stainton
stan
stand
standard
standards
stanford
stanisław
stanley
stanu
star
staroz
stars
start
starts
stat
state
statement
states
static
station
statistical
statistics
statistik
statistika
statistikamt
statistisches
stats
status
statystyce
statystycznych
staudinger
stay
ste
steam
steel
stefan
stellar
step
stephen
sterreich
sterreichischen
steve
steven
stevens
stewart
stica
stichtage
stigmella
still
sto
stock
stockholm
stone
stones
stop
storage
store
storia
stories
storm
story
stosowane
str
straight
strange
stranieri
strategic
strategy
stray
stream
street
strike
string
strong
structura
structural
structure
structures
struggle
sts
stuart
student
students
studia
studien
studies
studio
studios
study
stuttgart
stva
style
su
sub
subcounty
subfamily
subject
subset
subsp
subunit
success
sui
suicide
suite
sullivan
sultats
sum
summary
summer
summit
sun
sunday
super
supplement
support
sur
surface
surfaces
surrey
survey
survival
susan
suzuki
sv
svensk
svenska
sveriges
sweden
swedish
sweet
swift
swimming
swimrankings
swiss
switch
switzerland
sword
syd
sydney
symbols
symphony
symposium
syndrome
synthesis
syria
system
systematic
systematics
systems
słowian
słownik
t
ta
tab
tabelle
table
tables
tadeusz
tag
taiwan
take
takes
taking
tale
tales
talk
talks
tan
tang
tank
target
task
tatisticky
tau
taxonomic
taxonomy
taylor
tb
tc
tcm
tcp
td
te
tea
team
teams
teataja
teatr
teau
tech
technical
techniques
technologies
technology
ted
teen
teil
tel
telegram
telegraph
telescope
television
tell
temperature
temple
temps
ten
tennis
ter
teritorial
term
terminal
terms
terra
terror
terry
teryt
terytorialnym
tes
tesla
test
testing
tests
texas
text
texts
tfrac
tg
th
thailand
than
that
the
theater
theatre
theft
their
them
then
theory
thepeerage
therapy
there
these
theta
they
thing
things
think
third
this
thomas
thompson
thomson
those
thought
threatened
three
through
thu
ti
tico
tiger
til
tilde
till
tim
time
timeline
times
timothy
title
to
today
todd
together
tokyo
toll
tom
tomatoes
tome
tomorrow
tonight
tony
too
tool
tools
top
tor
toronto
torres
total
touch
tour
tourism
tournament
towards
towarzystwo
tower
town
towns
township
toyota
tr
tra
track
tracks
trade
tradition
traditional
traffic
trafficking
trail
trailer
train
training
trainingswissenschaft
trans
transactions
transcription
transfer
transfermarkt
transition
translated
translation
transmission
transport
transportation
travel
tre
treatment
treaty
tree
trees
treitschke
trek
trends
trial
tribune
tribute
tringa
triple
trophy
tropical
tropicos
true
trump
trust
truth
trznych
ts
tt
tu
tudes
tur
turbo
turdus
turkey
turkish
turn
turner
tv
tvorcovy
twentieth
twenty
twin
twitter
two
txt
ty
tyler
type
types
u
ua
ubisoft
uboat
ubuntu
udmurtija
uefa
ufc
uk
ukaz
ukr
ukrain
ukraine
ukrainian
ukrcensus
ukrcenter
ukrinform
ukrposhta
ulrich
ultimate
ultra
ultratop
um
un
una
und
under
underground
understanding
une
unesco
unian
unidades
union
uniprot
unit
united
units
unity
univ
universal
universe
universita
university
unix
unspecified
until
unveils
up
update
updated
uploads
upon
upper
uprom
ur
urban
url
uruguay
urza
urze
us
usa
usb
use
used
user
users
usgs
using
uss
ut
utc
utricularia
uz
v
va
vaccine
val
valley
value
van
vancouver
var
varepsilon
variety
various
varphi
vascular
vauthors
ve
vec
vegas
vehicle
vehicles
venezuela
venice
venus
ver
vera
verbandsgemeinden
verge
verlag
version
versus
vertebrate
very
vg
vi
via
viaf
vice
victor
victoria
victory
video
videos
vie
vienna
vietnam
view
vii
viii
viking
vila
villa
village
villages
ville
vilnius
vincent
violence
virgin
virginia
virtual
virus
vision
visit
vista
visual
vita
vitro
vivo
vizier
vk
vladimir
vo
vogue
voice
voices
void
vol
volkswagen
volume
volumes
volution
volvo
vom
von
vor
vote
voyage
vr
vs
vu
vy
w
wa
waffen
wagner
wales
walk
walker
walking
wall
wallace
walt
walter
wang
want
wants
war
warcraft
ward
warfare
warner
warr
warren
warrior
wars
warszawa
was
washington
watch
water
watson
wave
way
wayback
wayne
wba
wbc
we
weapons
weather
web
webcite
weber
website
webster
wedlug
według
week
weekend
weekly
wehrmacht
welcome
well
welle
wells
welt
weltkrieg
were
werner
wesley
west
western
wewne
what
when
where
which
while
white
whitney
who
why
wi
wide
wie
wieku
wien
wife
wii
wiki
wikimapia
wikimedia
wikipedia
wild
wildlife
wiley
wilhelm
will
william
williams
wilson
wimbledon
win
wind
windows
wine
wings
winner
winners
winning
wins
winter
wire
wired
wisconsin
wissen
wissenschaften
with
within
without
wka
wny
wo
wojewo
wolf
wolfgang
wolfram
woman
women
won
wonder
wood
word
wordpress
words
work
workforce
working
works
workshop
world
worldclim
worldfootball
worlds
worldwide
would
wp
wrestling
wright
writer
writers
writing
written
wrocław
ws
wszystkich
wta
wu
ww
wwe
www
wyd
wydawnictwo
x
xbiz
xbox
xi
xiaomi
xico
xii
xiii
xiv
xix
xl
xls
xlsx
xml
xp
xperia
xrightarrow
xu
xv
xvi
xvii
xviii
xx
xxi
xxii
xxiii
xxiv
xxv
xxvi
xxvii
xxviii
xxx
xy
y
ya
yahoo
yale
yang
ye
year
yearbook
years
yellow
yemen
yes
yi
yo
york
yorker
you
young
your
youth
youtube
yu
z
za
zagreb
zakon
zakład
zaxid
ze
zealand
zef
zeit
zeitschrift
zeitung
zeller
zensus
zeppelin
zero
zeszyt
zhang
zhou
zi
zik
zinc
zip
zm
zn
zone
zoological
zoology
zootaxa
zu
zum
zur
zweiten
zyka
{
|
}
~
¡
£
§
¨
©
ª
«
¬
­
®
¯
°
±
²
³
´
µ
·
º
»
¼
½
¾
¿
×
æ
ð
÷
ø
ı
ł
ło
ƒ
ɐ
ɑ
ɔ
ɕi
ə
ɛ
ɪ
ʃ
ʊ
ʋ
ʒ
ʰ
ʲ
ʷ
ʹ
ʻ
ʼ
ʿ
ˈ
ˌ
ː
˙
˚
̀
́
̂
̃
̄
̆
̇
̈
̉
̊
̋
̌
̏
̑
̓
̔
̛
̝
̞
̣
̥
̦
̧
̨
̪
̮
̯
̱
̸
͂
ͅ
͡
΄
α
ας
β
γ
δ
ε
ζ
η
θ
ι
κ
και
λ
μ
ν
να
ξ
ο
ου
π
ρ
ς
σ
τ
της
το
του
υ
φ
χ
ψ
ω
ϑ
ϕ
ϵ
а
аарон
аб
абаи
абатства
абатство
аббас
абд
абдул
абетка
абетки
аби
або
аборигенів
абрамович
абревіатура
абрис
абсолютна
абсолютнии
абсолютно
абсолютноі
абсолютну
абу
абхазіі
ав
авангард
авангарду
аваріи
аварію
аварія
аваріі
август
августа
августин
августина
авдіі
авеню
аверсі
авраам
авраама
аврора
австраліи
австралію
австралія
австраліі
австро
австріи
австрія
австрією
австріі
авт
авто
автобус
автобуса
автобуси
автобусів
автобіографія
автобіографіі
автомагістраль
автомагістралі
автомат
автомата
автомати
автоматизаціі
автоматики
автоматична
автоматичне
автоматичнии
автоматичних
автоматично
автоматичного
автоматичною
автоматичноі
автоматичні
автоматів
автомобілем
автомобіль
автомобільна
автомобільнии
автомобільних
автомобільного
автомобільноі
автомобільні
автомобіля
автомобілях
автомобілі
автомобілів
автономна
автономнии
автономних
автономного
автономноі
автономніи
автономію
автономіі
автопортрет
автор
автора
авторами
автореф
автори
авторитет
авторитетних
авторитетом
авторитету
авторка
автором
авторства
авторство
авторське
авторськии
авторських
авторського
авторськоі
авторські
автору
авторів
автосалоні
автошлях
автошляхом
автошляху
авіакомпаніи
авіакомпанія
авіакомпаніі
авіаносець
авіаносця
авіаносці
авіаносців
авіаціи
авіація
авіацією
авіаціі
авів
авіньи
ага
агент
агента
агенти
агентом
агентства
агентство
агентством
агентів
агенція
агенціі
агломераціі
аграрна
аграрнии
аграрних
аграрного
аграрноі
агрегат
агрегати
агрегатів
агресію
агресіі
агро
агроном
агропромислового
агітаціи
агітаціі
ад
ада
адам
адама
адамс
адаптація
адаптаціі
адвокат
адвоката
адвокатом
адвокатів
аделаі
адже
адлер
административно
административных
администрации
адміністративна
адміністративне
адміністративнии
адміністративним
адміністративних
адміністративно
адміністративного
адміністративному
адміністративною
адміністративноі
адміністративну
адміністративні
адміністратор
адміністратором
адміністратури
адміністраціи
адміністрацію
адміністрація
адміністрацією
адміністраціі
адміністрування
адмірал
адмірала
адміралтеи
адольф
адольфа
адрес
адреса
адреси
адресою
адресу
адріан
адріана
адріано
аеродром
аеродрому
аеродромі
аеропорт
аеропорти
аеропортом
аеропорту
аеропортів
аес
аж
аз
азартних
азбука
азерб
азербаи
азии
азов
азовського
азот
азоту
азіи
азію
азія
азіі
аи
ак
акад
академии
академия
академіи
академік
академіка
академіком
академічна
академічнии
академічних
академічного
академічному
академічноі
академію
академія
академією
академіі
акваторіі
аквітанія
акимата
акредитаціі
акт
акта
актами
акти
активаціі
активи
активна
активне
активнии
активним
активними
активних
активно
активного
активності
активною
активноі
активну
активні
активність
активністю
активів
активіст
активісти
активістка
активістів
актов
актом
актор
актора
акторами
актори
акторка
акторки
акторкою
актором
акторськии
акторського
акторськоі
акторську
акторів
актриса
актриси
актрисою
акту
актуальних
актуальні
акті
актів
акул
акула
акули
акустична
акушерськии
акцент
акцентом
акціи
акціонерне
акціонерного
акціонерів
акцію
акція
акціі
ал
алабама
алан
алана
аланін
алб
алба
албанія
албаніі
алгебра
алгебраі
алгебри
алгоритм
алгоритми
алгоритму
алгоритмів
але
алегорія
алеи
алекс
алекса
александер
александр
александра
александров
александрова
александрович
александровського
александру
александріи
александріі
алексеи
алексєєв
ален
алессандро
алея
алеі
алжир
алжиру
алжирі
алкоголь
алкоголю
алла
аллен
алма
алмаз
алмазів
алмати
алонсо
алоі
алтаи
алфавіт
алфавіту
аль
альба
альберт
альберта
альберто
альбом
альбоми
альбомом
альбому
альбомі
альбомів
альбрехт
альбрехта
альма
альманах
альманаху
альп
альпах
альпи
альпіи
альт
альта
альтернатива
альтернативи
альтернативна
альтернативнии
альтернативних
альтернативного
альтернативноі
альтернативні
альто
альфа
альфонс
альфонсо
альфред
альфреда
альфредо
альянс
альянсу
алюмінію
аляска
аляски
алі
аліна
аліса
ам
амазонки
амалія
аманда
аматорськии
аматорських
аматорського
аматорському
аматорів
амбулаторія
амер
америка
американець
американська
американське
американськии
американським
американськими
американських
американського
американському
американською
американськоі
американську
американські
американськіи
американці
американців
америки
америку
америці
амплітуда
амстердам
амстердамі
амур
амурскои
амурськоі
амінокислот
ан
ана
анализ
аналог
аналоги
аналогом
аналогів
аналогічна
аналогічнии
аналогічним
аналогічних
аналогічно
аналогічну
аналогічні
аналогією
анальнии
аналіз
аналізом
аналізу
аналізі
аналітична
аналітичнии
аналітичних
аналітичного
аналітичноі
аналітичні
ананьі
анастасія
анастасіі
анато
анатолии
анатоліи
анатолія
анатоліі
анатомія
анатоміі
анг
ангальт
ангел
ангела
ангели
ангелів
англ
англии
англо
англомовних
англомовному
англіи
англію
англія
англією
англіі
ангола
анголи
анголі
анд
андалусія
андерс
андерсон
анджеи
анджелес
анджелеса
анджелесі
анджело
анджея
андорри
андре
андреа
андреас
андреи
андрес
андрея
андрі
андріи
андрію
андрія
андрієм
андрієнко
андріі
анексіі
анжуи
анн
анна
анни
анною
анну
анні
анонс
анрі
ансамбль
ансамблю
ансамблі
антанти
антарктиди
антарктиді
антверпен
антени
анти
антибіотиків
антикорупціи
антитерористичноі
антитіл
антитіла
антиукраі
античних
античного
античності
античноі
античні
антологія
антологіі
антон
антона
антоненко
антонов
антонова
антонович
антоновича
антоніи
антоніми
антоніна
антоніо
антоніу
антонія
антропологіі
антуан
антін
антіохіи
антіохіі
ану
ані
аніж
анімаціи
анімація
анімаціі
аніме
ао
ап
апарат
апарата
апарати
апаратом
апарату
апаратури
апараті
апаратів
апеляціи
апк
аполлон
аполлона
апостол
апостола
апостольськоі
апостолів
апреля
апріорі
аптека
ар
араб
араби
арабська
арабськии
арабських
арабського
арабською
арабськоі
арабські
арабів
аравіи
аравія
аравіі
арагон
аранжування
арбітр
арбітра
аргентина
аргентини
аргентинськии
аргентині
аргумент
аргументи
аргументів
аргінін
арденни
арджеш
ареал
ареалу
арена
арени
ареною
арену
арені
арешт
арешти
арештовании
арештом
арешту
аризона
аристократів
аристократіі
арк
арка
аркадіи
аркадія
арканзас
арки
аркуш
аркуші
аркушів
армии
армия
армстронг
арміи
армію
армія
армією
арміі
арно
арнольд
аромат
арсен
арсенал
арсеналу
арсеніи
арср
арт
артаньян
артем
артема
артеріі
артефакти
артефактів
артилеріи
артилерію
артилерія
артилерією
артилеріі
артист
артиста
артисти
артистка
артистів
артур
артура
артіль
артілі
арх
архангела
архангельскии
архангельскои
архангельськоі
архаі
археолог
археологи
археологии
археология
археологів
археологічна
археологічнии
археологічних
археологічного
археологічноі
археологічні
археологія
археологіі
архив
архистратига
архитектура
архитектуры
архів
архівах
архіви
архівна
архівних
архівноі
архівні
архівована
архівовано
архіву
архіві
архівів
архімандрит
архімандрита
архіпелаг
архіпелагу
архіпелазі
архітектор
архітектора
архітектори
архітектором
архітекторів
архітектура
архітектури
архітектурна
архітектурнии
архітектурних
архітектурно
архітектурного
архітектурноі
архітектурні
архітектурою
архітектуру
архітектурі
архієпархіі
архієпископ
архієпископа
архієпископом
архієреи
аріи
арія
аріі
ас
асамблея
асамблеі
асистент
асистента
асистентом
асортимент
асоціаціи
асоціацію
асоціація
асоціацією
асоціаціі
асоціи
асоціюється
аспарагін
аспарагінова
аспект
аспекти
аспектів
аспірант
аспірантури
аспірантуру
аспірантурі
аспірантів
ассиріи
ассиріі
ассоциация
аст
астана
астероі
астон
астраханскои
астрель
астролябія
астронавти
астронавтів
астроном
астрономічнии
астрономічних
астрономічного
астрономія
астрономіі
астурія
ат
ата
атак
атака
атаки
атаку
атакував
атакували
атакувальноі
атакувати
атакує
атаці
аташе
атд
атеі
атланта
атлантики
атлантиці
атлантичнии
атлантичного
атлантичному
атлантичні
атланті
атлас
атлетика
атлетики
атлетік
атлетіко
атмосфера
атмосфери
атмосферних
атмосферного
атмосферу
атмосфері
ато
атол
атом
атома
атоми
атомна
атомних
атомноі
атомів
атрибут
атрибути
атрибутів
атф
аудит
аудиторію
аудиторія
аудиторіі
аудиту
аудіо
аукціоні
аул
ауылдық
афанасіи
афганістан
афганістану
афганістані
афк
афонсу
африка
африканська
африканськии
африканських
африканського
африканськоі
африканські
африки
африку
африці
афін
афінах
афіни
афіша
ах
ахеи
ахл
ахмад
ахмед
ацетилювання
ацтеків
аш
аякс
аі
б
ба
баб
баба
баби
бабин
бабич
бабуся
бабусі
бабіи
баварського
баварія
баваріі
багата
багате
багатии
багатим
багатих
багато
багатого
багатодітніи
багаторазовии
багаторазово
багаторічна
багаторічнии
багаторічних
багаторічну
багаторічні
багатою
багатоі
багатства
багатство
багату
багатших
багатьма
багатьом
багатьох
багаті
бад
баден
бажав
бажали
бажан
бажана
бажання
бажанням
бажано
бажань
бажають
бажаючи
бажає
баз
база
базар
базари
базель
бази
базиліка
базиліки
базисні
базова
базовии
базових
базового
базовои
базовоі
базові
базою
базу
базувався
базувалася
базування
базуються
базується
базі
баи
бак
бака
бакалавр
бакалавра
бакеу
бактеріи
бактеріі
баку
бал
бала
балада
балади
баланс
балансу
балдуі
балет
балетмеи
балету
бали
балка
балками
балкан
балканах
балки
балок
балотувався
балтіи
балтіі
балці
балі
балів
бан
бангладеш
банда
бандери
банди
бандура
бандури
бандурист
бандуристів
банк
банки
банкнот
банкноти
банком
банкрутства
банкрутство
банку
банків
банківська
банківських
банківськоі
баня
бані
бар
барабан
барабани
барабанщик
барабаш
барак
баран
барбара
барв
барвінок
барелів
баритон
бароко
барон
барона
барретт
баррі
барс
барселона
барселони
барселоні
барт
бару
барі
бас
басеи
басист
баскетбол
баскетболу
баскетболіст
басків
батальи
батареи
батарею
батарея
батареі
батлер
батумі
батька
батькам
батьками
батьки
батько
батькові
батьком
батьку
батьків
батьківського
батьківщина
батьківщини
батьківщиною
батьківщину
батьківщині
баффало
бах
баха
бахмут
бахреи
бахчисараи
бахші
бач
бачать
бачачи
бачення
бачив
бачила
бачили
бачимо
бачите
бачити
бачить
бачиш
бачу
башк
башкири
башкирськоі
башкортостан
башкортостану
башта
башти
башту
башті
баі
ббк
бджоли
бджіл
бе
беверлі
без
безансона
безвісти
безкоштовнии
безкоштовно
безліч
безліччю
безлічі
безнадіи
безпартіи
безпека
безпеки
безпеку
безперервно
безперервного
безперечно
безпеці
безпечно
безпечного
безпосередньо
безпосереднього
безпосередньоі
безпосередню
безпосереднє
безпосередніи
безпосереднім
безробітними
безробітних
безробіття
безсмертя
безсумнівно
безуглии
безумовно
безуспішно
безхребетними
безхребетних
безіменна
безіменними
безіменних
беи
бек
бека
бела
беларуси
беларуская
беларусь
беларусі
белгородскои
белград
белграді
белл
белла
бельгіи
бельгія
бельгіі
белэн
бен
бена
бендер
бенджамін
бенедикт
бенедикта
бензин
бенкет
бенкс
бенуа
бенфіка
бер
берг
бергамо
бердичів
бердичівського
бердянськ
бере
берег
берега
берегах
береги
берегова
берегових
береговоі
берегом
берегу
берегів
бережани
берез
береза
березень
берези
березня
березні
березовськии
березі
берестеи
берестя
береться
берк
берклі
беркут
берлін
берліна
берлінськии
берлінського
берлінському
берліні
берн
бернар
бернард
бернарда
бернардо
бернс
берні
беррі
берт
берта
беруть
беручи
бессарабіі
бесіда
бесіди
бет
бета
бетмен
бетонною
бетону
бетті
бетховена
бея
би
библиотека
бився
бидгощського
бизнес
бик
бика
били
билися
биографии
биографическии
биография
бистриця
битв
битва
битвах
битви
битву
битві
бити
битися
бк
бл
бла
блага
благо
благовіщення
благодіи
благословення
благочиння
блакитна
блакитнии
блакитного
блакитному
блакитні
блеи
блек
блер
ближнього
ближча
ближче
ближчии
ближчим
ближчими
ближчих
ближчого
ближчоі
ближчі
близнюк
близнюки
близнюків
близька
близькии
близьким
близькими
близьких
близько
близького
близькому
близькості
близькою
близькі
близькість
блиск
блискавка
блискавки
блискуче
блискучии
блискучі
блог
блок
блокади
блокаду
блоки
блоком
блоку
блокування
блоків
блом
блоці
блу
блювання
блюз
блюзу
блі
блідо
бм
бмп
бо
боб
боба
боббі
бобруи
бове
бог
бога
богам
богато
богдан
богдана
богданов
богданович
богеміі
боги
богиня
богині
богові
богом
богоматері
богомольця
богородиці
богослов
богослова
богослужіння
богу
богун
богів
бодаи
божа
боже
божевілля
божевільнии
божеств
божества
божество
божии
божого
божоі
божу
бои
бока
боках
боки
бокові
бокс
боксер
боксу
боку
боків
бол
болг
болгар
болгари
болгарська
болгарське
болгарськии
болгарських
болгарського
болгарською
болгарськоі
болгарія
болгаріі
болдирєв
более
болеслав
болеслава
болонья
болоньі
болота
болотах
болотних
болото
болу
большая
больше
большои
болю
болі
болівіи
болівія
болівіі
боліт
болѣе
бомб
бомба
бомбами
бомбардир
бомбардиром
бомбардирів
бомбардувальник
бомбардувальника
бомбардувальники
бомбардувальників
бомбардування
бомбардувань
бомби
бомбу
бон
бонда
бондар
бондаренко
бондарчук
бонні
бонус
бор
борг
борги
боргу
боргів
бордо
бореи
бореться
борець
бори
борис
бориса
борисенко
борислав
борисов
борисова
борисович
борисом
бориспіль
борисівна
борнео
боро
боровков
боровся
борода
бороди
боролися
боротися
боротьба
боротьби
боротьбою
боротьбу
боротьбі
борошна
борошно
борт
бортовии
борту
бору
боруссія
борців
борщ
борьба
борються
бос
босн
босніи
боснія
босніі
бостон
бостоні
бот
ботанік
ботаніка
ботаніки
ботанічна
ботанічнии
ботанічних
ботанічного
ботошань
боці
бою
боявся
боями
бояр
боярин
боярчук
бояться
боях
боєм
боєприпаси
боєприпасів
боєць
боі
бпла
бра
брав
браво
брага
бразильська
бразильськии
бразильського
бразильськоі
бразилія
бразиліі
браи
брак
бракувало
бракує
брала
брали
брало
брама
брами
брамою
браму
бранденбург
брат
брата
братам
братами
брате
брати
братислава
братові
братом
братства
братство
братська
братськіи
брату
братів
браун
брауна
брауншвеи
брашова
браян
бред
бредлі
бреи
бренд
брендом
бренду
брендів
брест
бретань
бретані
брехня
брехні
бригад
бригада
бригади
бригадир
бригаднии
бригадою
бригаду
бригаді
британська
британське
британськии
британським
британськими
британських
британського
британському
британською
британськоі
британську
британські
британськіи
британці
британців
британію
британія
британією
британіі
брно
бровари
брови
бродвеи
броди
брокгауз
брокгауза
бронебіи
бронетехніки
бронза
бронзи
бронзова
бронзовии
бронзовим
бронзових
бронзового
бронзовоі
бронзову
бронзові
бронзу
бронзі
броню
бронювання
броня
броні
брср
брук
брукс
брунеи
бруно
брюгге
брюс
брюса
брюссель
брюсселі
брюі
брянскои
брянськоі
брі
бтр
бу
буа
був
бував
бували
бувало
бувають
буває
бувши
бувъ
буг
бугаи
бугу
буд
буда
будапешт
будапешта
будапешті
будди
буддизм
буддизму
буддіи
буде
будемо
будет
будете
будеш
буди
будинками
будинках
будинки
будинком
будинку
будинків
будинок
будиночок
будні
будова
будови
будовою
будову
буду
будував
будувався
будували
будувалися
будувати
будуть
будучи
будують
будуються
будує
будується
будь
будьте
будівель
будівельна
будівельнии
будівельник
будівельників
будівельних
будівельного
будівельноі
будівельні
будівлею
будівлю
будівля
будівлями
будівлях
будівлі
будівництва
будівництво
будівництвом
будівництву
будівництві
буенос
бузеу
буи
бук
букв
буква
буквально
букви
букет
буковина
буковини
буковинськии
буковинського
буковині
була
булгаков
булгакова
були
булл
було
бульба
бульвар
бульвару
бульварі
бульи
бум
бундесліги
бундеслізі
бунт
бур
бура
бурбон
бург
бургундія
бургундіі
буре
буревісник
буржуазіі
бурии
буркіна
бурого
бурунді
буря
буряк
буряків
бурятіі
бурі
буріння
бус
буса
бусел
буси
бусів
бут
бутан
бутану
бути
бутнього
бутньому
бутньоі
бутню
бутня
бутнє
бутні
бутніи
бутнім
бутніх
буття
бухарест
бухареста
бухаресті
бухгалтерського
бухта
бухти
бухті
бучацького
бучач
бучаччина
буш
буша
бъ
бы
был
была
были
было
бытъ
быть
бюджет
бюджетних
бюджету
бюлетень
бюро
бюст
бялова
бєлгородськоі
бі
біатлону
бібліи
бібліогр
бібліографічнии
бібліографія
бібліотек
бібліотека
бібліотеках
бібліотеки
бібліотекою
бібліотеку
бібліотеці
бібліотечна
бібліотечноі
біблія
бібліі
біг
бігти
бігу
біда
біди
бідна
біднии
бідним
бідних
бідності
бідні
бідніи
бідність
біженців
біжить
бізнес
бізнесмен
бізнесмена
бізнесом
бізнесу
бізнесі
біи
бік
біл
біла
білгород
біле
білецькии
білецького
білии
білик
білим
білими
білих
білка
білками
білки
білків
білл
білла
біллі
біло
білогвардіи
білого
білок
білому
білоруси
білорусь
білоруська
білоруськии
білоруських
білоруського
білоруському
білоруською
білоруськоі
білоруську
білоруські
білоруськіи
білорусі
білорусів
білостоцького
білоус
білоцерківськии
білоцерківського
білою
білоі
білу
біль
більбао
більського
більш
більша
більше
більшии
більшим
більшими
більших
більшовик
більшовиками
більшовики
більшовиків
більшовицького
більшовицькоі
більшого
більшому
більшості
більшою
більшоі
більшу
більші
більшіи
більшість
більшістю
біля
біляі
білі
біліи
бін
біо
біобібліографічнии
біографічна
біографічнии
біографічні
біографію
біографія
біографіі
біолог
біологічна
біологічнии
біологічних
біологічного
біологічному
біологічноі
біологічні
біологія
біологіі
біорізноманіття
біохіміі
бір
біржа
біржі
бірмінгем
біс
бісау
бісмарка
біт
біч
бічними
бічних
бічні
бієнале
в
ва
вавилон
вага
ваги
вагнер
вагнера
ваговіи
вагомии
вагомі
вагон
вагона
вагони
вагонів
вагою
вагу
вагітна
вагітності
вагітність
вади
вадим
вадима
важить
важка
важке
важкии
важким
важкими
важких
важко
важкого
важкому
важкою
важкоі
важку
важкі
важкіи
важлива
важливе
важливии
важливим
важливими
важливих
важливо
важливого
важливості
важливою
важливу
важливі
важливість
важливіше
важливішим
важливішими
важливіших
важливішою
важливіші
важнѣи
важче
ваз
ваза
вази
вазі
ваи
вак
вакуленко
вакцинаціі
вакцини
вал
вала
вале
валенсія
валенсіі
валентин
валентина
валентинович
валер
валерии
валері
валеріи
валерія
валеріі
вали
валле
валліи
валом
валу
валуа
валь
вальс
вальтер
вальтера
валют
валюта
валюти
валя
валі
валів
валін
вам
вами
вампірів
ван
вана
ванда
ванкувер
ванкувері
вантаж
вантажнии
вантажних
вантажного
вантажні
вантажопіди
вантажу
вантажі
вантажів
вантажівка
вантажівки
вантажівок
вань
ваню
ваня
вані
вапняку
вар
варвара
варвари
вармінсько
варна
варта
варти
варто
вартості
вартою
варту
вартість
вартістю
варшава
варшави
варшавськии
варшавського
варшавському
варшаві
варіант
варіантах
варіанти
варіантом
варіанту
варіанті
варіантів
варіаціи
варіаціі
варіюється
вас
васалом
васи
василем
василенко
василии
василь
васильевич
васильківського
васильович
васильовича
васильєв
васильєва
василю
василюк
василя
василівка
василівна
василіи
василія
василіян
васко
ват
ватажка
ватажок
ватикан
ватикану
ватутіна
вахтовии
вацлав
вацлава
ваш
ваша
ваше
вашингтон
вашингтона
вашингтоні
ваших
вашого
вашоі
вашу
ваші
вб
вбив
вбивати
вбивають
вбиває
вбивств
вбивства
вбивство
вбивстві
вбивцю
вбивця
вбивці
вбила
вбили
вбити
вбитии
вбитих
вбито
вбитого
вбиті
вболівальників
вбрання
вбудоване
вбудовании
вв
вважав
вважався
вважала
вважалася
вважали
вважалися
вважалося
вважати
вважатися
вважаю
вважають
вважаються
вважаючи
вважає
вважається
введена
введение
введении
введення
введенням
введенні
введено
введені
ввела
ввели
ввести
ввесь
ввечері
вводити
вводить
вводиться
вводять
ввп
ввр
ввру
ввс
ввів
ввіи
вглиб
вгору
вгорі
вдавалося
вдалим
вдало
вдалось
вдалося
вдарив
вдасться
вдається
вдвічі
вдень
вднг
вдова
вдови
вдовою
вдома
вдосконалення
вдруге
ве
веб
вебер
вебпортал
вебресурс
вебсаи
вебсторінка
вега
вегасі
веде
ведення
ведеться
ведмедя
ведмідь
ведомости
ведуть
ведуться
ведуча
ведучии
ведучим
ведучою
веж
вежа
вежами
вежею
вежу
вежі
веи
век
века
веков
вектор
вектора
вектори
векторів
вела
велася
велес
вели
велика
великая
великдень
велике
великии
великим
великими
великих
велико
великобританіі
великого
великои
великому
великомученика
великопольського
великою
великоі
велику
великі
великіи
велися
велич
величезна
величезне
величезнии
величезним
величезних
величезного
величезною
величезноі
величезну
величезні
величества
величин
величина
величини
величиною
величину
величко
величності
веллс
веллі
велосипед
велосипедів
велося
вельми
вен
венді
венера
венери
венері
венесуела
венесуели
венесуелі
венето
венеціи
венеція
венеціі
вентиляціи
вентиляціі
веніамін
вер
вера
верба
верби
верде
верді
верес
вересень
вересня
вересні
вермахту
вермахті
вермонт
вернадського
вернер
верона
вероніка
вероніки
верст
верстатів
верств
верстви
версти
версты
версіи
версію
версія
версіями
версіях
версією
версіі
вертикальна
вертикальних
вертикально
вертикального
вертикальні
вертикалі
вертольота
вертольоти
вертольотів
вертоліт
верфі
верх
верхи
верхнего
верхнього
верхньому
верхньою
верхньоі
верхню
верхня
верхнє
верхні
верхніи
верхніх
верховна
верховнии
верховним
верховного
верховною
верховноі
верховніи
верху
верхів
верхівка
верхівки
верхівці
вершин
вершина
вершинами
вершини
вершиною
вершину
вершині
вершник
вершників
вес
весела
веселе
веселии
веселка
весело
веселі
веслувальник
веслування
весна
весни
весною
весну
веснянии
вест
веста
вести
вестибюль
вестник
вестфалія
весь
весілля
весіллі
ветеран
ветерана
ветерани
ветеранів
ветеринарноі
вето
вече
вечерю
вечеря
вечері
вечора
вечори
вечір
вечірня
вечірні
вечірніи
вже
вживали
вживання
вживати
вживають
вживаються
вживає
вживається
вжити
вжитку
взагалі
взаємин
взаємини
взаємно
взаємного
взаємодіи
взаємодію
взаємодіють
взаємодія
взаємодіяти
взаємодіє
взаємодіі
взаємозв
взаємопов
взаєморозуміння
взвод
взводу
взгляд
вздовж
взимку
взуття
взяв
взявся
взявши
взяла
взяли
взяло
взята
взяти
взятии
взято
взяття
взяті
ви
вибирати
вибирають
вибирає
виборами
виборах
вибори
виборов
виборола
вибором
вибору
виборців
виборча
виборчии
виборчих
виборчого
виборчому
виборчоі
виборчі
виборював
виборі
виборів
вибрав
вибрали
вибране
вибрании
вибраних
вибрані
вибрати
вибув
вибули
вибух
вибухи
вибухнув
вибухнула
вибухових
вибухом
вибуху
вибухів
вибір
вибірки
виведена
виведении
виведення
виведено
виведені
вивезення
вивезено
вивезли
вивели
виверження
вивести
виводить
виводиться
виводу
вивчав
вивчала
вивчали
вивчати
вивчають
вивчаючи
вивчає
вивченню
вивчення
вивченням
вивченні
вивчив
вивчити
вивів
вивітрювання
вигадании
вигляд
виглядав
виглядати
виглядають
виглядає
виглядом
вигляду
вигляді
вигнав
вигнали
вигнання
вигнанні
виговськии
виговського
вигоди
виготовив
виготовили
виготовлена
виготовлении
виготовлених
виготовлення
виготовленні
виготовлено
виготовлені
виготовлявся
виготовляли
виготовлялися
виготовляти
виготовляють
виготовляються
виготовляє
виготовляється
виграв
вигравав
вигравши
виграла
виграли
виграти
виграш
виграє
вид
видав
видавав
видавався
видавали
видавалися
видавати
видавець
видавництв
видавництва
видавництво
видавництвом
видавництві
видавнича
видавничии
видавничо
видавничоі
видавцем
видавця
видавців
видала
видалення
видали
видалити
видами
видана
видании
виданих
видання
виданням
виданнями
виданнях
виданні
видано
видань
видані
видати
видатнии
видатним
видатними
видатних
видатного
видатні
видатніших
видах
видача
видачу
видачі
видають
видаються
видає
видається
видео
види
видимості
видиму
видко
видно
видобування
видобутку
видобуток
видова
видом
виду
виді
видів
виділена
виділении
виділення
виділено
виділені
виділив
виділили
виділити
виділяють
виділяються
виділяє
виділяється
видіння
вижив
виживання
вижили
вижити
визволення
визвольнии
визвольних
визвольного
визвольноі
визнав
визнавав
визнавали
визнавати
визнала
визнали
визнана
визнании
визнаних
визнання
визнанням
визнано
визнані
визнати
визначав
визначали
визначати
визначають
визначаються
визначає
визначається
визначена
визначении
визначених
визначення
визначенням
визначенні
визначено
визначені
визначив
визначила
визначили
визначити
визначна
визначнии
визначник
визначних
визначні
визначніших
визнають
визнає
визнається
вии
вик
викиди
викидів
виклав
виклад
викладав
викладала
викладання
викладати
викладач
викладача
викладачами
викладачем
викладачі
викладачів
викладає
викладені
виклик
викликав
викликався
викликала
викликали
викликало
викликана
викликании
викликано
викликані
викликати
викликають
викликає
виклики
виклику
виключає
виключении
виключення
виключенням
виключено
виключити
виключно
виконав
виконавець
виконавиця
виконавцем
виконавця
виконавцями
виконавці
виконавців
виконавчии
виконавчим
виконавчих
виконавчого
виконавчоі
виконавчі
виконавши
виконала
виконали
виконана
виконании
виконаних
виконання
виконанням
виконанні
виконано
виконані
виконати
виконкому
виконував
виконувала
виконували
виконувалися
виконувати
виконувач
виконують
виконуються
виконуючи
виконує
виконується
викопнии
викопних
викопні
використав
використавши
використали
використана
використании
використанню
використання
використанням
використанні
використано
використані
використати
використовував
використовувався
використовувала
використовувалась
використовувалася
використовували
використовувались
використовувалися
використовувалося
використовуваних
використовувати
використовуватись
використовуватися
використовують
використовуються
використовуючи
використовує
використовується
викрадає
викрадення
викрали
викриття
виктор
викуп
викупив
викупу
вилетів
вилетіла
вилуплення
вилучення
вилучено
вилча
вильоту
вильотів
виліт
вимагав
вимагала
вимагали
вимагало
вимагати
вимагають
вимагаючи
вимагає
вимерлии
вимерлих
вимирання
вимова
вимови
вимовляється
вимову
вимог
вимога
вимогам
вимогами
вимоги
вимогою
вимогу
вимушении
вимушені
вимір
виміри
вимірювання
вимірювань
вимірюється
вин
вина
винагороди
винагороду
винаи
винар
винаходи
винаходу
винаходів
винахід
винахідник
винен
вини
виник
виникали
виникати
виникають
виникає
виникла
виникли
виникло
виникнення
виникнути
винищення
винищувального
винищувальноі
винищувач
винищувача
винищувачі
винищувачів
виннии
винники
винним
винних
винниченка
винниченко
винні
вино
виноград
виноградарства
виноградов
виноградова
винограду
вином
виносила
виноски
виносок
винятково
винятком
виняток
виніс
вип
випадає
випадках
випадки
випадковии
випадковим
випадкових
випадково
випадкові
випадком
випадку
випадків
випадок
випаровування
випередивши
виписка
виплати
виплатити
випливає
виповнилося
випр
виправдання
виправити
виправлення
виправно
випробування
випробуваннях
випробувань
випромінювання
випуск
випускав
випускався
випускалася
випускали
випускалися
випускати
випускають
випускаються
випускає
випускається
випуски
випускник
випускники
випускників
випуском
випуску
випусків
випустив
випустила
випустили
випустити
випущена
випущении
випущених
випущено
випущені
вир
виражає
виражається
виражена
виражении
вираження
виражені
вираз
вирази
виразно
виразом
виразу
виразів
вироби
вироблення
вироблено
виробляли
виробляти
виробляють
виробляються
виробляє
виробляється
виробник
виробника
виробниками
виробники
виробником
виробників
виробництв
виробництва
виробництво
виробництвом
виробництву
виробництві
виробнича
виробниче
виробничии
виробничих
виробничо
виробничого
виробничоі
виробничі
виробок
виробу
виробів
вирок
вироку
виросла
виросли
виростає
вирощували
вирощування
вирощують
вирощується
вирушають
вирушає
вирушив
вирушила
вирушили
вирушити
виріб
вирівнювання
вирізняється
виріс
вирішальнии
вирішальну
вирішення
вирішенні
вирішено
вирішив
вирішивши
вирішила
вирішили
вирішило
вирішити
вирішувати
вирішують
вирішує
висадився
висадка
висадки
висадку
висвячении
висвітлення
висвітлює
виселення
вислав
вислании
висловив
висловився
висловила
висловили
висловити
висловлювання
висловлює
висловіть
вислугу
вислів
виснаження
висновки
висновку
висновків
висновок
висока
високе
високии
високим
високими
високих
високо
високого
високогір
високогірних
високому
високою
високоі
високу
високі
високіи
висот
висота
висотах
висоти
висотою
висоту
висоті
висоцькии
височини
височині
вистав
вистава
виставах
вистави
виставка
виставках
виставки
виставковии
виставку
виставлені
виставок
виставу
виставці
виставі
вистачало
вистачає
вистачило
виступ
виступав
виступала
виступали
виступами
виступати
виступах
виступають
виступаючи
виступає
виступи
виступив
виступила
виступили
виступити
виступом
виступу
виступі
виступів
висунув
висунули
висунутии
витоки
витоком
витоку
витоків
витончених
витрат
витрата
витрати
витримав
витримати
витяг
витягнута
витягнутии
витік
витікає
вих
виховали
вихованець
виховання
вихованцем
вихованців
виховнии
виховноі
виховувався
виховує
виходи
виходив
виходила
виходили
виходило
виходити
виходить
виходом
виходу
виходять
виходячи
виході
виходів
вихід
вихіднии
вихідним
вихідних
вихідного
вихідноі
вихідні
вихідцями
вихідці
вихідців
вич
вишивки
вишневецького
вишня
вишні
вишів
вищ
вища
вище
вищии
вищим
вищими
вищих
вищого
вищому
вищою
вищоі
вищу
вищі
вищіи
виявив
виявився
виявила
виявилась
виявилася
виявили
виявились
виявилися
виявило
виявилось
виявилося
виявити
виявлена
виявлении
виявлених
виявлення
виявлено
виявлені
виявляв
виявляти
виявляють
виявляються
виявляє
виявляється
виі
вк
вка
вказав
вказали
вказана
вказане
вказании
вказано
вказані
вказати
вказував
вказували
вказувати
вказують
вказуючи
вказує
вказується
вказівки
вказівкою
вки
вкл
вклад
включав
включала
включали
включало
включати
включають
включаючи
включає
включена
включене
включении
включення
включено
включені
включив
включили
включити
включно
вкп
вкраи
вкраі
вкрита
вкрите
вкритии
вкриті
вку
вл
влад
влада
влади
владивосток
владика
владики
владимир
владимира
владимирович
владимирская
владимирскои
владимирського
владимирськоі
владислав
владислава
владою
владу
владі
власна
власне
власнии
власник
власника
власникам
власниками
власники
власником
власників
власним
власними
власних
власницьке
власницькому
власного
власному
власноруч
власності
власною
власноі
власну
власні
власніи
власність
власністю
власов
власти
властива
властиво
властивостеи
властивостями
властивості
властиві
властивість
власть
влаштовано
влаштовували
влаштовують
влаштовує
влаштував
влаштувався
влаштували
влаштування
влаштувати
влксм
влоцлавського
вліво
влітку
вмененныи
вмирають
вмирає
вмс
вмф
вміли
вміння
вміст
вмістом
вмісту
вміщує
вміє
вна
внаслідок
внеоч
внесена
внесении
внесення
внесено
внесені
внеску
внесла
внесли
внесок
внести
внз
вни
вниз
внизу
вновь
вносить
вночі
вну
внутренних
внутреннихъ
внутрішньо
внутрішнього
внутрішньому
внутрішньою
внутрішньоі
внутрішню
внутрішня
внутрішнє
внутрішні
внутрішніи
внутрішнім
внутрішніми
внутрішніх
вніс
внічию
во
вобласьць
вовк
вовка
вовки
вовків
вовчок
вогези
вогнем
вогнепальноі
вогнища
вогню
вогні
вогонь
вод
вода
водами
водах
водень
води
воднии
водними
водних
водно
водного
водночас
водноі
водню
водні
водозбору
водои
водопостачання
водоростеи
водорості
водоспад
водоспади
водоспаду
водосховища
водосховище
водотоннажність
водотоннажністю
водою
воду
водяна
водяне
водянии
водяних
водяного
водяні
водяться
воді
водіи
водія
водієм
водіі
воениздат
военная
военно
военное
военныи
вождем
вождь
вождя
вожді
вождів
воздвиження
возз
вози
вознесіння
возняк
вои
вокал
вокалу
вокальнии
вокально
вокальні
вокаліст
вокаліста
вокалістом
вокер
вокзал
вокзалу
вокзалі
вокруг
волга
волги
волгоградскои
волгоградськоі
волеи
волею
воли
волинська
волинське
волинськии
волинського
волинському
волинськоі
волинські
волинськіи
волинь
волині
волков
волкова
воллес
вологи
вологии
вологим
вологих
вологодська
вологодськоі
вологості
вологі
вологість
володар
володарем
володарка
володаря
володарі
володарів
володи
володимир
володимира
володимирович
володимировича
володимиром
володимирськии
володимирського
володимиру
володимирівна
володимиріі
володів
володіла
володіли
володіння
володіннях
володінні
володінь
володіти
володіють
володіє
волокна
волокон
волонтер
волонтери
волонтерів
волосками
волосного
волосся
волоссям
волостеи
волости
волость
волості
волошин
волтер
волынскои
вольф
вольфа
вольфганг
волю
воля
волі
волів
вом
вон
вона
вони
воно
вооз
вопросу
вопросы
ворд
вороби
ворог
ворога
ворогами
вороги
ворогом
ворогів
вороже
ворожии
ворожих
ворожнечі
ворожого
ворожоі
ворожі
ворон
ворона
воронеж
воронежскои
воронезького
воронезькоі
воронок
ворота
воротами
воротар
воротарем
воротаря
воротарів
воротах
ворошилова
ворошиловградськоі
воррен
ворскла
ворскли
воріт
восени
воскресіння
воспоминания
востаннє
восток
востока
восточно
восточнои
восьми
восьмии
восьмого
вотсон
вочевидь
воював
воювали
воювати
вояк
вояки
вояків
воєвода
воєводи
воєводою
воєводства
воєводство
воєводстві
воєн
воєначальник
воєннии
воєнних
воєнно
воєнного
воєнноі
воєнні
воі
вп
впав
впадають
впадає
впадіння
впала
впали
впевнении
впевнено
впевненість
вперед
вперше
вплив
впливати
впливають
впливає
впливи
впливових
впливового
впливовіших
впливом
впливу
впливів
вплинув
вплинула
вплинули
вплинуло
вплинути
впоратися
впорядкування
вправ
вправи
вправо
впритул
впровадження
впроваджено
впродовж
впс
впц
вр
вражає
вражении
враження
вражіння
враз
вранці
врахована
враховані
враховувати
враховуючи
враховує
врахування
врегулювання
времени
время
врешті
врожаи
врожаю
врожаі
вроцлав
вроцлавського
вру
вручається
вручення
врученням
вручив
вручили
вручну
врядування
врятував
врятувала
врятували
врятувати
врятуватися
вс
все
всеволод
всеволода
всего
вселенськии
вселенського
всем
всеобщая
всеобщеи
всередину
всередині
всероссии
всеросіи
всесвіт
всесвітньо
всесвітнього
всесвітньоі
всесвітня
всесвітніи
всесвіту
всесвіті
всесоюзная
всесоюзнии
всесоюзних
всесоюзного
всесоюзнои
всесоюзноі
всеукраі
всех
встав
встановив
встановивши
встановила
встановили
встановити
встановлена
встановлене
встановлении
встановлених
встановлення
встановленням
встановленні
встановлено
встановленого
встановленому
встановлені
встановлювався
встановлювали
встановлювалися
встановлювати
встановлюють
встановлюються
встановлює
встановлюється
встиг
встигає
встигла
встигли
вступ
вступати
вступають
вступає
вступив
вступила
вступили
вступити
вступу
всупереч
вська
вське
вськии
вським
вських
вського
вському
вською
вськоі
вську
вські
вськіи
всього
всьому
всю
всюди
вся
всякии
всяких
всякого
всяку
всякі
всі
всіи
всіляко
всім
всіма
всіх
всією
всієі
вт
втекла
втекли
втекти
втеча
втечу
втечі
вторая
вторглися
вторгнення
вторинних
вторинні
второи
втрат
втрата
втратами
втрати
втратив
втративши
втратила
втратили
втратило
втратити
втратою
втрату
втрачати
втрачають
втрачає
втрачена
втрачении
втрачено
втрачені
втретє
втричі
втручання
втт
втік
втікає
втілення
втіленням
втім
ву
вуан
вуглеводнів
вуглекислого
вуглехіміі
вуглецю
вугілля
вугільних
вугільноі
вуд
вуе
вузла
вузли
вузлом
вузлів
вузов
вузол
вузька
вузькии
вузькими
вузьких
вузько
вузькоколіи
вузькому
вузькою
вузькі
вузів
вуи
вул
вулицею
вулиць
вулицю
вулиця
вулицями
вулицях
вулиці
вуличних
вулкан
вулкана
вулканів
вуса
вух
вуха
вухо
вуцвк
вх
входження
входи
входив
входила
входили
входило
входити
входить
входом
входу
входять
входящих
вході
вхід
вхідних
вхідні
вц
вцвк
вці
вчасно
вчена
вчене
вчении
вченим
вченими
вчених
вчення
вченого
вченоі
вчені
вчився
вчилася
вчинення
вчинив
вчинили
вчинити
вчинки
вчинок
вчителем
вчитель
вчителька
вчителькою
вчителя
вчителями
вчителі
вчителів
вчитися
вчора
вшанували
вшанування
вщент
вщина
вщини
вщині
въ
възраст
вы
вып
выпуск
выпускъ
высшая
высших
вюртемберг
вятка
вячеслав
ві
віа
вів
вівсянка
вівтар
вівтаря
вівтарі
вівторок
вівці
вівчарик
від
відання
віданні
відбив
відбиває
відбили
відбити
відбиток
відбиття
відбору
відборі
відбув
відбував
відбувався
відбувалася
відбувались
відбувалися
відбувалось
відбувалося
відбуватися
відбуваються
відбувається
відбувся
відбудеться
відбудови
відбулась
відбулася
відбулись
відбулися
відбулось
відбулося
відбутися
відбір
відбіркового
відбірковому
відвагу
відведення
відверто
відвідав
відвідала
відвідали
відвідати
відвідин
відвідував
відвідувала
відвідували
відвідування
відвідувати
відвідувачі
відвідувачів
відвідують
відвідує
відгалуження
відгук
відгуки
відгукнувся
відгуків
віддав
віддавав
віддавати
віддала
віддалених
віддалені
віддали
віддании
віддано
відданість
віддати
віддають
віддає
відділ
відділення
відділенням
відділенні
відділень
відділи
відділом
відділу
відділі
відділів
віденськии
віденського
віденському
віденськоі
відень
відео
відеогра
відеогри
відеокліп
відеоігор
відзнак
відзнака
відзнаками
відзнаки
відзнакою
відзнаку
відзначав
відзначався
відзначали
відзначають
відзначаються
відзначає
відзначається
відзначена
відзначении
відзначення
відзначено
відзначені
відзначив
відзначився
відзначившись
відзначилася
відзначили
відзначити
відкидає
відкинув
відкладають
відкладає
відкладення
відкладеннях
відкладень
відклади
відкладів
відкрив
відкривати
відкривачем
відкривають
відкриваються
відкриває
відкривається
відкрився
відкрила
відкрилася
відкрили
відкрита
відкрите
відкрити
відкритии
відкритим
відкритими
відкритих
відкрито
відкритого
відкритому
відкритою
відкритоі
відкриття
відкриттям
відкритті
відкриттів
відкриту
відкриті
відкритіи
відлуння
відліку
відмова
відмови
відмовив
відмовився
відмовилась
відмовилася
відмовились
відмовилися
відмовитись
відмовитися
відмовлявся
відмовляється
відмову
відміна
відміни
відміннии
відмінник
відмінно
відмінностеи
відмінності
відмінною
відмінну
відмінні
відмінність
відмінністю
відміну
відмінювання
віднаи
віднесено
віднесені
віднести
відновив
відновила
відновили
відновити
відновлена
відновлении
відновленню
відновлення
відновленням
відновленні
відновлено
відновлені
відновлювати
відновлює
відновлюється
відносили
відносин
відносинах
відносини
відносить
відноситься
відносна
відносно
відносності
відносять
відносяться
відношенню
відношення
відношенні
відня
відні
відображають
відображає
відображається
відображення
відображенням
відокремлении
відокремлення
відокремлені
відокремлює
відома
відоме
відомии
відомим
відомими
відомих
відомо
відомого
відомому
відомостеи
відомостями
відомості
відомою
відомоі
відомств
відомства
відому
відомі
відоміи
відоміша
відомішии
відомішим
відомішими
відоміших
відомішою
відоміші
відп
відплив
відповів
відповід
відповідав
відповідала
відповідали
відповідало
відповідальнии
відповідальним
відповідальних
відповідальності
відповідальність
відповідальністю
відповідати
відповідають
відповідає
відповіддю
відповідеи
відповідна
відповідне
відповіднии
відповідним
відповідними
відповідних
відповідно
відповідного
відповідному
відповідності
відповідною
відповідноі
відповідну
відповідні
відповідність
відповідь
відповіді
відповіла
відповіли
відповісти
відпочинку
відпочинок
відпочити
відправив
відправився
відправили
відправити
відправитися
відправлении
відправлення
відправлено
відправлені
відправляють
відправляються
відправляє
відправляється
відпрацьована
відпустку
відразу
відродження
відродити
відряджении
відрядження
відрізку
відрізнити
відрізнявся
відрізнялася
відрізнялися
відрізнятися
відрізняються
відрізняє
відрізняється
відрізок
відсотка
відсотків
відсоток
відставки
відставку
відставці
відстанеи
відстань
відстані
відстеження
відступ
відступати
відступив
відступили
відступити
відступу
відсутності
відсутня
відсутнє
відсутні
відсутніи
відсутність
відсутністю
відсік
відсіку
відсіч
відтак
відтворення
відтворити
відтворює
відтепер
відтоді
відтінком
відтінків
відтінок
відхилення
відхилив
відходи
відходить
відходу
відходять
відходів
відхід
відчаи
відчув
відчував
відчувати
відчувають
відчуваючи
відчуває
відчувається
відчуження
відчути
відчуття
відшкодування
відшукати
відьма
відьми
відіграв
відігравав
відігравали
відігравши
відіграла
відіграли
відіграти
відіграють
відіграє
відіи
віз
візантіи
візантіі
візит
візитка
візитна
візитом
візиту
візуальних
візуально
візуальні
візуалізаціі
візьме
віи
вік
вікаріи
віки
вікна
вікнами
вікно
вікном
вікні
віковии
віковим
вікових
вікові
віком
вікон
віконт
віктор
віктора
вікторович
віктором
віктору
вікторівна
вікторія
вікторіі
віку
вікі
віків
вікіданих
вікідані
вікімапіі
вікінгів
вікіпедія
вікіпедією
вікіпедіі
вікісховище
віл
віла
вілеи
вілен
вілл
вілла
віллем
вілли
віллі
вілсон
вільгельм
вільгельма
вільгельмом
вільна
вільне
вільнии
вільним
вільними
вільних
вільно
вільного
вільному
вільною
вільноі
вільну
вільнюс
вільнюсі
вільні
вільніи
вільям
вільяма
вільямом
вільямс
вільямса
він
вінницька
вінницькии
вінницького
вінницькоі
вінницькіи
вінниця
вінниці
вінниччини
вінниччині
вінніпег
вінок
віночок
вінсент
вінчання
вінченцо
вінчі
віолончелі
вір
віра
вірджинія
вірджиніі
віри
вірив
вірили
вірити
вірить
вірм
вірмен
вірмени
вірменська
вірменськии
вірменських
вірменського
вірменськоі
вірменські
вірменія
вірменіі
вірнии
вірним
вірних
вірно
вірності
вірні
вірність
вірогідно
віросповідання
віросповіданням
вірою
віртуальна
віртуальнии
віртуальноі
віру
вірування
вірувань
вірус
віруси
вірусом
вірусу
вірусів
віруючих
вірчі
вірш
вірша
віршах
вірші
віршів
вірю
вірян
вірять
вірі
віс
вісбаден
вісенте
вісконсин
віскі
вісла
вісли
вісник
віссю
вісті
вісь
вісьмома
вісім
віта
віталіи
віталія
вітебська
вітебськоі
вітер
вітри
вітрила
вітром
вітру
вітряк
вітряних
вітрів
вітторіо
вітчизни
вітчизною
вітчизняна
вітчизняних
вітчизняного
вітчизняноі
вітчизняніи
віце
віці
віч
віче
вічна
вічне
вічнии
вічно
вічного
вічні
вічність
вішну
вѣроисповѣданіи
г
га
гаазі
габріела
габріель
габсбург
габсбургів
гаваи
гавань
гавані
гаваі
гаврило
гаврилович
гаврилюк
гавриі
гагаріна
гаес
газ
газа
газет
газета
газетах
газети
газетою
газету
газеті
гази
газовии
газових
газового
газовоі
газові
газом
газопроводу
газопровід
газпром
газу
газі
газів
гаи
гал
гала
галаи
галактик
галактика
галактики
галаца
галереи
галерею
галерея
галереі
галина
галини
галицька
галицькии
галицьких
галицько
галицького
галицькому
галицькоі
галицькі
галич
галичина
галичини
галичину
галичині
галл
галле
галліі
галузеи
галуззю
галузь
галузями
галузях
галузі
гальма
гальмування
галя
галявинах
гама
гамбург
гамбурзі
гамлет
гамма
гамільтон
ган
гана
гандболу
гани
ганна
ганни
ганновер
ганну
ганс
ганса
гані
гао
гар
гарады
гаразд
гарантує
гарантіи
гарантіі
гарвардського
гарві
гарді
гармат
гармата
гарматами
гармати
гарматою
гармату
гармоніи
гармонія
гармоніі
гарна
гарне
гарнии
гарним
гарно
гарну
гарні
гарнізон
гарнізону
гарольд
гаронна
гаррі
гарріс
гаррісон
гарсія
гарт
гаряче
гарячии
гарячих
гарячка
гарячки
гарячі
гарі
гасло
гаслом
гастролював
гастролі
гауптман
гаю
гая
гаєм
гаі
гб
гв
гвардия
гвардіи
гвардія
гвардіі
гватемала
гватемали
гвинта
гвинтівка
гвинтівки
гвинтівок
гвідо
гвінеи
гвінея
гвінеі
гг
ггц
где
ге
геи
гектара
гектарів
гелен
гелена
гель
гельмут
гельсінкі
гелію
гемпшир
ген
гена
гендерноі
генеалогічнии
генеалогія
генеза
генерал
генерала
генерали
генералом
генералу
генеральна
генеральне
генеральнии
генеральним
генеральних
генерального
генеральному
генеральноі
генералів
генератор
генератора
генератори
генераціі
генетики
генетичних
генетично
генетичного
генетичні
гени
генк
геннадіи
геннадія
геном
геноцид
геноциду
генрик
генрі
генріх
генріха
генріхом
генуя
генуі
генштабу
генів
геніи
геогр
географ
географическая
географическии
география
географічна
географічне
географічнии
географічними
географічних
географічно
географічного
географічному
географічноі
географічні
географія
географіі
геодезіі
геолог
геолого
геологічна
геологічних
геологічного
геологічноі
геологічні
геологія
геологіі
геометрія
геометріі
георг
георга
георгіи
георгія
георгіі
геоінформаціи
гер
гера
геральдика
геральдики
герасименко
герасимов
герб
герба
герберт
герберта
герби
гербом
гербу
гербі
гербів
геркулес
герман
германа
геродот
герои
герою
героя
героям
героями
героєм
героі
герцеговина
герцеговини
герцеговині
герцог
герцога
герцогиня
герцогом
герцогства
герцогство
гершель
гері
гес
гессен
гестапо
гете
гетеборг
гетто
геть
гетьман
гетьмана
гетьманом
гетьманськоі
гетьманщини
геі
ги
гине
гинуть
гирла
гирло
гирлом
гирлі
гл
глав
глава
глави
главн
главная
главного
главное
главныи
главою
главі
гладка
гладкии
гладкі
глазго
глибин
глибина
глибинах
глибини
глибинними
глибиною
глибину
глибині
глибока
глибоке
глибокии
глибоким
глибоких
глибоко
глибокого
глибокоі
глибоку
глибокі
глибше
глина
глини
глобальна
глобальнии
глобальних
глобального
глобальноі
глобальні
глобус
глорія
глосаріи
глутамін
глутамінова
глухии
глухів
глухівського
глюкози
глядацьких
глядач
глядача
глядачам
глядачі
глядачів
гліб
гліцин
гміна
гмінами
гмінах
гміни
гміні
гнат
гнатович
гнатюк
гнатюка
гнеи
гнів
гніву
гнізда
гніздиться
гніздо
гніздування
гніздяться
гніи
го
говард
говарда
говори
говорив
говорила
говорили
говорилося
говорити
говорить
говориться
говорять
говорячи
гоголь
гоголя
год
года
годин
година
години
годинник
годинника
годину
годині
годов
году
годування
годы
годі
годѣ
гои
гол
гола
голами
голден
голи
голии
голки
голкіпером
голл
голландська
голландськии
голландських
голландського
голландськоі
голландія
голландіі
голлівуду
голлівуді
голов
голова
головами
голови
головки
головко
головна
головне
головнии
головним
головними
головних
головно
головного
головнокомандувач
головнокомандувача
головнокомандувачем
головному
головною
головноі
головну
головні
головніи
головою
голову
головуванням
головченко
голові
голод
голодом
голодомор
голодомору
голоду
голодування
голокост
голокосту
голом
голос
голосами
голоси
голоснии
голосних
голосно
голосні
голосом
голосу
голосування
голосуванням
голосуванні
голосувати
голосів
голосіі
голу
голуб
гольджі
гольштеи
голі
голів
гомель
гомельськоі
гомер
гомера
гомес
гомін
гондурас
гондурасу
гонка
гонках
гонки
гонконг
гонконгу
гонку
гонок
гонсалес
гонці
гончар
гончара
гончаренко
гончаров
гонщик
гор
гора
горами
горах
гордон
гордона
гордіи
гордість
гордієнко
горе
гори
горизонт
горизонтальних
горизонтально
горизонтальні
горизонту
горинь
горить
горла
горло
горлі
горобець
горобцеподібних
город
города
городам
городи
городища
городище
городов
городок
городским
городских
городского
городскои
городян
горою
гору
горькии
горького
горючих
горя
горі
горілки
горіння
горіх
горіхи
гос
господа
господар
господарем
господарку
господарств
господарства
господарствах
господарство
господарством
господарству
господарстві
господарськии
господарських
господарського
господарськоі
господарські
господарювання
господаря
господарі
господарів
господи
господиня
господнього
господь
госпіталь
госпіталю
госпіталі
гост
гостеи
гостем
гостра
гострии
гострим
гострими
гострих
гостро
гострого
гостроі
гострі
гостя
гостях
гості
государства
государственного
государственное
государственнои
государственныи
готель
готелю
готелі
готелів
готи
готики
готова
готовии
готових
готовності
готовність
готові
готував
готувався
готували
готувати
готуватися
готують
готуються
готує
готується
готів
гпу
гр
гра
граб
грабовськии
грав
гравець
гравцеві
гравцем
гравця
гравцям
гравцями
гравці
гравців
гравчинь
гравчині
гравюр
гравюри
гравіи
гравітаціи
град
градусів
граи
грала
грали
грам
грама
граматика
граматики
грамота
грамотами
грамоти
грамотності
грамотою
грамоту
грамоті
грамів
гран
гранада
гранат
гранати
гранд
гранде
гранді
границ
границах
границя
границі
грант
грані
граніт
граніту
грати
граф
графа
графи
графиня
графині
графом
графства
графство
графстві
графу
графі
графів
графік
графіка
графіки
графіку
графіті
графічнии
графічних
графічного
графічні
грають
граючи
грає
греблею
греблю
гребля
греблі
гребінка
гребінь
грег
грегорі
греи
греки
греко
греків
грем
греммі
гренландіі
грец
грецька
грецьке
грецькии
грецьким
грецьких
грецького
грецькому
грецькою
грецькоі
грецьку
грецькі
грецькіи
грецію
греція
греціі
гри
гриб
гриби
грибів
гривень
гривні
григо
григор
григории
григорович
григоровича
григорівна
григоріи
григорія
григорієм
гризунів
грин
грипу
гриф
гриценко
гриць
грицько
грищенко
грн
гробниця
гробниці
гродно
грознии
грозного
грои
гром
громад
громада
громадами
громадах
громади
громадою
громадська
громадське
громадськии
громадським
громадськими
громадських
громадсько
громадського
громадському
громадськості
громадською
громадськоі
громадську
громадські
громадськіи
громадськість
громадськістю
громаду
громадян
громадянам
громадянами
громадяни
громадянин
громадянина
громадянином
громадянства
громадянство
громадянська
громадянських
громадянського
громадянськоі
громадянську
громадянські
громадянськіи
громаді
гросмеи
грот
грошеи
грошима
грошова
грошових
грошовоі
грошову
грошові
гроші
грою
гру
грубо
груд
грудеи
грудень
груди
грудня
грудні
грудьми
грудях
груз
грузинська
грузинськии
грузинського
грузинськоі
грузія
грузіі
груп
група
групами
групах
групи
груповии
групових
групового
груповому
групою
группа
группы
групу
групі
грушевськии
грушевського
грі
грім
грін
грінченка
грінченко
гріх
гріха
гріхи
гріхів
гу
губ
губа
губернатор
губернатора
губернатором
губернаторства
губернии
губерния
губернскаго
губернська
губернського
губернськоі
губерніи
губернію
губернія
губерніі
губерськии
губи
гуго
гуи
гук
гуляи
гуманітарнии
гуманітарних
гуманітарного
гуманітарноі
гуменюк
гумор
гумору
гунів
гур
гурт
гурти
гуртка
гуртки
гуртків
гуртожитку
гуртожиток
гурток
гуртом
гурту
гурті
гуртів
гусар
гусеи
гусениці
густав
густава
густии
густина
густини
густо
густота
густі
гута
гц
гюнтер
гі
гібралтар
гібралтару
гігант
гігантськии
гігієни
гідності
гідність
гідроелектростанція
гідролаз
гідрологічна
гідрологічнии
гідронімів
гіи
гілберт
гілка
гілками
гілки
гілку
гілл
гілок
гілочки
гільдіі
гільєрмо
гімалаи
гімалаі
гімн
гімназіи
гімназію
гімназія
гімназіі
гімнастика
гімнастики
гімну
гінді
гіпероніми
гіпоніми
гіпотез
гіпотеза
гіпотези
гіпотезу
гіпс
гір
гірка
гірник
гірників
гірнича
гірничии
гірничих
гірничо
гірничого
гірничоі
гірська
гірськии
гірськими
гірських
гірсько
гірського
гірськолижнии
гірському
гірськоі
гірські
гірськіи
гірше
гістидин
гість
гітара
гітари
гітарист
гітариста
гітаристом
гітарі
гітлер
гітлера
д
да
дав
давав
даваи
давала
давали
давало
давати
давид
давида
давиденко
давидов
давидович
давнини
давнину
давно
давнього
давньогрецькии
давньогрецькоі
давньоруського
давньоі
давню
давня
давнє
давні
давніи
давнім
давніх
давніша
давніше
давнішии
давніших
давніші
давши
давід
даг
дагестан
дагестану
даи
дак
дакота
дал
дала
далекии
далеких
далеко
далекого
далекому
далекосхідного
далекі
дали
даллас
далмаціі
дало
даль
дальності
дальня
дальні
дальність
дальше
даля
далі
дам
дама
дамаки
дамби
дами
дан
дана
дане
дани
дании
данила
данило
данилович
даним
даними
данину
даних
даниі
данные
данным
даннымъ
данных
дання
дано
даного
даному
даноі
данська
данськии
данського
данськоі
данте
дану
данчик
данчика
данчиках
данчики
данчику
данчиків
дані
данів
даніель
даніеля
даніи
данія
даніі
дар
дара
дарвіна
дари
дарина
дарма
дарує
дарія
дасть
дат
дата
дати
датована
датовании
датовані
датою
дату
датування
датуються
датується
датчик
дах
дахи
дахно
дахо
дахом
даху
дача
дачнии
дачного
дачі
дають
даючи
дає
дається
даі
дбаи
два
двадцяти
двадцять
дванадцяти
дванадцять
двереи
дверима
дверях
двері
двигун
двигуна
двигунами
двигуни
двигуном
двигунів
движение
дво
двом
двома
двоповерховии
дворазова
дворазовии
дворах
двори
дворових
двором
двору
дворян
дворянин
дворянства
дворянство
дворянського
дворі
дворів
дворічнии
двосторонніх
двох
двоюріднии
двоє
двоі
двух
дві
двіи
двір
двісті
двічі
де
дебальцеве
дебати
дебатів
дебют
дебютнии
дебютним
дебютного
дебютному
дебюту
дебютував
дебютувала
дев
девенпорт
деві
девід
девіда
девідом
девіз
девіс
девіса
дегестані
дедалі
деи
декабря
декан
декана
деканату
деканом
декларацію
декларація
деклараціі
деколи
декор
декоративна
декоративнии
декоративних
декоративно
декоративного
декоративні
декоратор
декораціі
декору
декрет
декілька
декількома
декількох
дел
дела
делавер
делегат
делегатом
делегатів
делегацію
делегація
делегаціі
деление
делла
дело
дель
дельта
дельти
делі
дем
демо
демобілізаціі
демобілізовании
демографічна
демографічнии
демографічні
демократи
демократична
демократичнии
демократичних
демократичного
демократичноі
демократичну
демократичні
демократичніи
демократів
демократію
демократія
демократіі
демон
демонстраціи
демонстрація
демонстраціі
демонструють
демонструє
демонтовано
демонів
демоскоп
ден
дена
дении
денис
дениса
денисенко
дених
деннии
денного
денні
денніс
дено
день
дені
деніел
денікіна
департамент
департаментом
департаменту
департаменті
департаментів
депо
депортаціі
депортіво
депресія
депресіі
депутат
депутата
депутатами
депутати
депутатов
депутатом
депутатських
депутатськоі
депутатів
дер
дера
дербі
дерев
дерева
деревами
деревах
деревина
деревини
дерево
деревом
дереву
дереві
держ
держав
держава
державами
державах
держави
державна
державне
державнии
державним
державними
державних
державно
державного
державному
державності
державною
державноі
державну
державні
державніи
державність
державою
державу
державі
держадміністраціі
держбезпеки
держкіно
дериваціи
деркач
дерів
дес
десант
десантнии
десантники
десантників
десантних
десантно
десантноі
десанту
десна
десни
десь
десяти
десятии
десятиліття
десятиліть
десятин
десятини
десятиріччя
десятка
десятки
десятку
десятків
десяток
десять
деталеи
деталь
детальнии
детально
детальні
детальніше
деталями
деталях
деталі
дете
детеи
детектив
детектива
детектор
детрои
деться
деформаціі
дефіцит
дефіциту
дехто
децентралізація
децентралізаціі
деш
дещо
деяка
деяке
деякии
деяким
деякими
деяких
деякого
деякою
деякоі
деяку
деякі
деятельности
дж
джа
джаз
джазовии
джазу
джаи
джакомо
джан
джанет
джанкои
джанська
джанськии
джанського
джанськоі
джану
джані
джастін
джеи
джек
джека
джексон
джексона
джекі
дженні
дженніфер
дженоа
джерел
джерела
джерелами
джерелах
джерело
джерелом
джеремі
джеррі
джерсі
джессі
джессіка
джефф
джефферсон
джеффрі
джим
джима
джиммі
джин
джо
джоан
джованні
джозеф
джозефа
джои
джон
джона
джонатан
джонні
джоном
джонс
джонса
джонсон
джонсона
джону
джордан
джордж
джорджа
джорджем
джорджо
джорджія
джош
джошуа
джу
джуді
джузеппе
джульєтта
джулі
джулія
джі
дзвони
дзвонів
дзвін
дзвіницею
дзвіницю
дзвіниця
дзвіниці
дзвінок
дзержинського
дзеркала
дзеркало
дзьоб
дзьоба
дзьобом
дзюба
дзюдо
дзі
ди
див
дива
диверсіи
дивився
дивись
дивитись
дивитися
дивиться
дивляться
дивлячись
дивна
дивнии
дивним
дивно
дивні
диво
дивом
дивізіи
дивізіон
дивізіону
дивізіоні
дивізіонів
дивізію
дивізія
дивізією
дивізіі
дивіться
дизаи
дизель
дизельнии
дизельні
дика
дикии
диких
дикого
дикоі
диктатора
диктатури
дикі
дим
димитрія
диморфізм
диму
динамо
динаміка
динаміки
динаміку
динамічнии
динамічних
динамічного
динамічні
династіи
династію
династія
династіі
динозаврів
диплом
дипломат
дипломата
дипломатична
дипломатичнии
дипломатичних
дипломатичного
дипломатичноі
дипломатичну
дипломатичні
дипломатіі
дипломи
дипломом
директиви
директор
директора
директором
директорів
директоріі
дирекція
дирекціі
диригент
диригента
диригентом
дис
дисертаціи
дисертацію
дисертація
дисертаціі
диск
диска
диски
дискографія
дискримінаціі
диску
дискусіи
дискусія
дискусіі
дисків
дислокаціі
дисплеи
дисплеі
дистанціи
дистанція
дистанціі
дистриб
дисциплін
дисципліна
дисциплінах
дисципліни
дисципліну
дисципліні
дитина
дитини
дитиною
дитинства
дитинство
дитинстві
дитину
дитинчат
дитині
дитя
дитяча
дитячии
дитячим
дитячих
дитячо
дитячого
дитячому
дитячоі
дитячу
дитячі
дитячіи
диференціальних
диференціація
диференціи
дихальних
дихання
диш
диявол
диявола
дк
дка
для
дм
дмитра
дмитренко
дмитрии
дмитро
дмитрович
дмитром
дмитрівна
дна
днвп
днеи
днем
днии
дних
днк
дно
дного
дном
дноі
днр
дну
дня
днями
дні
днів
дніпра
дніпро
дніпровська
дніпровськии
дніпровського
дніпровськоі
дніпром
дніпропетровськ
дніпропетровська
дніпропетровськии
дніпропетровського
дніпропетровськоі
дніпропетровську
дніпропетровськіи
дніпрі
дністер
дністра
дністровськии
до
доба
доби
добитися
доблесну
доблесть
добра
добре
добрив
добрии
добрим
добрих
добро
добробут
добробуту
доброволець
добровольцем
добровольці
добровольців
добровольчоі
добровільно
доброго
доброчаева
доброі
добру
добрянськии
добрі
добу
добування
добутку
добуток
довга
довгасто
довгасті
довге
довгии
довгим
довгими
довгих
довго
довгого
довгому
довготи
довгою
довгоі
довгу
довгі
доведена
доведення
доведено
доведеться
довели
довелось
довелося
довести
довженка
довженко
довжина
довжини
довжиною
довжину
довжині
довкола
довкілля
доводилося
доводить
доводиться
доволі
довша
довше
довшии
довшим
довші
довів
довід
довідка
довідкове
довідник
довідника
довідники
довіра
довіри
довіру
догляд
догляду
договори
договором
договору
договорі
договорів
договір
догори
дод
додав
додавання
додаванням
додавати
додавши
додала
додали
додана
додании
додано
додані
додати
додатки
додаткова
додаткове
додатковии
додатковим
додатковими
додаткових
додатково
додаткового
додатковоі
додаткову
додаткові
додатком
додатку
додатків
додаток
додачу
додають
додаються
додає
додається
додому
доз
дозволено
дозволив
дозволила
дозволили
дозволило
дозволити
дозволить
дозволу
дозволяв
дозволяла
дозволяли
дозволяло
дозволялося
дозволяють
дозволяючи
дозволяє
дозволяється
дозвіл
дозвілля
дози
дозрівання
дои
док
доказ
докази
доказом
доказів
доки
докладно
докладніше
доктор
доктора
доктором
докторськии
докторських
докторську
докторів
доктрина
доктрини
документ
документа
документальна
документальнии
документальних
документально
документального
документальні
документами
документах
документація
документаціі
документи
документов
документом
документу
документы
документі
документів
дол
долар
долара
доларах
долари
доларів
долею
долин
долина
долинами
долинах
долини
долиною
долину
долині
долоні
долучився
долю
доля
долі
дом
дома
доманіцькии
домашнього
домашньому
домашньоі
домашню
домашня
домашнє
домашні
домашніи
домашнім
домашніх
домен
домену
доменіко
домовилися
домовленості
домогосподарств
домогосподарства
домогосподарствах
домогосподарство
домогосподарстві
домогтися
домом
дому
домі
домів
домігся
домінго
домінування
домінують
домінує
домінік
домініка
домішки
домішок
дон
дона
дональд
дональда
донбас
донбасу
донбасі
донецк
донець
донецьк
донецька
донецьке
донецькии
донецького
донецькому
донецькоі
донецьку
донецькіи
донеччині
донизу
донині
донна
донськии
донського
дону
донька
доньки
донькою
доньку
доньок
доньці
доп
допов
доповнене
доповнення
доповнюють
доповіддю
доповідеи
доповідь
доповіді
допоки
допомагав
допомагала
допомагали
допомагати
допомагають
допомагаючи
допомагає
допомога
допомоги
допомогла
допомогли
допомогло
допомогою
допомогти
допомогу
допоможе
допомозі
допоміг
допоміжнии
допоміжних
допоміжні
допускає
допускається
допустити
дор
дора
дордонь
дореволюціи
дореф
доробку
доробок
дорога
дорогами
дорогах
дороги
дорогии
дорогих
дорогоцінних
дорогою
дорогу
дорогі
дорожнього
дорожніи
дорозі
дорослии
дорослих
дорослого
дорослому
дорослоі
дорослу
дорослі
дороті
дорошенка
дорошенко
дортмунд
дору
доручення
дорученням
доручено
доручень
доручив
дорівнювати
дорівнює
доріг
доріжки
дос
досвід
досвідом
досвіду
досвідчении
досвідчених
досить
досконалості
дослівно
дослідженню
дослідження
дослідженням
дослідженнями
дослідженнях
дослідженні
досліджено
досліджень
досліджував
досліджували
досліджувати
досліджує
досліди
дослідив
дослідити
дослідна
досліднии
дослідник
дослідника
дослідниками
дослідники
дослідником
дослідників
дослідних
дослідницька
дослідницькии
дослідницьких
дослідницького
дослідницькоі
дослідниця
дослідного
дослідному
дослідноі
дослідні
дослідів
доставили
доставити
доставка
доставки
доставлении
достатку
достатньо
достатньою
достатньоі
достатню
достатніи
достеменно
достои
достоєвського
достроково
доступ
доступна
доступнии
доступним
доступними
доступних
доступною
доступні
доступність
доступом
доступу
доступі
досьє
досяг
досягала
досягати
досягають
досягає
досягається
досягла
досягли
досягло
досягнення
досягненням
досягненні
досягнень
досягнув
досягнувши
досягнута
досягнути
досягнуто
досягнуті
досягти
досі
дот
дотепер
доти
дотик
дотримання
дотриманням
дотримувався
дотримуватися
дотримуються
дотримується
доход
доходи
доходить
доходности
доходу
доходів
дохід
доцент
доцента
доцентом
дочка
дочки
дочкою
дочку
дочок
дочці
дошка
дошки
дошку
дошкільнии
дошці
дощ
дощових
дощок
дощу
дощі
дощів
дою
доярка
доі
дп
дпу
др
драгоманова
драи
дракон
дракона
драконів
драм
драма
драматична
драматичнии
драматичних
драматичного
драматичному
драматичні
драматург
драматурга
драматургіі
драми
драму
драмі
драфт
драфту
драфті
древнего
древнее
древнеи
древностеи
древніх
дрезден
дрездені
дреи
дроблення
дров
дрова
дрогобицькии
дрогобицького
дрогобицькоі
дрогобич
дрогобича
дрогобичі
дроту
дрофа
друг
друга
друге
другии
другим
других
другого
другом
другому
другорядних
другорядні
другою
другоі
другу
другі
другіи
дружба
дружби
дружбу
дружин
дружина
дружини
дружиною
дружину
дружині
дружні
друзям
друзями
друзі
друзів
друк
друкарня
друкарні
друкарства
друкованих
друковані
друком
друку
друкувався
друкувалися
друкувати
дріб
дрібна
дрібнии
дрібними
дрібних
дрібно
дрібного
дрібні
дрізд
дс
дсту
дтп
ду
дуб
дуба
дубенського
дуби
дубль
дубляж
дубляжу
дублін
дубліні
дубно
дубове
дубовии
дубовим
дубових
дубові
дубровицького
дуга
дуги
дуглас
дуда
дует
дуету
дуже
дужках
дужки
дузі
дуи
дук
дука
дум
дума
думав
думала
думали
думати
думаю
думають
думаючи
думає
думи
думка
думками
думки
думкою
думку
думок
думці
дунаи
дунаю
дунаєм
дунаі
дункан
дуплах
дурень
дусі
дуть
дух
духа
духи
духовенства
духовенство
духових
духовна
духовне
духовнии
духовним
духовних
духовно
духовного
духовному
духовності
духовноі
духовну
духовні
духовніи
духом
духу
духів
дучи
душ
душа
душанбе
душею
душу
душі
дъ
дырэктар
дь
дю
дюи
дюк
дюма
дюсш
дядька
дядько
дядьком
дякую
дятел
дять
дяченко
ді
діабет
діагноз
діагностика
діагностики
діаграма
діаграми
діал
діалект
діалекти
діалектом
діалекту
діалектів
діалог
діалоги
діалогу
діаметр
діаметра
діаметром
діаметрі
діана
діапазон
діапазоном
діапазону
діапазоні
діас
діаспора
діаспори
діб
діброва
дів
діва
діви
дівоцтві
дівоче
дівчат
дівчата
дівчаток
дівчина
дівчини
дівчинка
дівчинки
дівчинку
дівчиною
дівчину
дівчині
дід
діда
дідич
дідусь
діжона
дізнався
дізнавшись
дізналися
дізнатися
дізнаються
дізнається
діи
дік
діксон
діл
діла
ділан
ділення
ділить
ділиться
діло
діловии
ділових
ділового
дільниць
дільниця
дільницях
дільниці
ділянка
ділянками
ділянках
ділянки
ділянкою
ділянку
ділянок
ділянці
діляться
ділі
дім
дін
діна
дінця
діонат
діонісіи
діоцезіі
дір
діри
діскавері
діснеи
дістав
дістався
дістала
дісталася
дістали
дісталися
дістати
дістатися
дітеи
діти
діть
дітьми
дітям
дію
діють
діюча
діючи
діючии
діючих
діючі
дія
діяв
діяла
діяли
діяло
діяльності
діяльність
діяльністю
діями
діяння
діяти
діях
діяч
діяча
діячами
діячем
діячка
діячі
діячів
діє
дієвоі
дієвідміни
дієго
дієслова
дієслово
дієслівне
дієцезіі
дією
діі
дѣл
дѣлъ
е
ев
ева
евакуацію
евакуаціі
евакуи
еванс
евгении
еверт
еволюціи
еволюцію
еволюція
еволюціі
евреи
европеи
европы
егеи
его
егоі
егідою
ед
едвард
едварда
едвардс
едвін
едгар
едді
единиц
единого
единыи
едмонтон
едмунд
едо
едуард
едуарда
едуардо
едіт
ее
еи
екатеринославскои
еквадор
еквадору
еквадорі
екватора
екваторіальноі
еквівалент
екз
екземпляр
екземпляри
екземплярів
еко
еколого
екологічна
екологічнии
екологічних
екологічно
екологічного
екологічноі
екологічні
екологія
екологіі
економіка
економіки
економіко
економікою
економіку
економіст
економіці
економічна
економічне
економічнии
економічним
економічними
економічних
економічно
економічного
економічному
економічною
економічноі
економічну
економічні
економічніи
економіі
екосистем
екосистеми
екран
екрана
екрани
екрану
екрані
екранізація
екранізаціі
екс
екскурсіи
екскурсіі
експансіі
експедиціи
експедицію
експедиція
експедицією
експедиціі
експеримент
експериментальнии
експериментальних
експериментально
експериментального
експериментальноі
експериментальні
експерименти
експерименту
експериментів
експерт
експерти
експертиза
експертизи
експертноі
експертів
експлуатаціи
експлуатацію
експлуатація
експлуатаціі
експозиціи
експозиція
експозиціі
експонати
експонатів
експорт
експорту
експрес
екстремальних
екіпаж
екіпажем
екіпажу
екіпажі
екіпажів
ел
електрики
електрифікаціі
електрична
електричне
електричнии
електричним
електричних
електричного
електричноі
електричну
електричні
електро
електроенергію
електроенергіі
електромагнітних
електромагнітного
електрон
електрона
електрони
електронна
електронне
електроннии
електронних
електронно
електронного
електронному
електронноі
електронну
електронні
електронніи
електронів
електроніка
електроніки
електропоі
електростанціи
електростанція
електростанціі
електротехніки
елемент
елемента
елементами
елементарних
елементи
елементом
елементу
елементів
елен
елена
елеонора
еллен
еллі
ело
ель
ельзас
ельфів
елі
елізабет
еліптична
еліптичні
еліс
еліта
еліти
емблема
емблеми
емма
еммануель
еммануі
еммі
емоціи
емоціі
ему
емі
емігрантів
еміграція
еміграціі
емігрував
еміль
еміля
емілі
емілія
емір
еміра
емірат
емірату
ен
ена
енд
ендемік
ендеміком
ендоплазматичному
ендр
ендрю
енді
енергетика
енергетики
енергетична
енергетичнии
енергетичних
енергетичного
енергетичноі
енергетичні
енергіи
енергію
енергія
енергією
енергіі
енеі
енк
енн
енні
енріке
енріко
ентоні
енцикл
енциклопедичнии
енциклопедичних
енциклопедичного
енциклопедія
енциклопедіі
енцикльопедія
еом
епархии
епосу
епох
епоха
епохи
епоху
епідемія
епідеміі
епізод
епізодах
епізоди
епізоду
епізоді
епізодів
ер
ера
ерз
ери
еритреі
ерл
ермітаж
ернест
ернст
ернста
еро
ерозіі
ері
ерік
еріка
еріх
ес
есе
есеі
ескадра
ескадрении
ескадрених
ескадрені
ескадри
ескадрилья
ескадрильі
ескорту
ескіз
ескізи
если
есмінець
есмінця
есмінцями
есмінці
есмінців
еспаньи
есперанто
еспресо
ессекс
ест
естафеті
естер
естетики
естонська
естонськии
естонськоі
естонія
естоніі
естради
есть
есу
етап
етапах
етапи
етапом
етапу
етапі
етапів
етика
етики
етилену
етимологічнии
етимологія
етническа
етнограф
етнографічнии
етнографічноі
етнографіі
етнологіі
етнічна
етнічнии
етнічних
етнічного
етнічноі
етнічні
етьєн
етюди
ефект
ефекти
ефективна
ефективне
ефективнии
ефективним
ефективних
ефективно
ефективного
ефективності
ефективноі
ефективні
ефективність
ефектом
ефекту
ефектів
ефрон
ефрона
ефіопія
ефіопіі
ефір
ефіру
ефірі
ехо
еш
ешлі
еще
ж
жа
жаб
жаба
жаби
жаи
жак
жака
жаль
жан
жана
жанеи
жанна
жаном
жанр
жанрах
жанри
жанру
жанрі
жанрів
жар
жарт
жарти
жах
жаху
жахів
жджав
жджали
жджати
жджають
жджає
же
железнодорожные
женева
женеві
жер
жерар
жеребкування
жермен
жертв
жертва
жертвам
жертвами
жертви
жертвою
жертву
жею
жив
жива
живе
живии
живим
живими
живиться
живих
живлення
живляться
живого
живопис
живописець
живописом
живопису
живописі
живота
животных
животі
живою
живоі
живу
живуть
живі
живіт
жид
жиди
жидів
жизни
жизнь
жила
жили
жило
жирним
жиронда
жиру
жита
жителеи
житель
жителя
жителям
жителями
жителі
жителів
жити
житла
житло
житловии
житлових
житлово
житлового
житлові
жито
житомир
житомира
житомирська
житомирськии
житомирського
житомирськоі
житомирськіи
житомирщини
житомирщині
житомирі
життю
життя
життям
життєвии
життєвих
життєво
життєвого
життєві
життєдіяльності
життєпис
житті
життів
житя
житє
жмеринка
жовт
жовта
жовте
жовтень
жовтии
жовтим
жовтими
жовтих
жовтнева
жовтневии
жовтневого
жовтневоі
жовтня
жовтні
жовто
жовтого
жовтою
жовтоі
жовту
жовтувато
жовті
жоден
жодна
жодних
жодного
жодному
жодноі
жозе
жозеф
жорж
жоржа
жорсткии
жорстких
жорстко
жорсткого
жорсткі
жорстокии
жорстоко
жорстокого
жорстокі
жорстокість
жу
жуан
жуана
жук
жуки
жуков
жукова
жуковськии
жуковського
жуків
жулинськии
жуль
жупаніі
жура
журавель
журн
журнал
журналах
журнали
журналом
журналу
журналі
журналів
журналіст
журналіста
журналісти
журналістика
журналістики
журналістка
журналістом
журналістів
журі
жъ
жі
жінка
жінкам
жінками
жінки
жінкою
жінку
жінок
жіноча
жіноче
жіночии
жіночих
жіночого
жіночому
жіночоі
жіночу
жіночі
жіночіи
жінці
з
за
заарештовании
заарештовано
заарештовані
заарештували
забаи
забарвлення
забарвленням
забезпечення
забезпеченням
забезпеченні
забезпечені
забезпечив
забезпечила
забезпечили
забезпечити
забезпечував
забезпечувала
забезпечували
забезпечувати
забезпечують
забезпечуючи
забезпечує
забезпечується
забив
забивши
забирає
забити
забитим
забитими
забитих
заболочених
заболочені
заборона
заборонена
заборонении
заборонено
заборонені
заборони
заборонив
заборонила
заборонили
заборонити
заборону
забороняє
забороняється
забрав
забрала
забрали
забрати
забруднення
забув
забудова
забудована
забудови
забудову
забули
забути
забуття
забігу
зав
заважає
завантаження
завантажити
заввишки
завгодно
завдав
завдавши
завдала
завдали
завдання
завданням
завданнями
завдано
завдань
завдати
завдає
завдовжки
завдяки
завершена
завершении
завершенню
завершення
завершенням
завершенні
завершено
завершені
завершив
завершився
завершивши
завершила
завершилась
завершилася
завершили
завершилися
завершилося
завершити
завершував
завершує
завершується
завжди
завод
заводах
заводи
заводом
заводськии
заводського
заводу
заводі
заводів
завои
заволодіти
заворушення
заворушень
завоював
завоювала
завоювали
завоювання
завоювати
завтовшки
завтра
завширшки
завідував
завідувач
завідувача
завідувачем
завідувачка
завіту
заг
загадка
загадки
загаи
загалом
загалу
загальна
загальне
загальнии
загальним
загальними
загальних
загально
загальновіи
загального
загальнодержавного
загальнодержавному
загальному
загальноосвітньоі
загальноосвітня
загальноосвітніи
загальноосвітніх
загальноприи
загальною
загальноі
загальну
загальні
загальніи
загарбниками
загарбників
загатами
загатою
загибель
загибелі
загиблим
загиблими
загиблих
загиблого
загиблі
загинув
загинула
загинули
загинуло
заголовком
заголовок
загонами
загони
загоном
загону
загонів
загороднюк
загострення
загострені
загреб
загреба
загребі
загрожує
загроз
загроза
загрози
загрозою
загрозу
загін
заданого
задач
задача
задачу
задачі
задається
заде
задля
заднього
задньому
задньоі
задню
задня
задні
задніи
заднім
задніх
задовго
задоволении
задоволення
задоволенням
задовольнити
задовольняють
задовольняє
задум
задумом
задуму
задіянии
задіяні
заж
зажадав
зажу
зажі
зажів
зазвичаи
заздалегідь
зазнав
зазнавали
зазнавши
зазнала
зазнали
зазнало
зазначав
зазначалося
зазначає
зазначається
зазначении
зазначених
зазначення
зазначенням
зазначено
зазначені
зазначив
зазначивши
зазначила
зазначили
зазначити
зазнають
зазнає
заи
зак
закавказзя
заказник
заказника
закарпатська
закарпатського
закарпатськоі
закарпатськіи
закарпаття
закарпатті
закл
заклав
заклад
закладами
закладах
закладена
закладении
закладення
закладено
закладені
заклади
закладом
закладу
закладі
закладів
заклали
заклик
закликав
закликала
закликали
закликає
заклики
закликом
заклинання
заколот
заколоту
закон
законам
законами
закони
законним
законних
законності
законодавства
законодавство
законодавством
законодавстві
законодавча
законодавчих
законодавчого
законодавчоі
законодавчі
законодательного
законом
закономірності
законопроєкт
законопроєкту
закону
законі
законів
закордонних
закордонні
закохався
закохана
закохании
закохується
закрив
закриває
закрила
закрили
закрита
закрити
закритии
закритих
закрито
закритого
закриття
закриті
закріпився
закріпитися
закріплення
закріплено
закріплені
закупівлі
закінчена
закінченню
закінчення
закінченням
закінченні
закінчено
закінченоі
закінчену
закінчив
закінчився
закінчивши
закінчила
закінчилася
закінчили
закінчилися
закінчилося
закінчити
закінчуються
закінчуючи
закінчує
закінчується
зал
зала
залах
залежать
залежить
залежно
залежності
залежність
залесскии
зали
залишався
залишалася
залишали
залишалися
залишалося
залишати
залишатися
залишають
залишаються
залишаючи
залишаючись
залишає
залишається
залишении
залишені
залишив
залишився
залишивши
залишившись
залишила
залишилась
залишилася
залишили
залишились
залишилися
залишилось
залишилося
залишити
залишитися
залишиться
залишками
залишки
залишків
залишок
залоз
залози
залом
залу
залучався
залучати
залучення
залученням
залучені
залучити
зальцбург
залягання
залягають
залі
залів
заліза
залізна
залізнии
залізних
залізницею
залізниць
залізницю
залізниця
залізниці
залізнична
залізничне
залізничнии
залізничників
залізничним
залізничних
залізничного
залізничному
залізничноі
залізничну
залізничні
залізничніи
залізного
залізноі
залізняка
залізні
залізо
залізобетонних
залік
заліку
замало
замах
замаху
замбіі
замикання
замки
замком
замку
замків
замовив
замовити
замовлення
замовлень
замовника
замовчуванням
заможних
замои
замок
замолоду
заміж
заміжня
заміна
замінена
замінении
замінено
замінені
заміни
замінив
замінивши
замінила
замінили
замінити
заміною
заміну
замінює
замість
заміщення
занадто
занепад
занепаду
занепокоєння
занесении
занесених
занесено
занесені
заново
занурення
заньковецькоі
заняття
заняттям
занять
заохочення
заочно
зап
западини
западно
западнои
западныя
запалення
запалювання
запам
запаморочення
запас
запасами
запаси
запасних
запасу
запасі
запасів
запах
запахом
запаху
запеклі
заперечення
заперечував
заперечує
запис
записав
записала
записали
записами
записана
записании
записано
записані
записати
записах
записи
записка
записки
записом
запису
записувати
записує
записується
записі
записів
запит
запитав
запитання
запити
запиту
запитує
запитів
заплава
заплави
запланована
заплановании
заплановано
заплатив
заплатити
запліднення
запобігання
запобігає
запобігти
заповнення
заповідне
заповіднии
заповідник
заповідника
заповіднику
заповідників
заповідних
заповідного
заповіт
заповітом
заповіту
запозичення
запозичені
запорожець
запорожці
запорожців
запорозького
запоріжжя
запоріжжі
запорізька
запорізькии
запорізького
запорізькоі
запорізькіи
започатковано
започаткував
запровадження
запроваджено
запровадив
запропонована
запропоновании
запропоновано
запропоновані
запропонував
запропонувала
запропонували
запропонувати
запросив
запросили
запрошена
запрошении
запрошення
запрошено
запрошені
запрошують
запрошує
запуск
запускає
запуску
запустив
запустила
запустили
запустити
запушені
запущена
запущении
запущено
заради
зараження
зараз
зараховании
зараховано
зараховують
зарегистрировано
зареєстрована
зареєстровании
зареєстрованих
зареєстровано
зареєстровані
заробив
заробити
заробляти
заробітна
заробітноі
зародження
заростях
зарості
зарплати
зарубіжна
зарубіжних
зарубіжноі
зарубіжні
заручини
заручників
заряд
заряджання
заряду
зарядів
засад
засадах
засади
заселена
заселення
заслании
заслання
засланні
заслуг
заслуги
заслуговує
заслужена
заслужении
заслуженого
заснована
засноване
засновании
заснованих
засновано
заснованого
заснованоі
засновану
засновані
засновник
засновника
засновниками
засновники
засновником
засновників
засновниця
засновує
заснував
заснувала
заснували
заснування
заснувати
засобами
засобах
засоби
засобом
засобу
засобів
заспокоі
заст
застав
застава
застави
заставу
застосовано
застосовані
застосовувався
застосовували
застосовувалися
застосовувати
застосовуватися
застосовують
застосовуються
застосовуючи
застосовує
застосовується
застосував
застосування
застосуванням
застосуванні
застосувань
застосувати
застосунків
заступник
заступника
заступником
заступників
застібка
засуджении
засуджених
засудження
засуджено
засуджені
засудив
засудили
засіб
засідання
засіданнях
засіданні
засідань
засідку
зат
затверджена
затверджении
затвердження
затверджено
затверджені
затвердив
затвердила
затвердити
затвор
затвора
зате
затемнення
затока
затоки
затокою
затоку
затонув
затоплення
затоці
затримали
затримании
затримання
затримано
затримка
затримки
зауваження
зауважив
зауважити
зауважує
зафіксована
зафіксовании
зафіксовано
зафіксовані
зах
захар
захаров
захарович
захарченко
захворювання
захворюваннями
захворюваннях
захворювань
захворів
захисник
захисника
захисники
захисником
захисників
захисних
захисні
захист
захистив
захистила
захистити
захистом
захисту
захисті
захищав
захищала
захищали
захищати
захищають
захищаючи
захищає
захищена
захищении
захищено
захищені
заходами
заходах
заходи
заходить
заходом
заходу
заході
заходів
захопив
захопився
захопивши
захопила
захопили
захопити
захоплена
захоплении
захоплених
захоплення
захопленням
захопленні
захоплено
захоплені
захоплювався
захоплюють
захоплює
захоплюється
захотів
захід
західна
західне
західнии
західним
західними
західних
західно
західного
західному
західнопоморського
західноукраі
західною
західноєвропеи
західноі
західну
західні
західніи
західніше
зацікавився
зацікавлення
зацікавлені
зацікавленість
зачаття
заяв
заява
заяви
заявив
заявивши
заявила
заявили
заявки
заявку
заявлено
заявляв
заявляє
заявою
заяву
заявці
заяві
заєць
заі
зб
збагачення
зберегла
збереглась
збереглася
зберегли
збереглись
збереглися
збереглося
зберегти
збережена
збережении
збережених
збереженню
збереження
збереженням
збереженні
збережено
збережені
зберіг
зберігав
зберігався
зберігала
зберігалася
зберігали
зберігалися
зберігання
зберігати
зберігають
зберігаються
зберігаючи
зберігає
зберігається
зберігся
збив
збили
збирав
збирався
збирали
збиралися
збирання
збирати
збирають
збираються
збирає
збирається
збитии
збитки
збитків
зближення
збоку
зборами
зборах
збори
збору
зборів
зброи
зброю
зброя
зброєю
зброі
збруч
збудження
збудника
збудована
збудовании
збудовано
збудовані
збудував
збудували
збудувати
збуту
збігаються
збігається
збільшена
збільшении
збільшення
збільшенням
збільшенні
збільшено
збільшив
збільшився
збільшилась
збільшилася
збільшили
збільшити
збільшують
збільшує
збільшується
збір
збірка
збірках
збірки
збірку
збірна
збірник
збірника
збірники
збірнику
збірників
збірними
збірних
збірною
збірноі
збірну
збірні
збірніи
збірок
збірці
зв
зважаючи
звали
звана
зване
звании
званих
звания
звання
званням
званні
званого
званому
званоі
звану
звань
звані
зварювання
зве
зведена
зведении
зведення
зведено
зведеного
зведені
звезда
звели
зверинскіи
звернення
звернув
звернувся
звернулася
звернули
звернулися
звернути
звернутися
звертався
зверталися
звертатися
звертаються
звертає
звертається
зверхність
зверху
звести
зветься
звивистості
звинуватив
звинуватили
звинувачении
звинувачення
звинуваченням
звинувачень
звинувачували
звинувачують
звинувачує
звичаи
звичаєм
звичаі
зводиться
зворотнии
зворотного
зворотному
зворотніи
звук
звуки
звуковии
звукових
звукові
звукозапису
звукооператор
звукорежисер
звуку
звуків
звуть
звучання
звучать
звучить
звів
звід
звідки
звідси
звідти
звільнена
звільнении
звільнення
звільненні
звільнено
звільнені
звільнив
звільнився
звільнили
звільнити
звільняє
звір
звіра
звірі
звірів
звісно
звістка
звістку
звіт
звіти
звітності
звіту
звіті
звітів
згадав
згадании
згаданих
згадано
згадані
згадати
згадка
згадки
згадку
згадок
згадував
згадують
згадуються
згадує
згадується
згода
згоди
згодом
згодою
згоду
згори
згортання
згоряння
згорів
згоріла
зграи
зграі
згідно
зд
зда
здав
здавалось
здавалося
здавна
здався
здами
здании
здатен
здати
здатися
здатна
здатнии
здатних
здатності
здатні
здатність
здатністю
здах
здачі
здається
здебільшого
зди
здив
здили
здити
здить
здка
здки
здку
здобич
здобичі
здобув
здобував
здобуває
здобувши
здобула
здобули
здобути
здобутки
здобуття
здок
здом
здоров
здоровии
здорового
здорові
зду
зді
здібностеи
здібностями
здібності
здів
здіи
зе
зевса
зее
зеи
зеландія
зеландіі
зелена
зелене
зелении
зеленим
зеленими
зелених
зеленого
зеленому
зеленою
зеленоі
зеленськии
зеленського
зелену
зеленувато
зелені
земель
земельнии
земельних
земельного
земельноі
земельну
земельні
землевласників
землеробства
землеробство
землеробством
землетрус
землетрусу
землетрусів
землею
земли
землю
земля
земляків
землями
землях
землі
земних
земноводних
земного
земноі
земніи
земства
земська
земських
земського
земськоі
зен
зеніт
зенітна
зенітнии
зенітних
зенітно
зер
зера
зерен
зерна
зерно
зернових
зернові
ззаду
ззовні
зи
зима
зими
зимова
зимовии
зимових
зимового
зимовоі
зимову
зимові
зимою
зиму
зкату
зко
зла
злам
зламі
зле
злегка
зливаються
злии
злиття
зло
зловживання
злого
злодіи
злодіі
злом
злотих
злочин
злочинець
злочини
злочинності
злочинність
злочинністю
злочину
злочинця
злочинців
злочинів
зльоту
зліва
злітно
зм
змагалися
змагання
змаганнях
змаганні
змагань
змагатися
змагаються
змд
зменш
зменшення
зменшенням
зменшено
зменшилася
зменшити
зменшує
зменшується
змова
змови
змову
змові
змоги
змогла
змогли
змогу
зможе
зможуть
змозі
зму
змусив
змусивши
змусила
змусили
змусило
змусити
змушена
змушении
змушені
змушують
змушує
змі
зміг
зміи
змін
зміна
змінами
змінена
змінении
змінено
змінені
зміни
змінив
змінився
змінивши
змінила
змінилася
змінили
змінилися
змінило
змінилося
змінити
змінна
змінним
змінних
змінного
змінноі
змінні
зміною
зміну
змінювався
змінювалася
змінювати
змінюватися
змінюють
змінюються
змінюючи
змінює
змінюється
зміні
зміст
змістом
змісту
зміцнення
зміцнити
змішана
змішании
змішаних
змішаного
змішані
змішування
зміщення
змія
зміі
зн
зна
знав
знаи
знак
знака
знаками
знаки
знаком
знаку
знаків
знала
знали
знам
знаменита
знаменитии
знаменитих
знаменитого
знамениті
знании
знання
знаннями
знань
знаряддя
знарядь
знати
знатного
знать
знаті
знаходження
знаходився
знаходилась
знаходилася
знаходили
знаходились
знаходилися
знаходилось
знаходилося
знаходимо
знаходити
знаходитися
знаходить
знаходиться
знаходять
знаходяться
знаходячись
знахідка
знахідки
знахідок
значения
значення
значенням
значеннями
значенні
значень
значить
значиться
значна
значне
значнии
значним
значними
значних
значно
значного
значною
значноі
значну
значні
значніи
значущих
значіння
знаю
знають
знаючи
знає
знаємо
знаєте
знаєш
зненацька
знесення
зниження
зниженням
знижує
знижується
знизити
знизу
зник
зникають
зникає
зникла
зникли
зниклих
зникнення
зних
знищена
знищении
знищення
знищено
знищені
знищив
знищивши
знищила
знищили
знищити
знищує
знов
знову
зного
зному
зняв
знявся
зняла
знялась
знялася
зняли
знялися
знята
зняте
зняти
знятии
знято
зняття
зняті
зні
знімав
знімався
знімалася
знімали
знімання
знімати
зніматися
знімає
знімається
знімки
знімок
зо
зобов
зображає
зображена
зображении
зображення
зображенням
зображеннями
зображенні
зображено
зображень
зображені
зображують
зображує
зобразив
зовні
зовнішнього
зовнішньому
зовнішньою
зовнішньоі
зовнішню
зовнішня
зовнішнє
зовнішні
зовнішніи
зовнішнім
зовнішніми
зовнішність
зовнішніх
зовсі
зовсім
зозуля
зокрема
золота
золоте
золотии
золотим
золотими
золотих
золото
золотого
золотои
золотом
золотому
золотою
золотоі
золоту
золоті
золочів
зомбі
зон
зона
зонах
зонд
зони
зоною
зону
зоні
зоолог
зоологіі
зоопарк
зоопарку
зорею
зору
зоря
зоряна
зорянии
зоряних
зоряного
зоряноі
зоряну
зоряні
зорі
зосереджена
зосередження
зосереджено
зосереджені
зосередився
зош
зоя
зоі
зпг
зрада
зради
зраду
зраді
зразка
зразками
зразки
зразкове
зразком
зразків
зразок
зразу
зранку
зречення
зрештою
зрк
зробив
зробивши
зробила
зробили
зробило
зробити
зробить
зроблена
зроблене
зроблении
зроблених
зроблено
зроблені
зрозумів
зрозуміла
зрозуміли
зрозумілих
зрозуміло
зрозуміти
зросла
зросли
зросло
зростав
зростала
зростанню
зростання
зростанням
зростати
зростають
зростає
зросту
зрошення
зруи
зручнии
зручно
зручності
зрідка
зрікся
зрілості
зрілість
зріс
зріст
зс
зсередини
зсу
зсув
зсуву
зу
зуб
зубами
зуби
зубчасті
зубів
зумовлена
зумовлює
зумів
зуміла
зуміли
зунр
зупинив
зупинився
зупинили
зупинити
зупинка
зупинки
зупинку
зупиннии
зупиняються
зупиняє
зупиняється
зусилля
зусиллям
зусиллями
зусиль
зустрів
зустрівся
зустріла
зустріли
зустрілися
зустріти
зустрітися
зустріч
зустрічався
зустрічалися
зустрічатися
зустрічах
зустрічають
зустрічаються
зустрічає
зустрічається
зустрічеи
зустрічі
зх
зцілення
зчеплення
зъ
зять
зі
зіана
зібрав
зібрався
зібравши
зібрала
зібрали
зібралися
зібрана
зібрании
зібраних
зібрання
зібрано
зібрань
зібрані
зібрати
зіграв
зігравши
зіграла
зіграли
зіграних
зіграти
зізнався
зізнається
зіи
зіл
зілля
зімбабве
зінаі
зіновіи
зінченко
зір
зірка
зірками
зірки
зіркою
зірку
зірок
зіткнення
зіткнень
зіткнувся
зіткнулися
зія
зіі
зґвалтування
и
иван
иванов
иванович
игорь
игры
из
известия
изд
издавалась
издание
изданъ
изданіе
издательскии
издательство
изменении
изъ
ии
ик
ил
или
им
имени
империи
имперіи
имя
ин
индексы
институт
института
интервью
интернет
информационно
информация
инших
инші
ирина
искусств
искусства
искусство
испр
исследование
исследовании
исследования
истории
историко
историческая
исторические
историческии
история
итоги
итогов
их
ихъ
июля
июня
к
ка
кабардино
кабаре
кабель
кабелю
кабо
кабіна
кабінет
кабінети
кабінетом
кабінету
кабінеті
кабіни
кав
кава
кавалер
кавалеріи
кавалеріі
кавер
кави
кавказ
кавказу
кавказького
кавказькоі
кавказі
каву
каган
каганат
кадастр
кадастрова
каддафі
каденціі
кадет
кадетів
кадокава
кадр
кадри
кадрів
кажанів
каждому
каже
кажу
кажуть
кажучи
каз
казав
казала
казали
казанського
казанськоі
казань
казані
казарми
казати
казахи
казахскои
казахстан
казахстанская
казахстанскои
казахстану
казахстані
казахськии
казахськоі
казимир
казимира
казино
казка
казки
казначеи
казок
каи
как
какао
кал
калабрія
калгарі
кале
календар
календарем
календарь
календаря
календарі
калина
калини
калининградская
калинівка
калузькоі
калуш
кальвадос
кальського
кальцію
кальярі
калі
калібр
калібру
каліи
калініна
калінінградськоі
каліського
каліфорніи
каліфорнія
каліфорніі
калію
кам
камаз
камбоджі
каменем
каменю
каменя
каменяр
камені
каменів
камео
камер
камера
камери
камернии
камерного
камерою
камеру
камерун
камеруну
камері
ками
кампаніи
кампанію
кампанія
кампаніях
кампаніі
кампус
каміння
камінням
камінь
кан
кана
канада
канади
канадська
канадськии
канадських
канадського
канадськоі
канаду
канаді
канадієнс
канал
каналами
каналах
канали
каналом
каналу
каналі
каналів
канд
кандидат
кандидата
кандидати
кандидатом
кандидатських
кандидатську
кандидатури
кандидатуру
кандидатів
канзас
каннського
каннському
кано
каное
канон
канта
кантон
кантрі
канцелярія
канцеляріі
канцлер
канцлера
канцлером
каньи
канікули
капела
капели
капелюх
каплан
каплицю
каплиця
каплиці
капсули
капітал
капіталу
капітальнии
капітального
капіталізму
капітан
капітана
капітаном
капітуляціі
кар
кара
караван
каразіна
карантин
карантину
карась
карате
караі
карбованців
карбону
карбування
кардинал
кардинала
кардинально
карел
кареліі
карен
кари
карибського
каркас
карл
карла
карлик
карло
карлович
карлом
карлос
карлоса
карлсруе
карлу
кармен
карнегі
карого
кароль
кароля
каролін
кароліна
кароліни
каролінських
карпат
карпатах
карпати
карпатська
карпатського
карпатськоі
карпенка
карпенко
карпо
карпов
карт
карта
картах
картер
карти
картин
картина
картинах
картини
картинна
картиною
картину
картині
картка
картки
картку
картографічнии
картографія
картографіі
карток
картоплю
картопля
картоплі
карту
карты
карті
кару
карі
карін
каса
каси
каскад
каскаду
каспіи
кастилія
кастиліі
кастро
кат
каталог
каталоги
каталогу
каталогів
каталозі
каталонія
каталоніі
катання
катар
катарина
катару
катарі
катаріна
катастроф
катастрофа
катастрофи
категоризація
категорично
категоріи
категорію
категорія
категоріях
категоріі
катер
катери
катерина
катерини
катеринослав
катеринославськоі
катеринославі
катериною
катерину
катерів
като
католиками
католики
католиків
католицизм
католицька
католицькии
католицьких
католицького
католицькому
католицькою
католицькоі
католицьку
католицькі
католицькіи
катрін
катя
каунті
каф
кафе
кафедр
кафедра
кафедральнии
кафедрального
кафедри
кафедрою
кафедру
кафедрі
ках
каштелян
каштеляна
кая
каі
кб
кв
квадрат
квадратнии
квадратних
квадратів
кваліфікаціи
кваліфікацію
кваліфікація
кваліфікаціі
кваліфікованих
кваліфікувався
кваліфікувалася
квантова
квантових
квантовоі
квартал
квартали
кварталу
кварталі
кварталів
квартет
квартету
квартир
квартира
квартири
квартирою
квартиру
квартирі
квебек
квебеку
квитки
квитків
квиток
квт
квінт
квіт
квітами
квітень
квіти
квітка
квітками
квітки
квіткових
квіткові
квітня
квітні
квіток
квітів
кг
кдб
ке
кевін
кеи
келецького
келлі
кельн
кембридж
кемеровськоі
кемерон
кемпбелл
кен
кеннеді
кеннет
кенні
кент
кентуккі
кеніи
кенія
кеніі
кер
кераміка
кераміки
керма
кермо
кермом
керованих
керовані
керол
керолаи
керрі
керс
кертіс
керував
керувала
керували
керування
керуванням
керувати
керують
керуючии
керуючим
керуючого
керує
керується
керч
кері
керівнии
керівник
керівника
керівниками
керівники
керівником
керівників
керівних
керівництва
керівництво
керівництвом
керівництву
керівництві
керівні
кетлін
кетрін
кеті
кеш
ки
кидає
киев
киева
киеве
киевская
киевскии
киевского
киевскои
кии
килим
килими
ким
кино
кинув
кинувся
кинули
кинути
кип
кипіння
киргизстан
киргизстану
киргизькоі
кирила
кириленко
кирило
кирилович
кириченко
кировская
кисень
кислот
кислота
кислоти
кислотою
кислоту
киснем
кисню
кит
китаи
китаю
китаєм
китаі
ких
кишені
кишечника
кишиневі
кишинів
кишки
киян
києва
києво
києвом
києві
киі
кк
кл
кла
клавдіи
клавдія
клавішні
клавіші
кладки
кладовища
кладовище
кладовищі
кладуть
кладці
клаи
клан
клану
кланів
клапан
клара
кларк
кларка
клас
класах
класи
класика
класики
класиків
класифікаціи
класифікацію
класифікація
класифікацією
класифікаціі
класифікує
класицизм
класицизму
класична
класичнии
класичним
класичних
класичного
класичному
класичноі
класичну
класичні
класичніи
класом
класу
класі
класів
клаудіо
клаудія
клаус
клеи
клен
клеопатра
клер
клермон
клим
клименко
климент
климента
клин
кличе
кличко
клод
клода
клом
клонів
клопотання
клуб
клуба
клубами
клубах
клуби
клубнии
клубних
клубного
клубноі
клубом
клубу
клубі
клубів
клуж
ключ
ключа
ключем
ключовим
ключових
ключову
ключові
ключі
ключів
кляи
клівленд
клімат
кліматичних
кліматичні
кліматом
клімату
клінтон
клініка
клініки
клініці
клінічна
клінічних
клінічного
клінічноі
клінічні
кліп
кліпу
кліпі
клітин
клітинами
клітинах
клітини
клітинних
клітинноі
клітинніи
клітки
клієнт
клієнта
клієнти
клієнтів
км
кмд
кмда
кму
кн
кндр
книг
книга
книгами
книгах
книги
книгою
книгу
книжка
книжки
книжкова
книжковии
книжковоі
книжку
книжок
книжці
книзі
кнопка
кнопки
кнр
кну
княгиня
княгині
княжна
князем
князь
князю
князя
князями
князі
князів
князівств
князівства
князівство
князівством
князівстві
ко
коаліціи
коаліцію
коаліція
коаліціі
коб
кобзар
кобзаря
кобів
ков
кова
коваленко
коваль
ковальов
ковальчук
коваля
ковалів
ковель
ковии
ковому
ковськии
ковського
ковчег
кові
когда
кого
когось
когурьо
код
кодекс
кодексу
коди
кодовании
кодом
коду
кодування
кодується
коді
кодів
коен
коефіцієнт
коефіцієнта
коефіцієнти
коефіцієнтом
коефіцієнтів
кожевников
кожен
кожна
кожне
кожнии
кожним
кожного
кожному
кожною
кожноі
кожну
кожні
кожніи
коза
козак
козака
козакам
козаками
козаки
козаків
козацтва
козацтво
козацька
козацьке
козацькии
козацьких
козацько
козацького
козацькоі
козацькі
козаччини
кози
козлов
козловськии
кои
кокаі
коко
кокс
коктеи
кол
кола
колах
колгосп
колгоспи
колгоспників
колгоспницю
колгоспу
колгоспі
колгоспів
колег
колега
колегами
колеги
колегою
колегія
колегіі
коледж
коледжу
коледжі
коледжів
колектив
колективи
колективна
колективних
колективного
колективом
колективу
колективі
колективів
колективізаціі
колекціи
колекціонер
колекціонерів
колекцію
колекція
колекціях
колекціі
колеса
колесами
колесник
колесо
коли
коливання
коливань
коливається
колись
колишнього
колишньому
колишньою
колишньоі
колишню
колишня
колишнє
колишні
колишніи
колишнім
колишніми
колишніх
коллегии
коллекция
коллінз
коло
коловодник
колодязь
колом
коломбо
коломии
коломия
коломиі
коломои
коломієць
колон
колона
колонами
колони
колону
колоніальних
колоніального
колоніальноі
колонізаціі
колоніи
колоністи
колоністів
колонію
колонія
колоніями
колоніях
колонією
колоніі
колорадо
колос
колоски
колоі
колу
колумбіи
колумбія
колумбіі
кольорами
кольорах
кольори
кольоровии
кольорових
кольорові
кольором
кольору
кольорів
колі
колібрі
коліи
колін
коліна
колінах
колір
коліс
колію
колія
коліі
ком
команд
команда
командами
командах
команди
командир
командира
командири
командиром
командирів
команднии
командних
командно
командного
командному
командні
командор
командорськии
командою
команду
командував
командуванню
командування
командуванням
командувач
командувача
командувачем
команді
комаров
комарова
комах
комахами
комахи
комбаи
комбінат
комбінату
комбінаті
комбінаціи
комбінація
комбінаціі
комбіновані
комедіи
комедія
комедіі
комендант
коменданта
комендантом
коментар
коментарі
коментарів
комерціи
комет
комета
комети
коми
комитет
комитета
комитетомъ
комментарии
коммерсантъ
комо
комп
компакт
компактна
компактнии
компании
компаньи
компаніи
компанію
компанія
компаніям
компаніями
компанією
компаніі
компартіі
компенсацію
компенсаціі
компетенціі
комплекс
комплекси
комплексна
комплекснии
комплексних
комплексного
комплексноі
комплексні
комплексом
комплексу
комплексі
комплексів
комплект
комплектаціі
комплектування
комплектів
композитор
композитора
композитори
композитором
композиторів
композиціи
композицію
композиція
композицією
композиціі
компонент
компонента
компонентами
компоненти
компонентом
компонентів
компонування
комсомолець
комсомолу
комсомольская
комсомольська
кому
комун
комуна
комунальне
комунальних
комунального
комунальноі
комуни
комуною
комуну
комуні
комунізму
комунікаціи
комунікаціі
комуніст
комуністами
комуністи
комуністична
комуністичнии
комуністичних
комуністичного
комуністичноі
комуністів
комі
комік
комікс
комікси
коміксу
коміксів
комінтерну
комірки
комісар
комісара
комісаром
комісаріату
комісарів
комісіи
комісію
комісія
комісією
комісіі
комітет
комітети
комітетом
комітету
комітеті
комітетів
кон
конан
конвенція
конвенцією
конвенціі
конвои
конвою
конвоі
конго
конгрес
конгресу
конгресі
конденсату
кондратюк
конеи
конкакаф
конкретнии
конкретних
конкретно
конкретного
конкретноі
конкретні
конкурентів
конкуренцію
конкуренція
конкуренціі
конкурс
конкурсах
конкурси
конкурсу
конкурсі
конкурсів
конкурувати
коннектикут
коннор
кононенко
конотоп
конотопського
конрад
конрада
консервативноі
консерваторію
консерваторіі
консоль
консолі
константа
константин
константинополь
константинопольськии
константинопольського
константинополя
константинополі
констанція
конституціи
конституцію
конституція
конституцією
конституціі
конструктивно
конструктор
конструктора
конструктором
конструкціи
конструкцію
конструкція
конструкцією
конструкціі
конструювання
консул
консула
консулом
консульства
консульство
консультант
консультантом
консультаціи
консультаціі
контакт
контактах
контакти
контакту
контакті
контактів
конте
контеи
контекст
контексту
контексті
контент
контенту
континент
континентальнии
континентальних
континентального
континентальноі
континентальніи
континенту
континенті
континентів
контори
контр
контракт
контракти
контрактом
контракту
контрактів
контролем
контролер
контроль
контрольно
контрольноі
контролю
контролював
контролювали
контролювати
контролюють
контролює
контролюється
контрреволюціи
конуса
конф
конфедераціи
конфедерація
конфедераціі
конференции
конференціи
конференцію
конференція
конференціях
конференціі
конфесіи
конфлікт
конфлікти
конфлікту
конфлікті
конфліктів
конфігураціі
конфіденціи
конца
концентраціи
концентрацію
концентрація
концентраціі
концепт
концепціи
концепцію
концепція
концепцією
концепціі
концерн
концерну
концерт
концертами
концертах
концерти
концертнии
концертних
концертні
концерту
концерті
концертів
концтабору
коня
коні
конінського
кооператив
коопераціі
координат
координатами
координати
координатор
координаціи
координаціі
коп
копалин
копалини
копальні
копенгаген
копенгагені
копіи
копію
копіювання
копія
копіі
кор
кора
корабель
кораблем
корабля
кораблями
кораблях
кораблі
кораблів
корану
кордова
кордон
кордонах
кордони
кордоном
кордону
кордоні
кордонів
кореи
корекціі
кореня
корені
коренів
кореспондент
кореспондентом
корея
кореі
кори
коридор
коридору
кориснии
корисним
корисних
корисного
корисноі
корисні
користувався
користувалася
користувалися
користування
користуванні
користуватися
користувач
користувача
користувачам
користувачами
користувачеві
користувачем
користувачі
користувачів
користуються
користуючись
користується
користь
коричнева
коричневе
коричневии
коричневими
коричнево
коричневого
коричневі
корм
корму
корнеліи
корнелія
корніи
коробка
коробки
коробкою
коробку
коробочка
коров
корови
корозіі
королева
королеви
королевою
королеву
королеві
королем
короленка
король
корольова
королю
короля
королі
королів
королівств
королівства
королівство
королівством
королівству
королівстві
королівська
королівське
королівськии
королівським
королівських
королівського
королівському
королівською
королівськоі
королівську
королівські
королівськіи
корона
коронавірус
коронавірусноі
коронавірусу
коронація
коронаціі
корони
короннии
коронного
короною
корону
короні
коростень
коротка
коротке
короткии
коротким
короткими
коротких
коротко
короткого
короткометражнии
короткометражних
короткому
короткою
короткоі
коротку
короткі
короткіи
коротша
коротшии
коротші
корпоративних
корпораціи
корпорація
корпорацією
корпораціі
корпус
корпуса
корпуси
корпусом
корпусу
корпусі
корпусів
корреспондент
корсакова
корсика
корсунь
кортах
кору
корупціи
корупцією
корупціі
корі
корів
корінних
корінного
коріння
корінням
корінні
корінь
кос
коса
коси
космодрому
космонавт
космонавтики
космонавтів
космос
космосу
космосі
космічна
космічнии
космічним
космічних
космічного
космічному
космічноі
космічні
косова
косово
коста
костанаи
костел
костелу
костелі
костенко
костомаров
костромскои
костромськоі
кость
костюк
костюм
костюмах
костюми
костюмів
костя
костянтин
костянтина
костянтинович
костянтином
костянтинівка
кості
косів
кот
кота
котел
коти
котла
котли
котляревського
котлів
котов
которые
которыи
котра
котре
котрии
котрим
котрих
котрого
котрому
котроі
котру
котрі
котріи
котів
коул
кох
кохана
кохання
коцюбинськии
коцюбинського
кочові
кошик
кошовии
кошового
кошти
коштом
коштує
коштів
кою
коі
кп
кпк
кпп
кпрс
кпу
кпі
кр
кра
кравець
кравченко
кравчук
краз
краи
кракова
кракові
краків
краківськии
краківського
краматорськ
крамниця
крамниці
кран
краплі
краса
краси
красна
красная
красне
краснии
красноарміи
красного
краснодар
краснодарського
краснои
красноярського
красныи
красою
красу
красуня
кратер
кратера
кратерів
краткая
краткии
крах
краху
краща
краще
кращии
кращим
кращими
кращих
кращого
кращому
кращою
кращоі
кращу
кращі
краю
края
краями
краях
краєвид
краєвиди
краєзнавець
краєзнавства
краєзнавство
краєзнавців
краєзнавчии
краєзнавчого
краєзнавчому
краєзнавчоі
краєзнавчі
краєм
краі
крб
кредит
кредити
кредиту
кредитів
креи
крем
кременець
кременецького
кременчук
кременчука
кременчуцькии
кременчуцького
кременчуці
кремль
кремля
кремнію
кремінь
креслення
крива
кривбас
кривенко
кривии
кривих
кривого
кривому
криворізькии
криворізького
кривошея
кривоі
криза
кризи
кризу
крик
крики
крикнув
крил
крила
крилами
крилах
крило
крилом
крилі
крим
кримська
кримське
кримськии
кримських
кримського
кримському
кримськотатарського
кримськоі
кримські
криму
кримінальна
кримінальне
кримінальнии
кримінальних
кримінально
кримінального
кримінальному
кримінальноі
кримінальну
кримінальні
криниця
криниці
крип
кристал
кристали
кристалів
крит
критеріи
критеріям
критеріями
критерієм
критеріі
критик
критика
критиками
критики
критикою
критику
критикував
критикували
критиків
критиці
критичнии
критичних
критично
критичного
критичноі
критичні
крихітка
кричить
криі
кров
крови
кровообігу
крові
крои
крок
кроки
кроком
кроку
кроків
крон
кропив
кропивницькии
кропивницького
крос
кроуфорд
круг
кругла
круглии
круглих
круглого
круглі
кругом
крук
крус
крутии
крутих
круті
крушельницькоі
круі
крым
крыма
крыму
крячок
крігсмаріне
крізь
крік
крім
кріпаків
кріпацтва
кріпиться
кріплення
кріс
кріса
крісла
крісло
крістоф
крістофер
крісті
крістіан
крістіана
крістін
крістіна
кс
ксд
ксенія
кт
кто
ку
куб
куба
кубань
кубані
куби
кубка
кубкового
кубку
кубків
кубок
кубі
кубіи
кувеи
куди
кудись
кудрицькии
кудрицького
кузнецов
кузнецова
кузня
кузнєцов
кузов
кузова
кузовом
кузьма
кузьменко
кузьмич
куи
кук
кука
кукурудза
кукурудзи
кулемет
кулемета
кулемети
кулеметів
кулею
кулик
куль
культ
культу
культур
культура
культурах
культури
культурна
культурне
культурнии
культурним
культурних
культурно
культурного
культурному
культурноі
культурну
культурні
культурологічнии
культурою
культуру
культуры
культурі
кульчицькии
кулю
куля
кулі
куліш
куліша
кумарці
кун
куневич
куп
купе
купер
купець
купи
купив
купила
купили
купити
купол
купола
куполом
купувати
купує
купця
купці
купців
купівлю
купівлі
кур
куратор
курбаса
курган
кургани
курганскои
курганськоі
кургану
курганів
куре
куреи
куреня
кури
курка
курорт
курорту
курс
курсантів
курсах
курси
курсом
курсу
курсують
курсує
курська
курськоі
курсі
курсів
курт
курінь
кут
кута
кутами
кутах
кутаі
кути
кутку
кутом
кутузова
куті
кутів
кухар
кухня
кухні
кучеренко
кучма
кучми
кушнір
кущ
кущі
кущів
куявсько
куі
кшиштоф
кшталт
къ
към
кю
кюрі
кюсю
кі
кібернетики
ків
кіевская
кіевскои
кіз
кіи
кіл
кілець
кілограмів
кілометр
кілометра
кілометрах
кілометри
кілометрів
кіль
кілька
кількома
кількостях
кількості
кількох
кількість
кількістю
кільце
кільцем
кільця
кім
кімнат
кімната
кімнати
кімнату
кімнаті
кін
кіна
кінг
кінга
кінгс
кінематограф
кінематографа
кінематографу
кінематографі
кінематографістів
кінематографіі
кінець
кіннии
кінних
кінного
кіннота
кінноти
кінноі
кінні
кіно
кіноакадеміі
кіноактор
кінокомедія
кінокритиків
кіномистецтва
кінооператор
кінопреміі
кінорежисер
кіностудія
кіностудіі
кінотеатр
кінотеатрах
кінотеатру
кінотеатрів
кінофестиваль
кінофестивалю
кінофестивалі
кінофільм
кінофільмів
кінських
кінцева
кінцевии
кінцевих
кінцевого
кінцевому
кінцевою
кінцевоі
кінцеві
кінцем
кінця
кінцями
кінцях
кінці
кінців
кінцівки
кінцівок
кінь
кіньми
кіото
кіпр
кіпру
кіпрі
кір
кіра
кірова
кіровоград
кіровоградська
кіровоградського
кіровоградськоі
кіровська
кіровськоі
кістка
кістки
кісток
кість
кіт
кішка
кішки
кішок
л
ла
лабораторних
лабораторіи
лабораторію
лабораторія
лабораторією
лабораторіі
лабінськии
лабіринт
лав
лава
лавах
лави
лавка
лавки
лавок
лавра
лаврентіи
лаврентія
лаври
лавров
лаврі
лаві
лагуна
лад
лада
ладу
лаз
лазар
лазаренко
лазаря
лазер
лазні
лазурнии
лаи
лама
лами
ламп
лампи
лан
лана
лангедок
ланд
ландау
ланду
ландшафт
ландшафти
ландшафтнии
ландшафтного
ландшафту
ландшафтів
ланді
ланка
ланки
ланкою
ланок
ланцетні
ланцюг
ланцюга
ланцюги
ланцюгів
ланці
лаос
лаосу
лапи
лара
лариса
ларрі
ларс
лас
ласка
ласкаво
ласки
ласло
ластівка
лат
латвіи
латвія
латвіі
латини
латиною
латинська
латинськии
латинських
латинського
латинською
латинськоі
латинську
латинськіи
латис
лаура
лауреат
лауреата
лауреати
лауреатка
лауреатом
лауреатів
лаціо
лгбт
лд
ле
лебедєв
лебідь
лев
лева
левенець
леви
левиц
левицькии
левицького
левко
левом
левченко
леві
левів
левін
легалізаціі
легенд
легенда
легендарнии
легендарного
легенди
легендою
легенду
легень
легені
легенів
легка
легкии
легким
легких
легко
легкоатлет
легкоатлетка
легкових
легкого
легкою
легкоі
легкі
легкіи
легше
легіон
легіону
ледве
ледь
леді
лежав
лежала
лежали
лежать
лежачи
лежить
лез
леи
лексика
лексики
лексикон
лекции
лекціи
лекція
лекціі
лелека
лем
лемко
лемківщини
лен
лена
ленд
ленинград
ленинградская
ленинградскои
ленко
лені
ленін
леніна
ленінград
ленінграда
ленінградськии
ленінградського
ленінградському
ленінградськоі
ленінграді
ленінська
ленінськии
ленінського
ленінськоі
леніну
лео
леон
леона
леонард
леонардо
леоне
леонид
леонтовича
леонтіи
леоні
леонід
леоніда
леонідович
леопольд
леопольда
леп
лер
лера
лермонтова
лесбіи
леслі
лесото
лестер
лесь
леся
лесі
лет
летить
летию
летопись
летять
лех
лещенко
лз
ли
либідь
лига
лижних
лижного
лии
лик
лиман
лиману
лип
липа
липень
липецкои
липецкстат
липецькоі
липи
липинськии
липня
липні
лис
лиса
лисенка
лисенко
лисиця
лисиці
лист
листа
листами
листах
листи
листка
листки
листків
листові
листок
листом
листопад
листопада
листопадаа
листопаді
листочки
листування
листя
листям
листяних
листі
листів
листівки
листівок
лит
литаври
литва
литви
литвин
литвиненка
литвиненко
литвою
литві
литература
литературная
литературы
литовська
литовське
литовськии
литовським
литовських
литовсько
литовського
литовському
литовськоі
литовські
литографія
лиха
лихо
лиц
лицар
лицарськии
лицарського
лицаря
лицарі
лицарів
лице
лицем
лиця
личаківському
личинки
личинок
лиш
лишаи
лишається
лише
лишень
лишився
лишились
лишилися
лк
лка
лксму
лл
ллои
лнр
лну
ло
лоб
лобі
лов
лова
лович
ловича
ловлять
лові
логои
логос
логотип
логотипу
логіка
логіки
логічних
логічно
лодзинського
лодзь
лодзі
ложі
лози
лозова
лои
лок
локальних
локально
локальні
локалізаціі
локалізовании
локомотив
локомотива
локі
лом
ломбардія
ломжинського
ломоносова
лон
лонг
лондон
лондона
лондонськии
лондонського
лондонському
лондоні
лопес
лор
лора
лоран
лорд
лорда
лордом
лордів
лорен
лоренсо
лоренцо
лорі
лос
лось
лот
лотарингія
лотарингіі
лоу
лоуренс
лох
лс
лтд
лу
луар
луара
луари
луб
лубенського
лубни
лувр
луг
луганськ
луганська
луганськии
луганського
луганськоі
луганську
луганськіи
луганщині
лук
лука
лукас
луках
лукаш
лукашенко
луки
луків
луна
луска
луски
луценко
луцьк
луцька
луцькии
луцького
луцькому
луцькоі
луцьку
луціи
луція
луч
луі
ль
льва
львов
львова
львович
львові
львів
львівська
львівське
львівськии
львівських
львівського
львівському
львівськоі
львівську
львівські
львівськіи
львівщини
львівщині
льнии
льович
льодовик
льодовика
льодовикового
льодовиків
льодом
льоду
льон
льотчик
льотчика
льотчиків
льська
льськии
льських
льського
льськоі
льюі
льєж
лю
люба
любви
любив
любила
любили
любителів
любити
любить
люблю
люблять
люблін
люблінського
любліні
любов
любовь
любові
любомир
любуського
людвіг
людвіга
люде
людеи
люди
людина
людини
людиною
людину
людині
людмила
людмили
людовик
людовика
людовіка
людства
людство
людська
людське
людськии
людських
людського
людськоі
людську
людські
люду
людьми
людям
людях
люк
люка
люкс
люксембург
люксембургу
люсі
лют
лютии
лютневоі
лютого
лютому
люфтваффе
ля
лягли
ляи
ляльки
ляльок
лян
ляшко
лі
ліберальноі
лібертадорес
ліберіі
лібрето
лів
ліва
ліван
лівану
лівані
ліве
ліверпуль
ліверпуля
лівии
лівим
лівих
лівка
лівна
лівобережжя
лівобережноі
лівого
лівому
ліворуч
лівою
лівоі
лівська
лівськии
лівського
лівськоі
ліву
ліві
лівіи
лівія
лівіі
ліг
ліга
лігах
ліги
лігу
лід
лідер
лідера
лідерами
лідери
лідером
лідерство
лідерів
лідс
лідія
ліжка
ліжко
ліжку
ліжок
ліз
ліза
лізин
лізі
ліи
лікар
лікарем
лікарень
лікарню
лікарня
лікарні
лікарська
лікарськии
лікарських
лікарські
лікаря
лікарі
лікарів
ліквідацію
ліквідація
ліквідаціі
ліквідована
ліквідовании
ліквідовано
ліквідовані
ліквідувати
ліки
ліком
лікувався
лікувальних
лікувально
лікування
лікуванні
ліків
лілля
лілі
лілія
ліма
лін
ліна
лінгвіст
лінгвістики
лінда
ліндсі
лінкольн
лінкор
лінкора
лінкори
лінкорів
лінн
лінь
лініи
лінію
лінія
лініями
лініях
лінією
лініі
ліон
ліона
ліпше
ліпідів
лір
ліра
лірика
лірики
ліс
ліса
лісабон
лісабонського
лісабоні
лісами
лісах
ліси
лісництва
лісництво
лісова
лісове
лісовии
лісових
лісового
лісовому
лісовоі
лісові
лісовіи
лісом
лісостеповоі
лісостепу
лісу
лісі
лісів
літ
літа
літак
літака
літаками
літаках
літаки
літаком
літаку
літаків
літальних
літати
літають
літер
літера
літерами
літератор
літераторів
література
літератури
літературна
літературне
літературнии
літературним
літературних
літературно
літературного
літературному
літературною
літературноі
літературну
літературні
літературніи
літературознавець
літературознавства
літературознавство
літературознавча
літературою
літературу
літературі
літери
літерою
літеру
літнього
літньоі
літня
літні
літніи
літніх
літо
літом
літопис
літописах
літописець
літопису
літописі
літра
літровии
літрів
ліття
літургіи
літургіі
ліфс
ліхтенштеи
ліцеи
ліцензування
ліцензіи
ліцензію
ліцензія
ліцензією
ліцензіі
ліцею
ліцеі
лія
м
ма
мабуть
мав
мавзолеи
мавп
мавпи
маврикіи
мався
маг
магазин
магазинах
магазини
магазину
магазині
магазинів
магараджа
магдалена
магнус
магнітне
магнітнии
магнітних
магнітного
магнітні
магнію
магістр
магістра
магістраль
магістралі
магістрату
магія
магіі
мадагаскар
мадагаскару
мадам
мадеи
мадонна
мадрид
мадрида
мадриді
мажор
маз
мазепа
мазепи
мазовецького
мазур
мазурського
маи
мак
макао
макар
макаренка
макаренко
макаров
макарова
макдональд
македонськии
македонського
македонія
македоніі
макет
маккабі
маккартні
маккеи
маккензі
макс
макса
максим
максима
максимальна
максимальне
максимальнии
максимально
максимального
максимальною
максимальноі
максимальну
максимович
максимум
максимуму
максиміліан
максиміліана
макіі
мал
мала
малаві
малаи
малась
малася
малдер
мале
маленька
маленьке
маленькии
маленьким
маленькими
маленьких
маленького
маленькому
маленькоі
маленьку
маленькі
мали
малии
малим
малими
мались
малися
малих
мало
малого
малои
малому
малопольського
малороссии
малороссіи
малоросіи
малося
малою
малоі
малу
мальме
мальта
мальти
мальті
мальтіи
малював
малювання
малювати
малюк
малюнка
малюнками
малюнки
малюнком
малюнку
малюнків
малюнок
малює
маляр
малі
маліи
малік
мама
мами
мамо
мамою
ман
мана
манганова
мандат
мандатів
мандри
мандрівник
мандрівника
мандрівники
мандрівників
мане
манера
манери
манері
маними
маних
манн
мання
мансур
мансіи
ману
мануель
мануі
манців
манча
манчестер
манш
мані
маніфест
манґа
манґи
мао
маорі
мапа
мапи
мапі
мар
мара
марафон
марганцю
маргарет
маргарита
маргарити
мардж
маре
марек
марина
марини
маринич
марино
мария
марк
марка
марказі
маркграф
маркевич
маркетинг
маркетингу
марки
марко
марков
маркова
маркович
марком
маркою
маркс
маркса
марксизму
марку
маркування
маркус
маркіз
маркіза
мармур
мармуру
марна
марно
марок
марокко
марс
марса
марсель
марселя
марсі
март
марта
мартен
марти
мартин
мартина
мартинов
мартинюк
мартиролог
марті
мартін
мартіна
мартінес
мартіном
мару
маруся
марченко
марчук
марш
маршал
маршала
маршалл
маршалок
маршрут
маршрутах
маршрути
маршрутом
маршруту
маршруті
маршрутів
маршу
марші
марі
маріанна
маріи
маріо
маріон
маріуполь
маріупольського
маріуполя
маріуполі
марію
марія
марією
маріі
мас
маса
маси
масив
масиви
масивні
масиву
масиві
масивів
маска
маски
маску
масла
маслихата
масло
масова
масове
масовии
масовим
масових
масово
масового
масовоі
масові
масою
массачусетс
масу
масштаб
масштабах
масштаби
масштабні
масштабу
масштабі
масі
мат
матвіи
матвія
матвієнко
матвіі
матеи
математик
математика
математики
математику
математиків
математиці
математична
математичне
математичнии
математичних
математичного
математичноі
математичні
матер
материалов
материалы
материка
материків
материнства
материнська
материнськоі
материнськіи
матері
матеріал
матеріалами
матеріалах
матеріали
матеріалом
матеріалу
матеріальних
матеріально
матеріального
матеріальноі
матеріальну
матеріальні
матеріалі
матеріалів
матерів
матеріі
мати
матильда
матиме
матимуть
матись
матися
матки
матриць
матриця
матриці
матрос
матросів
мату
матч
матчах
матчем
матчу
матчі
матчів
матір
маунт
мафіі
мах
махмуд
махно
махові
мацеи
мач
маша
машин
машина
машинами
машинах
машини
машиннии
машинно
машинного
машинобудування
машинобудівнии
машинобудівного
машиною
машину
машині
машиніст
маю
мають
маються
маючи
маючись
мая
маяк
маяковського
маямі
має
маємо
маєр
маєте
маєтки
маєтку
маєтків
маєтності
маєток
мається
маєш
маі
мб
мв
мвд
мвс
мвт
мвф
мг
мгу
мгц
мдб
мду
ме
меблі
меблів
меган
мед
медалеи
медаллю
медаль
медальи
медалями
медалі
медаліст
медалістка
медведєв
медиа
медик
медико
медиків
медицина
медицини
медицину
медицині
медична
медичне
медичнии
медичним
медичних
медичного
медичному
медичноі
медичну
медичні
медичніи
медресе
медсестра
меду
медіа
медіана
медіани
медіи
медісон
медічі
меж
межа
межами
межах
между
международныи
межею
межи
межиріччя
межу
межує
межі
мез
меи
мекленбург
мексика
мексиканська
мексиканськии
мексиканського
мексиканськоі
мексики
мексико
мексиці
мелодрама
мелодіи
мелодію
мелодія
мелодіі
мельбурн
мельбурні
мельник
мельника
мельников
мельничук
мелітополь
мелітопольського
мембрани
мембрані
меморандум
меморіал
меморіалу
меморіальна
меморіальнии
меморіального
меморіальну
меморіальні
мемуари
мен
мене
менеджер
менеджера
менеджери
менеджером
менеджмент
менеджменту
менна
меннии
менник
менним
менного
менному
менною
менноі
менніи
менована
меноване
меновании
меновано
менували
менування
менувань
менувати
менш
менша
менше
меншии
меншим
меншими
меншин
меншини
менших
меншого
меншості
меншою
меншоі
меншу
менші
меншіи
меню
меня
мені
мер
мера
мереж
мережа
мережах
мережевих
мережею
мережу
мережі
мерк
меркуріи
мером
мерседес
мерт
мертва
мертвии
мертвим
мертвих
мертвого
мертві
мерфі
мері
меріленд
меріі
месники
месопотаміі
мессі
мест
места
место
мет
мета
метаболізм
метал
металевии
металевих
металеві
метали
металу
металург
металурга
металургіи
металургія
металургіі
металів
металіст
металіста
метану
метелик
метелики
метеликів
мети
метод
методами
методи
методика
методики
методику
методист
методичнии
методичних
методичноі
методичні
методологія
методологією
методологіі
методом
методу
методы
методів
метою
метр
метра
метрах
метри
метричних
метро
метровии
метрополіи
метрополітен
метрополітену
метрополіі
метрів
метт
меттью
мету
метью
меті
метіонін
мефодіи
мефодія
механізаціі
механізм
механізми
механізмом
механізму
механізмів
механізована
механізованого
механізованоі
механік
механіка
механіки
механіко
механічна
механічнии
механічних
механічного
механічноі
механічні
мехмед
мехіко
меца
меценат
меч
меча
мечами
мечем
мечеть
мечеті
мечникова
мечі
мешкав
мешкала
мешкали
мешкало
мешканець
мешканця
мешканцям
мешканцями
мешканці
мешканців
мешкають
мешкає
мещера
мещери
мзс
ми
мии
микита
микити
микитович
мико
микола
миколаи
миколая
миколаєва
миколаєві
миколаі
миколи
миколою
миколу
миколі
мила
милии
милосердя
миль
милях
милі
мимоволі
министерства
минск
минуле
минулим
минулих
минуло
минулого
минулому
минулі
мир
мира
миргородського
мире
мирне
мирнии
мирним
мирних
мирного
мирноі
мирну
мирні
мирович
мировои
миром
мирон
мирослав
мирослава
миротворець
миру
мис
мислення
мисливець
мисливці
мисливців
мистецтв
мистецтва
мистецтво
мистецтвознавець
мистецтвознавства
мистецтвом
мистецтву
мистецтві
мистецька
мистецькии
мистецьких
мистецького
мистецькоі
мистецькі
мису
мисі
мита
митець
митна
митнии
митних
митниці
митного
митноі
митрополит
митрополита
митрополитом
митрополіі
миттєво
митця
митці
митців
мить
миха
михаи
михаил
михалик
михаі
миша
мишеи
миші
мк
мкм
мкс
мкф
мл
млин
млина
млини
млинів
млн
млрд
мм
мн
мне
много
множення
множествѣ
множин
множина
множини
множиною
множину
множині
мною
мнс
мні
мо
мобільнии
мобільних
мобільного
мобільні
мобілізаціі
мобілізовании
мов
мова
мовами
мовах
мови
мовив
мовии
мовлення
мовляв
мовна
мовнии
мовних
мовного
мовноі
мовні
мовознавець
мовознавства
мовознавство
мовою
мову
мовчан
мовчання
мовчки
мові
мовірно
мовірностеи
мовірності
мовірні
мовірність
мовірністю
могил
могила
могили
могилою
могилу
могильник
могилянська
могилянськоі
могилі
могилів
могла
могли
могло
мого
моголів
могутності
могутніи
могутність
мод
мода
моделеи
моделлю
модель
моделювання
моделями
моделях
моделі
модерн
модерну
модернізацію
модернізація
модернізаціі
модернізму
модернізовании
моди
модифікаціи
модифікація
модифікаціі
модулем
модуль
модуля
модулі
модулів
може
можемо
может
можете
можеш
можлива
можливе
можливии
можливим
можливих
можливо
можливого
можливостеи
можливостями
можливості
можливоі
можливу
можливі
можливість
можливістю
можна
можно
можу
можуть
моз
мозамбіку
мозаі
мозель
мозку
мозок
мои
мок
мол
молд
молдавського
молдавськоі
молдавіі
молдова
молдови
молдовськии
молдові
молекул
молекули
молекулярна
молекулярних
молекулярно
молекулярноі
молитва
молитви
молитву
молитовнии
молода
молодая
молоде
молодии
молодим
молодими
молодих
молодого
молодому
молодості
молодою
молодоі
молоду
молодша
молодше
молодшии
молодшим
молодших
молодшого
молодшому
молодшою
молодшоі
молодші
молодь
молоді
молодіжна
молодіжнии
молодіжних
молодіжного
молодіжному
молодіжноі
молодіжну
молодіжні
молодіжніи
молодість
молока
молоко
молоком
молот
молотова
молочнии
молочних
молочно
молочноі
моль
молюсками
молюсків
мом
момент
моменти
моментом
моменту
моментів
мон
мона
монако
монарх
монарха
монархів
монархія
монархіі
монастир
монастирем
монастирю
монастиря
монастирі
монастирів
монах
монахи
монахів
монголи
монголо
монгольська
монгольського
монгольськоі
монголів
монголія
монголіі
монд
монет
монета
монетах
монети
монетнии
монетного
монету
монография
монографіи
монографію
монографія
монографіі
мономаха
монотипового
монпельє
монреаль
монреалі
монро
монстр
монстрів
монтаж
монтажу
монтана
монтгомері
монте
монтевідео
монумент
монументального
моніка
монітор
моніторинг
моніторингу
мор
мора
моравіі
мораль
моральнии
моральних
морально
морального
моральноі
моральні
моралі
морган
морда
мордва
мордовія
мордовіі
море
морем
морено
моро
мороз
морозов
морозова
морріс
морскои
морська
морське
морськии
морським
морськими
морських
морського
морському
морськоі
морську
морські
морськіи
морфо
морфологіі
моря
моряк
моряки
моряків
морях
морі
морів
моріс
моріса
москаленко
москаль
москалі
москва
москве
москви
москвою
москву
москвы
москві
московскии
московского
московскои
московська
московське
московськии
московським
московських
московсько
московського
московському
московськоі
московську
московські
московськіи
московіі
моста
мости
мостом
мосту
мостів
мосфільм
мотив
мотивами
мотиви
мотивів
мотор
мотора
мотором
мотоцикл
мотоциклів
мохамед
мохаммед
моцарт
моцарта
мощеи
мощі
мою
моя
моє
моєму
моєі
моі
мп
мпа
мр
мрнк
мріи
мрію
мрія
мріяв
мріє
мріі
мс
мса
мсом
мсоп
мстислав
мстислава
мт
мтс
му
мудрии
мудрого
мудрості
мудрість
мужності
мужність
муз
муза
музеи
музею
музея
музеях
музеєм
музеі
музика
музикант
музиканта
музикантами
музиканти
музикантом
музикантів
музики
музикознавець
музикою
музику
музиці
музична
музичне
музичнии
музичним
музичними
музичних
музично
музичного
музичному
музичноі
музичну
музичні
музичніи
музыка
муи
мукачево
муки
мультимедіи
мультсеріалу
мультфільм
мультфільму
мультфільмів
мун
муниципального
муниципальныи
муниципальным
муниципальных
муніципальна
муніципальне
муніципальнии
муніципальними
муніципальних
муніципального
муніципальноі
муніципальні
муніципалітет
муніципалітети
муніципалітетом
муніципалітету
муніципалітеті
муніципалітетів
мур
мура
мурави
мурад
мурах
муреш
мурза
мури
мурована
муром
мурома
муру
мурів
муса
мусив
мусили
мусить
муссоліні
мустафа
мусульман
мусульмани
мусульманських
мусульманського
мусять
мусі
мусів
мутаціі
муха
мухаммад
мухаммада
мухаммед
мухаммеда
мухи
мухоловка
мучеників
мушу
мфа
мфк
мъ
мы
мысль
мюзикл
мюзиклу
мюллер
мюнхен
мюнхена
мюнхені
мюрреи
мі
міас
мів
міг
мігель
мігрантів
міграціи
міграція
міграціі
мідних
мідно
мідні
мідь
міді
між
міжвоєннии
міжконтинентального
міжнар
міжнародна
міжнародне
міжнароднии
міжнародним
міжнародними
міжнародних
міжнародно
міжнародного
міжнародному
міжнародною
міжнародноі
міжнародну
міжнародні
міжнародніи
міи
мік
міка
мікеланджело
міккі
мікробіологіі
мікроорганізмів
мікрораи
мікрофон
мікстеи
мілан
мілана
мілані
міллер
міллера
мільи
мільярда
мільярди
мільярдів
міліметрів
мілітарнии
міліція
міліціі
мін
міна
мінас
мінерал
мінерали
мінералого
мінералогічнии
мінеральних
мінеральноі
мінеральні
мінералів
міни
міннесота
міноборони
мінометів
міноносець
міноносці
міноносців
мінор
мінск
мінская
мінськ
мінська
мінського
мінськоі
мінську
мінус
міню
міні
мініатюр
мініатюри
мінімальна
мінімальнии
мінімальним
мінімум
мінімуму
міністерств
міністерства
міністерство
міністерством
міністерству
міністерстві
міністр
міністра
міністри
міністром
міністру
міністрів
міоцену
мір
міра
міранда
мірза
міри
мірило
міркування
міркувань
мірошниченко
мірою
міру
мірі
міс
міссурі
міссісіпі
міст
міста
містами
містах
містер
містера
містечка
містечко
містечком
містечку
містечок
містив
містився
містила
містилася
містили
містилися
містити
містить
міститься
місткість
місткістю
місто
містобудування
містобудівнии
місток
містом
місту
містян
містять
містяться
місті
місце
місцева
місцеве
місцевии
місцевим
місцевими
місцевих
місцевого
місцевому
місцевостеи
місцевостях
місцевості
місцевою
місцевоі
місцеву
місцеві
місцевіи
місцевість
місцевістю
місцезнаходження
місцем
місць
місця
місцями
місцях
місці
міська
міськвиконкому
міське
міськии
міським
міських
міського
міському
міською
міськоі
міськради
міську
міські
міськіи
місяцем
місяць
місяця
місяці
місяців
місячнии
місячних
місячного
місіи
місіонер
місіс
місію
місія
місією
місіі
мітинг
мітинги
мітингу
мітохондріі
мітропи
мітчелл
міф
міфи
міфологія
міфологіі
міфу
міфів
міхаель
міхаи
міхал
міхура
міцкевича
міцнии
міцно
міцності
міцні
міцність
міць
мічиган
мішель
мішок
міщан
міщани
міщенко
мѣста
мѣстъ
н
на
набагато
набережна
набирав
набирає
наближається
наближення
наближені
набори
набором
набору
наборів
набою
набоі
набрав
набравши
набрала
набрали
набраних
набрати
набряк
набу
набув
набувати
набувають
набуває
набула
набули
набуло
набуття
набіги
набігів
набіи
набір
нав
навали
навантаження
навантаженням
навантажень
наведена
наведення
наведено
наведені
навесні
нави
навички
навичок
навколишнього
навколишнє
навколишні
навколишніх
навколо
навкруги
навмисне
навмисно
наводить
наводиться
навпаки
навпроти
навпіл
навратілова
навряд
навч
навчав
навчався
навчалась
навчалася
навчали
навчалися
навчалося
навчальна
навчальнии
навчальним
навчальними
навчальних
навчально
навчального
навчальному
навчальноі
навчальні
навчання
навчанням
навчаннях
навчанні
навчань
навчати
навчатися
навчаються
навчаючись
навчається
навчився
навчити
навчитися
навігаціи
навігаціі
навіки
навіть
навіщо
нагадував
нагадують
нагадує
нагляд
наглядовоі
наглядом
нагляду
нагоди
наголос
нагород
нагорода
нагородами
нагороджена
нагороджении
нагородження
нагороджено
нагороджені
нагороди
нагородив
нагородили
нагородою
нагороду
нагруднии
нагрудним
нагрівання
нагріванні
нагір
над
надав
надавав
надавала
надавали
надавати
надавши
надала
надали
надало
надалі
надана
надании
надання
наданням
наданні
надано
надані
надати
надають
надаються
надаючи
надає
надається
надбання
надбанні
надгробок
наделении
надзвичаи
надмірне
надмірно
надовго
надр
надрукована
надруковании
надруковано
надруковані
надрукував
надто
надходження
надходили
надходити
надходить
надходять
надя
наді
надіи
надіслав
надію
надія
надією
надіі
наживо
назавжди
назад
назар
назаренко
назв
назва
назвав
назвавши
назвала
назвали
назвами
названа
назване
названии
названих
названо
названі
назвати
назвах
назви
назвою
назву
назві
наземнии
наземних
наземного
наземні
називав
називався
називалась
називалася
називали
називалися
називалось
називалося
називати
називатися
називають
називаються
називаючи
називає
називається
назовні
назустріч
наи
нак
наказ
наказав
наказано
накази
наказом
наказу
наказує
наказів
наклав
наклад
накладом
накопичення
налагодження
налагодити
налаштування
належав
належала
належали
належало
належати
належать
належить
належне
належним
належного
належноі
належність
наливаи
наличнаго
налога
наліт
налічував
налічувала
налічувало
налічувалось
налічувалося
налічує
налічується
нам
намагався
намагалася
намагались
намагалися
намагання
намагаються
намагаючись
намагається
намалював
намет
нами
намисто
намібіі
намір
наміри
наміром
наміру
намісник
намісника
намісником
намісництва
нан
нанесення
наново
нансі
нанта
нану
наомі
напав
напад
нападають
нападає
напади
нападник
нападника
нападники
нападників
нападу
нападі
нападів
напали
напасти
напевне
напевно
наперед
напередодні
напис
написав
написавши
написала
написали
написами
написана
написане
написании
написаних
написання
написанні
написано
написані
написати
написи
написом
написів
наповнення
напоки
наполегливо
наполеон
наполеона
наполеонівських
наполовину
наполягав
наполяганням
наполі
напорі
напою
напоі
напр
направив
направили
направити
направлена
направлении
направлені
направо
наприклад
наприкінці
напруга
напруги
напругою
напругу
напруження
напруженості
напруженість
напрям
напрями
напрямками
напрямках
напрямки
напрямком
напрямку
напрямків
напрямок
напрямом
напряму
напрямі
напрямів
напів
напіввиведення
напіи
напір
нар
нара
нарада
наради
нараді
нараз
наразі
нараховувала
нараховувало
нараховувалось
нараховувалося
нараховує
нараховується
наречена
наречении
нареченого
нареченоі
нарешті
нарис
нариси
нарисів
наркотиками
наркотики
наркотиків
наро
народ
народа
народами
народжении
народження
народженні
народжені
народжуваності
народжуваність
народжуються
народжує
народжується
народи
народився
народила
народилась
народилася
народились
народилися
народилося
народна
народне
народнии
народним
народними
народних
народно
народного
народному
народності
народною
народноі
народну
народньоі
народні
народніи
народніх
народов
народові
народом
народу
народы
народі
народів
нарівні
нарід
нас
наса
насадження
насаджень
насамперед
населе
населени
население
населением
населението
населении
населених
населения
населенному
населенным
населенных
населенныхъ
населенныя
населенню
населення
населенням
населеного
населеному
населені
населенія
населяли
населяють
населяє
насильно
насильства
насильство
наскільки
наслідками
наслідки
наслідком
наслідків
наслідок
наслідування
насос
насправді
нассау
настав
наставник
наставника
наставником
настала
настання
настанови
настає
настоятелем
настоятель
настоятеля
настрою
настроі
настріи
наступ
наступна
наступне
наступнии
наступник
наступника
наступником
наступним
наступними
наступних
наступного
наступному
наступною
наступноі
наступну
наступні
наступніи
наступу
настя
настільки
насьи
насіння
насінням
наталка
наталья
наталя
наталі
наталія
наталіі
натан
наташа
натиском
нато
натовп
натовпу
натомість
натрію
натуральне
натуральних
натурального
натураліст
натхненнии
натхнення
натюрморт
нау
наук
наука
науках
науки
наукма
наукова
наукове
науковець
науковии
науковим
науковими
наукових
науково
наукового
науковому
науковою
науковоі
наукову
науковця
науковцями
науковці
науковців
наукові
науковіи
наукою
науку
науменко
науці
науч
научно
научныи
научных
нафта
нафти
нафтовик
нафтових
нафтового
нафтовоі
нафтові
нафтопродуктів
нафту
нах
нахил
нахилу
нац
национален
национальнои
национальность
национальныи
нацистами
нацисти
нацистських
нацистського
нацистськоі
нацистів
націи
націонал
національна
національне
національнии
національним
національними
національних
національно
національного
національному
національностеи
національності
національною
національноі
національну
національні
національніи
національність
національністю
націоналізм
націоналізму
націоналістів
націю
нація
націі
начала
начало
начальник
начальника
начальником
начальників
наче
начебто
наш
наша
наше
нашего
нашим
нашими
наших
нашого
нашому
нашоі
нашу
наші
нашіи
нащадками
нащадки
нащадком
нащадків
нащадок
нащо
ная
наявна
наявнии
наявних
наявного
наявності
наявні
наявність
наявністю
наі
нба
нбу
нбув
нв
нвк
нво
нг
нгу
нд
нджерс
ндр
ндрович
нді
не
неактивними
неактивних
неактивною
неактивноі
неактуальними
неаполь
неаполя
неаполі
неба
небагато
небагатьох
небажання
небезпека
небезпеки
небезпеку
небезпеці
небезпечнии
небезпечним
небезпечних
небезпечно
небезпечні
небес
небесна
небесних
небесного
небесноі
небо
небом
небраска
небудь
небі
невада
невдалим
невдалих
невдало
невдалого
невдалоі
невдачі
невдовзі
невдоволення
невелика
невелике
невеликии
невеликим
невеликими
невеликих
невеликого
невеликому
невеликою
невеликоі
невелику
невеликі
невеликіи
невеличка
невеличкии
невеличкі
невже
невизначении
невиконання
неволі
невського
невід
невідома
невідоме
невідомии
невідомим
невідомими
невідомих
невідомо
невідомого
невідомоі
невідомі
негаи
негативнии
негативним
негативних
негативно
негативного
негативну
негативні
него
недавно
недалеко
недовго
недоконаного
недолік
недоліки
недоліком
недоліків
недостатності
недостатньо
недостатність
недоступне
недіи
неділю
неділя
неділі
нез
незабаром
незадовго
незадоволення
незаи
незаконне
незаконним
незаконно
незалежна
незалежне
незалежнии
незалежним
незалежними
незалежних
незалежно
незалежного
незалежності
незалежною
незалежноі
незалежну
незалежні
незалежність
незважаючи
незвичаи
незміннии
незмінним
незмінно
незнаи
незначна
незначнии
незначними
незначних
незначну
незначні
неи
некомерціи
некоректнии
некоторые
некоторых
некролог
некрополь
нектаром
неллі
нельсон
нелініи
нем
нема
немає
неминуче
немов
немовлям
немовлят
неможливе
неможливим
неможливо
неможливість
нен
ненависть
ненависті
ненадовго
ненадіи
неначе
ненсі
необов
необхідна
необхідне
необхіднии
необхідним
необхідними
необхідних
необхідно
необхідного
необхідності
необхідною
необхідноі
необхідну
необхідні
необхідність
необхідністю
неодмінно
неодноразово
неоліту
неофіціи
неохоче
непал
непалу
непалі
неповнолітніх
непогано
неподалік
непомітно
неправильнии
неправильно
неприи
непристои
нептун
нер
нера
нерва
нервових
нервовоі
нервів
нери
нером
нерухомих
нерухомості
нерухомість
нерів
нерівності
нерівність
нерідко
несе
нескінченно
нескінченності
несли
несподівано
неспокіи
нестача
нестачу
нестачі
нестеренко
нести
нестор
нестора
нестіи
несуть
нет
нетрадиціи
нетривалии
нехаи
нець
нечасто
нечисленні
нечуи
неш
нещастя
нещодавно
нею
неі
неістота
ни
нива
ниви
ниві
нижегородскои
нижньо
нижнього
нижньогородськоі
нижньому
нижньосілезького
нижньою
нижньоі
нижню
нижня
нижнє
нижні
нижніи
нижніх
нижча
нижче
нижчии
нижчим
нижчих
нижчого
нижчою
нижчоі
нижчі
низ
низка
низки
низкою
низку
низовини
низу
низці
низька
низькии
низьким
низькими
низьких
низько
низького
низькою
низькоі
низьку
низькі
нии
ник
ника
ники
никифор
никифорович
николаев
николаевич
николаи
ників
ним
ними
нині
нинішнього
нинішньоі
нинішня
нинішніи
нинішніх
нирки
нирок
нитки
ниток
них
ниця
нищівноі
нк
нка
нквд
нквс
нки
нко
нланд
нло
нм
нн
нна
нные
нным
нных
ння
но
нобелівська
нобелівськоі
нобелівську
нов
нова
новак
нована
новане
новании
новано
нованого
новані
новатор
новачків
новая
новгород
новгорода
новгородская
новгородскои
новгородськоі
новгороді
нове
новел
новела
новели
новии
новиков
новим
новими
новин
новина
новинарня
новини
нових
нович
ново
нововведення
нового
новоград
новое
новои
новомиколаі
новому
новонароджених
новороссіи
новоросіи
новоселівка
новосибирск
новосибирскои
новосибірськ
новосибірськоі
новоствореного
новоствореноі
новости
новотроі
новоукраі
новоутвореного
новоутвореноі
новою
новоі
нову
новые
новыи
нові
новіи
новітньоі
новітні
новітніи
новітніх
нога
ногаи
ногами
ногах
ноги
ного
ногою
ногу
ное
ножа
ножем
ножі
нознавства
нознавство
нои
нок
нокаутом
ном
номенклатура
номенклатури
номер
номера
номерами
номери
номерні
номером
номері
номерів
номовних
ному
номінал
номіналом
номінально
номінантів
номінаціи
номінацію
номінація
номінаціях
номінаціі
номінована
номіновании
нор
нора
норв
норвегія
норвегіі
норвезька
норвезькии
норвезьких
норвезького
норвезькому
норвезькоі
нори
норм
норма
нормальна
нормальнии
нормальних
нормально
нормального
нормальноі
нормами
норман
нормандія
нормандіі
нормативна
нормативних
нормативно
нормативных
норми
норму
норт
норфолк
носа
носив
носила
носили
носити
носить
носом
ності
носять
носіи
носіння
носія
носіями
носієм
носіі
нот
нотатки
ноти
нотр
ноу
ночи
ночі
ною
ноября
ноі
нп
нпу
нр
нрм
нс
нсдап
нспу
нства
нство
нська
нське
нськи
нськии
нським
нськими
нських
нсько
нського
нському
нською
нськоі
нську
нські
нськіи
нт
нтв
нту
нтуу
нтш
ну
нував
нували
нування
нувань
нувати
нудота
нуклеотидами
нуль
нулю
нуля
нур
нує
нується
нхл
нц
нця
нцям
нцями
нці
нців
нш
нштеи
нъ
ны
ные
ныи
нь
нього
ньому
ньоі
нью
ньюкасл
ньютон
ньютона
ню
нюрнберг
ня
няв
нявся
нявши
няла
няли
няло
нята
няте
няти
нятии
нятим
нятими
нятися
нятих
нято
нятого
нятості
нятоі
няття
няттям
нятті
няті
нятість
ні
ніби
нібито
нів
нівка
ніг
нігер
нігеріи
нігерія
нігеріі
нід
ніде
нідерландах
нідерланди
нідерландська
нідерландськии
нідерландського
нідерландськоі
нідерландів
ніж
ніжин
ніжинськии
ніжинського
ніжка
ніжки
нізаціі
ніи
нік
ніка
нікарагуа
нікеи
нікель
нікелю
ніко
нікого
нікола
ніколас
ніколаєв
ніколи
ніколо
ніколь
ніколя
нікому
нікополь
нікуди
нікітін
ніл
ніла
ніладхарі
нілу
нім
німець
німецька
німецьке
німецькии
німецьким
німецькими
німецьких
німецько
німецького
німецькому
німецькою
німецькоі
німецьку
німецькі
німецькіи
німеччина
німеччини
німеччиною
німеччину
німеччині
німого
німцям
німцями
німці
німців
ніна
ніндзя
ніни
ніппоніка
ніс
ність
ністю
ніх
ніхто
ніч
нічии
нічим
нічию
нічия
нічиі
нічна
нічнии
нічних
нічного
нічні
нічого
ніші
ніщо
ніяк
ніяких
ніякого
ніякоі
ніі
нѣ
о
оае
оахім
об
оба
обабіч
обама
обвинувачення
обговорення
обеліск
обер
обережно
оберлеи
оберст
обертання
обертаються
обертається
обертів
обзор
обидва
обидвома
обидві
обирався
обирали
обирати
обирають
обираються
обирає
обирається
обитель
обителі
обкладинка
обкладинки
обкладинці
обкому
обл
обладнали
обладнана
обладнании
обладнання
обладнанням
обладнано
обладнані
обласна
обласне
обласнии
обласних
обласного
обласному
обласноі
обласні
обласніи
областеи
области
областная
областного
областнои
область
областю
областями
областях
області
облаштування
облвиконкому
облдержадміністраціі
обличчя
обличчям
обличчі
облога
облоги
облогу
облозі
облради
облік
облікова
обліку
обмежена
обмежене
обмежении
обмеженим
обмеженими
обмеження
обмеженням
обмежено
обмеженого
обмеженою
обмежену
обмежень
обмежені
обмежити
обмежують
обмежує
обмежується
обмін
обміну
обов
обозрение
оболонка
оболонки
оболонкою
оболонку
оболонок
оболонь
обом
обома
оборона
оборони
оборонна
обороннии
оборонних
оборонного
оборонноі
оборонні
обороноздатності
оборону
обороны
обороні
обох
обоє
обрав
образ
образами
образи
образование
образовании
образования
образованиям
образованных
образом
образотворче
образотворчих
образотворчого
образу
образі
образів
обрала
обрали
обрана
обрании
обраним
обраних
обрання
обрано
обраного
обрані
обрати
обробка
обробки
обробкою
обробку
обробляти
обробці
обробітку
обряд
обряди
обряду
обрядів
обріі
обсерваторія
обсерваторіі
обслуговував
обслуговування
обслуговують
обслуговує
обслѣдованія
обставин
обставина
обставинами
обставинах
обставини
обстановки
обстановці
обстеження
обстріл
обстріли
обстрілу
обстріляли
обстрілів
обсяг
обсяги
обсягом
обсягу
обсягів
обсязі
обсє
обумовлена
обумовлено
обурення
обхід
обчислення
обчислень
обчислити
обчислювальних
обчислювальноі
обчислюється
общ
общая
общеи
общества
общество
община
общини
общині
обі
обіг
обігравши
обігу
обід
обіду
обіи
обіцяв
обіцянки
обіцянку
обіцяє
обґрунтування
ов
ова
ована
оване
овании
ованих
овано
ованого
овані
ове
овернь
овець
ови
овии
овик
овиками
овики
овиків
овим
овими
ових
ович
овича
овичу
ового
овому
овочі
овочів
овою
овоі
овруцького
овськии
овського
ову
ові
овіи
ога
огаи
оган
оганн
оганна
оганнес
огансен
огли
огляд
оглядач
огляди
огляду
огляді
оглядів
ого
оголосив
оголосила
оголосили
оголосило
оголосити
оголошена
оголошении
оголошення
оголошено
оголошені
оголошує
огонь
огорожі
огпу
огієнка
огієнко
од
ода
оден
одержав
одержала
одержали
одержання
одержати
одержують
одеса
одеси
одесса
одессе
одессы
одесу
одеська
одеськии
одеського
одеському
одеськоі
одеськіи
одесі
один
одинадцяти
одинадцять
одиницею
одиниць
одиницю
одиниця
одиниці
одиночнии
одиночному
одиночну
одн
одна
однак
однаковии
однаковими
однакових
однаково
однакову
однакові
одначе
одне
одним
одними
однини
одних
одно
одного
одноголосно
однозначно
однои
одномандатному
одному
однорічна
односельцям
одностаи
одночасно
одною
одноі
одну
одні
одніи
однією
однієі
одпу
одразу
одружена
одружении
одруженим
одруження
одружився
одружилася
одружилися
одружитися
одружується
одрі
одужання
одужань
одяг
одягом
одягу
одязі
одіссея
оженився
оз
озброєнии
озброєних
озброєння
озброєнням
озброєнні
озброєнь
озброєні
озвучення
озвучено
озвучив
озвучування
озвучує
оздоблення
оздоблені
озер
озера
озерами
озерах
озеро
озером
озері
озеф
озефа
ознаи
ознак
ознака
ознаками
ознаки
ознакою
означало
означати
означають
означає
означення
ознии
озним
озних
озно
озного
озною
озноі
озну
озні
ои
ок
ока
окб
океан
океаном
океану
океані
океанів
океанія
океаніі
окиснення
оклахома
окленд
око
околиць
околиця
околицях
околиці
оком
окраі
окрема
окреме
окремии
окремим
окремими
окремих
окремо
окремого
окремому
окремою
окремоі
окрему
окремі
окреміи
округ
округа
округам
округах
округи
округла
округлі
округов
округом
округу
округі
округів
окружнии
окружного
окружноі
окрузі
окрім
оксана
оксани
оксид
оксиду
окситанія
оксфорд
оксфорді
октябрь
октября
окуляри
окупантами
окупанти
окупантів
окупаціи
окупацію
окупація
окупацією
окупаціі
окупована
окуповане
окупованих
окупованому
окупованіи
окупували
ол
ола
олд
оле
олег
олега
олегович
олегом
олекса
олександр
олександра
олександри
олександрович
олександровича
олександром
олександру
олександрівка
олександрівна
олександрівська
олександріи
олександрія
олександріі
олекси
олексі
олексіи
олексія
олексієм
олексіі
олена
олени
оленою
олену
олень
оленя
олені
оленів
олесь
олеся
оливково
олов
олова
ольга
ольги
ольгою
ольгу
ольштинського
оля
олі
олів
олівер
олівера
оліи
олімп
олімпіад
олімпіада
олімпіадах
олімпіади
олімпіаді
олімпіакос
олімпіи
олімпік
олімпія
олію
олія
оліі
ом
ома
оману
омар
омбр
омега
омелян
омелянович
оми
омивається
омився
омии
омилася
омилися
омитися
омиться
омих
омка
омках
омки
омлення
омність
омок
омом
омства
омство
ому
омі
омів
омінг
он
она
ональ
онам
онами
онах
онацькии
оне
они
онищенко
онлаи
онна
оннии
онним
онних
онного
онному
онноі
онных
онні
онніи
оно
онов
оновлена
оновлении
оновлення
оновлено
оном
онтаріо
ону
онування
онук
онука
онуки
онуком
онуків
онуфріи
оні
онів
оо
оон
ооо
оос
оп
опади
опадів
опалення
опанасович
опеи
опер
опера
оперативна
оперативне
оперативних
оперативно
оперативного
оперативноі
оператор
оператора
оператори
оператором
операторів
операціи
операцію
операція
операціями
операціях
операцією
операціі
оперення
оперети
опери
оперна
опернии
оперних
оперного
оперу
опері
опинився
опинившись
опинилася
опинилися
опиняється
опис
описав
описана
описание
описании
описаних
описано
описані
описати
описи
описом
опису
описував
описують
описуються
описуючи
описує
описується
описі
описів
опитування
оплати
оплату
оповідання
оповіданні
оповідань
оповідач
оповідає
оповідь
оповіді
оподатковане
оподаткованих
оподатковані
оподаткування
опозиціи
опозицію
опозиція
опозиціі
ополчення
опольського
опори
опорнии
опорних
опору
опрацювання
определении
определитель
оприлюднення
оприлюднив
опромінення
оптики
оптимального
оптимізація
оптимізаціі
оптичнии
оптичних
оптичного
оптичні
опублікована
опубліковане
опубліковании
опублікованих
опубліковано
опубліковані
опублікованіи
опублікував
опублікувала
опублікували
опыт
опівночі
опіки
опікою
опіку
опікувався
опір
опісля
ор
ора
орбіта
орбітального
орбіти
орбіту
орбіті
орган
органам
органами
органах
органи
организации
органом
органу
органів
організатор
організатори
організатором
організаторів
організаціи
організацію
організація
організаціям
організаціями
організаціях
організацією
організаціі
організм
організми
організму
організмі
організмів
організована
організовании
організованих
організовано
організованого
організованою
організовані
організовував
організовувати
організовує
організував
організувала
організували
організувати
органічних
органічного
органічноі
органічні
орда
ордан
орданія
орданіі
орден
ордена
орденами
ордени
орденом
ордену
орденів
орджонікідзе
орди
орегон
орел
оренбурзькоі
оренди
оренду
оренді
орест
оригінал
оригіналу
оригінальна
оригінальнии
оригінальним
оригінальних
оригінального
оригінальному
оригінальності
оригінальноі
оригінальну
оригінальні
оригінальніи
оригіналі
орк
орка
оркестр
оркестром
оркестру
оркестрі
оркського
оркському
орку
орла
орландо
орлеана
орлик
орлика
орлов
орлова
орловскои
орловськии
орловського
орловськоі
орн
орнамент
орнаментом
орноі
орні
ором
орудою
оружие
орі
орієнтацію
орієнтація
орієнтаціі
орієнтована
орієнтовании
орієнтованих
орієнтовані
орієнтовно
орґанізаціі
ос
оса
осада
осадових
осака
осафата
освоєння
освоі
освятив
освятили
освячена
освячении
освячення
освячено
освіта
освіти
освітлення
освітньо
освітнього
освітньоі
освітня
освітні
освітніи
освітніх
освітою
освіту
освіті
осеи
оселився
оселилася
оселилися
оселі
осені
осередки
осередком
осередку
осередків
осередок
осетіі
осип
осипа
осипович
осипівна
осиф
осифа
оскар
оскара
оскільки
ослаблення
осло
осман
османи
османська
османськии
османських
османського
османською
османськоі
османськіи
османів
осн
оснащена
оснащении
оснащення
оснащені
основ
основа
основами
основи
основна
основне
основнии
основним
основними
основних
основного
основному
основною
основноі
основну
основные
основні
основніи
основоположник
основою
основу
основы
основі
особа
особам
особами
особах
особенности
особи
особин
особини
особиста
особисте
особистии
особистим
особистих
особисто
особистого
особистому
особистостеи
особистості
особистоі
особисту
особисті
особистість
особлива
особливе
особливии
особливим
особливими
особливих
особливо
особливого
особливостеи
особливостями
особливості
особливою
особливоі
особливу
особливі
особливість
особливістю
особняк
особова
особовии
особового
особоспоживач
особоспоживача
особою
особу
особі
осока
осреднєсловенськии
ост
останки
останнього
останньому
останньою
останньоі
останню
остання
останнє
останні
останніи
останнім
останніми
останніх
остану
остап
остапа
остаточне
остаточнии
остаточно
остаточного
остаточноі
осторонь
остров
острова
островами
островах
острови
островом
островськии
островського
острову
острові
островів
острог
острозька
острозькии
острозького
остроленцького
острів
остін
ось
осі
осіб
осінніи
осінь
от
ота
отак
отаман
отамана
отаманом
отв
отвори
отвору
отворів
отвір
отг
отд
отделение
отдельных
отець
отечественнои
отже
ото
отож
оточена
оточене
оточении
оточення
оточенні
оточені
оточили
оточують
оточуючих
оточує
отр
отримав
отримавши
отримала
отримали
отримало
отримана
отримании
отриманих
отримання
отриманні
отримано
отриманого
отримані
отримати
отримають
отримає
отримаємо
отримував
отримувала
отримували
отримувати
отримують
отримуючи
отримує
отримуємо
отрковського
отруи
отруєння
отруі
оттава
отто
оттон
отця
отців
отче
отъ
оун
оф
официальнои
официальныи
офк
оформив
оформлення
оформленні
офф
офіс
офіси
офісу
офісі
офіцер
офіцера
офіцерами
офіцери
офіцером
офіцерськии
офіцерського
офіцерів
офіціи
ох
охолодження
охоплення
охоплювала
охоплюють
охоплює
охорона
охоронець
охорони
охороннии
охоронних
охороною
охорону
охоронців
охороняються
охороняється
охороні
охоче
охтирського
оцвітини
оце
оценка
оці
оцінив
оцінили
оцінити
оцінка
оцінками
оцінки
оцінкою
оцінку
оцінок
оцінці
оцінювання
оцінюють
оцінюються
оцінює
оцінюється
очах
очевидним
очевидно
очевидців
очеи
очерету
очеретянка
очерк
очерки
очи
очима
очищення
очка
очками
очки
очко
очок
очолив
очоливши
очолила
очолити
очолював
очолювала
очолювали
очолювана
очолює
очі
очікувалося
очікування
очікуванні
очікувати
очікується
очільник
очільника
очільником
ош
оі
п
па
пабло
павел
павла
павленко
павло
павлов
павлова
павлович
павловича
павловськии
павлом
павлюк
павлівка
павлівна
павук
павука
павуків
павільи
пагони
пагорб
пагорба
пагорбах
пагорби
пагорбі
пагорбів
падають
падає
падіння
падінням
паи
пак
пакет
пакети
пакету
пакетів
пакистан
пакистану
пакистані
пакт
пакту
пала
палат
палата
палати
палату
палаті
палау
палац
палаци
палацом
палацу
палаццо
палаці
палаців
палеоліту
палермо
палестини
палестині
палець
палива
паливних
паливо
паливом
палички
палмер
паломництва
палуби
палубі
пальма
пальми
пального
пальця
пальцями
пальці
пальців
паліи
пам
памяти
памятная
памятник
памятники
память
пан
пана
панама
панамериканських
панами
панас
панаса
пандемію
пандеміі
пане
панелеи
панель
панелі
пани
панк
панно
панове
паном
панорама
пантелеи
пану
панував
панувала
панування
панують
панує
панченко
панщини
пані
панів
паоло
пап
папа
папери
паперу
папері
паперів
папи
папою
папська
папуа
папі
папір
пар
пара
парагваи
парагваю
парад
парадигма
парадокс
параду
параді
паралельних
паралельно
паралельні
паралелі
паралімпіи
параметр
параметрами
параметри
параметрів
парами
параскеви
парафіи
парафію
парафія
парафіяльна
парафіян
парафіі
пари
париж
парижа
парижу
парижі
паризькии
паризького
паризькому
паризькоі
паризькіи
парк
парках
паркер
парки
паркового
парком
парку
парків
парламент
парламентом
парламентська
парламентське
парламентських
парламентськоі
парламентські
парламенту
парламенті
парма
парнии
парних
парному
парну
парні
паровии
парових
парові
пароплав
парох
парохом
парою
партизан
партизанами
партизани
партизанськии
партизанських
партизанського
партизанськоі
партизанів
партии
партнер
партнера
партнерами
партнери
партнером
партнерства
партнерство
партнерів
партіи
партію
партія
партіями
партією
партіі
пару
парування
пархоменко
парі
пас
пасажир
пасажири
пасажирська
пасажирськии
пасажирських
пасажирського
пасажирські
пасажирів
паскаль
пасма
пасовища
паспорт
пастки
пастку
пастух
пасічник
пат
патент
патентів
патологіі
патрон
патронів
патрулювання
патріарх
патріарха
патріархат
патріархату
патріархом
патрік
патріка
патріот
патріотичного
патріотів
патті
паулу
пауль
пауля
пацієнт
пацієнта
пацієнти
пацієнтів
паша
пашкоу
паші
пащенко
паі
пд
пе
певна
певне
певнии
певним
певними
певних
певно
певного
певному
певною
певноі
певну
певні
певніи
пед
педагог
педагога
педагогів
педагогіка
педагогіки
педагогічна
педагогічнии
педагогічних
педагогічного
педагогічному
педагогічноі
педагогічну
педагогічні
педро
педру
пеи
пекла
пекло
пекулярна
пекулярних
пекче
пекін
пекіні
пелюстки
пен
пенальті
пенні
пенсильванія
пенсіи
пенсільванія
пенсіонер
пенсіонерами
пенсію
пенсіі
пер
пера
первая
первинна
первиннии
первинних
первинного
первинноі
первинні
первои
первомаи
первые
первыи
первісна
первіснии
первісно
первісного
первісноі
пере
перебрав
перебрався
перебував
перебувала
перебували
перебувало
перебування
перебувати
перебувають
перебуваючи
перебуває
перебудова
перебудована
перебудовании
перебудови
перебудову
перебіг
перебігу
перев
переваг
перевага
переваги
перевагою
перевагу
переважали
переважають
переважає
переважна
переважно
перевал
перевантаження
переведена
переведении
переведення
переведено
переведені
перевезення
перевезень
перевезли
перевели
перевершує
перевести
перевидання
перевищення
перевищила
перевищувала
перевищувати
перевищують
перевищує
перевод
перевозити
переворот
перевороту
перевівся
перевірена
перевірено
перевірити
перевірка
перевірки
перевірку
перевірте
перегляд
перегляду
переглядів
переглянути
переглянуто
переговорах
переговори
переговорів
перегонах
перегони
перегонів
перед
передав
передавання
передавати
передавши
передала
передали
передана
передане
передании
передано
передані
передати
передач
передача
передачею
передачу
передачі
передають
передаються
передає
передається
передбачав
передбачала
передбачалося
передбачають
передбачає
передбачається
передбачена
передбачених
передбачення
передбачено
передбачені
передбачити
передгір
передм
передмова
передмістя
передмісті
переднього
передньому
передньоі
передню
передня
передні
передніи
передніх
передових
передові
передовіи
передумови
передусім
передує
пережив
переживання
переживає
пережила
пережили
пережити
переи
переказ
переказами
перекази
переказів
перекидання
перекл
переклав
переклад
перекладав
перекладах
перекладач
перекладача
перекладачем
перекладачка
перекладачів
перекладається
перекладена
перекладено
перекладені
переклади
перекладом
перекладу
перекладі
перекладів
перекласти
переконав
переконании
переконання
переконань
переконати
переконує
перекрили
перекриття
перелік
переліку
перемагає
перемикання
перемир
перемишль
перемишльського
перемишльськоі
перемишля
перемишлі
перемовин
перемовини
перемог
перемога
перемоги
перемогла
перемогли
перемогою
перемогти
перемогу
переможець
переможнии
переможниця
переможного
переможному
переможцем
переможця
переможцями
переможці
переможців
перемозі
переміг
перемігши
переміщення
перенесена
перенесении
перенесення
перенесено
перенесені
перенесли
перенести
переносити
переносить
переноситься
переносять
переніс
переобрании
перепис
переписи
переписна
переписніи
переписом
перепису
перепись
переправи
перераб
перераховані
перерва
перервами
перерви
перервою
перероб
переробка
переробки
перероблене
перероблении
перерізу
перес
переселення
переселенцями
переселенці
переселенців
переселилися
пересихаючии
пересихає
переслідували
переслідування
переслідувань
переслідувати
переслідує
перестав
перестала
перестали
перестає
пересування
пересуватися
перетворена
перетворении
перетворення
перетворено
перетворень
перетворені
перетворив
перетворився
перетворилася
перетворили
перетворилися
перетворилося
перетворити
перетворюються
перетворює
перетворюється
перетин
перетинають
перетинаються
перетинає
перетину
перетині
перетнув
переходи
переходили
переходити
переходить
переходом
переходу
переходять
переході
переходів
перехоплення
перехрестя
перехресті
перехід
перехідне
перехіднии
перехідного
перець
перечень
перешии
перешкод
перешкоджає
перешкоди
перешкодити
переяслав
переяславського
переі
периметру
период
периферіи
периферіі
перкусія
перл
перлина
перм
пермського
пермі
перо
пером
перрі
перс
перснів
персонаж
персонажа
персонажами
персонажем
персонажі
персонажів
персонал
персоналом
персоналу
персональна
персональнии
персональних
персональні
перспектива
перспективи
перспективних
перспективу
перспективі
перстень
перська
перськии
перських
перського
перськоі
перськіи
персі
персів
персія
персіі
перу
перун
перш
перша
перше
першии
першим
першими
перших
першого
першоджерела
першому
першості
першою
першоі
першу
перші
першіи
першість
період
періоди
періодичних
періодично
періодичні
періодом
періоду
періоді
періодів
пес
песни
пестливі
пет
петер
петербург
петербурга
петербургу
петербургъ
петербурзькии
петербурзького
петербурзькому
петербурзькоі
петербурзі
петлюра
петлюри
петлі
петр
петра
петренко
петро
петров
петрова
петрович
петровича
петровськии
петровського
петрограді
петрографічнии
петром
петру
петрі
петрівка
петрівна
печатка
печатки
печеи
печер
печера
печерах
печери
печерськии
печерського
печерськоі
печеру
печері
печі
печінки
печінці
пещеры
пеі
пз
пзф
пи
пива
пиво
пил
пили
пилип
пилипа
пилипович
пилу
пильно
пирогова
пиріг
писав
писала
писали
писання
писар
писаря
писати
писемна
писемності
писемність
письма
письменник
письменника
письменниками
письменники
письменником
письменників
письменниця
письменниці
письменства
письмо
письмова
письмових
письмові
письмі
питання
питанням
питаннями
питаннях
питанні
питань
питає
пити
питноі
питома
пише
пишеться
пишуть
пк
пл
плавання
плавець
плавлення
плавні
плавця
плавці
плавців
плавчиня
плазми
плазунів
плакати
план
планами
планах
планет
планета
планети
планету
планеті
плани
планка
планом
плантаціях
плантаціі
плану
планував
планувала
планували
планувалось
планувалося
планування
планують
планує
планується
плані
планів
пласт
пласта
пласти
пластику
пластин
пластини
пластинки
пласту
пластів
плата
платежів
плати
платили
платити
платню
платні
плато
платон
платона
плату
платформ
платформа
платформах
платформи
платформою
платформу
платформі
платівка
платівки
плацдарм
плацдарму
плач
плаче
плащ
плеи
плем
племен
племена
племенами
племені
племінник
племінника
плеча
плечах
плече
плечима
плечі
пливе
плином
плит
плита
плити
плодами
плоди
плодів
плоска
плоскогір
плоскі
плоцького
площ
площа
площею
площина
площини
площину
площині
площу
площі
плутарх
плутати
плюс
пляж
пляжі
плям
пляма
плямами
плями
плямками
пляшки
плівки
плід
плідну
пліч
пн
пневмоніі
по
побачення
побачив
побачивши
побачила
побачили
побачити
побережник
побив
побили
побиття
поблизу
побоювання
побоюючись
побратимів
побував
побудова
побудована
побудоване
побудовании
побудованих
побудовано
побудовані
побудови
побудову
побудові
побудував
побудували
побудувати
побут
побутових
побутового
побутовоі
побутові
побуту
побуті
побіг
побічних
побічні
пов
поваги
повагою
повагу
повалення
повалено
повалив
поведінка
поведінки
поведінкою
поведінку
поведінці
повені
поверненню
повернення
поверненням
повернеться
повернув
повернувся
повернувшись
повернула
повернулась
повернулася
повернули
повернулись
повернулися
повернути
повернутись
повернутися
повернуто
поверсі
повертався
поверталися
повертатися
повертаються
повертаючись
повертає
повертається
поверх
поверхи
поверхневих
поверхневого
поверхнею
поверхню
поверхня
поверхні
поверхонь
поверху
поверхів
повз
повинен
повинна
повинне
повинно
повинності
повинні
повна
повне
повнии
повним
повних
повно
повноваження
повноваженнями
повноважень
повноважнии
повноважним
повноважного
повного
повноліття
повномасштабного
повнометражнии
повному
повноціннии
повноцінного
повною
повноі
повну
повні
повніи
повністю
поводження
поволжья
поволі
поворот
повороту
повоєннии
повоєнні
повстав
повстали
повсталих
повстання
повстанні
повстанськоі
повстанцями
повстанці
повстанців
повстань
повсюдно
повсякденного
повсякденному
повторення
повторив
повторити
повторне
повторно
повторного
повторює
повторюється
повів
повідомив
повідомила
повідомили
повідомило
повідомити
повідомлення
повідомленням
повідомленнями
повідомлено
повідомлень
повідомляв
повідомляли
повідомлялося
повідомляють
повідомляє
повідомляється
повільно
повінь
повір
повістеи
повість
повістю
повісті
повіт
повітах
повіти
повітовии
повітового
повітовоі
повітря
повітрям
повітряна
повітрянии
повітряним
повітряними
повітряних
повітряно
повітряного
повітряноі
повітряну
повітряні
повітряніи
повітрі
повіту
повіті
повітів
погана
погане
погании
погано
погану
погані
погиб
поглиблення
поглинання
погляд
поглядами
погляди
поглядом
погляду
поглядів
поговорити
погода
погоджується
погоди
погодився
погодилася
погодилися
погодитися
погодних
погоду
погоні
пограбування
погрози
погруддя
погіршення
под
подав
подавати
подався
подала
подали
подальша
подальше
подальшии
подальшим
подальших
подальшого
подальшому
подальшоі
подальшу
подальші
подана
подании
подання
поданням
подано
подані
подарував
подарувала
подарунки
подарунок
подати
податки
податкових
податкового
податковоі
податку
податків
податок
подачі
подають
подаються
подає
подається
подвиг
подвиги
подвіи
подвір
подготовлен
подекуди
подивитися
подобається
подовження
подолання
подолати
подолі
подорож
подорожеи
подорожував
подорожувати
подорожує
подорожі
подробиці
подруга
подруги
подругою
подружжя
подрібнення
подумав
подушки
подяка
подяки
подяку
подібна
подібне
подібнии
подібним
подібними
подібних
подібно
подібного
подібності
подібноі
подібну
подібні
подібність
подіи
поділ
поділена
поділении
поділено
поділені
поділив
поділити
поділля
поділлі
поділом
поділу
подільська
подільськии
подільського
подільському
подільськоі
поділяють
поділяються
поділяється
подію
подія
подіям
подіями
подіях
подією
подіі
поезіи
поезію
поезія
поезіі
поем
поема
поеми
поему
поемі
поет
поета
поетеса
поетеси
поети
поетична
поетичнии
поетичних
поетичного
поетичноі
поетичні
поетом
поетів
пожеж
пожежа
пожежноі
пожежу
пожежі
пожертви
пожертвував
поживних
поза
позаду
позачергових
позачергові
позаяк
позбавив
позбавити
позбавлена
позбавлении
позбавлення
позбавлені
позбутися
позивнии
позики
позитивнии
позитивним
позитивних
позитивно
позитивного
позитивну
позитивні
позиціи
позицію
позиція
позиціях
позицією
позиціі
познаи
познанського
познань
познані
позначають
позначаються
позначає
позначається
позначена
позначении
позначення
позначенням
позначено
позначені
позначками
позначки
позов
пои
покажч
покажчик
показ
показав
показавши
показала
показали
показало
показана
показании
показано
показаны
показані
показати
показник
показника
показниками
показники
показником
показників
показу
показував
показували
показувати
показують
показуючи
показує
покарання
покарань
покарати
поки
покидають
покидає
покинув
покинула
покинули
покинути
поклав
покладено
покладені
поклади
покладів
поклала
поклали
покласти
поклик
покликании
покликання
поклоніння
покоління
поколінь
покоі
покращення
покращити
покращує
покрив
покривають
покриває
покривні
покриву
покрита
покритии
покриття
покриттям
покриті
покрови
покровителем
покровитель
покровителя
покровська
покровське
покровськии
покровського
покровськоі
покупки
покупців
покіи
покінчив
пол
пола
поле
полеглим
полеглих
полегшення
полегшити
полегшує
полем
политика
политическая
полишив
полк
полки
полковии
полковник
полковника
полковником
полковнику
полководець
полководця
полком
полку
полків
полное
поло
половина
половини
половиною
половину
половині
половців
пологи
пологів
положення
положенням
положенні
положень
полом
полон
полонених
полону
полоні
полотна
полотнище
полотно
полотні
полтава
полтави
полтавка
полтавскои
полтавська
полтавськии
полтавського
полтавському
полтавськоі
полтавськіи
полтавщина
полтавщини
полтавщині
полтаві
полу
полум
поль
польова
польовии
польових
польового
польовоі
польові
польоти
польоту
польоті
польотів
польська
польське
польськии
польським
польськими
польських
польсько
польського
польському
польською
польськоі
польську
польські
польськіи
польща
польщею
польщу
польщі
полюбляє
полювання
полюс
полюса
полюють
полює
поля
полягав
полягала
полягає
поляк
поляками
поляки
поляков
полякова
поляків
полями
поляна
полярних
полях
полі
полів
полігон
полігоні
поліграфічнии
поліклініка
полімерів
поліморфізм
поліна
поліпептидного
поліпшення
поліпшити
полісся
поліссі
політ
політбюро
політв
політехніка
політехніки
політехнічнии
політехнічного
політехнічному
політик
політика
політики
політико
політикою
політику
політиків
політиці
політична
політичне
політичнии
політичним
політичними
політичних
політично
політичного
політичному
політичною
політичноі
політичну
політичні
політичніи
політолог
політологіі
поліцеи
поліціи
поліцію
поліція
поліцією
поліціі
поліщук
пом
помаранчевии
помер
померанія
померла
померли
померлих
померло
померлого
померти
помешкання
помешкань
помилка
помилки
помилково
помилкою
помилку
помилок
помилування
помирає
поморського
помочі
помпеи
помпея
помре
помста
помсти
помститися
поміж
помірнии
помірних
помірно
помірного
помістив
помістили
помітив
помітили
помітити
помітна
помітнии
помітним
помітно
помітні
поміч
помічає
помічник
помічника
помічником
помічників
поміщении
поміщик
поміщика
поміщиків
понад
понеділок
пониженим
понині
поновлення
пономаренко
пономарьов
понтіи
поняття
поняттям
понять
пообіцяв
поодинокі
поодинці
поп
попа
попадання
попелу
попередження
попередити
попередник
попередника
попередником
попередників
попередньо
попереднього
попередньому
попередньою
попередньоі
попередню
попередня
попереднє
попередні
попередніи
попереднім
попередніми
попередніх
попереду
попит
попитом
попиту
попов
попова
попович
поповнення
поправки
попрацювати
попри
попросив
попросила
попросили
попрощалися
попрямував
популяризацію
популяризаціі
популярна
популярне
популярнии
популярним
популярними
популярних
популярного
популярності
популярною
популярноі
популярні
популярність
популярністю
популярнішим
популярніших
популяціи
популяція
популяціі
попід
попіл
пор
пора
поради
порадив
порадою
поразка
поразки
поразкою
поразку
поразок
поранении
пораненими
поранених
поранення
поранено
пораненого
поранень
поранені
пори
пороги
порода
породами
породах
породжує
породи
порожнини
порожнину
порожніи
порозі
порох
пороху
порошенка
порошенко
порошок
порт
портал
порталу
порталі
порти
портленд
портом
портр
портрет
портрета
портрети
портретом
портретів
порту
португальська
португальськии
португальських
португальського
португальською
португальськоі
португальські
португальці
португальців
португалія
португаліі
портів
пору
поруч
порученію
поручник
порушення
порушенням
порушеннями
порушенні
порушено
порушень
порушив
порушила
порушують
порушує
поряд
порядки
порядком
порядку
порядків
порядок
порятунку
порятунок
порівнюючи
порівняльного
порівняння
порівнянні
порівняно
порівняти
поріг
порід
посад
посада
посадах
посади
посадив
посадили
посадка
посадки
посадку
посадових
посадою
посаду
посаді
посвідчення
посеи
поселение
поселении
поселения
поселениям
поселення
поселенням
поселеннях
поселенні
поселенці
поселенців
поселень
посеред
посередині
посередництва
посилання
посиланням
посилань
посилаючись
посилає
посилається
посилення
посилити
посилюється
посла
послаблення
послав
послання
после
посли
послом
послуг
послугами
послуги
послів
послідовники
послідовників
послідовних
послідовно
послідовностеи
послідовності
послідовність
посмертно
пособие
посол
посольства
посольство
посольстві
посполитоі
посполитіи
поспіль
пост
поста
постав
поставив
поставивши
поставила
поставили
поставити
поставки
поставлена
поставлении
поставлених
поставлено
поставлені
поставок
постала
постало
постаменті
постанов
постанова
постанови
постановив
постановка
постановках
постановки
постановку
постановление
постановник
постановники
постановок
постановою
постанову
постановці
постать
постаті
постачальників
постачання
постає
пости
постоялии
постоялих
постоянного
постраждав
постраждала
постраждали
постраждалих
постраждало
постріл
постріли
пострілу
пострілів
посту
поступ
поступається
поступив
поступився
поступившись
поступилася
поступилися
поступове
поступово
постіи
посуд
посудини
посуду
посіб
посібник
посібники
посібників
посів
посівши
посідав
посідає
посіла
посіли
посісти
потаи
потебні
потенціал
потенціалу
потенціи
потепління
потои
потоками
потоки
потоком
потоку
потоків
потомство
потому
потопив
потоплении
потоцькии
потоцького
потоці
поточнии
поточних
поточного
поточні
потрапив
потрапивши
потрапила
потрапили
потрапило
потрапити
потрапляв
потрапляли
потрапляння
потрапляють
потрапляє
потреб
потреба
потребами
потреби
потребу
потребував
потребувала
потребували
потребують
потребує
потрібен
потрібна
потрібне
потрібнии
потрібно
потрібні
потріи
поттер
потужна
потужнии
потужним
потужними
потужних
потужного
потужностеи
потужності
потужну
потужні
потужність
потужністю
потяг
потяга
потяги
потягу
потягів
потік
потім
похил
похилого
поховали
похована
поховании
поховання
поховано
поховань
поховані
походах
походження
походженням
походи
походив
походила
походили
походить
походу
походять
поході
походів
похорон
похід
похідна
похідне
похідним
похідних
похідні
поцятковані
поцілунок
поч
почав
почався
почавши
почала
почалась
почалася
почали
почались
почалися
почало
почалось
почалося
почасти
почати
початки
початкова
початкове
початковии
початковим
початкових
початково
початкового
початковому
початковою
початковоі
початкову
початкові
початковіи
початком
початку
початок
почаі
почему
почергово
почесна
почесне
почеснии
почесним
почесними
почесних
почесного
почесною
почесні
починав
починався
починали
починати
починають
починаються
починаючи
починає
починається
почне
почтовые
почув
почувши
почули
почути
почуття
почуттям
почуттів
пошани
пошану
поширена
поширене
поширении
поширеним
поширеними
поширених
поширенню
поширення
поширенням
поширеною
поширені
поширеніших
поширеніші
поширився
поширилася
поширилися
поширювати
поширюватися
поширюються
поширюється
пошкоджении
пошкодження
пошкоджено
пошкоджень
пошкоджені
пошкодив
[...]
