!
"
#
##0
##1
##10
##11
##12
##13
##14
##15
##16
##17
##18
##19
##2
##20
##21
##22
##23
##24
##25
##26
##27
##28
##29
##3
##30
##31
##32
##33
##34
##35
##36
##37
##38
##39
##4
##40
##41
##42
##43
##44
##45
##46
##47
##48
##49
##5
##50
##51
##52
##53
##54
##55
##56
##57
##58
##59
##6
##60
##61
##62
##63
##64
##65
##66
##67
##68
##69
##7
##70
##71
##72
##73
##74
##75
##76
##77
##78
##79
##8
##80
##81
##82
##83
##84
##85
##86
##87
##88
##89
##9
##90
##91
##92
##93
##94
##95
##96
##97
##98
##99
$
%
&
'
(
)
*
+
,
-
.
/
0
00
000
0001
0002
0003
0004
0005
0006
001
0010
0011
002
003
004
005
006
007
008
009
01
010
011
012
013
016
02
024
03
0302
039
04
045
05
0554
06
0636
07
08
09
1
10
100
1000
10000
1001
1002
1006
1007
1008
101
1010
1011
1012
1014
1015
1016
1017
1018
102
1020
1022
1023
1024
1025
1028
103
1030
1035
1037
1038
104
1040
105
1050
1054
1057
1058
106
1060
1066
1067
107
1070
1071
1072
1073
1075
1076
1078
108
1080
1086
109
1090
1093
1095
1096
1097
1098
11
110
1100
1101
1102
1103
1105
111
1110
1111
1113
1118
112
1120
1123
1124
1125
1126
1127
113
1130
1135
1139
114
1140
1142
1143
1146
1147
115
1150
1151
1152
1154
1155
1156
1157
116
1160
1167
117
1170
1171
1172
1173
118
1180
1185
1187
1189
119
1190
1194
1196
1198
12
120
1200
1201
1204
1205
1206
121
1210
1212
1214
1215
1216
1219
122
1220
1221
1223
123
1230
1234
1235
1236
1238
1239
124
1240
1241
1242
1245
1246
1248
125
1250
1252
126
1260
1261
1263
1264
127
1270
128
1280
1282
129
1290
1296
13
130
1300
1301
1305
1308
131
1310
132
1320
1323
1325
133
1330
1333
134
1340
1341
1345
1346
1347
1348
1349
135
1350
1356
136
1360
1362
1364
1368
137
1370
1371
1375
1377
1378
138
1380
1382
1385
1386
1387
1388
1389
139
1390
1392
1394
1395
1397
1399
14
140
1400
1401
1402
1404
1408
1409
141
1410
1412
1413
1415
142
1420
1422
1425
1427
1429
143
1430
1431
1432
1433
1434
1435
1436
1437
1438
1439
144
1440
1441
1444
1445
1447
1448
145
1450
1453
1454
1455
1458
146
1460
1461
1462
1463
1466
1469
147
1470
1471
1472
1474
1475
1476
1478
148
1480
1481
1482
1483
1485
1488
149
1490
1491
1492
1493
1494
1495
1497
1498
1499
15
150
1500
1501
1502
1503
1504
1505
1506
1507
1508
1509
151
1510
1511
1512
1513
1514
1515
1516
1517
1518
1519
152
1520
1521
1522
1523
1524
1525
1526
1527
1528
1529
153
1530
1531
1532
1533
1534
1535
1536
1537
1538
1539
154
1540
1541
1542
1543
1544
1545
1546
1547
1548
1549
155
1550
1551
1552
1553
1554
1555
1556
1557
1558
1559
156
1560
1561
1562
1563
1564
1565
1566
1567
1568
1569
157
1570
1571
1572
1573
1574
1575
1576
1577
1578
1579
158
1580
1581
1582
1583
1584
1585
1586
1587
1588
1589
159
1590
1591
1592
1593
1594
1595
1596
1597
1598
1599
16
160
1600
1601
1602
1603
1604
1605
1606
1607
1608
1609
161
1610
1611
1612
1613
1614
1615
1616
1617
1618
1619
162
1620
1621
1622
1623
1624
1625
1626
1627
1628
1629
163
1630
1631
1632
1633
1634
1635
1636
1637
1638
1639
164
1640
1641
1642
1643
1644
1645
1646
1647
1648
1649
165
1650
1651
1652
1653
1654
1655
1656
1657
1658
1659
166
1660
1661
1662
1663
1664
1665
1666
1667
1668
1669
167
1670
1671
1672
1673
1674
1675
1676
1677
1678
1679
168
1680
1681
1682
1683
1684
1685
1686
1687
1688
1689
169
1690
1691
1692
1693
1694
1695
1696
1697
1698
1699
17
170
1700
1701
1702
1703
1704
1705
1706
1707
1708
1709
171
1710
1711
1712
1713
1714
1715
1716
1717
1718
1719
172
1720
1721
1722
1723
1724
1725
1726
1727
1728
1729
173
1730
1731
1732
1733
1734
1735
1736
1737
1738
1739
174
1740
1741
1742
1743
1744
1745
1746
1747
1748
1749
175
1750
1751
1752
1753
1754
1755
1756
1757
1758
1759
176
1760
1761
1762
1763
1764
1765
1766
1767
1768
1769
177
1770
1771
1772
1773
1774
1775
1776
1777
1778
1779
178
1780
1781
1782
1783
1784
1785
1786
1787
1788
1789
179
1790
1791
1792
1793
1794
1795
1796
1797
1798
1799
18
180
1800
1801
1802
1803
1804
1805
1806
1807
1808
1809
181
1810
1811
1812
1813
1814
1815
1816
1817
1818
1819
182
1820
1821
1822
1823
1824
1825
1826
1827
1828
1829
183
1830
1831
1832
1833
1834
1835
1836
1837
1838
1839
184
1840
1841
1842
1843
1844
1845
1846
1847
1848
1849
185
1850
1851
1852
1853
1854
1855
1856
1857
1858
1859
186
1860
1861
1862
1863
1864
1865
1866
1867
1868
1869
187
1870
1871
1872
1873
1874
1875
1876
1877
1878
1879
188
1880
1881
1882
1883
1884
1885
1886
1887
1888
1889
189
1890
1891
1892
1893
1894
1895
1896
1897
1898
1899
19
190
1900
1901
1902
1903
1904
1905
1906
1907
1908
1909
191
1910
1911
1912
1913
1914
1915
1916
1917
1918
1919
192
1920
1921
1922
1923
1924
1925
1926
1927
1928
1929
193
1930
1931
1932
1933
1934
1935
1936
1937
1938
1939
194
1940
1941
1942
1943
1944
1945
1946
1947
1948
1949
195
1950
1951
1952
1953
1954
1955
1956
1957
1958
1959
196
1960
1961
1962
1963
1964
1965
1966
1967
1968
1969
197
1970
1971
1972
1973
1974
1975
1976
1977
1978
1979
198
1980
1981
1982
1983
1984
1985
1986
1987
1988
1989
199
1990
1991
1992
1993
1994
1995
1996
1997
1998
1999
2
20
200
2000
20000
2001
2002
2003
2004
2005
2006
2007
2008
2009
201
2010
2011
2012
2013
2014
2015
2016
2017
2018
2019
202
2020
2021
2022
2023
2024
2025
203
2030
204
205
206
207
208
209
21
210
2100
211
212
213
214
215
216
217
218
219
22
220
2200
221
222
223
224
225
226
227
228
229
23
230
2300
231
232
233
234
235
236
237
238
239
24
240
2400
241
242
243
244
245
246
247
248
249
25
250
2500
251
252
253
254
255
256
257
258
259
26
260
2600
261
262
263
264
265
266
267
268
269
27
270
2700
271
2711
272
273
274
275
276
277
278
279
28
280
2800
281
282
283
284
285
286
287
288
289
29
290
291
292
293
294
295
296
297
298
299
3
30
300
3000
301
302
303
304
305
306
307
308
309
31
310
311
312
313
314
315
316
317
318
319
32
320
3200
321
322
323
324
325
326
327
328
329
33
330
331
332
333
334
335
336
337
338
339
34
340
341
342
343
344
345
346
347
348
349
35
350
3500
351
352
353
354
355
356
357
358
359
36
360
3600
361
362
363
364
365
366
367
368
369
37
370
371
372
373
374
375
376
377
378
379
38
380
381
382
383
384
385
386
387
388
389
39
390
391
392
393
394
395
396
397
398
399
4
40
400
4000
401
402
403
404
405
406
407
408
409
41
410
411
412
413
414
415
416
417
418
419
42
420
421
422
423
424
425
426
427
428
429
43
430
431
432
433
434
435
436
437
438
439
44
440
441
442
443
444
445
446
447
448
449
45
450
4500
451
452
453
454
455
456
457
458
459
46
460
461
462
463
464
465
466
467
468
469
47
470
471
472
473
474
475
476
477
478
479
48
480
481
482
483
484
485
486
487
488
489
49
490
491
492
493
494
495
496
497
498
499
5
50
500
5000
5001
5002
5003
5004
501
502
503
504
505
506
507
508
509
51
510
511
512
513
514
515
516
517
518
519
52
520
521
522
523
524
525
526
527
528
529
53
530
531
532
533
534
535
536
537
538
539
54
540
541
542
543
544
545
546
547
548
549
55
550
551
552
553
554
555
556
557
558
559
56
560
561
562
563
564
565
566
567
568
569
57
570
571
572
573
574
575
576
577
578
579
58
580
581
582
583
584
585
586
587
588
589
59
590
591
592
593
594
595
596
597
598
599
6
60
600
6000
601
602
603
604
605
606
607
608
609
61
610
611
612
613
614
615
616
617
618
619
62
620
621
622
623
624
625
626
627
628
629
63
630
631
632
633
634
635
636
637
638
639
64
640
641
642
643
644
645
646
647
648
649
65
650
651
652
653
654
655
656
657
658
659
66
660
661
662
663
664
665
666
667
668
669
67
670
671
672
673
674
675
676
677
678
679
68
680
681
682
683
684
685
686
687
688
689
69
690
691
692
693
694
695
696
697
698
699
7
70
700
7000
701
702
703
704
705
706
707
708
709
71
710
711
712
713
714
715
716
717
718
719
72
720
721
722
723
724
725
7255
726
727
728
729
73
730
731
732
733
734
735
736
737
738
739
74
740
741
742
743
744
745
746
747
748
749
75
750
7502
751
752
753
754
755
756
757
7571
758
759
76
760
761
762
763
764
765
766
767
768
769
77
770
771
772
773
774
775
776
777
778
779
78
780
781
782
783
784
785
786
787
788
789
79
790
791
792
793
794
795
796
797
798
799
8
80
800
8000
801
802
803
804
805
806
807
808
809
81
810
811
812
813
814
815
816
817
818
819
82
820
821
822
823
824
825
826
827
828
829
83
830
831
832
833
834
835
836
837
838
839
84
840
841
842
843
844
845
846
847
848
849
85
850
851
852
853
854
855
856
857
858
859
86
860
861
862
863
864
865
866
867
868
869
87
870
871
872
873
874
875
876
877
878
879
88
880
881
882
883
884
885
886
887
888
889
89
890
891
892
893
894
895
896
897
898
899
9
90
900
9000
9001
901
902
903
904
905
906
907
908
909
91
910
911
912
913
914
915
916
917
918
919
92
920
921
922
923
924
925
926
927
928
929
93
930
931
932
933
934
935
936
937
938
939
94
940
941
942
943
944
945
946
947
948
949
95
950
951
952
953
954
955
956
958
959
96
960
961
962
963
964
965
966
967
968
969
97
970
971
972
973
974
975
976
977
978
979
98
980
981
982
983
984
985
986
987
988
989
99
990
991
992
993
994
995
996
997
998
999
:
;
<
=
>
?
@
\
^
_
`
a
aa
ab
abc
abgerufen
about
above
abs
ac
academia
academic
academy
acc
access
accessed
ace
acedtalk
acer
ach
acleris
act
acta
action
active
ad
adam
add
adobe
advanced
adventure
adventures
ae
af
affairs
africa
african
after
ag
again
against
age
agency
agonopterix
agrilus
ah
ahonc
ai
ain
air
airbus
aircraft
airlines
airport
airways
ais
aise
aj
ak
akademii
al
alan
alba
albedo
albert
album
albums
alex
alexander
alfa
alfred
aliases
alice
align
alignbars
alive
all
allen
alliance
allium
allmusic
alone
alpha
als
also
alt
am
amazon
amc
amd
america
american
amg
among
amore
amsterdam
an
ana
analysis
anatolypm
anchor
ancient
and
anderson
andre
andreas
andrew
andrijko
andriy
android
andrzej
angel
angeles
animal
animals
animation
ann
anna
anne
anntinomy
annual
another
anthony
anti
antonio
any
ap
apache
api
app
apple
application
applications
approx
april
ar
arc
archaeology
architecture
archive
archived
archives
are
area
arena
argentina
args
arm
arms
army
arnold
around
array
art
arte
artem
arthur
article
articles
artist
artists
arts
arxivist
as
asia
asian
asp
aspx
associated
association
aston
astragalus
asƨɐ
at
atari
atlantic
atlas
atp
attack
au
audi
audio
auf
auflage
aug
august
aus
austin
australia
australian
austria
author
authority
auto
aux
av
available
avant
avatar
avec
avengers
aviation
avn
award
awards
away
ax
ay
az
b
ba
baby
back
background
backgroundcolors
bad
bafta
baker
ball
band
bang
bank
bar
barbara
barcelona
bardata
barra
base
based
basic
basio
bass
batman
battle
bay
bb
bbc
bc
bd
be
beach
beat
beatles
beautiful
beck
been
before
begin
behind
bei
being
believe
bell
ben
benz
ber
berkeley
berlin
bernard
best
beta
betta
better
between
beyond
bf
bg
bh
bi
biblio
big
bild
biletsky
bill
billboard
bin
bio
biograficzny
biographical
biographie
biography
biology
bird
birdlife
birds
bis
bit
bk
bl
black
block
blog
blogspot
blood
blu
blue
blues
bluetooth
bmatrix
bmw
bn
bner
bo
board
bob
body
boeing
boisduval
boldsymbol
book
books
border
born
boston
bot
botanical
botdr
bottom
box
boy
boys
bp
br
brain
brazil
break
brian
bridge
brill
bristol
britain
britannica
british
bronze
bros
brotherhood
brothers
brown
bruce
brunei
bs
bu
budapest
building
bulbophyllum
bulka
bull
bulletin
bus
business
but
butler
bw
bwv
by
bytes
c
ca
calidris
california
call
called
cambridge
campbell
can
canada
canadian
canon
canvas
cap
capital
capitol
captain
car
carabus
card
care
carex
carl
carlos
cars
casa
case
cases
cassini
castle
cat
catalog
catalogue
category
cathedral
catholic
cbs
cc
cd
cdot
cdots
cdp
ce
cell
cemetery
census
cent
center
central
centre
century
cf
cgi
ch
cha
chains
challenge
champion
champions
championship
championships
change
changes
channel
chapter
charadrius
charles
chart
che
check
chemical
chemistry
cher
chess
chevrolet
chi
chicago
chief
child
children
china
chinese
choice
chris
christ
christian
christmas
christoph
christopher
chronicle
chrysler
church
ci
cia
cie
cinema
cio
circ
circle
cit
citroe
city
civil
cj
ck
cl
clan
clark
class
classic
classical
classification
claude
cle
clerck
climate
close
cloud
club
cm
cn
cnn
co
coa
coast
coat
code
col
cold
cole
coleophora
coleoptera
coll
collection
college
collegium
collins
colon
color
colors
colt
columbia
com
combat
come
comedy
comic
comics
coming
command
commission
committee
common
commons
commune
communication
communications
community
company
competition
complete
complex
computer
con
concept
concert
conference
congress
conservation
consigliere
construction
contemporary
content
context
continental
control
conway
cool
cooper
core
corp
corporation
cos
costa
could
council
count
country
county
coupe
court
cov
cover
covid
cp
cq
cr
crazy
create
created
creative
crimea
crisis
critical
cropped
cross
crown
cry
crystal
cs
css
ct
cu
cultural
culture
cum
cup
current
curtis
cut
cv
cw
cy
cz
d
da
daily
daimler
dan
dance
daniel
dans
dark
darkgrey
darvin
das
data
database
date
dateformat
david
davis
dawn
day
days
db
dc
dd
ddr
de
dead
death
dec
december
deep
def
default
defence
defense
dei
deineka
del
dell
della
delta
dem
den
denis
department
depuis
der
des
desc
description
desert
design
det
detail
details
deutsche
deutschen
deutschland
development
devil
df
dgho
di
diamond
dictionary
did
die
diego
diesel
dieter
different
digital
dim
dimon
din
dir
direct
directory
disambiguation
discogs
discovery
disease
disney
display
displaystyle
distribution
district
ditions
divega
diversity
division
dixond
dj
dji
dk
dla
dm
dnia
do
doc
doctor
document
documents
dodge
does
dog
doi
dom
don
donald
doom
door
dos
dot
dots
double
doubleday
doubles
douglas
down
dp
dr
dragon
draw
dream
dreams
drive
drugs
drundia
ds
dsc
dscf
dscn
dt
du
duke
duponchel
dur
during
duty
dvd
dx
dy
dynamics
dz
dzenie
dziejo
e
ea
each
eagle
early
earth
east
eastern
ec
ecology
economic
economics
economy
ed
edge
edinburgh
edit
edited
edition
editions
editor
editors
eds
edu
education
edward
ee
eesti
effect
egypt
ehess
ein
eine
einer
ek
el
elachista
electric
electronic
electronics
elements
elite
eliteprospects
elizabeth
ell
else
elseif
em
emi
empire
en
encyclopaedia
encyclopedia
encyclopædia
end
energy
engine
engineering
england
english
enterprise
entertainment
entity
entry
environment
environmental
ep
epic
episode
epsilon
equiv
er
era
eric
ernst
error
erud
es
espan
esper
essays
est
et
eta
etc
ethernet
eu
eupithecia
euro
europa
europe
european
ev
evans
event
events
ever
every
everything
evidence
evil
evolution
ex
example
exp
experience
explorer
express
extragalactic
eye
eyes
f
fa
fabricius
face
facebook
factor
factory
fair
falco
falcon
fall
false
family
familysearch
fantasy
far
fashion
fast
fb
fc
fda
fe
fear
feat
feature
featuring
feb
february
federal
federation
feel
female
ferrari
fessor
fest
festival
ff
ffer
fi
fiat
fiction
field
fields
fifa
fight
fighter
fighting
file
files
film
films
final
finalist
financial
find
fine
fire
firefox
first
fischer
fish
fishes
five
fl
flag
flash
flavius
flight
flora
florida
flow
flowers
floyd
fly
flying
fm
fn
fo
focus
folk
fontsize
food
football
footballdatabase
footbook
for
forall
forbes
force
forces
ford
foreign
forest
forever
form
format
formation
former
fort
fortez
fortress
forum
fosufofiraito
foto
found
foundation
four
fox
fps
fr
fra
frac
frame
framework
franc
france
francis
francisco
frank
frankfurt
frankivsk
franz
free
freedom
french
freyer
friedrich
friend
friends
from
front
ft
fu
full
function
future
fw
g
ga
galaxy
gallery
gallimard
game
games
gamma
garden
gas
gate
gay
gazeta
gazette
gb
gc
gdan
ge
gen
gender
gene
general
generation
genesis
genus
geo
geographic
geohem
georg
george
georges
georgia
ger
gerhard
german
germany
geschichte
gesellschaft
get
ghidul
ghost
gi
gif
giovanni
girl
girls
give
glass
global
glory
glu
gm
gmbh
gnome
gnu
go
god
goes
gold
golden
golf
gone
goo
good
google
gora
gordon
got
gouseru
gov
government
gp
gps
gpv
gr
gran
grand
grande
grave
gray
great
greatest
greece
greek
green
grey
gridcolor
grin
grits
ground
group
groups
gs
gsc
gsub
gt
gu
guardian
guide
guitar
gun
guns
gutsul
guy
gło
h
ha
had
half
hall
hamburg
hampson
hand
handbook
handbuch
hans
happy
hard
harper
harris
harry
harvard
has
hat
haute
have
haworth
hbar
hbo
hd
he
head
health
heart
heaven
heavy
height
heinemann
heinrich
helgi
helixitta
hell
hello
help
henry
her
herald
herbarz
herbu
here
heritage
hermann
hero
heroes
herrich
het
hg
hgmn
hi
hiddencat
high
hill
hip
his
histoire
historia
historical
historicus
history
hit
hits
hl
hms
ho
holland
hollywood
holy
home
homo
honda
hong
honor
hope
horizon
horizontal
horse
hospital
hot
hotel
hour
house
how
howard
hp
hr
hrsg
htm
html
http
https
hu
huawei
hubner
hudson
hufnagel
human
hunt
hunter
hunting
hybrid
hyundai
i
ia
ian
iau
ib
ibf
ibm
ic
ice
ich
icon
ictv
id
idaea
identity
ie
iec
ieee
if
ign
igor
igorturzh
ii
iii
ij
il
illustrated
im
image
images
imagesize
imdb
img
imienia
impact
imperial
in
inc
inch
including
increment
independent
index
india
indian
indonesia
industrial
industries
industry
ine
info
information
infty
inhaber
insee
inseeinsee
inseesaint
insert
inside
instagram
institut
institute
int
intel
intelligence
interactive
interface
interior
international
internet
interview
into
introduction
io
ion
ios
ip
ipad
iphone
ir
iran
ireland
irish
iron
is
isbn
islam
island
islands
iso
israel
issn
issue
ist
it
italia
italian
italiana
italy
item
itf
its
itunes
iucn
iv
ivan
ivano
ix
iz
j
ja
jack
jackson
jacques
jaguar
jam
james
jan
jane
january
japan
japanese
java
javascript
jay
jazz
je
jean
jerusalem
jerzy
jesu
jesus
jet
jewish
jg
jim
jo
joe
johann
johannes
john
johnny
johnson
jonathan
jones
jordan
jose
joseph
journal
journey
jp
jpeg
jpg
jphwra
jr
js
ju
juan
julia
july
jump
june
junior
just
justice
justify
k
ka
kamelot
kanzat
karl
kb
kc
kde
ke
keep
key
kg
kharkiv
kharkivian
kherson
khimich
ki
kia
kibeee
kid
kids
kiev
kill
kim
king
kingdom
kings
kino
kirche
kirovograd
kiss
klaus
km
knight
know
knowledge
known
ko
koch
koda
kogo
komisarenko
kong
korea
korona
kos
kr
krako
kro
krystofer
ks
ksia
ksie
ku
kyiv
l
la
lab
label
lady
lake
lambda
land
landscape
lang
langle
language
languages
large
las
last
lat
late
later
latin
law
lawrence
layer
lb
lc
ldots
le
league
learning
leben
led
lee
left
legacy
legal
legend
legends
lego
leiden
leipzig
leo
leon
leonst
leopard
leq
leqslant
les
let
letter
letters
level
lewis
lexikon
lexusuns
lg
li
lib
liberty
library
lie
life
light
lightgrey
like
lil
lim
limitation
limited
limits
lincoln
line
linear
lines
link
links
linnaeus
linux
lion
list
lists
literature
little
live
lives
living
ll
llc
ller
ln
lo
loadmap
local
location
lockheed
log
logic
logo
loire
london
loneos
long
longrightarrow
look
lord
los
lost
lot
lotus
louis
love
low
lower
lp
lt
ltd
lu
ludwig
luftwaffe
lv
lviv
lwo
lwowa
lwowie
lwowskiego
lystopad
m
ma
mac
machine
macmillan
mad
made
madrid
magazine
magic
magnum
mai
mail
main
major
make
making
maksym
male
mammals
mammillaria
man
management
mann
manual
many
map
mapa
mapquest
maps
mar
marazlievskaya
marc
march
maria
marie
marina
marine
mario
maritime
mark
marker
market
mars
martin
marvel
mary
maryankod
mashke
mass
master
masters
match
materials
math
mathbb
mathbf
mathcal
mathematical
mathematics
mathfrak
mathrm
matrix
max
maxim
may
maya
mayer
mazda
mb
mbox
mc
mcoffsky
md
me
med
medal
media
mediawiki
medical
medicine
medieval
meeting
melvic
memorial
memory
men
mer
mercedes
mercury
message
met
meta
metacritic
metal
metallica
method
methods
metro
mexico
meyrick
mg
mi
miasta
michael
michel
microcell
microsoft
mid
middle
midnight
mie
mike
mil
milano
military
miller
million
min
mind
mine
mini
mining
minor
minorplanetcenter
mir
mirror
miss
mission
mit
mitsubishi
mitte
mix
mk
mls
mm
mmh
mn
mo
mobile
mod
mode
model
models
modern
module
molecular
mon
monastery
monde
money
monster
month
monument
moon
moore
more
morning
morris
mortal
moscow
most
mother
motion
moto
motogp
motor
motors
mount
mountain
mountains
move
movement
movie
mozilla
mp
mr
ms
mt
mtv
mu
murder
murray
muse
museum
music
musical
must
mw
mx
my
mycena
mykola
myspace
mystery
n
na
nabla
nach
nacional
nad
nam
name
names
narod
narodowy
nas
nasa
nat
nation
national
nations
nato
natural
nature
nauk
naval
navy
nb
nbc
nbuv
nc
nchen
nd
nde
ne
near
neat
need
nel
nelson
neo
neon
nes
net
netflix
network
networks
neue
never
new
news
next
nf
ng
ngc
nh
ni
nicholas
nick
nickispeaki
nickk
nie
niesiecki
night
nil
nina
nine
nintendo
nissan
nl
nn
no
node
nokia
non
none
nord
norman
north
northern
nos
not
note
notes
nothing
notoc
nov
nova
novel
november
now
np
nr
ns
nt
nu
nuclear
num
number
numberedmps
numbers
nv
nx
ny
o
object
obl
oblast
oc
ocean
och
oclc
oct
october
od
odesa
odessa
of
off
office
official
og
oh
oil
ois
ok
old
oleg
olegb
oleh
oleksandr
oloddin
olvin
olympedia
olympic
olympics
om
omega
on
once
one
online
only
op
opel
open
opera
operation
operations
operatorname
oplus
options
opus
or
orange
orchestra
order
org
organization
orientation
origin
original
origins
os
ossolin
other
otto
ou
our
out
output
ova
over
overline
own
oxford
p
pa
pacific
page
pages
pal
palace
pallas
pam
pan
panorama
panoramio
panzer
paper
papers
par
para
paradise
parameter
parameters
paramount
paris
park
parle
part
partementales
partial
partir
party
pas
past
patrick
patzwall
paul
pavlo
pavlosh
pb
pc
pd
pdf
pe
peace
pearl
pechersk
pen
penguin
people
per
perfect
performance
period
perohanych
person
personal
peter
peugeot
pg
ph
phi
philadelphia
philip
philosophy
photo
photos
php
phyllonorycter
phylloscopus
phys
physical
physics
pi
piano
picture
pictures
pie
pierre
pink
pinus
piramidion
piznajko
pl
place
plan
planet
plant
plants
play
player
players
playstation
please
plotarea
plotdata
pls
plus
pm
pmatrix
pmid
png
po
pod
poe
point
points
pol
poland
police
policy
polish
political
politics
polsce
polska
polski
polskich
polskiego
polskiej
poltava
pop
popular
population
por
porsche
port
portal
portrait
portugal
pos
position
post
pour
power
poznan
pp
pr
practice
praha
pre
premier
present
president
press
prima
prime
prince
princess
princeton
print
private
prix
prize
pro
problem
problems
proceedings
process
production
productions
professional
professor
profile
program
project
properties
property
protection
protocol
przy
ps
psi
psichopuzo
psychology
psychotria
pt
pu
public
publication
publications
published
publishers
publishing
purple
px
pyrausta
python
q
qquad
qt
quad
quarterly
que
queen
quercus
quest
qui
quid
r
ra
race
racing
rada
radeon
radio
ragnarok
rai
raider
rail
railway
rain
rainbow
raion
random
range
rangle
raw
ray
rb
rc
rca
rd
rdat
re
read
reader
real
rebel
recensement
record
recordings
records
red
redmi
ref
reference
references
region
regional
register
reich
related
relations
relative
release
religion
remington
remix
renaissance
renault
renvoy
report
reports
republic
required
res
research
reserve
resources
result
results
retrieved
return
reuters
rev
review
reviews
revngcic
revolution
revue
rex
rf
rfc
rgb
rho
ri
ria
rich
richard
right
rightarrow
rights
riilor
ring
rio
rise
rite
river
rluts
rm
ro
road
robert
robinson
robot
rock
roger
roku
role
roll
rolling
rolls
rom
roma
roman
romantys
rome
romeo
ronald
room
rosa
rose
rosewater
ross
rotten
round
routledge
rover
row
royal
royce
rozporza
rs
rsssf
rt
ru
rubus
rudolf
rule
run
rus
russell
russia
russian
russula
rzeczypospolitej
s
sa
saab
saint
sainte
sam
same
samsung
samuel
san
sans
sant
santa
sars
save
say
sb
sc
scale
scalemajor
scaleminor
scene
scha
scherzer
schiffermu
schiffermuller
schloss
schmidt
scho
scholar
school
sci
science
sciences
scientific
scopoli
scopula
scopus
scotland
scott
scottish
screen
scythris
sd
se
sea
search
season
second
secret
section
security
seds
see
sega
seine
selaginella
selected
self
sep
september
serg
sergento
series
server
service
services
set
seven
sex
sf
sfondo
sg
sh
shadow
she
shell
shenturk
shevchenka
shevchenko
shift
ship
ships
short
shot
should
show
si
side
sie
siemens
sig
sigma
sign
silene
silent
silver
sim
simbad
simc
simon
simple
sims
sin
since
singapore
singer
single
singles
sio
sir
site
sitizenx
six
size
sk
ska
ski
skich
skiego
sky
sl
slims
sm
small
smart
smith
sms
sn
so
soc
soccer
soccerpunter
soccerway
social
socie
society
socket
software
solar
solaris
soldiers
solo
some
something
son
song
songs
sonic
sons
sony
soul
sound
source
sources
sous
south
southern
soviet
sp
space
spacewatch
spacex
spain
spanish
special
species
speed
spider
spirit
sport
sports
spring
springer
sql
sqrt
square
sr
ss
sse
st
sta
stage
stainton
stamp
stand
standard
stanford
stanisław
stanisławowa
star
stars
start
stat
state
states
station
statistics
status
staudinger
steam
steel
stefan
step
stephen
stephens
steve
steven
stigmella
still
stitch
stockholm
stone
stones
stop
store
storia
stories
storm
story
str
strange
street
strike
string
structure
sts
stub
studia
studies
studio
studios
study
stuttgart
style
su
sub
submajstro
subset
subsp
suite
sum
summary
summer
sumy
sun
sunday
super
support
sur
survey
suzuki
sv
svg
sw
swarnyk
sweden
swedish
sweet
sydney
symbol
system
systems
słownik
t
ta
table
tag
tahayev
take
tales
talk
tan
tank
tarask
target
tatra
tau
taylor
tb
tcp
td
te
team
teams
teatr
teau
tech
technical
technologies
technology
telegraph
television
template
temple
ten
tennis
ternopil
terra
test
texas
text
textcolor
tfrac
tg
th
than
that
the
theater
theatre
theft
their
them
then
theory
there
these
theta
they
thing
things
think
third
this
thomas
thought
three
through
thumb
thunberg
ti
tiger
tilde
till
time
timeaxis
times
title
tnoxx
to
toc
today
together
tokyo
tom
tomahiv
tomatoes
tony
too
tool
top
tor
toronto
total
touch
tour
tournament
tower
town
toyota
tr
tra
track
trade
train
training
trans
transfermarkt
translated
translation
transport
travel
tre
tree
treitschke
tribute
trinity
true
trust
truth
ts
tserkva
tt
tu
turbo
turkey
turn
turner
tv
twin
twitter
two
type
u
ua
ubuntu
udmurtija
uefa
ufc
uk
ukr
ukrain
ukraine
ukrainian
ultimate
ultra
um
un
una
und
under
underground
une
unikalinho
union
unit
united
units
univ
universal
universe
universita
university
unix
up
update
upload
upper
upright
ur
urban
url
urze
us
usa
usb
use
used
user
using
uss
ustring
ut
utc
utype
v
va
val
valley
value
values
van
var
varepsilon
varphi
ve
vec
venzz
verlag
version
vertical
very
vi
via
victor
victoria
victory
video
vie
view
vii
viii
villa
village
ville
vilnius
virgin
virginia
virtual
visem
vision
vista
visual
vita
vizier
vk
vlad
vo
vogue
voice
void
voidwanderer
vol
volkswagen
volodymyr
volume
volvo
volynska
vom
von
vr
vs
vw
w
wa
waffen
walker
wall
walt
walter
wanderer
wang
want
war
warcraft
warfare
warner
warren
warriors
wars
warszawa
was
washington
watch
water
wave
way
wba
wbc
wbo
we
web
website
week
weekly
wehrmacht
welcome
well
welt
weltkrieg
were
werner
west
western
what
when
where
which
while
white
who
why
wi
width
wie
wieku
wien
wii
wiki
wikidata
wikimedia
wikipedia
wild
wiley
wilhelm
will
william
williams
wilson
win
wind
windows
winner
winter
with
within
without
wlm
wo
wojewo
wolf
wolfgang
woman
women
won
woo
wood
word
words
work
working
works
world
worldfootball
would
wp
wrestling
wright
wrocław
wta
wu
ww
wwe
www
wyd
wydawnictwo
x
xbox
xi
xiaomi
xii
xiii
xiv
xix
xl
xml
xp
xperia
xrightarrow
xv
xvi
xvii
xviii
xx
xxi
xxii
xxiii
xxiv
xxv
xxx
xy
y
ya
yahoo
yakiv
yakudza
yale
yalovecky
yarikukraine
yasnodark
yds
ye
year
years
yellow
yes
yo
york
you
young
your
youth
youtube
yu
yukh
yuriy
yyyy
z
za
zabytki
zakład
zamek
ze
zealand
zef
zeit
zeitschrift
zeitung
zeller
zeppelin
zero
zeszyt
zirka
zm
zn
zone
zootaxa
zu
zum
zur
zvr
{
|
}
~
¡
£
§
©
ª
«
¬
­
®
°
±
²
³
´
µ
·
¹
º
»
¼
½
¾
¿
×
æ
ð
÷
ø
ı
ł
ło
ŋ
ɐ
ɔ
ə
ɛ
ɟ
ɪ
ʃ
ʊɲ
ʒ
ʰ
ʲ
ʹ
ʼ
ʿ
ˈ
ː
˚
̀
́
̂
̃
̄
̆
̇
̈
̉
̊
̋
̌
̏
̑
̓
̔
̛
̟
̠
̣
̥
̦
̧
̨
̪
̮
̯
̱
̸
̺
͂
͡
α
β
γ
δ
ε
ζ
η
θ
ι
κ
και
λ
λι
μ
ν
ξ
ο
π
ρ
ς
σ
τ
το
του
υ
φ
χ
ψ
ω
а
аа
аарон
аб
абаи
абатства
абатство
абд
абдул
абетка
абетки
абзац
аби
або
абонентів
аборигенів
абрам
абрамович
абревіатура
абсолютна
абсолютнии
абсолютно
абсолютного
абсолютноі
абсолютну
абсурду
абу
абхазіі
авангард
авангарду
аваріи
аварію
аварія
аваріі
август
августа
августин
августина
авдіі
авеню
аверс
аверсі
авраам
авраама
авраменко
аврора
австраліи
австралію
австралія
австраліі
австро
австріи
австрію
австрія
австрією
австріі
авт
авто
автобус
автобуса
автобуси
автобусів
автобіографія
автобіографіі
автомагістраль
автомагістралі
автомат
автомата
автомати
автоматизація
автоматизаціі
автоматики
автоматична
автоматичне
автоматичнии
автоматичних
автоматично
автоматичного
автоматичною
автоматичноі
автоматичні
автоматів
автомобілем
автомобіль
автомобільна
автомобільнии
автомобільних
автомобільного
автомобільноі
автомобільні
автомобіля
автомобілях
автомобілі
автомобілів
автономна
автономнии
автономних
автономного
автономноі
автономні
автономніи
автономію
автономія
автономіі
автопатрульного
автопереклад
автопортрет
автор
автора
авторами
автореф
автори
авторитет
авторитетним
авторитетними
авторитетних
авторитетні
авторитетом
авторитету
авторка
автором
авторства
авторство
авторська
авторське
авторськии
авторським
авторських
авторського
авторські
автору
авторів
автосалоні
автошлях
автошляхи
автошляхом
автошляху
авіабаза
авіакатастрофи
авіакомпаніи
авіакомпанія
авіакомпаніі
авіаносець
авіаносця
авіаносці
авіаносців
авіаціи
авіацію
авіація
авіацією
авіаціі
авів
авіньи
ага
агент
агента
агенти
агентом
агентства
агентство
агентством
агентів
агенція
агенціі
агломерація
агломераціі
аглі
аграрна
аграрнии
аграрних
аграрного
аграрноі
агрегат
агрегати
агрегатів
агресором
агресію
агресіі
агро
агроном
агропромислового
агітаціи
агітаціі
ад
ада
адам
адама
адамс
адаптація
адаптаціі
адвокат
адвоката
адвокати
адвокатом
адвокатів
аделаі
адель
адже
адлер
адм
административно
адмін
адміна
адміни
адміном
адмінів
адміністративна
адміністративне
адміністративнии
адміністративним
адміністративних
адміністративно
адміністративного
адміністративному
адміністративною
адміністративноі
адміністративну
адміністративні
адміністратор
адміністратора
адміністраторами
адміністратори
адміністратором
адміністраторів
адміністраціи
адміністрацію
адміністрація
адміністрацією
адміністраціі
адміністрування
адмірал
адмірала
адміралтеи
адольф
адольфа
адрес
адреса
адреси
адресою
адресу
адріан
адріана
адріано
аеродром
аеродрому
аеродромі
аеропорт
аеропорти
аеропортом
аеропорту
аеропортів
аес
аж
аз
азартних
азартні
азбука
азербаи
азов
азовського
азот
азоту
азіи
азію
азія
азіі
аи
ак
акад
академии
академия
академіи
академік
академіка
академіки
академіком
академічна
академічнии
академічних
академічного
академічному
академічноі
академічні
академію
академія
академією
академіі
акварель
акваторіі
аквітанія
акимата
акмолинськоі
акредитаціі
акт
акта
актами
актах
акти
активаціі
активи
активна
активне
активнии
активним
активними
активних
активно
активного
активності
активною
активноі
активну
активні
активність
активністю
активів
активіст
активістами
активісти
активістка
активістів
актов
актом
актор
актора
акторами
актори
акторка
акторки
акторкою
актором
акторськии
акторського
акторськоі
акторську
акторів
актриса
актриси
актрисою
акту
актуальних
актуальні
актуальність
акті
актів
акул
акула
акули
акумулятор
акустична
акушерськии
акцент
акцентом
акціи
акціонерне
акціонерного
акціонерів
акцію
акція
акціях
акціі
ал
алабама
алабами
алан
алана
алба
албанців
албанія
албаніі
алгебра
алгебраі
алгебри
алгоритм
алгоритми
алгоритму
алгоритмів
але
алегорія
алеи
алекс
алекса
александер
александр
александра
александров
александрова
александрович
александровського
александріи
александріі
алексеи
алексєєв
ален
алеппо
алессандро
алея
алеі
алжир
алжиру
алжирі
алкоголь
алкоголю
алла
аллен
алма
алмаз
алмазів
алмати
алонсо
алоі
алтаи
алфавіт
алфавітом
алфавіту
алчевськ
аль
альба
альберт
альберта
альберто
альбом
альбоми
альбомом
альбому
альбомі
альбомів
альбрехт
альбрехта
альбіон
альма
альманах
альманаху
альп
альпах
альпи
альпивиписка
альпіи
альт
альта
альтернатива
альтернативи
альтернативна
альтернативнии
альтернативних
альтернативного
альтернативноі
альтернативні
альто
альфа
альфонс
альфонсо
альфред
альфреда
альфредо
альянс
альянсу
альє
алюмініи
алюмінію
аляска
аляски
алі
аліна
аліса
ам
амазонки
амалія
аманда
аматорськии
аматорських
аматорського
аматорському
аматорські
аматорів
амбулаторія
амбіціи
амвросіі
америка
американець
американська
американське
американськии
американським
американськими
американських
американського
американському
американською
американськоі
американську
американські
американськіи
американці
американців
америки
америкою
америку
америці
амона
амплітуда
амстердам
амстердама
амстердамі
амур
амурськоі
амінокислот
ан
ана
анализ
аналог
аналоги
аналогом
аналогів
аналогічна
аналогічне
аналогічнии
аналогічним
аналогічних
аналогічно
аналогічну
аналогічні
аналогією
аналогіі
анальнии
аналіз
аналізом
аналізу
аналізувати
аналізує
аналізі
аналітики
аналітична
аналітичнии
аналітичних
аналітичного
аналітичноі
аналітичні
ананьі
анастасія
анастасіі
анато
анатоліи
анатолія
анатоліі
анатомія
анатоміі
анг
ангальт
ангел
ангела
ангели
ангелів
англ
англвікі
англо
англомовних
англомовні
англіи
англію
англія
англією
англіі
ангола
анголи
анголі
анд
андерс
андерсон
анджеи
анджелес
анджелеса
анджелесі
анджело
анджея
андорри
андре
андреа
андреас
андреи
андрея
андрі
андріи
андрію
андрія
андрієм
андріі
анексія
анексіі
анжу
анжуи
анн
анна
анни
анною
анну
анні
аномаліі
анонсовано
анонім
анотаціи
анрі
ансамбль
ансамблю
ансамблі
антанти
антарктиди
антарктики
антверпен
антена
антени
анти
антибіотиків
антикорупціи
антитерористичноі
антитіл
антитіла
антиукраі
антична
античних
античного
античності
античноі
античні
антологія
антологіі
антон
антона
антонов
антонова
антонович
антоновича
антонівка
антонівна
антоніи
антонін
антоніна
антоніо
антоніу
антонія
антропологіі
антуан
антін
антіохіи
антіохіі
ану
ані
аніж
анімаціи
анімація
анімаціі
аніме
ао
ап
апарат
апарата
апарати
апаратне
апаратом
апарату
апаратура
апаратури
апараті
апаратів
апеляціи
аполлон
аполлона
апостол
апостола
апостольськоі
апостолів
апостроф
апреля
аптека
ар
араб
араби
арабська
арабськии
арабських
арабського
арабською
арабськоі
арабські
арабів
аравіи
аравія
аравіі
арагон
арагону
арад
аранжування
арбітр
арбітра
арбітраж
арбітражнии
арбітражного
арбітри
арбітром
арбітрів
аргентина
аргентини
аргентинськии
аргентинські
аргентині
аргумент
аргументами
аргументація
аргументаціі
аргументи
аргументом
аргументу
аргументів
арденни
арджеш
ареал
ареалу
арена
арени
ареною
арену
арені
арешт
арешти
арештовании
арештом
арешту
аризона
аристократів
аристократіі
арк
арка
аркадіи
аркадія
арканзас
арки
аркуш
аркуші
аркушів
армии
армия
армор
армстронг
арміи
армію
армія
арміями
армією
арміі
арно
арнольд
аромат
арон
арсен
арсенал
арсенала
арсеналу
арсеніи
арср
арт
артаньян
артем
артема
артеріі
артефакти
артефактів
артилеріи
артилерію
артилерія
артилерією
артилеріі
артист
артиста
артисти
артистка
артистів
артур
артура
артіль
артілі
арх
архангела
архангельськоі
архаі
археолог
археологами
археологи
археологів
археологічна
археологічнии
археологічних
археологічного
археологічноі
археологічні
археологія
археологіі
архив
архистратига
архитектура
архитектуры
архів
архівах
архіви
архівна
архівних
архівноі
архівні
архіву
архіві
архівів
архімандрит
архімандрита
архіпелаг
архіпелагу
архіпелазі
архістратига
архітектор
архітектора
архітектори
архітектором
архітекторів
архітектура
архітектури
архітектурна
архітектурнии
архітектурних
архітектурно
архітектурного
архітектурноі
архітектурні
архітектурою
архітектуру
архітектурі
архієпархіі
архієпископ
архієпископа
архієпископом
архієреи
аріи
арія
аріі
ас
асамблея
асамблеі
асистент
асистента
асистентом
асканія
асортимент
асоціаціи
асоціацію
асоціація
асоціацією
асоціаціі
асоціи
асоціюється
аспект
аспектах
аспекти
аспектів
аспірант
аспірантури
аспірантуру
аспірантурі
аспірантів
ассиріи
ассиріі
аст
астероі
астон
астраханськоі
астрахані
астронавти
астронавтів
астроном
астрономи
астрономічних
астрономічного
астрономічні
астрономія
астрономіі
асунсьи
ат
ата
атак
атака
атаки
атаковании
атакою
атаку
атакував
атакували
атакувальноі
атакувати
атакує
атаці
аташе
атеі
атланта
атлантики
атлантиці
атлантична
атлантичнии
атлантичного
атлантичному
атлантичні
атланті
атлас
атлетика
атлетики
атлетік
атлетіко
атмосфера
атмосфери
атмосферних
атмосферного
атмосферу
атмосфері
ато
атол
атом
атома
атоми
атомна
атомнии
атомних
атомноі
атомні
атомів
атрибути
атрибутів
ату
атф
аудит
аудиторію
аудиторія
аудиторією
аудиторіі
аудиту
аудіо
аукціоні
аул
афанасіи
афганськоі
афганістан
афганістану
афганістані
афк
афонсу
африка
африканська
африканськии
африканських
африканського
африканськоі
африканські
африки
африку
африці
афроамериканські
афроамериканців
афін
афінах
афіни
афінського
ах
ахеи
ахл
ахмад
ахмед
ахмеда
ацетилювання
ацтеків
аш
аякс
аякса
аі
б
ба
баб
баба
баби
бабин
бабич
бабуся
бабусі
бабіи
баварського
баварія
баваріі
бавовни
багата
багате
багатии
багатим
багатих
багато
багатого
багатодітніи
багаторазовии
багаторазово
багаторічна
багаторічнии
багаторічних
багаторічну
багаторічні
багатою
багатоі
багатства
багатство
багатством
багаття
багату
багатших
багатьма
багатьом
багатьох
багаті
бад
баден
бажав
бажали
бажана
бажання
бажанням
бажано
бажань
бажаю
бажають
бажаючи
бажає
баз
база
базар
базари
базах
базель
бази
базиліка
базиліки
базова
базовии
базових
базового
базовоі
базові
базою
базу
базувався
базувалася
базувалися
базування
базуються
базується
базі
баи
бак
бака
бакалавр
бакалавра
бакеу
бакс
бактеріи
бактеріі
баку
бал
бала
балада
балади
балакліи
баланс
балансу
балдуі
балет
балетмеи
балету
бали
балка
балками
балкан
балканах
балкани
балки
балок
балотувався
балтіи
балтіі
балу
балці
балі
балів
бан
бангладеш
банда
бандери
банди
бандитів
бандура
бандури
бандурист
бандуристів
банер
банк
банки
банкнот
банкноти
банком
банкрутства
банкрутство
банку
банків
банківська
банківських
банківськоі
баня
бані
бар
бара
барабан
барабана
барабани
барабанщик
барак
баран
барбара
барв
барвінок
барельєф
барелів
баритон
бароко
барокові
барон
барона
баронів
баррі
барс
барселона
барселони
барселоні
барськии
барт
бару
барі
бас
басеи
басист
баскетбол
баскетболу
баскетболіст
баскетболісти
басків
батальи
батареи
батарею
батарея
батареі
бате
батлер
батумі
батурин
батька
батькам
батьками
батьки
батько
батькові
батьком
батьку
батьків
батьківського
батьківщина
батьківщини
батьківщиною
батьківщину
батьківщині
баффало
бах
баха
бахмут
бахреи
бахчисараи
бахші
бач
бачать
бачачи
бачення
бачив
бачила
бачили
бачимо
бачите
бачити
бачить
бачиш
бачу
башкири
башкирськоі
башкортостан
башкортостану
башт
башта
баштами
башти
баштою
башту
башті
баі
бджоли
бджіл
бе
беверлі
без
безансона
безвісти
безкоштовнии
безкоштовно
безкоштовні
безліч
безліччю
безлічі
безнадіи
безпартіи
безпека
безпеки
безпеку
безперервно
безперервного
безперечно
безпеці
безпечно
безпечного
безпосередньо
безпосереднього
безпосередньоі
безпосередню
безпосереднє
безпосередніи
безпосереднім
безрамки
безробітних
безробіття
безсмертя
безсумнівно
безумовно
безуспішно
безхребетними
безхребетних
безіменна
безіменних
беи
бек
бека
бела
беларуская
беларусь
беларусі
белград
белграда
белграді
белл
белла
бельгіи
бельгія
бельгіі
белэн
белізу
бемоль
бен
бена
бендер
бенджамін
бенедикт
бенедикта
бензин
бензинові
бенкет
бенкс
бенні
бенуа
бенфіка
бер
берг
бергамо
берд
бердичів
бердичівського
бердянськ
бере
берег
берега
берегах
береги
берегова
берегових
береговоі
берегом
берегу
берегів
бережани
берез
береза
березень
берези
березня
березні
березовськии
березі
березівка
берестеи
берестя
береться
берк
берклі
беркут
берлін
берліна
берлінськии
берлінського
берлінському
берлінськоі
берліні
берн
бернар
бернард
бернарда
бернардо
бернс
берні
беррі
берта
беруть
беруться
беручи
бессарабіі
бесіда
бесіди
бет
бета
бетмен
бетмена
бетону
бетті
бетховена
бея
би
библиотека
бив
бився
бик
бика
биков
били
билися
биографическии
биография
бистриця
битв
битва
битвах
битви
битвою
битву
битві
бити
битися
бк
бл
бла
блага
благо
благовіщення
благодіи
благословення
благочиння
блакитна
блакитнии
блакитним
блакитного
блакитному
блакитні
блеи
блек
блекберн
блер
ближнього
ближча
ближче
ближчии
ближчим
ближчими
ближчих
ближчого
ближчоі
ближчі
близнюк
близнюки
близнюків
близька
близьке
близькии
близьким
близькими
близьких
близько
близького
близькому
близькості
близькою
близькі
близькість
блиск
блискавка
блискавки
блиску
блискуче
блискучии
блискучі
блог
блозі
блок
блокада
блокади
блокаду
блоки
блоком
блоку
блокування
блокувань
блокувати
блокує
блоків
блом
блоці
блу
блювання
блюз
блюзу
блі
блідо
бм
бмп
бнр
бо
боб
боба
боббі
бобруи
бові
бог
бога
богам
богами
богато
богдан
богдана
богданов
богданович
богданівка
богеміі
боги
богиня
богині
богові
богом
богоматері
богомольця
богородиці
богослов
богослова
богослови
богослужіння
богу
богун
богуна
богуслав
богів
бодаи
божа
боже
божевілля
божевільнии
божеств
божества
божество
божии
божого
божоі
божу
бои
бока
боках
боки
бокові
бокс
боксер
боксери
боксу
боку
боків
бол
болгар
болгари
болгарська
болгарське
болгарськии
болгарських
болгарського
болгарськоі
болгарські
болгарія
болгаріі
болеслав
болеслава
болонья
болоньі
болота
болотах
болотних
болотні
болото
болу
большая
большои
болю
болі
болівіи
болівія
болівіі
болісти
боліт
бомб
бомба
бомбами
бомбардир
бомбардири
бомбардиром
бомбардирів
бомбардувальник
бомбардувальника
бомбардувальники
бомбардувальників
бомбардування
бомбардувань
бомби
бомбу
бон
бонапарта
бонд
бонда
бондар
бондаренко
бондарчук
бонні
бонус
бор
борг
борги
боргу
боргів
бордо
бореться
борець
бори
борис
бориса
борислав
борисов
борисова
борисович
борисом
бориспіль
борисівна
борнео
боро
боровся
борода
бороди
боролася
боролися
боротися
боротьба
боротьби
боротьбою
боротьбу
боротьбі
борошна
борошно
борт
бортовии
борту
бору
боруссія
борцям
борці
борців
борщ
борються
бос
босніи
боснія
босніі
бостон
бостона
бостоні
бот
бота
ботанік
ботаніка
ботаніки
ботанічна
ботанічнии
ботанічних
ботанічного
ботанічному
ботанічні
ботом
ботошань
ботсад
ботсвани
боці
бою
боявся
боями
бояр
бояри
боярин
бояться
боях
боєкомплект
боєм
боєприпасами
боєприпаси
боєприпасів
боєць
боі
бпла
бр
брав
браво
бразильська
бразильськии
бразильського
бразильськоі
бразильські
бразилія
бразиліі
браи
брак
бракувало
бракує
брала
брали
брало
брама
брами
брамою
браму
бранденбург
брат
брата
братам
братами
брате
брати
братислава
братові
братом
братства
братство
братська
братських
братські
братськіи
брату
братів
браузер
браузера
браун
брауна
брауншвеи
брацлавського
брашова
браян
браяна
браєн
браі
бред
бредлі
бреи
бренд
бренди
брендом
бренду
брендів
брест
бретань
бретані
брехня
брехні
бригад
бригада
бригади
бригадир
бригаднии
бригадою
бригаду
бригаді
британська
британське
британськии
британським
британськими
британських
британського
британському
британською
британськоі
британську
британські
британськіи
британці
британців
британію
британія
британією
британіі
брно
бровари
брови
бродвеи
броди
бродіння
брокгауза
бронебіи
бронепоі
бронетехніки
бронза
бронзи
бронзова
бронзовии
бронзовим
бронзових
бронзового
бронзовоі
бронзову
бронзові
бронзу
бронзі
броню
бронювання
броня
броні
брср
брук
бруклін
брукс
брунеи
брунею
бруно
брюгге
брюс
брюса
брюссель
брюсселя
брюсселі
брюі
брянськоі
брі
брід
бтр
бу
буа
був
бував
бували
бувало
бувають
буває
бувши
бувъ
буг
бугаи
бугу
буд
буда
будапешт
будапешта
будапешті
будди
буддизм
буддизму
буддіи
буде
будемо
будет
будете
будеш
буди
будинками
будинках
будинки
будинком
будинку
будинків
будинок
будиночок
будні
будова
будови
будовою
будову
буду
будував
будувався
будували
будувалися
будувати
будуть
будучи
будують
будуються
будує
будується
будь
будьте
будівель
будівельна
будівельнии
будівельник
будівельників
будівельних
будівельного
будівельноі
будівельні
будівлею
будівлю
будівля
будівлями
будівлях
будівлі
будівництва
будівництво
будівництвом
будівництву
будівництві
буенос
бузеу
буи
бук
букв
буква
буквально
букви
букет
буковина
буковини
буковинськии
буковинського
буковину
буковині
була
булгаков
булгакова
були
булка
булл
буллз
було
бульба
бульби
бульвар
бульвару
бульварі
бульи
бум
бундесліги
бундеслізі
буник
бунт
бур
бура
бурбон
бург
бургундія
бургундіі
буре
буревісник
буржуазіі
бурии
буркіна
бурого
бурунді
бурштин
буря
буряк
буряків
бурятіі
бурі
буріння
бус
буса
буси
бусів
бут
бутан
бутану
бути
бутнього
бутньому
бутньоі
бутню
бутня
бутнє
бутні
бутніи
бутнім
бутніх
буття
бухарест
бухареста
бухаресті
бухгалтерського
бухта
бухти
бухті
бучацькии
бучацького
бучацькоі
бучач
бучача
бучачі
буш
буша
бъ
бы
был
была
были
было
быть
бюджет
бюджетних
бюджету
бюджеті
бюлетень
бюлетенів
бюро
бюрократа
бюрократів
бюст
бялова
бєлгородськоі
бі
біатлону
біатлоністи
бібліи
бібліогр
бібліографічнии
бібліографія
бібліографіі
бібліотек
бібліотека
бібліотекар
бібліотеках
бібліотеки
бібліотекою
бібліотеку
бібліотеці
бібліотечна
бібліотечноі
біблія
бібліі
біг
бігти
бігу
бігуни
біда
біди
бідна
біднии
бідним
бідних
бідності
бідні
бідніи
бідність
біженці
біженців
біжить
бізнес
бізнесмен
бізнесмена
бізнесом
бізнесу
бізнесі
біи
бік
біла
білгород
біле
білецькии
білецького
білии
білик
білим
білими
білих
білка
білками
білки
білків
білл
білла
біллі
біло
білогвардіи
білого
білок
білому
білоруси
білорусь
білоруська
білоруськии
білоруських
білоруського
білоруському
білоруською
білоруськоі
білоруську
білоруські
білоруськіи
білорусі
білорусів
білостоцького
білоус
білоцерківськии
білоцерківського
білою
білоі
білу
біль
більбао
більського
більш
більша
більше
більшии
більшим
більшими
більших
більшовик
більшовиками
більшовики
більшовиків
більшовицького
більшовицькоі
більшого
більшому
більшості
більшою
більшоі
більшу
більші
більшіи
більшість
більшістю
біля
біляі
білі
біліи
бін
біо
біобібліографічнии
біографічна
біографічнии
біографічні
біографію
біографія
біографіі
біодоступність
біолог
біологи
біологічна
біологічнии
біологічних
біологічно
біологічного
біологічному
біологічноі
біологічні
біологія
біологіі
біоморфологічна
біорізноманіття
біота
біохіміі
бір
біржа
біржі
бірмінгем
біс
бісау
бісмарк
бісмарка
біт
бітів
біхор
біч
бічнии
бічними
бічних
бічні
бієнале
в
ва
вавилон
вага
ваги
вагнер
вагнера
ваговіи
вагомии
вагомих
вагомі
вагон
вагона
вагони
вагонів
вагою
вагу
вагітна
вагітності
вагітність
вадами
вади
вадим
вадима
ваді
важить
важка
важке
важкии
важким
важкими
важких
важко
важкого
важкому
важкою
важкоі
важку
важкі
важкіи
важлива
важливе
важливии
важливим
важливими
важливих
важливо
важливого
важливості
важливою
важливу
важливі
важливість
важливіше
важливішим
важливішими
важливіших
важливішою
важливіші
важче
важіль
ваз
ваза
вази
вазі
ваи
вак
вакуум
вакцинаціі
вакцини
вал
вала
валдаи
вале
валенсія
валенсіі
валентин
валентина
валентинович
валер
валерии
валері
валеріи
валерія
валеріі
вали
валле
валліи
валом
валу
валуа
валь
вальдимар
вальс
вальтер
вальтера
вальядолід
валют
валюта
валюти
валюту
валя
валі
валів
вам
вами
вампірів
ван
вана
ванда
вандал
вандалів
вандалізм
вандалізмом
вандалізму
ванкувер
ванкувері
вантаж
вантажнии
вантажних
вантажного
вантажні
вантажопіди
вантажу
вантажі
вантажів
вантажівка
вантажівки
вантажівок
вануату
вань
ваню
ваня
вані
вапняку
вар
варвара
варвари
варварів
вармінсько
варта
варти
варто
вартості
вартою
варту
варті
вартість
вартістю
варшава
варшави
варшавськии
варшавського
варшавському
варшаві
варіант
варіантами
варіантах
варіанти
варіантом
варіанту
варіанті
варіантів
варіаціи
варіаціі
варіюється
вас
васалом
васи
василем
василенко
василечко
василии
василь
васильків
васильківськии
васильківського
васильович
васильовича
васильєв
васильєва
василю
василя
василівка
василівна
василіи
василія
василіян
васко
васлуи
ват
ватажка
ватажок
ватерполісти
ватикан
ватикану
ватутіна
ваффен
вацлав
вацлава
ваш
ваша
ваше
вашим
вашингтон
вашингтона
вашингтоні
ваших
вашого
вашому
вашою
вашоі
вашу
ваші
вашіи
вб
вбив
вбивати
вбивають
вбиває
вбивств
вбивства
вбивство
вбивстві
вбивцю
вбивця
вбивці
вбила
вбили
вбити
вбитии
вбитих
вбито
вбитого
вбиті
вболівальники
вболівальників
вбрання
вбранні
вбудовании
вбудовані
вв
вважав
вважався
вважала
вважалася
вважали
вважалися
вважалося
вважати
вважатися
вважаю
вважають
вважаються
вважаючи
вважає
вважаєте
вважається
ввв
введена
введение
введении
введення
введенням
введенні
введено
введені
ввела
ввели
ввести
ввесь
ввечері
вводити
вводить
вводиться
вводять
ввп
ввс
ввів
ввіи
ввімкнена
вглиб
вгору
вгорі
вдавалося
вдався
вдалии
вдалим
вдало
вдалось
вдалося
вдарив
вдасться
вдається
вдвічі
вдень
вднг
вдова
вдови
вдовою
вдома
вдосконалення
вдруге
вдячнии
ве
веб
вебер
вебресурс
вебсаи
вебсторінка
вега
вегасі
веде
ведення
ведеться
ведмедя
ведмеді
ведмедів
ведмідь
ведомости
ведуть
ведуться
ведуча
ведучии
ведучим
ведучою
ведучі
веж
вежа
вежами
вежею
вежу
вежі
веи
век
века
веков
вектор
вектора
вектори
векторів
вел
вела
велася
велес
велетень
вели
велика
великдень
велике
великии
великим
великими
великих
велико
великобританіі
великого
великодня
великои
великому
великомученика
великопольського
великою
великоі
велику
великі
великіи
велися
велич
величезна
величезне
величезнии
величезним
величезними
величезних
величезного
величезною
величезноі
величезну
величезні
величин
величина
величини
величиною
величину
величко
величності
веллс
веллі
велосипед
велосипедів
велося
вельми
вен
венді
венера
венери
венесуела
венесуели
венесуелі
венето
венеціи
венеція
венеціі
вентиляціи
вентиляціі
веніамін
вер
вера
верба
верби
верде
верді
верес
вересень
вересня
вересні
вермахту
вермахті
вермонт
вернадського
вернер
вернувся
верона
вероніка
вероніки
верст
верстати
верстатів
верств
верстви
версти
версіи
версію
версія
версіями
версіях
версією
версіі
вертикальна
вертикальнии
вертикальних
вертикально
вертикального
вертикальні
вертикалі
вертольота
вертольоти
вертольотів
вертоліт
верфі
верх
верхи
верхнего
верхнього
верхньому
верхньою
верхньоі
верхню
верхня
верхнє
верхні
верхніи
верхнім
верхніх
верховенство
верховна
верховнии
верховним
верховного
верховною
верховноі
верховніи
верху
верхів
верхівка
верхівки
верхівці
вершин
вершина
вершинами
вершини
вершиною
вершину
вершині
вершник
вершники
вершників
вес
весела
веселе
веселии
веселка
весело
веселі
веслувальники
веслування
весна
весни
весною
весну
веснянии
вест
вести
вестибюль
вестник
вестфалія
весь
весілля
весіллі
ветеран
ветерана
ветерани
ветеранів
ветеринарноі
вето
вечерю
вечеря
вечері
вечора
вечори
вечір
вечірки
вечірня
вечірні
вечірніи
вже
вживали
вживання
вживати
вживають
вживаються
вживає
вживається
вжити
вжитку
вжиток
взагалі
взаємин
взаємини
взаємно
взаємного
взаємодіи
взаємодію
взаємодіють
взаємодія
взаємодіяти
взаємодіє
взаємодіі
взаємозв
взаємопов
взаєморозуміння
взвод
взводу
вздовж
взимку
взуття
взяв
взявся
взявши
взяла
взяли
взялися
взяло
взята
взяти
взятии
взято
взяття
взяті
ви
вибачення
вибачте
вибирати
вибирають
вибирає
вибирається
виборами
виборах
вибори
виборов
виборола
вибором
вибору
виборці
виборців
виборча
виборчии
виборчих
виборчого
виборчому
виборчоі
виборчі
виборчіи
виборював
виборі
виборів
вибрав
вибрали
вибрана
вибране
вибрании
вибраних
вибраноі
вибрані
вибрати
вибув
вибули
вибух
вибухи
вибухнув
вибухнула
вибухових
вибухом
вибуху
вибухів
вибір
вибірки
виведена
виведении
виведення
виведено
виведені
вивезення
вивезено
вивезли
вивели
виверження
вивести
виводить
виводиться
виводу
вивчав
вивчала
вивчали
вивчати
вивчають
вивчаючи
вивчає
вивченню
вивчення
вивченням
вивченні
вивчив
вивчити
вивів
вивіз
вивільнення
вивітрювання
вигадании
вигадані
вигляд
виглядав
виглядала
виглядати
виглядають
виглядає
виглядом
вигляду
вигляді
вигнав
вигнали
вигнання
вигнанні
вигнати
виговськии
виговського
вигоди
виголосив
виготовив
виготовили
виготовлена
виготовлении
виготовлених
виготовлення
виготовленні
виготовлено
виготовлені
виготовлявся
виготовляли
виготовлялися
виготовляти
виготовляють
виготовляються
виготовляє
виготовляється
виграв
вигравав
вигравши
виграла
виграли
виграти
виграш
виграє
вигідно
вид
видав
видавав
видавався
видавали
видавалися
видавати
видавець
видавництв
видавництва
видавництво
видавництвом
видавництві
видавнича
видавничии
видавничоі
видавцем
видавця
видавці
видавців
видала
видалення
видалені
видали
видалити
видало
видаляти
видами
видана
видании
виданих
видання
виданням
виданнями
виданнях
виданні
видано
видань
видані
видати
видатнии
видатним
видатними
видатних
видатного
видатні
видатніших
видах
видача
видачу
видачі
видають
видаються
видає
видається
види
видимості
видиму
видимість
видко
видно
видобування
видобутку
видобуток
видова
видом
виду
виді
видів
виділена
виділении
виділення
виділено
виділені
виділив
виділили
виділити
виділяти
виділяють
виділяються
виділяє
виділяється
видіння
вижив
виживання
вижили
вижити
визволення
визволенні
визволителям
визвольнии
визвольних
визвольного
визвольноі
визнав
визнавав
визнавали
визнавати
визнала
визнали
визнана
визнании
визнаних
визнання
визнанням
визнано
визнані
визнати
визначав
визначався
визначали
визначати
визначають
визначаються
визначає
визначається
визначена
визначении
визначених
визначення
визначенням
визначенні
визначено
визначеного
визначені
визначив
визначила
визначили
визначити
визначнии
визначних
визначні
визначніших
визнають
визнає
визнається
вии
вик
викиди
викидів
википедия
виклав
виклад
викладав
викладала
викладали
викладання
викладати
викладач
викладача
викладачами
викладачем
викладачі
викладачів
викладає
викладена
викладено
викладені
викладу
виклик
викликав
викликався
викликала
викликали
викликало
викликана
викликании
викликано
викликані
викликати
викликають
викликаючи
викликає
виклики
виклику
виключає
виключена
виключении
виключення
виключенням
виключено
виключені
виключити
виключно
виконав
виконавець
виконавиця
виконавцем
виконавця
виконавцями
виконавці
виконавців
виконавча
виконавчии
виконавчим
виконавчих
виконавчого
виконавчоі
виконавчі
виконавши
виконала
виконали
виконана
виконании
виконаних
виконання
виконанням
виконанні
виконано
виконані
виконати
виконком
виконкому
виконував
виконувала
виконували
виконувалися
виконувати
виконуватися
виконувач
виконують
виконуються
виконуючи
виконує
виконується
викопнии
викопних
викопні
використав
використавши
використала
використали
використана
використании
використанню
використання
використанням
використанні
використано
використані
використати
використовував
використовувався
використовувала
використовувалась
використовувалася
використовували
використовувались
використовувалися
використовувалося
використовуваних
використовувати
використовуватись
використовуватися
використовуи
використовують
використовуються
використовуючи
використовує
використовується
викрадає
викрадення
викрали
викрасти
викриття
виктор
викуп
викупив
викупу
вил
вилетів
вилетіла
вилучати
вилучена
вилучении
вилучення
вилучено
вилучені
вилучив
вилучили
вилучити
вилча
вильоту
вильотів
виліт
вимагав
вимагала
вимагали
вимагало
вимагати
вимагають
вимагаючи
вимагає
вимагається
вимерлии
вимерлі
вимирання
вимова
вимови
вимовляється
вимог
вимога
вимогам
вимогами
вимоги
вимогою
вимогу
вимушении
вимушені
вимір
виміри
виміру
вимірювання
вимірювань
вимірюється
вин
вина
винагороди
винагороду
винаи
винаходи
винаходу
винаходів
винахід
винахідник
винахідники
винен
винесення
винести
вини
виник
виникали
виникати
виникають
виникає
виникла
виникли
виникло
виникнення
виникнути
винищення
винищувального
винищувальноі
винищувач
винищувача
винищувачі
винищувачів
виннии
винники
винним
винних
винниченка
винниченко
винні
вино
виноград
винограду
вином
виносила
виноски
винятки
винятково
винятком
виняток
виніс
вип
випадає
випадками
випадках
випадки
випадкова
випадковии
випадковим
випадкових
випадково
випадкові
випадком
випадку
випадків
випадок
випаровування
випередив
випередивши
виплат
виплати
виплатити
випливає
виповнилося
випр
виправдання
виправив
виправити
виправлення
виправляти
виправно
випробування
випробуваннях
випробувань
випромінювання
випуск
випускав
випускався
випускалася
випускали
випускалися
випускати
випускають
випускаються
випускає
випускається
випуски
випускник
випускники
випускників
випуском
випуску
випусків
випустив
випустила
випустили
випустити
випущена
випущении
випущених
випущено
випущені
вир
виражає
виражається
виражена
виражении
вираження
виражені
вираз
вирази
виразити
виразно
виразом
виразу
виразів
вироби
вироблення
вироблено
вироблені
виробляли
виробляти
виробляють
виробляються
виробляє
виробляється
виробник
виробника
виробниками
виробники
виробником
виробників
виробництв
виробництва
виробництво
виробництвом
виробництву
виробництві
виробнича
виробниче
виробничии
виробничих
виробничо
виробничого
виробничоі
виробничі
виробок
виробу
виробів
вирок
вироком
вироку
виросла
виросли
виростає
вирощували
вирощування
вирощувати
вирощують
вирушають
вирушає
вирушив
вирушила
вирушили
вирушити
виріб
вирівнювання
вирізняється
виріс
вирішальнии
вирішальну
вирішена
вирішення
вирішенні
вирішено
вирішив
вирішивши
вирішила
вирішили
вирішило
вирішити
вирішувати
вирішують
вирішує
вирішується
висадився
висадилися
висадка
висадки
висадку
висвячении
висвітлення
висвітлюють
висвітлює
виселення
висить
вислав
вислании
вислови
висловив
висловився
висловила
висловили
висловити
висловлював
висловлювання
висловлює
вислугу
вислів
виснаження
висновки
висновку
висновків
висновок
висока
високе
високии
високим
високими
високих
високо
високого
високогір
високогірних
високому
високою
високоі
високу
високі
високіи
висот
висота
висотах
висоти
висотою
висоту
висоті
висоцькии
височина
височини
вистав
вистава
виставах
вистави
виставив
виставити
виставка
виставках
виставки
виставковии
виставку
виставлені
виставок
виставу
виставці
виставі
вистачало
вистачає
вистачило
вистачить
виступ
виступав
виступала
виступали
виступами
виступати
виступах
виступають
виступаючи
виступає
виступи
виступив
виступила
виступили
виступити
виступом
виступу
виступі
виступів
висування
висунення
висунув
висунули
висунутии
висунуто
витоки
витоком
витоку
витоків
витончених
витрат
витрата
витрати
витратив
витрачати
витримав
витримати
витяг
витягнута
витік
витікає
вих
вихованець
виховання
вихованням
вихованцем
вихованці
вихованців
виховнии
виховноі
виховувався
виховує
виходи
виходив
виходила
виходили
виходило
виходити
виходить
виходом
виходу
виходять
виходячи
виході
виходів
вихід
вихіднии
вихідним
вихідних
вихідного
вихідноі
вихідні
вихідцями
вихідці
вихідців
вич
вишивки
вишневе
вишневецькии
вишневецького
вишня
вишні
вишу
вишів
вищ
вища
вище
вищии
вищим
вищими
вищих
вищого
вищому
вищою
вищоі
вищу
вищі
вищіи
виявив
виявився
виявила
виявилась
виявилася
виявили
виявились
виявилися
виявило
виявилось
виявилося
виявити
виявлена
виявлении
виявлених
виявлення
виявлено
виявлені
виявляв
виявляти
виявляють
виявляються
виявляє
виявляється
виі
вк
вка
вказав
вказавши
вказали
вказало
вказана
вказании
вказаних
вказано
вказані
вказати
вказував
вказували
вказувати
вказують
вказуючи
вказує
вказується
вказівки
вказівкою
вки
вкл
вклад
включав
включала
включали
включало
включати
включають
включаються
включаючи
включає
включена
включении
включення
включено
включені
включив
включили
включити
включно
вкотре
вкп
вкраи
вкраі
вкрита
вкрите
вкритии
вкриті
вку
вл
влад
влада
влади
владивосток
владика
владики
владимир
владимира
владимирського
владимирськоі
владислав
владислава
владних
владою
владу
владі
власна
власне
власнии
власник
власника
власникам
власниками
власники
власником
власників
власним
власними
власних
власницьке
власницькому
власного
власному
власноруч
власності
власною
власноі
власну
власні
власніи
власність
власністю
власти
властива
властиво
властивостеи
властивостями
властивості
властиві
властивість
властивістю
власть
влаштовано
влаштовували
влаштовують
влаштовує
влаштував
влаштувався
влаштували
влаштування
влаштувати
влксм
влоцлавського
влучання
вліво
влітку
вм
вмирає
вмс
вмуа
вмф
вміли
вміло
вміння
вміст
вмістом
вмісту
вміщено
вміщує
вміють
вміє
вна
внаслідок
внесена
внесении
внесення
внесено
внесені
внески
внеском
внеску
внесків
внесла
внесли
внесок
внести
внз
вни
вниз
внизу
вновь
вносити
вносить
вночі
вну
внутр
внутрішньо
внутрішнього
внутрішньому
внутрішньою
внутрішньоі
внутрішню
внутрішня
внутрішнє
внутрішні
внутрішніи
внутрішнім
внутрішніми
внутрішніх
вніс
внічию
во
вобласьць
вовк
вовка
вовки
вовків
вовни
вовча
вовчок
вогези
вогневоі
вогнем
вогнепальноі
вогнища
вогню
вогні
вогонь
вод
вода
водами
водах
водень
води
водна
воднии
водними
водних
водно
водного
водночас
водноі
водню
водні
водои
водопостачання
водоростеи
водорості
водоспад
водоспади
водоспаду
водосховища
водосховище
водотоннажність
водотоннажністю
водою
воду
водяна
водяне
водянии
водяних
водяного
водяні
водяться
воді
водіи
водія
водієм
водіі
воениздат
военная
военно
вождем
вождь
вождя
вожді
вождів
воза
воздвиження
возз
вози
вознесенська
вознесенськии
вознесенського
вознесіння
возняк
возів
вои
вокал
вокалу
вокальнии
вокально
вокального
вокальні
вокаліст
вокаліста
вокалістом
вокер
вокзал
вокзалу
вокзалі
волга
волги
волгоградськоі
волеи
волею
воли
волинська
волинське
волинськии
волинського
волинському
волинськоі
волинські
волинськіи
волинь
волині
волков
волкова
воллес
вологи
вологии
вологим
вологих
вологодська
вологодськоі
вологості
вологі
вологість
володар
володарем
володарка
володарювання
володаря
володарі
володарів
володи
володимир
володимира
володимирович
володимировича
володимиром
володимирська
володимирськии
володимирського
володимиру
володимирі
володимирівна
володимиріі
володів
володіла
володіли
володіння
володіннях
володінні
володінь
володіти
володіють
володіє
волокна
волокон
волонтер
волонтери
волонтерів
волосками
волосного
волосся
волоссям
волостеи
волость
волості
волошин
волошина
волтер
вольф
вольфа
вольфганг
волю
воля
волі
волів
вом
вон
вона
вондерерз
вони
воно
вооз
вопросу
вопросы
ворд
вороби
ворог
ворога
ворогами
вороги
ворогом
ворогів
вороже
ворожии
ворожих
ворожнечі
ворожого
ворожоі
ворожі
ворон
ворона
воронеж
воронезького
воронезькоі
воронок
ворота
воротами
воротар
воротарем
воротаря
воротарі
воротарів
воротах
ворошилова
воррен
ворскла
ворскли
воріт
восени
воскресенська
воскресіння
воспоминания
востаннє
восток
востока
восточнои
восьми
восьмии
восьмого
вотсон
вочевидь
воював
воювали
воювати
вояк
вояки
вояків
воєвода
воєводи
воєводою
воєводства
воєводство
воєводстві
воєн
воєначальник
воєнна
воєннии
воєнних
воєнно
воєнного
воєнноі
воєнні
воі
вп
впав
впадають
впадає
впадіння
впала
впали
впевнении
впевнено
впевнені
впевненість
вперед
вперше
вплив
впливати
впливають
впливає
впливи
впливових
впливового
впливовіших
впливом
впливу
впливів
вплинув
вплинула
вплинули
вплинуло
вплинути
впоратися
впорядкування
вправ
вправах
вправи
вправо
впритул
впровадження
впроваджено
впродовж
впс
вр
вражає
вражении
враження
враз
вразив
вранці
враховані
враховувати
враховуються
враховуючи
враховує
врахування
врахуванням
врахувати
врегулювання
времени
время
врешті
врожаи
врожаю
врожаі
вроцлав
вроцлавського
вру
вручається
вручення
врученням
вручив
вручну
врятував
врятувала
врятували
врятувати
врятуватися
вс
все
всеволод
всеволода
всего
вселенськии
вселенського
всем
всередину
всередині
всероссии
всеросіи
всесвіт
всесвітньо
всесвітнього
всесвітньоі
всесвітня
всесвітніи
всесвітніх
всесвіту
всесвіті
всесоюзних
всесоюзного
всесоюзнои
всесоюзноі
всеукр
всеукраі
всех
всмоктується
встав
вставки
встановив
встановивши
встановила
встановили
встановити
встановлена
встановлене
встановлении
встановленим
встановлених
встановлення
встановленням
встановленні
встановлено
встановленого
встановленому
встановлені
встановлювався
встановлювали
встановлювалися
встановлювати
встановлюють
встановлюються
встановлює
встановлюється
встиг
встигає
встигла
встигли
вступ
вступати
вступають
вступає
вступив
вступила
вступили
вступити
вступом
вступу
вступі
всупереч
вська
вське
вськии
вським
вських
вського
вському
вською
вськоі
вську
вські
вськіи
всього
всьому
всю
всюди
вся
всякии
всяких
всякого
всяку
всякі
всі
всіи
всіляко
всім
всіма
всіх
всією
всієі
вт
втекла
втекли
втекти
втеча
втечу
втечі
вторглися
вторгнення
вторгненням
вторинних
вторинні
второи
втрат
втрата
втратами
втрати
втратив
втративши
втратила
втратили
втратило
втратити
втратою
втрату
втрачати
втрачають
втрачає
втрачена
втрачении
втрачено
втрачені
втретє
втричі
втручання
втручатися
втт
втік
втікає
втілення
втіленням
втім
ву
вуан
вуглеводнів
вуглекислого
вуглехіміі
вуглецю
вугілля
вугільних
вугільноі
вуд
вуе
вузла
вузлами
вузлах
вузли
вузлом
вузлів
вузол
вузька
вузькии
вузькими
вузьких
вузько
вузькоколіи
вузькому
вузькою
вузькі
вузів
вуи
вул
вулицею
вулиць
вулицю
вулиця
вулицями
вулицях
вулиці
вуличних
вуличні
вулкан
вулкана
вулкани
вулканів
вуса
вух
вуха
вухо
вуцвк
вх
входження
входи
входив
входила
входили
входило
входити
входить
входом
входу
входять
входящих
вході
вхід
вхіднии
вхідних
вхідні
вцвк
вці
вцілілих
вчасно
вчена
вчене
вчении
вченим
вченими
вчених
вчення
вченого
вченоі
вчені
вчився
вчилася
вчинення
вчинив
вчинили
вчинити
вчинки
вчинок
вчителем
вчитель
вчителька
вчителькою
вчителя
вчителями
вчителі
вчителів
вчитися
вчиться
вчора
вшанування
вши
вщент
вщина
вщини
вщині
въ
вы
вып
выпуск
вюртемберг
вюртембергу
вятка
вячеслав
ві
віа
вів
вівсянка
вівтар
вівтарем
вівтаря
вівтарі
вівторок
вівці
вівчарик
від
відання
віданні
відбив
відбиває
відбили
відбити
відбитки
відбиток
відбиття
відбору
відборі
відбув
відбував
відбувався
відбувалася
відбувались
відбувалися
відбувалось
відбувалося
відбуватися
відбуваються
відбувається
відбувся
відбудеться
відбудови
відбулась
відбулася
відбулись
відбулися
відбулось
відбулося
відбутися
відбір
відбіркового
відбірковому
відвагу
відведення
відверто
відвідав
відвідала
відвідали
відвідати
відвідин
відвідував
відвідувала
відвідували
відвідування
відвідуваність
відвідувати
відвідувачі
відвідувачів
відвідують
відвідує
відгалуження
відгук
відгуки
відгукнувся
відгуків
віддав
віддавав
віддавали
віддавати
віддала
віддалених
віддалені
віддали
віддании
віддано
відданість
віддати
віддають
віддає
відділ
відділення
відділенням
відділенні
відділень
відділи
відділом
відділу
відділі
відділів
віденськии
віденського
віденському
віденськоі
відень
відео
відеогра
відеогри
відеокліп
відеокліпи
відеоігор
відеоіграх
відеоігри
відзнак
відзнака
відзнаками
відзнаки
відзнакою
відзнаку
відзначав
відзначався
відзначали
відзначають
відзначаються
відзначає
відзначається
відзначена
відзначении
відзначення
відзначено
відзначені
відзначив
відзначився
відзначившись
відзначилася
відзначили
відзначити
відкидає
відкинув
відкинули
відкинути
відкладають
відкладає
відкладення
відкладеннях
відкладень
відклади
відкладів
відкласти
відключення
відкочувача
відкрив
відкривати
відкривають
відкриваються
відкриває
відкривається
відкрився
відкривши
відкрила
відкрилася
відкрили
відкрита
відкрите
відкрити
відкритии
відкритим
відкритими
відкритих
відкрито
відкритого
відкритому
відкритою
відкритоі
відкриття
відкриттям
відкритті
відкриттів
відкриту
відкриті
відкритіи
відкіт
відлуння
відлік
відліку
відмова
відмови
відмовив
відмовився
відмовившись
відмовилась
відмовилася
відмовились
відмовилися
відмовитись
відмовитися
відмовлено
відмовлявся
відмовляються
відмовляється
відмовою
відмову
відміни
відмінку
відміннии
відмінник
відмінно
відмінностеи
відмінності
відмінною
відмінну
відмінні
відмінність
відмінністю
відмінок
відміну
відмінювання
відмітити
віднаи
віднесено
віднесені
віднести
відновив
відновила
відновили
відновити
відновлена
відновлении
відновленню
відновлення
відновленням
відновленні
відновлено
відновлені
відновлювати
відновлює
відновлюється
відносили
відносин
відносинах
відносини
відносить
відноситься
відносна
відносно
відносності
відносять
відносяться
відношенню
відношення
відношенням
відношенні
відня
відні
відображати
відображають
відображає
відображається
відображення
відображенням
відображено
відокремлении
відокремлення
відокремлені
відокремлює
відома
відоме
відомии
відомим
відомими
відомих
відомо
відомого
відомому
відомостеи
відомостями
відомості
відомою
відомоі
відомств
відомства
відомство
відому
відомі
відоміи
відомість
відоміша
відомішии
відомішим
відомішими
відоміших
відомішою
відоміші
відп
відплив
відповів
відповідав
відповідала
відповідали
відповідало
відповідальнии
відповідальним
відповідальних
відповідальності
відповідальні
відповідальність
відповідальністю
відповідати
відповідають
відповідає
відповіддю
відповідеи
відповідна
відповідне
відповіднии
відповідним
відповідними
відповідних
відповідно
відповідного
відповідному
відповідності
відповідною
відповідноі
відповідну
відповідні
відповідніи
відповідність
відповідь
відповіді
відповіла
відповіли
відповісти
відпочинку
відпочинок
відпочити
відправив
відправився
відправили
відправити
відправитися
відправлена
відправлении
відправлення
відправлено
відправлені
відправляли
відправляти
відправляють
відправляються
відправляє
відправляється
відпрацьована
відпустки
відпустку
відразу
відродження
відродити
відряджении
відрядження
відрізку
відрізнити
відрізнявся
відрізнялася
відрізнялися
відрізнятися
відрізняються
відрізняє
відрізняється
відрізок
відслонення
відсотка
відсотки
відсотків
відсоток
відставки
відставку
відставці
відстанеи
відстань
відстані
відстаніфізичні
відстеження
відстоював
відступ
відступати
відступив
відступили
відступити
відступу
відсутності
відсутня
відсутнє
відсутні
відсутніи
відсутність
відсутністю
відсік
відсіку
відсіч
відтак
відтворення
відтворити
відтворює
відтепер
відтоді
відтінки
відтінком
відтінку
відтінків
відтінок
відхилення
відхилив
відходи
відходить
відходу
відходять
відходів
відхід
відчаи
відчув
відчував
відчували
відчувати
відчувають
відчуваючи
відчуває
відчувається
відчуження
відчути
відчуття
відшкодування
відшукати
відьма
відьми
відьом
відібрати
відіграв
відігравав
відігравали
відігравати
відігравши
відіграла
відіграли
відіграти
відіграють
відіграє
відіи
віз
візантіи
візантія
візантією
візантіі
візерунок
візит
візитна
візитом
візиту
візуальнии
візуальних
візуально
візуального
візуальні
візуалізаціі
візьме
віи
вік
вікаріи
віки
вікна
вікнами
вікно
вікном
вікні
вікова
віковии
віковим
вікових
вікові
віком
вікон
віконт
віктор
віктора
вікторович
віктором
вікторівна
вікторія
вікторіі
віку
вікі
віків
вікіданих
вікімапіі
вікімедіа
вікінгів
вікіпедисти
вікіпедистів
вікіпедіи
вікіпедію
вікіпедія
вікіпедіях
вікіпедією
вікіпедіі
вікіпроєкт
вікісховище
вікісховищі
вікіфікатором
віл
віла
вілеи
вілен
віленського
вілл
вілла
віллем
вілли
віллі
вілсон
вілсона
вільгельм
вільгельма
вільгельмом
вільна
вільне
вільнии
вільним
вільними
вільних
вільно
вільного
вільному
вільною
вільноі
вільну
вільнюс
вільнюса
вільнюсі
вільні
вільніи
вільям
вільяма
вільямом
вільямс
вільямса
він
вінгс
вінець
вінницька
вінницькии
вінницького
вінницькому
вінницькоі
вінницькіи
вінниця
вінниці
вінниччини
вінниччині
вінніпег
вінок
віночок
вінсент
вінстон
вінчання
вінченцо
вінчі
віолончелі
вір
віра
вірджинія
вірджиніі
віри
вірив
вірили
вірити
вірить
вірмен
вірмени
вірменська
вірменськии
вірменських
вірменського
вірменськоі
вірменські
вірменія
вірменіі
вірнии
вірним
вірних
вірно
вірності
вірні
вірність
вірогідно
віросповідання
віросповіданням
вірою
віртуальна
віртуальнии
віртуальних
віртуальноі
віру
вірування
вірувань
вірус
віруси
вірусом
вірусу
вірусів
віруючих
вірш
вірша
віршах
вірші
віршів
вірю
вірян
вірять
вірі
вісбаден
вісенте
вісконсин
вісконсину
вісконті
віскі
вісла
вісли
вісник
віспи
віссю
вістря
вісті
вісь
вісьмома
вісім
віта
віталіи
віталія
вітамін
вітання
вітаю
вітебська
вітебськоі
вітер
вітовта
вітри
вітрила
вітром
вітру
вітряк
вітряних
вітрів
вітторіо
вітчизна
вітчизни
вітчизною
вітчизняних
вітчизняного
вітчизняноі
вітчизняніи
віце
віці
віч
віче
вічна
вічне
вічнии
вічно
вічного
вічноі
вічні
вічність
вішну
г
га
гаазі
габону
габріель
габсбург
габсбургів
гаваи
гавань
гавані
гаваі
гаврило
гаврилович
гаврилюк
гавриі
гагаріна
гадаю
гадяцького
газ
газа
газет
газета
газетах
газети
газетою
газету
газеті
гази
газова
газовии
газових
газового
газовоі
газові
газом
газопроводу
газопровід
газпром
газу
газі
газів
гаи
гала
галактик
галактика
галактики
галактиці
галатасараи
галаца
галеакала
галереи
галерею
галерея
галереі
галина
галини
галицька
галицькии
галицьких
галицько
галицького
галицькому
галицькоі
галицькі
галич
галича
галичина
галичини
галичину
галичині
галл
галле
галліі
галузеи
галуззю
галузь
галузями
галузях
галузі
галушко
гальма
гальмування
галя
гама
гамбург
гамбурга
гамбурзі
гамлет
гамма
гамільтон
гамільтона
ган
гана
гандболу
гани
ганна
ганни
ганновер
ганну
ганс
ганса
гані
гао
гар
гарады
гаразд
гарантувати
гарантує
гарантіи
гарантіі
гарбор
гарвардського
гарві
гарден
гарді
гармат
гармата
гарматами
гармати
гарматою
гармату
гармоніи
гармонія
гармоніі
гарна
гарне
гарнии
гарним
гарно
гарну
гарні
гарнізон
гарнізону
гаро
гарольд
гаронна
гаррі
гарріс
гаррісон
гарсія
гарт
гаряча
гаряче
гарячии
гарячих
гарячка
гарячки
гарячі
гарі
гасла
гасло
гаслом
гастролеи
гастролював
гастролі
гасіння
гауптман
гаутен
гаю
гая
гаяни
гаєм
гаі
гб
гв
гвадалахара
гвардіи
гвардія
гвардіі
гватемала
гватемали
гвинта
гвинтівка
гвинтівки
гвинтівок
гвідо
гвінеи
гвінея
гвінеі
гг
ггц
гданськ
где
ге
геи
гектара
гектарів
гелен
гелена
гель
гельмут
гельсінкі
гелію
гем
гемпшир
ген
гена
гендерноі
гендерні
генеалогія
генеза
генерал
генерала
генерали
генералом
генералу
генеральна
генеральне
генеральнии
генеральним
генеральних
генерального
генеральному
генеральноі
генеральні
генеральніи
генералів
генератор
генератора
генератори
генераторів
генераціі
генетика
генетики
генетичнии
генетичних
генетично
генетичного
генетичні
гени
генк
геннадіи
геннадія
геном
геноцид
геноциду
генрик
генрі
генріх
генріха
генріхом
генуя
генуі
генштабу
генів
геніи
географ
географічна
географічне
географічнии
географічними
географічних
географічно
географічного
географічному
географічноі
географічні
географію
географія
географіі
геолог
геолого
геологічна
геологічних
геологічного
геологічноі
геологічні
геологія
геологіі
геометричних
геометричні
геометрія
геометріі
георг
георга
георгіи
георгія
георгіі
гер
гера
геральдика
геральдики
герасименко
герасимов
герб
герба
герберт
герберта
герби
гербом
гербу
гербі
гербів
герельс
геркулес
герман
германа
геродот
герои
герою
героя
героям
героями
героєм
героі
герцеговина
герцеговини
герцеговині
герцог
герцога
герцоги
герцогиня
герцогині
герцогом
герцогства
герцогство
гері
гес
гессен
гестапо
гете
гетеборг
гетто
геть
гетьман
гетьмана
гетьманом
гетьманського
гетьманськоі
гетьману
гетьманщини
геі
ги
гине
гинуть
гирла
гирло
гирлом
гирлі
гл
глав
глава
глави
главою
главі
гладкии
гладкі
глазго
глибин
глибина
глибинах
глибини
глибинними
глибиною
глибину
глибині
глибока
глибоке
глибокии
глибоким
глибоких
глибоко
глибокого
глибокоі
глибоку
глибокі
глибше
глина
глини
глобальна
глобальне
глобальнии
глобальних
глобального
глобальноі
глобальні
глобус
глорія
глосаріи
глузд
глузду
глухии
глухова
глухів
глухівськии
глухівського
глюкози
глядацьких
глядач
глядача
глядачам
глядачі
глядачів
глянув
глянути
гліб
гліба
гм
гміна
гмінами
гміни
гміні
гнат
гната
гнатович
гнатюк
гнатюка
гнеи
гнів
гніву
гнізда
гніздиться
гніздо
гніздування
гніздяться
гнізді
гніи
го
говард
говарда
говерла
говори
говорив
говорила
говорили
говорилося
говоримо
говорити
говорить
говориться
говорю
говорять
говорячи
гогенцоллернів
гоголь
гоголя
год
года
годин
година
години
годинник
годинника
годинники
годинників
годину
годині
годиться
году
годування
годы
годі
гои
гокс
гол
гола
голами
голден
голи
голии
голки
голкіпером
голл
голландська
голландськии
голландських
голландського
голландськоі
голландці
голландія
голландіі
голлівуду
голлівуді
голов
голова
головами
голови
головки
головко
головна
головне
головнии
головним
головними
головних
головно
головного
головнокомандувач
головнокомандувача
головнокомандувачем
головному
головною
головноі
головну
головні
головніи
головніше
головою
голову
головуванням
голові
голод
голодом
голодомор
голодомору
голоду
голодування
голокост
голокосту
голом
голос
голосами
голоси
голоснии
голосних
голосно
голосні
голосом
голосу
голосував
голосували
голосування
голосуванням
голосуванні
голосувати
голосів
голосіі
голу
голуб
гольф
гольштеи
голі
голів
гомель
гомельського
гомельськоі
гомер
гомера
гомес
гомосексуальності
гомосексуальність
гомін
гондурас
гондурасу
гонка
гонках
гонки
гонконг
гонконгу
гонконзі
гонку
гонок
гонсалес
гонці
гончар
гончара
гончаренко
гончаров
гонщик
гонщиків
гор
гора
горами
горах
гордон
гордона
гордіи
гордість
гордієнко
горе
гори
горизонт
горизонтальних
горизонтально
горизонтальні
горизонту
горинь
горить
горла
горло
горлі
горлівка
гормонів
горн
горностаи
горобець
горобцеподібних
город
города
городецького
городи
городища
городище
городов
городок
городских
городского
городскои
городян
городі
горою
гору
горькии
горького
горя
горі
горілки
горіння
горіх
горіхи
гос
госп
господа
господар
господарем
господарку
господарств
господарства
господарствах
господарство
господарством
господарству
господарстві
господарська
господарське
господарськии
господарських
господарського
господарськоі
господарські
господарювання
господаря
господарі
господарів
господи
господиня
господнього
господь
госпіталь
госпіталю
госпіталі
гост
гостеи
гостем
гостра
гострии
гострим
гострими
гострих
гостро
гострого
гостроі
гострі
гостя
гостях
гості
государства
государственного
государственныи
готель
готелю
готелі
готелів
готи
готики
готичнии
готова
готовии
готових
готовності
готовність
готові
готспур
готував
готувався
готували
готувати
готуватися
готують
готуються
готує
готується
готів
гпу
гр
гра
грав
гравець
гравцеві
гравцем
гравця
гравцям
гравцями
гравці
гравців
гравчинь
гравчині
гравюр
гравюра
гравюри
гравіи
гравітаціи
гравітаціі
град
градусів
граи
грала
грали
грам
грама
граматика
граматики
грамота
грамотами
грамоти
грамотності
грамотою
грамоту
грамоті
грамів
гран
гранада
гранади
гранат
гранати
гранд
гранде
гранді
границ
границах
границя
границі
грант
грані
граніт
граніту
грати
граф
графа
графи
графиня
графині
графом
графства
графство
графстві
графу
графі
графів
графік
графіка
графіки
графіку
графіті
графічнии
графічних
графічного
графічні
грають
граючи
грає
греблею
греблю
гребля
греблі
гребінь
грег
грегорі
греи
греками
греки
греко
греків
грем
греммі
гренландіі
грец
грецька
грецьке
грецькии
грецьким
грецьких
грецького
грецькому
грецькою
грецькоі
грецьку
грецькі
грецькіи
грецію
греція
греціі
гри
гриб
гриби
грибів
гривень
гривні
григо
григор
григорович
григоровича
григорівка
григорівна
григоріи
григорія
григорієм
гризунів
грин
грипу
гриф
гриценко
гриць
грицько
грищенко
грн
гробниця
гробниці
гробу
гродненськоі
гродно
гроза
грознии
грозного
грои
громад
громада
громадами
громадах
громади
громадою
громадська
громадське
громадськии
громадським
громадськими
громадських
громадсько
громадського
громадському
громадськості
громадською
громадськоі
громадську
громадські
громадськіи
громадськість
громадськістю
громаду
громадян
громадянам
громадянами
громадяни
громадянин
громадянина
громадянином
громадянства
громадянство
громадянська
громадянських
громадянського
громадянськоі
громадянську
громадянські
громадянськіи
громаді
гросмеи
грот
грошеи
грошима
грошова
грошовии
грошових
грошовоі
грошову
грошові
гроші
грою
гру
грубо
грубі
груд
грудеи
грудень
груди
грудне
грудноі
грудня
грудні
грудьми
грудях
грузинська
грузинськии
грузинського
грузинськоі
грузинські
грузія
грузіі
груп
група
групами
групах
групи
груповии
групових
групового
груповому
групою
групу
групі
грушевськии
грушевського
грі
грім
грін
грінченка
грінченко
гріх
гріха
гріхи
гріхів
гу
гуанчжоу
губ
губа
губернатор
губернатора
губернатори
губернатором
губернаторства
губернии
губернська
губернського
губернськоі
губерніи
губернію
губернія
губерніях
губерніі
губерськии
губи
гугл
гуго
гуд
гуи
гук
гулагу
гуляи
гуманіст
гуманітарнии
гуманітарних
гуманітарного
гуманітарноі
гуманітарні
гуменюк
гумор
гумору
гунів
гур
гурт
гурти
гуртка
гуртки
гуртків
гуртожитку
гуртожиток
гурток
гуртом
гурту
гурті
гуртів
гусар
гусеи
гусениці
густав
густава
густина
густини
густо
густота
густі
гута
гц
гюго
гюнтер
гі
гібралтар
гібралтару
гігант
гігантськии
гігієни
гідності
гідність
гідрографія
гідроелектростанція
гідролаз
гідрологічна
гідрологічнии
гідрологічні
гідрологія
гідронімів
гіи
гілберт
гілка
гілками
гілки
гілкою
гілку
гілл
гілок
гілочки
гілці
гільдіі
гільзи
гімалаі
гімн
гімназіи
гімназію
гімназія
гімназіі
гімнастика
гімнастики
гімну
гіпотез
гіпотеза
гіпотези
гіпотезу
гіпс
гір
гірка
гірник
гірників
гірнича
гірничии
гірничих
гірничо
гірничого
гірничоі
гірничі
гірська
гірськии
гірськими
гірських
гірсько
гірського
гірськолижнии
гірському
гірськоі
гірські
гірськіи
гірша
гірше
гіршии
гірші
гість
гіт
гітара
гітари
гітарист
гітариста
гітаристом
гітару
гітарі
гітлер
гітлера
д
да
дабі
дав
давав
даваи
давала
давали
давало
давати
давид
давида
давиденко
давидов
давидович
давнини
давнину
давно
давнього
давньогрецькии
давньогрецьких
давньогрецькоі
давньогрецькі
давньоримські
давньоруського
давньоі
давню
давня
давнє
давні
давніи
давнім
давніх
давніша
давніше
давнішии
давніших
давніші
давши
давід
даг
дагестан
дагестану
дадуть
даи
дак
дако
дакота
дакоти
дал
дала
далекии
далеких
далеко
далекого
далекому
далекосхідного
далекі
дали
даллас
далмаціі
дало
даль
дальності
дальня
дальні
дальність
дальше
даля
далі
дам
дама
дамаки
дамби
дами
дан
дана
дане
дани
дании
данила
данило
данилович
даним
даними
данини
данину
даних
даниі
дання
дано
даного
даному
даноі
данська
данськии
данського
данськоі
данські
данте
дану
данчик
данчика
данчиках
данчики
данчиком
данчику
данчиків
дані
даніель
даніеля
даніи
данія
даніі
дар
дара
дарвін
дарвіна
даремно
дари
дарках
дарма
дарував
дарує
дарія
дасть
дат
дата
дати
датована
датовании
датовані
датою
дату
датування
датуються
датується
датчик
датчики
дах
дахи
дахо
дахом
даху
дача
дачнии
дачного
дачі
дають
даючи
дає
дається
даі
дбаи
два
двадцяти
двадцять
дванадцяти
дванадцять
двереи
дверима
дверях
двері
двигун
двигуна
двигунами
двигуни
двигуном
двигунів
дво
двом
двома
двоповерхова
двоповерховии
дворазова
дворазовии
дворах
двори
дворових
двором
двору
дворян
дворянин
дворянства
дворянство
дворянського
дворі
дворів
дворічнии
двосторонні
двосторонніх
двох
двоюріднии
двоє
двоі
дві
двіи
двір
двісті
двічі
де
дебальцеве
дебати
дебатів
дебют
дебютнии
дебютним
дебютного
дебютному
дебютні
дебюту
дебютував
дебютувала
дев
деві
девід
девіда
девідом
девіз
девіс
девіса
дегестані
деградаціі
дедалі
дез
деи
декабристів
декабря
декан
декана
деканату
деканом
декларацію
декларація
деклараціі
деколи
декомунізаціі
декор
декоративна
декоративнии
декоративних
декоративно
декоративного
декоративні
декораціі
декору
декрет
декретом
декілька
декількома
декількох
дел
делавер
делегат
делегати
делегатом
делегатів
делегацію
делегація
делегаціі
делла
дело
дель
дельберг
дельта
дельти
дельті
делі
дем
демо
демобілізаціі
демобілізовании
демографічна
демографічні
демографія
демографіі
демократ
демократи
демократична
демократичнии
демократичних
демократичного
демократичноі
демократичну
демократичні
демократичніи
демократів
демократію
демократія
демократіі
демон
демонстраціи
демонстрація
демонстраціі
демонстрував
демонструють
демонструє
демонтовано
демонів
ден
дена
денвер
дендрологічнии
дендропарк
дене
дении
денис
дениса
денисенко
дених
деннии
денного
дення
денні
денніс
дено
день
дені
деніел
денікіна
департамент
департаменти
департаментом
департаменту
департаменті
департаментів
депо
депортаціі
депортіво
депресія
депресіі
депутат
депутата
депутатами
депутати
депутатом
депутатських
депутатськоі
депутатів
дер
дера
дербі
дерев
дерева
деревами
деревах
деревина
деревини
деревня
дерево
деревом
дереву
дереві
держ
держав
держава
державам
державами
державах
держави
державна
державне
державнии
державним
державними
державних
державно
державного
державному
державності
державною
державноі
державну
державні
державніи
державність
державою
державу
державі
держадміністраціі
держбезпеки
держкіно
дери
дериваціи
деркач
дерів
дес
десант
десантна
десантнии
десантники
десантників
десантних
десантно
десантного
десантноі
десантні
десанту
десантування
десна
десни
десь
десяти
десятии
десятиліття
десятиліть
десятин
десятини
десятиріччя
десятка
десятки
десятку
десятків
десяток
десять
деталеи
деталь
детальнии
детально
детальніше
деталями
деталях
деталі
дете
детектив
детектива
детективні
детектор
детрои
деться
дефлімпіи
деформаціі
дефіцит
дефіциту
дехто
деш
дещо
деяка
деяке
деякии
деяким
деякими
деяких
деякого
деякою
деякоі
деяку
деякі
деі
дж
джа
джаз
джазовии
джазу
джаи
джакомо
джан
джанет
джанкои
джанська
джанськии
джанського
джанськоі
джанські
джану
джані
джастін
джедаі
джеи
джек
джека
джексон
джексона
джекі
дженні
дженніфер
дженоа
джерел
джерела
джерелакерівнии
джерелами
джерелах
джерело
джерелознавства
джерелом
джерелі
джеремі
джеррі
джерсі
джессі
джессіка
джефф
джефферсон
джеффрі
джибуті
джим
джима
джиммі
джин
джина
джо
джоан
джованні
джозеф
джозефа
джои
джон
джона
джонатан
джонні
джоном
джонс
джонса
джонсон
джонсона
джону
джордан
джордж
джорджа
джорджем
джорджо
джорджія
джорджіі
джош
джошуа
джу
джуді
джузеппе
джульєтта
джулі
джулія
джі
дзвони
дзвонів
дзвін
дзвіницею
дзвіницю
дзвіниця
дзвіниці
дзвінок
дзен
дзержинського
дзеркала
дзеркало
дзумі
дзьоб
дзьоба
дзьобом
дзюба
дзюдо
дзюдоі
дзядик
дзі
ди
див
дива
диверсіи
дивився
дивилися
дивись
дивитись
дивитися
дивиться
дивляться
дивлячись
дивна
дивне
дивнии
дивним
дивно
дивні
диво
дивом
дивізіи
дивізіон
дивізіону
дивізіоні
дивізіонів
дивізію
дивізія
дивізією
дивізіі
дивіться
дизаи
дизель
дизельнии
дизельні
дика
дикии
диких
дикого
дикоі
диктатора
диктатури
дикі
дим
димитрія
диморфізм
диму
динамо
динаміка
динаміки
динаміку
динамічнии
динамічних
динамічного
динамічні
династіи
династію
династія
династією
династіі
динг
динозаври
динозаврів
диплом
дипломат
дипломата
дипломати
дипломатична
дипломатичнии
дипломатичних
дипломатичного
дипломатичноі
дипломатичну
дипломатичні
дипломатів
дипломатія
дипломатіі
дипломи
дипломом
директиви
директор
директора
директори
директором
директорів
директоріі
дирекція
дирекціі
диригент
диригента
диригенти
диригентом
дис
дисертаціи
дисертацію
дисертація
дисертаціі
диск
диска
диски
дискографія
дискримінаціі
диску
дискусіи
дискусію
дискусія
дискусіі
дисків
дислокаціі
дисплеи
дисплеі
дистанціи
дистанцію
дистанція
дистанціях
дистанціі
дистриб
дисциплін
дисципліна
дисциплінах
дисципліни
дисципліну
дисципліні
дитина
дитини
дитиною
дитинства
дитинство
дитинстві
дитину
дитині
дитя
дитяча
дитячии
дитячим
дитячих
дитячо
дитячого
дитячому
дитячоі
дитячу
дитячі
дитячіи
диференціальних
диференціація
диференціи
дихальних
дихання
диш
диявол
диявола
дк
дка
для
дм
дмитра
дмитренко
дмитрии
дмитро
дмитрович
дмитром
дмитрост
дмитрівка
дмитрівна
дн
дна
днем
днии
дних
днк
дно
дного
дном
дноі
днр
дну
дня
днями
днях
дні
днів
дніпра
дніпро
дніпровська
дніпровськии
дніпровського
дніпровськоі
дніпром
дніпропетровськ
дніпропетровська
дніпропетровськии
дніпропетровського
дніпропетровськоі
дніпропетровську
дніпропетровськіи
дніпрі
дністер
дністра
дністровськии
дністровського
до
доба
доби
добився
добитися
доблесну
доблесть
добра
добре
добрив
добрии
добрим
добрими
добрих
добро
добробут
добробуту
доброволець
добровольцем
добровольці
добровольців
добровольчого
добровольчоі
добровільно
доброго
добропорядного
доброю
доброі
добру
добрі
добу
добування
добувають
добутку
добуток
довбуша
довга
довгасті
довге
довгии
довгим
довгими
довгих
довго
довгого
довгому
довготи
довгою
довгоі
довгу
довгі
доведена
доведення
доведено
доведеться
довели
довелось
довелося
довести
довженка
довженко
довжина
довжини
довжиною
довжину
довжині
довкола
довкілля
доводилося
доводити
доводить
доводиться
доводять
доволі
довша
довше
довшии
довшим
довші
довів
довідка
довідки
довідник
довідника
довідники
довільного
довіра
довіри
довіру
довіряти
довічне
догляд
догляду
договори
договором
договору
договорі
договорів
договір
догори
додав
додавання
додаванням
додавати
додавши
додаи
додала
додали
додам
додана
додании
додано
додані
додати
додатки
додаткова
додаткове
додатковии
додатковим
додатковими
додаткових
додатково
додаткового
додатковоі
додаткову
додаткові
додатком
додатку
додатків
додаток
додачу
додають
додаються
додаючи
додає
додається
додому
доз
доза
дозволено
дозволив
дозволила
дозволили
дозволило
дозволити
дозволить
дозволу
дозволяв
дозволяла
дозволяли
дозволяло
дозволялося
дозволяють
дозволяючи
дозволяє
дозволяється
дозвіл
дозвілля
дози
дозрівання
дозу
дои
док
доказ
докази
доказом
доказів
доки
доклав
докладно
докладніше
доктор
доктора
доктори
доктором
докторськии
докторських
докторську
докторів
доктрина
доктрини
документ
документа
документальна
документальнии
документальних
документально
документального
документальні
документами
документах
документацію
документація
документаціі
документи
документов
документом
документу
документы
документі
документів
дол
долар
долара
долари
доларів
долею
должностных
долин
долина
долинами
долинах
долини
долиною
долинськии
долину
долині
долоні
долучився
долучилися
долучитися
долю
доля
долі
дом
дома
домашнього
домашньому
домашньоі
домашню
домашня
домашнє
домашні
домашніи
домашнім
домашніх
домен
домени
домену
доменіко
домовився
домовилися
домовитися
домовленості
домовленість
домогосподарств
домогосподарства
домогосподарствах
домогосподарство
домогосподарстві
домогтися
домом
дому
домі
домів
домігся
домінго
домінування
домінують
домінує
домінік
домініка
домініканськии
домішки
домішок
дон
дона
дональд
дональда
донбас
донбасу
донбасі
донецк
донець
донецьк
донецька
донецьке
донецькии
донецького
донецькому
донецькоі
донецьку
донецькіи
донеччині
донизу
донині
донна
донськии
донського
дону
донька
доньки
донькою
доньку
доньок
доньці
доопрацювання
доп
дописувач
дописувачів
допиту
доповнена
доповнене
доповнення
доповнено
доповнень
доповнив
доповнити
доповнюють
доповіддю
доповідеи
доповідь
доповіді
допоки
допомагав
допомагала
допомагали
допомагати
допомагають
допомагаючи
допомагає
допомога
допомоги
допомогла
допомогли
допомогло
допомогою
допомогти
допомогу
допоможе
допомозі
допоміг
допоміжнии
допоміжних
допоміжного
допоміжні
допускає
допускається
допустити
дора
дордонь
дореволюціи
доробити
доробку
доробок
дорога
дорогами
дорогах
дороги
дорогии
дорогих
дорогоцінних
дорогою
дорогу
дорогі
дорожнього
дорожні
дорожніи
дорозі
дорослии
дорослих
дорослого
дорослому
дорослоі
дорослу
дорослі
дороті
дорошенка
дорошенко
дортмунд
доручення
дорученням
доручено
доручень
доручив
доручили
дорівнює
доріг
доріжка
доріжки
дос
досвід
досвідом
досвіду
досвідчении
досвідчених
досвідченого
досвідчені
досить
досконалості
дослівно
дослідженню
дослідження
дослідженням
дослідженнями
дослідженнях
дослідженні
досліджено
досліджень
досліджував
досліджували
досліджувати
досліджує
досліди
дослідив
дослідити
дослідна
досліднии
дослідник
дослідника
дослідниками
дослідники
дослідником
дослідників
дослідних
дослідницька
дослідницькии
дослідницьких
дослідницького
дослідницькоі
дослідницькі
дослідниця
дослідного
дослідному
дослідноі
дослідні
дослідів
доставили
доставити
доставка
доставки
доставку
доставлении
доставлені
достатку
достатньо
достатньою
достатньоі
достатню
достатніи
достеменно
достовірність
достои
достоєвського
достроково
доступ
доступна
доступнии
доступним
доступними
доступних
доступно
доступності
доступною
доступні
доступність
доступом
доступу
доступі
досьє
досяг
досягала
досягати
досягають
досягає
досягається
досягла
досягли
досягло
досягне
досягнення
досягненням
досягненнями
досягненні
досягнень
досягнув
досягнувши
досягнута
досягнути
досягнуто
досягнуті
досягти
досі
дот
дотепер
доти
дотик
дотримання
дотриманням
дотримувався
дотримувалися
дотримуватись
дотримуватися
дотримуються
дотримуючись
дотримується
доходи
доходить
доходу
доходів
дохід
доц
доцент
доцента
доцентом
доцільно
доцільності
доцільність
дочка
дочки
дочкою
дочку
дочок
дочці
дошка
дошки
дошку
дошкільнии
дошці
дощ
дощових
дощок
дощу
дощі
дощів
дою
доі
дп
дпу
др
драгоманова
драи
дракон
дракона
драконів
драм
драма
драматична
драматичнии
драматичних
драматичного
драматичному
драматичні
драматург
драматурга
драматурги
драматургіі
драми
драму
драмі
драфт
драфту
драфті
древнее
древнеи
древніх
дрезден
дрездені
дреи
дроблення
дров
дрова
дрогобицькии
дрогобицького
дрогобицькоі
дрогобич
дрогобича
дрогобичі
дром
дроту
друг
друга
друге
другии
другим
других
другого
другом
другому
другорядних
другорядні
другою
другоі
другу
другі
другіи
дружба
дружби
дружбу
друже
дружин
дружина
дружини
дружиною
дружину
дружині
дружні
дружніх
друзям
друзями
друзі
друзів
друк
друкарня
друкарні
друкарства
друкованих
друковані
друком
друку
друкувався
друкувалися
друкувати
дрю
дріб
дрібна
дрібнии
дрібними
дрібних
дрібно
дрібного
дрібні
дрізд
дс
дсту
дтп
ду
дуб
дуба
дубаи
дубенського
дуби
дубль
дублювання
дублює
дубляж
дубляжу
дублін
дубліна
дубліні
дубно
дубове
дубовии
дубовим
дубових
дубові
дуга
дуги
дуглас
дуда
дует
дуету
дуеті
дуже
дужках
дужки
дузі
дуи
дук
дука
дум
дума
думав
думала
думали
думати
думаю
думають
думаючи
думає
думаєте
думи
думка
думками
думки
думкою
думку
думок
думу
думці
дун
дунаи
дунаю
дунаєм
дунаі
дункан
дурень
дусі
дуть
дух
духа
духи
духовенства
духовенство
духових
духовна
духовне
духовнии
духовним
духовних
духовно
духовного
духовному
духовності
духовноі
духовну
духовні
духовніи
духом
духу
духів
дучи
душ
душа
душанбе
душею
душу
душі
дъ
дырэктар
дю
дюи
дюк
дюма
дюссельдорф
дюсш
дядька
дядько
дядьком
дякую
дятел
дять
дяченко
ді
діабет
діагноз
діагностика
діагностики
діагоналі
діаграма
діаграми
діалект
діалекти
діалектом
діалекту
діалектів
діалог
діалоги
діалогу
діаметр
діаметра
діаметром
діаметрі
діана
діапазон
діапазоном
діапазону
діапазоні
діас
діаспора
діаспори
діаспорі
діб
діброва
дів
діва
діви
дівоцтві
дівоче
дівчат
дівчата
дівчаток
дівчина
дівчини
дівчинка
дівчинки
дівчинку
дівчиною
дівчину
дівчині
дід
діда
дідич
дідусь
діжона
дізнався
дізнавшись
дізналася
дізналися
дізнатися
дізнаються
дізнається
діи
дік
діксон
діла
ділан
ділана
ділення
ділить
ділиться
діло
ділових
ділового
дільниць
дільниця
дільниці
ділянка
ділянками
ділянках
ділянки
ділянкою
ділянку
ділянок
ділянці
ділять
діляться
ділі
дім
дін
діна
дінця
діонісіи
дір
діри
діскавері
діснеи
дістав
дістався
дістала
дісталася
дістали
дісталися
дістати
дістатися
дітеи
діти
дітріх
діть
дітьми
дітям
дію
діють
діюча
діючи
діючии
діючих
діючі
дія
діяв
діяла
діяли
діяло
діяльности
діяльності
діяльність
діяльністю
діям
діями
діяння
діяти
діях
діяч
діяча
діячами
діячем
діячка
діячі
діячів
діє
дієвоі
дієго
дієслова
дієслово
дієслів
дієцезіі
дією
діі
е
ева
евакуацію
евакуація
евакуаціі
евакуи
еванс
еверт
еволюціи
еволюцію
еволюція
еволюціі
евреи
европеи
европы
егеи
его
егоі
егідою
ед
едвард
едварда
едвардс
едвін
едгар
едгара
едді
едмонтон
едмунд
едо
едуард
едуарда
едуардо
едіт
ее
еи
еквадор
еквадору
еквадорі
екватора
екваторіальноі
еквівалент
екз
екземпляр
екземпляри
екземплярів
еко
еколого
екологічна
екологічнии
екологічних
екологічно
екологічного
екологічноі
екологічні
екологія
екологіі
екон
економіка
економіки
економіко
економікою
економіку
економіст
економісти
економіці
економічна
економічне
економічнии
економічним
економічними
економічних
економічно
економічного
економічному
економічною
економічноі
економічну
економічні
економічніи
економія
економіі
екосистем
екосистеми
екран
екрана
екрани
екрану
екрані
екранізація
екранізаціі
екс
екскурсіи
екскурсіі
експансіі
експедиціи
експедицію
експедиція
експедицією
експедиціі
експеримент
експериментальна
експериментальнии
експериментальних
експериментально
експериментального
експериментальноі
експериментальні
експерименти
експерименту
експериментів
експерт
експерти
експертиза
експертизи
експертноі
експертом
експертів
експлуатаціи
експлуатацію
експлуатація
експлуатаціі
експозиціи
експозиція
експозиціі
експонати
експонатів
експорт
експорту
експрес
експресіі
екстер
екстремальних
екіпаж
екіпажем
екіпажу
екіпажі
екіпажів
ел
електрики
електрифікаціі
електрична
електричне
електричнии
електричним
електричних
електричного
електричноі
електричну
електричні
електро
електроенергію
електроенергіі
електромагнітних
електромагнітного
електрон
електрона
електрони
електронна
електронне
електроннии
електронних
електронно
електронного
електронному
електронною
електронноі
електронну
електронні
електронніи
електронів
електроніка
електроніки
електрообладнання
електропостачання
електропоі
електростанціи
електростанція
електростанціі
електротехніки
елемент
елемента
елементами
елементарних
елементи
елементом
елементу
елементів
елен
елена
елеонора
еллен
еллі
елліс
ель
ельзас
ельст
ельфів
елі
елізабет
еліптичні
еліс
еліта
еліти
ем
емблема
емблеми
емма
еммануель
еммануі
еммі
емоціи
емоціі
ему
емі
емігранти
емігрантів
еміграція
еміграціі
емігрував
емігрували
еміль
еміля
емілі
емілія
емір
еміра
емірат
емірату
ен
ена
енд
ендемік
ендеміком
ендемічна
ендемічні
ендр
ендрю
ендрюс
енді
енеи
енергетика
енергетики
енергетична
енергетичнии
енергетичних
енергетичного
енергетичноі
енергетичні
енергіи
енергію
енергія
енергією
енергіі
енеі
енн
енні
енріке
енріко
ентоні
енциклопедичнии
енциклопедичних
енциклопедичного
енциклопедію
енциклопедія
енциклопедіі
еом
еоцену
епархии
епос
епосу
епох
епоха
епохи
епоху
епідемія
епідеміі
епізод
епізодах
епізоди
епізоду
епізоді
епізодів
ер
ера
ервін
ери
еритреі
ермітаж
ернест
ернст
ернста
еро
ерозіі
ері
ерік
еріка
еріх
ес
есе
есеі
ескадра
ескадрении
ескадрених
ескадрені
ескадри
ескадрилья
ескадрильі
ескорту
ескіз
ескізи
если
есмінець
есмінця
есмінцями
есмінці
есмінців
еспаньи
есперанто
ессекс
ест
естафета
естафеті
ествиписка
естер
естетики
естетичного
естонська
естонськии
естонськоі
естонські
естонія
естоніі
естради
есть
есу
етап
етапах
етапи
етапом
етапу
етапі
етапів
етика
етики
етилену
етимологія
етнограф
етнографічнии
етнографічноі
етнографічні
етнографія
етнографіі
етнологіі
етнічна
етнічнии
етнічних
етнічного
етнічноі
етнічні
етьєн
етюди
еу
ефект
ефекти
ефективна
ефективне
ефективнии
ефективним
ефективних
ефективно
ефективного
ефективності
ефективною
ефективноі
ефективні
ефективність
ефектом
ефекту
ефектів
ефрона
ефіопія
ефіопіі
ефір
ефіру
ефірі
ехо
еш
ешлі
еще
ж
жа
жаб
жаба
жаби
жаи
жак
жака
жаль
жан
жана
жанеи
жанна
жанни
жаном
жанр
жанрах
жанри
жанром
жанру
жанрі
жанрів
жар
жарт
жарти
жах
жаху
жахів
жджав
жджали
жджати
жджають
жджає
же
женева
женеві
жер
жераи
жерар
жеребкування
жермен
жертв
жертва
жертвам
жертвами
жертви
жертвою
жертву
жею
жив
жива
живе
живии
живим
живими
живиться
живих
живлення
живляться
живого
живопис
живописець
живописом
живопису
живописця
живописці
живописі
живота
животі
живою
живоі
живу
живуть
живі
живіи
живіт
жид
жиди
жидів
жизни
жизнь
жила
жили
жило
жир
жирним
жиронда
жиру
жирів
жита
житель
жителя
жителям
жителями
жителі
жителів
жити
житла
житло
житловии
житлових
житлово
житлового
житлові
жито
житомир
житомира
житомирська
житомирськии
житомирського
житомирськоі
житомирськіи
житомирщини
житомирі
життю
життя
життям
життєвии
життєвих
життєво
життєвого
життєві
життєдіяльності
життєпис
життєпису
житті
життів
житя
житє
жмеринка
жовква
жовт
жовта
жовте
жовтень
жовтии
жовтим
жовтими
жовтих
жовтнева
жовтневе
жовтневии
жовтневого
жовтневоі
жовтня
жовтні
жовто
жовтого
жовтою
жовтоі
жовту
жовтувато
жовті
жоден
жодна
жодне
жодним
жодних
жодного
жодному
жодноі
жодніи
жозе
жозеф
жорж
жоржа
жорсткии
жорстким
жорстких
жорстко
жорсткого
жорсткі
жорстокии
жорстоких
жорстоко
жорстокого
жорстокі
жорстокість
жу
жуан
жуана
жук
жуки
жуков
жукова
жуковськии
жуковського
жуків
жуль
жупанія
жупаніі
жура
журавель
журн
журнал
журналах
журнали
журналом
журналу
журналі
журналів
журналіст
журналіста
журналістам
журналістами
журналісти
журналістика
журналістики
журналістка
журналістом
журналістів
журі
жъ
жі
жінка
жінкам
жінками
жінки
жінкою
жінку
жінок
жіноча
жіноче
жіночии
жіночим
жіночих
жіночого
жіночому
жіночоі
жіночу
жіночі
жіночіи
жінці
з
за
заарештовании
заарештовано
заарештовані
заарештували
заарештувати
забагато
забаи
забарвлення
забарвленням
забезпечення
забезпеченням
забезпеченні
забезпечені
забезпечив
забезпечила
забезпечили
забезпечити
забезпечував
забезпечувала
забезпечували
забезпечувати
забезпечують
забезпечуючи
забезпечує
забезпечується
забив
забивши
забили
забирає
забити
забитим
забитими
забитих
заблоковании
заблокував
заблокували
заблокувати
заболочені
заборона
заборонена
заборонении
заборонених
заборонено
заборонені
заборони
заборонив
заборонила
заборонили
заборонити
заборону
забороняє
забороняється
забрав
забрала
забрали
забрати
забруднення
забув
забудова
забудови
забудову
забули
забути
забуття
забіг
забігу
зав
завадило
завадити
заважають
заважає
завантаження
завантажень
завантажити
завантажувати
заввишки
завгодно
завдав
завдавши
завдала
завдали
завдання
завданням
завданнями
завдано
завдань
завдати
завдають
завдає
завдовжки
завдяки
завершена
завершении
завершенню
завершення
завершенням
завершенні
завершено
завершені
завершив
завершився
завершивши
завершила
завершилась
завершилася
завершили
завершилися
завершилося
завершити
завершує
завершується
завжди
завод
заводах
заводи
заводом
заводськии
заводського
заводу
заводі
заводів
завои
заволодіти
заворушення
заворушень
завоював
завоювала
завоювали
завоювання
завоювати
завтовшки
завтра
завширшки
завідував
завідувач
завідувача
завідувачем
завідувачка
завіту
заг
загадка
загадки
загалом
загалу
загальна
загальне
загальнии
загальним
загальними
загальних
загально
загальновіи
загального
загальнодержавного
загальному
загальноосвітньоі
загальноосвітня
загальноосвітніи
загальноосвітніх
загальноприи
загальною
загальноі
загальну
загальні
загальніи
загарбниками
загарбників
загатами
загибель
загибелі
загиблим
загиблими
загиблих
загиблого
загиблі
загинув
загинула
загинули
загинуло
заголовком
заголовок
загонами
загони
загоном
загону
загоні
загонів
загострення
загострені
заготовки
загреб
загреба
загребі
загрожує
загроз
загроза
загрози
загрозою
загрозу
загін
заданого
заданоі
задач
задача
задачу
задачі
задає
задається
задля
заднього
задньому
задньоі
задню
задня
задні
задніи
заднім
задніх
задовго
задоволении
задоволення
задоволенням
задовольнити
задовольняють
задовольняє
задрафтовані
задум
задумом
задуму
задіянии
задіяні
заж
зажадав
зажу
зажі
зажів
заз
зазвичаи
заздалегідь
зазнав
зазнавали
зазнавши
зазнала
зазнали
зазнало
зазначав
зазначалося
зазначають
зазначає
зазначається
зазначена
зазначении
зазначених
зазначення
зазначенням
зазначено
зазначеного
зазначені
зазначив
зазначивши
зазначила
зазначили
зазначити
зазнають
зазнає
заи
зак
закавказзя
заказник
заказника
заказники
заказнику
закарпатська
закарпатського
закарпатськоі
закарпатськіи
закарпаття
закарпатті
закерзоння
закл
заклав
заклад
закладами
закладах
закладена
закладении
закладення
закладено
закладені
заклади
закладом
закладу
закладі
закладів
заклали
заклик
закликав
закликала
закликали
закликає
заклики
закликом
заклинання
заколот
заколоту
закон
законам
законами
закони
законним
законних
законності
законодавства
законодавство
законодавством
законодавстві
законодавча
законодавчии
законодавчих
законодавчого
законодавчоі
законодавчі
законом
закономірності
законопроєкт
законопроєкту
закону
законі
законів
закордонних
закордонні
закордоном
закохався
закохана
закохании
закохується
закрив
закривати
закриває
закрила
закрили
закрита
закрите
закрити
закритии
закритих
закрито
закритого
закритому
закриття
закриті
закріпився
закріпити
закріпитися
закріплении
закріплення
закріплено
закріплені
закупівлі
закінчена
закінченню
закінчення
закінченням
закінченні
закінчено
закінчену
закінчив
закінчився
закінчивши
закінчила
закінчилась
закінчилася
закінчили
закінчилися
закінчилося
закінчити
закінчуються
закінчуючи
закінчує
закінчується
зал
зала
залах
залежать
залежить
залежних
залежно
залежності
залежні
залежність
залесскии
зали
залишався
залишалась
залишалася
залишали
залишались
залишалися
залишалося
залишати
залишатися
залишають
залишаються
залишаючи
залишаючись
залишає
залишається
залишении
залишення
залишено
залишені
залишив
залишився
залишивши
залишившись
залишила
залишилась
залишилася
залишили
залишились
залишилися
залишилось
залишилося
залишити
залишитися
залишиться
залишками
залишки
залишків
залишок
залоз
залози
залом
заломлення
залу
залучався
залучати
залучении
залучення
залученням
залучені
залучив
залучити
зальцбург
залягання
залягають
залі
залів
заліза
залізна
залізнии
залізних
залізницею
залізниць
залізницю
залізниця
залізниці
залізнична
залізничне
залізничнии
залізничників
залізничним
залізничних
залізничного
залізничному
залізничноі
залізничну
залізничні
залізничніи
залізного
залізноі
залізні
залізо
залізобетонних
залік
заліку
замало
замах
замаху
замбіі
замикання
замка
замки
замкова
замком
замку
замків
замовив
замовити
замовлення
замовлень
замовника
замовчуванням
заможних
заможні
замои
замок
замолоду
заміж
заміжня
заміна
замінена
замінении
замінено
замінені
заміни
замінив
замінивши
замінила
замінили
замінити
заміною
заміну
замінює
замість
заміщення
занадто
занепад
занепаду
занепокоєння
занесении
занесених
занесено
занесені
заново
занурення
заньковецькоі
заняття
заняттям
занять
заохочення
заочно
зап
западини
западнои
запалення
запалювання
запам
запаморочення
запас
запасами
запаси
запасних
запасу
запасі
запасів
запах
запахом
запаху
запеклих
запеклі
заперечення
заперечень
заперечував
заперечує
запис
записав
записала
записали
записами
записана
записании
записаних
записано
записані
записати
записах
записи
записки
записку
записок
записом
запису
записував
записувати
записує
записується
записі
записів
запит
запитав
запитання
запитань
запити
запитом
запиту
запитує
запитів
заплава
заплави
запланована
заплановании
запланованих
заплановано
запланованого
заплановані
заплатив
заплатити
запліднення
запобігання
запобігає
запобігти
заповнення
заповнені
заповнити
заповідне
заповіднии
заповідник
заповідника
заповідники
заповіднику
заповідників
заповідного
заповідні
заповіт
заповітом
заповіту
запозичення
запозичень
запозичені
запорожець
запорожці
запорожців
запорозького
запорозькоі
запоріжжя
запоріжжі
запорізька
запорізькии
запорізького
запорізькоі
запорізькіи
започаткована
започатковано
започаткував
запровадження
запроваджено
запровадив
запровадити
запропонована
запропоновании
запропонованих
запропоновано
запропоновані
запропонував
запропонувала
запропонували
запропонувати
запросив
запросила
запросили
запросити
запрошена
запрошении
запрошення
запрошено
запрошені
запрошують
запрошує
запуск
запускає
запуску
запустив
запустила
запустили
запустити
запушені
запущена
запущении
запущено
запущені
заради
зараження
зараз
зараховании
зараховано
зараховують
зарегистрировано
зареєстрована
зареєстровании
зареєстрованих
зареєстровано
зареєстровані
заробив
заробити
заробляти
заробітки
заробітна
заробітноі
зародження
заростях
зарості
зарплати
зарплату
зарубіжних
зарубіжноі
заручини
заручників
заряд
заряджання
зарядки
заряду
зарядів
заріччя
засад
засадах
засади
засвоєння
засвідчує
заселена
заселення
заслании
заслання
засланні
заслуг
заслуги
заслуговують
заслуговує
заслужена
заслужении
заслуженого
заслужені
заснована
засноване
засновании
заснованих
засновано
заснованого
заснованоі
засновану
засновані
засновник
засновника
засновниками
засновники
засновником
засновників
засновниця
засновує
заснував
заснувала
заснували
заснування
заснувати
засобами
засобах
засоби
засобом
засобу
засобів
заспокоі
заст
застав
застава
застави
заставу
застаріла
застарілі
застереження
застосовании
застосовано
застосовані
застосовувався
застосовувалася
застосовували
застосовувалися
застосовувати
застосовуватися
застосовують
застосовуються
застосовуючи
застосовує
застосовується
застосував
застосували
застосування
застосуванням
застосуванні
застосувань
застосувати
застосунків
заступник
заступника
заступники
заступником
заступників
застібка
засуджена
засуджении
засуджених
засудження
засуджено
засуджені
засудив
засудили
засіб
засідання
засіданнях
засіданні
засідань
засідки
засідку
зат
затверджена
затверджении
затвердження
затверджено
затверджені
затверджує
затвердив
затвердила
затвердили
затвердити
затвор
затвора
зате
затемнення
затока
затоки
затоку
затонув
затоплення
затоплені
затоці
затримали
затримании
затримання
затримано
затримка
затримки
зауваження
зауважень
зауважив
зауважити
зауважує
зафіксована
зафіксовании
зафіксовано
зафіксовані
зах
захар
захаров
захарович
захворювання
захворюваннями
захворюваннях
захворювань
захворів
захиснии
захисник
захисника
захисники
захисником
захисників
захисних
захисні
захист
захистив
захистила
захистити
захистом
захисту
захисті
захищав
захищала
захищали
захищати
захищають
захищаючи
захищає
захищена
захищении
захищених
захищено
захищені
заходами
заходах
заходи
заходить
заходом
заходу
заході
заходів
захопив
захопився
захопивши
захопила
захопили
захопити
захоплена
захоплении
захоплених
захоплення
захопленням
захопленні
захоплено
захоплені
захоплювався
захоплюють
захоплює
захоплюється
захотів
захоче
захід
західна
західне
західнии
західним
західними
західних
західно
західного
західному
західнопоморського
західноукраі
західною
західноєвропеи
західноі
західну
західні
західніи
західніше
зацікавився
зацікавлении
зацікавлених
зацікавлення
зацікавлені
зацікавленість
зачаття
заяв
заява
заяви
заявив
заявивши
заявила
заявили
заявило
заявити
заявка
заявки
заявку
заявлено
заявляв
заявляє
заявок
заявою
заяву
заявці
заяві
заєць
заі
зб
збагачення
збараж
зберегла
збереглась
збереглася
зберегли
збереглись
збереглися
збереглося
зберегти
збережена
збережении
збережених
збереженню
збереження
збереженням
збереженні
збережено
збережені
зберіг
зберігав
зберігався
зберігала
зберігалася
зберігали
зберігалися
зберігання
зберігати
зберігають
зберігаються
зберігаючи
зберігає
зберігається
зберігся
збив
збили
збирав
збирався
збирали
збиралися
збирання
збирати
збирають
збираються
збирає
збирається
збитии
збитки
збитків
збиток
зближення
збоку
зборами
зборах
збори
збору
зборів
зброи
зброю
зброя
зброєю
зброі
збруч
збудження
збудника
збудована
збудовании
збудовано
збудовані
збудував
збудували
збудувати
збуту
збіг
збігаються
збігається
збільшена
збільшении
збільшення
збільшенням
збільшенні
збільшено
збільшив
збільшився
збільшилась
збільшилася
збільшили
збільшити
збільшувати
збільшують
збільшує
збільшується
збір
збірка
збірках
збірки
збірку
збірна
збірник
збірника
збірниках
збірники
збірнику
збірників
збірними
збірних
збірною
збірноі
збірну
збірні
збірніи
збірок
збірці
зв
зважаючи
звали
звана
зване
звании
званих
звання
званням
званні
званого
званому
званоі
звану
звань
звані
зварювання
зве
зведена
зведении
зведення
зведено
зведеного
зведені
звезда
звели
звелів
звенигородського
звернення
звернув
звернувся
звернулася
звернули
звернулися
звернути
звернутися
зверніть
звертався
зверталися
звертання
звертатися
звертаються
звертає
звертається
зверхність
зверху
звести
зветься
звивистості
звикли
звинуватив
звинуватили
звинувачении
звинувачення
звинуваченням
звинувачень
звинувачували
звинувачують
звинувачує
звичаи
звичаєм
звичаі
звички
зводиться
зворотнии
зворотного
зворотному
зворотніи
звук
звуки
звуковии
звукових
звукові
звукозапису
звуком
звукооператор
звукорежисер
звуку
звуків
звуть
звучання
звучанням
звучать
звучить
звів
звід
звідки
звідси
звідти
звільнена
звільнении
звільнення
звільненні
звільнено
звільнені
звільнив
звільнився
звільнили
звільнити
звільняє
звір
звіра
звірі
звірів
звісно
звістка
звістки
звістку
звіт
звіти
звітності
звіту
звіті
звітів
згадав
згадана
згадании
згаданих
згадано
згадані
згадати
згадка
згадки
згадку
згадок
згадував
згадували
згадування
згадувати
згадують
згадуються
згадуючи
згадує
згадується
згенеровано
згода
згоден
згоди
згодні
згодом
згодою
згоду
згори
згортання
згоряння
згорів
згоріла
зграи
зграі
згідно
зд
зда
здав
здавалось
здавалося
здавна
здався
здалося
здами
здании
здатен
здати
здатися
здатна
здатнии
здатних
здатності
здатні
здатність
здатністю
здах
здачі
здаються
здається
здебільшого
зди
здив
здили
здити
здить
здка
здки
здку
здобич
здобиччю
здобичі
здобув
здобував
здобувати
здобуває
здобувши
здобула
здобули
здобути
здобутки
здобуття
здок
здолавши
здом
здоров
здоровии
здорових
здорового
здорові
зду
зді
здібностеи
здібностями
здібності
здів
здіи
зе
зевса
зее
зеи
зеландія
зеландіі
зелена
зелене
зелении
зеленим
зеленими
зелених
зеленого
зеленому
зеленою
зеленоі
зеленськии
зеленського
зелену
зеленувато
зелені
зеленіи
земель
земельнии
земельних
земельного
земельноі
земельну
земельні
землевласників
землеволодіння
землеробства
землеробство
землеробством
землетрус
землетруси
землетрусу
землетрусів
землею
земли
землю
земля
землякам
земляків
землями
землях
землі
земних
земноводних
земноводні
земного
земноі
земніи
земства
земська
земськии
земських
земського
земськоі
зен
зенко
зенон
зеніт
зенітна
зенітнии
зенітних
зенітно
зенітноі
зенітні
зер
зера
зерен
зерна
зерно
зернових
зернові
зерс
ззаду
ззовні
зи
зима
зими
зимова
зимовии
зимових
зимового
зимовоі
зимову
зимові
зимою
зиму
зла
злам
зламав
зламі
зле
злегка
зливаються
злии
злиття
злих
зло
зловживання
зловживань
злого
злодіи
злодіі
злом
злотих
злочин
злочинах
злочинець
злочини
злочинності
злочинність
злочинністю
злочином
злочину
злочинця
злочинці
злочинців
злочинів
зльоту
злі
зліва
зліт
злітно
зм
змагалися
змагання
змаганнях
змаганні
змагань
змагатися
змагаються
зменшення
зменшенням
зменшився
зменшилась
зменшилася
зменшити
зменшують
зменшує
зменшується
змова
змови
змову
змові
змоги
змогла
змогли
змогу
зможе
зможете
зможу
зможуть
змозі
зму
змусив
змусивши
змусила
змусили
змусило
змусити
змушена
змушении
змушені
змушують
змушує
змі
зміг
зміи
змін
зміна
змінами
змінена
змінении
змінено
змінені
зміни
змінив
змінився
змінивши
змінила
змінилася
змінили
змінилися
змінило
змінилося
змінити
зміниться
змінна
змінним
змінними
змінних
змінного
змінноі
змінні
зміною
зміну
змінювався
змінювалася
змінювалися
змінювати
змінюватися
змінюють
змінюються
змінюючи
змінює
змінюється
зміні
зміст
змістом
змісту
зміцненню
зміцнення
зміцнити
змішана
змішании
змішаних
змішаного
змішані
змішування
зміщення
змія
зміі
зн
зна
знав
знавець
знаи
знак
знака
знаками
знаки
знаком
знаку
знаків
знала
знали
знам
знаменита
знаменитии
знаменитих
знаменитого
знамениті
знании
знання
знанням
знаннями
знань
знаряддя
знарядь
знати
знатного
знать
знаті
знаходження
знаходився
знаходилась
знаходилася
знаходили
знаходились
знаходилися
знаходилось
знаходилося
знаходимо
знаходити
знаходитися
знаходить
знаходиться
знаходять
знаходяться
знаходячись
знахідка
знахідки
знахідок
значення
значенням
значеннями
значенні
значень
значима
значимии
значимим
значимими
значимо
значимості
значимою
значимі
значимість
значить
значиться
значна
значне
значнии
значним
значними
значних
значно
значного
значною
значноі
значну
значні
значніи
значок
значущих
значущості
значущість
значіння
знаю
знають
знаючи
знає
знаємо
знаєте
знаєш
зненацька
знесення
зниження
зниженням
знижує
знижується
знизити
знизу
зник
зникають
зникає
зникла
зникли
зниклих
зникло
зниклі
зникнення
зних
знищена
знищении
знищення
знищено
знищені
знищив
знищивши
знищила
знищили
знищити
знищувати
знищує
знов
знову
зного
зному
зняв
знявся
зняла
знялася
зняли
знялись
знялися
знята
зняте
зняти
знятии
знято
зняття
зняті
зні
знімав
знімався
знімалася
знімали
знімалися
знімальна
знімання
знімати
зніматися
знімають
знімає
знімається
знімки
знімків
знімок
зо
зобов
зображає
зображена
зображении
зображення
зображенням
зображеннями
зображенні
зображено
зображень
зображені
зображують
зображує
зобразив
зовні
зовнішності
зовнішнього
зовнішньому
зовнішньою
зовнішньоі
зовнішню
зовнішня
зовнішнє
зовнішні
зовнішніи
зовнішнім
зовнішніми
зовнішність
зовнішніх
зовсі
зовсім
зозуля
зокрема
золота
золоте
золотии
золотим
золотими
золотих
золото
золотого
золотом
золотому
золотою
золотоі
золоту
золоті
золочів
золочівськии
золочівського
зомбі
зон
зона
зонах
зонд
зони
зоною
зону
зоні
зоолог
зоологіі
зоопарк
зоопарку
зорею
зору
зорю
зоря
зоряна
зорянии
зоряних
зоряного
зоряноі
зоряну
зоряні
зорі
зосереджена
зосередження
зосереджено
зосереджені
зосереджується
зосередився
зосередитися
зош
зоя
зоі
зрада
зради
зраду
зраді
зразка
зразками
зразки
зразкове
зразком
зразків
зразок
зразу
зранку
зречення
зрештою
зрк
зробив
зробивши
зробила
зробили
зробило
зробити
зробить
зроблена
зроблене
зроблении
зроблених
зроблено
зроблені
зроблю
зрозумів
зрозумівши
зрозуміла
зрозуміли
зрозумілим
зрозуміло
зрозуміти
зросла
зросли
зросло
зростав
зростала
зростанню
зростання
зростанням
зростати
зростають
зростає
зросту
зрошення
зруи
зручнии
зручно
зручності
зрідка
зрікся
зрілості
зрілість
зріс
зріст
зс
зсередини
зсу
зсув
зсуву
зу
зуб
зубами
зуби
зубчасті
зубів
зумовлена
зумовлює
зумів
зуміла
зуміли
зунр
зупинено
зупинив
зупинився
зупинили
зупинилися
зупинити
зупинитися
зупинка
зупинки
зупинку
зупиннии
зупинні
зупиняються
зупиняє
зупиняється
зусилля
зусиллям
зусиллями
зусиль
зустрів
зустрівся
зустріла
зустрілася
зустріли
зустрілися
зустріти
зустрітися
зустріч
зустрічав
зустрічався
зустрічалася
зустрічалися
зустрічатися
зустрічах
зустрічають
зустрічаються
зустрічає
зустрічається
зустрічеи
зустрічі
зх
зцілення
зчеплення
зъ
зять
зі
зіана
зіани
зібрав
зібрався
зібравши
зібрала
зібрали
зібралися
зібрана
зібрании
зібраних
зібрання
зібранні
зібрано
зібрань
зібрані
зібрати
зіграв
зігравши
зіграла
зіграли
зіграти
зізнався
зізнається
зіи
зіл
зілля
зімбабве
зінаі
зінов
зіновіи
зір
зірка
зірками
зірки
зіркою
зірку
зірок
зіткнення
зіткнень
зіткнувся
зіткнулися
зія
зіі
зґвалтування
и
иван
иванов
иванович
из
известия
изд
издание
издательство
изменении
изображение
изъ
ии
ил
или
им
имени
империи
ин
институт
института
интервью
информационно
инших
инші
искусства
искусство
исследование
исследования
истории
историко
историческая
исторические
историческии
история
итоги
их
ихъ
июля
июня
к
ка
кабардино
кабаре
кабель
кабелю
кабелі
кабо
кабіна
кабінет
кабінети
кабінетом
кабінету
кабінеті
кабіни
кабіною
кабіні
кав
кава
кавалер
кавалери
кавалеріи
кавалеріі
кавер
кави
кавказ
кавказу
кавказька
кавказькии
кавказького
кавказькоі
кавказі
каву
каган
каганат
кадастр
кадастрова
каддафі
каденціі
кадет
кадетів
кадр
кадри
кадру
кадрів
кажанів
каже
кажете
кажу
кажуть
кажучи
казав
казала
казали
казанського
казанськоі
казань
казані
казарми
казати
казахи
казахскои
казахстан
казахстанскои
казахстану
казахстані
казахськии
казахськоі
казимир
казимира
казино
казка
казки
казначеи
казок
каи
как
какао
какъ
кал
калгарі
кале
календар
календарем
календарь
календаря
календарі
калина
калини
калинівка
калужская
калузькоі
калуського
калуш
кальвадос
кальського
кальцію
кальярі
калі
калібр
калібру
каліи
калініна
калінінградськоі
калінінського
каліського
каліфорніи
каліфорнія
каліфорніі
калію
кам
камаз
камбоджі
каменем
каменю
каменя
каменяр
камені
каменів
камео
камер
камера
камери
камернии
камерного
камерою
камеру
камерун
камеруну
камері
ками
кампаніи
кампанію
кампанія
кампаніі
кампо
кампус
каміння
камінням
камінь
кан
кана
канада
канади
канадська
канадськии
канадських
канадського
канадському
канадськоі
канадські
канаду
канаді
канадієнс
канал
каналами
каналах
канали
каналом
каналу
каналі
каналів
канд
кандидат
кандидата
кандидати
кандидатом
кандидатських
кандидатську
кандидатури
кандидатуру
кандидатів
канзас
каннського
кано
каное
канон
канонічного
канта
кантон
кантону
кантрі
канцелярія
канцеляріі
канцлер
канцлера
канцлером
каньи
канів
канівськии
канівського
канікули
капела
капели
капелюх
каплан
каплицю
каплиця
каплиці
капличка
капсули
капітал
капіталу
капітальнии
капітального
капіталізм
капіталізму
капітан
капітана
капітани
капітаном
капітуляцію
капітуляціі
кар
кара
караван
карагандинськоі
каразіна
карантин
карантину
карась
карате
караі
карбованців
карбону
карбувалися
карбування
кард
кардинал
кардинала
кардинально
карел
кареліі
карен
кари
карибського
каркас
карл
карла
карлик
карло
карлович
карлом
карлос
карлоса
карлсруе
карлу
кармелітів
кармен
карнегі
карого
кароль
кароля
кароліна
кароліни
каролінських
карпат
карпатах
карпати
карпатська
карпатськии
карпатського
карпатськоі
карпенка
карпенко
карпов
каррі
карт
карта
картах
картер
картера
карти
картин
картина
картинах
картини
картинки
картинна
картиною
картину
картині
картка
картках
картки
картку
картографічнии
картографія
картографіі
карток
картоплю
картопля
картоплі
карту
картці
карті
кару
карі
карін
каса
касаціи
каси
каскад
каскаду
касові
каспіи
кастилія
кастиліі
кастинг
кастро
кат
каталанськоі
каталог
каталоги
каталогу
каталогів
каталозі
каталонія
каталоніі
каталінськии
катання
катар
катару
катарі
катаріна
катастроф
катастрофа
катастрофи
категоризація
категоризаціі
категорично
категоріи
категорію
категорія
категоріями
категоріях
категорією
категоріі
катедри
катер
катери
катерина
катерини
катеринослав
катеринослава
катеринославського
катеринославськоі
катеринославі
катериною
катерину
катерів
като
католиками
католики
католиків
католицизм
католицизму
католицтво
католицька
католицькии
католицьким
католицьких
католицького
католицькому
католицькою
католицькоі
католицьку
католицькі
католицькіи
катрін
катя
каунті
каф
кафе
кафедр
кафедра
кафедральнии
кафедрального
кафедри
кафедрою
кафедру
кафедрі
ках
каховка
каштелян
каштеляна
кая
каі
кб
кв
квадрат
квадрата
квадратнии
квадратних
квадратні
квадратів
кваліфаєр
кваліфікаціи
кваліфікацію
кваліфікація
кваліфікаціі
кваліфікованих
кваліфікувався
кваліфікувалися
квантова
квантових
квантовоі
квартал
квартали
кварталу
кварталі
кварталів
квартет
квартету
квартир
квартира
квартири
квартирою
квартиру
квартирі
квебек
квебеку
квитки
квитків
квиток
квт
квінт
квіт
квітами
квітень
квіти
квітка
квітками
квітки
квіткових
квіткові
квітня
квітні
квіток
квітів
кг
кдб
ке
кевін
кеи
келецького
келлі
кельн
кельна
келіі
кембридж
кембриджського
кембриджі
кемеровськоі
кемерон
кемпбелл
кен
кеннеді
кеннет
кенні
кент
кентуккі
кеніи
кенія
кеніі
кер
кера
кераміка
кераміки
керма
кермо
кермом
керованих
керовані
керол
керолаи
керрі
керс
кертіс
керував
керувала
керували
керування
керуванням
керувати
керують
керуючии
керуючим
керуючись
керуючого
керує
керується
керч
керчі
кері
керівнии
керівник
керівника
керівниками
керівники
керівником
керівників
керівних
керівництва
керівництво
керівництвом
керівництву
керівництві
керівні
кетлін
кетрін
кеті
кеш
кз
кзо
кзп
ки
кидали
кидати
кидає
кидається
кидків
киев
киева
киевская
киевскои
кии
килим
килими
ким
кимось
кино
кинув
кинувся
кинули
кинути
кип
кипіння
киргизстан
киргизстану
киргизькоі
кирила
кирило
кирилович
кириченко
кировская
кисень
кислот
кислота
кислоти
кислотою
кислоту
киснем
кисню
кит
китаи
китаю
китаєм
китаі
ких
кишені
кишечника
кишиневі
кишинів
кишки
киян
кияни
києва
києво
києвом
києві
киі
кк
кл
кла
клавдіи
клавдія
клавіатури
клавішні
клавіші
кладки
кладовища
кладовище
кладовищі
кладуть
кладці
клаи
клан
клани
кланом
клану
кланів
клапан
клапанів
клара
кларк
кларка
клас
класами
класах
класи
класика
класики
класиків
класифікаціи
класифікацію
класифікація
класифікацією
класифікаціі
класифікувати
класифікує
класицизм
класицизму
класична
класичнии
класичним
класичних
класичного
класичному
класичною
класичноі
класичну
класичні
класичніи
класом
кластер
класу
класі
класів
клаудіо
клаудія
клаус
клеи
клен
клеопатра
клер
клермон
клим
клименко
климент
климента
клин
кличе
кличко
клод
клода
клом
клонів
клопотання
клопотанням
клуб
клуба
клубами
клубах
клуби
клубна
клубнии
клубних
клубного
клубноі
клубні
клубом
клубу
клубі
клубів
клуж
ключ
ключа
ключем
ключовим
ключовими
ключових
ключовою
ключову
ключові
ключі
ключів
кляи
клівленд
клімат
кліматичних
кліматичні
кліматом
клімату
клінтон
клініка
клініки
клініці
клінічна
клінічнии
клінічних
клінічного
клінічноі
клінічні
кліп
кліпи
кліпу
кліпі
клітин
клітина
клітинами
клітинах
клітини
клітинних
клітинноі
клітинніи
клітки
клієнт
клієнта
клієнтам
клієнти
клієнтів
км
кму
кн
кнаи
кндр
книг
книга
книгами
книгах
книги
книгою
книгу
книжка
книжки
книжкова
книжковии
книжкових
книжковоі
книжкові
книжку
книжок
книжці
книзі
кнопка
кнопки
кнопку
кнр
кну
княгиня
княгині
княжна
князем
князь
князю
князя
князями
князі
князів
князівств
князівства
князівство
князівством
князівстві
ко
коаліціи
коаліцію
коаліція
коаліціі
коб
коба
кобаяші
кобзар
кобзаря
кобилянськоі
ков
кова
коваленко
коваль
ковальов
ковальчук
коваля
кове
ковель
ковельського
ковии
ковила
кового
ковому
ковськии
ковського
ковчег
кові
когда
кого
когось
когурьо
когутяк
код
кодекс
кодексом
кодексу
коди
кодовании
кодом
коду
кодування
кодується
коді
кодів
коен
коефіцієнт
коефіцієнта
коефіцієнти
коефіцієнтом
коефіцієнтів
кожен
кожна
кожне
кожнии
кожним
кожного
кожному
кожною
кожноі
кожну
кожні
кожніи
коза
козак
козака
козакам
козаками
козаки
козаків
козац
козацтва
козацтво
козацька
козацьке
козацькии
козацьких
козацько
козацького
козацькоі
козацькі
кози
козлов
козловськии
козятин
кои
кокаі
кокс
коктеи
кол
кола
колах
колгосп
колгоспи
колгоспників
колгоспницю
колгоспу
колгоспі
колгоспів
колег
колега
колегами
колеги
колегою
колегіум
колегіуму
колегія
колегіі
коледж
коледжу
коледжі
коледжів
колектив
колективи
колективна
колективних
колективного
колективноі
колективні
колективом
колективу
колективі
колективів
колективізація
колективізаціі
колекціи
колекціонер
колекціонерів
колекцію
колекція
колекціях
колекціі
колеса
колесами
колесник
колесо
коли
коливання
коливань
коливається
колись
колишнього
колишньому
колишньою
колишньоі
колишню
колишня
колишнє
колишні
колишніи
колишнім
колишніми
колишніх
коллінз
коло
колодязь
колом
коломбо
коломии
коломия
коломиі
коломієць
колон
колона
колонами
колони
колонки
колону
колоніальних
колоніального
колоніальноі
колонізація
колонізаціі
колоніи
колоністи
колоністів
колонію
колонія
колоніями
колоніях
колонією
колоніі
колорадо
колос
колоі
колу
колумбіи
колумбія
колумбіі
кольорами
кольорах
кольори
кольоровии
кольорових
кольорові
кольором
кольору
кольорів
колі
колібрі
коліи
колін
коліна
колінах
колір
коліс
колію
колія
коліі
ком
кома
команд
команда
командами
командах
команди
командир
командира
командири
командиром
командирів
командна
команднии
командних
командно
командного
командному
командні
командор
командорськии
командос
командою
команду
командував
командуванню
командування
командуванням
командувач
командувача
командувачем
командувачі
команді
комаров
комарів
комах
комахами
комахи
комбаи
комбінат
комбінату
комбінаціи
комбінація
комбінаціі
комбіновані
комедіи
комедія
комедіі
комендант
коменданта
комендантом
коментар
коментарями
коментарі
коментарів
комерціи
комет
комета
комети
коми
комо
комора
комори
комп
компакт
компактна
компактнии
компаньи
компаніи
компанію
компанія
компаніям
компаніями
компанією
компаніі
компартіі
компенсацію
компенсаціі
компенсувати
компетенціі
комплекс
комплекси
комплексна
комплекснии
комплексних
комплексного
комплексноі
комплексні
комплексом
комплексу
комплексі
комплексів
комплект
комплектаціях
комплектаціі
комплектування
комплектів
композитор
композитора
композитори
композитором
композиторів
композиціи
композицію
композиція
композицією
композиціі
компонент
компонента
компонентами
компоненти
компонентом
компонентів
компонування
компроміс
компромісу
компіляціі
комсомолець
комсомолу
комсомольська
кому
комун
комуна
комунальне
комунальних
комунального
комунальноі
комуни
комуною
комуну
комуні
комунізм
комунізму
комунікаціи
комунікація
комунікаціі
комуніст
комуністами
комуністи
комуністична
комуністичнии
комуністичних
комуністичного
комуністичноі
комуністичні
комуністів
комусь
комфорту
комі
комік
комікс
коміксах
комікси
коміксу
коміксів
комінтерну
комірки
комісар
комісара
комісаром
комісаріат
комісаріату
комісарів
комісіи
комісію
комісія
комісією
комісіі
комітет
комітети
комітетом
комітету
комітеті
комітетів
кон
конан
конвенцію
конвенція
конвенцією
конвенціі
конвои
конвою
конвоі
конго
конгрегаціі
конгрес
конгресу
конгресі
кондратюк
конеи
конкакаф
конкретнии
конкретних
конкретно
конкретного
конкретному
конкретноі
конкретну
конкретні
конкурента
конкурентів
конкуренцію
конкуренція
конкуренціі
конкурс
конкурсах
конкурси
конкурсніи
конкурсу
конкурсі
конкурсів
конкурувати
коннектикут
коннор
коновалов
коновальця
кононенко
конотоп
конотопського
конрад
конрада
консенсус
консенсусу
консервативноі
консерваторів
консерваторію
консерваторіі
консоль
консолі
консолідаціі
константа
константи
константин
константинополь
константинопольськии
константинопольського
константинополя
константинополі
констанція
конституціи
конституцію
конституція
конституцією
конституціі
конструктивно
конструктивні
конструктор
конструктора
конструктори
конструкторів
конструкціи
конструкцію
конструкція
конструкцією
конструкціі
конструювання
консул
консула
консули
консулом
консульства
консульство
консультант
консультантом
консультаціи
консультаціі
контакт
контакти
контактноі
контакту
контакті
контактів
конте
контеи
контекст
контексту
контексті
контент
контенту
контингент
контингенту
континент
континентальнии
континентальним
континентальних
континентального
континентальноі
континентальніи
континенту
континенті
континентів
контора
контори
контр
контракт
контракти
контрактом
контракту
контрактів
контратаки
контрнаступ
контролем
контролер
контроль
контрольно
контрольноі
контролю
контролював
контролювали
контролювати
контролюють
контролює
контролюється
контрреволюціи
контуру
конус
конуса
конф
конфедераціи
конфедерація
конфедераціі
конференции
конференціи
конференцію
конференція
конференціях
конференціі
конфесіи
конфлікт
конфлікти
конфлікту
конфлікті
конфліктів
конфігурація
конфігураціі
конфіденціи
концентраціи
концентрацію
концентрація
концентраціі
концепт
концепціи
концепцію
концепція
концепцією
концепціі
концерн
концерну
концерт
концертами
концертах
концерти
концертнии
концертних
концертного
концертні
концерту
концерті
концертів
концтабору
концтаборі
концтаборів
конче
коня
коні
конінського
кооператив
коопераціі
координат
координатами
координати
координатор
координаціи
координаціі
коп
копа
копалин
копалини
копальні
копенгаген
копенгагена
копенгагені
коперника
копівіо
копіи
копію
копіювання
копія
копією
копіі
кор
кора
корабель
кораблем
корабля
кораблями
кораблях
кораблі
кораблів
коран
корану
кордова
кордон
кордонах
кордони
кордоном
кордону
кордоні
кордонів
кореи
корекціі
кореляціі
кореня
корені
коренів
кореспондент
кореспонденти
кореспондентом
корея
кореі
кори
коридор
коридору
корисна
корисне
кориснии
корисним
корисними
корисних
корисно
корисного
корисною
корисноі
корисну
корисні
користувався
користувалася
користувалися
користування
користуванні
користуватися
користувач
користувача
користувачам
користувачами
користувачеві
користувачем
користувачка
користувачу
користувачі
користувачів
користуються
користуючись
користуєтеся
користується
користь
користі
коричнева
коричневе
коричневии
коричневими
коричнево
коричневого
коричневі
корм
корму
корнеліи
корнелія
корніи
коробка
коробки
коробкою
коробку
коробочка
коров
корова
корови
корозіі
королева
королеви
королевою
королеву
королеві
королем
короленка
король
корольова
королю
короля
королі
королів
королівств
королівства
королівство
королівством
королівству
королівстві
королівська
королівське
королівськии
королівським
королівських
королівського
королівському
королівською
королівськоі
королівську
королівські
королівськіи
корона
коронавірус
коронавірусноі
коронавірусу
коронація
коронаціі
корони
короннии
коронного
короною
корону
короні
коростенського
коростень
коротка
коротке
короткии
коротким
короткими
коротких
коротко
короткого
короткометражнии
короткометражних
короткометражні
короткому
короткою
короткоі
коротку
короткі
короткіи
коротша
коротше
коротшии
коротші
корпоративних
корпораціи
корпорація
корпорацією
корпораціі
корпус
корпуса
корпуси
корпусом
корпусу
корпусі
корпусів
корсакова
корсика
корсунь
кортах
кору
корупціи
корупція
корупцією
корупціі
корі
корів
корінних
корінного
коріння
корінням
корінні
корінь
кос
коса
коси
космодрому
космонавт
космонавтика
космонавтики
космонавтів
космос
космосу
космосі
космічна
космічнии
космічним
космічних
космічного
космічному
космічноі
космічні
косова
косово
коста
костанаи
костел
костелу
костелі
костенко
костомаров
костромская
костромськоі
кость
костьол
костюк
костюм
костюмах
костюми
костюмі
костюмів
костя
костянтин
костянтина
костянтинович
костянтином
костянтинівка
костянтинівна
кості
косів
кот
кота
котел
коти
котла
котли
котляревського
котлів
котовського
котра
котре
котрии
котрим
котрих
котрого
котрому
котроі
котру
котрі
котріи
котів
коул
кох
кохана
кохання
коцюбинського
кочові
кочівників
кошик
кошовии
кошового
кошти
коштом
коштував
коштує
коштів
коші
кою
коі
кп
кпк
кпм
кпп
кпрс
кпу
кпі
кр
кра
кравець
кравченко
кравчук
краз
краи
кракова
кракові
краків
краківськии
краківського
краматорськ
краматорська
крамниця
крамниці
кран
крао
краплі
краса
краси
красна
красная
красне
краснии
красноарміи
красного
краснодар
краснодарського
красноярського
красою
красу
красуня
кратер
кратера
кратери
кратерів
краткии
крах
краху
краща
краще
кращии
кращим
кращими
кращих
кращого
кращому
кращою
кращоі
кращу
кращі
краю
края
краями
краях
краєвид
краєвиди
краєзнавець
краєзнавства
краєзнавство
краєзнавці
краєзнавців
краєзнавчии
краєзнавчих
краєзнавчого
краєзнавчому
краєзнавчоі
краєзнавчі
краєм
краі
крб
кредит
кредити
кредитних
кредиту
кредитів
креи
крем
кременець
кременецькии
кременецького
кременчук
кременчука
кременчуцькии
кременчуцького
кременчуці
кремль
кремля
кремнію
кремінь
креслення
крива
кривбас
кривбасу
кривии
кривих
кривого
кривому
криворізькии
криворізького
кривоі
криві
криза
кризи
кризу
крик
крики
крикнув
крил
крила
крилами
крилатих
крилах
крило
крилом
крилі
крим
кримська
кримське
кримськии
кримським
кримських
кримського
кримському
кримськотатарського
кримськоі
кримські
криму
кримінальна
кримінальне
кримінальнии
кримінальних
кримінально
кримінального
кримінальному
кримінальноі
кримінальну
кримінальні
криниця
криниці
крип
кристал
кристала
кристали
кристалів
крит
критеріи
критерію
критеріям
критеріями
критерієм
критеріі
критик
критика
критиками
критики
критикою
критику
критикував
критикували
критикує
критиків
критиці
критична
критичнии
критичних
критично
критичного
критичноі
критичні
крихітка
кричить
криі
кров
крови
кровообігу
кровотечі
крові
крои
крок
кроки
кроком
кроку
кроків
крон
крона
кропив
кропивницькии
кропивницького
кропивницькому
крос
кроуфорд
кроці
круг
кругла
круглии
круглих
круглого
круглі
кругом
крук
крус
крутии
круто
круті
крушельницькоі
круі
крым
крыма
крячок
крігсмаріне
крізь
крік
крім
кріпаків
кріпацтва
кріпиться
кріплення
кріс
кріса
крісла
крісло
крістал
крістоф
крістофер
крісті
крістіан
крістіана
крістін
крістіна
кс
ксенія
кт
кто
ку
куб
куба
кубань
кубані
куби
кубка
кубках
кубки
кубкового
кубку
кубків
кубок
кубі
кубіи
кувеи
куди
кудись
кузнецов
кузнецова
кузня
кузнєцов
кузов
кузова
кузовом
кузьма
кузьменко
кузьмич
куи
кук
кука
кукурудза
кукурудзи
кулемет
кулемета
кулеметами
кулемети
кулеметів
кулею
кулик
куль
кульки
культ
культових
культові
культу
культур
культура
культурами
культурах
культури
культурна
культурне
культурнии
культурним
культурними
культурних
культурно
культурного
культурному
культурноі
культурну
культурні
культурою
культуру
культуры
культурі
кульчицькии
кулю
куля
кулі
куліш
куліша
кумарці
кун
кунео
куп
купа
купала
купе
купер
купець
купи
купив
купила
купили
купити
купол
купола
куполом
купу
купувати
купує
купця
купці
купців
купівлю
купівлі
кур
куратор
курбаса
курган
кургани
курганськоі
кургану
курганів
куре
куреи
куреня
кури
курка
курляндіі
курорт
курорти
курорту
курс
курсантів
курсах
курси
курсом
курсу
курсують
курсує
курська
курськоі
курсі
курсів
курт
куріння
курінь
кут
кута
кутами
кутах
кутаі
кути
кутку
кутом
кутузова
куті
кутів
кухар
кухня
кухні
кучер
кучма
кучми
кушнір
кущ
кущі
кущів
куявсько
куі
кшв
кшиштоф
кшталт
къ
кюрі
кюсю
кі
кібернетики
ків
кіз
кіи
кіл
кілець
кілограмів
кілометр
кілометрах
кілометри
кілометрів
кіль
кілька
кількома
кількостях
кількості
кількох
кількість
кількістю
кільце
кільцем
кільця
кільці
кіля
кім
кімнат
кімната
кімнати
кімнату
кімнаті
кін
кіна
кінг
кінга
кінгс
кінематограф
кінематографа
кінематографу
кінематографі
кінематографістів
кінематографіі
кінець
кіннии
кінних
кінного
кіннота
кінноти
кінноі
кінні
кіно
кіноакадеміі
кіноактор
кіноактори
кіноакторки
кінокомедія
кінокомедіі
кінокритиків
кіномистецтва
кінооператор
кінопреміі
кінопродюсер
кінопродюсери
кінорежисер
кінорежисери
кіностудія
кіностудіі
кінотеатр
кінотеатрах
кінотеатру
кінотеатрів
кінофестиваль
кінофестивалю
кінофестивалі
кінофільм
кінофільмів
кінських
кінцева
кінцевии
кінцевих
кінцевого
кінцевому
кінцевою
кінцевоі
кінцеві
кінцем
кінця
кінцями
кінцях
кінці
кінців
кінцівки
кінцівок
кінь
кіньми
кіото
кіпр
кіпру
кіпрі
кір
кіра
кірова
кіровоград
кіровоградська
кіровоградськоі
кіровська
кіровськоі
кістка
кістки
кісток
кість
кіт
кітт
кіш
кішка
кішки
кішок
л
ла
лабораторних
лабораторіи
лабораторію
лабораторія
лабораторією
лабораторіі
лабіринт
лав
лава
лавах
лави
лавка
лавки
лавра
лаврентіи
лаврентія
лаври
лаврі
лаві
лагуна
лад
лада
ладу
лаз
лазар
лазаря
лазні
лазурнии
лаи
лама
лами
ламп
лампа
лампи
лан
лана
лангедок
ланд
ландау
ланди
ланду
ландшафт
ландшафти
ландшафтнии
ландшафтного
ландшафтні
ландшафту
ландшафтів
ланді
лани
ланка
ланки
ланкою
ланок
ланцетні
ланцюг
ланцюга
ланцюги
ланцюгом
ланцюгів
ланцюжок
ланці
лао
лаос
лаосу
лапи
лапки
лара
лариса
ларрі
ларс
лас
ласка
ласкаво
ласки
ласло
ластівка
лат
латвіи
латвія
латвіі
латини
латиною
латинська
латинськии
латинських
латинського
латинською
латинськоі
латинську
латинські
латинськіи
лаура
лауреат
лауреата
лауреати
лауреатка
лауреатом
лауреатів
лаціо
лгбт
лд
лдкард
ле
лебедєв
лебідь
лев
лева
левенець
леви
левиц
левицькии
левицького
левко
левом
левченко
леві
левів
левін
легенд
легенда
легендарнии
легендарного
легенди
легендою
легенду
легень
легені
легенів
легка
легкии
легким
легких
легко
легкоатлет
легкоатлети
легкоатлетка
легкових
легкого
легкою
легкоі
легкі
легкіи
легше
легіон
легіонери
легіонерів
легіону
ледве
ледь
леді
лежав
лежала
лежали
лежать
лежачи
лежить
лез
леи
лексика
лексики
лекціи
лекція
лекціі
лелека
лем
лемківщини
лен
лена
ленд
ленинград
ленко
лену
ленфільм
лені
ленін
леніна
ленінград
ленінграда
ленінградська
ленінградськии
ленінградського
ленінградському
ленінградськоі
ленінграді
ленінська
ленінськии
ленінського
ленінськоі
леніну
лео
леон
леона
леонард
леонардо
леоне
леонтовича
леонтіи
леонід
леоніда
леонідович
леонідівна
леопольд
леопольда
леп
лепкого
лер
лера
лермонтова
лерс
лес
лесбіи
леслі
лесото
лестер
лесь
леся
лесі
лет
летить
летию
летопись
летять
лех
лечче
лз
ли
либідь
лижних
лижні
лик
лиман
лимани
лиману
лип
липа
липень
липецкои
липецькоі
липи
липинськии
липинського
липко
липня
липні
лис
лиса
лисенка
лисенко
лисиця
лисиці
лисичанськ
лист
листа
листами
листах
листи
листка
листки
листків
листові
листок
листом
листоп
листопад
листопада
листопаді
листочки
листування
листя
листям
листяних
листі
листів
листівки
листівок
лися
лит
литва
литви
литвин
литвиненка
литвиненко
литвою
литву
литві
литература
литературы
литовська
литовське
литовськии
литовським
литовських
литовсько
литовського
литовському
литовськоі
литовські
лиха
лихо
лиц
лицар
лицарськии
лицарського
лицаря
лицарі
лицарів
лице
лицем
лиця
личаківському
личинка
личинки
личинок
лиш
лишаи
лишається
лише
лишень
лишився
лишились
лишилися
лишилося
лишити
лк
лксму
лл
ллои
лнр
лну
ло
лоб
лобі
лов
лова
лович
ловича
ловлять
лові
логои
логос
логотип
логотипи
логотипу
логіка
логіки
логікою
логіку
логічних
логічно
логічного
логічні
лодзинського
лодзь
лодзі
ложі
лози
лозова
лои
лок
локальних
локально
локального
локальні
локалізаціі
локалізовании
локаціі
локомотив
локомотива
локі
лом
ломбардія
ломжинського
ломоносова
лон
лонг
лондон
лондона
лондонськии
лондонського
лондонському
лондоні
лопес
лор
лора
лоран
лорд
лорда
лордом
лордів
лорен
лоренсо
лоренцо
лорі
лос
лось
лот
лотарингія
лотарингіі
лоу
лоуренс
лох
лс
лтд
лу
луар
луара
луаре
луари
луб
лубенськии
лубенського
лубни
лувр
луг
луганськ
луганська
луганськии
луганського
луганськоі
луганську
луганськіи
луганщині
лук
лука
лукас
луках
лукаш
лукашенко
луки
луків
луна
луски
луценко
луцьк
луцька
луцькии
луцького
луцькоі
луцьку
луціи
луція
луч
луі
ль
льва
львов
львова
львович
львові
львів
львівська
львівське
львівськии
львівських
львівського
львівському
львівськоі
львівську
львівські
львівськіи
львівщини
львівщині
льнии
льович
льодовик
льодовика
льодовики
льодовиковии
льодовикового
льодовиків
льодом
льоду
льон
льотні
льотчик
льотчика
льотчики
льотчиків
льська
льськии
льських
льського
льськоі
льські
льюі
льєж
лю
люба
любив
любии
любила
любили
любителів
любити
любить
люблю
люблять
люблін
люблінське
люблінського
любліні
любов
любовь
любові
любомир
любуського
люд
людвіг
людвіга
людвік
люде
людеи
люди
людина
людини
людиною
людину
людині
людмила
людмили
людовик
людовика
людовіка
людства
людство
людська
людське
людськии
людських
людського
людськоі
людську
людські
люду
людьми
людям
людях
люк
люка
люкс
люксембург
люксембургу
люксембурзі
люсі
лют
лютера
лютеранська
лютии
лютинська
лютневоі
лютого
лютому
люті
люфтваффе
ля
лягла
лягли
ляене
ляи
лялька
ляльки
ляльок
лян
лі
ліберальна
ліберальноі
лібералів
лібертадорес
ліберіі
лібрето
лів
ліва
ліван
лівану
лівані
ліве
ліверпуль
ліверпуля
лівии
лівим
лівих
лівка
лівна
лівобережжя
лівобережжі
лівобережноі
лівого
лівому
ліворно
ліворуч
лівою
лівоі
лівська
лівськии
лівського
лівськоі
ліву
ліві
лівіи
лівінгстон
лівія
лівіі
ліг
ліга
лігах
ліги
лігою
лігу
лід
лідер
лідера
лідерами
лідери
лідером
лідерство
лідерів
лідс
лідія
ліжка
ліжко
ліжку
ліжок
ліз
ліза
лізі
ліи
лікар
лікарем
лікарень
лікарню
лікарня
лікарнях
лікарні
лікарська
лікарськии
лікарських
лікарські
лікаря
лікарі
лікарів
ліквідацію
ліквідація
ліквідаціі
ліквідована
ліквідовании
ліквідовано
ліквідовані
ліквідувати
ліки
ліком
лікувався
лікувальних
лікувально
лікування
лікуванні
ліків
лілля
лілі
лілія
ліма
лін
ліна
лінгвіст
лінгвістики
лінда
ліндсі
лінзи
лінкольн
лінкольна
лінкор
лінкора
лінкори
лінкорів
лінн
лінь
лініи
лінію
лінія
лініями
лініях
лінією
лініі
ліон
ліона
ліпше
ліпідів
лір
ліра
лірика
лірики
ліс
ліса
лісабон
лісабона
лісабоні
лісами
лісах
ліси
лісництва
лісництво
лісова
лісове
лісовии
лісових
лісового
лісовому
лісовоі
лісові
лісом
лісостеповоі
лісостепу
ліст
лісу
лісі
лісів
літ
літа
літак
літака
літаками
літаках
літаки
літаком
літаку
літаків
літальних
літати
літають
літер
літера
літерами
літератор
літераторів
література
літератури
літературна
літературне
літературнии
літературним
літературних
літературно
літературного
літературному
літературною
літературноі
літературну
літературні
літературніи
літературознавець
літературознавство
літературознавці
літературою
літературу
літературі
літери
літерою
літеру
літнього
літньоі
літню
літня
літні
літніи
літніх
літо
літом
літопис
літописах
літописець
літопису
літописця
літописі
літровии
літрів
ліття
літургіи
літургія
літургіі
ліфс
ліхтарі
ліхтенштеи
ліцеи
ліцензування
ліцензіи
ліцензію
ліцензія
ліцензією
ліцензіі
ліцею
ліцеі
лія
м
ма
мабуть
мав
маверікс
мавзолеи
мавп
мавпи
маврикіи
мавританіі
мався
маг
магазин
магазинах
магазини
магазину
магазині
магазинів
магараджа
магдалена
магдалини
магдебурзьке
магнатів
магнус
магнітне
магнітнии
магнітних
магнітного
магнітні
магнію
магістр
магістра
магістраль
магістралі
магістрату
магічні
магія
магіі
мадагаскар
мадагаскару
мадам
мадеи
мадлен
мадонна
мадрид
мадрида
мадриді
мажор
мажоритарники
мажуга
маз
мазепа
мазепи
мазовецького
мазур
мазурського
маи
мак
макао
макар
макаренка
макаренко
макаров
макарова
макдональд
македонськии
македонського
македонськоі
македонія
македоніі
макет
маккабі
маккартні
маккеи
маккензі
макс
макса
максим
максима
максимальна
максимальне
максимальнии
максимально
максимального
максимальною
максимальноі
максимальну
максимович
максимум
максимуму
максиміліан
максиміліана
макіі
мал
мала
малаві
малаи
малась
малася
малдер
мале
маленька
маленьке
маленькии
маленьким
маленькими
маленьких
маленького
маленькому
маленькоі
маленьку
маленькі
мали
малии
малим
малими
мались
малися
малих
мало
малого
малои
малому
малопольського
малороссии
малоросіи
малося
малою
малоі
малу
мальме
мальта
мальти
мальті
мальтіи
малював
малювання
малювати
малюк
малюнка
малюнками
малюнки
малюнком
малюнку
малюнків
малюнок
малює
маляр
маляріі
малі
маліи
малік
мама
мами
мамо
ман
мана
манга
манганова
мандат
мандатів
мандри
мандрівник
мандрівника
мандрівники
мандрівників
маневр
манера
манери
манері
маними
маних
манн
мання
мансур
мансіи
ману
мануель
мануі
манців
манчестер
манш
маньчжуріі
мані
маніпуляціі
маніфест
манґа
манґи
мао
маорі
мапа
мапи
мапі
мар
мара
марафон
марганцю
маргарет
маргарита
маргарити
мардж
маре
марина
марини
марино
мария
марк
марка
марказі
марках
маркграф
маркевич
маркетинг
маркетингу
марки
марко
марков
маркова
маркович
марком
маркою
маркс
маркса
марксизму
марку
маркування
маркус
маркіз
маркіза
мармур
мармуру
марна
марно
марок
марокко
марс
марса
марсель
марселя
марсі
марта
мартен
марти
мартин
мартина
мартинюк
марті
мартін
мартіна
мартінес
мартіном
мару
маруся
марченко
марш
маршал
маршала
маршалл
маршалок
маршрут
маршрутах
маршрути
маршрутом
маршруту
маршруті
маршрутів
маршу
марші
марі
маріанна
маріи
маріо
маріуполь
маріупольського
маріуполя
маріуполі
марію
марія
марією
маріі
мас
маса
маси
масив
масиви
масивні
масиву
масиві
масивів
маска
маски
маску
масла
маслихата
масло
масова
масове
масовии
масовим
масових
масово
масового
масовоі
масову
масові
масовіи
масок
масою
массачусетс
масу
масштаб
масштабах
масштаби
масштабних
масштабні
масштабу
масштабі
масштабів
масі
мат
матвіи
матвія
матвієнко
матвіі
матеи
математик
математика
математики
математику
математиків
математиці
математична
математичне
математичнии
математичних
математичного
математичноі
математичні
матер
матери
материалов
материалы
материка
материнськоі
материнськіи
матері
матеріал
матеріалами
матеріалах
матеріали
матеріалом
матеріалу
матеріальна
матеріальних
матеріально
матеріального
матеріальноі
матеріальну
матеріальні
матеріалі
матеріалів
матерів
матеріі
мати
матильда
матиме
матимуть
матись
матися
матки
матриць
матрицю
матриця
матриці
матрос
матросів
мату
матч
матчах
матчем
матчу
матчі
матчів
матір
маунт
мафіі
мах
махмуд
махно
мацеи
мач
мача
маша
машин
машина
машинами
машинах
машини
машиннии
машинно
машинного
машинобудування
машинобудівнии
машинобудівного
машиною
машину
машині
машиніст
маю
мають
маються
маючи
маючись
мая
маяк
маяковського
маямі
має
маємо
маєр
маєте
маєтки
маєтком
маєтку
маєтків
маєтності
маєток
мається
маєш
маі
мб
мв
мвс
мвт
мвф
мг
мгу
мгц
мдб
мду
ме
меблі
меблів
мед
медалеи
медаллю
медаль
медальи
медальнии
медалями
медалі
медаліст
медалісти
медалістка
медведєв
меджибіж
меджик
медик
медики
медико
медиків
медицина
медицини
медицину
медицині
медична
медичне
медичнии
медичним
медичних
медичного
медичному
медичноі
медичну
медичні
медичніи
медресе
медсестра
меду
медіа
медіана
медіи
медісон
медічі
меж
межа
межами
межах
между
межею
межи
межиріччя
межу
межує
межі
мез
меи
мекленбург
мексика
мексиканська
мексиканськии
мексиканського
мексиканськоі
мексиканські
мексики
мексико
мексиці
мелодрама
мелодрами
мелодіи
мелодію
мелодія
мелодіі
мельбурн
мельбурні
мельник
мельника
мельников
мельничук
мелітополь
мелітопольського
мембрани
мембрані
меморандум
меморіал
меморіалу
меморіальна
меморіальнии
меморіального
меморіальну
меморіальні
мемуари
мемфіс
мен
мене
менеджер
менеджера
менеджери
менеджером
менеджерів
менеджмент
менеджменту
менна
меннии
менники
менним
менного
менному
менною
менноі
менніи
менована
меноване
меновании
меновано
меновані
меновувати
менував
менували
менування
менуванням
менувань
менувати
менш
менша
менше
меншии
меншим
меншими
меншин
меншини
менших
меншого
меншості
меншою
меншоі
меншу
менші
меншіи
меню
меня
мені
мер
мера
мереж
мережа
мережах
мережевих
мережею
мережу
мережі
мерк
меркуріи
меркурія
мером
мерседес
мерт
мертва
мертвии
мертвим
мертвих
мертвого
мертві
мерфі
мері
меріленд
меріі
меса
месники
месників
месопотаміі
мессьє
мессі
место
мет
мета
метаболізм
метаболізується
метаболітів
метал
металевии
металевими
металевих
металеві
метали
металу
металург
металурга
металургіи
металургія
металургіі
металів
металіст
металіста
метання
метану
метелик
метелики
метеликів
мети
метод
методами
методи
методик
методика
методики
методику
методист
методичнии
методичних
методичноі
методичні
методологія
методологіі
методом
методу
методы
методів
метою
метр
метра
метрах
метри
метрична
метричні
метро
метровии
метрополіи
метрополітен
метрополітену
метрополіі
метрів
метт
меттью
мету
метью
меті
мефодіи
мефодія
механізаціі
механізм
механізми
механізмом
механізму
механізмів
механізована
механізовании
механізованого
механізованоі
механік
механіка
механіки
механіко
механічна
механічнии
механічних
механічного
механічноі
механічні
мехмед
мехіко
меца
меценат
меч
меча
мечами
мечем
мечеть
мечеті
мечникова
мечі
мешкав
мешкала
мешкали
мешкало
мешканець
мешканця
мешканцям
мешканцями
мешканці
мешканців
мешкають
мешкає
мещера
мещериборовков
мзс
ми
микита
микити
микитович
мико
микола
миколаи
миколая
миколаєва
миколаєві
миколаі
миколи
миколою
миколу
миколі
мила
милии
милосердя
миль
милях
милі
мимоволі
мини
минск
минув
минуле
минулии
минулим
минулих
минуло
минулого
минулому
минулі
мир
мира
миргород
миргородськии
миргородського
мире
мирне
мирнии
мирним
мирних
мирно
мирного
мирноі
мирну
мирні
мирович
мировои
миром
мирон
мирослав
мирослава
миротворець
миру
мис
мислення
мисливець
мисливці
мисливців
мист
мистецтв
мистецтва
мистецтво
мистецтвознавець
мистецтвознавства
мистецтвознавці
мистецтвом
мистецтву
мистецтві
мистецька
мистецькии
мистецьких
мистецького
мистецькоі
мистецькі
мису
мисі
мита
митець
митнии
митних
митниці
митного
митноі
митрополит
митрополита
митрополитом
митрополія
митрополіі
миттєво
митця
митці
митців
мить
миха
михаи
михаил
михаі
миша
мишеи
миші
мища
мк
мкм
мкс
мкф
мл
млин
млина
млини
млинів
млн
млрд
мм
мн
мне
много
множення
множествѣ
множин
множина
множини
множиною
множину
множині
мною
мнс
мні
мо
мобільнии
мобільних
мобільного
мобільні
мобілізацію
мобілізаціі
мобілізовании
мов
мова
мовами
мовах
мови
мовив
мовии
мовити
мовлення
мовляв
мовна
мовнии
мовних
мовного
мовноі
мовні
мовознавець
мовознавства
мовознавство
мовознавці
мовою
мову
мовчання
мовчки
мові
мовірнии
мовірним
мовірно
мовірностеи
мовірності
мовірні
мовірність
мовірністю
могил
могила
могили
могилою
могилу
могильник
могилянська
могилянськоі
могилі
могилів
могла
могли
могло
мого
моголів
могутності
могутніи
могутність
мод
мода
моделеи
моделлю
модель
модельнии
моделювання
моделями
моделях
моделі
модерн
модерну
модернізацію
модернізація
модернізаціі
модернізму
модернізовании
моди
модифікаціи
модифікація
модифікаціі
моду
модулем
модуль
модуля
модулі
модулів
можаи
може
можемо
можете
можеш
можлива
можливе
можливии
можливим
можливими
можливих
можливо
можливого
можливостеи
можливостями
можливості
можливою
можливоі
можливу
можливі
можливість
можливістю
можна
можно
можу
можуть
моз
мозамбіку
мозаі
мозель
мозку
мозок
мои
мок
мол
молдавського
молдавськоі
молдавіі
молдова
молдови
молдовськии
молдові
молекул
молекула
молекули
молекулярна
молекулярних
молекулярно
молекулярноі
молитва
молитви
молитву
молитовнии
молода
молоддю
молоде
молодии
молодим
молодими
молодих
молодого
молодому
молодості
молодою
молодоі
молоду
молодша
молодше
молодшии
молодшим
молодших
молодшого
молодшому
молодшою
молодшоі
молодші
молодь
молоді
молодіжна
молодіжнии
молодіжних
молодіжного
молодіжному
молодіжноі
молодіжну
молодіжні
молодіжніи
молодість
молока
молоко
молоком
молот
молота
молотова
молочнии
молочних
молочно
молочноі
моль
молюски
молюсків
мом
момент
моменти
моментом
моменту
моментів
мон
мона
монако
монарх
монарха
монархи
монархів
монархія
монархіі
монастир
монастирем
монастирськии
монастирські
монастирю
монастиря
монастирі
монастирів
монах
монахи
монахів
монголи
монголо
монгольська
монгольського
монгольськоі
монголів
монголія
монголіі
монд
монет
монета
монетах
монети
монетнии
монетного
монету
монография
монографіи
монографію
монографія
монографіі
мономаха
монпельє
монреаль
монреалі
монро
монстр
монстра
монстрів
монтаж
монтажу
монтана
монтгомері
монте
монтевідео
монумент
монументального
моніка
монітор
монітори
моніторинг
моніторингу
мор
мора
моравіі
мораль
моральнии
моральних
морально
морального
моральноі
моральні
моралі
морган
морда
мордва
мордовія
мордовіі
море
морем
морено
моро
мороз
морозов
морозова
морріс
морська
морське
морськии
морським
морськими
морських
морського
морському
морською
морськоі
морську
морські
морськіи
морфологічні
морфологія
морфологіі
моря
моряк
моряки
моряків
морях
морі
морів
моріс
моріса
моск
москаленко
москаль
москва
москви
москвою
москву
москвы
москві
московская
московскии
московского
московскои
московська
московське
московськии
московським
московських
московсько
московського
московському
московськоі
московську
московські
московськіи
московіі
моста
мости
мостом
мосту
мостів
мосфільм
мотив
мотивами
мотиваціі
мотиви
мотивів
мотор
мотора
мотором
мотострілецькии
мотоцикл
мотоцикли
мотоциклів
мохамед
мохаммед
моцарт
моцарта
мощеи
мощі
мою
моя
моє
моєму
моєю
моєі
моі
мп
мпа
мрнк
мріи
мрію
мрія
мріяв
мріє
мріі
мс
мса
мсом
мсоп
мстислав
мстислава
мт
мтс
му
мудрии
мудрого
мудрості
мудрість
мужності
мужність
муз
муза
музеи
музею
музеях
музеєм
музеі
музика
музикант
музиканта
музикантами
музиканти
музикантом
музикантів
музики
музикознавець
музикою
музику
музиці
музична
музичне
музичнии
музичним
музичними
музичних
музично
музичного
музичному
музичноі
музичну
музичні
музичніи
музыка
муи
мукачеве
мукачево
муки
мультимедіи
мультиплікаціи
мультсеріал
мультсеріалу
мультсеріалі
мультфільм
мультфільми
мультфільму
мультфільмів
мун
муниципального
муниципальное
муниципальных
муніципальна
муніципальне
муніципальнии
муніципальних
муніципального
муніципальноі
муніципальні
муніципалітет
муніципалітети
муніципалітетом
муніципалітету
муніципалітеті
муніципалітетів
мур
мура
мурави
мурад
мурах
муреш
мури
мурована
муром
мурома
муру
мурів
муса
мусив
мусили
мусимо
мусить
муссоліні
мустафа
мусульман
мусульманами
мусульмани
мусульманських
мусульманського
мусульманські
мусять
мусі
мусів
мутаціі
муть
муха
мухаммад
мухаммада
мухаммед
мухаммеда
мухи
мухоловка
мучеників
мушу
мфк
мъ
мы
мысль
мюзикл
мюзиклу
мюллер
мюнхен
мюнхена
мюнхені
мюрреи
мядельського
мі
мів
міг
мігель
мігрантів
міграціи
міграція
міграціі
мідних
мідно
мідні
мідь
міді
між
міжвоєннии
міжконтинентального
міжнар
міжнародна
міжнародне
міжнароднии
міжнародним
міжнародними
міжнародних
міжнародно
міжнародного
міжнародному
міжнародною
міжнародноі
міжнародну
міжнародні
міжнародніи
міи
міка
мікеланджело
міккі
мікробіологіі
мікроорганізмів
мікрораи
мікрофон
мікстеи
мілан
мілана
мілані
міллер
міллера
мілуокі
мільи
мільярда
мільярди
мільярдів
міліметрів
міліція
міліціі
мін
міна
мінас
мінерал
мінерали
мінеральних
мінеральноі
мінеральні
мінералів
міни
міннесота
міннесоти
мінних
міноборони
мінометного
мінометів
міноносець
міноносці
міноносців
мінор
мінск
мінская
мінськ
мінська
мінськии
мінського
мінськоі
мінську
мінус
міняти
міні
мініальбом
мініатюр
мініатюри
мінімальна
мінімальнии
мінімальним
мінімально
мінімальні
мінімум
мінімуму
міністерств
міністерства
міністерство
міністерством
міністерству
міністерстві
міністр
міністра
міністри
міністром
міністру
міністрів
міокарда
міоцену
мір
міра
міранда
мірза
міри
міркування
міркувань
мірошниченко
мірою
міру
мірі
міс
міссурі
міссісіпі
міст
міста
містами
містах
містер
містера
містечка
містечко
містечком
містечку
містечок
містив
містився
містила
містилася
містили
містилися
містити
містить
міститься
місткість
місткістю
місто
містобудування
місток
містом
місту
містян
містять
містяться
місті
місц
місце
місцева
місцеве
місцевии
місцевим
місцевими
місцевих
місцевого
місцевому
місцевостеи
місцевостях
місцевості
місцевою
місцевоі
місцеву
місцеві
місцевіи
місцевість
місцевістю
місцезнаходження
місцем
місць
місця
місцями
місцях
місці
міська
міськвиконкому
міське
міськии
міським
міських
міського
міському
міською
міськоі
міськради
міську
міські
міськіи
місяцем
місяць
місяця
місяцями
місяці
місяців
місячнии
місячних
місячного
місячноі
місіи
місіонер
місіонерів
місіс
місію
місія
місією
місіі
мітинг
мітинги
мітингу
мітохондріі
мітропи
мітчелл
міф
міфи
міфологія
міфологіі
міфу
міфів
міхаель
міхал
міхура
міцкевича
міцнии
міцно
міцності
міцні
міцність
міць
мічиган
мічигану
мішель
мішеля
мішені
мішок
міщан
міщани
н
на
набагато
набережна
набирав
набирати
набирає
наближається
наближення
наближенням
набори
набором
набору
наборів
набою
набоі
набрав
набравши
набрала
набрали
набраних
набрати
набряк
набу
набув
набувати
набувають
набуває
набула
набули
набуло
набуття
набіги
набігів
набіи
набір
нав
наважився
навали
навантаження
навантаженням
навантажень
наварри
наведена
наведении
наведених
наведення
наведено
наведені
навесні
навести
нави
навички
навичок
навколишнього
навколишнє
навколишні
навколишніх
навколо
навкруги
навмисне
навмисно
наводить
наводиться
наводяться
навпаки
навпроти
навпіл
навратілова
навряд
навч
навчав
навчався
навчалась
навчалася
навчали
навчалися
навчалося
навчальна
навчальнии
навчальним
навчальними
навчальних
навчально
навчального
навчальному
навчальноі
навчальні
навчання
навчанням
навчаннях
навчанні
навчань
навчати
навчатися
навчаються
навчаючись
навчається
навчив
навчився
навчити
навчитися
навів
навігаціи
навігаціі
навіки
навіть
навіщо
нагадував
нагадували
нагадують
нагадує
наггетс
нагляд
наглядовоі
наглядом
нагляду
нагоди
наголос
нагород
нагорода
нагородами
нагороджена
нагороджении
нагороджених
нагородження
нагороджено
нагороджені
нагороди
нагородив
нагородили
нагородою
нагороду
нагору
нагруднии
нагрудним
нагрівання
нагріванні
нагір
нагірно
над
надав
надавав
надавала
надавали
надавати
надавши
надала
надали
надало
надалі
надана
надании
надання
наданням
наданні
надано
надані
надати
надають
надаються
надаючи
надає
надається
надбання
надводних
надгробок
наделении
надзвичаи
надлишок
надмірне
надмірно
надовго
надр
надродина
надрукована
надруковании
надруковано
надруковані
надрукував
надсяння
надто
надходження
надходили
надходити
надходить
надходять
надя
наді
надіи
надіслав
надіслати
надію
надія
надією
надіі
наживо
назавжди
назад
назар
назаренко
назв
назва
назвав
назвавши
назвала
назвали
назвами
названа
назване
названии
названих
названо
названого
названі
назвати
назвах
назви
назвою
назву
назві
наземнии
наземних
наземного
наземні
називав
називався
називалась
називалася
називали
називалися
називалось
називалося
називати
називатися
називають
називаються
називаючи
називає
називається
назовні
назустріч
наи
нак
наказ
наказав
наказано
накази
наказом
наказу
наказує
наказів
наклав
наклад
накладом
наклеп
накопичення
налагодження
налагодити
налаштовані
налаштування
належав
належала
належали
належало
належати
належать
належить
належне
належним
належного
належності
належноі
належність
наливаи
наліт
налічував
налічувала
налічувало
налічувалось
налічувалося
налічує
налічується
нам
намагався
намагалася
намагались
намагалися
намагання
намагатися
намагаються
намагаючись
намагається
намалював
намет
нами
намисто
намібіі
намір
наміри
наміром
наміру
намірів
намісник
намісника
намісником
намісництва
нан
нанесення
наново
нансі
нанта
нану
наомі
напав
напад
нападали
нападають
нападає
напади
нападник
нападника
нападники
нападників
нападу
нападі
нападів
напали
напасти
напевне
напевно
наперед
напередодні
напис
написав
написавши
написала
написали
написами
написана
написане
написании
написаних
написання
написанням
написанні
написано
написаного
написану
написані
написати
написи
написом
напису
написів
наповнення
напоки
наполегливо
наполеон
наполеона
наполеонівських
наполовину
наполягав
наполяганням
наполягає
наполі
напорі
напою
напоі
напр
направив
направили
направити
направлена
направлении
направлення
направлено
направлені
направо
наприклад
наприкінці
напруга
напруги
напругою
напругу
напруження
напруженості
напруженість
напрям
напрямами
напрями
напрямками
напрямках
напрямки
напрямком
напрямку
напрямків
напрямок
напрямом
напряму
напрямі
напрямів
напів
напіввиведення
напівпровідників
напіи
напір
нар
нара
нарада
наради
нараді
нараз
наразі
нараховував
нараховувала
нараховувало
нараховувалось
нараховувалося
нараховує
нараховується
нарахування
наречена
наречении
нареченого
нареченоі
нарешті
нарис
нариси
нарисів
наркотиками
наркотики
наркотиків
наро
народ
народа
народами
народжении
народження
народженні
народжені
народжуваності
народжуваність
народжує
народжується
народи
народився
народила
народилась
народилася
народились
народилися
народилося
народна
народне
народнии
народним
народними
народних
народно
народного
народному
народності
народною
народноі
народну
народні
народніи
народніх
народов
народові
народом
народу
народі
народів
наруто
нарівні
нарід
нас
наса
насадження
насаджень
насамперед
население
населении
населеними
населених
населения
населенных
населенню
населення
населенням
населенні
населеного
населеному
населені
населяли
населяють
населяє
насилля
насильно
насильства
насильство
наскільки
наслідками
наслідки
наслідком
наслідків
наслідок
наслідування
насос
насоси
насправді
нассау
настав
наставник
наставника
наставником
настала
настання
настанов
настанови
настає
настоятелем
настоятель
настоятеля
настрою
настроі
настріи
наступ
наступальних
наступальноі
наступна
наступне
наступнии
наступник
наступника
наступником
наступним
наступними
наступних
наступного
наступному
наступною
наступноі
наступну
наступні
наступніи
наступу
настя
настільки
насьи
насіння
насінням
наталка
наталя
наталі
наталія
наталіі
натан
наташа
натиском
нато
натовп
натовпу
натомість
натрію
натуральне
натуральних
натуралізовані
натураліст
натхненнии
натхнення
натюрморт
натяк
нау
наук
наука
науках
науки
наукма
наукова
наукове
науковець
науковии
науковим
науковими
наукових
науково
наукового
науковому
науковою
науковоі
наукову
науковця
науковцями
науковці
науковців
наукові
науковіи
наукою
науку
науменко
науру
науці
науч
научно
нафта
нафти
нафтовик
нафтових
нафтового
нафтовоі
нафтові
нафтопродуктів
нафту
нах
нахил
нахилу
нац
нацистами
нацисти
нацистських
нацистського
нацистською
нацистськоі
нацистів
націи
націонал
національна
національне
національнии
національним
національними
національних
національно
національного
національному
національностеи
національності
національною
національноі
національну
національні
національніи
національність
національністю
націоналізм
націоналізму
націоналісти
націоналістів
націю
нація
націі
нач
начала
начало
начальник
начальника
начальники
начальником
начальників
начальствующих
наче
начебто
начиння
наш
наша
наше
нашим
нашими
наших
нашого
нашому
нашоі
нашу
наші
нашіи
нащадками
нащадки
нащадком
нащадків
нащадок
нащо
ная
наявна
наявне
наявнии
наявних
наявного
наявності
наявноі
наявні
наявність
наявністю
наі
нба
нбу
нв
нвк
нво
нг
нгу
нд
нда
нджерс
ндр
ндрович
нді
не
неактивних
неаполь
неаполя
неаполі
неба
небагато
небагатьох
небажання
небаи
небезпека
небезпеки
небезпеку
небезпеці
небезпечна
небезпечнии
небезпечним
небезпечними
небезпечних
небезпечно
небезпечні
небес
небеса
небесна
небеснии
небесних
небесного
небесноі
небо
небом
небраска
небудь
небі
невада
невдалии
невдалим
невдалих
невдало
невдалого
невдалою
невдалоі
невдач
невдачею
невдачі
невдовзі
невдоволення
невелика
невелике
невеликии
невеликим
невеликими
невеликих
невеликого
невеликому
невеликою
невеликоі
невелику
невеликі
невеликіи
невеличка
невеличкии
невеличку
невеличкі
невже
невизначении
невизначеності
невиконання
неволі
невського
невід
невідома
невідоме
невідомии
невідомим
невідомими
невідомих
невідомо
невідомого
невідомоі
невідомі
невідповідність
невільні
негаи
негативне
негативнии
негативним
негативних
негативно
негативного
негативну
негативні
него
недавно
недалеко
недовго
недолік
недоліки
недоліком
недоліків
недопущення
недостатності
недостатньо
недостатня
недостатність
недригаи
недіи
неділю
неділя
неділі
нез
незабаром
незавершені
незадовго
незадоволении
незадоволення
незаи
незаконне
незаконним
незаконними
незаконно
незаконного
незалежна
незалежне
незалежнии
незалежним
незалежними
незалежних
незалежно
незалежного
незалежності
незалежною
незалежноі
незалежну
незалежні
незалежніи
незалежність
незважаючи
незвичаи
нездатність
нездіи
незмінним
незмінно
незмінною
незнаи
незначна
незначнии
незначними
незначних
незначно
незначну
незначні
незрозуміло
неи
некатегоризовані
некомерціи
некоторые
некоторых
некролог
некрополь
нелегально
неллі
нельсон
нелініи
нем
нема
немало
немає
неминуче
немов
немовля
немовлям
немовлят
неможливе
неможливим
неможливо
неможливості
неможливість
нен
ненависть
ненависті
ненадовго
ненадіи
неначе
ненсі
необов
необхідна
необхідне
необхіднии
необхідним
необхідними
необхідних
необхідно
необхідного
необхідності
необхідною
необхідноі
необхідну
необхідні
необхідність
необхідністю
неодмінно
неодноразово
неоліту
неофіціи
неохоче
непал
непалу
непалі
неперевіреними
неповнии
неповнолітніх
непогано
неподалік
непомітно
непорозуміння
непорочного
неправильно
неприи
непристои
нептун
нептуна
нер
нера
нерв
нерва
нерви
нервових
нервовоі
нервів
нери
нером
нерухомих
нерухомості
нерухомість
нерів
нерівності
нерівність
нерідко
несе
нескінченно
нескінченності
несли
несподівано
неспокіи
несприятливих
нестача
нестачу
нестачі
нестеренко
нести
нестор
нестора
нестіи
несуть
нет
нетрадиціи
нетривалии
нехаи
нець
нечасто
нечисленні
неш
нещаснии
нещасного
нещастя
нещодавно
нею
неі
ни
нива
ниви
ниві
нижегородская
нижньо
нижнього
нижньогородськоі
нижньому
нижньосілезького
нижньою
нижньоі
нижню
нижня
нижнє
нижні
нижніи
нижніх
нижча
нижче
нижчии
нижчим
нижчих
нижчого
нижчою
нижчоі
нижчу
нижчі
низ
низка
низки
низкою
низку
низовини
низу
низці
низька
низькии
низьким
низькими
низьких
низько
низького
низькою
низькоі
низьку
низькі
нии
ник
ника
никерівнии
ники
никифор
никифорович
николаев
николаи
ників
ним
ними
нині
нинішнього
нинішньоі
нинішня
нинішніи
нинішніх
нирки
нирок
нисекретарі
нитка
нитки
ниток
них
ниця
нищівноі
нк
нка
нквд
нквс
нки
нко
нланд
нло
нм
нн
нна
ння
но
нобелівська
нобелівськоі
нобелівську
нов
нова
новак
нована
новане
новании
новано
нованого
новані
новатор
новачка
новачків
новачок
новая
новгород
новгорода
новгородская
новгородськии
новгородськоі
новгороді
нове
новел
новела
новели
новии
новиков
новим
новими
новин
новина
новини
нових
нович
ново
новоаи
нововведення
нового
новоград
новое
новомиколаі
новомосковськ
новому
новонароджених
новоросіи
новоселівка
новосибирскои
новосибірськ
новосибірськоі
новоствореного
новоствореноі
новости
новосілки
новотроі
новоукраі
новоутвореного
новоутвореноі
новою
новоі
нову
новые
новыи
нові
новіи
новітньоі
новітня
новітні
новітніи
новітніх
нога
ногаи
ногами
ногах
ноги
ного
ногою
ногу
ножа
ножем
ножі
нознавства
нои
нок
нокаутом
ном
номенклатура
номенклатури
номер
номера
номерами
номери
номерні
номером
номері
номерів
номовнии
номовних
номовноі
номовні
ному
номінал
номіналом
номінально
номінант
номінанта
номінатора
номінаціи
номінацію
номінація
номінаціях
номінаціі
номінована
номіновании
номіновано
номінувати
нор
нора
норвегія
норвегіі
норвезька
норвезькии
норвезьких
норвезького
норвезькоі
норвезькі
нори
норм
норма
нормальна
нормальнии
нормальним
нормальних
нормально
нормального
нормальноі
нормальні
нормам
нормами
норман
нормандія
нормандіявиписка
нормандіі
нормативних
нормативно
нормативных
норми
нормою
норму
норт
норфолк
носа
носив
носила
носили
носити
носить
носовіи
носом
ності
носять
носіи
носіння
носія
носіями
носієм
носіі
нот
нотатки
ноти
нотр
ноттінгем
ноу
ночі
ною
ноября
ноі
нп
нпп
нр
нрм
нру
нс
нсдап
нсжу
нспу
нства
нство
нська
нське
нськи
нськии
нським
нськими
нських
нсько
нського
нському
нською
нськоі
нську
нські
нськіи
нт
нтв
нтз
нту
нтуу
нтш
ну
нував
нували
нування
нувань
нувати
нудота
нуклеотидами
нуль
нулю
нуля
нур
нує
нується
нхл
нц
нця
нцям
нцями
нці
нців
нштеи
нъ
ны
ныи
нь
нього
ньому
ньоі
нью
ньюкасл
ньютон
ньютона
ню
нюрнберг
ня
няв
нявся
нявши
няла
няли
няло
нята
няте
няти
нятии
нятим
нятими
нятися
нятих
нятним
нятного
нято
нятого
нятості
нятоі
няття
няттям
нятті
няті
нятість
нє
ні
ніби
нібито
нів
нівка
ніг
нігер
нігеріи
нігерія
нігеріі
ніде
нідерландах
нідерланди
нідерландська
нідерландськии
нідерландського
нідерландськоі
нідерландські
нідерландів
ніж
ніжин
ніжинськии
ніжинського
ніжині
ніжки
нізаціі
ніи
нік
ніка
нікарагуа
нікеи
нікель
нікелю
ніко
нікого
нікола
ніколас
ніколаєв
ніколи
ніколо
ніколь
ніколя
нікому
нікополь
нікс
нікуди
нікчемного
нікітін
ніл
ніла
ніладхарі
нілу
нім
німе
німець
німецька
німецьке
німецькии
німецьким
німецькими
німецьких
німецько
німецького
німецькому
німецькою
німецькоі
німецьку
німецькі
німецькіи
німеччина
німеччини
німеччиною
німеччину
німеччині
німого
німцям
німцями
німці
німців
ніна
ніндзя
ніни
ніс
ність
ністю
ніх
ніхто
ніцше
ніч
нічии
нічим
нічию
нічия
нічиі
нічна
нічнии
нічних
нічного
нічні
нічого
ніші
ніщо
ніяк
ніяких
ніякого
ніякоі
ніі
о
оае
оахім
об
оба
обабіч
обама
обвинувачення
обг
обговорення
обговореннях
обговоренні
обговорень
обговорити
обговорювали
обговорювати
обговорюється
обеліск
обер
обережно
оберлеи
оберст
обертання
обертаються
обертається
обертів
обзор
обидва
обидвома
обидвох
обидві
обирався
обирали
обирати
обирають
обираються
обирає
обирається
обитель
обителі
обкладинка
обкладинки
обкладинці
обкому
обл
обладнали
обладнана
обладнании
обладнання
обладнанням
обладнано
обладнані
обладунки
обласна
обласне
обласнии
обласних
обласного
обласному
обласноі
обласні
обласніи
областеи
области
областного
область
областю
областями
областях
області
облаштування
облвиконкому
облдержадміністраціі
обличчя
обличчям
обличчі
облога
облоги
облогу
облозі
облради
облік
облікова
обліковии
облікових
облікового
обліку
обмаль
обмежена
обмежене
обмежении
обмеженим
обмеженими
обмежених
обмеження
обмеженням
обмеженнями
обмежено
обмеженого
обмеженою
обмежену
обмежень
обмежені
обмежити
обмежують
обмежує
обмежується
обмін
обміну
обов
обозрение
оболонка
оболонки
оболонкою
оболонку
оболонок
оболонь
обом
обома
оборона
оборони
оборонна
обороннии
оборонних
оборонного
оборонноі
оборонні
обороноздатності
оборону
обороні
обох
обоє
обрав
образ
образа
образами
образи
образование
образовании
образования
образом
образотворче
образотворчих
образотворчого
образу
образі
образів
обрала
обрали
обрана
обрании
обраним
обраних
обрання
обрано
обраного
обрані
обрати
обробка
обробки
обробкою
обробку
оброблення
обробляти
обробці
обробітку
обряд
обряди
обряду
обрядів
обріі
обсерваторія
обсерваторіі
обслуговував
обслуговування
обслуговують
обслуговує
обставин
обставина
обставинами
обставинах
обставини
обстановки
обстановці
обстеження
обстріл
обстріли
обстрілу
обстріляли
обстрілів
обсяг
обсяги
обсягом
обсягу
обсягів
обсязі
обсє
обумовлена
обумовлено
обурення
обхід
обчислення
обчислень
обчислити
обчислювальна
обчислювальних
обчислювальноі
обчислюється
общ
общая
общества
общество
община
общини
общині
обі
обіг
обігравши
обігу
обід
обіду
обіи
обіцяв
обіцянки
обіцянку
обіцяє
обґрунтування
ов
ова
ована
оване
овании
ованих
овано
ованого
овані
ове
овернь
овець
ови
овии
овик
овиками
овики
овиків
овим
овими
ових
ович
овича
овичу
ового
оволоділи
овому
овочі
овочів
овою
овоі
овруцького
овського
ову
ові
овіи
ога
огаи
оган
оганн
оганна
оганнес
огли
огляд
оглядач
огляди
огляду
огляді
оглядів
ого
оголосив
оголосила
оголосили
оголосило
оголосити
оголошена
оголошении
оголошення
оголошено
оголошені
оголошує
огонь
огорожа
огорожі
огієнка
од
ода
оден
одержав
одержала
одержали
одержання
одержати
одержують
одеса
одеси
одесса
одесу
одеська
одеськии
одеського
одеському
одеськоі
одеськіи
одесі
один
одинадцяти
одинадцять
одиницею
одиниць
одиницю
одиниця
одиниці
одиночнии
одиночних
одиночному
одиночну
одиночні
одкровення
одна
однак
однакова
однаковии
однаковим
однаковими
однакових
однаково
однаковою
однакову
однакові
одначе
одне
одним
одними
однини
одних
одно
одного
одноголосно
однодумців
однозначно
однои
одномандатному
одному
односельцям
односельців
односельчан
односельчанам
одностаи
одночасно
одною
одноі
одну
одні
одніи
однією
однієі
одпу
одразу
одружена
одружении
одруженим
одруження
одружився
одружилася
одружилися
одружитися
одружується
одрі
оду
одужання
одужань
одяг
одягнении
одягом
одягу
одязі
одіссея
оженився
оз
озброєнии
озброєних
озброєння
озброєнням
озброєнні
озброєнь
озброєні
озвучення
озвучено
озвучив
озвучування
озвучує
оздоблення
оздоблені
озер
озера
озерах
озеро
озером
озері
озеф
озефа
озна
ознаи
ознак
ознака
ознаками
ознаки
ознакою
означало
означати
означають
означає
означення
ознии
озним
озних
озно
озного
озною
озноі
озну
озні
ои
ок
ока
окб
океан
океаном
океану
океані
океанів
океаніі
окиснення
оклахома
оклахоми
окленд
око
околиць
околиця
околицях
околиці
оком
окраі
окрема
окреме
окремии
окремим
окремими
окремих
окремо
окремого
окремому
окремою
окремоі
окрему
окремі
окреміи
округ
округа
округами
округах
округи
округлі
округов
округом
округу
округів
окружнии
окружного
окружноі
окружні
окрузі
окрім
оксана
оксани
оксид
оксиду
окситанія
окситаніявиписка
оксфорд
оксфордського
оксфорді
октября
окуляри
окупантами
окупанти
окупантів
окупаціи
окупацію
окупація
окупацією
окупаціі
окупована
окуповане
окупованих
окупованому
окупованоі
окуповані
окупованіи
окупували
ол
ола
олд
оле
олег
олега
олегович
олегом
олекса
олександр
олександра
олександри
олександрович
олександровича
олександром
олександру
олександрівка
олександрівна
олександрівська
олександрівськии
олександрівського
олександріи
олександрія
олександріі
олекси
олексі
олексіи
олексія
олексієм
олексіі
олена
олени
оленою
олену
олень
оленя
олені
оленів
олесь
олеся
оливково
олов
олова
олт
ольга
ольги
ольгою
ольгу
ольштинського
оля
олі
олів
олівер
олівера
олівія
оліи
олімпіад
олімпіада
олімпіадах
олімпіади
олімпіаді
олімпіакос
олімпіи
олімпік
олімпіка
олімпія
олімпіі
олію
олія
олією
оліі
ом
ома
оман
оману
омар
омбр
омега
омелян
омелянович
оми
омив
омивається
омився
омии
омилася
омилися
омитися
омиться
омих
омка
омках
омки
омлення
омлені
омого
омок
омом
омства
омство
омськ
ому
омі
омів
омінг
он
она
ональ
онами
онах
оне
они
онищенко
онлаи
онна
оннии
онним
онних
онного
онному
онноі
онні
онніи
оно
онов
оновлена
оновлении
оновлення
оновлено
оном
онтаріо
ону
онування
онук
онука
онуки
онуком
онуків
онуфріи
онуфріі
оні
онів
оо
оон
ооо
оос
оп
опади
опадів
опалення
опанасович
опанував
опанувати
опер
опера
оперативна
оперативне
оперативнии
оперативних
оперативно
оперативного
оперативноі
оператор
оператора
оператори
оператором
операторів
операціи
операцію
операція
операціями
операціях
операцією
операціі
оперення
оперети
опери
оперна
опернии
оперних
оперного
оперні
оперу
опері
опинився
опинившись
опинилася
опинилися
опинилося
опиняється
опис
описав
описала
описана
описание
описании
описаних
описано
описані
описати
описи
описом
опису
описував
описували
описувати
описують
описуються
описуючи
описує
описується
описі
описів
опитування
оплата
оплати
оплату
оповідання
оповіданні
оповідань
оповідач
оповідає
оповідь
оповіді
оподатковане
оподаткованих
оподатковані
оподаткування
опозиціи
опозицію
опозиція
опозиціі
ополчення
опольського
опонента
опонентів
опори
опорнии
опорних
опорного
опором
опорою
опору
опосередковано
опрацювання
оприлюднення
оприлюднив
опромінення
оптика
оптики
оптимального
оптимізація
оптимізаціі
оптичнии
оптичних
оптичного
оптичні
опублікована
опубліковане
опубліковании
опублікованих
опубліковано
опубліковані
опублікував
опублікувала
опублікували
опублікувати
опускається
опыт
опівночі
опіки
опікою
опіку
опікувався
опір
опісля
ор
ора
оранг
орбіта
орбіти
орбіту
орбіті
орг
орган
органам
органами
органах
органи
организации
органом
органу
органі
органів
організатор
організаторами
організатори
організатором
організаторів
організаціи
організацію
організація
організаціям
організаціями
організаціях
організацією
організаціі
організм
організми
організму
організмі
організмів
організована
організовании
організованих
організовано
організованого
організованою
організованоі
організовані
організовував
організовувати
організовує
організував
організувала
організували
організувати
органічних
органічного
органічноі
органічні
орда
ордан
орданія
орданіі
орден
ордена
орденами
ордени
орденом
ордену
орденів
орджонікідзе
орди
орегон
орел
оренбурзька
оренбурзькоі
оренда
оренди
оренду
оренді
орест
ори
оригінал
оригіналу
оригінальна
оригінальне
оригінальнии
оригінальним
оригінальних
оригінального
оригінальному
оригінальною
оригінальноі
оригінальну
оригінальні
оригінальніи
оригіналі
орк
орка
оркестр
оркестром
оркестру
оркського
оркському
орку
орла
орлан
орландо
орлеана
орли
орлик
орлика
орлов
орлова
орловская
орловськии
орловського
орловськоі
орн
орнамент
орнаментом
орнаменту
орноі
орні
ором
ору
орудою
орі
орієнтацію
орієнтація
орієнтаціі
орієнтована
орієнтовании
орієнтованих
орієнтовані
орієнтовно
ос
оса
осада
осадових
осака
осафата
освоєння
освоі
освятив
освячена
освячении
освячення
освячено
освіта
освіти
освітлення
освітньо
освітнього
освітньоі
освітня
освітні
освітніи
освітніх
освітою
освіту
освіті
осеи
оселився
оселилася
оселилися
оселі
осені
осередки
осередком
осередку
осередків
осередок
осетіі
осип
осипа
осипович
осипівна
осиф
осифа
оскар
оскара
оскарження
оскільки
ослаблення
осло
осман
османами
османи
османська
османськии
османських
османського
османською
османськоі
османські
османськіи
османів
осн
оснащена
оснащении
оснащення
оснащені
основ
основа
основами
основи
основна
основне
основнии
основним
основними
основних
основного
основному
основною
основноі
основну
основні
основніи
основоположник
основою
основу
основы
основі
особа
особам
особами
особи
особин
особини
особиста
особисте
особистии
особистим
особистими
особистих
особисто
особистого
особистому
особистостеи
особистості
особистоі
особисту
особисті
особистіи
особистість
особлива
особливе
особливии
особливим
особливими
особливих
особливо
особливого
особливостеи
особливостями
особливості
особливою
особливоі
особливу
особливі
особливість
особливістю
особняк
особовии
особового
особоспоживач
особоспоживача
особою
особу
особі
осока
ост
останки
останнього
останньому
останньою
останньоі
останню
остання
останнє
останні
останніи
останнім
останніми
останніх
остану
остап
остапа
остаточна
остаточне
остаточнии
остаточно
остаточного
остаточноі
осторонь
остров
острова
островами
островах
острови
островом
островськии
островського
острову
острові
островів
острог
острозька
острозькии
острозьких
острозького
остроленцького
острів
остін
ось
осі
осіб
осінніи
осінь
от
ота
отак
отаман
отамана
отаманом
отв
отвори
отвору
отворів
отвір
отг
отд
отець
отечественнои
отже
ото
отож
оточена
оточене
оточении
оточення
оточенні
оточені
оточили
оточують
оточуючих
оточує
отр
отримав
отримавши
отримала
отримали
отримало
отримана
отримане
отримании
отриманих
отримання
отриманням
отриманні
отримано
отриманого
отриманоі
отримані
отримати
отримають
отримає
отримаємо
отримував
отримувала
отримували
отримувати
отримують
отримуючи
отримує
отримуємо
отримується
отрковського
отруи
отрути
отруєння
отруі
оттава
отто
оттон
оттона
отця
отців
отче
отъ
оуен
оун
оф
официальныи
офк
оформив
оформити
оформлення
оформленням
оформленні
офф
офіс
офіси
офісу
офісі
офіцер
офіцера
офіцерами
офіцери
офіцером
офіцерськии
офіцерського
офіцерів
офіціи
ох
охолодження
охопила
охоплення
охоплювала
охоплюють
охоплює
охорона
охоронець
охорони
охороннии
охоронним
охоронних
охороною
охорону
охоронців
охороняються
охороняється
охороні
охоче
охочих
охтирського
оце
оці
оцінив
оцінили
оцінити
оцінка
оцінками
оцінки
оцінкою
оцінку
оцінок
оцінці
оцінювання
оцінювати
оцінюють
оцінюються
оцінює
оцінюється
очаків
очах
очевидна
очевиднии
очевидним
очевидно
очевидців
очеи
очерету
очеретянка
очерк
очерки
очи
очима
очистити
очищення
очка
очками
очки
очко
очок
очолив
очоливши
очолила
очолили
очолити
очолював
очолювала
очолювали
очолювана
очолює
очі
очікував
очікували
очікувалося
очікування
очікуванні
очікувати
очікує
очікується
очільник
очільника
очільником
ош
оі
п
па
пабло
павел
павла
павленко
павло
павлов
павлова
павлович
павловича
павловськии
павлоград
павлом
павлюк
павлівка
павлівна
павук
павука
павуків
павільи
пагони
пагорб
пагорба
пагорбах
пагорби
пагорбі
пагорбів
падають
падає
падіння
падінням
паи
пак
пакет
пакети
пакету
пакетів
пакистан
пакистану
пакистані
пакт
пакту
пала
палат
палата
палати
палату
палаті
палау
палац
палаци
палацом
палацу
палаццо
палаці
палаців
палеоліту
палермо
палестини
палестині
палець
палива
паливних
паливно
паливо
паливом
палички
палмеи
палмер
паломарська
паломництва
палуби
палубі
пальма
пальми
пального
пальцем
пальця
пальцями
пальці
пальців
паліи
пам
памяти
памятник
памятники
память
пан
пана
панама
панамериканських
панами
панас
панаса
панасюк
панатінаі
пандемію
пандемія
пандеміі
пане
панелеи
панель
панелі
пани
панк
панно
панове
паном
панорама
панорами
панське
панськии
пантелеи
пантера
пану
панував
панувала
панування
панує
панченко
панщини
пані
панів
паоло
пап
папа
папери
паперових
паперові
паперу
папері
паперів
папи
папою
папська
папського
папськоі
папуа
папі
папір
пар
пара
парагваи
парагваю
парад
парадокс
параду
параді
паралельних
паралельно
паралельні
паралелі
паралімпіи
параметр
параметра
параметрами
параметри
параметром
параметрів
парами
парана
параскеви
парафіи
парафію
парафія
парафіяльна
парафіян
парафіі
парашутно
пари
париж
парижа
парижу
парижі
паризькии
паризького
паризькому
паризькоі
паризькіи
парк
парках
паркер
парки
парковии
паркового
парком
парку
парків
парламент
парламентом
парламентська
парламентське
парламентських
парламентськоі
парламентські
парламенту
парламенті
парма
парнии
парних
парному
парну
парні
паровии
парових
парові
пароль
пароплав
парох
парохом
парою
партизан
партизанами
партизани
партизанськии
партизанських
партизанського
партизанськоі
партизанські
партизанів
партии
партнер
партнера
партнерами
партнери
партнером
партнерства
партнерство
партнерів
партіи
партію
партія
партіями
партією
партіі
пару
парус
пархоменко
парі
пас
пасажир
пасажири
пасажирська
пасажирське
пасажирськии
пасажирських
пасажирського
пасажирські
пасажирів
паскаль
пасовища
паспорт
пастки
пастку
пастух
пасічник
пат
патент
патенти
патентів
патологіі
патрон
патронів
патрульнии
патрульних
патрульного
патрульні
патрулювання
патріарх
патріарха
патріархат
патріархату
патріархом
патрік
патріка
патріот
патріотизм
патріотичного
патріотів
паулу
пауль
пауля
пацієнт
пацієнта
пацієнти
пацієнтів
паче
паша
паші
пащенко
паі
пд
пдв
пе
певен
певна
певне
певнии
певним
певними
певних
певно
певного
певному
певною
певноі
певну
певні
певніи
пед
педагог
педагога
педагоги
педагогів
педагогіка
педагогіки
педагогічна
педагогічнии
педагогічних
педагогічного
педагогічному
педагогічноі
педагогічну
педагогічні
педро
педру
пеи
пекла
пекло
пекулярна
пекулярнии
пекулярних
пекулярні
пекін
пекіна
пекіні
пелюстки
пем
пен
пенальті
пенні
пенсильванія
пенсіи
пенсільванія
пенсільваніі
пенсіонер
пенсію
пенсіі
пер
пера
первая
первинна
первиннии
первинних
первинно
первинного
первинноі
первинні
первои
первомаи
первыи
первісна
первіснии
первісно
первісного
первісноі
пере
перебрав
перебрався
перебував
перебувала
перебували
перебувало
перебування
перебувати
перебувають
перебуваючи
перебуває
перебудова
перебудована
перебудовании
перебудови
перебудову
перебіг
перебігу
перев
переваг
перевага
переваги
перевагою
перевагу
переважали
переважають
переважає
переважна
переважно
переважніи
перевал
перевалу
перевантаження
переведена
переведении
переведення
переведено
переведені
перевезення
перевезено
перевезень
перевезли
перевели
перевершує
перевести
перевидання
перевищення
перевищила
перевищувала
перевищувати
перевищують
перевищує
перевод
перевозити
переворот
перевороту
перевів
перевівся
перевірена
перевірено
перевірити
перевірка
перевірки
перевірку
перевірок
перевіряти
перевіряє
перегляд
переглядати
перегляду
перегляді
переглядів
переглянув
переглянути
переглянуто
переговорах
переговори
переговорів
перегонах
перегони
перегонів
перед
передав
передавання
передавати
передавши
передала
передали
передана
передане
передании
передано
передані
передати
передач
передача
передачею
передачу
передачі
передають
передаються
передає
передається
передбачав
передбачала
передбачали
передбачалося
передбачають
передбачає
передбачається
передбачена
передбачених
передбачення
передбачено
передбачені
передбачив
передбачити
передгір
передм
передмова
передмові
передмістя
передмісті
переднього
передньому
передньоі
передню
передня
передні
передніи
передніх
передових
передові
передовіи
передрук
передували
передумови
передусім
передує
передісторія
пережив
переживання
переживає
пережила
пережили
пережити
переи
переказ
переказами
перекази
переказів
перекидання
перекл
переклав
переклад
перекладав
перекладами
перекладати
перекладах
перекладач
перекладача
перекладачем
перекладачка
перекладачі
перекладачів
перекладається
перекладена
перекладении
перекладено
перекладені
переклади
перекладом
перекладу
перекладі
перекладів
перекласти
переконав
переконании
переконання
переконань
переконати
переконатися
переконує
перекрили
перекриття
перелом
перелік
переліку
перемагає
перемикання
перемир
перемишль
перемишльського
перемишльськоі
перемишля
перемишлі
перемовин
перемовини
перемог
перемога
перемоги
перемогла
перемогли
перемогою
перемогти
перемогу
переможець
переможнии
переможниця
переможниці
переможного
переможному
переможцем
переможця
переможцями
переможці
переможців
перемозі
переміг
перемігши
переміщених
переміщення
перенаправлення
перенаправлень
перенесена
перенесении
перенесення
перенесено
перенесені
перенесли
перенести
переносити
переносить
переноситься
переносять
переніс
переобрании
перепис
переписати
переписи
переписна
переписні
переписніи
переписом
перепису
перепись
переправи
перепрошую
перераховані
перерва
перервами
перерви
перервою
перерву
переробив
переробити
переробка
переробки
переробку
перероблена
перероблении
перероблено
переробці
перерізу
перес
пересадки
переселення
переселенцями
переселенці
переселенців
переселилися
пересихаючии
пересихає
переслідували
переслідування
переслідувань
переслідувати
переслідує
перестав
перестала
перестали
перестає
пересування
пересуватися
перетворена
перетворении
перетворення
перетворено
перетворень
перетворені
перетворив
перетворився
перетворилася
перетворили
перетворилися
перетворилося
перетворити
перетворюються
перетворює
перетворюється
перетин
перетинають
перетинаються
перетинає
перетинається
перетину
перетині
перетнув
переховувався
переходи
переходили
переходити
переходить
переходом
переходу
переходять
переході
переходів
перехоплення
перехрестя
перехресті
перехід
перехіднии
перехідних
перехідного
перехідні
перець
перешии
перешкод
перешкоджає
перешкоди
перешкодити
перешкодою
переяслав
переяславськии
переяславського
переі
периметру
период
периферіи
периферіі
перкусія
перл
перлина
перм
пермскии
пермського
пермі
перо
пером
перрі
перси
перснів
персонаж
персонажа
персонажами
персонажем
персонажі
персонажів
персонал
персоналом
персоналу
персональна
персональнии
персональних
персональні
персоналіи
персоналіі
персони
перспектив
перспектива
перспективи
перспективних
перспективу
перспективі
перстень
перська
перськии
перських
перського
перськоі
перські
перськіи
персі
персів
персія
персіі
перу
перш
перша
перше
першии
першим
першими
перших
першого
першому
першості
першою
першоі
першу
перші
першіи
першість
період
періоди
періодичних
періодично
періодичні
періодом
періоду
періоді
періодів
пес
песни
пет
петер
петербург
петербурга
петербургу
петербурзькии
петербурзького
петербурзькому
петербурзькоі
петербурзі
петлюра
петлюри
петлі
петр
петра
петренко
петро
петров
петрова
петрович
петровича
петровськии
петровського
петрограді
петром
петропавлівська
петру
петрі
петрівка
петрівна
печатка
печатки
печатку
печеи
печер
печера
печерах
печери
печерська
печерськии
печерського
печерськоі
печеру
печері
печі
печінки
печінці
пеі
пз
пзф
пи
пива
пиво
пил
пили
пилип
пилипа
пилипенко
пилипович
пилу
пильно
пирогова
пиріг
писав
писала
писали
писання
писар
писаря
писати
писемна
писемності
писемність
письма
письменник
письменника
письменниками
письменники
письменником
письменнику
письменників
письменниця
письменниці
письменства
письмо
письмова
письмових
письмові
письмі
питання
питанням
питаннями
питаннях
питанні
питань
питає
пити
питноі
питома
пише
пишемо
пишете
пишеться
пишу
пишуть
пишуться
пишіть
пк
пкс
пл
плавання
плавець
плавлення
плавні
плавця
плавці
плавців
плавчиня
плавчині
плазми
плазуни
плазунів
плакат
плакати
план
планами
планах
планет
планета
планети
планету
планеті
плани
планка
планом
плантаціях
плантаціі
плану
планував
планувався
планувала
планували
планувалось
планувалося
планування
планують
планує
планується
плані
планів
пласт
пласта
пластику
пластин
пластини
пластинки
пласту
пластів
плата
платежів
плати
платили
платити
платню
платні
плато
платон
платона
плату
платформ
платформа
платформах
платформи
платформою
платформу
платформі
платівка
платівки
платівку
плацдарм
плацдарму
плач
плаче
плащ
плеи
плем
племен
племена
племенами
племені
племінник
племінника
плеча
плечах
плече
плечима
плечі
пливе
плином
плит
плита
плити
плодами
плоди
плоду
плодів
плоска
плоских
плоскогір
плоскі
плоцького
площ
площа
площею
площина
площини
площину
площині
площу
площі
плутарх
плутати
плюс
пляж
пляжі
плям
пляма
плямами
плями
пляшки
плівки
плід
плідну
пліч
пн
пневмоніі
пнр
по
побажання
побачення
побачив
побачивши
побачила
побачили
побачимо
побачите
побачити
побачить
побережник
побив
побили
побиття
поблизу
побоювання
побоюючись
побратими
побратимів
побував
побудова
побудована
побудоване
побудовании
побудованих
побудовано
побудовані
побудови
побудову
побудові
побудував
побудували
побудувати
побужжя
побут
побутових
побутового
побутовоі
побутові
побуту
побуті
побіг
побічних
побічні
пов
поваги
повагою
повагу
поважати
повалення
повалено
повалив
поведінка
поведінки
поведінкою
поведінку
поведінці
повені
поверненню
повернення
поверненням
поверненні
повернеться
повернув
повернувся
повернувшись
повернула
повернулась
повернулася
повернули
повернулись
повернулися
повернулося
повернути
повернутись
повернутися
повернуто
поверсі
повертався
поверталися
повертати
повертатися
повертаються
повертаючись
повертає
повертається
поверх
поверхи
поверхневих
поверхневого
поверхневі
поверхнею
поверхню
поверхня
поверхні
поверхонь
поверху
поверхів
повз
повинен
повинна
повинне
повинно
повинності
повинні
повна
повне
повнии
повним
повних
повно
повноваження
повноваженнями
повноважень
повноважнии
повного
повноліття
повномасштабного
повнометражнии
повному
повноціннии
повноцінного
повною
повноі
повну
повні
повніи
повністю
поводження
поволжья
поволжя
поволі
поворот
повороту
повоєннии
повоєнні
повстав
повстали
повсталих
повстання
повстанні
повстанська
повстанського
повстанськоі
повстанцями
повстанці
повстанців
повстань
повсюдно
повсякденного
повсякденному
повторення
повторив
повторити
повторне
повторнии
повторно
повторного
повторює
повторюється
повів
повідомив
повідомила
повідомили
повідомило
повідомити
повідомлення
повідомленням
повідомленнями
повідомленні
повідомлено
повідомлень
повідомляв
повідомляли
повідомлялося
повідомляють
повідомляє
повідомляється
повільно
повільніше
повінь
повір
повістеи
повість
повістю
повісті
повіт
повітах
повіти
повітовии
повітового
повітовоі
повітря
повітрям
повітряна
повітряне
повітрянии
повітряним
повітряними
повітряних
повітряно
повітряного
повітряному
повітряноі
повітряну
повітряні
повітряніи
повітрі
повіту
повіті
повітів
погана
погане
погании
поганим
поганих
погано
поганого
погану
погані
поглиблення
поглинання
поглинає
погляд
поглядами
поглядах
погляди
поглядом
погляду
поглядів
поговорити
погода
погоджуюсь
погоджуються
погоджується
погоди
погодився
погодилася
погодилися
погодитися
погодних
погодні
погоду
поголів
погоні
пограбування
погрози
погром
погруддя
погіршення
под
подав
подавали
подавати
подався
подала
подали
подальша
подальше
подальшии
подальшим
подальших
подальшого
подальшому
подальшоі
подальшу
подальші
подалі
подана
подании
поданих
подання
поданням
подано
подані
подарував
подарувала
подарунки
подарунок
подати
податки
податкових
податкового
податковоі
податку
податків
податок
подача
подачі
подають
подаються
подає
подається
подвиг
подвиги
подвоєння
подвіи
подвір
подекуди
подивився
подивитись
подивитися
подивіться
подобається
подовження
подолання
подолати
подолі
подорож
подорожеи
подорожував
подорожувати
подорожує
подорожі
подробиці
подруга
подруги
подругою
подружжя
подрібнення
подумав
подумати
подушки
подяка
подяки
подяку
подякував
подібна
подібне
подібнии
подібним
подібними
подібних
подібно
подібного
подібності
подібною
подібноі
подібну
подібні
подібність
подіи
поділ
поділена
поділении
поділено
поділені
поділив
поділили
поділити
поділля
поділлі
поділом
поділу
подільська
подільськии
подільського
подільському
подільськоі
подільські
поділяють
поділяються
поділяє
поділяється
подію
подія
подіям
подіями
подіях
подією
подіі
поезіи
поезію
поезія
поезіі
поем
поема
поеми
поему
поемі
поет
поета
поетеса
поетеси
поети
поетична
поетичнии
поетичних
поетичного
поетичноі
поетичні
поетом
поету
поетів
пожеж
пожежа
пожежна
пожежноі
пожежу
пожежі
пожертви
пожертвував
поживних
поза
позаду
позачергових
позаяк
позбавив
позбавили
позбавити
позбавлена
позбавлении
позбавлення
позбавлені
позбутися
позивнии
позики
позитивнии
позитивним
позитивних
позитивно
позитивного
позитивну
позитивні
позиціи
позицію
позиція
позиціях
позицією
позиціі
познаи
познанського
познань
познані
позначати
позначають
позначаються
позначає
позначається
позначена
позначении
позначення
позначенням
позначено
позначені
позначками
позначки
позначку
позов
позови
позову
пои
покажчик
показ
показав
показавши
показала
показали
показало
показана
показании
показання
показано
показані
показати
покази
показник
показника
показниками
показники
показником
показників
показу
показував
показували
показувати
показують
показуючи
показує
покарання
покарань
покарати
поки
покидають
покидає
покинув
покинула
покинули
покинути
поклав
покладається
покладено
покладені
поклади
покладів
поклала
поклали
покласти
покликав
покликании
покликання
поклоніння
покоління
поколінь
покоі
покращена
покращення
покращити
покращує
покрив
покривають
покриває
покривні
покриву
покрита
покритии
покриття
покриттям
покриті
покрова
покрови
покровителем
покровитель
покровителя
покровська
покровське
покровськии
покровського
покровськоі
покупки
покупців
покіи
покінчив
покінчити
пол
пола
поле
полеглим
полеглих
полегшення
полегшити
полегшує
полем
полишив
полк
полки
полковии
полковник
полковника
полковники
полковником
полковнику
полководець
полководця
полком
полку
полків
полное
поло
половина
половини
половиною
половину
половині
половців
пологи
пологів
положення
положенням
положенні
положень
полом
полон
полоненими
полонених
полону
полоні
полотна
полотнище
полотно
полотні
полтава
полтави
полтавка
полтавська
полтавськии
полтавського
полтавському
полтавськоі
полтавськіи
полтавщина
полтавщини
полтавщині
полтаві
полудня
полум
поль
польова
польовии
польових
польового
польовоі
польові
польоти
польоту
польоті
польотів
польс
польська
польське
польськии
польським
польськими
польських
польсько
польського
польському
польською
польськоі
польську
польські
польськіи
польща
польщею
польщу
польщі
полюбляє
полювання
полюс
полюса
полюють
полює
поля
полягав
полягала
полягають
полягає
поляк
поляками
поляки
поляков
поляків
полями
поляна
полярних
полях
полі
полів
полігон
полігоні
поліклініка
полімерів
поліморфізм
поліна
поліпептидного
поліпшена
поліпшення
поліпшено
поліпшити
полісся
поліссі
політ
політбюро
політв
політехніка
політехніки
політехнічнии
політехнічного
політехнічному
політик
політика
політики
політико
політиком
політикою
політику
політиків
політиці
політична
політичне
політичнии
політичним
політичними
політичних
політично
політичного
політичному
політичною
політичноі
політичну
політичні
політичніи
політолог
політологія
політологіі
поліцеи
поліціи
поліцію
поліція
поліцією
поліціі
поліщук
пом
помаранчевии
помаранчевоі
помер
померанія
помераніі
померла
померли
померлих
померло
померлого
померти
помешкання
помешкань
помилився
помилка
помилками
помилки
помилково
помилкою
помилку
помилок
помилування
помирає
поморського
помочі
помпеи
помпея
помре
помста
помсти
помститися
помсту
помідор
поміж
помірнии
помірних
помірно
помірного
помістив
помістили
помітив
помітили
помітити
помітна
помітнии
помітним
помітних
помітно
помітною
помітні
поміч
помічає
помічении
помічені
помічник
помічника
помічники
помічником
помічників
поміщении
поміщик
поміщика
поміщиків
понад
понеділок
пониженим
понині
поновлення
пономаренко
пономарьов
понтіи
поняття
поняттям
понять
пообіцяв
поодиноких
поодинокі
поодинці
поп
попа
попадання
попелу
попередження
попередив
попередити
попередник
попередника
попередники
попередником
попередників
попередньо
попереднього
попередньому
попередньою
попередньоі
попередню
попередня
попереднє
попередні
попередніи
попереднім
попередніми
попередніх
попереду
поперечних
попит
попитом
попиту
попкорн
попов
попова
попович
поповнення
поправки
попрацювати
попри
попросив
попросила
попросили
попросити
попрощалися
попрямував
популяризацію
популяризація
популяризаціі
популярна
популярне
популярнии
популярним
популярними
популярних
популярного
популярності
популярною
популярноі
популярні
популярніи
популярність
популярністю
популярнішим
популярніших
популярніші
популяціи
популяція
популяціі
попід
попіл
пор
пора
порад
поради
порадив
порадою
пораду
поразка
поразки
поразкою
поразку
поразок
поранении
пораненим
пораненими
поранених
поранення
поранено
пораненого
поранень
поранені
пори
пороги
порода
породами
породах
породжує
породи
порожнини
порожнину
порожня
порожні
порожніи
порозуміння
порозі
порох
пороху
порошенка
порошенко
порошок
порт
портал
портали
порталу
порталі
порталів
порти
портленд
портом
портр
портрет
портрета
портрети
портретом
портретів
порту
португальська
португальськии
португальських
португальського
португальською
португальськоі
португальські
португальці
португальців
португалія
португаліі
портів
пору
поруч
поручик
поручник
порушення
порушенням
порушеннями
порушенні
порушено
порушень
порушив
порушили
порушити
порушувати
порушують
порушує
порцеляни
поряд
порядки
порядком
порядку
порядків
порядок
порятунку
порятунок
порівнювати
порівнюючи
порівняння
порівнянні
порівняно
порівняти
поріг
порід
посад
посада
посадах
посади
посадив
посадили
посадка
посадки
посадку
посадових
посадою
посаду
посаді
посвідчення
посе
посеи
поселение
поселении
поселения
поселення
поселеннязакон
поселенням
поселеннях
поселенні
поселенці
поселенців
поселень
посеред
посередині
посередником
посередництва
посередництво
посилання
посиланням
посиланнями
посилань
посилатися
посилаються
посилаючись
посилає
посилається
посилення
посилився
посилити
посилюється
посла
послаблення
послав
послання
после
посли
послом
послуг
послуга
послугами
послуги
послугу
послів
послідовники
послідовників
послідовних
послідовно
послідовностеи
послідовності
послідовність
посмертно
пособие
посол
посольства
посольство
посольстві
посполита
посполитою
посполитоі
посполитіи
поспіль
пост
поста
постав
поставив
поставивши
поставила
поставили
поставити
поставки
поставлена
поставлении
поставлених
поставлено
поставлені
поставок
постала
постало
постаменті
постанов
постанова
постанови
постановив
постановка
постановки
постановку
постановление
постановник
постановок
постановою
постанову
постановці
постать
постаті
постачальником
постачальників
постачання
постає
пости
постоялии
постоялих
постраждав
постраждала
постраждали
постраждалих
постраждало
постріл
постріли
пострілу
пострілів
посту
поступ
поступаючись
поступається
поступив
поступився
поступившись
поступилася
поступилися
поступки
поступове
поступово
поступового
постів
постіи
посуд
посудини
посуду
посіб
посібник
посібники
посібників
посів
посівши
посідав
посідає
посіла
посіли
посісти
потаи
потебні
потенціал
потенціалу
потенціи
потепління
потои
потоками
потоки
потоком
потоку
потоків
потомство
потому
потопив
потоплении
потоцькии
потоцьких
потоцького
потоці
поточна
поточнии
поточних
поточного
поточному
поточноі
поточні
потрапив
потрапивши
потрапила
потрапили
потрапило
потрапити
потрапляв
потрапляли
потрапляння
потрапляють
потрапляє
потреб
потреба
потребами
потреби
потребу
потребував
потребувала
потребували
потребують
потребує
потроху
потрібен
потрібна
потрібне
потрібнии
потрібних
потрібно
потрібну
потрібні
потріи
поттер
потужна
потужнии
потужним
потужними
потужних
потужного
потужностеи
потужності
потужною
потужну
потужні
потужність
потужністю
потяг
потяги
потягу
потягів
потік
потім
похибки
похил
похилого
поховали
похована
поховании
поховання
поховано
поховань
поховані
походах
походження
походженням
походи
походив
походила
походили
походить
походу
походять
поході
походів
похорон
похорону
похід
похідна
похідних
похідні
поцятковані
поцілунок
поч
почав
почався
почавши
почала
почалась
почалася
почали
почались
почалися
почало
почалось
почалося
почасти
почати
початки
початкова
початкове
початковии
початковим
початкових
початково
початкового
початковому
початковою
початковоі
початкову
початкові
початковіи
початком
початку
початок
почаі
почергово
почесна
почесне
почеснии
почесним
почесними
почесних
почесного
почесною
почесні
починав
починався
починали
починати
починають
починаються
починаючи
починає
починається
почитати
почне
почнуть
почув
почувши
почули
почути
почуття
почуттям
почуттів
пошани
пошану
поширена
поширене
поширении
поширеним
поширеними
поширених
поширенню
поширення
поширенням
поширенні
поширеною
поширені
поширеність
поширенішим
поширенішими
поширеніших
поширеніші
поширився
поширилася
поширилися
поширити
поширювати
поширюватися
поширюються
поширюється
пошкоджена
пошкоджении
пошкодження
пошкоджено
пошкоджень
пошкоджені
пошкодив
пошта
пошти
поштова
поштове
поштовии
поштових
поштового
поштовоі
поштовх
поштовхом
поштові
поштою
пошту
пошук
пошуках
пошуки
пошукових
пошуково
пошуком
пошуку
пошуків
пощастило
поява
появи
появою
появу
появі
пояс
пояса
пояси
пояснення
пояснень
пояснив
пояснити
пояснював
пояснювати
пояснюють
пояснює
пояснюється
поясніть
поясом
поясу
поясі
поєдинках
поєдинки
поєдинку
поєдинків
поєдинок
поєднання
поєднанням
поєднанні
поєднати
поєднував
поєднують
поєднуються
поєднує
поєднується
поі
пп
ппо
пр
пра
прав
права
правами
правах
правда
правди
правду
правді
праве
правив
правии
правил
правила
правилам
правилами
правилах
правили
правило
правилом
правильна
правильне
правильнии
правильним
правильно
правильного
правильні
правим
правителем
правитель
правительства
правителя
правителями
правителі
правителів
правити
править
правих
правки
правлячоі
правління
правлінням
правник
правники
право
правобережжя
правобережжі
правобережноі
правобережніи
правова
правовая
правове
правовии
правових
правового
правовоі
правову
правовых
правові
правого
правознавство
правок
правом
правому
правоохоронних
правопис
правописом
правопису
правописі
правопорушення
правопорядку
праворуч
православ
православна
православне
православнии
православним
православними
православних
православного
православною
православноі
православну
православні
православніи
правосуддя
правою
правоі
праву
праві
правіи
прага
праги
прагне
прагнення
прагненням
прагнув
прагнула
прагнули
прагнуть
прагнучи
прадеш
празі
праи
практ
практик
практика
практики
практикою
практику
практиці
практична
практичне
практичнии
практичних
практично
практичного
практичноі
практичну
практичні
прапор
прапора
прапорами
прапорець
прапори
прапором
прапорщик
прапорі
прапорів
праслов
прат
прах
прахова
працевлаштоване
працевлаштування
працездатне
працездатного
працею
праць
працю
працював
працювала
працювали
працювало
працювати
працюють
працюючи
працюючих
працює
праця
працями
працях
праці
працівник
працівника
працівникам
працівниками
працівники
працівником
працівників
пре
пред
предка
предки
предків
предмет
предмета
предметами
предмети
предметом
предмету
предметів
предок
представив
представила
представили
представити
представлена
представлене
представлении
представлених
представлення
[...]
