!
"
#
##a
##aa
##ab
##ac
##ad
##ae
##af
##ag
##ah
##ai
##aj
##ak
##al
##am
##an
##ao
##ap
##aq
##ar
##as
##at
##au
##av
##aw
##ax
##ay
##az
##b
##ba
##bb
##bc
##bd
##be
##bf
##bg
##bh
##bi
##bj
##bk
##bl
##bm
##bn
##bo
##bp
##bq
##br
##bs
##bt
##bu
##bv
##bw
##bx
##by
##bz
##c
##ca
##cb
##cc
##cd
##ce
##cf
##cg
##ch
##ci
##cj
##ck
##cl
##cm
##cn
##co
##cp
##cq
##cr
##cs
##ct
##cu
##cv
##cw
##cx
##cy
##cz
##d
##da
##db
##dc
##dd
##de
##df
##dg
##dh
##di
##dj
##dk
##dl
##dm
##dn
##do
##dp
##dq
##dr
##ds
##dt
##du
##dv
##dw
##dx
##dy
##dz
##e
##ea
##eb
##ec
##ed
##ee
##ef
##eg
##eh
##ei
##ej
##ek
##el
##em
##en
##eo
##ep
##eq
##er
##es
##et
##eu
##ev
##ew
##ex
##ey
##ez
##f
##fa
##fb
##fc
##fd
##fe
##ff
##fg
##fh
##fi
##fj
##fk
##fl
##fm
##fn
##fo
##fp
##fq
##fr
##fs
##ft
##fu
##fv
##fw
##fx
##fy
##fz
##g
##ga
##gb
##gc
##gd
##ge
##gf
##gg
##gh
##gi
##gj
##gk
##gl
##gm
##gn
##go
##gp
##gq
##gr
##gs
##gt
##gu
##gv
##gw
##gx
##gy
##gz
##h
##ha
##hb
##hc
##hd
##he
##hf
##hg
##hh
##hi
##hj
##hk
##hl
##hm
##hn
##ho
##hp
##hq
##hr
##hs
##ht
##hu
##hv
##hw
##hx
##hy
##hz
##i
##ia
##ib
##ic
##id
##ie
##if
##ig
##ih
##ii
##ij
##ik
##il
##im
##in
##io
##ip
##iq
##ir
##is
##it
##iu
##iv
##iw
##ix
##iy
##iz
##j
##ja
##jb
##jc
##jd
##je
##jf
##jg
##jh
##ji
##jj
##jk
##jl
##jm
##jn
##jo
##jp
##jq
##jr
##js
##jt
##ju
##jv
##jw
##jx
##jy
##jz
##k
##ka
##kb
##kc
##kd
##ke
##kf
##kg
##kh
##ki
##kj
##kk
##kl
##km
##kn
##ko
##kp
##kq
##kr
##ks
##kt
##ku
##kv
##kw
##kx
##ky
##kz
##l
##la
##lb
##lc
##ld
##le
##lf
##lg
##lh
##li
##lj
##lk
##ll
##lm
##ln
##lo
##lp
##lq
##lr
##ls
##lt
##lu
##lv
##lw
##lx
##ly
##lz
##m
##ma
##mb
##mc
##md
##me
##mf
##mg
##mh
##mi
##mj
##mk
##ml
##mm
##mn
##mo
##mp
##mq
##mr
##ms
##mt
##mu
##mv
##mw
##mx
##my
##mz
##n
##na
##nb
##nc
##nd
##ne
##nf
##ng
##nh
##ni
##nj
##nk
##nl
##nm
##nn
##no
##np
##nq
##nr
##ns
##nt
##nu
##nv
##nw
##nx
##ny
##nz
##o
##oa
##ob
##oc
##od
##oe
##of
##og
##oh
##oi
##oj
##ok
##ol
##om
##on
##oo
##op
##oq
##or
##os
##ot
##ou
##ov
##ow
##ox
##oy
##oz
##p
##pa
##pb
##pc
##pd
##pe
##pf
##pg
##ph
##pi
##pj
##pk
##pl
##pm
##pn
##po
##pp
##pq
##pr
##ps
##pt
##pu
##pv
##pw
##px
##py
##pz
##q
##qa
##qb
##qc
##qd
##qe
##qf
##qg
##qh
##qi
##qj
##qk
##ql
##qm
##qn
##qo
##qp
##qq
##qr
##qs
##qt
##qu
##qv
##qw
##qx
##qy
##qz
##r
##ra
##rb
##rc
##rd
##re
##rf
##rg
##rh
##ri
##rj
##rk
##rl
##rm
##rn
##ro
##rp
##rq
##rr
##rs
##rt
##ru
##rv
##rw
##rx
##ry
##rz
##s
##sa
##sb
##sc
##sd
##se
##sf
##sg
##sh
##si
##sj
##sk
##sl
##sm
##sn
##so
##sp
##sq
##sr
##ss
##st
##su
##sv
##sw
##sx
##sy
##sz
##t
##ta
##tb
##tc
##td
##te
##tf
##tg
##th
##ti
##tj
##tk
##tl
##tm
##tn
##to
##tp
##tq
##tr
##ts
##tt
##tu
##tv
##tw
##tx
##ty
##tz
##u
##ua
##ub
##uc
##ud
##ue
##uf
##ug
##uh
##ui
##uj
##uk
##ul
##um
##un
##uo
##up
##uq
##ur
##us
##ut
##uu
##uv
##uw
##ux
##uy
##uz
##v
##va
##vb
##vc
##vd
##ve
##vf
##vg
##vh
##vi
##vj
##vk
##vl
##vm
##vn
##vo
##vp
##vq
##vr
##vs
##vt
##vu
##vv
##vw
##vx
##vy
##vz
##w
##wa
##wb
##wc
##wd
##we
##wf
##wg
##wh
##wi
##wj
##wk
##wl
##wm
##wn
##wo
##wp
##wq
##wr
##ws
##wt
##wu
##wv
##ww
##wx
##wy
##wz
##x
##xa
##xb
##xc
##xd
##xe
##xf
##xg
##xh
##xi
##xj
##xk
##xl
##xm
##xn
##xo
##xp
##xq
##xr
##xs
##xt
##xu
##xv
##xw
##xx
##xy
##xz
##y
##ya
##yb
##yc
##yd
##ye
##yf
##yg
##yh
##yi
##yj
##yk
##yl
##ym
##yn
##yo
##yp
##yq
##yr
##ys
##yt
##yu
##yv
##yw
##yx
##yy
##yz
##z
##za
##zb
##zc
##zd
##ze
##zf
##zg
##zh
##zi
##zj
##zk
##zl
##zm
##zn
##zo
##zp
##zq
##zr
##zs
##zt
##zu
##zv
##zw
##zx
##zy
##zz
$
%
&
'
(
)
*
+
,
-
.
/
0
00
000
0004
001
002
0026
003
004
005
006
007
008
009
01
010
011
012
013
014
015
016
017
019
02
021
024
03
0302
033
0355
0362
039
04
0405
042
045
05
050
055
0554
06
063
0636
07
070
071
0734
08
082
0828
083
09
0a
0b
0c
0d
0e
0f
0g
0h
0i
0j
0k
0l
0m
0n
0o
0p
0q
0r
0s
0t
0u
0v
0w
0x
0y
0z
1
10
100
1000
10000
1001
1002
1006
1007
101
1010
1015
1016
1017
102
1020
1021
1023
1024
1028
1029
103
1037
1038
104
1040
1042
1046
105
1050
1051
1054
1056
106
1061
1063
107
1073
107343683
1074
108
1080
1085
10855166
1086
1088
109
1090
1093
1095
1096
1097
1098
11
110
1100
1101
1103
1109
111
1110
1111
1119
112
1125
1126
1128
113
1130
1136
114
1142
1145
1146
115
1150
1152
1158
116
1160
117
1170
1177
118
1180
1185
1186
119
1194038
12
120
1200
1204
121
1210
1212
122
1220
123
1230
124
1240
1241
1242
1243
125
1250
126
1260
127
1270
128
1280
1285
129
1290
1292
13
130
1300
131
132
1320
133
13371586
134
1340
135
1350
13550863
1359
136
1365
137
1370
1371
138
1380
1385
139
1390
14
140
1400
141
1410
1415
142
1420
143
1430
1432
1434
1435
144
1440
145
1450
1453
146
1460
1469
147
1470
1471
1475
1476
148
1480
149
1490
1492
1494
1497
1499
15
150
1500
1501
1502
1503
1505
1506
1507
1508
1509
151
1510
1512
1513
1514
1515
1516
1517
1519
152
1520
1521
1522
1523
1524
1525
1526
1527
1529
153
1530
1533
1534
1535
1536
1537
1538
1539
154
1540
1541
1542
1543
1545
1546
1547
1548
1549
155
1550
1551
1552
1553
1554
1555
1556
1557
1558
1559
156
1560
1561
1562
1563
1564
1565
1566
1567
1568
1569
157
1570
1571
1572
1573
1574
1575
1576
1577
1578
1579
158
1580
1581
1582
1583
1584
1585
1586
1587
1588
1589
159
1590
1591
1592
1593
1594
1595
1596
1597
1598
1599
16
160
1600
1601
1602
1603
1604
1605
1606
1607
1608
1609
161
1610
1611
1612
1613
1614
1615
1616
1617
1618
1619
162
1620
1621
1622
1623
1624
1625
1626
1627
1628
1629
163
1630
1631
1632
1633
1634
1635
1636
1637
1638
1639
164
1640
1641
1642
1643
1644
1645
1646
1647
1648
1649
165
1650
1651
1652
1653
1654
1655
1656
1657
1658
1659
166
1660
1661
1662
1663
1664
1665
1666
1667
1668
1669
167
1670
1671
1672
1673
1674
1675
1676
1677
1678
1679
168
1680
1681
1682
1683
1684
1685
1686
1687
1688
1689
169
1690
1691
1692
1693
1694
1695
1696
1697
1698
1699
17
170
1700
1701
170109
1702
1703
1704
1705
1706
1707
1708
1709
171
1710
1711
1712
1713
1714
1715
1716
1717
1718
1719
172
1720
1721
1722
1723
1724
1725
1726
1727
1728
1729
17299517
173
1730
1731
1732
1733
1734
1735
1736
1737
17378135
1738
1739
174
1740
1741
1742
1743
1744
1745
1746
1747
1748
1749
175
1750
1751
1752
1753
1754
1755
1756
1757
1758
1759
176
1760
1761
1762
1763
1764
1765
1766
1767
1768
1769
177
1770
1771
1772
1773
1774
1775
1776
1777
1778
1779
178
1780
1781
1782
1783
1784
1785
1786
1787
1788
1789
179
1790
1791
1792
1793
1794
1795
1796
1797
1798
1799
18
180
1800
1801
1802
1803
1804
1805
1806
1807
1808
1809
181
1810
1811
1812
1813
1814
1815
1816
1817
1818
1819
182
1820
1821
1822
1823
1824
1825
1826
1827
1828
1829
183
1830
1831
1832
1833
1834
1835
1836
1837
1838
1839
184
1840
1841
1842
1843
1844
1845
1846
1847
1848
1849
185
1850
1851
1852
1853
1854
1855
1856
1857
1858
1859
186
1860
1861
1862
1863
1864
1865
1866
1867
1868
1869
187
1870
1871
1872
1873
1874
1875
1876
1877
1878
1879
188
1880
1881
1882
1883
1884
1885
1886
1887
1888
1889
189
1890
1891
1892
1893
1894
1895
1896
1897
1898
1899
19
190
1900
1901
1902
1903
1904
1905
1906
1907
1908
1909
191
1910
1911
1912
1913
1914
1915
1916
1917
1918
1919
192
1920
1921
1922
1923
1924
1925
1926
1927
1928
1929
193
1930
1931
1932
1933
1934
1935
193563
1936
1937
1938
1939
194
1940
1941
1942
1943
1944
1945
1946
1947
1948
1949
195
1950
1951
1952
1953
1954
1955
1956
1957
1958
1959
196
1960
1961
1962
1963
1964
1965
1966
1967
1968
1969
197
1970
1971
1972
1973
1974
1975
1976
1977
1978
1979
198
1980
1981
1982
1983
1984
1985
1986
1987
1988
1989
199
1990
1991
1992
1993
19938912
1994
1995
1996
1997
1998
1999
1a
1b
1c
1d
1e
1f
1g
1h
1i
1j
1k
1l
1m
1n
1o
1p
1q
1r
1s
1t
1u
1v
1w
1x
1y
1z
2
20
200
2000
2001
2002
2003
2004
2005
2006
2007
2008
2009
201
2010
2011
2012
2013
2014
2015
2016
2017
2018
2019
202
2020
202041
2021
2022
2023
203
2030
204
205
206
2061
207
208
209
21
210
2100
211
212
2121
2127
213
214
21401824
215
216
217
218
219
22
220
2200
221
222
223
224
225
226
227
228
229
23
230
2300
2307
231
232
233
234
235
236
237
237227
238
239
24
240
2400
241
242
243
244
2449070
245
246
247
248
249
25
250
2500
251
252
253
254
255
256
256507
257
258
2586178
259
2596504
26
260
2600
261
262
263
264
265
265049
266
267
268
269
27
270
2700
271
272
273
27302
274
275
276
277
278
279
28
280
2800
281
282
2826570
283
284
285
286
287
288
289
29
290
291
292
293
294
295
296
297
298
29861311
299
2a
2b
2c
2d
2e
2f
2g
2h
2i
2j
2k
2l
2m
2n
2o
2p
2q
2r
2s
2t
2u
2v
2w
2x
2y
2z
3
30
300
3000
301
302
303
304
304037
305
306
307
308
309
31
310
311
312
313
314
315
316
317
318
319
31927054
32
320
3200
321
322
323
324
325
326
327
328
329
33
330
331
3314880
332
333
334
335
3354
336
337
338
339
34
340
341
342
343
344
345
346
347
348
349
35
350
3500
351
352
353
354
355
356
3561957
357
358
359
36
360
361
362
363
364
365
36578
366
367
368
369
37
370
371
372
373
37312
374
375
376
377
378
379
3792
38
380
381
382
383
384
385
386
387
388
389
39
390
391
392
393
394
395
396
397
398
399
3a
3b
3c
3d
3e
3f
3g
3h
3i
3j
3k
3l
3m
3n
3o
3p
3q
3r
3s
3t
3u
3v
3w
3x
3y
3z
4
40
400
4000
401
402
403
404
405
406
407
408
409
41
410
411
412
413
414
415
416
417
418
419
42
420
421
422
423
424
425
426
427
428
429
43
430
431
432
433
4331
434
435
436
437
438
439
44
440
441
442
443
444
445
446
447
448
449
45
450
4500
451
452
453
454
455
456
457
458
459
46
460
461
462
463
464
464633
465
466
467
468
469
47
470
471
472
473
474
475
476
477
47757534
478
479
48
480
481
482
483
484
485
486
487
488
489
49
490
491
492
493
494
495
496
497
498
499
4a
4b
4c
4d
4e
4f
4g
4h
4i
4j
4k
4l
4m
4n
4o
4p
4q
4r
4s
4t
4u
4v
4w
4x
4y
4z
5
50
500
5000
501
502
503
504
504063
505
506
507
508
509
51
510
511
512
513
514
515
516
517
518
519
52
520
521
522
523
524
525
526
527
528
529
53
530
531
532
533
534
535
536
537
5375741
538
539
54
540
541
542
543
544
545
546
547
548
54837
549
55
550
551
552
553
554
555
556
557
558
559
56
560
561
562
563
564
565
566
567
568
569
57
570
571
572
573
574
575
576
577
57740
578
579
58
580
581
582
583
584
585
586
587
588
589
59
590
591
592
593
594
595
596
597
598
599
5a
5b
5c
5d
5e
5f
5g
5h
5i
5j
5k
5l
5m
5n
5o
5p
5q
5r
5s
5t
5u
5v
5w
5x
5y
5z
6
60
600
6000
601
602
603
604
605
606
607
608
609
61
610
611
612
613
614
615
616
617
618
619
62
620
621
622
623
624
625
626
627
628
629
63
630
63056
631
632
633
634
635
636
637
638
639
64
640
641
642
643
644
645
646
647
648
649
65
650
651
652
653
654
655
656
657
658
659
66
660
661
662
663
664
665
666
667
668
669
67
670
671
67129259
672
673
674
675
676
677
678
679
68
680
681
682
683
684
685
686
687
688
689
69
690
691
692
693
694
695
696
697
698
699
6a
6b
6c
6d
6e
6f
6g
6h
6i
6j
6k
6l
6m
6n
6o
6p
6q
6r
6s
6t
6u
6v
6w
6x
6y
6z
7
70
700
7000
701
702
7022
703
704
705
706
707
708
709
71
710
711
712
713
714
715
716
717
718
719
72
720
721
722
723
724
725
726
727
728
729
73
730
731
732
733
734
735
736
737
738
739
74
740
741
742
743
744
745
746
747
748
749
7492
75
750
751
752
753
754
755
7553
756
7565
757
758
759
76
760
761
762
763
764
765
766
767
768
77
770
7707
771
772
773
774
775
776
777
778
779
78
780
7804
781
782
783
784
785
786
787
788
789
79
790
791
792
793
794
795
796
797
798
799
7a
7b
7c
7d
7e
7f
7g
7h
7i
7j
7k
7l
7m
7n
7o
7p
7q
7r
7s
7t
7u
7v
7w
7x
7y
7z
8
80
800
8000
801
802
8022
803
804
805
806
807
808
81
810
811
812
813
814
815
816
817
818
82
820
821
822
823
824
825
826
827
828
829
829984
83
830
830106
831
832
833
835
838
839
84
840
841
842
843
844
845
846
848
85
850
852
85270
853
854
855
856
857
859
86
860
861
862
863
864
865
866
867
868
87
870
871
872
873
874
875
877
878
879
88
880
882
883
885
88500
888
89
890
892
893
894
895
896
897
899
8a
8b
8c
8d
8e
8f
8g
8h
8i
8j
8k
8l
8m
8n
8o
8p
8q
8r
8s
8t
8u
8v
8w
8x
8y
8z
9
90
900
9000
901
902
903
904
905
906
907
909
91
910
911
912
912887
913
914
915
917
918
919
92
920
921
922
923
924
925
928
929
93
930
931
932
933
935
936
937
938
939
94
940
941
942
943
944
945
946
95
950
951
952
953
954
955
956
95606922
958
959
96
960
961
962
963
964
965
966
967
968
969
97
970
971
972
973
975
976
977
978
979
98
980
981
983
984
985
987
988
99
990
991
992
995
996
997
999
9a
9b
9c
9d
9e
9f
9g
9h
9i
9j
9k
9l
9m
9n
9o
9p
9q
9r
9s
9t
9u
9v
9w
9x
9y
9z
:
;
<
=
>
?
@
[
[CLS]
[MASK]
[PAD]
[SEP]
[UNK]
\
]
^
_
`
a
a0
a1
a2
a3
a4
a5
a6
a7
a8
a9
aa
aaron
aasta
ab
abc
abes
abgerufen
about
abs
abstract
ac
acad
academia
academic
academie
academy
access
accessdate
accessed
account
ace
acid
acm
across
act
acta
action
active
activity
actor
ad
adam
adams
add
adds
administration
administrative
adobe
adolf
adrian
adult
advanced
adventure
adventures
ae
af
affairs
afghanistan
africa
african
after
ag
again
against
age
agency
agent
ages
agreement
agriculture
agrilus
ah
ai
aid
ain
air
airbus
aircraft
airlines
airport
airways
aj
ak
akademia
akademie
akademii
al
alan
alba
albania
albert
album
albums
alegeri
alesi
alessandro
alex
alexander
alfa
alfred
ali
alice
aligned
alive
all
alla
allan
allen
allgemeine
alliance
allies
allium
allmovie
allmusic
allocine
allplayers
aloe
alone
alpha
alpine
als
also
alt
alternative
am
amanda
amazing
amazon
amc
amd
america
american
among
amore
amsterdam
amy
an
ana
analysis
anatomy
ancient
and
anderson
andre
andrea
andreas
andrew
android
andrzej
andy
angel
angeles
angewandte
ani
animal
animals
animation
anime
ann
anna
annales
annals
annapolis
anne
anniversary
anno
announced
announces
annual
ano
another
antarctic
anthony
anti
anton
antonio
anual
anuario
any
ao
aout
ap
apache
api
app
apple
application
applications
applied
approach
approved
april
aq
ar
arab
arabia
arch
archaeology
archinform
architecture
archiv
archive
archived
archives
arctic
are
area
areas
arena
argentina
arh
aria
arizona
arm
armee
armenia
armenian
arms
army
arnold
around
array
ars
art
arte
arthur
article
articles
artist
artists
arts
arxiv
as
asia
asian
asp
aspx
assassin
assembly
assessment
associated
association
associations
astragalus
astro
astron
astronomical
astronomy
astrophys
astrophysical
astrophysics
at
athletes
athletics
atlantic
atlas
atp
attack
au
audi
audio
auf
auflage
aug
august
aujourd
aus
austin
australia
australian
austria
author
authority
authors
auto
aux
av
available
avant
avec
avengers
aves
aviation
avn
aw
award
awards
away
ax
ay
az
azerbaijan
b
b0
b1
b2
b3
b4
b5
b6
b7
b8
b9
ba
baby
back
bad
baden
bafta
baker
balance
ball
baltic
baltimore
band
bang
bank
banks
bar
barbara
barcelona
barnes
barry
base
based
basic
basin
basis
basketball
batman
battle
bay
bb
bbc
bc
bd
bdfutbol
be
beach
bear
beat
beatles
beautiful
beauty
beck
been
before
begin
behavior
behind
bei
beijing
being
belarus
belgium
believe
bell
ben
benjamin
benz
berger
bericht
berkeley
berlin
bernard
best
beta
betta
better
between
bevolkerung
bevolkerungsstand
bevolkerungsstandes
beyond
bf
bg
bh
bi
bibcode
bible
biblio
bibliographisches
bibliotheque
bieber
big
biggest
bill
billboard
bin
binding
bio
biochem
biodiversity
biograficzny
biographical
biographie
biographisches
biography
biol
biological
biology
biophys
bird
birdlife
birds
biroul
birth
bis
bishop
bit
biz
bj
bk
bl
black
blackwell
block
blog
blogspot
blood
bloomberg
blu
blue
blues
bluetooth
bm
bmatrix
bmw
bn
bnf
bo
board
boat
bob
body
boeing
boldsymbol
book
books
boot
border
born
borough
boston
botanical
botany
both
box
boy
boys
bp
bq
br
bradley
brain
brand
brandenburg
brasil
bratislava
braun
brazil
break
breaking
brian
bridge
brief
brill
bristol
britain
britannica
british
broadcasting
broadway
brockhaus
broken
bros
brothers
brown
browser
bruce
bruno
bs
bt
bu
buck
budapest
build
building
bulbophyllum
bulgaria
bull
bulletin
bureau
bus
busch
business
but
butler
bv
bw
bwv
bx
by
byzantine
bz
c
c0
c1
c2
c3
c4
c5
c6
c7
c8
c9
ca
cabinet
cable
cactus
cada
calendri
calidris
california
call
called
cambridge
camera
cameron
camp
campaign
campbell
camponotus
can
canada
canadian
cancer
cannes
cap
cape
capital
captain
car
card
care
career
carex
carl
carlo
carlos
carolina
carrier
cars
carter
cas
casa
case
cases
cassini
cast
castle
cat
catalog
catalogue
category
catherine
catholic
catolico
cb
cbc
cbs
cc
cd
cdc
cdna
cdot
cdots
cdp
ce
cell
cells
censos
census
cent
center
central
centre
century
ceo
certifications
cf
cg
cgi
ch
chain
chains
challenge
champion
champions
championship
championships
chan
chang
change
changes
channel
chapter
character
characteristics
characterization
charadrius
charles
charlie
charlotte
chart
charts
che
check
checklist
chelsea
chem
chemical
chemistry
chen
chess
chessgames
chevrolet
chi
chicago
chief
chiffres
child
children
chile
china
chinese
choice
chris
christian
christie
christmas
christoph
christopher
chromosome
chronicle
chrysler
church
ci
cia
cifras
cinema
circ
circle
cite
cites
cities
citroen
cittadini
city
civil
cj
ck
cl
clan
clark
clarke
class
classic
classical
classics
classification
claude
clerck
cles
climate
climatology
clinical
clio
cloning
close
cloud
club
cluster
cm
cn
cnmnc
cnn
co
coach
coast
code
coding
cohen
col
cold
coleophora
coleoptera
colin
collection
collections
college
collegium
collins
colombia
colon
color
colt
columbia
com
combat
combinedfleet
come
comedy
comes
comet
comic
comics
coming
command
commercial
commission
commitee
committee
common
commons
commun
commune
communes
communication
communications
community
companion
company
comparative
comparison
compendium
competition
complete
complex
composition
comptes
computer
computing
comune
con
concept
concert
conference
confirmed
confirms
conflict
congress
conservation
constitution
construction
contact
containing
contemporary
content
contest
context
continental
contract
control
convention
convert
conway
cook
cool
cooper
copa
copy
core
cornell
coronavirus
corp
corporation
corps
correspondence
cortinarius
cos
costa
could
council
count
counties
countries
country
county
course
court
cov
cover
covid
cox
cp
cq
cr
craig
crash
crazy
crc
creative
creed
creek
cretaceous
crew
crime
crisis
critical
critics
croatia
cross
crown
cry
crystal
cs
csfd
ct
cu
cultural
culture
cum
cup
current
curtis
cut
cv
cvk
cw
cx
cy
cycle
cz
czech
d
d0
d1
d2
d3
d4
d5
d6
d7
d8
d9
da
daily
dallas
dam
dan
dance
daniel
dans
dark
das
data
database
datasets
date
daten
dates
dave
david
davies
davis
dawn
day
days
db
dc
dd
de
dead
deadline
deal
dean
death
debut
dec
december
decennial
decision
deep
def
default
defence
defense
definition
degli
dei
del
delhi
delimitation
dell
della
delle
delta
dem
democracy
demografica
demographic
den
denis
dennis
departementales
department
dependent
depo
depuis
der
des
description
desde
desert
design
det
detail
details
detector
detroit
deutsch
deutsche
deutschen
deutscher
deutschland
dev
development
devil
dezember
df
dg
dh
di
diamond
diccionario
dictionary
dictionnaire
did
die
diego
dies
dieter
different
digital
din
dir
direct
director
directory
discography
discogs
discovery
discussion
disease
diseases
disney
display
displayauthors
displaystyle
distribution
district
diversity
division
divisions
dj
djvu
dk
dl
dla
dm
dn
dna
dnia
dniu
do
doc
docs
doctor
document
documentary
documents
dodge
does
dog
doi
dom
domain
domainfalsefalse
domainpublic
don
donald
donsker
doom
door
dos
dot
dots
double
doubles
douglas
dover
down
download
dp
dq
dr
draft
dragon
drama
draw
draws
dream
dreams
drive
drop
drug
drugs
druk
ds
dt
du
dublin
due
duke
duponchel
during
dutch
duty
dv
dvd
dw
dx
dy
dynamic
dynamics
dz
dziejow
e
e0
e1
e2
e3
e4
e5
e6
e7
e8
e9
ea
eagle
early
earth
east
eastern
eb
ec
echo
ecole
ecology
economic
economics
economist
economy
ed
edge
edinburgh
edited
edition
editions
editor
editorial
editors
eds
edu
education
edward
edwards
ee
eesti
ef
effect
effects
eg
egypt
eh
ehess
ei
eight
ein
eine
einer
einwohnerzahlen
ej
ek
ekonomicznych
el
elachista
election
elections
electoral
electric
electronic
electronics
elements
elisabeth
elite
eliteprospects
elizabeth
elliott
elsevier
em
emi
emily
empire
emploi
en
enciclopedia
enciklopedija
encoding
encyclopaedia
encyclopedia
encyclopædia
encyklopedia
end
energy
enero
eng
engine
engineering
england
english
enter
enterprise
entertainment
entoloma
entry
environment
environmental
eo
ep
epic
episode
epsilon
eq
equiv
er
era
eric
erich
erik
ernst
es
esa
espana
esper
espn
esquire
essays
essential
est
estatistica
estimates
estonia
esu
et
eta
etc
ethnic
ethnologue
etno
etomesto
etudes
eu
eugene
eupithecia
eur
euro
eurogamer
europa
europe
european
eurostat
eurovision
ev
eva
evaluation
evans
even
evening
event
events
ever
every
everything
evidence
evil
evolution
evolutionary
ew
ex
example
exchange
exclusive
executive
exp
expansion
experience
experimental
exploration
explorer
express
expression
extragalactic
extreme
ey
eye
eyes
ez
f
f0
f1
f2
f3
f4
f5
f6
f7
f8
f9
fa
fabricius
face
facebook
fact
factbook
factfinder
factor
factory
facts
fair
faith
falco
falcon
fall
falls
false
fame
families
family
famous
fan
fans
fantasy
far
fashion
fast
father
fauna
fb
fbref
fc
fd
fda
fe
fear
feat
feature
features
featuring
feb
february
federal
federation
feel
felix
female
feminist
ferdinand
fernandez
fernando
ferrari
fest
festival
ff
fg
fh
fi
fiat
fick
fiction
fide
field
fields
fifa
fifth
fight
fighter
fighting
figures
file
files
film
films
final
finals
finance
financial
find
fine
finger
finland
fire
first
fis
fiscaux
fischer
fish
fishbase
fisher
fishes
five
fj
fk
fl
flag
flash
fleet
flight
flora
florida
flow
floyd
fly
flying
fm
fn
fo
focus
folk
food
football
footballdatabase
footballfacts
footbook
for
forall
forbes
force
forces
ford
foreign
forest
forever
form
format
formation
former
forms
formula
fort
fortschreibung
fortune
forum
forward
fossil
found
foundation
four
fourth
fox
fp
fq
fr
frac
frame
framework
francais
francaise
france
francesco
francis
francisco
francois
frank
frankfurt
franklin
franz
fred
frederick
free
freedom
french
friday
friedrich
friends
fritz
froese
from
front
frontier
fs
ft
fu
full
fun
function
functional
functions
fund
fur
fussballdaten
futbol
future
fv
fw
fx
fy
fz
g
g0
g1
g2
g3
g4
g5
g6
g7
g8
g9
ga
gabriel
galaxy
gallery
gallimard
game
gamer
games
gamespot
gaming
gamma
garcia
garden
gardens
gary
gas
gate
gay
gazeta
gazette
gazetteer
gb
gc
gd
gdansk
ge
gemeinden
gen
gender
gene
genealogics
genealogy
genera
general
generation
generis
genes
genesis
genet
genetic
genetics
genome
genomics
genus
geo
geoffrey
geograficzny
geographic
geographical
geography
geological
geology
geometry
geonames
geonet
georg
george
georges
georgia
geq
gerais
gerard
gerhard
german
germany
germplasm
geschichte
gesellschaft
get
gets
gf
gg
gh
ghidul
ghost
gi
giant
gilbert
gill
giovanni
girl
girls
github
give
gj
gk
gl
glass
global
globe
glory
gm
gmbh
gmina
gminach
gn
gnu
go
goal
god
goes
going
gold
golden
gomez
gone
gonzalez
good
google
gordon
got
gov
government
gp
gps
gq
gr
grace
graham
grammy
gran
grand
grande
grant
graph
graphics
grave
gray
great
greatest
greece
greek
green
greenwood
greg
gregory
grey
grid
grin
ground
group
groups
grove
growth
grup
gruyter
gs
gsc
gsmarena
gt
gu
guardian
guide
guides
guinea
guitar
gulf
gun
guns
gunther
gus
guy
gv
gw
gx
gy
gz
głowny
h
h0
h1
h2
h3
h4
h5
h6
h7
h8
h9
ha
had
half
hall
hamburg
hamilton
hammer
hampson
han
hand
handbook
handbuch
hans
happy
hard
harold
harper
harris
harrison
harry
hart
harvard
harvey
has
hasta
hat
hautes
have
haven
haworth
hb
hbar
hbo
hc
hd
he
head
health
heart
hearts
heat
heaven
heavy
hecho
heidelberg
heinrich
heinz
held
helen
hell
hello
helm
help
henri
henry
her
herald
herbarz
herbert
here
heritage
hermann
hero
heroes
herrich
het
hf
hg
hgmn
hgnc
hh
hi
hierarchy
high
higher
hijmans
hill
hills
him
hip
hipparcos
his
histoire
historia
historic
historical
historicus
historique
history
hit
hitler
hits
hj
hk
hl
hm
hms
hn
ho
hockey
hold
holland
hollywood
holocaust
holstein
holy
home
homo
honda
hong
honor
hop
hope
hopkins
horizon
horizons
horror
horse
hospital
host
hot
hotel
hour
house
housing
houston
how
howard
hp
hq
hr
hrsg
hs
ht
htm
html
http
https
hu
huawei
hubner
hudson
hufnagel
hugh
hughes
hugo
hui
hum
human
hung
hungarian
hungary
hunt
hunter
hurricane
hv
hw
hx
hy
hybrid
hydroelectric
hyundai
hz
i
i0
i1
i2
i3
i4
i5
i6
i7
i8
i9
ia
iaaf
ian
iata
iau
ib
ibm
ic
icao
ice
ich
ictv
id
identifiants
identification
identity
ie
iec
ieee
if
ifpi
ig
ign
ih
ii
iihf
iii
ij
ik
il
illinois
illustrated
im
ima
image
images
imdb
imienia
impact
imperial
implications
import
in
inc
inch
including
income
incorporated
independence
independent
index
india
indian
indiana
individual
indonesia
induced
industrial
industries
industry
ine
infanterie
infantry
influence
info
information
infty
inhaber
inhabitants
insee
inside
insider
instagram
institut
institute
institution
instituto
int
intel
intelligence
inter
interaction
interactive
interface
interior
international
internationale
internet
interview
into
introduction
invasion
investigation
io
ioc
ion
ios
ip
ipa
ipad
iphone
ipni
iq
ir
iran
iraq
ireland
irish
iron
is
isbn
islam
islamic
island
islands
iso
israel
iss
issn
issue
issues
ist
istat
it
italia
italian
italiana
italy
item
itf
its
itunes
iu
iucn
iv
ivan
iw
ix
iy
iz
j
j0
j1
j2
j3
j4
j5
j6
j7
j8
j9
ja
jack
jackson
jacob
jacques
jaguar
jam
james
jan
jane
january
janvier
japan
japanese
jason
java
javascript
jay
jazz
jb
jbc
jc
jd
je
jean
jeff
jeffrey
jennifer
jeremy
jersey
jerusalem
jerzy
jesus
jet
jewish
jf
jg
jh
ji
jim
jj
jk
jl
jm
jn
jo
joachim
joan
joe
joel
johann
johannes
john
johnny
johns
johnson
join
joins
joint
jon
jonathan
jones
jordan
jose
josef
joseph
journal
journals
journey
jozef
jp
jpg
jpl
jq
jr
js
jstor
jt
ju
juan
julia
julian
july
jump
jun
june
junior
jurgen
just
justice
justin
jv
jw
jx
jy
jz
k
k0
k1
k2
k3
k4
k5
k6
k7
k8
k9
ka
karen
karl
kate
kazimierz
kb
kc
kd
kde
ke
keep
keith
kelly
ken
kennedy
kenneth
kent
kevin
kew
key
kf
kg
kh
khan
ki
kid
kids
kiev
kill
killed
killer
kim
kinase
king
kingdom
kings
kino
kirk
kiss
kit
kj
kk
kl
klaus
klein
km
kmu
kn
knight
know
knowledge
known
ko
koch
koln
kong
korea
korean
korona
kp
kq
kr
krakow
kreise
krieg
krolestwa
ks
ksiega
kt
ku
kula
kunst
kurt
kv
kw
kx
ky
kyiv
kz
l
l0
l1
l2
l3
l4
l5
l6
l7
l8
l9
la
lab
labor
laboratory
labour
ladies
lady
lake
lambda
land
landesamt
lands
lane
lang
langle
language
languages
lanka
large
largest
larry
las
last
lat
late
later
latest
latin
lau
launch
launches
laura
law
lawrence
laws
lb
lc
ld
ldots
le
lead
leader
leaders
league
learning
leaves
leben
lecture
led
lee
left
legacy
legal
legend
legends
lego
leiden
leipzig
length
lenta
leo
leon
leonard
leq
leqslant
les
less
let
lett
letter
letters
level
lewis
lexikon
lf
lg
lh
li
lib
liberty
library
libris
lietuvos
life
liga
light
like
lil
lim
limited
limits
lin
lincoln
linda
line
lines
lingvarium
link
linnaeus
linux
lion
lisa
lisboa
list
lista
lists
literary
literature
lithuania
little
liu
live
livejournal
liverpool
lives
living
lj
lk
ll
llc
lloyd
lm
ln
lo
loadmap
loan
local
locale
localitati
localization
lockheed
locuintelor
log
logic
london
lonely
long
longrightarrow
look
lopez
lord
los
lost
louis
love
low
lower
lp
lq
lr
ls
lt
ltd
lu
lua
lucas
ludnosc
ludwig
luftwaffe
luis
lunar
lundy
lutz
lv
lviv
lvivcenter
lw
lwow
lwowa
lwowie
lwowskiego
lx
ly
lynx
lz
m
m0
m1
m2
m3
m4
m5
m6
m7
m8
m9
ma
mac
macdonald
machine
macmillan
mad
made
madrid
magazine
magic
magnetic
magnum
magyar
mai
mail
main
major
make
makes
making
malaysia
male
mali
malta
mammalian
mammals
mammillaria
man
management
manager
manchester
manfroid
mann
manual
manuel
many
map
mapping
mapquest
maps
mar
marc
marca
march
marco
marcus
mare
margaret
maria
marie
marina
marine
mario
maritime
mark
market
marriage
mars
marshall
martin
martinez
marvel
mary
maryland
mas
mashke
mass
massachusetts
master
masters
match
matches
materials
math
mathbb
mathbf
mathcal
mathematical
mathematics
mathfrak
mathrm
matrix
matt
matter
matthew
maurice
max
may
maya
mb
mbox
mc
mcgraw
md
me
med
medal
media
medical
medicine
medien
medieval
mediterranean
medium
meet
meeting
melbourne
member
members
membership
membrane
memorial
memory
men
menages
mercedes
mercury
message
met
meta
metacritic
metal
metallica
method
methods
metro
metropolitan
mexico
meyer
meyrick
mf
mg
mgc
mgm
mh
mi
miami
miasta
michael
michel
michigan
microsoft
mid
middle
midnight
miejscowosciach
miguel
mike
mil
milan
milano
miles
military
miller
million
min
mind
mindat
mine
mineral
mineralogical
mineralogy
minerals
mini
mining
minister
ministra
ministry
minor
minorplanetcenter
minut
mir
mirror
miss
missile
mission
mit
mitchell
mitochondrial
mitsubishi
mix
mj
mk
ml
mls
mm
mn
mo
mobile
mod
mode
model
models
modern
modifiant
module
mojo
mol
moldova
molecular
mon
monday
monde
money
monitor
monster
monte
month
monthly
montreal
monuments
moon
moore
more
morgan
morning
morris
moscow
most
mother
motion
motogp
motor
motors
mount
mountain
mouse
move
movement
movie
movies
mozilla
mp
mq
mr
ms
mt
mtv
mu
much
muller
multi
multiple
munchen
mundo
municipal
municipale
municipalities
municipii
munzinger
murder
murphy
murray
muse
museum
music
musica
musical
must
mv
mw
mx
my
mycena
mycobank
myspace
mystery
myth
mythology
mz
n
n0
n1
n2
n3
n4
n5
n6
n7
n8
n9
na
nabla
nach
nacional
nad
name
named
names
nancy
narod
narodowy
nas
nasa
nat
nation
national
nationale
nations
native
natl
nato
natural
nature
nauk
naval
naver
navy
nb
nba
nbc
nbuv
nc
nd
ne
near
need
neil
nelson
neo
neq
nestor
net
netflix
netherlands
network
networks
neue
neural
never
new
news
newspaper
newton
next
nf
ng
ngc
nh
nhl
ni
nicholas
nick
nicolas
nie
nielsen
niesiecki
nigeria
night
nih
nine
nintendo
nissan
nj
nk
nl
nm
nme
nn
no
noaa
nobel
node
nokia
nomenclator
nomenclature
nominations
nominees
non
nord
norman
north
northern
norton
norway
norwegian
nos
not
note
notes
nothing
notice
nov
nova
novel
november
now
np
nq
nr
ns
nsv
nt
nu
nuclear
number
numberedmps
numbers
nuts
nv
nw
nx
ny
nytimes
nz
o
o0
o1
o2
o3
o4
o5
o6
o7
o8
o9
oa
ob
obce
obituary
object
observations
observatory
observer
obyvatelov
oc
ocean
och
oclc
oct
october
od
oder
odessa
oe
of
off
office
official
officiel
offshore
oficiales
og
oh
ohio
oi
oil
oj
ok
ol
old
olimpbase
oliver
olympedia
olympic
olympics
om
omega
on
once
one
online
only
oo
op
opel
open
opening
opera
operation
operations
operatorname
opus
oq
or
oragos
orange
orase
orchestra
order
orders
org
organisation
organization
origin
original
origins
ornithologists
orthodox
os
oscar
osprey
ossolinskich
osterreich
ot
other
otto
ottoman
ou
oup
our
out
ov
over
overline
overview
ow
own
ox
oxford
oy
oz
p
p0
p1
p2
p3
p4
p5
p6
p7
p8
p9
pa
pacific
package
padron
page
pages
pain
pakistan
pal
palace
palestine
pallas
pamela
pan
panoramio
panzer
paper
papers
par
para
paradise
paramount
paris
park
parker
parliament
part
partial
partir
partners
party
pas
pascal
pass
past
patent
path
patients
patricia
patrick
patzwall
paul
paulo
pauly
pay
pb
pc
pd
pdf
pe
peace
pedro
peerage
pen
penguin
pennsylvania
people
peoples
per
percent
pereira
perez
perfect
performance
period
perry
person
personal
personen
persons
perspective
perspectives
peru
peste
peter
peters
peugeot
pf
pfalz
pg
ph
phalaenopsis
phase
phc
phd
phi
phil
philadelphia
philip
philippe
phillips
philosophical
philosophy
phoenix
phone
phosphorylation
photo
photos
php
phyllonorycter
phylloscopus
phylogenetic
phylogeny
phys
physical
physics
pi
piano
picture
pictures
pierre
pilot
pink
pipeline
pitchfork
pj
pk
pl
place
places
plan
planet
planetary
planning
plans
plant
plantbase
plants
platform
platinum
play
player
players
playmakerstats
playstation
plikow
plos
pls
plus
pm
pmatrix
pmc
pmid
pn
pnas
po
poblacion
poblacionales
poblaciones
pocet
pod
poetry
point
points
pojecia
poland
police
policy
polish
political
politics
polsce
polska
polski
polskich
polskie
polskiego
polskiej
pop
populacao
popular
populatia
populatiei
population
populations
por
porsche
port
portal
porter
porto
portrait
portugal
portuguese
poshta
positive
possible
post
postal
potential
pour
power
powierzchnia
poz
poznan
pp
pq
pr
practice
praha
pravda
pre
predefiniowanych
prediction
preliminary
premier
premiere
present
president
press
preview
price
primari
primariilor
primary
prime
prince
princess
princeton
principles
print
private
prix
prize
pro
problem
problems
proc
proceedings
process
processing
product
production
productions
products
prof
professional
professor
profil
profile
profiles
program
programme
programming
progress
project
projects
prometheus
properties
prosopography
protection
protein
proteins
protocol
province
przekroju
przewodnik
przy
ps
psi
psychology
psychotria
pt
pterostichus
pu
pub
public
publication
publications
publicznej
published
publisher
publishers
publishing
pubmed
put
putin
pv
pw
px
py
python
pz
q
q0
q1
q2
q3
q4
q5
q6
q7
q8
q9
qa
qatar
qb
qc
qd
qe
qf
qg
qh
qi
qj
qk
ql
qm
qn
qo
qp
qq
qquad
qr
qs
qt
qu
quad
qualifying
quality
quantum
quarterly
que
queen
quercus
quest
question
questions
qui
quickfacts
quid
qv
qw
qx
qy
qz
r
r0
r1
r2
r3
r4
r5
r6
r7
r8
r9
ra
race
racing
rada
radac
radeon
radio
rahvaloendus
rai
rail
railway
railwayz
rain
ralph
random
range
rangle
ranking
rankings
rap
rapid
rasmussen
rate
ratings
raw
ray
raymond
rb
rc
rd
re
read
reader
reading
ready
real
reality
rebecca
rebel
rec
recensamantul
recensamintul
recenseamentos
recensement
recent
receptor
recognition
record
recording
recordings
records
red
redmi
reed
ref
reference
references
referentiels
regierungsbezirke
regiment
region
regional
regionales
regions
regioset
register
regulation
reich
rejestr
relacion
related
relations
relationships
relative
release
released
releases
religion
religious
remix
renaissance
renault
rene
renson
report
reporter
reports
reprint
republic
republiky
res
research
reserve
residence
resident
resistance
resolution
resource
resources
respectivos
response
result
resultats
results
retrieved
return
returns
reuters
rev
revealed
reveals
revenus
review
reviews
revised
revision
revngcic
revolution
revue
rex
rey
rf
rfc
rg
rh
rheinland
rho
ri
riaa
rich
richard
rick
riga
right
rightarrow
rights
ring
rio
rise
rising
risk
river
rj
rk
rl
rm
rn
rna
ro
road
rob
robert
roberto
roberts
robin
robinson
rock
rocket
rodrigues
rodriguez
roger
rogers
rok
roku
roland
role
roll
rolling
rolls
rom
roma
roman
romance
romania
romaniei
romano
rome
romeo
ronald
room
rosa
rose
ross
rotten
round
routledge
rover
row
roy
royal
royce
rozporzadzenie
rp
rpm
rq
rr
rs
rsssf
rt
ru
rubus
rudolf
rule
rules
run
rus
rush
russell
russia
russian
russula
rv
rw
rx
ry
ryan
rz
rzeczypospolitej
s
s0
s1
s2
s3
s4
s5
s6
s7
s8
s9
sa
sachsen
safety
saga
said
saint
sales
sam
same
samsung
samuel
san
sans
sant
santa
santos
sao
sara
sarah
sars
satellite
saudi
save
say
says
sb
sbc
sc
scale
scene
schaffer
schedule
scherzer
schiffermuller
schleswig
schmidt
schneider
scholar
school
schools
schuster
sci
science
sciences
scientific
scientist
scientists
scopoli
score
scotland
scott
scottish
screen
sd
se
sea
sean
search
season
sec
second
secret
secretary
secrets
section
security
seds
see
sega
select
selected
selection
self
selon
september
sequence
sequences
ser
serie
series
server
service
services
set
setlabeldescriptionaliases
sets
settlement
seven
seventh
sex
sexe
sexual
sf
sg
sh
shadow
shaw
shawn
she
sheet
shell
shi
ship
ships
short
shot
should
show
shows
shtml
si
side
sie
siecle
siemens
sig
sigma
sign
signal
signs
silent
silva
silver
sim
simbad
simc
simon
simple
sims
sin
since
singapore
singer
singh
single
singles
sio
sir
sister
site
sites
situation
six
size
sj
sk
skl
skoda
sky
sl
slims
slovenskej
sm
small
smart
smith
smithsonian
sms
sn
snac
snow
so
soc
soccer
soccerbase
soccerpunter
soccerway
social
sociales
societe
society
sodbtn
software
solanum
solar
solo
solutions
some
something
son
song
songs
sonic
sons
sony
soul
sound
soundtrack
source
sources
sous
south
southern
soviet
sp
space
spacex
spain
span
spanish
spatial
special
species
specific
specifications
speculative
speed
spencer
spider
spiegel
spin
spirit
sport
sports
spraw
spring
springer
spy
sq
sql
sqrt
squad
square
sr
sri
ss
st
stabila
stadium
stadt
staff
stage
stainton
stan
stand
standard
stanford
stanisław
stanley
stanu
star
stars
start
stat
state
statement
states
static
station
statistical
statisticky
statistics
statistik
statistika
statistischer
statistisches
stats
status
statystyce
statystycznych
staudinger
stay
steam
steel
stefan
stellar
step
stephen
steve
steven
stewart
stigmella
still
stock
stockholm
stone
stones
stop
storage
store
storia
stories
storm
story
stosowane
str
strange
stranieri
strategy
stray
stream
street
strike
string
strong
structura
structural
structure
structures
sts
stuart
students
studia
studies
studio
studios
study
stuttgart
style
su
sub
subcounty
subset
subsp
subunit
success
sui
suicide
sullivan
sum
summary
summer
summit
sun
sunday
super
supplement
support
sur
surface
surfaces
survey
survival
susan
sv
sw
sweden
swedish
sweet
swift
swimming
swiss
switch
switzerland
sx
sy
sydney
symbols
symposium
syndrome
synthesis
syria
system
systematic
systems
sz
słownik
t
t0
t1
t2
t3
t4
t5
t6
t7
t8
t9
ta
tabellenblatt
table
tables
tadeusz
tag
take
takes
tale
tales
talk
talks
tan
tank
target
tau
taxonomic
taxonomy
taylor
tb
tc
tcm
td
te
team
teams
teataja
teatr
tech
technical
technologies
technology
ted
teen
telegraph
television
tell
temple
ten
tennis
teritorial
term
terminal
terra
terror
terry
teryt
terytorialnym
tesla
test
testing
texas
text
texts
tf
tg
th
thailand
than
that
the
theater
theatre
theft
their
them
then
theory
thepeerage
therapy
there
these
theta
they
thing
things
think
third
this
thomas
thompson
thomson
thought
threatened
three
through
ti
tiger
tilde
till
tim
time
times
timothy
title
tj
tk
tl
tm
tn
to
today
todd
together
tokyo
tom
tomatoes
tomorrow
tonight
tony
too
top
tor
toronto
torres
total
touch
tour
tourism
tournament
tower
town
towns
township
toyota
tp
tq
tr
track
trade
tradition
traffic
trafficking
trailer
train
training
trainingswissenschaft
trans
transactions
transcription
transfer
transfermarkt
translated
translation
transport
transportation
travel
treatment
tree
treitschke
trends
trial
tribune
tribute
tropical
true
trump
trust
truth
ts
tt
tu
tur
turbo
turkey
turkish
turn
turner
tv
tw
twenty
twin
twitter
two
tx
ty
type
tz
u
u0
u1
u2
u3
u4
u5
u6
u7
u8
u9
ua
ub
uber
uboat
ubuntu
uc
ud
ue
uefa
uf
ufc
ug
uh
ui
uj
uk
ukr
ukraine
ukrainian
ukrcensus
ukrcenter
ukrinform
ul
ultimate
ultra
ultratop
um
un
una
und
under
underground
understanding
une
unesco
unian
unidades
union
uniprot
unit
united
units
univ
universal
universe
universitat
university
unix
unspecified
until
uo
up
update
updated
upon
upper
uprom
uq
ur
urad
urban
url
us
usa
usb
use
used
user
using
uss
ut
utc
utricularia
uu
uv
uw
ux
uy
uz
v
v0
v1
v2
v3
v4
v5
v6
v7
v8
v9
va
vaccine
valley
value
van
var
varepsilon
variety
various
varphi
vauthors
vb
vc
vd
ve
vec
vehicle
venus
verbandsgemeinden
verge
verlag
version
very
vf
vg
vh
vi
via
vice
victor
victoria
victory
video
videos
vie
vienna
vierteljahr
vietnam
view
vii
viii
villa
village
villages
vilnius
vincent
violence
virgin
virginia
virtual
virus
vision
vista
visual
vita
vitro
vivo
vizier
vj
vk
vl
vladimir
vm
vn
vo
vogue
voice
voices
void
vol
volkswagen
volume
volvo
vom
von
voyage
vp
vq
vr
vs
vt
vu
vv
vw
vx
vy
vz
w
w0
w1
w2
w3
w4
w5
w6
w7
w8
w9
wa
waffen
wagner
wales
walk
walker
wall
wallace
walt
walter
wang
want
war
ward
warfare
warner
warren
wars
warszawa
was
washington
watch
water
watson
wave
way
wayback
wayne
wb
wc
wd
we
weapons
weather
web
webcite
weber
website
wedlug
według
week
weekend
weekly
wehrmacht
welcome
well
welle
wells
welt
weltkrieg
were
werner
west
western
wf
wg
wh
what
when
where
which
while
white
who
why
wi
wide
wieku
wien
wii
wiki
wikimapia
wikimedia
wikipedia
wild
wildlife
wiley
wilhelm
will
william
williams
wilson
wimbledon
win
wind
windows
wine
winner
winners
wins
winter
wired
wissen
with
within
without
wj
wk
wl
wm
wn
wo
wojewodztwie
wolf
wolfgang
wolfram
wolnosci
woman
women
won
wood
word
words
work
working
works
workshop
world
worldclim
worldfootball
worlds
worldwide
would
wp
wq
wr
wrestling
wright
writer
writers
writing
wrocław
ws
wt
wta
wu
wurttemberg
wv
ww
wwe
www
wx
wy
wyd
wydawnictwo
wz
x
x0
x1
x2
x3
x4
x5
x6
x7
x8
x9
xa
xb
xbiz
xbox
xc
xd
xe
xf
xg
xh
xi
xiaomi
xii
xiii
xiv
xix
xj
xk
xl
xls
xlsx
xm
xml
xn
xo
xp
xperia
xq
xr
xrightarrow
xs
xt
xu
xv
xvi
xvii
xviii
xw
xx
xxi
xxii
xxiii
xxiv
xxv
xxvii
xxx
xy
xz
y
y0
y1
y2
y3
y4
y5
y6
y7
y8
y9
ya
yahoo
yale
yang
yb
yc
yd
ye
year
years
yellow
yemen
yes
yf
yg
yh
yi
yj
yk
yl
ym
yn
yo
york
you
young
your
youth
youtube
yp
yq
yr
ys
yt
yu
yv
yw
yx
yy
yz
z
z0
z1
z2
z3
z4
z5
z6
z7
z8
z9
za
zagreb
zakon
zakład
zaxid
zb
zc
zd
ze
zealand
zeit
zeitschrift
zeitung
zeller
zero
zeszyt
zf
zg
zh
zhang
zi
zik
zinc
zip
zj
zk
zl
zm
zn
zo
zone
zoology
zootaxa
zp
zq
zr
zs
zt
zu
zum
zur
zurich
zv
zw
zweiten
zx
zy
zz
{
|
}
~
¡
£
§
¨
©
ª
«
¬
®
¯
°
±
²
³
´
µ
·
¹
º
»
¼
½
¾
¿
×
ß
æ
ð
÷
ø
þ
đ
ħ
ı
ł
ŋ
œ
ſ
ƒ
ɐ
ɑ
ɒ
ɔ
ɕ
ə
ɛ
ɡ
ɣ
ɦ
ɨ
ɪ
ɫ
ɲ
ɴ
ɾ
ʁ
ʃ
ʊ
ʋ
ʌ
ʎ
ʑ
ʒ
ʔ
ʰ
ʲ
ʷ
ʹ
ʻ
ʼ
ʿ
ˈ
ˌ
ː
˙
˚
΄
α
β
γ
δ
ε
ζ
η
θ
ι
κ
και
λ
μ
ν
ξ
ο
π
ρ
ς
σ
τ
της
του
υ
φ
χ
ψ
ω
ϑ
ϕ
ϵ
а
аарон
аб
абатства
абатство
абд
абдул
абетка
абетки
аби
або
абрамович
абревіатура
абрис
абсолютна
абсолютнии
абсолютно
абсолютноі
абу
абхазіі
авангард
аварію
аварія
аваріі
август
августа
августин
авеню
аверсі
авраам
аврора
австраліиська
австраліиськии
австраліиських
австраліиського
австраліиськоі
австралія
австраліі
австро
австріиська
австріиськии
австріиським
австріиських
австріиського
австріиськоі
австріиські
австріиськіи
австрія
австрією
австріі
авт
авто
автобус
автобуса
автобуси
автобусів
автобіографія
автомат
автоматизаціі
автоматична
автоматичнии
автоматично
автоматичного
автоматів
автомобілем
автомобіль
автомобільна
автомобільнии
автомобільних
автомобільного
автомобільноі
автомобільні
автомобіля
автомобілях
автомобілі
автомобілів
автономна
автономнии
автономних
автономного
автономноі
автономніи
автономію
автономіі
автопортрет
автор
автора
авторами
автореф
автори
авторитет
авторитетних
авторитету
авторка
автором
авторства
авторство
авторське
авторськии
авторських
авторського
авторські
автору
авторів
автосалоні
автошлях
автошляхом
авіакомпанія
авіакомпаніі
авіаносець
авіаносця
авіаносці
авіаносців
авіаціина
авіаціинии
авіаціиних
авіаціиного
авіаціиноі
авіація
авіацією
авіаціі
авів
ага
агент
агента
агенти
агентом
агентства
агентство
агентством
агентів
агенція
агенціі
агломераціі
аграрнии
аграрних
аграрного
аграрноі
агрегат
агрегати
агрегатів
агресію
агресіі
агро
агроном
агітаціі
ад
ада
адам
адама
адамс
адаптація
адаптаціі
адвокат
адвоката
адвокатом
адвокатів
адже
административно
административных
администрации
адміністративна
адміністративне
адміністративнии
адміністративним
адміністративних
адміністративно
адміністративного
адміністративному
адміністративною
адміністративноі
адміністративну
адміністративні
адміністратор
адміністратором
адміністратури
адміністрацію
адміністрація
адміністрацією
адміністраціі
адміністрування
адмірал
адмірала
адольф
адольфа
адрес
адреса
адреси
адресою
адресу
адріан
адріана
адріано
аеродром
аеродрому
аеродромі
аеропорт
аеропорти
аеропортом
аеропорту
аеропортів
аес
аж
аз
азбука
азерб
азербаиджан
азербаиджанська
азербаиджанськии
азербаиджанськоі
азербаиджану
азербаиджані
азов
азовського
азот
азоту
азіиських
азію
азія
азіі
аи
аидар
аидахо
аиленд
аиова
аирес
аиреса
аиресі
ак
акад
академии
академия
академіи
академік
академіка
академіком
академічнии
академічних
академічного
академічному
академічноі
академію
академія
академією
академіі
акваторіі
аквітанія
акимата
акредитаціі
акт
акта
акти
активаціі
активи
активна
активне
активнии
активним
активними
активних
активно
активного
активності
активною
активноі
активну
активні
активність
активів
активіст
активісти
активістів
актов
актом
актор
актора
акторами
актори
акторка
акторки
акторкою
актором
акторськии
акторського
акторськоі
акторську
акторів
актриса
актриси
актрисою
акту
актуальні
актів
акула
акули
акушерськии
акцент
акціи
акціонерне
акціонерного
акцію
акція
акціі
ал
алабама
алан
алана
аланін
алб
алба
албанія
албаніі
алгебра
алгебри
алгоритм
алгоритми
алгоритму
алгоритмів
але
алекс
алекса
александер
александр
александра
александров
александрович
александровського
александріі
алексеи
алексєєв
ален
алессандро
алея
алеі
алжир
алжиру
алжирі
алкоголю
алла
аллен
алма
алмаз
алмазів
алмати
алматинськоі
алонсо
алтаи
алтаиськии
алтаиського
алфавіту
аль
альберт
альберта
альберто
альбом
альбоми
альбомом
альбому
альбомі
альбомів
альбрехт
альбрехта
альманах
альп
альпах
альпи
альтернатива
альтернативи
альтернативна
альтернативнии
альтернативних
альтернативні
альфа
альфонс
альфонсо
альфред
альфреда
альянс
альянсу
алюмінію
аляска
аляски
алі
аліна
аліса
ам
амазонки
аманда
аматорськии
аматорських
аматорського
аматорському
аматорів
амбулаторія
амер
америка
американець
американська
американське
американськии
американським
американськими
американських
американського
американському
американською
американськоі
американську
американські
американськіи
американці
американців
америки
америку
америці
амстердам
амстердамі
амур
амурскои
амурськоі
амінокислот
ан
ана
анализ
аналог
аналогом
аналогів
аналогічна
аналогічнии
аналогічним
аналогічних
аналогічно
аналогічні
аналогією
анальнии
аналіз
аналізу
аналізі
аналітичних
аналітичноі
анастасія
анато
анатолии
анатоліи
анатоліиович
анатолія
анатоліівна
анатомія
анатоміі
анг
ангальт
ангел
ангела
ангели
ангелів
англ
англо
англомовних
англомовному
англіиська
англіиське
англіиськии
англіиським
англіиських
англіиського
англіиському
англіиською
англіиськоі
англіиську
англіиські
англіиськіи
англіиці
англіиців
англію
англія
англією
англіі
ангола
анголи
анд
андерс
андерсон
анджеи
анджелес
анджелеса
анджелесі
анджело
андре
андреа
андреас
андреи
андрея
андрі
андріи
андріиович
андрія
андрієм
андріівка
андріівна
анексіі
анна
анни
анною
анну
анрі
ансамбль
ансамблю
ансамблі
антанти
антарктиди
антени
анти
антитерористичноі
антитіла
античних
античного
античності
античноі
античні
антологія
антологіі
антон
антона
антонов
антонова
антонович
антоніи
антоніми
антоніна
антоніо
антонія
антропологіі
антуан
антін
ану
ані
аніж
анімаціинии
анімаціі
аніме
ао
ап
апарат
апарата
апарати
апаратом
апарату
апаратури
апараті
апаратів
апеляціинии
аполлон
аполлона
апостол
апостола
апостольськоі
апостолів
апреля
апріорі
аптека
ар
араб
араби
арабська
арабськии
арабських
арабського
арабською
арабськоі
арабські
арабів
аравія
аравіі
арагон
аранжування
арбітр
аргентина
аргентини
аргентинськии
аргентині
аргумент
аргументи
аргументів
аргінін
арденни
арджеш
ареал
ареалу
арена
арени
ареною
арені
арешт
арешти
арештовании
арешту
аризона
аристократів
аристократіі
арк
арка
аркадіи
аркадія
арканзас
арки
аркуш
армии
армия
армстронг
арміи
арміиськии
арміиського
арміиськоі
армію
армія
армією
арміі
арно
арнольд
аромат
арсен
арсенал
арсеналу
арсеніи
арср
арт
артаньян
артем
артема
артеріі
артефакти
артефактів
артилеріиська
артилеріиськии
артилеріиських
артилеріиського
артилеріиськоі
артилеріиські
артилерія
артилерією
артилеріі
артист
артиста
артисти
артистка
артистів
артур
артура
артіль
артілі
арх
архангела
архангельскии
археолог
археологи
археологічна
археологічнии
археологічних
археологічного
археологічні
археологія
археологіі
архив
архитектура
архитектуры
архів
архівах
архіви
архівна
архівних
архівноі
архівні
архівована
архівовано
архіву
архіві
архівів
архімандрит
архімандрита
архіпелаг
архіпелагу
архіпелазі
архітектор
архітектора
архітектори
архітектором
архітекторів
архітектура
архітектури
архітектурна
архітектурнии
архітектурних
архітектурно
архітектурного
архітектурноі
архітектурні
архітектурою
архітектуру
архітектурі
архієпископ
архієпископа
архієпископом
арія
ас
асамблея
асамблеі
асистент
асистента
асистентом
асортимент
асоціаціи
асоціацію
асоціація
асоціацією
асоціаціі
асоціюється
аспарагін
аспарагінова
аспект
аспекти
аспектів
аспірант
аспірантури
аспірантуру
аспірантурі
аспірантів
ассоциация
аст
астана
астероід
астероідів
астон
астраханскои
астрель
астронавти
астронавтів
астроном
астрономічнии
астрономічних
астрономічного
астрономія
астрономіі
ат
ата
атак
атака
атаки
атаку
атакував
атакували
атакувальноі
атакувати
атаці
аташе
атд
атланта
атлантиці
атлантичнии
атлантичного
атлантичні
атлас
атлетика
атлетики
атлетік
атлетіко
атмосфера
атмосфери
атмосферних
атмосферу
атмосфері
ато
атом
атома
атоми
атомних
атомноі
атомів
атф
аудиторію
аудиторія
аудиторіі
аудіо
аул
ауылдық
афганістан
афганістану
афганістані
афк
афонсу
африка
африканська
африканськии
африканських
африканського
африканськоі
африки
африку
африці
афін
афінах
афіни
ах
ахл
ахмад
ахмед
ацетилювання
аш
аякс
б
ба
баб
баба
баби
бабич
бабуся
бабусі
баварська
баварія
баваріі
багата
багатии
багатим
багатих
багато
багатого
багатодітніи
багаторазовии
багаторазово
багаторічна
багаторічнии
багаторічну
багаторічні
багатства
багатство
багату
багатьма
багатьом
багатьох
багаті
бад
баден
бажав
бажали
бажан
бажана
бажання
бажанням
бажано
бажають
бажаючи
бажає
баз
база
базар
базель
бази
базиліка
базиліки
базисні
базова
базовии
базових
базового
базовоі
базові
базою
базу
базувався
базувалася
базування
базуються
базується
базі
баи
баидуже
баики
баиковому
баит
баицар
бак
бакалавр
бакалавра
бакеу
бактеріи
бактеріі
баку
бал
бала
балада
баланс
балансу
балет
балету
бали
балка
балками
балканах
балки
балок
балотувався
балтіиського
балтіі
балці
балів
бангладеш
банда
бандери
банди
бандуристів
банк
банки
банкнот
банкноти
банком
банкрутства
банку
банків
банківська
банківських
банківськоі
баня
бані
бар
барабан
барабани
барабанщик
барабаш
баран
барбара
барвінок
баритон
бароко
барон
барона
барретт
баррі
барселона
барселони
барселоні
барт
барі
бас
басеин
басеини
басеину
басеині
басеинів
баскетбол
баскетболу
баскетболіст
басків
батальион
батальиони
батальиону
батальионів
батареи
батарея
батареі
батлер
батька
батькам
батьками
батьки
батько
батькові
батьком
батьків
батьківщина
батьківщини
батьківщиною
батьківщину
батьківщині
баффало
баха
бахші
бачать
бачення
бачив
бачила
бачили
бачимо
бачите
бачити
бачить
бачиш
бачу
башк
башкири
башкирськоі
башкортостан
башкортостану
башта
башти
ббк
бджоли
бджіл
бе
беверлі
без
безансона
безвісти
безкоштовнии
безкоштовно
безліч
безліччю
безлічі
безпека
безпеки
безпеку
безперервно
безперечно
безпеці
безпосередньо
безпосереднього
безпосередньоі
безпосередню
безпосередніи
безпосереднім
безробітними
безробітних
безробіття
безсмертя
безсумнівно
безуглии
безумовно
безуспішно
безхребетними
безхребетних
безіменних
беи
беикер
беилі
беира
бек
бела
беларуси
беларуская
беларусь
беларусі
белград
белграді
белл
белла
бельгіиськии
бельгіиського
бельгія
бельгіі
белэн
бен
бена
бендер
бенджамін
бенедикт
бенуа
бер
бергамо
бердичів
бере
берег
берега
берегах
береги
берегова
береговоі
берегом
берегу
берегів
бережани
береза
березень
березня
березні
березі
берестеиськоі
берестя
береться
берклі
беркут
берлін
берліна
берлінського
берлінському
берліні
берн
бернар
бернард
берні
беррі
беруть
беручи
бессарабіі
бесіди
бет
бета
бетмен
бетону
бетті
бетховена
би
библиотека
бився
бидгощського
бизнес
бик
бика
били
билися
биографическии
биография
бистриця
битв
битва
битвах
битви
битву
битві
бити
битися
бк
бл
блага
благо
благовіщення
благодіина
благодіинии
благодіиних
благодіиного
благословення
благочиння
блакитна
блакитнии
блакитного
блакитні
блек
ближнього
ближче
близнюки
близька
близькии
близьким
близькими
близьких
близько
близького
близькому
близькості
близькі
близькість
блиск
блискавка
блискавки
блискуче
блискучии
блискучі
блог
блок
блокади
блоки
блоку
блокування
блоків
блювання
блюз
блюзу
блідо
бм
бмп
бо
боб
боба
боббі
бог
бога
богато
богдан
богдана
богданович
богеміі
боги
богиня
богині
богові
богом
богоматері
богомольця
богородиці
богослов
богослова
богослужіння
богу
богів
бодаи
божа
боже
божевілля
божевільнии
божества
божество
божии
божого
божоі
бои
боико
боиова
боиове
боиовии
боиовик
боиовики
боиовиків
боиовим
боиовими
боиових
боиового
боиовоі
боиову
боиові
боичук
бока
боках
боки
бокс
боксер
боксу
боку
боків
болг
болгар
болгари
болгарська
болгарське
болгарськии
болгарських
болгарського
болгарською
болгарськоі
болгарія
болгаріі
болдирєв
более
болеслав
болеслава
болонья
болоньі
болота
болотах
болотних
болото
большая
большои
болю
болівія
болівіі
боліт
бомб
бомба
бомбами
бомбардир
бомбардиром
бомбардирів
бомбардувальник
бомбардувальника
бомбардувальники
бомбардувальників
бомбардування
бомби
бон
бондар
бондаренко
бондарчук
бонні
бонус
бор
борг
борги
боргу
бордо
бореться
борець
бори
борис
бориса
борислав
борисов
борисова
борисович
борисом
бориспіль
борисівна
боровков
боровся
боролися
боротися
боротьба
боротьби
боротьбою
боротьбу
боротьбі
борошна
борошно
борт
бортовии
борту
боруссія
борців
боснія
босніі
бостон
бостоні
ботанік
ботаніка
ботаніки
ботанічна
ботанічнии
ботанічних
ботанічного
боці
бою
боявся
боярин
боярчук
боях
боєм
боєприпаси
боєприпасів
боєць
боі
боів
боіться
бпла
брав
брага
бразильськии
бразильського
бразилія
бразиліі
браиан
брак
бракує
брала
брали
брало
брама
брами
браму
бранденбург
брат
брата
братами
брати
братислава
братові
братом
братства
братство
братська
братськіи
братів
браун
брауна
брашова
браян
бредлі
бренд
брендом
бренду
брест
бретань
брехні
бригад
бригада
бригади
бригадир
бригадою
бригаду
бригаді
британська
британське
британськии
британським
британськими
британських
британського
британському
британською
британськоі
британські
британськіи
британці
британців
британію
британія
британією
британіі
брно
бровари
брови
броди
брокгауз
брокгауза
бронза
бронзи
бронзова
бронзовии
бронзовим
бронзових
бронзового
бронзовоі
бронзову
бронзові
бронзу
бронзі
бронювання
броні
брср
брук
бруно
брюгге
брюс
брюса
брюссель
брюсселі
брюінс
бтр
бу
буа
був
бував
бувало
бувають
буває
бувши
буг
бугу
буд
буда
будапешт
будапешті
будди
буддизм
буддизму
буде
будемо
будет
будете
будеш
буди
будинками
будинках
будинки
будинком
будинку
будинків
будинок
будова
будови
будовою
будову
буду
будували
будувалися
будувати
будуть
будучи
будують
будуються
будує
будується
будь
будьте
будівель
будівельнии
будівельник
будівельників
будівельних
будівельного
будівельноі
будівельні
будівлею
будівлю
будівля
будівлями
будівлях
будівлі
будівництва
будівництво
будівництвом
будівництві
буенос
бузеу
бук
букв
буква
буквально
букви
букет
буковина
буковини
буковині
була
булгакова
були
було
бульба
бульвар
бульвару
бундесліги
бундеслізі
бунт
бур
бура
бургундія
бургундіі
буре
буревісник
буржуазіі
бурии
буркіна
бурого
бурунді
буря
буряк
буряків
бурі
буріння
бусел
бут
бутану
бути
буття
бухарест
бухареста
бухаресті
бухта
бухти
бухті
бучацького
бучач
буш
буша
бъ
бы
был
была
были
было
быть
бюджет
бюджету
бюлетень
бюро
бюст
бялова
бєлгородськоі
бі
біатлону
бібліогр
бібліографічнии
бібліографія
бібліотек
бібліотека
бібліотеки
бібліотекою
бібліотеку
бібліотеці
бібліотечноі
біблія
бібліі
біг
бігу
біда
бідна
біднии
бідних
бідності
бідні
бідніи
бідність
біженців
біжить
бізнес
бізнесмен
бізнесом
бізнесу
бізнесі
біи
біицем
біиця
біицями
біиці
біиців
бік
біл
біла
білгород
біле
білецькии
білецького
білии
білик
білим
білими
білих
білка
білки
білків
білл
білла
біллі
біло
білого
білок
білому
білоруси
білорусь
білоруська
білоруськии
білоруських
білоруського
білоруському
білоруською
білоруськоі
білоруську
білоруські
білорусі
білорусів
білостоцького
білоус
білоцерківського
білою
білоі
білу
біль
більбао
більш
більша
більше
більшии
більшим
більшими
більших
більшовик
більшовиками
більшовики
більшовиків
більшовицького
більшовицькоі
більшого
більшості
більшою
більшоі
більшу
більші
більшіи
більшість
більшістю
біля
білі
біліи
бін
біобібліографічнии
біографічна
біографічнии
біографічні
біографія
біографіі
біолог
біологічнии
біологічних
біологічного
біологічному
біологічноі
біологічні
біологія
біологіі
біорізноманіття
біохіміі
бір
біржа
біржі
біс
бісау
бісмарка
біт
біч
бічних
бічні
в
ва
вавилон
вага
ваги
вагнер
вагнера
ваговіи
вагомии
вагомі
вагон
вагони
вагонів
вагою
вагу
вагітності
вагітність
вади
вадим
вадима
важка
важке
важкии
важким
важкими
важких
важко
важкого
важкою
важкоі
важку
важкі
важкіи
важлива
важливе
важливии
важливим
важливими
важливих
важливо
важливого
важливості
важливою
важливу
важливі
важливість
важнѣишія
важче
ваз
ваза
вази
вазі
ваилд
ваит
вак
вакуленко
вакцини
вал
вала
вале
валенсія
валенсіі
валентин
валентина
валентинович
валеріи
валеріиович
валерія
вали
валом
валу
валуа
валь
вальс
вальтер
валюти
валя
валі
валів
валін
вам
вами
ван
вана
ванкувер
ванкувері
вантаж
вантажнии
вантажних
вантажного
вантажні
вантажу
вантажі
вантажів
вантажівки
вантажівок
вапняку
вар
варвара
варвари
вармінсько
варта
варти
варто
вартості
вартою
варту
вартість
вартістю
варшава
варшави
варшавського
варшаві
варіант
варіантах
варіанти
варіантом
варіанту
варіанті
варіантів
варіаціі
варіюється
вас
васи
василем
василенко
василии
василь
васильевич
васильківського
васильович
васильовича
васильєв
васильєва
василю
василя
василівка
василівна
василіи
василія
василіян
васко
ват
ватажок
ватикан
ватикану
ватутіна
вацлав
вацлава
ваш
ваша
ваше
вашингтон
вашингтона
вашингтоні
ваших
вашого
вашу
ваші
вбив
вбивати
вбивають
вбиває
вбивств
вбивства
вбивство
вбивстві
вбивця
вбивці
вбили
вбити
вбитии
вбитих
вбито
вбиті
вболівальників
вбрання
вбудовании
вв
вважав
вважався
вважала
вважалася
вважали
вважалися
вважалося
вважати
вважатися
вважають
вважаються
вважаючи
вважає
вважається
введена
введение
введении
введення
введенням
введено
введені
ввели
ввести
ввесь
ввечері
вводить
вводиться
вводять
ввп
ввс
ввів
ввіишла
ввіишли
ввіишло
ввіишов
вглиб
вгору
вгорі
вдавалося
вдалим
вдало
вдалось
вдалося
вдарив
вдасться
вдається
вдвічі
вдень
вднг
вдова
вдови
вдома
вдосконалення
вдруге
ве
веб
вебенциклопедія
вебер
вебресурс
вебсаит
вебсаиті
вебсторінка
вега
веде
ведення
ведеться
ведмедя
ведмідь
ведомости
ведуть
ведуться
ведуча
ведучии
ведучим
ведучою
веж
вежа
вежами
вежею
вежу
вежі
веи
веин
век
века
веков
вектор
вектора
векторів
вела
велася
вели
велика
великдень
велике
великии
великим
великими
великих
велико
великого
великои
великому
великопольського
великою
великоі
велику
великі
великіи
велися
велич
величезна
величезне
величезнии
величезним
величезних
величезного
величезною
величезноі
величезну
величезні
величества
величин
величина
величини
величиною
величину
величко
величності
веллі
велосипедів
велося
вельми
вен
венді
венера
венери
венесуела
венесуели
венесуелі
венето
венеція
венеціі
вентиляціі
вер
вера
верба
верби
верде
верді
верес
вересень
вересня
вересні
вермахту
вермахті
вермонт
вернадського
вернер
вероніка
вероніки
верст
верств
верстви
версти
версіи
версію
версія
версіями
версіях
версією
версіі
вертикальних
вертикально
вертикального
вертикальні
вертольоти
вертольотів
вертоліт
верфі
верх
верхи
верхнего
верхнього
верхньому
верхньоі
верхню
верхня
верхнє
верхні
верхніи
верхніх
верховна
верховнии
верховним
верховного
верховною
верховноі
верховніи
верхів
верхівка
верхівки
верхівці
вершин
вершина
вершинами
вершини
вершиною
вершину
вершині
вершник
вершників
вес
весела
веселии
веселка
весело
веселі
веска
вескі
веслування
весна
весни
весною
веснянии
вест
вести
вестник
весь
весілля
весіллі
ветеран
ветерана
ветеранів
ветеринарноі
вече
вечері
вечора
вечори
вечір
вечірня
вечірніи
вже
вживали
вживання
вживати
вживають
вживаються
вживається
вжитку
взагалі
взаємин
взаємини
взаємно
взаємодію
взаємодіють
взаємодія
взаємодіє
взаємодіі
взаємозв
взвод
взводу
вздовж
взимку
взуття
взяв
взявся
взявши
взяла
взяли
взяло
взята
взяти
взятии
взято
взяття
взяті
ви
вибирати
вибирає
виборами
виборах
вибори
виборов
виборола
вибором
вибору
виборців
виборча
виборчии
виборчих
виборчого
виборчому
виборчоі
виборчі
виборював
виборі
виборів
вибрав
вибрали
вибрании
вибраних
вибрані
вибрати
вибув
вибули
вибух
вибухи
вибухових
вибуху
вибухів
вибір
вибірки
виведении
виведення
виведені
вивезення
вивезено
вивезли
вивели
виверження
вивести
виводить
виводиться
виводу
вивчав
вивчала
вивчали
вивчати
вивчають
вивчаючи
вивчає
вивченню
вивчення
вивченням
вивченні
вивчив
вивчити
вивів
вигадании
вигляд
виглядають
виглядає
виглядом
вигляду
вигляді
вигнав
вигнали
вигнання
вигнанні
виговського
вигоди
виготовив
виготовлена
виготовлении
виготовлення
виготовленні
виготовлено
виготовлені
виготовлявся
виготовляли
виготовлялися
виготовляти
виготовляють
виготовляються
виготовляється
виграв
вигравав
вигравши
виграла
виграли
виграти
виграє
вид
видав
видавав
видавався
видавати
видавець
видавництва
видавництво
видавництвом
видавництві
видавнича
видавничии
видавничо
видавничоі
видавця
видавців
видала
видалення
видали
видалити
видами
видана
видании
виданих
видання
виданням
виданнях
виданні
видано
видань
видані
видати
видатнии
видатним
видатних
видатного
видатні
видах
видача
видачі
видають
видаються
видає
видається
видео
види
видимості
видиму
видко
видно
видобування
видобутку
видобуток
видова
видом
виду
виді
видів
виділена
виділении
виділення
виділено
виділені
виділив
виділити
виділяють
виділяються
виділяє
виділяється
видіння
вижив
виживання
вижили
вижити
визволення
визвольнии
визвольних
визвольного
визвольноі
визнав
визнавав
визнавали
визнала
визнали
визнана
визнании
визнаних
визнання
визнанням
визнано
визнані
визнати
визначати
визначають
визначаються
визначає
визначається
визначена
визначении
визначених
визначення
визначенням
визначенні
визначено
визначені
визначив
визначила
визначили
визначити
визначна
визначнии
визначних
визначні
визнають
визнає
визнається
вии
вииде
виити
виишла
виишли
виишло
виишов
виишовши
вик
викиди
викидів
виклав
викладав
викладала
викладання
викладати
викладач
викладача
викладачем
викладачі
викладачів
викладає
викладені
виклик
викликав
викликала
викликали
викликало
викликана
викликании
викликані
викликати
викликають
викликає
виклики
виклику
виключає
виключении
виключення
виключенням
виключено
виключно
виконав
виконавець
виконавиця
виконавцем
виконавця
виконавцями
виконавці
виконавців
виконавчии
виконавчим
виконавчих
виконавчого
виконавчоі
виконавчі
виконавши
виконала
виконали
виконана
виконании
виконаних
виконання
виконанням
виконанні
виконано
виконані
виконати
виконкому
виконував
виконувала
виконували
виконувалися
виконувати
виконувач
виконують
виконуються
виконуючи
виконує
виконується
викопнии
викопних
викопні
використав
використали
використана
використании
використанню
використання
використанням
використанні
використано
використані
використати
використовував
використовувався
використовувала
використовувалась
використовувалася
використовували
використовувались
використовувалися
використовувалося
використовувати
використовуватись
використовуватися
використовують
використовуються
використовуючи
використовує
використовується
викрадення
виктор
викуп
викупив
викупу
вилетів
вилетіла
вилучення
вилучено
вильоту
вильотів
вимагав
вимагала
вимагали
вимагало
вимагати
вимагають
вимагаючи
вимагає
вимерлии
вимирання
вимова
вимовляється
вимову
вимог
вимога
вимогам
вимогами
вимоги
вимогою
вимогу
вимушении
вимушені
вимір
виміри
вимірювання
вимірювань
вимірюється
вин
вина
винагороду
винаишов
винар
винаходи
винаходів
винахід
винахідник
винен
вини
виник
виникали
виникати
виникають
виникає
виникла
виникли
виникло
виникнення
виникнути
винищувальноі
винищувач
винищувача
винищувачі
винищувачів
винним
винниченка
винниченко
вино
виноград
виноградарства
виноградова
винограду
виносила
виноски
виносок
винятково
винятком
виняток
виніс
вип
випадає
випадках
випадки
випадкових
випадково
випадкові
випадком
випадку
випадків
випадок
випаровування
випередивши
виписка
виплати
випливає
виповнилося
випр
виправити
виправлення
виправно
випробування
випробувань
випромінювання
випуск
випускався
випускали
випускалися
випускати
випускають
випускаються
випускає
випускається
випуски
випускник
випускники
випускників
випуском
випуску
випусків
випустив
випустила
випустили
випустити
випущена
випущении
випущених
випущено
випущені
виражає
виражається
виражена
виражении
вираження
виражені
вираз
вирази
виразно
виразом
виразу
виразів
вироби
вироблення
вироблено
виробляли
виробляти
виробляють
виробляються
виробляє
виробляється
виробник
виробника
виробники
виробником
виробників
виробництв
виробництва
виробництво
виробництвом
виробництву
виробництві
виробнича
виробничии
виробничих
виробничо
виробничого
виробничоі
виробничі
виробок
виробу
виробів
вирок
вироку
виросла
вирощували
вирощування
вирощують
вирушають
вирушає
вирушив
вирушила
вирушили
виріб
вирізняється
виріс
вирішальнии
вирішення
вирішенні
вирішено
вирішив
вирішила
вирішили
вирішило
вирішити
вирішувати
вирішують
вирішує
висадився
висадки
висадку
висвячении
висвітлення
виселення
вислании
висловив
висловився
висловили
висловити
висловлювання
висловлює
вислугу
вислів
виснаження
висновки
висновку
висновків
висновок
висока
високе
високии
високим
високими
високих
високо
високого
високому
високою
високоі
високу
високі
високіи
висот
висота
висотах
висоти
висотою
висоту
висоті
височини
вистав
вистава
виставах
вистави
виставка
виставках
виставки
виставку
виставок
виставу
виставці
виставі
вистачало
вистачає
вистачило
виступ
виступав
виступала
виступали
виступами
виступати
виступах
виступають
виступаючи
виступає
виступи
виступив
виступила
виступили
виступити
виступу
виступів
висунув
висунули
висунутии
витоки
витоком
витоку
витоків
витончених
витрат
витрата
витрати
витримати
витягнута
витік
витікає
вихованець
виховання
вихованців
виховнии
виховноі
виховувався
виховує
виходи
виходив
виходила
виходили
виходило
виходити
виходить
виходом
виходу
виходять
виходячи
виході
вихід
вихіднии
вихідним
вихідних
вихідного
вихідні
вихідці
вихідців
вич
вишня
вишні
вищ
вища
вище
вищии
вищим
вищими
вищих
вищого
вищому
вищою
вищоі
вищу
вищі
вищіи
виявив
виявився
виявила
виявилась
виявилася
виявили
виявилися
виявилось
виявилося
виявити
виявлена
виявлении
виявлених
виявлення
виявлено
виявлені
виявляти
виявляють
виявляються
виявляє
виявляється
виізд
виізді
виізному
виіхав
виіхала
виіхали
виіхати
вк
вка
вказав
вказали
вказана
вказане
вказании
вказано
вказані
вказати
вказував
вказувати
вказують
вказує
вказується
вказівки
вказівкою
вкл
вклад
включав
включала
включали
включати
включають
включаючи
включає
включена
включении
включення
включено
включені
включив
включили
включити
включно
вкп
вкраи
вкрита
вкритии
вкриті
вл
влад
влада
влади
владивосток
владика
владимир
владимира
владимирович
владимирская
владимирскои
владимирського
владимирськоі
владислав
владислава
владою
владу
владі
власна
власне
власнии
власник
власника
власниками
власники
власником
власників
власним
власними
власних
власницьке
власницькому
власного
власному
власноруч
власності
власною
власноі
власну
власні
власніи
власність
власністю
власти
властивостеи
властивостями
властивості
властиві
властивість
власть
влаштовано
влаштовує
влаштував
влаштувався
влаштували
влаштувати
влксм
влоцлавського
влітку
вмирає
вмс
вмф
вміли
вміння
вміст
вмістом
вмісту
вміщує
вміє
внаслідок
внесении
внесення
внесено
внесені
внесли
внесок
внести
внз
вниз
внизу
вновь
вночі
внутренних
внутреннихъ
внутрішньо
внутрішнього
внутрішньому
внутрішньою
внутрішньоі
внутрішню
внутрішня
внутрішнє
внутрішні
внутрішніи
внутрішнім
внутрішніми
внутрішніх
вніс
внічию
во
вобласьць
вовк
вовка
вовки
вовків
вогези
вогнем
вогнепальноі
вогнища
вогню
вогні
вогонь
вод
вода
водами
водах
водень
води
воднии
водними
водних
водно
водного
водночас
водноі
водню
водні
водоим
водоимах
водоими
водопостачання
водоростеи
водорості
водоспад
водоспаду
водосховища
водосховище
водотоннажністю
водою
воду
водяна
водянии
водяних
водяного
водяться
воді
водіи
водія
водієм
воениздат
военная
военно
военное
военныи
вождь
вождя
вождів
возз
вознесіння
воина
воине
воины
воиска
воитович
вокал
вокалу
вокальнии
вокаліст
вокер
вокзал
вокзалу
вокруг
волга
волги
волгоградскои
волгоградськоі
волеибол
волеиболу
волею
воли
волинська
волинське
волинськии
волинського
волинському
волинськоі
волинські
волинськіи
волинь
волині
волков
волкова
воллес
вологи
вологии
вологим
вологих
вологодська
вологодськоі
вологості
вологі
вологість
володар
володарем
володарка
володаря
володарі
володарів
володи
володимир
володимира
володимирович
володимировича
володимиром
володимиру
володимирівна
володимиріі
володів
володіла
володіли
володіння
володінні
володінь
володіти
володіють
володіє
волокна
волокон
волонтер
волонтери
волонтерів
волосками
волосся
волоссям
волостеи
волости
волость
волості
волошин
волтер
вольф
вольфганг
волю
воля
волі
волів
вон
вона
вони
воно
вооз
вопросу
вопросы
ворог
ворога
ворогами
вороги
ворогом
ворогів
вороже
ворожии
ворожих
ворожого
ворожоі
ворожі
ворон
ворона
воронеж
воронежскои
воронезькоі
ворота
воротами
воротар
воротарем
воротаря
воротарів
воротах
ворошилова
воррен
ворскла
ворскли
воріт
восени
воскресіння
воспоминания
востаннє
восток
востока
восточно
восточнои
восьми
восьмии
восьмого
вотсон
вочевидь
воював
воювали
воювати
вояк
вояки
вояків
воєвода
воєводи
воєводства
воєводство
воєводстві
воєн
воєначальник
воєннии
воєнних
воєнно
воєнного
воєнноі
воєнні
воін
воіна
воінам
воіни
воінів
вп
впав
впадають
впадає
впадіння
впала
впали
впевнении
впевнено
вперед
вперше
вплив
впливати
впливають
впливає
впливи
впливових
впливового
впливом
впливу
впливів
вплинув
вплинула
вплинули
вплинуло
вплинути
впоратися
впорядкування
вправ
вправи
впровадження
впроваджено
впродовж
впс
вр
вражає
вражении
враження
вранці
врахована
враховані
враховувати
враховуючи
враховує
врахування
врегулювання
времени
время
врешті
врожаю
вроцлавського
вру
вручається
вручення
врученням
вручив
вручну
врядування
врятував
врятувати
врятуватися
вс
все
всеволод
всеволода
всего
всем
всеобщая
всеобщеи
всередину
всередині
всероссииская
всероссиискои
всеросіиськии
всеросіиського
всесвіт
всесвітньо
всесвітнього
всесвітньоі
всесвітня
всесвітніи
всесвіту
всесвіті
всесоюзная
всесоюзнии
всесоюзних
всесоюзного
всесоюзнои
всеукраінська
всеукраінське
всеукраінськии
всеукраінських
всеукраінського
всеукраінському
всеукраінськоі
всех
встав
встановив
встановивши
встановила
встановили
встановити
встановлена
встановлении
встановлених
встановлення
встановленням
встановлено
встановленого
встановленому
встановлені
встановлювати
встановлюють
встановлюються
встановлює
встановлюється
встиг
встигає
встигла
встигли
вступ
вступати
вступає
вступив
вступила
вступили
вступити
вступу
всупереч
вська
вськии
всього
всьому
всю
всюди
вся
всякого
всякі
всі
всіи
всіляко
всім
всіма
всіх
всією
всієі
вт
втекла
втекли
втекти
втеча
втечу
втечі
вторая
вторгнення
вторинних
второи
втрат
втрата
втратами
втрати
втратив
втративши
втратила
втратили
втратити
втратою
втрату
втрачати
втрачають
втрачає
втрачена
втрачении
втрачено
втрачені
втретє
втручання
втт
втік
втілення
втім
ву
вуан
вуглеводнів
вуглехіміі
вуглецю
вугілля
вугільних
вугільноі
вуд
вуе
вузла
вузли
вузлом
вузлів
вузов
вузол
вузька
вузькии
вузьких
вузько
вузькому
вузькі
вузів
вул
вулицею
вулиць
вулицю
вулиця
вулицями
вулицях
вулиці
вуличних
вулкан
вулкана
вулканів
вуха
вухо
вуцвк
входження
входив
входила
входили
входило
входити
входить
входом
входу
входять
входящих
вході
вхід
вхідних
вхідні
вц
вцвк
вчасно
вчена
вчене
вчении
вченим
вченими
вчених
вчення
вченого
вченоі
вчені
вчився
вчинення
вчинив
вчинили
вчинки
вчинок
вчителем
вчитель
вчителька
вчителькою
вчителя
вчителями
вчителі
вчителів
вчитися
вчора
вшанували
вшанування
вщент
въ
възраст
вы
вып
выпуск
выпускъ
высшая
высших
вюртемберг
вятка
вячеслав
ві
віа
вів
вівсянка
вівтар
вівтаря
вівтарі
вівторок
вівці
від
відання
віданні
відбив
відбили
відбити
відбиток
відбиття
відбору
відборі
відбув
відбував
відбувався
відбувалася
відбувались
відбувалися
відбувалось
відбувалося
відбуватися
відбуваються
відбувається
відбувся
відбудеться
відбулась
відбулася
відбулись
відбулися
відбулось
відбулося
відбутися
відбір
відвагу
відведення
відверто
відвідав
відвідала
відвідали
відвідати
відвідував
відвідувала
відвідували
відвідування
відвідувати
відвідувачі
відвідувачів
відвідують
відвідує
відгалуження
відгук
відгуки
відгуків
віддав
віддавати
віддала
віддалених
віддалені
віддали
віддании
віддано
відданість
віддати
віддають
віддає
відділ
відділення
відділенням
відділенні
відділень
відділи
відділом
відділу
відділі
відділів
віденськии
віденського
віденському
віденськоі
відень
відео
відеогра
відеокліп
відеоігор
відзнака
відзнаки
відзнакою
відзнаку
відзначався
відзначали
відзначають
відзначаються
відзначає
відзначається
відзначена
відзначении
відзначення
відзначено
відзначені
відзначив
відзначився
відзначившись
відзначили
відзначити
відкидає
відкинув
відкладають
відкладає
відкладеннях
відклади
відкладів
відкрив
відкривати
відкривачем
відкриваються
відкриває
відкривається
відкрився
відкрила
відкрилася
відкрили
відкрита
відкрите
відкрити
відкритии
відкритим
відкритими
відкритих
відкрито
відкритого
відкритому
відкритою
відкритоі
відкриття
відкриттям
відкритті
відкриттів
відкриту
відкриті
відкритіи
відліку
відмова
відмови
відмовив
відмовився
відмовилася
відмовились
відмовилися
відмовитися
відмовляється
відмову
відміна
відмінник
відмінно
відмінностеи
відмінності
відмінною
відмінні
відмінність
відмінністю
відміну
відмінювання
віднесені
віднести
відновив
відновила
відновили
відновити
відновлена
відновлении
відновлення
відновленням
відновлено
відновлені
відновлює
відносили
відносин
відносинах
відносини
відносить
відноситься
відносна
відносно
відносності
відносять
відносяться
відношенню
відношення
відношенні
відня
відні
відображають
відображає
відображення
відокремлення
відома
відоме
відомии
відомим
відомими
відомих
відомо
відомого
відомому
відомостеи
відомостями
відомості
відомою
відомоі
відомства
відому
відомі
відп
відповів
відповід
відповідав
відповідала
відповідали
відповідало
відповідальнии
відповідальним
відповідальності
відповідальність
відповідальністю
відповідати
відповідають
відповідає
відповідеи
відповідна
відповідне
відповіднии
відповідним
відповідними
відповідних
відповідно
відповідного
відповідності
відповідноі
відповідну
відповідні
відповідність
відповідь
відповіді
відповіла
відповісти
відпочинку
відпочинок
відправив
відправився
відправили
відправити
відправитися
відправлении
відправлення
відправлено
відправлені
відправляються
відправляє
відправляється
відпрацьована
відпустку
відразу
відродження
відряджении
відрядження
відрізнити
відрізнявся
відрізнялася
відрізнялися
відрізнятися
відрізняються
відрізняє
відрізняється
відрізок
відсотка
відсотків
відсоток
відставки
відставку
відставці
відстань
відстані
відступ
відступив
відступили
відступити
відступу
відсутності
відсутня
відсутнє
відсутні
відсутніи
відсутність
відсутністю
відсік
відсіку
відсіч
відтак
відтворення
відтворити
відтепер
відтоді
відтінком
відтінків
відтінок
відхилення
відхилив
відходи
відходить
відходу
відходять
відходів
відхід
відчув
відчував
відчувати
відчувають
відчуває
відчувається
відчуження
відчуття
відшкодування
відьма
відьми
відіграв
відіграла
відіграли
відіграти
відіграють
відіграє
відіити
відіишла
відіишли
відіишов
віз
візантіиська
візантіиськии
візантіиських
візантіиського
візантіиськоі
візантіі
візит
візитна
візиту
візуально
візуалізаціі
візьме
віин
віина
віинами
віинах
віини
віиною
віину
віині
віиськ
віиська
віиськам
віиськами
віиськах
віисько
віиськова
віиськове
віиськовии
віиськовик
віиськовиків
віиськовим
віиськовими
віиськових
віиськово
віиськового
віиськовому
віиськовополонених
віиськовослужбовець
віиськовослужбовці
віиськовослужбовців
віиськовою
віиськовоі
віиськову
віиськові
віиськовіи
віиськом
віиську
вік
віки
вікна
вікнами
вікно
віковии
віковим
вікових
вікові
віком
вікон
віконт
віктор
віктора
вікторович
віктором
віктору
вікторівна
вікторія
вікторіі
віку
вікі
віків
вікіданих
вікідані
вікімапіі
вікінгів
вікіпедія
вікіпедією
вікіпедіі
вікісховище
віл
віла
вілл
вілла
вілли
віллі
вілсон
вільгельм
вільгельма
вільгельмом
вільна
вільне
вільнии
вільним
вільними
вільних
вільно
вільного
вільному
вільною
вільноі
вільну
вільнюс
вільнюсі
вільні
вільніи
вільям
вільяма
вільямом
вільямс
вільямса
він
вінницька
вінницькии
вінницького
вінницькоі
вінницькіи
вінниця
вінниці
вінниччини
вінниччині
вінніпег
вінок
віночок
вінсент
вінчі
віолончелі
віра
вірджинія
вірджиніі
віри
вірив
вірили
вірити
вірить
вірм
вірмен
вірмени
вірменська
вірменськии
вірменських
вірменського
вірменськоі
вірменія
вірменіі
вірнии
вірним
вірних
вірності
вірні
вірність
вірогідно
віросповідання
віросповіданням
вірою
віртуальна
віртуальнии
віру
вірування
вірувань
вірус
віруси
вірусу
вірусів
віруючих
вірш
вірша
віршах
вірші
віршів
вірять
вірі
вісбаден
вісенте
вісконсин
вісла
вісли
вісник
вісті
вісь
вісьмома
вісім
віта
віталіи
віталіиович
віталія
вітебська
вітебськоі
вітер
вітри
вітрила
вітром
вітру
вітряних
вітрів
вітчизни
вітчизняна
вітчизняних
вітчизняного
вітчизняноі
вітчизняніи
віце
віці
віче
вічна
вічне
вічнии
вічно
вічного
вічні
вічність
г
га
габріель
габсбург
габсбургів
гавань
гавані
гаваі
гаврило
гаврилович
гаврилюк
гагаріна
газ
газет
газета
газетах
газети
газетою
газету
газеті
гази
газовии
газових
газового
газовоі
газові
газом
газопроводу
газопровід
газу
газі
газів
гаи
гаидамаки
гал
галактик
галактика
галактики
галаца
галерею
галерея
галереі
галина
галини
галицька
галицькии
галицьких
галицько
галицького
галицькоі
галич
галичина
галичини
галичину
галичині
галліі
галузеи
галузь
галузях
галузі
гальма
гальмування
галя
гама
гамбург
гамбурзі
гамма
гамільтон
ган
гана
гани
ганна
ганни
ганновер
ганну
ганс
ганса
гар
гарады
гаразд
гарантує
гарантіі
гарвардського
гарві
гармат
гармата
гарматами
гармати
гарматою
гармату
гармонія
гармоніі
гарна
гарнии
гарно
гарну
гарні
гарнізон
гарнізону
гарольд
гаронна
гаррі
гарріс
гаррісон
гарсія
гарт
гаряче
гарячих
гарячка
гарячки
гарячі
гарі
гасло
гаслом
гастролював
гастролі
гауптман
гаю
гая
гаі
гаіті
гб
гв
гвардия
гвардіиська
гвардіиськии
гвардіиського
гвардіиськоі
гвардія
гвардіі
гватемала
гватемали
гвинтівка
гвинтівки
гвинтівок
гвінея
гвінеі
гг
ггц
где
ге
геи
гектарів
гелен
гелена
гельсінкі
гелію
гемпшир
ген
гена
гендерноі
генеалогічнии
генеалогія
генеза
генерал
генерала
генералом
генеральна
генеральне
генеральнии
генеральним
генерального
генеральному
генеральноі
генералів
генератор
генераціі
генетики
генетичних
генетично
гени
геннадіи
геннадіиович
геннадія
геном
геноцид
геноциду
генрі
генріх
генріха
генріхом
генуя
генуі
генштабу
генів
геогр
географ
географическии
география
географічна
географічне
географічнии
географічними
географічних
географічного
географічному
географічні
географія
географіі
геолог
геолого
геологічна
геологічних
геологічного
геологічноі
геологічні
геологія
геологіі
геометрія
геометріі
георг
георга
георгіи
георгіиович
георгія
геральдика
герб
герба
герберт
герберта
герби
гербом
гербу
гербі
гербів
герман
германа
геродот
герои
герою
героя
героям
героями
героєм
героі
героів
героізм
героіня
героіні
герцеговина
герцеговини
герцеговині
герцог
герцога
герцогиня
герцогом
герцогства
герцогство
гершель
гері
гес
гессен
гестапо
гете
гетто
геть
гетьман
гетьмана
гетьманом
гетьманськоі
гетьманщини
гине
гинуть
гирла
гирло
гирлом
гирлі
гл
глав
глава
глави
главн
главная
главного
главныи
главою
гладкии
гладкі
глазго
глибина
глибинах
глибини
глибиною
глибину
глибині
глибока
глибоке
глибокии
глибоким
глибоких
глибоко
глибокого
глибокоі
глибоку
глибокі
глибше
глина
глини
глобальна
глобальних
глобального
глобальноі
глобальні
глобус
глорія
глосаріи
глутамін
глутамінова
глухии
глухів
глюкози
глядача
глядачі
глядачів
гліб
гліцин
гміна
гмінами
гмінах
гміни
гміні
гнат
гнатович
гнатюк
гнатюка
гнів
гніву
гнізда
гніздиться
гніздо
гніздування
гніздяться
го
говард
говарда
говори
говорив
говорила
говорили
говорити
говорить
говориться
говорять
говорячи
гоголь
гоголя
год
года
годин
година
години
годинник
годинника
годину
годині
годов
году
годы
годі
годѣ
гол
гола
голами
голден
голи
голии
голландськии
голландського
голландськоі
голландіі
голлівуді
голов
голова
головами
голови
головки
головко
головна
головне
головнии
головним
головними
головних
головно
головного
головнокомандувач
головнокомандувача
головнокомандувачем
головному
головною
головноі
головну
головні
головніи
головою
голову
головуванням
головченко
голові
голод
голодом
голодомор
голодомору
голоду
голодування
голокост
голокосту
голом
голос
голосами
голоси
голосних
голосно
голосні
голосом
голосу
голосування
голосуванням
голосуванні
голосів
голу
голуб
гольштеин
голі
голів
гомель
гомельськоі
гомер
гомера
гомес
гондурасу
гонка
гонках
гонки
гонконг
гонконгу
гонку
гонок
гонсалес
гонці
гончар
гончара
гончаренко
гор
гора
горами
горах
гордон
гордона
гордість
горе
гори
горизонт
горизонтальних
горизонтально
горизонтальні
горизонту
горинь
горить
горло
горобець
горобцеподібних
город
города
городам
городища
городище
городов
городок
городским
городских
городского
городскои
горою
гору
горького
горі
горілки
горіння
горіх
гос
господа
господар
господарем
господарку
господарств
господарства
господарство
господарством
господарстві
господарськии
господарських
господарського
господарськоі
господарські
господарювання
господаря
господарі
господарів
господи
господиня
господнього
господь
госпіталь
госпіталю
госпіталі
гост
гостеи
гостра
гострии
гострим
гострих
гостро
гострого
гостроі
гострі
гостя
гостях
гості
государства
государственного
государственное
государственнои
государственныи
готель
готелю
готелі
готелів
готи
готики
готова
готовии
готових
готовності
готовність
готові
готував
готувався
готували
готувати
готують
готуються
готує
готується
гпу
гр
гра
грав
гравець
гравцеві
гравцем
гравця
гравцям
гравцями
гравці
гравців
гравчині
гравюри
град
градусів
грала
грали
грам
грама
граматика
граматики
грамота
грамотами
грамоти
грамотою
грамоту
грамів
гран
гранат
гранати
гранд
гранде
границ
границах
границя
границі
грант
грані
граніт
граніту
грати
граф
графа
графи
графиня
графині
графом
графства
графство
графстві
графу
графів
графік
графіка
графіки
графіку
графіті
графічнии
графічних
графічного
графічні
грають
граючи
грає
греблею
греблю
гребля
греблі
гребінь
грегорі
греи
греис
греки
греко
греків
грем
греммі
гренландіі
грец
грецька
грецьке
грецькии
грецьким
грецьких
грецького
грецькою
грецькоі
грецьку
грецькі
грецькіи
греція
греціі
гри
гриб
гриби
грибів
гривень
гривні
григо
григор
григории
григорович
григоровича
григорівна
григоріи
григорія
григорієм
гризунів
грипу
гриценко
грн
гробниця
гробниці
гродно
грознии
громад
громада
громади
громадою
громадська
громадське
громадськии
громадським
громадськими
громадських
громадсько
громадського
громадському
громадськості
громадською
громадськоі
громадську
громадські
громадськіи
громадськість
громадськістю
громаду
громадян
громадянам
громадянами
громадяни
громадянин
громадянина
громадянином
громадянства
громадянство
громадянська
громадянських
громадянського
громадянськоі
громадянську
громадянські
громадянськіи
громаді
гросмеистер
грот
грошеи
грошима
грошова
грошових
грошовоі
грошову
грошові
гроші
грою
гру
груд
грудеи
грудень
груди
грудня
грудні
грудьми
грудях
груз
грузинська
грузинськии
грузинського
грузинськоі
грузія
грузіі
груп
група
групами
групах
групи
груповии
групового
груповому
групою
группа
группы
групу
групі
грушевськии
грушевського
грі
грім
грін
грінченка
гріх
гріхи
гу
губ
губа
губернатор
губернатора
губернатором
губернии
губерния
губернскаго
губернська
губернського
губернськоі
губерніи
губернія
губерніі
губерськии
губи
гуго
гук
гуманітарнии
гуманітарних
гуманітарного
гуманітарноі
гумор
гумору
гунів
гур
гурт
гурти
гуртка
гуртки
гуртожиток
гурток
гуртом
гурту
гурті
гуртів
гусар
густав
густава
густина
густини
густо
густота
гута
гц
гі
гібралтару
гігієни
гідності
гідність
гідроелектростанція
гідролаз
гідрологічна
гідрологічнии
гілка
гілками
гілки
гілку
гілл
гілок
гільдіі
гімн
гімназію
гімназія
гімназіі
гімнастики
гімну
гінді
гіпероніми
гіпоніми
гіпотез
гіпотеза
гіпотези
гіпотезу
гір
гірка
гірник
гірників
гірнича
гірничии
гірничих
гірничо
гірничого
гірничоі
гірська
гірськии
гірськими
гірських
гірсько
гірського
гірському
гірськоі
гірські
гірськіи
гірше
гістидин
гість
гітара
гітари
гітарист
гітариста
гітаристом
гітарі
гітлер
гітлера
д
да
дав
давав
даваи
давала
давали
давало
давати
давид
давида
давидович
давнини
давнину
давно
давнього
давньогрецькии
давньогрецькоі
давньоруського
давньоі
давню
давня
давнє
давні
давніи
давніх
давши
давід
дагестану
даи
даите
дакота
дал
дала
далекии
далеких
далеко
далекого
далекому
далекі
дали
даллас
дало
дальності
дальність
дальше
далі
дам
дама
дами
дан
дана
дане
дании
данила
данило
данилович
даними
данину
даних
данные
данным
даннымъ
данных
дано
даного
даному
даноі
данська
данськии
данського
данте
дану
дані
даніель
даніи
данія
даніі
дар
дари
дарує
дарія
дасть
дат
дата
дати
датована
датою
дату
датування
датуються
датується
дах
дахно
дахом
даху
дача
дачі
дають
даючи
дає
дається
два
двадцяти
двадцять
дванадцяти
дванадцять
двереи
дверима
двері
двигун
двигуна
двигунами
двигуни
двигуном
двигунів
дво
двом
двома
двоповерховии
дворазова
дворазовии
дворах
двори
дворових
двору
дворян
дворянства
дворі
дворів
двох
двоюріднии
двоє
двух
дві
двір
двічі
де
дебальцеве
дебати
дебют
дебютнии
дебютним
дебютного
дебютному
дебютував
дебютувала
дев
девід
девіда
девідом
девіз
девіс
девіса
дегестані
дедалі
деи
деив
декабря
декан
декана
деканату
деканом
декларацію
декларація
деклараціі
деколи
декор
декоративна
декоративнии
декоративних
декоративно
декоративного
декоративні
декораціі
декору
декрет
декілька
декількома
декількох
дел
делегат
делегатом
делегатів
делегація
делегаціі
деление
делла
дело
дель
дельта
дельти
делі
дем
демо
демобілізаціі
демобілізовании
демографічна
демографічнии
демографічні
демократи
демократична
демократичнии
демократичних
демократичного
демократичноі
демократичну
демократичні
демократичніи
демократів
демократію
демократія
демократіі
демон
демонстрація
демонстраціі
демонструють
демонструє
демонів
демоскоп
ден
денис
дениса
денисенко
деннии
денного
денні
денніс
день
дені
деніел
департамент
департаментом
департаменту
департаменті
депо
депортаціі
депортіво
депресія
депресіі
депутат
депутата
депутатами
депутати
депутатом
депутатськоі
депутатів
дер
дербі
дерев
дерева
деревами
деревах
деревина
деревини
дерево
деревом
дереву
дереві
держ
держав
держава
державами
державах
держави
державна
державне
державнии
державним
державними
державних
державно
державного
державному
державності
державною
державноі
державну
державні
державніи
державність
державою
державу
державі
держбезпеки
держкіно
деркач
дес
десант
десантників
десантних
десантно
десантноі
десанту
десна
десни
десь
десяти
десятии
десятиліття
десятиліть
десятин
десятини
десятиріччя
десятка
десятки
десятків
десяток
десять
деталеи
деталь
детальнии
детально
детальні
детальніше
деталі
детектив
детектор
детроит
деформаціі
дефіцит
дехто
дещо
деяка
деякии
деяким
деякими
деяких
деякого
деякоі
деяку
деякі
дж
джаз
джазовии
джазу
джакомо
джастін
джеи
джеимс
джеимса
джеимсом
джеимі
джеин
джеисон
джек
джека
джексон
джексона
джекі
дженні
дженніфер
дженоа
джерел
джерела
джерелами
джерелах
джерело
джерелом
джеремі
джеррі
джерсі
джессі
джессіка
джефф
джефферсон
джеффрі
джим
джиммі
джин
джо
джоан
джованні
джозеф
джозефа
джон
джона
джонатан
джонні
джоном
джонс
джонса
джонсон
джонсона
джордан
джордж
джорджа
джорджем
джорджо
джорджія
джош
джошуа
джузеппе
джульєтта
джулі
джулія
дзвони
дзвін
дзвіницею
дзвіницю
дзвіниця
дзвіниці
дзержинського
дзеркала
дзеркало
дзьоб
дзьобом
дзюба
дзюдо
ди
див
дива
дивився
дивись
дивитися
дивиться
дивляться
дивлячись
дивнии
дивно
дивні
диво
дивізіи
дивізіон
дивізіону
дивізіоні
дивізіонів
дивізію
дивізія
дивізією
дивізіі
дивіться
дизаин
дизаинер
дизаином
дизаину
дизель
дика
дикии
диких
дикого
дикоі
диктатури
дикі
дим
димитрія
диморфізм
диму
динамо
динаміка
динаміки
динаміку
динамічних
динамічні
династіи
династію
династія
династіі
динозаврів
диплом
дипломат
дипломатична
дипломатичнии
дипломатичних
дипломатичноі
дипломатичні
дипломатіі
дипломом
директиви
директор
директора
директором
директору
директорів
директоріі
дирекція
дирекціі
диригент
диригента
диригентом
дис
дисертаціи
дисертацію
дисертація
дисертаціі
диск
диска
диски
дискографія
дискримінаціі
диску
дискусіи
дискусія
дискусіі
дисків
дислокаціі
дисплеи
дистанціиного
дистанція
дистанціі
дистриб
дисциплін
дисципліна
дисциплінах
дисципліни
дисципліні
дитина
дитини
дитиною
дитинства
дитинство
дитинстві
дитину
дитя
дитяча
дитячии
дитячих
дитячо
дитячого
дитячому
дитячоі
дитячу
дитячі
дитячіи
диференціальних
диференціація
дихальних
дихання
диявол
диявола
дк
для
дм
дмитра
дмитренко
дмитрии
дмитро
дмитрович
дмитром
дмитрівна
дна
днвп
днеи
днем
днк
дно
дном
днр
дня
днями
дні
днів
дніпра
дніпро
дніпровська
дніпровськии
дніпровського
дніпровськоі
дніпром
дніпропетровськ
дніпропетровська
дніпропетровськии
дніпропетровського
дніпропетровськоі
дніпропетровську
дніпропетровськіи
дніпрі
дністер
дністра
дністровськии
до
доба
доби
доблесну
доблесть
добра
добре
добрив
добрии
добрим
добрих
добро
добробут
добробуту
доброволець
добровольцем
добровольців
добровільно
доброго
доброчаева
доброі
добру
добрянськии
добрі
добу
добування
добутку
добуток
довга
довгасті
довге
довгии
довгим
довгими
довгих
довго
довгого
довгому
довгою
довгоі
довгу
довгі
доведення
доведено
доведеться
довели
довелось
довелося
довести
довженка
довженко
довжина
довжини
довжиною
довжину
довжині
довкола
довкілля
доводилося
доводить
доводиться
доволі
довше
довшии
довші
довів
довідка
довідник
довідника
довідники
довіра
довіри
довіру
догляд
догляду
договори
договором
договору
договорів
договір
догори
дод
додав
додавання
додаванням
додавати
додавши
додала
додали
додана
додании
додано
додані
додати
додатки
додаткова
додаткове
додатковии
додатковим
додатковими
додаткових
додатково
додаткового
додатковоі
додаткову
додаткові
додатком
додатку
додатків
додаток
додають
додаються
додає
додається
додому
доз
дозволено
дозволив
дозволила
дозволили
дозволило
дозволити
дозволить
дозволу
дозволяв
дозволяла
дозволяли
дозволяло
дозволяють
дозволяючи
дозволяє
дозволяється
дозвіл
дозвілля
дози
дозрівання
док
доказ
докази
доказом
доказів
доки
докладно
докладніше
доктор
доктора
доктором
докторськии
докторських
докторську
докторів
доктрина
доктрини
документ
документа
документальнии
документальних
документального
документальні
документами
документах
документація
документаціі
документи
документов
документом
документу
документы
документі
документів
дол
долар
долара
доларах
долари
доларів
долею
долин
долина
долинах
долини
долиною
долину
долині
долоні
долучився
долю
доля
долі
дом
дома
домашнього
домашньому
домашньоі
домашню
домашня
домашнє
домашні
домашніи
домашнім
домашніх
домен
домену
доменіко
домовилися
домовленості
домогосподарств
домогосподарства
домогосподарствах
домогосподарство
домогосподарстві
домогтися
домом
дому
домі
домів
домігся
домінго
домінування
домінує
домінік
домініка
домішки
домішок
дон
дона
дональд
дональда
донбас
донбасу
донбасі
донецк
донець
донецьк
донецька
донецьке
донецькии
донецького
донецькому
донецькоі
донецьку
донецькіи
донеччині
донизу
донині
донна
донського
дону
донька
доньки
донькою
доньку
доньок
доньці
доп
допов
доповнене
доповнення
доповідеи
доповідь
доповіді
допоки
допомагав
допомагала
допомагали
допомагати
допомагають
допомагаючи
допомагає
допомога
допомоги
допомогла
допомогли
допомогло
допомогою
допомогти
допомогу
допоможе
допомозі
допоміг
допоміжнии
допоміжних
допоміжні
допускається
допустити
дордонь
дореф
доробку
доробок
дорога
дорогами
дорогах
дороги
дорогии
дорогоцінних
дорогою
дорогу
дорогі
дорожнього
дорозі
дорослих
дорослого
дорослому
дорослоі
дорослу
дорослі
дороті
дорошенка
дорошенко
дору
доручення
дорученням
доручено
доручень
доручив
дорівнювати
дорівнює
доріг
доріжки
досвід
досвідом
досвіду
досвідчении
досить
дослівно
дослідження
дослідженням
дослідженнями
дослідженнях
дослідженні
досліджено
досліджень
досліджував
досліджувати
досліджує
досліди
дослідити
дослідна
досліднии
дослідник
дослідника
дослідниками
дослідники
дослідником
дослідників
дослідних
дослідницькии
дослідницьких
дослідницькоі
дослідниця
дослідного
дослідному
дослідноі
дослідні
дослідів
доставити
доставки
достатку
достатньо
достатньоі
достатню
достеменно
достроково
доступ
доступна
доступнии
доступним
доступними
доступних
доступні
доступом
доступу
досьє
досяг
досягала
досягати
досягають
досягає
досягається
досягла
досягли
досягло
досягнення
досягненням
досягнень
досягнув
досягнувши
досягнута
досягнути
досягнуто
досягти
досі
дотепер
доти
дотримання
дотриманням
дотримувався
дотримуватися
дотримуються
дотримується
доходи
доходить
доходу
доходів
дохід
доцент
доцента
доцентом
дочка
дочки
дочкою
дочку
дочок
дочці
дошка
дошки
дошку
дошкільнии
дошці
дощ
дощових
дощу
дощі
дощів
дп
дпу
др
драгоманова
дракон
дракона
драконів
драм
драма
драматичнии
драматичних
драматичного
драматичному
драматичні
драматург
драматурга
драматургіі
драми
драму
драмі
драфт
драфті
древнее
древнеи
древностеи
древніх
дрезден
дроблення
дрогобицького
дрогобицькоі
дрогобич
дрогобича
дрогобичі
друг
друга
друге
другии
другим
других
другого
другом
другому
другою
другоі
другу
другі
другіи
дружба
дружби
дружбу
дружин
дружина
дружини
дружиною
дружину
дружині
дружні
друзям
друзями
друзі
друзів
друк
друкарня
друкарні
друкарства
друкованих
друком
друку
друкувався
друкувалися
дрібнии
дрібними
дрібних
дрібного
дрібні
дсту
дтп
ду
дуб
дуба
дуби
дубль
дубляж
дубляжу
дубно
дубове
дубовим
дубових
дубровицького
дуги
дуглас
дует
дуету
дуже
дужках
дум
дума
думав
думала
думали
думати
думаю
думає
думи
думка
думки
думкою
думку
думок
думці
дунаи
дунаю
дусі
дух
духа
духовенства
духовенство
духових
духовна
духовне
духовнии
духовним
духовних
духовно
духовного
духовному
духовності
духовноі
духовну
духовні
духовніи
духом
духу
духів
душ
душа
душанбе
душею
душу
душі
дъ
дырэктар
дю
дюим
дюима
дюимів
дюсш
дядька
дядько
дяченко
ді
діагноз
діагностика
діагностики
діаграми
діал
діалект
діалекти
діалекту
діалектів
діалог
діалоги
діалогу
діаметр
діаметра
діаметром
діаметрі
діана
діапазон
діапазоном
діапазону
діапазоні
діас
діаспора
діаспори
діб
діброва
діва
діви
дівоцтві
дівоче
дівчат
дівчата
дівчаток
дівчина
дівчини
дівчинка
дівчинки
дівчинку
дівчиною
дівчину
дівчині
дід
діда
дідусь
діжона
дізнався
дізнавшись
дізнатися
дізнаються
дізнається
діи
діиснии
діисним
діисних
діисно
діисного
діисності
діисність
діити
діишла
діишли
діишло
діишов
дік
діла
ділення
ділиться
діло
дільниць
дільниця
дільницях
дільниці
ділянка
ділянками
ділянках
ділянки
ділянку
ділянок
ділянці
діляться
ділі
дім
дін
діна
дінця
діонат
діоцезіі
дір
дістав
дістався
дістала
дісталася
дістали
дісталися
дістати
дістатися
дітеи
діти
дітьми
дітям
дію
діють
діючии
діючих
дія
діяв
діяла
діяли
діяло
діяльності
діяльність
діяльністю
діями
діяння
діяти
діях
діяч
діяча
діячами
діячем
діячка
діячі
діячів
діє
дієвоі
дієвідміни
дієго
дієслова
дієслово
дієслівне
дією
діі
дѣл
дѣлъ
е
ева
евакуацію
евакуаціі
еванс
евгении
еволюцію
еволюція
еволюціі
евреиская
европеискои
европы
его
егідою
ед
едвард
едварда
едвардс
едгар
едді
единыи
едмонтон
едмунд
едо
едуард
едуарда
едуардо
едіт
ее
еи
еилера
еинштеина
екатеринославскои
еквадор
еквадору
еквадорі
екваторіальноі
екз
екземпляр
екземпляри
екземплярів
еко
екологічна
екологічнии
екологічних
екологічно
екологічного
екологічноі
екологічні
екологія
екологіі
економіка
економіки
економіко
економіку
економіст
економіці
економічна
економічне
економічнии
економічним
економічними
економічних
економічно
економічного
економічному
економічною
економічноі
економічну
економічні
економічніи
економіі
екосистем
екран
екрани
екрану
екрані
екранізація
екранізаціі
екс
екскурсіі
експансіі
експедиціи
експедицію
експедиція
експедицією
експедиціі
експеримент
експериментальнии
експериментальних
експериментально
експериментальноі
експериментальні
експерименти
експерименту
експериментів
експерт
експерти
експертиза
експертизи
експертноі
експертів
експлуатацію
експлуатація
експлуатаціі
експозиція
експозиціі
експонати
експонатів
експорт
експорту
експрес
екіпаж
екіпажем
екіпажу
екіпажі
екіпажів
ел
електрики
електрифікаціі
електрична
електричнии
електричним
електричних
електричного
електричноі
електричні
електро
електроенергіі
електрон
електрона
електрони
електронна
електронне
електроннии
електронних
електронного
електронноі
електронну
електронні
електронніи
електронів
електроніка
електроніки
електропоізди
електропоіздів
електростанціи
електростанція
електростанціі
елемент
елемента
елементами
елементарних
елементи
елементом
елементу
елементів
елена
елеонора
еллен
еллі
ело
ель
ельзас
елі
елізабет
еліптична
еліптичні
еліс
еліта
еліти
емблема
емма
еммі
емоціи
емоціі
ему
емі
емігрантів
еміграціі
емігрував
еміль
емілі
емілія
емір
еміра
ен
ена
енд
ендемік
ендр
ендрю
енді
енергетика
енергетики
енергетична
енергетичних
енергетичного
енергетичноі
енергію
енергія
енергією
енергіі
енк
енн
енні
енріке
енріко
ентоні
енцикл
енциклопедичнии
енциклопедичних
енциклопедичного
енциклопедія
енциклопедіі
еом
епархии
епосу
епох
епоха
епохи
епоху
епідемія
епідеміі
епізод
епізодах
епізоди
епізоду
епізоді
епізодів
ер
ера
ерз
ери
еритреі
ермітаж
ернест
ернст
ернста
ерозіі
ерік
еріка
еріх
ес
есе
ескадра
ескадрении
ескадрені
ескадри
ескадрилья
ескадрильі
ескізи
если
есмінець
есмінця
есмінцями
есмінці
есмінців
есперанто
еспресо
ест
естафеті
естер
естетики
естонськии
естонськоі
естонія
естоніі
естради
есть
есу
етап
етапах
етапи
етапом
етапу
етапі
етапів
етика
етики
етимологічнии
етимологія
етническа
етнограф
етнографічнии
етнографіі
етнологіі
етнічна
етнічнии
етнічних
етнічного
етнічноі
етнічні
етьєн
ефект
ефекти
ефективна
ефективне
ефективнии
ефективним
ефективних
ефективно
ефективного
ефективності
ефективноі
ефективні
ефективність
ефектом
ефекту
ефектів
ефрон
ефрона
ефіопія
ефіопіі
ефір
ефіру
ефірі
ешлі
еще
ж
жаб
жаба
жаби
жак
жака
жаль
жан
жана
жанеиро
жанна
жанр
жанрах
жанри
жанру
жанрі
жанрів
жарт
жах
жаху
жахів
же
железнодорожные
женева
женеві
жерар
жеребкування
жермен
жертв
жертва
жертвам
жертвами
жертви
жертвою
жертву
жив
жива
живе
живии
живим
живими
живиться
живих
живлення
живляться
живого
живопис
живописець
живописом
живопису
живота
животі
живою
живоі
живу
живуть
живі
живіт
жизни
жизнь
жила
жили
жило
жирним
жиронда
жиру
жителеи
житель
жителя
жителям
жителями
жителі
жителів
жити
житла
житло
житловии
житлових
житлово
житлового
житлові
жито
житомир
житомира
житомирська
житомирськии
житомирського
житомирськоі
житомирськіи
житомирщини
житомирі
життю
життя
життям
життєвии
життєвих
життєво
життєвого
життєві
життєдіяльності
життєпис
житті
жовт
жовта
жовте
жовтень
жовтии
жовтим
жовтими
жовтих
жовтнева
жовтневого
жовтневоі
жовтня
жовтні
жовто
жовтого
жовтоі
жовту
жовтувато
жовті
жоден
жодна
жодних
жодного
жодному
жодноі
жозе
жозеф
жорж
жорсткии
жорстко
жорсткі
жорстоко
жуан
жук
жуки
жуков
жукова
жуковськии
жуків
жулинськии
жупаніі
жура
журавель
журн
журнал
журналах
журнали
журналом
журналу
журналі
журналів
журналіст
журналіста
журналісти
журналістика
журналістики
журналістка
журналістом
журналістів
журі
жінка
жінкам
жінками
жінки
жінкою
жінку
жінок
жіноча
жіноче
жіночии
жіночих
жіночого
жіночому
жіночоі
жіночу
жіночі
жіночіи
жінці
з
за
заарештовании
заарештовано
заарештовані
заарештували
забаикальського
забарвлення
забарвленням
забезпечення
забезпеченням
забезпеченні
забезпечив
забезпечили
забезпечити
забезпечував
забезпечувала
забезпечували
забезпечувати
забезпечують
забезпечуючи
забезпечує
забезпечується
забив
забивши
забирає
забитим
забитими
забитих
заболочені
заборона
заборонена
заборонении
заборонено
заборонені
заборони
заборонив
заборонили
заборонити
заборону
забороняє
забороняється
забрав
забрала
забрали
забрати
забруднення
забув
забудова
забудови
забудову
забули
забути
зав
заважає
завантаження
заввишки
завгодно
завдав
завдала
завдали
завдання
завданням
завданнями
завдано
завдань
завдати
завдає
завдовжки
завдяки
завершена
завершении
завершення
завершенні
завершено
завершені
завершив
завершився
завершивши
завершила
завершилась
завершилася
завершили
завершилися
завершилося
завершити
завершує
завершується
завжди
завод
заводах
заводи
заводом
заводу
заводі
заводів
заворушення
заворушень
завоював
завоювала
завоювали
завоювання
завоювати
завтра
завширшки
завідував
завідувач
завідувача
завідувачем
завідувачка
завіту
заг
загадки
загалом
загалу
загальна
загальне
загальнии
загальним
загальними
загальних
загально
загального
загальнодержавного
загальнодержавному
загальному
загальноосвітньоі
загальноосвітня
загальноосвітніи
загальноосвітніх
загальною
загальноі
загальну
загальні
загальніи
загарбниками
загарбників
загатами
загибель
загибелі
загиблим
загиблих
загиблого
загинув
загинула
загинули
загинуло
заголовок
загонами
загони
загоном
загону
загонів
загострення
загострені
загреб
загреба
загребі
загрожує
загроз
загроза
загрози
загрозою
загрозу
загін
задач
задача
задачу
задачі
задається
задля
заднього
задньому
задньоі
задня
задні
задніи
заднім
задніх
задовго
задоволення
задовольнити
задовольняє
задум
задумом
задіянии
задіяні
зажадав
зазвичаи
заздалегідь
зазнав
зазнавши
зазнала
зазнали
зазнало
зазначав
зазначалося
зазначає
зазначається
зазначении
зазначених
зазначення
зазначенням
зазначено
зазначені
зазначив
зазначивши
зазначили
зазначити
зазнають
зазнає
заимав
заимався
заимала
заималася
заимали
заимались
заималися
заимати
заиматись
заиматися
заимають
заимаються
заимаючи
заимаючись
заимає
заимається
заиняв
заинявся
заинявши
заиняла
заиняли
заинята
заиняти
заинятии
заинятися
заинятих
заинято
заинятості
заиняті
заинятість
заицев
заишов
закавказзя
заказник
заказника
закарпатська
закарпатськоі
закарпатськіи
закарпаття
закарпатті
закл
заклав
заклад
закладами
закладах
закладена
закладении
закладення
закладено
закладені
заклади
закладом
закладу
закладі
закладів
заклали
заклик
закликав
закликала
закликали
закликає
закликом
заколот
заколоту
закон
законами
закони
законним
законності
законодавства
законодавство
законодавством
законодавчих
законодавчого
законодавчоі
законодавчі
законом
закономірності
законопроект
законопроєкт
закону
законі
законів
закордонних
закохании
закохується
закрили
закрита
закрити
закритии
закритих
закрито
закритого
закриття
закриті
закріпитися
закріплення
закріплено
закріплені
закінченню
закінчення
закінченням
закінченні
закінчено
закінченоі
закінчену
закінчив
закінчився
закінчивши
закінчила
закінчилася
закінчили
закінчилися
закінчилося
закінчити
закінчуються
закінчуючи
закінчує
закінчується
зал
зала
залах
залежать
залежить
залежно
залежності
залежність
залесскии
зали
залишався
залишалася
залишалися
залишалося
залишати
залишатися
залишають
залишаються
залишаючи
залишаючись
залишає
залишається
залишении
залишив
залишився
залишивши
залишила
залишилась
залишилася
залишили
залишились
залишилися
залишилось
залишилося
залишити
залишитися
залишиться
залишками
залишки
залишків
залишок
залоз
залози
залом
залу
залучався
залучення
залученням
залучені
залучити
залягання
залі
залів
заліза
залізна
залізнии
залізних
залізницею
залізниць
залізницю
залізниця
залізниці
залізнична
залізничне
залізничнии
залізничників
залізничним
залізничних
залізничного
залізничному
залізничноі
залізничну
залізничні
залізничніи
залізного
залізноі
залізняка
залізні
залізо
заліку
замало
замах
замаху
замбіі
замикання
замки
замком
замку
замків
замовив
замовлення
замовлень
замовчуванням
заможних
замоиського
замок
замолоду
заміж
заміжня
заміна
замінена
замінении
замінено
замінені
заміни
замінив
замінивши
замінила
замінили
замінити
заміною
заміну
замість
заміщення
занадто
занепад
занепаду
занепокоєння
занесении
занесено
занесені
заново
занурення
заняття
занять
заохочення
заочно
зап
западини
западнои
западныя
запалення
запам
запас
запасами
запаси
запасних
запасу
запасі
запасів
запах
запахом
запеклі
заперечення
заперечував
заперечує
запис
записав
записала
записали
записана
записании
записано
записані
записати
записах
записи
записки
записом
запису
записувати
записує
записується
записі
записів
запит
запитав
запитання
запити
запиту
запитів
заплановании
заплановано
заплатити
запобігання
запобігти
заповнення
заповідне
заповіднии
заповідник
заповідника
заповіднику
заповідників
заповідного
заповіт
заповіту
запозичення
запорожець
запорожці
запорожців
запорозького
запоріжжя
запоріжжі
запорізька
запорізькии
запорізького
запорізькоі
запорізькіи
започатковано
започаткував
запровадження
запроваджено
запровадив
запропонована
запропоновании
запропоновано
запропоновані
запропонував
запропонувала
запропонували
запропонувати
запросив
запросили
запрошении
запрошення
запрошені
запрошує
запуск
запускає
запуску
запустив
запустила
запустили
запустити
запушені
запущена
запущении
запущено
заради
зараження
зараз
зараховании
зарегистрировано
зареєстрована
зареєстровании
зареєстрованих
зареєстровано
зареєстровані
заробив
заробити
заробітноі
зародження
заростях
зарості
зарубіжних
зарубіжноі
зарубіжні
заручини
заручників
заряд
заряджання
заряду
засад
засадах
засади
заселена
заселення
заслання
заслуг
заслуги
заслуговує
заслужена
заслужении
заслуженого
заснована
засноване
засновании
засновано
заснованого
заснованоі
засновані
засновник
засновника
засновниками
засновники
засновником
засновників
заснував
заснувала
заснували
заснування
заснувати
засобами
засобах
засоби
засобом
засобу
засобів
заст
заставу
застосовано
застосовувався
застосовували
застосовувалися
застосовувати
застосовуватися
застосовують
застосовуються
застосовується
застосував
застосування
застосуванням
застосуванні
застосувати
застосунків
заступник
заступника
заступником
заступників
застібка
засуджении
засуджених
засудження
засуджено
засуджені
засудив
засудили
засіб
засідання
засіданнях
засіданні
засідань
засідку
зат
затверджена
затверджении
затвердження
затверджено
затверджені
затвердив
затвердила
затвор
затвора
зате
затемнення
затока
затоки
затоку
затонув
затоплення
затоці
затримали
затримании
затримання
затримано
затримки
зауваження
зауважив
зауважити
зауважує
зафіксована
зафіксовано
зафіксовані
зах
захар
захаров
захарович
захворювання
захворюваннях
захворювань
захворів
захисник
захисника
захисники
захисником
захисників
захисних
захисні
захист
захистив
захистила
захистити
захистом
захисту
захисті
захищав
захищали
захищати
захищають
захищаючи
захищає
захищена
захищені
заходами
заходах
заходи
заходить
заходом
заходу
заході
заходів
захопив
захопився
захопивши
захопила
захопили
захопити
захоплена
захоплении
захоплених
захоплення
захопленням
захопленні
захоплено
захоплені
захоплювався
захоплює
захоплюється
захід
західна
західне
західнии
західним
західними
західних
західно
західного
західному
західнопоморського
західною
західноі
західну
західні
західніи
західніше
зацікавився
зацікавленість
зачаття
заяв
заява
заяви
заявив
заявивши
заявила
заявили
заявки
заявку
заявляв
заявляє
заявою
заяву
заєць
зб
збагачення
зберегла
збереглася
зберегли
збереглись
збереглися
збереглося
зберегти
збережена
збережених
збереження
збереженням
збереженні
збережено
збережені
зберіг
зберігав
зберігався
зберігалася
зберігали
зберігалися
зберігання
зберігати
зберігають
зберігаються
зберігаючи
зберігає
зберігається
зберігся
збив
збирав
збирався
збирали
збиралися
збирання
збирати
збирають
збираються
збирає
збирається
збитии
збитки
збитків
зближення
збоку
зборами
зборах
збори
збору
зборів
зброинии
зброиними
зброиних
зброиного
зброиноі
зброині
зброю
зброя
зброєю
зброі
збруч
збудження
збудника
збудована
збудовании
збудовано
збудовані
збудував
збудували
збудувати
збуту
збігаються
збігається
збільшена
збільшення
збільшенням
збільшенні
збільшено
збільшив
збільшився
збільшилася
збільшили
збільшити
збільшує
збільшується
збір
збірка
збірки
збірку
збірна
збірник
збірника
збірнику
збірних
збірною
збірноі
збірну
збірні
збірніи
збірок
збірці
зв
зважаючи
звали
звана
зване
звании
званих
звания
звання
званням
званні
званого
званоі
звану
звань
звані
зварювання
зведена
зведении
зведення
зведено
зведені
звезда
звели
зверинскіи
звернення
звернув
звернувся
звернулася
звернули
звернулися
звернути
звернутися
звертався
звертає
звертається
зверхність
зверху
звести
зветься
звивистості
звинуватив
звинуватили
звинувачении
звинувачення
звинуваченням
звинувачень
звинувачували
звичаи
звичаина
звичаине
звичаинии
звичаиним
звичаиними
звичаиних
звичаино
звичаиного
звичаиному
звичаиною
звичаиноі
звичаину
звичаині
звичаі
звичаів
зводиться
зворотнии
зворотного
зворотному
звук
звуки
звукових
звукозапису
звукооператор
звукорежисер
звуку
звуків
звуть
звучання
звучить
звів
звід
звідки
звідси
звідти
звільнена
звільнении
звільнення
звільнено
звільнені
звільнив
звільнився
звільнили
звільнити
звільняє
звір
звірі
звірів
звісно
звістка
звістку
звіт
звіти
звітності
звіту
звіті
звітів
згадав
згадании
згаданих
згадано
згадані
згадати
згадка
згадки
згадку
згадок
згадував
згадують
згадуються
згадує
згадується
згода
згоди
згодом
згодою
згоду
згори
згоряння
згорів
згоріла
зграі
згідно
здавалось
здавалося
здавна
здався
здатен
здатися
здатна
здатнии
здатних
здатності
здатні
здатність
здатністю
здачі
здається
здебільшого
здобич
здобув
здобував
здобуває
здобувши
здобула
здобули
здобути
здобутки
здобуття
здоров
здоровии
здорового
здорові
здібностеи
здібностями
здібності
здіиснена
здіиснении
здіиснення
здіисненні
здіиснено
здіиснені
здіиснив
здіиснила
здіиснили
здіиснити
здіиснював
здіиснювався
здіиснювала
здіиснювали
здіиснювалося
здіиснювати
здіиснюватися
здіиснюють
здіиснюються
здіиснює
здіиснюється
зе
зевса
зее
зеландія
зеландіі
зелена
зелене
зелении
зеленим
зеленими
зелених
зеленого
зеленому
зеленоі
зеленськии
зеленського
зелені
земель
земельнии
земельних
земельного
земельноі
земельні
землевласників
землеробства
землеробство
землеробством
землетрус
землетрусу
землею
земли
землю
земля
земляків
землями
землях
землі
земних
земноводних
земного
земноі
земства
земська
земськоі
зеніт
зенітнии
зенітних
зенітно
зерен
зерна
зерно
зернових
зернові
ззаду
ззовні
зима
зими
зимова
зимовии
зимових
зимового
зимовоі
зимову
зимові
зимою
зиму
зиомках
зиомки
зиомок
зкату
зла
злам
злегка
злии
злиття
зло
зловживання
злодіи
злотих
злочин
злочинець
злочини
злочинності
злочинність
злочинністю
злочину
злочинця
злочинців
злочинів
зліва
злітно
зм
змагалися
змагання
змаганнях
змаганні
змагань
зменш
зменшення
зменшенням
зменшено
зменшилася
зменшити
зменшує
зменшується
змови
змову
змові
змоги
змогла
змогли
змогу
зможе
зможуть
змозі
змусив
змусила
змусили
змусило
змусити
змушена
змушении
змушені
змушує
змі
зміг
зміи
змін
зміна
змінами
змінена
змінении
змінено
змінені
зміни
змінив
змінився
змінивши
змінила
змінилася
змінили
змінилися
змінило
змінилося
змінити
змінна
змінних
змінного
змінноі
змінні
зміною
зміну
змінювалася
змінювати
змінюватися
змінюють
змінюються
змінює
змінюється
зміні
зміст
змістом
змісту
зміцнення
зміцнити
змішании
змішаних
змішаного
змішані
змішування
зміщення
змія
зміі
зна
знав
знаидена
знаидении
знаидених
знаидено
знаидені
знаиомии
знаиомиться
знаиомих
знаиомства
знаиомство
знаиомі
знаити
знаишла
знаишли
знаишов
знаишовши
знак
знака
знаками
знаки
знаком
знаку
знаків
знала
знали
знам
знаменитии
знаменитих
знаменитого
знамениті
знании
знання
знаннями
знань
знаряддя
знарядь
знати
знатного
знать
знаті
знаходження
знаходився
знаходилась
знаходилася
знаходили
знаходились
знаходилися
знаходилось
знаходилося
знаходимо
знаходити
знаходить
знаходиться
знаходять
знаходяться
знаходячись
знахідки
знахідок
значення
значенням
значеннями
значенні
значень
значить
значиться
значна
значне
значнии
значним
значними
значних
значно
значного
значною
значноі
значну
значні
значніи
значіння
знаю
знають
знаючи
знає
знаємо
знаєте
знаєш
знесення
зниження
знижує
знижується
знизити
знизу
зник
зникають
зникає
зникла
зникли
зниклих
зникнення
знищена
знищении
знищення
знищено
знищені
знищив
знищивши
знищила
знищили
знищити
знищує
знов
знову
зняв
знявся
знялась
знялася
зняли
знята
зняти
знятии
знято
зняття
зняті
знімався
знімалася
знімали
знімати
зніматися
знімає
знімається
знімки
знімок
зо
зобов
зображена
зображении
зображення
зображенням
зображеннями
зображенні
зображено
зображень
зображені
зображують
зображує
зобразив
зовні
зовнішнього
зовнішньому
зовнішньоі
зовнішню
зовнішня
зовнішнє
зовнішні
зовнішніи
зовнішнім
зовнішніми
зовнішність
зовнішніх
зовсім
зозуля
зокрема
золота
золоте
золотии
золотим
золотими
золотих
золото
золотого
золотом
золотому
золотою
золотоі
золоту
золоті
зомбі
зон
зона
зонах
зони
зоною
зону
зоні
зоолог
зоологіі
зоопарк
зоопарку
зорею
зору
зоря
зоряна
зорянии
зоряних
зоряного
зоряну
зоряні
зорі
зосереджена
зосереджені
зош
зоя
зоі
зради
зраду
зраді
зразка
зразками
зразки
зразкове
зразком
зразків
зразок
зразу
зранку
зречення
зрештою
зрк
зробив
зробивши
зробила
зробили
зробило
зробити
зробить
зроблена
зроблении
зроблених
зроблено
зроблені
зрозумів
зрозуміла
зрозуміли
зрозуміло
зрозуміти
зросла
зросли
зросло
зростав
зростала
зростанню
зростання
зростанням
зростати
зростають
зростає
зросту
зрошення
зруинована
зруиновании
зруиновано
зруиновані
зруинував
зруинували
зруинувати
зручно
зручності
зрідка
зрілості
зріс
зріст
зс
зсередини
зсу
зсув
зсуву
зу
зуб
зубами
зуби
зубів
зумовлена
зумовлює
зумів
зуміла
зуміли
зунр
зупинив
зупинився
зупинити
зупинка
зупинки
зупиннии
зупиняються
зупиняється
зусилля
зусиллям
зусиллями
зусиль
зустрів
зустрівся
зустріла
зустріли
зустрілися
зустріти
зустрітися
зустріч
зустрічався
зустрічалися
зустрічатися
зустрічах
зустрічають
зустрічаються
зустрічає
зустрічається
зустрічеи
зустрічі
зх
зчеплення
зъ
зять
зі
зібрав
зібравши
зібрала
зібрали
зібралися
зібраних
зібрання
зібрано
зібрань
зібрані
зібрати
зіграв
зігравши
зіграла
зіграли
зіграти
зізнався
зізнається
зіишов
зілля
зімбабве
зінаіда
зір
зірка
зірками
зірки
зіркою
зірку
зірок
зіткнення
зіткнень
зіткнувся
зґвалтування
и
иван
иванов
иванович
игорь
иде
идеться
иди
идуть
из
известия
изд
издание
изданъ
изданіе
издательскии
издательство
изменении
изъ
ии
ик
ил
или
ило
илович
им
имени
имовірно
имовірностеи
имовірності
имовірність
империи
имперіи
имя
ин
индексы
институт
института
интервью
интернет
информационно
информация
инших
инші
ио
иович
иоган
иоганн
иоганна
иого
иозеф
иозефа
иому
ион
иордан
иорданіі
иорк
иорка
иорку
иосип
иосипа
иосипович
иосиф
иосифа
искусства
искусство
исследование
исследования
истории
историко
историческая
исторические
историческии
история
ити
итоги
итогов
их
ихъ
ишла
ишли
ишло
ишлося
ишов
июля
июня
к
ка
кабардино
кабо
кабінет
кабінетом
кабінету
кабінеті
кабіни
кав
кава
кавалер
кавалеріиського
кавалеріиськоі
кавалеріі
кавер
кави
кавказ
кавказу
кавказького
кавказькоі
кавказі
каган
каганат
кадастр
кадастрова
каденціі
кадокава
кадри
кадрів
кажанів
каждому
каже
кажу
кажуть
кажучи
каз
казав
казали
казанського
казанськоі
казань
казані
казарми
казати
казахи
казахскои
казахстан
казахстанская
казахстанскои
казахстану
казахстані
казахськоі
казимир
казимира
казино
казка
казки
казок
как
какао
калгарі
кале
календар
календарем
календарь
календаря
календарі
калина
калини
калининградская
калинівка
калуш
кальвадос
кальцію
кальярі
калі
калібр
калібру
калініна
калінінградськоі
каліського
каліфорнія
каліфорніі
калію
кам
камбоджі
каменем
каменю
каменя
каменяр
камені
каменів
камео
камер
камера
камери
камерного
камерою
камеру
камерун
камеруну
камері
кампаніи
кампанію
кампанія
кампаніі
каміння
камінням
камінь
кан
кана
канада
канади
канадська
канадськии
канадських
канадського
канадськоі
канаду
канаді
канал
каналах
канали
каналом
каналу
каналі
каналів
канд
кандидат
кандидата
кандидати
кандидатом
кандидатських
кандидатську
кандидатури
кандидатуру
кандидатів
канзас
каннського
кано
каное
канон
кантон
кантрі
канцеляріі
канцлер
канцлера
каньион
капела
капели
капелюх
каплицю
каплиця
каплиці
капітал
капіталу
капітальнии
капітального
капіталізму
капітан
капітана
капітаном
капітуляціі
кар
кара
караван
каразіна
карантин
карантину
карась
карате
карбованців
карбування
кардинал
кардинала
карел
карен
кари
карибського
карл
карла
карло
карлом
карлос
карлоса
карлсруе
кармен
карого
кароль
каролін
кароліна
кароліни
карпат
карпатах
карпати
карпатськоі
карпенка
карпенко
карпов
карт
карта
картах
картер
карти
картин
картина
картинах
картини
картину
картині
картка
картки
картку
картографічнии
картографія
карток
картоплю
картопля
картоплі
карту
карті
кару
карі
каса
каси
каскад
каскаду
каспіиського
кастилія
кастиліі
кастро
кат
каталог
каталоги
каталогу
каталозі
каталонія
каталоніі
катання
катар
катару
катастрофа
катастрофи
категоризація
категорично
категоріи
категорію
категорія
категоріях
категоріі
катер
катери
катерина
катерини
катеринославськоі
катеринославі
катериною
катерину
катерів
католиками
католики
католиків
католицька
католицькии
католицьких
католицького
католицькому
католицькою
католицькоі
католицьку
католицькі
католицькіи
катя
каф
кафе
кафедр
кафедра
кафедральнии
кафедри
кафедрою
кафедру
кафедрі
каштелян
каштеляна
кая
кб
кв
квадрат
квадратнии
квадратних
кваліфікаціинии
кваліфікаціиного
кваліфікаціиному
кваліфікацію
кваліфікація
кваліфікаціі
кваліфікувався
кваліфікувалася
квантовоі
квартал
квартали
кварталу
кварталі
квартет
квартир
квартира
квартири
квартирою
квартиру
квартирі
квебек
квебеку
квитки
квитків
квиток
квт
квінт
квіт
квітами
квітень
квіти
квітка
квітки
квіткових
квіткові
квітня
квітні
квіток
квітів
кг
кдб
ке
кевін
кеи
кеин
кеисі
кеит
келецького
келлі
кельн
кемпбелл
кен
кеннеді
кеннет
кенні
кент
кентуккі
кенія
кеніі
кер
кераміка
кераміки
керма
керол
керрі
керував
керувала
керували
керування
керуванням
керувати
керують
керуючии
керує
керується
керч
кері
керівнии
керівник
керівника
керівниками
керівники
керівником
керівників
керівних
керівництва
керівництво
керівництвом
керівні
кетрін
кеті
кеш
ки
кидає
киев
киева
киеве
киевская
киевскои
кии
ким
кино
кинув
кинувся
кинули
кинути
кип
киргизстан
киргизстану
кирила
кирило
кирилович
кириченко
кировская
кисень
кислот
кислота
кислоти
кислоту
киснем
кисню
кит
китаи
китаиська
китаиськии
китаиських
китаиського
китаиському
китаиською
китаиськоі
китаиські
китаиськіи
китаиці
китаиців
китаю
китаєм
китаі
кишені
кишинев
кишинів
кишки
киян
києва
києво
києвом
києві
киів
киівська
киівське
киівськии
киівським
киівських
киівського
киівському
киівськоі
киівську
киівські
киівськіи
киівщини
киівщині
киіві
кк
кл
клавдіи
клавдія
клавішні
клавіші
кладовища
кладовище
кладовищі
кладці
клан
клану
кланів
клара
кларк
кларка
клас
класах
класи
класика
класики
класифікацію
класифікація
класифікацією
класифікаціі
класицизму
класична
класичнии
класичним
класичних
класичного
класичному
класичноі
класичну
класичні
класичніи
класом
класу
класі
класів
клаус
клеи
клен
клер
клермон
клименко
климент
климента
клин
кличко
клод
клода
клопотання
клуб
клубами
клубах
клуби
клубнии
клубних
клубного
клубноі
клубом
клубу
клубі
клубів
клуж
ключ
ключа
ключем
ключовим
ключових
ключову
ключові
ключі
ключів
клівленд
клімат
кліматичних
кліматичні
кліматом
клімату
клінтон
клініки
клініці
клінічна
клінічних
клінічноі
клінічні
кліп
кліпу
клітин
клітинами
клітинах
клітини
клітинних
клітинніи
клієнт
клієнта
клієнтів
км
кмд
кму
кн
кндр
книг
книга
книгами
книгах
книги
книгою
книгу
книжка
книжки
книжкова
книжковии
книжковоі
книжку
книжок
книжці
книзі
кнопки
кнр
кну
княгиня
княгині
князем
князь
князю
князя
князями
князі
князів
князівств
князівства
князівство
князівством
князівстві
ко
коаліція
коаліціі
кобзар
кобзаря
кобів
коваленко
коваль
ковальов
ковальчук
коваля
ковалів
ковель
ковчег
когда
кого
когось
код
кодекс
кодексу
коди
кодовании
кодом
коду
кодування
кодується
коді
кодів
коен
коефіцієнт
коефіцієнти
коефіцієнтом
коефіцієнтів
кожевников
кожен
кожна
кожне
кожнии
кожним
кожного
кожному
кожною
кожноі
кожну
кожні
кожніи
коза
козак
козака
козакам
козаками
козаки
козаків
козацтва
козацтво
козацька
козацьке
козацькии
козацьких
козацького
козацькоі
козацькі
козлов
козловськии
кокс
кол
кола
колах
колгосп
колгоспи
колгоспників
колгоспницю
колгоспу
колгоспі
колгоспів
колег
колега
колегами
колеги
колегія
колегіі
коледж
коледжу
коледжі
коледжів
колектив
колективи
колективних
колективного
колективом
колективу
колективів
колективізаціі
колекціи
колекціонер
колекціонерів
колекцію
колекція
колекціях
колекціі
колеса
колесо
коли
коливання
коливань
коливається
колись
колишнього
колишньому
колишньою
колишньоі
колишню
колишня
колишнє
колишні
колишніи
колишнім
колишніми
колишніх
коллінз
коло
колодязь
колом
коломбо
коломия
коломиі
коломієць
колон
колона
колонами
колони
колону
колоніальноі
колонізаціі
колоніи
колоністів
колонію
колонія
колоніях
колоніі
колорадо
колос
колу
колумбіиськии
колумбія
колумбіі
кольорами
кольорах
кольори
кольоровии
кольорових
кольорові
кольором
кольору
кольорів
колі
коліи
колін
коліна
колір
коліс
колія
коліі
ком
команд
команда
командами
командах
команди
командир
командира
командири
командиром
командирів
команднии
командних
командного
командному
командні
командор
командою
команду
командував
командування
командуванням
командувач
командувача
командувачем
команді
комах
комахами
комахи
комбінат
комбінату
комбінація
комбінаціі
комедіинии
комедія
комедіі
комендант
коментар
коментарі
комерціинии
комерціиних
комерціиного
комерціиноі
комерціині
комет
комета
комети
коми
комитет
комитета
комитетомъ
комментарии
коммерсантъ
комо
комп
компакт
компактна
компаніи
компанію
компанія
компаніями
компанією
компаніі
компартіі
компенсацію
компенсаціі
компетенціі
комплекс
комплекси
комплексна
комплексних
комплексного
комплексноі
комплексні
комплексом
комплексу
комплексі
комплексів
комплект
комплектаціі
комплектування
композитор
композитора
композитори
композитором
композиторів
композиціи
композицію
композиція
композицією
композиціі
компонент
компонента
компонентами
компоненти
компонентом
компонентів
комсомолу
комсомольская
комсомольська
кому
комун
комуна
комунальних
комунального
комуни
комуну
комуні
комунізму
комунікаціи
комунікаціі
комуніст
комуністи
комуністична
комуністичнии
комуністичних
комуністичного
комуністичноі
комуністів
комі
комік
комікс
коміксів
комісар
комісара
комісаром
комісаріату
комісарів
комісіи
комісію
комісія
комісією
комісіі
комітет
комітети
комітетом
комітету
комітеті
комітетів
кон
конан
конвенція
конвенціі
конвои
конвою
конго
конгрес
конгресу
конгресі
кондратюк
конеи
конкакаф
конкретних
конкретного
конкретноі
конкретні
конкурентів
конкуренцію
конкуренціі
конкурс
конкурсах
конкурси
конкурсу
конкурсі
конкурсів
коннектикут
коннор
кононенко
конотоп
конрад
конрада
консервативноі
консерваторію
консерваторіі
консолі
константин
константинополь
константинопольського
константинополя
константинополі
конституціинии
конституціиних
конституціиного
конституціиноі
конституцію
конституція
конституцією
конституціі
конструктор
конструктора
конструкціи
конструкцію
конструкція
конструкцією
конструкціі
конструювання
консул
консула
консулом
консульства
консульство
консультант
консультантом
консультаціи
консультаціі
контакт
контакти
контакту
контакті
контактів
конте
контекст
контексту
контексті
контент
контенту
континент
континентальнии
континентальних
континентального
континентальноі
континентальніи
континенту
континенті
контори
контр
контракт
контракти
контрактом
контракту
контролем
контролер
контроль
контрольно
контрольноі
контролю
контролював
контролювали
контролювати
контролює
контролюється
конф
конфедераціи
конфедерація
конфедераціі
конференции
конференціи
конференцію
конференція
конференціях
конференціі
конфлікт
конфлікти
конфлікту
конфлікті
конфліктів
конфігураціі
концентрація
концентраціі
концепт
концепціи
концепцію
концепція
концепціі
концерн
концерну
концерт
концертами
концертах
концерти
концертнии
концертних
концерту
концерті
концертів
концтабору
коня
коні
конінського
коопераціі
координат
координатами
координати
координатор
координаціиноі
координаціі
коп
копалин
копалини
копальні
копенгаген
копенгагені
копіи
копіиок
копію
копіювання
копія
копіі
кор
кора
корабель
кораблем
корабля
кораблями
кораблях
кораблі
кораблів
корану
кордон
кордонах
кордони
кордоном
кордону
кордоні
кордонів
кореиськии
кореиськоі
корекціі
кореня
корені
коренів
кореспондент
кореспондентом
корея
кореі
кори
коридор
кориснии
корисним
корисних
корисного
корисноі
корисні
користувався
користувалися
користування
користуванні
користуватися
користувач
користувача
користувачам
користувачі
користувачів
користуються
користуючись
користується
користь
коричнева
коричневе
коричневии
коричневими
коричнево
коричневого
коричневі
корм
корнеліи
коробка
коробки
коробкою
коробку
коробочка
корови
королева
королеви
королевою
королеву
королем
короленка
король
корольова
королю
короля
королі
королів
королівства
королівство
королівством
королівстві
королівська
королівське
королівськии
королівським
королівських
королівського
королівському
королівськоі
королівську
королівські
королівськіи
корона
коронавірус
коронавірусноі
коронавірусу
коронація
коронаціі
корони
короннии
коронного
короною
корону
коростень
коротка
коротке
короткии
коротким
короткими
коротких
коротко
короткого
короткометражнии
короткому
короткою
короткоі
коротку
короткі
короткіи
коротші
корпорація
корпораціі
корпус
корпуса
корпуси
корпусом
корпусу
корпусі
корпусів
корреспондент
корсика
корсунь
кортах
кору
корупцією
корупціі
корі
корів
корінних
корінного
коріння
корінням
корінні
корінь
коса
коси
космонавт
космонавтів
космос
космосу
космосі
космічна
космічнии
космічних
космічного
космічному
космічноі
космічні
косова
косово
коста
костел
костелу
костелі
костенко
кость
костюк
костюм
костюмах
костюми
костюмів
костя
костянтин
костянтина
костянтинович
костянтином
кот
кота
котел
котляревського
котов
котра
котре
котрии
котрих
котрого
котроі
котру
котрі
котів
коул
кохана
кохання
коцюбинськии
коцюбинського
кошовии
кошти
коштом
коштує
коштів
кп
кпк
кпп
кпрс
кпу
кпі
кр
кра
кравець
кравченко
кравчук
краз
краи
краинього
краиньому
краині
краиніи
краиови
краиового
краиовоі
кракова
кракові
краків
краківського
краматорськ
крамниця
крамниці
кран
краплі
краса
краси
красна
красная
красне
краснии
краснодар
краснодарського
красноярського
красою
красу
красуня
кратер
кратера
кратерів
краткая
краткии
краху
краща
краще
кращии
кращим
кращих
кращого
кращу
кращі
краю
края
краями
краях
краєвид
краєзнавець
краєзнавства
краєзнавство
краєзнавців
краєзнавчии
краєзнавчого
краєзнавчі
краєм
краі
краів
краін
краіна
краінам
краінами
краінах
краіни
краіною
краіну
краіні
крб
кредит
кредиту
кредитів
креиг
креиди
креисер
креисера
креисери
креисерів
крем
кременецького
кременчук
кременчука
кременчуцькии
кременчуцького
кременчуці
кремль
кремля
кремінь
креслення
крива
кривбас
кривии
кривих
кривого
кривому
криворізькии
криворізького
кривошея
кривоі
криза
кризи
кризу
крик
крикнув
крил
крила
крилами
крилах
крило
крилом
крилі
крим
кримська
кримське
кримськии
кримських
кримського
кримськотатарського
кримськоі
кримські
криму
кримінальна
кримінальне
кримінальнии
кримінальних
кримінально
кримінального
кримінальному
кримінальноі
кримінальну
криниця
криниці
крип
кристал
кристали
кристалів
крит
критеріи
критеріям
критеріі
критеріів
критик
критика
критиками
критики
критикою
критику
критикував
критикували
критиків
критиці
критичнии
критичних
критично
критичного
критичні
кров
крови
крові
крок
кроки
кроком
кроку
кроків
крон
кропив
кропивницькии
кропивницького
крос
круг
кругла
круглии
круглі
кругом
крук
крус
круті
крым
крыма
крячок
крігсмаріне
крізь
крік
крім
кріпаків
кріплення
кріс
кріса
крісло
крістоф
крістофер
крісті
крістіан
крістіана
крістін
крістіна
кс
ксенія
кт
кто
ку
куб
куба
кубань
кубані
куби
кубка
кубкового
кубку
кубків
кубок
кубі
кубіиович
кувеит
кувеиту
куди
кудрицькии
кудрицького
кузнецов
кузнецова
кузня
кузов
кузова
кузовом
кузьма
кузьменко
кузьмич
кук
кука
кукурудза
кукурудзи
кулемет
кулемета
кулемети
кулеметів
кулик
куль
культ
культу
культур
культура
культури
культурна
культурне
культурнии
культурним
культурних
культурно
культурного
культурному
культурноі
культурну
культурні
культурою
культуру
культуры
культурі
кульчицькии
кулю
куля
кулі
куліш
куліша
кумарці
кун
куневич
куп
купе
купер
купець
купи
купив
купила
купити
купол
купола
куполом
купувати
купує
купця
купці
купців
купівлі
кур
курбаса
курган
кургани
курганскои
курганськоі
курганів
куреня
курорт
курорту
курс
курсах
курси
курсом
курсу
курсують
курсує
курськоі
курсі
курсів
курт
курінь
кут
кута
кутами
кутах
кути
кутку
кутом
кутузова
куті
кутів
кухар
кухня
кухні
кучми
кущ
кущі
кущів
куявсько
кшиштоф
кшталт
къ
към
кі
кібернетики
кіевская
кіз
кіл
кілець
кілограмів
кілометр
кілометрах
кілометри
кілометрів
кіль
кілька
кількома
кількостях
кількості
кількох
кількість
кількістю
кільце
кільцем
кільця
кім
кімнат
кімната
кімнати
кімнату
кімнаті
кін
кінг
кінга
кінематограф
кінематографістів
кінематографіі
кінець
кіннии
кінного
кіннота
кінноти
кіно
кіноакадеміі
кіноактор
кінокомедія
кінокритиків
кінооператор
кінорежисер
кіностудія
кіностудіі
кінотеатр
кінотеатрах
кінотеатру
кінофестиваль
кінофестивалю
кінофестивалі
кінофільм
кінцева
кінцевии
кінцевих
кінцевого
кінцевому
кінцевою
кінцеві
кінцем
кінця
кінцями
кінцях
кінці
кінцівки
кінцівок
кінь
кіньми
кіото
кіпр
кіпру
кіпрі
кіра
кірова
кіровоград
кіровоградська
кіровоградськоі
кіровськоі
кістка
кістки
кісток
кіт
кішка
кішки
кішок
л
ла
лабораторних
лабораторію
лабораторія
лабораторіі
лабінськии
лав
лавах
лави
лавка
лавки
лавра
лаврентіи
лаврентія
лаври
лавров
лад
лада
ладу
лаз
лазар
лазаренко
лазаря
лазні
лазурнии
лампи
лан
лана
лангедок
ланд
ландау
ландшафт
ландшафтнии
ландшафтного
ландшафту
ланка
ланки
ланкою
ланцетні
ланцюг
ланцюга
ланці
лаос
лапи
лара
лариса
ларрі
ларс
лас
ласка
ласки
ласло
ластівка
лат
латвіиськии
латвіиськоі
латвія
латвіі
латиною
латинська
латинськии
латинських
латинського
латинською
латинськоі
латинську
латинськіи
латис
лаура
лауреат
лауреата
лауреати
лауреатка
лауреатом
лауреатів
лаціо
лгбт
ле
лебедєв
лебідь
лев
лева
левенець
леви
левицькии
левицького
левко
левченко
леві
левів
легенд
легенда
легендарнии
легендарного
легенди
легендою
легень
легенів
легка
легкии
легким
легких
легко
легкоатлет
легкоатлетка
легкого
легкою
легкоі
легкі
легше
легіон
легіону
ледве
ледь
леді
лежав
лежала
лежали
лежать
лежить
леиб
леибл
леиблом
леиблу
леиблі
леик
леин
леипциг
леитенант
леитенанта
леитенантом
леицин
лексики
лексикон
лекции
лекціи
лекція
лекціі
лелека
лемко
лемківщини
лена
ленинград
ленинградская
ленинградскои
лені
ленін
леніна
ленінград
ленінграда
ленінградськии
ленінградського
ленінградському
ленінградськоі
ленінграді
ленінського
леніну
лео
леон
леона
леонард
леонардо
леоне
леонтіи
леонід
леоніда
леонідович
леопольд
леопольда
леп
леслі
лестер
леся
лесі
лет
летить
летию
летопись
ли
либідь
лиман
лиману
лип
липа
липень
липецкои
липецкстат
липецькоі
липи
липня
липні
лис
лиса
лисенка
лисенко
лисиця
лисиці
лист
листа
листах
листи
листки
листків
листові
листок
листом
листопад
листопада
листопадаа
листопаді
листочки
листування
листя
листям
листяних
листі
листів
листівки
листівок
лит
литва
литви
литвин
литвиненка
литвиненко
литві
литература
литературы
литовська
литовськии
литовським
литовських
литовсько
литовського
литовському
литовськоі
литографія
лиха
лихо
лиц
лицар
лицарськии
лицарського
лицаря
лицарі
лицарів
лице
лицем
лиця
личинки
личинок
лиш
лишається
лише
лишень
лишився
лишилися
лксму
ллоид
лнр
лну
ло
лоб
логос
логотип
логіка
логіки
лодзинського
ложі
лозова
лок
локальних
локально
локальні
локалізаціі
локалізовании
локомотив
локомотива
локі
ломбардія
ломжинського
ломоносова
лонг
лондон
лондона
лондонськии
лондонського
лондонському
лондоні
лопес
лора
лоран
лорд
лорда
лордів
лорен
лоренцо
лорі
лос
лот
лотарингія
лотарингіі
лоу
лоуренс
лтд
лу
луар
луара
луари
лубенського
лувр
луг
луганськ
луганська
луганськии
луганського
луганськоі
луганську
луганськіи
луганщині
лук
лука
лукас
луках
лукаш
лукашенко
луки
луна
луски
луценко
луцьк
луцька
луцькии
луцького
луцькоі
луцьку
луціи
луція
луі
луіджі
луіза
луізи
луізіана
луіс
луіса
ль
льва
львов
львова
львович
львові
львів
львівська
львівське
львівськии
львівських
львівського
львівському
львівськоі
львівську
львівські
львівськіи
львівщини
львівщині
льович
льодовик
льодовика
льодовикового
льоду
льотчик
льотчика
льотчиків
льюіс
льюіса
лю
люба
любив
любила
любили
любителів
любити
любить
люблю
люблять
люблінського
любов
любовь
любові
любомир
любуського
людвіг
людвіга
люде
людеи
люди
людина
людини
людиною
людину
людині
людмила
людмили
людовик
людовика
людства
людство
людська
людське
людськии
людських
людського
людськоі
людську
людські
людьми
людям
людях
люк
люка
люкс
люксембург
люксембургу
люсі
лют
лютии
лютневоі
лютого
лютому
люфтваффе
ля
ляльки
ляльок
лі
ліберальноі
лібертадорес
лібрето
ліва
ліван
лівану
лівані
ліве
ліверпуль
ліверпуля
лівии
лівим
лівих
лівобережжя
лівобережноі
лівого
лівому
ліворуч
лівою
лівоі
ліву
ліві
лівіи
лівія
лівіі
ліг
ліга
ліги
лігу
лід
лідер
лідера
лідерами
лідери
лідером
лідерство
лідерів
лідія
ліжка
ліжко
ліжку
ліжок
ліза
лізин
лізі
ліи
лікар
лікарем
лікарень
лікарню
лікарня
лікарні
лікарська
лікарськии
лікарських
лікарські
лікаря
лікарі
лікарів
ліквідацію
ліквідація
ліквідаціі
ліквідована
ліквідовании
ліквідовано
ліквідовані
ліквідувати
ліки
ліком
лікування
лікуванні
ліків
лілля
лілі
лілія
лін
ліна
лінгвістики
лінда
ліндсі
лінкольн
лінкор
лінкори
лінн
лініи
лініики
лініинии
лініиних
лініино
лініиного
лініині
лінію
лінія
лініями
лініях
лінією
лініі
ліон
ліона
ліпше
ліпідів
лір
ліра
лірика
лірики
ліс
ліса
лісабон
лісами
лісах
ліси
лісництва
лісництво
лісова
лісове
лісовии
лісових
лісового
лісовому
лісовоі
лісові
лісом
лісостеповоі
лісостепу
лісу
лісі
лісів
літ
літа
літак
літака
літаками
літаках
літаки
літаком
літаку
літаків
літати
літають
літер
літера
літерами
літератор
літераторів
література
літератури
літературна
літературне
літературнии
літературним
літературних
літературно
літературного
літературному
літературною
літературноі
літературну
літературні
літературніи
літературознавець
літературознавства
літературознавча
літературою
літературу
літературі
літери
літерою
літеру
літнього
літньоі
літня
літні
літніи
літніх
літо
літом
літопис
літопису
літописі
літровии
літрів
ліття
літургіі
ліхтенштеин
ліхтенштеину
ліцеи
ліцензію
ліцензією
ліцензіі
ліцею
ліцеі
лія
м
ма
мабуть
мав
мавзолеи
мавп
магазин
магазинах
магазини
магазину
магазині
магазинів
магдалена
магнус
магнітне
магнітних
магнітного
магнію
магістр
магістра
магістралі
магія
магіі
мадагаскар
мадагаскару
мадам
мадонна
мадрид
мадрида
мадриді
мажор
маз
мазепа
мазепи
мазовецького
мазур
мазурського
маи
маибутнього
маибутньому
маибутньоі
маибутнє
маибутні
маибутніи
маибутнім
маибутніх
маидан
маидану
маиданчик
маиданчика
маиданчики
маиданчику
маиданчиків
маидані
маиже
маик
маика
маикл
маикла
маиклом
маина
маино
маином
маині
маиор
маиора
маистер
маистерень
маистерно
маистерності
маистерню
маистерня
маистерні
маистерність
маистра
маистрами
маистри
маистром
маистрів
маия
мак
макар
макаренко
макаров
макарова
макдональд
македонськии
македонського
македонія
македоніі
макет
маккабі
маккартні
макс
макса
максим
максима
максимальна
максимальнии
максимально
максимального
максимальною
максимальноі
максимальну
максимович
максимум
максиміліан
максиміліана
мал
мала
малаві
малаизія
малаизіі
малдер
мале
маленька
маленьке
маленькии
маленькими
маленьких
маленького
маленькому
маленьку
маленькі
мали
малии
малим
малими
малих
мало
малого
малому
малопольського
малороссіискія
малою
малоі
малу
мальме
мальта
мальти
малював
малювання
малювати
малюк
малюнка
малюнки
малюнком
малюнку
малюнків
малюнок
маляр
малі
маліи
малік
мама
мами
мамо
ман
мана
манганова
мандат
мандатів
мандрівник
мандрівників
манері
мануель
манчестер
манш
маніфест
манґа
манґи
мао
маорі
мапа
мапи
мапі
мар
мара
марафон
маргарет
маргарита
маргарити
мардж
маре
марина
марини
маринич
марино
мария
марк
марка
марказі
маркевич
маркетинг
маркетингу
марки
марко
марков
маркович
марком
маркою
маркс
маркса
марксизму
марку
маркування
маркус
маркіз
маркіза
мармуру
марна
марно
марок
марокко
марс
марса
марсель
марселя
марсі
март
марта
мартен
мартин
мартина
мартиролог
марті
мартін
мартіна
мартінес
мару
маруся
марченко
марчук
марш
маршал
маршала
маршалл
маршалок
маршрут
маршрути
маршрутом
маршруту
маршруті
маршрутів
маршу
марі
маріанна
маріи
маріо
маріуполь
маріупольського
маріуполя
маріуполі
марію
марія
марією
маріі
мас
маса
маси
масив
масиви
масиву
масиві
масивів
маска
маски
масла
маслихата
масло
масова
масове
масовии
масових
масово
масового
масовоі
масові
масою
массачусетс
масу
масштаб
масштабах
масштаби
масштабу
масштабі
масі
мат
матвіи
матвіиович
матвія
матвієнко
математик
математика
математики
математику
математиці
математична
математичне
математичнии
математичних
математичного
математичноі
математичні
материалов
материалы
материка
материків
материнства
материнська
матері
матеріал
матеріалами
матеріалах
матеріали
матеріалом
матеріалу
матеріальних
матеріально
матеріального
матеріальноі
матеріальну
матеріальні
матеріалі
матеріалів
матерів
матеріі
мати
матиме
матки
матриць
матриця
матриці
матрос
матч
матчах
матчем
матчу
матчі
матчів
матір
маунт
махмуд
махно
маша
машин
машина
машинами
машинах
машини
машиннии
машинно
машинного
машинобудування
машинобудівнии
машинобудівного
машиною
машину
машині
машиніст
маю
мають
маючи
мая
маяк
маяковського
маямі
має
маємо
маєте
маєтки
маєтку
маєтків
маєтності
маєток
мається
маєш
мб
мвс
мвт
мг
мгу
мгц
мдб
мду
ме
меблі
меблів
мед
медалеи
медаллю
медаль
медалями
медалі
медаліст
медалістка
медведєв
медиа
медик
медико
медицина
медицини
медицину
медицині
медична
медичне
медичнии
медичних
медичного
медичному
медичноі
медичну
медичні
медичніи
медсестра
меду
медіа
медіана
медіани
медісон
медічі
меж
межа
межами
межах
между
межею
межу
межує
межі
мез
меи
меипл
меисон
мекленбург
мексика
мексиканськии
мексиканськоі
мексики
мексико
мексиці
мелодія
мелодіі
мельбурн
мельник
мельника
мельников
мельничук
мелітополь
мембрани
мембрані
меморандум
меморіал
меморіалу
меморіальна
меморіальнии
меморіального
меморіальну
меморіальні
мемуари
мен
мене
менеджер
менеджера
менеджери
менеджером
менеджмент
менеджменту
менш
менша
менше
меншии
меншим
меншими
меншин
меншини
менших
меншого
меншою
меншу
менші
меншіи
меню
меня
мені
мер
мера
мереж
мережа
мережах
мережею
мережу
мережі
мерк
меркуріи
мером
мерседес
мерт
мертва
мертвии
мертвим
мертвих
мертвого
мертві
мерфі
мері
меріленд
меріі
месники
месопотаміі
мест
места
место
мета
метаболізм
метал
металевии
металевих
металеві
метали
металу
металург
металурга
металургіинии
металургіиного
металургіі
металів
металіст
металіста
метану
метелик
метелики
метеликів
мети
метод
методами
методи
методика
методики
методичнии
методичних
методичноі
методичні
методологія
методологією
методологіі
методом
методу
методы
методів
метою
метр
метра
метри
метричних
метро
метровии
метрополіине
метрополіиного
метрополітен
метрополітену
метрополіі
метрів
метт
мету
метью
меті
метіонін
мефодія
механізаціі
механізм
механізми
механізмом
механізму
механізмів
механізована
механізованого
механізованоі
механік
механіка
механіки
механічна
механічнии
механічних
механічного
механічноі
механічні
мехмед
мехіко
меца
меценат
меч
меча
мечами
мечем
мечеть
мечеті
мечникова
мечі
мешкав
мешкала
мешкали
мешкало
мешканець
мешканця
мешканцями
мешканці
мешканців
мешкають
мешкає
мещера
мещери
мзс
ми
микита
микитович
мико
микола
миколаи
миколаиович
миколаиовича
миколая
миколаєва
миколаєві
миколаів
миколаівка
миколаівна
миколаівська
миколаівськии
миколаівського
миколаівськоі
миколаівськіи
миколи
миколою
миколу
миколі
мила
милосердя
миль
милі
мимоволі
министерства
минск
минуле
минулим
минулих
минуло
минулого
минулому
мир
мира
миргородського
мире
мирне
мирнии
мирним
мирних
мирного
мирні
мирович
мировои
миром
мирон
мирослав
мирослава
миру
мис
мислення
мисливець
мисливці
мисливців
мистецтв
мистецтва
мистецтво
мистецтвознавець
мистецтвознавства
мистецтвом
мистецтву
мистецтві
мистецька
мистецькии
мистецьких
мистецького
мистецькоі
мистецькі
мису
мисі
митець
митна
митних
митного
митноі
митрополит
митрополита
митрополитом
митрополіі
миттєво
митця
митці
митців
мить
миха
михаил
михаила
михаило
михаилов
михаилович
михаиловича
михаилом
михаилу
михаилівка
михаилівна
михаилівська
михаилівськии
михаилівського
михаіл
михаіла
миша
мишеи
миші
мк
мкм
мкс
мкф
мл
млин
млина
млини
млинів
млн
млрд
мм
мн
мне
множення
множин
множина
множини
множиною
множину
множині
мною
мо
мобільнии
мобільних
мобільного
мобільні
мобілізаціі
мобілізовании
мов
мова
мовами
мовах
мови
мовив
мовлення
мовляв
мовна
мовнии
мовних
мовного
мовноі
мовні
мовознавець
мовознавства
мовознавство
мовою
мову
мовчання
мовчки
мові
могил
могила
могили
могилу
могильник
могилянська
могилянськоі
могилі
могилів
могла
могли
могло
мого
могутності
могутніи
мод
мода
моделеи
моделлю
модель
моделювання
моделями
моделях
моделі
модерн
модерну
модернізацію
модернізація
модернізаціі
моди
модифікаціи
модифікація
модифікаціі
модулем
модуль
модуля
модулі
модулів
може
можемо
может
можете
можеш
можлива
можливе
можливии
можливим
можливих
можливо
можливого
можливостеи
можливостями
можливості
можливі
можливість
можливістю
можна
можу
можуть
моз
мозамбіку
мозаіка
мозаіки
мозель
мозку
мозок
мои
моисеи
моисея
мок
мол
молд
молдавськоі
молдавіі
молдова
молдови
молдові
молекул
молекули
молекулярна
молекулярноі
молитва
молитви
молитву
молитовнии
молода
молоде
молодии
молодим
молодими
молодих
молодого
молодому
молодості
молодою
молодоі
молоду
молодша
молодшии
молодшим
молодших
молодшого
молодші
молодь
молоді
молодіжна
молодіжнии
молодіжних
молодіжного
молодіжному
молодіжноі
молодіжну
молодіжніи
молодість
молока
молоко
молоком
молот
молотова
молочних
молочно
молочноі
молюсків
момент
моменти
моментом
моменту
моментів
мон
монако
монарх
монарха
монархів
монархіі
монастир
монастирю
монастиря
монастирі
монастирів
монах
монахів
монголи
монголо
монгольська
монгольськоі
монголів
монголія
монголіі
монет
монета
монетах
монети
монетного
монету
монография
монографіи
монографія
монографіі
монпельє
монреаль
монреалі
монро
монстрів
монтаж
монтажу
монтана
монтгомері
монте
монтевідео
монумент
монументального
моніка
монітор
моніторинг
моніторингу
мор
моравіі
мораль
моральнии
моральних
морально
морального
моральні
моралі
морган
морда
мордва
мордовія
мордовіі
море
морем
мороз
морозов
морозова
морріс
морскои
морська
морське
морськии
морським
морськими
морських
морського
морському
морськоі
морську
морські
морськіи
морфо
морфологіі
моря
моряки
моряків
морях
морі
морів
моріс
москаленко
москва
москве
москви
москвою
москву
москвы
москві
московскии
московского
московскои
московська
московське
московськии
московським
московських
московсько
московського
московському
московськоі
московську
московські
московськіи
московіі
моста
мости
мостом
мосту
мостів
мотив
мотивами
мотиви
мотивів
мотор
мотором
мотоциклів
моцарта
мощеи
мощі
мою
моя
моє
моєму
моєі
моі
моіи
моім
моіх
мп
мпа
мрнк
мріи
мрія
мріяв
мріє
мріі
мс
мсоп
мстислав
мстислава
мт
мтс
му
мудрии
мудрого
мудрості
мудрість
мужність
муз
музеи
музеинии
музеиних
музею
музеях
музеєм
музеі
музеів
музика
музикант
музиканта
музикантами
музиканти
музикантом
музикантів
музики
музикознавець
музикою
музику
музиці
музична
музичне
музичнии
музичним
музичних
музично
музичного
музичному
музичноі
музичну
музичні
музичніи
музыка
мукачево
муки
мультимедіині
мультсеріалу
мультфільм
мультфільму
муниципального
муниципальныи
муниципальным
муниципальных
муніципальна
муніципальне
муніципальнии
муніципальними
муніципальних
муніципального
муніципальноі
муніципалітет
муніципалітети
муніципалітетом
муніципалітету
муніципалітеті
муніципалітетів
мур
мура
мурза
мури
мурована
мурома
муру
мурів
мусив
мусить
муссоліні
мустафа
мусульман
мусульмани
мусульманських
мусульманського
мусять
мусів
мутаціі
муха
мухаммад
мухаммада
мухаммед
мухаммеда
мучеників
мушу
мфа
мъ
мы
мысль
мюзикл
мюллер
мюнхен
мюнхена
мюнхені
мюрреи
мі
міас
міг
мігель
мігрантів
міграція
міграціі
мідних
мідно
мідні
мідь
міді
між
міжвоєннии
міжнар
міжнародна
міжнародне
міжнароднии
міжнародним
міжнародними
міжнародних
міжнародного
міжнародному
міжнародною
міжнародноі
міжнародну
міжнародні
міжнародніи
міи
мікеланджело
мікроорганізмів
мікрораион
мікрораиону
мікрораионі
мілан
мілана
мілані
міллер
міллера
мільион
мільиона
мільиони
мільионів
мільярда
мільярдів
міліметрів
мілітарнии
міліція
міліціі
мін
міна
мінас
мінерал
мінерали
мінералого
мінералогічнии
мінеральних
мінеральноі
мінеральні
мінералів
міни
міннесота
міноборони
мінометів
міноносець
міноносці
міноносців
мінор
мінск
мінская
мінськ
мінська
мінського
мінськоі
мінську
мінус
міню
міні
мініатюри
мінімальна
мінімальнии
мінімальним
мінімум
мінімуму
міністерств
міністерства
міністерство
міністерством
міністерству
міністерстві
міністр
міністра
міністри
міністром
міністрів
мір
міра
мірза
міри
мірило
міркування
міркувань
мірою
міру
мірі
міс
міссурі
міссісіпі
міст
міста
містами
містах
містер
містера
містечка
містечко
містечком
містечку
містечок
містив
містився
містила
містилася
містили
містилися
містити
містить
міститься
місткість
місткістю
місто
містобудування
містом
місту
містять
містяться
місті
місце
місцева
місцеве
місцевии
місцевим
місцевими
місцевих
місцевого
місцевому
місцевостеи
місцевостях
місцевості
місцевою
місцевоі
місцеву
місцеві
місцевіи
місцевість
місцезнаходження
місцем
місць
місця
місцями
місцях
місці
міська
міське
міськии
міським
міських
міського
міському
міською
міськоі
міськради
міську
міські
міськіи
місяць
місяця
місяці
місяців
місячнии
місячного
місіи
місіонер
місіс
місію
місія
місією
місіі
мітинг
мітингу
мітохондріі
мітропи
мітчелл
міф
міфи
міфологія
міфологіі
міфу
міфів
міхаель
міхал
міцкевича
міцнии
міцно
міцності
міцні
міцність
міць
мічиган
мішель
мішок
міщан
міщенко
мѣста
мѣстъ
н
на
набагато
набережна
набирає
наближається
наближення
наближені
набори
набором
набору
набоі
набоів
набрав
набравши
набрала
набрали
набрати
набряк
набу
набув
набувають
набуває
набула
набули
набуло
набуття
набіги
набігів
набіи
набір
нав
навали
навантаження
навантажень
наведення
наведено
наведені
навесні
нави
навички
навичок
навколишнього
навколишнє
навколишні
навколишніх
навколо
навкруги
навмисно
наводить
навпаки
навпроти
навпіл
навратілова
навряд
навч
навчав
навчався
навчалась
навчалася
навчалися
навчалося
навчальна
навчальнии
навчальним
навчальних
навчально
навчального
навчальному
навчальноі
навчальні
навчання
навчанням
навчаннях
навчанні
навчань
навчатися
навчаються
навчаючись
навчається
навчився
навігаціі
навіки
навіть
навіщо
нагадують
нагадує
нагляд
наглядовоі
наглядом
нагляду
нагоди
наголос
нагород
нагорода
нагородами
нагороджена
нагороджении
нагородження
нагороджено
нагороджені
нагороди
нагородив
нагородили
нагородою
нагороду
нагруднии
нагрівання
нагріванні
нагір
над
надав
надавав
надавала
надавали
надавати
надавши
надала
надали
надалі
надана
надании
надання
надано
надані
надати
надають
надаються
надаючи
надає
надається
надбання
надбанні
надгробок
наделении
надзвичаинии
надзвичаиним
надзвичаиних
надзвичаино
надзвичаиного
надзвичаиноі
надовго
надр
надрукована
надруковано
надруковані
надто
надходження
надходити
надходить
надходять
надя
надіиності
надіиність
надіишла
надіишли
надіишло
надіишов
надіслав
надію
надія
надією
надіі
наживо
назавжди
назад
назар
назаренко
назв
назва
назвав
назвавши
назвала
назвали
назвами
названа
назване
названии
названих
названо
названі
назвати
назвах
назви
назвою
назву
назві
наземнии
наземних
наземного
наземні
називав
називався
називалася
називали
називалися
називалось
називалося
називати
називатися
називають
називаються
називаючи
називає
називається
назовні
назустріч
наи
наибагатших
наиближча
наиближче
наиближчии
наиближчим
наиближчих
наиближчого
наиближчоі
наиближчі
наибільш
наибільша
наибільше
наибільшии
наибільшим
наибільшими
наибільших
наибільшого
наибільшою
наибільшоі
наибільшу
наибільші
наиважливішим
наиважливіших
наиважливіші
наивидатніших
наивища
наивище
наивищии
наивищим
наивищих
наивищого
наивищому
наивищою
наивищоі
наивищу
наивищі
наивпливовіших
наивідомішии
наивідомішим
наивідомішими
наивідоміших
наивідоміші
наидавніших
наидавніші
наикоротша
наикраща
наикраще
наикращии
наикращим
наикращими
наикращих
наикращого
наикращому
наикращою
наикращу
наикращі
наиманими
наиманців
наименування
наименувань
наименш
наименша
наименше
наименшии
наимолодшии
наимолодшим
наипопулярнішим
наипопулярніших
наисильніших
наистаріша
наистарішии
наистарішим
наистаріших
наитеплішии
наиуспішніших
наихолоднішии
наичастіше
наиімовірніше
наказ
наказав
наказано
накази
наказом
наказу
наказує
наклав
наклад
накладом
накопичення
налагодження
налагодити
налаштування
належав
належала
належали
належало
належати
належать
належить
належним
належного
належність
налічував
налічувала
налічувалось
налічувалося
налічує
налічується
нам
намагався
намагалася
намагались
намагалися
намагання
намагаються
намагаючись
намагається
намалював
намет
нами
намібіі
намір
наміри
намісник
намісника
намісником
намісництва
нан
нанесення
наново
нансі
нанта
нану
напав
напад
нападають
нападає
напади
нападник
нападника
нападники
нападників
нападу
нападів
напали
напевне
напевно
наперед
напередодні
напис
написав
написала
написали
написана
написане
написании
написаних
написання
написанні
написано
написані
написати
написи
написом
написів
наповнення
напоки
наполегливо
наполеон
наполеона
наполовину
наполягав
наполі
напорі
напоі
напоів
напр
направив
направили
направлении
направлені
наприклад
наприкінці
напруга
напруги
напругою
напругу
напруження
напруженість
напрям
напрями
напрямками
напрямках
напрямки
напрямком
напрямку
напрямків
напрямок
напрямом
напряму
напрямі
напрямів
напіи
напір
нар
наради
нараді
нараз
наразі
нараховувала
нараховувало
нараховувалося
нараховує
нараховується
наречена
наречении
нареченоі
нарешті
нарис
нариси
нарисів
наркотиками
наркотики
наркотиків
наро
народ
народа
народами
народження
народженні
народжуваності
народжуваність
народжується
народи
народився
народила
народилась
народилася
народились
народилися
народилося
народна
народне
народнии
народним
народними
народних
народно
народного
народному
народною
народноі
народну
народні
народніи
народніх
народов
народові
народом
народу
народы
народі
народів
нарівні
нарід
нас
наса
насадження
насаджень
насамперед
населени
население
населением
населението
населении
населених
населения
населенному
населенным
населенных
населенныхъ
населенныя
населенню
населення
населенням
населеного
населеному
населені
населяли
населяють
населяє
насильно
насильства
насильство
наскільки
наслідками
наслідки
наслідком
наслідків
наслідок
наслідування
насос
насправді
нассау
настав
наставник
наставником
настала
настання
настає
настоятелем
настоятель
настрою
настроі
настріи
наступ
наступна
наступне
наступнии
наступник
наступника
наступником
наступним
наступними
наступних
наступного
наступному
наступною
наступноі
наступну
наступні
наступніи
наступу
настя
настільки
насіння
насінням
наталка
наталя
наталі
наталія
наталіі
натан
наташа
нато
натовп
натовпу
натомість
натрію
натуральне
натуральних
натхнення
натюрморт
наук
наука
науки
наукма
наукова
наукове
науковець
науковии
науковим
науковими
наукових
науково
наукового
науковому
науковою
науковоі
наукову
науковця
науковці
науковців
наукові
науковіи
наукою
науку
науменко
науці
науч
научно
научныи
нафта
нафти
нафтових
нафтовоі
нафту
нахил
нахилу
нац
национален
национальнои
национальность
национальныи
нацистами
нацисти
нацистських
нацистського
нацистськоі
нацистів
націи
націонал
національна
національне
національнии
національним
національними
національних
національно
національного
національному
національностеи
національності
національною
національноі
національну
національні
національніи
національністю
націоналізм
націоналізму
націоналістів
націю
нація
націі
начала
начало
начальник
начальника
начальником
наче
начебто
наш
наша
наше
нашим
наших
нашого
нашому
нашоі
нашу
наші
нашіи
нащадками
нащадки
нащадком
нащадків
нащадок
наявнии
наявних
наявного
наявності
наявні
наявність
наявністю
нба
нбу
нв
нвк
нгу
ндр
ндрович
нді
не
неактивними
неактивних
неактивною
неактивноі
неактуальними
неаполь
неаполя
неаполі
неба
небагато
небагатьох
небезпека
небезпеки
небезпеку
небезпечнии
небезпечним
небезпечних
небезпечні
небес
небесних
небесного
небесноі
небо
небом
небраска
небудь
небі
невада
невдало
невдалого
невдачі
невдовзі
невдоволення
невелика
невелике
невеликии
невеликим
невеликими
невеликих
невеликого
невеликому
невеликою
невеликоі
невелику
невеликі
невеликіи
невеличка
невеличкии
невеличкі
невже
неволі
невського
невід
невідома
невідоме
невідомии
невідомим
невідомими
невідомих
невідомо
невідомого
невідомі
негаино
негативнии
негативних
негативно
негативного
негативні
него
недавно
недалеко
недовго
недолік
недоліки
недоліком
недоліків
недостатності
недостатньо
недостатність
недоступне
неділю
неділя
неділі
незабаром
незадовго
незаконно
незалежна
незалежнии
незалежним
незалежними
незалежних
незалежно
незалежного
незалежності
незалежною
незалежноі
незалежну
незалежні
незалежність
незважаючи
незміннии
незмінним
незмінно
незначна
незначні
неимовірно
неиронів
неитронів
некоректнии
некоторые
некоторых
некролог
некрополь
нельсон
нем
нема
немає
неминуче
немов
немовлям
немовлят
неможливим
неможливо
неможливість
ненависть
ненависті
ненадовго
неначе
ненсі
необов
необхідна
необхідне
необхіднии
необхідним
необхідними
необхідних
необхідно
необхідного
необхідності
необхідною
необхідноі
необхідну
необхідні
необхідність
необхідністю
неодноразово
неоліту
неофіціинии
неофіціино
неповнолітніх
непогано
неподалік
неправильнии
неправильно
нерва
нервових
нервовоі
нерухомості
нерухомість
нерівності
нерівність
нерідко
несе
нескінченно
несли
несподівано
нестача
нестачу
нести
нестор
нестора
несуть
нет
нетривалии
нехаи
нечасто
нещастя
нещодавно
нею
неі
неістота
ни
нива
ниви
ниві
нижнього
нижньому
нижньосілезького
нижньоі
нижню
нижня
нижнє
нижні
нижніи
нижніх
нижча
нижче
нижчии
нижчих
нижчі
низ
низка
низки
низкою
низку
низовини
низці
низька
низькии
низьким
низьких
низько
низького
низькою
низькоі
низьку
низькі
нии
ник
никифор
николаев
николаевич
николаи
ним
ними
нині
нинішнього
нинішньоі
нинішня
нинішніи
нирки
нирок
нитки
ниток
них
нищівноі
нка
нквд
нквс
нко
нм
нн
ння
но
нобелівська
нобелівськоі
нобелівську
нов
нова
новак
новатор
новачків
новая
новгород
новгорода
новгородскои
новгородськоі
новгороді
нове
новел
новела
новели
новии
новиков
новим
новими
новин
новина
новини
нових
нович
ново
нововведення
нового
новоград
новое
новому
новонароджених
новороссіискои
новоросіиського
новосибирскои
новосибірськ
новосибірськоі
новоствореного
новоствореноі
новости
новоутвореноі
новою
новоі
нову
новые
новыи
нові
новіи
новітні
новітніх
нога
ногами
ногах
ноги
ногою
ногу
ножем
нои
нок
номенклатура
номер
номера
номерами
номери
номерні
номером
номері
номерів
номінал
номіналом
номінаціи
номінацію
номінація
номінаціях
номінаціі
номінована
номіновании
нор
нора
норв
норвегія
норвегіі
норвезька
норвезькии
норвезького
норвезькоі
нори
норм
норма
нормальнии
нормальних
нормально
нормального
нормальноі
нормами
норман
нормандія
нормандіі
нормативна
нормативних
нормативно
нормативных
норми
норт
носа
носив
носила
носили
носити
носить
носять
носіи
носіння
носія
носіями
носієм
носіі
носіів
нотатки
ноти
ночі
ноября
нр
нрм
нсдап
нспу
нська
нськии
нтв
нту
нтуу
нтш
ну
нуклеотидами
нуль
нулю
нуля
нур
нхл
нъ
нь
нього
ньому
нью
ньюкасл
ньютон
ньютона
ню
ня
ні
ніби
нібито
нівка
ніг
нігерія
нігеріі
нід
ніде
нідерландах
нідерланди
нідерландська
нідерландськии
нідерландського
нідерландськоі
нідерландів
ніж
ніжин
ніжинськии
ніжинського
ніи
нік
ніка
нікарагуа
нікель
нікелю
ніко
нікого
нікола
ніколас
ніколаєв
ніколи
ніколь
ніколя
нікому
нікополь
ніл
ніла
ніладхарі
нілу
нім
німець
німецька
німецьке
німецькии
німецьким
німецькими
німецьких
німецько
німецького
німецькому
німецькою
німецькоі
німецьку
німецькі
німецькіи
німеччина
німеччини
німеччиною
німеччину
німеччині
німцями
німці
німців
ніна
ніндзя
ніппоніка
ніс
ніхто
ніч
нічииному
нічим
нічию
нічия
нічиі
нічнии
нічних
нічного
нічні
нічого
ніші
ніщо
ніяк
ніяких
ніякого
ніякоі
о
оае
об
оба
обабіч
обама
обвинувачення
обговорення
обеліск
обер
обережно
оберлеитенант
оберст
обертання
обертається
обзор
обидва
обидвома
обидві
обирався
обирали
обирати
обирають
обираються
обирає
обирається
обителі
обкладинка
обкладинки
обкладинці
обкому
обл
обладнали
обладнана
обладнании
обладнання
обладнанням
обладнані
обласна
обласне
обласнии
обласних
обласного
обласному
обласноі
обласні
обласніи
областеи
области
областного
областнои
область
областю
областями
областях
області
облаштування
облвиконкому
облдержадміністраціі
обличчя
обличчям
обличчі
облога
облоги
облогу
облозі
облради
облік
облікова
обліку
обмежена
обмежене
обмежении
обмеженим
обмеженими
обмеження
обмежено
обмеженою
обмежень
обмежені
обмежити
обмежує
обмежується
обмін
обміну
обов
обозрение
оболонка
оболонки
оболонок
оболонь
обома
оборона
оборони
оборонна
обороннии
оборонних
оборонного
оборонноі
оборонні
оборону
обороны
обороні
обох
обоє
обрав
образ
образи
образование
образовании
образования
образованиям
образованных
образом
образотворче
образотворчих
образотворчого
образу
образі
образів
обрала
обрали
обрана
обрании
обраних
обрання
обрано
обрані
обрати
обробка
обробки
обробку
обробці
обряд
обряди
обряду
обрядів
обсерваторія
обсерваторіі
обслуговував
обслуговування
обслуговують
обслуговує
обслѣдованія
обставин
обставинах
обставини
обстановки
обстановці
обстеження
обстріл
обстрілу
обстріляли
обсяг
обсяги
обсягом
обсягу
обсягів
обсязі
обсє
обумовлена
обурення
обхід
обчислення
обчислень
обчислити
обчислювальних
обчислювальноі
общ
общая
общеи
общества
общество
община
общини
общині
обі
обіг
обігу
обід
обіимав
обіимає
обіими
обіиняв
обіити
обіцяв
обіцяє
обґрунтування
ов
овернь
овець
овочі
овочів
огаио
огли
огляд
оглядач
огляди
огляду
огляді
ого
оголосив
оголосила
оголосили
оголосило
оголосити
оголошена
оголошении
оголошення
оголошено
оголошені
оголошує
огонь
огорожі
огієнка
огієнко
од
ода
одержав
одержала
одержали
одержання
одержати
одержують
одеса
одеси
одесса
одессы
одесу
одеська
одеськии
одеського
одеському
одеськоі
одеськіи
одесі
один
одинадцять
одиницею
одиниць
одиницю
одиниця
одиниці
одиночнии
одиночному
одн
одна
однак
однаковии
однакових
однаково
однакову
однакові
одначе
одне
одним
одними
однини
одних
одно
одного
одноголосно
однозначно
одноименнии
одноименним
одноименного
одноименному
одноименною
одноименноі
одноименніи
одномандатному
одному
односельцям
одночасно
одною
одноі
одну
одні
одніи
однією
однієі
одпу
одразу
одружена
одружении
одруження
одружився
одружилася
одружилися
одружитися
одружується
одужання
одужань
одяг
одягу
одязі
оженився
оз
озброєнии
озброєних
озброєння
озброєнням
озброєнні
озброєнь
озброєні
озвучення
озвучено
озвучив
оздоблення
озер
озера
озерах
озеро
озером
озері
ознаиомлення
ознак
ознака
ознаками
ознаки
ознакою
означало
означати
означають
означає
означення
ои
ок
ока
океан
океаном
океану
океані
океанів
океаніі
окиснення
оклахома
око
околиць
околицях
околиці
оком
окрема
окреме
окремии
окремим
окремими
окремих
окремо
окремого
окремому
окремою
окремоі
окрему
окремі
окреміи
округ
округа
округам
округах
округи
округлі
округов
округом
округу
округі
округів
окружнии
окружного
окружноі
окрузі
окрім
оксана
оксани
оксид
оксиду
окситанія
оксфорд
октябрь
октября
окуляри
окупантами
окупанти
окупантів
окупацію
окупація
окупацією
окупаціі
окупована
окупованих
окупованіи
окупували
ол
оле
олег
олега
олегович
олегом
олекса
олександр
олександра
олександри
олександрович
олександровича
олександром
олександру
олександрівка
олександрівна
олександрія
олександріі
олекси
олексі
олексіи
олексіиович
олексія
олексієм
олексіівна
олена
олени
оленою
олену
олень
оленя
олені
оленів
олесь
олеся
оливково
олова
ольга
ольги
ольгу
олів
олівер
олівера
оліиник
олімп
олімпіад
олімпіадах
олімпіади
олімпіаді
олімпіиська
олімпіиськии
олімпіиським
олімпіиських
олімпіиського
олімпіиському
олімпіиськоі
олімпіиську
олімпіиські
олімпік
олімпія
олію
олія
оліі
ом
оману
омар
омбр
омелян
омелянович
омивається
он
она
онацькии
они
онлаин
оновлении
оновлення
оновлено
онтаріо
онук
онука
онуки
оо
оон
ооо
оос
оп
опади
опадів
опалення
опеида
опер
опера
оперативна
оперативно
оперативного
оперативноі
оператор
оператора
оператори
оператором
операторів
операціи
операціина
операціиних
операціиноі
операцію
операція
операціями
операціях
операцією
операціі
оперення
оперети
опери
оперна
опернии
оперних
оперного
оперу
опері
опинився
опинилася
опинилися
опиняється
опис
описав
описана
описание
описании
описаних
описано
описані
описати
описи
описом
опису
описував
описують
описуються
описує
описується
описі
опитування
оплати
оповідання
оповіданні
оповідань
оповідач
оповідає
оповідь
оповіді
оподатковане
оподаткованих
оподатковані
оподаткування
опозицію
опозиція
опозиціі
ополчення
опольського
опори
опорнии
опору
опрацювання
определении
определитель
оприлюднив
опромінення
оптимізаціі
оптичнии
оптичних
оптичного
оптичні
опублікована
опубліковане
опубліковании
опублікованих
опубліковано
опубліковані
опублікував
опублікувала
опублікували
опыт
опівночі
опіки
опікою
опіку
опір
опісля
ор
орбіта
орбітального
орбіти
орбіту
орбіті
орган
органам
органами
органах
органи
организации
органом
органу
органів
організатор
організатори
організатором
організаторів
організаціи
організаціино
організаціиного
організацію
організація
організаціям
організаціями
організаціях
організацією
організаціі
організм
організми
організму
організмі
організмів
організована
організовании
організованих
організовано
організованого
організовані
організовував
організовує
організував
організувала
організували
організувати
органічних
органічноі
органічні
орда
орден
ордена
орденами
ордени
орденом
ордену
орденів
орджонікідзе
орди
орегон
орел
оренди
оренду
оренді
орест
оригінал
оригіналу
оригінальна
оригінальнии
оригінальних
оригінального
оригінальному
оригінальності
оригінальноі
оригінальну
оригінальні
оригінальніи
оригіналі
оркестр
оркестром
оркестру
орла
орландо
орлеана
орлика
орлов
орлова
орловськии
орловськоі
орн
орнамент
орнаментом
орноі
орні
орудою
орієнтацію
орієнтація
орієнтаціі
орієнтована
орієнтовании
орієнтовані
орґанізаціі
ос
осада
осака
освоєння
освятив
освячении
освячення
освячено
освіта
освіти
освітлення
освітньо
освітнього
освітньоі
освітня
освітні
освітніи
освітніх
освітою
освіту
освіті
оселився
оселилася
оселилися
оселі
осені
осередки
осередком
осередку
осередків
осередок
осетіі
осип
оскар
оскара
оскільки
ослаблення
осло
осман
османи
османська
османськии
османського
османською
османськоі
османськіи
османів
оснащена
оснащении
оснащення
оснащені
основ
основа
основами
основи
основна
основне
основнии
основним
основними
основних
основного
основному
основною
основноі
основну
основные
основні
основніи
основою
основу
основы
основі
особа
особам
особами
особенности
особи
особин
особини
особиста
особисте
особистии
особистим
особистих
особисто
особистого
особистому
особистостеи
особистості
особистоі
особисту
особисті
особистість
особлива
особливе
особливии
особливим
особливими
особливих
особливо
особливого
особливостеи
особливостями
особливості
особливою
особливоі
особливу
особливі
особливість
особливістю
особняк
особова
особовии
особового
особоспоживач
особоспоживача
особою
особу
особі
осока
ост
останки
останнього
останньому
останньою
останньоі
останню
остання
останнє
останні
останніи
останнім
останніми
останніх
остану
остап
остапа
остаточне
остаточнии
остаточно
остаточного
остров
острова
островами
островах
острови
островом
островськии
островського
острову
острові
островів
острог
острозька
острозькии
острозького
остроленцького
острів
остін
ось
осі
осіб
осінніи
осінь
от
отак
отаман
отамана
отаманом
отв
отвори
отвору
отворів
отвір
отг
отд
отдельных
отець
отечественнои
отже
ото
отож
оточена
оточене
оточении
оточення
оточенні
оточені
оточили
оточують
оточує
отримав
отримавши
отримала
отримали
отримало
отримана
отримании
отриманих
отримання
отриманні
отримано
отримані
отримати
отримає
отримаємо
отримував
отримувала
отримували
отримувати
отримують
отримуючи
отримує
отримуємо
отруєння
оттава
отто
отця
отців
отъ
оун
оф
официальнои
официальныи
офк
оформлення
офф
офіс
офіси
офісу
офісі
офіцер
офіцера
офіцери
офіцером
офіцерськии
офіцерів
офіціина
офіціине
офіціинии
офіціиним
офіціиними
офіціиних
офіціино
офіціиного
офіціиному
офіціиною
офіціиноі
офіціину
офіціині
офіціиніи
ох
охолодження
охоплювала
охоплюють
охоплює
охорона
охоронець
охорони
охороннии
охоронних
охороною
охорону
охороняються
охороняється
охороні
охоче
оце
оценка
оці
оцінив
оцінили
оцінити
оцінка
оцінками
оцінки
оцінкою
оцінку
оцінок
оцінці
оцінювання
оцінюють
оцінюються
оцінюється
очах
очевидно
очевидців
очеи
очерк
очерки
очи
очима
очищення
очка
очками
очки
очко
очок
очолив
очоливши
очолила
очолити
очолював
очолювала
очолювали
очолює
очі
очікування
очікується
очільник
п
па
пабло
павел
павла
павленко
павло
павлов
павлова
павлович
павлом
павлюк
павлівна
павук
павука
павільион
пагони
пагорб
пагорба
пагорбах
пагорби
пагорбі
пагорбів
падають
падає
падіння
пак
пакет
пакети
пакету
пакетів
пакистан
пакистану
пакистані
пала
палат
палата
палати
палаті
палау
палац
палаци
палацом
палацу
палаццо
палаці
палаців
палеоліту
палермо
палестини
палестині
палець
палива
паливо
палички
палуби
пальма
пального
пальця
пальцями
пальці
пальців
пам
памяти
памятная
памятник
памятники
память
пан
пана
панама
панами
панас
пандемію
пандеміі
пане
панель
панелі
пани
панк
панно
панове
паном
панорама
пантелеимон
пантелеимона
пану
панував
панування
панує
панченко
панщини
пані
панів
паоло
пап
папа
папери
паперу
папері
паперів
папи
папою
папська
папуа
папір
пар
пара
парагваи
парагваю
парад
парадигма
парадокс
параду
параді
паралельних
паралельно
паралельні
паралелі
паралімпіиських
параметр
параметрами
параметри
параметрів
парами
параскеви
парафіи
парафію
парафія
парафіяльна
парафіян
парафіі
пари
париж
парижа
парижу
парижі
паризького
паризькому
паризькоі
паризькіи
парк
парках
паркер
парки
паркового
парком
парку
парків
парламент
парламентом
парламентське
парламентських
парламентськоі
парламентські
парламенту
парламенті
парнии
парних
парному
парні
паровии
парових
пароплав
парох
парою
партизан
партизани
партизанськии
партизанського
партизанів
партии
партнер
партнера
партнерами
партнери
партнером
партнерства
партнерство
партнерів
партіи
партіинии
партіиних
партіиного
партіиноі
партіину
партіиніи
партію
партія
партіями
партією
партіі
пару
парі
пас
пасажири
пасажирська
пасажирськии
пасажирських
пасажирського
пасажирські
пасажирів
паскаль
пасовища
паспорт
пастку
пат
патент
патентів
патологіі
патрон
патронів
патрулювання
патріарх
патріарха
патріархат
патріархату
патріархом
патрік
патріот
патріотичного
патріотів
паулу
пауль
пацієнт
пацієнта
пацієнтів
паша
пашкоу
паші
пащенко
пд
пе
певна
певне
певнии
певним
певними
певних
певно
певного
певному
певною
певноі
певну
певні
певніи
пед
педагог
педагога
педагогів
педагогіка
педагогіки
педагогічна
педагогічнии
педагогічних
педагогічного
педагогічному
педагогічноі
педагогічну
педагогічні
педро
педру
пеидж
пеизаж
пеизажі
пекла
пекло
пекулярна
пекулярних
пекін
пекіні
пелюстки
пен
пенальті
пенсильванія
пенсільванія
пенсіонер
пенсіонерами
пенсію
пенсіі
пер
пера
первая
первинна
первиннии
первинних
первинного
первинноі
первинні
первои
первыи
первісна
первіснии
первісно
первісного
пере
перебрався
перебував
перебувала
перебували
перебувало
перебування
перебувати
перебувають
перебуваючи
перебуває
перебудова
перебудовании
перебудови
перебіг
перебігу
перев
переваг
перевага
переваги
перевагою
перевагу
переважали
переважають
переважає
переважна
переважно
перевал
переведена
переведении
переведення
переведено
переведені
перевезення
перевезень
перевезли
перевели
перевести
перевидання
перевищила
перевищувала
перевищувати
перевищують
перевищує
перевод
переворот
перевороту
перевірена
перевірено
перевірити
перевірка
перевірки
перевірку
перегляд
перегляду
переглядів
переглянути
переглянуто
переговорах
переговори
переговорів
перегонах
перегони
перегонів
перед
передав
передавання
передавати
передала
передали
передана
передании
передано
передані
передати
передач
передача
передачею
передачу
передачі
передають
передаються
передає
передається
передбачав
передбачала
передбачалося
передбачають
передбачає
передбачається
передбачених
передбачення
передбачено
передбачені
передгір
передм
передмова
передмістя
передмісті
переднього
передньому
передньоі
передню
передня
передні
передніи
передніх
передових
передові
передумови
передусім
передує
пережив
переживання
переживає
пережила
пережили
переименована
переименоване
переименовании
переименовано
переименували
переименування
переименувань
переити
переишла
переишли
переишло
переишов
переишовши
переказ
переказами
перекази
переказів
переклав
переклад
перекладав
перекладах
перекладач
перекладача
перекладачем
перекладачка
перекладається
перекладена
перекладено
перекладені
переклади
перекладом
перекладу
перекладі
перекладів
переконав
переконании
переконання
переконань
переконати
переконує
перекрили
перекриття
перелік
переліку
перемагає
перемикання
перемир
перемишль
перемишльського
перемишльськоі
перемишлі
перемовини
перемог
перемога
перемоги
перемогла
перемогли
перемогою
перемогти
перемогу
переможець
переможниця
переможного
переможному
переможцем
переможця
переможцями
переможці
переможців
перемозі
переміг
перемігши
переміщення
перенесена
перенесении
перенесення
перенесено
перенесені
перенесли
перенести
переносить
переноситься
переніс
перепис
переписи
переписна
переписніи
переписом
перепису
перепись
переправи
перераб
перервами
перерви
перероб
переробка
переробки
перерізу
перес
переселення
переселенцями
переселенці
переселенців
переселилися
пересихаючии
пересихає
переслідування
переслідувань
переслідувати
переслідує
перестав
перестала
перестали
пересування
перетворена
перетворении
перетворення
перетворено
перетворень
перетворив
перетворився
перетворилася
перетворили
перетворилися
перетворити
перетворюються
перетворює
перетворюється
перетин
перетинають
перетинаються
перетинає
перетину
перетині
переходи
переходили
переходити
переходить
переходом
переходу
переходять
переході
переходів
перехоплення
перехрестя
перехресті
перехід
перехідне
перехіднии
перець
перечень
перешкод
перешкоджає
перешкоди
перешкодити
переяслав
переяславського
переіжджає
переізд
переіздить
переізду
переіхав
переіхала
переіхали
переіхати
периметру
период
периферіі
перкусія
перл
перм
пермського
перо
перрі
перс
персонаж
персонажа
персонажами
персонажем
персонажі
персонажів
персонал
персоналом
персоналу
персональна
персональнии
персональних
персональні
перспектива
перспективи
перспективних
перспективі
перстень
перського
перськоі
персі
персіі
перу
перун
перш
перша
перше
першии
першим
першими
перших
першого
першоджерела
першому
першості
першою
першоі
першу
перші
першіи
першість
період
періоди
періодичних
періодично
періодичні
періодом
періоду
періоді
періодів
пес
песни
пестливі
пет
петер
петербург
петербурга
петербургу
петербурзькии
петербурзького
петербурзькоі
петербурзі
петлюри
петлі
петр
петра
петренко
петро
петров
петрова
петрович
петровича
петровськии
петровського
петрограді
петрографічнии
петром
петру
петрівна
печатка
печатки
печеи
печер
печера
печерах
печери
печерськии
печерського
печерськоі
печеру
печері
печі
печінки
печінці
пещеры
пеі
пз
пива
пиво
пил
пилип
пилипа
пилипович
пилу
пильно
пиотрковського
пиріг
писав
писала
писали
писання
писар
писати
писемності
писемність
письма
письменник
письменника
письменники
письменником
письменників
письменниця
письменниці
письменства
письмо
письмова
письмових
письмі
питання
питанням
питаннями
питаннях
питанні
питань
питає
пити
питноі
питома
пише
пишуть
пк
пл
плавання
плавець
плавлення
плавця
плавці
плавців
плавчиня
плазми
плазунів
плакати
план
планами
планах
планет
планета
планети
планету
планеті
плани
планка
планом
плантаціях
плантаціі
плану
планував
планували
планувалось
планувалося
планування
планують
планує
планується
плані
планів
пласт
пласта
пластику
пластин
пластини
пластинки
пластів
плата
платежів
плати
платили
платити
платні
плато
платон
платона
плату
платформ
платформа
платформах
платформи
платформою
платформу
платформі
платівка
платівки
плацдарм
плацдарму
плач
плаче
плеи
плем
племен
племена
племенами
племені
племінник
племінника
плечах
плече
плечі
плином
плит
плита
плити
плодами
плоди
плодів
плоскі
плоцького
площ
площа
площею
площини
площині
площу
площі
плутарх
плутати
плюс
пляж
пляжі
плям
пляма
плямами
плями
пляшки
плівки
плід
плідну
пн
по
побачення
побачив
побачивши
побачила
побачили
побачити
побережник
побив
побили
побиття
поблизу
побоювання
побоюючись
побував
побудова
побудована
побудовании
побудованих
побудовано
побудовані
побудови
побудову
побудові
побудував
побудували
побудувати
побут
побутових
побутового
побутові
побуту
побуті
побічних
побічні
пов
поваги
повагою
повагу
повалення
поведінка
поведінки
поведінкою
поведінку
повені
повернення
поверненням
повернеться
повернув
повернувся
повернувшись
повернула
повернулась
повернулася
повернули
повернулись
повернулися
повернути
повернутись
повернутися
повернуто
поверсі
повертався
повертатися
повертаються
повертаючись
повертає
повертається
поверх
поверхи
поверхневих
поверхнею
поверхню
поверхня
поверхні
поверхонь
поверху
поверхів
повз
повинен
повинна
повинно
повинні
повна
повне
повнии
повним
повних
повно
повноваження
повноважень
повноважнии
повноважного
повного
повнометражнии
повному
повноціннии
повною
повноі
повну
повні
повніи
повністю
поводження
поволжья
поволі
поворот
повороту
повоєннии
повоєнні
повстав
повстали
повсталих
повстання
повстанні
повстанськоі
повстанцями
повстанці
повстанців
повстань
повсюдно
повсякденному
повторення
повторив
повторити
повторне
повторно
повторного
повторює
повторюється
повів
повідомив
повідомила
повідомили
повідомило
повідомити
повідомлення
повідомленням
повідомленнями
повідомлено
повідомлень
повідомляв
повідомлялося
повідомляють
повідомляє
повідомляється
повільно
повінь
повістеи
повість
повістю
повісті
повіт
повіти
повітовии
повітового
повітря
повітрям
повітряна
повітрянии
повітряним
повітряних
повітряно
повітряного
повітряноі
повітряні
повітрі
повіту
повіті
повітів
погана
погане
погании
погано
погану
погані
поглиблення
поглинання
погляд
поглядами
погляди
поглядом
погляду
поглядів
погода
погоджується
погоди
погодився
погодилася
погодилися
погоду
пограбування
погруддя
погіршення
под
подав
подавати
подала
подали
подальша
подальше
подальшии
подальшим
подальших
подальшого
подальшому
подальшоі
подальшу
подальші
подании
подання
поданням
подано
подані
подарував
подарунки
подарунок
подати
податки
податкового
податковоі
податку
податків
податок
подачі
подають
подаються
подає
подається
подвиг
подвиги
подвіина
подвіине
подвіинии
подвіиним
подвіиних
подвіиного
подвіині
подвір
подготовлен
подекуди
подивитися
подобається
подолання
подолати
подолі
подорож
подорожеи
подорожував
подорожувати
подорожі
подробиці
подруга
подруги
подружжя
подрібнення
подумав
подяка
подяки
подяку
подібна
подібне
подібнии
подібним
подібними
подібних
подібно
подібного
подібноі
подібну
подібні
подібність
подіи
поділ
поділена
поділении
поділено
поділені
поділив
поділити
поділля
поділлі
поділом
поділу
подільська
подільськии
подільського
подільському
подільськоі
поділяють
поділяються
поділяється
подію
подія
подіями
подіях
подією
подіі
поезіи
поезію
поезія
поезіі
поема
поеми
поему
поемі
поет
поета
поетеса
поетеси
поети
поетична
поетичнии
поетичних
поетичного
поетичноі
поетичні
поетом
поетів
пожеж
пожежа
пожежноі
пожежу
пожежі
пожертви
поза
позаду
позачергові
позаяк
позбавити
позбавлена
позбавлении
позбавлення
позбавлені
позбутися
позитивнии
позитивних
позитивно
позитивного
позитивні
позиціи
позицію
позиція
позиціях
позиціі
познаиомився
познаиомилася
познанського
познань
познані
позначають
позначаються
позначає
позначається
позначення
позначенням
позначено
позначені
позначками
позначки
позов
поинт
покажчик
показ
показав
показавши
показала
показали
показало
показана
показании
показано
показані
показати
показник
показника
показниками
показники
показником
показників
показу
показували
показувати
показують
показує
покарання
поки
покидає
покинув
покинула
покинули
покинути
поклав
покладено
покладені
поклади
покладів
поклала
поклали
покласти
покликании
поклоніння
покоління
поколінь
покращення
покращити
покрив
покриває
покриву
покрита
покритии
покриття
покриттям
покриті
покрови
покровителем
покровитель
покровська
покровськии
покровського
покупки
покупців
покіиного
пол
пола
поле
полеглих
полегшення
полегшити
полем
полк
полки
полковии
полковник
полковника
полковником
полководець
полководця
полком
полку
полків
полное
поло
половина
половини
половиною
половину
половині
пологи
пологів
положення
положенням
положенні
положень
полом
полон
полонених
полону
полоні
полотна
полотнище
полотно
полтава
полтави
полтавскои
полтавська
полтавськии
полтавського
полтавському
полтавськоі
полтавськіи
полтавщина
полтавщини
полтавщині
полтаві
полу
полум
поль
польова
польовии
польових
польового
польовоі
польові
польоти
польоту
польоті
польотів
польська
польське
польськии
польським
польськими
польських
польсько
польського
польському
польською
польськоі
польську
польські
польськіи
польща
польщею
польщу
польщі
полюбляє
полювання
полюс
полюса
полюють
полює
поля
полягала
полягає
поляками
поляки
поляков
поляків
полями
поляна
полях
полі
полів
полігон
полігоні
поліграфічнии
поліморфізм
поліна
поліпептидного
поліпшення
поліпшити
полісся
поліссі
політ
політбюро
політв
політехніка
політехніки
політехнічнии
політехнічного
політехнічному
політик
політика
політики
політико
політикою
політику
політиків
політиці
політична
політичне
політичнии
політичним
політичними
політичних
політично
політичного
політичному
політичною
політичноі
політичну
політичні
політичніи
політолог
політологіі
поліцеиськии
поліцеиських
поліцеиського
поліцеиські
поліцію
поліція
поліцією
поліціі
поліщук
пом
помер
померанія
померла
померли
померлих
померло
померлого
померти
помешкання
помешкань
помилка
помилки
помилково
помилку
помилок
помирає
поморського
помочі
помпея
помста
помсти
помститися
поміж
помірних
помірно
помітив
помітили
помітити
помітнии
помітно
помітні
поміч
помічає
помічник
помічника
помічником
помічників
поміщении
поміщик
поміщика
поміщиків
понад
понеділок
пониженим
пономаренко
поняття
поняттям
понять
пообіцяв
поодинокі
поодинці
поп
попа
попадання
попередження
попередник
попередника
попередником
попередників
попередньо
попереднього
попередньому
попередньоі
попередню
попередня
попереднє
попередні
попередніи
попереднім
попередніми
попередніх
попереду
попит
попитом
попиту
попов
попова
попович
поповнення
поправки
попри
попросив
попрощалися
попрямував
популяризацію
популяризаціі
популярна
популярнии
популярним
популярними
популярних
популярного
популярності
популярною
популярноі
популярні
популярність
популярністю
популяціи
популяція
популяціі
пор
пора
поради
порадою
поразка
поразки
поразкою
поразку
поразок
поранении
пораненими
поранених
поранення
поранено
поранень
поранені
пори
пороги
порода
породами
породах
породжує
породи
порожнини
порожніи
порозі
порох
пороху
порошенка
порошенко
порошок
порт
портал
порталу
порталі
порти
портом
портр
портрет
портрета
портрети
портретів
порту
португальська
португальськии
португальських
португальського
португальською
португальськоі
португальські
португальці
португалія
португаліі
портів
пору
поруч
порученію
поручник
порушення
порушенням
порушеннями
порушенні
порушень
порушив
порушує
поряд
порядки
порядком
порядку
порядків
порядок
порятунку
порятунок
порівняльного
порівняння
порівнянні
порівняно
порівняти
поріг
порід
посад
посада
посадах
посади
посадка
посадки
посадку
посадових
посаду
посаді
посвідчення
поселение
поселении
поселения
поселениям
поселення
поселенням
поселенні
поселенці
поселенців
поселень
посеред
посередині
посилання
посиланням
посилань
посилаючись
посилає
посилається
посилення
посилити
посилюється
посла
послаблення
послав
послання
после
посли
послом
послуг
послугами
послуги
послів
послідовники
послідовників
послідовних
послідовно
послідовностеи
послідовності
послідовність
посмертно
пособие
посол
посольства
посольство
посольстві
посполитоі
посполитіи
поспіль
пост
поста
постав
поставив
поставила
поставили
поставити
поставки
поставлена
поставлении
поставлено
поставлені
поставок
постала
постало
постаменті
постанов
постанова
постанови
постановив
постановка
постановки
постановку
постановление
постановник
постановою
постанову
постановці
постать
постаті
постачання
постає
пости
постоялии
постоялих
постоянного
постраждав
постраждала
постраждали
постраждалих
постраждало
постріл
постріли
пострілу
пострілів
посту
поступ
поступається
поступив
поступився
поступившись
поступилася
поступилися
поступове
поступово
постіина
постіине
постіинии
постіиним
постіиними
постіиних
постіино
постіиного
постіиному
постіиною
постіиноі
постіину
постіині
постіиніи
посуд
посуду
посіб
посібник
посібники
посібників
посів
посівши
посідав
посідає
посіла
посіли
потебні
потенціал
потенціалу
потенціиних
потенціино
потепління
потоки
потоком
потоку
потоків
потомство
потому
потопив
потоплении
потоцькии
потоцького
поточнии
поточного
поточні
потрапив
потрапивши
потрапила
потрапили
потрапило
потрапити
потрапляння
потрапляють
потрапляє
потреб
потреба
потреби
потребу
потребувала
потребують
потребує
потрібен
потрібна
потрібне
потрібнии
потрібно
потрібні
поттер
потужна
потужнии
потужним
потужних
потужного
потужностеи
потужності
потужну
потужні
потужність
потужністю
потяг
потяги
потягів
потік
потім
похил
похилого
поховали
похована
поховании
поховання
поховано
поховань
поховані
походах
походження
походженням
походи
походив
походила
походили
походить
походу
походять
поході
походів
похорон
похід
похідна
похідних
похідні
поцілунок
поч
почав
почався
почавши
почала
почалась
почалася
почали
почались
почалися
почало
почалось
почалося
почасти
почати
початкова
початкове
початковии
початкових
початково
початкового
початковому
початковоі
початкову
початкові
початковіи
початком
початку
початок
почему
почесна
почесне
почеснии
почесним
почесними
почесних
почесного
почесною
почесні
починав
починали
починають
починаються
починаючи
починає
починається
почне
почтовые
почув
почувши
почути
почуття
почуттям
почуттів
пошани
поширена
поширене
поширении
поширеним
поширеними
поширених
поширенню
поширення
поширенням
поширеною
поширені
поширився
поширилася
поширюються
поширюється
пошкоджении
пошкодження
пошкоджено
пошкоджень
пошкоджені
пошкодив
пошта
пошти
поштова
поштове
поштовии
поштових
поштового
поштовоі
поштовх
поштові
пошук
пошуках
пошуки
пошуку
пошуків
пощастило
поява
появи
появою
появу
появі
пояс
пояса
пояснення
пояснив
пояснити
пояснюють
пояснює
пояснюється
поясу
поясі
поєдинки
поєдинку
поєдинків
поєдинок
поєднання
поєднанням
поєднанні
поєднував
поєднують
поєднуються
поєднує
поєднується
поізд
поізда
поізди
поіздка
поіздки
поіздку
поіздок
поіздів
поіхав
поіхала
поіхали
поіхати
пп
ппо
пр
пра
прав
права
правами
правах
правда
правди
правду
праве
правив
правии
правил
правила
правилами
правили
правило
правильнии
правильно
правильного
правим
правителем
правитель
правительства
правителя
правителі
правителів
правити
править
правих
правленія
правлячоі
правління
правник
право
правобережжя
правобережноі
правова
правовая
правовии
правових
правового
правовоі
правовых
правові
правого
правознавство
правом
правому
правоохоронних
правопис
правопису
правопорушення
правопорядку
праворуч
православ
православна
православная
православнии
православних
православного
православною
православноі
православну
православні
православніи
правосуддя
правою
правоі
праву
праві
правіи
прага
праги
прагне
прагнення
прагнув
прагнули
прагнуть
прагнучи
прадеш
празі
практ
практик
практика
практики
практикою
практику
практиці
практична
практичне
практичнии
практичних
практично
практичного
практичноі
практичні
прапор
прапора
прапори
прапором
прапорщик
прапорів
прасл
праслов
прат
прах
працевлаштоване
працездатне
працездатнии
працездатного
працею
праць
працю
працював
працювала
працювали
працювало
працювати
працюють
працюючи
працює
праця
працях
праці
працівник
працівника
працівникам
працівниками
працівники
працівників
пре
пред
предварительные
предки
предків
предмет
предмета
предметами
предмети
предметом
предметів
представив
представила
представили
представити
представлена
представлении
представлення
представлено
представлені
представляв
представляла
представляли
представляти
представляють
представляє
представник
представника
представникам
представниками
представники
представником
представників
представництва
представництво
представниця
презентація
презентаціі
презентував
презентували
президент
президента
президенти
президентові
президентом
президентства
президентських
президентські
президенту
президентів
президиума
президія
президіі
прекрасна
прекраснии
прекрасно
прем
преміи
премію
премія
премією
преміі
преображення
препарат
препарати
препарату
препаратів
преподобнии
преподобного
прес
преса
пресвятоі
преси
пресс
престол
престолу
престолі
пресі
претендентів
претензіи
претензіі
префектура
префектури
префектурі
префікс
при
приазов
прибережних
прибережні
приблизна
приблизно
прибув
прибувають
прибуває
прибувши
прибула
прибули
прибуло
прибутки
прибутковии
прибутку
прибуток
прибуття
прив
приват
приватизаціі
приватна
приватне
приватнии
приватним
приватними
приватних
приватного
приватному
приватноі
приватну
приватні
приватніи
приведення
привезли
привела
привели
привело
привернув
привернула
привернути
привести
привид
приводить
приводом
приводу
привів
привід
привіз
привілеи
привілеі
привілеів
пригод
пригода
пригоди
приголосних
приготування
придатні
придбав
придбала
придбали
придбана
придбання
придбано
придбати
придніпровськоі
придністров
придумав
придушення
придушенні
придушити
приділяв
приділяється
приз
призвании
призведе
призвела
призвели
призвело
призвести
призводить
призводять
призвів
приземлення
призер
призерка
призером
призначався
призначалися
призначають
призначаються
призначає
призначається
призначена
призначене
призначении
призначених
призначення
призначенням
призначено
призначені
призначив
призначили
призначити
прииде
приимав
приимали
приимання
приимати
приимають
приимаються
приимає
приимається
прииняв
приинявши
прииняла
прииняли
прииняло
приинята
прииняте
прииняти
приинятии
приинятих
приинято
прииняття
прииняті
прииом
прииоми
прииому
прииомів
приити
приишла
приишли
приишло
приишов
прикарпатського
прикарпаття
приклад
прикладами
приклади
прикладних
прикладного
прикладноі
прикладом
прикладу
прикладі
прикладів
прикметник
прикметники
прикметникова
прикметникове
прикордонна
прикордоннии
прикордонних
прикордонного
прикордонноі
прикордонні
прикрас
прикраси
прикрашали
прикрашають
прикрашена
прикрашении
прикрашені
прикриття
прикриттям
прил
прилад
прилади
приладу
приладів
прилеглих
прилеглі
прилуки
прилуцького
прилучаються
прим
примикає
примирення
приморська
приморського
примусово
примірників
приміром
приміських
приміські
примітка
примітки
приміщення
приміщеннях
приміщенні
приміщень
принадлежност
принаимні
приналежності
приналежність
принесла
принесли
принесло
принести
приносили
приносить
приносять
принц
принца
принцеса
принцеси
принцесою
принцип
принципами
принципах
принципи
принципово
принципом
принципу
принципі
принципів
принцом
приніс
прип
припав
припадало
припадає
припинення
припинено
припинив
припинила
припинили
припинити
припиняє
приписують
приплив
припускають
припускає
припустив
припустимо
припустити
припущення
природа
природи
природна
природне
природнии
природним
природними
природних
природничих
природно
природного
природному
природноі
природні
природознавства
природокористування
природоохоронних
природою
природу
природы
природі
приріст
присвоєне
присвоєння
присвоєно
присвятив
присвятити
присвячена
присвячении
присвячених
присвячено
присвяченоі
присвячену
присвячені
прискорення
прислів
прислівник
прислівники
пристань
пристосовані
пристосування
пристрасть
пристрасті
пристрою
пристроями
пристроях
пристроєм
пристроі
пристроів
пристріи
приступив
присудження
присуджено
присуджується
присутності
присутня
присутні
присутніи
присутнім
присутність
присутніх
присяги
присягу
присяжних
присязі
присілки
присілку
присілок
притаманна
притаманнии
притаманні
приток
притока
притоки
притокою
притоку
притоці
притулку
притулок
прихильник
прихильниками
прихильники
прихильником
прихильників
прихильність
приховані
приховати
приходили
приходить
приходом
приходу
приходько
приходять
прихід
приціл
причетність
причин
причина
причинами
причини
причиною
причину
причому
причорномор
приятель
приєднався
приєдналася
приєдналися
приєднана
приєднання
приєднано
приєднані
приєднатися
приєднуються
приєднується
приіжджає
приізду
приіхав
приіхала
приіхали
про
проб
проби
пробитися
проблем
проблема
проблемам
проблемами
проблеми
проблемою
проблему
проблемы
пробув
пробудження
пров
провадження
провадив
провал
прованс
провансу
проведена
проведене
проведении
проведених
проведення
проведенням
проведенні
проведено
проведеного
проведеноі
проведені
провела
провели
провести
провини
провину
проводив
проводився
проводила
проводилася
проводили
проводились
проводилися
проводилося
проводити
проводитися
проводить
проводиться
проводом
проводу
проводять
проводяться
провулку
провулків
провулок
провів
провівши
провідна
провіднии
провідник
провідника
провідників
провідним
провідними
провідних
провідною
провідну
провідні
провінціи
провінцію
провінція
провінціях
провінцією
провінціі
прогноз
прогнозування
проголосив
проголосила
проголосили
проголосували
проголошена
проголошении
проголошення
проголошено
програв
програвши
програла
програли
програм
програма
програмами
програмах
програми
програмне
програмнии
програмним
програмних
програмного
програмою
програму
програмування
програмі
програному
прогрес
прогресс
прогресу
прогулянки
продав
продавався
продавали
продавати
продавець
продаж
продажу
продажі
продажів
продала
продали
продана
продании
продано
продані
продати
продають
продаються
продає
продається
продемонстрував
продемонстрували
продемонструвати
продовження
продовженням
продовжено
продовжив
продовжила
продовжили
продовжити
продовжував
продовжувала
продовжували
продовжувати
продовжують
продовжуючи
продовжує
продовжується
продовольства
продукт
продуктами
продукти
продуктивності
продуктивність
продуктивністю
продуктом
продукту
продуктів
продукцію
продукція
продукціі
продюсер
продюсера
продюсери
продюсером
проект
проектами
проектах
проекти
проектом
проекту
проектування
проекті
проектів
прожив
проживав
проживала
проживали
проживало
проживання
проживають
проживає
прожила
проза
прозаік
прози
проиде
произведеннаго
проити
проишла
проишли
проишло
проишов
проишовши
прокат
прокату
прокаті
прокладена
прокладено
прокляття
прокопович
прокоф
прокудин
прокуратура
прокуратури
прокурор
прокурора
пролягає
пролін
променями
промені
променів
прометеи
промислова
промислове
промисловии
промислових
промислово
промислового
промисловості
промисловоі
промислові
промисловість
промислу
промо
промова
промови
промовив
промову
проміжку
проміжна
проміжних
проміжок
промінь
проникає
проникнення
пропав
пропаганда
пропаганди
пропаганду
проповіді
пропозиціи
пропозицію
пропозиція
пропозицією
пропозиціі
пропонував
пропонували
пропонують
пропонує
пропонується
пропорціі
пропрацював
пропуску
пропустив
пропустивши
пропущении
проректор
прорив
прориву
пророк
пророка
просвещение
просвіта
просвіти
просвітництва
просив
просили
просити
просить
прославився
прослухати
прослуховування
проспект
проспекту
проспекті
проста
просте
простежується
простии
простим
простими
простих
просто
простого
простори
простором
простору
просторі
просторів
простою
простоі
простягається
прості
простір
простіше
просування
просять
проте
протекторат
протест
протестантів
протести
протесту
протестів
проти
против
противагу
противник
противника
противником
противників
протидіі
протилежнии
протилежних
протилежному
протилежні
протиповітряноі
протиріччя
протистояння
протистоянні
протистояти
протока
протоки
протокол
протоколи
протоколу
протоколів
протокою
протоку
прототип
прототипом
протоці
протоієреи
протягом
протяжність
протяжністю
протікають
протікає
проф
професор
професора
професори
професором
професорів
професіи
професіина
професіине
професіинии
професіиним
професіиних
професіино
професіиного
професіиному
професіиноі
професіину
професіині
професіиніи
професіональнии
професіоналів
професіоналізм
професію
професія
професіі
профспілки
профспілок
профілактики
профіль
профілю
прохання
проханням
проходження
проходив
проходила
проходили
проходило
проходити
проходить
проходу
проходять
прохоров
прохорова
прохід
процвітання
процедур
процедура
процедури
процедуру
процес
процесами
процесах
процеси
процесом
процесор
процесора
процесори
процесорів
процесу
процесі
процесів
процитовано
прочитав
прочитання
прочитати
прошу
прощання
прояв
прояви
проявив
проявлені
проявляє
проявляється
проявів
проєкт
проєкти
проєктом
проєкту
проєктування
проєкті
проєктів
проігноровано
проізд
проізду
проіснував
проіснувала
прп
прусськоі
пруссія
пруссіі
прут
пряма
пряме
прямии
прямим
прямими
прямих
прямо
прямого
прямокутне
прямокутні
прямому
прямою
прямоі
пряму
прямував
прямують
прямує
прямі
пряміи
прі
прізвисько
прізвищ
прізвища
прізвище
прізвищем
пріоритет
пс
псалом
псв
псевдо
псевдонім
псевдонімом
пси
психолог
психологічнии
психологічних
психологічного
психологічноі
психологічні
психологія
психологіі
психічних
психічного
псл
птах
птаха
птахами
птахи
птахів
пташенята
птиці
птолемея
пу
пуатьє
публикации
публіи
публікаціи
публікацію
публікація
публікаціі
публіки
публікував
публікувалися
публікуються
публікує
публіцист
публіці
публічна
публічне
публічнии
публічних
публічно
публічного
публічноі
публічні
публічніи
пудів
пуерто
пункт
пунктам
пунктами
пунктах
пункти
пунктов
пунктом
пункту
пункті
пунктів
пустеля
пустелі
путеводитель
пути
путь
путівку
путівник
путін
путіна
пухлини
пушкін
пушкіна
пфальц
пфл
пцу
пшениця
пшениці
пюі
пять
пі
піаніно
піаніст
пів
південна
південне
південнии
південним
південних
південно
південного
південнозахідноі
південнокореиськии
південному
південною
південноі
південну
південні
південніи
південніше
південь
півдня
півдні
півень
півзахисник
півзахисника
півкулі
півночі
північ
північна
північне
північнии
північним
північних
північно
північного
північному
північною
північноі
північну
північні
північніи
північніше
півострова
півострові
півострів
півроку
півтора
півтори
півфінал
півфіналу
півфіналі
під
підбір
підвалі
підвид
підвиди
підвиду
підвидів
підвищена
підвищении
підвищення
підвищенням
підвищеноі
підвищити
підвищує
підвищується
підводнии
підводним
підводними
підводних
підводного
підводні
підвіска
підвіски
підготовка
підготовки
підготовкою
підготовку
підготовлено
підготовлені
підготовці
підготував
підготувала
підготувати
підгрупи
підданих
піддані
піддаються
піддається
піде
підземнии
підземних
підземного
підземні
підиом
підиому
підкарпатського
підключення
підкови
підкомітету
підкорення
підкорив
підкорити
підкреслити
підкреслює
підкріплення
підлеглих
підлога
підлоги
підлогу
підлозі
підлягають
підлягає
підляського
підлітків
піднесення
підняв
піднявся
підняли
підняти
піднятися
підняття
підніжжя
піднімається
підозри
підозрою
підпис
підписав
підписавши
підписала
підписали
підписана
підписании
підписання
підписано
підписати
підписом
підписів
підполковник
підполковника
підпорядкована
підпорядковане
підпорядковании
підпорядковані
підпорядковувалися
підпорядковується
підпорядкування
підпорядкуванні
підприємець
підприємництва
підприємств
підприємства
підприємствами
підприємствах
підприємство
підприємством
підприємстві
підприємців
підпілля
підпільноі
підрахунками
підрахунку
підрахунок
підродина
підродини
підрозділ
підрозділами
підрозділи
підрозділом
підрозділу
підрозділів
підручник
підручника
підручники
підручників
підряд
підсилення
підстав
підстави
підставою
підставі
підсумками
підсумки
підсумку
підсумок
підтвердження
підтверджено
підтверджені
підтверджують
підтверджує
підтверджується
підтвердив
підтвердила
підтвердили
підтвердити
підтримав
підтримала
підтримали
підтримання
підтримати
підтримка
підтримки
підтримкою
підтримку
підтримував
підтримувала
підтримували
підтримувати
підтримують
підтримуючи
підтримує
підтримується
підтримці
піду
підходи
підходить
підходу
підходять
підходів
підхід
підчас
підіишли
підіишов
пізнання
пізнати
пізно
пізнього
пізньоі
пізня
пізні
пізніи
пізніх
пізніше
пізніших
пізніші
пік
пікассо
піклування
пікселів
піку
пілот
пілота
пілоти
пілотом
пілотів
піньінь
піонер
піонерів
піп
пір
піраміда
піраміди
пірати
піратів
піренеі
пірс
пісенному
пісень
піски
піску
пісків
після
післявоєннии
післядипломноі
піснею
пісню
пісня
піснями
піснях
пісні
пісок
пістолет
пістолета
піт
пітер
пітера
піти
піттсбург
піхота
піхоти
піхотинців
піхотна
піхотнии
піхотних
піхотного
піхотноі
піч
пішки
пішла
пішли
пішло
пішов
піщаних
піщані
р
ра
раб
раба
раби
работы
рабства
рабство
рабів
рад
рада
радгосп
радгоспу
раджа
ради
радио
радник
радника
радником
радників
радо
радомського
радості
радою
раду
радченко
радше
радянська
радянське
радянськии
радянським
радянськими
радянських
радянсько
радянського
радянському
радянською
радянськоі
радянську
радянські
радянськіи
раді
радіатора
радіаціі
радіо
радіозв
радіомовлення
радіостанція
радіостанціі
радість
радістю
радіус
раз
развитие
развития
рази
размещение
разом
разу
разі
разів
раи
раикому
раилі
раио
раион
раиона
раионам
раионами
раионах
раиони
раионна
раионнии
раионним
раионних
раионного
раионноі
раионных
раионніи
раионов
раионом
раиону
раионування
раионі
раионів
раит
раицентру
рак
ракет
ракета
ракетами
ракети
ракетнии
ракетних
ракетного
ракетні
ракетою
ракету
раку
ральф
ралі
рама
рами
рамках
рамки
рамон
ран
ранг
рангу
рани
ранку
раннього
ранньому
ранньоі
рання
раннє
ранні
ранніи
ранніх
рано
ранок
раніше
раптово
раптом
рапід
рас
раса
раси
расовии
рассел
растении
растения
ратуша
ратуші
рауль
раунд
раунду
раунді
рафаель
рафаеля
рахунки
рахунком
рахунку
рахунок
раціонального
раю
раян
раіса
рб
рбк
рд
рда
ре
реабілітаціі
реабілітовании
реабілітовані
реагування
реагує
реактор
реактора
реакціи
реакцію
реакція
реакцією
реакціі
реал
реальна
реальне
реальнии
реальних
реально
реального
реальному
реальності
реальноі
реальну
реальні
реальність
реалізацію
реалізація
реалізаціі
реалізм
реалізму
реалізована
реалізовании
реалізовано
реалізовані
реалізувати
реалізує
реалізується
реаліті
реаліі
ребер
ребра
реверсі
револьвер
революціинии
революціиних
революціиного
революціиноі
революціину
революціині
революціонер
революціонерів
революцію
революція
революціі
ревізіиноі
регбі
регент
регентом
регламенту
регулювання
регулюють
регулює
регулюється
регулярнии
регулярних
регулярно
регулярного
регулярні
регуляція
регіон
регіональна
регіональнии
регіональних
регіонального
регіональному
регіональноі
регіональні
регіонами
регіонах
регіони
регіоном
регіону
регіоні
регіонів
ред
редагував
редагування
редагувати
редактор
редактора
редактори
редактором
редакторів
редакциеи
редакция
редакціиноі
редакція
редакцією
редакціі
редкол
редколегіі
реестр
реж
режим
режими
режимом
режиму
режимі
режимів
режисер
режисера
режисери
режисерка
режисером
режисерів
резерв
резервація
резерви
резервного
резерву
резервуар
резиденцію
резиденція
резиденцією
резиденціі
резолюцію
резолюція
резолюціі
резонанс
результат
результатами
результати
результативність
результатом
результату
результаті
результатів
реи
реид
реиду
реимонд
реин
реинджерс
реинланд
реину
реис
реиси
реисів
реитинг
реитинги
реитингом
реитингу
реих
реиха
реиху
реичел
реклама
реклами
рекламних
рекламу
рекламі
рекомендаціи
рекомендацією
рекомендаціі
рекомендовано
рекомендується
реконструкцію
реконструкція
реконструкціі
рекорд
рекорди
рекордом
рекордів
ректор
ректора
ректором
рельєф
рельєфу
релігіи
релігіина
релігіинии
релігіиним
релігіиними
релігіиних
релігіино
релігіиного
релігіиноі
релігіину
релігіині
релігію
релігія
релігієзнавча
релігією
релігіі
реліз
релізу
ремесел
ремесла
ремонт
ремонтно
ремонту
ремісників
ренді
рене
ренесансу
ренна
рено
реорганізацію
реорганізаціі
реорганізовано
реп
репер
репера
репертуар
репертуару
репертуарі
репортаж
репортер
репресовании
репресіи
репресіі
репутацію
респонденти
республик
республика
республики
республік
республіка
республіканська
республіканськии
республіканських
республіканського
республіканськоі
республіки
республікою
республіку
республіці
реставрація
реставраціі
ресторан
ресторани
ресторану
ресторані
ресторанів
ресурс
ресурсами
ресурси
ресурсу
ресурсів
ретельно
референдум
референдуму
референт
реформ
реформа
реформаціі
реформи
реформу
реформування
рец
рецензіи
рецензія
рецензіі
рецепт
рецепторів
речеи
речення
речовин
речовина
речовинами
речовини
речовиною
речовину
речі
решение
решт
решта
решти
рештки
решток
рештою
решту
решті
решітки
рея
реєстр
реєстрацію
реєстрація
реєстраціі
реєстру
реєстрі
ри
риа
риб
риба
рибалка
рибалки
рибальство
риби
риболовля
рибою
рибу
рига
риги
ризик
ризики
ризику
ризиків
ризі
рики
рико
рильськии
рильського
рим
рима
римлян
римлянами
римляни
римо
римом
римська
римськии
римським
римських
римсько
римського
римському
римською
римськоі
римську
римські
римськіи
риму
римі
ринках
ринки
ринковоі
ринку
ринків
ринок
рис
риса
рисами
риси
рисою
рису
ритм
ритуал
рк
ркка
ркп
рлс
рм
рн
рнбо
рнк
ро
роб
робер
роберт
роберта
роберто
робертом
робертс
робив
робила
робили
робити
робить
робиться
роблять
роблячи
робот
робота
роботами
роботах
роботи
роботою
роботу
роботі
роботів
робоча
робочии
робочим
робочих
робочого
робочому
робочоі
робочу
робочі
робін
робінсон
робіт
робітник
робітника
робітники
робітником
робітників
робітниче
робітничих
робітничо
робітничого
робітничоі
рогатоі
роги
рогу
род
рода
роджер
роджерс
роди
родин
родина
родинами
родини
родинні
родиною
родину
родині
родич
родича
родичами
родичем
родичі
родичів
родная
родов
родовищ
родовища
родовищах
родовище
родовищі
родовід
родом
родрігес
роду
родючості
роді
родів
рождения
рожевии
рожевого
рожеві
роз
роза
розбив
розбився
розбили
розбити
розбитии
розбиття
розбиті
розбудови
розбіжності
розв
розваг
розваги
розведення
розвивав
розвивався
розвивалася
розвивалися
розвивати
розвиватися
розвиваються
розвиває
розвивається
розвинена
розвинении
розвинених
розвинені
розвинув
розвинути
розвиткові
розвитком
розвитку
розвиток
розвідка
розвідки
розвідку
розвідник
розвідувальнии
розвідувальних
розвідувального
розвідувальноі
розгляд
розглядав
розглядався
розглядали
розглядалися
розглядати
розглядатися
розглядають
розглядаються
розглядає
розглядається
розгляду
розгляді
розглянемо
розглянути
розгортання
розгортаються
розгортається
розгромили
розгрому
роздрібна
роздуми
розділ
розділена
розділене
розділении
розділення
розділено
розділені
розділи
розділив
розділили
розділити
розділу
роздільною
розділяє
розділі
розділів
розквіт
розквіту
розкидані
розклад
розкладання
розклади
розкладу
розкол
розколу
розкопки
розкопок
розкриває
розкривається
розкрити
розкриття
розлад
розлади
розладів
розлучення
розлучилися
розм
розмах
розмежування
розмноження
розмножується
розмова
розмови
розмовляли
розмовляти
розмовляють
розмовляє
розмову
розмові
розмір
розмірами
розмірах
розміри
розмірності
розміром
розміру
розмірі
розмірів
розмістили
розмістити
розміщена
розміщене
розміщении
розміщення
розміщено
розміщені
розміщувався
розміщувалася
розміщувалися
розміщуються
розміщується
розп
розпався
розпад
розпаду
розпал
розпалася
розпис
розписи
розпису
розповсюдження
розповсюджується
розповів
розповідав
розповідають
розповідає
розповідається
розповідь
розповіді
розповіла
розповіли
розповісти
розподіл
розподілені
розподілом
розподілу
розподілялося
розпорядження
розпорядженням
розпорядженні
розпочав
розпочався
розпочала
розпочалась
розпочалася
розпочали
розпочались
[...]
