!
"
#
##0
##1
##10
##11
##12
##13
##14
##15
##16
##17
##18
##19
##2
##20
##21
##22
##23
##24
##25
##26
##27
##28
##29
##3
##30
##31
##32
##33
##34
##35
##36
##37
##38
##39
##4
##40
##41
##42
##43
##44
##45
##46
##47
##48
##49
##5
##50
##51
##52
##53
##54
##55
##56
##57
##58
##59
##6
##60
##61
##62
##63
##64
##65
##66
##67
##68
##69
##7
##70
##71
##72
##73
##74
##75
##76
##77
##78
##79
##8
##80
##81
##82
##83
##84
##85
##86
##87
##88
##89
##9
##90
##91
##92
##93
##94
##95
##96
##97
##98
##99
$
%
&
'
(
)
*
+
,
-
.
/
0
00
000
0002
0003
0004
0006
001
0014
0017
002
0021
0022
0028
003
0036
004
005
006
007
008
009
0092
01
010
011
012
013
014
0140
015
016
017
018
019
02
020
021
0210
022
023
024
025
026
0261
027
029
03
030
033
0362
04
05
050
06
07
08
09
1
10
100
1000
1001
1002
1006
1007
101
1011
1016
1017
102
1021
1023
1024
1029
103
1033
1035
1037
1038
1039
104
1040
1042
1046
105
1050
1051
1055
1056
106
1063
1065
1066
107
1071
1073
1074
1078
108
1080
1083
1084
1085
1086
1088
1089
109
1090
1091
1093
1095
1096
1097
1098
1099
11
110
1100
1101
1103
1107
1109
111
1110
1111
1119
112
1120
1126
1128
113
1130
1131
1133
1134
1135
1136
1137
1138
1139
114
1140
1146
115
1150
1152
1154
1155
1157
1158
1159
116
1160
1161
117
1170
1172
1175
1177
118
1180
1182
1185
1186
1188
1189
119
1191
1194
1199
12
120
1200
1204
1205
1207
121
1210
1212
1214
1215
1216
1217
1218
122
1220
1225
123
1230
1235
124
1240
1242
1248
125
1250
126
1260
1261
127
1270
1274
128
1280
1282
1285
1286
129
1290
13
130
1300
1303
1304
1305
1307
131
132
1320
1325
1328
133
1330
134
1340
1346
1348
1349
135
1350
1351
1353
136
1360
1364
1365
1369
137
1370
1371
138
1380
1383
1385
1386
1387
139
1390
1399
14
140
1400
141
1410
1415
1416
142
1420
1425
143
1430
1432
1435
1439
144
1440
1445
145
1450
1453
1458
146
1460
1461
1462
1463
1464
1465
1467
1468
1469
147
1470
1471
1472
1474
1475
1476
1477
1478
1479
148
1480
1481
1482
1483
1488
149
1490
1492
1493
1494
1495
1496
1497
1498
1499
15
150
1500
1501
1502
1503
1504
1505
1506
1508
1509
151
1510
1511
1512
1513
1514
1515
1516
1517
1519
152
1520
1521
1522
1523
1524
1525
1526
1527
1528
1529
153
1530
1532
1533
1534
1535
1536
1537
1538
1539
154
1540
1541
1542
1543
1545
1546
1547
1548
1549
155
1550
1551
1553
1554
1555
1556
1557
1558
1559
156
1560
1561
1562
1563
1564
1565
1566
1567
1568
1569
157
1570
1571
1572
1573
1574
1575
1576
1577
1578
1579
158
1580
1581
1582
1584
1585
1586
1587
1588
1589
159
1590
1591
1592
1593
1595
1596
1597
1598
1599
16
160
1600
1601
1602
1603
1604
1605
1606
1607
1608
1609
161
1610
1611
1612
1613
1614
1615
1616
1617
1618
1619
162
1620
1621
1622
1623
1624
1625
1626
1627
1628
1629
163
1630
1631
1632
1633
1634
1635
1636
1637
1638
1639
164
1640
1641
1642
1643
1644
1645
1646
1647
1648
1649
165
1650
1651
1652
1653
1654
1655
1656
1657
1658
1659
166
1660
1661
1662
1663
1664
1665
1666
1667
1668
1669
167
1670
1671
1672
1673
1674
1675
1676
1677
1678
1679
168
1680
1681
1682
1683
1684
1685
1686
1687
1688
1689
169
1690
1691
1694
1695
1696
1697
1699
17
170
1700
1701
1702
1703
1704
1705
1706
1707
1708
1709
171
1710
1711
1712
1713
1714
1715
1716
1717
1718
1719
172
1720
1721
1723
1724
1725
1726
1727
1728
1729
173
1730
1732
1733
1734
1735
1736
1737
1738
1739
174
1740
1741
1742
1743
1744
1745
1746
1747
1748
1749
175
1750
1751
1752
1753
1754
1755
1756
1757
1758
1759
176
1760
1761
1762
1763
1764
1765
1766
1767
1768
1769
177
1770
1771
1772
1773
1774
1775
1776
1777
1778
1779
178
1780
1781
1782
1783
1784
1785
1786
1787
1788
1789
179
1790
1791
1792
1793
1794
1795
1796
1797
1798
1799
18
180
1800
1801
1802
1803
1804
1805
1806
1807
1808
1809
181
1810
1811
1812
1813
1814
1815
1816
1817
1818
1819
182
1820
1821
1822
1823
1824
1825
1826
1827
1828
1829
183
1830
1831
1832
1833
1834
1835
1836
1837
1838
1839
184
1840
1841
1842
1843
1844
1845
1846
1847
1848
1849
185
1850
1851
1852
1853
1854
1855
1856
1857
1858
1859
186
1860
1861
1862
1863
1864
1865
1866
1867
1868
1869
187
1870
1871
1872
1873
1874
1875
1876
1877
1878
1879
188
1880
1881
1882
1883
1884
1885
1886
1887
1888
1889
189
1890
1891
1892
1893
1894
1895
1896
1897
1898
1899
19
190
1900
1901
1902
1903
1904
1905
1906
1907
1908
1909
191
1910
1911
1912
1913
1914
1915
1916
1917
1918
1919
192
1920
1921
1922
1923
1924
1925
1926
1927
1928
1929
193
1930
1931
1932
1933
1934
1935
1936
1937
1938
1939
194
1940
1941
1942
1943
1944
1945
1946
1947
1948
1949
195
1950
1951
1952
1953
1954
1955
1956
1957
1958
1959
196
1960
1961
1962
1963
1964
1965
1966
1967
1968
1969
197
1970
1971
1972
1973
1974
1975
1976
1977
1978
1979
198
1980
1981
1982
1983
1984
1985
1986
1987
1988
1989
199
1990
1991
1992
1993
1994
1995
1996
1997
1998
1999
2
20
200
2000
2001
2002
2003
2004
2005
2006
2007
2008
2009
201
2010
2011
2012
2013
2014
2015
2016
2017
2018
2019
202
2020
2021
2022
2023
203
204
205
206
207
208
209
21
210
211
212
213
214
215
216
217
2174
218
219
22
220
221
222
223
224
225
226
227
228
229
23
230
2307
231
232
233
234
235
236
237
238
239
24
240
2405
241
242
243
244
245
246
247
248
249
25
250
2500
25031
251
252
253
254
255
256
257
258
259
26
260
261
262
263
264
265
266
267
268
269
27
270
271
272
273
274
275
276
277
278
279
28
280
281
282
283
284
285
286
287
288
289
29
290
291
2913
292
293
294
295
296
297
298
299
3
30
300
3000
301
302
303
304
305
306
307
308
309
31
310
311
312
313
314
315
316
317
318
319
32
320
321
322
323
324
325
326
327
328
329
33
330
331
332
333
334
335
336
337
338
339
34
340
341
342
343
344
345
346
347
348
349
35
350
3500
351
352
353
354
355
356
357
358
359
36
360
361
362
363
364
365
366
367
368
369
37
370
371
372
373
374
375
376
377
378
379
38
380
381
382
383
384
385
386
387
388
389
39
390
391
392
393
394
395
396
397
398
399
4
40
400
4000
401
402
403
404
405
4051
406
407
408
4081
409
41
410
411
412
413
414
415
416
417
418
4181
419
42
420
421
422
423
424
425
426
427
428
429
43
430
431
432
433
4331
434
435
436
437
438
439
44
440
441
442
443
444
445
446
447
448
449
45
450
451
452
453
454
455
456
457
458
459
46
460
461
462
463
464
465
466
467
468
469
47
470
471
472
473
474
475
476
477
478
479
48
480
481
482
483
484
485
486
487
488
489
49
490
491
492
493
494
495
496
497
498
499
5
50
500
5000
501
502
503
504
505
506
507
508
509
51
510
511
512
513
514
515
516
517
518
519
52
520
521
522
523
524
525
526
527
528
529
53
530
531
532
533
534
535
536
537
538
539
54
540
541
542
543
544
54437384
545
546
547
548
549
55
550
551
552
553
554
555
556
557
558
559
56
560
561
562
563
564
565
566
567
568
569
57
570
571
572
573
574
575
576
577
578
579
5793
58
580
581
582
583
584
585
586
587
588
589
59
590
591
592
593
594
595
596
597
598
599
6
60
600
6000
601
602
603
604
605
606
607
608
609
61
610
611
612
613
614
615
616
617
618
619
62
620
621
622
623
624
625
626
627
628
629
63
630
631
632
633
634
635
636
637
638
639
64
640
641
642
643
644
645
646
649
65
650
651
652
653
654
655
656
657
6582
659
66
660
661
662
663
664
665
666
667
668
669
67
670
671
672
673
6736
674
675
676
678
679
68
680
681
682
683
684
685
686
687
688
689
69
690
691
692
695
697
698
699
7
70
700
7000
701
702
703
704
705
706
707
709
71
710
711
712
713
714
715
7154
716
7167
717
718
7191
72
720
721
722
724
725
726
727
729
73
730
731
732
733
735
737
739
74
740
741
742
743
744
745
747
748
749
7492
75
750
7507
751
752
753
754
756
757
758
759
76
760
761
762
763
765
767
768
7680
77
770
771
774
775
777
78
780
781
783
786
7864
787
789
79
790
791
792
794
796
8
80
800
8000
801
8018
802
803
805
806
8064
808
81
810
811
812
813
814
815
8158
817
82
820
821
8221
824
825
8288
83
830
8302
833
8341
839
84
840
842
843
844
847
8485
8487
849
85
850
851
85170
852
853
855
858
86
860
861
862
865
866
867
8674
869
87
870
871
875
876
877
878
87804
879
87987
88
880
882
883
884
887
89
890
895
899
9
90
900
901
902
903
905
907
91
910
911
912
9121
913
914
9151
917
919
92
920
921
924
925
927
93
930
931
933
936
939
94
942
945
95
950
951
952
954
955
956
958
959
96
960
961
96128
962
963
965
967
968
97
970
972
973
9749
975
976
978
9782
98
980
981
983
985
9865
987
989
99
990
9914
995
996
997
999
:
;
<
=
>
?
@
[
\
]
^
_
`
a
aa
aaa
aaron
aas
ab
aba
abad
abade
abades
abadesa
abadi
abaixo
abal
aban
abanca
abandona
abandonada
abandonadas
abandonado
abandonados
abandonan
abandonando
abandonar
abandonara
abandonaron
abandonase
abandono
abandonou
abano
abarca
abarcaba
abarcan
abas
abastecemento
abba
abbas
abbey
abbott
abc
abd
abdicacio
abdicar
abdicou
abdome
abdominal
abdul
abdullah
abe
abegondo
abeiro
abel
abelardo
abella
abellas
abelleira
aberdeen
aberta
abertamente
abertas
aberto
abertos
abertura
aberturas
abertzale
abeto
abies
abismo
abkhazia
able
abolicio
abolida
abonda
abondo
abondosa
aborda
abordar
aboriginal
aborixe
aborixes
aborto
abortos
about
above
abra
abraham
abrams
abrancazada
abrangue
abranguen
abrangui
abre
abreconcertos
abren
abrente
abreu
abreviacio
abreviada
abreviado
abreviatura
abri
abrigo
abril
abrindo
abrir
abriron
abrirse
abriu
abriuse
absolto
absoluta
absolutamente
absolutas
absolutismo
absoluto
absorbe
absorben
absorber
absorbida
absorbido
absorcio
abstencio
abstraccio
abstract
abstracta
abstracto
abstractos
absurdo
abu
abucay
abunda
abundan
abundancia
abundante
abundantes
abuso
abusos
ac
aca
acaba
acababa
acabada
acabado
acabados
acabamento
acaban
acabando
acabar
acabara
acabari
acabaron
acabou
acacia
acad
acada
acadado
acadados
acadan
acadando
acadar
acadara
acadaron
acade
academia
academias
academic
academy
acadou
acaia
acas
acb
accademia
acce
accede
acceder
accedeu
accesi
accesible
accesibles
acceso
accesorios
accesos
access
accessed
accident
accidentado
accidental
accidentalmente
accidente
accidentes
accio
accionista
accionistas
according
account
ace
acea
acedo
aceiro
aceite
aceites
aceleracio
acelerado
acelerador
aceleradores
acelerar
acento
aceos
acepcio
acepta
aceptaba
aceptable
aceptacio
aceptada
aceptadas
aceptado
aceptados
aceptan
aceptando
aceptar
aceptaron
aceptor
aceptou
acer
acerbaixa
acerca
aceredo
acetato
acetil
acetilcolina
acevedo
acha
achaba
achado
achados
achan
achar
achas
ache
achega
achegada
achegadas
achegado
achegados
achegamento
achegan
achegando
achegar
achegarse
achegas
achegou
achegouse
achievement
aci
acid
acidez
acids
acin
acio
acios
aclamacio
aclamado
aclarar
aco
acode
acoden
acoirazado
acoirazados
acolle
acoller
acolleu
acollida
acollido
acomodada
acomodar
acompan
aconsella
acontece
acontecemento
acontecementos
acontecer
aconteceu
acontecido
acoplamento
acorda
acordaron
acorde
acordeo
acordes
acordo
acordos
acordou
acordouse
acos
acoso
acosta
acostuma
acostuman
acoti
acoustic
acquire
acre
acreditada
acreditado
acreditar
acres
acro
across
act
acta
actas
actes
acti
actin
actina
acting
action
actitude
actitudes
activa
activacio
activada
activadas
activado
activador
activados
activamente
activan
activar
activas
activated
activation
active
actividade
actividades
activismo
activist
activista
activistas
activities
activity
activo
activos
acto
actor
actores
actors
actos
actress
actrices
actriz
acts
actu
actuaba
actuaban
actuacio
actuais
actual
actualidad
actualidade
actualizacio
actualizada
actualizado
actualmente
actuando
actuar
actuaron
actuou
acu
acua
acuarela
acuario
acudi
acudir
acudiron
acudiu
acueduto
acuerdo
acui
acuicultura
acumula
acumulacio
acumulan
acumular
acun
acuosa
acusa
acusacio
acusada
acusado
acusados
acusou
acute
ad
ada
adam
adams
adapta
adaptacio
adaptada
adaptadas
adaptado
adaptados
adaptar
adaptarse
adaptation
adaptativa
adaptive
adaptou
adas
adc
add
addison
addressed
adds
ade
adecuada
adecuadamente
adecuadas
adecuado
adecuados
adega
adegas
adela
adelaida
adelaide
adele
adema
ademais
adenina
adentro
adeptos
ades
adestra
adestrado
adestrador
adestradores
adestrados
adestramento
adestramentos
adestrar
adestrou
adeus
adhesio
adhesion
adi
adiantado
adiantar
adiante
adica
adicada
adicado
adicados
adiccio
adicio
adicionais
adicional
adicionalmente
adicou
adicouse
adif
adin
adio
adiposo
aditivo
aditivos
adivin
adler
administra
administracio
administrada
administrado
administrador
administradores
administrar
administration
administrativa
administrativamente
administrativas
administrativo
administrativos
admiracio
admirador
admisio
admite
admiten
admitida
admitido
admitir
admitiu
adn
ado
adobe
adoita
adoitaba
adoitaban
adoitan
adoito
adolescencia
adolescente
adolescentes
adolf
adolfo
adopcio
adopta
adoptada
adoptadas
adoptado
adoptan
adoptando
adoptar
adoptaron
adoptivo
adoptou
adoptouse
ador
adora
adoracio
adores
adorno
adornos
ados
adp
adquire
adquiren
adquirida
adquiridas
adquirido
adquiridos
adquirindo
adquirir
adquiriron
adquiriu
adquisicio
adria
adrian
adriana
adriano
adrien
adro
adscrito
adult
adulta
adultas
adulterio
adulto
adultos
adults
advance
advanced
advances
adventure
adventures
adverbio
adverbios
adversario
adversarios
adversas
adversos
advertencia
advertir
advocacio
adw
adxacente
adxacentes
adxectivo
adxectivos
adxunta
adxunto
ae
aelg
aequo
aero
aerodina
aerodramus
aeroespacial
aerolin
aerona
aeronave
aeronaves
aeroporto
aeroportos
aerospace
aeruginosa
aethelberht
aethelred
af
afa
afasta
afastada
afastadas
afastado
afastados
afastamento
afastarse
afc
afeccio
afeccionado
afeccionados
afecta
afectacio
afectada
afectadas
afectado
afectados
afectan
afectando
afectar
afectaron
afecto
afectou
affair
affairs
affinity
afga
afganista
afghan
afghanistan
afi
afiliacio
afiliado
afiliados
afiliouse
afinidade
afirma
afirmaba
afirmacio
afirman
afirmando
afirmar
afirmaron
afirmou
afluencia
afluente
afluentes
afonso
aforas
aforrar
aforro
aforros
africa
african
africana
africanas
africano
africanos
afrika
afrikaans
afrique
afro
afroamericana
afroamericanos
afrodita
afrontar
after
afundacio
afundido
afundimento
ag
aga
again
against
agal
agameno
agar
agarda
agardaba
agardando
agardar
agaricus
agarosa
agasallo
agasallos
agatha
age
aged
agena
agencia
agency
agent
agents
ages
aging
aglomeracio
agnes
ago
agochado
agolada
agoni
agora
agostin
agosto
agra
agrada
agradable
agradecemento
agraria
agrarias
agrario
agrarios
agrarista
agre
agreement
agregacio
agregado
agregados
agrelo
agresio
agresiva
agresividade
agresivo
agresivos
agri
agricultores
agricultura
agricultural
agriculture
agripa
agrisada
agro
agru
agrupa
agrupacio
agrupadas
agrupados
agrupamento
agrupan
agrupar
agu
agua
aguas
aguda
agudas
agudo
agudos
aguia
aguiar
aguias
aguilar
aguilera
aguirre
agulla
agullas
agusti
ah
ahead
ahmad
ahmed
ahora
ahorros
ai
aid
aida
aidan
aids
aime
ain
ainda
ainu
air
aira
airbus
aircraft
aire
aires
airline
airlineroute
airlines
airport
airways
ais
aise
aix
aj
ajax
ak
akademie
akal
akbar
aki
akira
al
ala
alabama
alacant
alain
alameda
alan
alanina
alar
alarco
alarma
alas
alasca
alaska
alave
alba
albacete
albane
albanesa
albaneses
albania
albany
albarin
albatros
albedo
alberga
albergan
albergar
albergou
albergue
albert
alberta
alberte
alberti
alberto
alberts
albino
albo
alborada
alboreto
albrecht
album
albums
albuquerque
alca
alcala
alcalde
alcaldes
alcaldesa
alcaldi
alcaloides
alcance
alcanza
alcanzado
alcanzan
alcanzando
alcanzar
alcanzaron
alcanzou
alcibi
alco
alcoho
alcohois
alcohol
alcoholismo
alcol
alcumado
alcume
alda
aldao
aldea
aldeas
aldehido
aldo
aldrich
ale
aleatoria
aleatorias
aleatorio
alec
alegacio
alegando
alego
alegori
alegre
alegri
aleixandre
aleixo
alejandra
alejandro
aleksandr
aleksei
alelo
alelos
alema
aleman
alenc
alento
alepo
alero
alerta
alesi
alessandro
aleta
aletas
alevi
alex
alexander
alexandra
alexandre
alexandri
alexis
alfa
alfabe
alfabetizacio
alfabeto
alfabetos
alfaguara
alfaro
alfe
alfonso
alfoz
alfred
alfredo
alga
algae
algarve
algas
alge
algo
algodo
algoritmo
algoritmos
algu
algue
algunas
algunha
algunhas
algunos
alhambra
ali
alia
aliada
aliadas
aliado
aliados
alianza
alianzas
alias
aliaxe
aliaxes
alicante
alice
alicerces
alicia
alien
aliga
alime
alimenta
alimentacio
alimentado
alimentados
alimentan
alimentar
alimentaria
alimentarias
alimentario
alimentarios
alimentarse
alimenticios
alimento
alimentos
alin
aliouse
alison
alive
aliviar
alivio
all
alla
allah
allan
allariz
alle
allea
alleas
allen
allende
alleo
alleos
aller
allergy
alles
alliance
allison
allmovie
allmusic
allo
alma
almace
almacena
almacenada
almacenado
almacenados
almacenamento
almacenan
almacenar
almagro
almanac
almanaque
almas
almeida
almeri
almirante
almodo
almora
almorzo
almost
almudena
alo
aloe
alone
along
alongada
alongadas
alongado
alonso
aloxamento
alpes
alpha
alpheus
alphonse
alpina
alpine
alpino
alquimia
als
alsacia
also
alt
alta
altai
altamente
altamira
altar
altares
altarium
altas
alte
alter
altera
alteracio
alterada
alterado
alteran
alterar
alterna
alternancia
alternando
alternas
alternativa
alternativamente
alternativas
alternative
alternativo
alternativos
alti
altime
altiplano
altitude
altitudes
alto
altos
altrui
altura
alturas
alu
alude
alugueiro
aluminio
alumna
alumnado
alumno
alumnos
alusio
alvarado
alvarellos
alvarez
alvarin
alve
alveolar
alves
alvim
always
alxe
alxeciras
alxer
alxeria
alza
alzamento
alzhe
alzheimer
am
ama
amable
amada
amadeo
amadeus
amado
amador
amais
amalia
aman
amancio
amanda
amanita
amante
amantes
amar
amaral
amarante
amarela
amarelada
amarelas
amarelo
amarelos
amarga
amargo
amaro
amazing
amazo
amazon
amazonas
amb
ambas
amber
ambi
ambicio
ambicioso
ambientada
ambientado
ambientais
ambiental
ambiente
ambientes
ambigu
ambigua
ambos
ambrosio
ame
ameaza
ameazada
ameazadas
ameazado
ameazados
ameazas
ameazou
amebas
ameixa
ameixas
amelia
amencer
ament
amento
amentos
america
american
americana
americanas
americano
americanos
americans
americas
ames
ami
amida
amido
amiens
amiga
amigable
amigables
amigas
amigo
amigos
amiloide
amin
amina
aminas
amino
aminoa
amir
amizade
amizades
ammo
amnisti
amo
amoeiro
amon
among
amoni
amonio
amor
amore
amores
amorodo
amorosa
amoroso
amos
amosa
amosaba
amosan
amosando
amosar
amosaron
amosou
amour
amp
amparo
ampc
amphibian
amphibians
ampla
amplamente
amplas
ampli
amplia
ampliacio
ampliada
ampliado
ampliando
ampliar
amplificacio
amplificador
ampliou
ampliouse
amplitude
amplo
amplos
amsterdam
amurallado
amy
amyloid
an
ana
anaco
anacos
anaero
anaerobios
anagrama
anai
anais
anal
anales
anali
analista
analistas
analiza
analizar
analo
analoxi
analxe
analyses
analysis
analytical
analytics
anana
ananas
anano
ananos
anarqui
anarquismo
anarquista
anarquistas
anas
anastasia
anastasio
anato
anatolia
anatomi
anatomista
anatomy
anaya
anc
ancara
ancares
ancestrais
ancestral
ancestry
ancha
anchas
ancho
anchos
anchura
ancia
ancient
ancona
and
anda
andaba
andaina
andaluces
andaluci
andalus
andalusi
andaluz
andaluza
andaman
andan
andando
andar
andares
anders
andersen
anderson
andersson
andes
andina
ando
andorin
andorra
andrade
andre
andrea
andreas
andrei
andretti
andreu
andrew
andrews
andro
androgen
android
andy
ane
aneis
anel
anemia
anexa
anexio
anexionada
anexo
anexos
anfi
anfibio
anfibios
anfiteatro
anfitrio
anfitrioa
ang
ange
angel
angela
angeles
angelis
angelo
angels
angiosperm
angkor
angle
anglia
anglicana
anglo
anglos
anglosaxo
anglosaxoa
angola
angueira
angui
angular
angus
angustia
ani
anima
animacio
animada
animado
animador
animados
animais
animal
animales
animals
animated
animation
anime
animou
anin
anio
anita
aniversario
anjou
anlle
anllo
ann
anna
annales
annals
anne
annette
anni
annie
anniversary
anno
annotated
announce
announced
announces
annu
annual
annurev
ano
anomali
anormal
anormalidades
anos
anotacio
anotador
anotados
anotando
anotar
another
anotou
anova
anque
ans
anse
anselmo
ansiedade
answers
ant
anta
antagonista
antarctic
antarctica
antas
ante
antebrazo
antecedente
antecedentes
antecesor
antecesores
antela
antelo
antena
antenas
antepasado
antepasados
antequera
anterior
anteriores
anterioridade
anteriormente
antes
anthology
anthony
anthropology
anti
antibio
antibodies
antibody
anticorpo
anticorpos
antifascista
antifranquista
antifranquistas
antiga
antigamente
antigas
antigen
antigo
antigos
antigu
antigua
antiguo
antillas
antimicrobial
antioqui
antioxidantes
antipapa
antiquity
antisemitismo
antixe
anto
antoine
antoli
antologi
antologia
antoloxi
anton
antoni
antonia
antonino
antonio
antonov
antony
antre
antropo
antropolo
antropologi
antropoloxi
antuerpen
anu
anuais
anual
anualmente
anuario
anulacio
anular
anuncia
anunciaba
anunciacio
anunciada
anunciado
anunciando
anunciar
anunciaron
anuncio
anuncios
anunciou
anunciouse
anverso
anversos
anxiospermas
anxiotensina
anxioxe
anxo
anxos
any
anza
ao
aos
ap
apa
apache
apaixonado
apan
aparato
aparatos
aparcadoiro
apareamento
aparece
aparecen
aparecendo
aparecer
aparecera
apareceri
apareceron
apareceu
apareci
aparecida
aparecido
aparello
aparellos
aparencia
aparente
aparentemente
apareza
aparicio
apartado
apartados
apartamento
apartamentos
apartheid
ape
apelacio
apelido
apelidos
apenas
apertura
apetito
apg
api
apical
apis
apj
apli
aplica
aplicable
aplicacio
aplicada
aplicadas
aplicado
aplicados
aplican
aplicando
aplicar
aplicarse
aplicou
apo
apocalipse
apodera
apoderarse
apoderouse
apoia
apoiaba
apoiaban
apoiada
apoiado
apoiados
apoian
apoiando
apoiar
apoiaron
apoio
apoios
apoiou
apolipoprotein
apollo
apolo
apolodoro
apoptose
apoptosis
aposta
aposto
apoxeo
app
appendix
appl
apple
application
applications
applied
approach
approaches
apr
apre
aprecia
apreciacio
apreciada
apreciado
apreciar
aprende
aprendendo
aprender
aprendeu
aprendiz
aprendizaxe
april
aproba
aprobacio
aprobada
aprobadas
aprobado
aprobados
aprobar
aprobaron
aprobou
aprobouse
apropiada
apropiado
aproveita
aproveitamento
aproveitan
aproveitando
aproveitar
aproveitaron
aproveitou
aproxima
aproximacio
aproximada
aproximadamente
aproximado
apta
aptitude
apto
apunta
apuntado
apuntan
apuntando
apuntes
aquatic
aquel
aquela
aquelas
aqueles
aqueme
aqui
aquila
aquiles
aquilino
aquilo
aquino
aquisgra
aquitania
ar
ara
arab
arabia
arabian
arabic
arabidopsis
arado
arago
aragone
aragonesa
aragoneses
arame
arameo
aran
arana
aranda
aranga
aranjuez
arau
araujo
arbitrariamente
arbitraxe
arbo
arbor
arbusto
arbustos
arc
arca
arcade
arcadia
arcadio
arcaica
arcaico
arcansas
arcanxo
arce
arcebispado
arcebispo
arcebispos
arch
archaea
archaeological
archaeology
arche
archer
archibald
architectural
architecture
archive
archived
archives
archivo
archivos
arciprestado
arco
arcos
arctic
arda
arde
ardente
arder
are
area
areal
areas
arena
arenal
arenaria
arenas
arendt
areosos
ares
aresta
arg
argentina
argentino
argo
argos
argu
argumenta
argumentan
argumentando
argumento
argumentos
argumentou
ari
aria
ariadna
ariane
arias
ariel
ariki
aristo
aristocra
aristocracia
aristote
aritme
arizona
arkive
arles
arlington
arm
arma
armada
armadas
armado
armados
armadura
armaduras
armamento
armand
armando
armas
armazo
arme
armenia
armenian
armenio
armenios
armesto
armin
armisticio
arms
armstrong
army
arn
arne
arnm
arnoia
arnold
arnoux
arnr
arns
arnt
aro
aroma
aron
around
arousa
arpa
arqueas
arqueo
arqueolo
arqueologi
arqueoloxi
arqui
arquidiocese
arquiduque
arquipe
arquitecto
arquitectos
arquitectura
arquitecturas
arquivada
arquivado
arquivo
arquivos
arranque
arranxar
arranxo
arranxos
arrastre
array
arrecife
arrecifes
arredondada
arredondadas
arredor
arredores
arrefriado
arrefriamento
arrepentimento
arrestado
arrestados
arresto
arriba
arroio
arrow
arrows
arroyo
arroz
ars
arse
arsenal
arsenio
art
arte
artefacto
artefactos
arteixo
artemisa
artemisia
arteria
arterial
arterias
artes
artesa
artesanal
artesani
arthur
arti
article
articles
articulacio
articular
artificiais
artificial
artificialmente
artigo
artigos
artillari
artilleri
artioda
artist
artista
artistas
artisticamente
artists
artois
artrite
artro
arts
artu
artur
arturo
aruba
arxentina
arxentino
arxentinos
arxila
arxinina
arxiv
arzu
as
asa
asalto
asamblea
asasina
asasinada
asasinado
asasinados
asasinar
asasinato
asasinatos
asasino
asasinos
asasinou
ascari
ascende
ascendencia
ascendendo
ascendente
ascender
ascenderon
ascendeu
ascendi
ascendido
ascensio
ascenso
ascensor
ascensos
asco
ase
asedio
asegura
aseguran
asegurando
asegurar
asegurarse
asegurou
asemade
asemblea
asembleas
aseme
asemella
asen
asenta
asentada
asentado
asentados
asentamento
asentamentos
asentarse
asento
asentos
asentouse
asesor
asesora
asesoramento
asesores
asexual
asfalto
ash
ashley
asi
asia
asian
asigna
asignacio
asignada
asignado
asignados
asignar
asilo
asime
asimilacio
asimov
asin
asina
asinada
asinado
asinados
asinan
asinando
asinantes
asinar
asinara
asinaron
asinou
asinouse
asins
asiria
asirio
asirios
asistencia
asistencias
asistente
asistentes
asisti
asistir
asistiron
asistiu
ask
asma
asn
asno
aso
asobal
asocia
asociacio
asociada
asociadas
asociado
asociados
asociarse
asociouse
asorey
asp
aspecto
aspectos
aspects
aspiracio
aspirante
assassin
assembly
assessment
assi
associac
associated
associates
association
assouline
ast
aste
asteroide
asteroides
aston
astorga
astra
astro
astrofi
astroloxi
astronaut
astronauta
astronautas
astrono
astronomi
astronomical
astronomy
astrophysical
astrophysics
astros
asturiana
asturiano
asturianos
asturias
asu
asubi
asume
asumi
asumindo
asumir
asumiu
asuncio
asunto
asuntos
at
ata
ataca
atacada
atacado
atacados
atacan
atacando
atacante
atacantes
atacar
atacaron
atacou
atado
ataque
ataques
atari
atatu
atau
ate
atei
atenas
atencio
atende
atendendo
atender
atenea
ateneo
ateniense
atenienses
atentado
atentados
ateo
aterrar
aterraxe
aterrou
athens
athletic
ati
atila
atinxe
atinxir
atkinson
atla
atlanta
atlantic
atlantis
atlas
atle
atleta
atletas
atletismo
atlon
atm
atmosfe
atmosfera
atmospheric
ato
atocha
atois
atol
atomic
atopa
atopaba
atopaban
atopada
atopadas
atopado
atopados
atopamos
atopan
atopando
atopar
atopara
atoparon
atoparse
atope
atopou
atopouse
atp
atpase
atr
atra
atraccio
atractiva
atractivo
atractivos
atrae
atraen
atraer
atraeu
atrai
atrapado
atrapados
atrapar
atraso
atrasos
atrave
atravesa
atravesaba
atravesada
atravesado
atravesan
atravesando
atravesar
atravesou
atribu
atribucio
atribui
atributo
atributos
ats
attack
atu
au
auckland
audi
audicio
audiencia
audiencias
audio
audioslave
audiovisuais
audiovisual
auditorio
audrey
audubon
auf
aug
auga
augardente
augas
augsburgo
august
augusta
auguste
augusti
augustin
augusto
augustus
auk
aula
aulas
aumenta
aumentaba
aumentada
aumentan
aumentando
aumentar
aumentaron
aumento
aumentou
aun
aunque
aura
aure
aureliano
aurelio
aureus
auri
auriense
aurora
aus
auschwitz
ausencia
ausente
ausentes
austen
austin
austral
australia
australian
australiana
australiano
australianos
australis
austrasia
austri
austria
austrian
austro
austrohu
aute
autenticidade
author
authority
authors
autism
autismo
auto
autobiogra
autobiografi
autobiography
autobu
autobuses
autodeterminacio
autodidacta
autoestrada
autoestradas
autogoberno
autoinmunes
automa
automaticamente
automo
automobile
automobili
automobilismo
autono
autonomi
autor
autora
autoras
autores
autori
autoridade
autoridades
autoritario
autoriza
autorizacio
autorizada
autorizado
autorizados
autorizou
autorretrato
autos
autoso
autosport
autovi
autres
auvernia
aux
auxe
auxiliar
auxiliares
auxilio
av
ava
available
avali
avaliacio
avaliar
avance
avances
avant
avanza
avanzaba
avanzada
avanzadas
avanzado
avanzados
avanzando
avanzar
avanzaron
avanzou
avari
ave
avea
avec
aveiro
avelai
avelino
avenida
avenidas
aventura
aventuras
avenue
averal
avermellada
avermellado
avery
aves
avespa
avespas
avestruz
avex
avg
avi
avia
aviacio
aviador
avian
aviation
avibase
avile
avin
avio
aviso
avisos
aviv
avo
avoa
avogaci
avogada
avogado
avogados
aw
award
awards
away
ax
axe
axeitada
axeitadamente
axeitadas
axeitado
axeitados
axel
axencia
axencias
axenda
axente
axentes
axes
axial
axin
axioma
axiomas
axis
axitacio
axo
axu
axuda
axudado
axudan
axudando
axudante
axudantes
axudar
axudara
axudaron
axudas
axudou
axusta
axustado
axustar
axuste
ay
ayala
ayer
ayrton
ayumi
ayuntamiento
az
azan
azar
azari
azca
azerbaijan
azevedo
aziz
aznar
azo
azores
azteca
azu
azucre
azucres
azuis
azul
azulada
azur
aɾ
b
ba
baa
baamonde
baba
babel
babilonia
baby
bac
bacallau
bach
bacharelato
baci
bacillus
bacilo
back
background
baco
bacon
bacteria
bacterial
bacteriana
bacterianas
bacteriano
bacterianos
bacterias
bacterio
bacteriol
bacteriology
bacterium
bad
badalona
badaxoz
bade
baden
bado
bados
bae
bafta
baga
bagas
bagdad
baha
bahamas
bahi
bahia
bahrain
bai
baia
baikal
baikonur
baila
bailar
bailari
bailarina
baile
bailes
bailey
baillargeon
bailly
baio
baiona
baird
baix
baixa
baixada
baixan
baixando
baixar
baixas
baixista
baixo
baixos
baixou
baja
bajo
baker
baku
bal
bala
balada
baladas
balaenoptera
balaguer
balai
balance
balanza
balas
balboa
balca
balco
baldaquino
balde
baldomero
baldui
baldwin
bale
balea
balear
baleares
baleas
baleira
baleiro
baleiros
balfour
bali
balin
balkan
balkans
ball
balle
ballester
ballesteros
ballet
ballets
balneario
balo
baloncesto
balonma
balsa
baltar
baltasar
baltimore
bambu
ban
bana
banana
banato
banca
bancada
bancadas
bancaria
bancario
bancarrota
banco
bancos
band
banda
bandadas
bandas
bandcamp
bande
bandeira
bandeiras
bandera
bando
bandos
bang
bangkok
bangladesh
bank
banknote
banks
banlle
banner
bano
banos
banqueiro
banquete
banse
bantu
bao
baptista
baptiste
bar
bara
barack
barakaldo
baralla
barata
barato
barba
barbada
barbados
barbanza
barbara
barbarroxa
barbas
barbeito
barber
barbera
barbosa
barbuda
barc
barca
barcala
barcelona
barcelone
barcelos
barcia
barco
barcos
bardem
bardo
bares
bari
bario
barker
barlow
barman
barnes
baro
baroja
baron
barr
barra
barral
barranco
barras
barre
barreira
barreiras
barreiro
barreiros
barrera
barrett
barri
barrichello
barrie
barrier
barriga
barril
barrio
barrios
barro
barroca
barroco
barrocos
barros
barroso
barrow
barry
barrymore
bart
bartlett
bartolome
bartolomeu
barton
bas
basa
basais
basal
base
basea
baseada
baseadas
baseado
baseados
baseball
based
baseou
baseouse
bases
basi
basic
basicamente
basil
basilea
basilio
basin
basis
basket
basketball
baskonia
baso
basque
bass
basta
bastante
bastantes
bastardo
bastien
bastio
basto
bat
bata
batalla
batallas
batallo
batasuna
bate
batendo
bater
bateri
bates
bateu
bath
batida
batido
batista
batman
battista
battle
batuta
bauer
bauhaus
bautismal
bautismo
bautista
bautizada
bautizado
bautizados
bautizou
baviera
baxter
bay
bayer
bayern
bayreuth
baza
bazar
bazo
bb
bbc
bc
bd
bdfutbol
bditos
be
bea
beach
beade
beagle
bean
bear
beariz
beast
beat
beatles
beato
beatrice
beatriz
beaufort
beaumont
beautiful
beauty
beaux
bebe
beber
bebida
bebidas
bec
became
because
becerra
becerrea
beck
becker
beckett
become
becomes
bed
beda
bedas
bee
been
beer
bees
beethoven
beetles
before
begin
beginning
begins
begon
begonte
behavior
behavioral
behaviour
behind
bei
beijing
being
beira
beiramar
beiras
beirut
beis
beitra
beizos
bel
bela
belaru
belarus
belaruso
belas
bele
belesar
beleza
belfast
belga
belgas
belgian
belgique
belgium
belgrado
believe
belize
bell
bella
bellas
belle
belles
bellini
bello
belmonte
belo
belt
beltra
bemol
ben
benavente
bendicio
bene
benedetto
benedict
beneficencia
beneficia
beneficio
beneficios
beneficioso
benestar
benetton
benevento
benfica
bengala
bengali
beni
benidorm
benigno
benito
benjami
benjamin
bennett
benny
benoi
bens
bense
benson
bent
bento
benton
benvida
benxami
benz
ber
bera
berce
berenguela
berenguer
berg
bergantin
bergen
berger
bergman
bergondo
bering
berkeley
berli
berlin
berlinale
berliner
berlioz
bermejo
bermu
bermudas
berna
bernabe
bernal
bernard
bernardino
bernardo
bernd
bernhard
bernicia
bernie
bernoulli
bernstein
berro
berros
berry
bert
berta
bertrand
bes
bese
beso
best
besta
bestas
besteiro
bet
beta
betanzos
beth
betis
better
betty
betula
between
beverly
beyond
bf
bg
bh
bhutan
bi
bianca
bianchi
bibcode
bible
biblegateway
biblia
biblio
bibliogra
bibliografi
bibliography
biblioteca
bibliotecario
bibliotecas
bibliothe
bibliotraducion
biblos
bica
bicapa
bicarbonato
bicas
bicatenario
bicentenario
bicicleta
bicicletas
bico
bicos
bida
bidas
biden
bides
bidos
bidueiro
bidueiros
bieito
bielorrusia
bielorruso
bien
bienal
bierzo
big
biga
biggest
bikini
bil
bilaterais
bilateral
bilbao
bilbo
bile
biles
biliar
biliares
bilingu
bill
billboard
billete
billetes
billie
billion
billo
billy
bimotor
bin
binaria
binario
binding
bing
bingen
binomial
bio
biochem
biochemical
biochemistry
biochim
biodiversidade
biodiversity
biogeography
biogra
biografi
biografia
biographical
biographie
biographies
biography
bioinforma
bioinformatics
biol
biolib
biolo
biologi
biological
biology
bioloxi
bioloxicamente
biomasa
biome
bion
biophys
biophysical
bioqui
biosfera
biosi
biosynthesis
biotechnology
biotecnoloxi
bioxeografi
bipolar
bird
birdlife
birds
birmania
birmano
birmingham
birth
birthday
bis
bisavo
bisbarra
biscai
biscaia
bisestos
bisexual
bishop
bismarck
bispado
bispo
bispos
bissau
bit
bita
bitat
bitats
bitinia
bito
bitos
bitraga
bits
bivalvo
bivalvos
bizancio
bizantina
bizantinas
bizantino
bizantinos
bizet
bj
bjo
bk
bl
bla
blabbermouth
black
blackburn
blackwell
blade
blair
blake
blanc
blanca
blanchard
blanche
blanco
blancos
blas
blasco
blast
blazers
ble
bleeker
blica
blicas
blico
blicos
blind
bloch
block
blog
blogs
blogspot
blois
blood
bloody
bloom
bloomberg
bloomington
bloomsbury
bloque
bloquea
bloquear
bloqueo
bloques
blot
blu
blue
blues
blume
blunt
blur
bm
bmatrix
bmc
bmg
bmj
bmw
bn
bne
bng
bo
boa
board
boas
bob
bobby
bobcats
bobora
boca
bocas
boda
bode
bodega
bodego
bodies
body
boe
boeing
bogota
bohemia
bohr
boi
boicot
boimorto
boiro
bois
boiss
bol
bola
bolan
bolas
bolboreta
bolboretas
boleti
boli
bolivia
boliviano
bolo
bologna
bolon
bolos
bolsa
bolsas
bolxevique
bolxeviques
bomb
bomba
bombai
bombardeiro
bombardeiros
bombardeo
bombardeos
bombardier
bombas
bombeiros
bombo
bon
bonaparte
bond
bondade
bone
bones
bonet
bonifacio
bonita
bonito
bonn
bonnie
bono
bonus
boo
book
books
boom
booth
bop
boqueixo
bor
bora
borbe
borbo
bordeos
border
bordo
bordos
boreal
borealis
borges
borgia
borgon
boris
borja
born
borneo
boro
borra
borrador
borrar
borussia
bos
bosch
bosco
bose
bosni
bosnia
boso
bosque
bosques
bosquexos
boss
boston
bot
bota
botado
botafumeiro
botan
botanic
botanical
botany
botar
botarse
botas
bote
botella
botellas
botes
both
boti
boto
botou
botswana
bottas
boulevard
boullo
boulogne
bound
boundary
bourbon
bourgoin
bourne
boutsen
bouza
bouzas
bovina
bovino
bowers
bowie
bowl
bowman
box
boxeador
boxeo
boxes
boxofficemojo
boy
boyaca
boyd
boyer
boyle
boys
bp
br
bra
brabante
brabham
brad
bradford
bradley
brady
braga
braganc
braganza
brahms
brain
brais
bran
branca
brancas
branch
branco
brancos
brand
branda
brandeburgo
brando
brandon
brandos
brands
brandt
branquias
branquiazul
branse
brase
brasil
brasileira
brasileiro
brasileiros
brasilia
braso
bratislava
braun
brava
bravas
bravo
bravos
bray
braybrooke
brazil
brazilian
brazo
brazos
brca
bre
brea
break
breaking
breaks
breast
brecha
brecht
breeding
breen
breixo
bremen
brenda
brendan
brennan
brenner
brense
brent
breoga
brescia
brese
brest
bretagne
bretan
breto
bretoa
breton
brett
breve
brevemente
breves
brewer
brey
bri
brian
brica
bricas
brico
brida
bridas
bride
bridge
bridges
brido
bridos
brie
brief
brien
brigada
brigadas
brigantino
briggs
bright
brighton
brill
brillante
brillantes
brillo
bring
brio
brisbane
bristol
brit
brita
britain
britania
britannia
britannica
britanos
british
brito
brm
bro
broad
broadcast
broadcasting
broadway
brock
broken
brollo
broma
bromas
bronce
bronx
bronze
brook
brooke
brooklyn
brooks
bros
brother
brothers
brown
browne
browning
browser
bru
bruce
bruins
brun
brundle
brunei
bruno
brunswick
brusca
brutal
bruto
bruxa
bruxas
bruxelas
bruxelles
bryan
bryant
bryce
bs
bsida
bsidas
bt
bts
bu
bubela
bucais
bucal
bucarest
buchanan
buck
buckley
bucks
bucle
bucles
buda
budapest
budin
budismo
budista
budistas
buen
buena
bueno
buenos
bueu
buffalo
buffon
bufo
bug
bugallal
bugallo
bugatti
bugs
build
building
buja
bula
bulas
bulbo
bulgaria
bull
bulletin
bulls
bulo
bulos
bun
bundesliga
buque
buques
buraco
buracos
burato
buratos
burbulla
burbullas
bureau
burela
burger
burgess
burgo
burgos
burgue
burguesa
burgueses
burguesi
burke
burkina
burla
burma
burn
burnett
burning
burns
buro
burocra
burocracia
burro
burt
burton
burundi
bus
busca
buscaba
buscaban
buscador
buscan
buscando
buscar
buscaron
buscatermos
buscou
bush
business
bustamante
bustelo
busto
bustos
but
buta
butler
butterfly
button
buxa
buzz
bwv
by
byrne
byron
byzantine
byzantium
c
ca
caaman
caaveiro
cab
cabalari
cabaleiro
cabaleiros
cabaleri
caballero
cabalo
cabalos
cabana
cabanas
cabanillas
cabaret
cabaza
cabe
cabeceira
cabeceiras
cabelo
cabelos
cabeza
cabezas
cabezo
cabida
cabido
cabina
cabinet
cable
cables
cabo
cabos
cabra
cabral
cabras
cabreira
cabrera
cabul
cacao
cacatu
cache
cacho
cachotari
cachoteri
cacique
caciquismo
cada
cadaleito
cadanseu
cadansu
cadas
cadaval
cadea
cadeas
cadeira
cadeiras
cadela
cadena
caderno
cadernos
cadete
cadmio
cadra
cadrada
cadradas
cadrado
cadrados
cadro
cadros
cae
caen
caendo
caer
caera
caeron
caesar
caetano
caeu
caf
cafe
cafeteri
cage
cagliari
cahiers
cai
caicos
caima
cain
caio
cairns
cairo
caixa
caixanova
caixas
caixo
caja
cajal
cal
cala
calabria
calado
calais
calatrava
calcaria
calcarias
calcio
calcium
calco
calcu
calcula
calculado
calcular
calcuta
caldas
caldeira
caldeiro
caldelas
calder
caldero
caldo
caldwell
cale
caledonia
calendar
calendario
calendarios
calero
cales
calgary
cali
calibre
calidade
calidades
calidris
califa
califato
california
caligrafi
calisto
calixtino
call
calle
called
calleja
calles
calls
calma
calo
calor
calori
calosoma
calpe
calquera
calros
caluga
calvario
calvin
calvino
calvo
calvos
calzada
calzado
cam
cama
camacho
camada
camaleo
camareiro
camarin
camaro
camas
camba
cambados
cambia
cambiado
cambian
cambiando
cambiar
cambiara
cambiaron
cambio
cambios
cambiou
cambiouse
camboxa
cambre
cambridge
came
cameo
camera
cameron
cameru
camila
camille
camilo
camin
caminho
camino
caminos
camio
camisa
camiseta
camisola
camo
camp
campa
campaign
campamento
campamentos
campan
campana
campanario
campania
campbell
campeo
campeonato
campesin
campin
campio
campioa
campionato
campionatos
campo
campos
camposanto
camps
campus
camuflaxe
camus
can
cana
canada
canadense
canadenses
canadensis
canadian
canadiens
canais
canal
canalizacio
canaria
canarias
canario
canas
canberra
canc
cancela
cancelacio
cancelada
cancelado
cancer
cancerosas
cancha
cancio
cancioneiro
canciones
cancro
cancros
canda
candea
candeas
candela
candida
candidata
candidatas
candidate
candidato
candidatos
candidatura
candidaturas
cando
candy
canedo
canela
cangas
cangrexo
cangrexos
cani
canis
canle
canles
cannes
cannon
cano
canon
canons
cans
canse
canta
cantaba
cantabria
cantada
cantado
cantan
cantando
cantante
cantantes
cantar
cantares
cantari
cantas
cantata
cantautor
cante
canteira
canteiras
canteiro
canteiros
canterbury
canteri
canti
cantidade
cantidades
cantiga
cantigas
cantigueiro
canto
cantor
cantos
cantou
canyon
canzorros
cao
caos
cap
capa
capaces
capacidade
capacidades
capadocia
capas
capaz
cape
capela
capelas
capi
capilar
capilares
capita
capitais
capital
capitalidade
capitalismo
capitalista
capitalistas
capitani
capiteis
capitel
capitol
capitolio
capitulacio
capo
capra
captacio
captain
captar
captura
capturada
capturado
capturados
capturan
capturar
capturaron
capturas
capturou
capua
car
cara
carabus
caracal
caracas
caracois
caracol
caracteres
caracteri
caracteriza
caracterizacio
caracterizada
caracterizadas
caracterizado
caracterizados
caracterizan
caracterizar
caracterizou
caracterizouse
caramin
caras
carballal
carballeda
carballedo
carballeira
carballeiras
carballido
carballin
carballo
carballos
carbo
carboeiro
carbohidratos
carbon
carbonato
carboni
carbonilo
carbono
carbonos
carboxi
carboxilo
carcino
carcinoma
card
cardeais
cardeal
carden
cardenal
cardi
cardiac
cardiff
cardinal
cardiovascular
cardiovasculares
cardo
cardoso
care
carece
carecen
carecer
careci
career
carelia
carencia
carente
carey
carga
cargada
cargadas
cargado
cargados
cargamento
cargar
cargas
cargo
cargos
caria
caribbean
caribe
cariben
caricatura
caridad
caridade
carin
carioca
carisma
carl
carla
carles
carlismo
carlista
carlistas
carlo
carlomagno
carlos
carlota
carme
carmela
carmelo
carmen
carmo
carmona
carnaval
carne
carnegie
carneiro
carnes
carni
carnota
caro
carol
carolina
caroline
carolinxio
carolyn
caronte
caros
caroteno
carotenoides
carpenter
carpinteiro
carpo
carr
carra
carracedo
carral
carranza
carrasco
carre
carreira
carreiras
carreiro
carrera
carreras
carri
carrie
carril
carrillo
carrio
carro
carroll
carros
carrozari
cars
carson
carta
cartagena
cartago
cartas
cartaxena
cartaxineses
carteira
carteis
cartel
cartelle
carter
cartilaxe
carto
cartogra
cartografi
cartoon
cartos
cartuchos
carvajal
carvalho
cas
casa
casablanca
casaco
casada
casado
casados
casal
casals
casamento
casanova
casaquista
casar
casara
casares
casari
casaron
casas
casca
casco
cascos
case
casei
caselas
cases
casete
casey
cash
casi
casimiro
casino
casio
caso
casos
casou
caspio
cassell
cassini
cast
casta
castan
castanea
castanopsis
castela
castelao
castelar
castellana
castellano
castellanos
castello
castells
castelo
castelos
castigar
castigo
castilla
castillo
castin
casting
castle
casto
castor
castrelo
castrelos
castrexa
castrexo
castrillo
castro
castros
castroverde
castroviejo
casual
casualidade
cat
cata
catala
catalana
catalanes
catalans
catalase
catali
catalina
cataliza
catalizada
catalizador
catalog
catalogacio
catalogada
catalogadas
catalogado
catalogados
catalogue
catalun
catalunya
catalytic
catania
catarata
cataratas
catarina
catastro
cate
catecismo
catedra
catedrais
catedral
categori
category
catenin
catenina
caterham
catherine
catholic
catio
cativerio
catividade
cativo
cativos
cato
catoira
catolicismo
catorce
catro
catrocentos
cats
cauca
caucho
caudal
caudillo
causa
causada
causadas
causado
causados
causan
causando
causante
causantes
causar
causaron
causas
cause
caused
causes
causou
cava
cavalier
cavaliers
cave
cavendish
cavernas
cavidade
cavidades
cayetano
caza
cazador
cazadores
cazan
cazar
cazas
cb
cba
cbc
cbs
cc
ccg
cctld
cd
cdc
cdk
cdna
cdot
cdota
cdotas
cdots
cds
cdu
ce
cea
ceas
cebada
cebadores
cebola
cebra
cebreiro
cebu
ceca
cecas
cecil
cecilia
ceda
cede
cedeira
ceder
cedeu
cedida
cedido
cedo
cedro
cee
cefalo
cega
cego
cegon
cegos
cegueira
ceip
cela
celanova
celas
cele
celebra
celebraba
celebraban
celebracio
celebrada
celebradas
celebrado
celebrados
celebran
celebrando
celebrar
celebraron
celebrarse
celebration
celebridades
celebrity
celebrou
celebrouse
celeiro
celeste
celestes
celestial
celestino
celi
celia
cell
cella
celle
cells
cellular
celo
celos
celsius
celso
celta
celtas
celtibe
celtic
celtics
celular
celulares
celulosa
cemento
cemiterio
cemiterios
cen
cena
cenlle
cense
censo
censos
censura
census
cent
centauro
centavo
centavos
cente
centenar
centenares
centenario
centeo
center
centers
centi
cento
centos
centra
centrada
centrado
centrais
central
centralizado
centrarse
centre
centri
centro
centroafricana
centroame
centrocampista
centros
centrou
centrouse
cents
centuries
century
ceo
ceos
cepa
cepas
cer
cera
cerca
cercado
cerceda
cerco
cerda
cerdedo
cerdeira
cerdido
cereais
cereal
cerebelo
cerebrais
cerebral
cerebro
cereixa
ceres
cerevisiae
cerezo
cerimonia
cerimonial
cerimonias
cern
cernadas
cero
ceros
cerrado
cerro
cers
certa
certain
certame
certamente
certames
certas
certeza
certificacio
certificado
certificados
certo
certos
cervantes
cervera
cervexa
cervical
cervin
cervo
cervos
ces
cesa
cesado
cesamento
cesar
cesare
cesarea
cesaris
cese
cesio
cesou
cesta
cesuras
ceta
ceto
cetro
ceuta
cf
cfr
cg
cgi
ch
cha
chaco
chad
chain
chains
chaira
chairas
chairman
challenge
challenger
challenges
chama
chamaba
chamaban
chamada
chamadas
chamado
chamados
chamaecyparis
chamamento
chaman
chamando
chamar
chamari
chamaron
chamarse
chamas
chamber
chamberlain
chamberlin
chambers
chamorro
chamoso
chamou
chamouno
chamouse
champ
champan
champion
champions
championship
champlain
chan
chance
chanceler
chandler
chandra
chandrexa
chang
change
changed
changes
changing
channel
channels
chans
chanse
chantada
chanzos
chao
chaos
chapa
chapel
chapela
chapeu
chaplin
chapman
chapter
character
characteristics
characterization
characters
charlas
charles
charleston
charlie
charlotte
charlton
charo
chart
charter
chartres
charts
chase
chasis
chat
chave
chaves
che
chea
cheas
checa
check
checklist
checo
checos
checoslovaquia
chef
chega
chegaba
chegaban
chegada
chegadas
chegado
chegados
chegan
chegando
chegar
chegara
chegaran
chegaren
chegari
chegaron
chegase
chegou
chegouse
chegue
cheiro
chelsea
chem
chemical
chemie
cheminea
chemineas
chemistry
chen
cheng
cheo
cheos
cher
cherokee
cherry
chess
chester
chevalier
chez
chi
chiang
chiapas
chiba
chica
chicago
chicana
chico
chief
chigan
child
children
chile
chilena
chileno
chili
chimpance
chin
china
chine
chinesa
chinesas
chinese
chineses
chioglossa
chip
chipre
chloe
cho
chocar
choco
chocolate
chocou
choi
choice
choiva
choivas
cholesterol
chomsky
chopin
choque
chora
chorar
chorro
chou
chove
chover
chre
chris
christ
christensen
christi
christian
christianity
christie
christina
christine
christmas
christoph
christophe
christopher
chrome
chromosomal
chromosome
chromosomes
chronic
chronicle
chronicles
chronology
chrysler
chu
chuck
chumbo
chun
chung
church
churchill
chus
chuvia
chuvias
chuvioso
ci
cia
cianobacterias
cianse
cianuro
cias
ciase
cibra
cibrao
cica
cicero
ciclina
ciclismo
ciclista
ciclistas
ciclo
ciclos
cico
cid
cida
cidada
cidadani
cidade
cidadela
cidades
cidas
cido
cidos
cie
cielo
cien
ciencia
ciencias
cienti
cientificamente
cifra
cifrado
cifras
cig
cigarros
cigoto
cil
ciles
cili
cilicia
cilindro
cilindros
cilios
cima
cimas
cimbabue
cime
cimentos
cimes
cimo
cinc
cincenta
cincinnati
cinco
cincocentos
cincuenta
cine
cineasta
cineastas
cinema
cinemas
cinematogra
cinematografi
cines
cinsenta
cinta
cintas
cinto
cintura
cinza
cinzas
cio
cipriano
circ
circa
circle
circo
circui
circuit
circula
circulacio
circulan
circulante
circulantes
circular
circulares
circulation
circulatorio
circundante
circundantes
circunferencia
circunscricio
circunstancia
circunstancias
circus
cirene
ciri
cirilo
ciro
ciru
cirurxi
cirurxia
cis
cisma
cisne
cisneros
cistei
cisterciense
cisxordania
cit
cita
citada
citadas
citado
citados
citan
citando
citar
citas
cite
cities
citizen
cito
citocinas
citocromo
citoesqueleto
citoplasma
citosina
citoso
citosol
citoto
citou
citroe
citrus
citta
city
ciudad
ciudadanos
ciudades
ciutat
civi
civil
civilizacio
civilization
cj
ck
ckey
cl
cla
cladas
clado
cladograma
clados
claims
clair
claire
clan
clandestina
clandestinidade
clandestino
clans
clara
claramente
claras
clare
clarence
clarendon
clari
claridade
clarinete
clark
clarke
claro
claros
clase
clases
clash
clasicismo
clasifi
clasifica
clasificacio
clasificada
clasificadas
clasificado
clasificados
clasifican
clasificar
clasificaron
clasificarse
clasificou
clasificouse
class
classes
classic
classical
classics
classification
claude
claudia
claudio
claus
claustro
clausura
clave
claves
clavi
clay
clayton
cle
clematis
clemens
clement
clemente
clements
cleo
cleopatra
cleos
clermont
clero
cleveland
cli
clica
clico
clicos
cliente
clientes
cliff
clifford
clima
climas
climate
clin
clinical
clint
clinton
clio
clip
clippers
clivaxe
clive
clock
clodio
clodoveo
clonacio
cloning
clons
clorhi
cloro
clorofila
cloroplasto
cloroplastos
cloruro
close
clostridium
cloud
clu
club
clube
clubs
cluny
cluster
clyde
cm
cmn
cn
cnica
cnicas
cnico
cnicos
cnidarios
cnidos
cnn
cnt
co
coa
coach
coagulacio
coalicio
coas
coast
coastal
cobain
cobalto
cobb
cobertura
cobra
cobrar
cobras
cobre
cobren
coca
cocai
coccio
coche
coches
cochrane
cocido
cociente
cocin
cocina
coco
cocos
code
codex
codia
codifica
codificacio
codificada
codificado
codifican
codificante
codificantes
coding
codo
coeficiente
coeficientes
coelho
coello
coellos
coencima
coeta
cofactor
coffee
cofundador
cognado
cognados
cognitiva
cogomelo
cogomelos
cohen
coherencia
coherente
cohesio
coi
coia
coida
coidado
coidados
coidadosamente
coidar
coimbra
coin
coinage
coincide
coinciden
coincidencia
coincidi
coincidindo
coincidir
coincidiu
coins
coiraza
coiro
coitelo
coitelos
col
cola
colabora
colaboracio
colaborado
colaborador
colaboradora
colaboradores
colaboran
colaborando
colaborar
colaboraron
colaborativa
colaborou
colapso
colar
colas
cold
cole
coleccio
coleccionismo
coleccionista
coleccionistas
colectiva
colectivamente
colectivas
colectividade
colectivo
colectivos
colector
colega
colegas
colegio
coleman
coleo
coleoptera
coles
colesterol
colexiata
colexio
colexios
coli
colibri
colin
colina
colisio
coll
collantine
collar
colle
collected
collection
collections
college
colleita
colleitas
coller
colleu
collins
colmea
colmeiro
colo
coloca
colocacio
colocada
colocadas
colocado
colocados
colocan
colocando
colocar
colocarse
colocou
colocouse
coloma
colombia
colombiana
colombiano
colombianos
colombo
colon
colonia
coloniais
colonial
colonialismo
colonias
colonizacio
colonizadores
colonizar
colonos
colony
coloquial
coloquialmente
coloquio
color
coloracio
colorado
colorante
colorantes
colour
columba
columbia
columbus
columna
columnas
columnista
com
coma
comandada
comandado
comandante
comandantes
comando
comandos
comarca
comarcal
comarcas
comas
comba
combat
combate
combatentes
combater
combates
combateu
combi
combina
combinacio
combinada
combinadas
combinado
combinados
combinan
combinando
combinar
combined
combusti
combustible
combustibles
combustio
come
comedia
comedias
comedor
comedy
comen
comendador
comendo
comenta
comentada
comentario
comentarios
comentarista
comentou
comenzou
comer
comerciais
comercial
comercializacio
comercializado
comercialmente
comerciante
comerciantes
comercio
comercios
comes
comesan
comesti
comestible
comestibles
comet
cometa
cometas
cometer
cometeu
cometido
cometidos
comeza
comezaba
comezaban
comezada
comezan
comezando
comezar
comezara
comezari
comezaron
comezase
comezo
comezos
comezou
comezouse
comi
comic
comicios
comics
comida
comidas
comigo
coming
comisari
comisario
comisarios
comisio
comisionado
comite
command
comme
commemorative
comment
commentary
commerce
commercial
commission
committee
common
commons
commonwealth
commun
communication
communications
communities
community
comneno
como
comodidade
comores
comp
compa
compacta
compacto
compactos
compaixo
compan
companion
company
compara
comparable
comparacio
comparada
comparado
comparados
comparando
comparar
comparativa
comparative
comparativo
comparison
comparte
comparten
comparti
compartida
compartidas
compartido
compartidos
compartimento
compartimentos
compartindo
compartir
compartiron
compartiu
compases
compatibilidade
compatible
compatibles
compatriota
compaxinou
compendio
compendium
compensacio
compensar
competencia
competencias
competente
competi
competicio
competidor
competidores
competindo
competir
competiron
competition
competitiva
competitividade
competitivo
competitivos
competiu
compilacio
compilador
compite
compiten
comple
complementaria
complementarias
complementario
complementarios
complemento
complementos
completa
completada
completado
completamente
completan
completando
completar
completaron
completas
complete
completo
completos
completou
completouse
complex
complexa
complexas
complexes
complexidade
complexo
complexos
complicacio
complicada
complicado
complot
complutense
compo
compon
component
componse
compor
comporta
comportamento
comportamentos
composicio
composition
compositor
compositora
compositores
composta
compostas
compostela
compostelana
compostelano
composto
compostos
compound
compounds
compra
comprar
compras
comprehensive
comprende
comprenden
comprender
comprendi
comprendida
comprendidas
comprendido
comprensio
compresio
comprimido
comprobacio
comprobar
comprobou
comprobouse
compromete
comprometeuse
comprometida
comprometido
compromiso
compromisos
comprou
comptes
compton
computacio
computacional
computador
computadora
computadoras
computadores
computer
computing
compuxo
comte
comu
comun
comuna
comunal
comunas
comuni
comunica
comunicacio
comunicado
comunican
comunicar
comunicarse
comunicou
comunidad
comunidade
comunidades
comunismo
comunista
comunistas
comunitaria
comunitario
comunitarios
comunmente
con
conan
conca
concacaf
concas
conce
concede
conceder
concedeu
concedeulle
concedida
concedido
concelleira
concelleiro
concelleiros
concello
concellos
concentra
concentracio
concentrada
concentrado
concentrados
concentrarse
concepcio
concept
concepto
conceptos
concepts
conceptual
concernente
concert
concerto
concertos
concesio
concha
concibida
concibido
concibir
concibiu
conciencia
concierto
conciliar
concilio
concilios
concise
conclu
conclui
conclusio
concordancia
concordia
concorrer
concorreu
concorrido
concreta
concretamente
concretas
concreto
concretos
concurso
concursos
condado
condados
condal
conde
condecoracio
condecorado
condena
condenada
condenado
condenados
condenou
condensacio
condensador
condes
condesa
condicio
condicional
conditions
condor
conduce
conducen
conduci
conducido
conducindo
conducio
conducir
conduciron
conduciu
conduta
condutas
condutividade
conduto
condutor
condutores
condutos
cone
conecta
conectada
conectadas
conectado
conectados
conectan
conectar
conectivo
conexio
confeccio
confederacio
confederados
conference
conferencia
conferencias
confesio
confesor
confi
confianza
confiar
confidencial
configuracio
confire
confirma
confirmacio
confirmada
confirmado
confirmados
confirmando
confirmar
confirmaron
confirmed
confirmou
confirmouse
confirms
conflict
conflito
conflitos
conflu
confluencia
conforma
conformacio
conformacional
conformada
conformado
conforman
conformar
conforme
conformidade
confrari
confrontacio
confundido
confundir
confundirse
confusio
conglomerado
congo
congregacio
congreso
congresos
congress
coni
conmemora
conmemoracio
conmemorar
conmemorativa
conmemorativas
conmemorativo
conn
connecticut
connection
connell
connor
connotacio
cono
conocimiento
conos
conquest
conquista
conquistada
conquistado
conquistador
conquistadores
conquistados
conquistando
conquistar
conquistaron
conquistas
conquistou
conrad
conrado
cons
consagracio
consagrada
consagrado
consciencia
consciente
conscientes
conse
consecucio
consecuencia
consecuencias
consecuente
consecuentemente
consecutiva
consecutivas
consecutivo
consecutivos
consegue
conseguen
consegui
conseguido
conseguidos
conseguilo
conseguindo
conseguinte
conseguir
conseguira
conseguiri
conseguiron
conseguiu
conseil
consejo
consellari
conselleira
conselleiro
conselleiros
conselleri
consello
consellos
consenso
consentimento
consequences
conserva
conservacio
conservada
conservadas
conservado
conservador
conservadora
conservadoras
conservadores
conservados
conservan
conservando
conservar
conservaron
conservas
conservation
conservatorio
conserved
conservou
conside
considera
consideraba
consideraban
considerabelmente
considerable
considerablemente
considerables
consideracio
considerada
consideradas
considerado
considerados
consideralo
consideramos
consideran
considerando
considerar
consideraron
considerarse
considerase
considere
considerou
considerouse
consigo
consiste
consisten
consistencia
consistente
consistentes
consisti
consistiu
consistorial
consistorio
conso
consoante
consoantes
consola
consolida
consolidacio
consolidar
consolidou
consolidouse
consome
consomen
consona
consonte
consorcio
consorte
consortium
conspiracio
consta
constaba
constable
constan
constance
constancia
constancio
constant
constante
constantemente
constantes
constantine
constantino
constantinopla
constanza
constelacio
constitu
constitucio
constitucionais
constitucional
constitui
constitution
constru
construccio
construcio
construction
construi
construtor
construtores
consuelo
consulado
consulta
consultada
consultado
consultar
consultas
consultivo
consultor
consumer
consumi
consumida
consumido
consumidor
consumidores
consumir
consumo
conta
contaba
contaban
contabilidade
contact
contacto
contactos
contactou
contado
contador
containing
contaminacio
contaminantes
contan
contando
contar
contara
contaron
contas
conte
contempla
contemplar
contempora
contemporary
conten
contencio
contenda
contendo
content
contento
conter
contes
contest
contestou
context
contexto
contextos
conti
contida
contidas
contido
contidos
contigo
contin
continentais
continental
continente
continentes
continu
continua
continuaba
continuaban
continuacio
continuada
continuado
continuamente
continuando
continuar
continuara
continuari
continuaron
continuas
continue
continuidade
continuo
continuos
continuou
continuum
continxente
conto
contorna
contornas
contorno
contornos
contos
contou
contra
contraataque
contrabaixo
contrabando
contraccio
contract
contradicio
contraer
contraeu
contrafortes
contrai
contraposicio
contrapunto
contraria
contrariamente
contrarias
contrario
contrarios
contrarrestar
contrasinal
contrasta
contraste
contrastes
contratacio
contratada
contratado
contratar
contrato
contratos
contratou
contre
contreras
contribu
contribucio
contribui
contribution
contributions
controis
control
controla
controlaba
controlaban
controlada
controladas
controlado
controlador
controlados
controlan
controlar
controlled
controversia
controversias
controvertida
controvertido
contundente
conve
convencer
convenceu
convencido
convencio
convencionais
convencional
conveniencia
conveniente
convenio
convenios
convention
convento
conventos
converge
conversa
conversacio
conversas
conversio
conversion
converte
converten
convertendo
converter
convertera
converteri
converteron
converterse
convertese
converteu
converteuse
converti
convertida
convertido
convertidos
converxencia
converxente
conviccio
convidada
convidado
convidados
convidou
convivencia
convoca
convocada
convocado
convocar
convocatoria
convocou
convulsio
conway
conxe
conxectura
conxelacio
conxelado
conxo
conxugacio
conxuncio
conxunta
conxuntamente
conxunto
conxuntos
cooh
cook
cooke
cool
cooper
cooperacio
cooperativa
cooperativas
coord
coordenadas
coordina
coordinacio
coordinado
coordinador
coordinadora
coordinar
cop
copa
copas
cope
copenhague
copenhaguen
copia
copiar
copias
copiloto
coplas
copper
coppola
coproducio
copto
copy
copyright
cor
cora
corais
coral
coraxe
corazo
corbusier
corcubio
cord
corda
cordal
cordas
cordeiro
cordero
cordilleira
cordilleiras
cordo
cords
core
corea
coreana
coreano
coregonus
corenta
coreo
coreografi
cores
corey
corfu
corgan
corgo
coria
corinto
coristanco
cork
corme
cornelio
cornelius
cornell
cornella
cornide
cornixa
corno
cornos
cornualles
cornwall
coro
coroa
coroacio
coroada
coroado
coroas
corola
corona
coronavirus
coronel
coros
corpo
corporacio
corporais
corporal
corporation
corporativa
corpos
corps
corpu
corpus
corral
corre
correa
correccio
correcta
correctamente
correcto
corredoira
corredor
corredores
correia
correlacio
corren
correndo
corrente
correntes
correo
correos
correr
correron
correspo
corresponde
corresponden
correspondencia
correspondente
correspondentes
corresponder
corresponderi
correspondi
correu
corri
corriere
corrixir
corrosio
corrupcio
corsarios
corso
corta
cortada
cortadas
cortado
cortan
cortando
cortar
corte
cortegada
cortes
cortesa
cortesi
cortexo
cortina
cortiza
cortizo
corto
cortou
corun
coruxo
corvelle
corvo
corvos
corvus
cos
cosa
cosacos
cosas
cosme
cosmic
cosmo
cosmoloxi
cosmonauta
cosmonautas
cosmopolita
cosmos
cospeito
cost
costa
costado
costas
costeira
costeiras
costeiro
costeiros
costelas
costello
costume
costumes
cosworth
cota
cotas
cotia
coto
cotobade
cotton
couceiro
could
coulthard
council
count
countries
country
county
coupe
courage
courel
courier
cours
course
court
courtenay
courtney
cousa
cousas
couselo
couso
couto
cov
cova
covadonga
covalente
covalentemente
covalentes
covas
covelo
cover
covid
cox
coxa
cp
cpg
cr
cra
cracovia
craig
crane
cranial
cranio
crash
crata
cratas
crates
cravo
crawford
crazy
crc
cre
crea
creacio
creacionismo
creada
creadas
creado
creador
creadora
creadores
creados
crean
creando
crear
creara
crearon
created
creation
creativa
creative
creatividade
creativo
crece
crecemento
crecen
crecendo
crecente
crecentes
crecer
creceu
credibilidade
credits
credo
cree
creed
creek
crego
cregos
crema
cremona
cren
crendo
crentes
crenza
crenzas
creo
creou
creouse
crer
crese
crespo
creta
cretaceous
creu
crew
cri
criada
criado
criados
crianza
criar
criatura
criaturas
cricket
crime
crimea
crimen
crimes
criminais
criminal
crina
crinas
crioulo
criouse
cripta
crise
crises
crisis
crista
cristais
cristal
cristalina
cristalinas
cristalino
cristalografi
cristas
cristia
cristiandade
cristianismo
cristianizacio
cristiano
cristianos
cristina
cristo
cristovo
criterio
criterios
critica
criticada
criticado
critical
criticar
criticou
critics
critique
crito
cro
croa
croacia
croata
croatas
croatia
crocodile
crocodilianos
crocodilo
crocodilos
crocodylus
croma
cromatina
cromatografi
cromo
cromoso
cromosoma
cromosomas
cromwell
cronista
cronistas
cronolo
cronoloxi
cronos
cross
crossing
crow
crown
crpih
crtvg
cru
cruceiro
cruceiros
cruces
crucial
crucificado
crucifixio
cruel
crueldade
cruise
crus
crusades
crusta
crustacea
cruz
cruza
cruzada
cruzadas
cruzado
cruzados
cruzamento
cruzan
cruzando
cruzar
cruzaron
cruzou
cry
crystal
cs
csf
csic
cska
ct
ctanse
ctar
ctase
ctea
cteas
cteos
cter
ctese
ctica
cticas
ctico
cticos
ctil
ctiles
ctilo
ctilos
ctona
ctonas
ctonos
ctor
ctrica
ctricas
ctrico
ctricos
cu
cua
cuadernos
cuadra
cuadrangular
cuadrante
cuadri
cual
cualedro
cualidade
cualidades
cualifica
cualificacio
cualificada
cualificado
cualificados
cualificar
cualificou
cuando
cuantificacio
cuantitativa
cuarta
cuarteis
cuartel
cuarteto
cuarto
cuartos
cuarzo
cuatro
cub
cuba
cubana
cubano
cubanos
cuberta
cubertas
cuberto
cubertos
cubo
cubri
cubrindo
cubrir
cubriu
cuco
cue
cuenca
cuenta
cuento
cuentos
cuerpo
cuervo
cuesta
cuestio
cueva
cuevas
cuevillas
cui
cula
culas
culham
culler
culleredo
culmina
culminacio
culminou
culo
culos
culpa
culpable
cult
culta
culti
cultiva
cultivada
cultivadas
cultivado
cultivados
cultivar
cultivares
cultivo
cultivos
cultivou
culto
cultos
cultura
culturagalega
culturais
cultural
culturales
culturalmente
culturas
culture
cultures
cum
cume
cumes
cumio
cumios
cummings
cumple
cumpra
cumpre
cumpren
cumpri
cumprimento
cumprindo
cumprir
cumpriu
cun
cunca
cuncas
cuncha
cunchas
cundinamarca
cunha
cunhas
cunningham
cunqueiro
cuns
cuntis
cup
cupe
cuproni
cura
curac
curacio
curar
cure
curia
curie
curiosa
curiosamente
curiosidade
curioso
curma
curr
curra
curral
currency
current
curri
curriculum
curro
curros
curry
cursar
cursiva
curso
cursos
cursou
curta
curtametraxe
curtametraxes
curtas
curtis
curto
curtos
curuxa
curva
curvas
curvatura
custa
custo
custodia
custos
custou
cut
cuta
cuti
cuvier
cuxa
cuxas
cuxo
cuxos
cuzco
cv
cw
cx
cy
cycle
cynthia
cyprus
cyril
cyrus
cys
cytochrome
cz
czech
d
da
daba
daban
dabondo
dacia
dacota
dada
dadas
dado
dados
dag
daguesta
dai
daily
daimler
dakar
dakota
dal
dalai
dalas
dale
dalgu
dalgunha
dalgunhas
dali
dall
dallas
dalle
dalmacia
dalton
daly
dam
dama
damage
damas
damasco
dame
damia
damon
dan
dana
danada
danadas
danado
danados
danar
dance
dancing
dando
dane
danesa
daneses
danger
dangerous
dani
daniel
daniela
daniels
danin
danlle
danny
dano
danos
dans
danse
dante
danubio
danza
danzas
daquel
daquela
daquelas
daqueles
dar
dara
dari
dark
darkness
darling
darlle
darlles
darmstadt
darren
darse
darwin
darwinismo
das
dase
data
dataarquivo
database
datacio
datada
datadas
datado
datados
datan
datar
datas
date
dated
dates
dato
datos
daughter
daughters
dave
david
davidson
davies
davila
davis
dawkins
dawn
dawson
dax
day
days
db
dc
dd
ddt
de
dea
dead
deadline
deadly
deal
dean
dear
deas
death
deba
debaixo
debate
debates
debe
debemos
deben
deber
debera
deberes
deberi
deberon
deberse
debeu
debeuse
debi
debian
debida
debidamente
debidas
debido
debidos
debilidade
debo
deborah
debussy
debut
debuta
debutando
debutar
debutou
debuxante
debuxar
debuxo
debuxos
dec
deca
decadencia
decano
decapoda
decata
decatarse
decatouse
december
decembro
decenas
decepcio
deci
decide
deciden
decidi
decidida
decidido
decidir
decidira
decidiron
decidiu
decidiuse
decimal
decir
decisio
decision
decisiva
decisivo
decla
declara
declaraba
declaracio
declarada
declaradas
declarado
declarados
declaran
declarando
declarar
declararon
declarou
declarouse
declinacio
decline
declinou
declive
decock
decoracio
decorada
decoradas
decorado
decorados
decorativas
decorativo
decorativos
decote
decreto
decretos
decretou
dedi
dedica
dedicacio
dedicada
dedicadas
dedicado
dedicados
dedicar
dedicarse
dedicou
dedicoulle
dedicouse
dedo
dedos
deducir
dee
deep
def
defecto
defectos
defence
defende
defenden
defendendo
defender
defenderse
defendeu
defendi
defendida
defendido
defensa
defensas
defense
defensiva
defensivas
defensivo
defensivos
defensor
defensora
defensores
defi
deficiencia
deficiencias
deficiency
deficiente
deficientes
define
definen
defini
definicio
definida
definidas
definido
definidos
definir
definirse
definition
definitiva
definitivamente
definitivo
definiu
deforestacio
deformacio
defunto
defuntos
degas
degli
degradacio
degradar
dehydrogenase
dei
deica
deidade
deidades
deira
deixa
deixaba
deixaban
deixado
deixan
deixando
deixar
deixara
deixari
deixaron
deixase
deixe
deixou
deixouno
deja
del
dela
delas
delaware
delecio
delegacio
delegada
delegado
delegados
deles
delfi
delfos
delft
delgada
delgadas
delgado
delgados
delhi
delias
deliberadamente
delicada
delicado
delimitacio
delimitada
delimitado
delito
delitos
delivery
dell
della
delle
dello
delorean
delos
dels
delta
deluxe
dem
dema
demais
demanda
demandas
demarcacio
demasiado
deme
demetrio
demo
democra
democracia
democracy
democratic
demogra
demografi
demolicio
demos
demostra
demostracio
demostrada
demostrado
demostran
demostrando
demostrar
demostraron
demostrou
demostrouse
den
dena
dende
dendri
deng
dengue
denis
denise
denmark
dennis
denomi
denomina
denominacio
denominada
denominadas
denominado
denominados
denominan
denominar
denominarse
denominou
denominouse
denota
densa
densamente
densas
dense
densidade
densidades
density
denso
densos
dent
dental
dente
dentes
dentro
denuncia
denunciado
denunciar
denuncias
denunciou
denver
deo
deos
depailler
departamento
departamentos
department
depende
dependen
dependencia
dependencias
dependendo
dependent
dependente
dependentes
depender
dependera
dependi
depo
depor
deportacio
deportados
deporte
deportes
deportista
deportistas
deportiva
deportivas
deportivo
deportivos
deposicio
deposita
depositados
deposto
depredacio
depredador
depredadores
depresio
depression
depuracio
deputacio
deputada
deputado
deputados
der
dera
derbi
derby
derecho
derechos
dereita
dereitas
dereito
dereitos
derek
deres
deri
deriva
derivacio
derivada
derivadas
derivado
derivados
derivan
derivar
derived
derivou
deron
derradeira
derradeiras
derradeiro
derradeiros
derrocado
derrocamento
derrocar
derrota
derrotada
derrotado
derrotados
derrotando
derrotar
derrotaron
derrotas
derrotou
derrubado
derrubamento
derrubar
des
desa
desacordo
desacordos
desafi
desafortunadamente
desagradable
desamortizacio
desaparece
desaparecen
desaparecendo
desaparecer
desaparecera
desapareceron
desapareceu
desaparecida
desaparecido
desaparecidos
desaparicio
desarrollo
desas
desastre
desastres
descansa
descansan
descansar
descanso
descarga
descargar
descargas
descartes
descende
descenden
descendencia
descendendo
descendente
descendentes
descender
descendera
descendeu
descendi
descendido
descenso
descensos
descobre
descobren
descompon
descomposicio
descon
desconfianza
descontento
descri
describe
describen
describi
describindo
describir
describiron
describiu
descricio
descripcio
description
descriptions
descrita
descritas
descritiva
descrito
descritos
descualificado
descuberta
descubertas
descuberto
descubertos
descubri
descubridor
descubrimento
descubrimentos
descubrindo
descubrir
descubrira
descubriron
descubriu
descubriuse
desde
dese
desecamento
deseguido
deselle
desembarcar
desembarcaron
desembarco
desembarcou
desemboca
desembocadura
desembocan
desembocar
desempate
desempen
desemprego
desen
desencadea
desenvo
desenvolve
desenvolvedores
desenvolvemento
desenvolvementos
desenvolven
desenvolvendo
desenvolver
desenvolvera
desenvolveron
desenvolverse
desenvolveu
desenvolveuse
desenvolvi
desenvolvida
desenvolvidas
desenvolvido
desenvolvidos
desequilibrio
desert
deserto
desertos
deses
desesperacio
desesperada
desexa
desexaba
desexaban
desexada
desexado
desexo
desexos
desfacer
desfacerse
desfile
desgaste
desgraza
deshabitada
deshabitado
deshidratacio
deshidroxenase
desi
design
designa
designacio
designada
designado
designados
designar
designou
desigual
desigualdade
desigualdades
desintegracio
desire
desmond
desnivel
desorde
desordes
desova
despacho
despedida
despedido
despertar
despoboado
despois
desposui
despra
despraza
desprazados
desprazamento
desprazamentos
desprazar
desprazarse
despre
desprende
desprezo
despue
desta
destaca
destacaba
destacable
destacables
destacada
destacadas
destacado
destacados
destacamento
destacan
destacando
destacar
destacaron
destacou
destas
deste
desterrado
desterro
destes
destilacio
destinada
destinadas
destinado
destinados
destino
destinos
destitucio
destitui
destreza
destru
destrucio
destruction
destrui
desuso
desvantaxe
desvi
desviacio
det
details
detallada
detalladas
detallado
detalle
detalles
dete
deteccio
detecta
detectado
detectan
detectar
detection
detective
detectives
detector
detectores
detencio
deter
deterioracio
determina
determinacio
determinada
determinadas
determinado
determinados
determinan
determinante
determinantes
determinar
determinaron
determination
determinou
determinouse
deti
detida
detido
detidos
detivo
detra
detrimento
detroit
deu
deulle
deus
deusa
deusas
deuse
deuses
deusto
deutsch
deutsche
deutschen
deutscher
deutschland
deuve
deux
dev
deva
devanceiro
devanceiros
devandita
devanditas
devandito
devanditos
development
developmental
devesa
devil
devils
devocio
devolucio
devolve
devolver
devolveu
devon
devoniano
devos
devoto
dexeneracio
dez
deza
dezanove
dezaoito
dezaseis
dezasete
df
dg
dh
dhabi
di
dia
diabetes
diablo
diabo
diacri
diafragma
diagno
diagnose
diagnosis
diagnostic
diagnosticar
diagonal
diagrama
diagramas
diale
dialectal
dialecto
dialectos
dialnet
diamante
diamantes
diamond
dian
diana
dianas
diane
diante
dianteira
dianteiras
dianteiro
dianteiros
diari
diaria
diariamente
diarias
diario
diarios
diarrea
diary
dias
diatomeas
diaz
dica
dicas
diccionario
dice
dicho
dici
diciembre
dicindo
diciona
dicionario
dicionarios
diciopedia
dicir
dicirse
dick
dickens
dickinson
dico
dicos
dictionary
dictionnaire
did
dida
dides
didier
didos
didz
die
died
diego
dies
dieste
diet
dieta
dietary
dietas
diete
dieter
dietrich
diez
difere
diferencia
diferenciacio
diferenciada
diferenciadas
diferenciado
diferenciados
diferenciais
diferencial
diferencian
diferenciar
diferenciarse
diferente
diferentes
diferenza
diferenzas
differences
different
differential
differentiation
difi
dificilmente
dificulta
dificultade
dificultades
difire
difiren
difraccio
difundida
difundido
difundir
difusa
difusio
difusora
diga
digalego
digital
digna
dignidade
digno
digo
digos
dijon
dilatacio
dille
diller
dilui
dime
dimensio
dimensional
diminu
diminucio
diminui
diminutivo
dimisio
dimite
dimitir
dimitiu
dimorfismo
din
dina
dinamarca
dinamarque
dinamarquesa
dinamo
dinasti
dinger
dino
dinoflaxelados
dinosaur
dinosauros
dinosaurs
dio
diocesano
diocese
dioceses
diocleciano
diodoro
diogo
dion
dionisio
dioniso
dios
diplodus
diploide
diploides
diploma
diplomacia
diputacio
diputados
dique
diques
dir
dira
direccio
direct
directa
directamente
directas
directed
direction
directiva
directivo
directivos
directo
director
directora
directores
directorio
directors
directory
directos
directrices
diri
dirixe
dirixen
dirixente
dirixentes
dirixi
dirixida
dirixidas
dirixido
dirixidos
dirixindo
dirixir
dirixirse
dirixiu
dirixiuse
dirk
dirty
dis
disc
discapacidade
disci
disciplina
disciplinas
disco
discogra
discografi
discography
discogs
discorre
discos
discoteca
discover
discovered
discovery
discrepancias
discreta
discreto
discriminacio
discurso
discursos
discusio
discussion
discute
discutida
discutido
discutir
dise
disease
diseases
disen
disertacio
disfuncio
disidentes
disney
diso
disociacio
disolta
disolto
disolucio
disolve
disolvente
disolver
disolveu
disolveuse
disorder
disorders
dispara
disparar
dispares
disparo
disparos
disparou
dispersa
dispersas
dispersio
dispersos
display
displaystyle
dispo
dispon
disponse
dispor
disposicio
dispositivo
dispositivos
disposta
dispostas
disposto
dispostos
dispu
dispun
disputa
disputada
disputadas
disputado
disputados
disputan
disputando
disputar
disputaron
disputas
disputou
disputouse
dispuxo
disque
dista
distal
distance
distancia
distancias
distante
distantes
disti
distincio
distinct
distingue
distinguen
distingui
distinguida
distinguido
distinguidos
distinguir
distinguirse
distinta
distintas
distintiva
distintivas
distintivo
distintivos
distinto
distintos
disto
distorsio
distribu
distribucio
distribui
distribution
district
distrito
distritos
disturbios
disulfuro
dit
dita
ditador
ditadura
ditas
dition
ditions
dito
ditos
ditou
diu
diure
diva
diversa
diversas
diversidade
diversificacio
diversification
diversio
diversity
diverso
diversos
diverxencia
divi
divide
dividen
dividi
dividida
divididas
dividido
divididos
dividindo
dividir
dividirse
dividiu
dividiuse
divina
divinas
divindade
divindades
divino
divisa
divisas
divisio
division
divisor
divisoria
divorcia
divorcio
divulgacio
divulgativo
dix
dixen
dixera
dixerir
dixeron
dixestio
dixestivo
dixestivos
dixitais
dixital
dixo
dixon
diz
dizionario
dj
dk
dl
dm
dn
dna
do
doa
doada
doadamente
doado
doados
doante
doantes
doazo
doble
dobra
dobraxe
dobre
dobres
dobrete
doc
docampo
doce
docencia
docente
docentes
doces
doctor
document
documenta
documentacio
documentada
documentado
documentados
documentais
documental
documentary
documentation
documento
documentos
documents
dodo
dodro
doente
doentes
doenza
doenzas
does
dog
dogma
dogs
doi
dollar
dollars
dolmen
dolo
dolor
dolores
dolorosa
dolos
dolphin
dom
domain
domains
dome
domenico
domestic
domesticacio
domi
domicilio
domina
dominaba
dominacio
dominada
dominado
dominan
dominancia
dominando
dominante
dominantes
dominar
dominaron
domingo
domingos
dominic
dominica
dominicana
dominicano
dominicos
dominio
dominios
dominique
domino
dominou
don
dona
donald
donas
donatello
donato
doncela
donde
done
dong
donna
donne
donnell
dono
donos
donostia
donovan
doo
doom
door
doou
dopamina
dopico
dor
dora
dorado
dores
doris
dorme
dormitorio
dorna
dorothy
dorsais
dorsal
dorso
dortmund
dos
dose
doses
dot
dota
dotacio
dotada
dotado
dotados
dotar
dote
dotes
doto
dou
douard
double
doubleday
doug
douglas
dourada
douradas
dourado
dourados
douro
dous
douscentos
doutor
doutora
doutoral
doutoramento
doutores
doutorouse
doutra
doutras
doutrina
doutrinas
doutro
doutros
dove
dover
down
doyle
dozo
dp
dr
dra
draft
drag
drago
dragon
dragons
drake
drama
dramas
dramaturgo
drasticamente
dream
dreams
dredd
drenaxe
dresde
dresden
drew
drica
drico
dricos
drive
driver
drivers
dro
droga
drogas
dromo
drop
drosophila
drug
drugs
drummond
dry
ds
dt
du
dual
duarte
duas
dub
dubai
dubidosa
dubli
dublin
dubois
dubra
ducado
ducados
ducal
ducas
ducia
ducias
ducks
dudley
due
duelo
duen
duff
duffy
duke
dula
dulce
dulo
dulos
duma
dumas
dumbledore
dumbri
dumont
dun
duna
dunas
duncan
dune
dunha
dunhas
dunn
duns
duo
duode
duodeno
dupla
duplicacio
duplo
dupont
duque
duques
duquesa
dura
duracio
duradeira
duradeiro
duramente
duran
durango
durante
durar
durari
duras
dureza
durham
during
durmi
durmir
duro
duros
durou
dus
dust
dutch
duty
dux
dvd
dw
dwight
dworkin
dx
dy
dyck
dylan
dynamic
dynamics
dynamo
dynasty
dz
e
ea
each
eagle
eagles
earl
earliest
early
earth
east
easter
eastern
eastwood
easy
eau
eb
eba
ebert
ebola
ebro
ebulicio
ec
ecclesiae
ecclestone
ece
ecedor
ecemento
ecementos
ecemos
ecen
ecendo
ecer
ecera
eceri
eceron
ecerse
ecese
eceu
eceuse
echo
eci
ecible
ecida
ecidas
ecido
ecidos
ecle
eclesia
ecli
eclipse
eclipses
eclosio
eclosionan
eco
ecolo
ecological
ecology
ecoloxi
ecoloxista
ecoloxistas
econo
economi
economic
economicamente
economics
economist
economista
economistas
economy
ecos
ecosistema
ecosistemas
ecuacio
ecuador
ecuatorial
ecuestre
ecume
ed
eda
edad
edda
eddie
eddy
ede
edema
eden
edgar
edge
edi
edic
edicio
ediciones
edicions
edicto
edificacio
edificio
edificios
edimburgo
edinburgh
edipo
edison
edit
edita
editada
editadas
editado
editados
editar
editaron
edited
edith
edition
editions
editor
editora
editore
editores
editoriais
editorial
editors
editou
editouse
editrice
edizioni
edmond
edmonton
edmund
edo
edos
edouard
eds
edu
eduard
eduardo
educacio
educada
educado
educar
education
educational
educativa
educativas
educativo
educativos
edward
edwards
edwin
ee
een
eeuu
ef
efe
efectiva
efectivamente
efectivas
efectividade
efectivo
efectivos
efecto
efectos
efectu
efectuar
efeme
effect
effects
eficaces
eficacia
eficaz
eficiencia
eficiente
eficientes
eg
egg
ego
egoi
egypt
egyptian
eh
ehrlich
ei
eido
eidos
eiffel
eight
ein
einaudi
eine
einer
einstein
eira
eiras
eirexa
eirexe
eirin
eiro
eiros
eirugas
eisenhower
eixe
eixes
eixo
eixos
ej
eje
ek
el
ela
elabora
elaboracio
elaborada
elaboradas
elaborado
elaborados
elaborar
elaborou
eladio
elaine
elas
elasticidade
elba
elche
elcorreogallego
elder
eldiario
ele
eleanor
eleccio
elecciones
election
electo
elector
electorado
electorais
electoral
electores
electos
electra
electric
electrical
electricidade
electro
electroforese
electromagne
electromagnetismo
electron
electronic
electrophoresis
electroqui
electrosta
elefante
elefantes
elegancia
elegans
elegante
element
elementais
elemental
elemento
elementos
elements
elena
elenco
elephant
eles
eleva
elevacio
elevada
elevadas
elevado
elevados
elevar
eleven
elevou
elexi
elfos
elgar
eli
elias
elimina
eliminacio
eliminada
eliminadas
eliminado
eliminados
eliminando
eliminar
eliminatoria
eliminatorias
eliminou
elio
eliot
elipse
elisa
elisabeth
eliseo
elite
eliteprospects
elites
elixe
elixen
elixi
elixida
elixido
elixidos
elixio
elixir
elixiron
elixiu
elizabeth
elkar
ell
ella
ellas
elle
ellen
elles
elliot
elliott
ellis
ellos
elmundo
elo
elongacio
eloxio
eloxios
eloxiou
eloy
elpais
els
elsa
else
elsevier
elvin
elvira
elvis
elx
em
emancipacio
emanuel
embaixada
embaixadas
embaixador
embaixadora
embaixadores
embaixo
embarazada
embarazadas
embarazo
embarcacio
embarcou
embargo
emblema
emblemas
embo
emboj
embora
emboscada
embraer
embrio
embrionarias
embrionario
eme
emenda
emendas
emergence
emergency
emerging
emerson
emerxe
emerxencia
emerxente
emerxentes
emery
emi
emigracio
emigrado
emigrados
emigrante
emigrantes
emigrar
emigraron
emigrou
emil
emile
emilia
emiliano
emilio
emily
eminentemente
emir
emirates
emirato
emiratos
emisio
emisor
emisora
emisoras
emite
emiten
emiti
emitida
emitidas
emitido
emitidos
emitindo
emitir
emitirse
emitiu
emitiuse
emma
emmanuel
emmy
emocio
emocionais
emocional
emos
empalme
emparentadas
emparentado
emparentados
empatados
empatar
empate
empates
empen
empeorou
emperador
emperadores
emperatriz
emperor
empeza
empezan
empezando
empezar
empezaron
empezou
empi
empire
empires
empirismo
emporda
empre
emprega
empregaba
empregaban
empregada
empregadas
empregado
empregados
empregan
empregando
empregar
empregaron
empregarse
emprego
empregos
empregou
empregouse
emprende
emprender
emprendeu
empresa
empresaria
empresariais
empresarial
empresario
empresarios
empresas
en
ena
enantio
enca
encabezada
encabezado
encabezados
encabezando
encabezar
encabezou
encadrado
encamin
encanto
encarcerado
encarcerados
encarga
encargada
encargadas
encargado
encargados
encargo
encargos
encargou
encargoulle
encargouse
encarnacio
encarta
ence
encerrado
enche
encher
enci
enciclope
enciclopedia
encima
encimas
enclave
enclaves
enco
encoding
encomenda
encontra
encontraba
encontraban
encontrado
encontrados
encontramos
encontran
encontrar
encontraron
encontrarse
encontro
encontros
encontrou
encontrouse
encoro
encoros
encrucillada
encuentro
encyclopaedia
encyclope
encyclopedia
encyclopædia
end
endangered
ende
enderezo
enderezos
endo
endocrinol
endocrinology
endonuclease
endoplasma
endoteliais
endotelio
endothelial
ends
ene
eneas
eneida
enemy
energy
enero
enerxe
enerxi
enferma
enfermari
enfermeira
enfermeri
enfermidade
enfermidades
enfermo
enfermos
enfermou
enfoque
enfoques
enfro
enfronta
enfrontamento
enfrontamentos
enfrontan
enfrontar
enfrontaron
enfrontarse
enfrontou
enfrontouse
eng
enga
engade
engaden
engadi
engadida
engadido
engadidos
engadindo
engadir
engadiron
engadiu
engadiuse
engalaxe
enganar
engano
engel
engels
engine
engineering
engineers
engines
engl
england
english
engloba
engo
engrenaxes
enigma
enlace
enlaces
enlaza
eno
enorme
enormemente
enormes
enough
enquisa
enquisas
enri
enriba
enric
enrico
enrique
enriquecemento
ensai
ensaio
ensaios
ensamblaxe
ensanche
ensayo
ensayos
ense
enseada
enseguida
ensemble
ensen
ensenada
ensina
ensinanza
ensinanzas
ensinar
ensino
ensinos
ensinou
enta
entanto
ente
enteira
enteiramente
enteiras
enteiro
enteiros
entende
entendemento
entender
entenderse
entendi
entendida
entendido
entente
enterprise
enterrada
enterrado
enterrados
enterramento
enterro
entertainment
entes
entidade
entidades
ento
entomo
entomology
entra
entraba
entrada
entradas
entrado
entran
entrando
entrar
entrara
entrari
entraron
entrase
entre
entrega
entregada
entregado
entregados
entregar
entregas
entregou
entregouse
entrenador
entretemento
entrevista
entrevistas
entrez
entrimo
entroido
entropi
entrou
entry
entusiasmo
entusiasta
enunciado
enunciados
enve
envelenamento
envellecemento
envergadura
envexa
envi
envia
enviada
enviadas
enviado
enviados
enviando
enviar
enviaron
enviou
environ
environment
environmental
envolto
envoltura
envolve
enxen
enz
enza
enzima
enzimas
enzo
enzyme
enzymes
eo
eoceno
eol
eosino
ep
epa
eparqui
epi
epic
epicentro
epide
epidemia
epidemias
epidemiology
epiderme
epiro
episcopal
episo
episode
episodio
episodios
epistemoloxi
epiteliais
epitelio
epithelial
epixene
epo
epopea
eps
epsilon
epstein
epub
equi
equilibrio
equipado
equipados
equipamento
equipamentos
equipo
equipos
equivale
equivalencia
equivalente
equivalentes
equivali
equus
er
era
eran
eras
erasmo
erasmus
erc
ercc
ereccio
eres
ergue
erguer
eri
eric
erica
erich
ericsson
erie
erik
eritrea
eritrocitos
erixida
erixido
erixir
erixiuse
ermida
ermita
ermo
ernest
ernesto
ernst
ero
eron
eros
erosio
erradicacio
errado
erro
erroneamente
error
erros
ers
erse
erudito
eruditos
erupcio
erwin
es
esa
esas
esbozo
esc
esca
escala
escalada
escalar
escalas
escaleira
escaleiras
escalinata
escamas
escandinava
escandinavia
escandinavos
escano
escanos
escapa
escapar
escape
escapou
escaravello
escaravellos
escarlata
escarnio
escasa
escasamente
escasas
escaseza
escaso
escasos
escavacio
escavado
escavar
esce
escena
escenario
escenarios
escenas
escenografi
escepticismo
escherichia
eschmeyer
escipio
escisio
escitas
esclerose
esco
escobar
escoce
escocesa
escocesas
escoceses
escocia
escoita
escoitar
escoitou
escola
escolar
escolares
escolas
escolla
escolle
escoller
escolleron
escolleu
escollida
escollido
escollidos
escolma
escolta
escorial
escorpio
escrava
escravitude
escravo
escravos
escri
escriba
escribe
escriben
escribi
escribindo
escribir
escribira
escribiron
escribirse
escribiu
escribiulle
escrita
escritas
escrito
escritor
escritora
escritoras
escritores
escritorio
escritos
escritura
escrituras
escuadra
escuadro
escuderi
escudero
escudo
escudos
escuela
escuelas
esculto
escultor
escultora
escultores
escultura
esculturas
escuma
escura
escuras
escuridade
escuro
escuros
escusa
ese
eselle
esencia
esenciais
esencial
esencialmente
eses
esfe
esfera
esferas
esforzo
esforzos
esgos
esgotamento
esgrima
esi
esixe
esixencia
esixencias
esixi
esixindo
esixir
esixiu
eslava
eslavas
eslavo
eslavos
eslovaca
eslovaco
eslovaquia
eslovenia
esloveno
eslovenos
esmagar
esmalte
esmeralda
esmirna
esmorga
esnafrouse
eso
esp
espa
espaciais
espacial
espacio
espada
espadana
espadanedo
espadas
espagne
espalla
espalladas
espallados
espallamento
espan
espanyol
esparta
espartanos
espartero
espasa
espazo
espazos
espe
especi
especiacio
especiais
especial
especialidade
especialidades
especialista
especialistas
especializa
especializacio
especializada
especializadas
especializado
especializados
especializouse
especialmente
especias
especie
especies
especifica
especificacio
especificamente
especificar
especificidade
especta
espectacular
espectaculares
espectador
espectadores
espectral
espectro
espectros
espectroscopia
especulacio
espejo
espello
espellos
espera
esperaba
esperaban
esperado
esperando
esperanto
esperanza
esperanzas
esperar
esperma
espermatozoide
espermatozoides
espero
esperta
espertar
espertou
espesor
espi
espida
espido
espidos
espiga
espigas
espin
espinosa
espionaxe
espirais
espiral
espirituais
espiritual
espiritualidade
esple
esplendor
espn
esponta
espontaneamente
esponxas
espoo
espora
esporadicamente
esporas
esporo
esposa
esposas
esposo
esquecemento
esquecer
esquecida
esquecido
esquele
esqueleto
esqueletos
esquema
esquemas
esquerda
esquerdas
esquerdo
esquerra
esqui
esquina
esquinas
esquizofrenia
essai
essay
essays
essential
essex
est
esta
estaba
estaban
estabelece
estabelecemento
estabelecer
estabeleceu
estabelecida
estabelecido
estabilidade
estabiliza
estabilizacio
estabilizar
estable
establece
establecemento
establecementos
establecen
establecendo
establecer
establecera
estableceron
establecerse
estableceu
estableceuse
estableci
establecida
establecidas
establecido
establecidos
estables
estacio
estacionais
estacional
estacionaria
estadi
estadio
estadios
estadista
estado
estados
estadounidense
estadounidenses
estalar
estaleiro
estaleiros
estalido
estalou
estames
estamos
estampas
estan
estancia
estancias
estandarizacio
estandarte
estando
estanislao
estanque
estanse
estar
estara
estaren
estari
estas
estase
estatais
estatal
estate
estati
estatua
estatuas
estatura
estatuto
estatutos
este
estea
estean
esteban
esteiro
estela
estelar
estelares
estella
estende
estenden
estendendo
estender
estenderse
estendeu
estendeuse
estendi
estendida
estendidas
estendido
estendidos
estepa
estepas
ester
esterco
estereotipos
esteroides
estes
estevo
esther
esti
estigma
estili
estilo
estilos
estima
estimacio
estimada
estimado
estimar
estimates
estimou
estimouse
estimula
estimulacio
estimulan
estimulante
estimular
estirpe
estival
estivera
estiveran
estiveron
estivese
estivesen
estivo
esto
estocolmo
estonia
estoniano
estornin
estos
estou
estoupido
estrabo
estrada
estradas
estradiol
estran
estranxeira
estranxeiras
estranxeiro
estranxeiros
estrasburgo
estrate
estratexia
estratexias
estrato
estratos
estre
estrea
estreada
estreado
estreados
estreita
estreitamente
estreitas
estreito
estreitos
estrela
estrelas
estrella
estrellas
estrelouse
estremadura
estremen
estrena
estreou
estreouse
estri
estrita
estritamente
estrito
estro
estrofa
estrofas
estroma
estructura
estrutura
estruturada
estruturais
estrutural
estruturalmente
estruturas
estu
estuardo
estuario
estuarios
estuda
estudaba
estudada
estudadas
estudado
estudados
estudan
estudando
estudante
estudantes
estudantil
estudar
estudaron
estudiantes
estudio
estudios
estudis
estudo
estudos
estudoso
estudosos
estudou
et
eta
etanol
etapa
etapas
etas
etc
etce
ete
eterna
eternidade
eterno
ethan
ethics
ethiopia
ethnic
ethnologue
eti
etileno
etimolo
etimoloxi
etiopi
etiqueta
etiquetado
etiquetas
etnia
etnias
etno
etnogra
etnografi
etrusca
etruscos
etymology
eu
eua
eucalipto
eucaliptos
eucalyptus
eucario
eucariota
eucariotas
euclides
eufemia
euge
eugen
eugene
eugenia
eugenio
eukaryotes
eukaryotic
eulalia
euler
eume
euphaedra
euphorbia
eur
eurasia
euri
euro
euroasia
eurobasket
eurocopa
eurocopter
eurocup
euroleague
euroliga
europa
europaea
europapress
europe
europea
european
europeas
europeo
europeos
euros
eurovisio
eurovision
eurovoix
eurozona
eusebio
euskadi
euskal
eusko
eustaquio
ev
eva
evacuacio
evaluation
evan
evangelion
evans
evanxe
evanxelista
evanxeo
evanxeos
evaporacio
evaristo
evasio
eve
evelyn
even
evening
event
evento
eventos
events
eventual
eventualmente
ever
everest
everett
every
everything
evic
evidence
evidencia
evidencias
evidente
evidentemente
evidentes
evil
evita
evitan
evitando
evitar
evitou
evo
evoca
evol
evolucio
evoluciona
evolucionando
evolucionar
evolucionaron
evolucionou
evolution
evolutionary
evolutiva
evolutivas
evolutivo
evolutivos
ew
ewrc
ex
exacta
exactamente
exactas
exactitude
exacto
exaltacio
exame
exames
examina
examinar
example
exarca
exarcado
exce
excede
exceder
exceeded
excelencia
excelente
excelentes
excentricidade
excepcio
excepcionais
excepcional
excepcionalmente
excepto
exceptuando
excesiva
excesivamente
excesivo
exceso
excesos
exchange
excitacio
exclu
exclui
exclusio
exclusiva
exclusivamente
exclusivas
exclusive
exclusivo
exclusivos
excomun
excrecio
excrementos
excursio
exe
execucio
executa
executada
executado
executados
executar
executiva
executive
executivo
executivos
exemplar
exemplares
exemplo
exemplos
exento
exeo
exerce
exercen
exercendo
exercer
exerceron
exerceu
exerci
exercicio
exercicios
exercida
exercido
exfutbolista
exhibe
exhibicio
exhibition
exiliado
exiliados
exiliarse
exilio
exiliouse
exina
exipcia
exipcias
exipcio
exipcios
exipto
exista
existan
existe
existen
existencia
existente
existentes
existi
existindo
existir
existiron
existiu
exitosa
exitosas
exitoso
exitosos
exo
exp
expandi
expandir
expandiuse
expansio
expansion
expectativas
expedicio
expediente
expedition
expensas
experience
experiencia
experiencias
experiment
experimenta
experimentacio
experimentado
experimentais
experimental
experimentalmente
experimentan
experimentando
experimentar
experimentaron
experimento
experimentos
experimentou
experiments
expert
experta
experto
expertos
explained
expli
explica
explicaba
explicacio
explican
explicando
explicar
explicitamente
explicou
explora
exploracio
explorador
exploradores
explorar
exploration
explorer
exploring
explorou
explosio
explosivo
explosivos
explota
explotacio
explotar
expo
expon
exponencial
expor
exportacio
exposicio
exposta
expostas
exposto
expostos
exposure
expre
expresa
expresada
expresadas
expresado
expresamente
expresan
expresar
expresarse
expresidente
expresio
expresionismo
expresiva
expreso
expresou
express
expressed
expression
expropiacio
expulsa
expulsada
expulsado
expulsados
expulsar
expulsio
expulsou
expuxo
extended
extensa
extensamente
extensas
extensio
extension
extenso
extensos
exterior
exteriores
exterminio
externa
externas
externo
externos
extincio
extinct
extinction
extinta
extintas
extinto
extintos
extra
extraccio
extracellular
extracelular
extracelulares
extracto
extractos
extrae
extraer
extrai
extran
extraordinaria
extraordinariamente
extraordinarias
extraordinario
extraordinarios
extraterrestre
extrema
extremadamente
extremadura
extremas
extreme
extremidade
extremidades
extremo
extremos
eyck
eye
eyes
ez
eza
ezequiel
eɾ
f
fa
faa
faba
faber
fabi
fabio
fabri
fabrica
fabricacio
fabricada
fabricadas
fabricado
fabricados
fabricante
fabricantes
fabricar
fabricius
fabricou
fabril
faccio
face
facebook
facela
facelo
facenda
facendas
facendo
facer
facerlle
facerse
faces
faceta
fachada
fachadas
facho
faci
faciais
facial
faciana
facilidade
facilita
facilitan
facilitando
facilitar
facilitou
facilmente
facsi
fact
factbook
facto
factor
factores
factori
factors
factory
facts
factura
faculdade
facultad
facultade
facultades
facultativo
fada
fadas
fado
faga
fagan
fago
fagocitose
fagos
fai
failure
faino
fair
faire
faise
faith
faixa
fala
falaba
falaban
falada
faladas
falado
falamos
falan
falando
falange
falante
falantes
falanxe
falanxista
falanxistas
falar
falas
falco
falcon
falece
falecemento
falecer
faleceron
faleceu
falecida
falecido
falecidos
fall
falla
fallas
fallece
fallo
fallos
fallou
falls
falo
falos
falou
falsa
falsas
false
falsificacio
falso
falsos
falta
faltan
faltas
fama
fame
familia
familiar
familiares
familias
families
family
famosa
famosas
famoso
famosos
famous
fan
fana
fandin
fanes
fang
fangio
fanny
fano
fans
fanse
fanta
fantasi
fantasma
fantastic
fantasy
fao
faq
far
fara
faraday
farao
fari
farin
farina
farinxe
farm
farmace
farmacia
farmacolo
farmer
faro
farodevigo
faros
farr
farrell
farsa
fas
fasc
fasci
fascismo
fascista
fascistas
fase
fases
fashion
faso
fast
fat
fatal
fate
father
fatiga
fato
fatty
fauna
faure
faustino
fausto
favor
favora
favorable
favorables
favorece
favorecen
favorecendo
favorecer
favoreceu
favoreci
favorita
favoritas
favorito
favoritos
fawcett
fay
fayard
fazan
fbi
fc
fda
fe
fea
fear
feature
features
feb
feble
febles
febra
febras
febre
febreiro
febrero
february
febs
feces
fecha
fecundacio
fecundidade
federacio
federados
federais
federal
federalismo
federation
federico
feeding
feel
fegamp
feijo
feijoo
feira
feiras
feita
feitas
feito
feitos
feixe
feixes
feixo
felice
felices
feliciano
felicidade
felinos
felipe
felis
felix
feliz
fellow
fellows
fellowship
female
femenina
femenino
femia
femias
feminina
femininas
feminino
femininos
feminism
feminismo
feminist
feminista
feministas
femme
femmes
fenda
fendas
fender
fene
feng
fenicia
fenicio
fenicios
fenilalanina
feno
fenosa
fenoti
fenotipo
fenotipos
fento
fentos
feo
fer
fera
feras
ferdinand
ferguson
ferida
feridas
ferido
feridos
fermat
fermentacio
fermi
fermosa
fermosas
fermoso
fermosos
ferna
fernanda
fernandes
fernandez
fernando
fero
feroe
feros
feroz
ferra
ferradura
ferramenta
ferramentas
ferran
ferrara
ferrari
ferreira
ferreiro
ferreiros
ferrer
ferreri
ferri
ferro
ferrocarri
ferrocarril
ferrol
ferrola
ferros
ferroviaria
ferroviarias
ferroviario
ferroviarios
fertilidade
fertilizacio
fertilizante
fertilizantes
fervenza
fervenzas
feso
fest
festa
festas
festivais
festival
festividade
festividades
festivo
fetal
feto
feudais
feudal
feudalismo
feudo
fever
feynman
fez
ff
fg
fgf
fi
fia
fiabilidade
fiable
fiables
fiat
fiba
fibra
fibras
fibroblastos
fibrose
fica
fican
ficando
ficar
ficaron
ficas
ficcio
fice
ficha
fichado
fichando
fichar
fichas
fichaxe
ficheiro
ficheiros
fichou
ficit
fico
ficos
ficou
ficticia
ficticio
fiction
fidalgo
fide
fidel
fidelidade
fidos
fidxi
fieis
fiel
field
fields
fiesta
fiestas
fiestra
fiestras
fifa
fifth
fig
figaro
fight
fighter
fighters
fighting
figo
figos
figueira
figueiras
figueiredo
figueres
figueroa
figura
figuraba
figuraban
figurado
figuran
figuraron
figuras
figure
figures
figurou
fila
filadelfia
filamento
filamentos
filas
filate
file
fileiras
files
filgueira
filharmo
filiacio
filiais
filial
filipe
filipina
filipinas
filipino
filipinos
filipo
filippo
filis
filla
fillas
fillo
fillos
film
filmacio
filmaffinity
filme
filmes
films
filo
filolo
filoloxi
filos
filoso
filosofi
filoxene
filoxenia
filtracio
filtrado
filtro
filtros
fin
fina
finada
finado
finais
final
finale
finalidade
finalista
finalistas
finaliza
finalizacio
finalizada
finalizado
finalizando
finalizar
finalizaron
finalizou
finalmente
financeira
financeiras
financeiro
financeiros
financiada
financiado
financial
financiamento
financiar
financiou
finanzas
finas
fincape
find
finding
finds
fine
finesa
finger
finita
finito
finland
finlande
finlandesa
finlandeses
finlandia
finn
finnish
fino
finos
finou
fins
fiona
fire
firma
firmas
firme
firmemente
firmou
first
fiscais
fiscal
fiscali
fischer
fise
fish
fishbase
fisher
fisheries
fishes
fishing
fisicamente
fisichella
fisio
fisiolo
fisioloxi
fisterra
fisteus
fita
fitas
fitch
fitness
fito
fitoplancto
fitos
fittipaldi
fitzgerald
fitzroy
fiu
five
fixa
fixacio
fixada
fixado
fixar
fixas
fixe
fixen
fixera
fixeran
fixeron
fixese
fixesen
fixo
fixos
fixou
fiz
fj
fl
fla
flag
flags
flamenco
flamenga
flamengo
flamengos
flames
flanagan
flanco
flancos
flandres
flash
flavia
flavio
flaxelo
flaxelos
fleet
fleming
fletcher
flexi
flexibilidade
flexible
flexio
flies
flight
flightglobal
flights
flo
flood
flor
flora
floracio
florais
floral
floreceu
florence
florencia
florencio
florentino
flores
florete
flori
florida
flotante
flotantes
flow
flower
flowering
flowers
floyd
flu
flui
fluidez
fluorescencia
fluorescente
fluorescentes
flutuacio
fluviais
fluvial
fluxo
fluxos
fly
flyers
flying
flynn
fm
fmi
fo
foca
focal
focas
focin
focles
foco
focos
focus
fogar
fogares
fogo
fogos
fogueira
foguete
foguetes
foi
foille
foise
foix
fokker
fol
folclo
folclore
folding
fole
folga
folgas
folgoso
folha
foli
folio
folk
folklore
folla
follas
follaxe
folleto
follow
following
fomentar
fomento
fona
fonda
fondo
fondos
fone
fonema
fonemas
fono
fonolo
fonos
fonsagrada
fonseca
font
fonta
fontaine
fontana
fontao
fonte
fontenla
fontes
food
foot
football
for
fora
foral
foran
foras
forbes
forcarei
force
forces
ford
foreign
forense
forest
forestais
forestal
forever
forgotten
form
forma
formaba
formaban
formacio
formada
formadas
formado
formados
formais
formal
formalmente
forman
formando
formar
formara
formaren
formari
formaron
formarse
formas
format
formation
formato
formatos
forme
formen
formentera
former
formiga
formigas
formigo
formosa
formoso
formou
formouse
forms
formula
formulacio
formular
formulou
fornece
fornecer
fornelos
forno
fornos
foro
foron
foros
forquita
forrer
forrest
fort
fortalecer
fortaleza
fortalezas
forte
fortemente
fortes
forti
fortificacio
fortificada
fortificado
fortuna
fortune
forum
forward
forxa
forza
forzada
forzado
forzados
forzando
forzar
forzas
forzou
fosa
fosas
fose
fosen
fosfatase
fosfato
fosfatos
fosfoli
fosforilacio
foso
fossil
fossils
fossilworks
foster
foto
fotogra
fotografi
fotogramas
fotos
fotosi
fotosinte
foucault
fouce
found
foundation
foundations
founder
four
fourier
fourth
fowler
fox
foxe
foxo
foz
fp
fpl
fr
fra
frac
fracasaron
fracaso
fracasos
fracasou
fraccio
fractura
fracturas
frade
frades
fraga
fragas
fragata
fragmentacio
fragmento
fragmentos
fraguas
framework
fran
franc
franca
france
frances
francesa
francesas
francesc
francesca
francesco
franceses
francia
francis
francisca
franciscana
franciscano
franciscanos
francisco
franck
franco
francos
francs
frank
frankenstein
frankfurt
franklin
franqueira
franqui
franquismo
franquista
franquistas
franxa
franxas
franz
frase
fraser
frases
fraternidade
fraude
frauta
frautas
fray
fre
frea
freak
frear
frecha
frechas
frecuencia
frecuencias
frecuente
frecuentemente
frecuentes
fred
freddie
frederic
frederick
frederico
free
freedom
freeman
freguesi
frei
freijomil
freire
freires
freixanes
freixeiro
freixo
french
frente
frentzen
freo
freos
frequency
fresca
frescas
fresco
frescos
fresh
freshwater
fresno
freud
frey
fri
friburgo
frica
friccio
frida
friday
friedman
friedrich
friend
friends
friol
frisia
friso
fritz
friu
frixia
fro
frodo
froese
frog
froila
froilaz
froita
froitas
froiteiras
froito
froitos
from
front
frontal
fronte
fronteira
fronteiras
fronteiriza
fronteirizas
frontera
frontes
frontier
frontiers
fronto
frost
frota
frotas
fru
fruit
frustracio
frustrado
fruti
frutosa
fry
fs
ft
fu
fuchs
fue
fuego
fuel
fuenlabrada
fuente
fuentes
fuera
fueron
fuerte
fuerteventura
fuerza
fuga
fugas
fuji
fukuoka
full
fuller
fumar
fume
fun
funcio
funciona
funcionaba
funcionaban
funcionais
funcional
funcionalidade
funcionalmente
funcionamento
funcionan
funcionando
funcionar
funcionario
funcionarios
funcionou
function
functional
functions
fund
funda
fundac
fundacio
fundacional
fundada
fundadas
fundado
fundador
fundadora
fundadoras
fundadores
fundamentais
fundamental
fundamentalmente
fundamento
fundamentos
fundan
fundando
fundar
fundara
fundaron
fundicio
fundido
fundou
fundouse
funeral
funeraria
funerario
funerarios
fungi
fungo
fungos
funk
fur
furaca
furia
further
fuselaxe
fusilado
fusilados
fusio
fusion
fusiona
fusionouse
fuso
fuste
futbol
futboli
futbolista
futbolistas
futbolme
futebol
futura
futuras
future
futurista
futuro
futuros
fuxi
fuxida
fuxidos
fuxindo
fuxir
fuxiron
fuxiu
fw
fy
g
ga
gaba
gabeador
gabia
gabinete
gabo
gabriel
gabriela
gabriele
gaceta
gad
gado
gae
gaga
gagarin
gago
gai
gaia
gainesville
gaiola
gais
gaita
gaitas
gaiteiro
gaiteiros
gaivota
gaivotas
gal
gala
galactosa
galaica
galaico
galaicos
galardo
galardoada
galardoado
galas
galaxia
galaxias
galaxies
galaxy
galdo
gale
galega
galegas
galego
galegos
galeguismo
galeguista
galeguistas
galeo
galeri
gales
galesa
galeses
galia
galicia
galiciadigital
galician
galiciana
galilea
galilei
galileo
galin
galindo
galipedia
galiza
galizionario
gall
gallaecia
gallagher
gallardo
gallega
gallegas
gallego
gallegos
gallery
gallimard
gallo
galo
galos
galva
galway
gama
gamas
gamba
gambia
game
games
gamespot
gameto
gametos
gamma
gan
gana
ganancia
ganancias
ganas
gancho
gandalf
gandari
gandeira
gandeiros
ganderi
gandhi
gando
gang
ganglio
ganglios
gano
ganse
ganso
gansos
gante
gao
gap
gar
gara
garage
garante
garanti
garantir
garaxe
garce
garci
garcia
gard
garda
gardameta
gardan
gardar
gardas
garde
garden
gardens
gardia
gardner
garfield
garganta
garland
garo
garras
garrett
garrido
garros
gary
garza
garzo
gas
gase
gases
gasly
gasolina
gasoso
gaspar
gasset
gastero
gasto
gaston
gastos
gastro
gastrointestinal
gastrono
gastronomi
gata
gate
gates
gato
gatos
gaudi
gaulle
gauss
gavin
gay
gayoso
gaza
gazeta
gazette
gazetteer
gb
gbif
gc
gciencia
gd
gdp
ge
gear
geffen
gel
gemini
gemma
gen
gena
genas
gender
gene
genealogy
genera
generacio
general
generales
generalitat
generation
genes
genesis
genet
genetic
genetics
geneva
genista
genius
geno
genocide
genome
genomes
genomic
genomics
gente
genus
geo
geoff
geoffrey
geogra
geografi
geographic
geographical
geography
geolo
geological
geology
geometry
geophysical
georg
george
georges
georgetown
georgia
ger
geral
gerald
gerard
gerardo
gerhard
germa
germain
german
germany
gernika
gerry
gertrude
geschichte
gesellschaft
gesta
get
getafe
gets
getting
getty
getxo
gf
gh
ghana
ghost
ghosts
gi
gia
giacomo
gian
giancarlo
gianni
giant
giants
gibbs
gibraltar
gibson
gica
gicas
gico
gicos
gijo
gil
gilbert
gilberto
giles
gill
gilles
gime
gimen
gina
ginas
gio
giordano
giorgio
giovanni
gira
girard
girl
girls
giro
girona
giulio
giuseppe
give
given
gives
gj
gl
gla
glaciacio
glacial
glaciar
glaciares
gland
glasgow
glass
glen
glenn
gli
glicerol
glicina
glico
gliconeoxe
glicoprotei
glicosa
glicosi
glicosilacio
glifo
glifos
glo
globais
global
globalizacio
globe
globo
globos
globular
gloria
gloriosa
glory
glosario
glossary
gloucester
glover
glu
glucose
glutamato
glutatio
glute
gm
gmbh
gmelin
gmt
gnu
go
goa
goal
goas
gob
goberna
gobernaba
gobernacio
gobernada
gobernado
gobernador
gobernadores
gobernados
gobernamentais
gobernamental
gobernando
gobernante
gobernantes
gobernar
gobernaron
goberno
gobernos
gobernou
gobierno
goce
god
godflesh
godo
godofredo
godos
godoy
gods
goes
goethe
gogh
goia
going
goku
gol
gold
goldberg
golden
goldman
goldstein
goldwyn
goleada
goleador
goles
golf
golfin
golfo
golgi
golpe
golpea
golpeado
golpear
golpeou
golpes
goma
gomera
gomes
gomesende
gomez
gonc
gondar
gondomar
gondor
gondwana
gone
gong
gono
gonos
gonza
gonzaga
gonzalez
gonzalo
good
goodbye
goodman
google
gora
goras
gorda
gordo
gordon
gore
gorilla
gornicio
gorxa
gospel
gossard
got
gota
gotemburgo
gotinga
gotland
gottfried
gottlieb
gould
gov
government
govos
goya
goza
gozaba
gozan
gozar
gozo
gozou
gp
gpl
gps
gr
gra
graal
grac
grace
gracia
graciano
gracias
gradacio
grade
gradiente
grado
grados
gradua
graduacio
graduada
graduado
gradual
gradualmente
graduarse
graduou
graduouse
graf
grafa
grafi
grafo
grafos
graham
gram
grama
gramaticais
gramatical
grami
grammar
grammy
gramnegativas
gramo
gramos
grampositivas
gran
granada
grand
grande
grandemente
grandes
grandeza
grandi
grandprix
granger
grani
granito
granja
grans
grant
granxa
granxas
granxeiros
grao
graos
grase
grass
gratui
grau
grava
gravacio
gravada
gravadas
gravado
gravador
gravados
gravando
gravar
gravaron
grave
gravemente
graves
gravidade
gravitacional
gravou
gravouse
graxa
graxas
graxo
graxos
gray
graz
graza
grazas
gre
great
greater
greatest
grecia
greco
gredos
greece
greek
green
greenberg
greene
greenwich
greenwood
greg
grega
gregas
gregg
grego
gregor
gregoriano
gregorio
gregory
gregos
grella
gremio
gremios
greta
grey
grial
grid
griega
grierson
griffin
griffith
griffiths
grimal
grimaldi
grimas
grimm
grin
gripe
gripen
gris
grises
grito
grizzlies
gro
groba
groenlandia
grohl
gromo
gromos
grosa
grosas
grosjean
groso
grosor
grosos
gross
grosso
grou
ground
group
groups
grove
groves
growing
growth
gru
grunge
grupo
grupos
gruta
gruyter
gs
gt
gtp
gu
gua
guadalajara
guadalaxara
guadalquivir
guadalupe
guadarrama
guadiana
guam
guanina
guarani
guard
guarda
guardia
guardian
guarnicio
guatemala
gudin
gue
guernica
guernsey
guerra
guerras
guerre
guerreira
guerreiro
guerreiros
guerrero
guerrilla
guerrillas
guerrilleira
guerrilleiro
guerrilleiros
guese
guevara
guez
guggenheim
gui
guia
guiado
guiar
guide
guidelines
guides
guido
guila
guild
guillaume
guille
guillerme
guillermo
guimara
guinea
guinness
guio
guionista
guionistas
guipu
guitar
guitarra
guitarras
guitarrista
guitarristas
guitiriz
gula
gulf
gumersindo
gun
gunnar
guns
gunter
gunti
guo
gupta
gur
gurriara
guru
gus
gusta
gustaba
gustari
gustav
gustave
gustavo
gusto
gustos
gut
gutenberg
gutie
guy
guzma
gv
gwynedd
gyo
h
ha
haas
hab
habana
habendo
haber
habera
haberi
habi
habilidade
habilidades
habita
habitaba
habitaban
habitacio
habitada
habitadas
habitado
habitan
habitante
habitantes
habitat
habituais
habitual
habitualmente
habsburgo
hace
hacer
hachette
hacia
had
haddock
hades
hadria
hadriano
haeckel
hagen
hahn
hai
haia
hainaut
hair
haiti
hal
hale
half
halifax
hall
halle
halloween
halo
ham
hamburg
hamburgo
hamilton
hamlet
hammer
hammond
hampshire
hampton
han
hand
handbook
handbuch
hands
hank
hanna
hannah
hannover
hans
hansen
hanson
haploides
happened
happy
hara
harald
harbor
harbour
harcourt
hard
hardcore
harding
hardware
hardy
hare
harlem
harmo
harmoni
harmony
haro
harold
harper
harpercollins
harriet
harris
harrison
harry
hart
hartford
hartley
hartmann
harvard
harvey
has
hasan
hassan
hasta
hastings
hastra
hat
hatch
hate
hattusilis
haumea
hauser
have
haven
havilland
hawai
hawaii
hawk
hawker
hawkins
hawks
hawthorn
haxa
hay
hayden
haydn
hayes
haymarket
haynes
hb
hbo
hc
hd
hdl
he
head
headings
heads
health
heart
hearts
heat
heath
heather
heaven
heavy
hebrea
hebreo
hebreos
hecho
hecta
hector
hedgehog
hegel
hei
heidegger
heidelberg
heidi
heine
heineken
heinrich
heinz
held
hele
helen
helena
heleni
helicase
helico
helicobacter
helicoidal
helicopter
helicopters
helio
helios
hell
heller
hello
helm
helmut
help
helsinqui
hemeroteca
hemingway
hemisferio
hemo
hemoglobina
hemorraxia
hemorraxias
hen
henares
henderson
hendrik
henri
henrik
henrique
henriques
henry
hepa
heparina
hepatite
hepburn
her
hera
heracles
heraclio
herald
heraldo
herba
herbario
herbas
herbert
herbi
hercegovina
hercules
herda
herdada
herdado
herdanza
herdeira
herdeiro
herdeiros
herdou
here
heredia
hereditaria
hereditario
herexi
herge
heritage
hermafroditas
herman
hermann
hermano
hermanos
herme
hermene
hermes
hermida
hermione
hermo
herna
hernando
hernani
hero
herodes
heroe
heroes
heroi
heroica
herpes
herpesvirus
herrera
herrero
herri
herria
herrick
herschel
hertz
herzegovina
herzog
hesi
hess
hesse
het
hetero
heteroxe
hexa
hexemoni
hey
hg
hh
hi
hiato
hibridacio
hicks
hidalgo
hidden
hideyoshi
hidra
hidratos
hidro
hidroavio
hidrocarburos
hidroele
hidrofo
hidrogra
hidroxilo
hierarchy
hierro
hifas
higgins
high
higham
higher
highlands
highly
highway
hija
hijo
hijos
hilario
hilary
hilbert
hilda
hildegard
hill
hills
hilton
him
himalaia
himalayan
himeno
himno
himnos
hindi
hindu
hindui
hip
hipertensio
hipo
hipopo
hipota
hipote
hippocrene
hiroshima
his
hispa
hispana
hispania
hispano
hispanos
hist
histamina
histidina
histo
histoire
histoloxi
histona
histonas
histone
historia
historiador
historiadora
historiadores
historial
historias
historic
historical
historicamente
histories
historiogra
historiografi
historique
history
hit
hitchcock
hitita
hititas
hitler
hits
hiv
hixiene
hixino
hizo
hj
hjk
hk
hl
hla
hler
hm
hmg
hms
ho
hobbit
hoboken
hoc
hockey
hodgson
hoffman
hoffmann
hogan
hogwarts
hohenstaufen
hoja
hokkaido
hokusai
holanda
holande
holandesa
holandesas
holandeses
hold
holden
holdsworth
hole
holiday
holland
holly
hollywood
holm
holmes
holocaust
holocausto
holst
holstein
holt
holy
hombre
hombres
home
homem
homenaje
homenaxe
homenaxes
homeopati
homeostase
homer
homero
homes
homi
homicidio
homme
homo
homoloxi
homosexuais
homosexual
homosexualidade
homoxe
honda
honduras
honey
hong
honolulu
honor
honorario
honores
honori
honorio
honoris
honour
honra
honrado
honrar
honras
honshu
hood
hook
hooker
hop
hope
hopkins
hopper
hora
horace
horacio
horario
horarios
horas
horizon
horizons
horizontais
horizontal
horizonte
hormona
hormonal
hormonas
hormone
horn
hornets
horror
horse
horst
horta
hortalizas
hortas
horus
hospitais
hospital
hospitalario
hospitalet
host
hosti
hostil
hostilidade
hostilidades
hot
hoteis
hotel
houbera
houbese
houbo
houghton
hour
hours
house
houston
how
howard
howe
howell
hoxe
hoy
hoyo
hp
hr
hrer
hrsg
hs
hsp
ht
htm
html
http
https
hu
hua
huang
huatl
hub
hubble
huber
hubert
hudson
hue
huelva
huerta
huesca
huffington
hugh
hughes
hugin
hugo
hui
hull
hum
human
humana
humanas
humanidade
humanidades
humanismo
humanista
humano
humanos
humans
humberto
humboldt
hume
humidade
humilde
humildes
humillacio
humor
humori
humorista
humphrey
hundred
hung
hungarian
hungary
hunger
hungri
hunos
hunt
hunter
huntington
hurt
hurtado
hussein
huston
hutchinson
hutton
huxley
huygens
hy
hybrid
hybridization
hyde
hydrogen
hymenoptera
hypothesis
hz
i
ia
iaaf
iacarta
iago
ian
iana
iase
iata
iau
iauc
ib
iba
iban
ibe
iberia
ibero
iberoamericana
iberos
ibi
ibilidade
ibis
ible
ibles
ibm
ibn
ibrahim
ic
ica
icaa
icao
icarus
ice
iceberg
ich
ici
ickx
ico
icon
icona
iconas
iconogra
iconografi
ictio
ictioloxi
id
ida
idade
idades
idaho
ide
idea
ideais
ideal
idealismo
ideario
ideas
identidad
identidade
identidades
identifi
identifica
identificacio
identificada
identificadas
identificado
identificador
identificados
identifican
identificar
identificaron
identificarse
identification
identificou
identificouse
identities
identity
ideo
ideolo
ideoloxi
ideou
idi
idioma
idiomas
ido
idos
ie
iec
ieee
iemen
ies
if
ig
iga
ige
igf
igg
iglesia
iglesias
ign
ignacio
ignorado
ignorancia
ignorar
igo
igor
igrexa
igrexas
iguais
igual
igualar
igualdad
igualdade
igualmente
ii
iihf
iii
ik
ikko
il
ildefonso
ile
ilegais
ilegal
ilexi
ili
iliria
ill
illa
illada
illadas
illado
illados
illamento
illar
illas
ille
illinois
illote
illotes
illustrated
iluminacio
ilusio
ilustra
ilustracio
ilustrada
ilustrado
ilustrador
ilustrados
ilustrar
ilustre
ilustres
ilves
im
ima
image
imagen
images
imaging
imaxe
imaxes
imaxinacio
imaxinar
imaxinaria
imaxinario
imdb
imer
imita
imitacio
imitando
imitar
immune
immunity
immunol
immunology
imola
imos
imp
impact
impacto
impactos
impar
imparcial
imparte
impartir
impartiu
impedi
impedindo
impedir
impediron
impediu
imperativo
imperiais
imperial
imperialismo
imperio
imperios
impide
impiden
implantacio
implantar
implementacio
impli
implica
implicaba
implicacio
implicada
implicadas
implicado
implicados
implican
implicar
implications
implicou
impo
impon
impopular
impor
importa
importacio
importance
importancia
important
importante
importantes
importar
imposi
imposibilidade
imposible
imposicio
imposta
impostas
imposto
impostos
imprensa
imprenta
impresa
impresas
imprescindible
impresio
impresionado
impresionante
impresionantes
impresionismo
impreso
impresor
impresos
imprimi
imprimir
improbable
impropia
improvisacio
impu
impulsa
impulsada
impulsado
impulsar
impulso
impulsor
impulsores
impulsos
impulsou
impurezas
impuxo
in
ina
inacabada
inactiva
inactivacio
inactivo
inaugu
inaugura
inauguracio
inaugurada
inaugurado
inaugural
inaugurou
inaugurouse
inc
inca
incapaces
incapacidade
incapaz
incas
incendio
incendios
incerta
incerteza
incerto
inch
incidencia
incidente
incidentes
incio
incipiente
incla
inclinacio
inclinada
inclinado
inclu
includes
including
inclui
incluiri
inclusio
inclusive
incluso
inco
incompleta
incompleto
inconsciente
inconveniente
inconvenientes
incorpo
incorpora
incorporacio
incorporada
incorporadas
incorporado
incorporados
incorporan
incorporando
incorporar
incorporaron
incorporarse
incorporou
incorporouse
incorrecta
incorrectamente
incorrecto
increased
increme
incrementa
incrementan
incrementando
incrementar
incremento
incrementou
incrementouse
incrible
incubacio
incumprimento
incursio
inda
indalecio
indefinido
indemnizacio
independence
independencia
independent
independente
independentemente
independentes
independentismo
independentista
independentistas
independiente
independientes
index
indi
india
indian
indiana
indianapolis
indians
indias
indica
indicaba
indicaban
indicacio
indicada
indicadas
indicado
indicador
indicadores
indican
indicando
indicar
indicaron
indicativo
indicios
indicou
indie
indiewire
indigenous
indio
indios
indique
indirecta
indirectamente
indirecto
indiscutible
indispensable
indistintamente
inditex
individuais
individual
individualmente
individuo
individuos
indo
indochina
indoeuropea
indoeuropeas
indoeuropeo
indoeuropeos
indonesia
indonesio
induce
induced
inducen
inducida
inducido
inducio
inducir
induction
industria
industriais
industrial
industrializacio
industrias
industries
industry
indy
ine
inebase
inen
inercia
inesperada
inesperado
inestabilidade
inestable
inevitable
inexistente
inf
infancia
infanta
infantari
infante
infanteri
infantes
infanti
infantil
infarto
infeccio
infecciosa
infecciosas
infect
infecta
infectada
infectadas
infectados
infectan
infectar
infection
infections
infectious
inferior
inferiores
inferioridade
inferno
infestacio
infinidade
infinita
infinitivo
infinito
inflacio
inflamacio
inflamatoria
inflamatorias
inflexio
inflorescencia
inflorescencias
influ
influence
influencia
influenciada
influenciado
influenciados
influencias
influente
influentes
influenza
influi
influxo
info
infope
informa
informacio
informado
informal
informar
informaron
information
informativa
informativo
informativos
informe
informes
informou
informouse
infraccio
infraestrutura
infraestruturas
inframundo
infraorde
infravermella
infravermello
infrecuente
infrecuentes
infty
infusio
inge
inglaterra
ingle
inglesa
inglesas
ingleses
ingrediente
ingredientes
ingresa
ingresar
ingreso
ingresos
ingresou
ingrid
inhabilitacio
inhalacio
inherente
inheritance
inhibe
inhiben
inhibicio
inhibidor
inhibidores
inhibir
inhibition
inhibitor
inhibitors
ini
inicia
iniciacio
iniciada
iniciado
iniciais
inicial
inicialmente
inician
iniciando
iniciar
iniciara
iniciaron
iniciarse
iniciativa
iniciativas
inicio
inicios
iniciou
iniciouse
inimiga
inimigas
inimigo
inimigos
iniquidade
initial
initiative
inmaculada
inmaterial
inmediacio
inmediata
inmediatamente
inmediato
inmensa
inmenso
inmersio
inmigracio
inmigrante
inmigrantes
inminente
inmo
inmoble
inmobles
inmortal
inmortalidade
inmune
inmunes
inmunidade
inmunitaria
inmunitarias
inmunitario
inmunodeficiencia
inmunoglobulina
inmunoglobulinas
inmunolo
inn
innata
inner
innovacio
innovador
innovadora
innovadores
innovation
innsbruck
innumerables
ino
inocencia
inocencio
inocente
inocentes
inorga
inositol
inquisicio
inscricio
inscriptions
inscrita
inscrito
inscritos
insect
insecti
insecticidas
insecto
insectos
insects
insee
insercio
insi
inside
insider
insight
insights
insignia
insiste
insistencia
insistiu
inso
inspeccio
inspector
inspira
inspiracio
inspirada
inspiradas
inspirado
inspirados
inspirou
inspirouse
insta
instagram
instala
instalacio
instalada
instalado
instalados
instalar
instalaron
instalarse
instalou
instalouse
instancia
instancias
instanta
instante
instauracio
instinto
institucio
institucionais
institucional
institui
institut
institute
institution
instituto
institutos
instruccio
instrucio
instrui
instrumentacio
instrumentais
instrumental
instrumento
instrumentos
instrutor
insua
insuficiencia
insuficiente
insuficientes
insular
insulares
insulin
insulina
insurreccio
int
intacta
intacto
inte
integra
integracio
integrada
integradas
integrado
integrados
integrais
integral
integramente
integran
integrando
integrante
integrantes
integrar
integrarse
integrated
integration
integridade
integrou
integrouse
intel
intelectuais
intelectual
intelixencia
intelixente
intelixentes
intelligence
intencio
intensa
intensamente
intensas
intensidade
intensiva
intenso
intensos
intenta
intentaba
intentan
intentando
intentar
intentara
intentaron
intento
intentos
intentou
inter
interaccio
interacciona
interaccionan
interaction
interactions
interactive
interactivo
interactu
interamericana
intercambiar
intercambio
intercambios
intercontinental
intere
interesa
interesada
interesado
interesados
interesante
interesantes
interesarse
interese
intereses
interesouse
interestatal
interestelar
interface
interfaces
interferencia
interferir
interfero
interino
interior
interiores
interkosmos
interleucina
interleukin
interlingua
intermedia
intermediario
intermediarios
intermedias
intermedio
intermedios
intermitente
interna
internacionais
internacional
internacionalmente
internado
internal
internamente
internas
international
internationale
internet
interno
internos
interpre
interpreta
interpretaba
interpretacio
interpretada
interpretadas
interpretado
interpretados
interpretan
interpretando
interpretar
interpretaron
interpretation
interpretou
interrompeu
interrompida
interrompido
interrupcio
interseccio
intervalo
intervalos
interve
interven
intervencio
interveu
interview
interviews
intervin
intervir
intestinais
intestinal
intestino
intestinos
intimamente
intimidade
into
intolerancia
intoxicacio
intracellular
intracelular
intracelulares
intre
intri
intrigas
intro
introdu
introduccio
introduce
introducen
introduci
introducida
introducidas
introducido
introducidos
introducindo
introducio
introducir
introduciron
introduciu
introduciuse
introduction
intuicio
inu
inuit
inundacio
invade
invaden
invadida
invadir
invadiron
invadiu
invasio
invasion
invasora
invasoras
invasores
invencio
inventada
inventado
inventario
invention
invento
inventor
inventos
inventou
invernadoiro
invernal
inverno
invernos
inversa
inversamente
inversio
inverso
invertebrados
invertebrate
invertebrates
invertido
invest
investido
investidores
investidura
investiga
investigacio
investigaciones
investigador
investigadora
investigadores
investigando
investigar
investigation
investigou
investimento
investimentos
investir
invierno
invisi
invisible
invitacio
invitada
invitado
invitados
involucrado
involucrados
involved
inxeccio
inxectado
inxesta
inxestio
inxustiza
io
ioc
iodo
ioga
iogur
iolanda
ion
ionizacio
ios
iowa
ip
iphone
ir
ira
iran
iraniana
iraniano
iraq
iraqui
ire
ireann
ireland
irene
ireneo
iri
iria
iris
irish
irixo
irixoa
irlanda
irlande
irlandesa
irlandeses
irma
irmandade
irmandades
irmandin
iro
iron
ironi
ironman
iroqueses
irregular
irregulares
irregularidades
irreversible
irrigacio
irritacio
irse
iru
irvine
irving
irwin
is
isa
isaac
isabel
isabella
isabelle
isai
isbn
isbol
ise
isidoro
isidro
isis
isla
islam
islamic
island
islande
islandesa
islandia
islands
islas
isle
isles
ismael
ismo
iso
isoformas
isola
isolated
isolation
israel
israeli
iss
issn
issue
issues
ist
ista
istambul
istas
istituto
istmo
isto
istria
it
ita
itachi
italia
italian
italiana
italianas
italiano
italianos
italo
italy
itanse
itase
ithaca
itinerante
itinerario
itinerarios
itis
ito
its
itunes
itv
iu
iucata
iucn
iugoslava
iugoslavia
iugoslavo
iulis
iupac
ius
iv
iva
ivan
ives
ivo
iwata
ix
ixase
iz
iza
izquierda
izquierdo
j
ja
jacinto
jack
jackie
jackson
jacob
jacobo
jacobs
jacobson
jacopo
jacqueline
jacques
jae
jagger
jaguar
jaime
jak
jake
jakob
jam
jama
james
jamie
jan
jane
janeiro
janet
janos
january
japan
japanese
japonica
jar
jardi
jared
jason
jaume
java
javi
javier
jay
jazz
jb
jbc
jc
jcb
jd
je
jean
jeanne
jedi
jeep
jeff
jefferson
jeffrey
jem
jena
jenaro
jenkins
jenner
jennifer
jennings
jenny
jens
jensen
jenson
jeremy
jerez
jero
jerome
jerry
jersey
jerusalem
jesse
jessica
jesu
jesus
jet
jets
jewish
jews
jf
jg
jh
ji
jian
jiang
jill
jim
jime
jimmy
jin
jj
jk
jl
jm
jn
jo
joa
joachim
joan
joanna
joaqui
joaquim
job
jobling
jochen
jody
joe
joel
joey
johan
johann
johanna
johannes
johansson
john
johnny
johns
johnson
johnston
join
joins
joint
joker
jon
jonas
jonathan
jones
jong
jons
jordan
jordi
jorge
jornada
jornal
jose
josef
josefa
josefina
josep
joseph
josephine
josh
joshua
joule
jour
journal
journey
jours
joven
joventut
joy
joyce
joŋ
jp
jpl
jr
js
jstor
jt
ju
jua
juan
juana
judas
judd
judi
judith
judo
judy
juego
juegos
juez
jugador
jul
jules
julia
julian
julie
julien
juliette
julio
julius
july
jump
jun
june
jung
jungle
juni
junio
junior
juniors
juniperus
junta
jupiter
jurado
jurassic
juri
just
justice
justicia
justin
justo
juvenil
juventud
juventudes
juventus
jw
k
ka
kafka
kahn
kai
kain
kaiser
kalandraka
kan
kane
kang
kansas
kant
kanto
kaplan
kappa
kara
karabakh
karachi
karate
karel
karen
karin
karl
karlsruhe
karting
kassel
kat
kate
katharine
katherine
kathleen
kathryn
katie
kato
katz
kaufman
kay
kb
kc
kd
kda
kde
ke
keep
keith
keller
kelley
kelly
kelvin
kemp
ken
kendall
kennedy
kenneth
kenny
kent
kentucky
kenya
kepler
ker
kerala
kerenskii
kernel
kerr
kerry
kevin
kew
key
keynes
kg
kh
kha
khan
khl
khmer
ki
kid
kidd
kids
kiel
kiko
kilimanjaro
kill
killed
killer
killing
kim
kimball
kimi
kimura
kinase
kind
king
kingdom
kingdoms
kings
kingsley
kingston
kinney
kira
kirby
kirguiz
kirguizista
kiribati
kirk
kiss
kit
kitty
kiwi
kj
kk
kkinen
kl
klaus
klein
klm
km
kms
kn
knicks
knight
knockout
knopf
know
knowledge
known
knox
ko
kobayashi
kobe
koch
kolchak
kommuner
kon
kong
konrad
korea
korean
korsakov
kos
kosmos
kosovo
kr
kra
krai
kramer
krause
krebs
kremlin
krishna
kristen
ks
ku
kubica
kuhn
kuiper
kumar
kunnittain
kunst
kunze
kurdo
kurt
kuwait
kv
kvyat
kw
ky
kyle
kyo
kyu
l
la
lab
laba
labas
labio
labios
labirinto
labor
laborais
laboral
laboratorio
laboratorios
laboratory
labores
laborista
labrada
labrador
labranza
labrega
labrego
labregos
lac
lace
lacerta
laco
lactacio
lactato
lactosa
ladeira
ladeiras
ladies
ladislao
lado
lados
ladra
ladrillo
ladrillos
ladro
lady
laffite
lafleur
laga
lagarto
lagartos
lage
lago
lagoa
lagoas
lagopus
lagos
lagrange
laguna
lahuerta
lai
laia
laica
laico
laicos
laiovento
lake
lakers
lakes
lakota
lali
lam
lama
lamanitas
lamarck
lamas
lamb
lambda
lambert
lamborghini
lameiro
lamela
lamelas
lamo
lamprea
lan
lancaster
lance
lancet
lancia
land
landa
landi
lands
landscape
lane
lang
lange
language
languages
langue
languedoc
lanka
lanse
lanterna
lanza
lanzada
lanzadas
lanzado
lanzador
lanzados
lanzamento
lanzamentos
lanzan
lanzando
lanzar
lanzaron
lanzarote
lanzas
lanzo
lanzou
lanzouse
lao
laos
lapa
lapis
laplace
lar
lara
laracha
laranxa
laranxas
lareira
lares
larga
large
largest
largo
largura
laro
larousse
larry
lars
larsen
larson
larus
larva
larvas
las
lase
lasexta
lasker
laso
last
lat
lata
latas
late
latente
later
laterais
lateral
lateralmente
latest
lati
latin
latina
latinas
latino
latinoame
latinoamericana
latinoamericano
latinoamericanos
latinos
latitude
latitudes
lato
latorre
latreille
lau
lauda
launch
launches
laura
laureado
laureano
lauren
laurence
laurent
laurie
lausana
lava
lavado
lavadores
lavandeira
lavanguardia
lavar
lavoisier
lavozdegalicia
law
lawrence
laws
lawson
laxe
laxeiro
laza
lazio
lazo
lazos
laɾ
lb
lbum
lbums
lc
lccn
lculo
lculos
ld
ldez
ldica
ldico
ldl
ldots
le
lea
leach
lead
leader
leaders
leadership
leading
leads
league
leais
leal
lealdade
leandro
learning
leary
leave
leaves
leb
leben
lebre
lebres
leccio
lecer
leclerc
lector
lectores
lectura
lecturas
lecture
lectures
led
ledesma
ledger
ledicia
ledo
lee
leeds
left
leg
lega
legacy
legado
legais
legal
legalidade
legalmente
legane
legend
legends
legio
legumes
leguminosas
lehninger
lei
leibniz
leicester
leiden
leigh
leijonat
leinster
leipzig
leira
leirado
leiras
leiro
leis
leite
leito
leituga
lema
lembra
lembrado
lembran
lembranza
lembranzas
lembrar
lemos
len
lena
lenda
lendaria
lendario
lendas
lendo
length
lengua
lenguaje
lenguas
lenin
leningrado
lennon
lens
lenta
lentamente
lentas
lente
lentes
lento
lentos
lenzo
lenzos
leo
leoa
leon
leonard
leonardo
leone
leonesa
leonid
leonor
leopardo
leopold
leopoldo
leos
lepido
lepidoptera
lepus
leq
ler
lera
leroy
les
lesbianas
lese
lesio
leslie
less
lesson
lessons
leste
lester
let
letal
leto
letonia
letra
letras
lett
letter
letters
lettres
leu
leucemia
leucina
leucocitos
lev
leva
levaba
levaban
levada
levadas
levado
levados
levalo
levan
levando
levanta
levantada
levantado
levantamento
levantamentos
levantar
levante
levantou
levantouse
levar
levara
levari
levaron
levarse
levase
leve
level
levels
levemente
leven
leves
levi
levin
levine
levou
levouna
levouno
levouse
levy
lewis
lex
lexi
lexicon
lexikon
lexio
lexislacio
lexislativa
lexislativas
lexislativo
lexislatura
lexislaturas
lexitimidade
ley
leyenda
leyendas
lez
lfp
lg
lgara
lgaro
lgaros
lgbt
lh
li
lia
liam
liang
libe
liber
libera
liberacio
liberada
liberadas
liberado
liberados
liberais
liberal
liberalismo
liberan
liberando
liberar
liberdade
liberdades
liberia
liberou
libertad
libertadores
libertario
liberty
libia
libra
librari
libraries
library
libras
libre
libremente
libreri
libres
libreto
libri
libro
libros
lic
lica
licas
lice
licencia
licenciada
licenciado
licenciatura
licenciou
licenciouse
license
licenza
licenzas
liceo
lices
liceu
licinio
lico
licor
licos
lida
lidas
liddell
lidera
lideraba
liderada
liderado
liderados
liderando
liderar
liderou
lidia
lido
lidos
lie
liechtenstein
lieder
lies
liexa
life
lifetime
liga
ligada
ligadas
ligado
ligados
ligamento
ligand
ligando
ligandos
ligas
ligase
ligazo
light
lightning
lights
ligier
ligue
liguria
liiga
like
lila
lili
lille
lillian
lily
lim
lima
limbo
limi
limia
limiar
limit
limita
limitaba
limitacio
limitada
limitadas
limitado
limitados
limitando
limitar
limited
limitou
limitouse
limits
limo
limpa
limpar
limpeza
limpo
lin
lina
linares
lince
lincoln
linda
linde
lindes
lindsay
lindsey
line
lineage
lineais
lineal
linear
lineares
lines
linfa
linfocitos
ling
lingu
lingua
linguas
linguaxe
linguaxes
linguistic
linguistica
linguistics
link
linked
links
linnaeus
linne
linnean
linneo
lino
lintel
linus
linux
lio
lion
lionel
lions
lipase
lipi
lipid
lipoprotei
lippincott
liques
liquid
liquidacio
lira
liras
lis
lisa
lisas
lisboa
lise
lises
lisina
lisis
liso
lisos
lisosomas
list
lista
listado
listas
listaxe
liste
listen
listeria
listo
liszt
lit
lite
litera
literal
literalmente
literaria
literarias
literario
literarios
literary
literatura
literaturas
literature
lites
litio
lito
litografi
litoral
litos
litro
litros
litte
little
littlefield
litu
lituana
lituania
lituano
liturxia
liu
liv
live
liver
liverpool
lives
livia
living
livingstone
livio
livre
livro
lix
lixeira
lixeiramente
lixeiras
lixeiro
lixeiros
lixo
liz
lizard
lj
lkenberg
ll
lla
llama
llano
llanos
llanse
llase
llc
lle
llega
llego
lleida
llengua
llense
ller
lles
llese
lleva
llo
llobregat
llorente
lloyd
llui
llywelyn
lm
ln
lnb
lo
loa
loba
lobato
lobeira
lobios
lobo
lobos
loca
locais
local
locali
localidade
localidades
localiza
localizacio
localizada
localizadas
localizado
localizados
localizar
localization
localmente
location
loci
locke
lockheed
loco
locomocio
locomotora
locomotoras
locucio
locus
lodge
lodo
lodos
lofficier
log
loga
logan
logas
logic
logo
logos
logotipo
logra
logrado
logran
logrando
lograr
lograra
lograri
lograron
logro
logron
logros
logrou
loi
loira
lois
loita
loitaba
loitaban
loitador
loitan
loitando
loitar
loitaron
loitas
loito
loitou
lola
lom
lomax
lomba
lombarda
lombardi
lombardo
lombo
lon
lond
londiniense
london
londres
lonely
long
longa
longacre
longametraxe
longametraxes
longas
longman
longo
longobardo
longobardos
longos
lonxe
lonxevidade
lonxitude
lonxitudes
lonxitudinais
lonxitudinal
look
looking
lope
lopes
lopez
lopo
lorca
lord
lorena
lorenz
lorenzo
lores
los
losada
loss
lost
lot
lotario
loto
lotus
lou
loucura
louis
louise
louisiana
louisville
lourdes
loureiro
lourenc
lourenza
lourenzo
lourido
louro
lousa
lousada
lousame
lousas
louvre
louza
lovaina
love
low
lowe
lower
lowry
loxa
loxi
loxicamente
lozano
lp
lpsn
lr
ls
lt
ltd
ltica
lticas
ltico
lticos
ltima
ltimas
ltimo
ltimos
ltiple
ltiples
ltiplo
ltiplos
lu
lua
luaces
luanda
luar
lublin
luc
luca
lucas
lucca
lucense
luces
lucha
luci
lucia
luciano
lucien
lucio
lucius
lucky
lucro
lucus
lucy
ludovico
ludwig
lufthansa
luftwaffe
lugano
lugar
lugares
lugartenente
lugo
lugri
lugue
lui
luigi
luis
luisa
luisiana
luiz
luka
luke
lula
lulas
lulu
lume
lumes
lumie
luminosa
luminosidade
luminoso
luna
lunar
lunares
lund
lunes
lung
luns
luo
lupa
lupus
luque
luras
lus
lusitania
luso
luterana
lutero
luther
lutz
luvas
lux
luxemburg
luxemburgo
luxemburgue
luxo
luz
luzo
lv
lvarez
lvaro
lvense
lvese
lvez
lviv
lvora
lvula
lvulas
lxebra
lxica
ly
lydia
lymantria
lynch
lynn
lynx
lyon
lyons
lys
m
ma
maanmittauslaitos
mac
macau
macbeth
maccabi
macdonald
maceda
macedo
macedonia
macedonio
macedonios
maceira
maceiras
mach
machado
machi
machine
machines
macho
machos
machu
maci
macizo
mack
mackay
mackenzie
macmillan
maco
macro
macromole
mad
madagascar
madalena
madame
madariaga
made
madeira
madeiras
madeleine
mades
madison
madonna
madoz
madre
madrid
madrilen
madrin
madrugada
madura
maduracio
maduran
maduras
madurez
madureza
maduro
maduros
mae
maestro
maestros
mafia
mag
magalha
magallanes
magazine
magdalena
maggie
magic
magister
magma
magna
magnate
magne
magnesio
magnetic
magnetismo
magneto
magnetosfera
magni
magnitude
magnitudes
magno
magnolia
magnus
magnussen
mago
magos
magreb
maguncia
magyar
mahler
mahoma
mai
maia
maias
maiden
maier
mail
maila
mailo
mailos
main
maine
mainstream
maio
maior
maiores
maiori
maioritaria
maioritariamente
maioritario
maiormente
mais
maison
maiu
major
make
maker
makes
making
mal
mala
malaguen
malaia
malaio
malaisia
malaria
malas
malato
malaysia
malcolm
maldicio
maldito
maldonado
male
males
malestar
mali
malia
malik
malla
mallo
mallorca
malmo
malo
malone
malos
malpica
malta
malte
malthus
malvado
malvinas
mama
mame
mamede
mami
mammal
mammalia
mammalian
mammalogy
mammals
man
mana
management
manager
mananciais
manancial
mancha
manchas
manchester
manchuria
mancomunidade
manda
mandado
mandamentos
mandar
mandari
mandas
mandato
mandatos
mandela
mandeo
mandi
mando
mandos
mandou
mane
maneira
maneiras
maneiro
manel
manexar
manexo
manfred
manga
manganeso
mangas
mango
manhattan
mani
manife
manifesta
manifestacio
manifestantes
manifestar
manifesto
manifestou
manila
manipulacio
manipular
manitoba
mann
mannheim
manning
mano
manobra
manobras
manoel
manolo
manor
manos
manosa
manresa
manrique
mans
manse
mansell
mansfield
mansio
manso
manson
manta
mante
manteiga
mantemento
manten
mantendo
mantense
manter
manteri
manterse
manti
mantida
mantido
mantin
mantive
mantiveron
mantivo
manto
mantua
manu
manuais
manual
manuel
manuela
manufactura
manuscrito
manuscritos
manx
many
manzanares
manzaneda
manzano
mao
maoi
maori
map
mapa
mapache
mapas
mapping
maps
mapuche
maqueta
maquillaxe
maquinaria
mar
mara
marabillas
maran
maras
marato
marbella
marburg
marc
marca
marcada
marcadamente
marcadas
marcado
marcador
marcadores
marcados
marcan
marcando
marcar
marcaron
marcas
marcel
marcela
marcelino
marcello
marcelo
march
marcha
marchar
marcharon
marchas
marche
marchou
marcia
marciais
marcial
marciano
marco
marcos
marcou
marcus
mare
marea
mareas
mares
marfil
marga
margaret
margarida
margarita
margot
marguerite
mari
maria
marian
mariana
marianas
marianne
mariano
marido
marie
marilyn
marin
marina
marine
mariner
marines
marino
mario
marion
marisa
mariscal
marisco
mariscos
marismas
maritima
maritime
marjorie
mark
market
marketing
marko
marks
markus
marley
marlowe
marne
marque
marques
marquesa
marquesado
marriage
marro
marrocos
marroqui
mars
marsden
marsella
marsh
marshall
marsilea
marsupiais
marta
marte
martel
martelo
martes
martha
marti
martin
martina
martinez
martini
martins
martirio
marussia
maruxa
marvel
marvin
marx
marxe
marxes
marxinais
marxinal
marxismo
marxista
marxistas
mary
maryland
marzo
mas
masa
masacre
masas
mascato
mascota
mascotas
masculina
masculinas
masculino
masculinos
mase
maselle
maserati
maside
masiva
masivas
masivo
masivos
maso
mason
mass
massa
massachusetts
massimo
masso
masson
master
masters
mastro
mat
mata
matador
matalo
matan
matando
matanza
matanzas
matar
mataro
mataron
matas
match
mate
matema
matematicamente
mateo
mater
materia
materiais
material
materialismo
materials
materias
materna
maternal
maternidade
materno
mateu
math
mathbb
mathbf
mathcal
mathematical
mathematics
mathieu
mathrm
mati
matices
matilda
matilde
matisse
mato
matogueiras
matos
matou
matra
matri
matrices
matriculouse
matrimonial
matrimonio
matrimonios
matrix
matriz
matt
matter
matthew
matthews
matthias
maura
maureen
mauri
maurice
mauricio
mauritania
mauro
mausoleo
mavericks
max
maxestade
maxi
maxia
maxilar
maxim
maximiliano
maximino
maximus
maxisterio
maxistrado
maxistrados
maxwell
may
maya
mayer
maynard
mayo
mayor
mayori
mayr
maza
mazaricos
mazo
mb
mbalas
mbar
mbito
mbitos
mbolo
mbolos
mbox
mbra
mbrico
mbulo
mc
mccarthy
mccartney
mcdonald
mcdonnell
mcfarland
mcgee
mcgill
mcgraw
mckenna
mclaren
mclaughlin
md
me
mea
mead
mean
meaning
means
measurement
meat
meca
mecanismo
mecanismos
mecenas
mechanics
mechanism
mechanisms
med
meda
medal
medalla
medallas
medallista
medals
medea
medelli
medes
medi
media
mediacio
mediada
mediador
mediadores
mediados
medial
mediana
mediano
medianoite
mediante
medias
mediated
medical
medicamento
medicamentos
medici
medicina
medicinais
medicinal
medicine
medicio
medida
medidas
medido
medievais
medieval
medievales
medina
medindo
medio
medioambiental
mediodi
medios
medir
meditacio
mediterra
mediterranean
medium
medo
medos
medra
medran
medrando
medrar
medrou
medula
medusa
meet
meeting
mega
megali
megan
meiga
meigas
meiji
meila
mein
meio
meiose
meira
meirande
meirandes
meirin
meis
mejor
mejores
mel
mela
melanco
melancoli
melanie
melanina
melanogaster
melbourne
melchor
mele
melide
melilla
melissa
mella
mellitus
mello
mellor
mellora
mellorada
mellorado
mellorando
mellorar
melloraron
melloras
mellores
mellorou
melo
melodi
melville
melvins
member
members
membrana
membranas
membrane
membranes
membro
membros
memo
memoir
memoirs
memoria
memorial
memoriam
memorias
memories
memory
memphis
men
mena
mencin
mencio
menciona
mencionada
mencionadas
mencionado
mencionados
mencionan
mencionar
mencionou
mendel
mendelssohn
mendes
mendiza
mendo
mendoza
mene
menes
menin
meninxite
meno
menor
menorca
menores
menos
mensaxe
mensaxeiro
mensaxeiros
mensaxes
mense
menstruacio
menstrual
mensual
ment
mentais
mental
mentalidade
mente
mentes
mentha
mentira
mentiras
mento
mentor
mentres
menu
mer
mera
meras
merca
mercado
mercadores
mercadori
mercados
mercadotecnia
mercanci
mercante
mercantil
mercar
merce
mercedes
mercenarios
mercia
merck
mercou
mercurio
mercury
merece
meredith
mergullo
meridiano
meridionais
meridional
merino
merkel
merli
merlin
merlo
mero
merops
meros
merriam
mes
mesa
mesas
mese
meses
meseta
mesh
mesi
mesia
mesma
mesmas
mesmo
mesmos
meso
mesoame
mesoplodon
mesopota
mesopotamia
mesquita
mesquitas
message
messenger
messina
mesta
mestra
mestrado
mestras
mestre
mestres
mestri
mestu
mestura
mesturada
mesturado
mesturados
mesturan
mesturando
mesturar
mesturas
met
meta
metabo
metabolic
metabolism
metabolismo
metabolitos
metacritic
metade
metades
metafi
metais
metal
metallica
metalu
metalurxia
metamo
metamorfose
metano
metas
metcalf
mete
meteorito
meteoritos
meteorolo
meteoroloxi
meter
method
methods
methylation
metil
metilacio
metilo
metionina
metodolo
metodoloxi
metralladoras
metro
metroloxi
metropolita
metropolitan
metropolitana
metropolitanas
metropolitano
metros
metz
meu
meus
mexican
mexicana
mexicano
mexicanos
mexico
mexillo
meyer
mez
mezquita
mf
mg
mgm
mh
mhc
mhz
mi
mia
miami
mic
mica
micas
mice
michael
michel
michelangelo
michele
michelle
michigan
mick
mickey
mico
micoloxi
micos
micro
microbial
microbiana
microbio
microbiol
microbiology
microbioloxi
microbios
micronesia
microondas
microorganismo
microorganismos
microsco
microscopi
microscopio
microsoft
microtu
mics
mid
mida
midas
middle
mide
miden
mides
midi
midnight
mido
midos
midway
mie
mielina
mieres
mifflin
mig
migracio
migran
migrantes
migration
migratoria
migratorias
migratorios
miguel
mika
mike
mikel
mikhail
mil
mila
milagre
milagres
milagros
milan
milano
mile
milenio
milenios
miles
mileto
miley
mili
milicia
milicianos
milicias
milita
militaba
militancia
militante
militantes
militar
militares
militarmente
military
militou
milk
mill
milla
milladoiro
millares
millas
mille
milleiro
milleiros
millennium
miller
million
millo
millonario
millones
millor
mills
milne
milo
milos
milton
milwaukee
mimetismo
min
mina
minardi
minari
minas
mind
mine
minecraft
mineira
mineiras
mineiro
mineiros
minerais
mineral
mineraloxi
mineri
minerva
ming
minho
mini
miniatura
miniaturas
minimizar
mining
miniserie
ministe
minister
ministerial
ministerio
ministerios
ministra
ministro
ministros
ministry
minneapolis
minnesota
minor
minori
minoritaria
minoritarias
minos
minsk
mint
minu
minutes
minuto
minutos
mio
miocardio
mioceno
miosina
miquel
mir
mira
miracle
mirada
miradoiro
miranda
mirande
mirando
mirar
miras
miriam
miro
mirror
mis
misa
misas
miscela
mischocyttarus
miseria
misericordia
misio
misioneiro
misioneiros
misma
mismo
miss
missa
missing
mission
mississippi
missouri
misterio
misterios
misteriosa
misterioso
mistral
mit
mitanni
mitchell
mite
mites
mitin
mito
mitochondrial
mitocondria
mitocondrial
mitocondrias
mitolo
mitologi
mitoloxi
mitos
mitose
mitra
mitri
mitsubishi
miu
mix
mixta
mixtas
mixto
mixtos
miyazaki
mj
mk
ml
mlb
mls
mm
mn
mo
moa
moan
moas
mobile
mobiliario
mobilidade
mobilizacio
moble
mobles
moc
mocidade
mocin
mocio
moco
mod
moda
modalidade
modalidades
mode
model
modelaxe
modelo
modelos
models
moderada
moderadamente
moderadas
moderado
moderados
modern
moderna
modernas
moderne
modernidade
modernismo
modernista
modernizacio
moderno
modernos
modesta
modesto
modifica
modificacio
modificada
modificadas
modificado
modificados
modificando
modificar
modificou
modo
modos
modulacio
modular
modulation
moeche
moeda
moedas
moer
mogol
mohamed
mohammad
mohammed
moi
moire
moires
moise
moita
moitas
moiti
moito
moitos
mojo
mol
mola
molar
moldavia
molde
moldes
mole
molecular
moleculares
molecule
molecules
moles
molgas
molina
moll
mollado
mollo
mollusca
molly
molo
molusco
moluscos
moma
moment
momento
momentos
momia
mon
mona
monaco
monarca
monarcas
monarqui
monasterio
moncada
moncho
mondadori
mondariz
monde
mondo
mondon
mondrago
mone
moneda
monedas
monet
moneta
monetaria
monetarias
monetario
monetarios
money
monfero
monforte
mongois
mongol
mongolia
monica
monicreques
monitor
monitoring
monk
monkey
monnaie
monnaies
mono
monocatenario
monocitos
monocotiledo
monofile
monogra
monografi
monograph
monographs
monopolio
monopraza
monoprazas
monos
monosaca
monotei
monoti
monroe
mons
monsieur
monster
monsters
monstro
monstros
mont
monta
montada
montado
montados
montalba
montan
montana
montar
montaxe
monte
monteagudo
montederramo
monteiro
montenegro
montero
monterrei
monterrey
monterroso
montes
monteverdi
montevideo
montfort
montgomery
month
monthly
monti
montjui
monto
montou
montouto
montpellier
montreal
montse
montserrat
monty
monumentais
monumental
monumento
monumentos
monuments
monxa
monxas
monxe
monxes
monza
monzo
moody
moon
moore
mor
mora
morada
morais
moral
moralejo
morales
moran
moravia
morcego
morcegos
mordomo
more
morea
moreau
moreda
moreira
moreiras
morena
moreno
morfolo
morfoloxi
morfoloxicamente
morfosintaxe
morgado
morgan
mori
morir
moritz
mormo
morning
moro
moroni
morphological
morphology
morrazo
morre
morren
morrendo
morrer
morrera
morreri
morreron
morreu
morri
morris
morrison
morro
morrow
morse
mort
morta
mortais
mortal
mortalidade
mortality
mortas
morte
morteiro
mortes
mortimer
morto
morton
mortos
mos
mosaico
mosaicos
mosca
moscas
moscoso
moscova
moscow
moseley
moses
mosquera
mosquito
mosquitos
moss
most
mostaza
mosteiro
mosteiros
mosto
mostra
mostraba
mostraban
mostran
mostrando
mostrar
mostraron
mostras
mostraxe
mostrou
mostrouse
mota
mother
moti
motion
motivacio
motivada
motivado
motivo
motivos
motivou
moto
motocicletas
motociclismo
motor
motora
motores
motors
motorsport
motos
moucho
mount
mountain
mountains
moura
moure
mourente
mourin
mouro
mouros
mouse
move
movement
movemento
movementos
moven
movendo
mover
moverse
movi
movida
movie
movies
movimiento
moving
movistar
moya
moyen
moza
mozambique
mozart
mozas
mozo
mozos
mp
mpada
mpadas
mpano
mpica
mpicas
mpico
mpicos
mpl
mpre
mpren
mr
mrna
mrs
ms
msh
msn
msnm
msterdam
msterdan
msw
mt
mtv
mu
much
mucho
mucosa
mucosas
muda
mudando
mudanza
mudanzas
mudar
mudaron
mudarse
mude
mudo
mudou
mudouse
mueller
muere
muerte
muerto
muertos
mugardos
muhammad
mui
muin
muisca
muiscas
muito
mujer
mujeres
mula
muller
mulleres
mulo
mulos
multa
multi
multilingu
multimedia
multinacional
multiple
multiplica
multiplicacio
multiplicar
multitude
mun
mundi
mundiais
mundial
mundialmente
mundo
mundos
munich
municio
municipais
municipal
municipales
municipalidade
municipio
municipios
munin
munro
munster
mur
mura
murais
mural
muralla
murallas
muras
murat
murcia
murder
murgui
murillo
muro
muros
murphy
murray
mursilis
mus
musa
musas
muscle
muscular
musculares
muse
museo
museos
museu
museum
museums
musgos
music
musica
musicais
musical
musicalmente
musicians
musico
musique
muslim
mussolini
must
mustafa
musulma
muta
mutacio
mutante
mutantes
mutation
mutations
mutaxe
mutua
mutuamente
mutuo
muxi
muy
mv
mvp
mw
mx
my
myanmar
mycobacterium
myers
myspace
mysql
mystery
myth
mythology
myths
mytilus
mɛnto
n
na
nabla
nabo
nace
nacemento
nacementos
nacen
nacente
nacer
nacera
naceron
naceu
nach
nacho
naci
nacida
nacido
nacidos
nacimiento
nacio
nacionais
nacional
nacionales
nacionalidade
nacionalidades
nacionalismo
nacionalista
nacionalistas
nacionalizacio
nacionalizado
naco
nad
nada
nadal
nadan
nadar
nadas
nadh
nadia
nadie
nado
nados
nadp
nadph
nagasaki
nagy
nai
nails
nais
naisten
naked
nalgu
nalgunha
nalgunhas
nam
name
named
namentres
names
namibia
namo
namora
namorada
namorado
namur
nan
nana
nancy
nano
nanotecnoloxi
nanse
nantes
nao
naomi
napoleo
napoli
napolitano
naquel
naquela
naquelas
naqueles
nar
narbona
narciso
nariz
naro
narra
narracio
narrador
narradores
narrativa
narrativas
narrative
narrativo
naruto
narva
nas
nasa
nasais
nasal
nase
nash
nashville
nassau
nat
nata
natacio
natal
natalia
natalidade
natalie
natasha
nate
nathan
nathaniel
nation
national
nationale
nationalism
nations
nativa
nativas
native
nativo
nativos
natl
nato
natur
natura
naturae
naturais
natural
naturales
naturaleza
naturalis
naturalismo
naturalist
naturalista
naturalistas
naturalmente
nature
naturelle
naturels
natureza
nau
naufraxio
nauru
nava
navais
navajo
naval
navalla
navarra
navarro
navarros
navas
navaza
nave
navega
navegacio
navegador
navegante
navegantes
navegar
navegou
naves
navi
navia
navy
naxos
nazaret
nazi
nazionale
nazis
nazismo
nb
nba
nbc
nc
ncaa
ncara
ncbi
ncer
nchen
nchez
ncia
ncianse
ncias
nciase
ncipe
ncipes
ncora
ncreas
nculo
nculos
nd
nda
ndalo
ndalos
ndar
ndara
ndares
ndase
nde
ndel
ndelle
ndem
ndense
nder
ndese
ndez
ndice
ndices
ndico
ndido
ndo
ndoa
ndoas
ndole
ndolle
ndolles
ndonos
ndoo
ndoos
ndor
ndose
ndrica
ndrico
ndrome
ndula
ndulas
ne
nea
neal
near
neas
nebrasca
nebraska
nebre
nebulosa
neca
necesaria
necesariamente
necesarias
necesario
necesarios
necesidade
necesidades
necesita
necesitaba
necesitaban
necesitan
necro
necrolo
necrose
ned
neda
need
neerlande
neerlandesa
neerlandesas
neerlandeses
nefi
nefitas
nega
negacio
negar
negarse
negativa
negativamente
negativas
negative
negativo
negativos
negociacio
negociar
negocio
negocios
negociou
negou
negouse
negra
negras
negreira
negri
negro
negros
negueira
neil
neill
neira
nel
nela
nelas
neles
nell
nella
nellie
nelson
nematodos
nen
nena
nenas
nenez
neno
nenos
nense
neo
neocla
neoli
neon
neos
neozelande
nepal
neptune
neptuno
ner
nero
neros
neruda
nervio
nervios
nerviosa
nerviosas
nervioso
nerviosos
nes
nesa
nesas
nese
neses
nesgo
nesis
nesta
nestas
neste
nestes
net
neta
netanyahu
netflix
netherlands
neto
netos
nets
network
networks
neue
neumann
neural
neuro
neurolo
neuron
neurona
neuronal
neuronas
neurosci
neuroscience
neurotransmisor
neurotransmisores
neustria
neutra
neutral
neutralidade
neutro
nevada
neve
never
neves
neville
nevis
new
newark
newcastle
newman
newport
news
newton
next
ney
nez
nf
nfase
nfl
ng
ngara
ngaro
ngaros
ngc
ngel
ngela
ngeles
ngua
nguense
nguese
nguez
ngulo
ngulos
nguyen
nh
nhl
ni
nia
nic
nica
nicandro
nicaragua
nicas
niccolo
nice
nicea
nicho
nicholas
nichols
nicholson
nichos
nick
nico
nicol
nicola
nicolao
nicolas
nicole
nicolson
nicos
nida
nidas
nides
nido
nidos
nie
niels
nielsen
nieto
nietzsche
nieves
nig
nigel
niger
nigeria
night
nights
nigra
nih
nike
niki
nikita
nikola
nikolai
nilo
nilsson
nima
nimas
nime
nimo
nimos
nin
nina
nine
nineteenth
ninfa
ninfas
ningu
ningue
ningunha
ninja
nino
nintendo
nio
nior
nippon
nirvana
nis
nisto
nit
nita
nito
nitrato
nitro
niveis
nivel
nix
nixeria
nixon
niz
niza
nj
nk
nl
nlm
nm
nme
nn
no
noaa
noah
nobel
nobiliario
noble
nobre
nobres
nobreza
noceda
nocello
noces
noche
noches
nocio
nocturna
nocturnas
nocturno
nocturnos
node
nodo
nodos
noe
noel
nogais
nogueira
noia
noir
noise
noite
noites
noiva
noivo
nolan
nom
noma
nomas
nombre
nombres
nome
nomea
nomeada
nomeadas
nomeado
nomeados
nomeamento
nomeamentos
nomeando
nomear
nomencla
nomenclatura
nomenclature
nomeou
nomeouno
nomes
nominal
nominations
nominativo
nominees
nomo
nomos
non
nor
nora
nord
norde
nordeste
nordiques
norfolk
noriega
norma
normais
normal
normalidade
normalizacio
normalizacion
normalmente
norman
normanda
normandi
normando
normandos
normas
normativa
normativo
noroccidental
noroeste
nororiental
norris
norte
norteame
norteamericana
norteamericanas
norteamericano
norteamericanos
north
northern
northumbria
northwest
norton
noruega
noruegue
norueguesa
noruegueses
norway
norwegian
norwich
nos
nosa
nosas
noso
nosos
nosotros
nossa
nostoc
nostra
not
nota
notable
notablemente
notables
notacio
notar
notario
notas
note
notes
nothing
noti
notice
notices
noticia
noticias
noticiero
notoriedade
notre
nottingham
nou
nous
noutra
noutras
noutro
noutros
nouveau
nouvelle
nouvelles
nov
nova
novak
novamente
novas
novato
nove
novel
novela
novelas
novelista
november
novembro
novena
noveno
noventa
novgorod
novi
novidade
novidades
noviembre
novo
novoa
novoneyra
novos
now
nowak
noya
noz
np
npr
nquima
nr
ns
nsase
nscrito
nse
nseca
nsito
nster
nsua
nsul
nsula
nsulas
nsules
nt
ntabro
ntalle
ntanse
ntara
ntase
nte
nter
ntes
ntese
nteses
ntesis
nther
ntica
nticas
ntico
nticos
ntida
ntima
ntimo
ntimos
ntoma
ntomas
ntranse
ntrase
ntrica
ntricas
ntrico
ntricos
ntropo
nu
nube
nubes
nubia
nuclear
nucleares
nucleic
nucleico
nucleicos
nucleo
nucleotide
nuestra
nuestras
nuestro
nuestros
nueva
nuevas
nuevo
nuevos
nuggets
nui
nula
null
nulo
nulos
numancia
number
numbers
nume
numeracio
numerais
numerario
numero
numerosa
numerosas
numeroso
numerosos
numis
numisma
numismatic
numismatica
numismatics
numismatique
numista
nun
nunavut
nunca
nunes
nunha
nunhas
nuno
nuns
nuova
nupcias
nur
nuria
nus
nutricio
nutricional
nutrientes
nutrition
nv
nw
nxel
nxeles
nxer
ny
nynorsk
nytimes
nz
nzase
nzen
nzo
o
oa
oaci
oak
oakland
oaks
oasis
oaxaca
ob
obama
obe
obediencia
obesidade
obi
obispo
obituario
obituary
object
objects
obra
obradoiro
obradoiros
obras
obre
obreira
obreiras
obreiro
obreiros
obrera
obrero
obriga
obrigaba
obrigacio
obrigada
obrigadas
obrigado
obrigados
obrigando
obrigar
obrigaron
obrigas
obrigatoria
obrigatorio
obrigou
obse
observa
observacio
observada
observadas
observado
observador
observadores
observados
observan
observando
observar
observaron
observarse
observations
observatorio
observatory
observer
observou
observouse
obsesio
obsoleto
obsta
obstante
obstrucio
obte
obten
obtencio
obtendo
obtense
obter
obterse
obti
obtida
obtidas
obtido
obtidos
obtin
obtivera
obtiveron
obtivo
obviamente
obvio
obxeccio
obxectiva
obxectivo
obxectivos
obxecto
obxectos
oc
oca
ocampo
ocas
ocasio
ocasionais
ocasional
ocasionalmente
ocasionou
occidentais
occidental
occidente
occitania
occitano
oce
ocea
ocean
oceani
oceanic
oceano
oceanogra
oceanografi
oceans
och
ocho
ochoa
ocio
oclc
oco
ocorra
ocorre
ocorren
ocorrer
ocorrera
ocorreron
ocorreu
ocorri
ocorrida
ocorrido
ocorridos
ocos
oct
octavio
october
octogonal
octubre
ocu
ocular
oculares
oculta
ocultar
ocultas
oculto
ocultos
ocupa
ocupaba
ocupaban
ocupacio
ocupada
ocupadas
ocupado
ocupados
ocupan
ocupando
ocupantes
ocupar
ocupara
ocupari
ocuparon
ocupou
ocupouse
oda
oder
odi
odio
odisea
odiseo
odo
odontoloxi
odos
odyssey
oeste
of
ofensiva
ofensivo
oferta
ofertas
off
offa
office
official
officinalis
offs
oficiais
oficial
oficialarquivado
oficiales
oficialidade
oficialmente
oficina
oficinas
oficio
oficios
ofre
ofrece
ofrecen
ofrecendo
ofrecer
ofreceron
ofreceu
ofreceulle
ofreci
ofrecido
ofrenda
ofrendas
og
ogalego
oh
ohio
oi
oia
oil
oilers
ois
oise
oiseaux
oitava
oitavo
oitavos
oitenta
oito
ojeda
ojos
ok
oka
okinawa
oklahoma
ol
ola
olaf
olas
old
oldest
ole
oleg
oleiros
oles
olfacto
olga
oli
oligarqui
oligoceno
oligonucleo
oligosaca
olimpi
olimpia
olimpo
oliva
olivares
olive
oliveira
oliveiras
oliver
olivia
olivier
ollada
ollar
ollo
ollos
olmedo
olmo
olmos
olo
ologie
olor
olos
olsen
olson
olveira
olvido
olympanalyt
olympedia
olympia
olympic
olympics
olympique
om
oma
omaha
omar
ombreiro
ombreiros
omega
omeia
omisio
omni
oms
on
once
oncogene
oncology
onda
ondas
onde
one
ones
ong
oni
online
only
ono
onoma
ons
ontario
onte
onu
oo
op
opcio
opcional
ope
open
opening
opens
opera
operaba
operacio
operacional
operado
operador
operadora
operadores
operados
operan
operando
operar
operation
operations
operativa
operativo
operativos
operatorname
operi
opero
operou
opin
opinan
opinio
opinion
opo
opon
oponse
oportunidade
oportunidades
oposicio
opositor
opositores
oposta
opostas
oposto
opostos
oppenheimer
opresio
optar
optaron
optical
optimizacio
optou
opu
opus
opuxe
opuxo
or
ora
oracio
orador
orais
oral
orange
oratorio
orbis
orbita
orbitais
orbital
orchestra
orde
orden
ordena
ordenacio
ordenada
ordenadas
ordenado
ordenador
ordenadores
ordenados
ordenamento
ordenanza
ordenanzas
ordenar
ordenou
order
ordered
orders
ordes
ordinaria
ordinario
ordines
ordo
ordon
ore
orego
oregon
orella
orellas
orense
ores
orestes
orfeo
orfo
orfos
org
orga
organi
organic
organisation
organismo
organismos
organisms
organista
organiza
organizacio
organizada
organizadas
organizado
organizador
organizadores
organizados
organizan
organizando
organizar
organizaron
organization
organizou
organizouse
orgasmo
orgullo
orgulloso
ori
orial
oricon
orient
orientacio
orientada
orientadas
orientado
orientados
orientais
oriental
orientalis
oriente
orificio
orificios
origen
origin
original
origine
origins
orio
oriol
orion
orita
oriu
orixe
orixes
orixi
orixina
orixinada
orixinado
orixinados
orixinais
orixinal
orixinalidade
orixinalmente
orixinan
orixinando
orixinar
orixinaria
orixinariamente
orixinarias
orixinario
orixinarios
orixinaron
orixinarse
orixinou
orixinouse
orlando
orlea
orleans
ornamentacio
ornamentais
ornamental
ornithologists
ornithology
ornito
ornitolo
ornitoloxi
oro
orochimaru
orografi
oroso
orquesta
orquestra
orquestracio
orquestrais
orquestral
orquestras
orqui
orr
orrell
ortega
ortegal
ortigueira
ortiz
orto
ortodoxa
ortodoxas
ortodoxia
ortodoxo
ortodoxos
ortogra
ortografi
orza
orzamento
orzamentos
os
osa
osaca
osaka
osas
osasuna
osborne
oscar
oscars
oscila
oscilacio
oscilan
oseira
osetia
osi
osiris
oskar
oslo
osmo
oso
osorio
osos
osprey
ostei
ostenta
ostentou
ostra
ostrobotnia
ostrogodos
osvaldo
oswald
ot
ota
otan
otava
otero
other
others
otilia
oto
otoma
otra
otras
otro
otros
ottawa
otto
ottoman
ou
ouest
ouno
our
ourensa
ourense
ourin
ourizo
ourizos
ouro
ourol
ouse
out
outbreak
outeiro
outeiros
outer
outes
outline
outo
outono
outorga
outorgaba
outorgada
outorgado
outorgados
outorgar
outorgou
outorgoulle
outra
outras
outro
outrora
outros
outubro
ov
ova
oval
ovalada
ovario
ovarios
ove
ovella
ovellas
over
overview
ovidio
oviedo
ovo
ovos
owain
owen
owens
own
oxford
oxi
oxidacio
oxidase
oxidativa
oxygen
oz
oza
ozono
ozores
p
pa
pablo
pablos
pac
pace
pacers
pacheco
paci
paciencia
paciente
pacientes
pacific
pacifista
pacios
pack
packers
paco
pacto
pactos
padal
padece
padecen
padecer
padeceu
padeci
paderne
padi
padilla
padre
padrenda
padres
padrin
padro
padroado
padua
pag
paga
pagamento
pagamentos
pagan
paganismo
pagar
page
pages
paglinawan
pago
pagos
pagou
pagurus
pai
paido
pain
painting
paio
pais
paisaxe
paisaxes
paisaxi
paixo
pakistan
pal
pala
palabra
palabras
palace
palacio
palacios
palais
palas
palatinado
palatino
palau
palazzo
palco
pale
palencia
palenque
paleo
paleobiology
paleoli
paleonto
paleontology
paleontoloxi
palermo
palestina
palestine
palestino
palestinos
paleta
paley
palgrave
palla
pallares
pallas
palleiro
palm
palma
palmare
palmas
palmeira
palmeiras
palmer
palmira
palo
paloma
palos
pam
pamela
pamplona
pan
panama
panamen
panamericana
panathinaikos
panca
pancho
pancrea
panda
pandemia
pandora
paneis
panel
panisse
pano
panonia
panora
panorama
panos
panse
pantalla
pantallas
pantalo
pantano
pantanos
pantasma
panteo
pantera
panto
panzer
pao
paolo
pap
papa
papado
papagaio
papagaios
papal
papas
papeis
papel
paper
paperback
papers
papiro
papo
papu
paquete
paquetes
paquista
paquistani
par
para
parabo
paracai
parada
paradanta
paradas
parade
paradela
paradigma
paradise
parado
parador
paradoxo
parafile
parafuso
paraguai
parai
paralela
paralelamente
paralelas
paralelismo
paralelo
paralelos
parali
paramilitares
paramount
parana
parar
parasito
parasitos
paraugas
paraxe
parc
parcelas
parche
parciais
parcial
parcialmente
parda
pardal
pardas
pardin
pardo
pare
parece
parecen
parecer
pareceu
pareci
parecida
parecidas
parecido
parecidos
parede
paredes
parella
parellas
parental
parente
parentes
parentesco
pares
parga
pari
paridade
paris
parish
parisiense
park
parker
parkes
parkinson
parks
parlament
parlamentaria
parlamentarias
parlamentario
parlamentarios
parlamento
parliament
parma
parnell
paro
parodia
paros
parou
parque
parques
parra
parroquia
parroquial
parroquias
parsons
part
parte
parten
parteno
partenoxe
partes
parti
partia
partial
particio
participa
participaba
participaban
participacio
participado
participan
participando
participante
participantes
participar
participara
participari
participaron
participio
participou
particular
particulares
particularidade
particularidades
particularmente
partida
partidario
partidarios
partidas
partido
partidos
partindo
partir
partiron
partit
partitura
partituras
partiu
partizan
partners
partnership
parto
partos
parts
party
parvo
pas
pasa
pasaba
pasaban
pasada
pasadas
pasadena
pasado
pasados
pasamento
pasan
pasando
pasaporte
pasar
pasara
pasarela
pasari
pasaron
pasase
pasaxe
pasaxeiro
pasaxeiros
pasaxes
pascal
pascua
pascual
pase
pasen
paseo
paseos
paseriforme
paseriformes
pasha
pasi
pasio
pasiva
pasivo
paso
pasos
pasou
pasouse
pass
passer
passion
past
pasta
pasteiros
pastel
pasteur
pasto
pastor
pastora
pastoral
pastoreo
pastores
pastoriza
pastos
pat
pata
pataca
patacas
patagonia
patas
pate
patel
patent
patente
patentes
patera
paterna
paterno
path
pathogenesis
pathogens
pathology
pathway
pathways
pati
patients
patin
patinaxe
patio
pato
patolo
patoloxi
patos
patoxe
patrese
patria
patriarca
patriarcado
patriarcal
patrice
patricia
patricio
patrick
patrimoines
patrimonial
patrimonio
patrio
patriotas
patriotismo
patriots
patro
patroa
patrocinado
patrocinador
patrocinadores
patrocinio
patronais
patronal
patronato
patrulla
pattern
patterns
patterson
patton
pau
paul
paula
paulatinamente
pauli
pauline
pauling
paulino
paulista
paulo
pauly
paus
pausa
pausanias
pautas
pavel
pavi
pavillo
pavo
pax
paxaro
paxaros
pay
payne
pays
paz
pazo
pazos
pb
pbs
pc
pce
pcpe
pcr
pd
pdb
pdf
pe
peace
peaceful
peak
pearl
pearson
peaxe
pecado
pecados
peces
pecha
pechada
pechadas
pechado
pechados
pechando
pechar
peche
pechou
peci
peck
pectorais
pectoral
peculiar
peculiares
peculiaridades
pedago
pedagogo
pedagoxi
pedani
pede
pedersen
pedes
pedestal
pedi
pedido
pedidos
pedindo
pedir
pediron
pediu
pediulle
pedra
pedrafita
pedras
pedrayo
pedreira
pedro
pedrosa
pedroso
pedu
peel
peer
peeters
pega
pegada
pegadas
pegan
pegasus
peggy
peirao
peiraos
peite
peito
peitos
peixe
peixes
pel
pela
pelaxe
pelayo
pele
peles
pelexa
peli
pelicano
pelicanos
pelicans
pelo
peloponeso
pelos
pelota
pelve
pementa
pemento
pen
pena
penais
penal
penalizacio
penalti
penaltis
penas
penda
pendente
pendentes
pene
peneda
penedo
penedos
penela
penetra
penetracio
penetrar
penguin
penguins
peni
penicilina
peninsula
peninsular
peninsulares
peniques
penn
pennsylvania
penny
pensa
pensaba
pensaban
pensado
pensador
pensadores
pensamento
pensamentos
pensamiento
pensan
pensando
pensar
pensilvania
pensio
penske
penso
pensou
pensouse
penta
penu
peo
peonil
people
peoples
peor
peores
pep
pepa
pepe
pepper
peppers
pepti
peptide
peptides
peptidoglicano
pequen
pequena
pequenas
pequeno
pequenos
pequi
per
pera
perante
peras
percebe
percepcio
percibe
percibir
perciformes
percorre
percorren
percorrendo
percorrer
percorreu
percorrido
percusio
percy
perda
perdas
perde
perden
perdendo
perder
perdera
perderi
perderon
perdeu
perdeuse
perdi
perdida
perdidas
perdido
perdidos
perdiz
perdo
perdurou
pere
pereda
peregrina
peregrinacio
peregrino
peregrinos
pereira
pereiras
pereiro
perenne
perennes
peres
perez
perfeccio
perfect
perfecta
perfectamente
perfecto
perfi
perfil
perforacio
performance
pergamin
peri
pericles
perife
periferia
perigo
perigos
perigosa
perigosas
perigoso
perigosos
perio
period
periodicamente
periodicidade
periodismo
periodista
periodistas
perixeo
perkins
perl
perla
perlas
permanece
permanecen
permanecendo
permanecer
permanecera
permaneceri
permaneceron
permaneceu
permaneci
permanencia
permanent
permanente
permanentemente
permanentes
permeabilidade
permi
permiano
permiso
permisos
permita
permitan
permite
permiten
permiti
permitida
permitido
permitindo
permitir
permitira
permitiri
permitiron
permitise
permitiu
permitiulle
perna
pernas
pero
peroxa
perpendicular
perpendiculares
perpetua
perpetuo
perpian
perrin
perry
persa
persas
perse
persecucio
persegue
persegui
perseguido
perseguidos
perseguir
perseo
perseus
persia
persian
persiste
persistencia
persistente
persistentes
persoa
persoais
persoal
persoalmente
persoas
persoeiros
person
persona
personal
personalidade
personalidades
personas
personaxe
personaxes
personificacio
perspectiva
perspectivas
perspective
perspectives
pertence
pertencen
pertencente
pertencentes
pertencer
pertenceu
pertenci
pertenza
perth
perturbacio
peru
peruana
peruano
perufootball
perugia
pes
pesa
pesaba
pesada
pesadas
pesado
pesados
pesan
pesar
pesca
pescador
pescadores
pescar
pescozo
pescuda
pese
peseta
pesetas
peso
pesos
pesqueira
pesqueiras
pesqueiro
pesqueiros
pessoa
peste
pesticidas
pet
peta
pete
peteiro
peter
peters
petersburg
petersburgo
petersen
peterson
peti
peticio
petit
petite
peto
petos
petra
petri
petro
petrogrado
petroleiro
petroli
peugeot
pexego
pez
peza
pezas
pg
ph
phacus
phage
phane
phantom
pharmacol
pharmacology
phase
phd
phe
phi
phil
philadelphia
philip
philipp
philippe
philippine
philippines
philips
phillip
phillips
philosophical
philosophie
philosophy
phoenix
phosphate
phosphorylation
photo
photos
php
phylogenetic
phylogenetics
phylogeny
phylum
phys
physical
physics
physiol
physiological
physiology
pi
pia
piadoso
pianista
piano
piar
piares
piazza
pib
pic
pica
picada
picado
picallo
picante
picas
picasso
picchu
pice
pichichi
pick
picks
pico
picos
picto
pictos
picture
pictures
pida
pidal
pidas
pide
piden
pides
pido
pidos
pie
piece
pieces
piedade
piedra
piel
piemonte
pier
pierce
piero
pierre
pieter
pietro
pigmentacio
pigmento
pigmentos
pila
pilar
pilas
pilastras
pillado
pilot
pilotado
pilotando
pilotar
piloto
pilotos
pilotou
pilots
pimentel
pimpi
pin
pina
pindo
pine
ping
pinga
pingas
pingu
pinheiro
pink
pino
pinochet
pinos
pinta
pintada
pintadas
pintado
pintados
pintar
pintas
pinto
pintor
pintora
pintores
pintos
pintou
pintura
pinturas
pinus
pinyin
pinza
pinzas
pio
piollo
piollos
pioneer
pioneira
pioneiras
pioneiro
pioneiros
piotr
pipa
piper
pipino
piques
piquet
piqui
pira
piragu
piramidal
pirata
piratas
pirates
pirelli
pireneos
pireo
pires
pirofosfato
pironi
pirro
piruvato
pisa
pisces
piscina
piscinas
piso
pisos
pista
pistas
pisto
pistola
pistons
pit
pita
pitchfork
piter
pito
pitos
pitt
pittsburgh
piu
pivote
pixar
pixies
pizarro
pj
pk
pka
pl
pla
plac
placa
placas
place
placebo
placenta
placer
places
plan
plana
planas
planck
plancto
plane
planeado
planeou
planes
planet
planeta
planetaria
planetario
planetary
planetas
planets
planicie
planicies
planificacio
planning
plano
planos
plans
plant
planta
plantacio
plantar
plantarum
plantas
plantlist
plants
plaquetas
plasencia
plasma
plasmodium
plasticidade
plata
plataforma
plataformas
plate
platino
platinum
plato
play
playa
player
players
playing
playoff
playoffs
plays
playstation
plaza
plc
ple
please
plebiscito
plena
plenamente
plenitude
pleno
plenos
pleuronectiformes
plica
plicas
plinio
plioceno
plistoceno
plos
pluma
plumas
plumaxe
plural
plus
plutarco
pluto
plutonio
plymouth
pm
pmatrix
pmc
pmid
pnas
pneuma
pneumoni
pneumoniae
png
pnv
po
poblacio
poblacional
poblacionales
pobo
poboacio
poboacional
poboada
poboadas
poboado
poboadores
poboados
poboamento
pobos
pobra
pobre
pobres
pobreza
poca
pocas
pocket
poco
poda
podcast
pode
podemos
poden
podendo
poder
podera
poderes
poderi
poderosa
poderosas
poderoso
poderosos
podes
podi
podio
podios
podo
podos
poe
poema
poemario
poemas
poems
poesi
poesia
poet
poeta
poetas
poetisa
poetry
poets
poida
poidan
point
points
poio
poirot
pois
poisson
poitiers
poke
pol
pola
polaca
polaco
polacos
poland
polar
polares
polaridade
polarizacio
polas
polbo
pole
poles
polgadas
polgar
poli
polibio
police
polici
policiais
policial
policy
polideportivo
polie
polifo
polimerase
polimerases
polimerizacio
polimorfismo
polinesia
polinizacio
polinomio
polio
poliovirus
polipe
polipepti
polis
polisaca
polish
polistes
polite
politei
political
politicamente
politico
politics
politique
pollard
pollock
polo
polonia
polos
polpa
polucio
polymerase
pomba
pombal
pombas
pombo
pomerania
pompeia
pompeio
pon
ponce
pondal
pondo
pone
ponferrada
pons
ponse
pont
ponte
ponteareas
ponteceso
pontecesures
pontedeume
pontenova
pontes
pontevedra
pontevedre
pontevedresa
ponti
pontificado
pontificia
pontificio
pontificios
ponto
pool
poole
poor
pop
popa
pope
popper
popular
populares
popularidade
popularizou
popularmente
population
populations
por
porcelana
porcentaxe
porcentaxes
porcio
porco
porcos
pore
pori
porno
pornogra
pornografi
poro
poros
porque
porqueira
porrin
porsche
port
porta
portaavio
portada
portadas
portador
portadores
portal
portas
portavoz
porte
porteiro
porteiros
portela
porter
porteri
portland
porto
portomari
portorriquen
portos
portrait
portuaria
portugal
portugue
portuguesa
portuguesas
portuguese
portugueses
pos
posada
pose
poseido
posesio
posgrao
posguerra
posi
posibelmente
posibilidade
posibilidades
posible
posiblemente
posibles
posicio
position
positiva
positivamente
positivas
positive
positivo
positivos
posse
possible
post
posta
postais
postal
postas
poste
posteridade
posterior
posteriores
posterioridade
posteriormente
postes
posto
postos
postula
postulados
postumamente
postura
posturas
posu
posui
pot
pota
potable
potasio
potencia
potenciais
potencial
potencialmente
potenciar
potencias
potente
potentes
potential
potestade
potter
pou
pouca
poucas
pouco
poucos
pour
pousa
pousada
povo
powell
power
powers
powys
poxa
poza
pozas
poznan
pozo
pozos
pp
ppdeg
pr
pra
pracer
praceres
practica
practical
practicamente
practican
practicante
practicantes
practicar
practice
practicou
prada
pradairo
praderi
pradesh
prado
prados
praga
pragas
pragma
prague
praha
praia
praias
pranchas
prat
prata
prateada
prato
pratos
pratt
praza
prazas
prazo
pre
prea
precaucio
precede
precedente
precedentes
precedida
precedido
preciosas
preciosos
precipitacio
precisa
precisaba
precisamente
precisan
precisar
precisas
precisio
preciso
precisos
precolombiana
precoz
precursor
precursora
precursores
predacio
predador
predadores
predecesor
predecesores
predi
predicacio
predicado
predicio
predicir
predilecto
predomina
predominan
predominante
predominantemente
predominantes
predominio
prefacio
prefecto
prefectura
preferencia
preferencias
preferente
preferentemente
preferi
preferida
preferido
preferiu
prefire
prefiren
prefixo
prefixos
pregamento
pregamentos
prego
pregu
pregunta
preguntas
preguntou
prehisto
prehistoria
prehistoric
preis
preito
prelado
preliminar
preliminares
preliminary
prelo
preludio
prematura
prematuramente
premer
premia
premiada
premiado
premiados
premie
premier
premiere
premiership
premio
premios
premisa
premisas
pren
prensa
prentice
preocupa
preocupacio
preocupado
preocupante
prepa
prepara
preparaba
preparacio
preparada
preparadas
preparado
preparados
preparando
preparar
prepararse
preparativos
preparou
preposicio
prerroma
prerromana
presa
presas
presbi
presbiterio
prescricio
prese
presence
presencia
present
presenta
presentaba
presentaban
presentacio
presentada
presentadas
presentado
presentador
presentadora
presentados
presentan
presentando
presentar
presentara
presentaron
presentarse
presente
presentes
presentou
presentouse
presents
presenza
preservacio
preservar
preside
presidencia
presidenciais
presidencial
president
presidenta
presidente
presidentes
presidential
presidida
presidido
presidir
presidiu
presio
presley
preso
presos
press
presse
presses
pressure
presta
prestacio
prestado
prestar
prestige
prestixio
prestixiosa
prestixiosas
prestixioso
prestixiosos
preston
prestou
prestwich
presumiblemente
presuntamente
presuposto
prete
pretempada
pretende
pretenden
pretendente
pretendentes
pretendeu
pretendi
pretensio
pretexto
preto
pretty
prevalencia
preve
prevencio
prevention
preventiva
previ
previa
previamente
previas
preview
previo
previos
previr
previsio
prevista
previstas
previsto
previstos
prexudiciais
prexudicial
prexui
prezo
prezos
pri
price
pride
priest
prieto
prim
prima
primaci
primaria
primarias
primario
primarios
primary
primas
primate
primates
primavera
prime
primeira
primeiramente
primeiras
primeiro
primeiros
primer
primera
primeras
primeros
primitiva
primitivas
primitivo
primitivos
primo
primordial
primos
primoxe
prince
princesa
princess
princeton
principado
principados
principais
principal
principales
principalmente
principia
principio
principios
principles
print
printing
prior
priori
prioridade
prioridades
prisio
prisioneiro
prisioneiros
prisma
prison
privacio
privada
privadas
privado
privados
private
privatizacio
privilexiada
privilexio
privilexios
prix
prize
pro
proa
proba
probabelmente
probabilidade
probabilidades
probable
probablemente
probada
probado
probar
probas
probe
problem
problema
problemas
problems
probo
probou
proc
procariotas
proce
procede
procedemento
procedementos
proceden
procedencia
procedente
procedentes
proceder
procedeu
procedi
proceedings
procesado
procesador
procesadores
procesados
procesamento
procesar
procesio
proceso
procesos
process
processes
processing
procla
proclama
proclamacio
proclamada
proclamadas
proclamado
proclamar
proclamarse
proclamou
proclamouse
proco
procura
procurador
procuran
procurando
procurar
procurou
produ
produccio
producciones
produce
produced
producen
produci
producida
producidas
producido
producidos
producindo
producio
producir
producira
produciri
produciron
producirse
produciu
produciuse
product
production
productions
products
produtiva
produtividade
produtivo
produto
produtor
produtora
produtoras
produtores
produtos
produza
produzan
prof
profeci
profesio
profesionais
profesional
profesionalmente
profesor
profesora
profesorado
profesores
professional
professor
profeta
profetas
profile
profiles
profunda
profundamente
profundas
profundidade
profundidades
profundo
profundos
progno
program
programa
programacio
programada
programado
programador
programas
programme
progresio
progresista
progresistas
progresiva
progresivamente
progresivo
progreso
progresos
progress
prohibe
prohibi
prohibicio
prohibida
prohibidas
prohibido
prohibidos
prohibir
prohibiu
project
projects
prokaryotic
prokofev
prol
proletariado
proli
proliferacio
prolonga
prolongacio
prolongada
prolongado
promesa
promesas
promete
prometeu
prometheus
prometida
prominente
prominentes
promocio
promocional
promocionar
promontorio
promoter
promotor
promotora
promotores
promove
promoven
promovendo
promover
promoveu
promovida
promovido
promulgacio
promulgada
promulgou
pronome
pronomes
pronto
pronu
pronuncia
pronunciacio
pronunciada
pronunciado
pronunciamento
pronunciar
pronunciou
proof
propagacio
propaganda
propagandi
propelente
properties
propia
propiamente
propias
propiciou
propiedade
propiedades
propietaria
propietario
propietarios
propio
propios
propo
propon
propor
proporcio
proporciona
proporcionaba
proporcionada
proporcional
proporcionalmente
proporcionan
proporcionando
proporcionar
proporcionaron
proporcionou
proposal
proposicio
proposta
propostas
proposto
propostos
propu
propulsio
propun
propuxe
propuxeron
propuxo
prosa
proseguir
proseguiu
prosperar
prosperidade
prosperou
prost
prostate
prostitucio
prostituta
prostitutas
protagonismo
protagonista
protagonistas
protagonizada
protagonizado
protagonizar
protagonizou
protease
proteases
proteccio
protection
protector
protectora
protectorado
protectores
protei
proteica
proteicas
proteico
proteicos
protein
proteins
proteo
protesta
protestante
protestantes
protestantismo
protestas
protexe
protexen
protexer
protexerse
protexi
protexida
protexidas
protexido
protexidos
protistas
proto
protoaustronesio
protocol
protocolo
protocolos
protoeslavo
protoindoeuropeo
proton
prototipo
prototipos
protoxerma
protozoos
proust
prove
provedor
provedores
proveito
proven
provence
proveniente
provenientes
provenza
provenzal
prover
providence
providencia
provin
province
provincia
provinciais
provincial
provincias
provisio
provisional
provisionalmente
provoca
provocada
provocadas
provocado
provocados
provocan
provocando
provocar
provocaron
provocou
proxeccio
proxecta
proxectada
proxectado
proxectar
proxecti
proxecto
proxectos
proxenitor
proxenitores
proxesterona
proximal
proximidade
proximidades
proyecto
prudencio
prudente
prunus
prusia
prusiana
prusiano
pryce
ps
psa
psc
psdeg
pse
pseudo
pseudomonas
psg
psi
psicana
psico
psicode
psicolo
psicoloxi
pside
psidos
psiquia
psiquiatra
psiquiatri
psoe
psori
psula
psulas
psychiatry
psychology
pt
ptase
ptdins
ptero
pteros
ptica
pticas
ptico
pticos
ptido
ptidos
ptiles
ptima
ptimo
ptolomeo
pts
pu
pub
pubchem
puberdade
publi
public
publica
publicaba
publicacio
publicaciones
publicada
publicadas
publicado
publicados
publicamente
publican
publicando
publicar
publicara
publicaron
publicarse
publication
publications
publicidade
publicitaria
publicitario
publicitarios
publico
publicou
publicouse
publio
publique
published
publisher
publishers
publishing
pubmed
puccini
puebla
pueblo
pueblos
puede
puente
puerta
puerto
puga
puglia
pui
puidera
puideran
puideron
puidese
puidesen
puido
puig
puigdemont
pujol
pula
pulas
pulitzer
pulmo
pulmonar
pulmonares
pulo
pulos
pulso
pulsos
puma
pumpkins
pun
punch
punk
punta
puntas
punteiro
punto
puntos
puntuacio
puntuais
puntual
pupa
pura
puramente
puras
pure
pureza
purificacio
purification
puro
puros
purple
put
putin
putnam
puxe
puxera
puxeron
puxo
pv
pw
px
pxom
pylori
pyrenaica
python
q
qatar
qi
qin
qing
qquad
qu
qua
quad
qualifying
quality
quando
quantitative
quantum
quarter
quarterly
quatre
que
quebec
quebra
quecemento
quechua
queda
quedaba
quedaban
quedan
quedando
quedar
quedara
quedari
quedaron
quedase
quede
queden
quedo
quedou
queen
queens
queensland
queer
queima
queimada
queimado
queimaduras
queimar
queipo
queira
queixa
queixas
queixo
queixos
quel
quen
quenda
quendas
quenlla
quenta
quentar
quente
quentes
quentin
quer
quercus
quere
queremos
queren
querer
queres
queri
querida
querido
quero
quesada
quest
question
questions
quevedo
quez
qui
quick
quico
quida
quido
quidos
quie
quien
quiere
quiero
quiet
quijote
quiles
quilla
quilo
quilogramos
quilome
quilos
quimera
quimicamente
quimioterapia
quin
quina
quinas
quinase
quinases
quince
quincenal
quinn
quinta
quintana
quintanilla
quintas
quinteiro
quintela
quinteto
quinto
quioto
quique
quiro
quiroga
quistes
quita
quitar
quito
quixeron
quixese
quixo
quixote
quizais
quo
r
ra
raa
raba
raban
rabbit
rabe
rabes
rabia
rabino
rabinowitch
rabo
rabun
rac
race
races
racha
rachel
raciais
racial
racing
racionais
racional
racionalismo
racismo
rad
rada
radar
radcliffe
radiacio
radiais
radial
radiation
radica
radicais
radical
radicalmente
radio
radioactividade
radioactivo
radioactivos
radiodifusio
radiofo
radiohead
radios
radioterapia
rae
raf
rafa
rafael
rafinesque
rag
rage
rahman
rai
raia
raias
railway
raimundo
rain
rainbow
rainer
raio
raios
rairiz
rajoy
ral
rale
ralf
ralle
rally
rallye
rallys
ralph
ram
rama
ramal
ramallosa
ramas
rambla
rami
ramificacio
ramil
ramira
ramiro
ramo
ramon
ramona
ramos
rampla
ramse
ramui
ran
rana
rancho
rand
randall
rande
randi
randolph
random
randy
range
ranger
rangers
rangle
rango
rangos
ranking
rankings
rano
ranse
ranunculus
rao
raoul
rap
rapa
rapaces
rapaz
rapaza
rapazas
rapeiro
raphael
rapid
rapidamente
rapidez
raposo
raposos
raptors
raquel
rara
raramente
raras
rard
rare
raro
raros
ras
rase
rashid
rasmussen
rastro
rat
rata
ratas
rate
rates
ratificacio
ratificado
ratificou
ratings
ration
rato
ratos
rats
rau
raven
raw
rax
ray
raymond
rayo
raza
razas
razo
razoable
razoamento
rb
rbara
rbaro
rbaros
rber
rberes
rbita
rbitas
rbitro
rbitros
rbol
rbore
rbores
rburgring
rc
rca
rcase
rcd
rcel
rcena
rcere
rcito
rcitos
rcores
rcules
rculo
rculos
rd
rda
rdase
rdez
rdica
rdicas
rdico
rdicos
rdoba
re
rea
reaccio
reacciona
reaccionan
reaccionar
reaction
reactions
reactivas
reactivo
reactivos
reactor
reactores
read
reader
reading
ready
reagan
reais
real
reales
realeza
reali
realice
realidad
realidade
realidades
realismo
realista
realistas
reality
realiza
realizaba
realizaban
realizacio
realizada
realizadas
realizado
realizador
realizados
realizan
realizando
realizar
realizara
realizari
realizaron
realizarse
realizou
realizouse
really
realmente
reapareceu
reas
reason
rebautizada
rebautizado
rebeca
rebecca
rebel
rebela
rebelde
rebeldes
rebeldi
rebelio
reboredo
rebotes
rec
recadacio
recadar
recadou
recaeu
receita
receitas
recensio
recent
recente
recentemente
recentes
recepcio
receptor
receptores
receptors
recesio
rechamante
rechamantes
recheo
recherche
recherches
reci
recibe
reciben
recibi
recibida
recibidas
recibido
recibidos
recibindo
recibir
recibira
recibiri
recibiron
recibiu
reciclaxe
recinto
recintos
recipiente
recipientes
recipients
recitais
recital
reclama
reclamaba
reclamacio
reclamado
reclamando
reclamar
reclamou
reclui
reclusio
reco
recognition
recoleccio
recolle
recollen
recollendo
recoller
recolleu
recolli
recollida
recollidas
recollido
recollidos
recombinacio
recombinant
recombinante
recombination
recome
recomenda
recomendacio
recomendado
recomendou
recommendations
recompensa
recompilacio
recompilatorio
recon
reconciliacio
reconquista
reconstrucio
reconstruction
reconstrui
reconto
recopa
record
recorda
recordar
recording
recordings
recordo
recordos
records
recorre
recorrente
recorrentes
recorrer
recorreu
recortes
recovery
recreacio
recreativa
recreativo
recreo
recrutado
recrutamento
recrutar
recta
rectangular
rectangulares
rectas
recto
rectos
recubrimento
recuerdos
recupera
recuperacio
recuperada
recuperado
recuperados
recuperando
recuperar
recuperaron
recuperarse
recuperou
recuperouse
recurso
recursos
red
redaccio
redactado
redactar
redactor
redactores
redactou
rede
redencio
redes
redesen
redonda
redondas
redondeada
redondela
redondo
redor
redox
redu
reduce
reducen
reduci
reducida
reducidas
reducido
reducidos
reducindo
reducio
reducir
reduciron
reduciu
reduciuse
reduction
redundantes
redutase
redutor
reed
reeder
reedicio
reeditada
reeditado
reef
reeleccio
reelixido
reentrada
reentrou
rees
reestruturacio
reeves
ref
refe
reference
referencia
referencias
referendo
referente
referentes
referi
referida
referidas
referido
referidos
referir
referirnos
referirse
referiuse
refi
refinado
refire
refiren
reflecti
reflectida
reflectido
reflections
reflectir
reflexio
reflexo
reflexos
refli
reflicte
reflicten
reform
reforma
reformada
reformado
reformar
reformas
reformista
reforza
reforzada
reforzado
reforzar
reforzo
reforzos
reforzou
refra
refraccio
refraneiro
refrixeracio
refugallos
refuxia
refuxiados
refuxiarse
refuxio
refuxios
refuxiouse
rega
regadi
regalo
regan
regato
regatos
regazzoni
reggae
reggie
reggio
regia
regina
reginald
regio
region
regional
regionalista
regions
regis
register
registry
regnum
rego
regra
regras
regresa
regresan
regresando
regresar
regresaron
regresio
regreso
regresou
regueira
regueiro
regula
regulacio
regulada
reguladas
regulado
regulador
reguladora
reguladoras
reguladores
regulados
regulamento
regulamentos
regulan
regular
regulares
regularidade
regularmente
regulated
regulates
regulation
regulatory
rehabilitacio
rei
reich
reid
reign
reigosa
reilly
reimpresio
reims
reina
reinado
reinados
reinante
reinar
reino
reinos
reinou
reis
reitor
reitoral
reivindica
reivindicacio
reixa
rela
relacio
relaciona
relacionada
relacionadas
relacionado
relacionados
relacionan
relacionar
relacionarse
relaciones
relata
related
relation
relations
relationship
relationships
relativa
relativamente
relativas
relatividade
relativo
relativos
relato
relatorio
relatos
relaxacio
release
released
releases
relevancia
relevante
relevantes
relevo
relevos
religio
religion
religions
religious
reliquias
relixio
relixiosa
relixiosas
relixioso
relixiosos
relo
reloxo
reloxos
remains
remake
remata
rematada
rematadas
rematado
rematados
rematan
rematando
rematar
rematara
rematari
remataron
remate
rematou
remberg
rembrandt
remedio
remedios
remember
remix
remo
remodelacio
remolacha
remonta
remontan
remontar
remota
remotas
remoto
remotos
ren
renacemento
renacentista
renacentistas
renacimiento
renais
renaissance
renal
renania
renato
renault
renda
rendas
rende
rendemento
render
rendeu
rendeuse
rendicio
rene
renfe
rennes
reno
renome
renomeada
renomeado
renova
renovables
renovacio
renovada
renovado
renovar
renovou
rense
renuncia
renunciar
renunciou
reo
reorganizacio
reos
rep
repa
repair
reparacio
reparar
reparti
reparticio
repartidas
repartidos
repartimento
repartir
repentina
repentinamente
repercusio
repertorio
repeticio
repetida
repetidamente
repetidas
repetido
repetidos
repetindo
repetir
repetiu
repi
repite
replicacio
replication
repoboacio
report
reportaxe
reportaxes
reporteiro
reporter
reports
repositorio
reposto
repouso
represalia
represalias
represe
represent
representa
representaba
representaban
representacio
representada
representadas
representado
representados
representan
representando
representante
representantes
representar
representara
representaron
representativa
representativas
representative
representativo
representativos
representou
represio
reprimir
reprint
reprodu
reproduce
reproducen
reproduci
reproducio
reproducir
reproducirse
reproduction
reproductive
reprodutiva
reprodutivo
reprodutor
reprodutora
reprodutoras
reprodutores
reptile
reptiles
repu
repubblica
republic
republicana
republicanas
republicanismo
republicano
republicanos
republics
reputacio
requeixo
requi
requiem
require
required
requiren
requiri
requirida
requirido
requirimento
requirimentos
requirir
requiriu
requisito
requisitos
rer
rerum
res
resaltar
rescatar
rescate
rescue
rese
research
resen
reserva
reservada
reservado
reservas
reserve
reside
residen
residencia
residenciais
residencial
residencias
resident
residente
residentes
residi
residindo
residir
residiu
residuais
residual
residuo
residuos
resina
resistance
resistant
resiste
resistencia
resistencias
resistente
resistentes
resistir
resistiu
resolto
resolucio
resolution
resolve
resolver
resolveu
resonancia
resort
resorte
resource
resources
respecta
respectado
respectando
respectar
respectivamente
respectivas
respectivo
respectivos
respecto
respiracio
respirar
respiratoria
respiratorias
respiratorio
respiratory
responde
responden
responder
responderon
respondeu
respondi
responsa
responsabilidade
responsabilidades
responsable
responsables
response
responses
resposta
respostas
rest
resta
restablecemento
restablecer
restante
restantes
restauracio
restaurada
restaurado
restaurante
restaurantes
restaurar
restaurou
restitui
resto
restos
restricio
restrinxida
restrinxido
result
resulta
resultaba
resultado
resultados
resultan
resultando
resultante
resultantes
resultar
resultari
resultaron
resultou
results
resume
resumen
resumo
resurreccio
ret
retablo
retablos
retagarda
rete
retencio
reter
reti
retina
retinal
retira
retirada
retiradas
retirado
retirados
retirar
retiraron
retirarse
retiro
retirou
retirouse
reto
retoma
retomar
retomou
retorna
retornar
retorno
retornou
retos
retransmisio
retrato
retratos
retrieved
retro
retroalimentacio
retroceder
retroceso
retrospectiva
retrovirus
return
returns
reu
reuni
reunida
reunidas
reunidos
reunificacio
reunio
reunir
reuniron
reunirse
reuniu
reuniuse
reus
reutemann
reuters
rev
revalidou
reve
reveal
revealed
reveals
revela
revelacio
revelado
revelan
revelar
revelaron
revelou
revenge
reverendo
reverse
reversible
reverso
reversos
reverte
reverter
revestimento
review
reviews
revisa
revisada
revisado
revisar
revised
revisio
revision
revisited
revista
revistas
revival
revivir
revolta
revoltas
revolucio
revolucionaria
revolucionarias
revolucionario
revolucionarios
revolution
revolutionary
revue
rex
rexe
rexedor
rexeita
rexeitaba
rexeitada
rexeitado
rexeitados
rexeitamento
rexeitan
rexeitando
rexeitar
rexeitaron
rexeitou
rexemento
rexementos
rexencia
rexeneracio
rexente
rexi
rexio
rexionais
rexional
rexionalismo
rexionalista
rexistra
rexistrada
rexistradas
rexistrado
rexistrados
rexistrar
rexistraron
rexistro
rexistros
rexistrou
rexistrouse
rexurdimento
rey
reyes
reyno
reynolds
rez
reza
reznor
rf
rfc
rfef
rfica
rficas
rg
rgamo
rgano
rganos
rgase
rgen
rgio
rguese
rh
rho
rhode
rhodes
rhododendron
rhys
rhythm
ri
ria
rial
rialp
rianxo
rias
riazor
riba
ribadavia
ribadeo
ribadumia
ribas
ribeira
ribeiras
ribeiro
ribera
ribosa
riboso
ribosoma
ribosomal
ribosomas
ric
rica
ricard
ricardo
ricas
riccardo
ricciardo
rice
rich
richard
richards
richardson
richie
richmond
richter
rick
ricky
rico
ricos
rida
ridas
ride
rider
rides
ridge
ridi
ridley
rido
ridos
rie
riego
riemann
rien
riera
ries
rif
riff
rift
riga
right
rightarrow
rights
rigo
rigor
rigorosa
rigoroso
rigos
ril
riles
riley
rima
rimas
rimskii
rin
rinco
ring
ringleiras
ringo
rings
rinoceronte
rio
riobo
rioja
rios
riot
riotorto
rioxa
rique
riqueza
riquezas
ris
risa
risco
riscos
rise
rising
risk
risso
rita
ritchie
rite
ritmo
ritmos
rito
ritos
ritu
rituais
ritual
riva
rivais
rival
rivalidade
rivas
riveiro
river
rivera
rivero
rivers
rix
rixidez
riz
rj
rk
rl
rm
rmaco
rmacos
rmanse
rmase
rmica
rmicas
rmico
rmicos
rmites
rmore
rms
rmula
rmulas
rn
rna
rnas
rnase
rne
rnea
rnico
ro
roa
road
rob
robbie
robbins
robert
roberto
roberts
robertson
robin
robinson
robles
robo
robot
robots
robson
robusta
robusto
roca
rocas
rocha
rochas
roche
rochester
rochosa
rochosas
rochoso
rochosos
roci
rock
rockefeller
rocket
rockets
rocks
rocky
rococo
rod
roda
rodada
rodado
rodar
rodas
rodaxe
rodea
rodeada
rodeadas
rodeado
rodeados
rodean
rodeando
rodeiro
rodesia
rodgers
rodney
rodolfo
rodoreda
rodou
rodri
rodrigo
rodrigues
rodriguez
roe
roedores
roes
rogelio
roger
rogers
rohan
roi
roig
rois
roja
rojas
rojo
rol
rola
roland
rolda
roldas
role
roles
rolex
rolf
roll
rolling
rolls
rolo
rom
roma
romain
romaine
roman
romana
romanas
romance
romances
romanche
romane
romanesa
romaneses
romani
romania
romanizacio
romano
romanos
romanov
romanticismo
romari
rome
romeo
romero
romeu
rompe
rompen
rompendo
romper
rompeu
ron
rona
ronald
ronaldo
ronas
ronda
rondo
ronlle
ronlles
ronme
ronnie
rono
ronos
ronse
ronsel
ronselle
roo
rookie
rookies
room
roosevelt
root
roots
ropalidia
roque
ros
rosa
rosada
rosado
rosal
rosales
rosali
rosario
rosas
rosberg
rose
rosello
rosen
rosenberg
rosende
rosendo
roses
roseto
roskov
ross
rossi
rossini
rosso
rostro
rostros
rota
rotacio
rotas
rotavirus
roth
rothschild
roto
rotonda
rotor
rotten
rottentomatoes
rotterdam
rotura
roturas
roubar
roubo
roubos
rouco
rouge
rough
round
roupa
roupas
rousseau
route
routes
routesonline
routledge
rover
rovira
row
rowling
rowman
roxerio
roxette
roxo
roy
royal
royale
royce
rozas
rp
rpa
rpatos
rpm
rprete
rpretes
rpura
rquez
rquica
rquico
rquicos
rr
rraga
rrea
rreo
rreos
rrez
rrna
rroco
rroga
rs
rse
rsega
rselle
rsico
rspb
rss
rsssf
rt
rtabro
rtanse
rtaro
rtaros
rtase
rte
rtebras
rtense
rter
rterbuch
rtese
rtex
rtica
rticas
rtice
rtices
rtico
rticos
rtida
rtil
rtiles
rtir
rtires
rtp
rttemberg
rtve
ru
rua
ruanda
rube
rubens
rubi
rubia
rubin
rubio
rubus
ruby
rudolf
rudolph
rudy
rue
rueda
rufus
rugby
rui
ruibal
ruiz
rula
rule
rules
rum
rumbo
rumex
ruminantes
rumor
rumores
run
runciman
runner
running
rupert
rupestre
rupestres
ruptura
rurais
rural
rus
rusa
rusas
rush
rusia
ruso
rusos
russell
russia
russian
russo
ruta
rutas
ruth
rutherford
rutina
rv
rvanse
rvase
rvese
rvi
rvidos
rw
rxica
rxicas
rxico
rxicos
ry
ryan
ryanair
ryder
ryu
rzano
s
sa
saa
saab
saami
saavedra
saba
sabadell
sabana
sabanas
sabe
sabedori
sabela
sabemos
saben
sabendo
saber
sabes
sabi
sabina
sabine
sabino
sabio
sabios
sabor
sabores
sabre
saca
sacado
sacar
sacaron
sacarosa
saccharomyces
sacerdotal
sacerdote
sacerdotes
sachs
saco
sacos
sacou
sacra
sacramento
sacre
sacred
sacrificio
sacrificios
sacro
sad
sada
sade
sadie
sadurnin
sae
saen
safe
safety
saga
sagan
sagas
sagasta
sage
sagrada
sagradas
sagrado
sagrados
sahara
sai
saia
saiba
said
saint
sainte
saints
sainz
sakura
sal
sala
saladino
salamanca
salario
salarios
salas
salazar
salceda
salcedo
saldo
sale
salem
salerno
sales
salgada
salgado
salgueiro
salgueiros
salienta
salientable
salientables
salientan
salientando
salientar
salientou
salina
salinas
salinidade
salisbury
saliut
saliva
salix
salle
sally
salmo
salmon
salmonella
salmos
salne
salo
salome
salomo
salon
salsa
salt
salta
saltar
salto
saltos
saltou
salud
salva
salvacio
salvado
salvador
salvadoren
salvamento
salvar
salvat
salvaterra
salvatore
salvaxe
salvaxes
salve
salvo
salvou
salzburgo
sam
samantha
samba
same
sammy
samo
samoa
samos
sampaio
sampedro
sampson
samuel
samurai
san
sana
sanatorio
sancha
sanchez
sancho
sancio
sancionado
sancristi
sancti
sand
sande
sanders
sanderson
sandia
sandoval
sandra
sandro
sandy
saneamento
sang
sanger
sangre
sangue
sanguenta
sangui
sanidade
sanitaria
sanitarias
sanitario
sanitarios
sanjurjo
sankt
sanmarti
sans
sanse
sant
santa
santalla
santamari
santamarina
santana
santander
santare
santas
sante
santi
santiago
santidade
santillana
santiso
santo
santoral
santos
santuario
santuarios
sanxenxo
sanz
sao
sapiens
sapo
sapos
saqueada
saqueo
sar
sara
sarah
saramago
saraxevo
sarco
sarda
sarden
sardin
sardo
sares
sargadelos
sargatal
sargo
sarja
sarmiento
sarracenos
sarreaus
sarria
sars
sartego
sartre
sarxento
sas
sasa
sase
saskatchewan
sasuke
sata
sate
satellite
satellites
sati
satisfaccio
satisfacer
satisfeito
sativa
sato
saturacio
saturday
saturn
saturno
sau
sauber
saudable
saudade
saudi
saudita
saul
sauna
saunders
sauron
saussure
savage
save
savin
savoia
saw
sawyer
saxo
saxofo
saxon
saxonia
say
says
sb
sc
sca
scala
scale
scar
scara
scaras
scarecrow
scarlett
scena
scene
scha
scheckter
schedule
schiller
schlegel
schleswig
schmidt
schmitt
schneider
scho
scholar
school
schools
schro
schu
schubert
schultz
schumacher
schumann
schuster
schwann
schwartz
schwarz
sci
science
sciences
scientific
scientist
scientists
scn
scoa
score
scotland
scots
scott
scottish
scout
scream
screen
screening
scribner
script
scriptstyle
scuderia
scula
sculas
sculo
sculos
sculpture
sd
sds
se
sea
seabra
seal
sean
seara
search
seareiros
seas
season
seat
seattle
sebastia
sebastian
sec
seca
secado
secar
secas
seccio
secesio
seco
second
secondary
secos
secrecio
secret
secreta
secretari
secretaria
secretariado
secretario
secretarios
secretary
secretas
secretion
secreto
secretos
secrets
section
sector
sectores
secuela
secuelas
secuencia
secuenciacio
secuencias
secuestrado
secuestro
secular
seculares
secundaria
secundarias
secundario
secundarios
secundum
security
sed
seda
sede
sedes
sedimentacio
sedimentarias
sedimentos
see
seed
seen
sefardi
sega
segmento
segmentos
segovia
segre
segredo
segredos
segrega
segregacio
segregada
segregan
segu
segue
seguen
segui
seguida
seguidamente
seguidas
seguido
seguidor
seguidores
seguidos
seguimento
seguindo
seguinte
seguintes
seguir
seguira
seguiri
seguiron
seguiu
segunda
segundas
segundo
segundos
segura
seguramente
seguranza
seguras
seguridad
seguridade
seguro
seguros
sei
seica
seine
seis
seita
seixas
seixo
sel
sela
sele
seleccio
seleccionada
seleccionadas
seleccionado
seleccionador
seleccionados
seleccionar
seleccionou
select
selected
selectina
selection
selectiva
selective
selectivo
selects
self
selle
selo
selos
selva
selvas
selxu
sem
sema
semana
semanais
semanal
semanario
semanas
seme
semella
semellaba
semellan
semellante
semellantes
semellanza
semellanzas
sementar
semente
sementeira
sementes
semestre
semi
semicircular
semicondutores
semifinais
semifinal
seminario
seminarios
semirregular
semos
sempre
sen
sena
senado
senador
senadores
senda
sendeirismo
sendo
senegal
senhora
seni
senior
senlleiras
senna
seno
senra
sens
sensacio
sense
sensi
sensibilidade
sensible
sensibles
senso
sensor
sensores
sensoriais
sensorial
sensu
senta
sentada
sentado
sentados
sentar
sente
senten
sentencia
sentenciado
sentenza
sentenzas
senti
sentido
sentidos
sentimental
sentimento
sentimentos
sentinel
sentir
sentirse
sentiu
sentiuse
sentou
seo
seoane
seos
sep
sepa
separa
separacio
separada
separadamente
separadas
separado
separados
separan
separando
separar
separarse
separou
separouse
sepia
sept
september
septiembre
sepulcro
sepulcros
sepultado
sepultura
sequence
sequences
sequencing
sequera
ser
sera
serafi
serantes
serbia
serbias
serbio
serbios
serbocroata
seren
serena
seres
serge
sergei
sergi
sergio
seri
seria
serial
seriamente
serias
serie
series
serina
serio
serios
sermo
sermos
serna
serotonina
serpe
serpes
serra
serrano
serras
serum
serve
serven
server
servi
service
services
servicio
servicios
servidor
servidores
servidume
servindo
servir
servira
serviri
serviron
serviu
servizo
servizos
servo
servos
serxio
ses
sese
sesenta
sesio
session
sessions
set
sete
setembro
setenta
setentrionais
setentrional
seth
sets
settlement
seu
seuil
seus
seven
seventh
severa
severamente
severas
severino
severo
sevilla
sevillano
sex
sexa
sexan
sexismundo
sexo
sexos
sexta
sexto
sexuais
sexual
sexualidade
sexualmente
seychelles
seymour
sf
sforo
sg
sh
sha
shadow
shadows
shah
shakespeare
shan
shane
shanghai
shannon
shape
shapiro
share
shark
sharks
sharma
sharon
sharp
sharpe
shaw
shawn
she
sheep
sheet
sheffield
sheila
sheldon
shell
shelley
shen
shenzhou
shepard
shepherd
sheppard
sheridan
sheriff
sherlock
sherman
sherwood
shi
shield
shigella
shin
shine
ship
shirley
sho
shock
shooting
shop
shore
short
shot
should
show
shows
shrimp
shu
shuttle
si
sia
sibelius
siberia
sibila
sibley
sic
sica
sicas
sicilia
siciliana
siciliano
sicilias
sico
sicos
sid
sida
side
sidi
sidney
sido
sidos
sidra
sie
siegfried
siemens
siempre
siena
sierra
siete
sifo
siga
siglas
siglo
siglos
sigma
sigmund
sign
signal
signaling
signals
significa
significaba
significacio
significado
significados
significan
significance
significando
significar
significari
significativa
significativamente
significativas
significativo
significativos
significou
signo
signos
signs
sigu
sigue
siit
sikorsky
sil
sila
silence
silencio
silene
silent
siles
silesia
sili
silicio
silk
silleda
silmarillion
silueta
silva
silvar
silveira
silver
silverio
silverstone
silvestre
silvestres
silvia
silvio
sim
sima
simas
simbio
simbiose
simbo
simbolismo
simboliza
simbolizan
simboloxi
sime
simeo
simetri
similar
similares
similitude
similitudes
simios
simmons
simo
simon
simone
simons
simos
simpa
simpati
simpatizantes
simple
simplemente
simples
simplicidade
simplificacio
simplificado
simposio
simpson
simpsons
sims
simulacio
simulta
simultaneamente
sin
sina
sinagoga
sinai
sinais
sinal
sinala
sinalado
sinalan
sinalando
sinalar
sinalaron
sinalizacio
sinalou
sinapse
sinapses
sinatra
sinatura
sinaturas
sinauer
since
sinclair
sindicais
sindical
sindicalismo
sindicalista
sindicato
sindicatos
sine
sinfo
sinfoni
sing
singapore
singapur
singer
singh
single
singles
singular
singulares
singularidade
sinh
siniestro
sinn
sino
sinonimia
sint
sinta
sintagma
sintase
sintaxe
sinte
sintetase
sinteti
sintetiza
sintetizadores
sintetizar
sinxela
sinxelamente
sinxelas
sinxeleza
sinxelo
sinxelos
sio
sioux
sir
siracusa
sire
siri
siria
sirio
sis
sismo
siste
sistema
sistemas
sistematicamente
sister
sisters
sisto
sit
sita
site
sites
sitio
sitios
sito
sitos
sitta
situ
situa
situaba
situacio
situada
situadas
situado
situados
situar
situarse
situation
situou
situouse
six
sixers
sixth
size
sj
sjo
sk
ska
skate
skeletal
ski
skin
skinner
sky
sl
sla
slam
slate
slave
sleep
slipknot
sloan
slow
sm
smad
small
smart
smashing
smetana
smica
smico
smicos
smido
smidos
smith
smithsonian
smo
sn
snake
snakes
snap
snare
snow
snp
snyder
so
soa
soamente
soar
soares
soas
sobe
sober
soberana
soberani
soberano
soberanos
sobor
sobrado
sobral
sobre
sobredose
sobreira
sobremesa
sobrenaturais
sobrenatural
sobrenome
sobresae
sobresaen
sobresai
sobrevive
sobreviven
sobrevivente
sobreviventes
sobrevivir
sobreviviron
sobreviviu
sobrin
sobrino
soc
soccer
soccerway
sochi
socia
sociais
social
socialdemo
sociales
socialismo
socialist
socialista
socialistas
socialmente
socie
sociedad
sociedade
sociedades
societa
societies
society
socio
socioecono
sociolingu
sociolo
socioloxi
socios
socorro
sodes
sodio
sofa
sofi
sofia
sofo
sofos
sofre
sofren
soft
software
sogra
sogro
soia
soidade
soil
soir
soiuz
sol
sola
solana
solano
solar
solares
soldado
soldados
soldier
soldo
sole
solea
soledad
solemne
soler
soli
solicita
solicitando
solicitar
solicitaron
solicitou
solicitude
solicitudes
solid
solidaridad
solidariedade
solin
solista
solistas
solitaria
solitarias
solitario
solitarios
solla
solo
solomon
solos
solpor
solsticio
solta
solteira
solubilidade
soluble
solubles
solucio
solucionar
solution
soluto
solvente
som
soma
somali
somalia
sombra
sombras
sombreiro
sombri
some
somerset
somete
someter
someterse
someteu
something
sometida
sometidas
sometido
sometidos
somos
somoza
somozas
son
sona
sonar
sonata
sonatas
sonda
sondas
soneira
soneto
sonetos
song
songs
sonia
sonic
sonny
sono
sonora
sonoras
sonoro
sonoros
sons
sony
soo
sopa
sophia
sophie
soporta
soportal
soportan
soportar
soporte
soportes
soprano
sor
sorabo
sorbona
sorgo
soria
soriano
soro
sorprendente
sorprendentemente
sorprendeu
sorpresa
sorriso
sorte
sorteo
sos
sosa
sospeita
sospeitas
sospeitoso
sospeitosos
soste
sosten
sostendo
soster
sostible
sostida
sostido
sostin
sostivo
sotavento
sotelo
soterrado
soto
sotomayor
soubo
soul
sound
soundgarden
sounds
soundtrack
source
sources
sous
sousa
soutelo
south
southampton
southeast
southern
southwest
souto
soutomaior
souza
sovie
soviet
soviets
soy
soyuz
sp
spa
space
spain
spanish
spd
special
specialist
speciation
species
specific
specificity
spectrum
spede
spedes
speech
speed
spencer
spera
speras
spero
spider
spiegel
spielberg
spike
spin
spink
spirit
spirulina
splicing
split
spoleto
spora
sporas
sport
sporting
sports
spot
spota
spp
spring
springer
springfield
springs
sprint
spurs
sputnik
spy
sq
sqrt
square
squet
sr
sra
sri
ss
ssa
sseldorf
ssp
st
sta
stability
stable
stade
stadium
staff
stage
stalin
stamford
stamo
stamos
stampa
stan
stand
standard
standards
standing
standings
stanford
stanley
stanse
stanton
staphylococcus
star
stark
starr
stars
start
stas
stase
stat
stata
state
statement
states
station
statistical
statistics
stato
stats
status
stay
ste
steel
stefan
stefano
stein
steiner
stella
stem
stenes
steo
steos
step
stephan
stephanie
stephen
stephens
steps
ster
steres
sterling
stern
steve
steven
stevens
stevenson
stewart
stica
sticas
stico
sticos
still
stilo
stirling
sto
stock
stockholm
stokes
stola
stolo
stolos
stomos
stone
stones
stop
stor
store
storia
stories
storm
story
str
straight
strain
strand
strange
stranger
stranse
strase
strategies
strategy
strato
strauss
stravinskii
stream
streaming
street
strego
streptococcus
stress
strica
strico
strike
string
strofe
stroll
strong
stroud
struct
structural
structure
structures
struggle
sts
stuart
student
students
studi
studies
studio
studios
study
stula
stuma
stumo
stuttgart
style
su
sua
suabia
suahili
suarna
suas
suave
suaves
sub
suba
subcampio
subcampionato
subclase
subcontinente
subconxunto
subdirector
subdivi
subdivisio
subespecie
subespecies
subfamilia
subfamilias
subgrupo
subgrupos
subi
subida
subindo
subir
subiu
subject
sublevacio
sublevados
sublime
sublin
submarina
submarino
submarinos
subministracio
submisio
suborde
subordinado
subordinados
subprefectura
subrexio
subsahariana
subscricio
subsecretario
subseguinte
subsidiaria
subsistencia
subsolo
subsp
substancia
substanciais
substancial
substancialmente
substancias
substantivo
substantivos
substitu
substitucio
substitui
substituto
substrato
substratos
subterra
subti
subtipos
subtitulada
subtitulado
subtropicais
subtropical
subunidade
subunidades
subunit
suburbio
suburbios
subvencio
subxacente
subxe
subxuntivo
success
suce
sucede
sucedendo
suceder
sucedera
sucederon
sucedeu
sucedeuno
sucedi
sucedido
sucesio
sucesivamente
sucesivas
sucesivos
suceso
sucesor
sucesora
sucesores
sucesos
such
sucia
suco
sucos
sucre
sucursal
sud
suda
sudan
sue
sueca
suecia
sueco
suecos
sueiro
suen
sueste
suevo
suevos
suez
suffolk
suficiente
suficientemente
suficientes
sufixo
sufraxio
sufri
sufrido
sufrimento
sufrindo
sufrir
sufrira
sufriron
sufriu
sugar
sui
suicida
suicidarse
suicide
suicidio
suicidouse
suisse
suite
sul
sulfato
sulfu
sulfuro
sullivan
sulta
sultan
sultanato
sum
suma
sumado
sumamente
suman
sumando
sumar
sumas
sumatra
sumeria
sumidoiros
summary
summer
sumo
sumou
sun
sundance
sunday
sunderland
sung
suns
sunshine
suomen
suor
supe
super
supera
superaba
superacio
superada
superado
superan
superando
superar
superaron
supercopa
superfamilia
superfamily
superficiais
superficial
superficie
superficies
superior
superiores
superioridade
superliga
superman
supernova
supero
superorde
superou
superposicio
supersticio
supervisa
supervisar
supervisio
supervisor
supervisou
supervivencia
supervivente
superviventes
suplemento
suplementos
suplente
supo
supon
suponse
supor
suposicio
suposta
supostamente
suposto
supostos
suppiluliumas
suppl
supplement
support
suprema
supremaci
supremo
supresio
suprimir
supun
supuxeron
supuxo
sur
sura
surafricana
surafricano
surame
suramericana
suramericano
surf
surface
surgery
suriname
suroeste
surrealismo
surrealista
surrey
surtees
survey
survival
sus
susa
susan
susana
susceptibilidade
susceptible
susceptibles
suscitou
suso
suspender
suspendeu
suspendida
suspendido
suspensio
sussex
sustenta
sustentabilidade
sustentable
sustentacio
sustento
sutherland
sutil
sutton
suxeita
suxeitas
suxeito
suxeitos
suxeri
suxerindo
suxerir
suxeriron
suxeriu
suxeriuse
suxestio
suxi
suxire
suxiren
suzanne
suzuki
sv
sven
svenska
svensson
sw
swan
sweden
swedish
sweet
swift
swing
swiss
switch
switzerland
sword
sy
sydney
sylloge
sylvester
sylvia
symbols
symphony
symposium
syndrome
synopsis
synthesis
syracuse
syria
syst
system
systema
systematic
systematics
systems
t
ta
tabaco
tabeiro
taberna
table
tables
taboada
taboi
taboleiro
tabu
tac
taca
tacto
tag
tagalo
tahiti
tai
taibo
taifa
tailande
tailandia
taipei
taiwa
taiwan
takahashi
take
takes
taking
tal
talavera
talbot
tale
talent
talento
talentos
tales
tali
taliba
taliban
talk
talking
talks
talla
tallada
talle
taller
talleres
tallo
talo
talos
talvez
tam
taman
tamara
tambie
tambor
tambores
tambre
tame
tamen
tampa
tampere
tampereen
tampo
tampouco
tan
tana
tanaka
tang
tango
taninos
tano
tanos
tanque
tanques
tanse
tanta
tantas
tanto
tantos
tanxente
tanzania
tao
taoi
tap
tapa
tapia
tapo
tar
tara
tarda
tardan
tarde
tardes
tardi
tardou
tarefa
tarefas
tareixa
tarento
targa
target
targeting
targets
tarifa
taro
tarraco
tarragona
tarri
tarsius
tarso
tartaruga
tartarugas
tarxeta
tarxetas
tas
tase
tasmania
tat
tata
tate
tatiana
tato
tau
taurus
tavares
taxa
taxas
taxay
taxi
taxico
taxiquista
taxo
taxon
taxonid
taxono
taxonomi
taxonomic
taxonomy
taxons
taylor
taɾ
tb
tbilisi
tbol
tc
td
tdt
te
tea
teaching
team
teams
teas
teatrais
teatral
teatre
teatro
teatros
teau
tebas
tebras
tech
technical
techniques
technologies
technology
tecido
tecidos
tecla
teclado
teclados
teclista
tecnicamente
tecnolo
tecnologi
tecnoloxi
tecto
ted
tedra
teen
tehera
tei
teijeiro
teira
teis
teito
teitos
teixeira
teixeiro
teixo
tejada
tel
tela
tele
telecinco
telecomunicacio
telefilme
telefo
telefoni
telegraph
telenovela
teleo
teles
telescope
telescopio
telescopios
televisio
television
televisiva
televisivo
tell
tella
tellado
tellados
telle
telmo
telo
tem
tema
temas
temendo
temi
temminck
temo
temor
temos
tempada
tempadas
tempera
temperadas
temperado
temperados
temperamento
temperatura
temperaturas
temperature
tempestade
templarios
temple
templo
templos
tempo
temporada
temporadas
temporais
temporal
temporalmente
tempos
temps
ten
tena
tenda
tendas
tende
tenden
tendencia
tendencias
tendi
tendo
tenente
tenerife
tengo
teni
tenis
tenista
tennessee
tennis
tenor
tenorio
tenreiro
tense
tensio
tenta
tentaba
tentacio
tentan
tentando
tentar
tentaron
tentativa
tentativas
tentou
teo
teobaldo
teodora
teodorico
teodoro
teodosio
teogoni
teolo
teoloxi
teorema
teoremas
teori
teoricamente
ter
tera
teramo
terape
terapia
terapias
terceira
terceiras
terceiro
terceiros
tercer
tercera
terciaria
terciario
teren
terence
teres
teresa
tergal
teri
[...]
