!
"
#
##0
##1
##10
##11
##12
##13
##14
##15
##16
##17
##18
##19
##2
##20
##21
##22
##23
##24
##25
##26
##27
##28
##29
##3
##30
##31
##32
##33
##34
##35
##36
##37
##38
##39
##4
##40
##41
##42
##43
##44
##45
##46
##47
##48
##49
##5
##50
##51
##52
##53
##54
##55
##56
##57
##58
##59
##6
##60
##61
##62
##63
##64
##65
##66
##67
##68
##69
##7
##70
##71
##72
##73
##74
##75
##76
##77
##78
##79
##8
##80
##81
##82
##83
##84
##85
##86
##87
##88
##89
##9
##90
##91
##92
##93
##94
##95
##96
##97
##98
##99
$
%
&
'
(
)
*
+
,
-
.
/
0
00
000
000000
001
002
003
004
005
006
007
008
01
010
02
03
04
05
06
07
08
09
1
10
100
1000
1002
1007
101
1016
102
103
1037
1038
104
105
1054
106
1066
107
1071
108
1080
109
1093
1095
1099
11
110
1100
111
1110
1111
112
1120
1125
1126
1128
113
1130
1135
1137
114
115
1150
1154
1157
116
1160
117
1170
118
1180
1185
1186
1189
119
1190
1191
1194
12
120
1200
1204
1205
121
1212
1214
1215
1216
1217
1218
122
1220
1225
123
1230
124
1240
1248
125
1250
126
1260
1266
127
1270
1274
128
1280
1282
1285
1286
129
1290
13
130
1300
1305
131
132
1320
1325
1328
133
1330
134
1340
1346
1348
135
1350
136
1369
137
1370
1371
138
1380
1383
1385
1386
139
1390
14
140
1400
141
1410
1415
142
1420
1425
143
1430
1431
1435
144
1440
145
1450
1453
1458
146
1460
1467
1469
147
1470
1471
1472
1474
1475
1476
1477
1479
148
1480
1481
1482
1483
1486
1488
149
1490
1492
1493
1494
1495
1496
1497
1498
1499
15
150
1500
1501
1502
1503
1504
1505
1506
1508
1509
151
1510
1511
1512
1513
1514
1515
1516
1517
1519
152
1520
1521
1522
1523
1524
1525
1526
1527
1528
1529
153
1530
1532
1533
1534
1535
1536
1537
1538
1539
154
1540
1541
1542
1543
1545
1547
1548
1549
155
1550
1551
1553
1554
1555
1556
1557
1558
1559
156
1560
1561
1562
1563
1564
1565
1566
1567
1568
1569
157
1570
1571
1572
1573
1574
1575
1576
1577
1578
1579
158
1580
1581
1582
1583
1584
1585
1586
1587
1588
1589
159
1590
1591
1592
1593
1594
1595
1596
1597
1598
1599
16
160
1600
1601
1602
1603
1604
1605
1606
1607
1608
1609
161
1610
1611
1612
1613
1614
1615
1616
1617
1618
1619
162
1620
1621
1622
1623
1624
1625
1626
1627
1628
1629
163
1630
1631
1632
1633
1634
1635
1636
1637
1638
1639
164
1640
1641
1642
1643
1644
1645
1646
1647
1648
1649
165
1650
1651
1652
1653
1654
1655
1656
1657
1658
1659
166
1660
1661
1662
1663
1664
1665
1666
1667
1668
1669
167
1670
1671
1672
1673
1674
1675
1676
1677
1678
1679
168
1680
1681
1682
1683
1684
1685
1686
1687
1688
1689
169
1690
1691
1694
1695
1696
1697
1699
17
170
1700
1701
1702
1703
1704
1705
1706
1707
1708
1709
171
1710
1711
1712
1713
1714
1715
1716
1717
1718
172
1720
1721
1723
1724
1725
1726
1727
1728
1729
173
1730
1731
1732
1733
1734
1735
1736
1737
1738
1739
174
1740
1741
1742
1743
1744
1745
1746
1747
1748
1749
175
1750
1751
1752
1753
1754
1755
1756
1757
1758
1759
176
1760
1761
1762
1763
1764
1765
1766
1767
1768
1769
177
1770
1771
1772
1773
1774
1775
1776
1777
1778
1779
178
1780
1781
1782
1783
1784
1785
1786
1787
1788
1789
179
1790
1791
1792
1793
1794
1795
1796
1797
1798
1799
18
180
1800
1801
1802
1803
1804
1805
1806
1807
1808
1809
181
1810
1811
1812
1813
1814
1815
1816
1817
1818
1819
182
1820
1821
1822
1823
1824
1825
1826
1827
1828
1829
183
1830
1831
1832
1833
1834
1835
1836
1837
1838
1839
184
1840
1841
1842
1843
1844
1845
1846
1847
1848
1849
185
1850
1851
1852
1853
1854
1855
1856
1857
1858
1859
186
1860
1861
1862
1863
1864
1865
1866
1867
1868
1869
187
1870
1871
1872
1873
1874
1875
1876
1877
1878
1879
188
1880
1881
1882
1883
1884
1885
1886
1887
1888
1889
189
1890
1891
1892
1893
1894
1895
1896
1897
1898
1899
19
190
1900
1901
1902
1903
1904
1905
1906
1907
1908
1909
191
1910
1911
1912
1913
1914
1915
1916
1917
1918
1919
192
1920
1921
1922
1923
1924
1925
1926
1927
1928
1929
193
1930
1931
1932
1933
1934
1935
1936
1937
1938
1939
194
1940
1941
1942
1943
1944
1945
1946
1947
1948
1949
195
1950
1951
1952
1953
1954
1955
1956
1957
1958
1959
196
1960
1961
1962
1963
1964
1965
1966
1967
1968
1969
197
1970
1971
1972
1973
1974
1975
1976
1977
1978
1979
198
1980
1981
1982
1983
1984
1985
1986
1987
1988
1989
199
1990
1991
1992
1993
1994
1995
1996
1997
1998
1999
2
20
200
2000
2001
2002
2003
2004
2005
2006
2007
2008
2009
201
2010
2011
2012
2013
2014
2015
2016
2017
2018
2019
202
2020
2021
2022
2023
203
204
205
206
207
208
209
21
210
211
212
213
214
215
216
217
218
219
22
220
221
222
223
224
225
226
227
228
229
23
230
231
232
233
234
235
236
237
238
239
24
240
241
242
243
244
245
246
247
248
249
25
250
2500
25031
251
252
253
254
255
256
257
258
259
26
260
2600
261
262
263
264
265
266
267
268
269
27
270
271
272
273
274
275
276
277
278
279
28
280
281
282
283
284
285
286
287
288
289
29
290
291
2913
292
293
294
295
296
297
298
299
3
30
300
3000
301
302
303
304
305
306
307
308
309
31
310
311
312
313
314
315
316
317
318
319
32
320
321
322
323
324
325
326
327
328
329
33
330
331
332
333
334
335
336
337
338
339
34
340
341
342
343
344
345
346
347
348
349
35
350
3500
351
352
353
354
355
356
357
358
359
36
360
361
362
363
364
365
366
367
368
369
37
370
371
372
373
374
375
376
377
378
379
38
380
381
382
383
384
385
386
387
388
389
39
390
391
392
393
394
395
396
397
398
399
4
40
400
4000
401
402
403
404
405
406
407
408
409
41
410
411
412
413
414
415
416
417
418
419
42
420
421
4217
422
423
424
425
426
427
428
429
43
430
431
432
433
434
435
436
437
438
439
44
440
441
442
443
444
445
446
447
448
449
45
450
451
452
453
454
455
456
457
458
459
46
460
461
462
463
464
465
466
467
468
469
47
470
471
472
473
474
475
476
477
479
48
480
481
482
483
484
485
486
487
488
489
49
490
491
492
493
494
495
496
498
499
5
50
500
5000
501
502
503
504
505
506
507
508
509
51
510
511
512
513
514
515
516
517
518
519
52
520
521
522
523
524
525
526
527
529
53
530
531
532
533
534
535
536
537
538
539
54
540
541
542
543
544
545
546
547
548
549
55
550
551
552
553
555
558
559
56
560
561
562
565
568
569
57
570
571
572
574
575
576
579
58
580
582
583
584
585
586
588
589
59
590
592
593
595
596
597
599
6
60
600
6000
601
602
603
604
605
606
607
609
61
610
611
612
613
614
615
616
618
62
620
621
624
625
628
629
63
630
631
632
633
634
635
636
638
639
64
640
641
642
65
650
651
653
654
655
66
660
661
662
664
668
67
670
672
674
675
679
68
680
683
685
686
687
69
690
691
695
7
70
700
7000
702
705
706
707
71
710
711
712
713
714
715
7154
716
717
718
72
720
722
725
726
727
73
730
731
732
737
74
740
741
747
748
7492
75
750
7507
752
756
757
76
760
767
768
77
770
774
777
78
780
787
79
796
8
80
800
8000
8018
802
81
814
82
820
8221
824
8288
83
830
8302
839
84
840
842
843
85
850
85170
855
85653
86
860
865
866
867
87
870
871
8733
877
879
88
880
89
9
90
900
91
910
911
912
9121
9151
92
920
924
925
93
930
936
939
94
95
950
956
958
96
960
962
963
968
97
970
972
978
9782
98
980
9865
987
99
990
9914
995
996
997
999
:
;
<
=
>
?
@
\
^
_
`
a
aa
aaa
aaron
ab
aba
abad
abade
abades
abadesa
abadi
abaixo
aban
abanca
abandona
abandonada
abandonadas
abandonado
abandonados
abandonan
abandonando
abandonar
abandonara
abandonaron
abandonase
abandono
abandonou
abano
abarca
abarcaba
abarcan
abas
abastecemento
abba
abbas
abbey
abbott
abbr
abc
abd
abdicacio
abdicar
abdicou
abdome
abdominal
abdul
abdullah
abe
abegondo
abeiro
abel
abelardo
abeleda
abella
abellas
abelleira
aberdeen
aberta
abertamente
abertas
aberto
abertos
abertura
aberturas
abertzale
abies
abismo
abkhazia
abolicio
abolida
abonda
abondo
abondosa
abondosas
aborda
abordar
aborixe
aborixes
aborto
abortos
about
above
abra
abraham
abrams
abrangue
abranguen
abrangui
abre
abreconcertos
abren
abrente
abreu
abreviacio
abreviada
abreviado
abreviatura
abreviaturas
abri
abrigo
abril
abrindo
abrir
abriron
abrirse
abriu
abriuse
abs
absoluta
absolutamente
absolutas
absolutismo
absolutista
absoluto
absorbe
absorben
absorber
absorbida
absorbido
absorcio
abstencio
abstinencia
abstraccio
abstract
abstracta
abstracto
abstractos
absurdo
abu
abunda
abundan
abundancia
abundante
abundantes
abuso
abusos
ac
aca
acaba
acababa
acabada
acabado
acabados
acabamento
acaban
acabando
acabar
acabara
acabari
acabaron
acabou
acacia
acad
acada
acadado
acadados
acadan
acadando
acadar
acadara
acadari
acadaron
acade
academia
academias
academic
academy
acadio
acadou
acaia
acas
acb
accademia
acce
accede
acceder
accedeu
accesi
accesibilidade
accesible
accesibles
acceso
accesorios
accesos
access
accessed
accidentado
accidental
accidentalmente
accidente
accidentes
accio
accionista
accionistas
account
ace
acea
aceiro
aceite
aceites
aceleracio
acelerado
acelerador
acelerar
acento
aceos
acepcio
acepta
aceptaba
aceptable
aceptacio
aceptada
aceptadas
aceptado
aceptados
aceptan
aceptando
aceptar
aceptaron
aceptor
aceptou
acerbaixa
acerca
aceredo
acetato
acetil
acetilacio
acetilcolina
acevedo
acha
achaba
achado
achados
achar
achas
ache
achega
achegada
achegadas
achegado
achegados
achegamento
achegan
achegando
achegar
achegarse
achegas
achegou
achegouse
acid
acidez
acids
acin
acio
acios
aclamacio
aclamado
aclarar
aco
acode
acoden
acoirazado
acoirazados
acolle
acoller
acolleu
acollida
acollido
acomodada
acomodar
acompan
aconsella
acontece
acontecemento
acontecementos
acontecer
aconteceu
acontecido
acoplamento
acorda
acordaron
acorde
acordeo
acordes
acordo
acordos
acordou
acordouse
acos
acoso
acosta
acostuma
acostuman
acoti
acre
acreditado
acreditar
acro
across
act
acta
actas
actes
acti
actina
action
actitude
actitudes
activa
activacio
activada
activadas
activado
activador
activados
activamente
activan
activar
activas
active
actividade
actividades
activismo
activista
activistas
activity
activo
activos
acto
actor
actores
actos
actrices
actriz
actu
actuaba
actuaban
actuacio
actuais
actual
actualidade
actualizacio
actualizada
actualizado
actualizados
actualmente
actuando
actuar
actuaron
actuou
acu
acua
acuarela
acuario
acuarios
acudi
acudir
acudiron
acudiu
acueduto
acui
acuicultura
acumu
acumula
acumulacio
acumulan
acumular
acun
acuosa
acusa
acusacio
acusada
acusado
acusados
acusou
ad
ada
adam
adams
adapta
adaptacio
adaptada
adaptadas
adaptado
adaptados
adaptar
adaptarse
adaptativa
adaptou
adas
add
addclass
ade
adecuada
adecuadamente
adecuadas
adecuado
adecuados
adega
adegas
adela
adelaida
adelaide
ademais
adenina
adentro
adeptos
ades
adestra
adestrado
adestrador
adestradores
adestrados
adestramento
adestramentos
adestrar
adestrou
adeus
adhesio
adi
adiantado
adiantar
adiante
adiantou
adica
adicada
adicado
adicados
adiccio
adicio
adicionais
adicional
adicionalmente
adicou
adicouse
adif
adin
adio
adiposo
aditivo
aditivos
adivin
adler
administra
administracio
administrada
administrado
administrador
administradores
administrar
administration
administrativa
administrativamente
administrativas
administrativo
administrativos
admiracio
admirador
admisio
admite
admitida
admitido
admitir
admitiu
adn
ado
adobe
adoita
adoitaba
adoitaban
adoitan
adoito
adolescencia
adolescente
adolescentes
adolf
adolfo
adopcio
adopta
adoptada
adoptadas
adoptado
adoptan
adoptando
adoptar
adoptaron
adoptivo
adoptou
adoptouse
ador
adora
adoracio
adores
adorno
adornos
ados
adp
adquire
adquiren
adquirida
adquiridas
adquirido
adquiridos
adquirindo
adquirir
adquirira
adquiriron
adquiriu
adquisicio
adria
adrian
adriana
adriano
adro
adscrito
adscritos
adult
adulta
adultas
adulterio
adulto
adultos
advance
advanced
adventure
adventures
adversario
adversarios
adversas
adversos
advertencia
advertir
advertiu
advocacio
adw
adxacente
adxacentes
adxectivo
adxectivos
adxunta
adxunto
ae
aelg
aero
aerodina
aerodramus
aeroespacial
aerolin
aerona
aeronave
aeronaves
aeroporto
aeroportos
aerospace
aeruginosa
aethelberht
af
afa
afasta
afastada
afastadas
afastado
afastados
afastamento
afastarse
afc
afeccio
afeccionado
afeccionados
afecta
afectacio
afectada
afectadas
afectado
afectados
afectan
afectando
afectar
afectaron
afecto
afectou
affairs
afga
afganista
afi
afiliacio
afiliado
afiliados
afiliouse
afinacio
afinidade
afinidades
afirma
afirmaba
afirmaban
afirmacio
afirman
afirmando
afirmar
afirmaron
afirmou
afluencia
afluente
afluentes
afonso
aforas
aforrar
aforro
aforros
africa
african
africana
africanas
africano
africanos
afro
afroamericana
afroamericanos
afrodita
afrontar
after
afundido
afundimento
ag
aga
again
against
agal
agameno
agarda
agardaba
agardando
agardar
agaricus
agarosa
agarre
agasallo
agasallos
age
agena
agency
ages
aglomeracio
aglutinantes
agnes
ago
agochado
agolada
agoni
agora
agostin
agosto
agra
agrada
agradable
agradecemento
agraria
agrarias
agrario
agrarios
agrarismo
agrarista
agre
agregacio
agregado
agregados
agresio
agresiva
agresividade
agresivo
agresivos
agri
agricultores
agricultura
agriculture
agripa
agrisada
agro
agru
agrupa
agrupacio
agrupadas
agrupados
agrupamento
agrupan
agrupar
agu
agua
aguas
aguda
agudas
agudo
agudos
aguia
aguiar
aguias
aguilar
aguirre
agulla
agullas
agusti
ah
ahmad
ahmed
ahora
ai
aichi
aida
aime
ain
ainu
air
aira
airbus
aircraft
aire
aires
airlines
airport
airways
ais
aise
aix
aj
ajax
ak
akademie
akal
akbar
aki
akira
al
ala
alabama
alacant
alain
alameda
alan
alanina
alar
alarco
alarma
alas
alasca
alaska
alave
alba
albacete
albane
albanesa
albaneses
albania
albany
albarin
albatros
albedo
alberga
albergaba
albergan
albergar
albergou
albergue
albert
alberta
alberte
alberti
alberto
albino
albo
alborada
alboreto
albrecht
album
albums
albuquerque
alca
alcala
alcalde
alcaldes
alcaldesa
alcaldi
alcaloides
alcance
alcanos
alcanza
alcanzado
alcanzan
alcanzando
alcanzar
alcanzaron
alcanzou
alcibi
alco
alcoho
alcohois
alcohol
alcoholismo
alcol
alcorco
alcumado
alcume
alcumes
alda
aldea
aldeas
aldehido
aldo
ale
aleatoria
aleatorias
aleatorio
alegacio
alegando
alego
alegori
alegre
alegri
aleixo
alejandro
aleksandr
aleksei
alelo
alelos
alema
aleman
alenc
alento
alepo
alero
alerta
alesi
alessandro
aleta
aletas
aleutianas
alevi
alex
alexander
alexandra
alexandre
alexandri
alexis
alfa
alfabe
alfabetizacio
alfabeto
alfabetos
alfaguara
alfaro
alfe
alfonso
alfoz
alfred
alfredo
alga
algarve
algas
algo
algodo
algoritmo
algoritmos
algu
algue
algunas
algunha
algunhas
algunos
alhambra
ali
alia
aliada
aliadas
aliado
aliados
alianza
alianzas
alias
aliaxe
aliaxes
alicante
alice
alicerces
alicia
alien
aliga
align
alignbars
alime
alimenta
alimentacio
alimentado
alimentados
alimentan
alimentar
alimentaria
alimentarias
alimentario
alimentarios
alimentarse
alimenticios
alimento
alimentos
alin
aliouse
alison
alive
aliviar
alivio
all
alla
allan
allariz
alle
allea
alleas
allegro
allen
allende
alleo
alleos
aller
alles
alliance
allison
allmovie
allmusic
allo
alma
almace
almacena
almacenada
almacenado
almacenados
almacenamento
almacenan
almacenar
almagro
almanaque
almas
almeida
almeri
almirantado
almirante
almodo
almora
almorzo
alo
aloe
alone
alongada
alongadas
alongado
alonso
aloste
aloxamento
alpes
alpha
alpheus
alphonse
alpina
alpine
alpino
alquenos
alquimia
als
alsacia
also
alt
alta
altai
altamente
altamira
altar
altares
altas
alte
alter
altera
alteracio
alterada
alterado
alteran
alterar
alterna
alternancia
alternando
alternas
alternativa
alternativamente
alternativas
alternative
alternativo
alternativos
alti
altime
altiplano
altitude
altitudes
alto
altos
altrui
altura
alturas
alu
alude
aludindo
alugueiro
aluminio
alumna
alumnado
alumnas
alumno
alumnos
alusio
alvarellos
alvarin
alve
alveolar
alves
alvim
always
alxe
alxeciras
alxer
alxeria
alza
alzamento
alzhe
alzheimer
am
ama
amable
amada
amadeo
amadeus
amado
amador
amais
amalia
aman
amancio
amanda
amandry
amanita
amante
amantes
amar
amaral
amarante
amarela
amarelada
amarelas
amarelo
amarelos
amarga
amargo
amaro
amazo
amazon
amazonas
amb
ambas
ambi
ambicio
ambicioso
ambientada
ambientadas
ambientado
ambientados
ambientais
ambiental
ambiente
ambientes
ambigu
ambigua
ambos
ambrosio
ame
ameaza
ameazaba
ameazada
ameazadas
ameazado
ameazados
ameazas
ameazou
ameixa
ameixas
amelia
amencer
ament
amento
amentos
america
american
americana
americanas
americano
americanos
amerindios
ames
ami
amida
amido
amiens
amiga
amigable
amigables
amigas
amigo
amigos
amiloide
amin
amina
aminas
amino
aminoa
amir
amizade
amizades
amnisti
amo
amoeiro
amon
among
amoni
amonio
amor
amore
amores
amorosa
amoroso
amos
amosa
amosaba
amosaban
amosan
amosando
amosar
amosaron
amosou
amour
amp
amparo
ampc
amphibians
ampla
amplamente
amplas
ampli
amplia
ampliacio
ampliada
ampliado
ampliando
ampliar
amplificacio
amplificador
amplificadores
ampliou
ampliouse
amplitude
amplo
amplos
amsterdam
amurallado
amy
an
ana
anaco
anacos
anaero
anaerobia
anaerobios
anagrama
anais
anal
anales
anali
analista
analistas
analiza
analizar
analizou
analo
analoxi
analxe
analysis
anana
ananas
anano
ananos
anarqui
anarquismo
anarquista
anarquistas
anas
anastasia
anastasio
anato
anatolia
anatomi
anatomista
anatomy
anaya
anc
ancara
ancares
ancestrais
ancestral
ancha
anchas
ancho
anchor
anchura
ancia
ancient
ancona
and
anda
andaina
andaluci
andalus
andaluz
andaluza
andar
andares
anders
andersen
anderson
andes
andina
ando
andorin
andorra
andrade
andre
andrea
andreas
andrei
andretti
andreu
andrew
andrews
andro
android
andy
ane
aneis
anel
anemia
anestesia
anexa
anexio
anexionada
anexo
anexos
anfibio
anfibios
anfiteatro
anfitrio
anfitrioa
ange
angel
angela
angeles
angelo
angels
angers
angle
anglia
anglicana
anglo
anglos
anglosaxo
anglosaxoa
angola
angui
anguis
angular
angus
angustia
ani
anima
animacio
animada
animado
animados
animais
animal
animales
animals
animation
anime
animou
anin
anio
anita
aniversario
anjou
anlle
anllo
ann
anna
annales
annals
anne
annette
anni
annie
anniversary
anno
annotated
annual
ano
anomali
anormal
anormalidades
anos
anotacio
anotador
anotados
anotando
anotar
another
anotou
anova
anque
ans
anse
anselmo
anseriformes
ansiedade
ant
anta
antagonista
antagonistas
antas
ante
antebrazo
antecedente
antecedentes
antecesor
antecesores
antela
antelo
antena
antenas
antepasado
antepasados
antequera
anterior
anteriores
anterioridade
anteriormente
antes
anthology
anthony
anti
antiae
antibio
anticorpo
anticorpos
antifascista
antifranquista
antifranquistas
antiga
antigamente
antigas
antigo
antigos
antigu
antigua
antiguo
antillas
antioqui
antioquia
antioxidantes
antipapa
antiquity
antisemita
antisemitismo
antixe
anto
antoine
antoli
antologi
antologia
antoloxi
anton
antoni
antonia
antonieta
antonino
antonio
antonov
antropo
antropolo
antropoloxi
antroponimia
antuerpen
anu
anuais
anual
anualmente
anuario
anulacio
anular
anuncia
anunciaba
anunciacio
anunciada
anunciado
anunciando
anunciar
anunciaron
anuncio
anuncios
anunciou
anunciouse
anverso
anversos
anxiospermas
anxiotensina
anxioxe
anxo
anxos
any
anza
ao
aos
ap
apa
apache
apaixonado
apan
aparato
aparatos
aparcadoiro
apareamento
aparearse
aparece
aparecen
aparecendo
aparecer
aparecera
apareceri
apareceron
apareceu
apareci
aparecida
aparecido
aparello
aparellos
aparencia
aparente
aparentemente
apareza
aparicio
apartado
apartados
apartamento
apartamentos
apartheid
ape
apelacio
apelido
apelidos
apenas
apertura
apetito
apg
api
apical
apis
apli
aplica
aplicable
aplicacio
aplicada
aplicadas
aplicado
aplicados
aplican
aplicando
aplicar
aplicarse
aplicou
aplicouse
apo
apocalipse
apodera
apoderarse
apoderouse
apoia
apoiaba
apoiaban
apoiada
apoiadas
apoiado
apoiados
apoian
apoiando
apoiar
apoiaron
apoio
apoios
apoiou
apollo
apolo
apolodoro
apoptose
aposta
apostas
aposto
apoxeo
app
apple
application
applications
applied
approach
apr
apre
aprecia
apreciacio
apreciada
apreciado
apreciar
aprecio
aprende
aprendendo
aprender
aprendeu
aprendiz
aprendizaxe
april
aproba
aprobacio
aprobada
aprobadas
aprobado
aprobados
aprobar
aprobaron
aprobou
aprobouse
apropiada
apropiado
apropiados
aproveita
aproveitamento
aproveitan
aproveitando
aproveitar
aproveitaron
aproveitou
aproxima
aproximacio
aproximada
aproximadamente
aproximado
apta
apto
apunta
apuntado
apuntan
apuntando
apuntes
aquarium
aquel
aquela
aquelas
aqueles
aqueme
aqui
aquila
aquiles
aquilino
aquilo
aquino
aquisgra
aquitania
ar
ara
arab
arabia
arabidopsis
arado
arago
aragone
aragonesa
aragoneses
arame
arameo
aran
arana
aranda
aranga
aranjuez
araquido
arau
araujo
arbitraxe
arbo
arbor
arbusto
arbustos
arc
arca
arcade
arcadia
arcadio
arcaica
arcaico
arcansas
arcanxo
arce
arcebispado
arcebispo
arcebispos
arch
archaea
archaeological
archaeology
arche
archer
archibald
architecture
archive
archives
archivo
arciprestado
arco
arcos
arctic
arda
arde
ardente
arduino
are
area
areal
areas
arena
arenal
arenaria
arenas
arendt
areosos
ares
aresta
arg
arga
argentina
argentino
argo
argos
args
argu
argument
argumenta
argumentacio
argumentan
argumentando
argumentaron
argumento
argumentos
argumentou
arguments
ari
aria
ariadna
ariane
arias
ariel
ariki
aristo
aristocra
aristocracia
aristote
aritme
arizona
arkive
arles
arlington
arm
arma
armada
armadas
armado
armados
armadura
armaduras
armamento
armand
armando
armas
armazo
arme
armenia
armenio
armenios
armesto
armin
armisticio
armorial
arms
armstrong
army
arn
arnm
arnoia
arnold
arnoux
arnr
arns
arnt
aro
arol
aroma
aron
arosa
around
arousa
arp
arpa
arqueas
arqueiros
arqueo
arqueolo
arqueologi
arqueoloxi
arqui
arquidiocese
arquiduque
arquipe
arquitecto
arquitectos
arquitectura
arquitecturas
arquivado
arquivo
arquivos
arranque
arranxar
arranxo
arranxos
arras
arrasou
arrastra
arrastre
array
arrecife
arrecifes
arredondada
arredor
arredores
arrefriado
arrefriamento
arrepentimento
arrestado
arrestados
arresto
arriba
arroio
arrows
arroyo
arroz
ars
arse
arsenal
arsenio
art
arte
artefacto
artefactos
arteixo
artemisa
artemisia
arteria
arterial
arterias
artes
artesa
artesanal
artesani
arthur
arti
article
articles
articulacio
articular
artificiais
artificial
artificialmente
artigo
artigos
artillari
artilleri
artioda
artist
artista
artistas
artisticamente
artists
artois
artrite
artro
arts
artu
artur
arturo
aruba
arxentina
arxentino
arxentinos
arxila
arxinina
arxiv
arzawa
arzu
as
asa
asalto
asaltos
asasina
asasinada
asasinado
asasinados
asasinar
asasinato
asasinatos
asasino
asasinos
asasinou
ascari
ascende
ascendencia
ascendendo
ascendente
ascender
ascenderon
ascendeu
ascendi
ascendido
ascensio
ascenso
ascensor
ascensos
asco
ase
asedio
asegura
aseguraba
aseguran
asegurando
asegurar
asegurarse
asegurou
asemade
asemblea
asembleas
aseme
asemella
asen
asenta
asentada
asentado
asentados
asentamento
asentamentos
asentarse
asento
asentos
asentouse
asesor
asesora
asesoramento
asesores
asexual
asfalto
ash
ashley
ashmolean
asi
asia
asian
asigna
asignacio
asignada
asignado
asignados
asignar
asilo
asime
asimilacio
asina
asinada
asinado
asinados
asinando
asinantes
asinar
asinara
asinaron
asinou
asinouse
asins
asiria
asirio
asirios
asistencia
asistencias
asistente
asistentes
asisti
asistido
asistir
asistiron
asistiu
asma
aso
asobal
asocia
asociacio
asociada
asociadas
asociado
asociados
asociarse
asociouse
asorey
asp
aspasia
aspecto
aspectos
aspects
aspiracio
aspirante
aspirantes
assessment
assi
associac
associated
associates
association
aste
asteraceae
asteroide
asteroides
asti
aston
astorga
astro
astrofi
astroloxi
astrona
astronauta
astronautas
astrono
astronomi
astronomical
astronomy
astros
asturiana
asturiano
asturianos
asturias
asu
asubi
asume
asumi
asumindo
asumir
asumiron
asumiu
asuncio
asunto
asuntos
at
ata
ataca
atacada
atacado
atacados
atacan
atacando
atacante
atacantes
atacar
atacaron
atacou
atalaia
ataque
ataques
atari
atatu
atau
ate
atei
atenas
atencio
atende
atendendo
atender
atenea
ateneo
ateniense
atenienses
atentado
atentados
ateo
aterrar
aterraxe
aterrou
athens
athletic
ati
atila
atinxe
atla
atlanta
atlantic
atlantis
atlas
atle
atleta
atletas
atletismo
atlon
atm
atmosfe
atmosfera
ato
atocha
atois
atol
atopa
atopaba
atopaban
atopada
atopadas
atopado
atopados
atopamos
atopan
atopando
atopar
atopara
atoparon
atoparse
atope
atopou
atopouse
atp
atpase
atra
atraccio
atractiva
atractivo
atractivos
atrae
atraen
atraendo
atraer
atraeu
atrai
atrapado
atrapados
atrapar
atrasar
atraso
atrasos
atrave
atravesa
atravesaba
atravesada
atravesado
atravesan
atravesando
atravesar
atravesou
atribu
atribucio
atribui
atributos
atrio
atrocidades
attack
attr
atu
au
auckland
audi
audicio
audiencia
audiencias
audio
audiovisuais
audiovisual
auditiva
auditorio
audrey
audubon
auf
auflage
aug
auga
augardente
augas
augsburgo
august
augusta
auguste
augusti
augustin
augusto
augustus
aula
aulas
aumenta
aumentaba
aumentada
aumentan
aumentando
aumentar
aumentaron
aumento
aumentou
aura
aure
aureliano
aurelio
aureus
auri
auriense
aurora
aus
auschwitz
ausencia
ausente
ausentes
austen
austin
austral
australia
australian
australiana
australianas
australiano
australianos
australis
austrasia
austri
austria
austro
austrohu
aute
autenticidade
author
authority
authors
autismo
auto
autobiogra
autobiografi
autobiography
autobu
autobuses
autodeterminacio
autodidacta
autoestrada
autoestradas
autogoberno
autoinmunes
automa
automaticamente
automo
automobile
automobili
automobilismo
autono
autonomi
autor
autora
autoras
autores
autori
autoridade
autoridades
autoritario
autorizacio
autorizada
autorizado
autorizados
autorizou
autorretrato
autos
autoso
autovi
autres
auvernia
aux
auxe
auxiliar
auxiliares
auxilio
av
ava
available
avali
avaliacio
avaliar
avance
avances
avant
avanza
avanzaba
avanzada
avanzadas
avanzado
avanzados
avanzando
avanzar
avanzaron
avanzou
avari
ave
avea
avec
aveiro
avelai
avelino
avellaneda
avenida
avenidas
aventura
aventuras
avenue
averal
avermellada
avermellado
avery
aves
avespas
avex
avg
avi
avia
aviacio
aviador
aviation
avile
avin
avio
aviso
avisos
aviv
avo
avoa
avogaci
avogada
avogado
avogados
avro
aw
award
awards
away
ax
axe
axeitada
axeitadamente
axeitadas
axeitado
axeitados
axel
axencia
axencias
axenda
axente
axentes
axes
axial
axin
axioma
axiomas
axitacio
axo
axu
axuda
axudado
axudan
axudando
axudante
axudantes
axudar
axudara
axudaron
axudas
axudou
axusta
axustado
axustar
axuste
axustes
ay
ayala
ayer
ayrton
ayumi
ayuntamiento
az
azan
azar
azari
aznar
azolla
azores
azteca
aztecas
azucre
azucres
azuis
azul
azulada
azur
b
ba
baa
baamonde
baba
babel
babilonia
baby
bac
bacallau
bach
bacharelato
baci
bacillus
bacilo
back
background
backgroundcolors
baco
bacon
bacteria
bacterial
bacteriana
bacterianas
bacteriano
bacterianos
bacterias
bacterio
bad
badalona
badaxoz
bade
baden
bado
bados
bae
bafta
bagas
bagdad
baha
bahamas
bahi
bahia
bahrain
bai
baia
baikonur
baila
bailando
bailar
bailari
bailarina
baile
bailes
bailey
bailly
baio
baiona
baird
baix
baixa
baixada
baixan
baixando
baixar
baixas
baixista
baixo
baixos
baixou
baja
bajo
baker
baku
bal
bala
balada
baladas
balaenoptera
balaguer
balai
balance
balanza
balas
balboa
balca
balco
baldaquino
balde
baldomero
baldui
baldwin
balea
balear
baleares
baleas
baleira
baleiro
baleiros
balfour
bali
balin
balkans
ball
balle
ballester
ballesteros
ballet
ballets
balneario
balo
balompie
baloncesto
balonma
balsa
balsas
baltar
baltasar
baltimore
bambu
ban
bana
banana
banato
banca
bancada
bancadas
bancaria
bancario
bancarrota
banco
bancos
band
banda
bandadas
bandas
bande
bandeira
bandeiras
bandera
bando
bandos
bang
bangkok
bangladesh
bank
banks
banlle
banner
bano
banos
banqueiro
banqueiros
banquete
banse
bantu
bao
baos
baptista
baptiste
bar
bara
barack
barajas
barakaldo
baralla
barata
barato
barba
barbada
barbados
barbanza
barbara
barbarroxa
barbas
barbeito
barber
barbera
barbosa
barbuda
barc
barca
barcala
barcas
barcelona
barcelone
barcelos
barcia
barco
barcos
bardem
bardo
bares
bari
barker
barkley
barnes
baro
baroja
baron
barqueiro
barr
barra
barral
barranco
barras
barre
barreira
barreiras
barreiro
barreiros
barrera
barrett
barri
barrichello
barrie
barriga
barril
barrio
barrios
barro
barroca
barroco
barrocos
barros
barroso
barry
barrymore
bart
bartolome
bartolomeo
bartolomeu
barton
barxa
bas
basa
basais
basal
base
basea
baseada
baseadas
baseado
baseados
baseball
based
baseou
baseouse
bases
basi
basic
basicamente
basil
basilea
basilio
basket
basketball
baskonia
baso
bass
basta
bastante
bastantes
bastardo
bastavales
bastien
bastio
basto
bat
bata
batalla
batallas
batallo
batasuna
bate
batendo
bater
bateri
bates
bateu
bath
batida
batido
batista
batman
battista
battle
batuta
bauer
bauhaus
bautismal
bautismo
bautista
bautizada
bautizado
bautizados
bautizou
baviera
bay
bayer
bayern
bayreuth
baza
bazar
bazo
bb
bbc
bc
bd
bdfutbol
bditos
bdsm
be
bea
beach
beade
beagle
bean
bear
beariz
beast
beat
beatles
beato
beatrice
beatriz
beaufort
beaumont
beautiful
beauty
beaux
bebe
beber
bebida
bebidas
bec
because
becerra
becerrea
beck
becker
beckett
beda
bedas
been
beethoven
before
begin
beginning
begon
begonte
behavior
behaviour
behind
bei
beijing
being
beira
beiramar
beiras
beirut
beis
beitra
beizos
bel
bela
belaru
belaruso
belas
bele
belesar
beleza
belfast
belga
belgas
belgique
belgrado
belgrano
belize
bell
bella
bellas
belle
belles
bellini
bello
belo
beltra
bembibre
bemol
ben
benavente
bendicio
bene
benedetto
benedict
beneficencia
beneficia
beneficio
beneficios
beneficioso
benestar
benetton
benevento
benfica
bengala
bengali
beni
benidorm
benigno
benito
benjamin
bennett
benny
bens
bense
benson
bent
bento
benton
benvida
benz
beocia
beowulf
ber
bera
berce
berenguela
berenguer
berg
bergantin
bergen
berger
bergman
bergondo
bering
berkeley
berli
berlin
berliner
berlioz
bermejo
bermu
bermudas
berna
bernabe
bernal
bernard
bernardino
bernardo
bernd
bernhard
bernicia
bernie
bernini
bernoulli
bernstein
berro
berros
berry
bert
berta
bertrand
bes
bese
beso
best
besta
bestas
besteiro
bet
beta
betanzos
beth
betis
better
betty
between
beverly
beyond
bf
bg
bi
bianca
bianchi
bible
biblia
biblio
bibliogra
bibliografi
bibliography
biblioteca
bibliotecario
bibliotecas
bibliothe
biblos
bica
bicapa
bicarbonato
bicas
bicatenario
bicentenario
bicicleta
bicicletas
bico
bicos
bida
bidas
biden
bides
bidos
bidueiro
bidueiros
bieito
bien
bienal
bienio
bierzo
big
biga
bikini
bil
bilaterais
bilateral
bilbao
bilbo
bile
biles
biliar
biliares
bilingu
bill
billboard
billete
billetes
billo
billy
bimotor
bin
binaria
binario
bing
bingen
binomial
bio
biochemistry
biodiversidade
biodiversity
bioe
biogra
biografi
biographical
biographie
biographies
biography
bioinforma
biol
biolib
biolo
biologi
biological
biology
bioloxi
bioloxicamente
biomasa
biome
bion
biopsia
bioqui
biosfera
biosi
biotecnoloxi
biplano
bipolar
bird
birdlife
birds
birmania
birmingham
birth
birthday
bis
bisavo
bisbarra
biscai
biscaia
bisestos
bishop
bismarck
bispado
bispo
bispos
bissau
bit
bita
bitat
bitats
bitinia
bito
bitos
bitraga
bits
bivalvo
bivalvos
bizancio
bizantina
bizantinas
bizantino
bizantinos
bizet
bjo
bk
bla
black
blackburn
blackwell
blade
blair
blake
blanc
blanca
blanco
blancos
blas
blasco
blason
blast
blazers
ble
bleeker
blica
blicas
blico
blicos
bligh
blind
blindaxe
bloch
block
blog
blogs
blogspot
blois
blood
bloody
bloom
bloomsbury
bloque
bloquea
bloquear
bloqueo
bloques
blot
blu
blue
blues
blume
blunt
blur
bm
bmatrix
bmc
bmg
bmw
bn
bng
bo
boa
boac
board
boas
bob
bobby
bobcats
bobina
bobora
boca
bocas
bodega
bodego
body
boe
boeing
bogota
bohemia
bohemundo
bohm
boi
boicot
boimorto
boina
boiro
bois
bola
bolan
bolas
bolboreta
bolboretas
boleti
boli
bolivia
boliviano
bolo
bologna
bolon
bolos
bolsa
bolsas
bolton
bolxevique
bolxeviques
bomba
bombai
bombardeiro
bombardeiros
bombardeo
bombardeos
bombardier
bombas
bombeiros
bombo
bon
bonaparte
bonaval
bond
bondade
bone
bones
bonet
bonifacio
bonita
bonito
bonn
bonnie
bono
bonus
boo
book
books
boom
booth
bop
boqueixo
bora
borbe
borbo
borda
bordeaux
bordeos
border
bordo
bordos
boreal
borealis
borges
borgia
borgon
boris
borja
born
borneo
borrador
borussia
bos
bosch
bosco
bose
bosni
bosnia
boso
bosque
bosques
bosquexos
boss
boston
bot
bota
botado
botafumeiro
botanical
botany
botar
botas
bote
botella
botellas
botes
both
boti
boto
botou
botswana
bottas
bottom
boulevard
boulogne
bounty
bourbon
boutsen
bouza
bouzas
bovina
bovino
bovinos
bowers
bowie
bowl
box
boxeador
boxeadores
boxeo
boxes
boxofficemojo
boy
boyaca
boyd
boyle
boys
bp
bpc
br
bra
brabante
brabham
brad
bradford
bradley
braga
braganc
braganza
brahms
braille
brain
brais
bran
branca
brancas
branch
branco
brancos
brand
branda
brandeburgo
brando
brandon
brandos
brands
brandt
branquias
branquiazul
branse
brase
brasil
brasileira
brasileiro
brasileiros
brasilia
braso
bratislava
braun
brava
bravas
bravo
bravos
brazil
brazo
brazos
bre
brea
break
brecha
brecht
breda
breen
breixo
bremen
brendan
brenner
brense
breoga
brescia
brese
brest
bret
bretagne
bretan
breto
bretoa
breton
brett
breve
brevemente
breves
brey
bri
brian
brica
bricas
brico
brida
bridas
bridge
bridges
brido
bridos
brief
brien
brigada
brigadas
brigantino
bright
brightgreen
brighton
brill
brillante
brillantes
brillo
brio
brisbane
bristol
brita
britain
britania
britannia
britannica
britanos
british
brito
brm
brnu
bro
broadcasting
broadway
broken
brollo
broma
bromas
bronce
bronx
bronze
brooke
brooklyn
brooks
bros
brother
brothers
brown
bru
bruce
bruins
brundle
brunei
bruno
brunswick
brusca
brutal
bruto
bruxa
bruxas
bruxelas
bryan
bryant
bs
bsida
bsidas
bt
bu
bucais
bucal
bucarest
buchanan
buck
bucks
bucle
bucles
buda
budapest
buddy
budin
budismo
budista
budistas
buen
buena
bueno
buenos
bueu
buffalo
buffon
bufo
bug
bugallal
bugallo
bugatti
building
bula
bulas
bulbo
bulgaria
bull
bulletin
bullets
bulls
bulo
bulos
bun
bunbury
bundesliga
buque
buques
buraco
buracos
burato
buratos
burbulla
burbullas
bureau
burela
burgo
burgos
burgue
burguesa
burgueses
burguesi
burke
burkina
burla
burn
burnett
burning
burns
buro
burocra
burocracia
burro
burton
burundi
bus
busca
buscaba
buscaban
buscador
buscan
buscando
buscar
buscaron
buscou
bush
business
bustamante
bustelo
busto
bustos
but
buta
butler
butterfly
button
buxa
buxtehude
bwv
by
byrne
byron
byzantine
byzantium
c
ca
caaman
caaveiro
cab
cabalari
cabaleiro
cabaleiros
cabaleri
caballero
cabalo
cabalos
cabana
cabanas
cabanillas
cabaret
cabe
cabeceira
cabeceiras
cabelo
cabelos
cabeza
cabezas
cabezo
cabida
cabido
cabina
cabinet
cable
cables
cabo
cabos
cabra
cabral
cabras
cabreira
cabrera
cabul
cacao
cacatu
cacho
cachotari
cachoteri
cacique
cada
cadaleito
cadanseu
cadansu
cadas
cadaval
cadea
cadeas
cadeira
cadeiras
cadena
cadencia
caderno
cadernos
cadete
cadherina
cadmio
cadra
cadrada
cadradas
cadrado
cadrados
cadro
cadros
cae
caen
caendo
caer
caera
caeron
caesar
caetano
caeu
caf
cafe
cafeteri
cage
cagliari
cahiers
cahn
cai
caicos
caima
caio
cairo
caixa
caixas
caixo
caja
cajal
cal
cala
calabria
calado
calais
calatrava
calcaria
calcarias
calcio
calcu
calcula
calculadora
calcular
calculou
calcuta
caldas
caldeira
caldeiras
caldeiro
caldelas
calder
caldero
caldo
cale
caledonia
calendario
calendarios
calero
cales
calgary
cali
calibre
calidade
calidades
calidris
califa
califato
california
caligrafi
calisto
calixtino
call
calle
called
calma
calo
calor
calori
calorosos
calosoma
calpe
calquera
calvario
calvin
calvino
calvo
calvos
calzada
calzado
cam
cama
camacho
camada
camaleo
camarin
camaro
camas
camba
cambados
cambia
cambiado
cambian
cambiando
cambiar
cambiara
cambiaron
cambio
cambios
cambiou
cambiouse
camboxa
cambre
cambridge
came
cameo
camera
cameron
cameru
camille
camilo
camin
caminho
camino
caminos
camio
camisa
camiseta
camisola
camo
camp
campa
campamento
campamentos
campan
campana
campanario
campania
campbell
campeche
campesin
campin
campio
campioa
campionato
campionatos
campo
campos
camposanto
campus
camuflaxe
camus
can
cana
canada
canadense
canadenses
canadensis
canadian
canadiens
canais
canal
canalizacio
canaria
canarias
canario
canas
canberra
canc
cancela
cancelacio
cancelada
cancelado
cancer
cancerosas
cancha
cancio
cancioneiro
canciones
cancro
cancros
cand
canda
candea
candeas
candelaria
candidata
candidato
candidatos
candidatura
candidaturas
cando
canedo
canela
cangas
cangrexo
cangrexos
cani
canis
canle
canles
cannes
cano
canoas
canon
canons
cans
cansazo
canse
canta
cantaba
cantabria
cantada
cantado
cantan
cantando
cantante
cantantes
cantar
cantares
cantari
cantas
cantata
cantatas
cantautor
cantautores
cante
canteira
canteiras
canteiro
canteiros
canterbury
canteri
canti
cantidade
cantidades
cantiga
cantigas
cantigueiro
canto
cantor
cantos
cantou
canvas
canzorros
cao
caos
cap
capa
capaces
capacidade
capacidades
capadocia
capas
capaz
cape
capela
capelas
capensis
capi
capilar
capilares
capita
capitais
capital
capitalidade
capitalismo
capitalista
capitalistas
capitani
capiteis
capitel
capitol
capitolio
capitulacio
capitular
capo
capra
capri
captacio
captain
captar
captura
capturada
capturadas
capturado
capturados
capturan
capturando
capturar
capturaron
capturas
capturou
capua
car
cara
carabus
caracal
caracas
caracois
caracol
caracteres
caracteri
caracteriza
caracterizacio
caracterizada
caracterizadas
caracterizado
caracterizados
caracterizan
caracterizar
caracterizou
caracterizouse
caramin
carapucha
caras
carballal
carballeda
carballedo
carballeira
carballeiras
carballido
carballin
carballo
carballos
carbo
carboeiro
carbohidratos
carbonato
carboni
carbonilo
carbono
carbonos
carboxi
carboxilo
carcino
carcinoma
card
cardeais
cardeal
cardi
cardiff
cardinais
cardinal
cardiovascular
cardiovasculares
cardo
cardoso
care
carece
carecen
carecer
careci
career
carelia
carencia
carente
carey
carga
cargada
cargadas
cargado
cargados
cargamento
cargar
cargas
cargo
cargos
caribbean
caribe
cariben
caricatura
caridad
caridade
carin
carioca
carisma
carl
carla
carles
carlismo
carlista
carlistas
carlo
carlomagno
carlos
carlota
carme
carmela
carmelo
carmen
carmo
carmona
carnaval
carne
carnegie
carneiro
carnes
carni
carnota
caro
carol
carolina
caroline
carolinxio
caronte
caros
caroteno
carotenoides
carpenter
carpinteiro
carpo
carr
carra
carracedo
carral
carranza
carrasco
carre
carreira
carreiras
carreiro
carrera
carrie
carril
carrillo
carrio
carro
carroll
carros
carrozari
cars
carson
carta
cartagena
cartago
cartas
cartaxena
cartaxineses
carteira
carteis
cartel
cartelle
carter
cartilaxe
carto
cartografi
cartos
cartuchos
carvajal
carvalho
cas
casa
casablanca
casada
casado
casados
casal
casals
casamento
casanova
casaquista
casar
casara
casares
casari
casaron
casas
casca
casco
cascos
case
casei
caselas
cases
casete
casey
casimiro
casino
casio
caso
casos
casou
caspio
cassell
cassini
casta
castan
castanopsis
castela
castelao
castellana
castellano
castello
castelo
castelos
castigar
castigo
castilla
castillo
castin
castle
casto
castor
castrelo
castrelos
castrexa
castrexo
castrillo
castro
castromil
castros
castroverde
casual
casualidade
cat
cata
catala
catalana
catalans
catali
catalina
cataliza
catalizada
catalizador
catalog
catalogacio
catalogada
catalogadas
catalogado
catalogados
catalogue
catalun
catalunya
catania
cataratas
catarina
catastro
cate
catecismo
catedra
catedrais
catedral
categori
category
catenina
caterham
cathedral
catherine
catholic
catio
cativerio
catividade
cativo
cativos
cato
catoira
catolicismo
catorce
catro
cats
cauca
caucho
caudal
caudillo
causa
causada
causadas
causado
causados
causan
causando
causante
causantes
causar
causaron
causas
cause
causou
cava
cavalier
cavaliers
cave
cavidade
cavidades
caza
cazador
cazadores
cazan
cazar
cazas
cb
cba
cbs
cc
ccd
ccg
cd
cdc
cdeg
cdk
cdot
cdota
cdotas
cdots
cds
cdu
ce
cea
ceas
cebada
cebadores
cebola
cebra
cebreiro
cebu
ceca
cecas
cecil
cecilia
ceda
cede
cedeira
ceder
cedeu
cedida
cedido
cedo
cedro
cee
cefalo
cega
cego
cegon
cegos
cegueira
ceip
cela
celanova
celas
cele
celebra
celebraba
celebraban
celebracio
celebrada
celebradas
celebrado
celebrados
celebran
celebrando
celebrar
celebraron
celebrarse
celebridades
celebrou
celebrouse
celeiro
celeste
celestes
celestial
celestino
celi
celia
cell
cella
celle
cells
celo
celos
celsius
celso
celta
celtas
celtic
celtics
celular
celulares
celulosa
cemento
cemiterio
cemiterios
cen
cena
cenlle
cense
censo
censos
censura
census
cent
centavo
centavos
centenar
centenares
centenario
centeo
center
centi
cento
centos
centra
centrada
centradas
centrado
centrais
central
centralizado
centrarse
centre
centri
centro
centroafricana
centroame
centrocampista
centrocampistas
centros
centrou
centrouse
cents
centuries
century
ceo
ceos
cepa
cepas
cer
cera
cerca
cercado
cerceda
cerco
cerda
cerdedo
cerdeira
cerdido
cereais
cereal
cerebelo
cerebrais
cerebral
cerebro
ceres
cerevisiae
cerezo
cerimonia
cerimonial
cerimonias
cero
ceros
cerrado
cerro
cers
certa
certain
certame
certamente
certames
certas
certeza
certificacio
certificado
certificados
certo
certos
cervantes
cervera
cervexa
cervical
cervo
cervos
ces
cesa
cesado
cesamento
cesar
cesare
cesarea
cesaris
cese
cesio
cesou
cesta
cesuras
ceta
ceto
cetro
ceuta
cf
cfg
cfr
cg
cgi
ch
cha
chaco
chad
chain
chains
chaira
chairas
challenge
challenger
chama
chamaba
chamaban
chamada
chamadas
chamado
chamados
chamaecyparis
chamamento
chaman
chamando
chamar
chamari
chamaron
chamarse
chamarti
chamas
chamberlain
chamberlin
chamoso
chamou
chamouno
chamouse
champan
champion
champions
championship
champlain
chan
chance
chanceler
chandler
chandrexa
chang
change
changes
channel
chans
chanse
chantada
chanzos
chao
chaos
chapa
chapel
chapela
chapeu
chaplin
chapman
chapter
character
characters
charlas
charles
charleston
charlie
charlotte
charlton
charo
chart
chartres
chase
chasis
chave
chaves
che
chea
cheas
checa
check
checklist
checo
checos
checoslovaca
checoslovaco
checoslovaquia
chef
chega
chegaba
chegaban
chegada
chegadas
chegado
chegados
chegan
chegando
chegar
chegara
chegaran
chegaren
chegari
chegaron
chegase
chegou
chegouse
chegue
cheiro
chelsea
chem
chemical
cheminea
chemineas
chemistry
chen
cheo
cheos
cher
cherokee
cherry
chess
chester
chevalier
chez
chi
chiang
chiapas
chiba
chica
chicago
chicana
chicherin
chico
chief
chigan
child
children
chile
chilena
chileno
chilenos
chili
chimpance
chin
china
chine
chinesa
chinesas
chinese
chineses
chip
chipre
cho
chocar
choco
chocolate
chocou
choice
choiva
choivas
chopin
choque
choques
chora
chorar
chorro
chou
chove
chris
christ
christi
christian
christie
christina
christine
christmas
christoph
christophe
christopher
chrome
chronicle
chronicles
chronology
chrysler
chu
chuck
chumbo
chun
church
churchill
chus
chuvia
chuvias
chuvioso
ci
cia
cianobacterias
cianse
cianuro
cias
ciase
cibra
cibrao
cica
cicero
ciclina
ciclismo
ciclista
ciclistas
ciclo
ciclos
cico
cid
cida
cidada
cidadani
cidade
cidadela
cidades
cidas
cido
cidos
cie
cielo
ciencia
ciencias
cienfuegos
cienti
cientificamente
cifra
cifrado
cifras
cig
ciga
cigarros
cigoto
cil
ciles
cili
cilicia
cilindro
cilindros
cilios
cima
cimas
cimbabue
cime
cimentos
cimes
cimo
cinc
cincenta
cincinnati
cinco
cincocentos
cincuenta
cinderella
cine
cineasta
cineastas
cinema
cinemas
cinematogra
cinematografi
cines
cinta
cintas
cinto
cintura
cinza
cinzas
cio
cipriano
circ
circa
circle
circo
circui
circuit
circula
circulacio
circulan
circulante
circulantes
circular
circulares
circulatorio
circundante
circundantes
circunferencia
circunscricio
circunstancia
circunstancias
circus
cirene
ciri
cirilo
ciro
ciru
cirurxi
cirurxia
cis
cisma
cisne
cisneros
cisnes
cistei
cisterciense
cisxordania
cit
cita
citada
citadas
citado
citados
citan
citando
citar
citas
citation
cite
cities
cito
citocinas
citocromo
citoesqueleto
citoplasma
citosina
citoso
citosol
citoto
citou
citroe
citrus
citta
city
ciudad
ciudadanos
ciutat
civi
civil
civilizacio
civilization
ck
ckey
cl
cla
cladas
clado
cladograma
clados
claire
clan
clandestina
clandestinidade
clandestino
clans
clara
claramente
claras
clare
clarence
clarendon
clari
claridade
clarinete
clark
clarke
claro
claros
clase
clases
clash
clasicismo
clasifi
clasifica
clasificacio
clasificada
clasificadas
clasificado
clasificados
clasifican
clasificar
clasificaron
clasificarse
clasificou
clasificouse
class
classes
classic
classical
classics
classification
claude
claudia
claudio
claus
claustro
clausura
clave
claves
clay
clayton
cle
clean
clematis
clemente
cleo
cleopatra
cleos
clermont
clero
cleveland
cli
clica
clico
clicos
cliente
clientes
cliff
clifford
clima
climas
climate
climatoloxi
clinical
clint
clinton
clio
clippers
clivaxe
clive
clodio
clonacio
clons
clorhi
cloro
clorofila
cloroplasto
cloroplastos
cloruro
close
clostridium
cloud
clu
club
clube
clubs
cluny
cluster
clyde
cm
cn
cna
cng
cnica
cnicas
cnico
cnicos
cnidarios
cnidos
cnn
cnt
co
coa
coagulacio
coalicio
coas
coast
coat
coautor
cobain
cobalto
cobertura
cobra
cobrar
cobras
cobre
cobren
cobrou
coca
cocai
coccio
coche
coches
cocido
cociente
cocin
coco
cocos
code
codex
codia
codifica
codificacio
codificada
codificado
codifican
codificante
codificantes
codo
coeditor
coeficiente
coeficientes
coelho
coello
coellos
coencima
coeta
cofactor
cofundador
cognitiva
cognitivo
cogomelo
cogomelos
cohen
coherencia
coherente
cohesio
coi
coidado
coidados
coidadosamente
coidar
coimbra
coin
coinage
coincide
coinciden
coincidencia
coincidi
coincidindo
coincidir
coincidiu
coins
coiraza
coiro
coitelo
col
cola
colabora
colaboracio
colaborado
colaborador
colaboradora
colaboradores
colaboran
colaborando
colaborar
colaboraron
colaborou
colapso
colar
colas
cold
cole
coleccio
coleccionismo
coleccionista
coleccionistas
colecta
colectiva
colectivamente
colectivas
colectividade
colectivo
colectivos
colector
colega
colegas
colegio
coleman
coleo
coles
colesterol
colexiata
colexio
colexios
coli
colibri
colin
colina
colisio
coll
collar
colle
collected
collection
collections
college
colleita
colleitas
coller
colleu
collins
collocalia
colmea
colmeiro
colo
coloca
colocacio
colocada
colocadas
colocado
colocados
colocan
colocando
colocar
colocarse
colocou
colocouse
coloma
colombia
colombiana
colombiano
colombianos
colombo
colon
colonia
coloniais
colonial
colonialismo
colonias
colonizacio
colonizadores
colonizar
colonos
coloquial
coloquialmente
coloquio
color
coloracio
colorado
colorante
colorantes
colors
columba
columbia
columbus
columna
columnas
columnista
columns
columnwidth
com
coma
comandada
comandado
comandante
comandantes
comando
comandos
comarca
comarcal
comarcas
comas
comba
combarro
combate
combatentes
combater
combates
combateu
combi
combina
combinacio
combinada
combinadas
combinado
combinados
combinan
combinando
combinar
combusti
combustible
combustibles
combustio
come
comedia
comedias
comedor
comedy
comen
comendador
comendo
comenta
comentario
comentarios
comentarista
comentaristas
comentou
comenzou
comer
comerciais
comercial
comercializacio
comercializado
comercializar
comercialmente
comerciante
comerciantes
comerciar
comercio
comercios
comes
comesan
comesti
comestibles
comet
cometa
cometas
cometer
cometeu
cometido
cometidos
comeza
comezaba
comezaban
comezada
comezado
comezan
comezando
comezar
comezara
comezaran
comezari
comezaron
comezase
comezo
comezos
comezou
comezouse
comi
comicios
comics
comida
comidas
comigo
comillas
coming
comisari
comisario
comisarios
comisio
comisionado
comite
comme
commemorative
commercial
commission
committee
commodore
common
commons
commonwealth
communication
communications
community
comneno
como
comodidade
comores
compa
compacta
compacto
compactos
compan
companion
company
compara
comparable
comparacio
comparada
comparado
comparados
comparando
comparar
comparativa
comparative
comparativo
comparou
comparte
comparten
comparti
compartida
compartidas
compartido
compartidos
compartimento
compartimentos
compartindo
compartir
compartiron
compartiu
compases
compatibilidade
compatible
compatibles
compatriota
compaxinou
compendio
compensacio
compensar
competencia
competencias
competente
competentes
competi
competicio
competidor
competidores
competindo
competir
competiron
competitiva
competitividade
competitivo
competitivos
competiu
compilacio
compilador
compite
compiten
comple
complementaria
complementarias
complementario
complementarios
complemento
complementos
completa
completada
completado
completamente
completan
completando
completar
completaron
completas
complete
completo
completos
completou
completouse
complex
complexa
complexas
complexidade
complexo
complexos
complicacio
complicada
complicado
complot
complutense
compo
compon
componse
compor
comporta
comportamento
comportamentos
composicio
composition
compositor
compositora
compositores
composta
compostas
compostela
compostelano
composto
compostos
compra
comprado
comprar
compras
comprehensive
comprende
comprenden
comprender
comprendi
comprendida
comprendidas
comprendido
comprensio
compresio
comprimido
comprobacio
comprobar
comprobou
comprobouse
compromete
comprometeuse
comprometida
comprometido
compromiso
compromisos
comprou
compton
compun
computacio
computacional
computador
computadora
computadoras
computadores
computer
compuxo
comte
comu
comun
comuna
comunal
comunas
comuni
comunica
comunicacio
comunicado
comunican
comunicar
comunicarse
comunicou
comunidad
comunidade
comunidades
comunismo
comunista
comunistas
comunitaria
comunitario
comunitarios
comunmente
con
conan
conca
concacaf
concas
concat
conce
concede
conceder
concedeu
concedeulle
concedi
concedida
concedido
concelleira
concelleiro
concelleiros
concello
concellos
concentra
concentracio
concentrada
concentrado
concentrados
concentrar
concentrarse
concentrouse
concepcio
concept
concepto
conceptos
conceptual
concernente
concert
concerto
concertos
concesio
concha
concibida
concibido
concibir
concibiu
conciencia
conciliar
concilio
concilios
concise
conclu
conclui
conclusio
concordancia
concordia
concorreu
concorrido
concreta
concretamente
concretas
concreto
concretos
concursantes
concurso
concursos
condado
condados
condal
conde
condecoracio
condecorado
condena
condenada
condenado
condenados
condenou
condensacio
condensador
condes
condesa
condicio
condicional
conduce
conducen
conduci
conducido
conducindo
conducio
conducir
conduciron
conduciu
conduta
condutas
condutividade
conduto
condutor
condutores
condutos
cone
conecta
conectada
conectadas
conectado
conectados
conectan
conectar
conectivo
conexio
confeccio
confederacio
confederados
conference
conferencia
conferencias
confesio
confesor
confesou
confi
confianza
confiar
confidencial
configuracio
confiou
confire
confirma
confirmacio
confirmada
confirmado
confirmados
confirmando
confirmar
confirmaron
confirmou
confirmouse
conflict
conflito
conflitos
conflu
confluencia
conforma
conformacio
conformacional
conformada
conformado
conforman
conformando
conformar
conforme
conformidade
confrari
confrontacio
confundido
confundir
confundirse
confusio
conglomerado
congo
congregacio
congreso
congresos
congress
coni
conmemora
conmemoracio
conmemorar
conmemorativa
conmemorativas
conmemorativo
connecticut
connor
connotacio
cono
conos
conquest
conquista
conquistada
conquistado
conquistador
conquistadores
conquistados
conquistando
conquistar
conquistaron
conquistas
conquistou
conrad
conrado
consagracio
consagrada
consagrado
consciencia
consciente
conscientes
conse
consecucio
consecuencia
consecuencias
consecuente
consecuentemente
consecutiva
consecutivas
consecutivo
consecutivos
consegue
conseguen
consegui
conseguida
conseguido
conseguidos
conseguilo
conseguindo
conseguinte
conseguir
conseguira
conseguiri
conseguiron
conseguiu
conseguiuse
conseil
consejo
conselleira
conselleiro
conselleiros
conselleri
consello
consellos
consenso
consentimento
conserva
conservaba
conservacio
conservada
conservadas
conservado
conservador
conservadora
conservadoras
conservadores
conservados
conservan
conservando
conservar
conservaron
conservas
conservation
conservatorio
conservou
conside
considera
consideraba
consideraban
considerabelmente
considerable
considerablemente
considerables
consideracio
considerada
consideradas
considerado
considerados
consideralo
consideran
considerando
considerar
consideraron
considerarse
considerase
considere
considerou
considerouse
consigo
consiste
consisten
consistencia
consistente
consistentes
consisti
consistiu
consistorial
consistorio
conso
consoante
consoantes
consola
consolas
consolida
consolidacio
consolidar
consolidou
consolidouse
consome
consomen
consona
consonte
consorcio
consorte
consortes
conspiracio
conspiradores
consta
constaba
constable
constan
constancia
constancio
constant
constante
constantemente
constantes
constantin
constantine
constantino
constantinopla
constanza
constelacio
constitu
constitucio
constitucionais
constitucional
constitui
constitution
constru
construccio
construcio
construction
construi
construtiva
construtor
construtores
consuelo
consulado
consulta
consultada
consultado
consultar
consultas
consultivo
consultor
consumer
consumi
consumida
consumido
consumidor
consumidores
consumir
consumo
conta
contaba
contaban
contabilidade
contacto
contactos
contactou
contado
contador
contaminacio
contaminados
contaminantes
contan
contando
contar
contara
contaron
contas
conte
contedores
contempla
contemplacio
contemplar
contempora
contemporary
conten
contencio
contenda
contendo
content
contento
conter
contes
contestou
contexto
contextos
conti
contida
contidas
contido
contidos
contigo
contin
continentais
continental
continente
continentes
continu
continua
continuaba
continuaban
continuacio
continuada
continuado
continuamente
continuando
continuar
continuara
continuari
continuaron
continuas
continuidade
continuo
continuos
continuou
continxente
continxentes
conto
contorna
contornas
contorno
contornos
contos
contou
contra
contraataque
contrabaixo
contrabando
contraccio
contradicio
contraer
contraeu
contrafortes
contrai
contraposicio
contrapunto
contraria
contrariamente
contrarias
contrario
contrarios
contrarrestar
contrasinal
contrasta
contraste
contrastes
contratacio
contratada
contratado
contratar
contrato
contratos
contratou
contribu
contribucio
contribui
contribution
contributions
controis
control
controla
controlaba
controlaban
controlada
controladas
controlado
controlador
controladores
controlados
controlan
controlando
controlar
controversia
controversias
controvertida
controvertido
contundente
conve
conveccio
convencer
convenceu
convencido
convencio
convencionais
convencional
conveniencia
conveniente
convenio
convenios
convention
convento
conventos
conversa
conversacio
conversas
conversio
conversos
convert
converte
converten
convertendo
converter
convertera
converteri
converteron
converterse
convertese
converteu
converteuno
converteuse
converti
convertida
convertido
convertidos
converxencia
converxente
conviccio
convidada
convidado
convidados
convidou
convivencia
convoca
convocada
convocado
convocar
convocatoria
convocou
convulsio
conway
conxe
conxectura
conxelacio
conxo
conxugacio
conxuncio
conxunta
conxuntamente
conxunto
conxuntos
cook
cool
cooper
cooperacio
cooperativa
cooperativas
coord
coordenadas
coordinacio
coordinado
coordinador
coordinadora
coordinar
copa
copas
cope
copenhague
copenhaguen
copia
copiar
copias
copiloto
coplas
coppola
coproducio
copto
copyright
cor
cora
corais
coral
coraxe
corazo
corbusier
corcubio
cord
corda
cordal
cordas
cordeiro
cordilleira
cordilleiras
cordo
cords
core
corea
coreana
coreano
coregonus
corenta
coreo
coreografi
cores
corfu
corgan
corgo
coria
corinto
coristanco
cork
corme
cornelio
cornelius
cornell
cornella
cornide
cornixa
corno
cornos
cornualles
coro
coroa
coroacio
coroada
coroado
coroas
corola
corona
coronavirus
coronel
coros
corpo
corporacio
corporais
corporal
corporation
corporativa
corpos
corps
corpu
corpus
corral
corre
correa
correccio
correcta
correctamente
correcto
corredoira
corredor
corredores
correlacio
corren
correndo
corrente
correntes
correo
correos
correr
correron
correspo
corresponde
corresponden
correspondencia
correspondente
correspondentes
corresponder
corresponderi
correspondi
correu
corri
corrixir
corrosio
corrubedo
corrupcio
corsa
corsarios
corso
corta
cortada
cortadas
cortado
cortan
cortando
cortar
corte
cortegada
cortes
cortesa
cortesi
cortexo
cortina
cortiza
cortou
corun
coruxo
corvelle
corvo
corvos
corvus
corzo
cos
cosa
cosacos
cosas
cosme
cosmo
cosmoloxi
cosmonauta
cosmonautas
cosmopolita
cosmos
cospeito
costa
costado
costas
costeira
costeiras
costeiro
costeiros
costelas
costello
costume
costumes
cosworth
cota
cotas
cotia
coto
cotobade
couceiro
could
coulthard
council
count
country
county
coupe
courel
cours
course
court
courtenay
courtney
cousa
cousas
couso
couto
couzadoiro
cov
cova
covadonga
covalente
covalentemente
covalentes
covas
covelo
coventry
cover
covid
cox
coxa
cp
cpg
cr
cra
cracovia
craig
crane
cranial
cranio
crash
crata
cratas
crates
cravo
crawford
crazy
crc
cre
crea
creacio
creacionismo
creada
creadas
creado
creador
creadora
creadores
creados
crean
creando
crear
creara
crearon
creation
creativa
creative
creatividade
creativo
crece
crecemento
crecen
crecendo
crecente
crecentes
crecer
creceron
creceu
creci
credibilidade
credo
cree
creek
crego
cregos
crema
cremona
cren
crendo
crentes
crenza
crenzas
creo
creou
creouse
crer
crese
crespo
creta
creu
crew
cri
criada
criado
criados
crianza
criar
criatura
criaturas
cricket
crime
crimea
crimen
crimes
criminais
criminal
crimson
crina
crinas
crino
crioulo
criouse
cripta
crise
crises
crisis
crista
cristais
cristal
cristalina
cristalinas
cristalino
cristalografi
cristas
cristia
cristiandade
cristianismo
cristianizacio
cristiano
cristina
cristo
cristovo
criterio
criterios
critica
criticada
criticado
critical
criticar
criticaron
criticou
critics
crito
cro
croa
croacia
croata
croatas
crocodilianos
crocodilo
crocodilos
croma
cromatina
cromatografi
cromo
cromoso
cromosoma
cromosomas
cromwell
cronista
cronistas
cronolo
cronoloxi
cronquist
cropped
cross
crow
crown
crtvg
cru
cruceiro
cruceiros
cruces
crucial
crucificado
crucifixio
cruel
crueldade
cruise
crus
crusta
crustacea
cruz
cruza
cruzada
cruzadas
cruzado
cruzados
cruzamento
cruzan
cruzando
cruzar
cruzaron
cruzou
cry
crystal
cs
csic
cska
css
ct
ctanse
ctar
ctase
ctea
cteas
cteos
cter
ctese
ctica
cticas
ctico
cticos
ctil
ctiles
ctilos
ctona
ctonas
ctono
ctonos
ctor
ctrica
ctricas
ctrico
ctricos
cu
cua
cuadernos
cuadra
cuadrangular
cuadrante
cuadri
cualedro
cualidades
cualifica
cualificacio
cualificada
cualificado
cualificados
cualificar
cualificou
cuando
cuantificacio
cuantitativa
cuarta
cuarteis
cuartel
cuarteto
cuarto
cuartos
cuarzo
cuaternario
cuatro
cuba
cubana
cubano
cubanos
cuberta
cubertas
cuberto
cubertos
cubismo
cubo
cubri
cubrindo
cubrir
cubriu
cuco
cue
cuenca
cuentos
cuerpo
cuervo
cuesta
cuestio
cueva
cuevas
cuevillas
cui
cula
culas
culler
culleredo
culmina
culminacio
culminando
culminou
culo
culos
culpa
culpable
culta
culti
cultiva
cultivada
cultivadas
cultivado
cultivados
cultivar
cultivares
cultivo
cultivos
cultivou
culto
cultos
cultura
culturagalega
culturais
cultural
culturalmente
culturas
culture
cultures
cum
cume
cumes
cumio
cumios
cumpre
cumpren
cumpri
cumprimento
cumprindo
cumprir
cumpriu
cun
cunca
cuncas
cuncha
cunchas
cundinamarca
cunha
cunhas
cunningham
cunqueiro
cuns
cuntis
cup
cupe
cupressus
cuproni
cura
curac
curacio
curar
cure
curia
curie
curiosa
curiosamente
curiosidade
curiosidades
curioso
curma
curra
curral
currency
current
curri
curro
curros
curry
cursar
cursiva
curso
cursos
cursou
curta
curtametraxe
curtametraxes
curtas
curtis
curto
curtos
curuxa
curva
curvas
curvatura
custa
custo
custodia
custos
custou
cut
cuta
cuti
cuvier
cuxa
cuxas
cuxo
cuxos
cuzco
cv
cx
cxg
cychrus
cycle
cynoglossus
cyp
cyril
cyrus
cys
cz
d
da
daba
daban
dabondo
dacia
dacota
dada
dadas
dado
dados
dafydd
dag
dai
dailles
daily
daimler
dakar
dakota
dal
dalas
dale
dalgu
dalgunha
dalgunhas
dali
dall
dallas
dalle
dalmacia
dalton
daly
dam
dama
damas
damasco
dame
damia
damon
dan
dana
danada
danadas
danado
danados
danar
dance
dancing
dando
dane
danesa
daneses
dangerous
dani
daniel
daniels
danin
danlle
danny
dano
danos
dans
danse
dante
danubio
danza
danzas
daquel
daquela
daquelas
daqueles
dar
dara
dari
dark
darkgrey
darkness
darlle
darlles
darmstadt
darse
darwin
darwinismo
das
dase
dash
data
database
datacio
datada
datadas
datado
datados
datan
datar
datas
date
dateformat
dates
dato
datos
daughter
dave
david
davidson
davies
davis
dawkins
dawn
dawson
day
days
daytona
db
dc
dd
ddt
de
dea
dead
deal
dean
deas
death
deba
debaixo
debate
debater
debates
debe
debemos
deben
deber
debera
deberes
deberi
deberon
deberse
debeu
debeuse
debi
debida
debidamente
debidas
debido
debidos
debilidade
debilitar
deborah
debussy
debut
debuta
debutando
debutar
debutou
debuxante
debuxantes
debuxar
debuxo
debuxos
dec
deca
decadencia
decano
decata
decatarse
decatouse
december
decembro
decenas
decepcio
deci
decide
deciden
decidi
decidida
decidido
decidir
decidira
decidiron
decidiu
decidiuse
decimal
decir
decisio
decisiva
decisivo
decla
declara
declaraba
declaracio
declarada
declaradas
declarado
declarados
declarando
declarar
declararon
declarou
declarouse
declinacio
declinou
declive
decoracio
decorada
decoradas
decorado
decorados
decorativas
decorativo
decorativos
decote
decrecemento
decreto
decretos
decretou
dedi
dedica
dedicacio
dedicada
dedicadas
dedicado
dedicados
dedicar
dedicarse
dedicou
dedicoulle
dedicouse
dedo
dedos
deducio
deducir
dee
deep
def
default
defecto
defectos
defende
defenden
defendendo
defender
defenderse
defendeu
defendi
defendida
defendido
defensa
defensas
defense
defensiva
defensivas
defensivo
defensivos
defensor
defensora
defensores
defi
deficiencia
deficiencias
deficiente
deficientes
define
definen
defini
definicio
definida
definidas
definido
definidos
definir
definirse
definitiva
definitivamente
definitivo
definiu
deforestacio
deformacio
defunto
defuntos
degas
degli
degrada
degradacio
degradar
dei
deidade
deidades
deira
deixa
deixaba
deixaban
deixado
deixalo
deixan
deixando
deixar
deixara
deixari
deixaron
deixase
deixe
deixou
deixouno
del
dela
delas
delaware
delecio
delegacio
delegada
delegado
delegados
deles
delfi
delfos
delft
delgada
delgadas
delgado
delgados
delhi
delias
deliberadamente
delicada
delicado
delimitacio
delimitada
delimitado
delito
delitos
dell
della
delle
delorean
delos
dels
delta
deluxe
dem
demais
demanda
demandas
demarcacio
demasiado
deme
demetrio
demo
democra
democracia
democracy
demogra
demografi
demolicio
demos
demostra
demostracio
demostrada
demostrado
demostran
demostrando
demostrar
demostraron
demostrou
demostrouse
dempsey
den
dena
dende
dendri
dengue
denis
dennis
denomi
denomina
denominacio
denominada
denominadas
denominado
denominados
denominan
denominar
denominarse
denominou
denominouse
denota
densa
densamente
densas
dense
densidade
densidades
denso
densos
dental
dentalium
dente
dentes
dentro
denuncia
denunciado
denunciar
denuncias
denunciou
denver
deo
deos
depailler
departamento
departamentos
department
depende
dependen
dependencia
dependencias
dependendo
dependente
dependentes
depender
dependera
dependi
depo
deportacio
deportados
deporte
deportes
deportista
deportistas
deportiva
deportivas
deportivo
deportivos
deposicio
deposita
depositados
deposto
depredacio
depredador
depredadores
depresio
depuracio
deputacio
deputada
deputado
deputados
der
dera
derbi
derby
derecho
derechos
dereita
dereitas
dereito
dereitos
derek
deres
deri
deriva
derivacio
derivada
derivadas
derivado
derivados
derivan
derivar
derivou
deron
derradeira
derradeiras
derradeiro
derradeiros
derrocado
derrocamento
derrocar
derrota
derrotada
derrotado
derrotados
derrotando
derrotar
derrotaron
derrotas
derrotou
derrubado
derrubamento
derrubar
des
desa
desacordo
desacordos
desafi
desafortunadamente
desagradable
desamortizacio
desaparece
desaparecen
desaparecendo
desaparecer
desaparecera
desapareceron
desapareceu
desaparecida
desaparecidas
desaparecido
desaparecidos
desaparicio
desarrollo
desas
desastre
desastres
desastrosa
descansa
descansan
descansar
descanso
descarga
descargar
descargas
descartes
descende
descenden
descendencia
descendendo
descendente
descendentes
descender
descendera
descenderon
descendeu
descendi
descenso
descensos
descobre
descobren
descolonizacio
descompon
descomposicio
descon
desconfianza
descontento
descontinuidade
descri
describe
describen
describi
describindo
describir
describiron
describiu
describiuse
descricio
description
descriptions
descrita
descritas
descritiva
descrito
descritos
descualificado
descuberta
descubertas
descuberto
descubertos
descubri
descubridor
descubrimento
descubrimentos
descubrindo
descubrir
descubrira
descubriron
descubriu
descubriuse
desde
dese
desecamento
deseguido
desembarcar
desembarcaron
desembarco
desembarcou
desemboca
desembocadura
desembocan
desembocar
desempate
desempen
desemprego
desen
desencadea
desencadear
desencadeou
desenvo
desenvolve
desenvolvedores
desenvolvemento
desenvolvementos
desenvolven
desenvolvendo
desenvolver
desenvolvera
desenvolveron
desenvolverse
desenvolveu
desenvolveuse
desenvolvi
desenvolvida
desenvolvidas
desenvolvido
desenvolvidos
desequilibrio
desercio
desert
deserto
desertos
deses
desesperacio
desesperada
desexa
desexaba
desexaban
desexada
desexado
desexo
desexos
desfacerse
desfile
desgaste
desgraza
deshabitada
deshabitadas
deshabitado
deshidratacio
deshidroxenase
desi
design
designa
designacio
designada
designado
designados
designar
designou
desigual
desigualdade
desigualdades
desinencia
desintegracio
desmond
desnaturalizacio
desnivel
desobediencia
desorde
desordes
desova
despacho
despedida
despedido
despoboado
despoboados
despois
desposui
despra
despraza
desprazado
desprazados
desprazamento
desprazamentos
desprazar
desprazarse
despre
despregamento
desprende
desprezo
despue
desta
destaca
destacaba
destacaban
destacable
destacables
destacada
destacadas
destacado
destacados
destacamento
destacan
destacando
destacar
destacaron
destacou
destas
deste
desterrado
desterro
destes
destilacio
destinada
destinadas
destinado
destinados
destino
destinos
destitucio
destitui
destreza
destru
destrucio
destrui
destrutor
desuso
desvantaxe
desvi
desviacio
det
detallada
detalladas
detallado
detallados
detalle
detalles
dete
deteccio
detecta
detectado
detectan
detectar
detective
detectives
detector
detectores
detectou
detencio
deter
deterioracio
determina
determinacio
determinada
determinadas
determinado
determinados
determinan
determinante
determinantes
determinar
determinaron
determinou
determinouse
deterse
deti
detida
detido
detidos
detivo
detra
detractores
detrimento
detroit
deu
deulle
deus
deusa
deusas
deuse
deuses
deusto
deutsch
deutsche
deutschen
deutscher
deutschland
deuve
deux
deva
devanceiro
devanceiros
devandita
devanditas
devandito
devanditos
development
devesa
devil
devils
devocio
devolucio
devolve
devolver
devolveu
devon
devoniano
devoto
dexeneracio
dez
deza
dezanove
dezaoito
dezaseis
dezasete
df
dg
dh
di
dia
diabetes
diablo
diacri
diafragma
diagno
diagnose
diagnosticar
diagonais
diagonal
diagrama
diagramas
diale
dialectal
dialecto
dialectos
dialnet
diamante
diamantes
diamond
dian
diana
dianas
diane
diante
dianteira
dianteiras
dianteiro
dianteiros
diaria
diariamente
diarias
diario
diarios
diarrea
diary
dias
diato
diatomeas
dica
dicas
diccionario
dice
dici
dicindo
diciona
dicionario
dicionarios
dicir
dicirse
dick
dickens
dickinson
dico
dicos
dictionary
dictionnaire
did
dida
dides
didier
didos
die
diego
diele
dies
dieste
dieta
dietas
diete
dieter
dietrich
diez
difere
diferencia
diferenciacio
diferenciada
diferenciadas
diferenciado
diferenciados
diferenciais
diferencial
diferencian
diferenciar
diferenciarse
diferente
diferentes
diferenza
diferenzas
different
difi
dificilmente
dificulta
dificultade
dificultades
difire
difiren
difraccio
difundida
difundido
difundir
difusa
difusio
difusora
digital
digits
digna
dignidade
digno
digo
digos
dijon
dilatacio
dille
diller
dilui
dime
dimensio
diminu
diminucio
diminui
diminutivo
dimisio
dimite
dimitir
dimitiu
dimorfismo
din
dina
dinamarca
dinamarque
dinamarquesa
dinamismo
dinamo
dinasti
dino
dinoflaxelados
dinosaur
dinosauros
dio
diocesano
diocese
dioceses
diocleciano
diodoro
diogo
dion
dionisio
dioniso
dios
diplodus
diploide
diploides
diploma
diplomacia
dipolo
diputacio
dique
diques
dir
direccio
direct
directa
directamente
directas
directiva
directivo
directivos
directo
director
directora
directores
directorio
directory
directos
directrices
diri
dirixe
dirixen
dirixente
dirixentes
dirixi
dirixibles
dirixida
dirixidas
dirixido
dirixidos
dirixindo
dirixir
dirixiron
dirixirse
dirixiu
dirixiuse
dirk
dirty
dis
discapacidade
disci
disciplina
disciplinas
disco
discogra
discografi
discorre
discos
discovery
discrepancias
discreta
discretos
discriminacio
discurso
discursos
discusio
discute
discutida
discutido
discutir
dise
disease
diseases
disertacio
disfuncio
disidentes
disney
diso
disociacio
disolta
disolto
disolucio
disolve
disolvente
disolver
disolveu
disolveuse
dispara
disparar
dispares
disparo
disparos
disparou
dispersa
dispersas
dispersio
dispersos
display
dispo
dispon
disponse
dispor
disposicio
dispositivo
dispositivos
disposta
dispostas
disposto
dispostos
dispu
dispun
disputa
disputada
disputadas
disputado
disputados
disputan
disputando
disputar
disputaron
disputas
disputou
disputouse
dispuxo
disque
dissertation
dista
distal
distancia
distancias
distante
distantes
disti
distincio
distingue
distinguen
distingui
distinguida
distinguido
distinguidos
distinguir
distinguirse
distinta
distintas
distintiva
distintivas
distintivo
distintivos
distinto
distintos
disto
distorsio
distribu
distribucio
distribui
distribution
district
distrito
distritos
disturbios
disulfuro
dita
ditador
ditadura
ditaduras
ditas
dition
ditions
dito
ditos
ditou
diu
diure
div
diversa
diversas
diversidade
diversificacio
diversio
diversity
diverso
diversos
diverxencia
divi
divide
dividen
dividi
dividida
divididas
dividido
divididos
dividindo
dividir
dividirse
dividiu
dividiuse
divina
divinas
divindade
divindades
divino
divisa
divisas
divisio
division
divisor
divisoria
divorcia
divorcio
divulgacio
dixerir
dixeron
dixestio
dixestivo
dixestivos
dixitais
dixital
dixo
dixon
diz
dj
djibuti
dl
dm
dn
dna
do
doa
doada
doadamente
doado
doados
doante
doantes
doazo
doble
dobra
dobrado
dobraxe
dobre
dobres
dobrete
doc
doce
docencia
docente
docentes
doces
doctor
document
documenta
documentacio
documentada
documentado
documentais
documental
documento
documentos
documents
dodro
doente
doentes
doenza
doenzas
does
dog
dogma
doi
dollar
dollars
dolmen
dolo
dolores
dolorosa
dolos
dom
domain
dome
domenico
domesticacio
domi
domicilio
domina
dominaba
dominaban
dominacio
dominada
dominado
dominados
dominan
dominancia
dominando
dominante
dominantes
dominar
dominaron
domingo
domingos
dominic
dominica
dominicana
dominicano
dominicos
dominio
dominios
dominique
domino
dominou
domus
don
dona
donald
donas
donatello
donato
doncela
donde
done
dong
donizetti
donna
donne
donnell
dono
donos
donostia
donovan
doo
doom
door
doou
dopamina
dor
dora
dorado
dores
doris
dormitorio
dorna
dorothy
dorsais
dorsal
dorset
dorso
dortmund
dos
dose
doses
dot
dotacio
dotada
dotado
dotados
dotar
dote
dotes
doto
dou
douard
double
doubleday
doug
douglas
dourada
douradas
dourado
douro
dous
douscentos
doutor
doutora
doutoral
doutoramento
doutores
doutorouse
doutra
doutras
doutrina
doutrinas
doutro
doutros
dover
down
doyle
dozo
dp
dr
dra
draft
drag
drago
dragon
dragons
drake
drama
dramas
dramaturgo
dramaturgos
drasticamente
dream
dreams
dreamworks
drenaxe
dresde
dresden
drew
drica
drico
drive
driver
dro
droga
drogas
dromo
dromos
drosophila
drs
drug
drugs
drummond
ds
dt
du
dual
dualidade
duarte
dub
dubai
dubidosa
dubli
dublin
dubois
dubra
ducado
ducados
ducal
ducas
ducia
ducias
ducks
dudley
due
duelo
duen
duke
dula
dulce
dulo
dulos
duma
dumas
dumbledore
dumbri
dumont
dun
duna
dunas
duncan
dunha
dunhas
dunn
duns
duode
duodeno
dupla
duplicacio
duplo
dupont
duque
duques
duquesa
dura
duracio
duradeira
duradeiro
duramente
duran
durango
durante
durar
durari
duraron
duras
dureza
durham
during
durmi
durmir
duro
duros
durou
dus
dust
dutch
duty
dux
dvd
dwight
dworkin
dx
dyck
dylan
dynamics
dynamo
dz
e
ea
each
eagle
eagles
earl
earliest
early
earth
east
eastern
eastwood
easy
eau
eb
eba
ebert
ebro
ebulicio
ec
ecclestone
ece
ecedor
ecemento
ecementos
ecemos
ecen
ecendo
ecer
ecera
eceri
eceron
ecerse
ecese
eceu
eceuse
ecgberht
echo
eci
ecible
ecida
ecidas
ecido
ecidos
ecle
eclesia
ecli
eclipse
eclipses
eclosio
eclosionan
eco
ecolo
ecology
ecoloxi
ecoloxista
ecoloxistas
econo
economi
economic
economicamente
economics
economista
economistas
economy
ecos
ecosistema
ecosistemas
ecuacio
ecuador
ecuatorial
ecuestre
ecume
ed
eda
edad
edda
eddie
edema
eden
edgar
edge
edi
edic
edicio
ediciones
edicions
edicto
edificacio
edificio
edificios
edimburgo
edinburgh
edipo
edison
edit
edita
editada
editadas
editado
editados
editar
editaron
edited
edith
edition
editions
editor
editora
editores
editoriais
editorial
editors
editou
editouse
edizioni
edmond
edmonton
edmund
edo
edos
eds
edu
eduard
eduardo
educacio
educado
educar
education
educational
educativa
educativas
educativo
educativos
edulis
edward
edwards
edwin
ee
een
eeuu
ef
efe
efectiva
efectivamente
efectivas
efectividade
efectivo
efectivos
efecto
efectos
efectu
efectuar
efeme
effect
effects
eficaces
eficacia
eficaz
eficazmente
eficiencia
eficiente
eficientes
efixie
eg
ego
egoi
egypt
eh
ei
eibar
eido
eidos
eiffel
eight
ein
einaudi
eindhoven
eine
einer
einstein
eira
eiras
eirexa
eirexe
eiri
eirin
eiro
eiros
eiruga
eirugas
eisenhower
eivisa
eixe
eixes
eixo
eixos
eje
ek
el
ela
elabora
elaboracio
elaborada
elaboradas
elaborado
elaborados
elaborar
elaborou
eladio
elaine
elas
elasticidade
elba
elche
ele
eleanor
eleccio
elecciones
electo
elector
electorais
electoral
electores
electos
electra
electric
electricidade
electro
electroforese
electromagne
electromagnetismo
electronic
electroqui
electrosta
elefante
elefantes
elegancia
elegans
elegante
elektra
elementais
elemental
elemento
elementos
elements
elena
elenco
eles
eleva
elevacio
elevada
elevadas
elevado
elevados
elevar
eleven
elevou
elexi
elfos
elgar
eli
elias
elimi
elimina
eliminacio
eliminada
eliminadas
eliminado
eliminados
eliminan
eliminando
eliminar
eliminaron
eliminatoria
eliminatorias
eliminou
elio
eliot
elipse
elisa
elisabeth
eliseo
elite
elites
elixe
elixen
elixi
elixida
elixido
elixidos
elixio
elixir
elixiron
elixiu
elizabeth
elkar
ell
ella
ellas
elle
ellen
elliot
elliott
ellis
elo
elongacio
eloxio
eloxios
eloxiou
eloy
els
elsa
else
elseif
elsevier
elvin
elvira
elvis
elx
em
emancipacio
emanuel
embaixada
embaixadas
embaixador
embaixadora
embaixadores
embaixo
embarazada
embarazadas
embarazo
embarcacio
embarcou
embarcouse
embargo
embarque
emblema
emblemas
embora
emboscada
embraer
embrio
embrioloxi
embrionarias
embrionario
eme
emenda
emendas
emerson
emerxe
emerxencia
emerxente
emerxentes
emerxeu
emg
emi
emigracio
emigrado
emigrados
emigrante
emigrantes
emigrar
emigraron
emigrou
emil
emilia
emiliano
emilio
emily
eminentemente
emir
emirato
emiratos
emisio
emisor
emisora
emisoras
emite
emiten
emiti
emitida
emitidas
emitido
emitidos
emitindo
emitir
emitiron
emitirse
emitiu
emitiuse
emma
emmanuel
emmy
emocio
emocionais
emocional
empalme
emparentadas
emparentado
emparentados
empatado
empatados
empatar
empate
empates
empatou
empen
empeorou
emperador
emperadores
emperatriz
emperor
empeza
empezan
empezando
empezar
empezaron
empezou
empi
empire
empires
empirismo
emporda
empre
emprega
empregaba
empregaban
empregada
empregadas
empregado
empregados
empregan
empregando
empregar
empregaron
empregarse
emprego
empregos
empregou
empregouse
emprende
emprender
emprendeu
empresa
empresariais
empresarial
empresario
empresarios
empresas
empty
empu
en
ena
enca
encabezada
encabezado
encabezados
encabezando
encabezar
encabezou
encadrado
encamin
encanto
encarcerado
encarcerados
encarceramento
encarga
encargada
encargadas
encargado
encargados
encargo
encargos
encargou
encargoulle
encargouse
encarnacio
ence
encerrado
enche
encher
enci
enciclope
enciclopedia
enciclopedistas
encima
encimas
enclave
enclaves
enco
encomenda
encontra
encontraba
encontraban
encontrado
encontrados
encontramos
encontran
encontrar
encontraron
encontrarse
encontro
encontros
encontrou
encontrouse
encoro
encoros
encrucillada
encyclopaedia
encyclope
encyclopedia
encyclopædia
end
ende
enderezo
endo
endocitose
endoplasma
endoteliais
endotelio
ene
eneas
eneida
enemy
energy
enerxe
enerxi
enferma
enfermari
enfermeira
enfermeri
enfermidade
enfermidades
enfermo
enfermos
enfermou
enfoque
enfoques
enfro
enfronta
enfrontamento
enfrontamentos
enfrontan
enfrontar
enfrontaron
enfrontarse
enfrontou
enfrontouse
enga
engade
engaden
engadi
engadida
engadido
engadidos
engadindo
engadir
engadiron
engadiu
engadiuse
engalaxe
engano
engel
engels
engine
engineering
england
english
engloba
engo
engrenaxes
enigma
enlace
enlaces
enlaza
eno
enorme
enormemente
enormes
enquisa
enquisas
enri
enriba
enric
enrico
enrique
enriquecemento
ens
ensai
ensaio
ensaios
ensamblaxe
ensanche
ensayo
ensayos
ense
enseada
enseguida
ensemble
ensen
ensenada
ensign
ensina
ensinanza
ensinanzas
ensinar
ensino
ensinos
ensinou
entanto
ente
enteira
enteiramente
enteiras
enteiro
enteiros
entende
entendemento
entender
entenderse
entendi
entendida
entendido
entente
enterprise
enterrada
enterrado
enterrados
enterramento
enterramentos
enterro
entertainment
entes
entidade
entidades
entity
ento
entoacio
entomo
entra
entraba
entraban
entrada
entradas
entrado
entran
entrando
entrar
entrara
entrari
entraron
entrase
entre
entrega
entregada
entregado
entregados
entregar
entregas
entregou
entregouse
entreguerras
entrementres
entretemento
entrevista
entrevistas
entrimo
entroido
entropi
entrou
entry
entusiasmo
entusiasta
enunciado
enunciados
envelenamento
envellecemento
envergadura
envexa
envi
envia
enviada
enviadas
enviado
enviados
enviando
enviar
enviara
enviaron
enviou
environment
environmental
envolto
envoltura
envolve
enxen
enz
enza
enzima
enzimas
enzo
eo
eoceno
eol
eosino
ep
epaminondas
eparqui
epi
epic
epide
epidemia
epidemias
epidemioloxi
epiderme
epiro
episcopal
episo
episode
episodio
episodios
epistemolo
epistemoloxi
epiteliais
epitelial
epitelio
epixene
epo
epopea
eps
epsilon
epstein
epub
equi
equilibrada
equilibrio
equipado
equipados
equipamento
equipamentos
equipo
equipos
equisetum
equivale
equivalencia
equivalente
equivalentes
equivali
equus
er
era
eran
eras
erasmo
erasmus
erato
erc
ercc
ereccio
eres
ergue
erguer
eri
eric
erica
erich
ericsson
erie
erik
eritrea
eritrocitos
erixida
erixido
erixir
erixiuse
ermida
ermita
ermo
ernest
ernesto
ernst
ero
eron
eros
erosio
erotismo
erradicacio
errado
errante
erro
erroneamente
error
erros
ers
erse
erudito
eruditos
erupcio
erwin
es
esa
esas
esbozo
esbozos
esca
escala
escalada
escalar
escalas
escaleira
escaleiras
escalinata
escamas
escandinava
escandinavia
escandinavos
escano
escanos
escapa
escapar
escaparon
escape
escapou
escaravello
escaravellos
escasa
escasamente
escasas
escaseza
escaso
escasos
escavacio
escavado
escavar
esce
escena
escenario
escenarios
escenas
escenografi
escepticismo
escherichia
eschmeyer
escipio
escisio
escitas
esclerose
esco
escobar
escoce
escocesa
escocesas
escoceses
escocia
escoita
escoitar
escoitou
escola
escolar
escolares
escolas
escolla
escolle
escoller
escolleron
escolleu
escollida
escollido
escollidos
escolma
escolta
escoltas
escorial
escorpio
escrava
escravitude
escravo
escravos
escri
escriba
escribe
escriben
escribi
escribindo
escribir
escribira
escribiron
escribirse
escribiu
escribiulle
escrita
escritas
escrito
escritor
escritora
escritoras
escritores
escritorio
escritos
escritura
escrituras
escuadra
escuadro
escudari
escuderi
escudero
escudo
escudos
escuela
esculto
escultor
escultores
escultura
esculturas
escura
escuras
escuridade
escuro
escuros
escusa
ese
eselle
esencia
esenciais
esencial
esencialmente
eses
esfe
esfera
esferas
esforzo
esforzos
esgos
esgotamento
esgrima
esgrimistas
esixe
esixencia
esixencias
esixi
esixindo
esixir
esixiu
eslava
eslavas
eslavo
eslavonia
eslavos
eslovaca
eslovaco
eslovacos
eslovaquia
eslovena
eslovenia
esloveno
eslovenos
esmagar
esmalte
esmeralda
esmirna
esmorga
esnafrouse
eso
esp
espa
espaciais
espacial
espacio
espada
espadana
espadanedo
espadas
espagne
espalla
espalladas
espallados
espallamento
espan
espanyol
esparta
espartanos
espartero
espasa
espazo
espazos
espe
especi
especiacio
especiais
especial
especialidade
especialidades
especialista
especialistas
especializa
especializacio
especializada
especializadas
especializado
especializados
especializouse
especialmente
especias
especie
especies
especifica
especificacio
especificamente
especificar
especificidade
especta
espectacular
espectaculares
espectador
espectadores
espectral
espectro
espectros
espectroscopia
especulacio
espejo
espello
espellos
espera
esperaba
esperaban
esperado
esperando
esperante
esperanto
esperanza
esperanzas
esperar
esperma
espermatozoide
espermatozoides
esperta
espertar
espertou
espesor
espi
espida
espido
espidos
espin
espinosa
espionaxe
espira
espirais
espiral
espirituais
espiritual
espiritualidade
esple
esplendor
espn
esponta
espontaneamente
esponxas
espora
esporadicamente
esporas
esporo
esposa
esposas
esposo
esquecemento
esquecer
esquecida
esquecido
esquele
esqueleto
esqueletos
esquema
esquemas
esquerda
esquerdas
esquerdo
esquerra
esqui
esquilo
esquina
esquinas
esquizofrenia
essai
essay
essays
essential
essex
est
esta
estaba
estaban
estabelece
estabelecemento
estabelecer
estabeleceu
estabelecida
estabilidade
estabiliza
estabilizacio
estabilizar
estable
establece
establecemento
establecementos
establecen
establecendo
establecer
establecera
estableceron
establecerse
estableceu
estableceuse
estableci
establecida
establecidas
establecido
establecidos
estables
estaca
estacio
estacionais
estacional
estacionaria
estadi
estadio
estadios
estadista
estado
estados
estadounidense
estadounidenses
estalar
estaleiro
estaleiros
estalido
estalou
estamentos
estames
estamos
estampas
estan
estancamento
estancia
estancias
estandarizacio
estandarte
estando
estanque
estanse
estar
estara
estaren
estari
estas
estase
estatais
estatal
estati
estatua
estatuas
estatura
estatuto
estatutos
este
estea
estean
esteban
esteiro
estela
estelar
estelares
estella
estende
estenden
estendendo
estender
estenderse
estendeu
estendeuse
estendi
estendida
estendidas
estendido
estendidos
estepa
estepas
estereotipos
esterilizacio
esteroides
estes
estevo
esther
esti
estigma
estili
estilo
estilos
estima
estimacio
estimada
estimado
estimar
estimou
estimouse
estimula
estimulacio
estimulan
estimulante
estimular
estiria
estirpe
estival
estivera
estiveran
estiveron
estivese
estivesen
estivo
esto
estocolmo
estonia
estoniana
estoniano
estornin
estou
estoupido
estoupou
estrabo
estrada
estradas
estradiol
estran
estranxeira
estranxeiras
estranxeiro
estranxeiros
estrasburgo
estrate
estratexia
estratexias
estrato
estratos
estre
estrea
estreada
estreadas
estreado
estreita
estreitamente
estreitas
estreito
estreitos
estrela
estrelas
estrella
estrellas
estrelouse
estremadura
estremen
estreou
estreouse
estri
estrita
estritamente
estritas
estrito
estro
estrofa
estrofas
estroma
estructura
estrutura
estruturada
estruturais
estrutural
estruturalmente
estruturas
estu
estuardo
estuario
estuarios
estuda
estudaba
estudada
estudadas
estudado
estudados
estudan
estudando
estudante
estudantes
estudantil
estudar
estudaron
estudiantes
estudio
estudios
estudis
estudo
estudos
estudoso
estudosos
estudou
eswatini
et
eta
etanol
etapa
etapas
etas
etc
etce
ete
eterna
eternidade
eterno
ethnic
ethnologue
eti
etileno
etimolo
etimoloxi
etiopi
etiqueta
etiquetado
etiquetas
etnia
etnias
etno
etnogra
etnografi
etrusca
etruscos
etymology
eu
eua
eucalipto
eucaliptos
eucalyptus
eucario
eucariota
eucariotas
eucaristi
euclides
eue
eufemia
euge
eugen
eugene
eugenia
eugenio
eulalia
euler
eume
euphaedra
euphaedrana
euphorbia
eur
eurasia
euri
euro
euroasia
eurobasket
eurocopa
eurocup
euroleague
euroliga
europa
europaea
europarlamentarios
europe
europea
european
europeas
europeo
europeos
euros
eurovisio
eusebio
euskadi
euskal
eusko
euxenesia
ev
eva
evacuacio
evan
evangelion
evans
evanxe
evanxelista
evanxeo
evanxeos
evaporacio
evaristo
evasio
eve
evelyn
even
evening
evento
eventos
events
eventual
eventualmente
ever
everest
everett
every
everything
evic
evidence
evidencia
evidencias
evidente
evidentemente
evidentes
evil
evita
evitan
evitando
evitar
evitou
evo
evoca
evol
evolucio
evoluciona
evolucionando
evolucionar
evolucionaron
evolucionou
evolution
evolutionary
evolutiva
evolutivas
evolutivo
evolutivos
ex
exacta
exactamente
exactas
exactitude
exacto
exaltacio
exame
exames
examina
examinar
exarca
exarcado
exce
excede
excelencia
excelente
excelentes
excentricidade
excepcio
excepcionais
excepcional
excepcionalmente
excepto
exceptuando
excesiva
excesivamente
excesivo
exceso
excesos
exchange
excitacio
exclu
exclui
exclusio
exclusiva
exclusivamente
exclusivas
exclusivo
exclusivos
excomun
excrecio
excrementos
excursio
exe
execucio
executa
executada
executado
executados
executar
executiva
executivo
executivos
executou
exemplar
exemplares
exemplo
exemplos
exento
exeo
exerce
exercen
exercendo
exercer
exerceron
exerceu
exerci
exercicio
exercicios
exercida
exercido
exfutbolista
exhaustiva
exhibicio
exhibition
exiliado
exiliados
exiliarse
exilio
exiliouse
exina
exipcia
exipcias
exipcio
exipcios
exipto
exista
existan
existe
existen
existencia
existente
existentes
existi
existindo
existir
existiron
existiu
exitosa
exitosas
exitoso
exitosos
exo
exp
expandi
expandir
expandiu
expandiuse
expansio
expectativas
expedicio
expediente
expedition
expensas
experience
experiencia
experiencias
experiment
experimenta
experimentacio
experimentado
experimentados
experimentais
experimental
experimentalmente
experimentan
experimentando
experimentar
experimentaron
experimento
experimentos
experimentou
experta
experto
expertos
expli
explica
explicaba
explicacio
explican
explicando
explicar
explicari
explicarse
explicitamente
explicou
explora
exploracio
explorador
exploradores
explorando
explorar
exploration
explorer
explorou
explosio
explosivo
explosivos
explota
explotacio
explotar
expo
expon
exponencial
expor
exportacio
exposicio
exposta
expostas
exposto
expostos
expre
expresa
expresada
expresadas
expresado
expresados
expresamente
expresan
expresar
expresaron
expresarse
expresidente
expresio
expresionismo
expresiva
expresividade
expreso
expresou
express
expression
expressway
expropiacio
expulsa
expulsada
expulsado
expulsados
expulsar
expulsio
expulsou
expuxo
extended
extensa
extensamente
extensas
extensio
extenso
extensos
exterior
exteriores
exterminio
externa
externas
externo
externos
extincio
extinta
extintas
extinto
extintos
extra
extraccio
extracelular
extracelulares
extracto
extractos
extrae
extraer
extrai
extraordinaria
extraordinariamente
extraordinarias
extraordinario
extraordinarios
extraterrestre
extraterrestres
extrema
extremadamente
extremadura
extremas
extremidade
extremidades
extremo
extremos
eyck
eye
eyes
ez
eza
ezequiel
f
fa
faba
faber
fabi
fabio
fabra
fabri
fabrica
fabricacio
fabricada
fabricadas
fabricado
fabricados
fabricante
fabricantes
fabricar
fabricius
fabricou
fabril
faccio
face
facebook
facela
facelo
facenda
facendas
facendo
facer
facerlle
facerse
faces
faceta
fachada
fachadas
facho
faci
faciais
facial
faciana
facilidade
facilita
facilitan
facilitando
facilitar
facilitou
facilmente
facsi
fact
facto
factor
factores
factori
factory
facts
factura
facultade
facultades
fada
fadas
fado
faga
fagan
fago
fagocitose
fagos
fai
faino
fair
faise
faith
faixa
fala
falaba
falaban
falada
faladas
falado
falamos
falan
falando
falange
falante
falantes
falanxe
falanxistas
falar
falas
falco
falcon
falece
falecemento
falecer
faleceron
faleceu
falecida
falecido
falecidos
fall
falla
fallas
fallece
fallo
fallos
fallou
falls
falo
falou
falsa
falsas
false
falsificacio
falso
falsos
falta
faltan
faltas
fama
fame
familia
familiar
familiares
familias
families
family
famosa
famosas
famoso
famosos
famous
fan
fana
fanes
fang
fangio
fanny
fano
fans
fanse
fanta
fantasi
fantasma
fantasy
fao
far
fara
faraday
farao
fari
farin
farinxe
farm
farmace
farmacia
farmacolo
farmacoloxi
farmer
farnesio
faro
faros
farrell
farsa
fas
fasc
fasci
fascismo
fascista
fascistas
fase
fases
fasia
faso
fast
fat
fatal
father
fatiga
fauna
faure
faustino
fausto
favor
favora
favorable
favorables
favorece
favorecen
favorecendo
favorecer
favoreceu
favoreci
favorecida
favorita
favoritas
favorito
favoritos
fawcett
fay
fazan
fbi
fc
fda
fe
fea
fear
features
feb
feble
febles
febra
febras
febre
febreiro
february
feces
fecundacio
fecundidade
federacio
federados
federais
federal
federalismo
federation
federer
federico
feel
feijo
feijoo
feira
feiras
feita
feitas
feito
feitos
feixe
feixes
feixo
felice
felices
felicidade
felinos
felipe
felis
felix
feliz
female
femenina
femia
femias
feminina
femininas
feminino
femininos
feminismo
feminist
feminista
feministas
femme
femmes
fenda
fendas
fender
fene
fenerbahc
fenicia
fenicio
fenicios
fenilalanina
feno
fenosa
fenoti
fenotipo
fenotipos
fento
fentos
feo
fer
fera
feras
ferdinand
ferguson
ferida
feridas
ferido
feridos
fermat
fermentacio
fermi
fermin
fermosa
fermosas
fermoso
ferna
fernanda
fernandes
fernando
fero
feroe
feromonas
feros
feroz
ferra
ferradura
ferramenta
ferramentas
ferran
ferrara
ferrari
ferreira
ferreiro
ferreiros
ferrer
ferreri
ferri
ferro
ferrocarri
ferrocarril
ferrol
ferrola
ferroviaria
ferroviarias
ferroviario
ferroviarios
fertilidade
fertilizacio
fertilizantes
fervenza
fervenzas
feso
festa
festas
festivais
festival
festividade
festividades
festivo
festivos
fetal
feto
feudais
feudal
feudalismo
feudo
fez
ff
ffffff
fg
fgf
fi
fia
fiabilidade
fiable
fiables
fiat
fiba
fibra
fibras
fibroblastos
fibrose
fica
fican
ficando
ficar
ficaron
ficas
ficcio
fice
fices
ficha
fichado
fichando
fichar
fichas
fichaxe
fichaxes
ficheiro
ficheiros
fichou
ficit
fico
ficos
ficou
ficticia
ficticio
fiction
fidalgo
fide
fidel
fidelidade
fidos
fidxi
fieis
fiel
field
fields
fiesta
fiestra
fiestras
fifa
fifth
fig
figaro
fight
fighters
figueira
figueiras
figueiredo
figueiroa
figueres
figueroa
figura
figuraba
figuraban
figuran
figuraron
figuras
figures
figurou
fila
filadelfia
filamento
filamentos
filas
filate
file
fileiras
files
filgueira
filharmo
filiacio
filiais
filial
filipe
filipina
filipinas
filipino
filipinos
filipo
filippo
filla
fillas
fillo
fillos
film
filmacio
filmaffinity
filme
filmes
filmografi
films
filo
filolo
filoloxi
filos
filoso
filosofi
filoxene
filoxenia
filtracio
filtrado
filtro
filtros
fin
fina
finada
finado
finados
finais
final
finalidade
finalista
finalistas
finaliza
finalizacio
finalizada
finalizadas
finalizado
finalizando
finalizar
finalizaron
finalizou
finalmente
financeira
financeiras
financeiro
financeiros
financiada
financiado
financial
financiamento
financiar
financiou
finanzas
finas
fincape
find
fine
finesa
finisterrae
finita
finito
finlande
finlandesa
finlandeses
finlandia
finn
fino
finos
finou
fins
fio
fiorentina
fire
firma
firmas
firme
firmemente
firmou
first
fiscais
fiscal
fiscali
fischer
fise
fish
fishbase
fisher
fisheries
fishes
fisicamente
fisichella
fisio
fisiolo
fisioloxi
fisterra
fisteus
fita
fitas
fitch
fitness
fito
fitoplancto
fitos
fittipaldi
fitzgerald
fitzroy
five
fixa
fixacio
fixada
fixadas
fixado
fixar
fixas
fixe
fixen
fixera
fixeran
fixeron
fixese
fixesen
fixo
fixos
fixou
fiz
fk
fl
flag
flags
flamenco
flamenga
flamengo
flamengos
flames
flammarion
flanagan
flanco
flancos
flandres
flash
flavia
flavio
flavonoides
flaxelo
flaxelos
fleet
fleming
fletcher
flexi
flexibilidade
flexible
flexio
flickr
flight
flo
flood
floor
flor
flora
floracio
florais
floral
florecemento
floreceu
florence
florencia
florencio
florentino
flores
florete
flori
florida
flotante
flotantes
flow
flower
flowers
floyd
flu
flui
fluidez
fluorescencia
fluorescente
fluorescentes
flutuacio
fluviais
fluvial
fluxo
fluxos
fly
flying
flynn
fm
fmi
fo
foca
focal
focas
focin
focles
foco
focos
focus
fogar
fogares
fogo
fogos
fogueira
foguete
foguetes
foi
foille
foise
foix
fokker
fol
folclo
folclore
fole
folga
folgas
folgoso
foli
folio
folk
folla
follas
follaxe
folleto
fomentar
fomento
fona
fonda
fondo
fondos
fone
fonema
fonemas
fono
fonolo
fonoloxi
fonos
fonsagrada
fonseca
font
fonta
fontainebleau
fontana
fontao
fonte
fontenla
fontes
fontsize
foo
food
foot
football
for
fora
foral
foran
foras
forbes
forcarei
force
ford
foreign
forense
forest
forestais
forestal
forever
forgotten
form
forma
formaba
formaban
formacio
formada
formadas
formado
formados
formais
formal
formalmente
forman
formando
formar
formara
formaren
formari
formaron
formarse
formas
format
formation
formato
formatos
forme
formen
formentera
former
formiga
formigas
formigo
formosa
formoso
formou
formouse
formula
formulacio
formular
formulou
fornece
fornecer
fornelos
forno
fornos
foro
foron
foros
forquita
forrer
forrest
fort
fortalecemento
fortalecer
fortaleza
fortalezas
forte
fortemente
fortes
forti
fortificacio
fortificada
fortificado
fortuna
fortune
forum
forward
forxa
forza
forzada
forzado
forzados
forzando
forzar
forzas
forzou
fosa
fosas
fose
fosen
fosfatase
fosfato
fosfatos
fosfoli
fosforilacio
foso
fossil
fossilworks
foster
foto
fotogra
fotografi
fotogramas
fotos
fotosi
fotosinte
fotosistema
foucault
fouce
found
foundation
four
fourier
fourth
fowler
fox
foxe
foxo
foz
fr
fra
frac
fracasar
fracasaron
fracaso
fracasos
fracasou
fraccio
fractura
fracturas
frade
frades
fraga
fragas
fragata
fragmentacio
fragmento
fragmentos
fraguas
frame
fran
franc
franca
france
frances
francesa
francesas
francesc
francesca
francesco
franceses
francia
francis
francisca
franciscana
franciscano
franciscanos
francisco
franco
francorchamps
francos
frank
frankenstein
frankfurt
franklin
franqueira
franqui
franquismo
franquista
franquistas
frans
franxa
franxas
franz
frase
fraseoloxi
fraser
frases
fraternidade
fraude
frauta
frautas
fray
fre
frea
frear
frecha
frechas
frecuencia
frecuencias
frecuente
frecuentemente
frecuentes
fred
freddie
frederic
frederick
frederico
free
freedom
freeman
freguesi
frei
freire
freires
freixo
french
frente
frentzen
freo
freos
fresca
frescas
fresco
frescos
freshwater
fresno
freud
frey
fri
friburgo
frica
friccio
frida
friedman
friedrich
friend
friends
friol
frisia
friso
fritz
friu
frodo
froese
frog
froila
froilaz
froita
froitas
froiteiras
froito
froitos
from
front
frontais
frontal
fronte
fronteira
fronteiras
fronteiriza
fronteirizas
fronteirizos
frontera
frontes
fronto
frost
frota
frotas
fru
fruit
frustracio
frustrado
fruti
frutosa
fry
fs
ft
fu
fue
fuego
fuel
fuenlabrada
fuente
fuentes
fuera
fuerteventura
fuerza
fuga
fugas
fuji
fukuoka
full
fuller
fumadores
fumar
fume
fun
funcio
funciona
funcionaba
funcionaban
funcionais
funcional
funcionalidade
funcionalmente
funcionamento
funcionan
funcionando
funcionar
funcionario
funcionarios
funcionou
function
functions
fund
funda
fundac
fundacio
fundacional
fundada
fundadas
fundado
fundador
fundadora
fundadoras
fundadores
fundados
fundamentais
fundamental
fundamentalmente
fundamento
fundamentos
fundando
fundar
fundara
fundaron
fundicio
fundido
fundou
fundouse
funeral
funeraria
funerario
funerarios
fungo
fungos
funk
furaca
furia
furo
fuselaxe
fusil
fusilado
fusilados
fusilamento
fusio
fusiona
fusionados
fusionarse
fusionouse
fuso
fuste
futbol
futboli
futbolista
futbolistas
futbolme
futebol
futura
futuras
future
futurista
futuro
futuros
fuxi
fuxida
fuxidos
fuxindo
fuxir
fuxiron
fuxiu
fw
g
ga
gaba
gabeador
gabia
gabinete
gabo
gabriel
gabriela
gaceta
gado
gae
gaga
gagarin
gago
gai
gaia
gainesville
gaiola
gais
gaita
gaitas
gaiteiro
gaiteiros
gaius
gaivota
gaivotas
gal
gala
galactosa
galaica
galaico
galaicos
galardo
galardoada
galardoado
galardoados
galas
galatasaray
galaxia
galaxias
galaxy
galdo
gale
galega
galegas
galego
galegos
galeguismo
galeguista
galeguistas
galeno
galeo
galera
galeri
gales
galesa
galeses
galia
galicia
galician
galiciana
galilea
galilei
galileo
galin
galiza
galizionario
gallaecia
gallardo
galle
gallega
gallegas
gallego
gallegos
gallery
gallimard
gallo
galo
galos
galva
galway
gama
gamas
gambia
game
games
gameto
gametos
gamma
gan
gana
ganancia
ganancias
gancho
gandalf
gandari
gandeira
gandeiros
ganderi
gandhi
gando
gang
ganglio
ganglionares
ganglios
ganse
ganso
gansos
gante
gao
gap
gar
gara
garage
garante
garanti
garantir
garaxe
garce
garci
garcia
gard
garda
gardacostas
gardameta
gardametas
gardan
gardar
gardas
garde
garden
gardens
gardia
gardner
garfield
garganta
garland
garnett
garras
garrett
garrido
garros
gary
garza
garzo
gas
gase
gases
gasly
gasolina
gaspar
gasset
gastar
gastero
gasto
gaston
gastos
gastro
gastrointestinal
gastrono
gastronomi
gata
gate
gates
gato
gatos
gaudi
gaulle
gauss
gay
gayoso
gaza
gazette
gb
gbif
gc
gdfl
gdp
ge
gear
geffen
gel
gelidium
gemini
gen
gender
gene
genera
general
generales
generalitat
generation
genes
genesis
genetic
genetics
genista
genius
genome
gens
gente
genus
geo
geoffrey
geoffroy
geogra
geografi
geographic
geography
geological
geology
georg
george
georges
georgetown
georgia
ger
gerald
gerard
gerardo
gerhard
germa
germain
german
germany
gernika
gertrude
geschichte
gesellschaft
gesta
get
getafe
getxo
gf
gfdl
gh
ghana
ghost
ghosts
gi
giacomo
gian
giancarlo
gianni
giant
giants
gibbs
gibson
gica
gicas
gico
gicos
gif
gijo
gil
gilbert
gilberto
giles
gilgamesh
gill
gilles
gime
gimna
gina
gio
giordano
giorgio
giotto
giovanni
gira
girl
girls
giro
girona
giulio
giuseppe
give
given
gl
gla
glaciacio
glacial
glaciar
glaciares
glam
glasgow
glass
gleason
glen
glenn
gli
glicerol
glicina
glico
glicocorticoides
gliconeoxe
glicoprotei
glicosa
glicosi
glicosilacio
glifo
glifos
glo
globais
global
globalizacio
globe
globo
globos
gloria
gloriosa
glory
glosario
glossary
gloucester
glu
glutamato
glutatio
glute
gm
gmbh
gmelin
gnu
go
goa
goas
goberna
gobernaba
gobernacio
gobernada
gobernado
gobernador
gobernadores
gobernados
gobernamentais
gobernamental
gobernando
gobernante
gobernantes
gobernar
gobernaron
goberno
gobernos
gobernou
gobierno
god
godo
godofredo
godos
godoy
gods
goes
goethe
gogh
goia
going
goku
gol
gold
goldberg
golden
goldman
goldwyn
goleada
goleador
goleadores
goles
golf
golfin
golfo
golgi
golpe
golpea
golpeado
golpear
golpeou
golpes
goma
gomera
gomes
gomesende
gona
gonc
gondar
gondomar
gondor
gondwana
gone
gono
gonos
gonza
gonzaga
gonzalo
good
goodbye
goodman
google
gora
goras
gorbachev
gordo
gordon
gore
gorilla
gornicio
gorriak
gorxa
gospel
gossard
got
gota
gotemburgo
gotinga
gotland
gottfried
gottlieb
gould
gov
government
goya
goza
gozaba
gozan
gozar
gozo
gozou
gp
gpl
gps
gr
gra
graal
grace
gracia
gradacio
gradiente
grado
grados
gradua
graduacio
graduada
graduado
gradual
gradualmente
graduarse
graduou
graduouse
graf
grafa
grafe
grafi
grafo
grafos
graham
gram
grama
gramaticais
gramatical
grami
grammar
grammy
gramnegativas
gramo
gramos
grampositivas
gran
granada
granadinas
grand
grande
grandemente
grandes
grandeza
grandi
grandprix
grani
granito
granollers
grans
grant
granxa
granxas
granxeiros
grao
graos
grase
grasse
gratui
grau
grava
gravacio
gravada
gravadas
gravado
gravador
gravados
gravando
gravar
gravaron
grave
gravemente
graves
gravidade
gravitacio
gravitacional
gravou
gravouse
graxa
graxas
graxo
graxos
gray
graz
graza
grazas
gre
great
greatest
grecia
greco
gredos
greece
greek
green
greenberg
greene
greenwich
greenwood
greg
grega
gregas
grego
gregor
gregoriana
gregoriano
gregorio
gregory
gregos
grella
gremio
gremios
greta
gretas
grey
grial
gridcolor
griega
grierson
griffin
griffith
grimal
grimas
grimm
gripe
gripen
gris
grises
grito
grizzlies
gro
groba
groenlandia
grohl
gromo
gromos
grosa
grosas
grosjean
groso
grosor
grosos
grosso
grou
ground
group
groups
grove
groves
growth
gru
grunge
grupo
grupos
gruta
gruyter
grzimek
gs
gsub
gt
gtp
gu
gua
guadalajara
guadalaxara
guadalquivir
guadalupe
guadarrama
guam
guanina
guarani
guarda
guardia
guardian
guarnicio
guatemala
gudin
gue
guernica
guerra
guerras
guerre
guerreiro
guerreiros
guerrero
guerrilla
guerrillas
guerrilleira
guerrilleiro
guerrilleiros
guese
gueto
guevara
guez
guggenheim
gui
guia
guiado
guiar
guide
guides
guido
guila
guillaume
guille
guillerme
guillermo
guimara
guinea
guinness
guio
guionista
guionistas
guipu
guitar
guitarra
guitarras
guitarrista
guitarristas
guitiriz
gula
gumersindo
gun
gunnar
guns
gunti
gupta
gur
guru
gusta
gustaba
gustav
gustave
gustavo
gusto
gustos
gutenberg
gutie
guy
guzma
gwynedd
h
ha
haas
hab
habana
habendo
haber
habera
haberi
habi
habilidade
habilidades
habita
habitaba
habitaban
habitacio
habitada
habitadas
habitado
habitan
habitante
habitantes
habituais
habitual
habitualmente
habsburgo
hace
hacer
hachette
hacia
had
haddock
hades
hadria
hadriano
haeckel
hahn
hai
haia
hainaut
hair
haiti
hal
hale
half
halifax
hall
halle
halo
ham
hamburg
hamburgo
hamilton
hamlet
hammond
hampshire
han
hand
handbook
handbuch
handler
hands
hank
hanna
hannah
hannover
hans
hansen
haploides
hapoel
happy
haps
hara
harald
harbor
harbour
hard
hardcore
hardware
hardy
hare
harlem
harmo
harmoni
haro
harold
harper
harriet
harris
harrison
harry
hart
hartley
harvard
harvey
has
hassan
hasta
hastings
hastra
hat
hatch
hate
hattusilis
haumea
have
haven
havilland
hawai
hawaii
hawk
hawker
hawkins
hawks
hawthorn
haxa
hay
hayden
haydn
hayes
hb
hbo
hc
hd
hdl
he
head
health
heart
hearts
heat
heath
heather
heaven
heavy
hebrea
hebreo
hebreos
hecq
hecta
hector
hegel
hei
heidegger
heidelberg
height
heine
heineken
heinkel
heinrich
heinz
hele
helen
helena
heleni
helicase
helico
helicoidal
helio
helios
hell
hello
helm
helmut
help
helsinqui
hematopoe
hemeroteca
hemingway
hemisferio
hemo
hemoglobina
hemorraxia
hemorraxias
hen
henares
henderson
hendrik
henri
henrik
henrique
henriques
henry
hepa
heparina
hepatite
hepburn
her
hera
heracles
heraclio
herald
heraldo
herba
herbario
herbas
herbert
herbi
hercegovina
hercules
herdada
herdado
herdanza
herdar
herdeira
herdeiro
herdeiros
herdou
here
heredia
hereditaria
hereditario
herexi
herge
heritage
hermafroditas
herman
hermann
hermanos
herme
hermene
hermes
hermida
hermione
herna
hernando
hernani
hero
herodes
heroe
heroes
heroi
heroica
herpes
herpesvirus
herrera
herrero
herri
herria
herrick
herschel
herzog
hesi
hesse
hessen
het
hetero
heteroxe
hexa
hexemoni
hey
hi
hialuro
hiato
hibridacio
hicks
hidalgo
hidden
hideyoshi
hidra
hidratos
hidro
hidroavio
hidrocarburos
hidroele
hidrofo
hidrogra
hidrografi
hidrolases
hidroxilo
hierarchy
hierro
hifas
higgins
high
higham
higher
highlands
highway
hija
hijo
hijos
hilbert
hilda
hildegard
hill
hills
himalaia
himeno
himno
himnos
hindi
hindu
hindui
hip
hiperbo
hipertensio
hipo
hipocampo
hipona
hipopo
hipota
hipote
hipoxia
hiroshima
his
hispa
hispana
hispania
hispano
hispanoame
hispanos
hist
histamina
histidina
histo
histoire
histolo
histoloxi
histona
histonas
historia
historiador
historiadora
historiadores
historial
historias
historic
historical
historicamente
historiogra
historiografi
historique
history
hit
hitchcock
hitita
hititas
hitler
hits
hixiene
hixino
hl
hla
hm
hms
ho
hobbit
hoboken
hoc
hockey
hodgson
hoffman
hoffmann
hogan
hogwarts
hohenstaufen
hohenzollern
hokkaido
hokusai
holanda
holande
holandesa
holandesas
holandeses
hold
holden
hole
holiday
holland
hollow
holly
hollywood
holmes
holocausto
holst
holstein
holt
holthuis
holy
hombre
hombres
home
homem
homenaje
homenaxe
homenaxes
homeopa
homeopati
homeostase
homer
homero
homes
homi
homicidio
homme
homo
homoloxi
homosexuais
homosexual
homosexualidade
homoxe
honda
hondarribia
honduras
honey
hong
honolulu
honor
honorario
honores
honori
honorio
honoris
honra
honrar
honras
honshu
hood
hook
hooker
hop
hope
hopkins
hopper
hora
horace
horacio
horario
horarios
horas
horizontais
horizontal
horizonte
hormona
hormonal
hormonas
horn
horner
hornets
horror
horse
horst
horta
hortalizas
hortas
horus
hospitais
hospital
hospitalario
hospitalet
host
hosti
hostil
hostilidade
hostilidades
hot
hoteis
hotel
houbera
houbese
houbo
houghton
hour
hours
house
houston
how
howard
howe
hoxe
hoy
hoyo
hp
hr
hrer
hrsg
hs
hsp
htm
html
http
https
hu
hua
huang
huatl
hubble
huber
hubert
hudson
huelva
huesca
hugh
hughes
hugin
hugo
hui
human
humana
humanas
humanidade
humanidades
humanismo
humanista
humano
humanos
humberto
humboldt
hume
humidade
humilde
humildes
humillacio
humor
humori
humorista
humoristas
humphrey
hundred
hungri
hunos
hunt
hunter
huntington
huro
hussein
hutchinson
hutton
huxley
huygens
hyde
hymenoptera
hyo
hz
i
ia
iaaf
iacarta
iago
ian
iana
iase
iata
ib
iba
iban
ibar
ibaraki
ibe
iberia
iberian
iberoamericana
iberos
ibi
ibilidade
ibis
ible
ibles
ibm
ibn
ibrahim
ic
icao
ice
ich
ichigo
ickx
ico
icon
icona
iconas
iconogra
iconografi
ictio
ictus
id
ida
idade
idades
idaho
ide
idea
ideais
ideal
idealismo
ideario
ideas
identidad
identidade
identidades
identifi
identifica
identificacio
identificada
identificadas
identificado
identificados
identifican
identificar
identificaron
identificarse
identification
identificou
identificouse
identities
identity
ideolo
ideoloxi
ideou
idioma
idiomas
ido
idos
ie
iec
ieee
iemen
ies
ieyasu
if
ifn
ig
iga
ige
igf
igg
iglesia
iglesias
ignacio
ignorancia
igo
igor
igrexa
igrexas
iguais
igual
igualada
igualar
igualdade
igualmente
ii
iii
ik
ikko
il
ildefonso
ile
ilegais
ilegal
ilexi
ili
iliria
ill
illa
illada
illadas
illado
illados
illamento
illar
illas
ille
illinois
illote
illotes
illustrated
iluminacio
ilusio
ilustra
ilustracio
ilustrada
ilustrado
ilustrador
ilustradores
ilustrados
ilustrar
ilustre
ilustres
ilves
im
ima
image
imagen
images
imagesize
imax
imaxe
imaxes
imaxinacio
imaxinar
imaxinaria
imaxinario
imdb
imer
img
imita
imitacio
imitando
imitar
immanuel
imola
imos
imp
impact
impacto
impactos
impar
imparte
impartir
impartiu
impedi
impedindo
impedir
impediron
impediu
imperiais
imperial
imperialismo
imperio
imperios
impide
impiden
implantacio
implementacio
impli
implica
implicaba
implicacio
implicada
implicadas
implicado
implicados
implican
implicar
implications
implicou
impo
impon
impopular
impor
importa
importacio
importancia
importante
importantes
importar
importe
imposi
imposibilidade
imposible
imposicio
imposta
impostas
imposto
impostos
imprensa
imprenta
impresa
impresas
imprescindible
impresio
impresionado
impresionante
impresionantes
impresionismo
impresionistas
impreso
impresos
imprimir
improbable
improvisacio
impu
impulsa
impulsada
impulsado
impulsar
impulso
impulsor
impulsores
impulsos
impulsou
impurezas
impuxo
in
ina
inacabada
inactiva
inactivacio
inactivo
inaugura
inauguracio
inaugurada
inaugurado
inaugural
inaugurou
inaugurouse
inc
inca
incapaces
incapacidade
incapaz
incas
incendio
incendios
incerta
incerteza
incerto
inch
incidencia
incidente
incidentes
incio
incipiente
incla
inclinacio
inclinada
inclinado
inclu
including
inclui
incluiri
inclusio
inclusive
incluso
inco
incompleta
incompleto
incondicional
inconsciente
inconveniente
inconvenientes
incorpo
incorpora
incorporacio
incorporada
incorporadas
incorporado
incorporados
incorporan
incorporando
incorporar
incorporaron
incorporarse
incorporou
incorporouse
incorrecta
incorrectamente
incorrecto
increme
increment
incrementa
incrementan
incrementando
incrementar
incremento
incrementou
incrementouse
incrible
incubacio
incumprimento
incursio
ind
inda
indalecio
indefinido
indemnizacio
independence
independencia
independent
independente
independentemente
independentes
independentismo
independentista
independentistas
independiente
independientes
index
indi
india
indian
indiana
indianapolis
indians
indias
indica
indicaba
indicaban
indicacio
indicada
indicadas
indicado
indicador
indicadores
indican
indicando
indicar
indicaron
indicativo
indicios
indicou
indie
indignacio
indio
indios
indique
indirecta
indirectamente
indirecto
indiscutible
indispensable
indistintamente
inditex
individuais
individual
individualmente
individuo
individuos
indo
indochina
indoeuropea
indoeuropeas
indoeuropei
indoeuropeo
indoeuropeos
indonesia
indonesio
induce
inducen
inducida
inducidas
inducido
inducio
inducir
industria
industriais
industrial
industrializacio
industrias
industry
indy
ine
inercia
inerte
inesperada
inesperado
inestabilidade
inestable
inevitable
inexistente
infancia
infanta
infantari
infante
infanteri
infantes
infanti
infantil
infanto
infarto
infeccio
infecciosas
infecta
infectada
infectadas
infectados
infectan
infectar
inferior
inferiores
inferioridade
inferno
infinidade
infinita
infinito
inflacio
inflamacio
inflamatoria
inflamatorias
inflexio
inflorescencia
inflorescencias
influ
influence
influencia
influenciada
influenciado
influenciados
influencias
influente
influentes
influi
influxo
info
informa
informacio
informado
informal
informar
informaron
information
informativa
informativo
informativos
informe
informes
informou
informouse
infraccio
infraestrutura
infraestruturas
inframundo
infraorde
infravermella
infravermello
infrecuente
infrecuentes
infty
infusio
inglaterra
ingle
inglesa
inglesas
ingleses
ingrediente
ingredientes
ingresa
ingresar
ingreso
ingresos
ingresou
ingrid
inhabilitacio
inherente
inhibe
inhiben
inhibicio
inhibidor
inhibidores
inhibir
ini
inicia
iniciacio
iniciada
iniciadas
iniciado
iniciados
iniciais
inicial
inicialmente
inician
iniciando
iniciar
iniciara
iniciaron
iniciarse
iniciativa
iniciativas
inicio
inicios
iniciou
iniciouse
inimiga
inimigas
inimigo
inimigos
inmaculada
inmediacio
inmediata
inmediatamente
inmediato
inmediatos
inmensa
inmenso
inmersio
inmigracio
inmigrante
inmigrantes
inminente
inmo
inmoble
inmortal
inmortalidade
inmune
inmunes
inmunidade
inmunitaria
inmunitarias
inmunitario
inmunodeficiencia
inmunoglobulina
inmunoglobulinas
inmunolo
inmunoloxi
inn
innata
innovacio
innovador
innovadora
innovadores
innsbruck
innumerables
ino
inocencia
inocencio
inocente
inocentes
inorga
inositol
input
inquisicio
inscricio
inscriptions
inscrita
inscrito
inscritos
insecti
insecticidas
insecto
insectos
insects
insee
insercio
inserido
insert
insi
inside
insignia
insignias
insistencia
insistiu
inso
inspeccio
inspector
inspira
inspiracio
inspirada
inspiradas
inspirado
inspirados
inspiraron
inspirou
inspirouse
insta
instala
instalacio
instalada
instalado
instalados
instalar
instalaron
instalarse
instalou
instalouse
instancia
instancias
instanta
instante
instauracio
instinto
institucio
institucionais
institucional
institui
institut
institute
institution
instituto
institutos
instrucio
instrui
instrumentacio
instrumentais
instrumental
instrumento
instrumentos
instrutor
insua
insuficiencia
insuficiente
insuficientes
insular
insulares
insulina
insurreccio
int
intacta
intacto
inte
integra
integracio
integrada
integradas
integrado
integrados
integrais
integral
integramente
integran
integrante
integrantes
integrar
integrarse
integridade
integrinas
integrou
integrouse
intel
intelectuais
intelectual
intelixencia
intelixente
intelixentes
intelligence
intencio
intendente
intensa
intensamente
intensas
intensidade
intensiva
intenso
intensos
intenta
intentaba
intentan
intentando
intentar
intentara
intentaron
intento
intentos
intentou
inter
interaccio
interacciona
interaccionan
interactive
interactivo
interactu
interamericana
intercambiar
intercambio
intercambios
intercontinental
intere
interesa
interesada
interesado
interesados
interesante
interesantes
interesarse
interese
intereses
interesouse
interestatal
interestelar
interface
interfaces
interferencia
interferencias
interferir
interfero
interino
interior
interiores
interkosmos
interleucina
intermedia
intermediario
intermediarios
intermedias
intermedio
intermedios
intermitente
interna
internacionais
internacional
internacionalmente
internado
internamente
internas
international
internationale
internet
interno
internos
interpre
interpreta
interpretaba
interpretacio
interpretada
interpretadas
interpretado
interpretados
interpretan
interpretando
interpretar
interpretaron
interpretou
interrompeu
interrompida
interrompido
interrupcio
interruptor
interscope
interseccio
intertoto
intervalo
intervalos
interve
interven
intervencio
interveu
interview
intervin
intervir
intestinais
intestinal
intestino
intestinos
intimamente
intimidade
into
intolerancia
intoxicacio
intracelular
intracelulares
intravenosa
intre
intri
intrigas
intro
introdu
introduccio
introduce
introducen
introduci
introducida
introducidas
introducido
introducidos
introducindo
introducio
introducir
introduciron
introduciu
introduciuse
introduction
intuicio
inu
inuit
inundacio
inva
invade
invaden
invadida
invadir
invadiron
invadiu
invalid
invasio
invasor
invasora
invasoras
invasores
invencio
inventada
inventado
inventario
invento
inventor
inventores
inventos
inventou
invernadoiro
invernal
inverno
invernos
inversa
inversamente
inversio
inverso
invertebrados
invertebrate
investido
investidores
investidura
investiga
investigacio
investigaciones
investigador
investigadora
investigadores
investigando
investigar
investigou
investimento
investimentos
investir
investiu
invierno
invisible
invitacio
invitada
invitado
invitados
invitou
involucrado
involucrados
inxeccio
inxectado
inxesta
inxestio
inxustiza
io
ioc
iodo
ioga
iolanda
ion
ionizacio
ios
iowa
ip
ipairs
iphone
ipni
ir
ira
iran
iraniana
iraniano
iraq
iraqui
ire
ireland
irene
ireneo
iri
iria
iris
irish
irixo
irixoa
irlanda
irlande
irlandesa
irlandeses
irma
irmandadas
irmandade
irmandades
irmandin
iro
iron
ironi
ironicamente
ironman
iroqueses
irregular
irregulares
irregularidades
irreversible
irrigacio
irse
iru
irvine
irving
is
isa
isaac
isabel
isabella
isabelle
isai
isbn
isbol
ise
isidoro
isidro
isis
isla
islam
islamic
island
islande
islandesa
islandia
islands
islas
isle
isles
ismael
ismo
iso
isoformas
isolde
isomeri
israel
israeli
issn
issue
issues
ist
ista
istambul
istas
istituto
istmo
isto
istria
it
ita
itachi
italia
italian
italiana
italianas
italiano
italianos
italo
italy
itanse
itase
item
itinerante
itinerario
itinerarios
itis
its
itunes
itv
iu
iucata
iucn
iugoslava
iugoslavas
iugoslavia
iugoslavo
iupac
iv
iva
ivan
iverson
ives
ivo
iwata
ix
ixase
iz
iza
izquierda
j
ja
jabbar
jacinto
jack
jackie
jackson
jacob
jacobo
jacobs
jacopo
jacqueline
jacques
jae
jagger
jaguar
jaime
jake
jakob
jam
james
jamie
jan
jane
janeiro
janet
january
japan
japanese
japonica
jar
jarama
jardi
jared
jason
jaume
java
javi
javier
jay
jazz
je
jean
jeanne
jedi
jeep
jeff
jefferson
jeffrey
jena
jenaro
jenkins
jenner
jennifer
jennings
jenny
jensen
jenson
jeremy
jerez
jero
jerome
jerry
jersey
jerusalem
jesse
jessica
jesu
jesus
jet
jets
jewish
jews
ji
jian
jim
jime
jimmy
jin
jo
joa
joachim
joan
joaqui
joaquim
jochen
joe
joel
joey
johan
johann
johanna
johannes
johansson
john
johnny
johns
johnson
johnston
joint
jon
jonas
jonathan
jones
jong
jons
jordan
jordi
jorge
jornal
jose
josef
josefa
josefina
josep
joseph
josephine
josh
joshua
jour
journal
journey
jours
joven
joventut
joy
joyce
jpeg
jpg
jpl
jr
jstor
jt
ju
jua
juan
juana
judas
judd
judi
judith
judo
judy
juego
jul
jules
julia
julian
julie
julien
juliette
julio
julius
july
jump
jun
june
jung
jungle
junior
juniors
juniperus
junta
jupiter
juri
juss
just
justice
justicia
justify
justin
justo
juvenil
juventud
juventudes
juventus
k
ka
kafka
kahn
kai
kain
kaiser
kalandraka
kan
kanagawa
kane
kansas
kant
kanto
kappa
kara
karabakh
karachi
karate
karel
karen
karl
karlsruhe
karting
kassel
kate
katharine
katherine
kathleen
kaufman
kaunas
kay
kazan
kazimierz
kb
kc
kda
kde
ke
keep
keith
kelly
kelvin
ken
kennedy
kenneth
kenny
kent
kentucky
kenya
kepler
kerala
kerenskii
kerr
kerry
kevin
kew
key
keynes
kg
kh
khan
khl
khmer
khrushchev
ki
kid
kidd
kids
kiel
kiko
kilimanjaro
kill
killer
killing
kim
kimi
king
kingdom
kingdoms
kingdon
kings
kingston
kinki
kirby
kirguizista
kiribati
kirk
kiss
kit
kitts
kj
kk
kkinen
klaus
klein
klm
km
kms
kn
knicks
knight
knockout
knopf
know
knowledge
known
knox
knuckles
ko
kobe
koch
kolchak
kong
konoha
konrad
korac
korsakov
kos
kosmos
kosovo
kowalski
kra
krai
kramer
krause
krebs
kremlin
ks
ku
kubica
kuhn
kuiper
kunst
kurt
kuwait
kv
kvyat
kw
kyle
kyu
l
la
lab
laba
labas
label
laberinto
labio
labios
labirinto
labor
laborais
laboral
laboratorio
laboratorios
laboratory
labores
laborista
labrada
labrador
labranza
labrego
labregos
labrus
lac
lace
lacerta
laco
lactacio
lactato
lactosa
ladeira
ladeiras
ladies
ladislao
lado
lados
ladra
ladrillo
ladrillos
ladro
lady
laffite
laga
lagarto
lagartos
lage
lago
lagoa
lagoas
lagopus
lagos
lagrange
laguna
lahuerta
lai
laica
laico
laicos
laiovento
lake
lakers
lakota
lali
lam
lama
lamanitas
lamarck
lamas
lamb
lambda
lambert
lamborghini
lameiro
lamela
lamo
lan
lancashire
lancaster
lance
lancia
land
landa
lands
lane
lang
lange
langobardorum
language
languages
langue
languedoc
lanka
lanse
lanterna
lanza
lanzada
lanzadas
lanzado
lanzador
lanzados
lanzamento
lanzamentos
lanzando
lanzar
lanzaron
lanzarote
lanzas
lanzo
lanzou
lanzouse
lao
laos
lapa
lapis
laplace
laponia
lapso
lar
lara
laracha
laranxa
laranxas
lareira
lares
larga
large
largo
largura
laro
larouco
larousse
larry
lars
larus
larva
larvas
las
lase
lasexta
lasker
laso
last
lastra
lat
lata
latas
late
latente
later
laterais
lateral
lateralmente
lati
latin
latina
latinas
latino
latinoame
latinoamericana
latinoamericanos
latinos
latitude
latitudes
lato
latorre
latreille
lau
lauda
laura
laureado
laureano
lauren
laurence
laurent
laurie
lausana
lava
lavado
lavadoiro
lavadores
lavandeira
lavar
law
lawrence
laxe
laxeiro
layer
laza
lazio
lazo
lazos
lb
lbum
lbums
lc
lccn
lceras
lculo
lculos
ld
ldica
ldico
ldl
ldots
le
lea
leach
league
leais
leal
lealdade
leandro
learning
leb
leben
lebre
lebres
leccio
lecer
leclerc
lector
lectores
lectura
lecturas
lecture
led
ledesma
ledicia
ledo
lee
leeds
left
lega
legacy
legado
legados
legais
legal
legalidade
legalmente
legane
legend
legends
legio
legumes
leguminosas
lei
leibniz
leicester
leiden
leigh
leinster
leipzig
leira
leirado
leiras
leiro
leis
leite
leito
leitos
lema
lembra
lembrado
lembran
lembrando
lembranza
lembranzas
lembrar
lembrou
lemos
len
lena
lenda
lendaria
lendario
lendas
lendo
length
lengua
lenguaje
lenguas
lenin
leningrado
leninista
lennon
lens
lenta
lentamente
lentas
lente
lentes
lento
lentos
lenzo
lenzos
leo
leoa
leon
leonard
leonardo
leone
leonesa
leonid
leonor
leopardo
leopardus
leopold
leopoldo
leos
lepido
lepidoptera
leptina
lepus
ler
lera
lerroux
les
lesa
lesbianas
lese
lesio
lesionado
leslie
lesson
leste
lester
let
letal
leto
letonia
letra
letras
letter
letters
lettres
leu
leucemia
leucina
leucocitos
lev
leva
levaba
levaban
levada
levadas
levado
levados
levallois
levalo
levan
levando
levanta
levantada
levantado
levantamento
levantamentos
levantar
levante
levantou
levantouse
levar
levara
levari
levaron
levarse
levase
leve
level
levemente
leven
leves
levi
levou
levouna
levouno
levouse
levy
lewis
lex
lexi
lexicon
lexikon
lexio
lexislacio
lexislativa
lexislativas
lexislativo
lexislatura
lexislaturas
lexitimidade
ley
leyenda
lez
lfp
lgara
lgaro
lgaros
lgbt
lgtb
lh
li
lia
liam
libe
liber
libera
liberacio
liberada
liberadas
liberado
liberados
liberais
liberal
liberalismo
liberan
liberando
liberar
liberdade
liberdades
liberia
liberou
libertad
libertadores
libertario
liberte
liberty
libia
libra
librari
library
libras
libre
libremente
libreri
libres
libreto
libri
libro
libros
lica
licas
lice
licencia
licenciada
licenciado
licenciatura
licenciou
licenciouse
license
licenza
licenzas
liceo
lices
liceu
licinio
lico
licor
licores
licos
lida
lidas
lidera
lideraba
liderada
liderado
liderados
liderando
liderar
liderou
lidia
lido
lidos
lie
liechtenstein
lied
lieder
lies
liexa
life
liga
ligada
ligadas
ligado
ligados
ligamento
ligamentos
ligando
ligandos
ligas
ligase
ligazo
light
lightgrey
lightning
lights
ligier
ligue
liguin
liguria
liiga
like
lille
lillian
lily
lim
lima
limbo
limi
limia
limiar
limita
limitaba
limitacio
limitada
limitadas
limitado
limitados
limitando
limitar
limited
limitou
limitouse
limo
limoges
limpa
limpar
limpeza
limpo
lin
lina
linares
lince
lincoln
linda
lindsay
lindsey
line
lineais
lineal
linear
lineares
lines
linfa
linfocitos
linfoma
ling
lingu
lingua
linguas
linguaxe
linguaxes
linguistic
linguistics
link
links
linnaeus
linne
linnean
linneo
lino
lintel
linux
lio
lion
lionel
lions
lipi
lipoprotei
liques
liquidacio
lira
liras
lis
lisa
lisas
lisboa
lise
lises
lisina
lisis
liso
lisos
lisosomas
list
lista
listas
listaxe
listo
liszt
lit
lite
litera
literal
literalmente
literaria
literarias
literario
literarios
literary
literatura
literaturas
literature
lites
litio
lito
litografi
litoral
litos
litro
litros
litte
little
litu
lituana
lituania
lituano
lituanos
liturxia
liu
live
liverpool
lives
livia
living
livio
livre
livro
lix
lixeira
lixeiramente
lixeiras
lixeiro
lixeiros
lixo
liz
lkenberg
ll
lla
llano
llanos
llanse
llase
lle
lleida
llense
ller
lles
llese
llo
llobregat
lloyd
llui
llywelyn
ln
lnb
lo
loa
loba
lobato
lobeira
lobios
lobo
lobos
loca
locais
local
locali
localidade
localidades
localiza
localizacio
localizada
localizadas
localizado
localizados
localizar
localmente
loci
locke
lockheed
loco
locomocio
locomotora
locomotoras
locucio
locus
lodo
lodos
log
loga
logan
logaritmo
logas
logo
logos
logotipo
logra
logrado
logran
logrando
lograr
lograra
lograri
lograron
logro
logron
logros
logrou
loira
loire
lois
loita
loitaba
loitaban
loitador
loitadores
loitan
loitando
loitar
loitaron
loitas
loito
loitou
lola
lomax
lomba
lombardi
lombardo
lombo
lon
londiniense
london
londres
lonely
long
longa
longacre
longametraxe
longametraxes
longas
longo
longobardo
longobardos
longos
lonxe
lonxevidade
lonxitude
lonxitudes
lonxitudinais
lonxitudinal
look
looking
loop
lope
lopes
lopez
lopo
lor
lorca
lord
lorena
lorenz
lorenzo
lores
los
losada
lost
lot
lotario
lote
lotes
loto
lotus
lou
loucura
louis
louise
louisiana
louisville
lourdes
loureda
louredo
loureiro
lourenc
lourenza
lourenzo
lourido
louro
lousa
lousada
lousame
lousas
louvre
louza
lovaina
love
low
lowe
lower
loxa
loxi
loxicamente
lozano
lp
lpito
ls
lt
ltd
ltda
ltica
lticas
ltico
lticos
ltima
ltimas
ltimo
ltimos
ltiple
ltiples
ltiplo
ltiplos
lu
lua
luaces
luanda
luar
lublin
lubre
luc
luca
lucas
lucca
lucense
luces
lucha
luci
lucia
luciano
lucien
lucio
lucius
lucky
lucro
lucus
lucy
ludovico
ludwig
lufthansa
luftwaffe
lugar
lugares
lugartenente
lugo
lugri
lugue
lui
luigi
luis
luisa
luisiana
luiz
luka
luke
lula
lulas
lume
lumes
lumie
luminosa
luminosidade
luminoso
luna
lunar
lunares
lund
luns
lupus
luras
lusitania
lusitanica
luso
luterana
lutero
luther
luvas
lux
luxemburg
luxemburgo
luxo
luz
luzo
lv
lvarez
lvaro
lvense
lvese
lvez
lviv
lvora
lvula
lvulas
lxebra
lxica
ly
lydia
lyell
lymantria
lynch
lynn
lynx
lyon
lys
m
ma
mabel
mac
macau
macbeth
maccabi
macdonald
maceda
macedo
macedonia
macedonio
macedonios
maceira
maceiras
mach
machada
machado
machi
machine
macho
machos
machu
maci
macizo
mackenzie
macmillan
maco
macro
macromole
mad
madagascar
madalena
madame
made
madeira
madeiras
madeleine
mades
madison
madonna
madre
madrid
madrilen
madrin
madrugada
madura
maduracio
maduran
maduras
madurez
madureza
maduro
maduros
mae
maestro
mafia
mag
magalha
magallanes
magazine
magdalena
maggie
magic
magister
magma
magna
magnate
magne
magnesio
magnetismo
magneto
magni
magnitude
magnitudes
magno
magnolia
magnum
magnus
magnussen
mago
magos
magreb
maguncia
mahal
mahler
mahoma
mai
maia
maias
maiden
mail
maila
mailo
mailos
main
maine
mainstream
maio
maior
maiores
maiori
maioritaria
maioritariamente
maioritario
maiormente
mais
maison
maiu
major
make
maker
making
mal
mala
malaia
malaio
malaisia
malaria
malas
malato
malaui
malcolm
maldicio
maldito
maldivas
maldonado
male
males
malestar
malformacio
mali
malia
malik
malla
mallo
mallorca
malmo
malo
malone
malos
malpica
malta
malte
malthus
malvado
malvinas
mama
mame
mamede
mami
mammal
mammalogy
mammals
man
mana
management
manager
manancial
mancha
manchas
manchester
manchuria
mancomunidade
manda
mandado
mandamentos
mandar
mandari
mandas
mandato
mandatos
mandela
mandeo
mandi
mando
mandos
mandou
maneira
maneiras
manet
manexar
manexo
manfred
manfredo
manga
manganeso
mangas
mango
manhattan
mani
manife
manifesta
manifestacio
manifestantes
manifesto
manifestou
manila
manipulacio
manipular
manitoba
mann
manning
mano
manobra
manobras
manoel
manolo
manor
manos
manosa
manresa
manrique
mans
mansa
manse
mansell
mansio
manso
manson
manta
mante
manteiga
mantemento
manten
mantendo
mantense
manter
manteri
manterse
manti
mantida
mantido
mantin
mantive
mantiveron
mantivo
manto
mantua
manu
manuais
manual
manuel
manuela
manufactura
manuscrito
manuscritos
many
manzanares
manzaneda
manzano
mao
maoi
maori
map
mapa
mapaches
mapas
maps
mapuche
mapuches
maqueta
maquetas
maquillaxe
maquinaria
mar
mara
marabedi
marabillas
maran
maras
marato
marbella
marburg
marc
marca
marcaba
marcada
marcadamente
marcadas
marcado
marcador
marcadores
marcados
marcan
marcando
marcar
marcaron
marcas
marcel
marcela
marcelino
marcello
marcelo
march
marcha
marchaba
marchar
marcharon
marchas
marchou
marciais
marcial
marciano
marco
marcos
marcou
marcus
mare
marea
mareas
marela
mares
marfil
margaret
margarida
margarita
margot
marguerite
mari
maria
mariana
marianas
marianne
mariano
marido
marie
marilyn
marin
marina
marine
mariner
marines
marino
mario
marion
marisa
mariscal
marisco
mariscos
marismas
maritime
mark
market
marko
marks
marlowe
marne
marque
marques
marquesa
marquesado
marqueses
marro
marrocos
marroqui
mars
marsella
marsh
marshall
marsilea
marsupiais
marta
marte
martel
martelo
martes
martha
marti
martin
martini
martinica
martins
martirio
marussia
maruxa
marvel
marvin
marx
marxe
marxes
marxinais
marxinal
marxismo
marxista
marxistas
mary
maryland
marzo
mas
masa
masacre
masacres
masas
mascota
mascotas
masculina
masculinas
masculino
masculinos
mase
maselle
maserati
maside
masiva
masivas
masivo
masivos
mask
maso
mason
mass
massa
massachusetts
massimo
masson
master
masters
mastro
mat
mata
matador
matalo
matalobos
matan
matando
matanza
matanzas
matar
mataro
mataron
matas
match
mate
matema
matematicamente
mateo
mater
materia
materiais
material
materialismo
materias
materna
maternidade
materno
mateu
math
mathbb
mathbf
mathcal
mathematical
mathematics
mathrm
mati
matices
matilda
matilde
matisse
mato
matogueiras
matos
matou
matra
matri
matrices
matriculouse
matrimoniais
matrimonial
matrimonio
matrimonios
matrix
matriz
matt
matter
matthew
matthews
matthias
maura
mauri
maurice
mauricio
mauritania
mauro
mausoleo
mavericks
max
maxestade
maxi
maxia
maxilar
maxim
maximiliano
maximino
maximus
maxisterio
maxistrado
maxistrados
maxwell
may
maya
mayer
maynard
mayo
mayor
mayr
maza
mazaricos
mazo
mb
mbalas
mbar
mbito
mbitos
mbolo
mbolos
mbox
mbra
mbrico
mbulo
mc
mccarthy
mccartney
mccready
mcdonald
mcdonnell
mcfarland
mcgraw
mckenna
mclaren
md
me
mea
mead
mean
meca
mecanismo
mecanismos
mecenas
med
meda
medal
medalla
medallas
medallista
medallistas
medallo
medals
medea
medelli
medes
medi
media
mediacio
mediada
mediado
mediador
mediadores
mediados
medial
mediana
mediano
medianoite
mediante
medias
medicacio
medical
medicamento
medicamentos
medici
medicina
medicinais
medicinal
medicine
medicio
medida
medidas
medido
medievais
medieval
medina
medindo
medio
medioambiental
mediodi
medios
medir
meditacio
mediterra
mediterranean
medo
medos
medra
medran
medrando
medrar
medrou
medula
medusa
meeting
mega
megali
mehmed
meiga
meigas
meiji
meila
mein
meio
meiose
meira
meirande
meirandes
meirin
meis
mejor
mel
melancoli
melanina
melanogaster
melbourne
melchor
mele
melide
melilla
melissa
mella
mellifera
mellitus
mellor
mellora
mellorada
mellorado
mellorando
mellorar
melloraron
melloras
mellores
mellorou
melo
melodi
melville
melvins
membrana
membranas
membro
membros
memo
memoirs
memoria
memorial
memoriam
memorias
memory
memphis
men
mena
mencin
mencio
menciona
mencionada
mencionadas
mencionado
mencionados
mencionan
mencionar
mencionou
mendel
mendelssohn
mendes
mendiza
mendo
mendoza
mene
menes
menin
meninxite
meno
menor
menorca
menores
menos
mensaxe
mensaxeiro
mensaxeiros
mensaxes
mense
menstruacio
menstrual
mensuais
mensual
ment
mentais
mental
mentalidade
mente
mentes
mentira
mentiras
mentor
mentres
menu
mequinensa
mer
mera
meras
merca
mercado
mercadores
mercadori
mercados
mercadotecnia
mercanci
mercante
mercantes
mercantil
mercar
merce
mercedes
mercenarios
mercia
mercou
mercurio
mercury
merece
mergulladores
mergullo
meridiano
meridionais
meridional
merino
merli
merlin
merlo
mero
merops
meros
merriam
mes
mesa
mesas
mese
meses
meseta
meshname
mesi
mesia
mesma
mesmas
mesmo
mesmos
meso
mesoame
mesoplodon
mesopotamia
mesquita
mesquitas
message
messina
mesta
mestalla
mestra
mestrado
mestras
mestre
mestres
mestri
mestu
mestura
mesturada
mesturado
mesturados
mesturan
mesturando
mesturar
mesturas
met
meta
metabo
metabolismo
metabolitos
metacritic
metade
metades
metafi
metais
metal
metallica
metalu
metalurxia
metamo
metamorfose
metano
metanol
metas
mete
meteoritos
meteorolo
meteoroloxi
meter
meterse
meteu
method
methods
metil
metilacio
metilo
metionina
metodolo
metodoloxi
metralladoras
metro
metropolita
metropolitan
metropolitana
metropolitanas
metropolitano
metros
metz
meu
meus
mexicana
mexicano
mexicanos
mexico
mexillo
meyer
mez
mezonzo
mezquita
mg
mgm
mhc
mhz
mi
mia
miami
miarn
mic
mica
micas
mice
michael
michel
michelangelo
michele
michelle
michigan
mick
mickey
mico
micos
micro
microbiana
microbio
microbiol
microbiology
microbioloxi
microbios
microgli
micronesia
microondas
microorganismo
microorganismos
microsco
microscopi
microscopio
microsoft
microtu
mics
mid
mida
midas
middle
middlesex
mide
miden
mides
midi
midnight
mido
midos
mie
mielina
mieres
mifflin
mig
migracio
migran
migrantes
migratoria
migratorias
migratorios
miguel
mika
mike
mikel
mikhail
mil
mila
milagre
milagres
milagros
milan
milano
mile
milenio
milenios
miles
mileto
mili
milicia
milicianos
milicias
milita
militaba
militancia
militante
militantes
militar
militares
militarmente
military
militou
milk
mill
milla
milladoiro
millares
millas
mille
milleiro
milleiros
millennium
millepora
miller
million
millo
millones
mills
milne
milo
milos
milton
milwaukee
mimetismo
min
mina
minardi
minari
minas
mind
mine
mineira
mineiras
mineiro
mineiros
minerais
mineral
mineraloxi
mineri
minerva
ming
minho
mini
miniatura
miniaturas
minimizar
miniserie
ministerio
ministerios
ministra
ministro
ministros
ministry
minneapolis
minnesota
minor
minori
minoritaria
minoritarias
minoritario
minos
minsk
mint
minu
minutes
minuto
minutos
mio
miocardio
mioceno
miosina
miquel
mir
mira
miracle
mirada
miradoiro
miraflores
miranda
mirande
mirando
mirar
miras
miriam
miro
mirror
mis
misa
misas
miscela
mischocyttarus
miseria
misericordia
misio
misioneiro
misioneiros
mismo
miss
missa
missing
mission
mississippi
missouri
misterio
misterios
misteriosa
misterioso
mistral
mit
mitanni
mitchell
mite
mites
mitin
mito
mitochondrial
mitocondria
mitocondrial
mitocondrias
mitolo
mitologi
mitoloxi
mitos
mitose
mitra
mitri
mitsubishi
miu
mix
mixta
mixtas
mixto
mixtos
miyazaki
mk
ml
mlb
mls
mm
mn
mo
moa
moan
moas
mobile
mobiliario
mobilidade
mobilizacio
mobles
moc
mocidade
mocin
mocio
moco
moda
modalidade
modalidades
mode
model
modelaxe
modelo
modelos
models
moderada
moderadamente
moderadas
moderado
moderados
modern
moderna
modernas
moderne
modernidade
modernismo
modernista
modernistas
modernizacio
moderno
modernos
modesta
modesto
modifica
modificacio
modificada
modificadas
modificado
modificados
modifican
modificando
modificar
modificou
modificouse
modo
modos
modulacio
modular
module
moeche
moeda
moedas
mogol
mogor
mohamed
mohammad
mohammed
moi
moire
moires
moise
moita
moitas
moiti
moito
moitos
mol
mola
moldavia
molde
moldes
mole
molecular
moleculares
molgas
molina
moll
mollado
mollo
mollusca
molly
molo
molucas
molusco
moluscos
moma
momento
momentos
momia
mommsen
mon
mona
monacal
monaco
monarca
monarcas
monarqui
monasterio
moncada
moncho
mondadori
mondariz
monde
mondo
mondon
mondrago
mone
moneda
monedas
monet
moneta
monetaria
monetarias
monetario
monetarios
money
monfero
monforte
mongois
mongol
mongolia
monica
monicreques
monitor
monk
monkey
monnaie
monnaies
mono
monocatenario
monocitos
monoclonais
monocotiledo
monofile
monogra
monografi
monopolio
monopraza
monoprazas
monos
monosaca
monotei
monoti
monroe
mons
monsieur
monster
monstro
monstros
mont
monta
montada
montado
montados
montan
montana
montar
montaxe
monte
monteagudo
montederramo
monteiro
montenegro
montero
monterrei
monterrey
monterroso
montes
monteverdi
montevideo
montfort
montgomery
month
monthly
monti
montjui
montou
montouto
montpellier
montreal
montreux
montserrat
monty
monumentais
monumental
monumento
monumentos
monxa
monxas
monxe
monxes
monza
monzo
moon
moore
mor
mora
morada
morais
moral
moralejo
morales
moralidade
moran
moravia
morcego
morcegos
mordomo
more
morea
moreda
moreira
moreiras
morena
moreno
morfolo
morfoloxi
morfoloxicamente
morgan
mori
morir
moritz
mormo
morning
moro
moroni
morphology
morrazo
morre
morren
morrendo
morrer
morrera
morreri
morreron
morreu
morri
morris
morrison
morro
morse
mort
morta
mortais
mortal
mortalidade
mortas
morte
morteiro
mortes
morto
morton
mortos
mos
mosaico
mosaicos
mosca
moscas
moscoso
moscova
moscow
moses
mosquera
mosquito
mosquitos
moss
most
mostaza
mosteiro
mosteiros
mostra
mostraba
mostraban
mostrado
mostran
mostrando
mostrar
mostraron
mostras
mostraxe
mostrou
mostrouse
mota
mother
moti
motion
motivacio
motivada
motivado
motivo
motivos
motivou
moto
motocicletas
motociclismo
motogp
motor
motora
motoras
motores
motors
motorsport
motos
motriz
moucho
mount
mountain
mountains
moura
moure
mourenta
mourente
mourin
mouro
mouros
mouse
move
movement
movemento
movementos
moven
mover
moverse
moveuse
movi
movida
movie
movies
movimiento
movistar
moya
moyen
moza
mozambique
mozart
mozas
mozo
mozos
mp
mpada
mpadas
mpano
mpica
mpicas
mpico
mpicos
mpre
mr
mrs
ms
msg
msnm
msterdam
msterdan
msw
mt
mtv
mu
much
mucosa
mucosas
muda
mudando
mudanza
mudanzas
mudar
mudaron
mudarse
mude
mudo
mudou
mudouse
muere
muerte
muertos
mugardos
muhammad
mui
muin
muisca
muiscas
mujer
mujeres
mula
muller
mulleres
mulo
mulos
multa
multi
multilingu
multimedia
multinacional
multiple
multiplica
multiplicacio
multiplicar
multiterritorial
multitude
multixogador
mun
mundi
mundiais
mundial
mundialmente
mundo
mundos
municio
municipais
municipal
municipalidade
municipio
municipios
munin
munster
mur
mura
murais
mural
muralla
murallas
muras
murat
murcia
murder
murgui
murillo
muro
muros
murphy
murray
mursilis
mus
musa
musas
muscular
musculares
musculatura
muse
museo
museos
museu
museum
museums
musgos
music
musica
musicais
musical
musicalmente
musicians
musico
musique
mussolini
must
mustafa
musulma
muta
mutacio
mutante
mutantes
mutaxe
mutua
mutuamente
mutuo
muxi
muy
mv
mvp
mw
mx
my
myanmar
myers
myspace
mystery
myth
mythology
mytilus
n
na
naa
nabla
nabo
nace
nacemento
nacementos
nacen
nacente
nacer
nacera
naceron
naceu
nach
nacho
naci
nacida
nacido
nacidos
nacio
nacionais
nacional
nacionalidade
nacionalidades
nacionalismo
nacionalismos
nacionalista
nacionalistas
nacionalizacio
nacionalizado
naco
nad
nada
nadadores
nadal
nadan
nadar
nadas
nadh
nadia
nadie
nado
nados
nadph
nagano
nagasaki
nai
nails
nais
naked
nalgu
nalgunha
nalgunhas
nam
name
namentres
names
namibia
namo
namora
namorada
namorado
namur
nan
nana
nancy
nano
nanotecnoloxi
nanse
nantes
nao
napoleo
napoli
napolitano
naquel
naquela
naquelas
naqueles
nara
narciso
nariz
naro
narra
narracio
narrador
narradores
narrativa
narrativas
narrativo
naruto
narva
nas
nasa
nasais
nasal
nase
nash
nashville
nassau
nat
nata
natacio
natal
natalia
natalidade
natalie
nate
nathan
nation
national
nationale
nationalism
nations
nativa
nativas
native
nativo
nativos
natl
natura
naturae
naturais
natural
naturales
naturaleza
naturalis
naturalismo
naturalista
naturalistas
naturalmente
nature
naturelle
naturels
natureza
naufraxio
naufraxios
nauru
navais
navajo
naval
navalla
navarra
navarro
navarros
navas
nave
navegacio
navegador
navegante
navegantes
navegar
navegou
naves
navi
navia
navy
naxos
nazaret
nazi
nazionale
nazis
nazismo
nba
nbc
nc
ncaa
ncara
ncbi
ncer
nchen
nchez
ncia
ncianse
ncias
nciase
ncipe
ncipes
ncora
ncreas
nculo
nculos
nd
nda
ndalo
ndalos
ndar
ndara
ndares
ndase
nde
ndel
ndelle
ndem
ndense
nder
ndese
ndez
ndice
ndices
ndico
ndido
ndo
ndoa
ndoas
ndole
ndolle
ndolles
ndoo
ndoos
ndor
ndose
ndrica
ndricas
ndrico
ndrome
ndromes
ndula
ndulas
ndulo
ne
nea
neal
near
neas
nebra
nebrasca
nebraska
nebre
nebulosa
nebulosas
neca
necesaria
necesariamente
necesarias
necesario
necesarios
necesidade
necesidades
necesita
necesitaba
necesitaban
necesitan
necro
necrolo
necrose
ned
neda
need
neerlande
neerlandesa
neerlandesas
neerlandeses
nefi
nefitas
nega
negacio
negar
negaron
negarse
negativa
negativamente
negativas
negativo
negativos
negociacio
negociar
negocio
negocios
negociou
negou
negouse
negra
negras
negreira
negri
negro
negros
negu
negueira
neil
neill
neira
nel
nela
nelas
neles
nelson
nematodos
nen
nena
nenas
nenez
neno
nenos
nense
neo
neocla
neoclasicismo
neoli
neon
neos
neozelande
nepal
neptuno
ner
nero
neros
neruda
nervio
nervios
nerviosa
nerviosas
nervioso
nerviosos
nes
nesa
nesas
nese
neses
nesgo
nesta
nestas
neste
nestes
net
neta
netanyahu
netflix
netherlands
neto
netos
nets
network
neue
neumann
neural
neuro
neurolo
neurona
neuronais
neuronal
neuronas
neurotransmisor
neurotransmisores
neustria
neutra
neutrais
neutral
neutralidade
neutras
neutro
nevada
neve
never
neves
neville
nevis
new
newark
newcastle
newell
newman
newport
news
newton
next
ney
nez
nf
nfase
nfl
ng
ngara
ngaras
ngaro
ngaros
ngc
ngel
ngela
ngeles
ngua
nguense
nguese
nguez
ngulo
ngulos
nh
nhl
ni
nia
nic
nica
nicaragua
nicas
niccolo
nice
nicea
nicho
nicholas
nichols
nicholson
nichos
nick
nico
nicola
nicolao
nicolas
nicole
nicomedes
nicos
nida
nidacio
nidas
nides
nido
nidos
nie
niels
nielsen
nieto
nietzsche
nieves
nigel
night
nights
nigra
nih
nike
niki
nikita
nikola
nikolai
nil
nilo
nima
nimas
nime
nimo
nimos
nin
nina
nine
nineteenth
ninfa
ninfas
ningu
ningue
ningunha
ninja
nino
nintendo
nio
nior
nippon
nirvana
nissan
nisto
nit
nita
nito
nitrato
nitro
niveis
nivel
nix
nixeria
nixon
niz
niza
nj
nk
nl
nlm
nm
nme
nn
no
noah
nobel
nobiliario
nobiliarios
noble
nobre
nobres
nobreza
noceda
nocello
noces
noche
noches
nocio
nocivos
nocturna
nocturnas
nocturno
nocturnos
nodo
nodos
noe
noel
nogais
nogueira
noia
noir
noise
noite
noites
noiva
noivo
nolan
nom
noma
nomas
nombre
nombres
nome
nomea
nomeada
nomeadas
nomeado
nomeados
nomeamento
nomeamentos
nomeando
nomear
nomencla
nomenclatura
nomenclature
nomeou
nomeouno
nomes
nominal
nominativo
nomo
nomos
non
none
noo
nor
nora
noradrenalina
nord
norde
nordeste
nordiques
norfolk
noriega
norma
normais
normal
normalidade
normalizacio
normalmente
norman
normanda
normandi
normando
normandos
normas
normativa
noroccidental
noroeste
nororiental
norris
norte
norteame
norteamericana
norteamericanas
norteamericano
norteamericanos
north
northern
northumbria
northwest
norton
noruega
noruegue
norueguesa
noruegueses
norwich
nos
nosa
nosas
noso
nosos
nossa
nostoc
nostra
not
nota
notabelmente
notable
notablemente
notables
notacio
notar
notario
notas
note
notes
nothing
noti
noticia
noticias
noticiero
notoriedade
notou
notre
nottingham
nou
nous
noutra
noutras
noutro
noutros
nouveau
nouvelle
nov
nova
novak
novamente
novas
novato
nove
novel
novela
novelas
novelista
novelistas
november
novembro
novena
noveno
noventa
novgorod
novi
novidade
novidades
novo
novoa
novoneyra
novos
now
nowak
nowitzki
noya
noz
np
nquima
nr
ns
nsase
nscrito
nse
nseca
nsito
nster
nsul
nsula
nsulas
nsules
nt
ntabro
ntalle
ntame
ntanse
ntara
ntase
nte
nter
ntes
ntese
nteses
nther
ntica
nticas
ntico
nticos
ntida
ntima
ntimo
ntimos
ntoma
ntomas
ntranse
ntrase
ntrica
ntricas
ntrico
ntricos
ntropo
nu
nube
nubes
nubia
nuclear
nucleares
nucleico
nucleicos
nucleo
nuestra
nuestro
nuestros
nueva
nuevas
nuevo
nuevos
nuggets
nui
nula
nulo
nulos
num
numancia
number
numbers
nume
numeracio
numerario
numerosa
numerosas
numeroso
numerosos
numis
numisma
numismatic
numismatica
numismatics
numismatique
numismatist
numista
nun
nunavut
nunca
nunes
nunha
nunhas
nuno
nuns
nupcias
nur
nuria
nus
nutricio
nutricional
nutrientes
nutrition
nuts
nxel
nxeles
nxer
ny
nzase
nzen
nzkabinett
o
oa
oak
oakland
oaks
oasis
oaxaca
obama
obe
obediencia
obelisco
obesidade
obi
obituario
obituary
object
obra
obradoiro
obradoiros
obras
obre
obreira
obreiras
obreiro
obreiros
obrera
obrero
obriga
obrigaba
obrigacio
obrigada
obrigadas
obrigado
obrigados
obrigando
obrigar
obrigaron
obrigas
obrigatoria
obrigatorio
obrigou
obse
observa
observacio
observada
observadas
observado
observador
observadores
observados
observan
observando
observar
observaron
observarse
observations
observatorio
observatorios
observatory
observou
observouse
obsesio
obsoleto
obsta
obstante
obstrucio
obte
obten
obtencio
obtendo
obtense
obter
obteri
obterse
obti
obtida
obtidas
obtido
obtidos
obtin
obtivera
obtiveron
obtivo
obviamente
obxeccio
obxectiva
obxectivo
obxectivos
obxecto
obxectos
oc
oca
ocampo
ocas
ocasio
ocasionais
ocasional
ocasionalmente
ocasionou
occidentais
occidental
occidentalis
occidente
occitana
occitania
occitano
oce
ocea
ocean
oceani
oceano
oceanogra
oceanografi
och
ochoa
ochotona
ocio
oclc
oco
ocon
ocorra
ocorre
ocorren
ocorrer
ocorrera
ocorreron
ocorreu
ocorri
ocorrida
ocorrido
ocorridos
ocos
oct
octaviano
octavio
october
octogonal
octubre
ocu
ocular
oculares
oculta
ocultar
ocultas
oculto
ocultos
ocupa
ocupaba
ocupaban
ocupacio
ocupacional
ocupada
ocupadas
ocupado
ocupados
ocupan
ocupando
ocupantes
ocupar
ocupara
ocupari
ocuparon
ocupou
ocupouse
oda
oder
odesa
odi
odio
odisea
odiseo
odo
odos
oeste
of
ofensiva
ofensivas
ofensivo
oferta
ofertas
off
offa
office
official
officinalis
offs
oficiais
oficial
oficialidade
oficialmente
oficina
oficinas
oficio
oficios
ofre
ofrece
ofrecen
ofrecendo
ofrecer
ofreceron
ofreceu
ofreceulle
ofreceuse
ofreci
ofrecida
ofrecido
ofrenda
ofrendas
og
ogg
oh
ohio
oi
oia
oil
oilers
ois
oise
oitava
oitavo
oitavos
oitenta
oito
ojos
ok
okinawa
oklahoma
ol
ola
olaf
olas
old
ole
oleg
oleiros
oles
olfacto
olga
oli
oligarqui
oligoceno
oligonucleo
oligosaca
olimpi
olimpia
olimpo
oliva
olivares
oliveira
oliveiras
oliver
olivia
olivier
ollada
ollar
ollo
ollos
olmedo
olmo
olo
ologie
olor
olos
olsen
olveira
olvido
olympia
olympiacos
olympic
olympique
om
oma
omaha
omar
ombre
ombreiro
ombreiros
omega
omeia
omisio
omni
oms
on
once
onda
ondas
onde
one
ones
ong
oni
online
only
ono
onoma
ons
ontario
onte
ontolo
onu
onza
op
opcio
opcional
ope
opel
open
opera
operaba
operacio
operacional
operado
operador
operadora
operadores
operados
operan
operando
operar
operativa
operativo
operativos
operatorname
operi
opero
operou
opinan
opinio
opo
opon
oponse
oportunidade
oportunidades
oposicio
opositor
opositores
oposta
opostas
oposto
opostos
oppenheimer
opresio
optar
optaron
optimista
optimizacio
options
optou
opu
opuntia
opus
opuxe
opuxo
or
ora
oracio
orador
orais
oral
oralmente
orange
oras
oratorio
orbis
orbita
orbitais
orbital
orchestra
orde
orden
ordena
ordenacio
ordenada
ordenadas
ordenado
ordenador
ordenadores
ordenados
ordenamento
ordenanza
ordenanzas
ordenar
ordenou
order
ordered
ordes
ordinaria
ordinario
ordo
ordon
orego
oregon
orella
orellas
orense
ores
orestes
orfeo
orfo
orfos
org
orga
organi
organic
organisation
organismo
organismos
organista
organiza
organizacio
organizada
organizadas
organizado
organizador
organizadores
organizados
organizan
organizando
organizar
organizaron
organization
organizou
organizouse
orgullo
ori
orial
oricon
orient
orientacio
orientada
orientadas
orientado
orientados
orientais
oriental
orientalis
orientation
oriente
orificio
orificios
origen
origin
original
origins
orihuela
orio
oriol
orion
orita
orixe
orixes
orixi
orixina
orixinada
orixinado
orixinados
orixinais
orixinal
orixinalidade
orixinalmente
orixinan
orixinando
orixinar
orixinaria
orixinariamente
orixinarias
orixinario
orixinarios
orixinaron
orixinarse
orixinou
orixinouse
orlando
orlea
orleans
ornamentacio
ornamentais
ornamental
ornamentos
ornithology
ornito
ornitolo
ornitoloxi
oro
orochimaru
orografi
orosio
oroso
oroxe
oroxenia
orquesta
orquestra
orquestracio
orquestrais
orquestral
orquestras
orqui
orr
ortega
ortegal
ortigueira
ortiz
orto
ortodoxa
ortodoxas
ortodoxia
ortodoxo
ortodoxos
ortogra
ortografi
orza
orzamento
orzamentos
os
osa
osaca
osaka
osas
osasuna
osborne
oscar
oscila
oscilacio
oscilan
oseira
osetia
osi
osiris
oskar
oslo
osmo
oso
osorio
osos
ostenta
ostentaba
ostentou
ostrobotnia
ostrogodos
oswald
oswiu
ot
otan
otava
otero
other
oto
otoma
otra
otras
otro
otros
ottawa
otto
ottoman
ou
ouest
ouno
our
ourensa
ourense
ourin
ourivari
ourizo
ourizos
ouro
ourol
ouse
out
outeiro
outeiros
outes
outo
outono
outorga
outorgaba
outorgada
outorgado
outorgados
outorgar
outorgou
outorgoulle
outra
outras
outro
outrora
outros
outubro
ov
ova
oval
ovalada
ovario
ovarios
ove
ovella
ovellas
over
overview
ovidio
oviedo
ovo
ovocito
ovos
owain
owen
own
oxford
oxi
oxidacio
oxidase
oxidativa
oxidativo
oz
oza
ozono
ozores
p
pa
pablo
pac
pace
pacers
pacheco
paci
paciencia
paciente
pacientes
pacific
pacifista
pacios
packers
paco
pacto
pactos
padal
padece
padecen
padecer
padeceu
padeci
paderne
padi
padilla
padre
padrenda
padres
padrin
padro
padroado
padua
pag
paga
pagamento
pagamentos
pagan
paganismo
pagar
page
pages
pago
pagos
pagou
pagurus
pai
paido
pain
painting
paio
pairs
pais
paisaxe
paisaxes
paisaxi
paixo
pakistan
pal
pala
palabra
palabras
palace
palacio
palacios
palais
palas
palatinado
palatino
palau
palazzo
palco
pale
palencia
palenque
paleo
paleoli
paleonto
paleontology
paleontoloxi
paleozoico
palermo
palestina
palestino
palestinos
paleta
paley
palgrave
palla
pallacanestro
pallares
pallas
palm
palma
palmare
palmas
palmeira
palmeiras
palmer
palmira
palo
paloma
palos
pama
pambre
pamela
pampa
pamplona
pan
panama
panamen
panamericana
panathinaikos
panca
pancho
pancrea
panda
pandemia
paneis
panel
panisse
pano
panonia
panora
panorama
panoramio
panos
pans
panse
pantaleo
pantalla
pantallas
pantalo
pantano
pantanos
pantasma
pantasmas
panteo
pantera
panto
panzer
pao
paolo
papa
papado
papagaios
papal
papas
papeis
papel
papeletas
paper
papers
papiro
papu
paquete
paquetes
paquista
paquistani
par
para
parabo
paracai
parada
paradanta
paradas
parade
paradela
paradigma
paradise
parado
parador
paradoxo
paradoxos
parafile
parafuso
paraguai
parai
paralela
paralelamente
paralelas
paralelismo
paralelo
paralelos
parali
param
parameter
parameters
paramilitares
paramount
paran
parana
parar
parasito
parasitos
paraugas
paraxe
parc
parcelas
parche
parciais
parcial
parcialmente
parda
pardal
pardas
pardin
pardo
pare
parece
parecen
parecer
pareceu
pareci
parecida
parecidas
parecido
parecidos
parede
paredes
parella
parellas
parental
parente
parentes
parentesco
pares
parga
pari
paridade
paris
parisiense
park
parker
parkinson
parks
parlamentaria
parlamentarias
parlamentario
parlamentarios
parlamento
parlamentos
parma
parms
parnell
paro
parodia
paros
parou
parque
parques
parra
parroquia
parroquiais
parroquial
parroquias
parsons
part
parte
parten
parteno
partenoxe
partes
parti
partia
partial
particio
participa
participaba
participaban
participacio
participado
participan
participando
participante
participantes
participar
participara
participari
participaron
participou
particular
particulares
particularidade
particularidades
particularmente
partida
partidario
partidarios
partidas
partido
partidos
partindo
partir
partiron
partit
partitura
partituras
partiu
partizan
parto
partos
parts
party
pas
pasa
pasaba
pasaban
pasada
pasadas
pasadena
pasado
pasados
pasamento
pasan
pasando
pasaporte
pasar
pasara
pasaran
pasarela
pasari
pasaron
pasase
pasatempo
pasaxe
pasaxeiro
pasaxeiros
pasaxes
pascal
pascua
pascual
pase
pasen
paseo
paseos
paseriformes
pasha
pasio
pasiva
pasivo
paso
pasos
pasou
pasouse
passion
past
pasta
pasteiros
pastel
pasteur
pasto
pastor
pastora
pastoral
pastoreo
pastores
pastoriza
pastos
pat
pata
pataca
patacas
patagonia
patas
pate
patente
patentes
patera
paterna
paterno
path
pati
patin
patinaxe
patio
pato
patolo
patoloxi
patos
patoxe
patrese
patria
patriarca
patriarcado
patriarcal
patriarcas
patricia
patricio
patrick
patrimoines
patrimonial
patrimonio
patrio
patriotas
patriots
patro
patroa
patrocinado
patrocinador
patrocinadores
patrocinio
patronais
patronal
patrulla
pattern
patterns
patterson
patton
pau
paul
paula
paulatinamente
pauli
pauline
pauling
paulino
paulista
paulo
pauly
paus
pausa
pausanias
pautas
pavel
pavi
pavillo
pavo
pax
paxaro
paxaros
payne
pays
paz
pazo
pazos
pb
pbs
pc
pce
pcg
pcr
pd
pdf
pe
peace
pearl
pearson
peaxe
pecado
pecados
peces
pecha
pechada
pechadas
pechado
pechados
pechando
pechar
peche
pechou
pechouse
peci
peck
pectorais
pectoral
peculiar
peculiares
peculiaridades
pedago
pedagogo
pedagoxi
pedani
pede
pedes
pedestal
pedi
pedido
pedidos
pedindo
pedir
pedirlle
pediron
pediu
pediulle
pedra
pedrafita
pedras
pedrayo
pedreira
pedro
pedrosa
pedroso
pedu
peel
pega
pegada
pegadas
peggy
peirao
peiraos
peiteado
peito
peitos
peixe
peixes
pel
pela
pelaxe
pelayo
pele
peles
pelexa
pelexas
peli
pelicanos
pelicans
pelo
peloponeso
pelos
pelota
peloto
pelve
pementa
pemento
pen
pena
penais
penal
penalizacio
penalti
penaltis
penas
penda
pendente
pendentes
pene
peneda
penedo
penela
penetra
penetracio
penetrar
penguin
peni
penicilina
penicillium
peninsular
peninsulares
peniques
penn
pennsylvania
penny
pensa
pensaba
pensaban
pensado
pensador
pensadores
pensamento
pensamentos
pensamiento
pensan
pensando
pensar
pensilvania
pensio
penso
pensou
pensouse
penta
penu
peo
peonil
people
peoples
peor
peores
pep
pepa
pepe
pepper
peppers
pepti
peptidoglicano
pequen
pequena
pequenas
pequeno
pequenos
pequi
per
pera
perante
peras
percepcio
percibe
percibir
perciformes
percorre
percorren
percorrendo
percorrer
percorreu
percorrido
percorridos
percusio
percy
perda
perdas
perde
perden
perdendo
perder
perdera
perderi
perderon
perderse
perdese
perdeu
perdeuse
perdi
perdida
perdidas
perdido
perdidos
perdix
perdo
perdurou
pere
pereda
peregrina
peregrinacio
peregrino
peregrinos
pereira
pereiro
perenne
perennes
peres
perez
perfeccio
perfect
perfecta
perfectamente
perfecto
perfi
perfil
perforacio
performance
pergamin
peri
pericles
perife
periferia
perigo
perigos
perigosa
perigosas
perigoso
perigosos
perio
period
periodicamente
periodicidade
periodismo
periodista
periodistas
periplo
perixeo
perkins
perla
perlas
permanece
permanecen
permanecendo
permanecer
permanecera
permaneceri
permaneceron
permaneceu
permaneci
permanencia
permanente
permanentemente
permanentes
permeabilidade
permi
permiano
permiso
permisos
permita
permitan
permite
permiten
permiti
permitida
permitido
permitindo
permitir
permitira
permitiri
permitiron
permitise
permitiu
permitiulle
perna
pernas
pero
peroxa
perpendicular
perpendiculares
perpetua
perpetuo
perpian
perrin
perry
persa
persas
perse
persecucio
persegue
persegui
perseguido
perseguidos
perseguir
perseus
persia
persian
persiste
persistencia
persistente
persistentes
persoa
persoais
persoal
persoalmente
persoas
persoeiros
personal
personalidade
personalidades
personaxe
personaxes
personificacio
perspectiva
perspectivas
perspective
perspectives
pertence
pertencen
pertencente
pertencentes
pertencer
pertenceu
pertenci
pertenza
perth
perturbacio
peru
peruana
peruano
perugia
pes
pesa
pesaba
pesada
pesadas
pesado
pesados
pesan
pesar
pesca
pescador
pescadores
pescar
pescozo
pescuda
pese
pesetas
peso
pesos
pesqueira
pesqueiras
pesqueiro
pesqueiros
pessoa
peste
pesticidas
pet
peta
pete
peteiro
peter
peters
petersburgo
peterson
peti
peticio
petit
peto
petos
petra
petri
petro
petrogrado
petroli
petrus
peugeot
pez
peza
pezas
pg
ph
phacus
phane
phantom
phe
phi
phil
philadelphia
philip
philipp
philippe
philips
phillip
phillips
philosophical
philosophie
philosophy
phoenix
photo
photographic
photos
php
phylogenetic
phylogenetics
phylogeny
phylum
physical
physics
physiology
pi
pia
piadoso
pianista
pianistas
piano
pianos
piar
piares
piazza
pib
pic
pica
picada
picado
picallo
picante
picas
picasso
picchu
pice
pichichi
pick
pico
picos
picto
pictos
picture
pictures
pida
pidal
pidas
pide
pides
pido
pidos
pie
piece
pieces
piedade
piedra
piel
piemonte
pier
pierce
piero
pierre
pieter
pietro
pigmentacio
pigmento
pigmentos
pila
pilar
pilas
pilastras
pillado
pilotado
pilotando
pilotar
piloto
pilotos
pilotou
pimentel
pin
pina
pindo
pine
ping
pingas
pingu
pinheiro
pink
pino
pinochet
pinos
pinta
pintada
pintadas
pintado
pintados
pintar
pintas
pinto
pintor
pintora
pintores
pintos
pintou
pintura
pinturas
pinus
pinyin
pinza
pio
piollos
pioneer
pioneira
pioneiras
pioneiro
pioneiros
piotr
piper
pipino
piques
piquet
piqui
pira
piragu
piramidal
pirata
piratas
pirateri
pirates
pirelli
pireneos
pireo
pires
pirofosfato
pironi
pirro
piruvato
pisa
pisanello
pisces
piscina
piscinas
piso
pisos
pista
pistas
pisto
pistola
pistons
pistrucci
pit
pita
pitago
pitchfork
piter
pito
pitos
pitt
pittsburgh
piu
pivote
pivotes
pixar
pixies
pizarro
pka
pl
pla
plac
placa
placas
place
placebo
placenta
placentarios
places
plain
plan
plana
planas
planck
plancto
planeaba
planeado
planeou
planet
planeta
planetaria
planetario
planetary
planetas
planicie
planicies
planificacio
plano
planos
plans
plant
planta
plantacio
plantagenet
plantarum
plantas
plants
plaquetas
plasencia
plasma
plasmodium
plasticidade
plata
plataforma
plataformas
plate
platino
plato
plauto
play
playa
player
playoff
playoffs
playstation
plaza
ple
please
plebiscito
plena
plenamente
plenitude
pleno
plenos
pleuronectes
pleuronectiformes
plexo
plica
plicas
plinio
plioceno
plistoceno
plotarea
plotdata
pluma
plumas
plumaxe
plural
plus
plutarco
pluto
plutonio
plymouth
pm
pmatrix
pmc
pmid
pnas
pneuma
pneumoni
pneumoniae
png
pnv
po
poblacio
pobo
poboacio
poboacional
poboada
poboadas
poboado
poboadores
poboados
poboamento
pobos
pobra
pobre
pobres
pobreza
poca
pocas
pocket
poco
pode
podemos
poden
podendo
poder
podera
poderes
poderi
poderosa
poderosas
poderoso
poderosos
podes
podi
podio
podios
podo
podos
poe
poema
poemario
poemas
poems
poesi
poesia
poeta
poetas
poetisa
poetry
poets
poida
poidan
point
points
poio
poirot
pois
poisson
poitiers
poitou
poke
pol
pola
polaca
polacas
polaco
polacos
polar
polares
polaridade
polarizacio
polas
polbo
pole
poles
polgadas
polgar
poli
polibio
police
polici
policiais
policial
policy
polideportivo
polifo
polimerase
polimerases
polimerizacio
polimorfismo
polimorfismos
polinesia
polinizacio
polinomio
polinomios
polio
polipe
polipepti
polis
polisaca
politburo
polite
politei
political
politicamente
politics
pollock
polo
polonia
polos
polpa
polucio
pomba
pombal
pombas
pombo
pomerania
pompeia
pompeio
pon
ponce
pondal
pondo
ponferrada
pons
ponse
pont
ponte
ponteareas
ponteceso
pontecesures
pontedeume
pontenova
pontes
pontevedra
pontevedre
ponti
pontificado
pontificia
pontificio
pontificios
ponto
pool
poole
pop
popa
pope
popper
popular
populares
popularidade
popularizou
popularmente
population
populations
por
porcelana
porcentaxe
porcentaxes
porcio
porco
porcos
pore
pori
porno
pornogra
pornografi
poro
poros
porque
porqueira
porrin
porsche
port
porta
portaavio
portada
portadas
portador
portadores
portais
portal
portando
portas
portavoz
porte
porteiro
porteiros
portela
porter
porteri
portland
porto
portomari
portorriquen
portos
portrait
portuaria
portugal
portugue
portuguesa
portuguesas
portugueses
pos
posada
pose
poseido
posesio
posgrao
posguerra
posi
posibelmente
posibilidade
posibilidades
posible
posiblemente
posibles
posicio
posicionamento
position
positiva
positivamente
positivas
positivismo
positivo
positivos
posse
possible
post
posta
postais
postal
postas
poste
posteridade
posterior
posteriores
posterioridade
posteriormente
postes
posto
postos
postsina
postula
postulados
postumamente
postura
posturas
posu
posui
pot
pota
potable
potasio
potencia
potenciais
potencial
potencialmente
potenciar
potencias
potente
potentes
potestade
potter
pou
pouca
poucas
pouco
poucos
pound
pour
pousa
pousada
povo
powell
power
powys
poxa
poza
pozas
poznan
pozo
pozos
pp
ppdeg
ppm
pr
pra
pracer
praceres
practica
practicaba
practicaban
practicada
practicamente
practican
practicando
practicantes
practicar
practice
practicou
prada
pradairo
praderi
pradesh
prado
prados
praga
pragas
pragma
praia
praias
pranchas
prat
prata
prateada
prato
pratos
pratt
praza
prazas
prazo
pre
prea
precaucio
precede
precedente
precedentes
precedida
precedido
preceptos
preciosas
preciosos
precipitacio
precisa
precisaba
precisamente
precisan
precisar
precisas
precisio
precision
preciso
precisos
precolombiana
precoz
precursor
precursora
precursores
predacio
predador
predadores
predecesor
predecesores
predi
predicacio
predicio
predicir
predilecto
predomina
predominan
predominante
predominantemente
predominantes
predominio
prefacio
prefecto
prefectura
preferencia
preferencias
preferente
preferentemente
preferi
preferida
preferido
preferidos
preferindo
preferiu
prefire
prefiren
prefix
prefixo
pregamento
pregamentos
prego
pregu
pregunta
preguntas
preguntou
prehisto
prehistoria
preis
preito
prelado
preliminar
preliminares
prelo
preludio
prematura
prematuramente
premiada
premiado
premiados
premier
premiership
premio
premios
premisa
pren
prensa
prentice
preocupa
preocupacio
preocupado
preocupante
prepa
prepara
preparaba
preparacio
preparada
preparadas
preparado
preparados
preparando
preparar
prepararse
preparativos
preparou
preposicio
prerroma
presa
presas
presbi
presbiterio
prescricio
prese
presencia
present
presenta
presentaba
presentaban
presentacio
presentada
presentadas
presentado
presentador
presentadora
presentadores
presentados
presentan
presentando
presentar
presentara
presentaron
presentarse
presente
presentes
presentou
presentouse
presenza
preservacio
preservados
preservar
preside
presidencia
presidenciais
presidencial
president
presidenta
presidente
presidentes
presidida
presidido
presidir
presidiu
presio
presley
preso
presos
press
presses
presta
prestacio
prestado
prestados
prestar
prestige
prestixio
prestixiosa
prestixioso
prestixiosos
preston
prestou
presumiblemente
presuntamente
presuposto
prete
pretempada
pretende
pretenden
pretendente
pretendentes
pretendeu
pretendi
pretensio
pretexto
preto
pretty
prevalencia
preve
prevencio
prevention
preventiva
previ
previa
previamente
previas
previo
previos
previr
previsio
prevista
previstas
previsto
previstos
previsualizacio
prexudiciais
prexudicial
prexui
prezo
prezos
pri
price
priest
prieto
prim
prima
primaci
primaria
primarias
primario
primarios
primas
primates
primavera
prime
primeira
primeiramente
primeiras
primeiro
primeiros
primer
primera
primitiva
primitivas
primitivo
primitivos
primo
primordial
primos
primoxe
prince
princesa
princess
princeton
principado
principados
principais
principal
principalmente
principia
principio
principios
principles
print
printing
prionailurus
prior
priori
prioridade
prioridades
prisio
prisioneiro
prisioneiros
prisma
privacidade
privacio
privada
privadas
privado
privados
private
privatizacio
privilexiada
privilexio
privilexios
prix
prize
pro
proa
proba
probabelmente
probabilidade
probabilidades
probable
probablemente
probada
probado
probar
probas
probe
problem
problema
problemas
problems
probo
probou
proc
procariotas
proce
procede
procedemento
procedementos
proceden
procedencia
procedente
procedentes
proceder
procedeu
procedi
proceedings
procesado
procesador
procesados
procesamento
procesar
procesio
proceso
procesos
process
procla
proclama
proclamacio
proclamada
proclamadas
proclamado
proclamar
proclamarse
proclamou
proclamouse
proco
procura
procurador
procuradores
procurando
procurar
procurou
produ
produccio
producciones
produce
producen
produci
producida
producidas
producido
producidos
producindo
producio
producir
producira
produciri
produciron
producirse
produciu
produciuse
production
productions
products
produtiva
produtividade
produtivo
produtivos
produto
produtor
produtora
produtoras
produtores
produtos
produza
produzan
prof
profeci
profesio
profesionais
profesional
profesionalmente
profesor
profesora
profesorado
profesores
professional
professor
profeta
profetas
profile
profunda
profundamente
profundas
profundidade
profundidades
profundo
profundos
progno
program
programa
programacio
programada
programado
programas
progresio
progresista
progresistas
progresiva
progresivamente
progresivo
progreso
progresos
progress
prohibe
prohibi
prohibicio
prohibida
prohibidas
prohibido
prohibidos
prohibir
prohibiu
project
prokofev
prol
proletariado
proli
proliferacio
prolonga
prolongacio
prolongada
prolongado
prolongouse
promesa
promesas
promete
prometedor
prometeu
prometida
prominente
prominentes
promocio
promocional
promocionar
promontorio
promotor
promotora
promotores
promove
promoven
promovendo
promover
promoveu
promovida
promovido
promulgacio
promulgada
promulgou
pronome
pronomes
pronto
pronu
pronuncia
pronunciacio
pronunciada
pronunciado
pronunciamento
pronunciar
pronunciou
proof
propagacio
propaganda
propagandi
propelente
property
propia
propiamente
propias
propiciou
propiedade
propiedades
propietaria
propietario
propietarios
propio
propios
propo
propon
propor
proporcio
proporciona
proporcionaba
proporcionada
proporcional
proporcionalmente
proporcionan
proporcionando
proporcionar
proporcionaron
proporcionou
proposicio
proposta
propostas
proposto
propostos
propu
propulsio
propun
propuxe
propuxeron
propuxo
prosa
proseguir
proseguiu
prosperar
prosperidade
prosperou
prost
prostitucio
prostituta
prostitutas
protagonismo
protagonista
protagonistas
protagonizada
protagonizado
protagonizar
protagonizou
protease
proteases
proteccio
protection
protector
protectora
protectorado
protectores
protei
proteica
proteicas
proteico
proteicos
protein
proteins
proteo
proteoli
protesta
protestante
protestantes
protestantismo
protestas
protexe
protexen
protexer
protexerse
protexi
protexida
protexidas
protexido
protexidos
protistas
proto
protocol
protocolo
protocolos
proton
prototipo
prototipos
protozoos
proust
prove
provedor
provedores
proveito
proven
proveniente
provenientes
provenza
provenzal
prover
providence
providencia
provin
province
provincia
provinciais
provincial
provincias
provisio
provisional
provisionalmente
provoca
provocada
provocadas
provocado
provocados
provocan
provocando
provocar
provocaron
provocou
proxeccio
proxecta
proxectada
proxectado
proxectar
proxecti
proxecto
proxectos
proxenitor
proxenitores
proxesterona
proximal
proximidade
proximidades
proyecto
prunus
prusia
prusiana
prusiano
pryce
ps
psa
psc
psdeg
pse
pseudo
pseudomonas
pseudoxenes
psg
psi
psicana
psico
psicode
psicolo
psicoloxi
pside
psidos
psiquia
psiquiatra
psiquiatri
psoe
psori
psula
psulas
psv
psychology
pt
ptase
ptero
pteros
ptica
pticas
ptico
pticos
ptido
ptidos
ptiles
ptima
ptimo
ptolomeo
pts
pu
pub
puberdade
publi
public
publica
publicaba
publicacio
publicaciones
publicada
publicadas
publicado
publicados
publicamente
publican
publicando
publicar
publicara
publicaron
publicarse
publication
publications
publicidade
publicitaria
publicitario
publicitarios
publicou
publicouse
publio
publique
published
publishers
publishing
pubmed
puccini
puebla
pueblo
pueblos
puede
puente
puerta
puerto
puf
puga
puglia
pui
puidera
puideran
puideron
puidese
puidesen
puido
puig
pujol
pula
pulas
pulitzer
pulmo
pulmonar
pulmonares
pulo
pulos
pulso
pulsos
puma
pumpkins
pun
punjab
punk
punta
puntas
punto
puntos
puntuacio
puntuais
puntual
puntuar
punxi
pupa
pura
puramente
puras
pure
pureza
purificacio
puro
puros
purple
putin
putnam
puxe
puxera
puxeron
puxo
px
pylori
pyrenaica
python
q
qatar
qid
qin
qing
qquad
qu
quad
quantum
quarter
quarterly
quatre
que
quebec
quebra
quecemento
quechua
queda
quedaba
quedaban
quedan
quedando
quedar
quedara
quedaran
quedari
quedaron
quedase
quede
queden
quedou
queen
queens
queensland
queima
queimada
queimado
queimados
queimaduras
queimar
queipo
queira
queixa
queixas
queixo
queixos
quel
quen
quenda
quendas
quenlla
quenta
quentar
quente
quentes
quentin
quer
queratina
quercus
quere
querela
queremos
queren
querer
queres
queri
querida
querido
quero
quesada
quest
question
quetzal
quevedo
quez
qui
quico
quida
quido
quidos
quie
quien
quiero
quijote
quilo
quilogramos
quilome
quilos
quimera
quimicamente
quimioterapia
quin
quina
quinas
quinase
quinases
quince
quincenal
quinn
quinta
quintana
quintas
quintela
quinteto
quinto
quioto
quique
quiro
quiroga
quistes
quita
quitar
quito
quixeron
quixese
quixo
quixote
quizais
quo
r
ra
raa
raba
raban
rabe
rabes
rabia
rabino
rabinowitch
rabo
race
racha
rachel
raciais
racial
racing
racionais
racional
racionalismo
racismo
rad
rada
radar
radiacio
radiais
radial
radiation
radica
radicais
radical
radicalmente
radio
radioactividade
radioactivo
radioactivos
radiodifusio
radiofo
radios
radioterapia
rae
raf
rafa
rafael
rafinesque
rag
rage
rahman
rai
raia
raias
railway
raimundo
rain
rainbow
rainer
raio
raios
rairiz
rajoy
rale
ralf
ralle
rally
rallys
ralph
ram
rama
ramal
ramallosa
ramas
rami
ramificacio
ramil
ramira
ramiro
ramo
ramon
ramona
ramos
rampla
ramse
ramui
ran
rana
rancho
rand
randall
rande
randi
randolph
random
randy
range
ranger
rangers
rango
rangos
rano
ranse
rao
raoul
rap
rapa
rapaces
rapaz
rapaza
rapazas
rapeiro
raphael
rapid
rapidamente
rapidez
raposo
raposos
raptors
raquel
rara
raramente
raras
rard
rare
raro
raros
ras
rase
rastro
rastros
rat
rata
ratas
rate
ratificacio
ratificado
ratificou
ration
rato
ratos
rau
raven
raw
rax
ray
raymond
rayo
raza
razas
raziel
razo
razoable
razoamento
rb
rbara
rbaro
rbaros
rber
rberes
rbita
rbitas
rbitro
rbitros
rbol
rbore
rbores
rburgring
rc
rca
rcase
rcd
rcel
rcena
rcere
rceres
rcito
rcitos
rcores
rcules
rculo
rculos
rd
rda
rdase
rdez
rdica
rdicas
rdico
rdicos
rdoba
re
rea
reaccio
reacciona
reaccionan
reaccionar
reaccionou
reactivas
reactividade
reactivo
reactivos
reactor
reactores
read
reader
reading
reagan
reais
real
reales
realeza
reali
realice
realidad
realidade
realidades
realismo
realista
realistas
reality
realiza
realizaba
realizaban
realizacio
realizada
realizadas
realizado
realizador
realizados
realizan
realizando
realizar
realizara
realizari
realizaron
realizarse
realizou
realizouse
realmente
reapareceu
reas
reason
rebautizada
rebautizado
rebeca
rebecca
rebela
rebelde
rebeldes
rebeldi
rebelio
reboredo
rebotes
recadacio
recadar
recadou
recaeu
receita
receitas
recensio
recent
recente
recentemente
recentes
recepcio
receptor
receptores
recesio
rechamante
rechamantes
recheo
recherche
reci
recibe
reciben
recibi
recibida
recibidas
recibido
recibidos
recibindo
recibir
recibira
recibiri
recibiron
recibiu
reciclaxe
recinto
recintos
recipiente
recipientes
recitais
recital
reclama
reclamaba
reclamacio
reclamado
reclamando
reclamar
reclamou
reclui
reclusio
reco
recoleccio
recolectores
recolle
recollen
recollendo
recoller
recolleu
recolli
recollida
recollidas
recollido
recollidos
recombinacio
recombinante
recome
recomenda
recomendacio
recomendado
recomendou
recompensa
recompilacio
recompilatorio
recompilatorios
recon
reconciliacio
reconquista
reconstrucio
reconstrui
reconto
recopa
record
recorda
recordar
recording
recordings
recordo
recordos
records
recorre
recorrente
recorrentes
recorrer
recorreu
recortes
recreacio
recreativa
recreativo
recreo
recrutado
recrutamento
recrutar
recta
rectangular
rectangulares
rectas
recto
rectos
recubrimento
recupera
recuperacio
recuperada
recuperado
recuperados
recuperando
recuperar
recuperaron
recuperarse
recuperou
recuperouse
recurso
recursos
red
redaccio
redactado
redactar
redactor
redactores
redactou
rede
redencio
redes
redesen
redonda
redondas
redondela
redondo
redor
redox
redu
reduce
reducen
reduci
reducida
reducidas
reducido
reducidos
reducindo
reducio
reducir
reduciron
reduciu
reduciuse
redutase
redutor
reed
reeder
reedicio
reeditada
reeditado
reeleccio
reelixido
reentrada
reentrou
reestruturacio
reeves
ref
refe
reference
referencia
referencias
referendo
referente
referentes
referi
referida
referido
referidos
referir
referirnos
referirse
referiuse
refi
refinado
refire
refiren
reflecti
reflectida
reflectido
reflectindo
reflections
reflectir
reflexio
reflexo
reflexos
refli
reflicte
reflicten
reforma
reformada
reformado
reformar
reformas
reformista
reformistas
reforza
reforzada
reforzado
reforzar
reforzo
reforzos
reforzou
refra
refraccio
refraneiro
refrixeracio
refugallos
refuxia
refuxiados
refuxiarse
refuxio
refuxios
refuxiouse
rega
regadi
regalo
regan
regato
regatos
regazzoni
reggae
reggie
reggio
regia
regina
reginald
regio
region
regional
regionalista
register
registry
regnum
rego
regra
regras
regresa
regresan
regresando
regresar
regresaron
regresio
regreso
regresou
regueira
regueiro
regula
regulacio
regulada
reguladas
regulado
regulador
reguladora
reguladoras
reguladores
regulados
regulamento
regulamentos
regulan
regular
regulares
regularidade
regularmente
rehabilitacio
rei
reich
reid
reign
reigosa
reilly
reimpresio
reims
reina
reinado
reinados
reinante
reinar
reino
reinos
reinou
reis
reitor
reitoral
reivindicacio
reixa
rela
relacio
relaciona
relacionada
relacionadas
relacionado
relacionados
relacionan
relacionar
relacionarse
relaciones
relata
related
relations
relationships
relativa
relativamente
relativas
relatividade
relativo
relativos
relato
relatorio
relatos
relaxacio
release
relegado
relevancia
relevante
relevantes
relevo
relevos
religion
reliquias
relixio
relixiosa
relixiosas
relixioso
relixiosos
relo
reloxo
reloxos
remake
remata
rematada
rematadas
rematado
rematados
rematan
rematando
rematar
rematara
rematari
remataron
remate
rematou
remberg
rembrandt
remedio
remedios
remember
remix
remixes
remo
remodelacio
remolacha
remonta
remontan
remontar
remota
remotas
remoto
remotos
remove
ren
renacemento
renacentista
renacentistas
renacimiento
renais
renaissance
renal
renania
renato
renault
renda
rendas
rende
rendemento
render
renderse
rendeu
rendeuse
rendi
rendible
rendicio
rene
renfe
rennes
reno
renome
renomeada
renomeado
renova
renovables
renovacio
renovada
renovado
renovar
renovou
rense
renuncia
renunciar
renunciou
reo
reorganizacio
reos
repa
reparacio
reparar
reparti
reparticio
repartidas
repartidos
repartimento
repartir
repentina
repentinamente
repercusio
repertorio
repeti
repeticio
repetida
repetidamente
repetidas
repetido
repetidos
repetindo
repetir
repetiu
repi
repite
replicacio
repoboacio
report
reportaxe
reportaxes
reporteiro
reports
repositorio
reposto
repouso
represalia
represaliados
represalias
represe
representa
representaba
representaban
representacio
representada
representadas
representado
representados
representan
representando
representante
representantes
representar
representaron
representativa
representativas
representativo
representativos
representou
represio
represor
reprimir
reprinted
reprise
reprodu
reproduce
reproducen
reproduci
reproducio
reproducir
reproducirse
reprodutiva
reprodutivo
reprodutor
reprodutora
reprodutoras
reprodutores
reptiles
repu
republic
republicana
republicanas
republicanismo
republicano
republicanos
reputacio
requeixo
requi
requiem
require
requiren
requiri
requirida
requirido
requirimento
requirimentos
requirir
requiriu
requisito
requisitos
rer
rerum
res
resaltar
rescatar
rescate
rese
research
reserva
reservada
reservado
reservas
reside
residen
residencia
residenciais
residencial
residencias
resident
residente
residentes
residi
residindo
residir
residiu
residuais
residual
residuo
residuos
resina
resistance
resiste
resistencia
resistencias
resistente
resistentes
resistir
resistiu
resolto
resolucio
resolve
resolver
resolveu
resonancia
resort
resorte
resource
resources
respecta
respectado
respectando
respectar
respectivamente
respectivas
respectivo
respectivos
respecto
respiracio
respirar
respiratoria
respiratorias
respiratorio
respiratorios
responde
responden
responder
responderon
respondeu
respondi
responsa
responsabilidade
responsabilidades
responsable
responsables
resposta
respostas
resta
restablecemento
restablecer
restante
restantes
restauracio
restaurada
restaurado
restaurante
restaurantes
restaurar
restaurou
restitui
resto
restos
restricio
restrinxida
restrinxido
result
resulta
resultaba
resultado
resultados
resultan
resultando
resultante
resultantes
resultar
resultari
resultaron
resultou
results
resume
resumo
resurreccio
ret
retablo
retablos
retagarda
retardo
rete
retencio
reter
reti
retina
retinal
retira
retirada
retiradas
retirado
retirados
retirar
retiraron
retirarse
retiro
retirou
retirouse
retivo
reto
retoma
retomar
retomou
retorna
retornar
retorno
retornou
retorta
retos
retransmisio
retrata
retrato
retratos
retrieved
retro
retroalimentacio
retroceder
retroceso
retrospectiva
retrovirus
return
returns
reu
reuni
reunida
reunidas
reunido
reunidos
reunificacio
reunio
reunir
reuniron
reunirse
reuniu
reuniuse
reus
reutemann
reuters
rev
revalidou
reve
revela
revelacio
revelado
revelan
revelar
revelaron
revelou
revelouse
revenge
reverendo
reverse
reversible
reverso
reversos
reverte
reverter
revestimento
review
reviews
revisa
revisada
revisadas
revisado
revisar
revised
revisio
revision
revisited
revisou
revista
revistas
revitalizacio
revival
revivir
revolta
revoltas
revolucio
revolucionaria
revolucionarias
revolucionario
revolucionarios
revolution
revue
rex
rexe
rexedor
rexeita
rexeitaba
rexeitada
rexeitadas
rexeitado
rexeitados
rexeitamento
rexeitan
rexeitando
rexeitar
rexeitaron
rexeitou
rexemento
rexementos
rexencia
rexeneracio
rexente
rexi
rexio
rexionais
rexional
rexionalismo
rexionalista
rexistra
rexistrada
rexistradas
rexistrado
rexistrados
rexistrar
rexistraron
rexistro
rexistros
rexistrou
rexistrouse
rexurdimento
rey
reyes
reynolds
rez
reza
reznor
rfc
rfef
rficas
rg
rgamo
rgano
rganos
rgase
rgb
rgen
rgio
rguese
rho
rhode
rhodes
rhododendron
rhythm
ri
ria
rial
rianxo
rias
riazor
riba
ribadavia
ribadeo
ribadumia
ribarteme
ribas
ribeira
ribeiras
ribeiro
ribera
ribosa
riboso
ribosoma
ribosomas
ric
rica
ricard
ricardo
ricas
riccardo
ricciardo
rice
rich
richard
richards
richardson
richmond
richter
rick
ricky
rico
ricos
rida
ridas
ride
rider
rides
ridge
rido
ridos
rie
riego
riemann
rien
riera
ries
rif
riff
riga
right
rightarrow
rights
rigo
rigor
rigorosa
rigoroso
rigos
ril
riles
riley
rima
rimas
rimskii
rin
rinco
ring
ringleiras
ringo
rings
rinoceronte
rio
riobo
rios
riot
riotorto
rioxa
riqueza
riquezas
risco
riscos
rise
rising
risk
risso
rita
ritchie
ritmo
ritmos
rito
ritos
ritu
rituais
ritual
riva
rivais
rival
rivalidade
rivalidades
rivas
river
rivera
rivero
rivers
rix
rixidez
rk
rl
rm
rmaco
rmacos
rmanse
rmase
rmica
rmicas
rmico
rmicos
rmites
rmore
rms
rmula
rmulas
rn
rna
rnas
rnase
rnea
rnico
ro
roa
road
rob
robbins
robert
roberto
roberts
robertson
robin
robinson
robles
robo
robot
robots
robusta
robusto
roca
rocas
rocco
rocha
rochas
roche
rochester
rochosa
rochosas
rochoso
rochosos
roci
rock
rockefeller
rocket
rockets
rocky
rococo
rod
roda
rodada
rodado
rodados
rodar
rodas
rodaxe
rodea
rodeada
rodeadas
rodeado
rodeados
rodean
rodeando
rodeiro
rodgers
rodney
rodolfo
rodoreda
rodou
rodri
rodrigo
rodrigues
rodriguez
roe
roedores
roes
rogelio
roger
rogers
rohan
roi
roig
rois
roja
rojas
rojo
rol
rola
roland
rolda
roldas
role
roles
rolf
roll
rolling
rolls
rolo
rolos
rom
roma
romain
romaine
roman
romana
romanas
romance
romances
romane
romanesa
romaneses
romani
romanizacio
romano
romanos
romanov
romanticismo
romari
romay
rome
romeo
romero
romeu
rompe
rompen
rompendo
romper
rompeu
ron
rona
ronald
ronaldo
ronas
ronda
rondo
rongorongo
ronlle
ronlles
ronnie
rono
ronos
ronse
ronsel
ronselle
roo
rookie
rookies
room
roosevelt
root
roots
ropalidia
roque
rorcual
ros
rosa
rosada
rosal
rosales
rosali
rosario
rosas
rosberg
rose
rosello
rosenberg
rosende
rosendo
roses
roseto
ross
rossi
rossini
rosso
rostro
rota
rotacio
rotas
roth
rothschild
roto
rotonda
rotor
rotten
rottentomatoes
rotterdam
rotura
roturas
roubar
roubo
roubos
rouge
rough
round
roupa
roupas
rousseau
route
routledge
rover
rovira
row
rowling
roxerio
roxette
roxo
roy
royal
royale
royce
rozas
rpatos
rpm
rprete
rpretes
rpura
rquez
rquica
rquico
rquicos
rr
rraga
rrea
rreas
rreo
rreos
rrez
rroco
rroga
rs
rse
rsega
rselle
rsico
rss
rsssf
rt
rtabro
rtanse
rtaro
rtaros
rtase
rte
rtebras
rtense
rter
rtese
rtex
rtica
rticas
rtice
rtices
rtico
rticos
rtida
rtil
rtiles
rtir
rtires
rtp
rttemberg
rtve
ru
rua
ruanda
rube
rubens
rubi
rubia
rubin
rubio
rublo
rubus
ruby
rudolf
rudolph
rudy
rue
rueda
rufus
rugby
rui
ruibal
ruiz
rule
rum
rumbo
rumex
ruminantes
rumor
rumores
run
runner
running
rupert
rupestre
rupestres
rupicapra
ruptura
rurais
rural
rus
rusa
rusas
rush
rusia
ruso
rusos
russell
russia
russian
ruta
rutas
ruth
rutherford
rutina
rv
rvanse
rvase
rvese
rvi
rvidos
rxica
rxicas
rxico
rxicos
ry
ryan
rzano
rzburg
s
sa
saa
saab
saami
saavedra
saba
sabadell
sabana
sabanas
sabbath
sabe
sabedori
sabela
sabemos
saben
sabendo
saber
sabi
sabina
sabino
sabio
sabios
sabor
sabores
sabre
saca
sacado
sacar
sacaron
sacarosa
saccharomyces
sacerdotal
sacerdote
sacerdotes
sachs
saco
sacos
sacou
sacra
sacramento
sacred
sacrificio
sacrificios
sacro
sad
sada
sade
sadie
sadurnin
sae
saen
safety
saga
sagan
sagas
sagasta
sage
sagrada
sagrado
sagrados
sahara
sai
saia
said
saint
sainte
saints
sainz
sairi
saitama
sakura
sal
sala
saladino
salamanca
salamandra
salamina
salarial
salario
salarios
salas
salazar
salceda
salcedo
sale
salem
salerno
sales
salgada
salgado
salgueiro
salgueiros
salienta
salientable
salientables
salientan
salientando
salientar
salientou
salina
salinas
salinidade
salisbury
saliut
saliva
salix
salle
sally
salmo
salmon
salmonella
salmos
salne
salo
salome
salomo
salsa
salt
salta
saltadores
saltar
salto
saltos
saltou
salud
salva
salvacio
salvado
salvador
salvamento
salvar
salvat
salvaterra
salvatore
salvaxe
salvaxes
salve
salvo
salvou
salzburgo
sam
samantha
samba
same
sammy
samo
samoa
samos
sampaio
sampdoria
sampedro
samuel
samurai
san
sana
sanatorio
sancha
sancho
sancio
sancionado
sancristi
sancti
sand
sande
sanders
sandia
sandra
sandro
sandy
saneamento
sanford
sang
sanger
sangre
sangue
sanguenta
sangui
sanidade
sanitaria
sanitarias
sanitario
sanitarios
sanjurjo
sankara
sankt
sanmarti
sans
sanse
sant
santa
santalla
santamari
santamarina
santana
santander
santare
santas
sante
santi
santiago
santidade
santillana
santiso
santo
santoral
santos
sants
santuario
santuarios
sanxenxo
sanz
sao
sapiens
sapo
sapos
saque
saqueada
saqueo
sar
sara
sarah
saramago
saraxevo
sarco
sarda
sarden
sardin
sares
sargadelos
sargatal
sarmiento
sarracenos
sarreaus
sarria
sars
sartego
sartre
sarxento
sas
sasa
sase
saskatchewan
saski
sasuke
sata
sate
satellite
satellites
sati
satisfaccio
satisfacer
satisfeito
sativa
saturacio
saturday
saturn
saturno
sau
sauber
saudable
saudade
saudita
saunders
sauron
saussure
savage
save
savin
savoia
saxo
saxofo
saxon
saxonia
say
sc
scala
scale
scalemajor
scaleminor
scar
scara
scaras
scena
scheckter
scheme
schiller
schlegel
schleswig
schmidt
schmitt
schneider
scho
school
schro
schu
schubert
schumacher
schumann
schuster
schwann
schwartz
sci
science
sciences
scientific
scientist
scientists
scoa
scooby
score
scorsese
scotland
scots
scott
scottish
scout
screen
script
scriptstyle
scuderia
scula
sculas
sculo
sculos
sculpture
sd
sds
se
sea
seabra
sean
seara
search
seareiros
seas
season
seat
seattle
sebastia
sebastian
sec
seca
secado
secas
seccio
secesio
seco
second
secos
secrecio
secret
secreta
secretari
secretaria
secretariado
secretario
secretarios
secretas
secreto
secretos
secrets
section
sector
sectores
secuela
secuelas
secuencia
secuenciacio
secuencias
secuestrado
secuestro
secular
seculares
secundaria
secundarias
secundario
secundarios
secundum
security
seda
sede
sedes
sedimentacio
sedimentarias
sedimentos
see
sefardi
sega
segmento
segmentos
segovia
segre
segredo
segredos
segrega
segregacio
segregan
segu
segue
seguen
segui
seguida
seguidamente
seguidas
seguido
seguidor
seguidores
seguidos
seguimento
seguindo
seguinte
seguintes
seguir
seguira
seguiri
seguiron
seguiu
segunda
segundas
segundo
segundos
segura
seguramente
seguranza
seguras
seguridade
seguro
seguros
sei
seica
seine
seis
seita
seitas
seivane
seixas
seixo
sel
sela
sele
seleccio
seleccionada
seleccionadas
seleccionado
seleccionador
seleccionados
seleccionar
seleccionou
selecta
selected
selectina
selection
selectiva
selectivamente
selectivo
self
selle
selo
selos
selva
selvas
selxu
sem
sema
semana
semanais
semanal
semanario
semanas
seme
semella
semellaba
semellan
semellante
semellantes
semellanza
semellanzas
semente
sementeira
sementes
semestre
semi
semicircular
semicondutores
semifinais
semifinal
seminario
seminarios
semio
sempre
sen
sena
senado
senador
senadores
senda
sendeirismo
sendo
senegal
senescencia
senhora
seni
senior
senlleiras
senna
seno
senra
sensacio
sense
sensi
sensibilidade
sensible
sensibles
senso
sensor
sensores
sensoriais
sensorial
sensu
senta
sentada
sentado
sentados
sentar
sente
senten
sentenciado
sentenza
sentenzas
senti
sentido
sentidos
sentimental
sentimento
sentimentos
sentir
sentirse
sentiu
sentiuse
sentou
seo
seoane
seos
sep
sepa
separa
separacio
separada
separadamente
separadas
separado
separados
separan
separando
separar
separaron
separarse
separator
separou
separouse
sept
september
sepulcro
sepulcros
sepultado
sepultura
sequence
sequences
sequera
ser
sera
serafi
serantes
serbia
serbias
serbio
serbios
seren
serena
seres
serge
sergei
sergio
seri
seria
serial
seriamente
serias
serie
series
serina
serio
serios
sermo
sermos
serna
serotonina
serpe
serpes
serra
serrano
serras
serval
serve
serven
server
servi
service
services
servicio
servicios
servido
servidor
servidores
servidume
servindo
servir
servira
serviri
serviron
serviu
servizo
servizos
servo
servos
serxio
ses
sese
sesenta
sesio
session
sessions
sestao
set
sete
setembro
setenta
setentrionais
setentrional
seth
sets
setu
seu
seuil
seus
seven
severa
severamente
severas
severino
severo
sevilla
sevillano
sex
sexa
sexan
sexismundo
sexo
sexos
sexta
sexto
sexuais
sexual
sexualidade
sexualmente
seychelles
seymour
sfondo
sforo
sg
sh
sha
shadow
shadows
shah
shakespeare
shane
shanghai
shannon
shark
sharks
sharon
sharp
shaw
shawn
she
sheet
sheffield
shell
shelley
shenzhou
shepherd
sheppard
sheriff
sherlock
sherman
shi
shield
shift
shikoku
shin
ship
shirley
sho
shock
shore
short
shostakovich
should
show
shows
shu
si
sia
sibelius
siberia
sibila
sibley
sic
sica
sicas
sicilia
siciliana
siciliano
sicilias
sico
sicos
sid
sida
siddeley
side
sidi
sidney
sido
sidos
sie
siebold
siegfried
siempre
siena
sierra
siete
sifo
siga
siglas
siglo
siglos
sigma
sigmund
sign
significa
significaba
significacio
significado
significados
significan
significar
significari
significativa
significativamente
significativas
significativo
significativos
significou
signo
signos
sigu
siit
sikorsky
sil
sila
silence
silencio
silene
silent
siles
silesia
silicio
silleda
silmarillion
silueta
silva
silvar
silveira
silver
silverio
silverstone
silvestre
silvestres
silvestris
silvia
silvio
sim
sima
simas
simbio
simbiose
simbo
simbolismo
simboliza
simbolizan
simboloxi
sime
simeo
simetri
similar
similares
similitude
similitudes
simios
simmons
simo
simon
simone
simos
simpa
simpati
simpatizantes
simple
simplemente
simples
simplicidade
simplificacio
simplificada
simplificado
simposio
simpson
simpsons
sims
simulacio
simulta
simultaneamente
sin
sina
sinagoga
sinai
sinais
sinal
sinala
sinalaba
sinalado
sinalan
sinalando
sinalar
sinalaron
sinalizacio
sinalou
sinapse
sinapses
sinatra
sinatura
sinaturas
since
sinclair
sindicais
sindical
sindicalismo
sindicalista
sindicalistas
sindicato
sindicatos
sine
sines
sinfo
sinfoni
sing
singapore
singapur
singer
singh
single
singles
singular
singulares
singularidade
siniestro
sinn
sino
sinonimia
sinopse
sint
sinta
sintase
sintaxe
sinte
sintetase
sinteti
sintetiza
sintetizadores
sintetizar
sintra
sinxela
sinxelamente
sinxelas
sinxeleza
sinxelo
sinxelos
sio
sionista
sir
siracusa
sire
siri
siria
sirio
siro
sis
sismo
siste
sistema
sistemas
sistematicamente
sister
sisters
sisto
sit
sita
site
sites
sitio
sitios
sito
sitos
sitta
situ
situa
situaba
situacio
situacion
situada
situadas
situado
situados
situar
situarse
situou
situouse
six
sixers
size
sk
ska
ski
skin
sky
sl
sla
slam
sleep
sm
small
smart
smashing
smetana
smica
smicas
smico
smicos
smido
smidos
smith
smithsonian
smo
sn
snake
snare
snow
snp
snyder
so
soa
soado
soamente
soar
soares
soas
sobe
sober
soberana
soberani
soberano
soberanos
sobieski
sobor
sobra
sobrado
sobral
sobre
sobredose
sobreira
sobremesa
sobremesas
sobrenaturais
sobrenatural
sobrenome
sobresae
sobresaen
sobresai
sobrevive
sobreviven
sobrevivente
sobreviventes
sobrevivir
sobreviviron
sobreviviu
sobrin
sobrino
soc
socalcos
soccer
soccerway
sociais
social
socialdemo
sociales
socialismo
socialista
socialistas
socialmente
socialrevolucionarios
socie
sociedad
sociedade
sociedades
societa
society
socio
socioecono
sociolingu
sociolo
socioloxi
socios
socorro
sodio
sofa
sofi
sofia
sofo
sofos
sofre
sofren
soft
software
sogro
soia
soidade
soiuz
sol
sola
solano
solar
solares
soldado
soldados
soldier
soldo
sole
solea
soledad
solemne
soler
soli
solicita
solicitando
solicitar
solicitaron
solicitou
solicitude
solicitudes
solid
solidaridad
solidariedade
solista
solistas
solitaria
solitario
solitarios
solla
solo
solomon
solos
solpor
solsticio
solta
solteira
solubilidade
soluble
solubles
solucio
solucionar
soluto
solvente
som
soma
somali
somalia
sombra
sombras
sombreiro
sombri
some
somerset
somete
someter
someterse
someteu
something
sometida
sometidas
sometido
sometidos
somos
somoza
somozas
son
sona
sonar
sonata
sonatas
sonda
sondas
soneira
soneto
sonetos
song
songs
sonia
sonic
sonny
sono
sonora
sonoras
sonoro
sonoros
sons
sony
sopa
sophia
sophie
soporta
soportal
soportan
soportar
soporte
soportes
soprano
sor
sorbona
soria
soriano
soro
sorprendente
sorprendentemente
sorprendeu
sorprendido
sorpresa
sorriso
sorte
sorteo
sos
sospeita
sospeitas
sospeitoso
sospeitosos
soste
sosten
sostendo
soster
sostible
sostida
sostido
sostin
sostivo
sotelo
soterrado
soterrados
soto
sotomayor
soubo
soul
sound
soundgarden
sounds
source
sources
sous
sousa
soutelo
south
southampton
southern
southwest
souto
soutomaior
soutullo
souza
sovie
soviet
soviets
soy
sp
spa
space
spain
spanish
spartak
spd
special
species
spectrum
spede
spedes
speed
spencer
spera
speras
spero
spider
spielberg
spin
spink
spirit
splicing
split
spoleto
spora
sporas
sport
sporting
sports
spota
spp
spring
springer
springfield
springs
sprint
spurs
sputnik
sqrt
square
squet
sr
sra
sri
ss
sseldorf
ssp
sst
st
sta
stade
stadium
stage
stalin
stamford
stamo
stamos
stan
stand
standard
standing
stanford
stanley
stanse
stanton
staphylococcus
star
stark
starr
stars
start
stas
stase
stat
stata
state
states
station
statistics
stato
status
ste
steel
stefan
stefano
stein
steiner
stella
stem
stenes
steos
step
stephanie
stephen
stephens
ster
steres
sterling
stern
steve
steven
stevens
stevenson
stewart
stic
stica
sticas
stico
sticos
still
stilo
stirling
sto
stock
stokes
stola
stolo
stolos
stomos
stone
stones
stop
stor
store
storia
stories
storm
story
str
straight
strange
stranse
strase
strauss
stravinskii
streaming
street
strego
streptococcus
strica
strico
strike
string
strip
strofe
strofes
stroll
strong
structure
structures
sts
stuart
student
studi
studies
studio
studios
study
stula
stuma
stumo
stuttgart
style
su
sua
suabia
suahili
suarna
suave
suaves
sub
suba
subcampio
subcampionato
subclase
subcontinente
subconxunto
subdirector
subdivi
subdivisio
subespecie
subespecies
subfamilia
subfamilias
subgrupo
subgrupos
subi
subida
subidas
subindo
subir
subiu
sublevacio
sublevados
sublime
sublin
submarina
submarino
submarinos
subministracio
submisio
suborde
subordinado
subordinados
subprefectura
subrexio
subsahariana
subscricio
subsecretario
subseguinte
subsidiaria
subsistencia
subsolo
subsp
substancia
substanciais
substancial
substancialmente
substancias
substantivo
substantivos
substitu
substitucio
substitui
substituto
substrato
substratos
subterra
subti
subtipos
subtitulada
subtitulado
subtropicais
subtropical
subunidade
subunidades
suburbio
suburbios
subvencio
subxacente
subxe
subxectiva
success
suce
sucede
sucedendo
suceder
sucedera
sucederon
sucedeu
sucedeuno
sucedi
sucedido
sucesio
sucesivamente
sucesivas
sucesivos
suceso
sucesor
sucesora
sucesores
sucesoria
sucesos
such
sucia
suco
sucos
sucre
sucursal
sud
suda
sue
sueca
suecas
suecia
sueco
suecos
sueiro
suen
sueste
suetonio
suevo
suevos
suez
suffix
suffolk
suficiente
suficientemente
suficientes
sufixo
sufocar
sufraxio
sufri
sufrida
sufrido
sufrimento
sufrindo
sufrir
sufrira
sufriron
sufriu
sugar
sui
suicida
suicidarse
suicidas
suicidio
suicidouse
suisse
suite
sul
sulfato
sulfu
sulfuro
sullivan
sulta
sultan
sultanato
sum
suma
sumado
sumamente
suman
sumando
sumar
sumas
sumatra
sumeria
sumidoiros
summary
summer
sumo
sumou
sumouse
sun
sunday
suns
suomen
supe
super
supera
superaba
superacio
superada
superado
superados
superan
superando
superar
superaron
supercopa
superfamilia
superficiais
superficial
superficie
superficies
superior
superiores
superioridade
superliga
superman
supero
superorde
superou
superposicio
supersonics
supersticio
supervisa
supervisar
supervisio
supervisor
supervisou
supervivencia
supervivente
superviventes
suplemento
suplementos
suplente
supo
supon
suponse
supor
supori
suposicio
suposta
supostamente
supostas
suposto
supostos
suppl
supplement
support
suprema
supremaci
supremo
supresio
suprimir
supun
supuxeron
supuxo
sur
sura
surafricana
surafricano
surame
suramericana
suramericano
surf
suriname
suroeste
surrealismo
surrealista
surrey
surtees
survey
survival
sus
susa
susan
susana
susceptibilidade
susceptible
susceptibles
suscitou
suso
suspender
suspendeu
suspendida
suspendido
suspensio
sussex
sustenta
sustentabilidade
sustentable
sustentacio
sustento
sutherland
sutil
sutton
suxeicio
suxeita
suxeitas
suxeito
suxeitos
suxeri
suxerindo
suxerir
suxeriron
suxeriu
suxeriuse
suxestio
suxi
suxire
suxiren
suzanne
suzuki
sv
sven
svg
swan
sweet
swift
swing
swiss
switch
sword
sydney
sylloge
sylvia
symbol
symbols
symphony
symposium
synthesis
syracuse
syst
system
systema
systematic
systematics
systems
t
ta
tabaco
tabeiro
taberna
table
tables
taboada
taboadela
taboi
taboleiro
tabu
tac
taca
tacto
tag
tahiti
tai
taifa
tailandia
taiwa
taj
take
takes
tal
talavera
talbot
tale
talento
talentos
tales
tali
taliba
taliesin
talk
talla
tallada
talle
taller
talleres
talo
talos
talvez
tam
taman
tamara
tambie
tambor
tambores
tambre
tame
tampa
tampere
tampo
tampouco
tan
tancredo
tang
tango
taninos
tano
tanos
tanque
tanques
tanse
tanta
tantas
tanto
tantos
tanxente
tanzania
tao
taoi
tap
tapa
tapia
tapiz
tapo
tar
tara
taragon
tarda
tardan
tarde
tardes
tardi
tardou
tarefa
tarefas
tareixa
tarento
targa
target
tarifa
tarifas
taro
tarraco
tarragona
tarri
tarsius
tarso
tartaruga
tartarugas
tarxeta
tarxetas
tas
tase
tasmania
tat
tata
tate
tau
taurus
tavares
taxa
taxas
taxay
taxi
taxiquista
taxo
taxon
taxono
taxonomi
taxonomic
taxonomy
taxons
taylor
tb
tbol
tc
td
tdt
te
tea
team
teams
teas
teatrais
teatral
teatre
teatro
teatros
teau
tebas
tebras
tech
technical
technology
tecido
tecidos
tecla
teclado
teclados
teclista
tecnicamente
tecnolo
tecnologi
tecnoloxi
tecto
ted
tedra
teen
tega
tehera
tei
teijeiro
teis
teito
teitos
teixeira
teixeiro
tel
tela
tele
telecinco
telecom
telecomunicacio
telefilme
telefo
telefoni
telegrama
telegraph
telenovela
teleo
teles
telescopio
telescopios
televisio
television
televisiva
televisivo
tell
tella
tellado
tellados
telle
telmo
telo
tem
tema
temas
temendo
temi
temminck
temo
temor
temos
tempada
tempadas
tempera
temperadas
temperado
temperados
temperamento
temperatura
temperaturas
tempestade
templarios
template
temple
templo
templos
tempo
temporada
temporadas
temporais
temporal
temporalmente
tempos
temps
ten
tena
tenda
tendas
tende
tenden
tendencia
tendencias
tendi
tendo
tenente
tenerife
tenis
tenista
tenistas
tennessee
tenor
tenorio
tense
tensio
tensor
tenta
tentaba
tentacio
tentan
tentando
tentar
tentaron
tentativa
tentativas
tentou
teo
teobaldo
teodorico
teodoro
teodosio
teogoni
teolo
teoloxi
teorema
teoremas
teori
teoricamente
ter
tera
teramo
terape
terapia
terapias
terceira
terceiras
terceiro
terceiros
tercera
terciaria
terciario
teren
teres
teresa
teri
termais
termal
termas
termigal
termina
terminacio
terminada
terminado
terminais
terminal
terminan
terminando
terminar
terminara
terminari
terminaron
terminolo
terminoloxi
terminou
termo
termodina
termos
tero
terra
terracota
terras
terrassa
terratenentes
terraza
terre
terremoto
terremotos
terreo
terreos
terrestre
terrestres
terri
terrible
territoriais
territorial
territorio
territorios
terror
terrorismo
terrorista
terroristas
terry
terse
teruel
terzo
terzos
tes
tesalia
tesalo
tese
teseo
teses
tesla
tesoureiro
tesouro
tesouros
test
testa
testament
testamento
testemun
testi
testosterona
tests
tetis
teto
tetos
tetra
tetua
teu
teus
teuto
tex
texas
texo
text
textdata
texto
textos
texts
textual
textura
texturas
tf
tgf
th
tha
thai
thames
than
that
thatcher
the
theater
theatre
their
them
then
theo
theodor
theodore
theory
therapy
there
these
thesis
theta
they
thierry
thing
things
think
third
this
thomas
thompson
thomson
thor
thornton
those
thought
thousand
thrash
three
thriller
through
thumb
thunder
thune
thurston
ti
tian
tiberio
tibetana
tibetano
tiburo
tic
tica
ticas
tico
ticos
tide
tides
tido
tidos
tie
tiempo
tiempos
tien
tiene
tienne
tierra
tifo
tiger
tigers
tigre
tigres
tigris
tikal
til
tiles
till
tim
tima
timas
timberwolves
timbre
time
timeaxis
times
timina
timo
timor
timos
timothy
tin
tina
tinguidura
tinguiduras
tino
tinta
tinti
tinto
tio
tipicamente
tipo
tipogra
tipografi
tipoloxi
tipos
tira
tirada
tiradas
tirado
tirador
tirados
tirando
tirani
tirano
tirar
tiras
tiraxe
tiro
tiroide
tirol
tiros
tirosina
tiroteo
tirso
tita
titan
titanic
titanio
title
tito
titor
titulacio
titulada
titulado
titular
titulares
titularidade
tiven
tivera
tiveran
tiveron
tivese
tivesen
tivo
tiziano
tizo
tlr
tm
tma
tmica
tmico
tnf
tnica
tnicas
tnico
tnicos
tnt
to
toba
tobago
tobi
toc
toca
tocaba
tocaban
tocado
tocan
tocando
tocante
tocar
tocaron
tocou
toda
todas
today
todd
todo
todos
toe
together
togo
tokio
tokugawa
tokyo
tola
toledo
tolemia
tolerancia
tolerante
tolkien
toll
tolo
tolomeo
tolos
tolosa
tolstoi
tom
toma
tomaba
tomaban
tomada
tomadas
tomado
tomados
toman
tomando
tomar
tomara
tomari
tomaron
tomarse
tomas
tomase
tomate
tomb
tombo
tome
tomin
tommy
tomo
tomorrow
tomos
tomou
tomouse
ton
tona
tonalidade
tonalidades
toneladas
tonga
toni
tonight
tono
tons
tonumber
tony
too
tool
top
topas
topo
topogra
topografi
topolo
topoloxi
toponimia
topos
toque
toques
toquio
tor
tora
tordoia
torino
tormenta
tormentas
torna
tornado
tornados
tornar
torneo
torneos
torno
tornou
tornouse
toro
toronto
torpedo
torque
torrado
torre
torrelavega
torrent
torrente
torreo
torres
torso
torta
tortura
torturas
tos
toscana
tose
tostring
totais
total
totalidade
totalmente
toto
tottenham
touch
toucin
toulouse
tour
tourin
touro
touros
tours
tous
tout
tower
town
toxa
toxicidade
toxina
toxinas
toxo
toxos
toxosoutos
toy
toyota
tp
tr
tra
traba
trabada
trabajadores
trabajo
traballa
traballaba
traballaban
traballado
traballador
traballadora
traballadoras
traballadores
traballan
traballando
traballar
traballara
traballaron
traballo
traballos
traballou
trabe
traccio
tracia
track
tracks
tracto
tracy
trad
trade
tradicio
tradicionais
tradicional
tradicionalista
tradicionalmente
tradition
tradu
traduce
traducida
traducidas
traducido
traducidos
traducio
traducir
traduciu
tradutor
tradutora
tradutores
trae
traer
trai
trail
train
traite
traizo
trala
tralas
tralo
tralos
trama
tramo
tramos
trampa
trampas
trance
tranquila
tranquilas
tranquilidade
tranquilo
trans
transaccio
transactions
transatla
transbordador
transcendencia
transcendental
transcorre
transcorreu
transcricio
transcricional
transcrito
transcritos
transcurso
transducio
transferencia
transferencias
transferida
transferido
transferidos
transferir
transfermarkt
transfo
transforma
transformacio
transformada
transformado
transformar
transformarse
transformou
transformouse
transfusio
transicio
transilvania
transistor
transit
transitoria
translacio
translated
translation
transliteracio
translocacio
transmembrana
transmi
transmisio
transmite
transmiten
transmiti
transmitida
transmitido
transmitidos
transmitir
transmitiu
transparencia
transparente
transparentes
transplante
transport
transporta
transportadas
transportado
transportador
transportadores
transportados
transportan
transportar
transporte
transportes
transposicio
transposo
transversais
transversal
transxe
tranvi
trapa
tras
trasancos
traseira
traseiras
traseiro
trasla
traslada
trasladada
trasladado
trasladados
trasladar
trasladaron
trasladarse
traslado
trasladou
trasladouse
trasmiras
traspasado
traspaso
trasta
trastorno
trastornos
trata
trataba
trataban
tratada
tratadas
tratado
tratados
tratamento
tratamentos
tratan
tratando
tratar
tratari
trataron
tratarse
tratase
trate
trato
tratos
tratou
trauma
trave
travel
travesi
travis
traxano
traxe
traxecto
traxectoria
traxedia
traxes
traza
trazado
trazar
trazas
trazo
trazos
tre
trea
treatment
trebisonda
treboada
trece
tree
trees
tregua
treito
treitos
trek
tren
trends
trens
trent
trento
treonina
tres
trescentos
treviso
trevo
trevor
tri
tria
triacastela
trial
triangular
tribais
tribal
tribo
tribos
tribuna
tribunais
tribunal
tribune
tributaria
tributario
tributarios
tribute
tributo
tributos
trica
tricas
trico
tricolor
tricos
tridimensionais
tridimensional
trieste
trifolium
trifosfato
triglice
trigo
trigonome
trillo
triloxi
trim
trimestre
trincheiras
trindade
trinidad
trinity
trinta
trio
trip
tripla
triplas
triple
triplete
triplo
tripto
tripulacio
tripulada
tripulantes
trista
tristan
triste
tristes
tristeza
trito
triunfal
triunfo
triunfos
triunfou
trives
trixe
tro
trobador
trobadores
troco
trocos
trofeo
trofeos
trofes
trofos
troia
troianos
troilo
trois
troita
troitas
trombina
trombo
trompa
trompas
trompeou
trompeta
trompetas
tronco
troncos
troncoso
trono
tropa
tropas
trophy
tropicais
tropical
troques
trotski
trouble
trouxeron
trouxo
troy
troyes
true
trujillo
trulli
truman
trump
trust
truth
ts
tsar
tsarista
tsunami
tt
ttingen
tu
tua
tube
tuberculose
tubinga
tubo
tubos
tubular
tubulina
tuci
tucker
tucuma
tude
tudela
tudes
tudor
tui
tula
tulo
tulos
tumba
tumbas
tumor
tumorais
tumoral
tumores
tundra
tunes
tunisia
tupolev
turba
turbina
turbinas
turbo
turca
turcas
turco
turcos
turgalicia
turi
turing
turinxia
turismo
turismos
turista
turistas
turkmenista
turku
turn
turner
turqui
tus
tutela
tuvalu
tv
tve
tvg
twain
twentieth
twenty
twilight
twin
twitter
two
tx
ty
tycho
tyler
type
types
tyrrell
tz
u
ua
ub
ubuntu
uc
ucaso
ucd
uchiha
uci
ucida
ucla
ucode
ucrai
ud
udc
ue
uefa
uel
uer
ufe
ufrates
ug
uganda
ugt
uh
ui
uicn
uk
ukiyo
ukraine
ukrainian
ul
ulica
ulico
ulises
ulla
ulloa
ulm
ulrich
ulster
ultimamente
ultimate
ultimato
ultra
ultramar
ultravioleta
um
uma
umberto
umia
un
una
unam
unamuno
unanimidade
und
unde
under
underground
understanding
une
uned
unen
unesco
unha
unhas
uni
unicamente
unicelulares
unicode
unida
unidad
unidade
unidades
unidas
unido
unidos
unificacio
unificada
unificado
unificar
uniforme
uniformemente
uniformes
unilateral
unilingu
unindo
unio
union
unionistas
unir
unira
uniri
uniron
unirse
unit
unitaria
unitario
united
units
uniu
uniuse
univ
universais
universal
universalmente
universe
universidad
universidade
universidades
universita
universitaires
universitaria
universitarias
universitario
universitarios
universitat
universite
university
universo
unix
unknown
uno
uns
up
upg
upload
upon
upper
uppsala
upright
ur
ura
urais
uranio
urano
urban
urbana
urbanas
urbani
urbanismo
urbanizacio
urbano
urbanos
urbe
urco
urdu
urea
ureo
urgell
uri
uribe
urina
url
urnas
uros
urraca
urss
uruguai
uruguaia
uruguaio
urxencia
urxente
us
usa
usaba
usaban
usada
usadas
usado
usados
usaf
usalo
usan
usando
usar
usara
usaron
usarse
usc
uscara
uscaro
usd
usda
use
useas
used
uselle
uselles
user
uses
usgs
using
uso
usos
usou
usouse
uss
ustring
usual
usualmente
usuario
usuarios
usula
usurpador
ut
utah
utc
utensilios
utica
uticas
utico
uticos
utili
utilidade
utiliza
utilizaba
utilizaban
utilizacio
utilizada
utilizadas
utilizado
utilizados
utilizan
utilizando
utilizar
utilizara
utilizaron
utilizarse
utilizou
utilizouse
uto
utopi
utr
utrecht
utype
uu
uv
uva
uvas
ux
uxi
uxt
uzbekista
v
va
vaamonde
vaca
vacacio
vacante
vacas
vacina
vacinacio
vacinas
vacu
vaga
vagamente
vago
vai
vaia
vaise
val
valadares
valado
valados
valadouro
valca
valde
valdeorras
valdovin
vale
valeixe
valenc
valencia
valenciana
valenciano
valenciennes
valente
valenti
valentina
valentine
valentiniano
valentino
valenzuela
valer
valera
valeriano
valerio
vales
valeu
valeulle
valga
vali
valid
validez
valin
valiosa
valiosas
valioso
valiosos
valladares
valladolid
valle
vallecano
vallejo
valley
valls
valo
valois
valor
valoracio
valorado
valorar
valores
valparai
valse
valtteri
value
values
valvas
valverde
vamos
vampire
vampiro
vampiros
van
vancouver
vanderbilt
vanessa
vangarda
vangardas
vanguardia
vans
vanse
vantaxe
vantaxes
vanuatu
vao
vapor
vaqueiro
var
vara
varas
varela
varepsilon
varese
vargas
vari
varia
variabilidade
variable
variables
variacio
variada
variadas
variado
variados
variando
variante
variantes
variar
varias
variation
variedade
variedades
variety
varios
variou
varo
varos
varphi
varsovia
vas
vasalaxe
vasalo
vasalos
vasari
vasca
vascas
vasco
vascos
vascular
vasculares
vase
vaso
vasos
vasta
vasto
vaticana
vaticano
vaughan
vaxina
vaxinal
vaz
ve
vea
veas
vec
veces
vecin
vector
vectores
vectorial
veda
vedas
vedder
vedo
vedos
vedra
vega
vegas
vegf
vehi
veiga
veil
vel
vela
velaqui
velar
velas
velasco
veleno
vella
vellas
vellez
vello
vellos
velo
velocidade
velocidades
veloso
velvet
vemos
ven
vena
vence
vencedor
vencedores
vencellado
vencendo
vencer
venceron
venceu
vencido
vencidos
venda
vendas
vende
vendedor
venden
vendendo
vender
venderon
vendeu
vendi
vendida
vendidas
vendido
vendidos
vendo
venecia
veneciana
veneciano
venecianos
veneracio
venerados
venezia
venezolana
venezolano
venezuela
venres
vense
venta
ventilacio
vento
ventos
ventosa
ventral
ventre
ventri
ventura
venus
veo
ver
vera
veracidade
veracruz
verano
verba
verbais
verbal
verbas
verbo
verbos
verdad
[...]
