!
"
#
##0
##1
##10
##11
##12
##13
##14
##15
##16
##17
##18
##19
##2
##20
##21
##22
##23
##24
##25
##26
##27
##28
##29
##3
##30
##31
##32
##33
##34
##35
##36
##37
##38
##39
##4
##40
##41
##42
##43
##44
##45
##46
##47
##48
##49
##5
##50
##51
##52
##53
##54
##55
##56
##57
##58
##59
##6
##60
##61
##62
##63
##64
##65
##66
##67
##68
##69
##7
##70
##71
##72
##73
##74
##75
##76
##77
##78
##79
##8
##80
##81
##82
##83
##84
##85
##86
##87
##88
##89
##9
##90
##91
##92
##93
##94
##95
##96
##97
##98
##99
$
%
&
'
(
)
*
+
,
-
.
/
0
00
000
001
004
01
010
02
024
03
04
0405
05
050
05258
0559
06
0619693
06410
07
0746
08
0801857899
09
1
10
100
1000
1001
1002
101
101292
102
1020
103
1030
1031
104
1040
1044
1045
105
1050
106
1061
107
1072
1075
108
1085
109
1090
1093
11
110
1100
111
1115
1118
112
113
114
115
1150
116
1160
117
1170
118
119
1194
1198
1199
12
120
1200
1202
1204
1206
121
1210
1215
1218
122
1220
1221
1226
1228
123
1230
1235
1236
124
1240
1241
1248
1249
125
1250
126
1260
127
1270
1274
1277
128
1282
1284
1288
129
1299
13
130
1300
1302
1305
1308
1309
131
1311
1313
1318
132
133
1330
1333
1334
1335
1336
134
1342
1346
1347
1348
1349
135
1350
1353
1355
136
1360
1365
1367
137
1370
1374
1375
1377
1378
138
1380
1386
1389
139
1390
14
140
1400
1401
1402
1403
1405
1406
1409
141
1411
1415
1416
1417
1418
1419
142
1420
1422
1426
1429
143
1433
1436
1437
1438
144
1440
1441
1444
145
1450
1452
1453
1454
1455
1457
146
1460
1462
1467
1468
1469
147
1470
1471
1473
1474
1475
1476
1477
1478
1479
148
1480
1481
1482
1483
1485
1487
1488
149
1490
1491
1492
1493
1494
1495
1496
1497
1498
1499
15
150
1500
1501
1502
1503
1504
1505
1506
1507
1508
1509
151
1510
1511
1512
1513
1514
1515
1516
1517
1518
1519
152
1520
1521
1522
1523
1524
1525
1526
1527
1528
1529
153
1530
1531
1532
1533
1534
1535
1536
1537
1538
1539
154
1540
1541
1542
1543
1544
1545
1546
1547
1548
1549
155
1550
1551
1552
1553
1554
1555
1556
1557
1558
1559
156
1560
1561
1562
1563
1564
1565
1566
1567
1568
1569
157
1570
1571
1572
1573
1574
1575
1576
1577
1578
1579
158
1580
1581
1582
1583
1584
1585
1586
1587
1588
1589
159
1590
1591
1592
1593
1594
1595
1596
1597
1598
1599
16
160
1600
1601
1603
1604
1605
1606
1607
1608
1609
161
1610
1611
1612
1613
1614
1615
1616
1617
1618
1619
162
1620
1621
1622
1623
1624
1625
1626
1627
1628
1629
163
1630
1631
1632
1633
1634
1635
1636
1637
1638
1639
164
1640
1641
1642
1643
1644
1645
1647
1648
1649
165
1650
1651
1652
1653
1654
1655
1656
1657
1658
1659
166
1660
1661
1662
1663
1664
1665
1666
1667
1668
1669
167
1670
1671
1672
1673
1674
1675
1678
1679
168
1680
1681
1682
1683
1684
1685
1686
1687
1688
1689
169
1690
1692
1693
1694
1695
1696
1697
1698
1699
17
170
1700
1701
1702
1703
1704
1705
1706
1707
1708
1709
171
1710
1711
1712
1713
1714
1715
1716
1717
1718
1719
172
1720
1721
1722
1723
1724
1725
1726
1727
1728
1729
173
1730
1731
1732
1733
1734
1735
1736
1737
1738
1739
174
1740
1741
1742
1743
1744
1745
1746
1748
1749
175
1750
1751
1752
1753
1754
1755
1756
1757
1758
1759
176
1760
1761
1762
1763
1764
1765
1766
1767
1768
1769
177
1770
1771
1772
1773
1774
1775
1776
1777
1778
1779
178
1780
1781
1782
1783
1784
1785
1786
1787
1788
1789
179
1790
1791
1792
1793
1794
1795
1796
1797
1798
1799
18
180
1800
1801
1802
1803
1804
1805
1806
1807
1808
1809
181
1810
1811
1812
1813
1814
1815
1816
1817
1818
1819
182
1820
1821
1822
1823
1824
1825
1826
1827
1828
1829
183
1830
1831
1832
1833
1834
1835
1836
1837
1838
1839
184
1840
1841
1842
1843
1844
1845
1846
1847
1848
1849
185
1850
1851
1852
1853
1854
1855
1856
1857
1858
1859
186
1860
1861
1862
1863
1864
1865
1866
1867
1868
1869
187
1870
1871
1872
1873
1874
1875
1876
1877
1878
1879
188
1880
1881
1882
1883
1884
1885
1886
1887
1888
1889
189
1890
1891
1892
1893
1894
1895
1896
1897
1898
1899
19
190
1900
1901
1902
1903
1904
1905
1906
1907
1908
1909
191
1910
1911
1912
1913
1914
1915
1916
1917
1918
1919
192
1920
1921
1922
1923
1924
1925
1926
1927
1928
1929
193
1930
1931
1932
1933
1934
1935
1936
1937
1938
1939
194
1940
1941
1942
1943
1944
1945
1946
1947
1948
1949
195
1950
1951
1952
1953
1954
1955
1956
1957
1958
1959
196
1960
1961
1962
1963
1964
1965
1966
1967
1968
1969
197
1970
1971
1972
1973
1974
1975
1976
1977
1978
1979
198
1980
1981
1982
1983
1984
1985
1986
1987
1988
1989
199
1990
1991
1992
1993
1994
1995
1996
1997
1998
1999
2
20
200
2000
2001
2002
2003
2004
2005
2006
2007
2008
2009
201
2010
2011
2012
2013
2014
2015
2016
2017
2018
2019
202
2020
2021
2022
203
2030
204
205
206
207
208
209
21
210
210048
211
212
213
214
215
216
217
218
219
22
220
221
222
223
224
225
226
2268
227
228
229
23
230
231
232
233
234
235
236
237
238
239
24
240
241
242
243
244
245
246
247
248
249
25
250
2500
251
252
253
254
255
256
257
258
259
26
260
261
262
263
264
265
266
267
268
269
27
270
271
272
273
274
275
276
277
278
279
28
280
281
282
283
284
285
286
287
288
289
29
290
291
292
293
294
295
296
297
298
299
3
30
300
3000
301
302
303
304
305
306
307
308
309
31
310
311
312
3123
313
314
315
316
317
318
319
32
320
3200
321
322
323
324
325
326
327
328
329
33
330
331
332
333
334
335
336
337
338
339
34
340
341
342
343
344
345
346
347
348
349
35
350
351
352
353
354
355
356
357
358
359
36
360
361
362
363
364
365
366
367
368
369
37
370
371
372
373
374
375
376
377
378
379
38
380
381
382
383
384
385
386
387
388
389
39
390
391
392
393
394
395
396
397
399
4
40
400
4000
401
402
403
404
405
406
407
408
409
41
410
411
412
414
415
417
42
420
421
422
423
425
426
427
429
43
430
431
433
435
437
439
44
440
44029
441
443
444
445
446
447
45
450
452
456
457
458
459
46
460
462
463
465
466
467
468
47
470
471
472
473
474
475
476
477
479
48
480
482
483
484
485
4851
486
488
49
490
491
492
493
495
496
497
499
5
50
500
5000
501
506
508
509
51
510
511
513
514
515
517
518
519
52
520
521
523
524
525
526
527
529
53
530
531
533
535
536
539
54
540
5416
542
543
545
546
547
55
550
551
553
555
556
558
56
560
561
562
563
565
565458
568
569
57
570
571
576
5785
58
580
581
583
585
588
589
59
590
591
593
597
598
599
6
60
600
603
605
61
610
611
612
613
614
616
62
620
621
626
628
629
63
630
631
635
636
638
639
64
640
641
642
646
649
65
650
653
654
655
656
657
66
660
663
664
668
669
67
670
672
673
674
675
677
68
680
682
683
684
686
689
69
690
691
693
694
695
696
698
699
7
70
700
7000
701
702
705
707
709
71
710
711
712
714
719
72
720
722
723
724
7254
729
73
730
7338
734
735
736
738
739
74
742730
7456
75
750
751
753
755
756
7577
758
759
76
760
77
7701
774
776
78
780
79
796
797
8
80
800
801
8014
8018
81
810
814
816
818
82
820
8221
825
83
830
8385047872
84
840
842
845
849
85
850
852
853
855
86
86207
87
870
872
88
88221
89
890
89533
9
90
900
9004206298
905140
91
912
92
93
933
936
94
95
950
953
95981
96
960
962
968
97
970
971
973
976
977
978
9789602133712
98
980
99
990
995
999
:
;
<
=
>
?
@
\
^
_
`
a
aa
aachen
aachener
aak
aalst
aan
aaron
ab
abar
abate
abba
abbandun
abbanduna
abbandunat
abbandunata
abbandunati
abbandunaw
abbar
abbasidi
abbati
abbaz
abbazija
abbaziji
abbe
abbey
abbilta
abbli
abbonati
abbord
abbott
abbozz
abbozzati
abbozzi
abbundanti
abbundanza
abbuz
abc
abd
abdallah
abdika
abdikazzjoni
abdilla
abdul
abdullayev
abe
abel
abela
abeljan
abella
aberdeen
abet
abetta
abhinav
abi
abilita
abilitajiet
abitant
abitanti
abitat
abitata
abitati
abitazzjoni
abitazzjonijiet
abitudni
abjad
abolit
abolita
abolizzjoni
aborig
abort
about
above
abr
abra
abraham
abrams
abret
abriet
abru
abrux
abu
ac
acacia
acad
acade
academia
academic
academy
accademia
according
account
acdestis
ach
achille
acid
ackerman
acqua
acrocephalus
across
act
acta
actes
action
activity
ad
ada
adam
adami
adams
adaptation
adatta
adattament
adattamenti
adattat
adattata
adattati
add
adda
addattati
addizzjonali
addoc
addolorata
ade
adegwat
adegwata
adelaide
adele
aderenza
adez
adige
adler
admira
adn
ado
adolexxenti
adolf
adolfo
adolphe
adorazzjoni
adotta
adottat
adottata
adottati
adottaw
adozzjoni
adrian
adriano
adrien
adrijanu
adrijatiku
adult
adulta
adulti
adusta
advanced
advances
adventures
ae
af
afa
afc
afelju
afer
affac
affair
affari
affarijiet
affarjiet
affaxxinat
afferma
affermazzjoni
affettwa
affettwat
affettwata
affettwati
affettwaw
affidabbli
affiljat
affiljata
affiljati
affiljazzjoni
affinita
affresk
affreski
affrontaw
afganistan
afonso
africa
african
africana
afrika
afrikan
afrikana
afrikani
afro
afrodisja
afrodite
afrotheria
after
afz
ag
again
against
agape
agata
agatha
agave
agdam
age
ages
aggregat
aggressiv
aggressiva
aggressjoni
agilis
agius
agli
agora
agostinjani
agostino
agra
agreb
agricola
agricultural
agrigento
agrikola
agrikoli
agrikoltura
agrikolu
agunija
agusti
agwar
agħ
agħaq
agħar
agħfas
agħfran
agħz
ah
aha
ahhar
ahjar
ahkal
ahmad
ahmed
ahna
ahom
ahra
ai
aid
aida
aids
aime
ain
ainista
ainisti
ainiz
ainsi
aion
air
aircraft
aires
airlines
airport
ais
aise
aix
aj
ajanta
ajax
ajk
ajkla
ajkli
ajkovskij
ajru
ajruplan
ajruplani
ajruport
ajruporti
ajt
ajta
ajtiera
ajtiet
ak
aka
akbar
akbu
akeni
akhenaten
akistan
akkademic
akkademika
akkademiku
akkademja
akkademji
akkanit
akkomodazzjoni
akkompanjament
akkost
akkumpanjament
akkumpanjat
akkumpanjata
akkumpanjati
akkumulati
akkumulazzjoni
akkuz
akkwarell
akkwarelli
akkwatic
akkwedott
akkwedotti
akkwist
akkwista
akkwistat
akkwistata
akkwistaw
akkwisti
akronimu
akropoli
akru
aktar
aktarx
akustika
akuta
akwedott
akwinu
al
ala
alabastru
aladarba
alain
alaj
alam
alan
alaska
alba
alban
albani
albania
albanian
albanija
albaniz
alberobello
albert
alberti
albertina
alberto
albertu
albi
albinoni
albion
albiventris
albrecht
album
albums
albuquerque
alca
alcala
alcazar
alcune
alcuni
aldo
alejandro
aleksandar
aleksandr
aleppo
alessandro
alessandru
aletsch
alex
alexa
alexander
alexandra
alexandre
alexandria
alexis
alf
alfa
alfabetika
alfabetiku
alfabett
alfons
alfonso
alfonsu
alfred
alfredo
alg
alge
algebra
algebraic
algi
algoritmi
algoritmu
alhambra
ali
alice
alighieri
align
aliyev
alka
alkaz
alkimija
alkoħol
all
alla
allah
allat
allavolja
alle
alleanza
alleanzi
alleat
alleata
alleati
allega
allegat
allegatament
allegati
allegazzjoni
allegazzjonijiet
allegoric
allegorija
allegoriji
allegorika
allegri
allele
alleli
allen
alleni
alliance
allianz
allinjament
allinjati
allium
allo
alloka
allokat
allokati
allokazzjoni
allori
allowance
alluc
allura
alluz
alma
almaty
almeida
almenu
almeri
almu
almunia
aloe
alog
alois
aloisio
alone
alonso
alpes
alpha
alphonse
alpi
alpina
alpini
already
als
alsace
also
alt
alta
altamira
altar
alte
alterazzjonijiet
alternanza
alternati
alternative
alternattiv
alternattiva
alternattivi
altertu
altitudni
altitudnijiet
alto
altra
altre
altri
altro
altıntop
alu
aluminju
always
alwig
am
amadeus
amajka
amalfi
amalgamazzjoni
aman
amanda
amani
amante
amanti
amants
amari
amarna
amata
amateur
amato
amaz
amazing
amazon
ambaxxata
ambaxxatur
ambaxxaturi
amberz
ambigwita
ambitu
ambizzjoni
ambizzjonijiet
ambizzjuz
ambja
ambjent
ambjentali
ambjentat
ambjentata
ambjenti
ambliku
ambone
ambra
ambrog
ambrogio
ambulatorju
amburgu
ame
amedeo
ameghino
amen
amenhotep
ament
amenti
amer
america
american
americana
americanus
americas
ameridelphia
amerigo
amerika
amerikan
amerikana
amerikani
ameriki
amerka
amerki
ami
amici
amico
amiel
amiens
amijiet
amilcare
amina
aminatur
aminaw
amir
amis
amleto
amm
amma
amman
amment
ammessi
ammet
ammetta
ammew
amministrat
amministrata
amministrati
amministrattiv
amministrattiva
amministrattivament
amministrattivi
amministratur
amministraturi
amministrazzjoni
amminoac
ammiraljat
ammirall
ammiratur
ammiraturi
ammirazzjoni
ammit
ammont
ammonti
ammu
among
amor
amore
amorin
amour
ampjin
ampjins
amra
amsterdam
amun
an
ana
analisi
analitic
analitika
analitiku
analiz
analizzati
analog
analogu
analyse
analysis
anas
anastasju
anathana
anatole
anatolja
anatomija
anatomy
anc
anche
ancien
ancient
ancona
ancora
and
andalus
andalusija
andament
anderlecht
anders
anderson
andersoni
andes
andi
andijewska
andorra
andre
andrea
andreas
andrei
andrej
andrew
andrews
andrija
andrzej
andy
anelka
anfar
anfibji
anfield
anfiteatru
ang
anga
ange
angel
angela
angeles
angelis
angelo
angels
angkor
anglikan
anglikana
anglikani
anglo
anglu
angola
angolari
angoli
angolu
anguissola
angustifolia
anh
anhalt
ani
anica
aniene
anija
anima
animal
animali
animals
animata
animazzjoni
anjou
ankara
anke
anki
ann
anna
annalen
annales
annali
annals
anne
annemarie
anness
annessa
annessjoni
anni
annibale
annie
annimal
annimali
anniversarju
anno
annotated
annu
annua
annual
annunzjata
annunzjazzjoni
annwali
anonima
anonimi
anonimu
another
anqas
ans
anschluss
anseatika
anselmo
ansijiet
antartika
ante
antec
antechinomys
antechinus
antenat
antenati
antenna
antequera
anthemis
anthony
anthropological
anthropology
anthuenis
anthus
anthyllis
anti
antic
antica
antichi
antico
antigua
antijokja
antik
antika
antikamra
antiken
antiki
antikita
antikitajiet
antilli
antin
antina
antini
antiquaries
antique
antiquities
antiquity
antjokja
antnin
anto
antoc
antoine
antoinette
antolog
antologi
anton
antoni
antonia
antonio
antonju
antony
antropolog
antropologi
antropologu
antwerp
antwerpen
anversa
any
anything
anz
anza
anzi
anzjan
anzjana
anzjani
anzjanita
anzju
ao
aorta
apap
apc
apertura
api
apis
apog
apokalissi
apollo
apollon
apolog
apolonia
apostolo
apoteki
app
apparat
apparati
apparentement
apparenti
apparenza
apparenzi
appartament
appartamenti
apparti
appear
appell
appella
appellat
appellaw
appelli
appendic
appennini
appenzell
apple
application
applications
applika
applikabbli
applikanti
applikat
applikata
applikati
applikaw
applikazzjoni
applikazzjonijiet
appog
apposta
appostli
appostlu
appostolat
appostolic
appostolika
appostoliku
apprendiment
apprendist
apprendistat
apprezzament
apprezzat
apprezzata
apprezzati
approach
approaches
approc
appropriate
approssimazzjoni
approva
approvat
approvata
approvati
approvaw
approvazzjoni
appun
appuniz
appunt
appuntament
appuntanti
appuntat
appuntati
apre
april
aprile
apsari
apsida
apside
apsidi
apus
aq
aqalqu
aqilqa
aqilqet
aqilqu
aqlaq
aqliq
aqq
aqqu
aqra
aquaticus
aquila
aquileia
aquilina
aquino
aquitaine
aqwa
ar
ara
arab
arabia
arabian
arabic
arabidopsis
arabja
aragon
aragona
aragoniz
araldika
aramajk
aramajka
aranjuez
ararat
arazzi
arbitrag
arbitrarja
arbitrarju
arbitru
arbli
arblu
arbor
arborea
arboreum
arboreus
arborju
arbun
arbuna
arbuxelli
arbuxxelli
arc
archaeological
archaeology
archbold
arche
archer
archibald
architectural
architecture
architettura
archive
archives
archivo
archytas
arco
arcticus
ard
arda
arde
ardennes
ardinar
arduino
are
area
areas
arell
arena
aret
arezza
arezzo
arg
argenteuil
argentina
argo
argument
argumenta
argumentaw
argumenti
argyrolagus
ari
aria
arias
ariel
ariosto
aris
aristokratic
aristokratika
aristokratiku
aristokrazija
aristote
aristotele
aristotli
arithme
aritmetic
aritmetika
arizona
arja
arjan
arjana
arjani
arjaniz
arjen
arji
arju
arjuna
ark
arka
arkajku
arkang
arkata
arkati
arkeolog
arkeologi
arkeologu
arki
arkimede
arkitett
arkitetti
arkitettonic
arkitettonika
arkitettoniku
arkitettura
arkitetturali
arkivjat
arkivji
arkivju
arles
arlog
arma
armada
armament
armamenti
armand
armando
armar
armat
armata
armati
armatura
armaturi
arme
armen
armena
armeni
armenia
armenian
armenja
armerija
armesto
armi
armistizju
armla
armonic
armonija
armonika
armonjuz
army
arn
arnaud
arno
arnold
arol
aromatic
around
arpa
arqueolo
arqueologi
arr
arrab
arraf
arrang
arrba
arrbet
arrbu
arrendiet
arrest
arrestat
arrestata
arrestati
arrestaw
arresti
arrew
arrfa
arrfet
arrfu
arrigo
arriva
arrondissement
arroyo
ars
arse
arsenal
arseniku
arslantepe
art
artab
artal
artali
arte
artefatti
artemis
artemisia
arterial
arterja
arterji
arterjuz
artes
arthur
arti
article
articles
artific
artig
artijiet
artikli
artiklu
artikoli
artikolu
artiku
artillerija
artist
artista
artisti
artistic
artistika
artistiku
artists
arts
artsakh
artur
arturo
arturu
aru
aruba
arvensis
arz
arzell
arzella
as
asburgi
ascanio
asciak
asean
ashgate
ashkenazy
ashley
ashoka
asia
asian
asif
asin
asja
asjatic
asjatiku
asklepju
asp
aspects
aspett
aspettattivi
aspetti
aspirazzjonijiet
aspx
ass
assam
assassinju
assedjat
assedjata
assedjaw
assedji
assedju
assef
assemblag
assemblea
assemblej
assembly
assenjat
assenjati
assenti
assenza
asser
assessment
assi
assigura
assigurat
assiguraw
assigurazzjoni
assimilazzjoni
assirjani
assisi
assist
assista
assistent
assistenta
assistenti
assistenza
assisti
assistit
assjali
assoc
associated
association
associazione
assolut
assoluta
assolutament
assoluti
assuma
assunta
assunzjoni
asterojde
asterojdi
aston
astra
astratt
astratta
astratti
astrazzjoni
astri
astrofiz
astrolog
astronawta
astronawti
astronomi
astronomic
astronomical
astronomie
astronomija
astronomika
astronomiku
astronomu
astronomy
astru
astruz
asturias
asturjas
asura
aswan
at
ata
atalanta
atalho
atapuerca
atatu
ateiz
aten
atena
ateni
ateu
athe
athens
athletic
ati
atkinson
atlante
atlantic
atlantika
atlantiku
atlas
atle
atleta
atleti
atletic
atletika
atmosfera
atmosferika
atomi
atomic
atomika
atomiku
atomu
atriju
atroc
att
atta
attakant
attakk
attakka
attakkant
attakkanti
attakkat
attakkata
attakkati
attakkaw
attakki
attalidi
attalus
attament
attard
atteg
attenda
attendenza
attendenzi
attendew
attendiet
attent
attentat
attentati
attenti
attenzjoni
atti
attila
attira
attirat
attiraw
attitudni
attiv
attiva
attivament
attivi
attivist
attivista
attivisti
attivita
attivitajiet
attiviz
attraenti
attraverso
attrazzjoni
attrazzjonijiet
attribut
attributi
attribwit
attribwita
attribwiti
attric
attrizzjoni
attur
atturi
attwali
attwalment
atun
atur
aturi
au
auckland
audrey
auf
auflage
augsburg
august
augusta
auguste
augustin
augusto
augustus
augustusburg
aung
aurea
aurora
aus
auschwitz
aussi
austin
australia
australian
australidelphia
australis
austria
austrian
author
authority
auto
automatically
autore
autoritratto
autre
autres
autumn
autun
aux
av
ava
avait
avalon
avaniz
avant
ave
avec
avenue
avetta
aveva
avignon
avila
aviv
avjazzjoni
avolja
avorju
avrebbe
avril
avukat
avukati
avvanz
avvanza
avvanzat
avvanzata
avvanzati
avvanzaw
avvanzi
avvelenament
avveniment
avvenimenti
avvent
avventura
avventuri
avventuruz
avversarji
avversarju
avvic
avviz
avz
aw
award
awards
away
awditorju
awdjo
awguri
awgustu
awh
awha
awhom
awiil
awissu
awla
awrelju
awriment
awru
awspic
awsterita
awstralja
awstraljan
awstraljana
awstraljani
awstrija
awstrijac
awstrijak
awstrijaka
awstrijaki
awstrijakk
awstrijaku
awstro
awtentic
awtentika
awtentiku
awto
awtobijografija
awtogowl
awtomatika
awtomatikament
awtomatiku
awtonoma
awtonomi
awtonomija
awtonomu
awtorita
awtoritajiet
awtoritarju
awtoritratt
awtoritratti
awtorizza
awtorizzat
awtorizzata
awtorizzazzjoni
awtostrada
awtostradi
awtric
awtur
awturi
aww
awwissu
awx
awz
ax
axel
axxetika
ay
ayala
ayers
ayuntamiento
ayutthaya
az
azal
azerbaijan
azione
azjenda
azov
azteki
azul
azzar
azzard
azzjoni
azzjonijiet
azzopardi
aħad
aħbar
aħbarijiet
aħda
aħdar
aħdet
aħdu
aħhar
aħjar
aħmar
aħna
aħrax
aħwa
aħħad
aħħar
aħħari
aħħarija
aħħarin
aħħarnett
b
ba
baba
babilonja
babilonjani
babur
baby
bac
bach
bachmani
back
background
bacon
bad
baden
baekje
baeza
baffi
bag
bagan
bagdad
baghdad
bagratuni
bagħal
bagħat
bagħatlu
bagħtet
bagħtu
bagħtuh
baha
bahar
bahlam
bahn
bai
bailey
baja
bajada
bajd
bajda
bajdani
bajja
bajjad
bajjada
bajjiet
bajtar
bakek
baker
bakr
baku
bal
balaban
balal
balavostri
baldacchino
baldakkin
baldassare
baldini
bale
balearic
baleni
bali
balieni
baljat
baljata
baljati
balji
balkani
ball
balla
ballack
ballata
ballerina
ballet
ballett
balletti
balletto
ballo
ballon
ballu
ballun
ballut
balluta
balotelli
balthasar
baltic
baltika
baltiku
baltimore
balzac
balzan
bam
bamberg
bambin
bambina
bambino
ban
banants
banarsidass
banca
band
banda
bande
bandiera
bandikut
bandikuti
bandisti
baned
banek
bang
bangladexx
banja
banjijiet
banju
bank
bankarju
bankett
banketti
bankier
bankijiet
bankina
banks
baptiste
baqa
baqagħlu
baqar
baqax
baqgħa
baqgħet
baqgħetx
baqgħu
baqgħux
baqra
bar
barack
barbara
barbari
barbaro
barbarossa
barbaru
barbera
barbier
barbiera
barbiere
barbosa
barc
barca
barcelona
barclays
bard
bardejov
bargello
bari
baritonu
barjonika
bark
barka
barkar
barkaw
barnaba
barnes
barnsley
barokk
barokka
barokki
baron
baroque
barra
barraga
barragan
barrakka
barrakki
barrani
barranija
barranin
barraza
barri
barrier
barriera
barrieri
barrin
barrios
barros
barroso
barry
bars
bart
bartholdi
bartholdy
bartilmew
bartolo
bartolome
bartolomeo
baruni
bas
basa
basal
base
baseball
based
basel
basic
basil
basin
bask
basket
basketball
baski
baskitbol
basktijiet
bass
bassae
bassanio
bassano
bassar
bassasa
basso
bassoriljievi
basta
basten
bastian
bastiment
bastimenti
bastion
bastjan
bastjun
bastjuni
bastun
bat
bata
bate
bates
batew
batiet
batta
battalja
battalji
batterija
batteriji
batterji
battery
battiet
battir
battista
battisterju
battle
battuta
batut
bauer
bauhaus
bauten
bavarja
bavarjan
baxkir
baxkiri
baxkortostan
baxx
baxxa
baxxi
bay
bayer
bayern
bayeu
bayreuth
baz
baħar
baħrejn
baħri
baħrija
baħrin
baħħar
baħħara
bb
bbaz
bbc
bbilanc
bc
bcl
bd
bdejt
bdew
bdiet
bdiewa
bdil
bdot
bdu
be
beach
beagle
beast
beata
beatifikazzjoni
beatles
beatrice
beatu
beau
beauvais
beaux
bebbux
bebuna
because
beck
beckenbauer
beckham
bed
beda
bediex
bedwini
bee
beeckman
beemster
been
beerschot
beethoven
before
beg
beggazzina
begin
beginning
behavior
behind
behrens
bei
beijing
being
bejg
bejgħ
bejjiegħ
bejjiegħa
bejn
bejniethom
bejnietna
bejnu
bejt
bejta
bejtiet
bek
beka
bekistan
bekkafik
bekli
bektashi
bel
beland
belangeri
belarus
belarussja
bele
belfast
belg
belgium
belgrad
belgrade
believe
beliz
bell
bella
belle
belles
bellini
bellinzona
bello
bellus
belmont
below
belt
belti
beltra
belvedere
belzoni
bembo
bemoll
ben
bena
bencini
bene
benedetto
benedittin
benedittina
benedittini
benedittu
benefattur
benefic
benesseri
benetice
benevento
benfica
bengal
bengħisa
benhaddou
beni
benin
benito
benjamin
benjamini
bennej
bennejja
benninni
benscheidt
benvenuto
benzema
beograd
beppe
ber
berardi
berat
beraħ
berbatov
berbe
berber
berberi
bereg
berenbaum
berg
bergamo
berge
bergen
berger
bergoglio
berkeley
berkson
berlin
berlioz
berlusconi
bern
bernabe
bernanos
bernard
bernarda
bernardino
bernardo
bernhard
bernini
bernoulli
berqa
berry
bert
bertha
berthe
bertrand
bes
besa
best
bet
beta
bethlehem
betlehem
betlem
betlemme
better
bettija
between
beveren
bey
beyond
bez
bezzina
bhagavadgi
bhakti
bhal
bhala
bhaskara
bhejjem
bi
biagio
bianchi
bibbja
bibblic
bibi
bibien
bible
biblic
biblical
biblijografija
biblijoteka
biblika
bibliku
biblioteca
bibliothe
bibljografija
bibljoteka
bic
bice
bid
biddel
biddlu
bidel
bidla
bidlet
bidliet
bidlu
bidnija
bidu
bidwi
bieb
biedja
biegħ
biegħet
biegħu
bien
bierda
bierek
bies
biex
biez
big
bigcup
bih
biha
bihom
bijodiversita
bijografi
bijografija
bijografiji
bijografu
bijokimika
bijolog
bijologu
bijosfera
biki
bikri
bikrija
bikrin
bil
bilanc
bilaterali
bilbao
bile
bilfors
bilingwi
biljett
biljetti
biljun
biljuni
bilkemm
bill
billboard
billejl
billi
billy
bilmod
bilqiegħda
bilwieqfa
bin
binarja
binarji
binarju
bing
bingen
bingham
binha
binhar
binhom
bini
binja
binjiet
bint
bintha
bintu
bio
biodiversity
biographical
biographie
biographies
biography
biol
biolog
biological
biology
bir
bird
birgu
birkenau
birkirkara
birmingham
birra
birrerija
birreriji
birth
birz
bis
bishop
bishopi
biskaja
bismarck
biss
biswit
bit
bitcoin
bitcoins
bits
bittija
bitħa
bix
bixra
biz
bizzilla
bjanka
bjar
bjelorussa
bjelorussja
bjelorussu
bjo
bjut
bk
bl
bla
black
blackburn
blacklist
blacklisted
blackpool
blackwell
blaenavon
blair
blaise
blalen
blanc
blanche
blanco
blas
blasetti
blat
blata
blatter
blenheim
blica
bliet
blind
blitz
block
blog
blogg
blogger
bloggs
blokk
blokka
blokki
blokok
blood
bloom
bloomington
bloomsbury
blu
blue
blues
bmg
bnadar
bnadi
bnazzi
bnedmin
bnew
bnf
bniedem
bniet
bo
board
boat
bob
bobby
bobcat
bobruisk
boc
boca
boccaccio
boccherini
bochum
bode
bodh
bodhi
body
boeck
boeing
boemja
boffa
bogdanovic
bogħod
bohe
bois
boitac
bojan
bojkott
bojod
bok
bokk
bokka
bokki
boksing
bol
bold
bolesław
boli
bolivia
bolivja
boll
bolla
bologna
bolol
bolonja
bolonjiz
bolton
bolxeviki
bolzano
bom
bomba
bombay
bombi
bombli
bompiani
bon
bona
bonaci
bonacolsi
bonanno
bonaparte
bonaparti
bonavia
bond
bondin
bonello
bong
bonifac
bonn
bonnic
bonnici
bono
bonus
book
books
boomerang
bor
borac
borboni
bord
bordeaux
border
borders
borel
borg
borgez
borgia
borgiz
borgo
boris
bormla
born
borobudur
boroz
borra
borsellino
borussia
borz
bos
bosch
bosco
bosk
boskijiet
bosnja
boss
bossi
bosta
boston
bot
botanic
botanika
botaniku
both
boton
botswana
botta
bottas
botti
botticelli
bottom
bouch
boulanger
boulder
boule
bouleuterion
boulogne
bourbon
bourges
bourgogne
bourke
bov
bown
box
boy
boyd
boyne
boys
boz
bqajt
bqija
br
bra
brabant
brace
brachylagus
brachyrhynchus
brad
bradford
bradt
braga
brahman
brahms
brain
brajmla
bramante
brand
brandenburg
brandy
branko
brant
brasil
brasileiro
brasiliensis
braswell
bratislava
braun
braunschweig
bravo
braz
bre
breakfast
breda
bregas
bregovic
bremen
brescia
breslau
brest
breton
breydel
brian
bridge
bridges
brief
brien
briffa
brigata
brighton
briju
brikks
brill
brillanti
brimb
brimba
brincat
brindisi
bristol
britain
britannic
britannica
britanniku
british
brittanic
brittanika
brittaniku
brittanja
brittannic
brittanniku
brno
broadcasting
broff
broffa
broffar
broglie
brom
bromwich
bronz
bronzino
brook
brooke
brooklyn
brothers
brown
browne
brownian
browning
brownjan
browz
bru
bruc
bruce
brugeois
bruges
brugge
brugse
brunej
brunelleschi
bruni
bruno
brunswick
brussel
brussell
brussels
bruxelles
bryan
bryggen
bsc
bsk
btajjel
btala
btieti
btieħi
bu
bucha
bucures
bud
buda
budapest
buddha
buddhism
buddhist
buddist
buddista
buddisti
buddiz
budget
buenos
bufa
buffu
bufula
bug
bugdiedem
bugeddum
bugeja
bugħ
bugħa
bugħaddasa
bugħin
buh
buhagiar
building
buildings
built
bukarest
bukhara
bukkett
bula
bulgara
bulgari
bulgarija
bulgaru
bull
bullet
bulletin
bumbardament
bumbardamenti
bumerini
bun
bund
bundesliga
bundy
bunolagus
bunsen
buonarroti
buoni
buqar
bur
bura
burdata
burdati
bureau
burg
burgos
burgu
burin
burke
burkina
burma
burmarrad
burmiz
burnley
burns
bursa
burton
burundi
bus
busacca
busby
bush
business
buskett
bust
busti
busuttil
but
butan
buteo
buthrotum
butir
butler
butrint
butt
butterfly
buttig
buttigieg
button
buttuna
buz
bwar
bwv
by
byron
byzantine
byzantium
bz
bħac
bħad
bħal
bħala
bħalha
bħalhom
bħalissa
bħall
bħallikieku
bħalma
bħalu
bħan
bħar
bħas
bħat
bħax
bħaz
c
ca
cabo
cabral
caccia
cachia
cadaque
cady
caen
caenolestes
caenolestidae
caesar
caf
cagliari
cai
cairo
calabria
calais
calakmul
calcio
calcul
caldarium
caldero
caledonia
calendar
cali
caliban
calicut
calidris
california
californicus
call
calle
called
calleia
calleja
callus
calopresti
caluromyinae
caluromys
caluromysiops
camacho
cambrai
cambridge
camelcase
camenzuli
camera
camerini
cameron
camilla
camille
camilleri
camillo
camino
camp
campagne
campania
campbell
campeche
campeonato
campidoglio
campionato
campo
campus
can
canada
canal
canale
canaletto
canaria
cancer
candela
canescens
cangrande
cannes
canon
cansus
cantabria
cantata
cante
canterbury
canti
cantilena
canto
canton
cantona
cantor
canzone
cap
cape
capello
capensis
capi
capita
capital
capitale
capo
capodimonte
cappella
capri
caprolagus
captain
capua
capuleti
car
carabott
caracol
caral
caravaggio
carcassonne
card
cardiff
cardinal
cardona
carducci
care
caritas
carl
carles
carling
carlo
carlos
carmel
carmelo
carmen
carnarvon
carnegie
carnival
carnivora
caro
carol
carolina
caroline
carra
carracci
carrara
carrasco
carre
carrick
carrier
carriera
carrillo
carroll
cars
carter
cartoon
caruana
carving
casa
casablanca
cascina
case
casella
caserta
cases
casimir
casino
caso
cassar
cassatt
cassini
cassius
cassola
castel
castelgrande
castello
castiglia
castilho
castilla
castillo
castle
castling
castro
castrum
cat
catalina
catalogo
catalogue
catalunya
catania
cate
catedral
categoria
categories
category
caterina
cathe
cathedral
cathedrale
catherine
catholic
cato
cats
cattolica
cauchi
cauchy
causa
cavaliere
cavalieri
cave
caves
caxaro
cbs
cc
cd
cdot
cds
ce
cea
ceaus
cecil
cecilia
cefai
ceiling
celeste
cell
celle
cellini
cells
celta
celtic
cemetery
cenote
centaurea
centenario
centenary
center
central
centre
centro
centuries
century
cercle
cerdan
ceres
cern
cerro
cervantes
ces
cesare
cesc
cet
cette
ceuta
cf
cfc
cfr
ch
cha
chacodelphys
chacoensis
chadwick
chai
chairman
chaitya
chak
challenge
chamberlain
chambers
champagne
champion
champions
championship
champs
chan
chance
chandi
chang
changdeokgung
change
changed
changes
changing
channel
chanson
chant
chapel
chapman
chapter
charadriiformes
charadrius
charity
charleroi
charles
charlie
charlotte
charlton
charpentier
charter
chartres
charts
chattris
chaucer
chauvet
che
check
checkmate
chef
chelsea
chemical
chemistry
chen
chennai
cher
chersonesus
chesapeake
chess
chester
chetcuti
chevalier
chevet
chez
chhatrapati
chi
chiara
chiaroscuro
chicago
chiche
chichen
chico
chief
chien
chiesa
chievo
child
children
china
chinese
chirac
chircop
chironectes
chiroptera
chisholm
chitwan
cho
chopin
chor
chosen
choses
chris
christ
christi
christian
christiansen
christiansfeld
christina
christine
christmas
christoph
christophe
christopher
christus
chronicle
chronology
chu
church
churches
churchill
ci
cia
ciantar
ciappara
cichorium
ciconia
cid
ciel
cielo
cilento
cilia
cim
cinco
cinderella
cinema
cini
cining
cinque
cio
circa
circus
cirnei
cis
cit
cite
cities
citroe
citta
city
ciudad
civil
civile
civilization
civilizations
civilta
cixi
ck
cke
cken
ckert
cl
cla
clade
claire
clairvaux
clara
clarence
clarendon
clark
clarke
class
classe
classic
classical
classics
classification
claude
claudette
claudia
claudio
clausewitz
clausius
clavecin
clayton
cle
clean
clemens
clemente
cleopatra
clerk
clermont
cleveland
cleverley
clews
cli
click
clicked
clicking
client
clifford
cliffs
climate
clint
clinton
clio
clive
close
clovis
clr
club
clube
clubs
cluett
cluj
cluny
clyde
cm
cnrs
co
coast
cobos
coccinella
cochin
coco
code
codex
coe
coelho
coeur
cohen
coira
col
cola
cold
cole
colegio
coleiro
coleman
colin
coll
collapse
colle
collected
collection
college
collins
colmar
colo
cologne
coloma
colombo
colonia
colonial
colonna
color
colorado
colore
colors
colosseum
columba
columbia
com
comarca
come
comedy
comique
comiso
comme
commedia
commentary
commission
committee
common
commons
commonwealth
communis
communities
community
como
comodini
compact
compagnia
companion
company
comparative
compendium
complete
complex
complutense
composizione
compostela
computation
computer
computing
comtat
comte
comunale
comune
comunidades
comunque
con
concacaf
concentration
concept
concepts
concert
concerto
concise
concordia
conde
condivi
conegliano
conen
confederation
conference
configuration
conflict
congress
conmebol
connor
conothoa
conquest
conrad
consejo
conservation
considered
constable
constant
constantin
constantine
constitution
construction
contact
containing
conte
contemporary
contents
contes
contest
contesto
conti
continuo
continuum
contre
contribution
contro
control
convention
convento
conversation
convolvulus
cook
cooke
cookies
cooking
cooper
cooperation
copa
cope
copenhagen
copernicus
coppa
copy
copyright
corbaro
corcovado
cordillera
cordoba
corelli
corinthians
cork
corneille
cornelis
cornelius
cornell
cornwall
coro
corona
coronarium
coronavirus
coroneri
corpo
corporation
corps
corpus
correggio
corriere
corso
corte
corun
corvey
cos
cosa
cosh
cosi
cosimo
cosmoglotta
cosmos
cossiga
costa
costanza
cotra
coubertin
could
council
countess
countries
country
county
coup
coupe
couperin
cour
cours
course
court
couto
coventry
covid
cp
cpu
cradle
craig
cramer
crassicaudata
crawford
crazy
crc
cre
created
creation
creative
creazione
creek
creighton
cremona
creo
crespi
cri
crick
cricket
crime
crisis
cristiana
cristiano
cristina
cristo
cristofano
cristoforetti
cristoforo
critical
critien
croatian
croce
crochet
crocus
cromwell
cropped
cross
crotone
crown
crowther
cruijff
crusades
cruyff
cruz
cruzeiro
cryptonanus
crystal
cs
csa
cska
css
ct
ctor
cu
cuenca
cueva
cui
cuicatla
cuisine
cultura
cultural
culturale
culture
cultures
cum
cung
cuniculus
cuore
cup
cups
cura
curac
curie
curmi
curr
current
cuschieri
cutajar
cuvier
cygnus
cynocephalidae
cynocephalus
cynthia
cyprus
cyril
cyrus
czech
czerny
cœur
d
da
dada
dag
dahar
daharha
dahru
dai
daily
dak
dakinhar
dakkir
dal
dalam
dale
dali
dall
dalla
dallas
dalle
dalli
dalmazja
dalwaqt
dam
damasku
dame
damet
damiano
damitx
damjan
damma
damu
damux
damx
dan
dana
dance
dandria
daniel
daniela
daniele
danilo
danimarka
daniz
danjel
dann
danneg
danni
dannu
danny
dans
dante
danubju
danuta
danzig
daphne
daqna
daqq
daqqa
daqqet
daqqew
daqqiet
daqquqa
daqs
daqshekk
daqsijiet
daqsminuri
daqstant
daqsxejn
daqxejn
dar
darb
darba
darbiet
darbtejn
daret
darha
darhom
dari
dario
dark
darko
darling
darmanin
darmstadt
daro
darren
dars
daru
darwin
darwiniz
das
dasjur
dasjuromorfji
dasycercus
dasykaluta
dasyuridae
dasyurinae
dasyurini
dasyuroides
dasyuromorphia
dasyurus
data
database
databaz
datar
datat
datata
datati
datazzjoni
date
dati
dau
daudet
daughter
daum
dauphin
dave
david
davies
davis
dawk
dawl
dawn
dawra
dawran
dawret
dawriet
dawson
dawwar
day
days
daz
dazju
daħal
daħalx
daħla
daħlet
daħliet
daħlitx
daħlu
daħlux
daħħal
daħħlu
dc
dd
ddaħħal
ddebutta
ddec
ddedika
ddedikat
ddedikata
ddedikati
ddefinixxa
ddekorat
ddekorata
ddekorati
ddepoz
dderieg
ddeskriva
ddeterminat
ddeterminata
ddeterminati
ddez
ddikjara
ddikjarat
ddikjarati
ddikjaraw
ddisinja
ddisinjat
ddisinjata
ddisinjati
ddiz
ddokumentat
ddokumentata
ddokumentati
ddominat
ddominata
ddominaw
ddoqq
ddum
ddur
de
dea
dead
deaf
dean
death
debattista
debono
deborah
debutt
debuttanti
dec
decameron
decca
december
decider
decine
deco
dedika
dedikat
dedikata
dedikati
dedikazzjoni
dediki
dee
deep
default
defaults
defic
definit
definita
definiti
definition
definittiv
definittiva
definittivament
definizjoni
definizzjoni
definizzjonijiet
deforestazzjoni
deg
degiorgio
degli
degradazzjoni
dehbi
deheb
dehebi
deher
dehra
dehret
dehriet
dehru
dei
deir
dej
dejjaq
dejjem
dejjiema
dejjiemi
dejma
dejn
dejqa
dejta
dekadenza
dekan
deklin
dekoerenza
dekompoz
dekorattiv
dekorattiva
dekorattivi
dekorazzjoni
dekorazzjonijiet
del
delacroix
deledda
delegat
delegati
delegazzjoni
delegazzjonijiet
delft
delhi
delia
delikat
delikata
delitt
delitti
dell
della
delle
dello
deloitte
delta
deludenti
dem
demel
demerarae
demeter
demetriju
demicoli
demm
demografija
demografika
demografiku
demokratic
demokratika
demokratiku
demokrazija
demokristjani
demone
demouy
dempsey
den
denb
denbhom
denbu
dendrogale
dendrohyrax
deni
denis
dennis
denominazzjoni
denominazzjonijiet
dens
densa
densita
densitajiet
dentali
dentist
dentisti
dentistrija
deo
department
depasquale
deportati
deportazzjoni
deportivo
depost
depoz
depressjoni
depuis
deputat
deputati
der
derbi
derbianus
derby
derek
derivabbli
derivat
derivata
derivati
derivazzjoni
dermoptera
dermotherium
des
descartes
description
descrizione
desert
design
deskritt
deskritta
deskritti
deskrittiva
deskrizzjoni
deskrizzjonijiet
desmarest
desmatolagus
desmond
despic
despotat
dessau
destin
destinazzjoni
destinazzjonijiet
destino
destiny
detall
detentur
detenturi
deterjorament
determinanti
determinat
determinata
determinati
determinattivi
determinazzjoni
detriment
detroit
dettal
dettaljat
dettaljata
dettaljati
dettalji
dettall
dettelbacher
deum
deus
deutsch
deutsche
deutschen
deutscher
deutsches
deux
dev
deva
devastanti
devati
development
devi
devil
devils
devon
devot
devota
devoti
devotion
devozzjoni
dewmien
dez
deħlin
dfb
dfin
dfl
dg
dgħajfa
dgħajjef
dgħajjes
dgħajsa
dgħjufija
dhabi
dharma
dhavalikar
di
dia
diabelli
diacono
diamond
diana
diane
diario
diary
dias
dibattiti
dibattitu
dic
dice
dicembre
dicembru
dich
dick
dickens
dictionaries
dictionary
dictionnaire
did
dida
didelfidu
didelfimorfju
didelphid
didelphidae
didelphimorphia
didelphinae
didelphini
didelphis
didelphoidea
diderot
didier
die
died
diedet
diedu
diego
diegu
dieher
dielja
dieqa
diesel
dieta
dieter
dietmar
dietrich
dieu
dieudonne
dieħel
dieħla
difensiv
difensiva
difensivi
difensur
difensuri
difetti
difettuz
diff
different
differenti
differential
differenza
differenzi
differenzjabbli
differenzjali
diffic
diffikulta
diffikultajiet
diffuz
difiz
difna
difniet
dig
diga
digest
digi
digital
digriet
digrieti
dija
dijabete
dijagramma
dijametru
dijanjoz
dijastolika
dijonisju
dijoniz
dik
dikjarat
dikjarati
dikjarazzjoni
dikjarazzjonijiet
dil
dilatazzjoni
dilettant
dilettanti
dilig
dimech
dimensjoni
dimensjonijiet
dimitar
dimostranti
dimostrazzjoni
dimostrazzjonijiet
din
dinamic
dinamika
dinamiku
dinamiz
dinamo
dinastija
dinastiji
dinastika
dinger
dingli
dinija
dinja
dinji
dinjiet
dinjija
dinjin
dinjita
dinjitarji
dino
dinosawri
dio
diofantej
diofantu
diog
dioge
dion
diossidu
dipartiment
dipartimenti
dipendenti
dipendenza
dipendenzi
dipinto
diploma
diplomatic
diplomatika
diplomatiku
diplomazija
diplotaxis
dipressjoni
diprotodontia
diputacio
dir
dirac
dire
director
dirett
diretta
direttament
diretti
direttiva
direttivi
direttorat
direttorju
direttric
direttur
diretturi
direzzjonali
direzzjoni
direzzjonijiet
dirgħajh
dirgħajn
dirichlet
dirig
dirk
dis
disa
disabled
disat
discovered
discovery
disease
disegno
disfatta
disgħa
disgħin
disgħinijiet
disinjatur
disinjaturi
disinji
disinn
disinni
disk
diska
diski
diskografija
diskografika
diskors
diskorsi
diskoteka
diskreti
diskriminazzjoni
diskuss
diskussa
diskussi
diskussjoni
diskussjonijiet
disney
dispjac
display
displaystyle
disponibbilta
disponibbli
dispoz
disprezz
diss
distakk
distanti
distanza
distanzi
distint
distinta
distinti
distintiv
distintiva
distintivi
distinzjoni
distrett
distretti
distrettwali
distribuzjoni
distribuzzjoni
distribwiti
distruzzjoni
dit
dite
dith
dition
ditions
ditta
dittatur
dittatura
ditti
diverg
diversa
diversi
diversita
diversity
divertiment
divin
divina
divini
divinita
divinitajiet
divisie
divisio
division
diviz
divorzju
divrig
dixit
dixon
dixxendent
dixxendenti
dixxendenza
dixxipli
dixxiplina
dixxiplini
dixxiplu
diyarbakır
diz
dizionario
dizzjunarji
dizzjunarju
dj
djakni
djaknu
djalett
djaletti
djalogu
djamanti
djar
djarhom
djarju
djoc
djoklezjanu
djun
dk
dlam
dling
dm
dmir
dmirijiet
dmitri
dmitry
dmugħ
dna
dnepr
dniefel
dnub
dnubiet
dnubiethom
do
doc
docherty
docteur
doctor
document
documentation
documents
does
dog
doganali
doge
doi
dojoq
dokument
dokumentarja
dokumentarji
dokumentarju
dokumentata
dokumentazzjoni
dokumenti
dolina
dollaru
dolmen
dolmens
dolomieu
dolomit
dolomiti
dolores
dom
domain
domanda
domani
dome
domenica
domenico
domestic
domestika
domestiku
dominanti
dominanza
dominata
dominazzjoni
domingo
dominic
dominici
dominikana
dominique
dominji
dominju
dominus
domning
domus
don
donald
donaldson
donatello
donato
donatur
donaturi
donazzjoni
donazzjonijiet
donc
done
donetsk
dong
doni
donizetti
donna
donne
donnha
donnhom
donnu
donovan
dont
door
dopo
doppja
doppjetta
doppji
doppju
dora
doreen
doria
doric
doriku
dorothea
dorothy
dorsalis
dorset
dortmund
dos
dossier
dot
dota
dott
dottorat
dottrina
dottrine
douard
double
doubleday
douglas
douro
dove
dover
dovut
dovuta
dovuti
down
downloaded
doyle
doz
dqiq
dr
dra
drabi
dragan
draghi
dragon
dragun
draguni
dragut
drake
drale
drama
dramm
dramma
drammatic
drammatika
drammatiku
drammaturgi
drammaturgu
drammi
dranag
drapp
drappijiet
drastikament
drastiku
draw
drawings
drawwa
drawwiet
dream
dreams
drenag
dresden
drew
driegħ
dritt
dritta
dritti
drittijiet
drive
dro
droga
drogba
drogi
dros
drosophila
drottningholm
drummer
drums
dsatax
dt
du
duane
duarte
dubbien
dubbiena
dubji
dubju
dubjuz
dublin
dubois
dubrovnik
dubrovnika
duc
dud
dudelange
due
duero
dugon
dugong
dugongi
dugongidae
duisburg
duka
dukali
dukat
dukati
duke
dukessa
duki
dulas
duluri
dumas
dumbarton
duminku
dumnikan
dumnikana
dumnikani
dumont
dun
duna
duncan
dundalk
dundee
dundjan
duni
dunnart
duomo
dura
durante
durch
durham
during
durmitor
durrajsa
dus
dusisiren
dutch
duttrina
duttrini
duttur
duħħan
dvd
dwal
dwana
dwar
dwardu
dwarha
dwarhom
dwaru
dwejjaq
dwejra
dwett
dwiefer
dwieli
dx
dy
dyck
dynamics
dynamo
dz
dħalt
dħul
długoborski
e
ea
each
eagle
eagles
ean
eani
eanic
eanika
eanja
earl
earliest
early
earth
east
eastern
eau
eb
ebba
ebbed
ebbug
ebda
ebejer
ebel
ebert
ebgħa
ebi
ebla
ebliet
ebra
ebrajk
ebrajka
ebrei
ebri
ebrija
ebrin
ebro
ebu
ec
ecce
echium
echo
echymipera
eco
ecol
ecology
economic
economics
economy
ed
eda
edda
edded
eddie
eddy
eden
edent
edentament
edentement
edenti
edenza
edew
edgar
edi
ediciones
ediet
ediment
edimenti
edinburgh
edinburgu
edison
edit
edited
edith
edition
editions
editjar
editjat
editor
editore
editorial
editorjali
editrice
editt
editur
edituri
edizione
edizioni
edizzjoni
edizzjonijiet
edja
edji
edmond
edmund
edni
edo
edonja
edonjan
edouard
eds
edu
eduard
eduardo
education
educational
edukat
edukata
edukati
edukattiv
edukattiva
edukattivi
edukatur
edukazzjoni
edura
eduri
edut
eduta
eduti
edward
edwards
edwin
ee
eea
eerste
efesu
effects
effet
effett
effetti
effettiv
effettiva
effettivament
effettivi
effic
effiena
effikac
eg
eggenberg
egmont
ego
egon
egovina
egrant
egwit
egypt
egyptian
egħlu
eiffel
eighteenth
ein
einaudi
eindhoven
eine
einer
einfu
einstein
eintracht
eisinga
ej
ejda
ejja
ejjec
ejjed
ejjen
ejjer
ejjew
ejjieni
ejjin
ejna
ejnin
ejnu
ejra
ejriet
ejt
ejtun
ejz
ek
eka
eki
ekja
ekk
ekkehard
ekkja
ekklez
eklissi
eklittika
ekolog
ekonomic
ekonomija
ekonomiji
ekonomika
ekonomikament
ekonomiku
ekonomista
ekonomisti
ekoreg
ekosistema
ekosistemi
ekoslovakkja
ekranas
eks
ekstraterrestri
ekumeniku
ekuttiv
ekuttiva
ekuttivi
ekuzzjoni
ekwador
ekwatorjali
ekwatur
ekwazzjoni
ekwazzjonijiet
ekwestri
ekwilibriju
ekwinozju
ekwipag
ekwivalenti
ekwivalenza
el
elaborat
elaborata
elaborati
elastic
elba
elbe
ele
eleanor
elebra
elebrat
elebrata
elebrati
elebraw
elebrazzjoni
elebrazzjonijiet
electronic
elef
elefante
eleg
elegans
eleganti
eleganza
elel
element
elementari
elementi
elemento
elements
elena
elenkat
elenkata
elenkati
eleonora
elephant
elephantulus
elesti
elestjali
elett
eletta
eletti
elettorali
elettorat
elettric
elettrika
elettriku
elettromanjetika
elettromanjetiku
elettromanjetiz
elettron
elettronegattivita
elettroni
elettronic
elettronika
elettroniku
elettur
eletturi
elevat
elevata
elevati
elevazzjoni
elevazzjonijiet
elezzjoni
elezzjonijiet
elf
elfejn
eli
eliade
elias
elic
elig
elija
elik
elika
eliminat
eliminata
eliminati
eliminatorja
eliminatorju
eliminaw
eliminazzjoni
eliot
elisabeth
elisabetta
elista
elisti
elit
elite
eliz
elizabeth
elizondo
elizzazzjoni
elji
elju
ell
ella
ellat
elle
ellenika
ellenistic
ellenistika
ellenistiku
ellenti
ellenza
ellerat
elli
ellied
ellieda
elliott
ellis
ellittic
ellittika
ellola
elloli
ellona
ellora
ellul
ellula
ellulari
elluli
elmu
elo
elsa
else
elsevier
eltic
eltiku
elton
elu
eluf
elvira
elvis
em
ema
emanc
emanuel
emanuele
embalu
embargo
emberiza
emblema
emblematic
emblematika
emblemi
embrijun
embrijuni
embru
emel
emellag
emellat
emellata
emellati
emenda
emendata
emendi
ement
emerg
emergence
emeritu
emeritus
emerson
emgħa
emgħat
emgħu
emi
emigra
emigranti
emigraw
emigrazzjoni
emil
emile
emilia
emiliae
emiliano
emilio
emily
eminenti
emir
emirat
emirates
emirati
emisfera
emisferu
emissjonijiet
emma
emmanuel
emmen
emmnu
emonija
emozzjonali
emozzjoni
emozzjonijiet
empel
emperor
empire
empires
empji
empju
emplari
en
ena
enamorados
enarji
enb
enbha
enbhom
enbu
enc
enciclopedia
encyclopaedia
encyclope
encyclopedia
encyclopædia
end
enda
endarja
endarji
endarju
endemic
endemika
endemiku
endi
ene
enealog
enemalta
enera
eneral
enerali
eneralizzazzjoni
eneralment
enerat
enerata
eneraw
enerazzjoni
enerazzjonijiet
energ
energy
eneri
eneriku
eneroz
eneru
eneruz
enesi
enetic
enetika
enetikament
enetiku
enfant
enfasi
enfasizza
enfasizzat
engine
engineering
engines
england
english
eni
enic
enija
enitur
enituri
enja
enjaw
enji
enju
enjuz
enlightening
enlightenment
enn
enna
ennaru
enneadi
ennji
ennju
enoc
enoma
enomi
enone
enormi
enotip
enova
enrico
enriku
enrique
ens
ensemble
ensi
ensiment
ensjonijiet
ensu
ensura
ent
enta
entament
entant
entanti
entanza
entat
entata
entati
entatric
entattiv
entattiva
entattivi
entattric
entatur
entaturi
entaw
entawri
entazzjoni
entazzjonijiet
entement
entenarju
entente
entered
entez
enti
entier
entiera
entili
entimetri
entimetru
entin
entina
entinarju
entini
entita
entitajiet
entivi
entra
entrali
entralizzata
entralizzazzjoni
entrament
entrat
entrata
entrati
entraw
entrazzjoni
entre
entri
entric
entriku
entru
entuz
entwali
entwicklung
enu
enver
environment
environmental
enwin
enz
enza
enzi
enzija
enziji
enzja
enzjat
enzji
enzo
eo
eoglific
eografic
eografija
eografika
eografikament
eografiku
eografu
eolji
eolog
eologi
eologu
eomanis
eometric
eometrija
eometrika
eometriku
eomorfic
eomorfolog
eorg
ep
epic
epidaurus
epidemija
epidemiji
epifanija
epika
epilogue
epiment
epiru
epirus
episkopali
episkopat
episodji
episodju
epistemolog
epit
epitet
epoca
epoka
epp
eppi
epps
epsilon
eqdem
eqqel
eqreb
equiv
er
era
erakle
eramika
erano
erarkija
erarkika
erasmus
erat
eraz
erba
erbajg
erbat
erbatax
erbgħa
erbgħin
erbivori
erbivoru
erc
ercole
erdot
erdotali
erdoti
erdozju
ereali
eredi
eredita
ereditarju
eredivisie
eremita
eremitag
eremiti
erer
erere
eretiku
erew
erez
erg
ergo
eri
eric
erich
erija
erik
eriment
erimenti
erimonja
erimonjali
erimonji
erin
erina
eris
erit
erita
eritrea
erixxa
erixxi
erixxu
erja
erjali
erjan
erk
erka
erkatur
erkaturi
erki
erkole
erlangen
ermanic
ermanika
ermaniku
ermaniz
ermanja
ermen
ermia
erna
ernati
ernaw
ernest
ernesto
erniq
ernst
ero
erodi
erodium
eroglific
eroglifika
eroglifiku
eroina
eroj
erojka
erojku
eront
eronte
eronti
eros
erotic
eroz
erp
erriegħa
ers
erste
ert
erta
ertament
ertezza
erti
ertifikat
ertifikata
ertifikati
ertifikazzjoni
ertu
erun
erusalemm
erva
ervat
ervata
ervati
ervi
erwieħ
erwin
erz
es
esag
esan
esarija
esc
escher
escorial
escu
esebiti
esebizzjoni
esebizzjonijiet
eseg
esej
esejs
esempio
esi
esistenza
esklussiva
esklussivament
eskluz
esky
espan
espanda
espandew
espansjoni
espanyol
esperanto
esperiment
esperimenta
esperimenti
esperjenza
esperjenzat
esperjenzaw
esperjenzi
espert
esperti
esplic
esplora
esploratur
esploraturi
esplorazzjoni
esplorazzjonijiet
esponent
esponenti
esponiment
esportazzjoni
esportazzjonijiet
espost
esposta
esposti
espoz
espressa
espressi
espressiva
espressjoni
espressjonijiet
espressjoniz
esprima
esprimew
esprit
esri
ess
essa
essai
essar
essarja
essarjament
essarji
essarju
essat
essata
essay
essays
essen
essential
essenza
essenzjali
essenzjalment
essere
esseri
essex
essi
essibbilta
essibbli
essien
essita
essiv
essiva
essivament
essivi
essjoni
essjonijiet
esso
essur
essuri
est
esta
establishment
estadio
estanti
estasi
estate
este
esteban
estenda
estendew
estensiv
estensiva
estensivi
estensjoni
estensjonijiet
estenzjoni
ester
estern
esterna
esterni
estetic
estetika
estetiku
esti
estint
estinta
estinti
estinzjoni
estit
estita
estiti
estixxi
estiz
estjoni
estonja
estonjan
estratt
estratti
estrazzjoni
estrem
estrema
estremament
estremi
estudiantes
estudios
estwarju
esu
et
eta
etac
etali
etazzjoni
etc
etern
eterna
eterni
eternita
ethnic
ethnologue
etic
etienne
etika
etikett
etiku
etimolog
etjopja
etjopjan
etna
etnic
etnika
etniku
eto
etruski
ett
etta
ettabbli
ettari
ettaru
ettat
ettata
ettati
ettaw
ettawx
ettax
ettazzjoni
etti
ettijiet
ettiv
ettiva
ettivi
ettore
ettur
ettura
ettwali
eu
euarchonta
euarchontoglires
euch
eufo
euge
eugene
eugenio
eulagos
euler
eumenes
euphorbia
eur
euro
europa
europaeus
europe
europea
european
europol
eurovision
eus
eutheria
eutr
eva
evakwati
evaluation
evalwazzjoni
evang
evans
evarist
evelyn
even
event
eventi
events
eventwali
eventwalment
ever
everest
everton
every
everyday
everything
evew
evic
evidence
evidenti
evidenza
eviet
eviment
evimenti
evita
evitat
evitata
evitati
evitaw
evo
evol
evoli
evolution
evolutionary
evoluttiv
evoluttiva
evoluttivi
evoluzzjonarja
evoluzzjoni
evolva
evolvew
evolviet
evra
evu
ew
ewfrate
ewg
ewh
ewijiet
ewkaliptu
ewkaristija
ewkaristiku
ewlenija
ewlenin
ewlieni
ewro
ewropa
ewroparlamentari
ewropea
ewropej
ewropeja
ewropew
ews
ewsebju
ewsoc
ewtropju
ewwa
ewweg
ewwel
ewwg
ewwieni
ewwig
ewwinija
ewx
ewz
ex
example
excavations
excelsior
exchange
exeter
exhibition
existing
exists
expansion
experience
experimental
exploration
expo
exposition
express
expression
extinction
extra
extremadura
exupe
eyckensis
eye
ez
ezzjonali
ezzjoni
ezzjonijiet
eħfef
eħrex
eħxen
f
fa
fabbrika
fabbriki
faber
fabian
fabio
fabrizio
fac
face
facebook
facile
factbook
facto
factory
facts
fadal
fagu
fagus
fahrenheit
faial
failla
fair
faire
fairs
fait
fajl
fajls
fakkar
fakulta
fakultajiet
falaj
falco
falcone
falkland
fall
falla
fallew
falliet
falliment
fallimenti
falls
fallut
false
falun
falz
falza
falzon
fama
fame
famiglia
famiglie
families
familja
familjari
familji
familtu
family
famuz
fan
fanal
fanali
fanatiz
fanny
fano
fantasija
fantastique
fanterija
fantin
faqar
faqqgħet
faqqgħu
faqqiegħ
faqqus
far
faragħun
faragħuni
farber
fare
farfett
farmac
farnace
farnese
faroe
faroiz
farrar
farrug
farrugia
fart
fasciatus
fash
faso
fassal
fast
fatali
fatberg
fatehpur
father
fathers
fatima
fatou
fatt
fatti
fattizzi
fatto
fattorizzazzjoni
fattur
fatturi
faure
faust
faut
favorevoli
favorit
favorita
favoriti
favur
fawna
fawwara
fawwariet
faxex
faxxa
faxxi
faxxist
faxxista
faxxisti
faxxiz
fayard
faz
fazzjoni
fazzjonijiet
faħam
faħħar
fbi
fc
fdal
fdalijiet
fdat
fdata
fdi
fe
fearne
feat
feature
february
fece
fede
fedelta
federali
federation
federazzjoni
federazzjonijiet
federico
federiku
feg
fehem
fehim
fehma
fehmiet
fehmu
fejn
fejqan
fekruna
felic
felice
felini
felipe
felix
fellow
female
femme
femmes
femminili
femminista
fen
fenech
fenek
fenerbahc
fenic
fenice
fenomeni
fenomenu
fer
ferdinand
ferdinando
ferdinandu
ferenc
ferencva
ferguson
fergħa
fergħat
feria
ferino
ferita
feriti
ferm
fermat
ferna
fernand
fernandes
fernandez
fernando
feroc
ferrand
ferrante
ferrara
ferrari
ferreira
ferrobattut
ferrovija
ferroviji
ferrovjarja
ferrovjarji
ferrovjarju
fertili
fertilita
fertilizzazzjoni
feruti
ferħ
ferħan
fes
festa
festi
festin
festini
festival
festivals
fetaħ
fetu
fetħa
fetħet
fetħiet
fetħu
feu
few
fewdali
fexfiex
feyenoord
ff
ffa
ffac
ffinanzjat
ffinanzjati
ffirma
ffirmat
ffirmaw
ffjorixxiet
ffoka
fforma
ffortifikat
ffortifikata
ffriz
ffukati
ffurmat
ffurmata
ffurmati
ffurmaw
fgura
fi
fia
fiat
fibonacci
fibra
fibri
fic
fid
fida
fidda
fiddien
fide
fidel
fidelio
fidi
fidil
fidila
fidili
fiduc
fidwa
field
fields
fier
fiera
fieri
fifa
fife
fifpro
fig
figaro
figlio
figo
figueres
figura
figurattiva
figure
figures
figuri
figurini
fih
fiha
fihom
fija
fil
filamenti
filantropu
filarmonika
filatelija
file
files
filfatt
filfla
filfolensis
filgħaxija
filgħodu
fili
filip
filippi
filippini
filippo
filippu
fill
fille
film
filmat
filmati
filmografija
films
filo
filog
filolog
filosfi
filosfu
filosofi
filosofic
filosofija
filosofika
filosofiku
filosofu
fils
filtri
filtru
filwaqt
fimbank
fin
fina
final
finale
finali
finalist
finalista
finalisti
finalment
financial
finanzi
finanzjament
finanzjarja
finanzjarjament
finanzjarji
finanzjarju
find
fine
fini
finit
finiti
finitura
finlandiz
finlandja
fino
finta
fiore
fiorentina
fiorentini
fiorentino
fiori
fir
firda
fire
firem
firenze
firien
firma
firmatarji
firmin
first
firxa
fis
fischer
fish
fisher
fiskali
fiss
fissa
fisser
fissi
fissret
fissru
fit
fittex
fittizju
fittxet
fittxew
fitzgerald
fitzroy
five
fix
fiz
fizzjoni
fiħ
fjamma
fjammi
fjamming
fjamminga
fjammingi
fjandri
fjord
fjorentin
fjorentina
fjorentini
fjorin
fjura
fjurablastampa
fjuri
fjuwil
fk
fkieren
fl
flag
flamel
flamenco
flamengo
flammarion
flamurtari
flanders
flannery
flash
flat
flaubert
flavum
flawt
fle
fleagle
fleming
flessibbli
fletcher
fleur
flickr
fliegu
flight
flimkien
flixkun
flok
flokk
flokkijiet
floku
flora
florence
florentia
florentino
flores
floriana
florida
floridanus
flotta
flower
flowers
floyd
flus
fluss
flussi
flusu
fluwidu
flying
flynn
fm
fna
fniedaq
fniek
fnu
fo
foglio
fokali
foki
fokus
folan
folio
folja
folji
folk
folklor
folklore
folkloristic
folkloristika
folkloristiku
folla
following
folol
foloz
fomm
fond
fonda
fondat
fondati
fondazione
fondazzjoni
fonderija
fondi
fondoq
fondut
fonduta
fonduti
fonemi
fonetic
fonetika
fonetiku
fonolog
fonseca
fontaine
fontainebleau
fontana
fonte
fontenay
fonti
fontsize
foo
food
fool
foot
football
foqra
for
forall
forbes
forbidden
force
ford
foreign
forel
forensika
forest
foresta
forestali
foresti
forfc
forgotten
forka
form
forma
formali
formalment
format
formati
formation
formazzjoni
formazzjonijiet
formola
formoli
formosa
forms
formula
formulazzjoni
formuli
forn
fornitur
fornituri
forom
forse
forsi
fort
forte
fortepjanu
forth
forti
fortifikazzjoni
fortifikazzjonijiet
fortijiet
fortizza
fortizzi
fortuna
fortunatament
fortunato
fortune
fortuni
forum
forza
forzi
foscolo
fosos
foss
fossa
fosse
fossil
fossili
fossilu
fost
foster
fosthom
fostna
fotografi
fotografija
fotografu
foton
fotoni
found
foundation
foundations
fountains
four
fourier
fourth
fowler
fox
fqar
fqir
fqira
fr
fra
frac
frag
frame
framment
frammenti
fran
franc
franca
france
francesca
francesco
francia
francis
francisco
franciszek
franco
frang
frangisk
frangiskani
frank
franka
franken
frankfurt
franki
franklin
franko
frankonja
franky
frans
franz
franza
frar
fraser
frate
fratellanza
fratelli
fratello
fratturi
frawli
fraz
frazzjoni
frazzjonijiet
fre
fred
freddie
frederic
frederick
frederik
fredrik
free
freedom
freeman
freg
frege
freiburg
frekwenti
frekwentista
frekwenza
frekwenzi
french
frendo
freni
frere
freud
frida
fried
friedrich
friefet
friegħi
friends
frieħ
frig
friggieri
frikik
frink
frisk
friska
friski
fritz
friuli
friz
frodi
from
front
frosta
frott
frotta
frottijiet
fruit
fruntiera
fruntieri
fsadni
fse
ft
ftakar
ftehim
ftehimiet
ftit
ftuħ
fu
fuad
fuel
fuga
fuji
fuklar
fulham
fuliginosus
fuljett
fuljetti
full
fumana
function
functions
fund
fundamentali
fundamentalment
fundat
fundata
fundatric
fundatur
fundaturi
fundazzjoni
funebri
funeral
funerali
fungi
funikular
funtana
funtani
funzjonali
funzjonalita
funzjonament
funzjoni
funzjonijiet
fuori
fuq
fuqek
fuqha
fuqhom
fuqu
furioso
furjana
furketta
furnar
furnara
furono
further
fuscatus
fuscus
fussball
futbol
futboler
futbolers
futbolo
futebol
futsal
futur
futura
future
futuri
fuz
fußball
fuħħar
fwar
fwied
g
ga
gaal
gabinetti
gabon
gabriel
gabriele
gabrijel
gaddafi
gadget
gadgets
gaeltacht
gaetano
gafa
gag
gaga
gal
gala
galapagos
galassja
galassji
galata
galatasaray
galatea
galatin
galaxy
gale
galea
galeazzi
galeazzo
galen
galeopterus
galeri
galerie
galicia
galilei
galileo
galizia
galizja
galizjan
galland
gallarija
gallariji
gallen
galleria
gallerija
galleriji
gallery
gallettini
galli
gallic
galliku
gallimard
galliz
gallja
gallo
gallozz
gallup
galois
galopp
galton
galvani
galway
gama
gamba
gambja
game
gamma
gammelstad
gamper
gana
ganado
ganc
gandhi
gandzasar
ganga
ganghwa
ganiz
gansu
gant
gantesk
ganteska
ganteski
ganti
gantija
gantoise
garantit
garanzija
garaxx
garci
garcia
garde
garden
gardens
gardner
gare
gareth
gargano
garibaldi
garifullina
garigor
garni
gary
gas
gaspar
gaspard
gaspare
gass
gassijiet
gassuz
gastronomija
gate
gates
gatt
gauci
gaudi
gauge
gauguin
gauliga
gaulle
gauss
gautama
gauthier
gawda
gawdew
gawdiet
gawwija
gawwijiet
gay
gaya
gaz
gazette
gazin
gazzetta
gazzetti
gdan
gdid
gdida
gdim
ge
gea
geddumhom
geiger
gejtanu
gelsenkirchen
gen
genbaku
gender
gendus
gene
general
generali
genet
genetic
genetics
genghis
gengis
genius
genk
gennaro
genoa
genome
genova
gent
gentileschi
genus
geoffrey
geoffroy
geographic
geographical
geography
geological
geology
geometry
georg
george
georges
georgia
georgina
geq
ger
gerada
gerald
gerard
gerardo
gerd
gerhard
geri
gericault
germain
german
germaniz
germanja
germany
germinal
gerrard
gerriema
gerry
geschichte
gestapo
gesu
get
gett
getti
gew
gewandhaus
gewwa
gf
ggassjati
ggradwa
ggradwat
ghajn
ghajnsielem
ghal
ghalhekk
ghaliex
ghalkemm
ghall
ghamel
ghaqda
ghar
ghat
ghawdex
ghax
ghent
gheorghe
gheorghiu
ghetto
ghettos
ghirlandaio
ghoxrin
gi
gia
giacomo
giambattista
gian
gianfranco
gianluca
gianni
giant
gibellini
gibraltar
gibson
gico
gidba
gide
gideb
gidley
gie
giet
giggs
gijo
gil
gilbert
gilberto
giljan
gill
gilles
gime
gimignano
gingerich
gino
gioacchino
gioachino
gioco
gioconda
gioia
gion
giordano
giorgi
giorgio
giorgione
giorni
giorno
giotto
giovane
giovani
giovanna
giovanni
girardon
girgor
girl
girlanda
girls
giro
girolamo
giroux
giuditta
giugno
giulia
giuliano
giulietta
giulio
giuseppe
give
given
givenchy
giza
gje
gjirokaste
gk
glac
gladiolus
glaize
glandoli
glasgow
glass
glen
glenn
gli
glific
glifika
glires
glironia
glis
global
globali
globalment
globe
gloria
gloriette
glorja
glorjuz
glossarju
glu
gniedes
go
goa
god
godfrey
gods
goethe
goff
goffi
gogh
goin
gol
gold
golden
goldman
goldoni
goldstein
golf
golgota
gomel
gomera
gomes
gomma
gonc
gondola
gondwana
gone
gonza
gonzaga
gonzale
gonzalez
gonzalo
gonzi
good
google
gopura
goran
gorbachev
gordon
gorg
gorie
gost
gosti
got
gotemba
gothic
goti
gotic
gotika
gotiku
gotland
gott
gottfried
gouges
gould
gounod
gov
governanza
governattiv
governattiva
governattivi
government
governorat
gowl
gowler
gowlers
gowlkiper
gowls
goya
gozo
gr
gra
graafschap
grac
grace
gracilinanus
gracilis
grad
gradi
grado
gradwali
gradwalment
gradwazzjoni
graf
graffiti
grafi
grafic
grafika
grafiku
graham
gramma
grammar
grammatica
grammatika
grammatikali
grammy
gran
granada
granatensis
granc
grand
grande
grandjuz
grandordni
grands
granger
granit
granmastru
grant
granta
granuli
graph
grasshopper
gratiano
gratitudni
grave
gravi
gravita
gravitazzjonali
gravitazzjoni
grawnd
grawnds
gray
graz
grazie
grazio
grazzi
grazzja
grazzji
grazzjuz
gre
great
greater
greatest
grec
grech
greco
greece
greek
green
greene
greenpeace
greenwood
gregor
gregorio
gregorjan
gregorjana
gregorju
gregory
grellan
gremxul
gremxula
grenada
grenzbitumenzone
greta
grey
grezz
grieg
griega
griegi
grigal
grilja
grima
grimm
griz
grodno
groenlandja
groningen
gropius
gross
grosso
grote
grotowski
grotta
grotte
grotti
ground
group
groups
grove
groves
gru
grube
grupp
gruppi
gruppo
gruyter
gu
guadalajara
guadalquivir
guadalupe
guahybae
guanajuato
guardi
guardian
guardiola
guatemala
gudja
gue
guerra
guerre
guevara
guez
guglielmo
guida
guide
guides
guido
guillaume
guillermo
guinea
guinness
gujana
gujarat
guliermu
guljelmu
gun
gunju
gunnar
gunners
guns
gupta
gur
gura
gurat
gurata
guraw
gurban
gurbanov
guri
guridi
gurnata
gustav
gustave
gustavo
gut
gutenberg
gutie
gutman
guy
guzepp
guzeppi
guzma
gveda
gvern
gvernatur
gvernaturi
gvernijiet
gwann
gwardamang
gwardja
gwardjan
gwardjani
gwardji
gwarnic
gwarnig
gwatemala
gwelfi
gwerer
gwerra
gwid
gwida
gwidi
gwinea
gwu
gyeonggi
gymnasium
gyo
gz
gzejjer
gzira
għ
għa
għabex
għac
għad
għada
għadab
għadajjar
għadam
għadd
għadda
għaddej
għaddejja
għaddejjin
għaddew
għaddiet
għaddiex
għadek
għadha
għadhiex
għadhom
għadhomx
għadira
għadis
għadma
għadmiet
għadna
għadni
għadu
għadux
għafsa
għag
għagħa
għajdut
għajjat
għajjien
għajn
għajnejh
għajnejha
għajnejhom
għajnejja
għajnejn
għajnsielem
għajnuna
għajr
għajta
għajxien
għaksa
għal
għala
għalaq
għaldaqstant
għalekk
għalfejn
għalhekk
għali
għaliex
għalih
għaliha
għalihom
għalija
għalik
għalina
għalja
għaljin
għalkemm
għalkollox
għall
għallem
għalliem
għalliema
għallmet
għallmu
għalqa
għalqet
għalqu
għalxejn
għama
għamara
għamel
għamilha
għamilhom
għamillu
għamilt
għamja
għamla
għamlet
għamliet
għamlitha
għamlitu
għamlu
għamluh
għamluha
għammied
għammiel
għammiela
għan
għana
għand
għandek
għandha
għandhiex
għandhom
għandhomx
għandhu
għandi
għandna
għandniex
għandu
għandux
għani
għanijiet
għanja
għanjiet
għannej
għannejja
għansar
għaqal
għaqda
għaqdiet
għaqqad
għar
għarab
għarabja
għaraf
għarajjes
għaram
għaraq
għarb
għarbi
għarbija
għarbin
għaref
għarfien
għarfu
għargħar
għargħur
għarrieda
għarus
għarusa
għarwenin
għarwien
għarwiena
għas
għasafar
għasel
għasfur
għasri
għassa
għassiesa
għat
għata
għatba
għatu
għatx
għawdex
għawdxi
għawdxija
għawdxin
għawg
għawm
għax
għaxaq
għaxar
għaxart
għaxija
għaxra
għaz
għeb
għebet
għebu
għedewwa
għeg
għeja
għejun
għelbet
għelbu
għeleb
għelejjel
għeliem
għelieqi
għeluq
għemejjel
għemil
għemilu
għen
għeneb
għenet
għenitu
għenu
għereq
għerf
għerien
għerq
għeruq
għerusija
għerwenin
għerwien
għet
għetx
għex
għexet
għexieren
għexu
għid
għin
għir
għira
għixien
għodda
għodod
għodwa
għog
għola
għoli
għolja
għoljiet
għoljin
għolla
għollieq
għomja
għomor
għomru
għonja
għonq
għonqhom
għonqu
għorfiet
għorrief
għoti
għotja
għotjiet
għoxrin
għoz
għu
għuda
għux
h
ha
haag
haber
habich
habitat
habitats
habitus
hachette
had
hadd
hadet
hadise
hadz
haeinsa
hafna
hagia
haifa
haiti
hajduk
hajja
hajtu
hakan
hal
hala
hale
hall
halla
halle
halley
halli
hallstatt
ham
hamburg
hamburger
hamilton
hamiltonjana
hamlet
hammond
han
hand
handball
handbook
handler
hang
hangul
hanja
hannah
hanno
hannover
hanoi
hanover
hans
hansen
hanto
happel
happy
harald
harbor
harcourt
hard
hardy
hargreaves
hari
harmonia
harmonie
harmonique
harold
harper
harpsichord
harriet
harris
harrison
harry
hart
hartt
harvard
harvey
harz
has
hasan
hassan
hat
hathor
hattusha
haumea
haus
haute
hauz
have
haven
having
haw
hawa
hawaii
hawking
hawn
hawnhekk
hayden
haydn
hayes
haz
hbar
he
head
health
heart
heath
heaven
heavy
hector
heda
hedded
hedwig
heerenveen
heidegger
heidelberg
heidelbergensis
heinrich
heinz
hekk
helen
helena
hell
hellas
hellenistic
helmholtz
helmut
help
helsinki
hemm
hemmhekk
hemmx
hena
henares
hendrik
henk
henri
henrik
henry
henslow
her
hera
herald
herbert
here
herengracht
heritage
herman
hermann
hermannus
hermitage
herna
hernandez
hero
herr
herrera
herrmann
herrn
herschel
hertha
hertz
herz
herzog
hesse
het
heterohyrax
heures
heverlee
hewsen
hez
hi
hibernians
hibs
hidalgo
hiddink
hideki
hieni
hienja
hierapolis
hiero
hieronymus
higgs
high
higham
highbury
higher
higuai
hija
hijiex
hilaire
hilary
hilbert
hildesheim
hilgemann
hili
hill
hiltebeitel
him
himalayas
himeji
himst
hin
hindu
hinduism
hindus
hinn
hippase
hirmer
hiroshima
his
hispania
histo
histoire
historia
historians
historic
historica
historical
histories
historique
historiques
history
hit
hitler
hitzfeld
hiv
hix
hl
hler
hman
hms
ho
hoc
hockey
hodder
hodges
hof
hoffenheim
hoffman
hoffmann
hohensalzburg
hohenstaufen
hoi
hold
holland
hollande
hollywood
holmes
holocaust
holstein
holt
holy
hom
home
homme
homo
hompesch
hon
hong
honneur
honor
honore
honoris
honve
hook
hooker
hope
hopkins
hora
horn
horst
hospital
hot
hotcat
hotel
hotspur
hotspurs
houdon
houghton
houllier
house
housing
housteau
houston
how
howard
hoxha
hrer
hrung
htm
html
http
https
hu
hua
huang
huber
hubert
hudson
huelva
huerta
hugh
hughes
hugo
hui
hull
huma
humaine
human
humans
humboldt
humiex
humphries
hungary
hunt
huntelaar
hunter
huntington
huwa
huwiex
huwon
hux
huxley
hyksos
hymne
hyperborea
hyperdidelphys
hypericum
hypertension
hypolagus
hyracoidea
hyzler
i
ia
iaea
ial
ian
ib
iba
ibati
ibba
ibbaz
ibbilta
ibbli
ibbumbardjata
ibda
ibdet
ibdu
ibed
ibeg
ibejtu
iben
ibenik
iberic
iberika
iberja
ibid
ibiddel
ibiet
ibigħ
ibigħu
ibilta
ibjun
ibjuni
ibliet
ibm
ibn
ibniet
ibnu
ibrag
ibrahim
ibridi
ibs
ibu
ibħra
ic
ica
iccu
ice
ich
icomos
icon
icty
id
ida
idawwar
idaħħal
iddawwar
iddaħħal
iddaħħlu
iddebutta
iddec
iddedika
iddedikat
iddedikata
iddedikati
iddefinixxa
iddekorati
iddepoz
iddeskriva
iddeskriviha
iddeterminat
iddez
iddikjara
iddikjarat
iddikjarata
iddikjarati
iddikjaraw
iddisinja
iddisinjat
iddisinjata
iddisinjati
iddiskuta
iddisprat
iddiz
iddokumentata
iddokumentati
iddominat
iddominata
iddominaw
iddoqq
iddur
ide
idea
ideal
ideali
idealiz
ideas
ideat
ideja
idejat
idejh
idejha
idejhom
idejja
idejn
ident
identali
identalment
identi
identic
identifika
identifikabbli
identifikat
identifikata
identifikati
identifikaw
identifikazzjoni
identika
identiku
identita
identity
idenza
ideolog
idew
idha
idi
idiet
idjaq
idjar
idji
idjoc
idjoma
idjomi
idju
ido
idol
idoli
idolu
idoqq
idoqqu
idrawlika
idrija
idroelettrika
idrog
idu
iduka
idum
idur
iduru
ie
ieb
ieba
iebes
iebsa
iebu
ied
ieda
iedet
iedi
iedu
ieg
iegħ
iegħel
iegħla
iegħlet
iegħlu
ieh
iehor
iel
iela
ielda
ieldet
ieldu
ieled
ieli
iemel
ien
iena
ier
iera
ieri
iermu
ieru
iet
ietu
ietx
ieva
ievi
ievu
iewi
iex
iez
ieħ
ieħor
ieħu
if
ifa
ifakkar
ifakkru
ifaħħar
ifeg
ifen
iffac
iffhs
iffinanzjat
iffinanzjata
iffinanzjati
iffirma
iffirmar
iffirmat
iffirmata
iffirmati
iffirmaw
iffjorixxiet
ifforma
iffortifikat
iffortifikata
iffortifikati
iffriz
iffuc
iffurmat
iffurmata
iffurmati
iffurmaw
ific
ifieri
ifika
ifikament
ifikat
ifikazzjonijiet
ifiku
ifiss
ifisser
ifissjoni
ifissru
ifittex
ifittxu
ifjen
ifna
ifniet
ifqar
ifra
ifrat
ifri
ig
igawdi
igawdu
iggradwa
iggradwat
iggwida
iggwidati
igland
iglesia
ignacio
ignaz
ignazio
ignew
ignitus
igor
igoti
igwani
igħ
ih
iha
ihom
ihr
ii
iii
ija
iji
ijiem
ijiet
ijin
ik
ika
ikabbar
ikali
ikament
ikanta
ikantaw
ikbar
ikec
ikejjel
ikel
ikellem
ikistan
ikkanc
ikkaratterizzat
ikkaratterizzata
ikkawz
ikklassifikat
ikklassifikata
ikklassifikati
ikkokkjar
ikkollegata
ikkollegati
ikkompeta
ikkompetew
ikkompona
ikkonc
ikkonferma
ikkonfermat
ikkonfermata
ikkonfermati
ikkonfermaw
ikkonfinata
ikkonkluda
ikkonkludiet
ikkonsagrat
ikkonsagrata
ikkontesta
ikkontestat
ikkontestata
ikkontestaw
ikkontribwew
ikkontribwixxa
ikkontrollat
ikkontrollata
ikkonverta
ikkonvertita
ikkonvertiti
ikkonvinc
ikkowc
ikkritika
ikkritikat
ikkritikata
ikkulata
ikkulurit
ikkuluriti
ikkummenta
ikkummissjona
ikkummissjonat
ikkummissjonata
ikkummissjonati
ikkundanna
ikkundannat
ikkundannati
ikkunsidra
ikkunsidrat
ikkunsidrata
ikkunsidrati
ikkwalifika
ikkwalifikat
ikkwalifikaw
ikkwotat
ikla
ikli
iklic
ikliet
iklika
iklin
iklisti
ikliz
iklopedija
iklopediji
iklu
iklun
ikollha
ikollhom
ikollna
ikollok
ikollu
ikompli
ikomplu
ikona
ikoni
ikonic
ikonika
ikoniku
ikonji
ikonografija
ikonostaz
ikopri
ikopru
ikrah
iksaħ
iktar
iktas
iku
ikun
ikunu
ikħal
il
ilaħħaq
ilaħħqu
ilbies
ilbiesi
ilda
ildefonso
ile
ilen
ileqq
ilesti
ilha
ilhom
ili
ilic
ilijade
ilika
ilina
ilindrika
ilita
ilitajiet
ilitat
ilitaw
ilja
iljan
iljana
iljani
iljari
iljarja
iljarju
iljat
iljati
iljazzjoni
ilji
iljieli
ilju
iljun
iljunfant
iljunfanti
iljuni
ilka
ilkoll
ill
illa
illari
illarju
illat
illati
illaw
illeg
illegali
illi
illier
illinois
illum
illuminazzjoni
illuminiz
illustrata
illustrated
illustratur
illustrazzjoni
illustrazzjonijiet
illuz
ilma
ilment
ilmijiet
ils
ilsien
ilsiera
ilsir
ilsna
iltaqa
iltaqgħet
iltaqgħu
ilu
ilwien
ilx
im
image
images
imagħtejn
imaichi
imali
imb
imbabwe
imbagħad
imbiegħed
imbierek
imblokk
imc
imdaqqas
imdawra
imdawwar
imdaħħal
imdemmi
imdendlin
imdewweb
imdina
iment
imexxi
imexxu
imfakkra
imfassal
imfassla
imfaħħar
imfittex
img
imgħa
imgħallem
imgħat
imgħatejn
imgħax
imgħoddi
imi
imiss
imissu
imitazzjoni
imiterji
imiterju
imkabbar
imkabbra
imkec
imkejla
imkien
imkisser
imlaqqam
imlaqqma
imma
immag
immagini
immakulata
immanig
immanuel
immarka
immarkat
immarkata
immarkati
immedjat
immedjata
immedjatament
immedjati
immens
immensa
immexxi
immexxija
immigrant
immigranti
immigrazzjoni
imminenti
immirata
immirati
immobbli
immodifika
immodifikata
immorali
immorru
immortali
immortalita
immudellar
immudellata
immunodeficiency
immur
imnajdra
imnaqqax
imnaqqsa
imnaqqxa
imnaqqxin
imnarja
imneħħi
imniedi
imnieħer
imnieħru
imnissel
imniz
imnut
imorru
impact
impacts
impanz
imparzjali
impatt
impatti
impenji
impenn
imperatric
imperattiv
imperatur
imperaturi
imperfett
imperi
imperial
imperjali
imperu
impieg
imping
impitter
impittra
impittrin
impjant
impjanti
impjega
impjegat
impjegata
impjegati
impjieg
impjiegi
implementazzjoni
implications
implikazzjonijiet
implimenta
implimentat
implimentata
implimentati
implimentazzjoni
impona
imponenti
imponew
imponiet
important
importanti
importanza
importat
importati
importazzjoni
importazzjonijiet
impossibbli
impossibli
impost
imposta
imposti
imprenditur
imprendituri
impressjona
impressjonanti
impressjonat
impressjoni
impressjonista
impressjonisti
impressjoniz
imprezzabbli
impriz
impronti
impuls
impulsi
imqabba
imqabbad
imqabbel
imqabbla
imqaddes
imqaddsa
imqassra
imqiegħda
imrag
imraz
imrewħa
imrietel
imsag
imsaqqaf
imsaqqfa
imsaħħa
imsaħħaħ
imsejjaħ
imsejjħa
imsejħa
imsejħin
imsellef
imsemmi
imsemmija
imsemmijin
imsewwija
imsida
imsiemer
imsieħba
imsieħeb
imtarfa
imtarrg
imtela
imtella
imtieħen
imur
imut
imutu
imwaqqa
imwaqqaf
imwaqqfa
imweg
imwettaq
imwettqa
imwielda
imwieled
imwiet
imxandra
imxew
imz
imħabba
imħabbar
imħabbra
imħaffra
imħaffrin
imħallas
imħallat
imħallef
imħallfin
imħallsa
imħallta
imħarbta
imħarrg
imħassar
imħaz
imħeg
in
ina
inac
inah
inal
inali
inalita
inalment
inanzi
inaqqas
inaqqsu
inarja
inarjament
inarji
inarju
inat
inaw
inawgurali
inawgurat
inawgurata
inawgurazzjoni
inazzjoni
inbdiet
inbeda
inbejjed
inbena
inbid
inbidel
inbidlet
inbidlu
inbigħu
inbnew
inbniet
inc
inca
incanus
incertae
includes
including
income
indaqqet
indaqs
indarbu
independence
independent
independenti
independenza
indeterminati
indewwa
index
indexing
india
indian
indiana
indic
indica
indifen
indifferenti
indifnet
indifnu
indig
indika
indikat
indikata
indikati
indikattiv
indikattiva
indikattivi
indikaturi
indikazzjoni
indikazzjonijiet
indipendentament
indipendentement
indipendenti
indipendenza
indirett
indiretta
indirettament
indirizz
indirizza
indirizzat
indirizzata
indirizzati
indirizzi
indispensabbli
individwali
individwalment
individwi
individwu
indja
indjan
indjana
indjani
indji
indo
indoari
indoc
indolagus
indonesia
indonez
indra
indrija
indu
induismo
induist
induista
induisti
induiz
indulg
induna
indunat
indurat
indurata
indurati
indus
industrial
industrija
industrijali
industrijalisti
industrijalizzazzjoni
industriji
industry
induzzjoni
indħil
ine
inema
inematografiku
inerija
inerzjali
inetika
inevitabbli
inevra
inez
ineħħi
ineħħu
infami
infante
infanterija
infatti
infection
inferjuri
infermiera
infern
infetaħ
infettati
infetħet
infetħu
infezzjoni
infezzjonijiet
infila
infine
infinit
infinita
infinitez
infiniti
infiq
infirex
infirxet
infirxu
inflazzjoni
influence
influss
influwenti
influwenza
influwenzat
influwenzata
influwenzati
influwenzaw
influwenzi
info
infonatura
informa
informali
informatika
information
informazioni
informazjoni
informazzjoni
infraklassi
infrastruttura
infrordni
infty
infurmat
infurzat
infushom
ing
ingag
ingari
inghilterra
ingilterra
ingjali
inglese
ingliz
inglizi
inglott
ingo
ingredjent
ingredjenti
ingrossa
ingu
ingwanti
ingħad
ingħalaq
ingħalqet
ingħaqad
ingħaqdet
ingħaqdu
ingħata
ingħatat
ingħataw
inhar
inhi
inhu
inhuma
ini
inic
inich
inier
iniera
iniz
inizjali
inizjalment
inizjattiva
inizjattivi
inizzjali
inizzjalment
inja
injam
injat
injata
injati
injazju
injazzjoni
inji
injora
injoranza
injorat
inju
inka
inkapac
inkarigat
inkarigata
inkarigu
inkarnazzjoni
inkella
inkiseb
inkitbet
inkitbu
inkiteb
inkjesta
inklinata
inkluda
inkludiet
inkluz
inkorag
inkoronazzjoni
inkorpora
inkorporat
inkorporata
inkorporati
inkorporazzjoni
inkredibbli
inkrement
inkun
inkunu
inkursjonijiet
inkuruna
inkurunament
inkurunat
inkurunata
inkurunati
inkurunazzjoni
inkwetat
inkwiet
inkwiz
innastika
inne
inni
innifsek
innifsu
innijiet
innoc
innominat
innominata
innota
innovattiv
innovattiva
innovattivi
innovazzjoni
innovazzjonijiet
innsbruck
innu
innutat
ino
inoltre
input
inqabad
inqala
inqalgħet
inqas
inqasam
inqata
inqatel
inqatgħu
inqatlu
inqerdet
inqerdu
inqered
inquisition
insara
inscriptions
insedjament
insedjamenti
insedjata
insedjaturi
insedjaw
insejħulu
insemmu
insett
insetti
insettivora
insettivori
insettivoru
insib
insibu
insibuh
inside
insieme
insig
insinifikanti
insista
insistenza
instab
instabbilta
instabbli
instabet
instabu
instagram
installat
installata
installati
installazzjoni
instead
instema
insteraq
insterqet
insterqu
institut
institute
institution
instituto
insuffic
insulazzjoni
insulta
insulti
insurrezzjoni
int
intaljatur
intaljaturi
intant
intarsjar
intatt
intatta
intatti
intbagħat
intbagħtu
inte
intefa
intefgħu
integrabbli
integral
integrali
integrat
integrata
integrati
integration
integrazzjoni
integrita
intellettwali
intelletwali
intellig
intelligence
intemm
intemmet
intensa
intensita
intensiv
intensiva
intenzjoni
intenzjonijiet
inter
intera
interaction
interazzjoni
interazzjonijiet
interc
interdett
interess
interessanti
interessat
interessata
interessati
interesse
interessi
interfac
interface
interferenza
interi
interim
interior
interjuri
interkjuz
interkontinentali
interlingua
interlingue
intermedji
intermedju
intern
interna
internacional
internament
international
internationale
internazionale
internazjonali
internazzjonali
internazzjonalment
internet
interni
interpreta
interpretat
interpretata
interpretati
interpretazzjoni
interpretazzjonijiet
interpretu
interrotta
interruzzjoni
intersezzjoni
interstellari
intertoto
interu
intervall
intervalli
intervent
interventi
intervista
intervisti
intestaturi
intgħaz
inti
intilef
intilfet
intilfu
intima
intimu
intitolat
intitolata
intiz
intlagħbet
intlagħbu
intlaqa
intlaqat
intlaqgħet
intlaħaq
into
intom
intoppi
intorin
intorno
intqal
intrapriz
intrebaħ
intrebħet
intrinsika
introdott
introdotta
introdotti
introduc
introduction
introduzzjoni
introjtu
introspezzjoni
intuz
intwera
intwerew
intweriet
inu
inuh
inuyama
invada
invadew
invadiet
invarjanti
invaz
invece
inventarju
inventur
inventuri
invenzjoni
invenzjonijiet
invers
invertebrati
investa
investigaciones
investigat
investigaturi
investigazzjoni
investigazzjonijiet
investiment
investimenti
investituri
invictus
invitati
inviz
involut
involuta
involuti
involviet
involviment
inxtara
inxtrat
inz
inzaghi
inzerta
inzertat
inħadem
inħakem
inħakmet
inħareg
inħarg
inħarsu
inħatar
inħatret
inħawi
inħeles
inħoloq
inħolqot
inħolqu
inħoss
io
ion
iowa
ip
ipa
ipali
ipalita
ipalitajiet
ipalment
ipant
ipanti
iparjament
ipat
ipati
ipaw
ipazzjoni
ipazzjonijiet
ipelagu
ipertensjoni
ipessa
iping
ipitazzjoni
ipitter
ipji
ipju
ipog
ipotez
ippartec
ippermetta
ippermettew
ippermettiet
ippjana
ippjanar
ippjanat
ippjanata
ippjanati
ippolito
ippompjar
ippopotami
ippoz
ipprefera
ippreservat
ippreservata
ippreservati
ipprez
ipproc
ipproduc
ipprogrammar
ipprojbiti
ippronunzjata
ippropona
ipprova
ipprovda
ippruvat
ippruvaw
ippubblika
ippubblikat
ippubblikata
ippubblikati
ippubblikaw
ippublika
ippublikat
ippublikata
ippublikati
ippumpjar
ippuntati
ipress
ipretali
ipriet
iprijott
iproc
iproka
iproku
ipru
ipswich
iqaddes
iqajjem
iqatta
iqattgħu
iqiegħed
iqis
iqisu
iqsar
iqum
ir
ira
irac
iran
iranjan
iranjana
iranjani
iraq
irasa
iraz
irbit
irc
irdum
irdumijiet
ire
ireland
irena
irene
irfinar
irg
iri
irid
iridu
irien
irilliku
iris
irish
irja
irjali
irjieħ
irjus
irka
irkant
irkejjen
irkib
irklu
irkola
irkolari
irkolaw
irkolazzjoni
irkonc
irkonferenza
irkoppa
irkostanzi
irku
irkulari
irkulazzjoni
irkupra
irkuprat
irkuprati
irkupru
irkustanzi
irkwit
irlanda
irlandiz
irlewwa
irmied
irmig
irnexxielha
irnexxielhom
irnexxielu
irnexxilu
irolmu
iron
ironikament
irpin
irqad
irqajja
irqaq
irqiq
irrakkonta
irrang
irrapporta
irrapportat
irrapprez
irrappurtat
irraprez
irrefera
irreg
irregolari
irregolaritajiet
irrenja
irrestawra
irrestawrata
irrestawrati
irreversibbli
irrez
irrid
irridu
irrifjuta
irrifjutat
irrifjutata
irrifjutaw
irrigazzjoni
irrikonoxxa
irritorna
irritornat
irritornata
irritornaw
irriz
irtir
irtira
irtirar
irtirat
irtirata
irtirati
irtiraw
irvell
irvelli
irvellijiet
irwol
irxoxt
irziezet
irħam
irħis
irħula
is
isaac
isabel
isabela
isabella
isabelle
isaija
isalpina
isalva
isalvaw
isaħħaħ
isaħħu
isbaħ
isbn
isco
iscudetto
isegwi
isegwu
isejjaħ
isejjaħlu
isejħu
isejħulu
isem
isemmi
isemmu
iservi
iservu
isewwi
iseħħ
iseħħu
isfar
isfel
isfera
isferi
isfida
isfidi
isfond
isforz
isforzi
isfruttament
ishma
isib
isibu
isimha
isimhom
isir
isiru
isis
isivi
isk
iskala
iskambju
iskan
iskana
iskandinavja
iskandlu
iskani
iskart
iskavi
iskeda
iskejjel
iskeletru
iskema
iskemi
iskjavi
iskjavitu
iskoc
iskola
iskolastic
iskoll
iskolli
iskomunika
iskop
iskoperta
iskoperti
iskor
iskorta
iskozja
iskrittura
iskrizzjoni
iskrizzjonijiet
isku
iskultur
iskultura
iskulturi
iskuz
iskwadra
iskwadri
isla
islam
islamic
island
islands
islattiva
islatura
islavi
isle
islogan
islovakkja
islovenja
isma
ismail
ismek
ismijiet
ismu
iso
isofri
isola
isoodon
isostni
isostnu
isouard
ispallejn
ispanjol
ispanjoli
isparar
ispazji
ispazju
ispeaker
ispec
ispedizzjoni
ispedizzjonijiet
ispejjez
ispekulazzjoni
isperma
ispettakli
ispettaklu
ispettaturi
ispettru
ispettur
ispinta
ispira
ispirat
ispirata
ispirati
ispiraw
ispirazzjoni
ispiri
ispiritwalita
ispirti
ispirtu
ispiz
ispjegazzjoni
ispjunag
isplussiv
ispluz
isponsor
isport
isports
ispostament
isptar
isptarijiet
isqalli
isqfijiet
isqof
israel
iss
issa
issaħħaħ
issegwi
issejjaħ
issejħet
issemma
issemmew
issemmiet
isseparati
isserraħ
isservi
isseħħ
issib
issieħbet
issieħbu
issieħeb
issig
issir
issiru
issjoni
issjonijiet
issn
issorvelja
issostitwixxa
issostni
issue
issues
issug
ist
ista
istabbiliment
istabbilta
istadium
istadji
istadju
istadjum
istaff
istag
istagun
istalel
istampa
istampar
istamperija
istampi
istan
istanbul
istanbuler
istandard
istandardizzazzjoni
istandards
istat
istati
istatistika
istatura
istatus
istatut
istatuti
istatwa
istatwi
istazzjon
istazzjoni
istazzjonijiet
istedina
istejjer
istele
istemma
istemmi
istenti
istenza
isteppa
isteppi
isterc
isterjali
isterna
isterni
isteru
istess
istew
isti
istic
istiet
istika
istiku
istil
istilel
istili
istilla
istim
istima
istimi
istitut
istituti
istituto
istituzzjonali
istituzzjoni
istituzzjonijiet
istix
istmu
istoa
istojc
istokk
istolog
istonku
istorbju
istoric
istoriku
istorja
istorju
istqarrija
istqarrijiet
istra
istrajk
istrat
istrata
istrateg
istrati
istratura
istraw
istrazzjoni
istrazzjonijiet
istrett
istri
istria
istrixxa
istrixxi
istru
istrument
istrumenti
istruttura
istrutturi
istruzzjoni
istruzzjonijiet
istu
istudent
istudenti
istudji
istudjo
istudju
istudjuz
istukko
istupa
istupi
istux
istħarrig
isvezja
isvizzera
iswed
it
ita
itajiet
itali
italia
italian
italiana
italiane
italiani
italiano
italicum
italie
italja
italo
italy
itament
itan
itat
itata
itati
itatur
itaturi
itaw
itazzjoni
ite
itejbu
itejjeb
itellgħu
itemm
itfal
ithaca
iti
itir
itiru
itorju
itqal
itravu
itru
its
itsukushima
itt
ittadella
ittadin
ittadinanza
ittadini
ittella
ittellgħet
ittellgħu
ittestjar
ittieklet
ittieħdet
ittieħdu
ittieħed
ittima
ittimi
ittimu
ittit
ittiti
ittiv
ittiva
ittivi
ittra
ittrasferita
ittrasferiti
ittrasferixxa
ittrasformata
ittrasportati
ittratta
ittri
ittu
itu
itudni
itur
ituri
itv
itwal
itza
iu
iucn
ius
iv
iva
ivament
ivan
ivarja
ivarjaw
iveskovat
ivf
ivi
ivic
ivica
iviet
ivika
iviku
ivil
ivili
ivilizzazzjoni
ivilizzazzjonijiet
ivilta
iviltajiet
ivo
ivrea
ivvinta
ivvintata
ivvjag
ivvota
ivvotat
ivvutat
ivvutaw
ivy
iwaqqa
iwaqqaf
iwaqqfu
iwassal
iwasslu
iwettaq
iwettqu
iwieg
ix
ixandar
ixerrdu
ixprunara
ixxa
ixxi
ixxu
iz
izda
izjed
izzat
izzjan
izzjana
izzjani
izzji
izzjonali
izzjonat
izzjonati
izzjoni
izzjonijiet
izzju
iħabbar
iħaddan
iħaddem
iħallas
iħalli
iħallsu
iħallu
iħares
iħarsu
iħbieb
iħeg
iħejji
iħejju
iħobb
iħobbha
iħobbu
iħoss
iħossu
j
ja
jabal
jabbanduna
jabbandunaw
jabbuz
jabdika
jac
jack
jackson
jacky
jacob
jacobi
jacobs
jacopo
jacqueline
jacques
jadattaw
jadida
jadotta
jadottaw
jae
jaf
jaffac
jaffettwa
jaffettwaw
jaffrontaw
jafu
jafux
jag
jaghmel
jagħlaq
jagħlqu
jagħmel
jagħmilha
jagħmilhom
jagħmillu
jagħmilx
jagħmlu
jagħmluh
jagħmluha
jagħmlux
jagħraf
jagħrfu
jagħti
jagħtih
jagħtiha
jagħtihom
jagħtina
jagħtu
jagħtuh
jagħtuha
jagħtuhom
jagħz
jahan
jahangir
jai
jain
jaipur
jakkomoda
jakkumpanja
jakkumpanjaw
jakkuz
jakkwista
jakkwistaw
jakob
jal
jali
jalisco
jalist
jalista
jalisti
jalita
jalitajiet
jaliz
jalizza
jalizzat
jalizzata
jalizzati
jalizzaw
jalizzazzjoni
jalizzazzjonijiet
jalment
jalternaw
jama
jamblique
jament
james
jameson
jammetti
jamministra
jammira
jammonta
jammontaw
jan
jana
janaab
janali
janalizza
janat
jane
janeiro
janet
jani
janiz
jannar
jansa
jantar
janti
january
japan
japanese
jappartienu
jappartjeni
jappartjenu
jappella
jappellaw
japplika
japplikaw
jappog
japprezza
japprova
jaqa
jaqbad
jaqbdu
jaqbel
jaqbez
jaqbilx
jaqblu
jaqblux
jaqbz
jaqdi
jaqdu
jaqgħu
jaqilgħu
jaqla
jaqleb
jaqra
jaqraw
jaqsam
jaqsmu
jaqta
jaqtgħu
jar
jara
jarah
jaraha
jarahom
jarat
jaraw
jarawh
jardin
jardines
jargumenta
jargumentaw
jarji
jarju
jarmu
jasal
jasar
jasaw
jaslu
jason
jassigura
jassiguraw
jassisti
jassoc
jassorbi
jassumi
jasti
jastic
jastika
jastiku
jat
jata
jati
jatic
jatika
jatiku
jattakka
jattakkaw
jattendi
jattendu
jattira
jattiraw
jattiva
jattivita
jatur
jatura
jauregg
java
javanica
javascript
javier
javvanza
javvanzaw
jaw
jay
jaz
jazz
jazzjoni
jazzjonijiet
jaħarbu
jaħarqu
jaħbi
jaħdem
jaħdimha
jaħdmu
jaħfer
jaħkem
jaħkmu
jaħrab
jaħraq
jaħsbu
jaħseb
jaħsibha
jaħtaf
jaħtar
jaħtfu
jaħz
jbati
jbatu
jbaħħru
jbejtu
jbiddel
jbiddlu
jbidu
jbigħ
jbigħu
jc
jdaħħal
jdaħħlu
jdoqq
jdoqqu
jdum
jdumu
jdur
jduru
je
jean
jeanne
jebel
jed
jedd
jeddijiet
jefferson
jeffrey
jegħlbu
jegħleb
jeju
jekk
jeleg
jelenka
jeliminaw
jelling
jemen
jemigraw
jemmen
jemmnu
jena
jene
jenfasizza
jenfasizzaw
jenny
jens
jensen
jent
jenti
jenza
jeqirdu
jeqred
jeratika
jeremy
jerfa
jerg
jerome
jerry
jersaq
jersey
jersqu
jerusalem
jerzy
jesa
jesmond
jespandi
jespandu
jesperimenta
jesplora
jesponi
jesponu
jesprimi
jesprimu
jessica
jestendi
jestendu
jesu
jesus
jet
jeta
jetajiet
jeune
jevita
jevitaw
jevolvu
jew
jewish
jews
jez
jezera
jeħilsu
jeħles
jeħodha
jeħtieg
jfakkar
jfakkru
jfasslu
jfisser
jfissirx
jfissru
jfittex
jfittxu
jg
jgawdi
jgawdu
jghid
jgħaddi
jgħaddu
jgħag
jgħajjat
jgħajtu
jgħallem
jgħallmu
jgħammar
jgħammru
jgħaqqad
jgħaqqdu
jgħassu
jgħatti
jgħattu
jgħid
jgħidilha
jgħidilhom
jgħidlu
jgħidu
jgħidulha
jgħidulhom
jgħidulu
jgħin
jgħinu
jgħinuh
jgħinuhom
jgħix
jgħixu
jgħodd
jgħoddu
jgħolli
jgħumu
ji
jibagħtu
jibbaz
jibbenefikaw
jibda
jibdel
jibdew
jibdlu
jibgħat
jibgħatu
jibki
jibni
jibnu
jibqa
jibqax
jibqgħu
jibqgħux
jibz
jic
jiddaħħlu
jiddec
jiddedika
jiddefendi
jiddefendu
jiddefinixxi
jiddefinixxu
jiddekoraw
jiddependi
jiddependu
jidderieg
jiddeskrivi
jiddeskrivu
jiddetermina
jiddeterminaw
jiddi
jiddikjara
jiddikjaraw
jiddisinja
jiddiskuti
jiddiskutu
jiddistingwi
jiddistingwu
jiddokumentaw
jiddomina
jiddominaw
jiddubita
jiddubitaw
jidentifika
jidentifikaw
jidher
jidhirlu
jidhirx
jidhru
jidhrux
jidħlu
jidħol
jiehdu
jieklu
jiekol
jiem
jien
jiena
jieqaf
jieqfu
jiet
jieħdu
jieħu
jifdal
jiffac
jiffirma
jiffirmaw
jiffoka
jiffokaw
jifforma
jifformaw
jiffranka
jiffrekwenta
jiffukaw
jiffunzjonaw
jiffurmaw
jifhem
jifhmu
jifilħu
jiflaħ
jifraħ
jifred
jiftakar
jiftakru
jiftaħ
jiftħu
jig
jiggarantixxi
jiggverna
jiggwida
jikber
jikbru
jikkac
jikkalkula
jikkalkulaw
jikkawz
jikklassifika
jikklassifikaw
jikkollega
jikkollegaw
jikkompeti
jikkompetu
jikkomponi
jikkomunika
jikkomunikaw
jikkonc
jikkondividu
jikkonferma
jikkonfermaw
jikkonkludi
jikkonserva
jikkonsisti
jikkonsistu
jikkonsulta
jikkontesta
jikkontestaw
jikkontribwixxi
jikkontribwixxu
jikkontrolla
jikkontrollaw
jikkonverti
jikkonvertu
jikkonvinc
jikkoordinaw
jikkorrispondi
jikkorrispondu
jikkostitwixxi
jikkostitwixxu
jikkowc
jikkritika
jikkritikaw
jikkumpensaw
jikkundanna
jikkunsidra
jikkunsidraw
jikkwalifika
jikkwalifikaw
jikkwota
jiksbu
jikseb
jikser
jiksu
jiktbu
jikteb
jikxef
jilagħab
jilagħbu
jilbes
jilbsu
jilgħab
jilgħabu
jillimitaw
jilqa
jilqgħu
jiltaqa
jiltaqgħu
jilħaq
jilħqu
jim
jimbuttaw
jimita
jimitaw
jimla
jimlew
jimmag
jimmarka
jimmarkaw
jimmedita
jimmodifika
jimmy
jimpjega
jimpjegaw
jimplika
jimplimenta
jimponi
jimpressjona
jimpressjonaw
jimtela
jimtlew
jimxi
jimxu
jin
jinas
jinbena
jinbidel
jinbidlu
jinbiegħ
jinbiegħu
jinbigħu
jinbnew
jindaqq
jindaqqu
jindifen
jindifnu
jindika
jindikaw
jindirizza
jindirizzaw
jinduna
jinfetaħ
jinfetħu
jinfirex
jinfirxu
jinfluwenza
jinfluwenzaw
jing
jingħad
jingħaddu
jingħalaq
jingħalqu
jingħaqad
jingħaqdu
jingħata
jingħataw
jinjora
jinkisbu
jinkiseb
jinkitbu
jinkiteb
jinkludi
jinkludu
jinkorag
jinkorpora
jinkorporaw
jinnegozja
jinnegozjaw
jinnota
jinqabad
jinqala
jinqalgħu
jinqasam
jinqasmu
jinqata
jinqatel
jinqatgħu
jinqatlu
jinqeda
jinqerdu
jinqered
jinqraw
jinsa
jinsab
jinsabu
jinsisti
jinstab
jinstabu
jinstema
jinstemgħu
jintbagħat
jintbagħtu
jintefa
jintefgħu
jintemm
jintemmu
jinterag
jinteressa
jinterpretaw
jintervjeni
jintgħaraf
jintgħarfu
jintgħaz
jintilef
jintilfu
jintirtu
jintlagħab
jintlagħbu
jintlaħaq
jintlaħqu
jintlemħu
jintlibsu
jintrabat
jintremew
jintroduc
jintuz
jintwera
jintwerew
jinvadu
jinvesti
jinvestiga
jinvestigaw
jinvolvi
jinvolvu
jinxtara
jinxtraw
jinz
jinzerta
jinħadem
jinħadmu
jinħall
jinħaraq
jinħarqu
jinħass
jinħatar
jinħatru
jinħaz
jinħbew
jinħeles
jinħoloq
jinħolqu
jinħtieg
jippartec
jippermetti
jippermettu
jipperswadi
jippjana
jipprattika
jipprattikaw
jippreferi
jippreferu
jipprepara
jippreparaw
jippreserva
jippreservaw
jippresiedu
jipprevjeni
jipprevjenu
jipprez
jippriedka
jipprietka
jipproc
jipproduc
jipprojbixxu
jippromwovi
jippromwovu
jipproponi
jipproponu
jipproteg
jipprotesta
jipprotestaw
jipprova
jipprovdi
jipprovdu
jippruvaw
jippubblika
jippubblikaw
jippublika
jirbaħ
jirbħu
jirc
jirfdu
jirgħu
jirkbu
jirkupra
jirnexxi
jirnexxielu
jirnexxilu
jirnexxu
jirrakkonta
jirrakkontaw
jirrang
jirrapporta
jirrapprez
jirraprez
jirreag
jirrec
jirreferi
jirreferu
jirreg
jirregolaw
jirrenja
jirrepeti
jirresjedi
jirresjedu
jirrez
jirric
jirrifjuta
jirrifjutaw
jirrifletti
jirriflettu
jirrigwarda
jirrikjedi
jirrikjedu
jirrikonoxxi
jirrikonoxxu
jirriproduc
jirrispetta
jirrispondi
jirritorna
jirritornaw
jirriz
jirtira
jirtiraw
jisbqu
jisfidaw
jisimgħu
jisimha
jisimhom
jisirqu
jiskadi
jiskopri
jiskopru
jiskorja
jiskorjaw
jisma
jismu
jispara
jisparaw
jisparixxi
jisparixxu
jispec
jispic
jispikka
jispikkaw
jispjega
jispjegaw
jisplodu
jisraq
jissaħħu
jissejjaħ
jissejjħu
jissejħu
jissemma
jissemmew
jissepara
jisseparaw
jissieltu
jissieħbu
jissieħeb
jissig
jissimboleg
jissimbolizza
jissimbolizzaw
jissodisfa
jissodisfaw
jissorvelja
jissospendi
jissostitwixxi
jissostitwixxu
jissug
jista
jistabbilixxi
jistabbilixxu
jistadu
jistaqsi
jistaqsih
jistaqsu
jistax
jistenna
jistennew
jistgħu
jistgħux
jistieden
jistkennu
jistmaw
jistqarr
jistrieħ
jistrieħu
jistudja
jistudjaw
jistħoqqlu
jiswa
jiswew
jisħaq
jisħqu
jitbiegħed
jitfa
jitfac
jitfgħu
jitgħallem
jitgħallmu
jitilfu
jitilgħu
jitilqu
jitjiebu
jitkabbar
jitkabbru
jitkantaw
jitkellem
jitkellmu
jitla
jitlaq
jitlef
jitlesta
jitlestew
jitlob
jitma
jitmexxa
jitmexxew
jitnaqqas
jitnaqqsu
jitneħħa
jitneħħew
jitnisslu
jitniz
jitolbu
jitolbuh
jitpog
jitqassmu
jitqegħdu
jitqiegħdu
jitqiegħed
jitqies
jitqiesu
jitqis
jitratta
jitressqu
jittama
jittella
jittellgħu
jittestja
jittiekel
jittieklu
jittieħdu
jittieħed
jittraduc
jittrasferixxi
jittrasforma
jittratta
jittrattaw
jittraz
jitwaqqaf
jitwaqqgħu
jitwettaq
jitwettqu
jitwieldu
jitwieled
jitħabbar
jitħaddem
jitħaddmu
jitħalla
jitħallas
jitħallew
jitħallsu
jitħalltu
jitħarreg
jitħarrg
jitħejja
jivjag
jivverifikaw
jivvjag
jivvota
jivvutaw
jixbah
jixbaħ
jixbhu
jixbħu
jixhdu
jixhed
jixorbu
jixraq
jixrob
jixtieq
jixtiequ
jixtri
jixtru
jixxabtu
jixxandar
jiz
jkabbar
jkabbru
jkanta
jkantaw
jkec
jkollha
jkollhom
jkollhomx
jkolli
jkollna
jkollok
jkollu
jkollux
jkompli
jkomplu
jkopri
jkopru
jkun
jkunu
jkunux
jkunx
jl
jlaħħaq
jlaħħqu
jlesti
jm
jmexxi
jmexxu
jmiss
jmissu
jmorru
jmur
jmurx
jmut
jmutu
jnaqqas
jnaqqsu
jneħħi
jneħħu
jniz
jo
joa
joachim
joan
joanne
joaqui
jobdu
jobgħod
jodrell
joe
joel
joffri
joffru
joga
jografic
jogħg
jogħla
jogħqod
johan
johann
johanna
johannes
john
johnny
johns
johnson
joint
jokkupa
jokkupaw
jol
jolog
jologu
jolqot
jolqtu
jomini
jon
jonali
jonalment
jonas
jonathan
jondo
jones
jong
jongmyo
joni
jonic
jonijiet
joniku
joniz
jonja
jonji
jonoraw
jonqos
jonqsu
jopera
joperaw
jopponi
jopponu
joqgħod
joqgħodu
joqogħdu
joqorbu
joqrob
joqtlu
joqtol
jorbita
jorbitaw
jorbot
jorbtu
jordan
jordna
jorganizza
jorganizzaw
jorge
jorig
jorqdu
jorqod
jos
jose
josef
joseon
josep
joseph
josephine
josephus
joshua
josip
jospita
jospitaw
josserva
josservaw
jottijiet
jour
journal
journey
jours
joy
joyce
joz
joħlom
joħloq
joħolqu
joħonqu
joħorg
joħrog
jpassu
jpeg
jpg
jping
jpog
jqaddes
jqajjem
jqassam
jqatta
jqattgħu
jqiegħed
jqimu
jqis
jqisu
jqisuh
jqisuha
jquery
jqum
jr
jrabbu
jraz
jressaq
jrid
jridu
jridx
js
jsalva
jsawru
jsaħħaħ
jsaħħu
jsegwi
jsegwu
jsejjaħ
jsejħu
jsejħulha
jsejħulu
jsemmi
jsemmu
jserraħ
jserrħu
jservi
jservu
jseħħ
jseħħu
jsib
jsibu
jsir
jsiru
jsofri
jsostni
jsostnu
jstor
jsuq
jtejbu
jtejjeb
jtellgħu
jtemm
jtiru
ju
juan
juba
jud
juda
judith
jugoslav
jugoslava
jugoslavja
jugoz
jules
julia
julian
julie
julien
juliet
juliette
julio
julius
july
jum
jumejn
jun
junceum
juncus
june
jung
jungfrau
juni
junijiet
juninensis
junior
juniors
jura
jure
juri
jurih
juru
jusqu
just
justice
justin
justo
jut
juventus
juz
jvarja
jvarjaw
jwaqqaf
jwaqqfu
jwaqqgħu
jwassal
jwasslu
jweg
jwettaq
jwettqu
jwieg
jxandar
jxandru
jz
jħabbar
jħabbru
jħaddan
jħaddem
jħaddmu
jħaddnu
jħallas
jħalli
jħallih
jħallix
jħallsu
jħallu
jħallux
jħares
jħarsu
jħeg
jħejji
jħobb
jħobbu
jħoss
jħossu
k
ka
kaa
kabbar
kabbru
kabinett
kac
kadetti
kafe
kafetterija
kahlo
kahn
kai
kailasha
kaiser
kaiserslautern
kajr
kaka
kala
kalc
kale
kalendarju
kalibru
kaliff
kaliffat
kalifornja
kaliningrad
kalkara
kalkoli
kalkolu
kalkulazzjoni
kalkulu
kalkutta
kallas
kalligrafija
kalm
kalma
kalvarju
kalyan
kalzetti
kam
kamarad
kamartu
kambodja
kameni
kamera
kameras
kamerun
kamp
kampanja
kampanji
kampf
kampi
kampijiet
kampjonat
kampjonati
kampjun
kampjuni
kampnar
kampnari
kampus
kamra
kan
kanada
kanadiz
kanal
kanali
kanarji
kanc
kandidat
kandidata
kandidati
kandidatura
kang
kangaru
kanjon
kannella
kanoni
kanonic
kanonika
kanoniku
kanonizzazzjoni
kanonku
kant
kanta
kantant
kantanta
kantanti
kantat
kantata
kantati
kantaw
kantawtur
kantini
kanton
kantuniera
kantunieri
kanun
kanuni
kanzunetta
kanzunetti
kaos
kap
kapac
kapaz
kapijiet
kapital
kapitali
kapitelli
kapitli
kapitlu
kapitolu
kapolavur
kappa
kappell
kappella
kappelli
kappillan
kapric
kaptan
kaptani
kapuc
kapulavur
kapulavuri
kara
karabakh
karakanida
karakum
karatteristic
karatteristika
karatteristiki
karatteristiku
karatterizzata
karatterizzati
karattri
karattru
karbonat
karbonati
karbonju
karc
kardijaku
kardinal
kardinali
karen
karibew
kariga
karigi
karikatura
karim
karin
karita
kariz
karl
karlskrona
karlsruhe
karlu
karm
karmelitan
karmelitana
karmelitani
karmelu
karmenu
karmnu
karnag
karnak
karnival
karnivori
karnivoru
karol
karolina
karoling
karonte
karozza
karozzi
karozzini
karpazji
karriera
karrieri
karrijiet
karru
kars
karstic
karstika
karstiku
karta
kartag
kartez
karti
kartolina
kartolini
kartun
kartuna
kas
kaskata
kaskati
kaspar
kassel
kasta
kastell
kastelli
kastig
kastilja
kastiljan
kastrioti
kata
katakombi
katalan
katalana
katalani
katalgi
katalgu
katalogu
katalonja
katanja
katarina
katastrofika
katavri
katavru
kate
katedra
kategorija
kategoriji
katekiz
katerina
kathleen
kathmandu
katidral
katidrali
katina
katodic
katridral
kattidral
kattolic
kattolika
kattoliku
katusi
kaufman
kavaje
kavalier
kavalieri
kavallerija
kavallier
kavallieri
kavita
kavitajiet
kawkasu
kawz
kaxex
kaxxa
kaxxetta
kaxxi
kaz
kazan
kaħla
kbar
kbir
kbira
kburi
kburija
kburin
kc
ke
keane
kec
kefa
keith
kejbils
kejk
kejken
kejkijiet
kejkna
kejknin
kejl
kejliet
kelb
kella
kellha
kellhiex
kellhom
kellhomx
kellhu
kelli
kelliem
kelliema
kellna
kellu
kellux
kelly
kelma
kelmiet
kemal
kemm
kemmun
kemmuna
kemmxejn
kemxejn
ken
kendrew
kenitx
kenja
kenn
kennedy
kenneth
kent
kentucky
kenura
keoladeo
kepler
kera
kerc
kerch
kernave
kerr
kerry
keshav
kesħa
kesħin
kevin
kewkba
kewn
key
keyboard
keys
kf
kfc
kg
khajuraho
khan
khanat
khanate
kharkiv
khazar
khedira
khiva
khlebnikov
khmer
khoja
khrushchev
khurasan
khwariz
khya
ki
kiber
kibret
kibru
kick
kicks
kids
kiefer
kiefra
kieku
kiel
kielholz
kien
kienet
kient
kienu
kienux
kienx
kierkegaard
kiesaħ
kiesħa
kiev
kif
kilin
kill
kilo
kilogramma
kilogrammi
kilometri
kilometru
kim
kimic
kimika
kimiku
kinetx
king
kingdom
kings
kinitx
kinux
kirby
kirg
kirgiz
kiri
kirkop
kirkpatrick
kirurg
kirurgi
kirurgu
kisba
kisbet
kisbiet
kisbu
kiseb
kiser
kisi
kisja
kisru
kiss
kisser
kissru
kiswaħili
kit
kita
kitarra
kitarrist
kitarrista
kitba
kitbet
kitbiet
kitbu
kitchener
kiteb
kitibha
kitibhom
kits
kittieb
kittieba
kitts
kixef
kiyomori
kjostri
kjostru
kjoto
kkalkulat
kkalkulati
kkaratterizzat
kkaratterizzata
kkaratterizzati
kkawz
kkk
kklassifika
kklassifikat
kklassifikata
kklassifikati
kklassifikaw
kkollabora
kkollegat
kkollegata
kkollegati
kkompeta
kkompetew
kkompona
kkonc
kkonferma
kkonfermat
kkonfermata
kkonfermaw
kkonfinata
kkonkluda
kkonkludew
kkonsagrat
kkonservata
kkonsultat
kkontesta
kkontestat
kkontestaw
kkontribwew
kkontribwiet
kkontribwixxa
kkontrollat
kkontrollata
kkontrollati
kkonverta
kkonvertew
kkonvertit
kkonvinc
kkritikat
kkulurit
kkulurita
kkuluriti
kkummissjona
kkummissjonat
kkundanna
kkundannat
kkundannati
kkunsidra
kkunsidrat
kkunsidrata
kkunsidrati
kkunsidraw
kkwalifika
kkwalifikat
kkwalifikati
kkwalifikatx
kkwalifikaw
kkwalifikax
kkwotat
kla
klabb
klabbs
klad
kladruby
klan
klara
klarinett
klassi
klassic
klassifika
klassifikat
klassifikata
klassifikati
klassifikazjoni
klassifikazzjoni
klassifikazzjonijiet
klassifiki
klassijiet
klassika
klassiku
klaus
klavic
klawsura
klawz
klein
klement
kleopatra
klerestorju
kleru
klieb
kliem
kliemu
kliewi
klijent
klijenti
klikka
klima
klimatic
klimatika
klimi
klimt
klinika
kliniku
klint
klopp
klose
kloss
klub
klubas
klubi
km
kmamar
kmand
kmandamenti
kmandant
kmandanti
kmieni
knejjes
knight
knights
knisja
knock
knopf
know
knowledge
known
knox
ko
koalizzjoni
kobor
koc
koch
kocjan
kodic
koeffic
koerenti
koez
kofundatur
koi
kok
koki
kokk
kokka
kola
kolazzjon
kolbe
kolera
kolla
kollaboratur
kollaborazzjoni
kollaborazzjonijiet
kollass
kolleg
kollega
kollegament
kollegamenti
kollegi
kollettiv
kollettiva
kollettivament
kollettur
kollezzjoni
kollezzjonijiet
kollezzjonista
kollezzjonisti
kollha
kollox
kollu
kolokolo
kolombja
kolombjan
kolombjana
kolombjani
kolombu
kolomenskoye
kolonizzaturi
kolonizzazzjoni
kolonja
kolonjali
kolonjalisti
kolonjaliz
kolonji
kolonna
kolonni
kolossali
kolossew
kolp
kolugi
kolugo
kolumbja
kombinament
kombinazzjoni
kombinazzjonijiet
komda
komdi
komdu
kometa
kometi
komic
komiks
komiku
kommemorattiva
kommemorattivi
kommemorazzjoni
kommunita
komodo
komparabbli
komparattiva
kompartiment
kompartimenti
kompatibbli
kompetenti
kompetenza
kompetenzi
kompetittiv
kompetittiva
kompetittivi
kompetittivita
kompetitur
kompetituri
kompetizzjoni
kompetizzjonijiet
kompiti
kompitu
kompjuter
kompjuters
kompla
kompless
komplessa
komplessi
komplessita
komplet
kompleta
kompletament
komplew
komplic
kompliet
komplott
komplut
kompluta
kompluti
komponent
komponenti
kompost
komposta
komposti
kompoz
komprensiv
komprensiva
kompromess
komputazzjonali
komputazzjoni
komun
komunali
komunement
komuni
komunikazzjoni
komunikazzjonijiet
komunista
komunisti
komunita
komunitajiet
komunitarju
komuniz
kon
konc
kondiviz
kondizzjonali
kondizzjoni
kondizzjonijiet
kondoljanzi
kondotta
konfederazzjoni
konfederazzjonijiet
konferenza
konferenzi
konferma
konfermata
konfermi
konfessur
konfigurazzjoni
konfini
konflitt
konfluwenza
konfoffa
konformi
konformita
konfront
konfrontazzjoni
konfronti
konfuc
konfuz
kong
kongo
kongregazzjoni
kongregazzjonijiet
koni
koninklijke
konkava
konklavi
konkluz
konkors
konkorsi
konkos
konkreta
konkreti
konkrit
konkwista
konkwistaturi
konkwisti
konna
konness
konnessa
konnessi
konnessjoni
konnessjonijiet
konnotazzjoni
konrad
konsagrazzjoni
konsegwentement
konsegwenza
konsegwenzi
konsekuttiv
konsekuttiva
konsekuttivi
konsensus
konservata
konservatorju
konservattiv
konservattiva
konservattivi
konservazzjoni
konsiderevoli
konsistenti
konsistenza
konsli
konslu
konsolazzjoni
konsonanti
konsorti
konsorzju
konstantin
konstanz
konsulent
konsulenti
konsulenza
konsultattiv
konsultazzjoni
konsultazzjonijiet
konsum
konsumatur
konsumaturi
kont
kontea
kontej
kontemplazzjoni
kontemporanja
kontemporanji
kontemporanju
kontenitur
kontenituri
kontenut
kontenuti
kontessa
kontestanti
konti
kontijiet
kontinent
kontinentali
kontinenti
konting
kontinwa
kontinwament
kontinwazzjoni
kontinwi
kontinwita
kontinwu
kontorn
kontra
kontrazzjoni
kontribut
kontributi
kontributur
kontributuri
kontribuzzjoni
kontribuzzjonijiet
kontrih
kontrihom
kontro
kontroll
kontrolli
kontroversja
kontroversjali
kontroversji
kontx
konvenjenti
konvenjenza
konventwali
konvenzjonali
konvenzjoni
konvenzjonijiet
konverg
konversazzjoni
konversazzjonijiet
konverz
konvinc
konvint
konvinzjoni
konxji
konxju
konz
kooperattiva
kooperazzjoni
koordinati
koordinazzjoni
kopenħagen
koperazzjoni
koperti
kopertura
kopja
kopji
koppja
koppji
koppla
koppli
kopt
kopta
kor
korali
koran
korana
korc
korda
kordi
kordin
korea
korean
koreana
koreani
korfu
korintin
korintu
korinzji
korinzju
korista
korla
koroh
korona
korp
korpi
korporazzjoni
korrelazzjoni
korrett
korretta
korretti
korrezzjoni
korriment
korrimenti
korrispondent
korrispondenti
korrispondenza
korruzzjoni
kors
korsa
korsakov
korsija
korsiji
korsijiet
korsika
korteg
korteo
kortez
kortrijk
kos
kosenu
kosovo
kost
kosta
kostali
kostanti
kostantinopli
kostantinu
kostanza
kostanzu
kostellazzjoni
kosti
kostijiet
kostituzzjonali
kostituzzjoni
kostituzzjonijiet
kostitwenti
kostruzzjoni
kostruzzjonijiet
kostum
kostumi
kotayk
kotba
kotor
kotra
kottonera
kovac
kowc
kowd
koz
kozhikode
kpiepel
kr
krako
krakovja
kranju
krater
krateri
krc
kreattiv
kreattiva
kreattivi
kreattivita
kreatur
kreaturi
kreazzjoni
kredibbli
kreditat
kreditu
kredituri
kredu
krema
krematorju
kremlin
krems
kreta
kretac
krikit
krimea
kriminal
kriminali
kriminalita
kripta
krishna
krisostmu
kristall
kristalli
kristallina
kristina
kristjan
kristjana
kristjanez
kristjani
kristofru
kristu
kriterji
kriterju
kritic
kritika
kritiku
krittografija
kriz
kroat
kroata
kroati
kroazja
kromoz
kronaka
kronaki
kronborg
kronika
kronista
kronolog
krosta
kru
kruc
kruha
krumlov
krzemionki
ks
ksar
ksc
ksib
ksur
ksv
ktajjen
ktejjeb
ktieb
ktr
ku
kuba
kuban
kubani
kubi
kubic
kubiz
kubrit
kubu
kuc
kug
kuiper
kuke
kukkudrilli
kul
kuljum
kull
kullar
kulleg
kullimkien
kullħadd
kulma
kult
kultant
kultivari
kultivazzjoni
kultura
kulturali
kulturalment
kulturi
kulur
kuluri
kulħadd
kumbinazzjoni
kumdita
kumis
kumitat
kumitati
kumment
kummentarji
kummentarju
kummentatur
kummentaturi
kummenti
kummerc
kummiedja
kummiedji
kummisjoni
kummissarji
kummissarju
kummissjoni
kummissjonijiet
kumpanija
kumpaniji
kumpannija
kumpatta
kumpens
kumpilazzjoni
kumplament
kumplamenti
kumpless
kumplessa
kumplessi
kumplessita
kumplessiv
kumplessiva
kumplikazzjonijiet
kun
kunc
kundanna
kundizzjoni
kundizzjonijiet
kunfidenti
kunfidenza
kunflitt
kunflitti
kungress
kungressi
kunjom
kunjomha
kunjomijiet
kunjomu
kunming
kunsens
kunsiderazzjoni
kunsill
kunsilli
kunsillier
kunsilliera
kunst
kunsthistorisches
kuntatt
kuntatti
kuntent
kuntenti
kuntest
kuntesti
kuntistabbli
kuntrabandu
kuntrarjament
kuntrarju
kuntrast
kuntratt
kuntratti
kunvent
kunventi
kura
kurag
kurat
kuratur
kuraturi
kurbansakhatov
kurc
kurgan
kuritur
kurituri
kurja
kurjuz
kurmann
kuronjan
kurrent
kurrenti
kurrikulu
kurt
kuruna
kurunell
kuruni
kurva
kurvatura
kurvi
kurz
kushan
kustilji
kustodja
kusturica
kuszczak
kutna
kuwajt
kuxjenza
kv
kvitka
kw
kwadra
kwadrat
kwadrata
kwadrati
kwadratic
kwadratika
kwadri
kwadrivettur
kwadru
kwalifika
kwalifikati
kwalifikaw
kwalifikazzjoni
kwalifiki
kwalita
kwalitajiet
kwalunkwe
kwantistic
kwantistika
kwantistiku
kwantita
kwantitajiet
kwarantina
kwart
kwarta
kwartett
kwartetti
kwarti
kwartic
kwartier
kwartieri
kwartina
kwarz
kwaz
kwazi
kwiekeb
kwiet
kwieta
kwintett
kwistjoni
kwistjonijiet
kwoll
kwota
kwotazzjoni
kwotazzjonijiet
kwoti
kyiv
kyrie
kz
l
la
lab
labar
labbra
labini
labirint
laboratorji
laboratorju
laboratory
laboulaye
labour
laburista
laburisti
lac
lachaise
ladarba
laden
lady
lae
laerzju
laet
lag
laga
lagi
lago
lagomorfi
lagomorfu
lagomorph
lagomorpha
lagrange
laguna
laguni
lagħab
lagħbet
lagħbu
lajc
lajk
lajka
lake
lakes
lam
lamantin
lamantini
lamarck
lambda
lambert
lamentazzjoni
lamic
lamika
lamiku
lampa
lampedusa
lampun
lanark
lanatus
lanc
lancashire
lancelot
land
landa
landier
landiera
landiz
landon
landrut
landscape
landscapes
landschaft
lane
lanec
lanez
lanfranco
lang
langle
language
languages
langue
languedoc
lanham
lanius
lanka
lankaran
lanqas
lanterna
lanza
laos
laparelli
lapida
lapidi
laplace
laporte
laptop
laqa
laqam
laqat
laqgħa
laqgħat
laqgħet
laqgħu
laqmijiet
laqqa
laqqat
laqqtu
laqtet
laqtu
lara
large
laring
larousse
larry
lars
larsson
larus
larva
larvi
las
lascaris
lascaux
laser
last
lasta
lasti
lastiku
lat
lata
late
later
laterali
lateran
laterza
latin
latina
latini
latino
latitudni
latour
lattiv
lattiva
lattivi
latura
latvja
latvjan
launcelot
laura
laurasiatheria
laurence
laurent
laurus
lausanne
lautrec
lav
lava
lavanja
lavatera
lavelle
lavi
lavigne
lavinia
lavja
lavoro
lavra
lavur
law
lawrence
lawrenz
lawrenzjana
lawrija
lawriji
lawrja
lawyers
lazio
lazzarett
lazzjoni
laħam
laħaq
laħaqx
laħqet
laħqu
laħqux
lb
lbic
lbies
ldots
le
leader
league
leali
lealta
leandro
lear
learning
least
leave
leaves
lebaniz
leben
lebesgue
leblieb
lebsin
lech
leclerc
lecture
lectures
lednice
lee
leeds
leekens
left
leftwich
leg
lega
legacy
legal
legali
legalment
legat
legend
legendre
legs
lehmann
lei
leibniz
leicester
leiden
leipzig
lejh
lejha
lejhom
lejl
lejla
lejlet
lejliet
lejn
lekc
leli
lemaħ
lemin
lemini
leminija
lena
lenard
lenin
leningrad
lent
lenti
lentijiet
leo
leon
leonard
leonardo
leoncavallo
leone
leonhard
leoniz
leopard
leopardi
leopold
leopoldu
lepanto
lepida
leporidae
leporidi
leporidu
leporinae
leporini
leptophylla
lepus
leq
ler
lermontov
les
leslie
lesoto
lessemi
lesser
lessikali
lessikolog
lessiku
lest
lesta
lestew
lesti
lestiet
lestodelphys
lestoros
let
lett
letter
letteralment
letteraria
letterarja
letterarji
letterarju
letteratura
lettere
letters
letto
lettre
lettres
lettur
leur
leuven
lev
levant
level
leverkusen
levine
levy
lewandowski
lewis
lewn
lewz
lexicology
lexicon
lez
lezzjoni
lezzjonijiet
leħen
leħja
lgbt
lhud
lhudi
lhudija
li
lia
liam
liaodong
libaniz
libanu
libbra
libe
liber
libera
liberali
liberament
liberazione
liberazzjoni
liberi
libero
liberta
libertadores
libertajiet
liberte
liberty
liberu
libes
libja
libjan
libjana
libjani
librar
library
librerija
libreriji
librett
libretto
libri
libro
libros
libsa
libsin
lic
lica
lid
lida
liddell
lidiet
lidl
lie
liebe
liebes
liebri
liebru
liebsa
liechtenstein
lied
lieda
lieder
liema
liena
liepa
lierse
liet
lieva
life
lift
liftijiet
lig
liga
light
lightbown
ligne
ligorio
ligue
liguria
lija
lijg
lika
like
likeni
likwidi
likwidu
lil
lilek
lilha
lilhom
lili
lill
lille
lilna
lilu
lilwa
lim
lima
limassol
limes
limitat
limitata
limitati
limitazzjonijiet
limited
limiti
limitu
limonium
limonju
limsup
lin
linc
lincoln
linda
line
lineari
lines
lineups
linfield
ling
lingua
linguae
linguistic
linguistica
linguistics
lingwa
lingwag
lingwi
lingwista
lingwisti
lingwistic
lingwistika
lingwistikament
lingwistiku
linja
linjag
linjari
linji
link
linka
linkijiet
links
linnaeus
lino
linosa
linq
linqas
linz
lio
lion
lionel
lions
lipari
lippi
lipton
lir
lira
liri
liric
lirika
liriku
lis
lisa
lisander
lisbon
lisbona
list
lista
listi
liszt
lit
lite
literary
literature
lito
litografija
litru
litte
litteralment
litterat
litterati
litterazzjoni
litteriz
little
liturg
litwan
litwana
litwani
litwanja
liu
live
livell
livelli
liverpool
lives
living
livingstone
livio
livju
livorno
livre
livres
lix
lixandra
lixka
lixx
lixxi
liz
ljajic
ljubljana
ljun
ljuni
lkoll
ll
lle
ller
lloyd
llum
lm
ln
lo
load
local
lodi
log
loghoba
login
logo
logos
logutenent
logħba
logħbiet
logħob
logħoba
loi
loire
lois
lok
lokal
lokali
lokalita
lokalitajiet
lokalment
lokazzjoni
lokeren
lokomotiv
lokomozjoni
lokomozzjoni
lombardi
lombardia
lombardija
lommel
lon
lond
london
londra
lonely
long
longhi
longman
longobardi
look
looper
lope
lopez
loppju
lorca
lord
lords
lore
loren
lorentz
lorenz
lorenzo
loreto
lormini
lormu
loro
lorraine
lorry
lorsch
los
losco
lost
lot
lothar
lotta
lotterija
lotus
louis
louisa
louise
loup
lourdes
louvre
love
lovell
low
lowell
lower
loyola
lqugħ
lsien
lsiera
lsingland
lsir
lt
ltaqa
ltaqgħet
ltaqgħu
ltd
lu
luc
luca
lucas
lucca
lucchini
luce
lucia
luciano
lucien
lucio
lucius
lucrezia
lud
ludovico
ludwig
lufte
lugano
lugo
luh
lui
luigi
luis
luisa
luiz
lujo
luka
lukanda
lukandi
lukas
luke
lul
lulju
lum
lumbini
lumi
lumie
lumija
luna
lunari
lund
lune
lunetta
lunzjata
luogo
lupa
lupi
lupu
luq
luqa
lura
lushnja
lussac
lussemburgu
lussu
lussuz
luterana
luterani
luteru
lutreolina
luttu
luwigi
luxembourg
luxol
luxor
luz
lvant
lvarez
lvaro
lviv
lvovsky
lwien
lwig
ly
lydia
lyell
lyga
lynch
lynn
lynx
lyon
lyonnais
lys
lyse
lysimachus
m
ma
maastricht
mabel
mac
macbeth
maccabi
macdonald
macduff
macedonia
machado
macheda
machiavelli
machine
machu
macmillan
macquart
macroscelidea
macroscelides
macroscelididae
macroscelidinae
macrotis
mad
madagaskar
madalena
madama
madame
madanakollu
madankollu
maddalena
made
madeira
madeleine
madhukar
madison
madliena
madonna
madrasa
madre
madrid
madrigali
madrilen
madum
madwar
madwarha
madwarhom
madwaru
mae
maesta
maestro
maestuz
mafja
mafjuz
mafkar
mag
magaz
magazin
magazine
magdalena
magdeburg
maggie
maggio
maggiore
magi
magic
magma
magna
magnard
magnetic
magni
magnificat
magnifico
magnus
magreb
magri
magro
magħha
magħhom
magħluq
magħluqa
magħluqin
magħmudija
magħmul
magħmula
magħmulin
magħna
magħqud
magħquda
magħqudin
magħruf
magħrufa
magħrufha
magħrufin
magħz
maha
mahabodhi
mahal
maharashtra
mahmud
mai
main
mainz
mais
maison
maja
majjal
majjistral
majnat
major
majus
make
making
makkinarju
makkja
maksillofac
mal
mala
malajan
malajr
malala
malandra
malarja
malasja
malatya
malawi
malaz
malbork
malcolm
male
mali
malik
mall
malli
mallia
mallorca
malmo
malta
maltafootball
maltapost
maltatoday
malte
maltemp
maltempata
maltempati
maltese
malti
maltija
maltin
malvestiti
malvinas
mam
mammadov
mammal
mammalia
mammalogy
mammals
mammiferi
mammiferu
mammolog
mamo
man
management
manager
manatee
manatus
manc
mancha
manche
manchester
manchu
mancini
mandala
mandapa
mandarin
mandat
mandela
mandic
mandolina
mandrag
manet
manfred
mangana
mangion
mango
manhattan
mani
manidae
manifattur
manifattura
manifatturi
manifest
manifestazzjoni
manifestazzjonijiet
manig
manikott
maninae
manis
manja
manjerista
manjeriz
manjetic
manjetiku
manjiera
manjieri
manju
mankind
mann
mannara
mano
manoel
manon
manor
mansfield
manson
manswetudni
mantar
mantegna
mantell
manteniment
mantova
manual
manucho
manuel
manuscripts
manuskritt
manuskritti
manutenzjoni
manuvra
manuvri
manwal
manwali
manwel
manwelin
many
manzoni
mao
map
mapep
mappa
maqbud
maqbuda
maqlub
maqluba
maqlubin
maqsum
maqsuma
maqsumin
maqtugħ
maqtugħa
maqtugħin
maqtul
maqtula
mar
mara
marad
maradona
maratona
marbut
marbuta
marbutin
marc
marca
marcel
marcella
marcello
marcelo
march
marche
marco
marconi
marcos
marcus
mard
marda
mardet
mare
marea
mareat
marek
marexxall
marg
margaret
margaretha
margarita
margaritu
margerita
margherita
margot
margravju
marguerite
mari
maria
marian
mariana
marianne
mariano
maribor
marid
marida
marie
marienburg
marietta
marija
marilyn
marin
marina
marine
mariner
marini
marino
mario
marion
maris
maritima
maritimum
marittima
marittimi
marittimu
mariupol
marjan
marjanu
mark
marka
markaturi
marker
market
marki
markiz
marko
marks
markt
marku
markus
marlborough
marlene
marmara
marmosa
marmosops
marne
marokk
marques
marr
marret
marru
marrux
mars
marsa
marsamxett
marsaskala
marsaxlokk
marseillaise
marseille
marsh
marshal
marshall
marsilio
marsilja
marsupial
marsupialia
marsupials
marsupjal
marsupjali
marsupju
mart
marta
marte
martell
martha
marti
martin
martini
martino
martinu
martirju
martri
martu
marx
mary
maryland
marzjali
marzo
marzu
mas
mascagni
mases
maskili
maskot
maskra
maskri
mass
massa
massachusetts
massakri
massakru
massic
massima
massimi
massimiliano
massimiljanu
massimo
massimu
massin
massiva
master
masters
mastri
mastru
mastrudaxxa
mat
mata
match
matches
mate
matematic
matematika
matematiku
mater
materazzi
materja
materjal
materjali
materji
materna
math
mathbb
mathbf
mathcal
mathe
mathematica
mathematical
mathematics
mathews
mathrm
matic
matiku
matilda
matique
matiques
matisse
matric
matricule
matrimonio
matrix
matschie
matsumoto
matt
mattarella
matteo
matter
mattersburg
mattew
matthew
matthias
mattia
mattoli
matul
matulha
matulhom
matulu
matur
maturita
maupassant
maurer
mauriac
maurice
mauricio
maurizio
mauro
mavrogenous
mawritanja
mawru
mawz
max
maxim
maximilian
maxtura
maxwell
may
maya
mayer
maynard
mayo
mayor
mayr
mayrhofer
maz
mazagan
mazda
mazza
maħbub
maħbuba
maħbubin
maħdum
maħduma
maħdumin
maħfra
maħkuma
maħlul
maħluq
maħluqa
maħrug
maħruq
maħruqa
maħsub
maħsuba
maħtufa
maħtur
maħtura
maħz
mb
mbagħad
mbiegħed
mc
mcast
mcclaren
mcdonald
mcf
mcfarland
mckean
mckenna
mclaren
md
mdaqqsa
mdawla
mdawra
mdawwar
mdawwra
mdina
me
mea
meaning
means
measure
meazza
mechanics
mechanism
mechelen
med
medal
medalja
medalji
medaljuni
medda
meded
media
mediawiki
medic
medical
medici
medicine
medieval
medievale
medika
mediku
medina
medioevo
mediolanum
meditazzjoni
meditazzjonijiet
mediterran
mediterranean
mediterranja
mediterranji
mediterranju
medium
medja
medjatur
medjazzjoni
medjevali
medji
medjovali
medju
medjuevu
medusa
meeting
meetings
megalitic
megalitika
megalitiku
meglio
megħjun
megħjuna
megħlub
megħluba
mehmed
mehmet
mehmuz
mehrsprachigkeit
mein
meine
meister
mejda
meji
mejjet
mejju
mejta
mejtin
mekka
mekkanic
mekkanika
mekkaniku
mekkaniz
mela
melbourne
melchiorre
melgħuba
melik
melita
melitense
melitensis
melitensise
melk
mellaart
mellieħa
melodifestivalen
melodija
melodiji
meloni
melville
melvin
melħ
member
membrana
membri
membru
memling
memoirs
memorabbli
memorandum
memoria
memorial
memorja
memorji
memory
memphis
men
mendel
mendelssohn
mendoza
menga
menijiet
mensuli
ment
mentali
mentalita
mentha
menti
mentor
mentre
mentri
ments
meqjum
meqjuma
meqjus
meqjusa
meqjusin
meqrud
meqruda
mer
mera
meraq
meraviljuz
merc
merced
mercedes
mercer
merchant
mercieca
mercury
mercuzio
mergħa
mergħat
meride
meridjan
merkant
merkanti
merkantili
merkanzija
merkurju
merlin
merry
merti
mertu
merv
merħba
merħla
merħliet
mes
mesa
mesoamerica
mesoamerican
mesoamerka
mesopotamja
mess
messa
messag
messe
messi
messija
messikan
messikana
messikani
messiku
messina
met
meta
metaboliz
metachirini
metachirus
metadata
metafiz
metafora
metal
metall
metalli
metallic
metallurg
metamorfoz
metastasio
metatheria
metaxytherium
meteora
meteorolog
method
methods
metodi
metodolog
metodu
metopi
metri
metrika
metro
metropole
metropoli
metropolitan
metropolitana
metropolitani
metru
metsola
metti
metz
meuse
mewg
mewt
mewta
mewtha
mewtu
mexa
mexicana
mexico
mexxa
mexxej
mexxejja
mexxew
mexxiet
meyer
mez
mezz
mezzi
mezzo
meħlus
meħlusa
meħtieg
meħud
meħuda
meħudin
mfa
mfakkar
mfakkra
mfassal
mfassla
mfaħħar
mfaħħra
mfittxija
mg
mgħag
mgħallem
mgħallma
mgħammar
mgħammed
mgħammra
mgħassa
mgħawg
mgħerreq
mgħerrqa
mgħoddija
mgħollija
mgħotti
mgħottija
mhedda
mhedded
mhi
mhijiex
mhix
mhu
mhumiex
mhuwiex
mhux
mi
mia
miami
mibdul
mibdula
mibegħda
mibgħut
mibgħuta
mibjugħ
mibjugħa
mibni
mibnija
mic
micallef
mich
michael
michel
michelangelo
michele
michelin
michelle
michigan
michoaca
micoureus
microbiol
microbiotheria
micromurexia
microperoryctes
microsoft
microtarsus
microtragulus
mid
midalja
midalji
middle
middlesbrough
middleton
midfilder
midfilders
midfun
midfuna
midi
midinbin
midja
midruba
midsea
midħla
mie
miegħek
miegħi
miegħu
miel
mielaħ
mielha
mielu
mien
mienha
mienhom
mienijiet
mienna
mienu
miet
mietet
mietu
miexi
miexja
mifflin
mifhum
mifhuma
mifnija
mifruda
mifrudin
mifrux
mifruxa
mifruxin
mifsud
miftiehem
miftuħ
miftuħa
miftuħin
mig
migranti
migrazzjoni
miguel
mija
mijiet
mijoc
mika
mike
mikelang
mikhail
mikiel
mikkelsen
mikrija
mikro
miksi
miksija
miksijin
miksub
miksuba
miksur
miksura
miktub
miktuba
miktubin
mil
milan
milano
milbus
mile
miley
mili
milied
milion
militanti
militar
militari
militarment
military
militia
milizja
milizzja
milja
miljun
miljuni
mill
milla
millenium
millenji
millenju
millennium
millennju
miller
milli
millieri
millimetru
million
millwall
milos
milqugħ
milqugħa
milqut
milquta
milvus
mimdud
mimi
mimli
mimlija
mimlijin
mimmo
min
mina
minar
minaret
minareti
minas
minaturi
minbarra
mind
mindu
mine
mineiro
mineral
minerali
mineralog
minerva
mines
minflok
minflokha
minflokhom
minfloku
ming
mingħajr
mingħand
mingħandu
minh
minhabba
minhom
mini
minijiet
minijietna
minima
minimi
minimu
minimus
mining
minisensiela
minister
ministerjali
ministeru
ministri
ministru
ministry
minjatura
minjaturi
minjiera
minjieri
minkeb
minkejja
minn
minna
minnbarra
minnesota
minnflok
minnha
minnhom
minni
minnu
minnufih
minor
minoranza
minoranzi
minore
minquxa
minsk
minsug
mintoff
minuri
minuta
minuti
minutus
minħabba
mio
miocene
mir
mira
mirador
mirakli
miraklu
mirakoluz
miranda
mirbuħ
mirbuħa
mircea
mirfud
mirfuda
miri
miriam
mirja
mirordni
miroslav
mirqum
mirra
mirren
mirror
mirtill
mirtilla
mirza
mis
miserere
misilmin
misjub
misjuba
misluf
misraħ
misruqa
miss
missa
missier
missierha
missierhom
missieri
missieru
missili
mission
missirijiet
missirijietna
missjoni
missjonijiet
missjunarja
missjunarji
missjunarju
mistagħdra
mistednin
mistenni
mistennija
misteri
misterjuz
misteru
mistgħadra
mistic
mistieden
mistiedna
mistika
mistiku
mistoqsi
mistoqsija
mistoqsijiet
mistra
mistrieħ
mistur
mistura
mistħija
mit
mitchell
mitejn
mitfugħ
mitfugħa
mithridates
miti
mitic
mitjar
mitkellem
mitkellma
mitlub
mitluba
mitluf
mitlufa
mitluq
mitluqa
mitolog
mitropa
mitt
mitteilungen
mitħna
mix
mixgħul
mixgħula
mixi
mixja
mixjiet
mixtieq
mixtieqa
mixtla
mixtri
mixħut
miz
mizzi
mj
mkabbar
mkabbra
mkec
mkien
mkissrin
mla
mlaqqam
mlaqqma
mlp
mm
mmarka
mmarkat
mmarkata
mmarkati
mme
mmejjel
mmexxi
mmexxija
mmexxijin
mmhg
mmodifikat
mmudellat
mnaqqax
mnaqqsa
mnaqqxa
mnaqqxin
mnejn
mniedi
mnieħru
mnissel
mnissla
mniz
mo
mobbli
mobile
mod
moda
modalita
mode
model
modena
moderat
moderata
moderati
modern
moderna
moderne
moderni
modernita
modernity
moderniz
modernizzazzjoni
modest
modesta
modi
modifika
modifikata
modifiki
modify
modigliani
modo
module
moduli
modulo
modulu
moellendorffi
moffa
mogilev
moglie
mogul
mogħdija
mogħdijiet
mogħni
mogħnija
mogħoz
mogħti
mogħtija
mogħz
mohamed
mohammed
mohenjo
moi
moira
moires
moksha
mol
moldavja
moldova
mole
molecular
molekolari
molekula
molekulari
molekuli
molie
molina
moll
molluski
molog
molte
moltiplikattiv
moltiplikazzjoni
moltke
molto
momenti
momento
momentu
mon
mona
monaco
monako
monarchie
monarka
monarki
monarkija
monasteri
monasteru
monastery
monastic
monastika
monastiku
mondadori
monde
mondjali
mondo
monet
money
mongoli
mongolja
monica
monika
monito
monitorag
monnier
monnot
monodelphini
monodelphis
monoidi
monopolju
monotipiku
monotonija
monotremati
mons
monsieur
monsinjur
monsoons
mont
montaigne
montale
montalto
montana
monte
montebello
montecchi
montecchio
montefeltro
montejo
montenegro
monteverdi
montevideo
monthly
monti
montmartre
montolivo
montparnasse
montpellier
montreal
monument
monumental
monumentali
monumenti
monuments
moon
moore
moorish
moqdi
moqdija
moqlija
moral
morales
morali
moralita
moran
moratti
moravja
morda
more
morena
moreno
morfolog
morgan
mori
morison
morisot
moritz
morley
mormon
moro
morocco
moroni
morphological
morris
morrison
mort
mortali
mortalita
morte
morus
mos
mosaics
moscati
moscheles
moscow
mose
moser
moska
moskea
moskej
mossa
mossi
most
mosta
mostar
mostri
mostru
mosulew
mother
motilal
motion
motiv
motivazzjoni
motivi
motoori
motto
mottu
motu
mount
mountain
mountains
mourinho
movement
movie
moviment
movimenti
movimento
moyen
moz
mozambique
mozart
mozyr
mozzjoni
moħba
moħbi
moħbija
moħħ
moħħu
mp
mpe
mping
mpitter
mpittra
mpittrin
mportanti
mqabba
mqabbad
mqabbel
mqabbla
mqabbz
mqaddes
mqaddsa
mqassma
mqassra
mqiegħda
mqiegħed
mr
mraz
mrewħa
mro
mrs
ms
msag
msallab
msaqqaf
msaqqfa
msaħħa
msejjaħ
msejjħa
msejsa
msejħa
msejħin
msellef
msemmi
msemmija
msemmijin
msida
msieħba
msn
mt
mtarfa
mtarrag
mtarrg
mtejba
mtella
mtellgħin
mtieħen
mtv
mu
muammar
mude
mudell
mudella
mudelli
mudest
mudlama
muftieħ
mughal
muhammad
muirhead
muizon
mula
mulej
multa
multi
multilingwi
multilingwiz
multimedjali
multinazzjonali
multiple
multipli
multiplikazzjoni
multiplu
mum
muma
mumbai
mument
mumenti
mumin
mumja
mumtaz
mun
mundi
mundo
munic
munich
munita
muniti
munizzjon
munqar
munqarhom
muntanja
muntanji
muntanjuz
muntun
munxar
munzell
mur
mura
murad
mural
murata
murder
murexechinus
murexia
muri
murija
murina
murphy
murray
murty
mus
musa
muscat
muse
museo
museu
museum
music
musica
musical
musicale
musique
muskau
muski
muskolari
muskoli
muslim
mussolini
must
mustac
mustafa
musulman
musulmana
musulmani
mutazzjoni
mutazzjonijiet
muti
mutina
mutter
mutur
muturi
muviment
muz
muzika
muzikali
muħammed
mv
mw
mwaqqa
mwaqqaf
mwaqqfa
mwaħħla
mweg
mwettqa
mwielda
mwieled
mwiet
mxandar
mxandra
mxerrdin
mxew
mxiet
my
myanmar
mycenae
myeon
myoictis
myspace
mysteries
mystery
mystras
myth
mz
mħabba
mħabbar
mħaddma
mħaffra
mħaffrin
mħallat
mħallef
mħallsa
mħallta
mħarrg
mħarsa
mħassar
mħassra
mħaz
mħeg
n
na
nabatej
nac
nach
nacional
nad
nadia
nadifa
nadur
nadya
naf
nafu
nafuh
nafuha
nafux
nag
nagasaki
nagorno
nagħag
nagħla
nagħmel
nagħmlu
nagħti
nagħtu
nagħz
naha
nahuatl
naked
nal
name
named
names
namespaces
namhansanseong
namibja
namrat
namur
nana
nancy
nani
nanna
nannakola
nannakoli
nanniet
nannu
nannuh
nantes
nanu
naples
napli
naplitan
naplitana
naplitani
napoleonic
napoli
napplikaw
napuljun
naqas
naqqas
naqqset
naqqsu
naqra
naqset
naqsmu
naqsu
nar
nara
naracoorte
naranco
naranjo
naraw
narawh
narawhom
narc
narcissus
narrativa
narrattiva
narratur
narrazzjoni
narthex
nas
nasa
nasazzi
nascita
nasl
naslu
nassau
nassumu
nat
natal
natale
nathan
nation
national
nationale
nationaux
nations
nativ
native
nativi
nativita
natl
nato
natta
nattiv
nattiva
nattivi
natura
naturae
natural
naturali
naturalis
naturalista
naturalisti
naturalistic
naturaliz
naturalment
nature
naturi
naumann
naumburg
navali
navarra
navarro
navata
navati
navigabbli
navigatur
navigazzjoni
navy
nawfrag
nawtic
nawtiku
naxxar
naz
nazaret
nazca
nazi
nazionale
nazista
nazzarenu
nazzjon
nazzjonal
nazzjonali
nazzjonalista
nazzjonalisti
nazzjonalita
nazzjonalitajiet
nazzjonaliz
nazzjonijiet
naħa
naħal
naħat
naħdmu
naħla
naħsbu
naħseb
nb
nbdew
nbdiet
nbeda
nbena
nbid
nbidel
nbidlet
nbidlu
nbiegħet
nbigħet
nbigħu
nbnew
nbniet
nborn
nbrunn
nchen
nchengladbach
nchez
nd
ndaqs
nder
nderbeu
ndez
ndifen
ndifnu
ndor
nduna
ne
neal
neandertal
near
neblina
nebraska
nec
necker
necromanis
nediet
need
nefertari
nefqa
neftchi
negattiv
negattiva
negattivi
negli
neglig
negozjant
negozjanti
negozjati
negozji
negozju
nei
neil
neill
nej
nekropoli
nel
nell
nella
nelle
nello
nelson
neman
nemanja
nemel
nemez
nemmen
nen
nenad
neo
neokatekumenali
neoklassic
neoklassika
neoklassiku
neolitic
neolitika
neolitiku
neolog
neophascogale
nepal
nepeta
nepomuk
neputi
neputih
neputija
neputijiet
neqsin
nerg
neri
nerik
nerissa
nero
neruni
nervuz
nes
neskin
nesolagus
nessuno
nesta
net
netherlandiz
netherlands
nett
netta
nettaru
nettunu
netwerk
netwerks
network
networks
neucha
neue
neues
neuf
neumann
neustadt
neutral
neva
nevada
never
neville
nevis
new
newar
newcastle
newgrange
newman
news
newton
newtonjana
newtrali
newtralita
newtrini
nexfin
next
neymar
nez
neħħa
neħħew
neħħiet
nf
nfetaħ
nfetħet
nfetħu
nfirxet
nfirxu
nfisha
nfr
nfushom
ng
nge
ngel
ngos
ngħaddu
ngħalaq
ngħalqet
ngħalqu
ngħaqad
ngħaqdet
ngħaqdu
ngħata
ngħatat
ngħataw
ngħid
ngħidu
ngħidulha
ngħidulhom
ngħidulu
ngħixu
ngħoddu
nh
nhar
ni
nia
niang
nibdew
nibet
nibqa
nibqgħu
nibtet
nibtu
nic
nica
nicca
niccolo
nice
nich
nicholas
nicholl
nicht
nick
nickelodeon
nicky
nico
nicola
nicolae
nicolas
nicolau
nicolaus
nicolle
nicolo
nida
niddefinixxu
nie
nied
nieda
nielsen
nien
niente
nieqa
nieqes
nieqsa
nies
niesu
niexef
niexfa
niez
nieħdu
nieħu
nifhem
nifhmu
nifs
niftakar
niftakru
nig
nigel
nigga
niggahitler
nigger
night
nights
nigra
nigricollis
nigrum
nigsberg
nihat
nija
nijac
nijiet
nik
nikaragwa
nike
niket
nikil
nikkalkulaw
nikko
nikkonkludu
nikkunsidraw
niklaas
nikol
nikola
nikolai
nikolaus
nikolay
niksbu
niktbu
niktbuha
nil
niltaqgħu
nimbacinus
nin
nina
nindunaw
nineteenth
ninfa
ningaui
ninni
nino
ninu
nio
nippruvaw
nirien
nirreferu
nirriz
nisa
nisel
nisg
nispjegaw
nisrani
nisranija
nissieg
nissoponu
nista
nistelrooy
nistgħu
nistgħux
nistudjaw
nitkellmu
nitolbok
nitrog
nittama
niue
nix
nixfa
nixon
nixtieq
nixxiegħa
nixxigħat
niz
nizza
nj
nja
nk
nkisbu
nkitbet
nkitbu
nkiteb
nkluz
nkun
nkunu
nkurunat
nm
nnegozja
nnifisha
nnifsi
nnifsu
nnominat
nnota
nnutat
no
noah
nobbilta
nobbli
nobel
noble
nocerino
noche
noctivagus
nodi
noe
noel
noemi
nofs
nofsani
nofsanija
nofsha
nofshom
nofsinhar
nofsu
noi
nolde
nom
nomadi
nomadic
nombre
nombres
nome
nomenclature
nomenklatura
nomi
nomina
nominali
nominat
nominata
nominati
nominazzjoni
non
norbert
nord
nordic
nordika
nordiku
norfolk
norinaga
norma
normali
normalment
norman
normandija
normann
normanna
normanni
normi
norris
norte
north
northern
northwest
northwestern
norton
norveg
norwich
nos
nostalg
nostra
not
nota
notazzjoni
note
notes
notevoli
notevolment
nothing
noti
notker
noto
notoryctemorphia
notoryctes
notre
notte
nottingham
notturn
notturna
notturni
nou
nous
nouveau
nouvelle
nouvelles
nov
nova
novara
novel
novella
novelli
november
novembru
novena
novgorod
novi
novitates
novizzjat
novodevichy
novopolotsk
now
nowak
nozharova
nozione
nozze
nozzjoni
nqabad
nqabdu
nqalbet
nqalbu
nqasmet
nqatel
nqatlu
nqerdet
nqerdu
nqered
nqisu
nr
nri
nru
ns
nsara
nsejħulha
nsejħulu
nsemmu
nsibu
nsibuha
nstab
nstabet
nstabu
nster
nsterqet
nsterqu
nsw
nta
ntagħz
ntbagħat
ntbagħtet
ntbagħtu
ntebaħ
ntefa
ntemm
ntemmet
ntemmu
ntgen
ntgħaz
nther
ntilef
ntilfet
ntilfu
ntlagħab
ntlagħbet
ntlagħbu
ntlaqat
ntlaqgħet
ntlaqtet
ntlaħaq
ntqal
ntrebħet
ntuz
ntwera
ntwerew
ntweriet
nu
nub
nuber
nubja
nudi
nudicaudatus
nuestra
nueva
nuit
nukleari
nuklejari
nukleju
nukleotidi
nukleu
null
number
numerazzjoni
numeric
numerika
numeriku
numero
numerosi
numeruz
numri
numru
nun
nunavut
nunzjatura
nunzju
nuova
nuove
nuovo
nuqqas
nuqqasijiet
nur
nuremberg
nurimberga
nursery
nuru
nus
nutar
nutara
nutrijenti
nutrizzjoni
nuun
nuz
nuzzo
nvoluti
nwoko
nx
nxtara
nxtraw
ny
nya
nymphaeum
nyon
nz
nħakmet
nħarg
nħarsu
nħatar
nħatret
nħawi
nħeles
nħoloq
nħolqot
nħolqu
o
oaks
oara
oaxaca
oaz
ob
obama
obbligat
obbligati
obbligatorja
obbligatorju
obbligi
obbligu
obelisk
obere
oberliga
objettiv
objettivi
oblast
oboe
obon
obra
observations
oc
occidental
occidentali
oceania
ochoa
ochotona
ochotonidae
oclc
oct
octave
october
odat
odda
oddo
oder
odessa
odi
odissea
odjaku
odoacer
odore
ods
oecd
oeil
oeuvres
of
ofc
off
offensiv
offensiva
offensivi
offerta
offerti
office
offices
official
officinalis
offiz
offra
offrew
offrewlu
offrielu
offriet
offrut
offruti
offs
offside
og
oggi
ogni
ogħla
ogħz
oh
ohio
ohm
ohra
ohrajn
ohrid
oil
oiostolus
ois
oise
ojini
ojjellerija
ojjelli
ok
okkaz
okkult
okkupa
okkupanti
okkupat
okkupata
okkupati
okkupaw
okkupazzjonali
okkupazzjoni
oklahoma
okon
okra
ol
ola
olament
olanda
olandiz
olat
olata
olati
olazzjoni
olbrich
old
ole
oleg
olej
olew
olfers
olga
oli
olimpia
olimpic
olimpik
olimpika
olimpiku
olimpja
olimpjadi
oliveira
oliver
olivia
olivier
oloferne
ologie
olokawst
olomorfa
olomouc
oltre
oluzzjoni
oluzzjonijiet
olvi
olvu
olympe
olympia
olympic
olympique
olzar
olzat
olzata
olzati
om
oma
oman
omar
omb
ombra
ome
omega
omelija
omeliji
omeru
ometric
ometrija
ometrika
omi
omic
ominidi
omm
ommha
ommhom
ommi
ommijiet
ommu
omnia
omnivora
omnivori
omnivoru
omog
omonia
omosesswali
omosesswalita
on
ona
onali
onanza
onard
once
one
onesta
onesti
onevoli
oni
onja
onlajn
online
only
onn
onna
onnijiet
onofrio
onor
onorarja
onorarji
onorarju
onorat
onorata
onore
onorevoli
ons
ont
ontario
onti
ontolog
onturi
oolog
oort
oost
oostende
op
ope
open
opera
operat
operation
operatorname
operattiv
operattiva
operattivi
operatur
operaturi
operazzjonali
operazzjoni
operazzjonijiet
opere
ophrys
opin
opinion
opinjoni
opinjonijiet
oplontis
opold
opossum
opossumi
oppona
opportunita
opportunitajiet
oppost
opposta
opposti
oppoz
opra
opri
opus
opzjoni
oqbra
oqfsa
oqqa
oqsma
or
ora
oraklu
orali
orang
orange
oranza
oratorji
oratorju
orazio
orbigny
orbita
orbitali
orbiti
orchestra
orchis
orcia
ordan
order
orders
ordinarja
ordinarji
ordinarju
ordinazzjoni
ordine
ordna
ordnalu
ordnat
ordnata
ordnati
ordnaw
ordni
ordnijiet
ordre
ore
oregon
ores
oreste
orfanatrofju
orfeo
orfni
org
organi
organic
organika
organiku
organisation
organista
organiz
organization
organizazzjoni
organizza
organizzat
organizzata
organizzati
organizzattiv
organizzatur
organizzaturi
organizzaw
organizzazzjoni
organizzazzjonijiet
organu
orgel
orgni
orgnijiet
ori
orie
orient
oriental
orientalis
oriente
orier
orig
origin
original
origine
origins
orikteropu
orizzont
orizzontali
orizzontalment
orja
orjent
orjentali
orjentat
orjentata
orjentati
orjentazzjoni
orju
orkestra
orkestrali
orkida
orkidej
orlando
orle
orleans
orn
orna
ornament
ornamentali
ornamenti
ornat
ornata
ornati
ornithogalum
oro
oroastrijani
orr
orribbli
orru
ors
orsi
orsijiet
orsini
ortega
ortigia
ortodoss
ortodossa
ortodossi
ortografija
orycteropus
oryctolagus
orħos
os
osaka
oscar
oscars
osgood
osiris
oslo
osman
ospedale
ospita
ospitalita
ospitant
ospitanti
ospitat
ospitata
ospitati
ospitaw
ospiti
ospitu
osserva
osservabbli
osservanza
osservat
osservata
osservati
osservatorju
osservatur
osservaturi
osservazzjoni
osservazzjonijiet
ossessjoni
ossidjana
ossidu
ossig
ostag
ostakli
ostaklu
ostia
ostili
ostilita
ostrogoti
ostrogradsky
other
others
otic
otis
ott
ottagonali
ottagonu
ottavjanu
ottic
ottika
ottimiz
ottmar
otto
ottobru
ottoman
ottomana
ottomani
ottubru
ottun
ou
oud
our
out
outpost
output
ouverture
ov
ovali
ovanili
ovanna
ovarju
ove
over
overview
ovice
oviedo
ovvero
ovvjament
owen
own
ox
oxbow
oxford
oxxillazzjonijiet
oxxillometric
oz
oħra
oħrajn
oħt
oħtha
oħtu
oħxon
p
pa
pablo
pac
pace
paceville
pacheco
pacific
pad
padana
padiljun
padova
padre
pag
paga
pagamenti
pagan
pagana
pagani
paganini
page
pages
pagg
pagi
pagoda
pagodi
painting
paintings
paisiello
pajjiz
pajjizi
pajp
pajpijiet
pajsag
pakal
pakistan
pakkett
pala
palace
palacio
palaeolagus
palaeothentes
palaestra
palais
palatina
palaw
palazz
palazzi
palazzo
pale
palebijolog
palenque
paleobiology
paleolitika
paleolitiku
paleontolog
paleontology
palermi
palermo
palestina
palestine
palestinjan
palestinjana
palestinjani
palgrave
pali
palinuro
palk
palladio
pallas
pallasi
pallida
palm
palma
palmer
palustris
pan
panagia
panama
panathinaikos
pandemija
pandora
pane
panel
panew
panewijiet
pangolin
pangolini
pankhurst
pannonja
panorama
panoramic
panoramika
panoramiku
panteon
pantheon
panzavecchia
paola
paolo
papa
papali
papat
papaver
paper
paperback
papers
papes
papessa
paphos
papiet
papini
papiru
papjamentu
papoc
papri
papua
papwa
par
para
paradise
paradiso
paradoss
paragrafi
paragrafu
paragun
paragwaj
parallel
parallela
paralleli
parametri
parametru
paramurexia
parantechinus
paranti
parapett
parapetti
parassiti
parata
parc
pare
parentesi
pari
parig
parigi
parir
pariri
paris
parish
parisot
parita
park
parkeg
parker
parkinson
parks
parlament
parlamentari
parlamenti
parliament
parma
parmigianino
paroc
parodija
parque
parreira
parrinu
parroc
parrocca
parrokjali
parrokkjali
parruc
parrukkier
parrukkiera
parsons
part
parte
partec
parti
partial
partic
partie
partig
partijiet
partikolari
partikolarment
partikulari
partikularment
partire
partit
partita
partitarji
partitarju
partiti
partito
partitura
partituri
partizan
partizani
partizzjoni
partnership
party
parvidens
parzjali
parzjalment
pas
pascal
pascual
pasha
pasquale
pass
passa
passag
passant
passaport
passaporti
passat
passata
passatemp
passeriformes
passeriformi
passi
passig
passion
passiv
passjoni
passjonijiet
passo
password
past
pastelli
pasteur
pasti
pastic
pastizzi
pastor
pastorali
pasturi
pasztory
pat
patagonja
patata
patenaude
patolog
patri
patria
patriarka
patrice
patricia
patrick
patrija
patrijarka
patrijarkali
patrijarkat
patrijarki
patrijiet
patrijott
patrijottiku
patrijottiz
patrimoine
patrimonju
patrizju
patroc
patron
patrun
patruna
patrunag
patruni
patt
pattern
patterson
pattersoni
pau
paucituberculata
paul
paula
paule
paulista
paulo
paulus
pausanias
pausini
pavel
pavia
paviljun
paviljuni
pavimentar
pawl
pawlisti
pawlu
pawn
pawz
paxa
payne
pays
paz
pazjent
pazjenti
pazza
pazzi
pbs
pc
pd
pdf
pdg
pe
peace
peak
pearl
pearson
pedament
pedamenti
pedestal
pedestall
pedina
pedini
pedro
peer
peeters
peg
peirce
peiresc
pelag
pele
pell
pellegrin
pellegrinag
pellegrini
pembroke
pen
penali
penalti
penalties
penaltis
penalty
pendenti
pene
penguin
peninsula
penitenza
peniz
pennsylvania
penny
pense
pensjonanti
pensjoni
pensjonijiet
pentalagus
pentekoste
people
peoples
pepe
per
peralta
peramelemorphia
perameles
perc
perche
percy
perdu
peregrina
pereira
perellos
perenni
peress
perez
perfett
perfetta
perfettament
perfetti
perfezzjoni
performance
pergamon
periferali
periferic
periferija
periferiji
perijodu
perikli
periklu
perikoluz
perimetru
period
periodo
peristil
peristilju
perit
periti
perjodi
perjodic
perjodika
perjodiku
perjodu
perkussjoni
permanenti
permess
permessi
permezz
permjan
pero
perpetwu
perrelli
persefone
persegwitazzjoni
persekuzzjoni
persentag
perseus
persie
persistenti
persistenza
persja
persjan
persjana
persjani
personag
personaggi
personal
personali
personalita
personalitajiet
personalment
personifikazzjoni
perspective
perspectives
perspettiva
perspettivi
persuna
persunag
persunal
persuni
perswaz
pertini
peru
perugia
perugino
peruvjan
pes
pesaro
pesta
petali
pete
peter
peters
petersburg
petersi
peterson
petit
petite
petizzjoni
petizzjonijiet
petr
petra
petrarca
petrodromus
petrol
petroleum
petronju
petrovic
petrus
peut
pez
pezzi
pfa
pfc
pg
pgd
ph
pharaoh
phascogale
phascogalini
phascolosorex
phascomurexia
phd
phe
phi
phil
philadelphia
philander
philatelic
philetaerus
philetairos
philharmonic
philip
philipp
philippe
philips
phillips
phillyrea
philolaos
philos
philosophe
philosophes
philosophiae
philosophical
philosophie
philosophique
philosophy
phoenix
pholidota
photo
php
phylloscopus
phylogenet
phylogeny
phylum
phys
physical
physics
physik
physiology
physique
pi
pia
piacenza
piaf
piano
piantelli
piazza
piazzi
pic
picard
picasso
picchu
piccolo
piccolomini
pichipilus
pico
picture
pictures
pie
pied
piedi
piedras
piemonte
piena
pieni
pienza
pier
piero
pierre
pieta
pieter
pietra
pietrelcina
pietro
pietru
pietruburgu
pigmenti
pigmew
pijiet
pijoan
piju
pijunier
pijuniera
pijunieri
pika
piki
pil
pilas
pilastri
pilastru
pilatu
pilatus
pilgrimage
pilota
piloti
pin
pinacoteca
pinakoteka
pinakothek
pine
ping
pinheiroi
pink
pinna
pinnakli
pinnaklu
pino
pinto
pinus
pinyin
pinzell
pio
pioneer
piotr
piper
pique
piramida
piramidali
piramidi
pirandello
pirata
pirati
pirckheimer
pirenej
pirinej
pirjol
piro
pirotta
pirro
pisa
pisani
pistacia
pistilli
pistoia
pitagora
pitazz
pitcher
pitheculites
pitter
pitti
pittore
pittoresk
pittori
pittric
pittsburgh
pittur
pittura
pitturi
piu
pius
piuttosto
pixxina
piz
pizzi
pjac
pjagi
pjan
pjanc
pjaneta
pjaneti
pjani
pjanijiet
pjanista
pjanisti
pjanta
pjantag
pjanti
pjanu
pjanuforti
pjanura
pjanuri
pjattaforma
pjattaformi
pjazez
pjazza
pjuttost
pl
pla
plac
place
placental
places
plagnieux
plakek
plakka
plamer
plamers
plan
planck
planet
planetarja
planetarju
planigale
planning
plant
plantago
plantes
plantin
plants
plasma
plastik
plastika
plata
plate
platini
platinu
platon
platt
platti
platun
plawz
play
playa
player
playerhistory
players
playoff
plaza
plc
plec
plejer
plejers
plejju
plejstoc
plenarja
plesiadapis
plinju
plitvice
plotinu
plovdiv
plural
plus
plutarku
pluto
plutone
pluvialis
pluvjali
plymouth
pm
pmid
pn
png
po
poblet
poco
podarcis
podesta
podju
podolski
poe
poelagus
poema
poems
poesi
poesie
poet
poeta
poetessa
poeti
poetic
poetika
poetiku
poetry
poez
pog
poi
poincare
point
points
poisson
poitiers
poitou
pokal
pol
poland
polari
pole
polemic
polemika
polhem
poli
policy
poligonali
polikromatic
polinez
polinomjali
polinomji
polis
polish
politekniku
politic
politica
political
politics
politika
politikament
politiki
politiko
politiku
politique
polity
poliziano
pollakk
pollakka
pollakki
pollin
pollinaturi
pollinazzjoni
polo
polonia
polonja
poloz
polydolopimorphia
polydolops
polygram
polz
polza
pomeranja
pompa
pompej
ponchielli
ponot
pont
ponta
pontcysyllte
ponte
pontific
pontifikat
pontijiet
pontormo
pontryagin
pool
pop
pope
popli
poplu
popolare
popolari
popolarita
popolat
popolata
popolati
popolazjoni
popolazjonijiet
popolazzjoni
popolazzjonijiet
popolin
popolo
popular
population
populations
popultion
por
porc
porfirju
pornografija
porphyre
port
porta
portafoll
portail
portal
portali
porte
portelli
porter
portia
portic
portijiet
portiku
portland
porto
portogallo
portrait
portraits
portsmouth
portu
portugal
portugall
portugiz
portwali
porvli
porzana
porzjon
position
positions
posmysz
possibbilment
possibbilta
possibbli
possibilita
possibilitajiet
possibilment
possibilta
possible
possibli
post
posta
postali
postha
posthom
posti
postijiet
postsekondarja
postu
postulati
pot
potassju
potenza
potenzi
potenzjal
potenzjali
potenzjalment
poter
poteri
potsdam
potter
pouliot
pound
pour
poussin
power
poz
poznan
pozzo
pp
ppartec
ppe
ppen
ppermetta
ppermettew
ppermettiet
ppjana
ppjanar
ppjanat
ppjanata
ppjanati
ppjanaw
ppl
ppn
ppoz
ppreservat
ppreservata
ppreservati
pprez
pproc
pproduc
pprojbit
pprojbiti
pprojbixxa
pproklama
ppropona
pproponew
pproteg
pprova
pprovda
pprovdew
pprovdut
pprovduta
pprovduti
ppruvat
ppruvaw
ppubblika
ppubblikat
ppubblikata
ppubblikati
ppubblikaw
ppublikat
ppublikata
ppuntata
ppuntati
pr
practical
practice
prado
prados
prag
praga
prague
pranzu
prassi
prato
prattic
prattika
prattikament
prattikant
prattikanti
prattiki
prattiku
pre
prec
preca
predaturi
predec
predikatur
predikazzjoni
predominanti
prefazju
preferences
preferenza
preferenzi
preferut
prefett
prefettura
prefiss
prefissi
preg
prehistoric
prehistory
preistoric
preistorika
preistoriku
preistorja
prekarja
prekarji
preklassiku
prekursur
prelat
preliminari
preliminarja
preliminarju
preliminary
preludju
prematura
premie
premier
premiere
premiers
premiership
premijer
premio
premjazzjoni
premji
premjijiet
premju
prentice
preparamenti
preparatorja
preparazzjoni
pres
presbiteri
presbiterju
present
presente
presented
presenti
presenza
presepji
presepju
preservazzjoni
president
presidenti
presidenza
presidenzjali
presley
prespa
press
pressa
presses
pressjoni
pressure
prestazzjoni
prestazzjonijiet
prestig
preston
prete
pretensjoni
preti
prevalenti
prevenzjoni
previously
previst
previz
prez
prezz
prezzijiet
prezzjuz
pri
price
priedka
priedki
priest
prietka
prietki
prieto
prig
prijorita
prijoritajiet
prim
prima
primarja
primarjament
primarji
primarju
primat
primates
primati
primavera
prime
primera
primi
priministru
primittiva
primittivi
primo
primordjali
princ
prince
princeps
princeton
principale
principe
principia
principles
prinsengracht
print
printing
privat
privata
privatament
private
privatezza
privati
privattiva
privileg
prix
priz
prize
pro
probabbilment
probabbilta
probabbli
probabilment
probabilmente
problem
problema
problematika
problemi
problems
proboscidea
proboscideus
proc
procavia
procaviidae
proceedings
process
prodott
prodotta
prodotti
production
productions
produttiv
produttiva
produttivi
produttivita
produttur
produtturi
produzzjoni
produzzjonijiet
proeulagus
prof
profession
professional
professjonali
professjonalment
professjoni
professjonijiet
professjonist
professjonista
professjonisti
professor
professur
professuri
profeta
profeti
profezija
profeziji
profil
profile
profitt
profitti
profond
profonda
profondament
profondi
profs
prog
program
programm
programmazzjoni
programme
programmi
progress
progressiv
progressiva
progressivament
progressivi
progressjoni
projbita
projbizzjoni
project
prokarjoti
proklamazzjoni
prokofiev
prokuratur
prolagus
prolifiku
prologu
promettenti
prominenti
prominenza
promontorju
promoss
promossa
promossi
promotur
promozzjoni
pronaos
pronolagus
pronomi
pront
pronunzja
pronunzjata
propaganda
propagazzjoni
properties
propjeta
propjetajiet
propju
proportion
proportions
proporzjon
proporzjonali
proporzjonijiet
propost
proposta
proposti
propoz
propri
propria
proprie
proprijetajiet
proprio
proprja
proprjeta
proprjetajiet
proprjetarji
proprjetarju
proprju
prose
prosecco
prosekuzzjoni
proserpina
prosper
prosperita
prospero
prospetti
prospettiva
prospettivi
prossimita
prostituti
prostituzzjoni
protagonist
protagonista
protagonisti
protection
proteina
proteini
protesta
protestant
protestanta
protestanti
protestantiz
protesti
protett
protetta
protetti
protettiva
protettivi
protettorat
protettur
protetturi
protezzjoni
proto
protokoll
proton
protoni
prototip
proust
prova
provda
provence
provenza
provi
providenza
provinc
province
provincia
provincial
provins
proviz
provvista
provvisti
provviz
proxxmu
proz
prudenza
prunus
prussja
prussjan
prussjana
prussjani
pruvaw
pruwa
prva
ps
psaila
pseudantechinus
psewdo
psewdonimu
psi
psikolog
psv
psychology
pt
ptad
pti
pu
pub
pubblic
pubblico
pubblika
pubblikament
pubblikati
pubblikatur
pubblikaturi
pubblikazzjoni
pubblikazzjonijiet
pubbliku
public
publication
publications
publiju
publikazzjoni
publique
published
publishers
publishing
publius
publju
puccini
puck
pudina
puebla
puerta
puerto
puffinus
puglisi
puis
pulegium
pulit
pulizija
pullicino
pulmonari
pulmun
pulmuni
pulptu
pulzier
pulzieri
puma
punent
punic
punica
punika
puniku
punt
punta
puntali
puntdivista
punteg
punti
punto
puo
puplesija
pur
pura
purament
purc
pure
puri
purita
purtiera
purus
pushkin
pusilla
puska
pussess
putin
puy
px
pyotr
pyre
pyrus
pythagore
pythagoricien
pythagoricienne
pythagoriciens
pythagorisme
pyunik
q
qa
qabad
qabar
qabbad
qabbel
qabblu
qabda
qabdet
qabditu
qabdu
qabel
qabez
qabilha
qabilhom
qabilx
qablet
qablu
qablux
qabru
qabz
qaddej
qaddejja
qaddes
qaddis
qaddisa
qaddisin
qadi
qadim
qadima
qaeda
qafas
qagħad
qagħda
qagħdu
qajjem
qajla
qajmet
qajmu
qal
qala
qalb
qalba
qalbet
qalbha
qalbhom
qalbi
qalbiena
qalbna
qalbu
qaleb
qalet
qalgħu
qali
qaliet
qalila
qalilhom
qallu
qalu
qalulu
qam
qamar
qamel
qamet
qamu
qamħ
qamħirrum
qanpiena
qanqal
qanqlet
qanqlu
qaqoc
qara
qarabag
qarabagh
qares
qargħa
qari
qarib
qarn
qarrej
qarrejja
qarsa
qasab
qasam
qasba
qasir
qasira
qasma
qasmet
qasmu
qasr
qassis
qassisin
qastan
qata
qatar
qatel
qatgħa
qatgħat
qatgħu
qatigħ
qatlet
qatlu
qatluh
qatra
qatt
qatta
qattgħet
qattgħu
qattiel
qattiela
qattus
qawmien
qawra
qaws
qawsalla
qawwa
qawwi
qawwiet
qawwija
qawwijin
qaħba
qbid
qbil
qc
qdif
qdusija
qed
qeda
qedem
qedgħin
qegħdin
qemali
qerda
qerdet
qerdu
qered
qerq
qerrieda
qgħad
qi
qianlong
qieghed
qiegħ
qiegħda
qiegħed
qies
qiesu
qilla
qim
qima
qin
qing
qisha
qishom
qisien
qisu
qk
qliegħ
qliel
qligħ
qlub
qlubija
qlugħ
qmura
qmuħ
qniepen
qodma
qofol
qorbu
qormi
qorti
qosor
qosra
qotni
qoton
qoxra
qquad
qraba
qrabat
qrar
qrati
qrendi
qrib
qroll
qroqq
qrun
qsar
qsim
qtates
qtil
qtugħ
qu
qua
quad
quadri
quale
quali
quand
quando
quang
quanto
quantum
quark
quarks
quarterly
quarto
quasi
quatre
quattro
qubit
qubits
quc
quddiem
quddiemha
quddiemhom
quddiemu
quddies
quddiesa
quddisiet
que
quebec
quechua
quedlinburg
queen
queens
queensland
quel
quella
quelle
quelli
quello
quere
querini
quest
questa
queste
questi
question
questions
questo
qui
quick
quijote
quindi
quinte
quirigua
quixote
quo
quseir
qutb
qwiel
qxur
r
ra
raba
rabat
rabba
rabbi
rabbit
raben
rabja
rabta
rabtiet
race
racing
radam
radar
radd
radic
radikali
radikalment
radio
radjali
radjazzjoni
radjolog
radju
radjukarbonju
radt
rael
raeljan
raeljana
raeljani
rafael
rafel
raffaele
raffaello
raffles
rag
raggruppament
raggruppamenti
raggruppati
ragusa
ragħa
ragħad
ragħaj
rah
rahal
rahan
rahom
rai
rail
railway
raimondo
rain
rainbows
rajasthan
rajja
rajjiet
rajna
rajput
rajt
rakkmu
rakkomandazzjoni
rakkomandazzjonijiet
rakkont
rakkonti
ral
ralph
ram
rama
rameg
ramel
ramesses
ramirense
ramiro
ramli
ramlija
ramm
ramo
ramon
ramos
rampa
rampi
ramsay
ran
rana
rand
randan
random
ranet
range
rangers
rangle
rank
ranking
ranunculus
rapa
raphael
raphanurus
rapid
rapida
rapidu
rapp
rapport
rapporti
rappresenta
rappresentazione
rapprez
raprez
raqad
rar
rarament
rard
rari
ras
rasha
rashid
rashom
rashtrakuta
rasputin
rasu
rat
rata
ratba
rates
rathbun
rathom
rati
ration
ratu
ratzinger
rau
raul
raux
ravenna
raw
rawh
rawnd
rawnds
ray
rayleigh
raymond
raz
razez
razz
razza
razzett
razziz
razzjali
razzjonali
raħal
raħħal
raħħala
rc
rca
rcd
rce
rd
rden
rdum
re
reader
reading
reagan
real
reale
reali
realistic
realistika
realistiku
reality
realiz
really
realta
realtajiet
reat
reati
reatturi
reazzjoni
reazzjonijiet
rebaħ
rebbaħ
rebbiegħa
rebbieħ
rebbieħa
rebħ
rebħa
rebħet
rebħiet
rebħu
rebħuha
rebħulhom
rec
recent
recherche
recherches
reconquista
reconstruction
record
recording
recordings
records
red
redemptoris
redentur
redford
rediffusion
redin
rednic
reds
reed
reeder
reef
ref
refalo
reference
referendum
referenza
referenzi
referi
referis
refettorju
reform
reforma
reformation
refug
reg
rega
regatta
regensburg
reggie
reggina
reggio
regia
regime
regiment
regina
reginald
regio
region
regional
regis
regno
regola
regolament
regolamentazzjoni
regolamenti
regolari
regolarita
regolarment
regole
regoli
regulari
regularment
reich
reichenau
reichstag
reid
reig
reigi
reilly
reims
reina
reine
reinhard
rejiet
reklamar
reklami
rekord
rekords
rekwiz
relatat
relatata
relatati
related
relation
relations
relativament
relattiv
relattiva
relattivament
relattivi
relattivistic
relattivistika
relattivita
relazzjoni
relazzjonijiet
relegat
relegati
relegation
relegazzjoni
relig
religion
religione
religioni
religiosa
religioso
religious
relikwa
relikwarju
relikwi
rembrandt
remix
remo
remote
remoti
remove
ren
renaissance
renato
rendikont
rendiment
rene
renjanti
renji
renju
rennes
renni
renoir
renu
renzi
renzo
repertorju
repetizzjoni
replika
repliki
report
reports
repu
repubblica
repubblika
repubblikan
repubblikana
repubblikani
repubbliki
republic
republika
reputazzjoni
reqdin
reqqa
requiem
rer
rerum
res
resaq
research
reserve
residence
resident
residenti
residenz
residenza
residenzi
residenzjali
resistance
resource
resources
respighi
responsabbilita
responsabbilta
responsabbiltajiet
responsabbli
responsabilita
resqu
ressaq
ressqet
ressqu
restawr
restawrat
restawrata
restawrati
restoration
restrizzjoni
restrizzjonijiet
results
ret
retika
retorika
retrieved
retrospettiva
rett
rettangolari
rettili
rettur
return
reuben
rev
reverendu
review
revised
revista
reviz
revolution
revue
rewwixta
rewwixti
rex
rey
reyes
reynolds
rez
rg
rgala
rgb
rgen
rgħajja
rhamnus
rheinland
rho
rhynchocyon
rhyncholestes
ri
ria
riabilitazzjoni
rib
ribeiro
ribelli
ribelljoni
ribera
ribes
ric
rica
ricardo
ricault
riccardo
ricci
rice
rich
richard
richards
richardson
richelieu
riches
richmond
richter
rico
rida
ridt
ridux
rie
ried
rieda
riedem
rieden
riedet
riedni
riedu
riedx
riehl
riekeb
rieket
rieki
riemann
rien
rieqda
rieqed
rieragħ
ries
riet
rietveld
rieur
rieure
riev
riez
rieħi
rif
riferiment
riferimenti
riferimento
riffieda
rifjutata
rifless
riflessa
riflessi
riflessjoni
riflessjonijiet
riforma
riformatur
riformazzjoni
riformi
riformista
rifrazzjoni
rifug
rifuz
rig
riga
rigal
rigali
right
rights
rigoletto
rigoruz
rigward
riina
rija
rijeka
rijiet
rijksmuseum
rika
rikaz
rikjesta
rikk
rikka
rikkardu
rikkezza
rikkezzi
rikki
rikombinazzjoni
rikonc
rikonoxximent
rikonoxximenti
rikonoxxut
rikonoxxuta
rikonoxxuti
rikorrenti
rikostruwit
rikostruwita
rikostruwiti
rikostruzzjoni
rikreattiv
rikreazzjoni
rilaxxat
rilevanti
rilevanza
riley
riljev
riljiev
riljievi
rilokat
rilokazzjoni
rima
rime
rimedju
rimet
rimi
rimini
rimonta
rin
rinaldo
rinascita
rinaxximent
rinaxximentali
rinella
rinforzi
rinfurzat
ring
ringen
ringiela
ringieli
ringrazzjament
rinnovabbli
rinnovat
rinnovata
rinnovati
rinnovazzjoni
rinnovazzjonijiet
rinoc
rinomat
rinomata
rinomati
rio
riorganizzazzjoni
ripetizzjoni
ripetut
ripetuta
ripetutament
ripetuti
riproduzzjoni
rise
riserva
riservat
riservi
risk
riskji
riskju
riskjuz
risorgimento
rispett
rispettabbli
rispettat
rispettati
rispettiv
rispettivament
rispettivi
rispons
risposta
risq
ristorant
ristoranti
ristrett
ristretta
ristretti
ristrutturar
rit
rita
rite
riti
ritmika
ritmu
rito
ritorn
ritorno
ritratt
ritratti
ritrattista
ritratto
rituale
ritwal
ritwali
riva
rivali
rivalita
riveduta
riveduti
rivelazzjoni
rivelazzjonijiet
river
rivera
riversleigh
rivista
rivisti
rivoluzzjonarja
rivoluzzjonarji
rivoluzzjonarju
rivoluzzjoni
rivoluzzjonijiet
rix
rixa
rixtellu
riz
rizzoli
riħ
riħa
riħersals
rjal
rjali
rjus
rk
rkupra
rkuprat
rkupru
rlitz
rm
rmied
rn
rna
rner
rnexxa
rnexxew
rnexxielha
rnexxielhom
rnexxielhomx
rnexxielu
rnexxielux
rnexxietx
rnexxiex
rnexxilhiex
rnexxilux
ro
road
rob
robben
robbie
robert
roberta
roberto
roberts
robertson
robin
robinson
robinsoni
robot
robson
robusti
robustus
rocca
rocco
rochester
rock
rockefeller
rocks
rodentia
roderick
rodez
rodi
rodin
rodituri
rodolfo
rodolfu
rodri
rodrigo
rodriguez
roger
rohan
roi
rokku
rokna
rokoko
roland
role
roll
rolle
rolling
rom
roma
romagna
romain
roman
romana
romani
romano
romantic
romantika
romantiku
rome
romeo
romeral
romero
romerolagus
rometta
romol
romulus
ron
ronald
ronaldinho
ronaldo
roncalli
ronny
room
rooney
roosevelt
roqgħa
roque
ros
rosa
rosario
rosberg
rose
rosemary
rosetta
rosi
rospu
ross
rossi
rossini
rosso
rossoneri
rota
rotazzjoni
roth
rothmans
roti
rotondo
rotot
rotta
rotterdam
rotunda
rouen
rouge
rouget
rough
rougon
round
rourke
rousseau
routledge
rovere
rovers
row
rowling
roy
royal
royale
roz
rpm
rqaq
rqiq
rqiqa
rquez
rrang
rrapporta
rrapportat
rrapprez
rrappurtat
rraprez
rrealizza
rrefera
rreg
rrenja
rrenjat
rrepeta
rrestawra
rrestawrat
rrestawrata
rrestawrati
rrez
rrid
rridu
rrifjuta
rrifjutat
rrifjutaw
rrikonc
rrikonoxxa
rrikonoxxut
rrilaxxat
rritorna
rritornat
rritornaw
rriz
rs
rsc
rsssf
rst
rterbuch
rtira
rtirat
rtiraw
rttemberg
ru
rubens
rubio
rubus
rudi
rudolf
rudolfu
rue
rufescens
rufus
rug
rugbi
rugby
ruha
ruhr
ruiz
rule
rum
ruma
ruman
rumana
rumanesk
rumaneska
rumaneski
rumani
rumanija
rumanz
rumanza
rumanzi
rumanzier
rumanziera
rumen
rumena
rumeni
rummien
runge
runika
runner
runners
runtime
runwhenready
ruolo
rupert
rupestris
rurali
rus
rusca
ruskin
russa
russell
russett
russi
russia
russian
russja
russo
russu
rutgers
ruth
ruti
rutilio
rutina
ruud
ruz
ruħ
ruħha
ruħhom
ruħi
ruħu
rv
rwanda
rwieħhom
rwol
rwoli
ry
ryan
rzburg
rħula
s
sa
sab
saba
sabanalagus
sabar
sabet
sabha
sabiex
sabina
sabiħ
sabiħa
sabu
sabuh
sabuha
sabx
sac
sacco
sachs
sacra
sacre
sacred
sacrificale
sacrificio
sacro
sad
sadanittant
sadattant
sadid
safa
safar
safavidi
saff
saffi
safi
saflieni
safra
safrani
sag
saga
sagarmatha
sage
sagra
sagrado
sagrament
sagramenti
sagri
sagrific
sagristija
sagru
sagħtar
sagħtejn
sai
said
saint
sainte
saints
sais
sajd
sajf
sajfi
sajjetta
sajjetti
sajjied
sajjieda
sak
sakemm
sakra
sal
sala
salamanca
salamun
salanio
salarino
salarju
salerio
salerno
salesian
salib
saliba
salina
salinas
salisbury
salix
salle
salm
salmi
salmon
salon
salons
salott
salpa
salt
saltaire
saltna
saltniet
salut
salva
salvador
salvag
salvat
salvata
salvatag
salvati
salvatore
salvatur
salvaw
salvazzjoni
salve
salvini
salvja
salvu
salzburg
sam
sama
samanidi
samaritan
samarkanda
sambre
same
sami
samir
sammut
samoa
samos
sampdoria
samuel
samuraj
san
sancte
sanctuaire
sanctus
sand
sanders
sandra
sandro
sang
sangallo
sangiran
sanguisorba
sani
sanita
sanjar
sankt
sannat
sanremo
sans
sanscrito
sanskrit
sanskritu
sant
santa
santana
santander
sante
santi
santiago
santillana
santini
santo
santos
santu
santwarji
santwarju
sanzio
sanzjonijiet
sapiens
sapir
sapmi
sapport
sapporters
saqaf
saqajh
saqajha
saqajhom
saqajn
saqajħ
sar
sara
sarac
sarah
sarajevo
sarcophilus
sardenja
sardinja
sarebbe
saret
sarg
saritlu
saritx
sarkofagi
sarkofagu
sarlu
sarmental
saru
sarulu
sarux
sarx
sas
sassanidi
sassi
sasso
sassoni
sassonja
sassuolo
sat
satana
sataniz
satariano
satellita
satellitari
satellite
satelliti
satira
satiric
satirika
satiriku
saturnu
saunders
savana
save
saver
saverio
savigny
savoia
savona
savonarola
sawdija
sawdita
sawm
sawret
sawwar
sax
saxatilis
say
saydon
sayers
saz
saħansitra
saħaq
saħara
saħqu
saħħa
saħħar
saħħara
saħħaħ
saħħet
saħħew
saħħiet
saħħitha
saħħithom
saħħtu
sbatax
sbieħ
sbl
sbn
sbuħija
sc
scala
scale
scandentia
scar
scarecrow
scarlatti
scarone
sce
scena
scene
scerri
scha
schaal
schalke
schele
schembri
schengen
schiavio
schiavone
schiele
schifferer
schiller
schindler
schlegel
schleswig
schlieffen
schlitter
schlo
schloss
schmidt
schneider
scho
schokland
scholar
scholes
schongauer
school
schools
schro
schubert
schule
schumacher
schumann
schuster
schwartz
schwarz
sci
sciascia
sciberras
scicluna
science
sciences
scientific
scientifique
scienza
scifo
sciglio
scilla
sciortino
scipio
scotland
scott
scotto
screen
scribner
script
scudetto
sculpture
scultori
scuola
se
sea
search
searle
season
seat
seattle
seba
sebastia
sebastian
sebastiano
sebat
sebenico
sebgħa
sebgħin
sebgħinijiet
sebħ
sec
secolo
second
seconda
secondo
secret
secrets
section
securitate
sede
sedi
sedili
sedimentazzjoni
sedimenti
sedis
sedji
sedum
seduta
see
seele
seftura
seghers
segment
segmenti
segovia
segretarja
segretarjat
segretarji
segretarju
seguito
segunda
segundo
segwa
segwac
segwenti
segwew
segwiet
segwit
segwita
segwiti
sehem
sehemhom
sehmu
sei
seine
sejba
sejbien
sejbiet
sejjaħ
sejjaħlu
sejjer
sejjieħ
sejra
sejrin
sejħa
sejħet
sejħiet
sejħilha
sejħu
sejħulha
sekli
seklu
sekonda
sekondarja
sekondarji
sekondarju
sekondi
sekulari
sekwenza
sekwenzi
sela
select
selected
selection
selewc
selezzjoni
self
selimiye
seljuk
sellum
selon
selvag
sema
semantic
semantika
semgħet
semgħu
semi
semiarida
semic
semifinal
semifinali
semifinalisti
semigrupp
seminarji
seminarju
seminars
semitic
semitika
semitiku
semitiz
semma
semmejna
semmering
semmew
semmiegħa
semmieh
semmiet
semmiha
sempervirens
semplic
sempre
sen
sena
senat
senatur
senduq
senegal
seng
senglea
sengħa
senior
sens
sensazzjoni
sensi
sensibilizzazzjoni
sensiela
sensiliet
sensittiv
sensittiva
sensittivi
senso
sentejn
sentenza
sentenzi
sentiment
sentimentali
sentimenti
senu
senza
seokguram
seoul
seowon
separat
separata
separatament
separati
separazzjoni
sepja
sepp
september
ser
sera
seraq
serata
serati
serb
serba
serbi
serbja
serbjan
serebro
serena
serenata
serendipita
serer
serg
sergei
sergey
sergio
seria
serie
series
serja
serjament
serje
serjeta
serji
serju
serp
serq
serqa
serqiet
serqu
serra
serracino
serva
server
servers
servew
servi
service
services
serviet
servizz
servizzi
ses
sess
sessi
sessjoni
sessjonijiet
sesswali
sesswalita
sesswalment
sestu
set
seta
setax
setet
setgħa
setgħan
setgħana
setgħat
setgħax
setgħet
setgħetx
setgħu
setgħux
sett
setta
sette
settembru
settijiet
setting
settlement
settur
setturi
sevastopol
seven
seventeenth
seventh
severa
severo
sevilla
sew
sewa
sewda
sewqan
sewwa
sewwasew
sewwieq
sewwieqa
sex
sexton
sexual
seychelles
seymour
sezzjoni
sezzjonijiet
seħer
seħħ
seħħet
seħħew
seħħitx
seħħu
seħħx
sfat
sfaw
sfaxxa
sfaxxat
sfera
sferi
sfida
sfidaw
sfidi
sfiduc
sfigmomanometru
sfing
sfiqa
sfond
sfortunatament
sforz
sforza
sforzi
sfrutta
sfruttaw
sfurzat
sfurzati
sh
shaarawy
shadow
shah
shahrisabz
shakespeare
shakhtar
shale
shall
shan
shanghai
shankly
sharer
sharon
shaun
shaw
she
shea
shearer
sheet
sheffield
sheila
shell
shelley
sheringham
shevchenko
shi
shield
shift
shin
shirak
shirakawa
shiva
shivaji
shkode
shmyhal
sho
shoah
shooting
shoqeria
short
shortcut
shortcuts
shoshani
should
show
shown
shows
shrew
shrews
shrewsbury
shropshire
shusha
shylock
si
sia
siam
sib
siberja
sibt
sic
sica
sicilia
sico
sid
siddhartha
side
sider
sidi
sidien
sidirha
sidna
sidney
sidonia
sidru
sidu
sie
siefer
siege
siegfried
siegħa
sieket
siekta
siena
sieq
siequ
sierra
siewi
siewja
sieħba
sieħbu
sieħeb
sifilide
sig
sigar
sigarett
sigaretti
sige
sigismondo
siglo
sigma
sigmund
sign
signal
significance
signore
signoria
sigra
sigriet
sigrieta
sigrieti
sigur
sigura
sigurta
sigħat
sikek
sikka
sikkina
sikri
sikur
sikurezza
sikwit
sila
silence
silenzju
silesja
silg
silic
silla
sillaba
silta
siltiet
silva
silver
silvestru
silvia
silvio
sim
sima
simar
simbel
simboli
simbolic
simbolika
simboliku
simboliz
simbolu
siment
simeq
simetrija
simetrika
simferopol
similaritajiet
simili
simo
simon
simone
simonovic
simpatija
simple
simpson
simultanji
simurq
sin
sina
sinagoga
sinagogi
sinai
sinaj
sinan
sinapsidi
sinc
since
sindki
sindku
sindromu
sinfonia
sinfonija
sinfoniji
sinfonika
sing
singapor
singapore
singer
singh
singing
single
singles
singoli
singular
singulari
sinh
sinifikanti
sinifikat
sinjal
sinjali
sinjifikanti
sinjifikat
sinjorina
sinjur
sinjura
sinjuri
sinodu
sinonimi
sinonimu
sinsla
sint
sintassi
sintesi
sintetiku
sintez
sintomi
sion
siq
sir
siracusa
sirakuz
sire
sirenia
sirens
sirja
sirjan
sirjana
siro
sirt
sis
sisa
sisien
sistema
sistematic
sistematika
sistematikament
sistematiku
sistemi
sisters
sistina
sistolika
sistu
sit
site
sites
siti
sitt
sitta
sittax
sitter
sittin
sittinijiet
sitwazzjoni
sitwazzjonijiet
sive
siviglia
sivilja
siwi
six
sixteenth
sixth
siyah
size
sj
sjieda
sjuf
sk
ska
skada
skala
skambju
skandinava
skandinavi
skandinavja
skandlu
skart
skavat
skavata
skavati
skavi
skawdra
ske
skeda
skedat
skedata
skedati
skejjel
skeletru
skellig
skelligs
skema
skemi
ski
skieken
skiet
skin
skizz
skizzi
skjav
skjavi
skjerat
skoc
skola
skolastika
skolpit
skolpiti
skolpixxa
skond
skont
skontha
skontu
skop
skopert
skoperta
skoperti
skopijiet
skopje
skopra
skoprew
skor
skorag
skorba
skorer
skorers
skorja
skorjat
skorjati
skorjaw
skozja
skrivan
sks
skud
skultur
skultura
skulturali
skulturi
skur
skura
skuri
skurja
skurjat
skurjati
skurjaw
skutella
skutelli
skuz
skwadra
sky
sl
slaleb
slaten
slava
slavag
slave
slavi
slavia
sliem
sliema
sligo
slobodan
slovakk
slovakka
slovakki
slovakkja
sloven
slovena
sloveni
slovenja
sma
small
smalling
smewwiet
smigħ
smile
sminthopsinae
sminthopsini
sminthopsis
smith
smithsonian
smoluchowski
smr
sms
snajja
snien
snin
snow
so
sobre
soc
soccer
soccerway
social
socialist
socie
sociedad
societa
societies
society
socjali
socjeta
socratiques
sod
soda
sodda
soderini
sodi
sodisfac
sodisfatt
sodisfatti
sodisfazzjon
sodju
sodod
sodre
soekmono
sofferenza
sofia
sofija
sofistikat
sofistikati
sofonisba
sofor
sofra
sofrew
sofriet
soft
software
softwer
sog
sogno
sohrab
soit
sokkors
sol
sola
solanio
solanum
solar
solari
sold
soldanis
sole
soleil
solemnis
solenni
solida
solidarjeta
solidi
solidu
solinas
solista
solisti
solitarji
solitarju
solitudni
soll
solo
solomon
solskjær
solstizju
soltangala
soltu
solution
soluzzjoni
soluzzjonijiet
solvut
solvuta
solvuti
somalja
some
someone
something
somma
sommarju
somme
somom
son
sonata
sonatas
sonates
sonati
sonda
sondag
song
songs
sono
sons
sont
sony
sophia
sophie
soppa
sopra
sopran
soprano
soprattutto
sopravivenza
soqfa
sor
sorbonne
sorella
soria
sorijiet
sorprendenti
sorpriz
sors
sorsi
sort
soru
sorveljanza
sospensjoni
sospiz
sostanzjali
sostanzjalment
sosten
sostenibbli
sostenituri
sostenn
sostitut
sostituti
sostituzzjoni
sostituzzjonijiet
sostitwit
sostitwita
sostitwiti
sostna
sostnew
sostniet
sostnut
sostnuta
sottili
sotto
sottofamilja
sottofamilji
sottog
sottograf
sottoklassi
sottokontinent
sottomarin
sottomarini
sottomissjoni
sottordni
sottoreg
sottosett
sottospec
sound
source
sources
sous
south
southampton
southeast
southern
soviet
sovjetic
sovjetika
sovjetiku
sovran
sovrana
sovrani
sovranita
sp
spa
space
spagna
spain
spalla
spallejh
spanish
spanja
spanjol
spanjola
spanjoli
spara
sparat
sparati
sparaw
spareg
sparta
spartak
spartans
spaworth
spazjali
spazji
spazju
spazjuz
speaker
spec
special
specialist
speciation
species
specimen
specjali
specjalment
speculum
spedizzjoni
spedizzjonijiet
spejjez
spekulazzjoni
spekulazzjonijiet
spellut
spemann
spencer
speranza
sperimentali
spesso
spettakli
spettaklu
spettakolari
spettatur
spettaturi
spettur
speyer
speyrer
sphe
spic
spina
spink
spinola
spinosa
spinosum
spinta
spira
spirali
spiri
spiritwali
spirti
spirtu
spis
spiss
spiteri
spiz
spjega
spjegat
spjegata
spjegati
spjegazzjoni
spjun
spjunag
split
sploda
splodiet
splussiv
splussivi
spluz
spoleto
sponsorizzazzjoni
sponsorjat
sponsorjata
sponsorjati
sponsuni
spontanja
spontanju
sport
sporting
sportiv
sportiva
sportive
sportivi
sportklub
sports
spp
spring
springer
sptar
sptarijiet
spurs
sqalli
sqallija
sqallijiet
sqallin
sqaq
sqrt
squads
square
sr
sri
sric
sriep
srpska
ss
ssegwi
ssejjaħ
ssejħet
sseldorf
ssemma
ssemmew
ssemmi
ssemmiet
sseparat
sseparata
sseparati
sservi
sseħħ
ssib
ssieħbet
ssieħbu
ssieħeb
ssig
ssir
ssostitwixxa
ssostni
ssp
ssr
ssug
st
sta
staatliche
stabat
stabbilew
stabbiliet
stabbiliment
stabbilimenti
stabbilit
stabbilita
stabbiliti
stabbilixxa
stabbilixxew
stabbilizzazzjoni
stabbilta
stabbli
stabilixxa
stade
stadio
stadion
stadium
stadji
stadju
stadt
staelens
staff
stafford
stafrace
stag
stair
stalin
stalla
stalley
stam
stamford
stamp
stampa
stampalia
stampar
stampat
stampata
stampati
stamperija
stampi
stan
stand
standard
standardizzata
standardizzati
standards
stanford
stanhope
stanisław
stanley
stanton
stanza
staqsa
star
stari
starr
stars
start
stat
stata
statali
state
states
stati
static
station
statista
statistic
statistics
statistika
stato
statue
status
statut
statwa
statwi
stay
stazzjon
stazzjonament
stazzjonat
stazzjonati
stazzjonijiet
ste
stedina
stefan
stefania
stefano
stein
steiner
stejjer
stele
steli
stella
stellari
stelle
stemma
stenna
stennija
stephan
stephano
stephen
stephens
sterlina
sterling
sterreich
stess
stesso
steve
steven
stevens
stevns
stewart
stgivars
stieden
stiednu
stiefnu
stil
stile
stilel
stili
stilistic
still
stilla
stima
stimi
stinka
stmat
stmata
sto
stoa
stock
stoclet
stoddart
stojc
stojka
stoke
stokkolma
stollen
stone
stones
stora
storbju
storbjuz
storia
storic
storico
storie
stories
storika
storikament
storiku
storja
story
stqarr
stqarret
stqarrew
stqarriet
stqarrija
stqarrijiet
str
strabo
strada
strajk
stramb
stramba
strambi
strange
straordinarja
straordinarji
straordinarju
strasbourg
strasburgu
strateg
strategy
stratford
stratigraphic
straus
strauss
stravaganti
stravinskij
stravinsky
street
strett
stretta
strettament
stretti
strickland
strixxa
strixxi
stromboli
structure
struggle
strument
strumentali
strumenti
struttura
strutturali
strutturi
struve
struzzjonijiet
stuart
student
studenta
studenti
studi
studies
studio
studiosi
studja
studjat
studjata
studjati
studjaw
studji
studjo
studjos
studju
studjuz
studley
study
stukko
stupa
stupi
sturm
stuttgart
style
styria
stħarrig
su
sua
sub
subak
subborg
subborgi
subcategories
subien
sublimi
submit
subrahmanyam
subsp
subtropikali
suc
such
sud
sudamericana
sudamericano
sudan
suddiviz
sue
suez
suf
suffiss
suffissi
suffrag
suffrage
sufi
sufin
sug
suggestion
suggestions
sui
suite
sul
sular
sulari
sulba
suldat
suldati
sulejman
suli
sull
sulla
sulle
sullivan
sultan
sultana
sultanat
sum
sumatra
summary
summer
summit
sun
sunak
sunda
sunday
sunderland
sunett
sunetti
sung
sunga
suo
suoi
supe
super
supercopa
supercoppa
supercup
superfamilja
superfic
superior
superiore
superjorita
superjur
superjura
superjuri
superliga
supernova
superordni
superpotenzi
supertazza
superviz
suppl
supplementari
suppliment
support
suppost
suppoz
suprem
suprema
supremazija
supremo
suq
sur
sura
surg
surinam
surmast
surrealista
surrealisti
surtsey
survey
survival
sus
susan
susanna
suspett
suspettati
suspetti
suspettuz
sussegwentament
sussegwentement
sussegwenti
sussidjar
sussidjarja
sussidjarji
sussidju
sustanza
sustanzi
sutherland
sutra
suwed
suwic
sv
sven
svg
svizzera
swaba
swabja
swali
swallows
swann
swansea
swar
swatar
sweat
sweden
swedish
sweet
swieq
swieqi
swiet
swift
switzerland
swor
sydney
sylvanus
sylvestris
sylvia
sylvilagus
symbol
symbols
symphonie
symphony
symposium
synthesis
syria
syriaca
syst
system
systema
systems
szczecin
szczepanek
szlo
søren
sħab
sħaba
sħabu
sħan
sħana
sħaħ
sħaħar
sħiħ
sħiħa
sħubija
sħun
sħuna
t
ta
tabakk
tabella
tabelli
tabib
tabiba
tabilħaqq
table
tabone
tac
tad
tadam
tadotta
taf
tafal
taffettwa
tafu
tag
taghha
taghhom
taghlim
taghna
tagliaferro
tagus
tagħbija
tagħfas
tagħha
tagħhom
tagħkom
tagħlaq
tagħlim
tagħmel
tagħmilha
tagħmilx
tagħmir
tagħmlu
tagħna
tagħom
tagħraf
tagħrif
tagħti
tagħtih
tagħtihom
tagħtina
tagħtu
tagħz
tah
taha
tahom
taht
tait
taj
tajba
tajbin
tajjeb
tajlandja
tajn
tajr
tajra
tajwan
take
taken
takkomoda
taksa
takson
tal
talab
talb
talba
talbet
talbiet
talbot
talbu
tale
talent
talenti
tales
tali
taliban
taljan
taljana
taljani
talk
talli
tallinn
talmud
talpa
talpi
tama
tamil
tammonta
tamworth
tan
tana
tancredi
tang
tanh
tank
tankijiet
tant
tanti
tantx
tanz
taparsi
tapeti
tapit
tapizzerija
tapizzeriji
tappartjeni
tapplika
tappog
taqa
taqbad
taqbel
taqbez
taqbid
taqbida
taqbila
taqdi
taqleb
taqlib
taqra
taqsam
taqsima
taqsimiet
taqsira
taqta
tar
tara
tarabai
tarag
taranto
tarbija
tard
tardi
tarek
tarf
targ
tari
tarifa
tariffa
tariffi
tarka
tarmi
taro
tarraco
tarragona
tarsu
tartu
tarxien
tarzna
tas
tasal
tasmania
tassew
tassonomija
tastieri
tat
tatar
tatari
tatarstan
tate
tatha
tathom
tats
tattakka
tattendi
tattic
tattika
tattira
tatu
tau
taube
tavla
tavli
taw
tawh
tawha
tawrika
tawwali
tawwalin
tax
taxonomic
taxxa
taxxi
tay
taylor
taz
tazez
tazza
tazzi
taħbat
taħbit
taħbita
taħdem
taħdidiet
taħdit
taħdita
taħditiet
taħkem
taħlit
taħlita
taħraq
taħrig
taħseb
taħt
taħtaf
taħtha
taħthom
taħtu
tb
tbajja
tbassir
tbati
tbatija
tbatijiet
tbattal
tbaħħir
tbiddel
tbiddlet
tbiegħed
tbigħ
tbilisi
tbissima
tbol
td
te
teacher
team
teams
teatrali
teatri
teatro
teatru
teau
teaux
tebe
tebgħa
tebgħat
tebut
techniques
technology
ted
teddy
tedeschi
tedesco
tefa
tefgħet
tefgħu
tegħleb
tehran
tehuantepec
teide
tejjeb
tejn
teknic
teknika
teknikament
tekniki
tekniku
teknolog
tel
tela
telaq
tele
telefilm
telefon
telefonata
telefown
telegrafija
telegramma
telegraph
telekomunikazzjoni
telenka
teles
teleskopji
teleskopju
telespettaturi
television
televixin
televixon
televiz
telf
telfa
telfien
telfiet
telford
telgħa
telgħet
telgħin
telgħu
tell
tella
tellgħu
tellief
telliefa
tellieqa
telqa
telqet
telqu
tema
temi
temile
temm
temmen
temmet
temmew
temminck
temp
tempe
tempel
temperament
temperatura
temperaturi
tempest
tempesta
tempesti
tempi
tempji
tempju
temple
temples
templo
tempo
temporali
temporanja
temporanjament
temporanji
temporanju
temps
ten
tendenza
tendenzi
tenera
tenerife
tenfasizza
tengħud
tenna
tennessee
tennis
tensjoni
tensjonijiet
tentattiv
tentattivi
tenur
teodoriku
teodoru
teodosju
teodoz
teolog
teologi
teologu
teorema
teoremi
teoretika
teoria
teorija
teoriji
teorika
teoriku
teotihuaca
teotihuacan
tepe
teqred
tequila
ter
terapija
terapsidi
terence
teresa
terez
terg
term
termali
terme
terminal
terminali
termine
termini
terminolog
terminology
terminu
terra
terracotta
terrakotta
terran
terrazza
terrazzi
terrazzin
terre
terremot
terremoti
terren
terrestri
terribbli
territories
territorjali
territorji
territorju
territory
terroristi
terroristic
terroristiku
terroriz
terrur
terry
tersaq
terz
terza
terzi
terzjarja
terzjarju
tes
tesa
tespandi
tesperjenza
tesprimi
tessalonika
tesserati
tessin
tessut
tessuti
test
testa
testaferrata
testament
testendi
testi
testijiet
testimonjanza
testment
testo
testwali
tetradactylus
tettonic
tettonika
tettoniku
teucrium
teuta
tevita
tevolvi
tewm
tewmi
tewmin
tewtonic
texas
text
texts
tez
teħid
teħles
teħtieg
tfac
tfajjel
tfajla
tfajliet
tfakkar
tfal
tfassal
tfassil
tfasslu
tfigħ
tfisser
tfittex
tfittix
tfittxija
tfittxijiet
tfixkil
tforni
tfulija
tfulitu
tg
tgawdi
tgħaddi
tgħajjat
tgħallem
tgħallmet
tgħallmu
tgħammed
tgħammir
tgħaqqad
tgħatti
tgħid
tgħidlu
tgħin
tgħix
tgħodd
tgħolli
th
tha
thames
than
that
the
thea
theatre
thedded
theddid
theddida
theddidiet
their
them
then
theodor
theodore
theology
theories
theory
therapy
there
theresa
therese
theria
thesaurus
these
thesis
thessaloniki
theta
theuma
they
thez
thibetana
thien
thierry
thing
things
thinking
third
thirteenth
this
tholos
thomas
thompson
thomson
thor
those
thought
thousand
threatened
three
through
thu
thumb
thumbnail
thun
thylacinidae
thylacinus
thylamyini
thylamys
thylatheridium
thylophorops
ti
tian
tiara
tibda
tibdel
tibdil
tibdiliet
tiben
tiberju
tibet
tibetanus
tibgħat
tibkix
tibni
tibqa
tibqax
tiburtina
tibz
tic
tica
ticas
ticino
tico
tiddec
tiddedika
tiddefendi
tiddefinixxi
tiddependi
tiddeskrivi
tiddetermina
tiddez
tiddi
tiddikjara
tiddistingwi
tiddomina
tidentifika
tidher
tidwib
tidwir
tidħol
tieg
tieghu
tiegħek
tiegħi
tiegħu
tiekol
tiela
tielet
tieni
tienne
tiepolo
tieqa
tieqaf
tieħu
tifel
tiffac
tiffjorixxi
tiffoka
tifforma
tiffunzjona
tifhem
tifkira
tifkiriet
tifla
tiflaħ
tifqigħa
tifrix
tifsir
tifsira
tifsiriet
tiftaħ
tiftix
tifu
tifħir
tig
tigers
tiggarantixxi
tiggwida
tigi
tigne
tigra
tigri
tigris
tika
tikal
tikber
tikek
tikka
tikkawz
tikketta
tikklassifika
tikkollega
tikkommemora
tikkompeti
tikkomunika
tikkonc
tikkonferma
tikkonsisti
tikkontesta
tikkontribwixxi
tikkontrolla
tikkorrispondi
tikkunsidra
tikkwalifika
tikseb
tikteb
tikxef
tila
tilac
tilar
tilbes
tilef
tilfet
tilfu
tilgħab
tiliw
till
tilqa
tiltaqa
tilwim
tilwima
tilħaq
tim
timbru
time
times
timesofmalta
timidus
timijiet
timis
timjil
timmarka
timmodifika
timo
timor
timothy
timotju
timpani
timpanu
timpjega
timplika
timplimenta
timponi
timur
timurida
timxi
tin
tina
tinbena
tinbidel
tinda
tindaqq
tindif
tindika
tindirizza
tined
tinfetaħ
tinfirex
tinfluwenza
tinftiehem
ting
tingħad
tingħalaq
tingħaqad
tingħaraf
tingħata
tinkiseb
tinkiser
tinkiteb
tinkludi
tinkludix
tinkorag
tinkorpora
tinqaleb
tinqara
tinqasam
tinqata
tinqered
tinqix
tinqixa
tinsa
tinsab
tinstab
tinstema
tintbagħat
tintemm
tintgħaz
tintilef
tintlagħab
tintlaħaq
tintoretto
tintroduc
tintuz
tintwera
tinvestiga
tinvolvi
tinz
tinħadem
tinħass
tinħema
tinħoloq
tip
tipa
tipi
tipic
tipika
tipikament
tipiku
tipolog
tippartec
tippermetti
tipprattika
tippreferi
tippreserva
tipprevjeni
tipprez
tipproduc
tipprojbixxi
tippromwovi
tipproponi
tipproteg
tipprova
tipprovdi
tippubblika
tique
tir
tirana
tirann
tirano
tirbaħ
tirc
tiri
tirkupra
tirol
tirrakkonta
tirrapprez
tirraprez
tirreferi
tirreg
tirregola
tirren
tirrenja
tirrifletti
tirrikjedi
tirrikonoxxi
tirritorna
tirriz
tirtira
tiryns
tis
tisfira
tisjir
tislima
tisma
tismija
tispec
tispic
tispikka
tispjega
tisplodi
tisqija
tissaħħaħ
tissejjaħ
tissemma
tissepara
tissieħeb
tissimbolizza
tissodisfa
tissorvelja
tissostitwixxi
tissug
tista
tistabbilixxi
tistaqsi
tistax
tistenna
tistrieħ
tistudja
tiswa
tiswija
tiswijiet
tiswir
tisħin
tisħiħ
titfa
titfac
titgħallem
titien
titjib
titjieb
titjir
titjira
titjiriet
titkanta
titkellem
titla
titlaq
title
titlef
titlesta
titli
titlob
titlu
titmexxa
titnaqqas
titneħħa
tito
titolari
titoli
titolo
titolu
titqiegħed
titqies
tittejjeb
tittieħed
tittraduc
tittratta
titu
titular
titulari
titus
titwaqqaf
titwassal
titwettaq
titwieled
titħalla
titħallas
titħallat
tivoli
tivvjag
tixbah
tixbaħ
tixbit
tixgħel
tixhed
tixrid
tixrob
tixtieq
tixtri
tixħim
tiz
tiziano
tizjanu
tjiebet
tjiebu
tjubija
tjur
tkabbar
tkabbir
tkabbret
tkabbru
tkanta
tkarkir
tkattar
tkaħħil
tkec
tkellem
tkellmu
tkissir
tkissru
tkompla
tkompli
tkompliet
tkomplija
tkopri
tkun
tkunx
tlacotalpan
tlacuatzin
tlaħħaq
tlesta
tlestew
tlestewx
tlestiet
tlestiex
tlestija
tletin
tletinijiet
tlett
tlettax
tlielaq
tliet
tlieta
tlift
tlitt
tlugħ
tluq
tm
tmajna
tmenin
tmeninijiet
tmexxa
tmexxi
tmexxiet
tmexxija
tmiem
tmiemha
tmiemu
tmien
tmienja
tmint
tmintax
tmiss
tmun
tmur
tmut
tnabar
tnaqqas
tnaqqis
tnaqqsu
tnax
tnedija
tnejn
tneħħa
tneħħew
tneħħi
tneħħiet
tneħħija
tnig
tnissil
tnixxi
tniz
to
tobago
tobba
today
todd
todo
toeplitz
toffri
tofroq
together
togo
togħg
togħla
togħma
toi
toiles
tok
tokjo
tokki
tokkupa
tokyo
tolai
toledo
tolleranza
tolnay
tolomew
tolqot
tolteki
tom
toma
tomas
tomaso
tomb
tome
tommaso
tommy
tomori
ton
tonalita
tonalitajiet
tond
tonda
tondi
tondo
tonga
toni
tonqos
tony
too
took
top
topera
topografija
topolog
toppu
toqba
toqgħod
toqob
toqrob
toqtol
tor
torbita
torbot
torc
torcal
torganizza
torig
torii
torino
tork
torka
tornew
torok
toronto
toroq
torox
torpedo
torre
torres
torri
torrijiet
tort
torta
torti
tortura
torun
toscana
toskan
toskana
tospita
total
totali
totalment
toto
tottenham
totti
toujours
toulouse
tour
toure
tourism
tournai
tournament
tours
tous
tout
tovuz
towards
tower
town
townsendii
toyota
toħloq
toħrog
tpartit
tpattija
tping
tpittir
tpog
tqabbad
tqabbil
tqajjem
tqal
tqala
tqanqal
tqanqil
tqarbin
tqarbina
tqassam
tqassim
tqaxxir
tqegħdet
tqegħid
tqiegħdet
tqiegħdu
tqiegħed
tqies
tqieset
tqiesu
tqil
tqila
tqis
tqum
tr
tra
trab
trabba
trabbiet
trabi
trac
tracy
trad
trade
tradiment
tradition
traditional
traditions
traditur
tradizione
tradizzjonali
tradizzjonalment
tradizzjoni
tradizzjonijiet
tradott
tradotta
tradotti
traduction
traduttric
traduttur
tradutturi
traduzzjoni
traduzzjonijiet
traffiku
trafford
trag
tragedia
tragward
train
training
traite
trajanu
trakkijiet
trama
tramm
tramuntana
trankwillita
trans
transactions
transett
transetti
transfermarkt
transformation
transition
transizzjoni
transkonfinali
translated
translation
translations
transnazzjonali
transport
tranz
trapani
trapass
tras
trasferiment
trasferimenti
trasferit
trasferita
trasferiti
trasfigurazzjoni
trasformata
trasformazzjoni
trasformazzjonijiet
traskrizzjoni
traskurag
trasmissjoni
trasparenti
trasparenza
trasport
trasporti
trasversali
tratta
trattament
trattamenti
trattat
trattati
travel
travels
travertin
travi
traviata
trawwem
traxler
traz
tre
treasure
treatment
tree
trejqet
tren
trench
trends
trento
trentu
tres
tressaq
tressqet
tressqu
treviso
trevor
trial
triangolari
triangolu
triassic
triassiku
tribali
tribu
tribujiet
tribuna
tribunal
tribut
tributarja
trichechidae
trichechus
triclinium
trid
tridimensjonali
trie
trier
trieste
triforju
triganza
triglific
trijassiku
trijonf
trijonfali
triju
trikkib
trilog
trinculo
trinek
tringa
trinian
trinidad
trinita
trinity
trio
triple
tripletta
tripletti
tripli
triplu
triq
triqitha
triqithom
triqthom
triqtu
trique
triste
trittiku
trobbija
trofej
trofew
trogir
trois
troisie
trojja
trompe
tron
trophies
trophy
tropic
tropikali
trota
trotsky
troughton
troy
trubner
true
truf
trulli
trumbetti
trump
trunc
truppi
truss
trust
truth
truxija
ts
tschudi
tserkva
tsv
ttama
ttella
ttellgħet
ttellgħu
ttieħdet
ttieħdu
ttieħed
ttingen
ttraduc
ttrasferit
ttrasferixxa
ttrasformat
ttrasportat
ttrattati
tu
tuberkoloz
tuberkuloz
tubi
tubu
tubulidentata
tucker
tudes
tufa
tuffieħ
tuffieħa
tugendhat
tul
tula
tulijiet
tulliera
tumas
tumbata
tumbati
tumur
tun
tunez
tuniz
tunnellata
tunnellati
tupaia
tupaiidae
tupaja
tupaji
turan
turg
turi
turija
turin
turing
turist
turisti
turistic
turistika
turistiku
turiz
turkestan
turkey
turkija
turkish
turkmen
turkmeni
turkmenistan
turnament
turner
turnew
turretti
tursin
tut
tuta
tutankhamun
tuttavia
tutte
tutti
tutto
tuvalu
tuz
tv
tvarja
tvm
twajjeb
twal
twapet
twaqqa
twaqqaf
twaqqfet
twaqqfu
twaqqgħet
twaqqgħu
twaqqif
twaqqigħ
twassal
twavel
tweg
twelid
twelidha
twelidu
twelied
twelled
twemmin
twente
twentieth
twenty
twessa
twessgħet
twessigħ
twettaq
twettiq
twettqet
twettqu
twieg
twieldet
twieldu
twieled
twieqi
twil
twila
twissija
twitter
two
tympanum
type
typhlops
tz
tħabbar
tħabbat
tħabbira
tħabbret
tħabtu
tħaddan
tħaddem
tħaddim
tħaffer
tħaffir
tħaffru
tħalla
tħallas
tħallew
tħalli
tħalliet
tħallix
tħares
tħarreg
tħassar
tħassib
tħassir
tħawwil
tħaz
tħeg
tħejji
tħejjiet
tħejjija
tħobb
tħoss
u
ua
uaxactun
ubaidullah
ubbidjenza
ubijiet
ublew
uc
ud
uda
udaiz
udika
udikatura
udine
udinese
uditta
udizzjarja
udizzjarji
udizzjarju
udizzji
udizzju
udjenza
udjenzi
udo
ue
ueber
uefa
uefachampionsleague
uefaeuropaleague
uel
uf
uffic
uffizi
ufrutt
ufruttwarju
ug
uganda
ugarelli
ugo
ugwali
ugwalja
ugwaljanza
ugwalment
ugħ
ugħa
uh
uha
uhom
uk
ukoll
ukraina
ukrainian
ukrajna
ukren
ukrena
ukreni
ul
ula
ulied
uliedha
uliedhom
uliedu
ulija
ulin
ulisse
ulisses
uljanu
uljetta
ulju
ulmus
ulrich
ulrika
ulta
ultat
ultati
ultaw
ulterjuri
ultima
ultimate
ultimi
ultimo
ultra
ultras
ulugbek
uluru
um
uma
uman
umana
umani
umanista
umanisti
umanistic
umanita
umanitajiet
umanitarja
umanitarji
umaniz
umayyad
umberto
umbrella
umbria
umda
umdi
umdita
umduz
umilta
umli
umnija
umoristika
umoriz
un
una
unam
unament
unanimament
unanimu
unaw
und
under
understanding
une
uneh
unerija
unesco
unfolding
ungerija
ungeriz
ungla
uni
unic
unier
uniera
unieri
unifikat
unifikata
unifikazzjoni
uniformi
unijiet
unika
uniku
union
unione
unions
unit
unita
unitajiet
unitarja
unitarju
united
uniti
unity
univ
univers
universal
universali
universalment
universe
universidad
universita
universitaires
universitajiet
universitarja
universitarji
universitarju
universite
university
unjoni
unju
unknown
unni
uno
unone
uns
unser
unt
unta
unti
unur
unuri
unz
unzjoni
unzjonijiet
uomini
uomo
up
upanis
upload
upon
upper
uppsala
upright
ur
ura
uragan
ural
urament
uranju
uranu
urassika
urassiku
urati
urbain
urban
urbana
urbani
urbanizzazzjoni
urbanu
urbino
urdien
urdu
urew
urg
uri
uridic
uridika
uridiku
uriet
urigu
urija
urisdizzjoni
urisdizzjonijiet
urista
urja
urkett
url
urna
urnal
urnali
urnalist
urnalista
urnalisti
urnalistika
urnaliz
urnata
urni
urogale
urrieq
urss
ursula
uru
urugan
urugwaj
urugwajan
urugwajani
uruh
uruha
uruhom
us
usa
use
used
user
uses
using
uso
ussr
ust
usta
ustament
usti
ustifika
ustifikat
ustifikazzjoni
ustinjanu
ustizzja
ustizzjar
ustizzjat
ustizzjati
ustizzji
ut
uta
utah
utc
utent
utenti
utilise
utilita
utilitarji
utli
utrecht
uvintur
uvni
ux
uxmal
uz
uħ
uħud
v
va
vac
vaccinium
vacuum
vadim
vaganza
vaganzi
vagun
vakanti
val
valde
valdobbiadene
vale
valencia
valentin
valentina
valenza
valenzja
valeria
valery
valette
valida
validi
validita
validu
valla
valladolid
valle
valletta
valley
vallo
valois
valtice
value
valur
valuri
valutazzjoni
van
vanbrugh
vancouver
vandali
vandaliz
vang
vanitas
vanity
vannijiet
vantag
vapur
vapuri
var
vara
varallo
varar
varata
vardzia
varepsilon
varese
vari
variable
variation
variations
varie
variegatus
various
varja
varjabbli
varjant
varjanti
varjat
varjata
varjati
varjazzjonali
varjazzjoni
varjazzjonijiet
varjeta
varjetajiet
varji
varphi
varsavja
vasari
vasco
vaska
vaski
vaskulari
vassall
vassalli
vassallo
vast
vasta
vasti
vat
vatikan
vatnajo
vau
vauban
vaubois
vaughan
vaz
ve
vec
vecchi
vecchio
veda
vedic
vedica
vedici
vedico
vediz
veduta
veduti
veg
vega
vela
velat
velata
velati
velaw
veldhoven
velenu
velenuz
velika
vella
veloc
velu
vena
venables
venda
vendetta
venera
venerazzjoni
venere
veneti
veneto
venez
venezia
veneziano
venezja
venezjan
venezjana
venezjani
venezwela
vengono
veni
venice
venne
ventilazzjoni
venus
vera
veracruz
verament
veranda
verb
verbali
verbi
verbum
vercauteren
verdala
verde
verdett
verdi
verdun
verg
vergine
veri
verificato
verifika
verita
verlag
vermeer
vernakulari
vernic
vero
verona
veronese
veronika
vers
versa
versailles
versatili
versi
version
versione
versioni
verso
vertebrate
vertebrati
vertebri
vertic
vertical
vertikali
vertikalment
veru
very
verz
veskovat
vespri
vespucci
vestibolu
vestig
vesuvju
veteran
veterani
veterinarja
veterinarju
vetrina
vettel
vettorjali
vettur
vettura
vetturi
vez
vezja
vfb
vfl
vi
via
viaf
viaggio
vianello
vic
vicenda
vicente
vicenza
victor
victoria
victory
vida
vidal
video
vidic
vidigueira
vidjo
vidjos
vie
viejo
viene
vienna
vienne
viera
vieux
view
views
vig
vigarju
vignola
vigo
vii
viii
vijabbli
vikingi
viktor
vila
vilanova
vilel
vilhena
villa
villacan
villag
village
villarreal
ville
villeg
villes
villup
vilnius
vilupp
viluppa
viluppat
viluppata
viluppati
viluppatur
viluppaturi
viluppaw
viluppi
vinc
vince
vincent
vincenti
vincenzo
vinci
vingtain
vini
vinji
viola
viollet
virg
virgil
virgin
virginia
virtu
virtual
virtujiet
virtuoso
virtwali
virus
vis
visa
visby
visconti
viscosa
vishnu
viskju
viskonti
vista
visual
vita
vitale
vitali
vitalita
vitamina
vite
vitikultura
vito
vitorin
vitorja
vitraux
vitruvju
vittma
vittmi
vittoria
vittorio
vittoriosa
vittorja
vittorjana
vittorjani
viva
vivac
vivaldi
vivere
vivo
viz
vizzera
vizzeri
vizzeru
vizzju
vjag
vjal
vjenna
vjenniz
vjetnam
vjetnamiz
vjola
vjolenti
vjolenza
vjolin
vjolinc
vjolini
vjolinista
vka
vlaanderen
vladimir
vladislav
vlamertinge
vleg
vllaznia
vlore
vo
voce
voci
voice
vojnovic
vojt
vojta
vojvodina
vokabolarju
vokabularju
vokali
vokazzjonali
vokazzjoni
vol
volg
volleyball
volontarjat
volontarju
volpi
volpijiet
vols
volta
voltaire
volterra
volti
volum
volume
volumes
volumi
voluntier
voluntiera
volution
vom
von
voorhoof
vorlesungen
voronet
voru
voss
vot
votanti
votazzjoni
voti
vox
voyage
voyager
voyages
vries
vs
vuc
vulcan
vulcano
vulgare
vulgari
vulgaris
vulgata
vulkan
vulkani
vulkanic
vulkanika
vulkaniku
vulnerabbli
vv
vvinta
vvjag
vvota
vvutat
vvutaw
vy
vysotsky
vytautas
w
wa
waasland
wachau
wacker
wacław
wadden
wadi
wagner
wahda
wahl
wajers
wakkin
waldo
waldron
waldstein
wales
wali
walid
walker
walking
wall
wallace
wallonja
walls
walsh
walter
walters
walton
waltz
walzer
wanderers
wang
wann
wanna
wanni
want
waqa
waqaf
waqfa
waqfet
waqfien
waqfiet
waqfu
waqgħa
waqgħet
waqgħu
waqqa
waqqaf
waqqfet
waqqfu
waqt
waqtiet
war
wara
warajh
warajha
warajhom
waranofsinhar
warbler
ward
warda
wardija
waregem
warhol
warner
warrab
warren
wars
warsaw
wartburg
warwick
was
wasal
washington
wasla
waslet
waslu
wassal
wassalhom
wasslet
wasslitu
wasslu
wassluh
wat
watch
water
waterhouse
waterloo
waterpolo
waters
waterschei
watford
watja
watson
watts
wave
way
wayne
waħda
waħdieni
waħdu
waħedha
waħedhom
waħidhom
waħx
wcf
we
web
webb
weber
websajt
websajts
website
webster
wedgwood
wednesday
weg
wegħda
wegħdiet
weierstrass
weil
weimar
weinberg
weiss
wejnħa
wela
welfare
well
wellington
wells
welsh
welt
weltfussball
weltfussballarchiv
wembley
wenger
wenzu
weqfin
wer
wera
weraq
werder
were
werke
werner
werqa
werrej
werriet
werrieta
werther
wesgħin
wesley
wessa
west
western
westfalen
westminster
westwerk
wettaq
wettinger
wettqet
wettqu
weħel
weħidha
wf
what
wheeler
when
where
which
while
whip
white
whittaker
who
why
wic
wide
widien
widna
widnejn
widnet
widnica
width
wie
wied
wieg
wiegħed
wiehed
wieliczka
wiemel
wien
wienaħ
wiener
wieqaf
wieqfa
wiesa
wiesbaden
wiesgħa
wievet
wieħed
wig
wigan
wignacourt
wiki
wikibooks
wikijiet
wikijunior
wikimedia
wikipedia
wikipedija
wikisource
wikiversita
wikkiela
wild
wilde
wilderness
wildlife
wiley
wilhelm
wilhelmsho
wilkins
wilkinson
will
willandra
willem
willi
william
williams
williamson
willibald
willy
wilson
wim
wimbledon
window
windows
winds
windsor
wine
wing
winners
winston
winter
winterslag
wir
wiret
wiri
wirja
wirjiet
wirt
wirtet
wirtu
wisa
wisconsin
wisgħa
wisgħin
wisq
wissa
wistin
wita
with
within
without
witi
witta
wittew
wittiet
wiz
wk
wkoll
wlied
wo
wojtyla
wolf
wolff
wolfgang
wolfsburg
wolverhampton
wolves
woman
women
won
wonders
wood
woodstock
woolwich
word
words
work
workers
working
works
world
worldcat
worlds
worldwide
worm
worms
worth
would
wrew
wrexham
wriet
wright
write
writer
writers
writing
writings
wrocław
wroe
wu
wuerzburg
wwf
www
wz
wħud
władysław
x
xabbaturi
xabla
xadina
xadini
xaft
xaftijiet
xagħar
xagħarhom
xagħra
xagħri
xagħru
xahar
xahrejn
xama
xampanja
xandar
xandara
xandir
xandira
xandru
xaqliba
xaqlibiet
xaqq
xarabank
xarba
xatbiet
xatt
xavier
xaħam
xaħmet
xbieha
xbieki
xbiex
xbiha
xbihat
xebba
xebh
xebħ
xedaq
xedd
xefaq
xeff
xehdu
xehed
xejn
xejra
xejriet
xellug
xellugi
xellugija
xellugin
xelter
xemgħa
xemgħat
xemx
xemxija
xemxin
xena
xenarji
xenarju
xenarthra
xeneg
xeni
xenophon
xerrdu
xerred
xerrejja
xerri
xettic
xettiku
xettru
xewk
xewka
xewkija
xewqa
xewqat
xewwieki
xeħet
xeħta
xfafar
xfar
xgħajra
xhieda
xhud
xhur
xi
xibka
xico
xiehda
xieraq
xierqa
xiex
xifer
xii
xiii
ximenes
xini
xinjiang
xiri
xirka
xirkiet
xita
xitan
xitla
xitwa
xiv
xiva
xix
xiz
xiħ
xjaten
xjentific
xjentifika
xjentifikament
xjentifiku
xjentisti
xjenza
xjenzat
xjenzati
xjenzi
xjenzjati
xjuħ
xkiel
xkupilja
xlendi
xlokk
xmajjar
xmara
xml
xmun
xniegħat
xochicalco
xofftejn
xoghol
xogħlijiet
xogħlu
xogħol
xogħolha
xogħolhom
xogħolijiet
xokk
xolja
xoljiment
xolt
xolta
xolti
xorb
xorok
xorta
xorti
xorts
xotti
xprunat
xquq
xrara
xrariet
xtajta
xtaq
xtaqet
xtaqu
xtara
xterdet
xtieli
xtiewi
xtrat
xtraw
xtut
xuereb
xufier
xulxin
xutt
xuttijiet
xv
xvi
xvii
xviii
xwabel
xwieni
xx
xxandar
xxi
xxii
xxiii
xxvi
xħin
y
ya
yagul
yahoo
yale
yalta
yamuna
yan
yana
yang
yangon
yantra
yard
yasawi
yasmin
yax
yayla
ye
year
years
yeats
yellow
yen
yeni
yeongneung
yerevan
yes
yet
yi
yich
yiddish
yisrael
yo
yoga
yohl
yopaat
yorgen
york
yorkshire
yoshida
you
young
youngsters
your
youth
youths
youtube
ypres
yu
yuan
yucata
yucatan
yukawa
yuknoom
yunnan
yuri
yves
z
za
zacatecas
zagreb
zahra
zambezi
zamenhof
zammit
zamos
zanne
zar
zaragoza
zarina
zaza
ze
zealand
zeebrugge
zeit
zeitschrift
zekka
zelay
zelenskyy
zelter
zenit
zeno
zerafa
zeta
zewg
zgħar
zgħira
zhang
zhodino
zico
zidane
zijiet
ziju
zijuh
zil
zinedine
zitti
zkuk
zmien
zminijiet
zofia
zokk
zokkor
zola
zollverein
zona
zond
zone
zoni
zoo
zoology
zoran
zquez
zu
zulte
zum
zuntier
zur
zurich
{
|
}
~

¡
£
§
ª
«
¬
­
®
°
±
²
´
·
º
»
½
×
÷
þingvellir
đ
ħ
ħa
ħabat
ħabb
ħabba
ħabbar
ħabbret
ħabbru
ħabel
ħabib
ħabiba
ħabibu
ħabitat
ħabitats
ħabs
ħabsin
ħabta
ħad
ħadd
ħaddan
ħaddiem
ħaddiema
ħaddieħor
ħadem
ħadet
ħadha
ħadid
ħaditu
ħaditx
ħadlu
ħadmet
ħadmu
ħadna
ħadra
ħadrani
ħadt
ħadu
ħaduh
ħaduha
ħadux
ħafif
ħafifa
ħafna
ħag
ħaiti
ħaj
ħajja
ħajjar
ħajjat
ħajjata
ħajjet
ħajjiet
ħajjin
ħajjitha
ħajjithom
ħajr
ħajru
ħajt
ħajta
ħajti
ħajtu
ħakem
ħakkiem
ħakkiema
ħakma
ħakmet
ħakmiet
ħakmu
ħal
ħalaq
ħalib
ħalla
ħallas
ħallelin
ħallew
ħallewh
ħalli
ħallieh
ħallieq
ħallieqa
ħalliet
ħallietu
ħalliha
ħallsu
ħalq
ħalqu
ħama
ħames
ħamest
ħami
ħamiem
ħamiema
ħamis
ħamra
ħamrani
ħamrija
ħamrun
ħamsa
ħamsin
ħamsinijiet
ħandaq
ħanin
ħanina
ħanut
ħanz
ħaqq
ħarab
ħarba
ħarbet
ħarbu
ħareg
ħares
ħarg
ħarifa
ħarig
ħarir
ħarira
ħarrub
ħarsa
ħarsien
ħarsu
ħarta
ħaruf
ħarxa
ħasbet
ħasbu
ħaseb
ħasil
ħass
ħassar
ħassejt
ħasset
ħassew
ħassieb
ħassieba
ħassu
ħatab
ħataf
ħatar
ħatfu
ħati
ħatja
ħatra
ħatret
ħatriet
ħatru
ħax
ħaxix
ħaxixa
ħaz
ħbiberija
ħbieb
ħbiebu
ħbula
ħdan
ħdanha
ħdanu
ħdax
ħdejh
ħdejha
ħdejn
ħdura
ħeffa
ħeg
ħejja
ħela
ħeles
ħelikopter
ħelikopters
ħelisha
ħelsien
ħelsinki
ħelu
ħelwa
ħerba
ħerg
ħerqa
ħerqan
ħerqana
ħerz
ħerzegovina
ħesrem
ħfief
ħg
ħidma
ħidmiet
ħidmietu
ħieles
ħielsa
ħiereg
ħierg
ħila
ħiliet
ħiltu
ħin
ħindi
ħindu
ħinduiz
ħinduwin
ħinijiet
ħinu
ħitan
ħjata
ħjiel
ħlas
ħlasijiet
ħlejjaq
ħlejqa
ħlejqiet
ħlewwa
ħlief
ħmar
ħmieg
ħmir
ħmira
ħmistax
ħnejja
ħnejjiet
ħniedaq
ħniena
ħniez
ħobbejz
ħobz
ħodor
ħofor
ħofra
ħoki
ħolm
ħolma
ħoloq
ħolqa
ħolqien
ħolqot
ħolqu
ħomor
ħondoq
ħonduras
ħong
ħorox
ħoss
ħoxna
ħoxnin
ħrafa
ħrejjef
ħrug
ħruq
ħruxija
ħs
ħsad
ħsara
ħsarat
ħsejjes
ħsibijiet
ħsieb
ħsiebha
ħsiebu
ħtieg
ħtif
ħtig
ħtija
ħu
ħud
ħuda
ħug
ħuh
ħuha
ħut
ħuta
ħutha
ħutu
ħwawar
ħwejjeg
ħwienet
ħxejjex
ħxuna
ħz
ı
œuvres
ȝ
ɐ
ɑ
ə
ɛ
ɪ
ʃ
ʰ
ʲ
ʹ
ʻ
ʼ
ʾ
ʿ
ˁ
ˈ
ˌ
ː
ˑ
ˠ
̀
́
̂
̃
̄
̆
̇
̈
̉
̊
̋
̌
̓
̔
̛
̣
̥
̦
̧
̨
̩
̪
̮
̯
̱
̸
͂
ͅ
͡
α
β
γ
δ
ε
η
θ
ι
και
λ
μ
ν
ξ
ο
π
ρ
ς
σ
τ
της
το
του
υ
φ
χ
ω
а
в
г
д
для
е
з
и
к
л
м
н
на
не
о
п
р
с
т
та
у
украі
ф
фк
х
ц
ч
ъ
ь
ю
я
і
ћ
ҥ
ְ
ִ
ֵ
ֶ
ַ
ָ
ֹ
ּ
ׁ
א
ב
ד
ח
י
ך
ל
ע
פ
ק
ר
ש
ת
،
ا
ب
بن
ة
ت
ح
د
ر
س
ع
ق
ك
ل
م
ن
ه
و
ي
َ
ُ
ِ
ّ
ْ
ٓ
ٔ
ٕ
ं
ः
क
ख
ग
ज
ट
ड
ण
त
तरम
थ
द
ध
न
प
फ
ब
भ
म
य
र
ल
व
श
ष
स
ह
ा
ि
ी
ु
ू
े
ै
ो
्
॥
ং
ক
জ
ট
ণ
ত
তরম
দ
ন
প
ব
ভ
ম
য
র
ল
শ
ষ
স
হ
়
া
ি
ী
ু
ৃ
ে
ৈ
্
ဂ
ပ
ီ
ု
္
ត
្
​
‌
‎
‏
‐
‑
–
—
―
‘
’
‚
“
”
„
†
‡
•
…
′
″
‿
⁄
€
№
←
↑
→
↓
↔
↷
−
≥
③
④
⑦
│
▲
♭
♯
⟩
ⴰ
ⵜ
⺀
⺄
⺆
⺈
⺊
⺌
⺕
⺝
⺸
⺼
⿰
⿱
⿲
⿳
⿴
⿵
⿶
⿷
⿸
⿹
⿺
⿻
〢
い
か
し
す
た
な
に
の
ふ
を
゙
゚
ア
ィ
イ
ウ
キ
ク
コ
ス
タ
チ
テ
ト
ナ
ハ
フ
ュ
ユ
ラ
リ
ル
ロ
ン
・
ー
㇁
㇂
㇄
㇇
㇈
㇉
㇓
㐁
㐄
㐅
㐌
㐫
㐬
㐭
㐮
㐱
㑒
㒵
㒸
㒼
㓁
㓞
㔾
㕛
㕣
㖾
㘝
㚅
㚇
㚔
㚘
㝉
㝡
㝴
㝵
㞋
㞢
㞷
㠩
㠭
㠯
㡀
㡭
㡿
㢲
㢴
㣇
㣺
㥯
㪅
㫄
㫐
㫒
㫺
㬅
㬎
㬥
㬰
㲋
㳄
㷠
㸒
㸚
㸦
㼌
㼲
㽞
㿟
䀠
䂞
䍃
䏍
䒑
䖍
䖒
䖝
䖵
䙴
䚻
䜌
䝿
䡛
䧹
䪞
一
丁
丂
七
丄
丅
丆
万
丈
三
上
下
丌
不
与
丏
丐
丑
专
且
丕
世
丘
丙
业
东
丞
丢
丣
两
严
並
丨
丩
个
丫
丬
中
丮
丰
丱
串
丵
丶
丷
丸
丹
为
主
丽
丿
乀
乂
乃
久
乆
乇
么
义
之
乌
乍
乎
乏
乐
乑
乔
乖
乗
乘
乙
乚
乛
乜
九
乞
也
习
乡
乳
乾
亀
亅
了
亇
予
争
事
二
亍
于
亏
亐
云
互
亓
五
井
亘
亚
亜
亞
亟
亠
亡
亢
交
亥
亦
产
亨
亩
享
京
亭
亮
亯
亰
亲
亳
亶
亷
人
亻
亼
亾
仁
今
介
仌
从
仐
仑
仒
仓
仕
他
付
仝
代
令
以
任
企
伊
伏
伐
休
会
伯
但
位
何
佘
余
佛
作
佥
使
來
侈
侌
侖
侯
侵
便
保
俞
信
修
倉
倍
候
倠
偏
備
储
僉
僕
儿
兀
允
兂
元
兄
充
兆
兇
先
光
兊
克
兌
免
兑
兒
兓
兔
党
兜
兟
入
內
全
兩
兪
八
公
六
兮
兰
共
关
兵
其
具
典
兹
养
兼
冀
冂
冃
冄
内
冈
冉
冊
冋
册
再
冎
冏
冐
冒
冓
冖
冗
冘
军
农
冝
冡
冥
冫
冬
冷
几
凡
凢
凵
凶
凷
凸
凹
出
函
凾
刀
刁
刂
刃
刄
刅
分
切
刍
刑
刕
刖
列
刘
则
初
別
利
别
到
制
刺
則
削
剌
前
剡
剽
劉
力
功
加
劦
助
劫
劳
劵
勃
勇
勉
勒
動
務
勞
勤
勹
勺
勻
勾
勿
匀
匂
包
匆
匈
匊
匋
匍
匕
化
北
匚
匝
匡
匪
匱
匸
匹
区
医
匽
匿
區
十
卂
千
卄
卅
卆
升
午
卉
半
卌
华
卑
卒
卓
单
卖
南
卜
卝
卞
占
卡
卢
卣
卤
卦
卩
卪
卬
卯
印
危
即
却
卵
卷
卸
卻
厂
厃
厄
历
厈
厉
厌
厓
厘
厚
原
厤
厥
厨
厭
厲
厶
厷
厸
去
厼
厽
叀
参
參
叅
又
叉
及
友
双
反
叐
发
叒
叔
叕
取
受
叚
叜
叟
口
古
句
另
叩
只
召
可
台
叱
史
右
叵
号
司
叹
吂
各
吅
合
吉
吊
吋
同
名
后
吏
向
吕
君
吝
吞
否
含
启
吳
吴
吹
吾
呂
呆
呈
告
员
呙
周
命
咅
和
咎
咠
咢
咨
咸
咼
哀
品
哉
員
哥
哲
唐
商
啇
問
啚
啬
啻
善
喜
喬
單
喿
嗇
噩
嚴
囊
囗
囘
囙
囚
四
回
囟
因
囧
囬
园
困
囱
囷
固
国
圂
圅
國
圍
園
圓
圖
土
圡
圣
圥
在
圭
地
圶
圼
址
坐
坒
坚
坤
坴
垂
垔
垚
埀
埋
城
埶
執
基
堂
堅
堆
堇
堯
報
塔
塞
墨
壇
壘
士
壬
壯
声
壳
壴
壹
壺
壽
夂
处
夅
夆
备
夊
夋
夌
复
夏
夒
夕
外
夗
夘
多
夜
夢
大
夨
天
太
夫
夬
夭
央
失
夲
头
夷
夸
夹
夻
夾
奂
奄
奇
奈
奉
奎
奏
奐
契
奓
奔
奚
奞
奠
奢
奥
奭
女
奴
奻
好
如
妄
妙
妟
妥
妮
妻
妾
姑
委
姜
威
娄
婁
婴
嬰
嬴
子
孑
孔
孕
孖
字
存
孚
孛
孝
孟
季
孤
学
孫
孱
學
宀
宁
宂
它
宅
宇
守
安
宋
完
宏
宓
宗
官
定
宛
宜
宝
客
宣
室
宫
宮
宰
害
家
容
宾
宿
寄
寅
密
富
寒
察
寧
審
寫
寬
寮
寸
对
寺
寻
寽
対
寿
封
尃
射
将
將
專
尉
尊
尋
尌
對
小
少
尒
尓
尔
尖
尗
尚
尞
尢
尣
尤
尧
尨
尭
就
尸
尹
尺
尻
尼
尽
尾
尿
局
居
屈
屋
屎
屏
屑
展
屖
屚
属
屠
屡
屬
屮
屯
屰
山
屵
屾
岁
岂
岑
岡
岩
岳
岸
峯
島
崇
崑
崔
崖
崙
崩
嵬
嶲
巂
巛
川
州
巟
巠
巢
巤
工
左
巧
巨
巩
巫
差
己
已
巳
巴
巷
巸
巽
巾
巿
帀
市
布
希
帚
帛
帝
带
師
席
帶
常
干
平
年
幵
并
幷
幸
幺
幻
幼
幽
幾
广
広
庄
床
底
店
庚
府
度
庫
庭
庶
康
庸
廉
廊
廌
廛
廟
廣
廩
廴
延
廷
建
廾
廿
开
弁
弃
弄
弇
弋
式
弓
弔
引
弗
弘
弜
弟
弥
弦
弱
張
強
强
彊
彌
彎
彐
彑
当
彔
录
彖
彗
彡
形
彥
彦
彧
彭
彳
役
彼
往
待
律
徒
得
徙
從
復
微
徵
德
心
忄
必
忌
忍
志
忝
忠
忩
快
念
忽
忿
思
怠
急
怱
恆
恒
恩
恭
息
悉
患
悤
悲
悶
惠
惡
惢
愁
愈
意
愛
感
慈
慧
慮
憂
憲
應
戀
戈
戉
戊
戋
戌
戍
戎
成
我
戒
戔
或
戚
戠
戢
截
戲
戶
户
戹
戼
戾
房
所
扁
扇
手
扌
才
打
托
执
承
折
拉
拜
拿
掌
排
推
提
摩
支
攴
攵
收
攸
改
放
政
敄
故
敏
敕
敖
敗
敝
敞
敢
散
敦
敫
敬
数
敷
數
斂
文
斉
斊
斗
斤
斥
斩
斬
斯
新
方
於
施
斿
旁
旋
族
无
旡
既
旣
日
旦
旧
旨
早
旬
旱
旲
时
旾
昆
昇
昌
昍
明
昏
易
昔
昗
昜
星
春
昬
是
昱
昴
昷
時
晃
晋
晏
普
景
晶
智
暑
暴
曇
曩
曰
曲
曳
更
曷
書
曹
曼
曾
替
最
朁
會
月
有
朋
服
朔
朕
朗
望
朝
木
朩
未
末
本
札
朮
术
朱
朵
朶
朿
杀
杏
材
村
杜
束
条
来
東
杲
杳
松
极
析
林
枚
果
枝
枲
枼
某
柔
查
柬
柰
柳
柴
栗
根
桀
桑
桥
桼
梁
條
梟
梨
棘
棠
棥
森
楚
業
楼
楽
榮
樂
樊
樓
樹
橋
櫓
欠
次
欢
欣
欮
欲
欶
欽
款
歆
歇
歛
止
正
此
步
武
歨
歪
歮
歯
歰
歲
歴
歷
歸
歹
歺
死
殳
段
殷
殸
殹
殺
殻
殿
毋
毌
母
每
毒
比
毕
毚
毛
毳
氏
氐
民
气
氣
水
氵
氶
氷
永
氺
氾
求
汝
汞
江
沃
沓
沙
沝
泉
法
波
泣
泥
泰
洛
洪
洲
活
派
流
浦
浪
浮
海
涵
淡
淮
清
渚
渠
游
湖
湯
滿
漸
瀛
火
灬
灭
灰
灵
灷
炅
炎
炏
炗
炙
炭
為
烈
烏
烝
焉
無
焦
焱
然
煞
熊
熏
燕
營
燮
爪
爫
爭
爯
爰
爱
爲
爵
父
爻
爽
爾
爿
片
牙
牚
牛
牜
牟
牢
牧
牪
牽
犀
犬
犭
犮
狂
狄
狊
独
狺
猋
猒
猪
献
獻
玄
率
玉
王
玟
玨
珎
班
琉
琴
瑟
瑩
璃
瓜
瓦
甘
甚
生
産
用
甫
甬
田
由
甲
申
电
甶
男
甸
甹
画
甾
畀
界
畏
畐
留
畜
畟
畢
畧
畨
番
畫
異
畱
當
畺
畾
疊
疋
疌
疑
疒
疾
癶
癸
癹
登
發
白
百
皀
皃
的
皆
皇
皋
皐
皕
皮
皷
皿
盃
盆
盇
盈
益
盍
盎
监
盒
盖
盛
盡
監
盤
盧
目
直
相
盾
省
眇
眉
看
眔
眞
真
眷
眼
眾
着
睘
睪
睿
瞏
瞢
瞿
矍
矛
矞
矢
矣
知
矦
短
石
破
碎
碑
磊
磨
示
礻
礼
社
神
祟
票
祭
禀
禁
福
禧
禸
禹
禺
离
禽
禾
禿
秀
秃
秉
秋
科
秝
秦
移
稟
穀
穌
穴
究
穹
空
穿
突
窄
窒
立
竒
竜
竝
竟
章
童
端
竹
笑
笠
筆
等
答
箕
算
箴
節
篤
篭
米
粉
粛
粟
粤
粦
粲
粹
糞
糸
糹
系
約
納
素
索
紫
累
細
絜
絫
絲
維
綿
編
縣
繇
纍
纟
缶
网
罒
罔
罕
罗
罙
罡
罢
罪
署
罷
羅
羊
羌
羍
美
羔
羕
羗
羞
羡
羣
群
義
羲
羸
羽
翁
翊
翏
習
翕
翟
翠
翼
老
耂
考
者
耆
而
耎
耑
耒
耕
耳
耴
耶
耷
聂
聊
聖
聚
聶
聿
肀
肃
肅
肉
肖
肙
肥
肩
肯
育
肴
胃
背
胡
胥
能
脊
脩
腰
膚
臣
臤
臧
自
臬
臭
臯
臱
至
致
臺
臼
臽
臾
臿
舀
舂
舄
與
興
舉
舌
舍
舛
舜
舞
舟
般
艮
良
色
艸
艹
艾
芒
芔
芬
芮
花
芳
芸
芺
芻
苑
苔
苗
苟
若
苦
英
茶
茸
荅
草
荒
荣
荼
莆
莧
莫
莽
菆
菊
菐
華
菱
萬
落
葉
著
葛
董
葵
蒙
蒦
蒼
蓋
蓬
蓺
蔑
蔡
蕉
蕭
薄
薛
薦
薰
藍
藏
藤
藥
蘭
虍
虎
虐
虒
虔
處
虖
虗
虘
虚
虛
虜
虞
虫
虽
蚤
蚩
蜀
蜜
蟲
蠡
血
行
衍
街
衛
衣
衤
表
衮
衰
袁
袞
褭
褱
襄
襾
西
覀
要
覃
見
規
覓
覧
親
覽
见
角
解
言
訁
訇
計
話
詹
語
誩
諸
讠
话
语
谷
豆
豈
豊
豐
豕
豖
豙
象
豦
豩
豪
豳
豸
貇
貝
貞
貟
負
貢
貧
貪
貫
責
貳
貴
買
費
賁
資
賈
賏
賓
賔
賛
賞
賢
賣
質
賴
贊
贝
贡
责
贯
贲
贵
赖
赞
赤
赦
走
越
趣
足
路
蹇
身
躬
車
軍
軎
軟
輦
车
辛
辜
辟
辥
辰
辱
農
辵
辶
边
达
过
迎
近
连
迷
追
退
送
逆
逐
途
通
速
造
逢
連
逮
進
遀
遂
過
道
達
遗
遣
適
遷
遺
邊
邑
邕
那
邦
邪
郎
部
郭
都
鄉
酉
酋
配
酓
釆
采
里
重
野
量
金
釒
銅
錢
钅
铜
锺
長
镸
长
門
閃
閉
開
閏
閑
閒
間
閔
閣
閵
閻
闌
门
间
闷
阁
阑
阜
阝
阳
阿
降
院
陳
陵
隆
隊
隋
隡
隨
隱
隶
隹
隺
隻
隼
隽
难
雀
雁
集
雈
雋
雍
雐
雔
雙
雚
雜
雝
離
難
雨
雩
雪
雲
零
雷
需
霍
霜
霝
霞
霸
靈
靑
青
非
靡
面
靣
革
韋
韦
韭
韯
韱
音
頁
頃
項
須
頗
頡
頤
頻
顛
页
風
风
飛
飞
食
飠
養
館
饕
饣
馆
首
香
馬
馮
駦
马
骨
高
髟
鬥
鬯
鬲
鬼
魚
魯
鮮
鱼
鲁
鳥
鳳
鸟
鹵
鹿
麃
麗
麥
麦
麻
黃
黄
黍
黎
黑
黒
黨
黹
黽
黾
鼎
鼓
鼠
鼻
齊
齋
齐
齒
齿
龍
龙
龜
龟
龠
龰
龱
龴
龵
龶
龷
龸
龹
ꜣ
者
艹
︠
︡
﻿
，
？
𐭕
𒊭
𠀁
𠀃
𠀆
𠀉
𠀎
𠀐
𠁁
𠁣
𠂆
𠂇
𠂈
𠂉
𠂊
𠂋
𠂎
𠂒
𠂔
𠂛
𠂡
𠂢
𠂤
𠂬
𠂭
𠂹
𠃊
𠃋
𠃌
𠃍
𠃎
𠃑
𠃓
𠃔
𠃜
𠄌
𠄎
𠄠
𠄢
𠆢
𠆥
𠇍
𠈌
𠌵
𠓜
𠔉
𠔥
𠔼
𠔽
𠔿
𠕀
𠕁
𠕋
𠘧
𠘨
𠙻
𠙼
𠚏
𠚒
𠚤
𠚪
𠣏
𠤎
𠤕
𠥓
𠦄
𠦑
𠦝
𠧒
𠧗
𠧪
𠩺
𠪚
𠫓
𠫔
𠫤
𠬛
𠬝
𠬞
𠬢
𠬤
𠬶
𠮛
𠮦
𠮷
𠯑
𠱠
𠳮
𠷎
𡈼
𡉀
𡉵
𡌥
𡍮
𡏳
𡕒
𡕩
𡕰
𡖅
𡗗
𡗜
𡘆
𡘤
𡧱
𡨄
𡩧
𡬠
𡭽
𡰣
𡰥
𡰪
𡰯
𡰱
𡷈
𡸁
𡿨
𡿩
𡿪
𡿺
𢀖
𢀛
𢀩
𢁙
𢆉
𢆰
𢆶
𢇁
𢇇
𢉖
𢌬
𢌿
𢏚
𢑑
𢑚
𢖻
𢙣
𢛳
𢦏
𢦒
𢧵
𢼄
𢾕
𣁋
𣄼
𣅀
𣅽
𣍘
𣎳
𣎵
𣏋
𣏼
𣗥
𣥂
𣥖
𣦵
𣦼
𣧄
𣪊
𣪠
𣬉
𣳾
𣶒
𤇾
𤊽
𤐫
𤓰
𤔔
𤕨
𤣩
𤰇
𤰔
𤰞
𤴓
𤴔
𤽄
𥁑
𥁕
𥃦
𥃩
𥃭
𥇡
𥑟
𥘅
𥘈
𥝢
𥫗
𥱡
𦈢
𦉪
𦉬
𦉼
𦍌
𦍒
𦎧
𦐇
𦓔
𦔮
𦘒
𦙃
𦚏
𦣝
𦣞
𦣻
𦥑
𦥔
𦥯
𦨉
𦭝
𦰩
𧆞
𧈧
𧘇
𧰨
𧴪
𧴮
𧵩
𧾷
𨸏
𨾴
𩙿
𩠐
𩫏
𩵋
𪉷
𪜀
𪟽
𪠲
𪩲
𫇦
𫔭
𫜸
𫝀
𫠣
𫠩
𫢉
𫥞
𫩏
𫩠
𫪡
𫲽
𫶧
𬀷
𬐘
𬗌
𬙙
𬛸
𬜯
𬟩
𬯁
𬴘
𬺻
𬼉
𬼖
𭀰
𭁈
𭁨
𭅰
𭑈
𭕄
𭗼
𭤨
𭥫
𭻾
𮅕
𮊿
𮍌
𮍏
𮓗
𮥼
𮧮
廾
𰀁
𰀄
𰀈
𰀉
𰀕
𰀠
𰀡
𰀢
𰀪
𰁜
𰃮
𰆊
𰆘
𰋙
𰕎
𰢴
𰧭
𰯲
00--
01--
02--
03--
04--
05--
06--
07--
08--
09--
50--
56--
57--
60--
63--
70--
71--
72--
74--
76--
78--
79--
80--
81--
82--
83--
84--
85--
86--
87--
88--
89--
90--
91--
92--
93--
94--
95--
978--
97805--
97808--
98--
99--
a--
aa--
ab--
abbil--
abbona--
abbrev--
abd--
abi--
abiss--
abov--
abstr--
ac--
accid--
accom--
acera--
ach--
acqui--
acro--
act--
ad--
ada--
add--
ade--
ado--
adoloxx--
adven--
ae--
aegy--
aest--
af--
affet--
ag--
agglomerazz--
agos--
agre--
agri--
agu--
agħ--
ah--
ai--
air--
ais--
aj--
ak--
aka--
akem--
akka--
akku--
akkw--
akw--
akwar--
al--
ala--
albi--
aleman--
alg--
ali--
all--
allo--
almo--
als--
alt--
alte--
altip--
alve--
am--
ambr--
ambros--
ame--
ami--
amm--
an--
ana--
analy--
anark--
anato--
anc--
and--
aned--
ang--
ani--
ankr--
anni--
annotazz--
ans--
ant--
antag--
ante--
anth--
anti--
antrop--
aph--
api--
apl--
apo--
app--
appren--
appro--
apu--
aq--
aqu--
aqua--
ar--
ara--
aral--
arbit--
arc--
arch--
archa--
archi--
ard--
are--
arg--
argyro--
ari--
ark--
armon--
arn--
arr--
arrog--
ars--
art--
arti--
as--
ascle--
ash--
asim--
asimet--
asp--
ass--
assem--
assor--
assum--
ast--
astr--
at--
ata--
atla--
atmos--
att--
attribuzz--
au--
aure--
aus--
auto--
av--
ava--
ave--
avul--
avve--
avvul--
aw--
awdit--
awsk--
awto--
awtomat--
ax--
axx--
axxend--
ay--
ayas--
az--
aħ--
aħħ--
b--
ba--
babil--
bac--
bad--
bag--
bagat--
bah--
bai--
baj--
bak--
bal--
ball--
ban--
bank--
baq--
baqg--
bar--
bart--
barum--
bas--
bash--
bass--
bat--
batter--
bay--
baħħ--
bb--
bbum--
bc--
bd--
be--
beat--
beau--
becc--
bed--
beg--
bei--
bek--
bel--
belg--
ben--
ber--
berg--
bern--
bert--
bes--
bet--
bez--
bha--
bi--
bibb--
biblio--
bid--
big--
bijo--
bil--
bin--
bio--
bir--
bis--
bit--
bitum--
biz--
bl--
bla--
blan--
blu--
bly--
bo--
boc--
bog--
boj--
bok--
bol--
bom--
bombard--
bon--
bona--
boo--
bor--
borov--
bos--
bot--
bou--
bour--
bov--
bow--
br--
bra--
brah--
bran--
brass--
bre--
break--
bri--
brig--
britt--
bro--
broad--
broc--
brock--
brow--
bru--
bry--
bu--
bug--
buk--
bul--
bun--
bunem--
bur--
burck--
bus--
by--
byzan--
bz--
c--
ca--
caer--
cag--
cal--
calam--
call--
camb--
can--
canad--
cap--
car--
carac--
casa--
cass--
cast--
cat--
cate--
catto--
caval--
ce--
cel--
cele--
cen--
cer--
certa--
cerv--
ces--
cet--
cey--
ch--
cha--
chamb--
char--
charact--
charm--
che--
chi--
chin--
cho--
chron--
chry--
chu--
ci--
cim--
cin--
cine--
cis--
cit--
citiz--
ck--
cl--
cla--
cle--
cli--
co--
cocc--
cog--
col--
com--
compl--
compo--
con--
condo--
conna--
conse--
const--
coor--
cor--
cord--
core--
corn--
correspond--
corri--
corrispon--
cors--
corv--
cos--
cot--
cou--
coul--
cout--
cow--
cra--
cran--
cras--
cre--
cri--
crist--
cro--
cru--
crus--
cs--
cu--
cum--
cup--
cur--
cy--
d--
da--
dah--
dal--
dam--
dan--
dar--
dau--
daw--
daħ--
dd--
ddaħħ--
dde--
ddeskr--
ddeter--
de--
dec--
decis--
deg--
deh--
dei--
dek--
del--
dem--
demet--
democ--
den--
deo--
der--
derorhyn--
des--
det--
detr--
dev--
deva--
devoz--
dew--
dg--
di--
dia--
dic--
did--
die--
diff--
differ--
dig--
dija--
dijo--
dijos--
dil--
dimen--
dimensj--
din--
dio--
dir--
dis--
disco--
diss--
dissemi--
distill--
dive--
diver--
dj--
djag--
dm--
do--
doctr--
dog--
dol--
doll--
dom--
don--
dopp--
dor--
dorm--
dow--
dr--
dra--
dro--
dry--
dt--
du--
duc--
dun--
dur--
dus--
dut--
dy--
dyna--
dz--
e--
ea--
eb--
ec--
eccle--
eco--
ed--
edi--
edo--
edu--
eff--
eg--
ego--
egħ--
eh--
eich--
eis--
eisenb--
eit--
ej--
ek--
ekgmowechash--
eks--
ekum--
ekw--
el--
elas--
elat--
eldr--
ele--
elect--
elett--
elettro--
eli--
elle--
elo--
em--
ema--
embri--
emi--
empi--
en--
enc--
end--
endo--
ene--
enfa--
eng--
eni--
enig--
enn--
ens--
ent--
enterp--
enz--
eo--
eode--
ep--
ephe--
epig--
episo--
epist--
equi--
er--
erc--
ero--
erp--
ery--
eryth--
es--
esc--
esebi--
eseg--
esej--
esi--
esibizz--
esper--
espo--
esponenz--
esposiz--
ess--
est--
et--
eta--
etero--
ethno--
etno--
eto--
ett--
ety--
eu--
euph--
eur--
euro--
eus--
ev--
eval--
ever--
evi--
ew--
ewk--
ewro--
ews--
ex--
expe--
exper--
expl--
exten--
ey--
ez--
ezz--
f--
fa--
fabr--
fac--
fah--
fair--
fak--
fal--
falsifikazz--
fan--
fantas--
fantax--
far--
fass--
fau--
fav--
faħ--
faħħ--
fe--
fede--
fej--
fel--
feld--
femm--
fen--
feno--
feo--
fer--
ferm--
fes--
feu--
ff--
ffjo--
ffor--
fi--
fia--
fic--
fig--
figh--
fil--
filantrop--
filat--
fill--
filo--
fin--
finz--
fir--
fire--
fis--
fit--
fitz--
fja--
fl--
flag--
flav--
fle--
flo--
floren--
flori--
flu--
flum--
fluw--
fo--
fog--
fol--
fonct--
for--
forn--
foto--
fou--
fr--
fra--
frag--
frat--
fre--
frejg--
front--
frut--
ft--
fu--
ful--
fund--
funz--
fur--
furn--
fusi--
g--
ga--
gabb--
gaj--
gal--
gand--
gang--
gar--
gard--
gas--
gaw--
gaz--
ge--
gej--
gen--
gene--
geogra--
ger--
gesell--
get--
gey--
gga--
ghal--
ghe--
ghi--
gho--
gi--
gia--
giamp--
gian--
giard--
gil--
gir--
gla--
gladj--
glas--
gli--
glo--
glos--
glu--
go--
god--
gold--
gor--
gov--
goz--
gr--
gra--
gre--
grie--
grif--
grin--
gris--
gro--
groeberi--
groß--
gru--
gu--
gue--
guer--
gul--
gun--
gur--
gver--
gwa--
gwer--
gy--
gye--
gyeong--
għ--
għa--
għaj--
għam--
għaw--
għej--
għo--
h--
ha--
habb--
haci--
had--
haj--
hal--
halit--
ham--
han--
har--
harm--
hart--
has--
hat--
hay--
haz--
he--
hel--
hen--
her--
het--
hew--
hey--
hi--
high--
hil--
hilde--
him--
hin--
hipp--
his--
hl--
ho--
hoch--
hof--
hog--
hol--
holz--
hom--
hon--
hor--
horiz--
hors--
how--
html--
hu--
hui--
humph--
hund--
hung--
hur--
hus--
huss--
hut--
hy--
hybr--
hydro--
hyo--
hyper--
hypothe--
i--
ia--
ib--
ibbumbard--
ic--
ice--
id--
ida--
idde--
iddeskr--
iddis--
ideog--
idro--
ie--
if--
iffavo--
ig--
igno--
ih--
ik--
ikkal--
ikko--
ikkomb--
ikkomp--
ikkon--
ikkr--
ikkump--
ikkun--
ikkup--
ikonog--
il--
ili--
ilind--
ill--
illi--
illos--
illust--
ilu--
im--
imag--
imb--
imbut--
imi--
imne--
impen--
impl--
imprendit--
impu--
imqa--
imse--
imta--
imwaħ--
imx--
imħa--
in--
ina--
inaw--
inc--
incor--
incre--
indepen--
indi--
indipen--
individ--
indo--
ine--
inemato--
infe--
infet--
infl--
info--
infra--
infu--
ing--
ini--
initi--
iniz--
injezz--
ink--
inka--
inklin--
inkw--
innamo--
inse--
inseg--
int--
inte--
intens--
intenz--
inter--
into--
intra--
intratten--
introduz--
inugwal--
inva--
inve--
inven--
invest--
inz--
inħ--
io--
ip--
iper--
ipo--
ipote--
ipper--
ippre--
ippres--
ippro--
ipproj--
ippropo--
ipprov--
iq--
iqa--
ir--
irbat--
ire--
irko--
irne--
iron--
irra--
irrakko--
irre--
irred--
irri--
irrib--
is--
isejħ--
isfil--
isk--
iskoj--
islazz--
iso--
ispan--
isper--
ispet--
isq--
iss--
issep--
issos--
ist--
it--
ita--
ite--
iti--
itine--
itt--
ittra--
ittras--
iu--
iv--
iw--
ix--
ixx--
iz--
iħ--
iħa--
j--
ja--
jac--
jadd--
jaf--
jag--
jah--
jai--
jakku--
jal--
jan--
jaq--
jar--
jas--
jass--
jaħ--
jdaw--
je--
jen--
jeong--
jer--
jes--
jesk--
jesper--
jez--
jeħ--
jg--
jgħ--
jgħa--
jhe--
ji--
jibb--
jibbum--
jid--
jidd--
jiff--
jiffavo--
jiffor--
jift--
jig--
jik--
jikko--
jikkomb--
jikkomp--
jikkon--
jikkr--
jikkumb--
jikkun--
jill--
jillib--
jim--
jimpl--
jin--
jinft--
jing--
jint--
jinte--
jipp--
jippers--
jippres--
jipprev--
jir--
jirra--
jirre--
jirri--
jirrin--
jirring--
jis--
jisk--
jisp--
jispek--
jiss--
jist--
jit--
jitb--
jitg--
jitqa--
jitħ--
jivv--
jix--
jixx--
jiħ--
jl--
jm--
jo--
jok--
jon--
jos--
joter--
joħod--
jqa--
jqegħ--
jr--
js--
ju--
jun--
jupi--
jut--
jx--
jz--
jħ--
jħa--
k--
ka--
kai--
kaj--
kak--
kal--
kala--
kall--
kalo--
kam--
kan--
kanna--
kap--
kapit--
kar--
kara--
karbon--
kard--
karika--
kark--
karn--
karo--
karto--
kas--
kat--
kata--
katha--
kathe--
kato--
kaw--
kax--
kaz--
ke--
kej--
kel--
kelm--
ken--
ker--
key--
kh--
kha--
khal--
kho--
khu--
ki--
kik--
kil--
kim--
kins--
kir--
kis--
kit--
kix--
kje--
kko--
kkomb--
kkommemo--
kkomp--
kkon--
kkr--
kkump--
kkun--
kkup--
kla--
klad--
klan--
kle--
klo--
km--
ko--
kodifikazz--
kok--
kol--
kollabor--
kollok--
kolo--
komb--
komm--
komp--
kompil--
komporta--
kon--
konjugazz--
kont--
kontro--
koordin--
koper--
kor--
kos--
kost--
koħ--
kr--
kras--
krasno--
kre--
krej--
kris--
kru--
ks--
ku--
kul--
kump--
kun--
kunst--
kur--
kurs--
kut--
kuz--
kv--
kw--
ky--
l--
la--
lab--
lac--
lag--
lam--
lan--
land--
lang--
lapp--
laq--
laqq--
lar--
las--
lat--
latif--
laur--
lauri--
lav--
law--
lay--
laz--
laħ--
le--
leg--
lei--
len--
leo--
leon--
lept--
les--
lessiko--
let--
leuc--
lev--
lexi--
lexico--
ley--
leħ--
li--
lib--
lic--
lich--
lie--
lig--
liga--
ligu--
likw--
lil--
lim--
lin--
lind--
lis--
lit--
lite--
lito--
ll--
lle--
llib--
lm--
ln--
lo--
lock--
lodi--
log--
lomb--
lon--
long--
lou--
low--
lt--
lu--
luc--
lud--
luft--
luz--
ly--
lys--
m--
ma--
mac--
macro--
mad--
mae--
mag--
magħ--
mah--
maha--
mai--
maj--
maje--
majji--
mak--
maka--
make--
makro--
mal--
mala--
malta--
mam--
man--
mani--
mano--
manuf--
manus--
maq--
mar--
mara--
mari--
marjo--
marx--
marz--
mas--
mat--
matri--
maw--
max--
maz--
maħ--
mb--
mc--
md--
mdaw--
mdaħ--
mdaħħ--
me--
med--
mega--
megi--
meh--
mel--
mela--
melo--
men--
mer--
mes--
meso--
met--
meta--
mex--
mey--
mg--
mgħ--
mgħa--
mgħej--
mgħo--
mi--
mibd--
mic--
micro--
mid--
mift--
mig--
mik--
mikro--
mikx--
mil--
mill--
milli--
min--
mio--
mir--
mira--
mis--
mit--
mitro--
mixo--
mkej--
mla--
mm--
mmoder--
mmud--
mne--
mo--
mobil--
mod--
moh--
mol--
mon--
mono--
monog--
monote--
mont--
monte--
moo--
moq--
mor--
mord--
morph--
mos--
mot--
motor--
mouve--
mow--
moħ--
mp--
mpressj--
mqa--
mr--
ms--
msaħħ--
mt--
mu--
mug--
mul--
multi--
mun--
mur--
mus--
mut--
muz--
muħa--
mw--
mx--
my--
myr--
mħa--
mħaw--
mħej--
n--
na--
nad--
naf--
nag--
nagħ--
nan--
napul--
naq--
nar--
nas--
nat--
naw--
naz--
nazi--
naħ--
nb--
nd--
ne--
nec--
neder--
negoz--
neo--
nes--
net--
neu--
new--
newro--
news--
nf--
ng--
ngu--
ngħ--
nh--
ni--
nib--
nic--
nico--
nidd--
nidħ--
nie--
nig--
nik--
nil--
nin--
nipp--
nir--
nisten--
nit--
nj--
nk--
nkis--
no--
non--
noq--
nor--
nord--
nos--
noħ--
nq--
nqa--
ns--
nste--
nt--
nu--
nuk--
nur--
nut--
nutr--
nx--
ny--
nz--
o--
ob--
obbl--
obblig--
ober--
obsc--
oc--
occa--
occid--
odj--
odo--
of--
off--
offic--
og--
ogħ--
oh--
oj--
ok--
okkor--
ol--
old--
ole--
oleks--
oli--
oligark--
olimp--
ologi--
olom--
om--
on--
one--
onn--
onor--
ont--
op--
operist--
oppo--
or--
ora--
ordin--
ore--
ori--
oro--
orto--
os--
ost--
ott--
ou--
out--
ov--
over--
ovv--
ox--
oz--
oħ--
p--
pa--
pachy--
pad--
pag--
paj--
pal--
pala--
palaeo--
pall--
pallad--
pamp--
pan--
pappag--
par--
para--
park--
pas--
pass--
pat--
patag--
pav--
pavi--
pax--
pe--
pedj--
pel--
pelopon--
pen--
pene--
pentag--
pente--
per--
pereg--
perman--
pes--
pet--
pey--
ph--
phe--
pho--
photo--
phy--
pi--
pia--
pic--
pie--
pier--
pig--
pil--
pin--
pir--
pit--
pitag--
pitto--
pix--
pixxi--
pl--
pla--
plagi--
plagiome--
plan--
plea--
plio--
plo--
plu--
po--
poi--
pol--
poli--
polyg--
pomp--
pons--
pop--
popul--
por--
posiz--
posp--
poss--
post--
pot--
poz--
pp--
ppers--
pprat--
ppre--
ppref--
ppres--
pprev--
ppro--
ppropo--
pprov--
ppubl--
pr--
prab--
prae--
pras--
prati--
pre--
prec--
prefer--
pres--
presbit--
pri--
princ--
prinj--
prist--
pro--
proba--
probabb--
proc--
produz--
proj--
projezz--
propo--
propy--
prosto--
prote--
proto--
provo--
provv--
pru--
prud--
ps--
psi--
psik--
psiko--
psy--
psycho--
pt--
pu--
pub--
pul--
pur--
purifikazz--
put--
py--
pyram--
q--
qa--
qadd--
qagħ--
qaj--
qal--
qam--
qar--
qas--
qat--
qaw--
qegħ--
qi--
qu--
qua--
qual--
quar--
que--
qui--
quin--
quo--
r--
ra--
rab--
racc--
rad--
radj--
radjo--
radju--
raff--
raffa--
raffig--
rag--
rai--
rain--
rakko--
ram--
ran--
rand--
raq--
ras--
rat--
razz--
raħ--
rc--
rd--
re--
reb--
rec--
red--
ref--
refer--
reg--
rein--
relat--
ren--
reper--
repti--
res--
respirat--
respons--
ret--
retro--
rett--
rev--
rever--
revis--
rey--
rez--
reħ--
rg--
rhe--
rho--
rhy--
ri--
ria--
rib--
ric--
rid--
riduzz--
rif--
rifer--
rig--
rij--
rik--
riko--
rilas--
rin--
risul--
rit--
rk--
rm--
rn--
rnex--
rnexxil--
ro--
rob--
rod--
rom--
ron--
ros--
ross--
rot--
rous--
row--
roy--
rrakko--
rre--
rref--
rreg--
rri--
rrib--
rring--
rrisp--
rs--
ru--
rug--
rum--
run--
rund--
rus--
rut--
ruz--
rv--
rx--
ry--
rz--
s--
sa--
saar--
sab--
sac--
sad--
saf--
sag--
sah--
sai--
sak--
sal--
sala--
salm--
sam--
san--
sand--
sanz--
saq--
sar--
sas--
sat--
sau--
savi--
saw--
sax--
saħ--
saħħ--
sc--
sce--
sch--
sche--
schi--
schl--
schu--
schwe--
sci--
sco--
scon--
scul--
se--
sea--
sec--
sed--
sedi--
see--
seg--
sei--
sej--
sejħ--
sel--
sele--
sell--
semb--
semi--
seminar--
semm--
sen--
sens--
ser--
ses--
set--
sew--
sfu--
[...]
