!
"
#
##0
##1
##10
##11
##12
##13
##14
##15
##16
##17
##18
##19
##2
##20
##21
##22
##23
##24
##25
##26
##27
##28
##29
##3
##30
##31
##32
##33
##34
##35
##36
##37
##38
##39
##4
##40
##41
##42
##43
##44
##45
##46
##47
##48
##49
##5
##50
##51
##52
##53
##54
##55
##56
##57
##58
##59
##6
##60
##61
##62
##63
##64
##65
##66
##67
##68
##69
##7
##70
##71
##72
##73
##74
##75
##76
##77
##78
##79
##8
##80
##81
##82
##83
##84
##85
##86
##87
##88
##89
##9
##90
##91
##92
##93
##94
##95
##96
##97
##98
##99
$
%
&
'
(
)
*
+
,
-
.
/
0
00
000
001
01
010
017
018
02
03
04
05
050
0559
06
0619693
06410
067
07
08
0801857899
09
1
10
100
1000
1001
1002
1007
101
1011
1012
101292
102
1020
103
1030
1031
104
1040
1045
105
1050
1054
106
107
1072
108
1085
109
1090
1093
11
110
1100
111
112
113
1130
114
115
1150
116
1160
117
1170
118
1185
119
1190
1192
1194
1199
12
120
1200
1204
1206
121
1215
1218
122
1220
1221
1226
1228
123
1230
1235
1236
124
1240
1248
1249
125
1250
126
1260
127
1270
1274
1277
128
1282
1283
1284
1288
129
1294
13
130
1300
1302
1309
131
1311
1313
1318
132
133
1333
1335
1336
134
1346
1347
1348
135
1350
1353
1355
136
1360
1365
137
1377
138
1380
1386
1389
139
1392
14
140
1400
1401
1402
1403
1405
1406
1409
141
1411
1415
1416
1417
1418
1419
142
1420
1426
143
1430
1433
1436
1438
144
1440
1444
145
1450
1452
1453
1454
1455
146
1460
1462
1467
1469
147
1470
1471
1473
1474
1475
1476
1477
1478
1479
148
1480
1481
1482
1483
1485
1486
1487
1488
149
1490
1491
1492
1493
1494
1495
1496
1497
1498
1499
15
150
1500
1501
1502
1503
1504
1505
1506
1507
1508
1509
151
1510
1511
1512
1513
1514
1515
1516
1517
1518
1519
152
1520
1521
1522
1523
1524
1525
1526
1527
1528
1529
153
1530
1531
1532
1533
1534
1535
1536
1537
1538
1539
154
1540
1541
1542
1544
1545
1546
1547
1548
1549
155
1550
1551
1552
1553
1554
1555
1556
1557
1558
1559
156
1560
1561
1562
1563
1564
1565
1566
1567
1568
1569
157
1570
1571
1572
1573
1574
1575
1576
1577
1578
1579
158
1580
1581
1582
1583
1584
1585
1586
1587
1588
1589
159
1590
1591
1592
1593
1594
1595
1596
1597
1598
1599
16
160
1600
1601
1603
1605
1606
1607
1608
1609
161
1610
1611
1612
1613
1614
1615
1616
1617
1618
1619
162
1620
1621
1622
1623
1624
1625
1626
1627
1628
1629
163
1630
1631
1632
1634
1635
1636
1637
1638
1639
164
1640
1641
1642
1643
1644
1645
1647
1648
1649
165
1650
1651
1652
1653
1654
1655
1656
1657
1658
1659
166
1660
1661
1662
1663
1664
1665
1666
1667
1668
1669
167
1670
1671
1672
1673
1674
1675
1678
1679
168
1680
1681
1682
1683
1684
1685
1686
1687
1688
1689
169
1690
1692
1693
1694
1695
1696
1697
1698
1699
17
170
1700
1701
1703
1704
1705
1706
1707
1708
1709
171
1710
1711
1712
1713
1714
1715
1716
1717
1718
1719
172
1720
1721
1722
1723
1724
1725
1726
1727
1728
1729
173
1730
1731
1732
1733
1734
1735
1736
1737
1738
1739
174
1740
1741
1742
1743
1744
1745
1746
1747
1748
1749
175
1750
1751
1752
1753
1754
1755
1756
1757
1758
1759
176
1760
1761
1762
1763
1764
1765
1766
1767
1768
1769
177
1770
1771
1772
1773
1774
1775
1776
1777
1778
1779
178
1780
1781
1782
1783
1784
1785
1786
1787
1788
1789
179
1790
1791
1792
1793
1794
1795
1796
1797
1798
1799
18
180
1800
1801
1802
1803
1804
1805
1806
1807
1808
1809
181
1810
1811
1812
1813
1814
1815
1816
1817
1818
1819
182
1820
1821
1822
1823
1824
1825
1826
1827
1828
1829
183
1830
1831
1832
1833
1834
1835
1836
1837
1838
1839
184
1840
1841
1842
1843
1844
1845
1846
1847
1848
1849
185
1850
1851
1852
1853
1854
1855
1856
1857
1858
1859
186
1860
1861
1862
1863
1864
1865
1866
1867
1868
1869
187
1870
1871
1872
1873
1874
1875
1876
1877
1878
1879
188
1880
1881
1882
1883
1884
1885
1886
1887
1888
1889
189
1890
1891
1892
1893
1894
1895
1896
1897
1898
1899
19
190
1900
1901
1902
1903
1904
1905
1906
1907
1908
1909
191
1910
1911
1912
1913
1914
1915
1916
1917
1918
1919
192
1920
1921
1922
1923
1924
1925
1926
1927
1928
1929
193
1930
1931
1932
1933
1934
1935
1936
1937
1938
1939
194
1940
1941
1942
1943
1944
1945
1946
1947
1948
1949
195
1950
1951
1952
1953
1954
1955
1956
1957
1958
1959
196
1960
1961
1962
1963
1964
1965
1966
1967
1968
1969
197
1970
1971
1972
1973
1974
1975
1976
1977
1978
1979
198
1980
1981
1982
1983
1984
1985
1986
1987
1988
1989
199
1990
1991
1992
1993
1994
1995
1996
1997
1998
1999
2
20
200
2000
2001
2002
2003
2004
2005
2006
2007
2008
2009
201
2010
2011
2012
2013
2014
2015
2016
2017
2018
2019
202
2020
2021
2022
203
2030
204
205
206
207
208
209
21
210
2100
211
212
213
214
215
216
217
218
219
22
220
221
222
223
224
225
226
2268
227
228
229
23
230
2300
2307
231
232
233
234
235
236
237
238
239
24
240
241
242
243
244
245
246
247
248
249
25
250
2500
251
252
253
254
255
256
257
258
259
26
260
261
262
263
264
265
266
267
268
269
27
270
271
272
273
274
275
276
277
278
279
28
280
281
282
283
284
285
286
287
288
289
29
290
291
292
293
294
295
296
297
298
299
3
30
300
3000
301
302
303
304
305
306
307
308
309
31
310
311
312
3123
313
314
315
316
3166
317
318
319
32
320
3200
321
322
323
324
325
326
327
328
329
33
330
331
332
333
334
335
336
337
338
339
34
340
341
342
343
344
345
346
347
348
3482
349
35
350
351
352
353
354
355
356
357
359
36
360
361
363
364
365
366
367
368
369
37
370
371
372
373
374
375
376
377
378
379
38
380
381
382
383
384
385
386
387
388
389
39
390
391
392
393
394
395
396
397
398
399
4
40
400
4000
401
402
403
404
405
406
407
408
409
41
410
411
412
414
415
416
417
418
419
42
420
421
422
423
424
425
426
427
429
43
430
431
433
435
436
438
439
44
440
44029
441
443
444
445
446
447
45
450
451
452
454
455
456
457
458
459
46
460
461
462
463
465
466
467
468
469
47
470
471
472
474
475
476
477
48
480
483
484
485
4851
486
487
488
49
490
491
492
493
495
496
497
499
5
50
500
5000
501
504
506
508
509
51
510
511
513
514
515
517
519
52
520
521
523
525
526
527
529
53
530
531
533
535
536
538
54
540
541
5416
542
543
546
547
55
550
553
556
558
56
560
562
563
565
565458
568
57
570
571
576
5785
5789
58
580
581
585
588
589
59
590
593
599
6
60
600
603
604
605
608
61
610
612
613
614
616
62
620
63
630
631
638
639
64
640
641
642
65
650
654
655
656
66
660
662
663
664
667
668
67
670
672
673
674
675
679
68
680
684
686
688
69
690
691
695
696
699
7
70
700
7000
702
707
709
71
710
711
712
714
718
719
72
720
722
723
724
7254
73
730
732
7338
7339
734
736
738
739
74
742730
7456
747
75
750
751
753
755
756
7577
758
759
76
760
77
774
776
78
780
7864
79
7914
7954
796
797
8
80
800
8000
801
8014
8018
8047
805
81
8108
814
816
818
82
820
8221
83
830
833
8377771556
8385047872
84
840
84018
842
845
849
85
850
852
855
86
87
870
875
88
88221
89
89533
9
90
900
9004206298
905140
91
92
93
933
936
94
95
950
952
953
95981
96
960
962
968
97
970
971
973
975
976
977
978
9789993291329
979
98
980
99
990
999
99909
99932
99957
:
;
<
=
>
?
@
[
\
]
^
_
`
a
aa
aachen
aachener
aan
aaron
ab
abar
abate
abba
abbandun
abbanduna
abbandunat
abbandunata
abbandunati
abbandunaw
abbar
abbarin
abbasidi
abbati
abbaye
abbaz
abbazija
abbaziji
abbe
abbey
abbilta
abbli
abbonati
abbord
abbozz
abbozzi
abbrevjazzjoni
abbundanti
abbundanza
abbuz
abc
abd
abdika
abdikazzjoni
abdilla
abdul
abdullayev
abe
abel
abela
abeljan
abella
aberdeen
abet
abetta
abi
abilita
abilitajiet
abitant
abitanti
abitat
abitata
abitati
abitazzjoni
abitazzjonijiet
abitudni
abjad
abolit
abolita
abolizzjoni
aborig
abort
abos
about
above
abr
abra
abraham
abrams
abret
abriet
abril
abroad
abru
abrux
abstract
abu
ac
acad
acade
academia
academic
academy
accademia
access
accessdate
accessed
accident
according
account
accounts
acdestis
aceramarcae
ach
achievement
achille
acid
ackerman
across
act
acta
action
active
activities
activity
actor
ad
ada
adam
adami
adams
adaptation
adatta
adattament
adattamenti
adattat
adattata
adattati
add
adda
addattat
addattati
added
addizzjonali
addolorata
addottat
address
ade
adegwat
adegwata
adelaide
adele
aderenza
adez
adidas
adige
adler
administration
admira
adn
ado
adolexxenti
adolf
adolfo
adolphe
adoniran
adorazzjoni
adoriam
adotta
adottat
adottata
adottati
adottaw
adozzjoni
adrian
adriana
adriano
adrianople
adrien
adrijanu
adrijatiku
adult
adulta
adulti
adusta
advanced
advances
adventure
adventures
advisory
ae
aek
aemet
aeolian
af
afa
afc
afer
affac
affair
affairs
affari
affarijiet
affarjiet
affaxxinat
affettwa
affettwat
affettwata
affettwati
affettwaw
affidabbli
affiljat
affiljata
affiljati
affiljazzjoni
affinita
affresk
affreski
affrontaw
afganistan
aflaj
afm
afonso
africa
african
africanus
afrika
afrikan
afrikana
afrikani
afro
afrodisja
afrodite
afrotheria
after
afz
ag
again
against
agata
agatha
agave
agdam
age
aged
agencia
agency
ages
aggregat
aggressiv
aggressjoni
agilis
agius
agnese
ago
agora
agostini
agostinjani
agostino
agra
agreb
agree
agreement
agricola
agricolai
agricultural
agriculture
agrigento
agrikola
agrikoli
agrikoltura
agrikolu
agunija
agusti
agustu
agħ
agħaq
agħar
agħfran
agħz
ah
aha
ahead
ahhar
ahjar
ahmad
ahmed
ahna
ahom
ahra
ai
aid
aida
aids
aime
ain
ainisti
ainiz
air
aircraft
aires
airlines
airport
ais
aise
aix
aj
ajanta
ajax
ajk
ajkla
ajkli
ajkovskij
ajru
ajruplan
ajruplani
ajruport
ajruporti
ajt
ajta
ajtiera
ajtiet
ak
aka
akbar
akbu
akhenaten
akille
akistan
akkad
akkademic
akkademika
akkademiku
akkademja
akkademji
akkanit
akketta
akkomodazzjoni
akkost
akkreditat
akkumpanjament
akkumpanjat
akkumpanjata
akkumpanjati
akkumulati
akkuz
akkwarell
akkwarelli
akkwatic
akkwedott
akkwedotti
akkwist
akkwista
akkwistat
akkwistata
akkwistaw
akkwisti
akkwiz
akronimu
akropoli
akru
akshata
aktar
aktarx
akustika
akuta
akwinu
al
ala
alabastru
aladarba
alain
alaj
alan
alaska
alatau
alba
alban
albani
albania
albanian
albanie
albanija
albaniz
albany
alberobello
albert
alberti
alberto
albertu
albi
albinoni
albion
albiventris
albrecht
album
albums
albuquerque
alca
alcala
aldeneik
aldo
alec
alejandro
aleksandar
aleksandr
aleppo
alessandra
alessandro
alessandru
aletsch
alex
alexa
alexander
alexanderson
alexandra
alexandre
alexandria
alexis
alfa
alfabetika
alfabetiku
alfabett
alfons
alfonso
alfonsu
alfred
alfredo
alg
alge
algebra
algebraic
algi
algoritmi
algoritmu
alhambra
ali
alice
alighieri
aligned
alive
alkim
alkimija
alkoħol
alkoħoliz
all
alla
allah
allat
allavolja
alle
alleanza
alleanzi
alleat
alleata
alleati
allega
allegat
allegatament
allegati
allegazzjoni
allegazzjonijiet
allegoric
allegorija
allegri
allele
alleli
allemagne
allen
alleni
alliance
allianz
allied
allinjament
allinjati
allison
allium
allmusic
allokat
allokati
allokazzjoni
allori
allowance
alluc
allura
alluz
alma
almaty
almeida
almenu
almeri
almis
almu
almunia
alois
aloisio
alone
along
alonso
alpes
alpha
alphonse
alpi
alpin
alpina
alpine
alpini
alps
als
alsace
also
alstoni
alt
alta
altamira
altar
alte
alterazzjonijiet
alternative
alternattiv
alternattiva
alternattivi
altertu
altezza
altipjan
altitudni
altitudnijiet
alto
altre
altri
altıntop
alu
aluminju
alvarez
alves
always
alwig
aly
alyga
am
amadeus
amajka
amalfi
amalgamazzjoni
amami
aman
amanda
amani
amar
amari
amarna
amateur
amato
amaz
amazing
amazon
amazoniku
ambaxxata
ambaxxatur
ambaxxaturi
ambedkar
amberz
ambientale
ambigwazzjoni
ambigwita
ambitu
ambizzjoni
ambizzjonijiet
ambizzjuz
ambja
ambjent
ambjentali
ambjentat
ambjentata
ambjenti
ambliku
ambrog
ambrogio
ambulatorju
amburgu
ame
amedeo
ameghino
amen
amenhotep
ament
amenti
amer
america
american
americana
americanus
americas
ameridelphia
amerigo
amerika
amerikan
amerikana
amerikani
ameriki
amerka
amerki
amfibjani
ami
amici
amid
amiel
amiens
amijiet
amilcare
amina
aminatur
aminaw
amir
amis
amm
amma
amman
amment
ammessi
ammet
ammetta
ammew
amministrat
amministrata
amministrati
amministrattiv
amministrattiva
amministrattivament
amministrattivi
amministratur
amministraturi
amministrazzjoni
amministrazzjonijiet
ammiraljat
ammirall
ammiratur
ammiraturi
ammirazzjoni
ammit
ammonju
ammont
ammonti
ammu
among
amor
amore
amorin
amour
ampjin
ampjins
amra
amsterdam
amun
amy
an
ana
analisi
analitic
analitika
analitiku
analiz
analizzati
analog
analogu
analyse
analysis
analytica
anas
anastasju
anathana
anatolian
anatolja
anatomija
anatomy
anc
ancien
ancient
ancona
and
andalus
andalusija
andament
anderlecht
anders
anderson
andersoni
andes
andi
andijewska
andorra
andorre
andra
andre
andrea
andreas
andrei
andrej
andreotti
andrew
andrews
andrija
andrzej
andy
anfar
anfibji
anfield
anfiteatru
ang
ange
angel
angela
angeles
angelis
angelo
angels
angkor
anglikan
anglikana
anglikani
anglo
anglu
angola
angolari
angoli
angolu
anguissola
angulari
anh
anhalt
ani
anica
anija
anima
animal
animals
animazzjoni
anjou
ankara
anke
anki
ankotarinja
ann
anna
annalen
annales
annali
annals
annam
anne
annemarie
anness
annessa
annessjoni
annette
anni
annibale
annie
annimal
annimali
anniversarju
anniversary
anno
annotated
announced
announces
annu
annual
annunziata
annunzjata
annwali
anonima
anonimi
anonimu
another
anqas
ans
ansa
anseatika
anselmo
ansijiet
antarctica
antartika
ante
antec
antechinomys
antechinus
antenat
antenati
antenna
antenni
antequera
anthology
anthony
anthropological
anthropology
anthuenis
anti
antic
antica
antico
antigua
antijoke
antijokja
antik
antika
antikamra
antiken
antiki
antikita
antikitajiet
antikorpi
antikresi
antilli
antilop
antin
antina
antini
antiquaries
antique
antiquities
antiquity
antjokja
antnin
anto
antoc
antoine
antoinette
antolog
antologi
anton
antoni
antonia
antonio
antonju
antony
antropolog
antropologi
antropologu
antwerp
antwerpen
anversa
any
anz
anza
anzi
anzjan
anzjana
anzjani
anzjanita
anzju
ao
aorta
ap
apa
apap
apc
aphrodisias
api
apis
aplin
apog
apokalissi
apollo
apollon
apolog
apolonia
apoteka
apoteki
app
appalach
apparat
apparati
apparentement
apparenti
apparenza
apparenzi
appartament
appartamenti
apparti
appeal
appell
appella
appellaw
appelli
appendic
appendix
appennini
appenzell
apple
application
applications
applied
applika
applikabbli
applikanti
applikat
applikata
applikati
applikaw
applikazzjoni
applikazzjonijiet
appog
appointed
apposta
appostli
appostlu
appostolat
appostolic
appostolika
appostoliku
apprendiment
apprendist
apprendistat
apprendistati
apprezzament
apprezzat
apprezzata
apprezzati
approach
approaches
approc
approssimazzjoni
approva
approvat
approvata
approvati
approvaw
approvazzjoni
approved
approves
appun
appuniz
appunt
appuntament
appuntanti
appuntat
appuntati
apre
april
aprile
aprili
apsida
apsidi
aq
aqilqa
aqilqet
aqilqu
aqlaq
aqliq
aqq
aqqu
aqra
aquaticus
aqueduct
aquila
aquileia
aquilina
aquino
aquitaine
aqwa
ar
ara
arab
arabia
arabian
arabic
arabja
aragon
aragona
aragoniz
araldika
aramaic
aramajk
aramajka
aranjuez
arazzi
arbitrag
arbitrarja
arbitrarju
arbli
arblu
arbor
arboreus
arborju
arbun
arbuna
arbuxelli
arbuxxelli
arc
arch
archaeological
archaeologist
archaeologists
archaeology
archbishop
archbold
arche
archeological
archer
archibald
architect
architects
architectural
architecture
architettura
archiv
archive
archived
archives
archivio
archivo
arcius
arco
arcticus
ard
arda
arde
ardennes
ardinar
arduino
are
area
areas
arena
aret
arezza
arezzo
arg
argenteuil
argentina
argo
argument
argumenta
argumentaw
argumenti
argus
argyrolagoidea
argyrolagus
ari
aria
arias
ariel
ariosto
aris
aristokratic
aristokratika
aristokratiku
aristokrazija
aristotli
aritmetic
aritmetika
arizona
arja
arjan
arjana
arjani
arjaniz
arjen
arji
arju
ark
arka
arkajku
arkang
arkata
arkati
arkeolog
arkeologi
arkeologu
arki
arkimede
arkitett
arkitetti
arkitettonic
arkitettonika
arkitettoniku
arkitettura
arkitetturali
arkivjat
arkivji
arkivju
arles
arlog
arma
armada
armamenti
armand
armando
armar
armat
armata
armati
armatura
armaturi
arme
armen
armena
armeni
armenia
armenian
armenja
armerija
armesto
armi
armistizju
armla
armonic
armonija
armonika
armonjuz
arms
armug
army
arn
arnaud
arnim
arno
arnold
arol
aromatic
around
arpa
arqueolo
arqueologi
arquitectura
arr
arrab
arraf
arrang
arrbet
arrbu
arrest
arrestat
arrestata
arrestati
arrestaw
arresti
arrew
arrfa
arrfet
arrfu
arrigo
arriva
arrondissement
arroyo
arru
ars
arse
arsenal
arseniku
arslantepe
art
artab
artal
artali
artcyclopedia
arte
artefatti
artemis
artemisia
arterja
arterji
arterjuz
artes
arthur
arti
article
articles
artific
artig
artijiet
artikli
artiklu
artikoli
artikolu
artiku
artillerija
artist
artista
artisti
artistic
artistika
artistiku
artists
artna
arts
artsakh
artur
arturo
arturu
aru
aruba
arvensis
arz
arzella
as
asburgi
ascanio
asciak
asean
ashgate
ashkenazy
ashley
ashoka
asi
asia
asian
asiatic
asin
asja
asjatic
asjatiku
asklepju
asociacio
asp
aspects
aspett
aspettattivi
aspetti
aspirazzjonijiet
aspx
ass
assam
assassinju
assedja
assedjat
assedjata
assedjaw
assedji
assedju
assef
assemblag
assemblea
assembly
assenjat
assenjati
assenti
assenza
asser
assessment
assi
assigura
assigurat
assiguraw
assigurazzjoni
assimilazzjoni
assirjani
assisi
assist
assista
assistent
assistenta
assistenti
assistenza
assisti
assistit
assists
assjali
assoc
associated
association
associations
associazione
assolut
assoluta
assolutament
assoluti
assoluzzjoni
assuma
assunta
assunzjoni
asterojde
asterojdi
aston
astra
astratt
astratta
astratti
astrazzjoni
astri
astrofiz
astrol
astrolog
astron
astronaut
astronawta
astronawti
astronomer
astronomi
astronomic
astronomical
astronomija
astronomika
astronomikament
astronomiku
astronomu
astronomy
astrophysics
astru
astruz
asturias
asturjas
aswan
at
ata
atalanta
atalho
atapuerca
atatu
ateiz
aten
atena
ateni
ateu
athe
athens
athletic
ati
atkinson
atlante
atlantic
atlantika
atlantiku
atlas
atle
atleta
atleti
atletic
atletika
atmosfera
atomi
atomic
atomika
atomiku
atomu
atriju
atroc
att
atta
attack
attakant
attakk
attakka
attakkant
attakkanti
attakkat
attakkata
attakkati
attakkaw
attakki
attalus
attament
attard
atteg
attenda
attendance
attendenza
attendew
attendiet
attent
attentat
attentati
attenti
attenzjoni
atti
attila
attira
attirat
attiraw
attitudni
attiv
attiva
attivament
attivi
attivist
attivista
attivisti
attivita
attivitajiet
attractions
attraenti
attrazzjoni
attrazzjonijiet
attributi
attribwit
attribwita
attribwiti
attric
attur
atturi
attwali
attwalment
atur
aturi
au
aubrey
auckland
audebert
audrey
auf
auflage
auge
augsburg
august
augusta
auguste
augustin
augusto
augustus
augustusburg
aung
aurangabad
aurea
aurelius
aurora
aus
auschwitz
austin
australia
australian
australidelphia
australis
australopithecus
austria
austrian
austu
author
authority
authors
auto
autobiography
automatic
autriche
autun
auvergne
aux
av
ava
avalon
avaniz
avant
ave
avec
avenue
average
averages
avetta
avignon
avila
aviv
avjazzjoni
avolja
avon
avorju
avril
avukat
avukati
avvanz
avvanza
avvanzat
avvanzata
avvanzati
avvanzaw
avvanzi
avvelenament
avveniment
avvenimenti
avvent
avventura
avventuri
avverbju
avversarji
avversarju
avvic
avviz
avz
aw
awad
award
awards
away
awditorju
awdituri
awdjo
awe
awguri
awgustu
awh
awha
awhom
awiil
awissu
awla
awrelju
awri
awru
awsli
awstralja
awstraljan
awstraljana
awstraljani
awstrija
awstrijac
awstrijak
awstrijaka
awstrijaki
awstrijakk
awstrijaku
awstro
awtentic
awtentiku
awto
awtobijografija
awtobijografiku
awtogowl
awtomatika
awtomatikament
awtomatiku
awtomatizzata
awtonoma
awtonomi
awtonomija
awtonomu
awtorita
awtoritajiet
awtoritratt
awtoritratti
awtorizza
awtorizzat
awtorizzata
awtorizzazzjoni
awtostrada
awtostradi
awtric
awtur
awturi
aww
awwissu
awx
awz
ax
axel
axxetika
ay
ayers
ayrton
ayuntamiento
ayutthaya
az
azal
azcona
azerbai
azerbaijan
azione
azjenda
azov
azraq
azteki
azul
azure
azzar
azzard
azzjoni
azzjonijiet
azzopardi
azərbaycan
aħad
aħbar
aħbarijiet
aħda
aħdar
aħdet
aħdu
aħhar
aħjar
aħmar
aħna
aħrax
aħwa
aħħad
aħħar
aħħari
aħħarija
aħħarin
aħħarnett
aħħda
b
ba
baba
babilonja
babilonjani
babur
baby
bac
bacca
bach
bachmani
back
background
bacon
bad
baden
baekje
baeza
bag
bagan
bagdad
bagħal
bagħat
bagħtet
bagħtu
bagħtuh
baha
bahar
bahla
bahn
bai
bailey
bailly
baja
bajada
bajd
bajda
bajdani
bajja
bajjad
bajjada
bajjiet
bajo
bajtar
bakek
baker
bakhita
bakker
bakkja
bakr
baku
bal
balaban
balal
balavostri
baldacchino
baldakkin
baldassare
baldini
baldwin
bale
balearic
baleni
bali
balieni
baljat
baljata
baljati
balji
balkan
balkani
ball
balla
ballata
ballerina
ballet
ballett
ballo
ballon
ballu
ballun
ballut
balluta
balotelli
baltasar
balthasar
baltic
baltika
baltiku
baltimore
baltra
balzac
balzan
bam
bamberg
bambin
bambina
ban
banants
banarsidass
banca
band
banda
bandiera
bandikut
bandikuti
bandisti
baned
banek
bang
bangkok
bangladexx
banja
banjijiet
banju
bank
bankarju
bankier
bankijiet
bankina
banks
banquo
baptiste
baqa
baqar
baqax
baqgħa
baqgħet
baqgħetx
baqgħu
baqgħux
baqra
bar
barack
barbados
barbara
barbari
barbaro
barbarossa
barbaru
barbera
barbier
barbiera
barbiere
barbosa
barc
barca
barcelona
barclays
bard
bardejov
bargello
bari
baritonu
bark
barka
barkaw
barnaba
barnes
barnsley
barokk
barokka
barokki
baron
baroque
barra
barraga
barrakka
barrakki
barrani
barranija
barranin
barri
barrier
barriera
barrieri
barrin
barros
barroso
barry
bars
bart
bartholdi
bartholdy
bartholomai
bartilmew
bartolo
bartolome
bartolomeo
baruni
bas
basal
base
baseball
based
basel
bashkir
basic
basilica
basin
bask
basket
basketball
baski
baskitbol
bass
bassae
bassanio
bassano
bassar
bassasa
bassnett
basso
bassoriljievi
basta
basten
bastian
bastiment
bastimenti
bastjan
bastjun
bastjuni
bastun
bat
bata
bate
bates
batew
bath
batiet
batta
battalja
battalji
batterija
batteriji
batterji
batterju
battery
battiet
battir
battista
battisterju
battle
batut
bauer
bauten
bavarja
bavarjan
baxkir
baxkiri
baxkortostan
baxx
baxxa
baxxi
bay
bayer
bayern
bayreuth
bayzo
baz
baħamas
baħar
baħrejn
baħri
baħrija
baħrin
baħħar
baħħara
bb
bbaz
bbc
bbilanc
bc
bcl
bd
bdejt
bdew
bdfutbol
bdiet
bdiewa
bdil
bdot
bdu
be
beach
beagle
beast
beat
beata
beatifikazzjoni
beatles
beatrice
beatriz
beatu
beautiful
beauty
beaux
bebbux
bebbuxu
became
because
beccaria
beck
beckenbauer
becker
beckham
become
becomes
bed
beda
bedwini
bee
beech
beeckman
beemster
been
beer
beerschot
beethoven
before
began
begin
beginning
behavior
behind
behrens
bei
beijing
being
bejg
bejgħ
bejjiegħ
bejjiegħa
bejn
bejnha
bejniethom
bejnu
bejt
bejta
bejtiet
bek
beka
bekeshkina
bekistan
bekli
bel
beland
belangeri
belarus
belarussja
bele
belfast
belg
belgian
belgique
belgium
belgrad
belgrade
believe
beliz
bell
bella
belle
belles
bellini
bellinzona
bello
bellus
belmont
belt
belti
beltra
belvedere
belzoni
bembo
bemoll
ben
bena
benavente
bencini
bene
benedetto
benedittin
benedittina
benedittini
benedittu
benefattur
benefatturi
benefic
benesseri
benevento
benfica
bengal
bengali
bengħisa
beni
benin
benito
benjamin
benjamini
benjamins
bennej
bennejja
benscheidt
benvenuto
benzema
beograd
beppe
ber
berat
beraħ
berbatov
berbe
berber
berberi
bereg
berg
bergamo
berge
bergen
berger
bergoglio
berkeley
berkson
berlin
berlioz
berlusconi
bern
bernabe
bernanos
bernard
bernarda
bernardino
bernardo
bernd
bernhard
bernina
bernini
bernoulli
bernstein
berqa
berquqa
berry
bert
bertha
berthe
bertrand
bes
besa
best
bet
beta
bethlehem
betlehem
betlemme
better
bettija
bettina
between
bevan
beveren
bevo
bey
beyond
bez
bezzina
bhaktapur
bhal
bhala
bhaskara
bhejjem
bi
biagio
bianca
bianchi
białowiez
bibbja
bibblic
bibcode
bibi
bibien
bible
biblic
biblical
biblijoteka
biblika
bibliku
biblioteca
bibliothe
bibljografija
bibljoteka
bic
bice
bid
biddel
biddlet
biddlu
bidel
bidla
bidlet
bidliet
bidlu
bidnija
bidu
bidwi
bie
bieb
biedja
biegħ
biegħet
biegħu
bien
biennali
bierda
bierek
bies
biex
biez
big
bigcup
biggest
bigħ
bih
biha
bihom
bij
bijodiversita
bijografija
bijografiji
bijografu
bijokimika
bijolog
bijologu
bijosfera
bijoteknolog
biki
bikri
bikrija
bikrin
bil
bilanc
bilaterali
bilbao
bile
bilfors
bilingwi
biljett
biljetti
biljun
biljuni
bilkemm
bill
billboard
billejl
billi
billy
bilmod
bilocca
bilqiegħda
bilwieqfa
bin
binarja
binarji
bing
bingen
bingham
binha
binhar
binhom
bini
bininda
binja
binjiet
bint
bintha
bintu
bio
biodiversity
biografia
biografico
biographical
biographie
biographies
biography
biol
biological
biology
bir
bird
birdlife
birds
birgu
birkenau
birkirkara
birmingham
birra
birrerija
birreriji
birth
birz
bis
bishop
bishopi
bismarck
biss
biswit
bit
bitcoin
bitcoins
bits
bitter
bittija
bitħa
bix
bixra
biz
bizzilla
bjar
bjelorussa
bjelorussja
bjelorussu
bjo
bjut
bk
bl
bla
black
blackburn
blackpool
blackwell
blaenavon
blair
blaise
blake
blalen
blanc
blanca
blanche
blanco
blanton
blas
blast
blat
blata
blatter
blekinge
blenheim
blica
bliet
blitz
bloch
block
blog
blogg
blogger
bloggosfera
bloggs
blokk
blokka
blokki
blokok
blood
bloom
bloomberg
bloomington
bloomsbury
blu
blue
blues
bluni
blut
bmg
bnadar
bnadi
bnazzi
bnedmin
bnew
bnf
bniedem
bniet
bnin
bo
board
boas
boat
boats
boavista
bob
bobby
bobcat
boc
boca
boccherini
boccoli
bode
bodh
bodhi
body
boeck
boeing
boemja
boffa
bogdanovic
bogota
bogħod
bohe
bohr
boi
bois
bojkott
bojod
bokk
bokka
boksing
bol
bold
bolesław
boli
bolivia
bolivianus
bolivja
bolla
bologna
bolol
bolonja
bolonjiz
bolton
bolxeviki
bolzano
bom
bomba
bombay
bombes
bombi
bombli
bon
bona
bonaci
bonajuto
bonanno
bonaparte
bonaparti
bonavia
bond
bondanella
bondin
bone
bonello
bonera
bong
bonifac
bonn
bonnic
bonnici
bono
bonus
book
books
boomerang
boortsog
bor
borac
borboni
bord
bordeaux
border
borders
bordijiet
borel
borg
borgez
borgia
borgo
boris
borisov
bormla
born
borneo
borobudur
boroz
borra
borsellino
borussia
borz
bos
bosch
bosco
bosio
bosk
boskijiet
bosnia
bosnie
bosnja
boss
bossi
bosta
boston
bot
botanic
botanical
botanija
botanika
botaniku
botany
both
boton
botswana
botti
botticelli
bottom
bouch
bougainville
boulanger
boulder
bouleuterion
boulevard
boulogne
bourbaki
bourbon
bourges
bourgogne
bov
bown
box
boy
boyd
boyle
boyne
boys
boz
bqija
br
bra
brabant
brace
brachylagus
brachyrhynchus
brachyurus
brad
bradford
bradley
bradt
brady
braga
brahms
brain
brajmla
bramante
brand
brandenburg
branko
brant
brasil
brasileira
brasileiro
brasiliensis
braswell
bratislava
braudel
braun
braunschweig
bravo
braz
brazil
bre
break
breakfast
breaking
bregas
bregovic
bremen
brescia
breslau
brest
breton
brevicaudata
breydel
brian
bridge
bridges
brief
brien
briffa
brigata
brighton
brikks
brill
brillanti
brimb
brimba
brincat
brindisi
bristol
britain
britannic
britannica
britanniku
british
brittanic
brittanika
brittaniku
brittanja
brittannic
brittanniku
brno
broadcasting
broadway
brockdorff
broff
broffa
broffar
brom
bromwich
bronz
bronze
bronzino
brook
brooklyn
brooks
brother
brothers
brown
browne
browning
brownjan
bru
bruc
bruce
brucei
bruffar
brugeois
bruges
brugge
brun
brunej
brunelleschi
bruni
bruno
brunswick
brussel
brussell
brussels
bruxelles
bryan
bryant
bryggen
bs
bsk
btajjel
btala
btieti
btieħi
bu
buch
bucha
bucharest
bucures
bud
buda
budapest
buddha
buddhism
buddhist
buddist
buddista
buddisti
buddiz
budget
buenos
bufa
bufula
bug
bugdiedem
bugeddum
bugeja
bugħ
bugħa
bugħaddasa
buhagiar
building
buildings
built
bukarest
bukhara
bukit
bukkett
bulgara
bulgari
bulgaria
bulgarian
bulgarie
bulgarija
bulgaru
bull
bulletin
bumbardament
bumbardamenti
bumerini
bums
bund
bundesliga
bundy
bunolagus
bunsen
buon
buonarroti
bur
bura
burckhardt
burdata
burdati
bureau
burg
burger
burgess
burgos
burgu
burial
burin
burke
burkina
burlington
burma
burmarrad
burmiz
burnley
burns
bursa
burton
burundi
bus
busby
buses
bush
business
buskett
bust
busti
busuttil
but
butan
buthrotum
butir
butler
butrint
butt
butterfly
buttigieg
buz
bvb
bwar
bwv
bxara
by
byron
byzantine
byzantium
bz
bzonn
bħac
bħad
bħal
bħala
bħalha
bħalhom
bħalissa
bħall
bħallikieku
bħalma
bħalu
bħan
bħar
bħas
bħat
bħax
bħaz
c
ca
caban
cable
cabo
cabral
caccia
cachia
cady
caen
caenolestes
caenolestidae
caenolestoidea
caesar
caf
cagliari
cairo
calabria
calais
calakmul
calcio
calculus
caldero
caledonia
calendar
cali
caliban
california
californicus
call
calle
called
calleia
calleja
callotis
calls
callus
caluromyinae
caluromys
caluromysiops
cambodia
cambridge
camenzuli
camera
camerini
cameron
camilla
camille
camilleri
camillo
camino
camp
campagne
campaign
campania
campbell
campeche
campeonato
campionato
campo
campus
can
canada
canadian
canal
canale
canaletto
cancer
candela
cannes
cannot
cansus
cantabria
cantata
canterbury
cantilena
canto
canton
cantona
cantor
cap
cape
capella
capello
capensis
capita
capital
capitale
capo
cappadocia
cappella
caprolagus
captain
capua
capuleti
car
carabott
caracol
carafa
caral
caravaggio
carcassonne
card
cardiff
cardinal
cardona
carducci
care
career
caribbean
caritas
carl
carla
carles
carling
carlo
carlos
carlton
carmel
carmelo
carmen
carnarvon
carnegie
carnival
carnivora
caro
carol
carole
carolina
caroline
carolingian
carpathians
carr
carra
carracci
carrara
carrasco
carrick
carriera
carrillo
carroll
cars
carta
carter
cartoon
cartoons
caruana
caruso
carving
cas
casa
casablanca
casale
casco
case
casella
caserta
cases
casha
casimir
casino
caso
cassar
cassatt
cassini
cassius
cassola
cast
castagna
castel
castelgrande
castello
castilla
castillo
castle
castles
castro
castroviejoi
castrum
cat
catalina
catalog
catalogo
catalogue
catalunya
catania
catedral
caterina
cathe
cathedral
catherine
catholic
cato
cats
cattolica
cauchi
cauchy
causa
cause
causes
cavalier
cavaliere
cavalieri
cave
caves
caxaro
cbs
cc
cd
cdot
cds
ce
cea
ceaus
ceausescu
cecil
cecilia
cefai
ceiling
celebrates
celeste
cell
cellini
cells
celtic
cemetery
cenote
census
cent
centenario
centenary
center
central
centre
centro
centuries
century
ceo
cercle
ceremony
ceres
cern
cerro
cervantes
ces
cesare
cesc
cf
cfr
ch
cha
chacodelphys
chacoensis
chadwick
chai
chairman
chaitya
chak
challenge
challenges
chamberlain
chambers
chambray
champagne
champion
champions
championship
champollion
champs
chan
chance
chancellor
chandi
chang
changdeokgung
change
changed
changes
changing
channel
chanson
chant
chapel
chapman
chapter
character
charadriiformes
charge
charity
charleroi
charles
charlie
charlini
charlotte
charlton
charpentier
chart
charter
chartres
charts
chauvet
che
checkmate
chef
chelsea
chemical
chemie
chemistry
chen
cher
chersonesus
chess
chester
chetcuti
chevalier
chevet
chez
chhatrapati
chi
chiapas
chiara
chiaroscuro
chicago
chiche
chichen
chico
chief
chiesa
chigi
child
children
china
chinese
chinnici
chircop
chironectes
chiroptera
chisholm
chitwan
cho
choice
choir
choirokoitia
chopin
chora
chris
christ
christeseva
christi
christian
christiane
christianity
christiansfeld
christina
christine
christmas
christoph
christophe
christopher
christus
chronicle
chronicles
chronology
chrysopygus
chu
chulpasia
church
churches
churchill
chypre
ci
cia
ciantar
ciappara
cid
cilento
cilia
cim
cinco
cinderella
cinema
cini
cinque
cio
circle
cirnei
cis
cisneros
cit
citation
cite
cities
citroe
citta
city
ciudad
civil
civilization
civilizations
civitas
cixi
ck
cke
cken
cl
cla
clade
claims
claire
clara
clarence
clarendon
clark
clarke
class
classe
classic
classical
classics
classification
claude
claudette
claudia
claudio
clausius
clavecin
clayton
cle
clean
clemens
clement
clemente
cleopatra
clerk
clermont
cleveland
cleverley
clews
cli
client
cliff
clifford
clifton
climat
climate
climbing
clinical
clinton
clio
clive
close
clottes
cloud
clovis
clr
club
clube
clubs
cluett
cluj
cluny
clyde
cm
cn
cnn
co
coach
coalition
coast
coastal
cobos
coca
coccinella
coco
code
codex
coe
coelho
cognatus
cognitive
cohen
coira
col
cola
cold
cole
colegio
coleiro
coleman
colin
collana
collapse
collapses
colle
collected
collection
collections
college
collins
colmar
colo
cologne
coloma
colombia
colombo
colonia
colonial
colonna
color
colorado
colore
colosseum
columbia
columbian
com
come
comedian
comet
comique
comiso
comme
commedia
commentary
commerce
commission
committee
common
commons
commonwealth
communication
communications
communis
communities
community
como
comodini
compact
companion
company
comparative
comparison
competition
complete
completed
completes
complex
complutense
composer
compostela
computation
computer
computing
comtat
comte
comunale
comune
comunidades
con
concacaf
concentration
concept
concepts
concern
concerning
concert
concerto
concise
concordia
conde
conditions
condivi
conegliano
conen
confederation
conference
confirm
confirmed
confirms
conflict
congress
conmebol
connor
conothoa
conquest
conrad
consensus
conservation
conservatorio
considered
consiglio
constable
constant
constantiae
constantin
constantine
constantinople
constitution
constitutional
construction
contact
conte
contemporary
content
contents
contes
contest
context
conti
continental
continuo
continuum
contract
contractus
contre
contribution
contributions
control
convention
conversation
cook
cooking
cooper
cooperation
copa
cope
copenhagen
copernicus
coppa
copyright
cor
coral
corbaro
corbusier
corcovado
cordillera
cordoba
cordouan
coreanus
corelli
corfu
corinthians
cork
corneille
cornelis
cornelius
cornell
corner
cornwall
coro
coromoto
coronavirus
corporatename
corporation
corps
corpus
correggio
correspondence
corriere
corsicanus
corso
corte
corun
corvey
cos
cosa
cosh
cosi
cosimo
cosmic
cosmoglotta
cossiga
cost
costa
costanza
cotra
coubertin
could
council
count
counter
countries
country
county
coupe
couperin
cour
courier
cours
course
court
couto
couture
cov
coventry
covid
cox
cp
cpu
cracens
cradle
craig
crassicaudata
crassicaudatus
crawford
crazy
crc
cre
created
creation
creative
creek
creighton
cremona
crespi
crick
cricket
crisis
cristante
cristiana
cristiano
cristina
cristo
cristofano
cristoforetti
cristoforo
criteria
critical
critien
croatia
croatian
croatie
croce
crochet
cromwell
cross
crotone
crowley
crown
crowned
crowther
cruijff
crusades
cruyff
cruz
cruzeiro
cryptonanus
crystal
cs
csa
cska
ct
ctor
cu
cuba
cuenca
cueva
cugnot
cuicatla
cuisine
cultura
cultural
culturale
culture
cultures
cum
cumalıkızık
cuniculus
cunningham
cuore
cup
cups
cura
curac
curie
curmi
curr
current
cuschieri
cut
cutajar
cuvier
cynocephalidae
cynocephalus
cynthia
cyprus
cyrus
cz
czech
cœur
d
da
dag
dahar
daharha
dahru
dai
daily
dak
dakar
dakinhar
dakkir
dal
dalam
dale
dali
dalla
dallas
dalli
dalmazja
dalwaqt
dam
dama
damasku
dame
damet
damiano
damitx
damjan
damma
damu
damux
damx
dan
dana
danakollu
dance
dandria
danemark
danger
daniel
daniela
daniele
daniken
danimarka
danish
daniz
danjel
dann
danneg
danni
dannu
danny
dans
dante
danubju
danzig
daphne
daqna
daqq
daqqa
daqqet
daqqew
daqqiet
daqs
daqshekk
daqsijiet
daqskemm
daqstant
daqsxejn
daqxejn
dar
darb
darba
darbiet
darbtejn
daret
darha
darhom
dari
dario
darius
dark
darling
darmanin
darmstadt
darren
daru
darwin
das
dasjur
dasjuromorfji
dasycercus
dasykaluta
dasyuridae
dasyurinae
dasyurini
dasyuroides
dasyuromorphia
dasyurus
data
dataarkivju
database
databaz
datar
datat
datata
datati
datazzjoni
date
dati
dating
dattiv
dau
daudet
daughter
daum
dauphin
dauurica
dave
david
davies
davis
davos
dawe
dawk
dawl
dawn
dawra
dawran
dawret
dawriet
dawson
dawwar
day
days
daz
dazju
daħal
daħalx
daħla
daħlet
daħliet
daħlitx
daħlu
daħlux
daħħal
daħħlu
dc
ddaħħal
ddebutta
ddec
ddedika
ddedikat
ddedikata
ddedikati
ddefenda
ddefinixxa
ddekorat
ddekorata
ddekorati
ddepoz
dderieg
ddeskriva
ddeterminat
ddeterminata
ddeterminati
ddez
ddikjara
ddikjarat
ddikjarati
ddikjaraw
ddisinja
ddisinjat
ddisinjata
ddisinjati
ddiz
ddokumentat
ddokumentata
ddominat
ddominata
ddominaw
ddoqq
ddum
ddur
de
dead
deaf
deal
dean
death
debate
debattista
debono
deborah
debut
debutt
debuttanti
dec
decca
december
decided
decider
decision
decisions
decline
deco
dedicated
dedika
dedikat
dedikata
dedikati
dedikazzjoni
dee
deep
defeat
defence
defic
defined
definit
definita
definiti
definition
definittiv
definittiva
definittivament
definizjoni
definizzjoni
definizzjonijiet
deforestazzjoni
deg
degas
degiorgio
degli
degradazzjoni
dehbi
deheb
dehebi
deher
dehra
dehret
dehriet
dehru
dei
dejjaq
dejjem
dejjiema
dejjiemi
dejma
dejn
dejqa
dejta
dekadenza
dekan
deklin
dekompoz
dekorattiv
dekorattiva
dekorattivi
dekorazzjoni
dekorazzjonijiet
del
delacroix
deledda
delegat
delegati
delegazzjoni
delegazzjonijiet
delft
delhi
delia
delikat
delikata
delimara
delitt
delitti
dell
della
delle
dellijiet
dello
deloitte
delta
deludenti
dem
demel
demerarae
demetriju
demm
demo
democracy
democratic
demografija
demografika
demokratic
demokratika
demokratiku
demokrazija
demokristjan
demokristjani
demone
demotika
dempsey
den
denb
denbhom
denbu
dendrogale
dendrohyrax
deni
denis
denmark
dennis
denominazzjoni
denominazzjonijiet
dens
densa
densita
densitajiet
dent
dental
dentali
dentisti
dentistrija
deo
department
depasquale
deportati
deportazzjoni
deportivo
depost
depoz
depressjoni
depuis
deputat
deputati
der
derbi
derbianus
derby
derek
derivabbli
derivat
derivata
derivati
derivazzjoni
dermoptera
dermotherium
derorhynchus
derry
des
descartes
description
desde
desert
design
deskritt
deskritta
deskritti
deskrittiva
deskrittivi
deskrizzjoni
deskrizzjonijiet
desmarest
desmond
despic
dessau
destin
destinations
destinazzjoni
destinazzjonijiet
destiny
destroyed
details
detall
detentur
detenturi
deterjorament
determinanti
determinat
determinata
determinati
determinazzjoni
detriment
detroit
dettal
dettaljat
dettaljata
dettaljati
dettalji
dettall
deum
deus
deutsch
deutsche
deutschen
deutscher
deutsches
deutschland
deux
dev
devastanti
development
devi
devil
devils
devon
devot
devota
devoti
devotion
devozzjonali
devozzjoni
dewmien
dez
dezember
deħlin
dfb
dfin
dfl
dg
dgħajfa
dgħajjef
dgħajjes
dgħajsa
dhabi
dharma
dhavalikar
di
dia
diabelli
diacono
diamond
diana
diane
diano
diario
diary
dias
dibattiti
dibattitu
dibbler
dic
dice
dicei
dicembri
dicembru
dich
dick
dickens
dickman
dickoh
dictionaries
dictionary
dictionnaire
did
dida
didelfidi
didelfidu
didelfimorfji
didelfimorfju
didelphid
didelphidae
didelphimorphia
didelphinae
didelphini
didelphis
didelphoidea
didier
die
died
diedet
diedu
diego
diegu
dieher
dieqa
dies
diesel
dieta
dieter
dietrich
dieu
dieudonne
dieħel
dieħla
difensiv
difensiva
difensivi
difensur
difensuri
difetti
difettuz
difference
different
differenti
differential
differenza
differenzi
differenzjabbli
differenzjali
diffic
difficli
diffikulta
diffikultajiet
diffuz
difiz
difna
difniet
dig
diga
digest
digi
digital
digriet
digrieti
dija
dijabete
dijagramma
dijametru
dijanjoz
dijastolika
dijonisju
dijoniz
dik
dikjarat
dikjarazzjoni
dikjarazzjonijiet
dil
dilettant
dilettanti
dimech
dimensjonali
dimensjoni
dimensjonijiet
dimitar
dimostranti
dimostrazzjoni
dimostrazzjonijiet
din
dina
dinamic
dinamika
dinamiku
dinamit
dinamo
dinastija
dinastiji
dinastika
dinger
dingli
dinija
dinja
dinji
dinjiet
dinjija
dinjin
dinjita
dinjitarji
dino
dinosawri
dio
diocletian
diofantej
diofantu
diossidu
dipartiment
dipartimenti
dipendenti
dipendenza
dipendenzi
diploma
diplomatic
diplomatika
diplomatiku
diplomazija
dipressjoni
diprotodontia
diputacio
dir
dirac
direct
direction
director
dirett
diretta
direttament
diretti
direttiva
direttivi
direttorat
direttorju
direttric
direttur
diretturi
direzzjonali
direzzjoni
direzzjonijiet
dirgħajh
dirgħajn
dirichlet
dirig
dirk
dis
disa
disat
discourses
discover
discovered
discoveries
discovery
disease
diseases
disgħa
disgħin
disgħinijiet
disinjatur
disinjaturi
disinji
disinn
disinni
disk
diska
diski
diskografija
diskors
diskorsi
diskrepanza
diskreti
diskriminazzjoni
diskuss
diskussa
diskussi
diskussjoni
diskussjonijiet
disney
dispensa
display
displaystyle
disponibbilta
disponibbli
dispoz
disprezz
diss
disseminazzjoni
distakk
distanti
distanza
distanzi
distint
distinta
distinti
distintiv
distintiva
distintivi
distinzjoni
distrett
distretti
distrettwali
distribution
distribuzjoni
distribuzzjoni
distribwiti
district
distruzzjoni
dith
ditions
ditta
dittatur
dittatura
ditti
diverg
diversa
diversi
diversita
diversity
divertiment
divin
divina
divini
divinita
divinitajiet
divisie
divisio
division
diviz
divorce
divorzju
divrig
dixon
dixx
dixxendent
dixxendenti
dixxendenza
dixxijiet
dixxipli
dixxiplina
dixxiplini
dixxiplu
diyarbakır
diz
dizionario
dizzjunarji
dizzjunarju
dj
djakni
djaknu
djalett
djaletti
djalogu
djamanti
djan
djar
djarhom
djarju
djoc
djoklezjanu
djun
dk
dlam
dm
dmir
dmirijiet
dmitri
dmitry
dmugħ
dna
dnepr
dnieb
dniefel
dnieper
dnub
dnubiet
dnubiethom
do
doc
docherty
docteur
doctor
document
documentary
documentation
documents
does
dog
dohnal
doi
doine
dojoq
dok
dokument
dokumentarja
dokumentarji
dokumentarju
dokumentata
dokumentazzjoni
dokumenti
dolina
dollaru
dolmen
dolmens
dolomieu
dolomit
dolomites
dolomiti
dolores
dom
domain
domanda
domani
domanovic
dome
domenica
domenico
domestic
domestica
domestika
domestiku
dominanti
dominanza
dominata
domingo
dominic
dominici
dominikana
dominique
dominji
dominju
dominus
domning
domowina
domus
don
dona
donald
donatello
donato
donatur
donaturi
donazzjoni
donazzjonijiet
done
donetsk
dong
doni
donizetti
donna
donne
donnha
donnhom
donnu
donovan
door
doppja
doppjetta
doppji
doppju
dora
doreen
doria
doric
doriku
dorothea
dorothy
dorsalis
dorset
dortmund
dos
dossier
dot
dota
dott
dottorat
douard
double
doubleday
douglas
douro
dover
dovut
dovuta
dovuti
down
downing
download
downloaded
doyle
doz
dp
dqiq
dr
dra
drabi
dragan
draghi
dragon
dragun
draguni
dragut
drake
drale
drama
dramatic
dramm
dramma
drammatic
drammatika
drammatiku
drammaturgu
drammi
dranag
drapp
drappijiet
drastikament
drastiku
draw
drawing
drawings
draws
drawwa
drawwiet
dream
dreams
drenag
dresden
drew
driegħ
dritt
dritta
dritti
drittijiet
drive
driver
drivers
dro
droga
drogba
drogi
dromiciops
dros
drosophila
drottningholm
drug
drummer
drums
druwidi
dryas
ds
dsatax
dt
du
duane
duarte
dubbien
dubbiena
dubji
dubju
dubjuz
dublin
dubois
dubrovnik
dubrovnika
duc
dud
dudelange
due
duero
duesberg
dugon
dugong
dugongi
dugongidae
duisburg
duka
dukali
dukat
dukati
duke
dukessa
duki
dulas
duluri
dumas
dumbarton
duminku
dumnikan
dumnikana
dumnikani
dumont
dun
duncan
dundalk
duni
dunnart
duomo
dura
durante
durham
during
durmitor
dus
dusisiren
dutch
duttrina
duttrini
duttur
duħħan
dvd
dw
dwal
dwana
dwar
dwardu
dwarha
dwarhom
dwaru
dwejjaq
dwejra
dwell
dwett
dwiefer
dwieli
dx
dy
dyck
dynamics
dynamo
dynasty
dyson
dz
dħul
długoborski
də
e
ea
each
eagle
eagles
ean
eani
eanic
eanika
eanja
earl
earliest
early
earth
earthquake
east
eastern
eat
eau
eb
ebba
ebbug
ebda
ebejer
ebel
ebert
ebgħa
ebi
ebla
ebliet
ebra
ebrajk
ebrajka
ebrija
ebrin
ebro
ebu
ec
ecce
eccellenti
ecco
echo
echymipera
eco
ecol
ecological
ecology
economic
economics
economist
economy
ecuador
ed
eda
edda
edded
eddie
eden
edent
edentament
edentement
edenti
edenza
edew
edgar
edi
ediciones
ediet
ediment
edimenti
edinburgh
edinburgu
edison
edited
edith
edition
editions
editjar
editjat
editjata
editor
editore
editorial
editorjali
editors
editric
editrice
editt
editur
edituri
edizioni
edizzjoni
edizzjonijiet
edja
edji
edmond
edmund
edo
edonja
edonjan
eds
edu
eduard
eduardo
education
educational
edukat
edukata
edukati
edukattiv
edukattiva
edukattivi
edukatur
edukazzjoni
edura
eduri
edut
eduta
eduti
edward
edwardii
edwards
edwin
ee
eea
eeckhout
eerste
eesti
efesu
effects
effet
effett
effetti
effettiv
effettiva
effettivament
effettivi
effic
effiena
effikac
eg
egd
eggenberg
egovina
egrant
egypt
egyptian
egħlu
ei
eiffel
eight
eighteenth
ein
einaudi
eindhoven
eine
einem
einen
einer
eines
einfu
einstein
eintracht
eisenberg
eisinga
ej
eja
ejda
ejja
ejjec
ejjed
ejjen
ejjer
ejjew
ejjieni
ejjin
ejna
ejnin
ejnu
ejra
ejriet
ejt
ejtun
ejz
ek
eka
eki
ekja
ekk
ekkja
ekklez
eklissi
ekolog
ekonomic
ekonomija
ekonomiji
ekonomika
ekonomikament
ekonomiku
ekonomista
ekonomisti
ekoreg
ekosistema
ekosistemi
ekoslovakkja
eks
ekstraterrestri
ekumeniku
ekuttiv
ekuttiva
ekuttivi
ekuzzjoni
ekwador
ekwatorjali
ekwatur
ekwazzjoni
ekwazzjonijiet
ekwestri
ekwilibriju
ekwinozju
ekwipag
ekwivalenti
ekwivalenza
el
elaborat
elaborata
elaborati
elaine
elastic
elbe
elder
eleanor
elebra
elebrat
elebrata
elebrati
elebraw
elebrazzjoni
elebrazzjonijiet
elebri
elected
election
elections
electric
electricity
electronic
elef
eleg
elegans
eleganti
eleganza
elel
element
elementari
elementi
elements
elena
elenkat
elenkata
elenkati
eleonora
elephant
elephantulus
elesti
elestjali
elett
eletta
eletti
elettorali
elettorat
elettric
elettrika
elettriku
elettromanjetika
elettromanjetiku
elettromanjetiz
elettron
elettroni
elettronic
elettronika
elettroniku
elettur
eletturi
elevat
elevata
elevati
elevazzjoni
elevazzjonijiet
elezzjoni
elezzjonijiet
elf
elfejn
eli
elias
elic
elig
elija
elik
elika
eliminat
eliminata
eliminati
eliminatorja
eliminaw
eliminazzjoni
eliot
elis
elisabeth
elisabetta
elisir
elista
elisti
elit
elite
eliz
eliza
elizabeth
elizzazzjoni
elji
elju
ell
ella
ellat
elle
ellenika
ellenistic
ellenistika
ellenistiku
ellenti
ellenza
ellerat
elli
ellied
ellieda
elliot
ellioti
elliott
ellis
ellittic
ellittika
ellola
elloli
ellona
ellora
ellosi
ellul
ellula
ellulari
elluli
elmu
elmundo
elo
elona
elpidophorus
elsa
else
elsevier
eltic
eltika
eltiku
elu
eluf
elvas
elvira
elvis
em
ema
emanc
emanuel
emanuele
embalu
embargo
embassy
emberiza
emblema
emblematic
emblematika
emblemi
embrijun
embrijuni
embru
emel
emellag
emellat
emellata
emenda
emendata
emendi
ement
emerg
emerging
emeritu
emeritus
emerson
emgħa
emgħat
emgħu
emi
emigra
emigranti
emigraw
emigrazzjoni
emil
emile
emilia
emiliae
emiliano
emilio
emily
emine
eminenti
emir
emirat
emirates
emirati
emisfera
emisferu
emissjonijiet
emma
emmanuel
emmanuele
emmen
emmnu
emonds
emonija
emozzjonali
emozzjoni
emozzjonijiet
empel
emperor
empire
empires
empji
empju
emplari
en
ena
enamorados
enarji
enb
enbejn
enbha
enbu
enc
encarta
enciclopedia
encyclopaedia
encyclope
encyclopedia
encyclopædia
end
enda
endangered
endarja
endarju
endemic
endemika
endemiku
endi
ends
ene
enea
enealog
enemalta
enera
eneral
enerali
eneralment
enerat
enerata
eneraw
enerazzjoni
enerazzjonijiet
energ
energy
eneri
eneriku
eneroz
eneru
eneruz
enesi
enetic
enetika
enetikament
enetiku
enfant
enfasi
enfasizza
enfasizzat
enghien
engine
engineering
engineers
england
english
eni
enic
enija
enika
enittiv
enitur
enituri
enja
enjaw
enji
enju
enjuz
enlightening
enlightenment
enn
enna
ennaru
ennji
ennju
enoc
enoma
enomi
enone
enormi
enotip
enova
enrico
enriku
enrique
ens
ensemble
ensi
ensiment
ensjonijiet
ensna
ensu
ensura
ent
enta
entaha
entament
entant
entanta
entanti
entanza
entat
entata
entati
entatric
entattiv
entattiva
entattivi
entatur
entaturi
entaw
entazzjoni
entazzjonijiet
entement
entenarju
entertainment
entez
enti
entier
entiera
entili
entimetri
entimetru
entin
entina
entinarju
entini
entita
entitajiet
entlom
entra
entrali
entralizzata
entralizzazzjoni
entrament
entrat
entrata
entrati
entraw
entrazzjoni
entrazzjonijiet
entre
entri
entric
entrika
entru
entry
entuz
entwali
enu
environment
environmental
enwin
enwina
enz
enza
enzi
enzija
enziji
enzja
enzjat
enzji
enzo
eo
eodetiku
eoglific
eografic
eografija
eografika
eografikament
eografiku
eografu
eolji
eolog
eologi
eologu
eomanis
eometric
eometrija
eometrika
eometriku
eomorfic
eomorfolog
eorg
eosiren
ep
ephesus
epic
epictetus
epidaurus
epidemija
epidemiji
epifanija
epika
epiment
epiru
epirus
episkopali
episkopat
episodji
episodju
epistemolog
epistoli
epit
epitet
epoka
epoki
epp
eppi
epps
epsilon
eqdem
eqqel
eqreb
equations
equiv
er
era
erakle
eramika
erarkija
erasmus
erat
erba
erbajg
erbat
erbatax
erbgħa
erbgħin
erbivori
erbivoru
erc
ercole
erdogan
erdot
erdotali
erdoti
erdozju
ereali
eredi
eredita
ereditarju
eredivisie
eremija
eremita
eremitag
eremiti
erer
erere
erew
erez
erg
eri
eric
erich
eriet
erih
erija
erik
eriment
erimenti
erimonja
erimonjali
erimonji
erin
erina
eris
erit
erita
eritrea
erixxa
erixxi
erixxu
erja
erjali
erjan
erka
erkatur
erkaturi
erki
erkole
erlangen
ermanic
ermanika
ermaniku
ermaniz
ermanja
ermen
ermia
erna
ernati
ernaw
ernest
ernesto
erniq
ernst
ero
erodi
eroglific
eroglifika
eroglifiku
eroina
eroj
erojka
eront
eronti
eros
erotic
eroz
erriegħa
error
ers
erste
ert
erta
ertament
ertezza
erti
ertifikat
ertifikati
ertifikazzjoni
ertu
erun
erusalemm
erva
ervat
ervata
ervati
ervi
erwieħ
erwin
erz
es
esa
esag
esan
esana
esarija
esc
escape
escher
escorial
esctoday
escu
esebiti
esebizzjoni
esebizzjonijiet
eseg
esej
esejs
esi
esijiet
esklussiva
esklussivament
eskluz
esky
espagne
espan
espanda
espansjoni
espanyol
esperanto
esperiment
esperimenta
esperimenti
esperjenza
esperjenzat
esperjenzaw
esperjenzi
espert
esperti
espinosa
esplic
esplora
esploratur
esploraturi
esplorazzjoni
esplorazzjonijiet
espn
espnsoccernet
esponent
esponenti
esponenzjali
esponiment
esportazzjoni
esportazzjonijiet
espost
esposta
esposti
espoz
espressa
espressi
espressiva
espressivi
espressjoni
espressjonijiet
esprima
esprimew
esprit
esri
ess
essa
essar
essarja
essarjament
essarji
essarju
essat
essata
essay
essays
essdata
essen
essential
essenza
essenzjali
essenzjalment
essex
essi
essibbli
essien
essiv
essiva
essivament
essivi
essjoni
essjonijiet
essri
essur
essuri
est
esta
establishment
estadi
estadio
estado
estanti
estasi
estatal
estate
este
estenda
estensiv
estensiva
estensivi
estensjoni
estensjonijiet
estenzjoni
ester
estern
esterna
esterni
estetic
estetika
estetiku
esther
esti
estint
estinta
estinti
estinzjoni
estit
estita
estiti
estixxi
estiz
estjoni
estonia
estonie
estonja
estonjan
estonjana
estratt
estratti
estrazzjoni
estrem
estrema
estremament
estremi
estudiantes
estudios
estwarju
esu
et
eta
etac
etajiet
etali
etazzjoni
etc
etern
eterna
eterni
ethnic
ethnologue
etic
etienne
etika
etiku
etimolog
etjopja
etjopjan
etna
etnic
etnika
etniku
eto
etruski
ett
etta
ettabbli
ettari
ettaru
ettat
ettata
ettati
ettaw
ettawx
ettax
ettazzjoni
etti
ettijiet
ettiv
ettiva
ettivi
ettore
ettura
etturi
ettwali
etymology
etymonline
eu
euarchonta
euarchontoglires
euch
eufo
euge
eugene
eugenio
eulagos
euler
eumenes
euphorbia
eur
euro
europa
europaeus
europarl
europe
european
europol
eurovision
eus
eutheria
eutr
eva
evakwati
evaluation
evalwazzjoni
evang
evans
evarist
eve
evelyn
even
evening
event
events
eventwali
eventwalment
ever
everest
everetti
everton
every
everyday
everything
evew
evic
evidence
evidenti
evidenza
eviet
eviment
evita
evitat
evitata
evitati
evitaw
evo
evol
evoli
evolution
evolutionary
evoluttiv
evoluttiva
evoluttivi
evoluzzjonarja
evoluzzjoni
evolva
evolvew
evolviet
evra
evu
ew
ewfrate
ewg
ewh
ewijiet
ewkaliptu
ewkaristija
ewkaristiku
ewlenija
ewlenin
ewlieni
ewrasja
ewro
ewropa
ewropea
ewropej
ewropeja
ewropew
ews
ewsebju
ewsoc
ewwa
ewweg
ewwel
ewwelnett
ewwg
ewwieni
ewwig
ewwinija
ewx
ewz
ex
excavations
excelsior
exchange
exclusive
executive
exeter
exhibition
exists
exit
expansion
expedition
experience
experimental
experiments
experts
explained
exploration
explorer
exposition
express
extension
extinction
extra
extremadura
extreme
exupe
eyckensis
eye
eyes
ez
ezzjonali
ezzjoni
ezzjonijiet
eħfef
eħrex
eħxen
f
fa
fabbrika
fabbriki
faber
fabian
fabio
fabrizio
fac
face
facebook
faces
facile
fact
factbook
facto
factor
factory
facts
fadal
fadallu
fagu
fagus
fahrenheit
faial
failla
fair
fairs
faith
fajl
fajls
fakkar
fakulta
fakultajiet
falaj
falang
falco
falcone
falkenlust
falkland
falklands
fall
falla
fallew
falliet
falliment
fallimenti
falls
fallut
false
falun
falz
falza
falzon
fama
fame
famiglia
families
familja
familjari
familji
familtu
family
famous
famuz
fan
fanal
fanali
fanatiz
fanny
fano
fans
fantasija
fanterija
fantin
fao
faqar
faqqgħet
faqqiegħ
faqqus
far
farag
faragħun
faragħuni
farewell
farfett
fariz
farm
farmac
farnese
faroe
faroiz
farrar
farrug
farrugia
fasciatus
fash
fashion
faso
fassal
fasslu
fast
fatali
fatberg
fatbergs
fate
fatehpur
father
fathers
fatima
fatou
fatt
fatti
fattizzi
fatto
fattorizzazzjoni
fattur
fatturi
fauna
faure
faust
favorevoli
favorit
favorita
favoriti
favur
fawna
fawwara
fawwariet
faxex
faxx
faxxa
faxxi
faxxist
faxxista
faxxisti
faxxiz
fayard
faz
fazzjoni
fazzjonijiet
faħam
faħħar
faħħru
fbi
fc
fdal
fdalijiet
fdat
fdata
fdi
fe
fearne
feature
features
februar
february
fed
fede
fedelta
federal
federali
federation
federazzjoni
federazzjonijiet
federico
federiku
feet
feg
fehem
fehim
fehma
fehmiet
fehmu
fejn
fejqan
fekruna
felic
felice
felini
felipe
felis
felix
fellow
fellows
female
feminism
feminist
femme
femmes
femminili
femminista
fen
fenech
fenek
fenerbahc
fenic
fenice
fenomeni
fenomenu
fer
ferdinand
ferdinando
ferdinandu
ferenc
ferencva
ferguson
fergħa
fergħat
feria
ferita
feriti
ferm
fermat
ferna
fernand
fernandes
fernandez
fernandina
fernando
feroc
ferrand
ferrante
ferrara
ferrari
ferreira
ferrieħi
ferrobattut
ferrovija
ferroviji
ferrovjarja
ferrovjarji
ferrovjarju
fertili
fertilita
fertilizzazzjoni
ferto
feruti
ferħ
ferħan
fes
festa
festi
festin
festini
festival
festivals
fetaħ
fetu
fetħa
fetħet
fetħiet
fetħu
fever
fewdali
feyenoord
ff
ffa
ffac
ffinanzjat
ffinanzjati
ffirma
ffirmat
ffirmaw
fforma
ffortifikat
ffortifikata
ffriz
ffurmat
ffurmata
ffurmati
ffurmaw
fgura
fi
fia
fiat
fibonacci
fibra
fibri
fic
fico
fiction
fid
fida
fidda
fiddien
fide
fidel
fidi
fidil
fidili
fiduc
fidwa
field
fier
fiera
fieri
fifa
fife
fifpro
fig
figaro
figc
fight
fighting
figo
figura
figure
figures
figuri
figurini
fih
fiha
fihom
fija
fik
fil
filantropu
filarmonika
file
filfatt
filfla
filgħaxija
filgħodu
fili
filipovic
filippi
filippin
filippini
filippo
filippu
fill
film
filmat
filmati
films
filo
filog
filolog
filosfi
filosfu
filosofi
filosofic
filosofija
filosofika
filosofiku
filosofu
filtri
filtru
filwaqt
fimbank
fin
fina
final
finale
finali
finalist
finalista
finalisti
finally
finalment
finals
finance
financial
finanzi
finanzjament
finanzjarja
finanzjarjament
finanzjarji
finanzjarju
find
finds
fine
fini
finit
finiti
finitura
fink
finland
finlande
finlandiz
finlandja
finta
fiona
fiore
fiorentina
fiorentini
fiorentino
fiori
fir
firda
fire
firem
firenze
firien
firma
firmatarji
firmin
first
firxa
fis
fischer
fish
fisher
fisic
fiskali
fiss
fissa
fisser
fissi
fissret
fit
fittex
fittizja
fittizju
fittxew
fitzgerald
fitzroy
five
fix
fiz
fizzjoni
fiħ
fjamma
fjammi
fjamming
fjamminga
fjammingi
fjandri
fjord
fjorentin
fjorentina
fjorentini
fjorin
fjura
fjuri
fjuwil
fk
fkieren
fl
flag
flamel
flamenco
flamengo
flamurtari
flannery
flash
flat
flaubert
flawt
fle
fleagle
flejjes
fleming
flessibbli
fletcher
fleur
fliegu
flight
flimkien
flixkun
flok
flokk
flokkijiet
floku
flora
florence
florentino
flores
floriana
florida
floridanus
florie
flotta
flower
flowers
floyd
flus
fluss
flussi
flusu
fluwidi
fluwidu
fly
flying
flynn
fm
fna
fniedaq
fniek
fnu
fo
focus
foglio
fokali
foki
folan
folja
folji
folk
folklor
folklore
folkloristic
folkloristika
folkloristiku
folla
following
folol
foloz
fomm
fonctions
fond
fonda
fondat
fondati
fondazione
fondazzjoni
fonderija
fondi
fondoq
fondut
fonduta
fonduti
fonemi
fonetic
fonetika
fonetiku
fonolog
fonseca
fontaine
fontainebleau
fontana
fontenay
fonti
food
foods
fool
fools
foot
football
footballdatabase
foqra
for
forall
forbes
forbidden
force
forces
ford
foreign
forel
forensika
forest
foresta
forestali
foresti
forests
forfc
forgotten
forka
form
forma
formali
formalment
format
formation
formattiv
formazzjoni
formazzjonijiet
former
formola
formoli
formosa
forms
formula
formulaone
formulazzjoni
formuli
forn
fornitur
fornituri
forom
forsi
fort
forte
forth
forti
fortifications
fortifikazzjoni
fortifikazzjonijiet
fortijiet
fortizza
fortizzi
fortress
fortuna
fortunatament
fortunato
fortune
fortuni
forum
forward
forza
forzi
foscolo
fosos
foss
fossa
fossil
fossili
fossilu
fost
foster
fosthom
fostna
fotografi
fotografija
fotografu
foton
fotoni
found
foundation
foundations
founder
fountains
four
fourier
fourth
fowler
fox
fqar
fqir
fqira
fr
fra
frac
fracci
frag
frak
frame
framework
framment
frammenti
fran
franc
franca
france
francesca
francesco
francia
francis
francisco
franciszek
franck
franco
frang
frangisk
frangiskani
frank
franka
frankfurt
franki
franklin
franko
frankonja
frans
franz
franza
frar
fraser
fratellanza
fratelli
fratturi
frawli
fraz
frazzjoni
fre
fred
freddi
freddie
frederic
frederick
frederik
fredrik
free
freedom
freeman
freg
frege
freiburg
frekwenti
frekwenza
frekwenzi
french
frendo
freni
frere
freud
freund
frida
fried
friedrich
friefet
friegħi
friend
friends
frieħ
frig
friggieri
frink
frisk
friska
friski
fritz
friuli
frivaru
friz
frizzi
frodi
from
front
frontier
frontiers
frosta
frott
frotta
frottijiet
fruit
fruits
fruntiera
fruntieri
fs
fsadni
fse
ft
ftakar
ftehim
ftehimiet
ftit
ftuħ
fu
fuego
fuga
fuji
fuklar
fulham
fuliginosus
fuljett
fuljetti
full
fun
functional
functions
fund
fundacio
fundamentali
fundamentalment
fundat
fundata
fundatric
fundatur
fundaturi
fundazzjoni
funebri
funeral
funerali
fungi
fungu
funtana
funtani
funzjonali
funzjonalita
funzjonament
funzjoni
funzjonijiet
fuori
fuq
fuqek
fuqha
fuqhom
fuqu
furioso
furjana
furketta
furnar
furnara
further
fuscatus
fuscipes
fuscus
fussball
fussballdaten
futbol
futboler
futbolers
futboll
futbolo
futur
futura
future
futuri
fuz
fußball
fuħħar
fwar
fwied
g
ga
gabinetti
gabon
gabriel
gabriele
gabrijel
gaddafi
gaeliku
gaetano
gafa
gag
gaga
gaia
gal
gala
galapagos
galassja
galassji
galata
galatasaray
galatin
galaxy
gale
galea
galeazzi
galen
galeopterus
galerie
galicia
galilei
galileo
galizia
galizja
galizjan
gallarija
gallariji
gallen
galleria
galleries
gallerija
galleriji
gallery
galli
galliani
galliku
gallimard
galliz
gallja
gallo
gallup
galois
galopp
galvani
galway
gama
gambja
game
games
gamma
gammelstad
gamper
gana
ganado
ganc
gandhi
gandzasar
ganghwa
ganiz
gansu
gant
gantesk
ganteska
ganteski
ganti
gantija
gantoise
gara
garantit
garanzija
garaxx
garci
garcia
gard
garde
garden
gardens
gardner
gareth
garibaldi
garifullina
garigor
garrido
gary
gas
gaspar
gaspard
gaspare
gass
gassijiet
gassuz
gate
gates
gatt
gau
gauci
gaudi
gauge
gauguin
gaul
gauliga
gaulle
gauss
gautama
gauthier
gavazzeni
gawda
gawdew
gawdiet
gawwija
gawwijiet
gay
gaya
gaz
gazeta
gazette
gazetteer
gazin
gazzetta
gazzetti
gdan
gdid
gdida
gdp
ge
gea
geddumhom
geesin
geiger
gejtanu
gemma
gen
genbaku
gender
gene
genealogy
general
generali
generation
genet
genetic
genetics
genghis
genius
genk
gennaro
genoa
genome
genova
gent
gentileschi
gentleman
genus
geoffrey
geoffroy
geographic
geographical
geography
geological
geology
geometry
georg
george
georges
georgia
georgian
georgina
geq
ger
gerada
gerald
gerard
gerd
gerhard
geri
gericault
germain
german
germany
germinal
gerrard
gerriema
gerry
gervais
geschichte
gesellschaft
gestapo
gesu
get
gets
getty
gew
gewandhaus
gewwa
gf
ggradwa
ggradwat
ggwidata
ghad
ghajnsielem
ghal
ghalhekk
ghaliex
ghalkemm
ghall
ghamel
ghana
ghandhom
ghandu
ghaqda
ghar
ghat
ghawdex
ghax
ghent
gheorghe
ghetto
ghettos
ghirlandaio
ghost
ghostarchive
gi
giacomo
giampiero
gian
gianluca
gianna
gianni
giant
giants
gibellini
gibraltar
gibson
gica
gicas
gico
gidba
gide
gideb
gidley
gie
giet
giggs
gigi
giglio
gijo
gil
gilbert
giljan
gill
gilles
gimignano
gina
ginea
gingerich
gino
gioacchino
gioco
gioconda
giocondo
gion
giordano
giorgi
giorgia
giorgio
giorgione
giornale
giorni
giorno
giosue
giotto
giovane
giovani
giovanna
giovanni
girard
girgor
girl
girlanda
girls
girolamo
giuditta
giugnettu
giugno
giugnu
giulia
giuliano
giulio
giuseppe
give
given
givenchy
gives
giza
gjirokaste
gk
glac
glaize
glandoli
glasgow
glass
glen
glenn
gli
glires
glironia
glis
global
globali
globalment
globe
gloria
glorja
glorjuz
glory
glossarju
glossary
gloveri
glu
gmbh
gniedes
go
goa
goal
goalkeeper
goals
gob
gobierno
god
godfrey
gods
goes
goethe
goff
gogh
goin
going
gol
gold
golden
goldfuss
goldman
goldstein
golf
gomel
gomera
gomes
gomma
gonc
gondwana
gone
gonza
gonzaga
gonzale
gonzalez
gonzalo
gonzi
good
google
goran
gorbachev
gordon
gorg
gorge
gost
gosti
got
gotemba
gothic
goti
gotic
gotika
gotiku
gotland
gott
gottfried
gouder
gouges
gould
gounod
gov
governanza
governattiv
governattiva
governattivi
government
governo
governorat
govine
gowl
gowler
gowlers
gowlkiper
gowls
goya
gozo
gp
gr
gra
graafschap
grac
grace
gracilinanus
gracilis
grad
gradi
graduate
gradwali
gradwalment
gradwati
gradwazzjoni
graf
graffiti
grafi
grafic
grafika
grafiku
graham
gramma
grammar
grammatica
grammatika
grammatikali
grammy
gran
granada
granatensis
granc
grand
grande
grandes
grandjuz
grands
granger
granit
granmastru
grant
grants
granuli
graph
gratiano
gratitudni
gravi
gravita
gravitazzjonali
gravitazzjoni
grawnd
grawnds
gray
graz
grazia
grazie
grazio
grazzi
grazzja
grazzji
grazzjuz
gre
great
greater
greatest
grec
grech
greco
greece
greek
green
greene
greenland
greenpeace
greenwood
greg
gregor
gregorio
gregorjan
gregorjana
gregorju
gregory
grellan
gremxul
gremxula
grenada
grenadini
grenoble
greta
grey
grezz
grieg
griega
griegi
grigal
grilja
grima
grimm
griz
gro
grodno
groeberia
groenlandja
groningen
gropius
gross
grote
grothendieck
grotta
grotte
grotti
ground
group
groupes
groups
grove
groves
growing
growth
grozju
gru
grube
grupp
gruppi
gruyter
gu
guadalajara
guadalquivir
guadalupe
guahybae
guanajuato
guangxi
guardi
guardian
guardiola
guatemala
gudja
gue
guerra
guevara
guez
guggenheim
guglielmo
gui
guida
guide
guides
guido
guild
guillaume
guillermo
guinea
guinness
gujana
gujarat
gulf
guliermu
guljelmu
gullit
gun
gunju
gunnar
gunners
guns
gupta
gur
gura
gurat
gurata
guraw
gurbanov
guri
guridi
gushchina
gustafsson
gustav
gustave
gustavo
gut
gutenberg
gutie
guy
guzepp
guzeppi
guzma
gvern
gvernatur
gvernaturi
gvernijiet
gverta
gwann
gwardamang
gwardja
gwardjan
gwardjani
gwardji
gwarnic
gwarnig
gwatemala
gwelfi
gwerer
gwerra
gwid
gwida
gwidi
gwinea
gwu
gyeonggi
gyeongju
gymnasium
gyo
gz
gzejjer
gzira
għ
għa
għabex
għac
għad
għada
għadab
għadajjar
għadam
għadd
għadda
għaddej
għaddejja
għaddejjin
għaddew
għaddiet
għaddiex
għadek
għadha
għadhiex
għadhom
għadhomx
għadira
għadis
għadma
għadmiet
għadna
għadni
għadu
għadux
għag
għajdut
għajjat
għajjien
għajn
għajnejh
għajnejha
għajnejhom
għajnejja
għajnejn
għajnejna
għajnsielem
għajnuna
għajr
għajta
għajxien
għaksa
għal
għala
għalaq
għaldaqstant
għalfejn
għalhekk
għali
għaliex
għalih
għaliha
għalihom
għalija
għalik
għalina
għalja
għaljin
għalkemm
għalkollox
għall
għallem
għalliem
għalliema
għallis
għallmet
għallmu
għalqa
għalqet
għalqu
għalxejn
għama
għamara
għamel
għamilha
għamilhom
għamillu
għamilna
għamilt
għamja
għamla
għamlet
għamliet
għamlitha
għamlitu
għamlu
għamluh
għamluha
għammiel
għammiela
għan
għana
għand
għandek
għandha
għandhiex
għandhom
għandhomx
għandhu
għandi
għandna
għandniex
għandu
għandux
għani
għanijiet
għanja
għanjiet
għannej
għannejja
għaqal
għaqda
għaqdiet
għaqli
għaqqad
għar
għarab
għarabja
għaraf
għarajjes
għaram
għaraq
għarb
għarbi
għarbija
għaref
għarfien
għarfu
għargħar
għargħur
għarqub
għarrieda
għarus
għarusa
għarwien
għarwiena
għas
għasafar
għasel
għasfur
għasri
għassa
għassiesa
għat
għata
għatba
għatx
għawdex
għawdxi
għawdxija
għawdxin
għawg
għawm
għax
għaxaq
għaxar
għaxart
għaxija
għaxra
għaz
għeb
għebet
għebu
għedewwa
għeg
għeja
għejun
għelbet
għelbu
għeleb
għelejjel
għeliem
għelieqi
għeluq
għemejjel
għemil
għemilu
għen
għeneb
għenet
għenitu
għenu
għenuh
għera
għereq
għerf
għerien
għerq
għeruq
għerusija
għerwenin
għerwien
għet
għex
għexet
għexieren
għexu
għid
għidli
għin
għinna
għir
għira
għixien
għodda
għodod
għodwa
għog
għola
għoli
għolja
għoljiet
għoljin
għolla
għollieq
għomja
għomor
għomru
għonja
għonq
għonqu
għoqod
għorfiet
għorrief
għoti
għotja
għotjiet
għoxrin
għoz
għu
għuda
għux
h
ha
haag
haber
habitat
habitats
hachette
had
hadd
hadet
hadise
hadrian
hadz
haeinsa
hafna
haga
hagia
hai
haifa
hainan
hainanus
hainaut
haiti
hajja
hajtu
hakan
hal
hala
hale
halitherium
hall
halla
halle
halley
halli
hallstatt
ham
hamburg
hamburger
hamilton
hamlet
hamlyn
hammond
han
hand
handanovic
handball
handbook
handley
handleyi
hang
hangul
hanja
hannah
hanno
hannover
hanoi
hanover
hans
hansen
happel
happened
happy
harald
harcourt
hard
hardcover
hardy
hargreaves
hari
harmonia
harold
harper
harpercollins
harpsichord
harrassowitz
harris
harrisii
harrison
harry
hart
hartt
harvard
harvey
harz
has
hasan
hassan
hat
hathor
hattusha
haunted
haus
haute
have
haven
hawa
hawaii
hawking
hawn
hawnhekk
hay
hayden
haydn
haz
hbar
he
head
health
heart
heath
heaven
heavy
hector
heda
hedded
heerenveen
hegel
heidegger
heidelberg
heine
heinemann
heinrich
heinz
hekk
held
helen
helena
helgen
hell
hellas
hellenic
hellenistic
hello
helmholtz
helmut
help
helsinki
hemm
hemmhekk
hemmx
hena
henares
henderson
henge
henri
henrietta
henrik
henry
henslow
her
herald
herbert
hercules
here
heritage
herman
hermann
hermannus
hermitage
herna
hernandez
hero
heroes
herr
herrera
herrmann
herrn
hertha
hertz
herz
herze
herzegovina
herzog
hesse
hessen
het
heterohyrax
heverlee
hevsel
hewitt
hewsen
heynckes
hez
hi
hibernians
hibs
hidalgo
hidden
hideki
hieni
hienja
hier
hierapolis
hierarchy
hieronymus
higgs
high
highbury
higher
highest
highlights
higuai
hija
hijiex
hilaire
hilary
hilbert
hildesheim
hilgemann
hili
hill
hillenbrand
hills
hilma
him
himalayas
himeji
himst
hin
hindu
hinduism
hinn
hiroshima
his
hispania
hist
histo
histoire
historia
historians
historic
historica
historical
historicengland
histories
historique
historiques
history
hit
hitler
hits
hitzfeld
hiv
hix
hl
hler
hm
hms
ho
hoc
hockey
hockfield
hodder
hodges
hof
hoffenheim
hoffman
hoffmann
hogg
hoi
holas
hold
holger
holiday
holland
hollande
hollywood
holmes
holocaust
holstein
holt
holy
hom
home
homepage
homme
homo
hompesch
hon
hondalagus
honduras
hong
hongrie
honneur
honor
honore
honoris
honour
honours
hood
hooke
hooker
hookham
hop
hope
hopkins
hora
horn
horse
horsfield
horst
horta
hospital
host
hosts
hot
hotel
hotspur
hotspurs
houdon
houghton
houllier
hours
house
houses
housing
houston
hovga
how
howard
howe
hoxha
hr
hrer
hrsg
hrung
htm
html
http
https
hu
huang
huangensis
huber
hubert
huddersfield
hudson
huelva
hugh
hughes
hugo
hui
hull
hum
huma
human
humanitarian
humanities
humans
humayun
humboldt
humiex
humphreys
humphries
hund
hundred
hungary
hunt
huntelaar
hunter
hunting
hussein
hutchinson
hutton
huwa
huwiex
hux
huxley
hydrodamalis
hyksos
hymne
hyperborea
hyperdidelphys
hypertension
hypogeum
hypolagus
hyracoidea
hyzler
i
ia
iaea
ial
ian
ib
iba
ibati
ibba
ibbaz
ibbilanc
ibbilta
ibbli
ibbumbardjata
ibda
ibdet
ibdu
ibed
ibeg
ibejtu
ibel
iben
ibenik
iberic
iberika
iberja
ibid
ibiddel
ibiet
ibigħ
ibilta
ibjun
ibjuni
ibliet
ibm
ibn
ibniet
ibnu
ibrag
ibrahim
ibridi
ibs
ibu
ibħra
ic
ica
iccu
ice
iceland
ich
icomos
icon
iconography
id
ida
idaeus
idawwar
idaħħal
iddaħħal
iddaħħlu
iddebutta
iddec
iddedika
iddedikat
iddedikata
iddedikati
iddefenda
iddekorati
iddepoz
iddeskriva
iddeskriviha
iddeterminat
iddez
iddikjara
iddikjarat
iddikjarata
iddikjarati
iddikjaraw
iddisinja
iddisinjat
iddisinjata
iddisinjati
iddiskuta
iddiz
iddokumentat
iddokumentata
iddokumentati
iddominat
iddominata
iddominaw
iddoqq
iddur
ide
idea
ideal
ideali
idealiz
ideas
ideat
ideja
idejat
idejh
idejha
idejhom
idejja
idejk
idejn
ident
identali
identi
identic
identifika
identifikabbli
identifikat
identifikata
identifikati
identifikaw
identifikazzjoni
identika
identiku
identita
identity
idenza
ideolog
idew
idha
idi
idiet
idjaq
idjar
idji
idjoc
idjoma
idjomi
idju
ido
idol
idoli
idolu
idoqq
idoqqu
idrawlika
idrija
idroelettrika
idrog
idu
iduka
idum
iduna
idur
iduru
ie
ieb
ieba
iebes
iebsa
iebu
ied
ieda
iedet
iedi
iedu
ieee
ieg
iegħ
iegħel
iegħla
iegħlu
ieh
iehor
iel
iela
ielda
ieldet
ieldu
ieled
ieli
iemel
ien
iena
ieqa
ier
iera
ieri
iermu
ieru
iet
ietu
ietx
ieva
ievi
ievu
iewi
iex
iez
ieħ
ieħor
ieħu
if
ifa
ifakkar
ifakkru
ifaħħar
ifeg
ifen
iffac
iffhs
iffinanzjat
iffinanzjati
iffirma
iffirmar
iffirmat
iffirmata
iffirmati
iffirmaw
iffjorixxiet
ifforma
iffortifikat
iffortifikata
iffortifikati
iffriz
iffurmat
iffurmata
iffurmati
iffurmaw
ific
ifieri
ifika
ifikament
ifikat
ifiku
ifiss
ifisser
ifissjoni
ifissru
ifittex
ifittxu
ifjen
ifna
ifnet
ifniet
ifqar
ifra
ifrat
ifri
ig
igawdi
igawdu
iggradwa
iggradwat
iggwida
iggwidati
iglesia
ignacio
ignacius
ignaz
ignazio
ignitus
igor
igoti
igwani
igz
igħ
ih
iha
ihom
ihr
ii
iii
ija
iji
ijiem
ijiet
ijin
ik
ika
ikabbar
ikali
ikament
ikanta
ikantaw
ikbar
ikec
ikejjel
ikel
ikellem
ikistan
ikkaratterizzat
ikkaratterizzata
ikkaratterizzati
ikkawz
ikklassifika
ikklassifikat
ikklassifikata
ikklassifikati
ikkokkjar
ikkollegata
ikkollegati
ikkompeta
ikkompetew
ikkompona
ikkonc
ikkonferma
ikkonfermat
ikkonfermata
ikkonfermati
ikkonfermaw
ikkonfinata
ikkonkluda
ikkonsagrat
ikkonsagrata
ikkontesta
ikkontestat
ikkontestata
ikkontestaw
ikkontribwew
ikkontribwixxa
ikkontrollat
ikkontrollata
ikkonverta
ikkonvertita
ikkonvertiti
ikkonvinc
ikkowc
ikkritika
ikkritikat
ikkritikata
ikkulata
ikkulurit
ikkuluriti
ikkummenta
ikkummissjona
ikkummissjonat
ikkummissjonata
ikkummissjonati
ikkundanna
ikkundannat
ikkundannati
ikkunsidra
ikkunsidrat
ikkunsidrata
ikkunsidrati
ikkwalifika
ikkwalifikat
ikkwalifikaw
ikkwotat
ikla
ikli
ikliet
iklika
iklin
iklista
ikliz
iklopedija
iklopediji
iklu
iklun
ikollha
ikollhom
ikollna
ikollok
ikollu
ikologu
ikompli
ikomplu
ikona
ikoni
ikonic
ikonika
ikoniku
ikonji
ikonografija
ikopri
ikopru
ikrah
iksaħ
iktar
iktas
iku
ikun
ikunu
ikħal
il
ilaħħaq
ilaħħqu
ilbic
ilbies
ilbiesi
ilda
ildefonso
ile
ilen
ileqq
ilesti
ilha
ilhom
ili
ilijade
ilika
ilindri
ilindrika
ilita
ilitajiet
ilitat
ilitaw
ilja
iljan
iljana
iljani
iljari
iljarja
iljarju
iljat
iljata
iljati
iljazzjoni
ilji
iljieli
ilju
iljun
iljunfant
iljunfanti
iljuni
ilkoll
ill
illa
illarju
illat
illata
illati
illeg
illegali
illi
illier
illinois
illum
illuminazzjoni
illuminiz
illustrata
illustrated
illustratur
illustrazzjoni
illustrazzjonijiet
illustri
illuz
ilma
ilment
ilmijiet
ilsien
ilsiera
ilsir
ilsna
iltaqa
iltaqgħet
iltaqgħu
ilu
ilwien
ilx
im
image
images
imagħtejn
imali
imam
imb
imbabwe
imbagħad
imbiegħda
imbiegħed
imbierek
imblokk
imc
imdaqqas
imdawra
imdawwar
imdaħħal
imdb
imdewweb
imdina
iment
imexxi
imexxu
imfassal
imfassla
imfaħħar
imfittex
img
imgħa
imgħallem
imgħat
imgħatejn
imgħax
imgħaxijiet
imgħoddi
imhabba
imi
imiss
imissu
imitazzjoni
imiterji
imiterju
imkabbar
imkabbra
imkec
imkejla
imkien
imku
imlaqqam
imlaqqma
imma
immag
immakulata
immanig
immanuel
immarka
immarkat
immarkata
immarkati
immedjat
immedjata
immedjatament
immedjati
immens
immexxi
immexxiha
immexxija
immigrant
immigranti
immigrazzjoni
imminenti
immobbli
immodifikata
immodifikati
immorali
immorru
immortali
immudellar
immudellata
immunodeficiency
immur
imnajdra
imnaqqax
imnaqqsa
imnaqqxa
imnaqqxin
imnarja
imniedi
imnieħer
imnieħru
imnissel
imniz
imnut
imorru
impact
imparzjali
impatt
impatti
impavidus
impenji
impenn
imperatric
imperattiv
imperatur
imperaturi
imperfett
imperi
imperial
imperium
imperjali
imperu
impieg
imping
impitter
impittra
impittrin
impjant
impjanti
impjega
impjegat
impjegata
impjegati
impjieg
impjiegi
implementazzjoni
implications
implikazzjonijiet
implimenta
implimentat
implimentata
implimentati
implimentazzjoni
impona
imponenti
imponiet
importance
important
importanti
importanza
importat
importati
importazzjoni
importazzjonijiet
impossibbli
impossibli
impost
imposta
imposti
imprenditur
imprensa
impressjona
impressjonanti
impressjonat
impressjoni
impressjonista
impressjonisti
impressjoniz
imprezzabbli
impriz
impronti
impuls
impulsi
imqabba
imqabbad
imqabbel
imqabbla
imqaddes
imqaddsa
imqar
imqassra
imqiegħda
imrag
imrobbi
imsag
imsaqqaf
imsaqqfa
imsaħħa
imsaħħaħ
imsejjaħ
imsejjes
imsejjħa
imsejħa
imsejħin
imsemmi
imsemmija
imsemmijin
imsida
imsiemer
imsieħba
imtarfa
imtarrg
imtela
imtella
imtieħen
imur
imut
imutu
imwaqqa
imwaqqaf
imwaqqfa
imweg
imwettaq
imwettqa
imwielda
imwieled
imwiet
imxandra
imxew
imz
imħabba
imħabbar
imħabbra
imħaffra
imħaffrin
imħallas
imħallat
imħallef
imħallfin
imħallsa
imħallta
imħarbta
imħarreg
imħarrg
imħaz
imħeg
imħuħ
in
ina
inac
inah
inal
inali
inalita
inalment
inanza
inanzi
inaqqas
inaqqsu
inarja
inarjament
inarji
inarju
inat
inaw
inawgura
inawgurali
inawgurat
inawgurata
inawgurazzjoni
inazzjoni
inbdiet
inbeda
inbejjed
inbena
inbid
inbidel
inbidlet
inbidlu
inbigħu
inbnew
inbniet
inc
inca
incanus
incertae
includes
including
income
indaqqet
indaqs
indefinit
independence
independent
independenti
independenza
indeterminati
indewwa
index
indexing
india
indian
indiana
indic
indicators
indifen
indifferenti
indifnet
indifnu
indig
indika
indikat
indikata
indikattiv
indikattiva
indikattivi
indikaturi
indikazzjoni
indikazzjonijiet
indipendentement
indipendenti
indipendenza
indirett
indirettament
indirizz
indirizza
indirizzat
indirizzata
indirizzati
indispensabbli
individual
individwali
individwalment
individwi
individwu
indja
indjan
indjana
indjani
indji
indo
indoc
indolagus
indonesia
indonez
indra
indrija
indu
induista
induisti
induiz
indulg
induna
indunat
indurat
indus
industrial
industrija
industrijali
industrijalista
industrijalizzazzjoni
industriji
industry
induzzjoni
indħil
ine
inema
inematografiku
inerija
inerzjali
inetika
inevitabbli
inevra
inez
ineħħi
ineħħu
inf
infante
infanterija
infatti
infection
infectious
inferjuri
infermiera
infern
infetaħ
infettati
infetħet
infetħu
infezzjoni
infezzjonijiet
infila
infinit
infinita
infinite
infinitez
infiniti
infiq
infirex
infirxet
infirxu
inflazzjoni
influence
influss
influwenti
influwenza
influwenzat
influwenzata
influwenzati
influwenzaw
influwenzi
info
infonatura
informa
informali
informatika
informatiku
information
informazjoni
informazzjoni
infraklassi
infrastruttura
infrordni
infty
infurmat
infushom
ing
inga
ingag
ingari
ingilterra
ingjali
ingliz
inglizi
inglott
ingo
ingredjent
ingredjenti
ingrid
ingrossa
ingu
ingwanti
ingħad
ingħalaq
ingħalqet
ingħaqad
ingħaqdet
ingħaqdu
ingħata
ingħatat
ingħataw
inhar
inhi
inhu
inhuma
ini
inic
inich
inier
iniera
iniz
inizjali
inizjalment
inizjattiva
inizjattivi
inizzjali
inizzjalment
inja
injam
injat
injata
injati
injazju
injazzjoni
inji
injoranza
injorat
injorati
inju
inka
inkarigat
inkarigata
inkarigu
inkarnazzjoni
inkella
inkiseb
inkitbet
inkitbu
inkiteb
inkjesta
inkluda
inkludew
inkludiet
inkluz
inkorag
inkoronazzjoni
inkorporat
inkorporata
inkorporati
inkorporazzjoni
inkredibbli
inkun
inkunu
inkursjonijiet
inkurunat
inkurunata
inkurunati
inkurunazzjoni
inkwetat
inkwiet
inkwiz
innastika
inne
innifsu
innijiet
innoc
innominat
innominata
innota
innovation
innovattiv
innovattiva
innovattivi
innovazzjoni
innovazzjonijiet
innsbruck
innu
innutat
ino
inqabad
inqala
inqaleb
inqalgħet
inqas
inqasam
inqata
inqatel
inqatgħu
inqatlu
inqerdet
inqerdu
inqered
inquisition
insalata
insara
inscribed
inscriptions
insedjament
insedjamenti
insedjaturi
insedjaw
insee
insejħulu
insemmu
insett
insetti
insettivora
insettivori
insettivoru
insib
insibu
insibuh
inside
insig
insista
insistenza
insonus
inspired
instab
instabbilta
instabbli
instabet
instabu
instagram
installat
installata
installati
installazzjoni
insterqet
institut
institute
institution
instituto
insu
insuffic
insularis
insurrezzjoni
int
intalab
intaljatur
intant
intarsjar
intatt
intatta
intatti
intbagħat
intbagħtu
inte
intebaħ
intefa
integrabbli
integral
integrali
integrat
integrata
integrated
integrati
integration
integrazzjoni
integrita
intellectual
intellettwali
intelletwali
intellig
intelligence
intemm
intemmet
intensa
intensita
intensiv
intensiva
intenzjoni
intenzjonijiet
inter
interaction
interattiv
interazzjoni
interazzjonijiet
interc
interdett
interess
interessa
interessanti
interessat
interessata
interessati
interessi
interest
interfac
interferenza
interi
interim
interior
interjuri
interkjuz
interkontinentali
interlingua
interlingue
intermedji
intermedju
intern
interna
internacional
internament
internat
international
internationale
internazionale
internazjonali
internazzjonali
internazzjonalment
internet
interni
interpreta
interpretar
interpretat
interpretata
interpretati
interpretation
interpretazzjoni
interpretazzjonijiet
interrotta
interruzzjoni
intersezzjoni
interstellari
intertoto
interu
intervall
intervalli
intervent
interventi
interview
intervista
intervistat
intervisti
intestaturi
intgħaz
inti
intilef
intilfet
intilfu
intima
intimu
intitolat
intitolata
intiz
intlagħbet
intlagħbu
intlaqa
intlaqat
intlaqgħet
intlaħaq
into
intom
intorin
intqal
intrapriz
intrebħet
intrinsika
introdott
introdotta
introdotti
introduc
introduction
introduzzjoni
introjtu
introspezzjoni
intufi
intuz
intwera
intwerew
intweriet
inu
inugwaljanza
inuh
invada
invadew
invadiet
invalid
invalidu
invarjanti
invaz
inventarju
inventory
inventur
invenzjoni
invenzjonijiet
invers
invertebrati
investa
investigaciones
investigation
investigazzjoni
investigazzjonijiet
investiment
investimenti
investituri
investment
invictus
inviz
involut
involuta
involuti
involviet
involviment
inxtara
inxtrat
inz
inzerta
inħadem
inħakem
inħakmet
inħareg
inħarg
inħarsu
inħatar
inħatret
inħawi
inħeles
inħelsu
inħoloq
inħolqot
inħolqu
inħoss
io
ioannis
ion
iowa
ip
ipa
ipali
ipalita
ipalitajiet
ipalment
ipant
ipanti
iparjament
ipat
ipati
ipaw
ipazzjoni
ipazzjonijiet
ipelagu
ipertensjoni
ipessa
iping
ipitazzjoni
ipitter
ipji
ipju
ipl
ipog
ipotez
ippartec
ippermetta
ippermettiet
ippjana
ippjanar
ippjanat
ippjanata
ippolito
ippompjar
ippopotami
ippoz
ippreservat
ippreservata
ippreservati
ipprez
ipproc
ipproduc
ipprogrammar
ippronunzjata
ippropona
ipprova
ipprovda
ipprovdiet
ippruvat
ippruvaw
ippubblika
ippubblikat
ippubblikata
ippubblikati
ippubblikaw
ippublika
ippublikat
ippublikata
ippublikati
ippumpjar
ippuntati
iprem
ipress
ipretali
ipriet
iprijott
iprijotta
iproc
iproka
iproku
ipru
iqaddes
iqajjem
iqatta
iqattgħu
iqiegħed
iqis
iqisu
iqisuh
iqsar
iqum
ir
ira
irac
iran
iranjan
iranjana
iranjani
iraq
irasa
iraz
irbit
irc
irdum
irdumijiet
ire
ireland
irene
irfinar
irg
iri
irid
iridu
irien
irilliku
iris
irish
irja
irjali
irjieħ
irjus
irka
irkant
irkejjen
irkewwa
irkib
irklu
irkola
irkolari
irkolaw
irkolazzjoni
irkonc
irkonferenza
irkoppa
irkostanzi
irku
irkulari
irkuprat
irkuprati
irkupru
irkustanzi
irkwit
irlanda
irlande
irlandiz
irlewwa
irmied
irmig
irnexxielha
irnexxielhom
irnexxielu
irnexxilu
irolmu
iron
ironbridge
ironikament
irpin
irqad
irqajja
irqaq
irqiq
irqiqa
irrang
irrapporta
irrapportat
irrapprez
irrappurtat
irraprez
irrefera
irreg
irregolari
irregolaritajiet
irrekordjati
irrenja
irrestawra
irrestawrata
irrestawrati
irreversibbli
irrez
irrid
irridu
irrifjuta
irrifjutat
irrifjutata
irrifjutaw
irrigazzjoni
irrikonoxxa
irritorna
irritornat
irritornata
irritornaw
irriz
irtir
irtira
irtirar
irtirat
irtirata
irtiraw
irvell
irvelli
irvellijiet
irwol
irxoxt
irziezet
irħam
irħula
is
isaac
isabel
isabela
isabella
isabelle
isaija
isalva
isalvaw
isaħħaħ
isaħħu
isbaħ
isbn
isco
iscudetto
isegwi
isegwu
isejjaħ
isejjaħlu
isejħu
isejħulha
isem
isemmi
isemmu
iservi
iservu
isewwi
iseħħ
iseħħu
isfar
isfel
isfera
isferi
isfida
isfidi
isfond
isforz
isforzi
isfruttament
ishma
isib
isibu
isimha
isimhom
isir
isiru
isis
isk
iskala
iskambju
iskan
iskana
iskandinavja
iskandlu
iskani
iskart
iskavi
iskeda
iskejjel
iskeletru
iskema
iskemi
iskjavi
iskjavitu
iskoc
iskola
iskoll
iskolli
iskomunika
iskop
iskoperta
iskoperti
iskopijiet
iskor
iskorta
iskozja
iskrin
iskrittura
iskrizzjoni
iskrizzjonijiet
isku
iskultur
iskultura
iskulturi
iskuz
iskwadra
iskwadri
isla
islam
islamic
island
islande
islands
islattiva
islatura
islazzjoni
isle
islovakkja
isloven
islovenja
isma
ismail
ismi
ismijiet
ismu
iso
isofri
isola
isoodon
isostni
isostnu
isotopi
isouard
ispallejn
ispanjol
ispanjoli
isparar
ispazji
ispazju
ispeaker
ispec
ispedizzjoni
ispedizzjonijiet
ispejjez
ispekulazzjoni
isperma
ispettakli
ispettaklu
ispettaturi
ispettru
ispettur
ispin
ispinta
ispira
ispirat
ispirata
ispirati
ispiraw
ispirazzjoni
ispiritwalita
ispirti
ispirtu
ispiz
ispjegazzjoni
ispluz
isponsor
isport
isports
ispostament
isptar
isptarijiet
isqalli
isqfijiet
isqof
israel
iss
issa
issaħħaħ
issegwi
issejjaħ
issejħet
issemma
issemmew
issemmi
issemmiet
isseparati
isservi
isseħħ
issib
issieħbet
issieħbu
issieħeb
issig
issir
issiru
issjoni
issjonijiet
issn
issorvelja
issostitwixxa
issostni
issue
issues
issug
ist
ista
istabbiliment
istabbilimenti
istabbilta
istadium
istadji
istadju
istadjum
istaff
istag
istagun
istalel
istampa
istampar
istamperija
istampi
istan
istanbul
istandard
istandardizzazzjoni
istandards
istat
istati
istatistika
istatura
istatus
istatut
istatuti
istatwa
istatwi
istazzjon
istazzjoni
istazzjonijiet
istedina
istejjer
istele
istemma
istemmi
istenti
istenza
istenzjaliz
isteppa
isteppi
isterc
isterjali
isterna
isterni
isteru
istess
istew
isti
istic
istiet
istika
istiku
istil
istilel
istili
istilla
istim
istima
istimi
istitut
istituti
istituto
istituzzjonali
istituzzjoni
istituzzjonijiet
istix
istmu
istoa
istojc
istolog
istonku
istorbju
istoria
istoric
istoriku
istorja
istorju
istqarrija
istqarrijiet
istra
istrajk
istrat
istrata
istrateg
istrati
istraw
istrazzjoni
istrazzjonijiet
istrett
istri
istrixxa
istrixxi
istru
istrument
istrumenti
istruttura
istrutturi
istruzzjoni
istruzzjonijiet
istu
istudent
istudenti
istudji
istudjo
istudju
istudjuz
istukko
istupa
istupi
istux
istħarrig
isvezja
isvizzera
iswed
it
ita
itajiet
itali
italia
italian
italiana
italiani
italiano
italie
italja
italy
itament
itan
itat
itata
itati
itatur
itaturi
itaw
itazzjoni
ite
itejbu
itejjeb
itellgħu
itemm
itfal
ithaca
iti
itineranti
itiru
itorju
itqal
itravu
itru
its
itsukushima
itt
ittadella
ittadin
ittadinanza
ittadini
ittella
ittellgħet
ittellgħu
ittestjar
ittieħdet
ittieħdu
ittieħed
ittima
ittimi
ittimu
ittit
ittiti
ittiv
ittiva
ittivi
ittra
ittraduc
ittrasferita
ittrasferiti
ittrasferixxa
ittrasformata
ittrasportati
ittri
ittu
itu
itudni
itur
ituri
itv
itwal
itza
iu
iucn
ius
iv
iva
ivament
ivan
ivarja
ivarjaw
iveskovat
ivf
ivi
ivic
iviet
ivika
iviku
ivil
ivili
ivilizzazzjoni
ivilizzazzjonijiet
ivilta
iviltajiet
ivo
ivrea
ivvinta
ivvintata
ivvintati
ivvjag
ivvota
ivvotat
ivvutat
ivvutata
ivvutaw
ivy
iwaqqa
iwaqqaf
iwaqqfu
iwassal
iwasslu
iwettaq
iwettqu
iwieg
ix
ixandar
ixprunara
ixxa
ixxandar
ixxi
ixxu
iz
izda
izjed
izzat
izzjan
izzjana
izzjani
izzji
izzjonali
izzjonat
izzjonati
izzjoni
izzjonijiet
izzju
iħabbar
iħaddan
iħaddem
iħaffru
iħallas
iħalli
iħallih
iħallsu
iħallu
iħares
iħarsu
iħbieb
iħeg
iħejji
iħejju
iħobb
iħobbha
iħobbu
iħoss
iħossu
j
ja
jabal
jabbanduna
jabbandunaw
jac
jack
jackson
jacob
jacobi
jacobs
jacopo
jacqueline
jacques
jadattaw
jadida
jadotta
jadottaw
jae
jaf
jaffac
jaffettwa
jaffettwaw
jaffrontaw
jafha
jafu
jafux
jag
jaghmel
jagħlaq
jagħlqu
jagħmel
jagħmilha
jagħmilhom
jagħmillu
jagħmilx
jagħmlu
jagħmluh
jagħmluha
jagħmlux
jagħraf
jagħrfu
jagħti
jagħtih
jagħtiha
jagħtihom
jagħtina
jagħtu
jagħtuh
jagħtuha
jagħtuhom
jagħtuna
jagħz
jah
jahan
jahangir
jahr
jahre
jahwe
jai
jaime
jain
jaipur
jakarta
jakkomodaw
jakkumpanja
jakkuz
jakkwista
jakkwistaw
jakob
jal
jali
jalisco
jalist
jalista
jalisti
jalita
jalitajiet
jaliz
jalizza
jalizzat
jalizzata
jalizzati
jalizzaw
jalizzazzjoni
jalizzazzjonijiet
jalment
jalternaw
jama
jament
james
jameson
jamie
jammetti
jamministra
jammira
jammonta
jammontaw
jan
jana
janaab
janali
janalizza
janat
jane
janeiro
janet
jani
janiz
jannar
jansa
jant
jantar
janti
januar
january
japan
japanese
jappartienu
jappartjeni
jappartjenu
jappella
jappellaw
japplika
japplikaw
jappog
japprezza
japprova
jaqa
jaqbad
jaqbdu
jaqbel
jaqbez
jaqbilx
jaqblu
jaqblux
jaqbz
jaqdi
jaqdu
jaqgħu
jaqilgħu
jaqla
jaqleb
jaqra
jaqraw
jaqsam
jaqsmu
jaqta
jaqtgħu
jar
jara
jarah
jaraha
jarahom
jarat
jaraw
jarawh
jargumenta
jargumentaw
jarji
jarju
jarmu
jaroslav
jasal
jasar
jaslu
jason
jassigura
jassiguraw
jassisti
jassoc
jassumi
jastic
jastika
jastiku
jat
jata
jati
jatic
jatika
jatiku
jattakka
jattakkaw
jattendi
jattendu
jattira
jattiraw
jattiva
jatur
jatura
jauregg
java
javanica
javier
javvanza
javvanzaw
jaw
jawor
jay
jaz
jazz
jazzjoni
jazzjonijiet
jaħarbu
jaħarqu
jaħbat
jaħbi
jaħdem
jaħdmu
jaħfer
jaħkem
jaħkmu
jaħrab
jaħraq
jaħsbu
jaħseb
jaħsibha
jaħtaf
jaħtar
jaħtfu
jaħz
jbati
jbatu
jbaħħru
jbejtu
jbiddel
jbiddlu
jbidu
jbigħ
jbigħu
jc
jdaħħal
jdaħħlu
jdoqq
jdoqqu
jdum
jdumu
jdur
jduru
je
jean
jeanne
jed
jedd
jeddijiet
jeff
jefferson
jeffrey
jegħlbu
jegħleb
jeheskel
jeju
jekk
jeleg
jelenka
jelling
jemen
jemigraw
jemmen
jemmnu
jena
jene
jenfasizza
jenfasizzaw
jenkins
jennifer
jenny
jens
jensen
jent
jenti
jentink
jenza
jeqirdu
jeqred
jeratika
jeremy
jerfa
jerg
jerga
jerome
jerry
jersaq
jersey
jersqu
jerusalem
jerzy
jesa
jesmond
jespandi
jesperimenta
jesperjenzaw
jesplora
jesponi
jesprimi
jesprimu
jessica
jestendi
jestendu
jesu
jesus
jet
jeta
jetajiet
jevita
jevitaw
jevoka
jevolvu
jew
jewish
jews
jez
jezera
jeħilsu
jeħles
jeħodha
jeħtieg
jfakkar
jfakkru
jfisser
jfissirx
jfissru
jfittex
jfittxu
jg
jgawdi
jgawdu
jghid
jgħaddi
jgħaddix
jgħaddu
jgħag
jgħajjat
jgħajtu
jgħallem
jgħallmu
jgħammar
jgħammru
jgħaqqad
jgħaqqdu
jgħassu
jgħatti
jgħattu
jgħid
jgħidilha
jgħidilhom
jgħidlu
jgħidu
jgħidulha
jgħidulhom
jgħidulu
jgħin
jgħinu
jgħinuh
jgħix
jgħixu
jgħodd
jgħoddu
jgħolli
jgħoz
jgħumu
jhonnattann
ji
jibagħtu
jibbaz
jibbenefikaw
jibda
jibdel
jibdew
jibdlu
jibgħat
jibgħatu
jibni
jibnu
jibqa
jibqax
jibqgħu
jibqgħux
jibz
jic
jiddaħħlu
jiddec
jiddedika
jiddefendi
jiddefendu
jiddefinixxi
jiddefinixxu
jiddependi
jiddependu
jidderieg
jiddeskrivi
jiddeskrivu
jiddetermina
jiddeterminaw
jiddi
jiddikjara
jiddikjaraw
jiddisinja
jiddiskuti
jiddiskutu
jiddispjac
jiddistingwi
jiddistingwu
jiddokumentaw
jiddomina
jiddominaw
jiddubita
jiddubitaw
jidentifika
jidentifikaw
jidher
jidhirx
jidhru
jidħlu
jidħol
jiehdu
jieklu
jiekol
jiem
jien
jiena
jieqaf
jieqfu
jiet
jieħdu
jieħu
jiffac
jiffirma
jiffirmaw
jiffoka
jiffokaw
jifforma
jifformaw
jiffrekwenta
jiffukaw
jiffunzjona
jiffunzjonaw
jiffurmaw
jifhem
jifhmu
jifilħu
jiflaħ
jifred
jiftakar
jiftakru
jiftaħ
jiftħu
jig
jiggarantixxi
jiggverna
jiggwida
jigi
jikac
jikber
jikbru
jikkac
jikkalkula
jikkalkulaw
jikkaratterizzaw
jikkawz
jikklassifika
jikklassifikaw
jikkollega
jikkollegaw
jikkombinaw
jikkompeti
jikkompetu
jikkomponi
jikkomunika
jikkomunikaw
jikkonc
jikkondividu
jikkonferma
jikkonfermaw
jikkonkludi
jikkonsisti
jikkonsistu
jikkonsulta
jikkontesta
jikkontestaw
jikkontribwixxi
jikkontribwixxu
jikkontrolla
jikkontrollaw
jikkonverti
jikkonvertu
jikkonvinc
jikkoordina
jikkoordinaw
jikkopja
jikkorrispondi
jikkorrispondu
jikkostitwixxi
jikkostitwixxu
jikkowc
jikkritika
jikkritikaw
jikkundanna
jikkunsidra
jikkunsidraw
jikkunsmaw
jikkuntrasta
jikkwalifika
jikkwalifikaw
jikkwota
jiksbu
jikseb
jikser
jiksu
jiktbu
jikteb
jikxef
jilagħab
jilagħbu
jilbes
jilbsu
jilgħab
jilgħabu
jillimitaw
jilqa
jilqgħu
jiltaqa
jiltaqgħu
jilħaq
jilħqu
jim
jimita
jimla
jimlew
jimmag
jimmarka
jimmarkaw
jimmedita
jimmodifika
jimmy
jimpjega
jimpjegaw
jimplika
jimplimenta
jimponi
jimpressjona
jimpressjonaw
jimtela
jimtlew
jimxi
jimxu
jin
jinas
jinbena
jinbidel
jinbidlu
jinbiegħ
jinbiegħu
jinbigħu
jinbnew
jindaqq
jindaqqu
jindifen
jindifnu
jindika
jindikaw
jindirizza
jindirizzaw
jinduna
jinfetaħ
jinfetħu
jinfirex
jinfirxu
jinfluwenza
jinfluwenzaw
jinftiehem
jing
jinghata
jingħad
jingħaddu
jingħalaq
jingħalqu
jingħaqad
jingħaqdu
jingħata
jingħataw
jinjora
jinkisbu
jinkiseb
jinkitbu
jinkiteb
jinkludi
jinkludu
jinkorpora
jinkorporaw
jinnaru
jinnegozja
jinnegozjaw
jinnota
jinqabad
jinqabdu
jinqala
jinqalgħu
jinqasam
jinqasmu
jinqata
jinqatel
jinqatlu
jinqeda
jinqerdu
jinqered
jinqraw
jinsa
jinsab
jinsabu
jinsisti
jinstab
jinstabu
jinstema
jinstemgħu
jintbagħat
jintbagħtu
jintefa
jintefgħu
jintegra
jintemm
jintemmu
jinterag
jinteressa
jinterpreta
jinterpretaw
jintgħaraf
jintgħarfu
jintgħaz
jintilfu
jintirtu
jintlagħab
jintlagħbu
jintlaħaq
jintlaħqu
jintlibsu
jintrabat
jintremew
jintroduc
jintuz
jintwera
jintwerew
jinvadu
jinvesti
jinvestiga
jinvestigaw
jinvolvi
jinvolvu
jinxtara
jinxtraw
jinz
jinzerta
jinħadem
jinħadmu
jinħall
jinħaraq
jinħass
jinħatar
jinħatru
jinħaz
jinħeles
jinħoloq
jinħolqu
jinħtieg
jippartec
jippermetti
jippermettu
jipperswadi
jippjana
jipprattika
jipprattikaw
jippreferi
jippreferu
jipprepara
jippreparaw
jippreserva
jippreservaw
jippresiedu
jipprevjeni
jipprevjenu
jipprez
jippriedka
jipprietka
jipproc
jipproduc
jipprojbixxi
jipprojbixxu
jippromwovi
jippromwovu
jipproponi
jipproponu
jipproteg
jipprotesta
jipprotestaw
jipprova
jipprovdi
jipprovdu
jippruvaw
jippubblika
jippubblikaw
jippublika
jirbaħ
jirbħu
jirc
jirfdu
jirgħu
jirkbu
jirkupra
jirnexxi
jirnexxielu
jirnexxilu
jirrakkonta
jirrakkontaw
jirrang
jirrapporta
jirrapprez
jirraprez
jirreag
jirrec
jirreferi
jirreferu
jirreg
jirregola
jirregolaw
jirrepeti
jirresjedi
jirresjedu
jirrez
jirric
jirrifjuta
jirrifjutaw
jirrifletti
jirriflettu
jirrigwarda
jirrikjedi
jirrikjedu
jirrikonoxxi
jirrikonoxxu
jirriproduc
jirrispetta
jirritorna
jirritornaw
jirriz
jirtira
jirtiraw
jisfida
jisfidaw
jisimgħu
jisimha
jisimhom
jisirqu
jiskopri
jiskopru
jiskorja
jiskorjaw
jisma
jismu
jispara
jisparaw
jisparixxu
jispec
jispic
jispikka
jispikkaw
jispjega
jispjegaw
jisplodu
jisraq
jissaħħaħ
jissaħħu
jissejjaħ
jissejħu
jissemma
jissemmew
jissepara
jisseparaw
jissieħbu
jissieħeb
jissimbolizza
jissimbolizzaw
jissodisfa
jissodisfaw
jissokta
jissorvelja
jissospendi
jissostitwixxi
jissostitwixxu
jissug
jista
jistabbilixxi
jistabbilixxu
jistaqsi
jistaqsih
jistaqsu
jistax
jistenna
jistennew
jistgħu
jistgħux
jistieden
jistkennu
jistqarr
jistrieħ
jistrieħu
jistudja
jistudjaw
jistħoqqlu
jiswa
jiswew
jisħaq
jisħqu
jitbiegħed
jitfa
jitfac
jitfakkar
jitfgħu
jitgħallem
jitgħallmu
jitilfu
jitilgħu
jitilqu
jitkabbar
jitkabbru
jitkantaw
jitkejjel
jitkellem
jitkellmu
jitla
jitlaq
jitlef
jitlesta
jitlestew
jitlob
jitmexxa
jitnaqqas
jitnaqqsu
jitneħħa
jitneħħew
jitnisslu
jitniz
jitolbu
jitpog
jitqiegħdu
jitqiegħed
jitqies
jitqiesu
jitqis
jitratta
jitressqu
jittama
jittella
jittellgħu
jittestja
jittiekel
jittieklu
jittieħdu
jittieħed
jittraduc
jittrasferixxi
jittrasforma
jittratta
jittrattaw
jittraz
jitwaqqaf
jitwaqqfu
jitwassal
jitwettaq
jitwettqu
jitwieldu
jitwieled
jitħabbar
jitħaddem
jitħaddmu
jitħalla
jitħallas
jitħallew
jitħallsu
jitħalltu
jitħarreg
jitħarrg
jitħejja
jivjag
jivvinta
jivvjag
jivvota
jivvutaw
jixbah
jixbaħ
jixbhu
jixbħu
jixhdu
jixhed
jixorbu
jixraq
jixrob
jixtieq
jixtiequ
jixtri
jixtru
jixxabtu
jixxandar
jiz
jj
jkabbar
jkabbru
jkanta
jkantaw
jkec
jkollha
jkollhom
jkollhomx
jkolli
jkollna
jkollok
jkollu
jkollux
jkompli
jkomplu
jkopri
jkopru
jkun
jkunu
jkunux
jkunx
jlaħħaq
jlaħħqu
jlesti
jm
jmexxi
jmexxu
jmiss
jmissu
jmorru
jmur
jmut
jmutu
jnaqqas
jnaqqsu
jneħħi
jniz
jo
joa
joachim
joan
joanne
joaqui
job
jobdu
jobgħod
jobs
jodrell
joe
joel
joffri
joffru
joga
jografic
jogħg
jogħla
johan
johann
johanna
johannes
johannesburg
john
johnny
johns
johnson
johnston
join
joins
joint
jokkupa
jokkupaw
jolog
jologu
jolqot
jolqtu
jon
jonali
jonalment
jonas
jonathan
jones
jong
jongmyo
joni
jonic
jonijiet
joniku
jonju
jonkella
jonoraw
jonqos
jonqsu
jopera
joperaw
jopponi
joqgħod
joqgħodu
joqogħdu
joqrob
joqtlu
joqtol
jorbita
jorbot
jorbtu
jordan
jordna
jorganizza
jorganizzaw
jorge
jorig
jorqdu
jorqod
jos
jose
josef
joseon
josep
joseph
josephine
josephus
joshua
josip
jospita
jospitaw
josserva
josservaw
jott
jottijiet
jour
journal
journalism
journey
jours
joy
joyce
joz
joħlom
joħloq
joħolqu
joħorg
joħrog
jp
jpassu
jpg
jping
jpitter
jpog
jqaddes
jqajjem
jqassam
jqatta
jqattgħu
jqiegħed
jqimu
jqis
jqisu
jqisuh
jqisuha
jqum
jr
jrabbu
jressaq
jrid
jridu
jridux
jridx
jsalva
jsawru
jsaħħaħ
jsaħħu
jsegwi
jsegwu
jsejjaħ
jsejħu
jsejħulha
jsejħulu
jsemmi
jsemmu
jserraħ
jserrħu
jservi
jservu
jseħħ
jseħħu
jsib
jsibu
jsir
jsiru
jsirx
jsofri
jsofru
jsostni
jsostnu
jstor
jsuq
jtejbu
jtejjeb
jtellgħu
jtemm
jtiru
ju
juan
jub
juba
jud
juda
judith
jugoslav
jugoslava
jugoslavja
jugoz
jul
jules
juli
julia
julian
julie
julien
juliet
juliette
julio
julius
july
jum
jumejn
jun
june
jungfrau
juni
junijiet
juninensis
junior
juniors
junta
jura
jurassic
jure
juri
jurih
jurisdiction
juru
jussieu
just
justice
justin
justo
jut
juventus
juz
jvarja
jvarjaw
jwaqqaf
jwaqqfu
jwaqqgħu
jwassal
jwasslu
jweg
jwettaq
jwettqu
jwieg
jxandar
jxandru
jz
jħabbar
jħaddan
jħaddem
jħaddmu
jħaddnu
jħallas
jħalli
jħallsu
jħallu
jħallux
jħares
jħarsu
jħeg
jħejji
jħobb
jħobbu
jħoss
jħossu
k
ka
kaa
kabbar
kabbru
kabina
kabinett
kac
kadın
kafe
kafetterija
kag
kahlo
kahn
kai
kaiser
kaiserslautern
kaja
kajjin
kajr
kaka
kala
kalabrija
kalamjan
kalc
kale
kalendarju
kalibru
kaliff
kaliffat
kalifornja
kaliningrad
kalkara
kalkoli
kalkolu
kalkulazzjoni
kalkulu
kalkutta
kallas
kalligrafija
kalm
kalma
kalvarju
kalwaria
kalyan
kalzetti
kam
kambju
kambodja
kameni
kamera
kameras
kamerun
kamp
kampanja
kampanji
kampi
kampijiet
kampjonat
kampjonati
kampjun
kampjuni
kampnar
kampnari
kampus
kamra
kan
kanada
kanadiz
kanal
kanali
kanarji
kanc
kandidat
kandidata
kandidati
kandidatura
kandja
kang
kangaru
kanjon
kannella
kanon
kanoni
kanonic
kanonika
kanoniku
kanonizzat
kanonizzazzjoni
kanonku
kansas
kant
kanta
kantant
kantanta
kantanti
kantat
kantata
kantati
kantaw
kantawtur
kantini
kanton
kantuniera
kantunieri
kanun
kanuni
kanvas
kanzunetta
kanzunetti
kaos
kap
kapac
kapan
kapijiet
kapital
kapitali
kapitelli
kapitli
kapitlu
kapitolu
kapolavur
kappa
kappell
kappella
kappelli
kappillan
kapric
kaptan
kaptana
kaptani
kapuc
kapulavur
kapulavuri
kara
karabakh
karain
karajan
karakum
karatteristic
karatteristika
karatteristiku
karatterizzata
karatterizzati
karattri
karattru
karbonat
karbonati
karbonju
kardijaku
kardinal
kardinali
karel
karen
karibew
kariga
karigi
karim
karin
karita
kariz
karl
karlskrona
karlsruhe
karlu
karm
karmelitan
karmelitana
karmelitani
karmelu
karmenu
karmni
karmnu
karnag
karnak
karnival
karnivora
karnivori
karnivoru
karol
karolina
karoling
karozza
karozzi
karozzini
karpazji
karriera
karrieri
karrijiet
karru
kars
karstic
karstika
karstiku
karta
kartag
kartez
karti
kartolini
kartun
kas
kaskata
kaskati
kaspar
kaspju
kassel
kassies
kassis
kastell
kastelli
kastig
kastilja
kastiljan
kastrioti
kata
katakombi
katalan
katalana
katalani
katalgi
katalgu
katalogu
katalonja
katanja
katarina
katavri
katavru
kate
katedra
kategorija
kategoriji
katekisti
katekiz
katerina
katharina
katherine
kathleen
kathmandu
katidral
katidrali
katina
kattidral
kattolic
kattolika
kattoliku
katusi
kaufman
kavaje
kavalier
kavalieri
kavallerija
kavallier
kavallieri
kavita
kavitajiet
kawkasu
kawz
kaxxa
kaxxetta
kaxxi
kay
kaz
kazakhstan
kazan
kaħla
kbar
kbir
kbira
kburi
kburija
kc
ke
keane
kec
keep
keeuna
keith
kejbils
kejk
kejken
kejkijiet
kejkna
kejknin
kejl
kejliet
kelb
kella
kellha
kellhiex
kellhom
kellhomx
kellhu
kelli
kelliem
kelliema
kellna
kellu
kellux
kelly
kelma
kelmiet
kemal
kemm
kemmun
kemmuna
kemmxejn
kemxejn
ken
kendrew
kenitx
kenja
kenn
kennedy
kenneth
kenny
kensington
kent
kentucky
kenura
keoladeo
kepler
kera
kerala
kerc
kerch
kerha
kerinci
kernave
kerr
kerry
keshav
kesħa
kesħin
kevin
kewkba
kewn
key
keyboard
kf
kfc
kg
khajuraho
khan
khanat
khanate
kharkiv
khazar
khedira
khinchin
khiva
khlebnikov
khmer
khoja
khrushchev
khurasan
khwariz
ki
kiber
kibret
kibru
kick
kicker
kicks
kids
kiefer
kiefra
kieku
kiel
kielholz
kien
kienast
kienet
kient
kienu
kienux
kienx
kierkegaard
kiesaħ
kiesħa
kiev
kif
kileb
kilin
kill
killed
kilogramma
kilogrammi
kilometri
kilometru
kim
kimic
kimika
kimiku
kinetx
king
kingdom
kings
kinitx
kinux
kirby
kirchhoff
kirg
kirgiz
kiri
kiribati
kirkop
kirkpatrick
kirurg
kirurgi
kirurgu
kisba
kisbet
kisbiet
kisbu
kiseb
kiser
kisi
kisja
kiss
kisser
kissru
kit
kita
kitab
kitarra
kitarrist
kitarrista
kitba
kitbet
kitbiet
kitbu
kitchen
kitchener
kiteb
kitibha
kitibhom
kittieb
kittieba
kitts
kixef
kjostri
kjostru
kjoto
kkalkulat
kkanc
kkaratterizzat
kkaratterizzata
kkaratterizzati
kkawz
kkk
kklassifika
kklassifikat
kklassifikata
kklassifikati
kklassifikaw
kkollabora
kkollegat
kkollegata
kkollegati
kkompeta
kkompetew
kkompona
kkonc
kkonferma
kkonfermat
kkonfermaw
kkonfinat
kkonfinata
kkonkluda
kkonkludew
kkonsagrat
kkonservat
kkonservata
kkonservati
kkonsultat
kkontesta
kkontestat
kkontestata
kkontestaw
kkontribwew
kkontribwiet
kkontribwixxa
kkontrollat
kkontrollata
kkontrollati
kkonverta
kkonvertew
kkonvertit
kkonvinc
kkritika
kkritikat
kkulurita
kkuluriti
kkummissjona
kkummissjonat
kkundanna
kkundannat
kkundannati
kkunsidra
kkunsidrat
kkunsidrata
kkunsidrati
kkwalifika
kkwalifikat
kkwalifikati
kkwalifikatx
kkwalifikaw
kkwalifikax
kkwotat
klaas
klabb
klabbs
klad
kladruber
kladruby
klaipe
klan
klara
klarinett
klassi
klassic
klassifika
klassifikat
klassifikata
klassifikati
klassifikazjoni
klassifikazzjoni
klassifikazzjonijiet
klassifiki
klassijiet
klassika
klassiku
klaus
klavic
klawsura
klein
kleiner
klement
kleopatra
klerestorju
kleru
klieb
kliem
kliemu
kliewi
klijent
klijenti
klikka
klima
klimatic
klimatika
klimi
klimt
klinika
kliniku
klint
klohnia
klopp
klose
kloss
klub
klubas
klubi
klubu
km
kmamar
kmand
kmandamenti
kmandant
kmiem
kmieni
knejjes
knight
knights
knisja
knock
knopf
know
knowledge
known
knox
ko
koalizzjoni
koawturi
kobor
koc
koch
kocjan
kodic
kodifikazzjoni
koeffic
koerenti
koez
kofundatur
koi
kok
koki
kokka
kola
kolbe
kolera
kolla
kollaborattiv
kollaboratur
kollaborazzjoni
kollass
kolleg
kollega
kollegament
kollegamenti
kollegata
kollegi
kollettiv
kollettiva
kollettivament
kollettur
kollezzjoni
kollezzjonijiet
kollezzjonista
kollezzjonisti
kollha
kollox
kollu
kolokolo
kolombja
kolombjan
kolombjana
kolombu
kolomenskoye
kolonizzaturi
kolonizzazzjoni
kolonja
kolonjali
kolonjalisti
kolonjaliz
kolonji
kolonna
kolonni
kolossali
kolossew
kolp
kolugi
kolugo
kolumbja
kombinament
kombinazzjoni
kombinazzjonijiet
komda
komdi
komdu
kometa
kometi
komic
komiks
komiku
kommemorattiva
kommemorattivi
kommemorazzjoni
kommunita
komodo
komparabbli
komparattiva
kompartiment
kompartimenti
kompatibbli
kompetenti
kompetenza
kompetenzi
kompetittiv
kompetittiva
kompetittivi
kompetittivita
kompetitur
kompetituri
kompetizzjoni
kompetizzjonijiet
kompilazzjoni
kompiti
kompitu
kompjuter
kompjuters
kompla
kompless
komplessa
komplessi
komplessita
komplet
kompleta
kompletament
komplew
komplic
kompliet
komplott
komplut
kompluta
kompluti
komponent
komponenti
kompost
komposta
komposti
kompoz
komprensiv
komprensiva
kompromess
komputazzjonali
komputazzjoni
komun
komunali
komunament
komunement
komuni
komunikazzjoni
komunikazzjonijiet
komunista
komunisti
komunita
komunitajiet
komunitarja
komunitarju
komuniz
komunjoni
kon
konc
kondiviz
kondizzjoni
kondizzjonijiet
kondoljanzi
kondotta
konduttur
konfederazzjoni
konfederazzjonijiet
konferenza
konferenzi
konferma
konfermata
konfessjonarju
konfessur
konfigurazzjoni
konfini
konflitt
konfluwenza
konfoffa
konformi
konformita
konfront
konfrontazzjoni
konfronti
konfuc
konfuz
kong
kongo
kongregazzjoni
kongregazzjonijiet
koni
koninklijke
konjug
konkatidral
konkava
konklavi
konkluz
konkors
konkorsi
konkos
konkret
konkreta
konkreti
konkrit
konkwista
konkwistaturi
konkwisti
konna
konness
konnessa
konnessi
konnessjoni
konnessjonijiet
konnotazzjoni
konrad
konsagrazzjoni
konsegwentement
konsegwenza
konsegwenzi
konsekuttiv
konsekuttiva
konsekuttivi
konsensus
konservatorju
konservattiv
konservattiva
konservattivi
konservazzjoni
konsiderevoli
konsistenti
konsistenza
konslu
konsolazzjoni
konsonanti
konsorti
konsorzju
konstantin
konstanz
konsulent
konsulenti
konsulenza
konsultattiv
konsultazzjoni
konsultazzjonijiet
konsum
konsumatur
konsumaturi
kont
kontabilita
kontea
kontej
kontemporanja
kontemporanji
kontemporanju
kontenituri
kontenut
kontenuti
kontessa
kontestanti
konti
kontijiet
kontinent
kontinentali
kontinenti
konting
kontinwa
kontinwament
kontinwazzjoni
kontinwi
kontinwita
kontinwu
kontorn
kontorni
kontra
kontradizzjoni
kontrazzjoni
kontribut
kontributi
kontributur
kontributuri
kontribuzzjoni
kontribuzzjonijiet
kontrih
kontrihom
kontro
kontroll
kontrolli
kontroversja
kontroversjali
kontroversji
kontx
konvenjenti
konvenjenza
konventwali
konvenzjonali
konvenzjoni
konvenzjonijiet
konverg
konversazzjoni
konversazzjonijiet
konvertiti
konverz
konvinc
konvint
konvoj
konxji
konxju
kooperattiva
kooperazzjoni
koordinati
koordinazzjoni
kopenħagen
koperazzjoni
koperti
kopertura
kopja
kopji
koppen
koppja
koppji
koppla
koppli
kopt
kopta
kor
korali
koran
korc
korda
kordi
kordin
korea
korean
koreana
koreani
korfu
korintin
korinzji
korinzju
korla
koroh
korona
korp
korpi
korporattivi
korporazzjoni
korporazzjonijiet
korrett
korretta
korretti
korrezzjoni
korriment
korrispondent
korrispondenti
korrispondenza
korruzzjoni
kors
korsa
korsakov
korsija
korsiji
korsijiet
korsika
korsikan
korteg
korteo
kortrijk
kos
kosenu
kosovo
kosta
kostali
kostanti
kostantinopli
kostantinu
kostanza
kostanzu
kostellazzjoni
kosti
kostituzzjonali
kostituzzjoni
kostituzzjonijiet
kostitwenti
kostruzzjoni
kostruzzjonijiet
kostum
kostumi
kotba
kotor
kotra
kottonera
kova
kovac
kovic
kowc
kowd
kowt
koz
kozhikode
kpiepel
kr
krako
krakovja
kranju
krater
krateri
krc
kreattiv
kreattiva
kreattivi
kreattivita
kreatur
kreaturi
kreazzjoni
kreditat
kreditu
kreditur
kredu
krefft
krema
krematorju
kremazzjoni
kremlin
krems
kreta
kretac
krikit
krimea
kriminal
kriminali
kriminalita
kripta
kripto
krisostmu
kristall
kristalli
kristallina
kristina
kristjan
kristjana
kristjanez
kristjani
kristofru
kristu
kriterji
kriterju
kritic
kritika
kritiku
krittografija
kriz
kro
kroat
kroata
kroati
kroazja
krome
kromoz
kronaka
kronaki
kronborg
kronika
kronolog
krosta
kru
kruc
krumlov
krus
krzemionki
ks
ksar
ksib
ksur
ksv
ktajjen
ktejjeb
ktieb
ktr
ktɪ
ku
kuba
kuban
kubana
kubani
kubi
kubic
kubiz
kubrit
kubu
kuc
kug
kuiper
kuke
kukkudrilli
kul
kulinarja
kuljom
kuljum
kull
kullar
kulleg
kullimkien
kullħadd
kulma
kulon
kult
kultant
kultivari
kultivazzjoni
kultur
kultura
kulturali
kulturalment
kulturi
kulur
kuluri
kulħadd
kumbinazzjoni
kumdita
kumis
kumitat
kumitati
kumment
kummentarji
kummentarju
kummentatur
kummentaturi
kummenti
kummerc
kummiedja
kummiedji
kummisjoni
kummissarji
kummissarju
kummissjoni
kummissjonijiet
kumpanija
kumpaniji
kumpann
kumpannija
kumpens
kumpilazzjoni
kumplament
kumpless
kumplessa
kumplessi
kumplessita
kumplessiv
kumplessiva
kumplikazzjonijiet
kun
kunc
kundanna
kundizzjoni
kundizzjonijiet
kunfidenti
kunfidenza
kunflitt
kunflitti
kungress
kungressi
kunitu
kunjom
kunjomha
kunjomijiet
kunjomu
kunming
kunsens
kunsiderazzjoni
kunsill
kunsilli
kunsillier
kunsilliera
kunst
kunsthistorisches
kuntatt
kuntatti
kuntent
kuntenta
kuntenti
kuntest
kuntesti
kuntistabbli
kuntrabandu
kuntrarjament
kuntrarju
kuntrast
kuntrasti
kuntratt
kuntratti
kunvent
kunventi
kuopio
kura
kurag
kurat
kuratorjali
kuratur
kuraturi
kurc
kurgan
kuritur
kurituri
kurja
kurjuz
kuronjan
kurrent
kurrenti
kurrikulu
kurt
kuruna
kurunell
kuruni
kurva
kurvatura
kurvi
kurz
kushan
kustilji
kustodja
kusturica
kuszczak
kutna
kuwait
kuwajt
kuxjenza
kv
kvitka
kw
kwadra
kwadrat
kwadrata
kwadrati
kwadratic
kwadratika
kwadri
kwadrivettur
kwadru
kwalifika
kwalifikati
kwalifikaw
kwalifikazzjoni
kwalifiki
kwalita
kwalitajiet
kwalunkwe
kwantistic
kwantistika
kwantistiku
kwantita
kwantitajiet
kwarantina
kwart
kwarta
kwartett
kwartetti
kwarti
kwartic
kwartier
kwartieri
kwarz
kwaz
kwazi
kwiekeb
kwiet
kwieta
kwintett
kwinti
kwistjoni
kwistjonijiet
kwoll
kwota
kwotazzjoni
kwotazzjonijiet
kwoti
kyiv
kyrie
kz
kızılırmak
l
la
lab
labem
labini
labirint
labor
laboratorji
laboratorju
laboratory
laboulaye
labour
laburista
laburisti
lac
lachaise
ladarba
laden
lady
laerzju
laet
laferla
lag
laga
lagi
lago
lagomorfi
lagomorfu
lagomorph
lagomorpha
lagoon
lagotis
lagrange
laguna
laguni
lagħab
lagħbet
lagħbu
lajc
lajk
lajka
lake
lakes
lal
lam
lamantin
lamantini
lamarck
lambda
lambert
lamic
lamika
lamiku
lammermoor
lampa
lampedusa
lampun
lan
lanark
lanatus
lanc
lancaster
land
landa
landier
landiera
landiz
landmark
landon
landquart
landrut
landscape
landscapes
lane
lanec
lanez
lanfranco
lang
langle
language
languages
langue
languedoc
lanham
lanka
lankaran
lanqas
lanterna
lanza
laos
laparelli
lapida
lapidi
laplace
laporte
lapponja
laptop
laqa
laqam
laqat
laqgħa
laqgħat
laqgħet
laqgħu
laqmijiet
laqqa
laqqat
laqqtu
laqtet
laqtu
lara
large
largest
laring
larry
lars
larva
larvi
las
lascaris
lascaux
laser
last
lasta
lasti
lastiku
lat
lata
late
later
laterali
lateran
latest
latin
latina
latini
latino
latitudni
latour
lattiv
lattiva
lattivi
latura
latvia
latvja
latvjan
launcelot
launches
laura
laurasiatheria
laurence
laurent
lausanne
lav
lava
lavanja
lavelle
lavi
lavigne
lavinia
lavja
lavoro
lavra
lavur
law
lawrence
lawrenz
lawrija
lawriji
lawrja
laws
lawyers
lazio
lazzarett
lazzaro
lazzjoni
laħam
laħaq
laħaqx
laħqet
laħqu
lb
lbic
lbies
ldots
le
lead
leader
leaders
league
leali
lealta
leaning
learn
learning
least
leave
leaves
lebaniz
lebanon
leben
lebesgue
lebsin
lec
lech
leclerc
lecture
lecturer
lectures
led
lednice
lee
leeds
leffler
left
leg
lega
legacy
legal
legali
legalment
legat
legend
legendre
legends
legs
lehmann
lei
leibniz
leicester
leiden
leipzig
lejh
lejha
lejhom
lejl
lejla
lejlet
lejliet
lejn
lekc
leksikon
leli
lemaħ
lemin
lemini
leminija
lemma
lena
lengua
lenin
leningrad
lennon
leno
lenti
leo
leon
leonard
leonardo
leoncavallo
leone
leonhard
leoniz
leopard
leopardi
leopold
leopoldo
leopoldu
lepida
leporidae
leporidi
leporidu
leporinae
leporini
leptorycteropus
lepus
leq
ler
les
leslie
lesoto
less
lessemi
lessikali
lessikolog
lessiku
lessons
lest
lesta
leste
lestew
lesti
lestiet
lestodelphys
lestoros
let
letter
letteralment
letterarja
letterarji
letterarju
letterati
letteratura
lettere
letters
lettonie
lettre
lettres
lettur
leur
leuven
lev
levant
level
leverkusen
levi
levine
levoc
levy
lewandowski
lewis
lewishamilton
lewn
lewz
lex
lexico
lexicography
lexicology
lexicon
lexikon
lez
lezzjoni
lezzjonijiet
leħen
leħja
lgbt
lhud
lhudi
lhudija
li
lia
liam
liban
libaniz
libanu
libbra
libe
liber
libera
liberali
liberament
liberazzjoni
liberi
liberja
libero
liberta
libertadores
libertajiet
liberty
liberu
libes
libja
libjan
libjana
libjani
libor
librar
libraries
library
libreria
librerija
libreriji
librett
libri
libro
libros
libsa
libsin
lic
liceo
lid
lida
liddell
lidiet
lidl
lie
liebe
liebes
liebri
liebru
liebsa
liechtenstein
lied
lieda
lieder
liema
liena
liepa
lierse
liet
lietuvosfutbolas
lieva
life
lifgħa
lift
liftijiet
lig
liga
light
lightbown
ligorio
ligue
liguori
liguria
lija
lika
like
likeni
likwida
likwidi
likwidu
lil
lilek
lilha
lilhom
lili
lill
lille
lilna
lilu
lilwa
lim
lima
limassol
limes
limitat
limitata
limitati
limitazzjonijiet
limited
limiti
limitu
limonium
limonju
limsup
lin
lina
linc
lincoln
linda
lindegaard
line
linear
lineari
lines
lineups
linfield
ling
lingua
linguistic
linguistics
lingwa
lingwag
lingwi
lingwista
lingwisti
lingwistic
lingwistika
lingwistiku
linja
linjag
linjari
linji
link
linka
links
linnaeus
lino
linosa
linqas
linz
lio
lion
lionel
lions
lipari
lipmann
lippi
lir
lira
liri
liric
lirika
liriku
lis
lisa
lisander
lisandro
lisbon
lisbona
list
lista
listi
liszt
lit
literary
literature
lithuania
lito
litografic
litografija
litografu
litru
litte
litteralment
litterat
litterata
litterati
litterazzjoni
litteriz
little
littlefield
lituanie
liturg
litwan
litwana
litwani
litwanja
liu
live
livell
livelli
liverpool
lives
living
livingstone
livio
livju
livorno
livre
livres
lix
lixandra
lixx
lixxi
liz
ljajic
ljubljana
ljun
ljuni
lkoll
ll
llangollen
llc
lle
lleida
ller
lloyd
llum
lm
ln
lo
loan
local
localgovernment
location
locations
lodi
log
logaritmi
loghoba
logik
logo
logos
logutenent
logħba
logħbiet
logħob
logħoba
loire
lok
lokal
lokali
lokalita
lokalitajiet
lokalment
lokazzjoni
lokeren
lokomotiv
lokomozjoni
lokomozzjoni
lola
lombard
lombardi
lombardia
lombardija
lommel
lon
lond
london
londra
lonely
long
longhi
longicaudata
longman
longobardi
look
looking
looper
lope
lopez
loppju
loranne
lorca
lord
lords
lore
loren
lorentz
lorenz
lorenzo
loreto
lormini
lormu
lorraine
lorry
lorsch
lorussie
los
losco
lose
loss
lost
lothar
lotta
lotterija
lotus
louis
louise
louisiana
loup
lourdes
louvre
love
lovell
low
lowell
lower
lowlands
loyola
lqugħ
ls
lsien
lsingland
lsir
lt
ltaqa
ltaqgħet
ltaqgħu
ltd
ltu
ltv
lu
luc
luca
lucas
lucavsala
lucca
lucchini
luce
lucia
luciano
lucien
lucio
lucius
lucrezia
lucy
lud
ludovico
ludwig
lufte
lugano
lugghiu
lugliu
lugo
luh
lui
luigi
luis
luisa
luiz
lujo
luka
lukanda
lukandi
lukas
luke
lul
lulju
lum
lumbini
lumi
lumie
lumija
luna
lunari
lund
lunde
lune
lunetta
lunetti
lunzjata
lupa
lupi
lupu
luq
luqa
lura
lushnja
lussac
lussemburgu
lussu
lussuz
luterana
luterani
luteru
luton
lutreolina
luttu
luwigi
luxembourg
luxol
luxor
luz
luzzu
lv
lvant
lvarez
lvaro
lviv
lwien
lwig
ly
lycia
lydia
lyell
lyga
lynch
lynn
lynx
lyon
lys
lyse
m
ma
maan
maastricht
mabel
mac
macbeth
maccabi
macdonald
macduff
mace
macedonia
machado
macheda
machiavelli
machine
machu
macleay
macleod
macmillan
macquart
macroscelidea
macroscelides
macroscelididae
macroscelidinae
macrotis
macrotolagus
macrurus
mactutor
maculatus
mad
madagascar
madagaskar
madalena
madama
madame
madanakollu
madankollu
maddalena
made
madeira
madeleine
madhukar
madison
madliena
madonna
madras
madrasa
madre
madrid
madrigali
madrilen
madum
madwar
madwarha
madwarhom
madwarna
madwaru
maesta
maestro
maestuz
mafja
mafjuz
mafkar
mag
magaz
magazin
magazine
magdalena
maggie
maggio
maggiore
maghrebi
magi
magic
magma
magna
magnard
magnetic
magni
magnificat
magnificent
magnifico
magnus
magreb
magri
magro
magħha
magħhom
magħkom
magħluq
magħluqa
magħluqin
magħmudija
magħmul
magħmula
magħmulha
magħmulin
magħna
magħqud
magħquda
magħqudin
magħruf
magħrufa
magħrufha
magħrufin
magħz
maha
mahabodhi
mahal
maharashtra
mahmud
mai
mail
main
mainstream
mainz
mais
maison
maiu
maja
majjal
majjistral
major
makaw
make
makes
making
makkinarju
makkja
maksillofac
mal
mala
malacca
malajan
malajr
malala
malandra
malarja
malasja
malatya
malawi
malaysia
malaz
malbork
malcolm
maldini
male
mali
malik
mall
malli
mallia
mallorca
malmo
malta
maltafootball
maltamedia
maltapost
maltarightnow
maltatoday
malte
maltemp
maltempata
maltempati
maltese
maltesi
malti
maltija
maltin
malvestiti
malvinas
mammal
mammalia
mammaliaformes
mammalian
mammalogy
mammals
mammiferi
mammiferu
mammolog
mamo
man
management
manager
managing
manatee
manatus
manc
mancha
manche
manchester
manchu
mancini
mandala
mandarin
mandat
mandela
mandic
mandolina
mandrag
maneskin
manet
manfred
mangion
mango
mangrovji
manhattan
mani
manidae
manifattur
manifattura
manifatturi
manifest
manifestazzjoni
manifestazzjonijiet
manig
manikott
maninae
manis
manja
manjerista
manjeriz
manjetic
manjetiku
manjiera
manjieri
manju
mankind
manku
mann
mannara
manoel
manon
manor
manson
mantar
mantegna
mantell
manteniment
manto
mantova
manual
manucho
manuel
manuscripts
manuskritt
manuskritti
manutenzjoni
manwal
manwali
manwel
manwelin
many
manzano
manzoni
mao
map
mapep
mappa
maps
maqbud
maqbuda
maqlub
maqluba
maqlubin
maqsum
maqsuma
maqsumin
maqtugħ
maqtugħa
maqtugħin
maqtul
maqtula
mar
mara
marad
maradona
maratona
marbut
marbuta
marbutin
marc
marca
marcel
marcello
marcelo
march
marche
marco
marconi
marcos
marcus
mard
marda
mardet
mare
marea
mareat
marek
marg
margaret
margaretha
margarita
margaritu
margerita
margherita
margravju
marguerite
mari
maria
marian
mariana
marianne
mariano
marias
maribor
marica
marid
marida
marie
marienburg
marietta
marija
marilyn
marin
marina
marine
mariner
marini
marino
mario
marion
maris
maritima
maritime
marittima
marittimi
marittimu
mariupol
marjan
marjani
marjanu
marjorita
mark
marka
markaturi
market
marketing
marki
markiz
marko
marks
markt
marku
marlborough
marlene
marmara
marmosa
marmosops
marne
marokk
marokkin
marques
marr
marret
marru
marrux
mars
marsa
marsamxett
marsaskala
marsaxlokk
marseille
marsh
marshall
marsilja
marsupial
marsupialia
marsupialis
marsupials
marsupjal
marsupjali
marsupju
mart
marta
marte
martell
martha
marti
martin
martina
martini
martino
martinu
martirju
martirosian
martri
martu
marx
mary
maryland
marzjali
marzo
marzu
mas
mascagni
mases
masg
maskili
maskra
maskri
mass
massa
massachusetts
massakri
massakru
massic
massima
massimi
massimiljanu
massimo
massimu
massin
massiv
massiva
massive
master
masterpieces
masters
mastri
mastru
mastrudaxxa
mat
mata
match
matches
mate
matematic
matematika
matematiku
mater
matera
materazzi
materials
materja
materjal
materjali
materji
math
mathbb
mathbf
mathcal
mathe
mathematica
mathematical
mathematics
mathews
mathildenho
mathrm
maths
matiku
matilda
matique
matiques
matisse
matrenza
matric
matricule
matschie
matsumoto
matt
mattarella
matteo
matter
mattersburg
mattew
matthew
matthias
mattia
matul
matulha
matulhom
matulu
matur
matura
maturita
maupassant
mauriac
maurice
mauricio
maurizio
mauro
mausoleum
mavrogenous
mawra
mawritanja
mawrizju
mawru
mawz
max
maxim
maximilian
maximucinus
maxwell
may
maya
mayo
mayor
mayr
mayrhofer
maz
mazagan
mazza
maħbub
maħbuba
maħbubin
maħdum
maħduma
maħdumin
maħfra
maħkuma
maħluq
maħluqa
maħres
maħrug
maħruq
maħruqa
maħsub
maħsuba
maħtur
maħtura
maħz
mbagħad
mbiegħda
mbiegħed
mbierka
mc
mcast
mcdonald
mcfarland
mcgraw
mckenna
mckenzie
mckown
mclaren
mcnulty
md
mdaqqsa
mdawla
mdawra
mdawwar
mdawwra
mdina
mdlxv
me
mea
meaning
means
mears
measure
meazza
mechanics
mechanism
mechelen
med
medal
medalja
medalji
medaljuni
medda
meded
media
mediaset
mediawiki
medic
medical
medici
medicine
medieval
medika
mediku
medina
medioevo
mediolanum
meditazzjoni
meditazzjonijiet
mediterran
mediterranean
mediterranja
mediterranji
mediterranju
medium
medja
medjatric
medjatur
medjazzjoni
medjevali
medji
medjovali
medju
medjuevu
mee
meet
meeting
meetings
meets
megalithic
megalitic
megalitika
megalitiku
megħjun
megħjuna
megħlub
megħluba
mehmed
mehmet
mehmuz
mehrsprachigkeit
mein
meine
meister
mejda
meji
mejjet
mejju
mejta
mejtin
mekka
mekkanic
mekkanika
mekkaniku
mekkaniz
mela
melanura
melbourne
melchiorre
melgħuba
melik
melita
melitense
melitensis
melk
mell
mellaart
mellieħa
melodic
melodifestivalen
melodija
melodiji
meloni
melvin
melħ
member
members
membrana
membri
membru
memling
memoirs
memorabbli
memorandum
memoria
memorial
memories
memorja
memorji
memory
memphis
men
mendel
mendelssohn
mendoza
menga
menijiet
mensuli
ment
mentali
mentalita
mentha
menti
mentor
mentri
mep
meps
meqjum
meqjuma
meqjus
meqjusa
meqjusin
meqrud
meqruda
mer
mera
meraq
meraviljuz
merc
mercedes
mercer
merchant
mercieca
mercury
mergħa
mergħat
meride
meridjan
merisi
merkant
merkanti
merkantili
merkanzija
merkurju
merlin
merriam
merry
merti
mertu
merv
merħba
merħla
merħliet
mes
mesa
mesoamerica
mesoamerican
mesoamerikani
mesoamerka
mesolitiku
mesopotamja
mess
messa
messag
messe
messi
messija
messikan
messikana
messikani
messiku
messina
mesut
met
meta
metaboliz
metachirini
metachirus
metadata
metafiz
metafora
metal
metalist
metall
metalli
metallurg
metastasio
metatheria
metaxytherium
meteora
meteorolog
meteorologi
meteorological
method
methods
metodi
metodolog
metodu
metri
metric
metrika
metro
metropole
metropoli
metropolitan
metropolitana
metropolitani
metru
metsola
metti
mettitur
metz
meuse
mewg
mewt
mewta
mewtha
mewtu
mexa
mexicana
mexico
mexjin
mexxa
mexxej
mexxejja
mexxew
mexxiet
meyer
mez
mezz
mezzi
meħlus
meħlusa
meħtieg
meħud
meħuda
meħudin
mfa
mfakkar
mfakkra
mfassal
mfassla
mfaħħar
mferrxin
mfittxija
mg
mgħag
mgħallem
mgħallma
mgħammar
mgħammed
mgħammra
mgħassa
mgħawg
mgħerreq
mgħerrqa
mgħoddija
mgħollija
mgħotti
mgħottija
mhedda
mhedded
mhi
mhijiex
mhix
mhu
mhuma
mhumiex
mhuwiex
mhux
mi
mia
miami
mibdul
mibdula
mibegħda
mibgħut
mibgħuta
mibjugħ
mibjugħa
mibni
mibnija
mibnijin
mic
mica
micallef
mich
michael
michel
michelangelo
michele
michelin
michelle
michigan
micoureus
microbiol
microbiotheria
microlagus
micromurexia
microperoryctes
microsoft
microsyops
microtarsus
microtis
microtragulus
mid
midalja
midalji
middle
middlesbrough
middleton
midfielder
midfilder
midfilders
midfun
midfuna
midi
midinbin
midja
midruba
midsea
midħla
mie
miegħek
miegħi
miegħu
miel
mielaħ
mielha
mielu
mien
mienha
mienhom
mienijiet
mienna
mienu
mies
miet
mietet
mietu
miexi
miexja
mifflin
mifhum
mifhuma
mifnija
mifrud
mifruda
mifrudin
mifrux
mifruxa
mifruxin
mifsud
miftiehem
miftuħ
miftuħa
miftuħin
mig
migranti
migration
migrazzjoni
miguel
mija
mijiet
mijoc
mika
mike
mikelang
mikhail
mikiel
mikkelsen
miklem
mikrija
miksi
miksija
miksijin
miksub
miksuba
miksur
miksura
miktub
miktuba
miktubin
mil
milan
milano
milbus
mile
milestones
miley
mili
milied
milion
militanti
militar
militare
militari
militarment
military
militia
milizja
milizzja
milja
miljun
miljuni
mill
milla
millenium
millenji
millenju
millennium
millennju
miller
milli
millieri
millimetru
million
milos
milqugħ
milqugħa
milqut
milquta
milton
mimdud
mimdudin
mimi
mimli
mimlija
mimlijin
mimsusa
min
mina
minar
minaret
minareti
minas
minaturi
minbarra
mind
mindu
mine
mineiro
mineral
minerali
mineralog
minerva
mines
minflok
minflokha
minflokhom
minfloku
ming
mingħajr
mingħand
mingħandu
minh
minhabba
minhom
mini
minijiet
minijietna
minima
minimi
minimu
minimus
mining
minisensiela
minister
ministerjali
ministeru
ministri
ministru
ministry
minjatura
minjaturi
minjiera
minjieri
minkeb
minkejja
minn
minna
minnbarra
minnesota
minnha
minnhom
minni
minnu
minnufih
minor
minoranza
minoranzi
minorenni
minquxa
minsk
minsug
mintoff
minuri
minusculodelphis
minuta
minutes
minuti
minħabba
mio
miocene
mir
mira
miracle
mirador
mirakli
miraklu
mirakoluz
miranda
mirbuħ
mirbuħa
mirduma
mirella
mireva
mirfud
mirfuda
miri
miriam
mirja
miroslav
mirqum
mirra
mirror
mirza
mis
miserere
misilmin
misjub
misjuba
misluf
misraħ
misruqa
miss
missa
missier
missierha
missierhom
missieri
missieru
missili
missing
mission
missirijiet
missirijietna
missjoni
missjonijiet
missjunarja
missjunarji
missjunarju
missu
mistagħdra
mistednin
mistenni
mistennija
misteri
misterjuz
misteru
mistgħadra
mistic
mistieden
mistiedna
mistika
mistiku
mistoqsi
mistoqsija
mistoqsijiet
mistrieħ
mistur
mistura
mistħija
mit
mitchell
mitejn
mitfugħ
mitfugħa
mithridates
miti
mitic
mitjar
mitkellem
mitkellma
mitla
mitlub
mitluba
mitluf
mitlufa
mitluq
mitluqa
mitolog
mitropa
mitt
mittag
mitteilungen
mitħna
mix
mixgħula
mixi
mixja
mixjiet
mixodectes
mixtieq
mixtieqa
mixtla
mixtri
mixħut
miz
mizzi
mj
mkabbar
mkabbra
mkec
mkien
mkissrin
mla
mlaqqam
mlaqqma
mlp
mm
mmarka
mmarkat
mmarkata
mmarkati
mme
mmejjel
mmexxi
mmexxija
mmhg
mmirati
mmiru
mmodifikat
mmorru
mmudellat
mmudellata
mmuru
mnaqqax
mnaqqsa
mnaqqxa
mnaqqxin
mnejn
mneħħi
mniedi
mnieħru
mnissel
mnissla
mniz
mo
mobbli
mobile
mod
moda
modalita
model
modena
moderat
moderata
moderati
modern
moderna
moderne
moderni
modernist
modernista
modernita
modernity
moderniz
modernizzazzjoni
modest
modesta
modi
modifika
modifikat
modifikata
modifikazzjonijiet
modifiki
modigliani
modo
module
moduli
modulo
modulu
moellendorffi
moffa
mogilev
mogul
mogħdija
mogħdijiet
mogħni
mogħnija
mogħoz
mogħti
mogħtija
mogħz
mohamed
mohammed
mohhu
moi
moira
moires
moksha
mol
moldagulova
moldavie
moldavja
moldova
mole
molecular
molekolari
molekula
molekulari
molekuli
moles
molie
molina
moll
molluski
molog
moltiplikazzjoni
moment
moments
momentu
mon
mona
monaco
monako
monarch
monarka
monarki
monarkija
monasteri
monasteru
monastery
monastic
monastika
monastiku
monat
mondadori
mondaini
monde
mondiali
mondjali
mondo
monet
monetarja
monetarju
monetary
money
mongoli
mongolja
monica
monika
monitorag
monk
monnier
monodelphini
monodelphis
monograph
monopolju
monotipiku
monotonija
monotremati
mons
monsieur
monsinjur
mont
montaigne
montale
montalto
montana
monte
montebello
montefeltro
montenegro
monterosso
monteverde
monteverdi
montevideo
month
monthly
months
monti
montmartre
montolivo
montparnasse
montpellier
montreal
monument
monumental
monumentali
monumenti
monuments
moon
moore
moqdi
moqdija
moral
morales
morali
moralita
moran
moravja
morda
more
morea
morelos
morena
moreno
moretus
morfolog
morgan
mori
morisot
moritz
morley
mormon
morning
moro
morocco
moroni
morphological
morphology
morris
morrison
mort
mortali
mortalita
morte
morus
mos
mosaics
moscati
moscow
mose
moser
mosi
moska
moskea
moskej
moskva
mosque
mossa
most
mosta
mostar
mostru
mother
motilal
motion
motiv
motivazzjoni
motivi
motoc
motoori
motor
motorsport
motto
mottu
motu
mound
mount
mountain
mountains
mourinho
mouse
move
movement
movie
movies
moviment
movimenti
moyen
moz
mozambique
mozart
mozyr
mozzjoni
moħba
moħbi
moħbija
moħħ
moħħu
mp
mpe
mping
mpitter
mpittra
mpittrin
mportanti
mps
mqabba
mqabbad
mqabbel
mqabbla
mqabbz
mqaddes
mqaddsa
mqassma
mqassra
mqiegħda
mqiegħed
mr
mraz
mrewħa
mro
mrs
ms
msag
msallab
msaqqaf
msaqqfa
msawwar
msaħħa
msejjaħ
msejjħa
msejsa
msejħa
msejħin
msellef
msemmi
msemmija
msemmijin
msida
msieħba
msn
mt
mtarfa
mtarrag
mtarrg
mtejba
mtella
mtellgħin
mtieħen
mtv
mu
muammar
much
mude
mudell
mudella
mudelli
mudest
muftieħ
mugal
mughal
muhammad
muirhead
muizon
mula
mulej
mulgara
muller
multa
multi
multilingwi
multilingwiz
multimedjali
multinazzjonali
multiple
multipli
multiplikazzjoni
mum
muma
mumbai
mument
mumenti
mumin
mumja
mumtaz
mun
mundi
mundo
munic
munich
municipal
munita
muniti
munizzjon
munqar
munqarhom
muntanja
muntanji
muntanjuz
munxar
muon
mur
mural
murder
murexechinus
murexia
muri
murija
murina
murphy
murray
murthy
murty
mus
musa
muscat
muse
museen
museo
museum
museums
music
musica
musical
musicale
musicals
musicians
musik
musique
muskau
muskolari
muskoli
muslim
musrana
mussolini
must
mustac
mustafa
musulman
musulmana
musulmani
mutazzjoni
mutazzjonijiet
muti
mutter
mutual
mutur
muturi
muviment
muz
muzika
muzikali
muħammed
mv
mw
mwaqqa
mwaqqaf
mwaqqfa
mwaħħla
mweg
mwettqa
mwielda
mwieled
mwiet
mx
mxandar
mxandra
mxerrda
mxerrdin
mxew
mxiet
my
myanmar
mycenae
myoictis
myorycteropus
myriam
myrmecobiidae
myrmecobius
myspace
mysteries
mystery
mystras
myth
myths
mz
mħabba
mħabbar
mħabbra
mħaddma
mħaffra
mħallat
mħallef
mħallsa
mħallta
mħarreg
mħarrg
mħarsa
mħassar
mħaz
mħeg
n
na
nabatej
nac
nach
nacional
nad
nadia
nadif
nadifa
nadur
naf
naftan
nafu
nafuh
nafuha
nafuhom
nafux
nafx
nag
nagasaki
nagorno
nagħag
nagħla
nagħmel
nagħmlu
nagħti
nagħtu
nagħz
naha
nahuatl
nainggolan
naite
nal
name
named
names
namhansanseong
namibja
namra
nana
nancy
nani
nanna
nannakola
nannakoli
nanniet
nannu
nannuh
nantes
nanu
naples
napli
naplitan
naplitana
naplitani
napoca
napoleon
napoleonic
napoli
napplikaw
napuljun
naqas
naqqas
naqqset
naqqsu
naqra
naqraw
naqset
naqsmu
naqsu
nar
nara
naracoorte
naranco
naranjo
naraw
narawh
narawhom
narc
narrativa
narrative
narrattiva
narrattivi
narratur
narrazzjoni
narthex
nas
nasa
nasazzi
nasca
nases
nash
naslu
nassau
nast
nat
natal
natale
nathan
nation
national
nationale
nationalism
nationaux
nations
nativ
native
nativi
nativita
natl
nato
nattiv
nattiva
nattivi
natura
naturae
natural
naturali
naturalis
naturalista
naturalisti
naturalistic
naturalistika
naturaliz
naturalment
nature
naturi
naumburg
navali
navarra
navarro
navata
navati
nave
navi
navigabbli
navigatur
navigazzjoni
navy
nawfrag
nawtic
nawtiku
naxxar
naz
nazaret
nazca
nazi
nazionale
nazzarenu
nazzjon
nazzjonal
nazzjonali
nazzjonalista
nazzjonalisti
nazzjonalita
nazzjonalitajiet
nazzjonaliz
nazzjoni
nazzjonijiet
naħa
naħal
naħat
naħdmu
naħla
naħsbu
naħseb
nb
nbdew
nbdiet
nbeda
nbejjed
nbena
nbid
nbidel
nbidlet
nbidlu
nbiegħet
nbigħet
nbigħu
nbnew
nbniet
nbrunn
nc
nchen
nchengladbach
nchez
nd
ndaqs
nde
nder
nderbeu
ndez
ndifen
ndifnet
ndifnu
ndor
nduna
ne
nea
neal
neandertal
near
neblina
nebraska
nec
necker
necromanis
nediet
nee
need
nefertari
nefertiti
nefqa
neftc
neftchi
negattiv
negattiva
negattivi
negozjant
negozjanti
negozjati
negozji
negozju
nei
neil
neill
nej
nejedly
nekropoli
nel
nell
nella
nelle
nelson
neman
nemanja
nemel
nement
nemmen
nen
neo
neocatecumenal
neokatekumenali
neoklassic
neoklassika
neoklassiku
neolithic
neolitic
neolitika
neolitiku
neolog
neophascogale
nepal
nepomuk
neputi
neputih
neputija
neputijiet
neqsin
nerg
neri
nerik
nerissa
nero
neruni
nervuz
nes
neskin
nesolagus
nesta
net
netherlandiz
netherlands
nett
nettaru
nettunu
netwerk
network
networks
neucha
neue
neuer
neues
neumann
neustadt
neutral
neva
nevada
never
neville
nevis
new
newark
newcastle
newgrange
newman
news
newsletter
newspaper
newspapers
newton
newtrali
newtralita
newtrini
nexfin
next
neymar
nez
neħħa
neħħew
neħħiet
nf
nfetaħ
nfetħet
nfetħu
nfirxet
nfirxu
nfisha
nfushom
ng
nge
ngel
nger
ngos
ngstro
ngħaddu
ngħalaq
ngħalqet
ngħalqu
ngħaqad
ngħaqdet
ngħaqdu
ngħata
ngħatat
ngħataw
ngħid
ngħidu
ngħidulha
ngħidulhom
ngħidulu
ngħixu
ngħoddu
nh
nha
nhar
ni
nia
niang
nibdew
nibet
nibqa
nibqgħu
nibtet
nibtu
nic
nica
nicca
niccolo
nice
nich
nicholas
nicholl
nicht
nick
nickelodeon
nico
nicola
nicolae
nicolas
nicolau
nicolaus
nicole
nicolle
nicolo
nida
niddefinixxu
nie
nied
nieda
niedersachsen
niels
nielsen
nien
nieqa
nieqes
nieqsa
nies
niesu
nieuwe
niexef
niexfa
niez
nieħdu
nieħu
nifhem
nifhmu
nifs
niftakar
niftakru
nig
nigel
nigga
niggahitler
nigger
night
nights
nigra
nigricollis
nigsberg
nihat
nihon
nija
nijiet
nik
nikaragwa
nike
niket
nikita
nikkalkulaw
nikko
nikkunsidraw
niklaas
nikol
nikola
nikolai
nikolaus
nikolay
niksbu
niktbu
niktbuha
nikteb
nil
niltaqgħu
nimbacinus
nimxu
nin
nina
nine
nineteenth
ningaui
nino
ninu
nio
nirien
nirrapprez
nirriz
nisa
nisel
nisg
nispjegaw
nisrani
nisranija
nissoponu
nista
nistax
nistelrooy
nistgħu
nistgħux
nistudjaw
nitkellem
nitkellmu
nitlob
nitolbok
nitolbu
nitrog
nitroglic
niue
nixfa
nixon
nixtieq
nixxiegħa
nixxigħat
niz
nizza
nj
nja
nk
nkisbu
nkitbet
nkitbu
nkiteb
nkluz
nkun
nkunu
nkurunat
nl
nm
nnegozja
nnifisha
nnifsi
nnifsu
nnominat
nnota
nnutat
no
noa
noah
nobbilta
nobbli
nobel
nobelprize
noble
nocerino
noctivagus
nodi
noe
noel
noemi
nofs
nofsani
nofsanija
nofsha
nofshom
nofsinhar
nofsu
noi
nolde
nom
noma
nomadi
nomadic
nome
nomenclature
nomenklatura
nomi
nomina
nominali
nominat
nominata
nominati
nomination
nominattiv
nominazzjoni
nominazzjonijiet
non
norbert
nord
nordic
nordika
nordiku
nordsjælland
norfolk
norinaga
norma
normali
normalment
norman
normandija
normann
normanna
normanni
normi
norris
norte
north
northern
northwestern
norton
norve
norveg
norway
norwich
nos
nostalg
nostra
not
nota
notarili
notazzjoni
note
notes
notevoli
notevolment
nothing
noti
notice
notices
noticias
noto
notoryctemorphia
notoryctes
notoryctidae
notre
notte
nottingham
notturn
notturna
notturni
nou
nous
nouveau
nouvelle
nouvelles
nov
nova
novara
novel
novella
novelli
november
novembre
novembru
novgorod
novi
novitates
novizzjat
novo
novodevichy
novopolotsk
now
nowak
nozzjoni
np
npr
nps
nqabad
nqabdu
nqalbu
nqasam
nqatel
nqatlu
nqerdet
nqerdu
nqered
nqisu
nr
nri
nru
ns
nsara
nsejħulha
nsejħulu
nsemmu
nsibu
nstab
nstabet
nstabu
nster
nsterqet
nsterqu
nsw
ntagħz
ntbagħat
ntbagħtet
ntbagħtu
ntebaħ
ntefa
ntemm
ntemmet
ntemmu
ntgen
ntgħaz
nther
ntilef
ntilfet
ntilfu
ntlagħab
ntlagħbet
ntlagħbu
ntlaqat
ntlaqgħet
ntlaqtet
ntlaħaq
ntqal
ntrebħet
ntuz
ntwera
ntwerew
ntweriet
nu
nub
nuber
nubja
nubrica
nuclear
nudi
nudicaudatus
nuestra
nueva
nuevo
nuit
nukleari
nuklejari
nukleju
nukleotidi
nukleu
null
number
numbers
numerali
numerazzjoni
numeric
numerika
numeriku
numeruz
numri
numru
nun
nuna
nunzjatura
nunzju
nuova
nuove
nuovo
nuqqas
nuqqasijiet
nur
nuraxi
nuremberg
nurimberga
nursery
nuru
nus
nutar
nutara
nutrijenti
nutrition
nutrizzjoni
nuttallii
nuve
nuvembri
nuvemmiru
nuz
nuzzo
nvoluti
nwoko
nx
nxtara
ny
nyon
nytimes
nz
nħakmet
nħarg
nħarsu
nħatar
nħatret
nħawi
nħeles
nħoloq
nħolqot
nħolqu
nħoss
nə
nɪ
o
oa
oaks
oara
oaxaca
oaz
ob
obama
obbligat
obbligati
obbligatorja
obbligatorju
obbligi
obbligu
oberliga
obesulus
obha
obi
obituary
objettiv
objettivi
oblast
oboe
obon
obra
obscurus
observations
observatory
observer
oc
occidental
occupational
ocean
oceania
ocellatus
och
ochoa
ochotona
ochotonidae
oclc
oct
october
od
odat
odda
oddo
odeh
oder
odi
odissea
odjaku
ods
odu
oecd
oeuvres
of
ofc
off
offensiv
offensiva
offensivi
offerta
offerti
office
offices
official
officinalis
offiz
offra
offrew
offrewlu
offrielu
offriet
offrut
offruti
offs
ofppt
og
oggi
ogi
ogħla
ogħz
oh
ohio
ohm
ohra
ohrajn
ohrid
oikotimes
oil
oiostolus
ois
oise
ojjellerija
ojjelli
ojka
ojo
ok
okkaz
okkult
okkupa
okkupanti
okkupat
okkupata
okkupati
okkupaw
okkupazzjonali
okkupazzjoni
oklahoma
okon
okore
okra
oktober
ol
ola
olament
olanda
olandiz
olat
olata
olati
olbrich
old
oldest
ole
oleg
olej
oleksandr
olew
olfers
olga
oli
oligoc
olimpia
olimpic
olimpik
olimpika
olimpiku
olimpja
olimpjadi
oliveira
oliver
olivia
olivier
oloferne
ologie
ologiques
olokawst
olomorfa
olomouc
oluzzjoni
oluzzjonijiet
olvi
olvu
olympe
olympia
olympiacos
olympic
olympics
olympique
olzar
olzat
olzata
olzati
om
oma
oman
omar
omb
ome
omega
omelija
omeliji
omeru
ometric
ometrija
ometrika
omi
omic
omiltemi
ominidi
omm
ommha
ommhom
ommi
ommijiet
ommu
omnia
omnivora
omnivori
omnivoru
omog
omonia
omosesswali
omosesswalita
on
ona
onali
onanza
onard
once
one
onesta
onesti
onevoli
oni
onja
onlajn
online
only
onn
onna
onnijiet
onor
onorarja
onorarji
onorarju
onorat
onorata
onorevoli
onqor
ons
ont
ontario
onti
ontolog
onturi
onu
oolog
oort
oost
oostende
op
ope
open
opening
opens
opera
operat
operation
operatorname
operattiv
operattiva
operattivi
operatur
operaturi
operazzjonali
operazzjoni
operazzjonijiet
opere
operetta
operetti
opin
opinion
opinjoni
opinjonijiet
oplontis
opossum
opossumi
oppona
opportunita
opportunitajiet
opposition
oppost
opposta
opposti
oppoz
oppressjoni
opra
opri
opus
oqbra
oqfsa
oqqa
oqsma
or
ora
oraklu
orali
orang
orange
oranza
oratorju
oratory
orazio
orbigny
orbita
orbital
orbitali
orbiti
orchestra
orcia
ordan
order
orders
ordinarja
ordinarji
ordinarju
ordinazzjoni
ordine
ordna
ordnalu
ordnat
ordnata
ordnati
ordnaw
ordni
ordnijiet
ordre
ore
oregon
ores
oreste
orf
orfanatrofju
orfeo
orfni
org
organi
organic
organika
organiku
organisation
organista
organiz
organization
organizazzjoni
organizza
organizzat
organizzata
organizzati
organizzattiv
organizzatur
organizzaturi
organizzaw
organizzazzjoni
organizzazzjonijiet
organu
orgie
orgni
ori
orie
orient
oriental
orier
orig
origin
original
origine
origini
origins
orikteropu
orizzont
orizzontali
orja
orjent
orjentali
orjentat
orjentata
orjentati
orjentazzjoni
orju
orkestra
orkestrali
orkestri
orkidej
orlando
orle
orleans
orn
orna
ornament
ornamentali
ornamenti
ornat
ornata
ornati
oro
orr
orru
ors
orsi
orsijiet
orsini
ortega
ortodoss
ortodossa
ortodossi
ortografija
orycteropus
oryctolagus
orħos
os
osaka
oscar
oscars
osce
osgood
osgoodi
osiris
oslo
osman
osnovianenko
ospedale
ospita
ospitalita
ospitant
ospitanti
ospitat
ospitata
ospitati
ospitaw
ospiti
ospitu
osserva
osservabbli
osservanza
osservat
osservata
osservati
osservatorji
osservatorju
osservatur
osservaturi
osservazzjoni
osservazzjonijiet
ossessjoni
ossidjana
ossidu
ossig
ostag
ostakli
ostaklu
ostia
ostili
ostilita
ostmu
ostrogoti
ostrogradsky
osvaldo
oswald
ot
other
others
othus
otic
otis
ott
ottagonali
ottagonu
ottati
ottavjanu
ottawa
ottic
ottika
ottiku
ottimiz
otto
ottobru
ottoman
ottomana
ottomani
ottu
ottubru
otu
ou
oud
our
out
outlook
outpost
output
outside
ouverture
ov
ovali
ovanili
ovanna
ovarju
ovce
ove
over
overview
ovice
oviedo
ovvjament
owen
own
ox
oxbow
oxford
oxfordshire
oz
ozil
oħra
oħrajn
oħt
oħta
oħtha
oħtu
oħxon
p
pa
pablo
pac
pace
paceville
pachybiotherium
paci
pacific
pad
padana
padiljun
padova
padre
paenungulata
pag
paga
pagamenti
pagan
pagana
pagani
paganini
pagarusha
page
pages
pagi
pagina
pagoda
pagodi
pai
painted
painter
painters
painting
paintings
paisiello
pajjiz
pajjizi
pajpijiet
pajsag
pakal
pakistan
pakkett
pala
palace
palaces
palacio
palaeolagus
palaeothentes
palais
palatina
palau
palaw
palazz
palazzi
palazzo
pale
palebijolog
palenque
paleobiology
paleog
paleolithic
paleolitika
paleolitiku
paleontolog
paleontology
palermo
palestina
palestine
palestinian
palestinjan
palestinjana
palestinjani
palgrave
pali
palianytsia
palk
palladio
pallas
pallasi
pallidior
palliolata
palm
palma
palmer
palustris
pampa
pamukkale
pan
panagia
panama
panathinaikos
pandemija
panel
panew
panewijiet
pangolin
pangolini
pankhurst
panorama
panoramic
panoramika
panteon
pantheon
panzavecchia
paola
paolino
paolo
papa
papali
papat
paper
paperback
papers
papes
papessa
paphos
papiet
papini
papiru
papjamentu
papoc
papri
papua
papwa
par
para
paradise
paradiso
paradoss
paragrafu
paraguayanus
paragun
paragwaj
parallel
parallela
paralleli
parametr
parametri
parametrs
parametru
paramurexia
parantechinus
paranti
parapett
parapetti
parassiti
parata
parc
parco
pare
parentesi
parents
pari
parig
parigi
parir
pariri
paris
parish
parisot
parita
park
parkeg
parker
parkinson
parks
parlament
parlamentari
parlamenti
parliament
parliamentary
parma
parmigianino
paroc
parodija
parque
parrinu
parroc
parrocca
parrokjali
parrokkjali
parruc
parrukkier
parrukkiera
part
parte
partec
parti
partial
partic
particles
partie
partig
partijiet
partikolari
partikolarment
partikulari
partikularment
partit
partita
partitarji
partitarju
partiti
partito
partitura
partituri
partizan
partizani
partizzjoni
partners
partnership
parts
party
parvidens
parzjali
parzjalment
pas
pascal
pascual
pasha
pasquale
pass
passa
passag
passaport
passaporti
passat
passata
passatemp
passenger
passeriformes
passeriformi
passes
passi
passig
passion
passiv
passjoni
passjonijiet
past
pastelli
pasteur
pasti
pastizzi
pastor
pastorali
pasztory
pat
patagonia
patagonja
patata
patenaude
path
patission
patolog
patri
patria
patriarka
patrice
patricia
patrick
patrija
patrijarka
patrijarkali
patrijarkat
patrijarki
patrijiet
patrijott
patrijottiku
patrijottiz
patrimoine
patrimonio
patrimonju
patrizju
patroc
patrol
patron
patrun
patruna
patrunag
patruni
patt
pattern
patterns
patterson
pattersoni
pau
paucituberculata
paul
paula
paule
paulista
paulo
paulus
pausanias
pausini
pavel
pavia
paviljun
paviljuni
pavimentar
pavimentata
pavimentati
pawl
pawlu
pawn
pawz
paxa
pay
payne
pays
paz
pazjent
pazjenti
pazza
pazzi
pbs
pc
pd
pdf
pdg
pe
peace
peak
pearl
pearson
pedament
pedamenti
pedestall
pedina
pedini
pedro
peer
peg
peguensis
peinture
peirce
peiresc
pele
pell
pellegrin
pellegrinag
pellegrini
pembroke
pen
penali
penalti
penalties
penaltis
penalty
pendenti
penguin
peninsula
penitenza
peniz
pennsylvania
penny
pennyroyal
pensjonanti
pensjoni
pensjonijiet
pentadactyla
pentagon
pentalagus
pentekoste
people
peoples
pep
pepe
per
peralta
peramelemorphia
perameles
perc
percy
pereira
perellos
perenni
peress
perez
perfett
perfetta
perfettament
perfetti
perfezzjoni
performance
pergamon
periferali
periferic
periferija
periferiji
perijodu
perikli
periklu
perikoluz
perimetru
period
peristil
perit
periti
perjodi
perjodic
perjodika
perjodu
permanent
permanenti
permess
permessi
permezz
permjan
pero
perpetwu
perrelli
perrin
persegwitazzjoni
persekuzzjoni
persentag
perseus
persian
persistenti
persja
persjan
persjana
persjani
personag
personal
personali
personalita
personalitajiet
personality
personalment
personifikazzjoni
perspective
perspectives
perspettiva
persuna
persunag
persunal
persuni
perswaz
pertini
peru
perugia
perugino
peruvjan
pes
pesaro
pesta
petagna
petali
pete
peter
peters
petersburg
petersi
peterson
petit
petite
petizzjoni
petizzjonijiet
petr
petra
petrodromus
petrol
petrus
pez
pezosiren
pfa
pfc
pg
pgd
ph
pharaoh
phascogale
phascogalini
phascolosorex
phascomurexia
phase
phd
phe
phenacolemur
phi
phil
philadelphia
philander
philatelic
philharmonic
philip
philipp
philippe
phillips
philos
philosophers
philosophiae
philosophical
philosophie
philosophy
phoenician
phoenicians
phoenix
pholidota
phone
phong
phonocdromus
photo
photos
php
phyla
phylloscopus
phylogenet
phylogenetic
phylogeny
phylum
phys
physical
physics
physik
physiology
pi
pia
piacenza
piaf
piano
pianta
piazza
piazzi
picard
picasso
picchu
piccolo
piccolomini
pichipilus
pico
picta
picture
pictures
pie
pied
piedi
piemonte
piena
pieni
pienza
pier
piero
pierre
pieta
pieter
pietrelcina
pietro
pietru
pietruburgu
pigmenti
pigmew
pijiet
piju
pijunier
pijuniera
pijunieri
pika
piki
pil
pilas
pilastri
pilastru
pilatu
pilatus
pilgrimage
pilota
piloti
pin
pinacoteca
pinakoteka
pinakothek
pine
ping
pinheiroi
pink
pinna
pinnakli
pino
pinto
pinu
pinus
pinyin
pinzell
pio
pioneer
piotr
piper
pique
piramida
piramidali
piramidi
pirandello
pirata
pirati
pirenej
pirinej
pirjol
pirma
piro
pirotta
pirro
pisa
pisani
pistoia
pitagora
pitazz
pitheculites
pitter
pitti
pittoresk
pittori
pittric
pittsburgh
pittur
pittura
pitturi
piu
pius
pixxina
piz
pizzi
pjac
pjagi
pjan
pjanc
pjaneta
pjaneti
pjani
pjanijiet
pjanist
pjanista
pjanisti
pjanta
pjantag
pjanti
pjanu
pjanuforti
pjanura
pjanuri
pjattaforma
pjattaformi
pjazez
pjazza
pjutost
pjuttost
pl
pla
plac
place
placental
places
plagiomene
plagnieux
plain
plakek
plakka
plamers
plan
planck
planet
planetarja
planetarju
planigal
planigale
planigalini
planning
plans
plant
plantes
plantin
plants
plasma
plastic
plastik
plata
plate
platini
platinu
platt
platti
platun
plawz
play
playa
player
playerhistory
players
playoff
plaza
plc
plec
plejer
plejers
plejju
plejstoc
plenarja
plesiadapiformes
plesiadapis
plinju
plitvic
plitvice
plotinu
plovdiv
plural
plus
plutarku
pluto
plutone
pluvjali
plymouth
pm
pmid
pn
po
poblacio
poblet
poca
pocket
podesta
podju
podolski
poe
poecilolagus
poelagus
poema
poems
poesi
poesie
poet
poeta
poetessa
poeti
poetic
poetika
poetiku
poetry
poets
poez
pog
poincare
point
points
poisson
poitiers
poitou
pokal
pol
poland
polari
polder
pole
polemic
polemika
polhem
poli
police
policy
polikromatic
polimeri
polinez
polinomjali
polinomji
polis
polish
politekniku
politic
politica
political
politico
politics
politika
politikament
politiki
politiko
politiku
polity
poliziano
pollakk
pollakka
pollakki
pollin
pollinaturi
pollinazzjoni
pollution
polmonite
polo
pologne
polonja
poloz
polski
polydolopimorphia
polydolops
polygram
polz
polza
pomeranja
pompa
pompej
ponchielli
ponot
ponsot
pont
ponta
pontcysyllte
ponte
pontific
pontificia
pontifikat
pontijiet
pontormo
pontryagin
pool
pop
pope
popeye
popli
poplu
popolare
popolari
popolarita
popolat
popolata
popolati
popolazjoni
popolazjonijiet
popolazzjoni
popolazzjonijiet
popolin
popolo
popular
population
populations
popultion
por
porfirju
pornografija
port
porta
portafoll
portal
portali
porte
portelli
porter
portia
portic
portici
portijiet
portiku
portland
porto
portrait
portraits
portsmouth
portu
portugal
portugall
portugiz
portuguese
portwali
porvli
porzjon
posad
position
positions
posmysz
posposta
possibbilment
possibbilta
possibbli
possibilita
possibilitajiet
possibilment
possibilta
possible
possibli
possum
post
posta
postal
postali
postha
posthom
posti
postijiet
postsekondarja
postu
postulati
pot
potassju
potential
potenza
potenzi
potenzjal
potenzjali
potenzjalment
poter
poteri
potsdam
potter
pouliot
pound
pour
poussin
power
poz
poznan
pozzo
pp
ppartec
ppe
ppen
ppermetta
ppermettew
ppermettiet
ppjana
ppjanat
ppjanata
ppjanati
ppn
ppoz
ppreservat
ppreservata
ppreservati
pprez
pproc
pproduc
pprojbit
pprojbiti
pprojbixxa
pproklama
ppropona
pproponew
pprova
pprovda
pprovdew
pprovdiet
pprovdut
pprovduta
pprovduti
ppruvat
ppruvaw
ppubblika
ppubblikat
ppubblikata
ppubblikati
ppubblikaw
ppublikat
ppuntati
pr
practical
practice
practices
pradesh
prado
praga
prague
pranzu
prassi
prato
prattic
prattika
prattikament
prattikant
prattikanti
prattiki
prattiku
pre
prec
preca
predaturi
predec
predikatur
predikazzjoni
predominanti
prefazju
preferenza
preferenzi
preferut
prefett
prefettura
prefiss
prefissi
preg
prehistoric
prehistory
preistoric
preistorika
preistoriku
preistorja
prekarja
preklassiku
prekursur
prelat
preliminari
preliminarju
preliminary
preludju
prematura
premie
premier
premiere
premiership
premijer
premio
premjazzjoni
premji
premjijiet
premju
prentice
preparamenti
preparatorji
preparazzjoni
pres
presbiterju
presbiteru
present
presentation
presented
presenza
presepju
preservation
preservazzjoni
president
presidenti
presidenza
presidenzi
presidenzjali
presley
prespa
press
pressa
presse
presses
pressjoni
pressure
prestazzjoni
prestazzjonijiet
prestig
preston
prete
pretensjoni
preti
prevalenti
prevenzjoni
previously
previst
previz
prez
prezz
prezzijiet
prezzjuz
pri
price
prices
priedki
priest
prietka
prietki
prieto
prig
prijorita
prijoritajiet
prim
prima
primarja
primarjament
primarji
primarju
primat
primates
primati
primavera
prime
primer
primera
primeval
primi
priministru
primittiva
primittivi
primo
primordjali
princ
prince
princeps
princess
princeton
principal
principali
principia
principles
prinsengracht
print
printed
printing
pristina
privat
privata
privatament
private
privati
privattiva
privileg
prix
priz
prize
pro
proargyrolagus
probabbilment
probabbilta
probabbli
probabilment
problem
problema
problemi
problems
proboscidea
proboscideus
proc
procavia
procaviidae
proceedings
process
prodig
prodott
prodotta
prodotti
producer
production
productions
products
produttiv
produttivi
produttivita
produttur
produtturi
produzzjoni
produzzjonijiet
proeulagus
prof
profession
professional
professjonali
professjonalment
professjoni
professjonijiet
professjonist
professjonista
professjonisti
professor
professur
professuri
profeta
profeti
profezija
profeziji
profil
profile
profiles
profitt
profitti
profond
profonda
profondament
profondi
profs
prog
program
programm
programmazzjoni
programme
programmi
progress
progressiv
progressiva
progressivament
progressive
progressivi
progressjoni
projbit
projbita
projbizzjoni
project
projects
proklamazzjoni
prokuratur
prolagus
prolifiku
prologu
promettenti
prominenti
prominenza
promontorju
promoss
promossa
promossi
promotur
promozzjoni
pronaos
pronolagus
pronom
pronomi
pront
pronunciation
pronunzja
pronunzjata
propaganda
propagazzjoni
properties
property
propjeta
propjetajiet
propju
proporzjon
proporzjonali
proporzjonijiet
proposal
propost
proposta
proposti
propoz
proprijeta
proprijetajiet
proprja
proprjeta
proprjetajiet
proprjetarji
proprjetarju
proprju
prose
prosecco
prosekuzzjoni
proserpina
prosper
prosperita
prospero
prospetti
prospettiva
prospettivi
prossimita
prostituti
prostituzzjoni
protagonist
protagonista
protagonisti
protected
protection
proteina
proteini
protest
protesta
protestant
protestanta
protestanti
protestantiz
protesti
protett
protetta
protetti
protettivi
protettorat
protettric
protettur
protezzjoni
proto
protokoll
proton
protoni
prototip
proud
proust
prova
provdut
provence
provenza
provi
providence
providenza
provinc
province
provincia
provincial
provins
proviz
provvista
provvisti
provviz
proxxmu
proz
prudenza
prus
prussja
prussjan
prussjana
prussjani
pruvincia
pruwa
ps
psaila
pseudantechinus
psewdonimu
psi
psikolog
psv
psychology
pt
ptad
pti
ptilocercus
pu
pub
pubblic
pubblika
pubblikament
pubblikata
pubblikatur
pubblikaturi
pubblikazzjoni
pubblikazzjonijiet
pubbliku
publ
public
publication
publications
publiju
publikatur
publikazzjoni
publique
published
publisher
publishers
publishing
puccini
puck
puebla
puerto
puglisi
pulegium
pulit
pulitka
pulizija
pullicino
pulmun
pulmuni
pulptu
pulzier
pulzieri
puma
punent
punic
punika
puniku
punt
punta
puntali
puntdivista
punteg
punti
punto
pupa
puplesija
pur
pura
purament
purc
pure
puri
purtiera
purvis
pushkin
pusilla
pusillus
puska
pussess
putin
puy
puys
pyre
pyunik
q
qa
qabad
qabar
qabbad
qabbel
qabblu
qabda
qabdet
qabditu
qabdu
qabel
qabez
qabilha
qabilhom
qabilx
qablet
qablu
qablux
qabru
qabz
qaddej
qaddejja
qaddes
qaddis
qaddisa
qaddisin
qadi
qadim
qadima
qaeda
qafas
qagħad
qagħda
qagħdu
qajjem
qajla
qajmet
qajmu
qal
qala
qalb
qalba
qalbek
qalbet
qalbha
qalbhom
qalbi
qalbiena
qalbna
qalbu
qaleb
qalet
qalgħu
qalhat
qali
qaliet
qalila
qalilha
qalilhom
qalli
qallu
qalu
qalulu
qam
qamar
qamel
qamet
qamu
qamħ
qamħirrum
qanpiena
qanqal
qanqlet
qanqlu
qara
qarabag
qarabagh
qares
qargħa
qari
qarib
qarn
qarrej
qarrejja
qarsa
qasab
qasam
qasba
qasir
qasira
qasma
qasmet
qasmu
qasr
qassis
qassisin
qastan
qata
qatar
qatel
qatgħa
qatgħat
qatgħu
qatigħ
qatlet
qatlu
qatluh
qatra
qatt
qatta
qattgħet
qattgħu
qattiel
qattiela
qattus
qawmien
qawra
qaws
qawsalla
qawwa
qawwi
qawwiet
qawwija
qawwijin
qbid
qbil
qc
qdif
qdusija
qed
qeda
qedem
qedgħin
qegħdin
qerda
qerdet
qerdu
qered
qerq
qerrieda
qgħad
qi
qianlong
qieghed
qiegħ
qiegħda
qiegħdin
qiegħed
qies
qieshom
qiesu
qilla
qim
qima
qin
qing
qisha
qishom
qisien
qisu
qk
qliegħ
qliel
qligħ
qlub
qlubija
qlugħ
qmura
qniepen
qodma
qoffa
qofol
qormi
qorti
qosor
qosra
qotni
qoton
qoxra
qquad
qraba
qrabat
qrar
qrati
qrendi
qrib
qroll
qrun
qsar
qsim
qtates
qtil
qtugħ
qu
qua
quad
qualification
quality
quam
quantum
quark
quarks
quarter
quarterly
quatre
quattro
qubit
qubits
quc
quddiem
quddiemha
quddiemhom
quddiemu
quddies
quddiesa
quddisiet
que
quebec
quechua
quedlinburg
queen
queens
queensland
quere
querini
question
questions
qui
quick
quijote
quipe
quirigua
quixote
quo
quotidiano
quran
qusayr
quseir
qutb
qutub
qwiel
qxur
r
ra
raba
rabat
rabba
rabbi
rabbit
raben
rabja
rabta
rabtiet
race
racing
radam
radar
radd
radiation
radic
radikali
radikalment
radio
radjali
radjazzjoni
radjokarbonju
radjolog
radju
radjudrammi
radjukarbonju
radoje
radt
rael
raeljan
raeljana
raeljani
rafael
rafel
raffaele
raffaella
raffaello
raffles
rag
raggruppament
raggruppamenti
raggruppati
ragusa
ragħa
ragħad
ragħaj
rah
rahal
rahan
rahim
rahom
rai
rail
railway
raimondo
rain
rainbows
rainforest
rajasthan
rajja
rajjiet
rajna
rajput
rajt
rakkmu
rakkomandazzjoni
rakkomandazzjonijiet
rakkont
rakkonti
ral
rale
ralph
ram
rama
rameg
ramel
ramesses
ramiro
ramla
ramli
ramlija
ramm
ramo
ramon
ramos
rampa
rampi
ramsar
ramsay
ran
rana
rand
randan
randensis
random
ranet
range
rangers
rangle
ranieri
rank
ranking
rankings
rapa
raphael
raphanurus
rapid
rapida
rapidu
rapp
rapport
rapporti
rapprez
raprez
raqad
rar
rarament
rard
rari
ras
rasha
rashid
rashom
rasmussen
rasputin
rasu
rat
rata
ratba
rate
rates
rathbun
rathom
rati
ration
ratu
ratzinger
rau
raul
ravenna
raw
rawh
rawnd
rawnds
raxx
ray
rayleigh
raymond
raz
razez
razz
razza
razzett
razziz
razzjali
razzjonali
raħal
raħħal
raħħala
rc
rca
rcd
rd
rden
rdum
rdumijiet
re
reach
read
reader
reading
ready
real
reale
reali
realistic
realistika
realistiku
reality
realiz
really
realta
reason
reat
reati
reazzjoni
reazzjonijiet
rebaħ
rebbiegħa
rebbieħ
rebbieħa
rebecca
rebels
rebħ
rebħa
rebħet
rebħiet
rebħu
rebħuha
rebħulhom
rec
recent
recherche
recherches
recognition
reconquista
reconstruction
record
recording
records
red
redemptoris
redentur
redford
rediffusion
redin
rednic
reds
reed
reeder
reef
ref
refalo
reference
referendum
referenza
referenzi
referi
referis
refettorju
reflections
reform
reforma
reformation
refug
refugee
reg
rega
regatta
regensburg
reggie
reggio
regia
regime
regiment
regina
reginald
regio
region
regional
regionale
regions
regis
register
regola
regolament
regolamentazzjoni
regolamenti
regolari
regolarita
regolarment
regoli
regulari
regularment
regulation
regulations
reich
reichenau
reichstag
reid
reig
reigi
reign
reilly
reims
reina
reine
reinhard
rejiet
reklamar
reklami
rekord
rekordmeisters
rekords
rekwiz
relatat
relatata
relatati
related
relation
relations
relationships
relativament
relativity
relattiv
relattiva
relattivament
relattivi
relattivita
relazzjoni
relazzjonijiet
release
releases
relegat
relegati
relegazzjoni
relig
religion
religions
religious
relikwa
relikwarju
relikwi
remains
rembrandt
reme
remix
remo
remote
remoti
ren
renaissance
renato
rendikont
rendiment
rene
renjanti
renji
renju
rennes
renni
reno
renoir
renu
renzi
renzo
repertorju
replika
repliki
report
reporter
reporters
reports
repoz
reprint
reptiles
repu
repubblica
repubblika
repubblikan
repubblikana
repubblikani
repubbliki
republic
republika
reputazzjoni
reqdin
reqqa
request
requiem
rer
rerum
res
resaq
research
reserve
reserves
residence
resident
residenti
residenz
residenza
residenzi
residenzjali
resistance
resolution
resort
resource
resources
respighi
responsabbilita
responsabbilta
responsabbiltajiet
responsabbli
responsabilita
resqu
ressaq
ressqet
ressqu
rest
restaurant
restawr
restawrat
restawrata
restawrati
restoration
restored
restrizzjoni
restrizzjonijiet
results
ret
retorika
retrieved
retrospettiva
rett
rettangolari
rettili
rettur
return
returns
reuben
reuters
rev
reveal
revealed
reveals
reverendu
review
reviews
revised
revista
reviz
revoili
revolution
revue
rewwixta
rewwixti
rex
rey
reyes
reynolds
rez
rezzonico
rg
rgala
rgen
rgħajja
rheinland
rho
rhodes
rhynchocyon
rhyncholestes
ri
ria
riabilitazzjoni
rib
ribeiro
ribelli
ribelljoni
ribera
ribes
ric
rica
ricardo
ricasoli
ricault
riccardo
ricci
rice
ricerche
rich
richard
richards
richardson
richmond
richter
rick
rico
ricordi
rida
riding
ridley
ridt
ridux
rie
ried
rieda
riedem
rieden
riedet
riedni
riedu
riedx
riehl
rieki
riemann
rien
rieqda
rieqed
rieragħ
ries
riet
rietveld
rieure
riev
riez
rieħi
rif
riferenza
riferiment
riffieda
rifjutata
rifless
riflessa
riflessi
riflessjoni
riflessjonijiet
riforma
riformata
riformatur
riformazzjoni
riformi
riformista
rifrazzjoni
rifug
rifuz
rig
riga
rigal
rigali
right
rightarrow
rights
rigoletto
rigoruz
rigward
riina
rija
rijeka
rijiet
rijkaard
rika
rikaz
rikjesta
rikk
rikka
rikkardu
rikkezza
rikkezzi
rikki
rikombinazzjoni
rikonc
rikonoxxibbli
rikonoxximent
rikonoxxut
rikonoxxuta
rikonoxxuti
rikorrenti
rikors
rikostruwit
rikostruwita
rikostruwiti
rikostruzzjoni
rikreattiv
rikreattivi
rikreazzjoni
rilaxxat
rilevanti
rilevanza
riley
riljev
riljiev
riljievi
rilokat
rilokazzjoni
rima
rime
rimedju
rimet
rimini
rimonta
rin
rinascita
rinaxximent
rinaxximentali
rinella
rinforzi
rinfurzat
ring
ringen
ringiela
ringieli
ringrazzjament
rinnovabbli
rinnovat
rinnovata
rinnovati
rinnovazzjoni
rinnovazzjonijiet
rinoc
rinomat
rinomata
rinomati
rio
riorganizzazzjoni
ripetizzjoni
ripetut
ripetuta
ripetutament
ripetuti
riproduzzjoni
rise
riserva
riservat
riservi
rishi
rising
risk
riskji
riskju
risorgimento
rispett
rispettat
rispettati
rispettiv
rispettiva
rispettivament
rispettivi
rispons
risposta
risq
ristorant
ristoranti
ristrett
ristretta
ristretti
ristrutturar
rit
rita
riti
ritmu
ritorn
ritorno
ritratt
ritratti
ritrattista
ritter
ritwal
ritwali
riunifikazzjoni
riva
rivali
rivalita
riveduta
rivelazzjoni
rivelazzjonijiet
river
rivera
rivers
riversleigh
riviera
rivista
rivisti
rivoluzzjonarja
rivoluzzjonarji
rivoluzzjonarju
rivoluzzjoni
rivoluzzjonijiet
rix
rixa
riz
rizzoli
riħ
riħa
rjal
rjali
rjus
rk
rkiye
rkupra
rkuprat
rkupru
rlitz
rm
rmied
rn
rna
rner
rnexxa
rnexxielha
rnexxielhom
rnexxielhomx
rnexxielu
rnexxielux
rnexxietx
rnexxiex
rnexxilhiex
rnexxilux
ro
road
roads
rob
robben
robbie
robert
roberta
roberto
roberts
robertson
robin
robinson
robinsoni
robot
robson
robusti
robustus
rocco
rochester
rock
rocks
rode
rodentia
roderick
rodez
rodi
rodin
rodituri
rodolfo
rodri
rodrigo
rodrigues
rodriguez
roger
roget
rohan
roi
rokku
rokna
rokoko
roland
role
roll
rolle
rolli
rolling
rom
roma
romagna
roman
romana
romanesque
romani
romania
romano
romantic
romantika
romantiku
rome
romeo
romeral
romero
romerolagus
romol
romulus
ron
ronald
ronaldinho
ronaldo
roncalli
ronnie
roof
room
rooney
roosevelt
roqgħa
roque
ros
rosa
rosario
rosberg
rose
rosemary
rosen
rosenberg
rosetta
rosi
ross
rossi
rossini
rosso
rossoneri
rota
rotazzjonali
rotazzjoni
rote
roth
rothi
rothmans
roti
rotondo
rotot
rotta
rotterdam
rotunda
rouen
rouge
rouget
rough
rougon
roumanie
round
rourke
rousseau
roussillon
route
routes
routledge
rovere
rovers
row
rowling
roy
royal
royale
royaume
roz
rozeti
rqajja
rqaq
rqiq
rqiqa
rquez
rrakkomanda
rrang
rrapporta
rrapportat
rrapprez
rrappurtat
rraprez
rrealizza
rrefera
rreg
rrenja
rrenjat
rrestawra
rrestawrat
rrestawrata
rrestawrati
rrez
rrid
rridu
rrifjuta
rrifjutat
rrifjutaw
rrikonoxxa
rrikonoxxut
rrilaxxat
rritorna
rritornat
rritornaw
rriyet
rriz
rs
rsc
rsssf
rst
rterbuch
rtira
rtirat
rtiraw
rttemberg
ru
rubens
rubio
rubus
rudolf
rue
rufescens
rufus
rug
rugbi
rugby
ruha
ruhr
ruins
ruiz
rule
rules
rum
ruma
ruman
rumana
rumanesk
rumaneska
rumaneski
rumani
rumanija
rumanz
rumanza
rumanzi
rumanzier
rumanziera
rumen
rumena
rumeni
rummien
run
runge
runner
runners
runtime
rupert
rupestris
rurali
rus
rush
ruskin
russa
russel
russell
russett
russi
russia
russian
russie
russja
russo
russu
rusticana
ruta
ruth
rutherford
rutina
ruud
ruz
ruħ
ruħha
ruħhom
ruħi
ruħna
ruħu
rv
rwanda
rwieħhom
rwol
rwoli
ry
ryan
rz
rzburg
rziezet
rħula
rıza
s
sa
sab
saba
sabah
sabanalagus
sabar
sabet
sabha
sabiex
sabina
sabiħ
sabiħa
sabu
sabuh
sabuha
sabx
sac
sacco
sacerdot
sachs
sachsen
sacra
sacred
sacro
sad
sadanittant
sadattant
sadid
sadie
safa
safar
safe
safety
saff
saffi
safi
saflieni
safra
safranbolu
safrani
sag
saga
sagarmatha
sage
sagra
sagrado
sagrament
sagramenti
sagri
sagrific
sagristija
sagru
sagħtar
sagħtejn
sai
said
saint
sainte
saints
sajd
sajf
sajjetta
sajjetti
sajjied
sajjieda
sakemm
sakra
sakuya
sal
sala
salamanca
salamun
salarju
sale
salem
salerio
salerno
salez
salib
saliba
salina
salisbury
salle
salm
salmi
salon
salona
salott
salpa
salt
saltaire
saltna
saltniet
salut
salute
salv
salva
salvador
salvag
salvat
salvata
salvatag
salvati
salvatore
salvatur
salvaw
salvazzjoni
salve
salviati
salvini
salvu
salzburg
sam
sama
samantha
samarkanda
same
sami
samir
sammut
samoa
samos
sampdoria
samuel
samuraj
san
sana
sanctuary
sand
sandars
sanders
sandra
sandro
sanfourche
sang
sangallo
sangiran
sanita
sankt
sannat
sanremo
sans
sanskrit
sanskritu
sant
santa
santana
santander
santi
santiago
santillana
santini
santissima
santo
santos
santu
santwarji
santwarju
sanzjonijiet
sapiens
sapienza
sapir
sapmi
sapport
sapporters
sapuna
saqaf
saqajh
saqajha
saqajhom
saqajn
saqajħ
sar
sara
sarac
sarah
sarajevo
sarcophilus
sardenja
sardinja
sardona
saret
sarg
saritilha
saritlu
saritx
sarkofagi
sarkofagu
sarlu
sars
sarsen
saru
sarulu
sarux
sarx
sas
sassanidi
sassi
sasso
sassoni
sassonja
sassuolo
sat
satana
satanism
sataniz
satariano
satellita
satellitari
satellite
satelliti
satira
satiric
satirika
satiriku
saturnu
saudi
saunders
sautuola
savana
save
saverio
savigny
savin
saviour
savoia
savona
savonarola
savoy
saw
sawdija
sawdita
sawm
sawret
sawru
sawwar
sax
saxatilis
say
saydon
sayers
says
saz
saħansitra
saħaq
saħara
saħqu
saħħa
saħħar
saħħaħ
saħħet
saħħew
saħħitha
saħħithom
saħħtu
sbatax
sbieħ
sbl
sbn
sbuħija
sc
scala
scale
scan
scandal
scandentia
scar
scarecrow
scarlatti
scarone
scerri
scha
schalke
schele
schembri
schengen
schiavio
schiavone
schiele
schifferer
schiller
schindler
schlegel
schleswig
schlitter
schlo
schloss
schmidt
schneider
scho
schokland
scholar
scholes
schongauer
school
schools
schro
schu
schubert
schule
schumacher
schuman
schumann
schuster
schwartz
schwarz
sci
sciascia
sciberras
scicluna
science
sciencedaily
sciences
scientific
scientifique
scientifiques
scientist
scientists
scienza
scifo
sciglio
sciortino
scipio
scolari
score
scorer
scorers
scotland
scott
scottish
scotto
screen
scribner
scudetto
sculptor
sculpture
sculptures
scultori
scuola
se
sea
seal
seals
sean
search
searle
season
seat
seattle
seba
sebastia
sebastian
sebastiano
sebat
sebgħa
sebgħin
sebgħinijiet
sebħ
sec
secolo
second
seconda
secondo
secret
secrets
section
sector
security
sede
sedi
sedili
sediment
sedimentazzjoni
sedimenti
sedis
sedji
sedlec
seduta
see
seele
seen
seftura
seghers
segment
segmenti
segovia
segretarja
segretarjat
segretarji
segretarju
segunda
segwa
segwac
segwenti
segwew
segwiet
segwit
segwita
segwiti
segwitu
sehem
sehemhom
sehmu
sei
seine
sejba
sejbien
sejbiet
sejjaħ
sejjaħlu
sejjer
sejjieħ
sejra
sejrin
sejħa
sejħet
sejħiet
sejħilha
sejħu
sejħulha
sekli
seklu
sekonda
sekondarja
sekondarji
sekondarju
sekondi
sekulari
sekwenza
sekwenzi
seleccio
selected
selection
selene
selewc
selezzjoni
self
selimiye
seljuk
sellem
sellum
selvag
sema
semana
semantic
semantika
semgħet
semgħu
semi
semiarida
semic
semifinali
semifinalisti
seminaristi
seminarji
seminarju
seminars
semitic
semitika
semitiku
semitiz
semiye
semma
semmejna
semmering
semmew
semmewh
semmiegħa
semmieh
semmiet
semmiha
semplic
sen
sena
senat
senatur
senduq
senegal
seng
sengi
senglea
sengħa
senior
senna
sens
sensazzjoni
sensi
sensibilizzazzjoni
sensiela
sensittiv
sensittiva
sensittivi
sensittivita
sentejn
sentenza
sentenzi
sentiment
sentimentali
sentimenti
senu
senza
seokguram
seoul
seowon
separat
separata
separatament
separati
separazzjoni
sepja
sepp
september
sequence
ser
sera
seraq
serata
serati
serb
serba
serbi
serbia
serbie
serbja
serbjan
serbo
serebro
serena
serenata
serendipita
serendipity
serenita
serer
serg
sergei
sergey
sergio
serie
series
serja
serjament
serje
serjeta
serji
serju
serp
serq
serqa
serqu
serra
serracino
serva
server
servew
servi
service
services
serviet
servizz
servizzi
ses
sess
sessi
session
sessjoni
sessjonijiet
sesswali
sesswalita
sesswalment
sestu
set
seta
setax
setet
setgħa
setgħan
setgħana
setgħat
setgħax
setgħet
setgħetx
setgħu
setgħux
seti
sets
sett
setta
sette
settembru
settijiet
settlement
settur
setturi
sevastopol
seven
seventeenth
seventh
severa
severn
severo
sevilla
sew
sewa
sewda
sewer
sewqan
sewwa
sewwieq
sewwieqa
sex
sexton
sexual
seychelles
seymour
sezzjoni
sezzjonijiet
seħer
seħħ
seħħet
seħħew
seħħu
seħħx
sfat
sfaw
sfaxxa
sfera
sferi
sfida
sfidaw
sfidi
sfiduc
sfing
sfiqa
sfn
sfond
sfortunatament
sforz
sforza
sforzi
sfumat
sfurzat
sfurzata
sfurzati
sh
shaarawy
shadow
shah
shahrisabz
shakespeare
shakhtar
shale
shan
shanghai
shankly
shanks
sharer
sharing
sharon
shaun
shaw
she
shea
shearer
sheet
sheffield
sheila
shell
shelley
shevchenko
shi
shield
shin
ship
shipley
shirak
shirakawa
shirt
shiva
shivaji
shkode
shmyhal
sho
shoqeria
shor
short
shoshani
should
show
shows
shrew
shrews
shrewsbury
shrine
shropshire
shylock
si
sia
siam
sian
sib
siberja
sibt
sic
sica
sicilia
sicily
sico
sid
side
sider
sidi
sidien
sidna
sidney
sidru
sie
siege
siegfried
siegħa
sieket
siekta
siena
sieq
siequ
sierra
sietse
siewi
siewja
sieħba
sieħbu
sieħeb
sig
sigaretti
sige
sigismondo
siglo
sigma
sigmund
sign
signal
significance
signoria
signs
sigra
sigriet
sigrieta
sigrieti
sigur
sigura
sigurta
sigħat
sikek
sikka
sikkina
sikri
sikur
sikurezza
sikwit
silenzju
silesja
silez
silg
silic
silk
silla
sillaba
sillabazzjoni
silta
siltiet
silva
silver
silvestru
silvia
silvio
sim
sima
simar
simbel
simboli
simbolic
simbolika
simboliku
simboliz
simbolu
siment
simetrija
simetrika
simferopol
similaritajiet
simili
simmetrija
simo
simon
simone
simonovic
simons
simpatija
simpson
simpsonitheria
simshar
simultanjament
simultanji
simurq
sin
sinagoga
sinagogi
sinai
sinaj
sinan
sinapsidi
sinc
since
sindki
sindku
sindromu
sinensis
sinfonija
sinfoniji
sinfonika
sing
singapor
singapore
singer
singh
singing
single
singles
singular
singulari
sinh
sinifikanti
sinifikat
sinjal
sinjali
sinjifikanti
sinjifikat
sinjorina
sinjur
sinjura
sinjuri
sino
sinodu
sinolagus
sinonimi
sinonimu
sinsla
sint
sintassi
sintesi
sintetiku
sintez
sintomi
siq
sir
siracusa
sirakuz
sirenia
sirens
sirja
sirjan
sirjana
siro
sirt
sis
sisa
sisien
sistema
sistematic
sistematika
sistematikament
sistematiku
sistemi
sister
sisters
sistina
sistolika
sistu
sit
site
sites
siti
sito
sitt
sitta
sittax
sitte
sittembri
sitter
sittin
sittinijiet
sitwazzjoni
sitwazzjonijiet
sive
siviglia
sivilja
siwi
six
sixteenth
sixth
size
sj
sjieda
sjuf
sjɔ
sk
ska
skada
skala
skambju
skandinava
skandinavi
skandlu
skarpan
skart
skava
skavat
skavata
skavati
skavi
ske
skedat
skedata
skedati
skejjel
skeletru
skellig
skelligs
skema
skemi
skenderova
sketches
ski
skieken
skiet
skizzi
skjav
skjavi
skjerat
skoc
skola
skolastika
skoll
skolpit
skolpiti
skolpixxa
skond
skont
skontha
skontu
skop
skopert
skoperta
skoperti
skopijiet
skopje
skopra
skoprew
skor
skorba
skorer
skorers
skorja
skorjat
skorjati
skorjaw
skozja
skrivan
sks
skud
skultur
skultura
skulturali
skulturi
skumnikat
skur
skura
skuri
skurja
skurjat
skurjati
skurjaw
skutella
skuz
skwadra
sky
skysports
slaleb
slaten
slava
slave
slavi
slavia
slaviku
sliem
sliema
sligo
slovakia
slovakk
slovakka
slovakki
slovakkja
slovaquie
slove
sloven
slovena
sloveni
slovenia
slovenja
sma
small
smalling
smewwiet
smigħ
smile
sminthopsinae
sminthopsini
sminthopsis
smith
smithsonian
smoluchowski
sms
snajja
snien
snin
snow
snowden
so
soar
sobre
soc
soccer
soccerbase
soccernet
soccerway
social
socialist
socie
societa
societies
society
socjali
socjeta
sod
soda
sodda
soderini
sodi
sodisfac
sodisfatt
sodisfatti
sodisfazzjon
sodju
sodod
sodre
soekmono
sofferenza
sofia
sofija
sofistikati
sofonisba
sofor
sofra
sofrew
sofriet
soft
software
softwer
sog
sogħla
sohrab
sokkors
sokolovic
sol
solar
solari
sold
soldanis
sole
soleil
solenni
solida
solidarjeta
solidi
solidu
solinas
solista
solisti
solitarji
solitarju
solitudni
soll
solo
solomon
solstizju
soltangala
soltu
solution
soluzzjoni
soluzzjonijiet
solvut
solvuta
solvuti
somalja
some
someone
somma
sommarju
somme
somom
son
sonata
sonatas
sonates
sonati
sonda
sondag
song
songs
sono
sons
sont
sony
sophia
sophie
soppa
sopra
sopran
sopranaturali
soprano
soprapoz
sopravivenza
soqfa
sor
sorbjan
sorbonne
sorc
soria
sorijiet
sorprendenti
sorpriz
sors
sorsi
soru
sorveljanza
sospensjoni
sospiz
sostanzjali
sostanzjalment
sosten
sostenibbli
sostenituri
sostenn
sostitut
sostituti
sostituzzjoni
sostituzzjonijiet
sostitwit
sostitwita
sostitwiti
sostna
sostnew
sostniet
sostnut
sostnuta
sottili
sotto
sottodiviz
sottofamilja
sottofamilji
sottog
sottograf
sottogrupp
sottoklassi
sottokontinent
sottomarin
sottomarini
sottomissjoni
sottordni
sottoreg
sottospec
sound
source
sources
sous
south
southampton
southeast
southern
soviet
sovjetic
sovjetika
sovjetiku
sovran
sovrana
sovrani
sovranita
sp
spa
space
spain
spalla
spallejh
spanish
spanja
spanjol
spanjola
spanjoli
spara
sparar
sparat
sparati
sparaw
spareg
sparta
spartak
spartans
spaworth
spazjali
spazji
spazju
spazjuz
speaker
spec
special
specialist
speciation
species
specjali
spedizzjoni
spedizzjonijiet
speech
speed
speicherstadt
spejjez
spekulazzjoni
spekulazzjonijiet
spellut
spelluta
spemann
spencer
speranza
sperimentali
spettakli
spettaklu
spettakolari
spettatur
spettaturi
spettur
speyer
spezia
spic
spiegel
spiennes
spikka
spink
spinola
spinta
spira
spirali
spiri
spirit
spiritwali
spirtu
spis
spiss
spiteri
spiz
spjega
spjegat
spjegata
spjegati
spjegazzjoni
spjun
spjunag
split
sploda
splodiet
splussiv
splussivi
spluz
spoleto
sponsorizzazzjoni
sponsorjat
sponsorjata
sponsorjati
sponsors
sponsuni
spontanju
sport
sporting
sportiv
sportiva
sportive
sportivi
sportivo
sportklub
sports
spp
spring
springer
sprink
sptar
sptarijiet
spurling
spurs
spy
sq
sqalli
sqallija
sqallijiet
sqallin
sqaq
sqrt
squad
squadron
squads
square
sr
sri
sric
sriep
sritis
srpska
ss
ssegwi
ssejjaħ
ssejħet
sseldorf
ssemma
ssemmew
ssemmi
ssemmiet
sseparati
sser
sservi
sseħħ
ssib
ssieħbet
ssieħbu
ssieħeb
ssig
ssir
ssirx
ssn
ssostitwixxa
ssostni
ssp
ssr
ssug
st
sta
stabbilew
stabbiliet
stabbiliment
stabbilimenti
stabbilit
stabbilita
stabbiliti
stabbilixxa
stabbilixxew
stabbilizzazzjoni
stabbilta
stabbli
stabilixxa
stade
stadio
stadion
stadium
stadji
stadju
stadt
staelens
staff
stafford
stafrace
stag
stage
stair
stajt
stalin
stalla
stalley
stamford
stamp
stampa
stampalia
stampar
stampat
stampata
stampati
stampatur
stamperija
stampi
stan
stanbul
stand
standard
standardizzata
standards
stands
stanford
stanhope
stanisław
stanjata
stanley
stanton
stanza
staqsa
staqsieh
star
stari
stars
start
stat
statali
state
statement
states
stati
station
statista
statistic
statistical
statistics
statistik
statistika
statistiki
statistiku
stato
stats
statue
status
statut
statwa
statwi
stay
stazzjon
stazzjonat
stazzjonati
stazzjonijiet
ste
stec
stedina
steel
stefan
stefania
stefano
steiermark
stein
steiner
stejjer
stele
steli
stella
stelle
stenna
stennija
stephan
stephano
stephen
stephens
sterlina
sterling
stern
sterreich
stess
steve
steven
stevens
stevenson
stevns
stewart
stica
stieden
stiednu
stiefnu
stiftung
stil
stilel
stili
stilizzati
still
stilla
stima
stimi
stinka
stm
stmat
stmata
sto
stock
stockholm
stoclet
stoddart
stoic
stojc
stojka
stoke
stokkermans
stokkolma
stone
stonehenge
stones
stood
stop
stora
storbju
store
storer
storia
storic
storie
stories
storika
storikament
storiku
storja
story
stqarr
stqarret
stqarrew
stqarrija
stqarrijiet
str
strabo
strada
strade
strajk
stramb
stramba
strambi
strange
straordinarja
straordinarji
straordinarju
strasburgu
strateg
strauss
stravinskij
stravinsky
street
streets
stretch
stretfordend
strett
stretta
strettament
stretti
strickland
strike
striker
strixxa
strixxi
stromboli
structural
structure
struggle
strument
strumentali
strumenti
struttura
strutturali
strutturi
struve
struzzjonijiet
stu
stuart
student
studenta
studenti
students
studi
studies
studio
studja
studjat
studjata
studjati
studjaw
studji
studjo
studju
studjuz
studley
study
stukko
stupa
sturm
stuttgart
style
styria
stħarrig
su
sua
sub
subak
subborg
subborgi
subien
subjects
sublimi
subrahmanyam
subtropikali
suc
success
such
sud
suda
sudamericana
sudamericano
sudan
sudditi
suddiviz
sue
suez
suf
suffic
suffiss
suffissi
suffrag
suffrage
sufi
sufin
sug
sui
suicide
suisse
suite
sul
sular
sulari
sulba
suldat
suldati
sulejman
suli
sulla
sullivan
sultan
sultana
sultanat
sum
sumatra
summary
summer
summit
sun
sunak
sunda
sunday
sunderland
sunett
sunetti
sung
suo
sup
supe
super
supercopa
supercoppa
supercup
superfamilja
superfic
superior
superjorita
superjur
superjuri
superliga
supernova
superordni
superpotenzi
supertazza
superviz
suppl
supplementari
suppliment
support
suppost
suppoz
suprem
suprema
supremazija
suq
sur
sura
surg
surgery
surinam
surmast
surrealista
surrey
surtsey
survey
surveyor
survival
sus
susan
susanna
susanne
suso
suspett
suspettati
suspetti
suspettuz
sussegwentament
sussegwentement
sussegwenti
sussidjar
sussidjarja
sussidju
sustanza
sustanzi
sutherland
sutra
suwed
suwic
sv
sva
sven
sveriges
svizzera
swaba
swabja
swainsonii
swali
swallows
swansea
swar
swat
swatar
swaz
sweden
swedish
sweet
swieq
swieqi
swiet
swiss
switch
switzerland
swor
sworn
sydney
sylvia
sylvilagus
symbols
symphonie
symphony
symposium
syndrome
synthesis
syria
syst
system
systema
systematic
systematics
systems
szalay
szlo
søren
sħab
sħaba
sħabha
sħabi
sħabu
sħan
sħana
sħaħ
sħaħar
sħiħ
sħiħa
sħubija
sħun
sħuna
t
ta
tabakk
tabeira
tabella
tabelli
tabib
tabiba
tabilħaqq
table
tables
tablesl
tabone
tac
tad
tadam
tadotta
taf
tafal
tafferma
taffettwa
tafu
tag
taghha
taghhom
taghlim
taghna
tagliaferro
tagus
tagħbija
tagħha
tagħhom
tagħkom
tagħlaq
tagħlim
tagħmel
tagħmilha
tagħmilx
tagħmir
tagħmlu
tagħna
tagħom
tagħraf
tagħrif
tagħti
tagħtih
tagħtina
tagħtu
tagħz
tah
taha
tahom
taht
taj
tajba
tajbin
tajjeb
tajlandiz
tajlandja
tajn
tajra
tajwan
take
takes
takkomoda
taksa
takson
tal
talab
talb
talba
talbet
talbiet
talbot
talbu
tale
talent
talenti
tales
tali
taliban
taljan
taljana
taljani
talk
talli
tallinn
talmud
talpa
talpi
tama
tamar
tamministra
tammonta
tamworth
tan
tana
tancredi
tang
tanh
tank
tankijiet
tankredi
tant
tanti
tantx
tanz
taparsi
tapeti
tapit
tapizzerija
tapizzeriji
tappartjeni
tapplika
tappog
tapprofondixxi
taqa
taqbad
taqbel
taqbez
taqbid
taqbida
taqdi
taqlib
taqra
taqsam
taqsima
taqsimiet
taqsira
taqta
tar
tara
tarag
taranto
tarbija
tard
tarek
tarf
targ
target
tari
tariffa
tariffi
tarka
tarmi
tarnowskie
taro
tarraco
tarsu
tartu
tarxien
tarzna
tas
tasal
taschen
tashkent
tasmania
tasmanian
tassew
tassonomija
tastieri
tat
tatar
tatari
tatarstan
tate
tatei
tatha
tathom
tattakka
tattendi
tattic
tattika
tattira
tatu
tau
tauris
tavla
tavli
taw
tawh
tawha
tawrika
tawwali
tawwalin
tax
taxonomic
taxxa
taxxi
taylor
taz
tazez
tazza
tazzi
taħbat
taħbit
taħdem
taħdidiet
taħdit
taħdita
taħditiet
taħkem
taħlit
taħlita
taħraq
taħrig
taħseb
taħt
taħtaf
taħtha
taħthom
taħtu
tb
tbajja
tbassir
tbati
tbatija
tbatijiet
tbattal
tbaħħir
tbiddel
tbiddlet
tbiegħed
tbigħ
tbilisi
tbissima
tbol
tche
td
te
teacher
teaching
team
teams
teatrali
teatri
teatro
teatru
teau
teaux
tebe
tebgħa
tebgħat
tebut
tech
technical
techniques
technologies
technology
ted
teddy
tedeschi
tedesco
tefa
tefgħet
tefgħu
tegħleb
tehran
tehuaca
tehuantepec
teide
tejjeb
tejn
teknic
teknika
teknikament
tekniki
tekniku
teknolog
tel
tela
telaq
telc
telefon
telefonata
telefown
telegatto
telegrafija
telegramma
telegraph
telekomunikazzjoni
telenka
teles
teleskopji
teleskopju
telespettaturi
television
televixin
televiz
telf
telfa
telfien
telfiet
telford
telgħa
telgħet
telgħin
telgħu
tell
tella
tellgħet
tellgħu
tellief
telliefa
tellieqa
tells
telqa
telqet
telqu
tema
temi
temile
temm
temmen
temmet
temmew
temminck
temminckii
temp
temperament
temperatura
temperature
temperaturi
tempest
tempesta
tempesti
tempji
tempju
temple
temples
tempo
temporali
temporanja
temporanjament
temporanji
temporanju
temps
ten
tendenza
tendenzi
tenera
tenerife
tenfasizza
tengħud
tenna
tennessee
tennis
tenor
tensjoni
tensjonijiet
tentattiv
tentattivi
tenur
teodoriku
teodoru
teodosju
teodoz
teolog
teologi
teologu
teorema
teoremi
teoretika
teorija
teoriji
teorika
teoriku
teotihuaca
teotihuacan
tepe
teqred
tequila
ter
terapija
terapsidi
terence
teresa
terez
terfa
terg
term
termali
terminal
terminali
termini
terminolog
terminology
terminu
terminus
termodinamika
terms
terra
terracotta
terrakotta
terran
terrazza
terrazzi
terrazzin
terre
terremot
terremoti
terren
terrestri
terribbli
territorjali
territorji
territorju
territory
terroristi
terroristic
terroristiku
terroriz
terry
tersaq
terz
terza
terzi
terzjarja
terzjarju
tes
tesa
tespandi
tesperjenza
tesprimi
tessalonika
tesserati
tessut
tessuti
test
testa
testaferrata
testament
testendi
testi
testijiet
testimonjanza
testment
testwali
tetradactylus
tettonic
tettonika
teuta
tevita
tevolvi
tewm
tewmi
tewmin
tewtonic
tewtonika
texas
text
texte
texts
tez
teħid
teħles
teħtieg
tfac
tfajjel
tfajla
tfajliet
tfakkar
tfal
tfassal
tfassil
tfasslu
tfigħ
tfisser
tfittex
tfittix
tfittxija
tfixkil
tfulija
tfulitu
tg
tgawdi
tgawdija
tgħaddi
tgħajjat
tgħallem
tgħallmet
tgħallmu
tgħammed
tgħammir
tgħaqqad
tgħatti
tgħid
tgħidlu
tgħin
tgħix
tgħodd
th
tha
thailand
thake
thames
than
that
the
thea
theatre
thebes
thedded
theddid
theddida
theddidiet
theguardian
their
them
then
theodor
theodore
theology
theoretical
theories
theory
therapy
there
theresa
therese
theria
thesaurus
these
thesis
theta
theuma
they
thez
thibetana
thierry
thing
things
think
thinking
third
this
tho
tholos
thomas
thompson
thomson
thor
thorn
thought
thousand
threatened
three
thrones
through
thu
thun
thylacinidae
thylacinus
thylamyini
thylamys
thylatheridium
thylophorops
ti
tian
tianshan
tibda
tibdel
tibdil
tibdiliet
tiben
tiberju
tibet
tibetanus
tibgħat
tibla
tibni
tibqa
tibqax
tibz
tic
tica
ticino
tico
tiddec
tiddedika
tiddefendi
tiddefinixxi
tiddependi
tiddeskrivi
tiddetermina
tiddez
tiddi
tiddikjara
tiddistingwi
tiddomina
tidentifika
tidher
tidhirx
tidwib
tidwir
tidħol
tie
tieg
tieghu
tiegħek
tiegħhu
tiegħi
tiegħu
tiekol
tiela
tielet
tiempo
tieni
tienne
tiepolo
tieqa
tieqaf
tieħu
tifel
tiffac
tiffjorixxi
tiffoka
tifforma
tiffunzjona
tifhem
tifkira
tifkiriet
tifla
tifqigħa
tifrix
tifsir
tifsira
tifsiriet
tiftaħ
tiftix
tifu
tifħir
tig
tigers
tiggarantixxi
tiggwida
tigi
tigne
tigra
tigri
tigris
tika
tikal
tikber
tikek
tikka
tikkawz
tikketta
tikklassifika
tikkollega
tikkommemora
tikkompeti
tikkomunika
tikkonc
tikkonferma
tikkonsisti
tikkontesta
tikkontribwixxi
tikkontrolla
tikkonverg
tikkorrispondi
tikkostitwixxi
tikkunsidra
tikkwalifika
tikseb
tikteb
tila
tilac
tilbes
tilef
tilfet
tilfu
tilgħab
till
tilqa
tiltaqa
tilwim
tilwima
tilħaq
tim
timbru
time
timeline
times
timesofmalta
timidus
timijiet
timis
timmarka
timminsi
timor
timothy
timotju
timpanu
timpjega
timplika
timponi
timur
timurida
timxi
tin
tina
tinbena
tinbidel
tinda
tindaqq
tindif
tindika
tindirizza
tined
tinfetaħ
tinfirex
tinfluwenza
tinftiehem
ting
tingħad
tingħalaq
tingħaqad
tingħaraf
tingħata
tinkiseb
tinkiteb
tinkludi
tinkludix
tinkorag
tinkorpora
tinqaleb
tinqara
tinqasam
tinqata
tinqered
tinqix
tinsa
tinsab
tinstab
tinstema
tintbagħat
tintemm
tintgħaz
tintilef
tintlagħab
tintlaħaq
tintoretto
tintroduc
tintuz
tintwera
tinvolvi
tinz
tinħadem
tinħass
tinħema
tinħoloq
tip
tipa
tipi
tipic
tipika
tipikament
tipiku
tipolog
tippartec
tippermetti
tipprattika
tipprez
tipproduc
tipprojbixxi
tippromwovi
tipproponi
tipproteg
tipprova
tipprovdi
tippubblika
tips
tique
tir
tirana
tirann
tirano
tirbaħ
tirc
tiri
tirkupra
tirol
tirrakkonta
tirrapprez
tirraprez
tirreferi
tirreg
tirregola
tirren
tirrenja
tirrifletti
tirrikjedi
tirrikonoxxi
tirritorna
tirriz
tirtira
tiryns
tis
tisjir
tislima
tisma
tismija
tispec
tispic
tispikka
tispjega
tisplodi
tisqija
tissaħħaħ
tissejjah
tissejjaħ
tissemma
tissepara
tissieħeb
tissimbolizza
tissodisfa
tissorvelja
tissostitwixxi
tissug
tista
tistabbilixxi
tistax
tistenna
tistqarr
tistrieħ
tistudja
tiswa
tiswija
tiswijiet
tiswir
tisħin
tisħiħ
titania
titfa
titfac
titgħallem
titien
titjib
titjieb
titjir
titjira
titjiriet
titkanta
titkejjel
titkellem
titla
titlaq
title
titlef
titlesta
titli
titlob
titlu
titmexxa
titnaqqas
titneħħa
tito
titolari
titoli
titolu
titqiegħed
titqies
titratta
tittejjeb
tittieħed
tittraduc
tittratta
titu
titular
titulari
titus
titwaqqaf
titwassal
titwettaq
titwieled
titħalla
titħallas
tivoli
tivvjag
tixbah
tixbaħ
tixbit
tixgħel
tixhed
tixrid
tixrob
tixtieq
tixtri
tixħim
tiz
tiziano
tizjanu
tjiebet
tjiebu
tjubija
tjur
tjuta
tkabbar
tkabbir
tkabbret
tkabbru
tkanta
tkarkir
tkattar
tkaħħil
tkec
tkellem
tkellmet
tkellmu
tkissir
tkissru
tkompla
tkompli
tkompliet
tkomplija
tkopri
tkun
tkunx
tlacotalpan
tlacuatzin
tlaħħaq
tlesta
tlestew
tlestiet
tlestija
tletin
tletinijiet
tlett
tlettax
tlielaq
tliet
tlieta
tlitt
tlugħ
tluq
tm
tmajna
tmenin
tmeninijiet
tmexxa
tmexxi
tmexxiet
tmexxija
tmiem
tmiemha
tmiemu
tmien
tmienja
tmint
tmintax
tmiss
tmun
tmur
tmut
tn
tnabar
tnaqqas
tnaqqis
tnaqqsu
tnax
tnedija
tnejn
tneħħa
tneħħew
tneħħi
tneħħiet
tneħħija
tnig
tnissel
tnissil
tnixxi
tniz
tns
to
tobago
tobba
tobias
tochigi
today
todd
todo
toeplitz
toffri
together
togo
togħg
togħla
togħma
tokjo
tokkupa
tokyo
tolai
toledo
tolga
tolleranza
tolnay
tolomew
tolqot
tolteki
tom
toma
tomas
tomaso
tomasz
tomb
tombs
tome
tommaso
tommy
tomori
tomorrow
ton
tonalita
tonalitajiet
tond
tonda
tondi
tonga
toni
tonn
tonna
tonqos
tony
too
took
top
topera
topics
topografija
topolog
toppu
toqba
toqgħod
toqob
toqol
toqrob
toqtol
tor
torah
torbot
torc
torcal
tordna
torganizza
torig
torino
tork
torka
tornew
torok
toronto
toroq
torox
torpedo
torre
torres
torri
torrijiet
tort
torti
tortura
torun
tos
toscana
toskan
toskana
tospita
tot
total
totali
totalment
toto
tottenham
totti
tou
touch
toulon
toulouse
tour
toure
touring
tourism
tourist
tourists
tournai
tournament
tours
toutes
tovuz
towards
tower
towers
town
towns
townsendii
toyota
toħloq
toħrog
tpartit
tpattija
tping
tpitter
tpittir
tpog
tqabbad
tqabbil
tqajjem
tqal
tqala
tqanqal
tqarbin
tqarbina
tqassam
tqassim
tqaxxir
tqegħdet
tqegħid
tqiegħdet
tqiegħdu
tqiegħed
tqies
tqieset
tqiesu
tqil
tqila
tqis
tqum
tr
tra
trab
trabba
trabbiet
trabi
trac
track
tract
tracy
trad
trade
tradiment
tradition
traditional
traditions
traditur
tradizzjonali
tradizzjonalment
tradizzjoni
tradizzjonijiet
tradott
tradotta
tradotti
traduttric
traduttur
tradutturi
traduzzjoni
traduzzjonijiet
traffiku
traffikuz
trafford
trag
tragward
train
training
traite
trajanu
trajkovski
trakkijiet
tram
trama
tramm
tramuntana
trankwillita
trans
transactions
transett
transfer
transfermarkt
transformation
transition
transkonfinali
translated
translation
transnazzjonali
transport
tranz
trapani
trapass
tras
trasferiment
trasferimenti
trasferit
trasferita
trasferiti
trasfigurazzjoni
trasformata
trasformazzjoni
trasformazzjonijiet
traskrizzjoni
trasmissjoni
trasparenti
trasparenza
trasport
trasversali
trattament
trattamenti
trattat
trattati
travel
travellers
travels
travertin
travi
traviata
trawwem
traxler
traz
tre
treasure
treasures
treaty
treccani
tree
trejqet
tren
trend
trends
trentino
trento
tres
tressaq
tressqet
tressqu
treviso
trevor
tri
trial
triangolari
triangolu
triassic
triassiku
tribali
tribu
tribujiet
tribuna
tribunal
tribune
tribut
tributarja
tributarji
tribute
trichechidae
trichechus
trick
triclinium
trid
tridimensjonali
tridu
trie
trier
trieste
triforju
triganza
trigonometric
trijassiku
trijonf
trijonfali
triju
trikkib
trilitika
trilog
trinculo
trinek
trinidad
trinita
trinity
trio
trip
triple
tripletta
tripli
triplu
triq
triqitha
triqithom
triqtu
trissino
trittiku
trobbija
trofe
trofej
trofew
trogir
trois
trojja
trompe
tron
troodos
trophies
trophy
tropic
tropical
tropics
tropikali
trota
troughton
troy
true
truf
trulli
trump
trunc
truppi
truss
trust
truth
trux
truxija
ts
tschudi
tserkva
tsv
tt
tte
ttella
ttellgħet
ttellgħu
ttieħdet
ttieħdu
ttieħed
ttingen
ttir
ttraduc
ttrasferit
ttrasferixxa
ttrasformat
ttrasportat
ttrattati
tu
tua
tuberkoloz
tuberkuloz
tubi
tubu
tubulidentata
tucker
tudes
tufa
tuffieħ
tuffieħa
tufts
tufu
tugendhat
tul
tula
tumas
tumbata
tumbati
tumuli
tumur
tundra
tunez
tunisia
tuniz
tunnel
tunnellata
tunnellati
tupaia
tupaiidae
tupaja
tupaji
turan
turg
turgenev
turi
turija
turin
turing
turismo
turist
turisti
turistic
turistika
turistiku
turiz
turkestan
turkey
turkija
turkish
turkmen
turkmeni
turkmenistan
turks
turner
turnew
turquie
turretti
tursin
tuscany
tut
tutankhamun
tutte
tutti
tutto
tuvalu
tuz
tv
tvarja
tvm
twajjeb
twal
twapet
twaqqa
twaqqaf
twaqqfet
twaqqfu
twaqqgħet
twaqqgħu
twaqqif
twaqqigħ
twassal
twavel
tweg
twelid
twelidha
twelidu
twelied
twelled
twemmin
twente
twentieth
twenty
twessa
twessgħet
twessigħ
twettaq
twettiq
twettqet
twettqu
twieg
twieldet
twieldu
twieled
twieqi
twil
twila
twin
twissija
twitter
two
tyler
tympanum
type
typhlops
tz
tħabbar
tħabbira
tħabbret
tħabtu
tħaddan
tħaddim
tħaffer
tħaffir
tħaffru
tħalla
tħallas
tħallew
tħalli
tħalliet
tħalliex
tħallix
tħares
tħarreg
tħassar
tħassib
tħawwil
tħaz
tħeg
tħejjiet
tħejjija
tħobb
tħoss
u
ua
ubbidjenza
ubijiet
ublew
uc
ud
uda
udaiz
udika
udikatura
udine
udinese
uditta
udizzjarja
udizzjarji
udizzjarju
udizzji
udizzju
udjenza
udjenzi
udo
ue
ueber
uefa
uefachampionsleague
uf
ufa
uffic
ufficiale
uffizi
ufrutt
ufruttwarju
ug
uganda
ugarelli
ugo
ugwali
ugwalja
ugwaljanza
ugwalment
ugħ
ugħa
uh
uha
uhom
ujung
uk
ukoll
ukraina
ukraine
ukrainian
ukrajna
ukren
ukrena
ukreni
ul
ula
ulied
uliedha
uliedhom
uliedu
ulija
ulin
ulisse
ulisses
uljanu
uljetta
ulju
ulrich
ulster
ulta
ultat
ultati
ultaw
ulterjuri
ultimate
ultra
ultras
uluru
um
uma
uman
umana
umani
umanista
umanisti
umanistic
umanita
umanitajiet
umanitarja
umanitarji
umaniz
umayyad
umberto
umda
umdi
umdita
umduz
umilta
umli
umm
umnija
umoriz
un
una
unam
unament
unanimament
unanimu
und
under
underground
understanding
unduaviensis
une
unep
unerija
unesco
unesdoc
unfolding
ungerija
ungeriz
ungla
uni
unic
unicef
unier
uniera
unieri
unifikat
unifikata
unifikazzjoni
uniformi
unijiet
unika
uniku
union
unione
unions
unit
unita
unitajiet
unitarja
unitarju
united
uniti
unity
univ
univers
universal
universali
universalment
universe
universidad
universita
universitaires
universitajiet
universitarja
universitarji
universitarju
universite
universities
university
unjin
unjoni
unju
unknown
unni
uno
unone
unrecognized
uns
unt
unta
unti
until
unur
unuri
unveiled
unz
unzjoni
unzjonijiet
uomini
uomo
up
update
updated
upload
upon
upper
uppsala
ur
ura
uragan
ural
urament
uranju
uranu
urassika
urassiku
urati
urbain
urban
urbana
urbani
urbanizzazzjoni
urbanu
urbino
urbs
urdien
urdu
urew
urg
uri
uridic
uridika
uridiku
uriet
urigu
urija
urisdizzjoni
urisdizzjonijiet
urista
urja
urkett
url
urlarkivju
urna
urnal
urnali
urnalist
urnalista
urnalisti
urnaliz
urnata
urni
urogale
urrieq
urss
ursula
uru
urugan
uruguay
urugwaj
urugwajan
urugwajani
uruh
uruha
uruhom
us
usa
use
used
user
using
ussr
ust
usta
ustament
usti
ustifika
ustifikat
ustifikazzjoni
ustinjanu
ustizzja
ustizzjar
ustizzjat
ustizzjati
ustizzji
ut
uta
utc
utd
utent
utenti
utli
utrecht
utru
uttu
uvintur
uvni
ux
uxmal
uz
uzbekistan
uħ
uħud
v
va
vac
vaccinium
vag
vaganza
vaganzi
vakanti
val
valais
valcamonica
valde
valdobbiadene
vale
valencia
valentin
valentina
valenza
valenzja
valeria
valerie
valette
valida
validi
validita
validu
validus
vall
valla
valladolid
valle
valletta
valley
vallo
valois
valtice
value
values
valur
valuri
valutazzjoni
van
vanbrugh
vancouver
vandali
vanden
vanderbilt
vang
vanity
vantag
vanvitelli
vanwatu
vapur
vapuri
var
vara
varallo
varar
varat
varata
vardzia
varepsilon
varese
vari
variable
variation
variations
variegatus
varieties
various
varja
varjabbli
varjant
varjanti
varjat
varjata
varjati
varjazzjonali
varjazzjoni
varjazzjonijiet
varjeta
varjetajiet
varji
varsavja
varynaensis
vasari
vasco
vaska
vaski
vaskulari
vassall
vassalli
vassallo
vast
vasta
vasti
vat
vatican
vatikan
vatnajo
vauban
vaubois
vaughan
vaz
ve
vec
vecchia
vecchio
veda
vediz
veduta
veduti
veg
vega
vegan
vela
velat
velata
velati
velaw
veldhoven
velenu
velenuz
velika
vella
veloc
velu
velutinus
vena
venables
venda
vendetta
venera
venerabbli
venerazzjoni
venere
veneti
venetian
veneto
venez
venezia
veneziano
venezja
venezjan
venezjana
venezjani
venezuela
venezwela
veni
venice
ventilazzjoni
venus
venusta
venustus
ver
vera
veracruz
verament
verb
verbali
verbi
verbum
verdala
verde
verdi
verdun
verg
veri
verifika
verita
veritajiet
verlag
vermaelen
vermeer
vernakulari
vernic
vero
verona
vers
versa
versailles
versatili
verse
versi
version
versus
vertebrate
vertebrati
vertebri
vertic
vertikali
vertikalment
veru
verwaltung
very
verz
veskovat
vespri
vespucci
vestibolu
vesuvju
veteran
veterani
veterinarja
veterinarju
veto
vetrina
vetrini
vettel
vettur
vettura
vetturi
vez
vezja
vfb
vg
vi
via
viaf
viaggio
vialli
vianello
vibranti
vic
vice
vicente
vicenza
vici
victor
victoria
victory
vida
vidal
video
videos
vidic
vidigueira
vidjo
vidjos
vie
viejo
vienna
vienne
viera
vietnam
view
views
vig
vigarju
vignola
vii
viii
vijabbli
vikingi
viktor
vila
vilanova
vilel
vilhena
villa
villacan
villag
village
villages
villaroel
villarreal
villars
villas
ville
villeg
villes
vilnius
vilupp
viluppa
viluppat
viluppata
viluppati
viluppatur
viluppaturi
viluppaw
viluppi
vinc
vince
vincent
vincenti
vincenzo
vinci
vini
vinji
vinkolanti
vino
viola
violence
viollet
virg
virgil
virgin
virginia
virginiae
virtu
virtual
virtualani
virtujiet
virtwali
virtwalment
viru
virus
viruses
vis
visa
visby
visconti
vishnu
vision
visit
visiting
visitors
viskonti
vista
vistula
visual
vita
vitale
vitali
vitalita
vitamina
vite
vito
vitorin
vitorja
vitruvju
vittma
vittmi
vittoria
vittorio
vittoriosa
vittorja
vittorjana
viva
vivac
vivaldi
vivo
viz
vizcaya
vizzera
vizzeri
vizzeru
vizzju
vjag
vjal
vjenna
vjenniz
vjetnam
vjetnamiz
vjola
vjolenti
vjolenza
vjolin
vjolinc
vjolini
vjolinista
vlaanderen
vlad
vladimir
vlamertinge
vleg
vllaznia
vlore
vo
vocabulary
voce
voci
voi
voice
voices
vojnovic
vojt
vojta
vojvodina
vokabolarju
vokabularju
vokali
vokazzjonali
vokazzjoni
vokazzjonijiet
vol
volcano
volg
volkswagen
volleyball
volontarjat
volontarju
volpi
vols
volt
volta
voltaire
volterra
volti
volum
volume
volumes
volumi
voluntier
voluntiera
volution
vom
von
voorhoof
vorare
vorlesungen
voronet
voru
voss
vot
votanti
votazzjoni
vote
voti
voting
vox
voyage
voyager
voyages
vre
vries
vs
vu
vuc
vukanac
vuksanovic
vulcania
vulcano
vulgari
vulgata
vulkan
vulkani
vulkanic
vulkanika
vulkaniku
vulnerabbli
vuru
vv
vvinta
vvjag
vvota
vvutat
vvutaw
vy
vysotsky
w
wa
wachau
wacker
wacław
wadden
wadi
wagner
wahda
wahl
wajers
wakamatha
waldo
waldron
wales
wali
walk
walker
walking
wall
wallace
wallonja
walls
walsh
walter
walters
walton
waltz
walzer
wanderers
wang
wann
wanna
wanni
want
waqa
waqaf
waqfa
waqfet
waqfien
waqfiet
waqfu
waqgħa
waqgħet
waqgħu
waqqa
waqqaf
waqqfet
waqqfu
waqt
war
wara
warajh
warajha
warajhom
waranofsinhar
ward
warda
wardija
waregem
warner
warrant
warren
warriors
wars
warsaw
wartburg
warwick
was
wasal
washington
wasla
waslet
waslu
wassal
wassalhom
wasslet
wasslitu
wasslu
wassluh
wat
watch
water
waterhouse
waterpolo
waters
waterschei
watford
watja
watson
watts
wave
waves
way
wayne
ways
waħda
waħdieni
waħdu
waħedha
waħedhom
waħidha
waħidhom
waħx
wc
we
weather
weatherbase
web
webb
weber
websajt
websajts
website
webster
wedgwood
wednesday
week
weekend
weekly
weg
wegħda
wegħdiet
weierstrass
weil
weimar
weinberg
weiss
wejnħa
wela
welcome
welfare
well
welldet
welle
wellington
wells
welsh
welt
welterbe
weltfussball
weltfussballarchiv
wembley
wenger
wenzu
weqfin
wer
wera
weraq
werder
were
werk
werke
werkstatt
werner
werqa
werrej
werriet
werrieta
werther
wes
wesgħin
wesley
wessa
west
westermann
western
westfalen
westfalenstadion
westminster
westport
westwerk
wet
wettaq
wettinger
wettqet
wettqu
weħel
weħidha
wh
what
whc
wheeler
when
where
which
while
whip
white
whitecaps
whitney
whittaker
who
whose
why
wi
wic
wide
widien
widna
widnejh
widnejn
widnica
wie
wieck
wied
wieg
wiegħed
wiehed
wieliczka
wiemel
wien
wienaħ
wiener
wieqaf
wieqfa
wiesa
wiesbaden
wiesgħa
wievet
wieħed
wife
wig
wigan
wignacourt
wiki
wikibarijiet
wikibooks
wikijiet
wikijunior
wikimedia
wikipedia
wikipedija
wikisource
wikiversita
wikkiela
wild
wilde
wilderness
wildlife
wiley
wilfried
wilhelm
wilhelmsho
wilkins
wilkinson
will
willandra
willem
willemstad
willi
william
williams
williamson
willy
wilson
wim
win
wind
window
windows
winds
windsor
wine
wing
winner
winners
winning
wins
winston
winter
winterslag
wipes
wir
wirdien
wiret
wiri
wirja
wirjiet
wirt
wirtet
wisa
wisconsin
wisgħa
wisq
wissa
wistin
wita
with
withdraws
within
without
witi
witta
wittew
wittiet
wiz
wk
wkoll
wlied
wm
wo
wojtyla
wolf
wolff
wolfgang
wolfsburg
wolverhampton
wolves
woman
women
won
wonder
wonders
wood
woodard
woodburne
wooden
woodstock
woolwich
word
words
work
workers
working
works
workshop
workshops
world
worldbank
worldcat
worldfootball
worlds
worldwide
worm
worms
wort
worth
would
wrew
wrexham
wriet
wright
writer
writers
writing
writings
written
wrocław
wroe
wu
wwf
www
wyss
wz
wħud
władysław
x
xabbaturi
xabla
xadina
xadini
xaft
xaftijiet
xagħar
xagħarhom
xagħat
xagħra
xagħri
xagħru
xahar
xahrejn
xama
xampanja
xandar
xandara
xandir
xandira
xandru
xaqliba
xaqlibiet
xaqq
xarabank
xarba
xatbiet
xatt
xavier
xaħam
xaħmet
xbieha
xbieki
xbiex
xbiha
xbihat
xebba
xebh
xebħ
xedaq
xedd
xefaq
xeff
xehda
xehdu
xehed
xejikk
xejn
xejra
xejriet
xellug
xellugi
xellugija
xellugin
xelter
xemgħa
xemgħat
xemx
xemxija
xena
xenarji
xenarju
xenarthra
xeneg
xeni
xenic
xenika
xerrdu
xerrejja
xerri
xettic
xettru
xewk
xewka
xewkija
xewqa
xewqat
xeħet
xeħta
xfafar
xfar
xgħajra
xhieda
xhud
xhur
xi
xibka
xico
xiehda
xieraq
xierqa
xiex
xifer
xii
xiii
ximenes
xini
xinjiang
xintu
xiri
xirka
xirkiet
xita
xitan
xitla
xitwa
xiv
xix
xiz
xiħ
xjaten
xjentific
xjentifika
xjentifikament
xjentifiku
xjentisti
xjenza
xjenzat
xjenzati
xjenzi
xjenzjati
xjuħ
xkejjer
xkiel
xkupa
xkupilja
xlendi
xlokk
xmajjar
xmara
xml
xmun
xniegħat
xnigħat
xochicalco
xofftejn
xoghol
xogħlijiet
xogħlu
xogħol
xogħolha
xogħolhom
xogħolijiet
xokk
xolja
xoljiment
xolt
xolta
xorb
xorok
xorta
xorti
xorts
xott
xotti
xprunara
xprunat
xquq
xtajta
xtaq
xtaqet
xtaqt
xtaqu
xtara
xterdet
xtieli
xtiewi
xtrat
xtraw
xtut
xuereb
xufier
xulxin
xutt
xuttijiet
xv
xvi
xvii
xviii
xwabel
xwieni
xx
xxandar
xxi
xxii
xxiii
xħin
y
ya
yacht
yagul
yahoo
yale
yalta
yamuna
yana
yang
yangon
yantra
yarala
yaroslav
yasawi
yasmin
yax
yayla
ye
year
years
yeats
yeltsin
yen
yeni
yerevan
yes
yet
yi
yiddish
yo
yohl
yorgen
york
yorker
yorkshire
yoshida
you
young
youngsters
your
youth
youths
youtube
ypres
yu
yuan
yucata
yucatan
yugoslavia
yukawa
yuknoom
yulia
yunnan
yuri
yves
z
za
zacatecas
zagreb
zahra
zambezi
zamenhof
zammit
zamos
zanichelli
zanne
zaporizhzhia
zapotec
zar
zaragoza
zarina
zaza
ze
zealand
zebbug
zebrzydowska
zeebrugge
zef
zeit
zeitschrift
zekka
zelay
zelensky
zelenskyy
zenit
zeno
zerafa
zero
zeta
zewg
zghazagh
zgħar
zgħira
zhang
zhodino
zhou
zi
zidane
zija
zijiet
ziju
zijuh
zil
zimmermann
zinedine
zkuk
zmien
zofia
zokk
zokkor
zokor
zola
zollverein
zona
zond
zone
zoo
zoology
zoran
zquez
zu
zuckerberg
zulte
zum
zuntier
zur
zurich
zygolestes
zzjo
{
|
}
~
¡
£
§
¨
©
ª
«
¬
­
¯
°
±
²
³
´
·
º
»
½
¿
×
ß
÷
þ
þingvellir
đ
đo
ħ
ħa
ħabat
ħabb
ħabba
ħabbar
ħabbret
ħabbru
ħabel
ħabib
ħabiba
ħabibu
ħabitat
ħabitats
ħabs
ħabsin
ħabta
ħad
ħadd
ħaddan
ħaddied
ħaddiem
ħaddiema
ħaddieħor
ħadem
ħadet
ħadha
ħadid
ħaditu
ħaditx
ħadlu
ħadmet
ħadmu
ħadna
ħadra
ħadrani
ħadt
ħadu
ħaduh
ħaduha
ħadux
ħafif
ħafifa
ħafna
ħag
ħaiti
ħaj
ħajja
ħajjar
ħajjat
ħajjata
ħajjet
ħajjiet
ħajjin
ħajjitha
ħajjithom
ħajr
ħajru
ħajt
ħajti
ħajtu
ħakem
ħakkiem
ħakkiema
ħakma
ħakmet
ħakmiet
ħakmu
ħal
ħalaq
ħalib
ħalla
ħallas
ħallelin
ħallew
ħallewh
ħalli
ħallieh
ħalliel
ħallieq
ħallieqa
ħalliet
ħallietu
ħallset
ħallsu
ħalq
ħalqu
ħama
ħames
ħamest
ħami
ħamiem
ħamiema
ħamis
ħamra
ħamrani
ħamrija
ħamrun
ħamsa
ħamsin
ħamsinijiet
ħandaq
ħanin
ħanina
ħanut
ħanz
ħaqq
ħarab
ħarba
ħarbet
ħarbu
ħareg
ħares
ħarg
ħarifa
ħarig
ħarir
ħarira
ħarrub
ħarsa
ħarsien
ħarsu
ħarta
ħaruf
ħarxa
ħasbet
ħasbu
ħaseb
ħasil
ħass
ħassar
ħassejt
ħasset
ħassew
ħassieb
ħassieba
ħassu
ħatab
ħataf
ħatar
ħatfu
ħati
ħatja
ħatra
ħatret
ħatriet
ħatru
ħax
ħaxix
ħaxixa
ħaz
ħbiberija
ħbieb
ħbiebu
ħbub
ħbula
ħdan
ħdanha
ħdanu
ħdax
ħdejh
ħdejha
ħdejn
ħdura
ħeffa
ħeg
ħejja
ħeles
ħelikopter
ħelisha
ħelsien
ħelsinki
ħelu
ħelwa
ħelwin
ħerba
ħerg
ħerqa
ħerqan
ħerqana
ħerz
ħerzegovina
ħesrem
ħfief
ħg
ħidma
ħidmiet
ħidmietu
ħieles
ħielsa
ħiereg
ħierg
ħija
ħila
ħiliet
ħiltu
ħin
ħindi
ħindu
ħinduiz
ħinduwin
ħinijiet
ħinu
ħitan
ħjata
ħjiel
ħlas
ħlasijiet
ħlejjaq
ħlejqa
ħlejqiet
ħlewwa
ħlief
ħmar
ħmieg
ħmir
ħmira
ħmistax
ħnejja
ħnejjiet
ħniedaq
ħniena
ħniez
ħobz
ħodor
ħofor
ħofra
ħofriet
ħoki
ħolm
ħolma
ħoloq
ħolqa
ħolqien
ħolqot
ħolqu
ħomor
ħondoq
ħonduras
ħong
ħorox
ħoss
ħoxna
ħoxnin
ħrafa
ħrejjef
ħrug
ħruq
ħruxija
ħs
ħsad
ħsara
ħsarat
ħsejjes
ħsibijiet
ħsieb
ħsiebha
ħsiebhom
ħsiebu
ħtieg
ħtif
ħtig
ħtija
ħu
ħud
ħuda
ħug
ħuh
ħuha
ħut
ħuta
ħutha
ħuti
ħutu
ħuħ
ħwawar
ħwejjeg
ħwienet
ħxejjex
ħxuna
ħz
ı
ŋ
œ
œuvres
ȝ
ɐ
ɑ
ɔ
ə
ɛ
ɡ
ɪ
ɹ
ɾ
ʁ
ʃ
ʊ
ʒ
ʔ
ʰ
ʲ
ʹ
ʻ
ʼ
ʾ
ʿ
ˈ
ˌ
ː
ːˈ
ˑ
˙
ˠ
˦
˧
̀
́
̂
̃
̄
̆
̇
̈
̉
̊
̋
̌
̓
̔
̚
̛
̝
̠
̣
̥
̦
̧
̨
̩
̪
̮
̯
̱
̸
͂
ͅ
͡
α
ας
β
γ
δ
ε
ζ
η
θ
θη
ι
και
λ
λε
μ
ν
να
ξ
ο
π
πο
ρ
ς
σ
τ
της
το
του
υ
φ
χ
ψ
ω
ϕ
ϵ
а
азербаи
в
вестник
г
д
для
е
з
и
к
л
ла
м
мальтии
н
на
не
ни
о
п
псаи
р
россии
с
скии
ссср
т
у
украі
ф
фк
х
ц
ч
ъ
ь
ю
я
яна
і
ћ
ҥ
ְ
ֲ
ִ
ֵ
ֶ
ַ
ָ
ֹ
ּ
ׁ
ׂ
א
ב
ד
ח
י
ך
ל
נ
ס
ע
פ
ק
ר
ש
ת
،
ا
الا
ب
بن
ة
ت
ث
ج
ح
خ
د
ذ
ر
ز
س
ش
ص
ض
ط
ظ
ع
ف
ق
ك
ل
م
محمد
ن
ه
و
ي
ٌ
َ
ُ
ِ
ّ
ْ
ٓ
ٔ
ٕ
ं
ः
क
ग
ज
ट
ड
त
थ
द
न
प
ब
भ
म
य
र
ल
व
स
ह
ा
ि
ी
ु
ू
े
्
দ
া
ে
ா
்
ั
ุ
་
ུ
ဂ
ပ
ရ
သ
ာ
ိ
ီ
ု
ူ
ံ
္
고인돌
ត
ុ
ោ
្
​
‌
‎
‏
‐
‑
–
—
―
‖
‘
’
‚
“
”
„
†
‡
•
…
‪
‬
′
″
‹
›
‿
⁄
⁠
⁡
€
ℏ
№
ℜ
™
ℵ
←
↑
→
↔
↦
↷
⇒
∀
∂
∃
∅
∇
∈
∏
∑
−
∗
∘
√
∞
∧
∩
∪
∫
≃
≈
≡
≤
≥
⊂
⊥
⋂
⋃
⋅
⋯
③
④
⑦
│
▲
●
☉
☽
☾
♀
♁
♂
♭
♯
⟨
⟩
⟹
⯓
ⴰ
ⴱ
ⴳ
ⴷ
ⴹ
ⵃ
ⵅ
ⵉ
ⵊ
ⵍ
ⵎ
ⵏ
ⵓ
ⵙ
ⵛ
ⵜ
ⵢ
ⵣ
⺀
⺄
⺆
⺈
⺊
⺌
⺕
⺝
⺸
⺼
⿰
⿱
⿲
⿳
⿴
⿵
⿶
⿷
⿸
⿹
⿺
⿻
、
「
」
【
】
〢
い
お
か
く
け
こ
さ
し
す
た
つ
て
と
な
に
の
ふ
み
ら
ん
゙
゚
ア
ィ
イ
ウ
カ
キ
ク
コ
サ
シ
ス
セ
タ
ッ
テ
ト
ナ
ニ
ノ
ハ
ヒ
フ
マ
ミ
ム
モ
ュ
ユ
ラ
ル
ロ
ン
・
ー
㇁
㇂
㇄
㇇
㇈
㇉
㇓
㐁
㐄
㐅
㐌
㐫
㐬
㐭
㐮
㐱
㑒
㒵
㒸
㒼
㓁
㓞
㔾
㕛
㕣
㖾
㘝
㚅
㚇
㚔
㚘
㝉
㝡
㝴
㝵
㞋
㞢
㞷
㠩
㠭
㠯
㡀
㡭
㡿
㢲
㢴
㣇
㣺
㥯
㪅
㫄
㫐
㫒
㫺
㬅
㬎
㬥
㬰
㲋
㳄
㷠
㸒
㸚
㸦
㼌
㼲
㽞
㿟
䀠
䂞
䍃
䏍
䒑
䖍
䖒
䖝
䖵
䙴
䚻
䜌
䝿
䡛
䧹
䪞
一
丁
丂
七
丄
丅
丆
万
丈
三
上
下
丌
不
与
丏
丐
丑
专
且
丕
世
丘
丙
业
东
丝
丞
丢
丣
两
严
並
丨
丩
个
丫
丬
中
丮
丰
丱
串
丵
丶
丷
丸
丹
为
主
丽
丿
乀
乂
乃
久
乆
乇
么
义
之
乌
乍
乎
乏
乐
乑
乔
乖
乗
乘
乙
乚
乛
乜
九
乞
也
习
乡
书
乳
乾
亀
亅
了
亇
予
争
事
二
亍
于
亏
亐
云
互
亓
五
井
亘
亚
亜
亞
亟
亠
亡
亢
交
亥
亦
产
亨
亩
享
京
亭
亮
亯
亰
亲
亳
亶
亷
人
亻
亼
亾
仁
今
介
仌
从
仐
仑
仒
仓
仕
他
付
仝
代
令
以
任
企
伊
伏
伐
休
会
伯
但
位
何
佘
余
佛
作
佥
使
來
侈
侌
侖
侯
侵
便
保
俞
信
修
倉
倍
候
倠
偏
備
僉
僕
儿
兀
允
兂
元
兄
充
兆
兇
先
光
兊
克
兌
免
兑
兒
兓
兔
党
兜
兟
入
內
全
兩
兪
八
公
六
兮
兰
共
关
兵
其
具
典
兹
兼
冀
冂
冃
冄
内
冈
冉
冊
冋
册
再
冎
冏
冐
冒
冓
冖
冗
冘
军
农
冝
冡
冥
冫
冬
冷
几
凡
凢
凵
凶
凷
凸
凹
出
函
凾
刀
刁
刂
刃
刄
刅
分
切
刍
刑
刕
刖
列
刘
则
初
別
利
别
到
制
刺
則
削
剌
前
剡
剽
劉
力
功
加
劦
助
劫
劳
劵
勃
勇
勉
勒
動
務
勞
勤
勹
勺
勻
勾
勿
匀
匂
包
匆
匈
匊
匋
匍
匕
化
北
匚
匝
匡
匪
匱
匸
匹
区
医
匽
匿
區
十
卂
千
卄
卅
卆
升
午
卉
半
卌
华
卑
卒
卓
单
卖
南
博
卜
卝
卞
占
卡
卢
卣
卤
卦
卩
卪
卬
卯
印
危
即
却
卵
卷
卸
卻
厂
厃
厄
历
厈
厉
厌
厓
厘
厚
原
厤
厥
厨
厭
厲
厶
厷
厸
去
厼
厽
叀
参
參
叅
又
叉
及
友
双
反
叐
发
叒
叔
叕
取
受
叚
叜
叟
口
古
句
另
叩
只
召
可
台
叱
史
右
叵
号
司
叹
吂
各
吅
合
吉
吊
吋
同
名
后
吏
向
吕
君
吝
吞
否
含
启
吳
吴
吹
吾
呂
呆
呈
告
员
呙
周
味
命
咅
和
咎
咠
咢
咨
咸
咼
哀
品
哈
哉
員
哥
哲
唐
商
啇
問
啚
啬
啻
善
喜
喬
單
喿
嗇
噩
噴
嚴
囊
囗
囘
囙
囚
四
回
囟
因
囧
囬
园
困
囱
囷
固
国
图
圂
圅
國
圍
園
圓
圖
土
圡
圣
圥
在
圭
地
圶
圼
址
坐
坒
坚
坛
坤
坴
垂
垔
垚
垣
埀
埋
城
埶
執
基
堂
堅
堆
堇
堯
報
場
塔
塞
墨
壇
壘
士
壬
壯
声
壳
壴
壹
壺
壽
夂
处
夅
夆
备
夊
夋
夌
复
夏
夒
夕
外
夗
夘
多
夜
夢
大
夨
天
太
夫
夬
夭
央
失
夲
头
夷
夸
夹
夻
夾
奂
奄
奇
奈
奉
奎
奏
奐
契
奓
奔
奚
奞
奠
奢
奥
奭
女
奴
奻
好
如
妄
妙
妟
妥
妮
妻
妾
姑
委
姜
姫
威
娄
婁
婴
嬰
嬴
子
孑
孔
孕
孖
字
存
孚
孛
孝
孟
季
孤
学
孫
孱
學
宀
宁
宂
它
宅
宇
守
安
宋
完
宏
宓
宗
官
定
宛
宜
宝
客
宣
室
宫
宮
宰
害
家
容
宾
宿
寄
寅
密
富
寒
察
寢
寧
審
寫
寬
寮
寸
对
寺
寻
寽
対
寿
封
尃
射
将
將
專
尉
尊
尋
尌
對
小
少
尒
尓
尔
尖
尗
尚
尞
尢
尣
尤
尧
尨
尭
就
尸
尹
尺
尻
尼
尽
尾
尿
局
居
屈
屋
屎
屏
屑
展
屖
屚
属
屠
屡
屬
屮
屯
屰
山
屵
屾
岁
岂
岑
岡
岩
岳
岸
峯
島
崇
崑
崔
崖
崙
崩
嵬
嶲
巂
巛
川
州
巟
巠
巢
巤
工
左
巧
巨
巩
巫
差
己
已
巳
巴
巷
巸
巽
巾
巿
帀
市
布
希
帚
帛
帝
带
師
席
帶
常
干
平
年
幵
并
幷
幸
幺
幻
幼
幽
幾
广
広
庄
床
库
底
店
庚
府
度
庫
庭
庶
康
庸
廉
廊
廌
廛
廟
廣
廩
廴
延
廷
建
廾
廿
开
弁
弃
弄
弇
弋
式
弓
弔
引
弗
弘
弜
弟
弥
弦
弱
張
強
强
彊
彌
彎
彐
彑
当
彔
录
彖
彗
彡
形
彥
彦
彧
彭
彳
役
彼
往
待
律
後
徒
得
徙
從
復
微
徵
德
心
忄
必
忌
忍
志
忝
忠
忩
快
念
忽
忿
思
怠
急
怱
恆
恒
恩
恭
息
悉
患
悤
悲
悶
情
惠
惡
惢
愁
愈
意
愛
感
慈
慧
慮
憂
憲
應
戀
戈
戉
戊
戋
戌
戍
戎
成
我
戒
戔
或
戚
戠
戢
截
戲
戶
户
戹
戼
戾
房
所
扁
扇
手
扌
才
打
托
执
承
折
护
拉
拜
拿
掌
排
推
提
援
摩
支
攴
攵
收
攸
改
放
政
敄
故
敏
敕
敖
敗
敝
敞
敢
散
敦
敫
敬
数
敷
數
斂
文
斉
斊
斗
斤
斥
斩
斬
斯
新
方
於
施
斿
旁
旅
旋
族
无
旡
既
旣
日
旦
旧
旨
早
旬
旱
旲
时
旾
昆
昇
昌
昍
明
昏
易
昔
昗
昜
星
春
昬
昭
是
昱
昴
昷
時
晃
晋
晏
普
景
晶
智
暑
暴
曇
曩
曰
曲
曳
更
曷
書
曹
曼
曾
替
最
朁
會
月
有
朋
服
朔
朕
朗
望
朝
木
朩
未
末
本
札
朮
术
朱
朵
朶
朿
杀
李
杏
材
村
杜
束
条
来
東
杲
杳
松
析
林
枚
果
枝
枲
枼
某
柔
查
柬
柰
柳
柴
栃
栗
根
桀
案
桑
桥
桼
梁
條
梟
梨
棘
棟
棠
棥
森
検
楚
業
楼
楽
榮
樂
樊
樓
樹
橋
櫓
欠
次
欢
欣
欮
欲
欶
欽
款
歆
歇
歛
止
正
此
步
武
歨
歪
歮
歯
歰
歲
歴
歷
歸
歹
歺
死
殳
段
殷
殸
殹
殺
殻
殿
毋
毌
母
每
毒
比
毕
毚
毛
毳
氏
氐
民
气
気
氣
水
氵
氶
氷
永
氺
氾
求
汝
汞
江
沃
沓
沙
沝
河
泉
法
波
泣
泥
注
泰
洛
洪
洲
活
派
流
浦
浪
浮
海
涉
涵
淡
淮
清
渚
渠
渡
游
湖
湯
滿
漢
漸
瀛
火
灬
灭
灰
灵
灷
炅
炎
炏
炗
炙
炭
為
烈
烏
烝
焉
無
焦
焱
然
煞
熊
熏
燕
營
燮
爆
爪
爫
爭
爯
爰
爱
爲
爵
父
爻
爽
爾
爿
片
牙
牚
牛
牜
牟
牢
牧
物
牪
牽
犀
犬
犭
犮
狂
狄
狊
独
狺
猋
猒
猪
献
獻
玄
率
玉
王
玟
玨
现
珎
班
琉
琴
瑟
瑩
璃
瓜
瓦
甘
甚
生
産
用
甫
甬
田
由
甲
申
电
甶
男
甸
甹
画
甾
畀
界
畏
畐
留
畜
畟
畢
畧
畨
番
畫
異
畱
當
畺
畾
疊
疋
疌
疑
疒
疾
癶
癸
癹
登
發
白
百
皀
皃
的
皆
皇
皋
皐
皕
皮
皷
皿
盃
盆
盇
盈
益
盍
盎
监
盒
盖
盛
盡
監
盤
盧
目
直
相
盾
省
眇
眉
看
県
眔
眞
真
眷
眼
眾
着
睘
睪
睿
瞏
瞢
瞿
矍
矛
矞
矢
矣
知
矦
短
石
破
碎
碑
磊
磨
示
礻
礼
社
祁
神
祟
票
祭
禀
禁
福
禸
禹
禺
离
禽
禾
禿
秀
秃
秉
秋
科
秘
秝
秦
移
稟
穀
穌
穴
究
穹
空
穿
突
窄
窒
立
竒
竜
竝
竟
章
童
端
竹
笑
笠
筆
等
答
箕
算
箴
節
篤
篭
米
粉
粛
粟
粤
粦
粲
糞
糸
糹
系
約
納
素
索
紫
累
細
絜
絫
絲
經
維
綿
総
縣
繇
纍
纟
线
络
维
缶
网
罒
罔
罕
罗
罙
罡
罢
罪
署
罷
羅
羊
羌
羍
美
羔
羕
羗
羞
羡
羣
群
義
羲
羸
羽
翁
翏
習
翕
翟
翠
翼
老
耂
考
者
耆
而
耎
耑
耒
耕
耳
耴
耶
耷
耽
聂
聊
聖
聚
聶
聿
肀
肃
肅
肉
肖
肙
肥
肩
肯
育
肴
胃
背
胡
胥
能
脊
脩
膚
臣
臤
臧
自
臬
臭
臯
臱
至
致
臺
臼
臽
臾
臿
舀
舂
舄
與
興
舉
舌
舍
舛
舜
舞
舟
般
艮
良
色
艸
艹
艾
芒
芔
芬
芮
花
芳
芸
芺
芻
苑
苔
苗
苟
若
苦
英
茶
茸
荅
草
荒
荣
荼
莆
莧
莫
莽
菆
菊
菐
華
菱
萬
落
葉
著
葛
董
葵
蒙
蒦
蒼
蓋
蓬
蓺
蔑
蔡
蕉
蕭
薄
薛
薦
薰
藍
藏
藤
藥
蘭
虍
虎
虐
虒
虔
處
虖
虗
虘
虚
虛
虜
虞
虫
虽
蚤
蚩
蜀
蜜
蟲
蠡
血
行
衍
街
衛
衣
衤
表
衮
衰
袁
袞
褭
褱
襄
襾
西
覀
要
覃
見
規
覓
覧
親
観
覽
见
角
解
言
訁
訇
計
記
話
詹
語
誩
諸
讠
话
语
说
谷
豆
豈
豊
豐
豕
豖
豙
象
豦
豩
豪
豳
豸
貇
貝
貞
貟
負
貢
貧
貪
貫
責
貳
貴
買
費
賁
資
賈
賏
賓
賔
賛
賞
賢
賣
質
賴
贊
贝
贡
责
贯
贲
贵
赖
赞
赤
赦
走
越
趣
足
路
蹇
身
躬
車
軍
軎
軟
輦
车
轴
辛
辜
辞
辟
辥
辰
辱
農
辵
辶
边
达
过
迎
近
连
迷
迹
追
退
送
逆
逐
途
通
速
造
逢
連
逮
進
遀
遂
過
道
達
遗
遣
適
遷
遺
邊
邑
邕
那
邦
邪
郎
部
郭
都
鄉
酉
酋
配
酓
釆
采
里
重
野
量
金
釒
銅
錢
钅
铜
長
镸
长
門
閃
閉
開
閏
閑
閒
間
閔
閣
閵
閻
闌
闕
门
间
闷
阁
阑
阜
阝
阳
阿
附
降
院
陳
陵
隆
隊
隋
隡
隨
隱
隶
隹
隺
隻
隼
隽
难
雀
雁
雄
集
雈
雋
雍
雐
雔
雙
雚
雜
雝
離
難
雨
雩
雪
雲
零
雷
需
霍
霜
霝
霞
霸
靈
靑
青
非
靡
面
靣
革
韋
韦
韭
韯
韱
音
頁
頃
項
須
頗
頡
頤
頭
頻
顛
页
風
风
飛
飞
食
飠
養
館
饣
馆
首
香
馬
馮
駦
马
骨
高
髟
鬥
鬯
鬲
鬼
魚
魯
鮮
鱼
鲁
鳥
鳳
鸟
鹵
鹿
麃
麗
麥
麦
麻
黃
黄
黍
黎
黑
黒
黨
黹
黽
黾
鼎
鼓
鼠
鼻
齊
齋
齐
齒
齿
龍
龙
龜
龟
龠
龰
龱
龴
龵
龶
龷
龸
龹
ꜜ
ꜣ
ꦝ
ꦧ
ꦸ
者
艹
ﬁ
︠
︡
﻿
（
）
，
０
４
：
？
｜
～
𐭓
𐭕
𒊭
🜨
𠀁
𠀃
𠀆
𠀉
𠀎
𠀐
𠁁
𠁣
𠂆
𠂇
𠂈
𠂉
𠂊
𠂋
𠂎
𠂒
𠂔
𠂛
𠂡
𠂢
𠂤
𠂬
𠂭
𠂹
𠃊
𠃋
𠃌
𠃍
𠃎
𠃑
𠃓
𠃔
𠃜
𠄌
𠄎
𠄠
𠄢
𠆢
𠆥
𠇍
𠈌
𠌵
𠓜
𠔉
𠔥
𠔼
𠔽
𠔿
𠕀
𠕁
𠕋
𠘧
𠘨
𠙻
𠙼
𠚏
𠚒
𠚤
𠚪
𠣏
𠤎
𠤕
𠥓
𠦄
𠦑
𠦝
𠧒
𠧗
𠧪
𠩺
𠪚
𠫓
𠫔
𠫤
𠬛
𠬝
𠬞
𠬢
𠬤
𠬶
𠮛
𠮦
𠮷
𠯑
𠱠
𠳮
𠷎
𡈼
𡉀
𡉵
𡌥
𡍮
𡏳
𡕒
𡕩
𡕰
𡖅
𡗗
𡗜
𡘆
𡘤
𡧱
𡨄
𡩧
𡬠
𡭽
𡰣
𡰥
𡰪
𡰯
𡰱
𡷈
𡸁
𡿨
𡿩
𡿪
𡿺
𢀖
𢀛
𢀩
𢁙
𢆉
𢆰
𢆶
𢇁
𢇇
𢉖
𢌬
𢌿
𢏚
𢑑
𢑚
𢖻
𢙣
𢛳
𢦏
𢦒
𢧵
𢼄
𢾕
𣁋
𣄼
𣅀
𣅽
𣍘
𣎳
𣎵
𣏋
𣏼
𣗥
𣥂
𣥖
𣦵
𣦼
𣧄
𣪊
𣪠
𣬉
𣳾
𣶒
𤇾
𤊽
𤐫
𤓰
𤔔
𤕨
𤣩
𤰇
𤰔
𤰞
𤴓
𤴔
𤽄
𥁑
𥁕
𥃦
𥃩
𥃭
𥇡
𥑟
𥘅
𥘈
𥝢
𥫗
𥱡
𦈢
𦉪
𦉬
𦉼
𦍌
𦍒
𦎧
𦐇
𦓔
𦔮
𦘒
𦙃
𦚏
𦣝
𦣞
𦣻
𦥑
𦥔
𦥯
𦨉
𦭝
𦰩
𧆞
𧈧
𧘇
𧰨
𧴪
𧴮
𧵩
𧾷
𨸏
𨾴
𩙿
𩠐
𩫏
𩵋
𪉷
𪜀
𪟽
𪠲
𪩲
𫇦
𫔭
𫜸
𫝀
𫠣
𫠩
𫢉
𫥞
𫩏
𫩠
𫪡
𫲽
𫶧
𬀷
𬐘
𬗌
𬙙
𬛸
𬜯
𬟩
𬯁
𬴘
𬺻
𬼉
𬼖
𭀰
𭁈
𭁨
𭅰
𭑈
𭕄
𭗼
𭤨
𭥫
𭻾
𮅕
𮊿
𮍌
𮍏
𮓗
𮥼
𮧮
廾
𰀁
𰀄
𰀈
𰀉
𰀕
𰀠
𰀡
𰀢
𰀪
𰁜
𰃮
𰆊
𰆘
𰋙
𰕎
𰢴
𰧭
𰯲
00--
01--
02--
03--
04--
05--
06--
07--
08--
09--
50--
55--
56--
57--
70--
71--
72--
74--
76--
77--
78--
80--
81--
82--
84--
85--
86--
87--
88--
89--
90--
92--
93--
978--
99--
a--
aa--
ab--
abbona--
abd--
abi--
abiss--
abitu--
ac--
ach--
acqui--
act--
ad--
add--
ade--
ado--
ae--
aero--
af--
afferm--
afro--
ag--
ago--
agro--
agu--
agħ--
ah--
ai--
air--
ait--
aj--
ak--
aka--
akem--
akklam--
akkompan--
akku--
akkw--
akwe--
al--
ala--
alg--
ali--
all--
alph--
alt--
alte--
am--
ambr--
ambros--
ambu--
ame--
ami--
amm--
an--
ana--
analy--
anc--
and--
ang--
ani--
ankr--
annotazz--
ans--
antag--
anti--
ap--
apa--
api--
apok--
apol--
apos--
app--
appea--
aq--
aqua--
ar--
ara--
arbit--
arc--
arg--
argyro--
ark--
armon--
arn--
arr--
ars--
art--
arte--
arti--
arz--
as--
ash--
asi--
asp--
ass--
assem--
assor--
ast--
at--
athl--
atlan--
atmos--
att--
attribuzz--
au--
aure--
aus--
auto--
av--
ave--
avia--
aw--
awto--
ax--
axx--
axxend--
ay--
az--
azop--
azzi--
aħ--
b--
ba--
bac--
bag--
bahr--
bai--
bal--
ball--
ban--
bank--
bar--
barum--
bas--
bat--
batter--
bay--
bb--
bd--
be--
beau--
bed--
beg--
bek--
bel--
belg--
ben--
ber--
berg--
bert--
bet--
bey--
bi--
bibb--
biblio--
bid--
big--
bij--
bijogra--
bil--
bin--
bio--
bir--
bis--
bit--
biz--
bl--
bla--
bo--
boc--
bod--
bog--
boi--
bol--
bom--
bon--
bona--
bor--
bos--
bot--
bour--
bout--
bow--
br--
bra--
bre--
bri--
brig--
britt--
bro--
bru--
bry--
bu--
buil--
buko--
bul--
bunemm--
bur--
burokra--
bus--
by--
c--
ca--
cal--
cam--
can--
canz--
cap--
car--
carac--
cas--
cast--
cat--
categ--
cauc--
cc--
ce--
cele--
celebra--
cem--
cer--
ces--
ch--
cha--
cham--
char--
charm--
che--
chi--
cho--
chron--
chu--
ci--
cim--
cis--
cit--
citiz--
ck--
cl--
cla--
cle--
cli--
cn--
co--
cocc--
col--
com--
compl--
con--
contr--
coor--
cor--
coro--
cos--
cott--
cou--
cout--
cov--
cow--
cra--
cre--
cri--
crist--
cro--
cru--
crus--
cs--
ct--
cu--
cum--
cunic--
cur--
cy--
cyg--
cz--
d--
da--
dal--
dam--
dan--
dar--
daw--
daħ--
dde--
ddeskr--
ddis--
de--
dec--
deco--
defen--
deg--
dehr--
dei--
del--
deliv--
dem--
demo--
den--
dent--
depen--
der--
des--
desc--
descri--
dev--
dew--
dg--
di--
dia--
dic--
did--
dig--
dija--
dijo--
dijos--
dil--
din--
dio--
dipl--
dis--
diss--
distill--
dj--
dm--
do--
dog--
dol--
doll--
dom--
don--
dor--
dorm--
dow--
dr--
dro--
dry--
dt--
du--
duc--
dun--
dur--
dus--
dw--
dy--
dyna--
dz--
e--
ea--
eb--
ec--
eccle--
eco--
ed--
edi--
edo--
eff--
eg--
egħ--
ei--
ek--
ekgmowechash--
eks--
ekum--
ekwi--
el--
elat--
elec--
elett--
elettro--
elevaz--
eli--
em--
embri--
emi--
emot--
empe--
empi--
en--
enc--
end--
eni--
enig--
enk--
ens--
ent--
enter--
eo--
ep--
epide--
epig--
epil--
er--
era--
erark--
erem--
ero--
es--
esc--
escob--
esebi--
eseg--
esi--
esibizz--
espe--
esper--
espo--
ess--
est--
esti--
et--
ethno--
etno--
ett--
ety--
eu--
eur--
euro--
eus--
eval--
evang--
evg--
evi--
ew--
ewk--
ewro--
ex--
exper--
expl--
ey--
ez--
ezz--
f--
fa--
fabr--
fac--
fair--
fak--
fal--
fals--
fan--
fantas--
fantax--
faqq--
far--
fau--
faw--
fc--
fe--
fede--
fein--
fel--
femm--
fen--
fer--
ff--
ffjo--
ffor--
ffuk--
fi--
fic--
fig--
fil--
filantrop--
filat--
fill--
fin--
fir--
fit--
fja--
fl--
flav--
fle--
flo--
floren--
flu--
fo--
fon--
for--
foto--
fotos--
four--
fqa--
fr--
fra--
frag--
fratt--
fre--
frejg--
front--
ft--
fu--
ful--
fun--
fund--
fur--
furn--
g--
ga--
gabb--
gal--
gam--
gand--
gar--
garz--
gas--
gash--
gau--
gaw--
gay--
gaz--
ge--
gen--
geogra--
ger--
get--
gey--
ghe--
ghi--
gi--
giac--
gian--
giard--
gil--
gjo--
gla--
gladj--
glas--
gli--
glo--
glu--
go--
god--
gold--
gov--
gr--
gra--
grand--
grass--
gre--
grie--
grif--
grin--
groeb--
gu--
gue--
guer--
gui--
gun--
gur--
gwa--
gwer--
gy--
gyeong--
għ--
għa--
għam--
għaw--
għej--
h--
ha--
habb--
haci--
had--
haj--
hal--
ham--
han--
har--
harm--
hart--
harv--
has--
hat--
haw--
haz--
he--
head--
hed--
her--
hey--
hi--
high--
hil--
hilde--
him--
hin--
his--
hl--
ho--
hoch--
hof--
holz--
hom--
hon--
hor--
horiz--
hr--
hu--
hum--
hung--
hur--
hy--
hybr--
hydro--
hyo--
hypothe--
i--
ia--
ib--
ibbeat--
ibbum--
ic--
id--
idde--
iddeskr--
iddis--
idro--
ie--
if--
ig--
ih--
ik--
ikko--
ikkomp--
ikkon--
ikkonk--
ikkr--
ikkump--
ikkup--
ikonogra--
ikonos--
il--
ili--
ill--
illos--
illust--
im--
imag--
imb--
imbut--
imi--
imke--
imne--
impen--
impl--
impo--
imprendit--
imqa--
imse--
imsie--
imta--
imx--
imxer--
imħa--
in--
ina--
inaug--
inc--
incor--
indepen--
indi--
ine--
inemato--
inf--
infer--
influ--
info--
ing--
ini--
initi--
iniz--
injezz--
ink--
inkr--
inkw--
inq--
inse--
insedj--
insu--
int--
inte--
intens--
intenz--
inter--
into--
intratten--
inva--
inve--
inven--
invest--
investig--
inħ--
io--
ip--
iper--
ipot--
ipper--
ippre--
ippres--
ipprok--
ippropo--
iq--
iqa--
ir--
irbat--
ire--
iri--
irku--
irne--
irrakko--
irre--
irri--
is--
isejħ--
isk--
iskojj--
ispan--
isper--
ispett--
iss--
issep--
issos--
ist--
it--
iti--
itt--
ittra--
ittras--
iu--
iv--
ives--
iwi--
ix--
ixx--
iz--
iħa--
j--
ja--
jac--
jaf--
jag--
jahr--
jakku--
jal--
jan--
jar--
jas--
jass--
jat--
jaħ--
jdaw--
je--
jelim--
jen--
jeong--
jer--
jesk--
jesp--
jez--
jeħ--
jfaqq--
jg--
jgħ--
ji--
jid--
jidde--
jiddev--
jiff--
jiffavo--
jiffor--
jift--
jig--
jik--
jikko--
jikkon--
jikkum--
jim--
jin--
jing--
jint--
jipp--
jippres--
jipprev--
jir--
jirra--
jirre--
jirri--
jirrin--
jirring--
jis--
jisp--
jispek--
jiss--
jist--
jit--
jitb--
jitg--
jitm--
jitn--
jitqa--
jitt--
jittras--
jitħ--
jivv--
jivveri--
jix--
jixx--
jiħ--
jke--
jm--
jneħ--
jni--
jo--
jok--
jon--
jopp--
joq--
jos--
joter--
joħ--
jp--
jr--
jse--
ju--
jupi--
jut--
jħa--
k--
ka--
kai--
kak--
kal--
kala--
kalv--
kam--
kan--
kanna--
kap--
kapit--
kar--
kara--
kard--
karika--
kark--
karto--
kas--
kato--
katt--
kaw--
kax--
kaz--
ke--
kej--
ken--
key--
kha--
khu--
ki--
kil--
kim--
kir--
kis--
kit--
kje--
kko--
kkom--
kkombin--
kkommemo--
kkomp--
kkon--
kkump--
kkup--
kla--
klad--
klan--
kle--
klo--
ko--
kodifik--
kol--
kola--
kollok--
kom--
komm--
komp--
kompatri--
komporta--
kon--
kondizz--
kont--
kontro--
konvinz--
koor--
koper--
kor--
kos--
kr--
kreat--
kro--
kru--
ks--
ku--
kul--
kump--
kun--
kunst--
kur--
kurs--
kw--
ky--
l--
la--
lab--
lac--
lam--
lan--
land--
landes--
laq--
laqq--
lar--
lat--
laun--
laur--
lav--
laħ--
le--
lee--
leg--
lem--
leo--
lept--
ler--
les--
let--
leuc--
lev--
lex--
ley--
leħ--
li--
lic--
lie--
life--
lig--
liga--
lil--
lim--
lin--
lis--
lit--
lito--
lk--
ll--
lle--
llib--
lo--
[...]
