!
"
#
##0
##1
##10
##11
##12
##13
##14
##15
##16
##17
##18
##19
##2
##20
##21
##22
##23
##24
##25
##26
##27
##28
##29
##3
##30
##31
##32
##33
##34
##35
##36
##37
##38
##39
##4
##40
##41
##42
##43
##44
##45
##46
##47
##48
##49
##5
##50
##51
##52
##53
##54
##55
##56
##57
##58
##59
##6
##60
##61
##62
##63
##64
##65
##66
##67
##68
##69
##7
##70
##71
##72
##73
##74
##75
##76
##77
##78
##79
##8
##80
##81
##82
##83
##84
##85
##86
##87
##88
##89
##9
##90
##91
##92
##93
##94
##95
##96
##97
##98
##99
$
%
&
'
(
)
*
+
,
-
.
/
0
00
000
001
002
003
004
005
006
007
008
009
01
010
011
012
013
014
015
016
017
018
019
02
020
021
022
023
024
025
026
027
028
029
03
030
031
032
033
034
035
036
037
038
039
04
040
041
042
043
044
045
046
047
048
049
05
050
051
052
053
054
055
056
057
058
059
06
060
061
062
063
064
065
066
067
068
069
07
070
071
072
073
074
075
076
077
078
079
08
080
081
082
083
084
085
086
087
088
089
09
090
091
092
093
094
095
096
097
098
099
1
10
100
1000
1002
101
1016
102
1024
1025
103
104
105
1050
1054
106
1066
107
1070
1077
108
1080
109
1099
11
110
1100
111
1118
112
1125
113
1130
114
1140
1146
1147
115
1150
1154
116
1160
117
1170
1177
118
1180
1185
1187
1189
119
1190
1191
1192
1194
1198
12
120
1200
1202
1204
1205
1208
1209
121
1210
1215
1218
122
1220
1225
1227
1228
1229
123
1230
1235
1237
1238
124
1240
1241
1248
125
1250
1252
1253
1254
1256
1258
1259
126
1260
1261
1265
1266
127
1270
1271
1274
1277
1278
1279
128
1280
1282
1285
129
1290
1291
1292
1294
1295
1296
13
130
1300
1301
1304
1305
1308
131
1310
1312
1314
1318
132
1320
1322
1323
1325
1326
1328
1329
133
1330
1331
1333
1335
1336
134
1340
1341
1342
1345
1346
1347
1348
1349
135
1350
1355
1356
136
1360
1365
1368
137
1370
1371
1377
1378
138
1380
1385
1386
1389
139
1390
1395
14
140
1400
1402
1405
141
1410
1415
1418
142
1420
1423
1425
143
1430
1431
1435
1436
1437
1438
1439
144
1440
1441
1443
1444
1445
1446
1447
145
1450
1451
1452
1453
1454
1455
1456
1457
1458
1459
146
1460
1461
1462
1463
1464
1465
1466
1467
1468
1469
147
1470
1471
1472
1473
1475
1476
1477
1478
1479
148
1480
1481
1482
1483
1484
1485
1486
1487
1489
149
1490
1492
1493
1494
1495
1496
1497
1498
1499
15
150
1500
1501
1502
1503
1504
1505
1506
1507
1508
1509
151
1510
1511
1512
1513
1514
1515
1516
1517
1518
1519
152
1520
1521
1522
1523
1524
1525
1526
1527
1528
1529
153
1530
1531
1532
1533
1534
1535
1536
1537
1538
1539
154
1540
1541
1542
1543
1544
1545
1546
1547
1548
1549
155
1550
1551
1552
1553
1554
1555
1556
1557
1558
1559
156
1560
1561
1562
1563
1564
1565
1566
1567
1568
1569
157
1570
1571
1572
1573
1574
1575
1576
1577
1578
1579
158
1580
1581
1582
1583
1584
1585
1586
1587
1588
1589
159
1590
1591
1592
1593
1594
1595
1596
1597
1598
1599
16
160
1600
1601
1602
1603
1604
1605
1606
1607
1608
1609
161
1610
1611
1612
1613
1614
1615
1616
1617
1618
1619
162
1620
1621
1622
1623
1624
1625
1626
1627
1628
1629
163
1630
1631
1632
1633
1634
1635
1636
1637
1638
1639
164
1640
1641
1642
1643
1644
1645
1646
1647
1648
1649
165
1650
1651
1652
1653
1654
1655
1656
1657
1658
1659
166
1660
1661
1662
1663
1664
1665
1666
1667
1668
1669
167
1670
1671
1672
1673
1674
1675
1676
1678
1679
168
1680
1681
1682
1683
1684
1685
1686
1687
1688
1689
169
1690
1691
1692
1693
1694
1695
1696
1697
1698
1699
17
170
1700
1701
1702
1703
1704
1705
1706
1707
1708
1709
171
1710
1711
1712
1713
1714
1715
1716
1717
1718
1719
172
1720
1721
1722
1723
1724
1725
1726
1727
1728
1729
173
1730
1731
1732
1733
1734
1735
1736
1737
1738
1739
174
1740
1741
1742
1743
1744
1745
1746
1747
1748
1749
175
1750
1751
1752
1753
1754
1755
1756
1757
1758
1759
176
1760
1761
1762
1763
1764
1765
1766
1767
1768
1769
177
1770
1771
1772
1773
1774
1775
1776
1777
1778
1779
178
1780
1781
1782
1783
1784
1785
1786
1787
1788
1789
179
1790
1791
1792
1793
1794
1795
1796
1797
1798
1799
18
180
1800
1801
1802
1803
1804
1805
1806
1807
1808
1809
181
1810
1811
1812
1813
1814
1815
1816
1817
1818
1819
182
1820
1821
1822
1823
1824
1825
1826
1827
1828
1829
183
1830
1831
1832
1833
1834
1835
1836
1837
1838
1839
184
1840
1841
1842
1843
1844
1845
1846
1847
1848
1849
185
1850
1851
1852
1853
1854
1855
1856
1857
1858
1859
186
1860
1861
1862
1863
1864
1865
1866
1867
1868
1869
187
1870
1871
1872
1873
1874
1875
1876
1877
1878
1879
188
1880
1881
1882
1883
1884
1885
1886
1887
1888
1889
189
1890
1891
1892
1893
1894
1895
1896
1897
1898
1899
19
190
1900
1901
1902
1903
1904
1905
1906
1907
1908
1909
191
1910
1911
1912
1913
1914
1915
1916
1917
1918
1919
192
1920
1921
1922
1923
1924
1925
1926
1927
1928
1929
193
1930
1931
1932
1933
1934
1935
1936
1937
1938
1939
194
1940
1941
1942
1943
1944
1945
1946
1947
1948
1949
195
1950
1951
1952
1953
1954
1955
1956
1957
1958
1959
196
1960
1961
1962
1963
1964
1965
1966
1967
1968
1969
197
1970
1971
1972
1973
1974
1975
1976
1977
1978
1979
198
1980
1981
1982
1983
1984
1985
1986
1987
1988
1989
199
1990
1991
1992
1993
1994
1995
1996
1997
1998
1999
2
20
200
2000
2001
2002
2003
2004
2005
2006
2007
2008
2009
201
2010
2011
2012
2013
2014
2015
2016
2017
2018
2019
202
2020
2021
2022
203
204
205
206
207
208
209
21
210
2100
211
212
213
214
215
216
217
218
219
22
220
2200
221
222
223
224
225
226
227
228
229
23
230
2300
231
232
233
234
235
236
237
238
239
24
240
2400
241
242
243
244
245
246
247
248
249
25
250
2500
251
252
253
254
255
256
257
258
259
26
260
2600
261
262
263
264
265
266
267
268
269
27
270
271
272
273
274
275
276
277
278
279
28
280
2800
281
282
283
284
285
286
287
288
289
29
290
291
292
293
294
295
296
297
298
299
3
30
300
3000
301
302
303
304
305
306
307
308
309
31
310
311
312
313
314
315
316
317
318
319
32
320
3200
321
322
323
324
325
326
327
328
329
33
330
331
332
333
334
335
336
337
338
339
34
340
341
342
343
344
345
346
347
348
349
35
350
3500
351
352
353
354
355
356
357
358
359
36
360
361
362
363
364
365
366
367
368
369
37
370
371
372
373
374
375
376
377
378
379
38
380
381
382
383
384
385
386
387
388
389
39
390
391
392
393
394
395
396
397
398
399
4
40
400
4000
401
402
403
404
405
406
407
408
409
41
410
411
412
413
414
415
416
417
418
419
42
420
421
422
423
424
425
426
427
428
429
43
430
431
432
433
434
435
436
437
438
439
44
440
441
442
443
444
445
446
447
448
449
45
450
4500
451
452
453
454
455
456
457
458
459
46
460
461
462
463
464
465
466
467
468
469
47
470
471
472
473
474
475
476
477
478
479
48
480
481
482
483
484
485
486
487
488
489
49
490
491
492
493
494
495
496
497
498
499
5
50
500
5000
501
502
503
504
505
506
507
508
509
51
510
511
512
513
514
515
516
517
518
519
52
520
521
522
523
524
525
526
527
528
529
53
530
531
532
533
534
535
536
537
538
539
54
540
541
542
543
544
545
546
547
548
549
55
550
551
552
553
554
555
556
557
558
559
56
560
561
562
563
564
565
566
567
568
569
57
570
571
572
573
574
575
576
577
578
579
58
580
581
582
583
584
585
586
587
588
589
59
590
591
592
593
594
595
596
597
598
599
6
60
600
6000
601
602
603
604
605
606
607
608
609
61
610
611
612
613
614
615
616
617
618
619
62
620
621
622
623
624
625
626
627
628
629
63
630
631
632
633
634
635
636
637
638
639
64
640
641
642
643
644
645
646
647
648
649
65
650
651
652
653
654
655
656
657
658
659
66
660
661
662
663
664
665
666
667
668
669
67
670
671
672
673
674
675
676
677
678
679
68
680
681
682
683
684
685
686
687
688
689
69
690
691
692
693
694
695
696
697
698
699
7
70
700
7000
701
702
703
704
705
706
707
708
709
71
710
711
712
713
714
715
716
717
718
719
72
720
721
722
723
724
725
726
727
728
729
73
730
731
732
733
734
735
736
737
738
739
74
740
741
742
743
744
745
746
747
748
749
75
750
751
752
753
754
755
756
757
758
759
76
760
761
762
763
764
765
766
767
768
769
77
770
771
772
773
774
775
776
777
778
779
78
780
781
782
783
784
785
786
787
788
789
79
790
791
792
793
794
795
796
797
798
799
8
80
800
8000
801
802
803
804
805
806
807
808
809
81
810
811
812
813
814
815
817
818
82
820
822
824
827
828
829
83
830
833
836
838
839
84
840
842
843
844
845
846
847
848
85
850
851
852
853
854
855
856
857
858
86
860
862
863
864
865
866
867
869
87
870
871
874
875
876
877
879
88
880
882
884
885
886
887
888
89
890
891
893
894
895
896
897
898
899
9
90
900
901
904
907
909
91
910
911
912
914
915
919
92
920
924
925
927
929
93
930
931
936
94
95
950
953
954
955
96
960
961
962
963
964
965
966
967
968
969
97
970
971
972
973
974
975
976
977
978
979
98
980
981
982
983
984
985
986
987
988
989
99
990
991
992
993
994
995
996
997
998
999
:
;
<
=
>
?
@
\
^
_
`
a
aa
aachen
aaron
ab
aba
abau
abbey
abc
abd
abdul
abe
abeceda
abecede
abecedo
abel
aben
aber
abgerufen
abi
abigaila
abna
abni
abnica
abnice
abnik
abnika
abnike
abniki
abnikov
abno
abo
about
abraham
absolutna
absolutni
absolutno
absorbira
absorpcijo
abu
abuna
ac
acade
academia
academic
academy
accessed
achille
acid
acroni
act
acta
action
ad
ada
adalbert
adam
adama
adamic
adams
ade
adez
adi
adijo
adjunkt
adler
administracija
administration
administrativne
administrativni
administrativno
admiral
admirala
admirali
admiralov
ado
adolf
adolfa
adria
adrian
advanced
advent
advokat
adz
ae
aero
aerodinamic
aerospace
af
afera
afero
afganistan
afganistanu
afric
africa
african
afrika
afrike
afriki
afriko
afris
after
ag
aga
again
against
agar
agata
agato
age
agencija
agencije
agencijo
agency
agent
agenti
ages
agi
agnes
ago
agostino
agrft
agronom
aguilera
aguri
ah
aha
ahac
ahist
ahl
ahmad
ahmed
ahovska
ahovske
ahovski
ahu
ai
aids
aik
ain
air
airbus
aircraft
aires
airesu
airlines
ais
aise
aiti
aj
aja
ajda
ajdovs
aje
ajem
ajen
ajev
aji
ajih
ajmo
ajna
ajne
ajnega
ajnem
ajni
ajnih
ajno
ajo
ajoc
ajte
aju
ak
aka
akademie
akademija
akademije
akademiji
akademijo
akademik
akademiki
akademikov
akademska
akademske
akademskega
akademski
akademskih
akademsko
akaj
akajo
akajoc
akajte
akal
akala
akale
akali
akalo
akam
akamo
akanja
akanje
akar
akas
akata
akati
akcij
akcija
akcije
akciji
akcijo
akcijski
ake
akelj
akh
aki
akinja
akinjo
ako
akom
akoravno
akov
akova
akoval
akovala
akovali
akovana
akovane
akovanega
akovani
akovanja
akovanje
akovanju
akovano
akovati
akt
akta
akte
akti
aktiven
aktivira
aktivist
aktivisti
aktivistka
aktivna
aktivne
aktivnega
aktivni
aktivnih
aktivno
aktivnost
aktivnosti
aktov
aktualni
aktualno
aku
akuje
akujejo
akujem
akujemo
akujoc
akustic
akutna
akutne
akutni
akvadukt
akvitanije
al
ala
alabama
alah
alain
alamun
alan
alarm
alba
albanci
albanija
albanije
albaniji
albanijo
albanske
albanski
albanskih
albansko
albert
alberta
alberti
alberto
albin
albina
alboreto
albrecht
albreht
album
albuma
albume
albumi
albumih
albumom
albumov
albumu
alca
alce
alcev
alci
alcu
aldo
ale
alec
alega
alegoric
alegorija
aleksandar
aleksander
aleksandr
aleksandra
aleksandrije
aleksandriji
aleksandrijski
aleksandrom
aleksandrov
aleksandrovic
aleksandru
aleksej
alekseja
aleksejevic
aleksij
alena
alenc
alenka
ales
alesi
alessandra
alessandro
alex
alexander
alexandra
alexandre
alfa
alfonso
alfonz
alfonza
alfonzo
alfred
alfreda
alfredo
alg
alge
algebra
algoritem
ali
alibog
alice
align
alija
alil
alila
alili
alilo
alis
alitev
aliti
alj
aljaz
aljen
aljena
aljeni
aljeno
aljive
aljivo
aljos
alk
alka
alke
alko
alkohol
alkohola
all
alla
allah
allan
alle
allen
allga
alma
alni
alnik
alo
aloigra
alois
alojz
alojzij
alojzija
alonso
alost
alosten
alosti
alostjo
alostna
alostne
alostnega
alostni
alostnih
alostnim
alostno
alov
aloval
alovala
alovanja
alovanje
alp
alpah
alpe
alpes
alpha
alphonse
alpinist
alpinistic
alpska
alpske
alpskega
alpskem
alpski
alpskih
alpsko
als
also
alt
alta
altar
alte
alternativa
alternativne
alternativni
alternativno
alto
alu
aluje
alujem
alujoc
aluminij
aluminija
aluminijev
alz
alzacija
am
ama
amalija
aman
amanda
amaterski
amatersko
amazon
ambicije
ambrosio
ambroz
ame
amebis
amen
americ
america
american
amerika
amerikanec
amerikanski
amerike
ameriki
ameriko
ameris
amfiteater
ami
aminokislin
aminokisline
amo
amon
among
amor
amos
ampak
ampanjca
amr
ams
amsterdam
amsterdamu
amy
an
ana
analitic
analiza
analize
analizi
analizo
analysis
anastazija
anatolij
anatolije
anatoliji
anatomija
anc
anca
ancenis
ancev
anci
ancient
and
andar
andarji
anders
andersen
anderson
andersson
andes
andor
andov
andra
andraz
andre
andrea
andreas
andrej
andreja
andrejc
andrejec
andrejem
andrejko
andreju
andrew
andrews
andrija
andronik
andy
ane
anec
anega
anem
anfa
ang
angaz
angel
angela
angelc
angele
angeles
angelesu
angeli
angelica
angelik
angelika
angelin
angelina
angelj
angelo
angelov
angkor
angl
angles
anglez
anglija
anglije
angliji
anglijo
anglo
anglosas
ani
anic
anica
anice
anici
anico
anih
anim
animal
animi
animirani
anin
anita
anj
anja
anje
anjem
anji
anjih
anju
ank
anka
anke
anki
anko
ann
anna
annales
anne
annie
anno
annual
ano
anom
anonimno
anost
anosti
another
anov
anova
anr
anra
ans
ansambel
ansambla
anska
anske
anskega
anskem
anskemu
anski
anskih
anskim
anskimi
ansko
anstev
anstva
anstvo
anstvom
anstvu
ant
antarktic
antarktike
antarktiki
ante
anthony
anti
antibiotiki
antibiotikov
antic
antika
antike
antiki
antioh
antiohije
antiohijo
antiquity
anto
antoine
antologija
anton
antona
antoni
antonia
antonij
antonija
antonino
antonio
antonov
antonu
antwerpen
antwerpnu
anu
anz
anza
ao
ap
apac
aparat
aparata
aplikacij
aplikacija
aplikacije
apnenc
apnenca
apnenec
apno
apokalipsa
apollo
apolon
apolona
apostol
apostola
apostoli
apostolov
apostolska
apostolskega
apostolski
apostolskih
apostolsko
apple
applied
approx
apr
april
aprila
aprilom
aprilu
apsida
apside
apsidi
apsido
apur
aq
ar
ara
arabcev
arabci
arabela
arabije
arabiji
arabs
arabska
arabske
arabskega
arabskem
arabski
arabskih
arabsko
aragonski
aral
arala
aran
arana
arani
aranja
aranje
aranz
arati
arbitraz
arc
arca
arch
archa
archaeological
archaeology
architectural
architecture
archive
archived
archives
ardas
are
area
arec
arek
arel
arela
arele
arelo
arena
areni
aretacije
aretacijo
aretiral
aretirali
aretiran
arg
argentina
argentine
argentini
argentino
argentinski
argument
arh
arhaic
arheolog
arheologi
arheologija
arheologije
arheologijo
arheolos
arhitekt
arhitekta
arhitekti
arhitektov
arhitektura
arhitekture
arhitekturi
arhitekturna
arhitekturne
arhitekturnega
arhitekturni
arhitekturnih
arhitekturno
arhitekturo
arhiv
arhiva
arhivirano
arhivov
arhivu
ari
arica
arice
arico
arih
arija
arije
arijo
aris
aristokracija
aristotel
aritmetic
arizona
arja
arje
arjem
arjev
arjeva
arjevo
arji
arjih
arju
ark
arka
arkadami
arkade
arkadij
arkar
arkarji
arkarski
arke
arki
arkih
arko
arkov
arktic
armad
armada
armade
armadi
armadni
armado
armando
armee
armeekorps
armenci
armenia
armenian
armenija
armenije
armeniji
armenijo
armenska
armenske
armenskega
armenski
armensko
arms
armstrong
army
arna
arne
arni
arno
arnold
arnulf
aro
arobna
arobne
arobni
arobno
arom
aromatic
aron
around
arov
arovnic
arovnica
arovnice
arovnik
arovnis
arrows
ars
arska
arske
arskega
arskem
arski
arskih
arskim
arsko
arstva
arstvo
art
arte
artefakti
artefaktov
artemizija
arterije
arthur
article
articles
artilerije
artilerijska
artilerijske
artilerijski
artist
artists
artritis
arts
artur
arturo
aru
as
asa
ase
asen
ashley
asi
asia
asian
asih
asil
asimetric
asirski
asis
asistent
asna
asne
asnega
asneje
asnejs
asnem
asni
asnih
asnik
asnika
asnikar
asnike
asniki
asniku
asnim
asnimi
asno
asom
asoma
asopis
asopisa
asopise
asopisi
asopisih
asopisov
asopisu
asov
asovna
asovne
asovnem
asovni
asovnih
asovno
asp
aspx
assessment
associated
association
ast
asta
aste
astega
asten
asteroid
asteroida
asteroidi
asteroidnem
asteroidov
asti
astih
astijo
astil
astili
astim
astimi
astitev
astiti
astitljivi
astjo
astmi
astna
astne
astnega
astni
astnih
astnik
astnika
astnike
astniki
astnikom
astnikov
astniku
astnis
astno
asto
aston
astronom
astronomi
astronomija
astronomije
astronomiji
astronomijo
astronomov
astronomska
astronomske
astronomski
astronomskih
astronomsko
asu
asunta
at
ata
atas
ate
atek
atelje
aten
atena
atenah
atene
atenski
atentat
atentata
atentatu
atez
athens
ati
atih
atila
atim
atis
atlanta
atlanti
atlantic
atlantik
atlantika
atlantiku
atlantskega
atlantskem
atlantski
atlas
atlet
atleti
atletiki
atletinja
atmosfere
atmosferi
atmosfero
ato
atom
atoma
atomi
atomov
atomske
atomsko
atos
atp
atrakcija
attenborough
au
auch
aude
audio
auersperg
auf
auflage
august
augusta
auguste
augustin
augusto
augustus
aurora
aus
austin
australia
australian
austria
austro
auto
automobiles
auvergne
aux
av
ava
avah
available
aval
avala
avali
avam
avama
avami
avanje
avati
avdicijo
avdio
ave
aven
avgus
avgust
avgusta
avgustom
avgustu
avi
aviation
avja
avje
avljan
avljane
avljani
avljanom
avljanov
avljanska
avljanske
avljanski
avljanskih
avljansko
avljanstva
avljanstvo
avna
avne
avnega
avnem
avnemu
avni
avnic
avnice
avnici
avnico
avnih
avnik
avnika
avnim
avnimi
avnis
avno
avnosti
avnozborskih
avo
avrelij
avrelija
avril
avro
avs
avsenik
avska
avskega
avski
avstralija
avstralije
avstraliji
avstralijo
avstralska
avstralske
avstralski
avstralskih
avstrija
avstrijci
avstrije
avstriji
avstrijo
avstrijska
avstrijske
avstrijskega
avstrijskem
avstrijski
avstrijskih
avstrijskim
avstrijsko
avstro
avt
avtentic
avto
avtobus
avtobusi
avtocesta
avtoceste
avtohtone
avtohtonih
avtom
avtomatic
avtomatsko
avtomobil
avtomobila
avtomobile
avtomobili
avtomobilistic
avtomobilom
avtomobilov
avtomobilska
avtomobilski
avtomobilu
avtonomije
avtonomijo
avtonomna
avtonomne
avtonomni
avtonomnih
avtonomno
avtoportret
avtor
avtorica
avtorice
avtoriteta
avtoritete
avtoriteto
avtorja
avtorjev
avtorji
avtorske
avtorskih
avtorstvo
avtu
aw
award
awards
away
ax
axis
ay
ayrton
az
azbad
azerbajdz
azija
azije
aziji
azijo
azijske
azijski
azijskih
b
ba
bab
baba
babe
babic
babica
babice
babici
babico
babilon
babilonski
babo
baby
bac
bach
back
bad
baden
bagdad
bah
baha
baje
bajka
bajke
bajt
bajta
bajte
bajti
bajto
baker
bakra
bakrene
bakterij
bakterije
bakterijske
bal
bala
balada
balade
balant
balduin
bale
balet
bali
balistic
balkan
balkana
balkans
balkanski
balkanskih
balkanu
balkon
balkonu
ball
balo
balon
baltimore
baltsko
bam
bamberg
bambers
bami
ban
bana
banatskega
banc
band
banda
banglades
banic
banja
bank
banka
banke
banki
bankir
banko
bankovce
bankovcev
bankovci
bankovec
banovine
banu
bao
baptiste
bar
bara
baraga
baranja
barba
barbara
barbare
barbari
barbaro
barbarossa
barberini
barbic
barbka
barbo
barcelona
barcelone
barceloni
bari
barica
bariton
barja
barje
barju
barka
barke
barki
barko
barnes
baroc
barok
baroka
baron
barona
baroni
baronica
baronom
baronov
baronu
barrichello
barry
bartol
bartolomeo
barv
barva
barvah
barvami
barvanje
barve
barvi
barvna
barvne
barvni
barvnih
barvno
barvo
barz
bas
base
based
basel
basic
basilica
basist
baslu
basni
bass
bastien
bat
bataljon
bataljona
bataljoni
bataljonov
bataljonu
baterija
baterije
bati
batthya
battista
battle
batu
bauer
bavarci
bavarska
bavarske
bavarskega
bavarskem
bavarski
bavarsko
bavil
bay
bayer
bayern
baz
baza
bazar
baze
bazen
bazena
bazenu
bazi
bazic
bazilij
bazilika
bazilike
baziliki
baziliko
bazo
bb
bbc
bc
bd
bdo
bdp
be
beach
beatles
beatrice
beatrika
beaux
bec
beck
becker
beda
bedak
bedanec
bede
bedi
bedo
beechcraft
been
before
beg
bega
begal
begin
begom
begu
begunce
beguncev
begunci
behavior
bei
beijing
being
bej
bel
bela
bele
belec
belega
belem
beletrina
belez
belgija
belgije
belgiji
belgijo
belgijska
belgijski
belgijskih
beli
belic
belih
belim
belimi
beljak
beljakovin
beljakovine
beljaku
bell
bella
belle
bello
belo
belorusija
beltinci
ben
bena
benc
bencev
benci
bend
bene
benec
benedetto
benedik
benedikt
benedikta
benediktinski
benega
benem
benes
benetk
benetkah
benetke
benetton
beni
benih
benik
benikov
benim
benimi
benito
benjamin
benko
bennett
beno
benopolitic
benson
benz
beograd
beograda
beogradu
ber
berac
beras
bere
bereg
berem
beremo
berg
bergant
bergen
berger
beri
beric
berila
berilo
berke
berkeley
berlin
berlina
berlinski
berlinu
bern
bernard
bernarda
bernardo
bernd
bernhard
bernik
bernini
bernu
bero
berry
bert
berta
berti
bertold
bertrand
berz
bes
bese
besed
beseda
besedah
besedam
besedami
besede
besedi
besedic
besedice
besedico
besedij
besedil
besedila
besedili
besedilih
besedilo
besedilom
besedilu
besedis
besedna
besedne
besedni
besedno
besedo
besen
besni
besno
best
bet
beta
betez
beton
betona
better
betty
between
bevk
beyond
bez
bf
bg
bi
bianchi
bible
biblic
biblija
biblije
bibliji
bibliografija
bic
bidaut
bie
big
bih
bihac
bije
bijejo
bijelo
bik
bika
bil
bila
bilbao
bile
bili
bilje
bilka
bilke
bill
billboard
billie
billy
bilo
bilogorske
bim
bin
binc
bine
bingen
binkos
bio
biografija
biografije
biografski
biographical
biography
biolog
biologi
biologija
biologije
biologijo
biology
biolos
biotehnis
biotske
bird
biric
birmingham
biro
bis
biser
bisere
biseri
biserov
bismarck
bister
bistra
bistre
bistri
bistrica
bistrice
bistrici
bistrico
bistris
bistro
bistva
bistvena
bistvene
bistvenega
bistveni
bistveno
bistvo
bistvu
bit
bitenc
biti
bitij
bitja
bitje
bitji
bitju
bitk
bitka
bitkah
bitke
bitki
bitko
biva
bivajo
bivajoc
bival
bivala
bivali
bivalis
bivanja
bivanje
bivanjem
bivanju
bivs
bizanc
bizanca
bizancu
bizantinci
bizantinska
bizantinske
bizantinskega
bizantinskem
bizantinskemu
bizantinski
bizantinskih
bizantinskim
bizantinsko
bizjak
bjelovarsko
bjo
bk
bl
bla
black
blackwell
blag
blaga
blagajne
blagajnik
blagajno
blage
blagega
blagi
blaginje
blaginjo
blago
blagodejno
blagom
blagor
blagoslov
blagoslova
blagoslovi
blagoslovil
blagoslovljena
blagoslovljeno
blagostanja
blagostanje
blagovne
blagovno
blagu
blake
blanc
blanka
blata
blatna
blatni
blatnih
blato
blatom
blatu
blaz
blazen
blazine
blazino
blazna
blazni
blaznik
blazno
blaznost
blaznosti
ble
bled
bleda
blede
bledega
bledi
bledih
bledo
bledu
bleiweis
bles
blesk
blestec
blesti
bli
blis
blisk
bliska
bliski
bliskoma
bliskovito
bliz
blizo
blizu
blo
blodil
blog
blois
blok
bloka
bloke
bloki
blokov
bloku
blood
blu
blue
blues
bm
bmatrix
bmw
bo
board
bob
boba
bobby
boben
bobnar
bobni
boc
bodalo
bode
bodec
bodem
bodemo
bodes
bodeta
bodete
bodeva
bodi
bodic
bodimo
bodisi
bodite
bodo
bodoc
body
boeing
bog
boga
bogabojec
bogastva
bogastvo
bogastvom
bogastvu
bogat
bogata
bogataj
bogatas
bogate
bogatega
bogatejs
bogatem
bogati
bogatih
bogatim
bogatimi
bogatin
bogato
bogdan
bogdana
boginja
boginje
boginji
boginjo
bogme
bogo
bogom
bogomila
bogomir
bogoslovje
bogosluz
bogota
bogov
bogove
bogovec
bogovi
bogovom
bogu
bogve
bohinj
bohinju
bohoric
bois
boj
boja
bojan
bojana
bojazen
bojazljivo
bojazni
boje
bojec
bojem
bojev
bojeval
bojevala
bojevali
bojevanja
bojevanje
bojevati
bojevnik
bojevniki
bojevnikov
boji
bojih
bojijo
bojim
bojis
bojite
bojna
bojne
bojnega
bojnem
bojni
bojnih
bojno
bojo
bojte
boju
bojuje
bok
bokal
boke
boki
bokih
bokse
boksih
boku
bol
bolan
bole
bolec
bolela
bolelo
boleslav
boleslava
bolest
bolesti
bolestno
bolezen
bolezni
boleznih
boleznijo
boleznimi
bolgari
bolgarija
bolgarije
bolgariji
bolgarijo
bolgarov
bolgarska
bolgarske
bolgarskega
bolgarski
bolgarskih
bolgarsko
boli
bolingbroke
bolj
bolje
boljs
bolna
bolne
bolnega
bolni
bolnic
bolnica
bolnice
bolnici
bolnico
bolnih
bolnik
bolnika
bolnike
bolniki
bolnikih
bolnikom
bolnikov
bolniku
bolnis
bolno
bologna
bologni
bols
bolt
bom
bomb
bomba
bombardiranja
bombardiranje
bombardiranju
bombaz
bombe
bombnik
bombniki
bombnikov
bombnis
bombo
bomo
bon
bonaparte
bonc
bond
bonifacij
bonifacija
bonn
book
books
bor
bora
borba
borbe
borbi
borbo
borboletta
borcev
borci
bordeaux
border
bore
borec
borghese
bori
borijo
boril
borila
borili
borilne
borilnih
boris
borisa
boriti
borko
born
borngen
borno
boro
borovlje
borovnica
bors
borsod
borut
bos
bosa
bosanskega
bosanski
bosansko
bosch
bosco
bose
bosna
bosne
bosni
bosno
bosta
boste
boston
botanic
botanik
bote
boter
botra
bottas
bova
boval
bovec
bowell
box
boy
boys
boz
boſh
br
bra
brabham
brac
brad
brada
bradac
bradavic
brade
bradi
bradley
brado
bral
brala
bralca
bralce
bralcem
bralcev
bralci
bralcu
bralec
brali
bralo
brambovci
bran
brandenburg
brandenburs
brane
brani
branic
branijo
branik
branil
branila
branilci
branilec
branili
branilo
branim
braniti
branja
branje
branjem
branju
branka
branko
brankovic
bras
braslovc
brat
brata
bratca
bratci
brate
bratec
brati
bratih
bratislava
bratje
bratom
bratoma
bratov
bratovs
bratranca
bratranec
bratstva
bratstvo
bratu
bratus
brauchitsch
braun
braunschweig
bravo
brazde
brazilija
brazilije
braziliji
brazilijo
brazilski
brc
brda
brdih
brdo
brdu
bre
brecelj
breda
breg
brega
bregar
bregom
bregov
bregove
bregovi
bregovih
bregu
breme
bremen
bremena
brenc
brenner
bres
brest
brez
breza
brezboz
brezbriz
brezc
breze
brezje
brezkonc
brezmadez
brezmejno
brezna
breznik
brezno
brezobzirno
brezovica
brezplac
brezpogojno
brezposelnost
brezposelnosti
brezs
brezskrbno
brezsrc
brezupno
brezuspes
brezz
brian
bric
bridge
bridka
bridke
bridko
bridkost
bridkosti
brief
brien
briga
brigad
brigada
brigade
brigadi
brigadir
brigadni
brigado
brigajo
brigal
brigala
brigita
brill
brincelj
bris
brisac
brisal
brisala
bristol
britain
britanci
britanija
britanije
britaniji
britanijo
britannica
britanska
britanske
britanskega
britanskem
britanski
britanskih
britanskim
britansko
british
britko
britney
brivec
briz
brk
brke
brki
brlog
brlogu
brm
brno
brnot
bro
brod
brodnik
brodsko
brodu
bron
brona
bronast
bronasta
bronaste
bronasti
bronastih
bronasto
bronze
brooke
brooklyn
brooks
bros
brothers
broughton
brown
broz
brs
bru
bruce
bruegel
bruhanje
bruins
brun
bruna
brundle
bruno
brus
bruselj
bruslju
bruto
brv
brvi
bryan
bryce
bryna
brz
brzo
bs
bt
bu
buc
buda
budalo
budapest
bude
budi
budimpes
budistic
buditelj
budizem
budizma
budizmu
buenos
buffalo
bug
bugatti
building
bujno
bukares
bukev
bukovec
bukvah
bukve
bukvice
bula
bule
bull
bulletin
bulo
bum
bunker
burg
burger
burgundije
burgundski
burja
burje
burji
burke
burne
burno
burton
bury
burz
bus
bush
business
but
butana
butler
button
bv
bwv
bx
by
byron
byzantine
byzantium
c
ca
caesar
caf
calgary
california
call
cam
cambridge
cambridgeu
cameron
camille
camillo
camp
campbell
campo
can
canada
canadian
canadiens
canal
cancer
cankar
cankarja
cankarjev
cankarjeva
canon
canto
canucks
cap
cape
capital
capitals
cappella
car
cara
caracciola
caravaggio
carevna
carica
carigrad
carigrada
carigradu
carigrajski
carinske
carinski
carja
carju
carl
carla
carlo
carlos
carmen
carol
carolina
caroline
carski
carter
casa
case
castel
castello
castle
castro
castrum
cat
catalina
catalogue
catania
catedral
category
caterham
cathedral
catherine
catholic
caussols
cave
cb
cbs
cc
cca
ccd
cd
cdot
cdots
ce
ceaus
ceca
cecilija
cedilu
cej
cekin
cekine
cekini
cekinov
cel
cela
cele
celega
celem
celestin
celi
celic
celica
celicah
celicami
celice
celici
celico
celih
celim
celine
celini
celino
celinske
celinski
celinsko
celja
celje
celjska
celjske
celjskega
celjski
celjskih
celju
cell
celo
celos
celota
celote
celoten
celoti
celotna
celotne
celotnega
celotnem
celotni
celotno
celoto
celovca
celovcu
celovec
celovito
celovs
celtic
cem
cen
cena
cene
cenejs
ceni
cenijo
cenil
cenili
ceniti
cenjen
cenjena
cenjeni
ceno
center
centimetrov
centov
centra
central
centralna
centralne
centralnega
centralni
centralno
centre
centri
centro
centrom
centrov
centru
centuries
century
cepiva
cepivo
cepljenja
cepljenje
cerar
cerkev
cerklje
cerknica
cerknis
cerkno
cerkovnik
cerkva
cerkvah
cerkvami
cerkve
cerkvena
cerkvene
cerkvenega
cerkvenem
cerkveni
cerkvenih
cerkvenim
cerkvenimi
cerkveno
cerkvi
cerkvica
cerkvice
cerkvici
cerkvico
cerkvijo
cerro
certifikacijo
certifikat
cesa
cesar
cesare
cesarica
cesarice
cesarico
cesaris
cesarja
cesarjem
cesarjev
cesarjeva
cesarjeve
cesarjevega
cesarjevi
cesarjevo
cesarji
cesarju
cesarska
cesarske
cesarskega
cesarskem
cesarski
cesarskih
cesarskim
cesarsko
cesarstva
cesarstvo
cesarstvom
cesarstvu
cessna
cest
cesta
cestah
ceste
cesti
cestna
cestne
cestnega
cestnem
cestni
cestno
cesto
cetinje
cev
cevi
cezar
cezarja
cf
cg
ch
cha
challenge
chamberlain
change
channel
chapel
chapelle
chaplin
chapman
chapter
charles
charlesa
charlie
charlotte
chart
che
chelsea
chemical
chemistry
cher
chi
chicago
chicagu
chiesa
child
children
chile
china
chinese
chiron
chobot
choice
chris
christ
christi
christian
christina
christine
christmas
christoph
christopher
chronicle
chronology
church
churchill
ci
cia
cicero
ciciban
cie
cigan
cigana
cigani
ciganka
cigaret
cigarete
cigareto
cikel
cikla
ciklic
ciklu
ciklus
cila
cilinder
cilj
cilja
cilje
ciljem
ciljev
cilji
ciljno
cilju
cilka
cilki
cilko
cimperman
cin
cincinnati
cinic
cink
ciper
cipra
cipru
circ
circle
circuit
circus
ciril
cirila
cirilic
cirkus
cis
cit
citadela
citadele
citat
citati
cities
citirano
citre
citta
city
cityja
cityju
ciudad
civil
civilisti
civilistov
civilizacij
civilizacija
civilizacije
civilizacijo
civilization
civilna
civilne
civilnega
civilni
civilnih
civilno
cj
ck
cke
cl
claire
clara
clark
clarke
class
classic
classical
claude
claudia
claudio
clav
clay
cle
clemens
clemente
cleveland
climate
climax
clinical
clinton
clo
club
cm
cn
co
coa
coast
cobiss
code
codex
cohen
col
cole
colin
colle
collection
college
collins
colonna
color
colorado
columbia
com
comba
combat
come
comes
comet
command
commander
commission
committee
common
commons
community
companion
company
comparative
complete
complex
compostela
computer
comte
con
cona
cone
conference
conflict
congress
coni
connecticut
cono
conquest
conrad
conservation
constantine
construction
contemporary
content
context
contra
control
conway
cook
cooper
copate
coq
cornelis
cornell
cornwall
corporation
corps
corpus
corse
corte
cos
cosimo
costa
cosworth
coulthard
council
country
county
court
cov
covid
cox
cp
cr
craig
crawford
cre
creek
cristo
critical
crni
croatia
croce
croix
cross
cruz
cs
csa
cska
css
ct
cu
culo
cultural
culture
cum
cunj
cunje
cup
curek
curkoma
current
curtis
cv
cve
cvet
cveta
cvete
cvetela
cvetele
cvetelo
cveti
cvetic
cvetice
cvetja
cvetje
cvetjem
cvetju
cvetka
cvetke
cvetko
cvetlic
cvetlicami
cvetlice
cvetni
cveto
cvetoc
cvetov
cvetove
cvetovi
cvetu
cvic
cvrc
cx
cy
cyrus
cz
d
da
dac
dacar
dachau
dado
dahnil
dahnila
dai
daily
daimjo
daimler
daj
dajal
dajala
dajale
dajali
dajalo
dajatev
dajati
daje
dajejo
dajem
dajmo
dajo
dajte
dakota
dal
dala
dale
dalec
dali
dalj
daljave
daljavi
daljavo
dalje
dalji
daljino
daljna
daljne
daljnega
daljnem
daljni
daljnih
daljno
daljnogled
daljo
daljs
dall
dallas
dalmacija
dalmacije
dalmaciji
dalmacijo
dalmatin
dalmatinske
dalmatinsko
dalo
dam
dama
damask
damaska
dame
dami
damijan
damir
damjan
damjana
damo
damon
dan
dana
danas
dance
dandanas
dandanes
dane
danem
danes
dani
danica
danici
danico
daniel
daniela
daniil
danijel
danilo
danny
dano
dans
danska
danske
danskega
danskem
danski
danskih
dansko
dante
dar
dare
darej
dareja
daril
darila
darilo
darinka
dario
daritev
daritve
darja
dark
darko
darov
daroval
darovala
darovali
darove
darovi
daru
daruje
darwin
das
dasi
dasiravno
dass
dassault
daste
dat
data
database
date
dati
datira
datirajo
datiran
datirana
datiranje
datotek
datoteke
datum
datuma
datumi
datumom
davc
dave
davek
davi
david
davida
davidom
davidson
davies
davis
davka
davkar
davke
davki
davkov
davnih
davno
davor
davorin
davs
dawn
day
days
daß
db
dc
dd
ddg
de
dead
dean
death
debate
debehogne
debel
debela
debele
debelega
debelejs
debeli
debelih
debelim
debelimi
debelina
debeline
debeljak
debelo
debelus
debitantski
debitiral
debitirala
debla
deblo
deblu
deborah
dec
deca
december
decembra
decembrom
decembru
deco
ded
deda
dedec
dedek
dedic
dedis
dedka
dedne
dedni
dedno
dedov
deds
deep
defense
definicija
definicije
definiciji
definicijo
definira
definiran
definirana
degli
dehtec
dei
dej
dejal
dejala
dejali
dejan
dejanj
dejanja
dejanje
dejanjem
dejanji
dejanjih
dejanju
dejanska
dejanske
dejanskega
dejanski
dejansko
dejaven
dejavna
dejavnik
dejavnike
dejavniki
dejavnikov
dejavno
dejavnost
dejavnosti
dejavnostih
dejavnostjo
dejavnostmi
deje
dejstev
dejstva
dejstvo
dejstvom
dejstvu
dekan
dekana
dekanija
dekanije
dekla
deklaracija
deklaracijo
dekle
deklet
dekleta
dekletce
dekleti
dekletom
dekletu
dekleva
dekli
deklic
deklica
deklice
deklici
deklico
deklina
deklis
deklo
dekoracija
dekoracije
dekoracijo
dekorativne
dekorativni
dekret
del
dela
delaj
delajo
delajte
delal
delala
delale
delali
delalo
delam
delamo
delas
delat
delata
delate
delati
delavca
delavce
delavcem
delavcev
delavci
delavcu
delavec
delaven
delavka
delavke
delavnic
delavnica
delavnice
delavnici
delavnico
delavska
delavske
delavskega
delavski
delavskih
delavsko
delc
delca
delce
delcev
delci
dele
delec
delegacija
delegacije
delegacijo
delegat
delegati
delegatov
delez
delhi
deli
delih
delijo
delil
delila
delili
delimo
delitev
deliti
delitve
delitvi
delitvijo
delj
dell
della
delle
delna
delni
delnic
delnice
delnis
delno
delo
delodajalca
delodajalci
delodajalec
delom
deloma
delov
deloval
delovala
delovale
delovali
delovalo
delovanja
delovanje
delovanjem
delovanju
delovati
delovna
delovne
delovnega
delovnem
delovni
delovnih
delovnim
delovno
delta
delte
delti
delu
deluje
delujejo
delujeta
delujoc
dem
demi
demo
democratici
democratico
demografija
demokracija
demokracije
demokracijo
demokrat
demokrati
demokratic
demokratov
demokratska
demokratske
demon
demoni
demonstracije
dems
den
denar
denarja
denarje
denarjem
denarjev
denarji
denarju
denarna
denarne
denarni
denarnico
denarnih
denarno
denas
dene
denes
deni
denimo
denis
dennis
departma
departmaja
departmaju
department
depresija
depresije
depresijo
der
dere
derek
derivati
derndorfer
deroc
derta
derz
des
description
desenis
desert
deset
deseta
desetega
desetem
deseti
desetih
desetimi
desetine
desetino
desetkrat
desetletij
desetletja
desetletje
desetletji
desetletjih
desetletju
deseto
design
desk
deska
deske
deski
desko
desna
desne
desnega
desnem
desni
desnic
desnica
desnice
desnici
desnico
desnim
desno
despot
destinacija
desus
det
detail
details
detajl
dete
detektiv
detela
detelje
deteta
detetom
detetu
detroit
deutsch
deutsche
deutschen
deutscher
deutschland
deva
deve
development
devet
deveta
devetak
devetdesetih
devete
deveti
devetih
devetimi
devetkrat
devetnajst
devetnajstega
deveto
devic
devica
device
devici
devico
devil
devils
devis
devojka
dez
dg
dh
di
diagnostic
diagnoza
diagnoze
diagnozo
diagram
diakon
diakona
dialog
dialogi
diamant
diamanti
diamond
diana
diane
diaz
dic
dich
dick
dictionary
did
didaktic
didier
didje
die
diego
dies
dieter
dietrich
digital
digitalna
digitalne
digitalni
digitalnih
digitalno
dih
diha
dihal
dihala
dihalne
dihalnih
dihanja
dihanje
dihati
dijak
dijaka
dijake
dijaki
dijakov
dijas
diktator
dil
dim
dima
dimenzij
dimenzije
dimitrij
dimnik
dimnika
dimu
din
dina
dinamic
dinamo
dinarjev
dinastic
dinastij
dinastija
dinastije
dinastiji
dinastijo
diniz
dino
dinske
dinu
dio
diodor
dioklecijan
dioksid
dioksida
dion
dioniz
dioniza
dionizij
diplomat
diplomati
diplomatske
diplomatski
diplomatskih
diplomatsko
diplomi
diplomiral
diplomirala
diplomiranci
diplomo
diplomsko
dir
direktno
direktor
direktorica
direktorja
dirigent
dirigenti
dirja
dirjal
dirk
dirka
dirkac
dirkah
dirkal
dirkalis
dirkalnik
dirkalnika
dirkalniki
dirkalnikom
dirkalnikov
dirkalniku
dirkas
dirke
dirki
dirko
diru
dis
disciplina
disciplinah
discipline
disciplini
disciplino
discogs
discovery
disertacija
disertacijo
disk
diska
diskografija
diskriminacije
disney
distinguished
distribucijo
diuretiki
divac
divan
divanu
division
divizij
divizija
divizije
diviziji
divizijo
divizion
divja
divjac
divjad
divjak
divjaki
divjal
divjala
divje
divjega
divjem
divji
divjih
divjim
divjimi
divjo
dizajn
dizionario
dizma
dj
djal
djali
djurga
dk
dl
dlac
dlaka
dlake
dlako
dlan
dlani
dlanjo
dlanmi
dlib
dlje
dm
dn
dna
dne
dneh
dnem
dneva
dneve
dnevi
dnevih
dnevna
dnevne
dnevnega
dnevnem
dnevni
dnevnih
dnevnik
dnevnika
dnevniku
dnevno
dnevom
dnevu
dni
dnij
dnk
dno
dnom
dnpq
dnq
dns
dnu
do
dob
doba
dobe
dober
dobesedno
dobi
dobic
dobijo
dobil
dobila
dobile
dobili
dobilo
dobim
dobimo
dobis
dobite
dobiti
dobitnik
dobitnike
dobitniki
dobiva
dobivajo
dobival
dobivala
dobivali
dobivati
dobo
dobra
dobrava
dobravi
dobre
dobrega
dobrem
dobremu
dobri
dobriga
dobrih
dobrim
dobrimi
dobrin
dobrine
dobro
dobrodelne
dobrodos
dobrodus
dobrohotno
dobrosrc
dobrot
dobrota
dobrote
dobroti
dobrotnik
dobrotnika
dobroto
dobrova
dobrovoljno
dobrs
dobru
doc
docela
docent
doch
documents
doda
dodaja
dodajanje
dodajanjem
dodajo
dodal
dodala
dodali
dodamo
dodan
dodana
dodane
dodani
dodano
dodatek
dodaten
dodati
dodatki
dodatkom
dodatkov
dodatna
dodatne
dodatnega
dodatni
dodatnih
dodatnim
dodatnimi
dodatno
dodeli
dodelil
dodelila
dodelili
dodeljen
dodeljena
dodobra
dog
dogaja
dogajajo
dogajalni
dogajalo
dogajanja
dogajanje
dogajanju
dognal
dognati
dogodbica
dogodek
dogodilo
dogodivs
dogodka
dogodke
dogodki
dogodkih
dogodkom
dogodkov
dogodku
dogovor
dogovora
dogovori
dogovoril
dogovorila
dogovorili
dogovorjeno
dogovoru
dohitel
dohodek
dohodka
dohodke
dohodki
dohodkov
dohtar
doi
dojde
dojenc
dojke
dok
dokaj
dokaz
dokaza
dokazal
dokazala
dokazali
dokazana
dokazano
dokazati
dokaze
dokazi
dokazov
dokazoval
dokazovanje
dokazuje
dokazujejo
dokler
dokonc
doktor
doktorat
doktoriral
doktorirala
doktorirali
doktorja
doktorju
doktorski
doktorsko
doktrino
dokument
dokumenta
dokumentarni
dokumente
dokumenti
dokumentih
dokumentov
dokumentu
dol
dola
dolar
dolarjev
dole
dolenc
dolenja
dolenje
dolenji
dolenjska
dolenjske
dolenjskem
dolenjski
dolenjsko
dolet
doletela
doleti
dolg
dolga
dolgc
dolge
dolgega
dolgem
dolgi
dolgih
dolgim
dolgimi
dolgo
dolgoc
dolgoletni
dolgoletno
dolgoroc
dolgotrajna
dolgotrajne
dolgotrajno
dolgov
dolgove
doli
dolin
dolina
dolinah
dolinar
doline
dolini
dolino
dolnji
doloc
dolu
dolz
dom
doma
domac
domen
domena
domene
domenico
domingo
domini
dominik
dominika
dominikanski
dominique
domis
domisli
domislil
domislila
domisliti
domneva
domnevajo
domneval
domnevali
domneve
domnevnega
domnevni
domnevno
domnevo
domo
domoljub
domom
domotoz
domov
domovanje
domove
domovi
domovih
domovina
domovine
domovini
domovino
domovinske
domu
domus
domz
don
dona
donald
donas
donava
donave
donavi
donavo
donec
donelo
doni
donja
donji
donna
dopade
dopinga
dopisni
dopisnik
dopoldne
dopolnil
dopolnila
dopolnjena
dopolnjuje
dopovedati
doprsni
dopus
dopust
dopusta
dopustu
dora
dore
dorica
doris
dorothy
dos
dosec
dosedaj
dosedanje
dosedanji
doseg
dosega
dosegajo
dosegal
doseganje
dosegel
dosegla
dosegle
dosegli
doseglo
dosego
dosez
dosledno
doslej
dosmrtno
dospe
dospel
dospela
dospeli
dospevs
dosta
dostavi
dostavil
dostavila
dosti
dostikrat
dostoevsky
dostojanstva
dostojanstveno
dostojanstvo
dostojevskega
dostojevski
dostojno
dostop
dostopa
dostopano
dostopen
dostopna
dostopne
dostopni
dostopnih
dostopno
dostopnost
dota
dotakne
dotaknil
dotaknila
dotakniti
dote
dotic
dotik
dotika
dotiko
dotlej
doto
dotok
double
douglas
dovelj
dover
dovers
dovoli
dovolil
dovolila
dovolili
dovolim
dovolite
dovoliti
dovolj
dovoljen
dovoljena
dovoljenja
dovoljenje
dovoljenjem
dovoljeno
dovoljuje
dovrs
down
doz
dozdaj
dozdeva
dozdevalo
dozorel
dozori
dp
dr
dra
drac
drag
draga
dragan
drage
dragega
dragi
dragic
dragica
dragih
drago
dragocen
dragocena
dragocene
dragoceni
dragocenih
dragoceno
dragocenosti
dragotin
dragulji
dragutin
dram
drama
dramatic
dramatik
dramatika
dramatiki
dramatikov
dramaturg
drame
drami
dramo
dramska
dramske
dramski
dramskih
dramsko
dras
drastic
drava
drave
dravi
dravo
dravograd
dravske
draz
drc
dream
dreams
dregnil
drejc
dremal
drenaz
dres
dresden
dreves
drevesa
drevesi
drevesih
drevesnih
drevesom
drevesu
drevi
drevja
drevje
drevjem
drevju
drevo
drevored
drevoredu
dreyfus
drhal
drhtec
drhtela
drhti
drl
drli
drnovs
dro
droben
drobiz
drobna
drobne
drobnega
drobni
drobnic
drobnih
drobnimi
drobno
drobtinice
drog
droga
droge
dru
drug
druga
drugac
drugam
druge
drugega
drugej
drugem
drugemu
drugi
drugic
drugih
drugikrat
drugim
drugimi
drugje
drugo
drugod
drugouvrs
druhal
drus
druz
druzega
druziga
druzih
drv
drva
drvar
drvi
drz
drzen
drzne
drzni
drznil
drzno
ds
dt
du
dublin
dublinu
dubrovnik
dubrovniku
dubrovnis
duc
ducat
ducks
duet
duh
duha
duhom
duhov
duhove
duhoven
duhovi
duhovna
duhovne
duhovnega
duhovni
duhovnih
duhovnik
duhovnika
duhovnike
duhovniki
duhovnikom
duhovnikov
duhovniku
duhovnis
duhovno
duhovs
duhu
dukas
duke
dukla
dular
dunaj
dunaja
dunajc
dunaji
dunajska
dunajske
dunajskega
dunajskem
dunajski
dunajskih
dunajsko
dunaju
duncan
duomo
dupuis
dur
durch
duri
durih
durim
during
durmi
duru
dus
dutch
dux
dv
dva
dvajset
dvajsetega
dvajsetih
dvajsetimi
dvakrat
dvanajst
dvanajsti
dvanajstih
dvanajstimi
dvanajsto
dvatisoc
dvd
dve
dveh
dvema
dvesto
dvig
dviga
dvigajo
dvigal
dvigala
dvigale
dvigali
dvigalo
dvigati
dvigne
dvignejo
dvignil
dvignila
dvignile
dvignili
dvignilo
dvigniti
dvignjeno
dviguje
dviz
dvo
dvoboj
dvoboja
dvoboju
dvojbe
dvojc
dvoje
dvojezic
dvojic
dvojice
dvojna
dvojne
dvojnega
dvojnem
dvojni
dvojnih
dvojnim
dvojno
dvom
dvoma
dvome
dvomi
dvomil
dvomim
dvomiti
dvomov
dvor
dvora
dvoran
dvorana
dvoranah
dvorane
dvorani
dvorano
dvoranskih
dvorca
dvorcu
dvorec
dvori
dvoris
dvorna
dvorne
dvornega
dvorni
dvorom
dvoru
dvoz
dx
dy
dynamics
dynasty
dz
dzong
dzs
e
ea
eagle
eagles
earl
early
earth
east
eastern
eb
ebel
ebela
ebelar
ebele
eberhard
ec
eca
ece
economic
economy
ed
eda
edad
edalje
eddie
eden
edgar
edi
edina
edinburgh
edine
edinega
edini
edino
edinole
edinost
edinosti
edinstven
edinstvena
edinstvene
edinstveno
edited
edith
edition
editor
editore
edmond
edmonton
edmund
edna
edno
ednost
ednosti
edo
eds
edu
eduard
education
edvard
edvarda
edward
edwarda
edwards
edwin
ee
ef
efa
efekt
effect
effects
efom
efu
eg
ega
egar
ege
egi
egid
egipc
egipt
egipta
egiptologi
egiptom
egiptovske
egiptovski
egiptu
ego
egon
egypt
egyptian
eh
eha
ehc
ehe
ehi
eho
ehov
ei
ein
eine
einem
einen
einer
eines
einstein
ej
eja
ejcev
eje
ejen
eji
ejna
ejni
ejo
ejov
ejski
ek
eka
ekip
ekipa
ekipe
ekipi
ekipni
ekipno
ekipo
ekliptiki
ekologija
ekolos
ekonomic
ekonomija
ekonomije
ekonomijo
ekonomist
ekonomisti
ekonomska
ekonomske
ekonomskega
ekonomski
ekonomskih
ekonomsko
ekosistem
ekscelenca
eksotic
ekspedicija
ekspedicije
ekspedicijo
eksperimentalna
eksperimentalni
eksperimentalno
eksplozija
eksplozije
eksploziji
eksplozijo
eku
ekumenski
ekvador
el
ela
elada
elade
elado
elah
elam
elami
elastic
ele
eleanor
electric
electronic
eleganten
elegantna
elegantno
elektrarn
elektrarna
elektrarne
elektrarni
elektric
elektrika
elektrike
elektriko
elektro
elektrode
elektromagnetnega
elektron
elektrona
elektroni
elektronov
elektronska
elektronske
elektronskega
elektronski
elektronskih
elektronsko
elektrotehniko
elel
elela
eleli
elelo
element
elementa
elemente
elementi
elementov
elen
elena
elene
elenega
eleni
elenih
elenje
eleno
eleonora
eleti
eleza
elezar
elezen
elezna
elezne
eleznega
elezni
eleznic
eleznica
eleznice
eleznici
eleznico
eleznih
elezniki
eleznimi
eleznis
elezno
elezo
elezom
elezov
eli
elias
elic
elih
elija
elijo
elim
elimo
elio
eliptic
elis
elisabeth
elita
elite
elito
eliza
elizabeta
elizabete
elizabeth
elizabeto
elj
elja
eljah
eljam
elje
elji
eljivo
eljko
eljni
eljno
eljo
elju
eljust
eljusti
elk
elkami
elke
ella
ellen
ellis
elna
elne
elnega
elnem
elnemu
elni
elnih
elnik
elnika
elniki
elnim
elno
elo
elodc
elodca
elodcu
elodec
elom
eloma
elska
elske
elski
elskih
elsko
elst
elton
elu
elva
elve
elvira
elvis
elza
em
ema
emanuel
emanuela
emanuele
embalaz
emberk
embraer
eme
emer
emeren
emerson
emi
emil
emile
emilija
emilio
emily
emir
emisij
emisije
emma
emmanuel
emo
emperor
empeter
empire
empiric
emu
emur
en
ena
enac
enajst
enajsta
enajsti
enajstih
enajsto
enak
enaka
enake
enakega
enakem
enaki
enakih
enakim
enakimi
enako
enakomerno
enakonoc
enakopravnost
enakost
enakosti
enakovreden
enakovredna
enakovredno
enami
enas
enc
enca
ence
encem
encev
enci
enciclopedia
enciklopedija
enciklopedije
encim
encima
encimi
encimov
encu
encyclopaedia
encyclopedia
encyclopædia
end
endate
endemic
ene
enec
enega
enej
eneja
enejo
enem
enemu
energic
energija
energije
energiji
energijo
energy
enevi
eng
engel
engelbert
engels
engine
engineering
england
english
eni
enic
enica
enice
enici
enico
eniga
enih
enik
enika
eniki
enikov
enil
enim
enimi
enin
enina
enine
enini
enino
eninu
enir
enirja
enirjev
enirji
enirski
enis
enitev
eniti
enitovanje
enj
enja
enjajo
enjak
enjaka
enjaki
enjakov
enjal
enjas
enje
enjem
enjen
enji
enjske
enjstva
enjstvo
enju
enk
enka
enke
enki
enko
enkrat
enkratno
eno
enoglasno
enolic
enost
enostaven
enostavna
enostavne
enostavnejs
enostavni
enostavno
enosti
enostjo
enot
enota
enotah
enotam
enotami
enote
enoten
enoti
enotna
enotne
enotnega
enotni
enotno
enotnost
enotnosti
enoto
enrico
enrique
ens
ensk
enska
enskah
enskam
enskami
enske
enskega
enskem
enski
enskih
enskim
enskimi
ensko
enstva
enstvo
ent
enterprise
entertainment
entjanz
entjur
entre
entry
entvid
entvidu
enu
environment
environmental
enzo
eo
ep
epa
epafrodit
epe
epec
epel
epela
epet
epeta
epetaje
epetajoc
epetal
epetala
epetale
epetali
epetanje
epi
epic
epico
epidemija
epidemije
epih
epizod
epizoda
epizode
epizodi
epizodo
epne
epnil
epnila
epov
eprav
epsilon
epu
eq
equiv
er
era
eraj
erajs
eravno
erazem
ere
eren
eri
eric
erica
erich
ericsson
erih
erik
erika
erin
erja
erjal
erjali
erjav
erjavec
erjavico
erje
erji
erjo
erka
erke
erki
erko
ern
erna
erne
ernega
ernem
ernest
ernesta
ernesto
erni
ernic
ernice
ernigoj
ernih
erno
ernov
ernova
ernove
ernovega
ernovi
ernovo
ernst
ernu
ernych
ero
erom
erotic
erov
erozija
erozije
erozijo
eru
ervin
erwin
erz
es
esa
esar
esc
esej
esejev
eseji
esejist
esen
esi
esih
eske
eslav
esna
esne
esom
espan
essays
est
esta
estdeset
estdesetih
este
esteban
estega
estem
estetsko
esti
estih
estim
estimi
estitam
estkrat
estnajst
estnajstih
esto
estokrat
estonija
estonije
estoniji
estonski
esu
et
eta
etam
etami
etapa
etar
etaz
etc
ete
etek
eteric
etev
eti
etic
etih
etika
etike
etiko
etimologija
etimolos
etiopiji
etja
etje
etju
etka
etke
etki
etkom
etkov
etku
etna
etne
etnem
etni
etnic
etnih
etnik
etnika
etniki
etno
etnolog
etnolos
eto
etom
etov
etova
etove
etovega
etovem
etovi
etovih
etovo
etovsko
etrt
etrta
etrte
etrtega
etrtek
etrtem
etrtfinale
etrti
etrtic
etrtina
etrtine
etrtino
etrto
etrus
ettore
etu
etudi
eu
euge
eugen
eugene
eugenio
euler
eur
euro
europa
europe
european
ev
eva
evac
evakuacijo
eval
evala
evalca
evalce
evalcev
evalci
evale
evalec
evali
evalna
evalne
evalnega
evalni
evalnih
evalno
evalo
evan
evana
evangelic
evangelij
evangelija
evangelist
evangelista
evanj
evanja
evanje
evanjem
evanju
evans
evar
evat
evati
evc
evci
eve
evec
evega
evelina
evelj
eveljc
evem
evemu
even
evgen
evgenija
evi
evic
evidence
evih
eviki
evim
evimi
evin
evina
evinah
evinami
evine
evini
evino
evis
evito
evja
evje
evjem
evju
evka
evlja
evljar
evlje
evljev
evlji
evljih
evna
evne
evnega
evnem
evni
evnih
evnik
evniki
evnikov
evnim
evnimi
evno
evnost
evnosti
evo
evolucija
evolucije
evolution
evro
evropa
evrope
evropejci
evropi
evropo
evroposlancev
evropska
evropske
evropskega
evropskem
evropski
evropskih
evropskim
evropskimi
evropsko
evrov
evrovizije
evska
evske
evskega
evskem
evski
evsko
evstahij
evzebij
ex
excavations
exhibition
experience
express
eyck
eye
eyes
ez
ezenj
ezlo
f
fa
faber
fabij
fabio
face
facebook
fact
facto
factor
fagioli
fair
faith
fajmos
fajon
faktor
faktorja
faktorjev
faktorji
fakultet
fakulteta
fakultete
fakulteti
fakulteto
falcon
fall
falls
family
fan
fanatic
fani
fanny
fant
fanta
fantastic
fantastike
fantazija
fantazije
fante
fantek
fanti
fantic
fantje
fantom
fantov
fantu
far
fara
faraon
faraona
faraoni
faraonov
fare
fari
farina
farmacevtski
farne
farnese
faro
farovz
fas
fasada
fasade
fasadi
fasado
fasc
faust
favna
faz
faza
fazah
faze
fazi
fazo
fb
fbi
fc
fd
fda
fdv
fe
fear
feb
februar
februarja
februarjem
februarju
february
federacija
federacije
federal
federation
federativne
federico
fej
feldmars
felice
feliks
felipe
felix
feministic
fenic
fenomen
feodor
feodora
ferdinand
ferdinanda
ferdinando
ferdinandu
ferdo
ferenc
ferguson
feri
ferjan
ferna
fernando
ferrara
ferrari
festival
festivala
festivali
festivalih
festivalov
festivalu
fevd
ff
ffler
fg
fh
fi
fiat
fic
fidz
field
fifa
figur
figura
figurami
figure
figuri
figuro
fil
file
files
filharmonije
filip
filipa
filipini
filipinih
filipom
filipovic
filippo
filipu
film
filma
filme
filmi
filmih
filmografija
filmom
filmov
films
filmska
filmske
filmskega
filmskem
filmski
filmskih
filmsko
filmu
filolog
filozof
filozofa
filozofi
filozofija
filozofije
filozofiji
filozofijo
filozofov
filozofska
filozofske
filozofski
filozofskih
filozofsko
fin
fina
final
finala
finale
finali
finalni
finalu
financ
finance
financira
financiral
financiranja
financiranje
fine
fini
fink
fino
finska
finske
finskem
finski
finskih
finsko
finz
fire
firenc
firencah
firence
firens
firenze
first
fis
fischer
fish
fisher
fisichella
fittipaldi
five
fiz
fizic
fizik
fizika
fizikalna
fizikalne
fizikalni
fizikalnih
fizikalno
fizike
fiziki
fiziko
fizikov
fiziologija
fiziologijo
fiziolos
fj
fjodor
fjodorovic
fk
fl
flames
flamski
flavij
flavta
flavto
fleming
fletcher
flight
flis
flora
flore
florence
florentinski
florida
floridi
florijan
florjan
flota
flote
floto
flower
floyd
fluorid
fly
flyers
flying
fm
fn
fo
fokker
fokus
folk
foltan
fonetic
fontana
fontane
fontsize
food
football
footwork
for
forbes
force
forces
ford
foreign
forest
form
forma
formacija
formacije
formalne
formalni
formalno
format
formatu
forme
formula
formule
formuli
formulo
fort
fortuna
forum
foruma
forumu
fosfat
fosilnih
foster
foto
fotograf
fotografi
fotografij
fotografija
fotografije
fotografiji
fotografijo
fotomodel
found
foundation
fountain
four
fox
fr
fra
frac
fragment
fragmenti
fragmentov
fran
frana
franc
franca
france
francelj
frances
francesca
francesco
franceta
francetu
franci
francija
francije
franciji
francijo
francis
francisca
francisco
franciscu
francka
franco
francos
francoska
francoske
francoskega
francoskem
francoskemu
francoski
francoskih
francoskim
francoskimi
francosko
francoz
francoza
francoze
francozi
francozje
francozom
francozov
francu
frane
franica
franja
franjo
frank
franka
franke
frankfurt
frankfurtu
franki
franklin
franko
frankom
frankopan
frankov
frankovska
frankovske
frankovskega
frankovski
frankovsko
frans
frantis
franz
franza
fras
fraser
fraze
frc
fre
fred
frederic
frederick
free
freedom
freeman
freiburg
frekvenc
frekvenca
frekvence
frekvenco
french
frentzen
fresk
freska
freskami
freske
fresko
freud
frey
fric
friderik
friderika
friderikom
frideriku
fridrih
friedrich
friedricha
friends
fritz
friz
fro
from
front
fronta
fronte
fronti
fronto
fru
fs
ft
fu
fuc
fudz
fuga
full
fundacija
fundacije
funkcij
funkcija
funkcije
funkciji
funkcijo
funkcionalne
funkcionalno
funkcionar
funt
funtov
furlan
furlanije
furlaniji
furlanski
furlansko
future
fuz
fv
fw
fx
g
ga
gab
gaber
gabriel
gabriela
gabriele
gabrijel
gabrijela
gac
gad
gada
gaetano
gaj
gaja
gaje
gaju
gal
gala
galaksij
galaksija
galaksije
gale
galeb
galerij
galerija
galerije
galeriji
galerijo
gali
galicija
galicije
galiciji
galije
galiji
galijo
galileo
gall
gallery
galo
gama
game
games
gamma
gan
gana
gane
gani
ganih
ganil
ganila
ganilo
ganiti
ganja
ganje
ganjem
ganju
gano
ganov
ganske
ganski
ganskih
gansko
gantar
gar
garaz
garci
garcia
garda
garde
garden
gardens
gardna
gardner
gardni
garnizirane
garonne
gary
gas
gasilci
gasilski
gasilsko
gaskonji
gaskonsko
gasly
gaston
gate
gati
gaulle
gay
gaz
gazela
gazi
gb
gc
gdansk
ge
gec
gegenwart
gehrels
gejo
gejs
gel
gem
gen
gena
gene
generacij
generacija
generacije
generaciji
generacijo
general
generala
generale
generali
generalmajor
generalmajorja
generalna
generalnega
generalni
generalom
generalov
generalpolkovnik
generalporoc
generals
generalu
generation
generator
generic
genetske
genetsko
geni
genij
genocid
genov
genova
genovefa
gent
geoffrey
geograf
geografi
geografija
geografije
geografijo
geografska
geografske
geografski
geografskih
geografsko
geographic
geography
geolog
geologija
geolos
geometric
geometrija
geometrije
geometriji
geometrijo
geometrijske
geometrijsko
georg
georga
george
georgea
georges
georgia
georgij
ger
gerald
gerard
gerhard
germain
german
germanski
germanskih
germany
gers
ges
geschichte
gesellschaft
gesla
geslo
gesta
get
getty
geza
gg
gh
gi
giacomo
gian
giancarlo
gianfranco
gianni
gibal
gibanj
gibanja
gibanje
gibanjem
gibanju
gibati
gibc
gibi
giblje
gibljejo
gibov
gibson
gil
gilbert
gilgames
gilles
gimnazija
gimnazije
gimnaziji
gimnazijo
gimnazijski
gina
gine
ginjen
gino
giorgio
giovanni
giovannija
girl
girls
girolamo
gis
giulia
giuliano
giulio
giuseppe
gizela
gjac
gl
gla
glad
gladek
gladi
gladil
gladina
gladine
gladini
gladino
gladka
gladke
gladki
gladkih
gladko
gladu
glagol
glagola
glal
glas
glasba
glasbe
glasbena
glasbene
glasbenega
glasbenem
glasbeni
glasbenica
glasbenih
glasbenik
glasbenika
glasbeniki
glasbenikov
glasbeno
glasbi
glasbila
glasbilo
glasbo
glase
glasen
glaser
glasi
glasil
glasila
glasilo
glasna
glasne
glasneje
glasnejs
glasni
glasnik
glasnim
glasno
glasom
glasov
glasovali
glasovalo
glasovanja
glasovanje
glasovanju
glasove
glasovi
glass
glasu
glav
glava
glavah
glavami
glavar
glavarja
glavarju
glave
glavi
glavica
glavice
glavico
glavna
glavne
glavnega
glavnem
glavnemu
glavni
glavnih
glavnim
glavnimi
glavnino
glavno
glavo
glavobol
glaz
gld
gle
gleda
gledaje
gledajo
gledajoc
gledal
gledala
gledalca
gledalce
gledalcev
gledalci
gledalcu
gledale
gledali
gledalis
gledalo
gledam
gledamo
gledanje
gledano
gledas
gledat
gledata
gledate
gledati
glede
gledis
glej
glejte
glenn
glez
gli
glili
glina
gline
glino
gliv
glive
global
globalni
globalno
globe
globel
globeli
globin
globina
globinah
globine
globini
globino
globlje
globoc
globok
globoka
globoke
globokega
globokem
globoki
globokih
globokim
globoko
globus
globusa
glock
gloria
glu
gluh
gluha
gluhi
glukoze
glumac
glus
gm
gmajni
gmbh
gmotno
gn
gnada
gnal
gnala
gnali
gnalo
gnec
gnev
gnezda
gnezdi
gnezdijo
gnezdo
gnezdu
gnoj
gnoja
gnu
gnus
gnusa
go
gob
goba
gobc
gobe
gobec
gobo
goc
god
godala
godalni
godba
godbe
godbo
godci
gode
godec
godel
godi
godilo
godina
godrnja
godrnjal
gods
godu
godujejo
godujes
goes
goethe
goga
gogala
gojenje
goji
gojijo
gojil
gojila
gojili
gojiti
gojko
gol
gola
golar
golc
gold
golden
goldinar
goldinarjev
gole
golega
golem
golf
goli
golic
golih
golimi
golja
goljevs
golo
golob
goloba
golobc
golobic
golobica
golov
gomez
gomila
gomile
gomili
gomilo
goni
gonil
gonili
gonza
gonzaga
good
google
gor
gora
gorah
gorami
goran
goranske
goransko
gorazd
gorbac
gorc
gordini
gordon
gore
gorec
gorel
gorela
gorele
gorelo
gorenja
gorenje
gorenji
gorenjska
gorenjske
gorenjskega
gorenjskem
gorenjski
gorenjsko
goreti
gori
goric
gorica
goricah
gorice
gorici
gorico
goris
goriv
goriva
gorivo
gorja
gorjac
gorjanci
gorje
gorka
gorke
gorkega
gorki
gorko
gornik
gornis
gornja
gornje
gornjega
gornjem
gornji
gornjo
goro
gorovja
gorovje
gorovju
gors
gorska
gorske
gorskega
gorskem
gorski
gorskih
gorsko
gos
gosenice
gosi
gosli
gosp
gospa
gospe
gospej
gospica
gospo
gospod
gospoda
gospodar
gospodari
gospodarica
gospodaril
gospodarja
gospodarjem
gospodarjev
gospodarji
gospodarju
gospodarska
gospodarske
gospodarskega
gospodarskem
gospodarski
gospodarskih
gospodarsko
gospodarstva
gospodarstvenik
gospodarstvo
gospodarstvu
gospode
gospodi
gospodic
gospodine
gospodinja
gospodinje
gospodinji
gospodinjo
gospodinjstev
gospodinjstva
gospodinjstvo
gospodinjstvu
gospodje
gospodo
gospodom
gospodov
gospodu
gospos
gosposka
gosposke
gosposki
gosposko
gospostva
gospostvo
gospvd
gost
gosta
gostac
goste
gostejs
gostem
gosti
gostih
gostijo
gostil
gostila
gostili
gostilna
gostilnah
gostilne
gostilni
gostilnic
gostilnici
gostilnico
gostilnis
gostilno
gostim
gostis
gostitelj
gostitelja
gostje
gosto
gostom
gostota
gostote
gostoto
gostov
gostu
gostujoc
got
goti
gotika
gotike
gotov
gotova
gotove
gotovega
gotovi
gotovo
gotovostjo
gots
gotska
gotske
gotskega
gotskem
gotski
gotskih
gotsko
gott
gottfried
gotthard
gould
gov
goveda
govedo
govekar
government
govo
govor
govora
govorcev
govorci
govore
govorec
govori
govoric
govorica
govorice
govorici
govorico
govorijo
govoril
govorila
govorile
govorili
govorilo
govorim
govorimo
govoris
govorita
govorite
govoriti
govoriva
govorjenja
govorjenje
govornik
govornika
govornis
govorom
govorov
govoru
gozd
gozda
gozdar
gozdarski
gozdarstvo
gozde
gozdi
gozdic
gozdih
gozdna
gozdne
gozdnega
gozdni
gozdnih
gozdno
gozdom
gozdov
gozdove
gozdovi
gozdovih
gozdu
goſpa
goſpod
gp
gps
gr
gra
graben
grabez
grabi
grac
grace
grad
grada
gradas
gradbena
gradbene
gradbenega
gradbeni
gradbenih
gradbenik
gradbenis
gradbeno
gradbis
gradca
gradcu
gradec
grades
gradez
gradi
gradic
gradijo
gradil
gradili
gradis
graditelj
graditelji
graditi
gradiva
gradivo
gradnik
gradnja
gradnje
gradnji
gradnjo
gradom
gradov
gradove
gradovi
gradovih
gradu
graf
grafa
grafenauer
grafic
grafik
grafika
grafike
grafov
grah
graham
grajs
grajska
grajske
grajskega
grajskem
grajski
grajskih
grajsko
grammy
grammyja
gran
granada
granat
granata
granate
grand
grande
granic
granita
grant
grape
grapi
gras
gratzer
gravitacije
gravitacijskega
gray
graz
grb
grba
grbi
grbom
grbu
grc
grd
grda
grde
grdega
grdi
grdin
grdo
gre
great
greatest
greben
grebena
grebeni
grebenu
greco
gred
grede
gredi
gredo
gredoc
greece
greek
green
greene
greenwood
greg
grega
gregec
gregor
gregorc
gregoric
gregorij
gregorijanskem
gregorio
gregorja
gregorju
gregory
greh
greha
grehe
grehi
grehov
grehu
greje
grejo
grel
grem
gremo
grenadier
grenadirski
grenka
grenke
grenko
gres
gresta
greste
greva
grey
gric
grignon
grigorij
grimm
gris
grivo
griz
grize
grizel
grizla
grk
grki
grkov
grl
grla
grlo
grlu
grm
grma
grmade
grmadi
grmado
grmelo
grmenje
grmi
grmic
grmom
grmovja
grmovje
grmovjem
grmovju
grmu
gro
grob
groba
grobem
grobis
grobnic
grobnica
grobnice
grobnici
grobnico
grobo
grobom
grobov
grobove
grobovi
grobovih
grobu
groeneveld
grof
grofa
grofi
grofic
grofica
grofice
grofici
grofico
grofija
grofije
grofiji
grofijo
grofinja
grofje
grofom
grofov
grofu
groga
grom
gros
grosjean
grosuplje
group
grove
groz
groza
grozd
grozde
grozdja
grozdje
groze
grozec
grozen
grozi
grozil
grozila
grozili
grozna
grozne
groznega
grozni
groznih
grozno
grozo
grozovito
grs
gru
gruc
gruda
gruden
grudi
grudnovka
grumman
grunt
grunta
grupa
grupe
gruppo
grus
gruzija
gruzije
gruziji
gruzijski
gs
gt
gu
guardian
gube
gubec
guerre
guez
guide
guido
guillaume
gumb
gumbi
gume
gun
gur
gus
gustav
gustava
gustave
gut
gutenberg
guverner
guvernerja
guvernerjev
guvernerji
guy
gv
gvineja
gw
gy
gyo
h
ha
haas
habitat
habitatov
habsburs
habsburz
hac
had
hadrijan
hadz
hafner
haha
hahaha
hajdi
hal
hala
hale
haleakala
halji
haljo
hall
halle
halo
hals
hamburg
hamburgu
hamilton
hammond
hampshire
han
hana
hanca
hancock
hand
handbook
handz
hannah
hannover
hans
hansa
hansen
happy
harald
hard
hardy
harmonic
harmonija
harmonije
harmonijo
harmonika
harmonike
harmoniko
harold
harper
harris
harrison
harry
hart
hartman
hartmann
harvard
harvey
has
hasan
hat
hatus
haus
haut
haute
havbic
have
haven
havilland
hawk
hawker
hayden
hbo
hc
hcl
hd
hdd
he
head
health
heart
heather
heaven
heavy
hebrejs
hebrejsko
heer
heera
heian
heidelberg
heidelbergu
heidfeld
heikki
heine
heinrich
heinricha
heinz
hej
hektarjev
hektor
helen
helena
helene
heleni
helenistic
heleno
helidon
helija
helikopter
helikopterjev
helikopterji
helin
hell
helmut
helsinki
hema
henderson
henley
henri
henrik
henrika
henrikom
henriku
henry
henryja
hepatitis
hepatitisa
her
heraklej
herbart
herberstein
herbert
hercegovina
hercegovine
hercegovini
hercegovino
hercegovski
herder
here
herge
heritage
herman
hermana
hermann
hermes
hermina
hero
herodot
heroj
heroja
herojev
heroji
herr
hertz
herzog
hesse
het
heuer
hf
hg
hh
hi
hidratov
hidravlic
hidroelektrarna
hidroelektrarne
hidroksid
hier
hierarchy
hierarhic
hierarhiji
hieronim
high
hilarij
hilary
hill
hills
him
himna
himne
himno
hinavec
hinavs
hinavsko
hindujski
hinko
hip
hipa
hipec
hiperbolic
hipno
hipoma
hipoteza
hipoteze
hipotezo
hipov
hipu
hiros
his
histoire
historia
historic
historical
history
hit
hite
hitel
hitela
hitele
hiteli
hitelo
hiter
hiteti
hiti
hitijo
hitim
hitler
hitlerja
hitra
hitre
hitrega
hitreje
hitrejs
hitrem
hitri
hitrih
hitrim
hitro
hitrost
hitrosti
hitrostjo
hits
hiv
hk
hkrati
hkratu
hl
hlac
hlad
hladen
hladi
hladna
hladne
hladnega
hladnejs
hladnem
hladni
hladnih
hladnik
hladnim
hladno
hladnokrvno
hladu
hlajenje
hlapc
hlapca
hlapce
hlapcem
hlapcev
hlapci
hlapcu
hlapec
hlastno
hld
hleb
hlebec
hlest
hlev
hleva
hleve
hlevi
hlevih
hlevom
hlevu
hm
hms
ho
hoa
hoc
hochkant
hockey
hoda
hodi
hodijo
hodil
hodila
hodile
hodili
hodilo
hodim
hodimo
hodis
hodita
hodite
hoditi
hodnik
hodnika
hodniki
hodnikih
hodniku
hodz
hoensch
hoffmann
hoj
hoja
hoje
hoji
hojo
hokej
hokeja
hokejist
hokejisti
hokejistov
hokejska
hokejske
hokejski
hokeju
holandija
holesterola
holland
hollywood
holmes
holstein
holt
holy
home
homer
homo
honda
hong
hop
hope
hopkins
hopsasa
hor
hora
horace
horde
hormon
hormoni
hormonov
horn
horst
horvat
horvin
hos
hospital
hoste
hosti
hostnik
hosto
hot
hote
hotec
hotel
hotela
hotele
hoteli
hotelo
hotelov
hotelu
hotimir
house
houston
houten
hov
how
howard
howe
hp
hr
hraber
hrabri
hrabro
hrabrost
hrabrosti
hram
hrama
hramu
hrana
hrane
hrani
hranijo
hranil
hranila
hranili
hraniti
hranjenje
hrano
hrast
hrasta
hrasti
hrastnik
hrastom
hrastov
hrastovih
hrastovimi
hrastu
hrbet
hrbta
hrbtenice
hrbtenjac
hrbtni
hrbtom
hrbtu
hrc
hren
hrepenec
hrepenel
hrepenela
hrepenenja
hrepenenje
hrepenenjem
hrepenenju
hrepeni
hrer
hres
hrib
hriba
hribar
hribc
hribe
hribi
hribih
hribom
hribov
hribovja
hribovje
hribu
hripav
hripavim
hripavo
hros
hrovat
hrsg
hrt
hrudos
hrup
hrupa
hrupno
hrus
hrv
hrvas
hrvat
hrvata
hrvate
hrvati
hrvatje
hrvatov
hrvatska
hrvatske
hrvatskem
hrvatski
hrvatsko
hs
ht
htm
html
http
https
hu
huber
hubert
hud
huda
hude
hudega
hudem
hudi
hudic
hudih
hudim
hudo
hudoba
hudoben
hudobije
hudobna
hudobne
hudobnega
hudobnez
hudobni
hudobno
hudodelec
hudodelstvo
hudomus
hudournik
hudoval
hudson
hugh
hughes
hugo
huje
hujs
hull
human
humanist
humanistic
humor
humoristic
hungarian
huni
hunov
hunt
hunter
hura
hus
hv
hvala
hvale
hvalez
hvali
hvalijo
hvalil
hvalila
hvalili
hvaliti
hvaljen
hvalo
hz
i
ia
ian
iau
ib
iba
ibe
ibek
ibenis
iberskega
iberskem
ibid
ibila
ibka
ibke
ibkejs
ibki
ibko
ibm
ibn
ibo
ibrahim
ic
ica
icah
icam
icami
ice
ich
ici
ico
id
ida
idane
idar
ide
ideal
ideale
ideali
idealna
idealni
idealno
idej
ideja
idejami
ideje
ideji
idejo
idel
identic
identifikacija
identifikacijo
identiteta
identitete
identiteto
identity
ideologija
ideologije
ideologijo
ideolos
idi
idila
idilic
idite
idr
idrija
idriji
ie
ieſt
if
ifrer
ig
iga
igajo
igal
igali
igar
igav
igava
ige
iger
igla
igle
iglo
ignac
ignacij
ignacija
igo
igon
igor
igorja
igra
igrac
igrad
igrah
igrajo
igral
igrala
igralca
igralce
igralcem
igralcev
igralci
igralcu
igrale
igralec
igrali
igralk
igralka
igralke
igralko
igralo
igralska
igralske
igralski
igralsko
igram
igrami
igrani
igranja
igranje
igranjem
igranju
igrata
igrati
igre
igri
igris
igro
igu
ih
ihl
ihr
ihre
ihtec
ihtela
ihtenje
ihti
ii
iii
ij
ija
ijaz
ije
ijejo
ijem
iji
ijo
iju
ik
ika
ikal
ike
iki
ikko
iknil
iko
ikon
ikona
ikone
ikov
il
ila
ilah
ilca
ilcev
ilci
ile
ilec
ilen
ili
ilic
ilih
ilija
iliri
ilirija
ilirska
ilirske
ilirski
ilirskih
ilirsko
ilis
ilja
iljajo
iljal
iljala
iljali
iljanje
iljati
iljus
ilka
illinois
illustrated
ilna
ilne
ilnega
ilnem
ilni
ilnice
ilnico
ilnih
ilnim
ilnimi
ilno
ilnost
ilnosti
ilnostih
ilnostmi
ilo
ilom
iloma
ilona
ilonka
ilu
ilustracija
ilustracije
ilustrator
im
ima
image
images
imajo
imam
imamo
imas
imata
imate
imava
imbolj
imdalje
imdb
ime
imej
imejte
imel
imela
imele
imeli
imelo
imen
imena
imeni
imenih
imenik
imeniten
imenitna
imenitne
imenitnega
imenitni
imenitnih
imenitno
imenom
imenoval
imenovala
imenovali
imenovalo
imenovan
imenovana
imenovane
imenovanega
imenovanem
imenovani
imenovanih
imenovanim
imenovanja
imenovanje
imenovanju
imenovano
imenovati
imenu
imenuje
imenujejo
imenujem
imenujemo
imenujeta
imer
imeti
imetja
imetje
img
imi
imir
imo
impact
imperator
imperial
imperialne
imperij
imperija
imperiju
imprej
imu
imunskega
imunski
in
ina
inac
inah
inam
inami
inar
inc
inca
inci
incident
ind
indeks
independent
index
india
indian
indiana
indianapolis
indija
indijancev
indijanci
indijanec
indije
indiji
indijo
indijska
indijske
indijskega
indijskem
indijski
indijskih
indijsko
individualne
individualni
individualno
indo
indonezija
indoneziji
industrial
industries
industrija
industrije
industriji
industrijo
industrijska
industrijske
industrijskega
industrijski
industrijskih
industrijsko
industry
indz
ine
inec
inega
inek
inem
ines
infanterie
influence
info
informacij
informacija
informacije
informacijo
informacijska
informacijske
informacijski
informacijsko
information
infrardec
infrastruktura
infrastrukture
infrastrukturo
infty
ing
ingrid
ini
inih
inil
inila
inilo
inja
injskega
ink
inka
inke
inki
inko
inkom
inkov
inkovec
inkovin
inkovina
inkovine
inkovit
inkovita
inkovite
inkovitega
inkovitejs
inkoviti
inkovito
inkovitost
inkovitosti
innsbruck
innsbrucku
ino
inocenc
inocenca
inom
inoma
inov
inovacije
ins
inscriptions
insee
inside
inska
inske
inskega
inskem
inski
inskih
inskim
inskimi
insko
institucij
institucija
institucije
institut
institute
instrument
instrumente
instrumenti
instrumentov
instva
instvo
instvom
instvu
int
integral
intelektualcev
intelektualne
intelektualno
inteligenca
inteligence
intelligence
intenzivne
intenzivno
inter
interakcija
interakcije
interakcijo
interes
interesa
interese
interesi
interesne
interesov
interesu
interior
international
internationale
internet
interneta
internetni
internetu
interpretacija
interpretacije
interpretacijo
interval
intervencije
interview
intervju
intervjuju
into
intoistic
introduction
inu
invalidov
invazija
invazije
invaziji
invazijo
inz
io
ion
iona
ione
ioni
ionov
iowa
ip
ipa
ipd
ipe
ipke
ipo
ir
ira
irak
iraka
iraku
iral
irala
iran
irana
iranske
iranski
iransko
iranu
iraq
iras
irek
ireland
iren
irena
irene
ireno
iri
irija
irije
iriji
irijo
iril
irila
irile
irili
irilo
irina
irine
irini
irino
iris
irish
iritev
iriti
iritve
iritvi
iritvijo
irja
irjanje
irjen
irjena
irjene
irjeni
irjenih
irjenja
irjenje
irjenjem
irjenju
irjeno
irjenost
irjenosti
irma
irna
irne
irnem
irni
irno
iro
irok
iroka
iroke
irokega
irokem
iroki
irokih
irokim
irokimi
iroko
irom
iron
ironic
ironija
irs
irska
irske
irskega
irskem
irski
irskih
irsko
irvine
irving
is
isa
isaac
isbn
ise
iser
iserja
iserjev
iserji
iserka
iskal
iskala
iskale
iskali
iskanja
iskanje
iskanjem
iskanju
iskat
iskati
iskra
iskre
iskrena
iskreno
isla
islam
islama
islamic
islamska
islamske
islamskega
islamskem
islamski
islamskih
islamsko
island
islandija
islandije
islandiji
islands
isle
iso
isonzo
israel
issn
issue
ist
ista
istanbul
iste
istega
istejs
istem
isti
istic
istih
istil
istila
istili
istim
istimi
istina
istini
istiti
istituto
isto
istoc
istoimenske
istoimenskega
istoimenskem
istoimenski
istoimensko
istost
istosti
istotako
istra
istre
istri
istro
istrske
istrski
istrsko
istva
it
ita
itaj
itajo
itajoc
itak
ital
itala
itali
italia
italian
italiana
italiani
italiano
italija
italijan
italijani
italijanov
italijans
italijanska
italijanske
italijanskega
italijanskem
italijanski
italijanskih
italijanskim
italijanskimi
italijansko
italije
italiji
italijo
italnica
italnice
italnici
italo
italy
itam
itamo
itanja
itanje
itati
itd
ite
itek
itelj
itelja
itelje
iteljem
iteljev
itelji
iteljica
iteljice
iteljico
iteljis
iteljski
itelju
iten
itena
itene
iteni
itenih
iteno
itev
iti
itijo
itil
itila
itili
ititi
itja
itje
itju
itka
itke
itki
itkom
itkov
itku
itn
itna
itne
itnega
itni
itnic
itnica
itnicah
itnice
itnih
itnik
itnika
itnis
itno
ito
itom
its
itu
itvah
itvami
itve
itvi
itvijo
iu
iucn
iupac
ius
iv
iva
ivahen
ivahna
ivahne
ivahnejs
ivahni
ivahno
ivaj
ivajo
ival
ivala
ivali
ivalih
ivalim
ivalis
ivalmi
ivalo
ivalska
ivalske
ivalskega
ivalski
ivalskih
ivalsko
ivalstvo
ivam
ivan
ivana
ivanc
ivanja
ivanje
ivanjem
ivanju
ivanka
ivanko
ivano
ivanom
ivanov
ivanovic
ivanu
ivara
ivat
ivati
ivc
ivca
ivce
ivcev
ivci
ive
ivec
ivega
ivel
ivela
ivele
iveli
ivelih
ivelo
ivem
iveti
ivetja
ivetje
ivez
ivi
ivic
ivica
ividno
ivih
ivijo
ivil
ivila
ivili
ivilja
ivim
ivimi
ivimo
ivina
ivinc
ivine
ivini
ivino
ivinorejo
ivio
ivis
ivita
ivite
ivitev
iviti
ivka
ivke
ivko
ivlja
ivljajo
ivljal
ivljala
ivljali
ivljanja
ivljanje
ivljati
ivljenj
ivljenja
ivljenje
ivljenjem
ivljenjepis
ivljenji
ivljenjska
ivljenjske
ivljenjskega
ivljenjski
ivljenjskih
ivljenjsko
ivljenju
ivo
ivot
ivota
ivotu
ivs
ix
iz
iza
izabela
izak
izaka
izba
izbe
izbere
izberejo
izbi
izbira
izbiral
izbirati
izbirc
izbire
izbiri
izbiro
izbo
izboc
izboljs
izbor
izbora
izborno
izboru
izbral
izbrala
izbrali
izbran
izbrana
izbrane
izbrani
izbranih
izbrano
izbrati
izbris
izbrisati
izbruh
izbruha
izbruhi
izbruhne
izbruhnil
izbruhnila
izbruhom
izbruhov
izbruhu
izc
izd
izda
izdaj
izdaja
izdajah
izdajajo
izdajal
izdajala
izdajalca
izdajalec
izdajati
izdaje
izdaji
izdajo
izdajstvo
izdal
izdala
izdali
izdalo
izdan
izdana
izdane
izdani
izdanih
izdano
izdati
izdatno
izdela
izdelal
izdelala
izdelali
izdelan
izdelana
izdelane
izdelani
izdelanih
izdelano
izdelati
izdelava
izdelave
izdelavi
izdelavo
izdelek
izdelka
izdelke
izdelki
izdelkih
izdelkov
izdeloval
izdelovalec
izdelovali
izdelovanje
izdelovati
izdeluje
izdelujejo
izdihnil
izem
izenac
izg
izgine
izginejo
izginil
izginila
izginile
izginili
izginilo
izginja
izgled
izgleda
izgledu
izgnal
izgnali
izgnan
izgnani
izgnanstva
izgnanstvo
izgnanstvu
izgon
izgonu
izgovarja
izgovarjal
izgovor
izgovori
izgovoril
izgovorila
izgovoriti
izgovorivs
izgovorjava
izgradnja
izgradnje
izgradnji
izgradnjo
izgub
izguba
izgube
izgubi
izgubijo
izgubil
izgubila
izgubile
izgubili
izgubilo
izgubiti
izgublja
izgubljal
izgubljati
izgubljen
izgubljena
izgubljene
izgubljenega
izgubljeni
izgubljenih
izgubljeno
izgubo
izhaja
izhajajo
izhajajoc
izhajal
izhajala
izhajali
izhajalo
izhajati
izhod
izhoda
izhodis
izhodu
izid
izida
izide
izidi
izidom
izidor
izidorja
izidu
izjav
izjava
izjave
izjavi
izjavil
izjavila
izjavo
izjema
izjeme
izjemen
izjemna
izjemne
izjemni
izjemnih
izjemno
izjemo
izjemoma
izkaz
izkazal
izkazala
izkazali
izkazalo
izkazati
izkazuje
izkazujejo
izkljuc
izkopal
izkopali
izkopavanj
izkopavanja
izkopavanji
izkoris
izkoristek
izkoristi
izkoristil
izkoristila
izkoristili
izkoristiti
izkrcanje
izkupic
izkus
izkusil
izlet
izlete
izlez
izlije
izliv
izliva
izlivu
izloc
izloz
izlus
izma
izmed
izmenic
izmenjava
izmenjave
izmenjavo
izmis
izmislil
izmuc
izmuznil
iznad
iznas
iznebil
iznebiti
iznenada
iznic
iznova
izo
izobc
izobilju
izobraz
izobrazba
izobrazbe
izobrazbi
izobrazbo
izogiba
izogibajo
izogibal
izogibanje
izogibati
izogne
izognil
izognila
izognili
izogniti
izola
izolacijo
izotopi
izotopov
izpadel
izpadla
izpadle
izpadli
izpeljal
izpeljana
izpeljati
izpije
izpil
izpila
izpit
izpite
izpiti
izplac
izpod
izpolni
izpolnil
izpolnila
izpolnitev
izpolniti
izpolnjevati
izpolnjuje
izpopolnjeval
izpostavil
izpostavljen
izpostavljena
izpostavljene
izpostavljeni
izpostavljenost
izpostavljenosti
izpoved
izpovedal
izpovedi
izpras
izpraznil
izpred
izpregovori
izpregovoril
izpregovorila
izpregovoriti
izprehod
izprememba
izpremembe
izpremembo
izpremeni
izpremenil
izpremenila
izpremenilo
izprevidel
izpric
izproz
izprva
izpus
izpusti
izpustil
izpustila
izpustili
izpustiti
izrac
izrael
izraela
izraelski
izraelskih
izraelsko
izraelu
izraz
izraza
izraze
izrazi
izrazil
izrazila
izrazili
izrazit
izrazita
izrazite
izraziti
izrazito
izrazom
izrazov
izrazu
izrec
izrecno
izreden
izredna
izredne
izrednega
izredni
izrednih
izredno
izrek
izreka
izrekel
izreki
izrekla
izrekli
izreku
izroc
izs
izsrednost
izstopa
izstopajo
izstopajoc
izstopil
izstopila
izstrelitev
izstrelki
izsus
iztegnil
iztegnila
izteka
izteklo
iztoc
iztok
iztoka
iztrga
iztrgal
iztrgala
iztrgati
izuc
izum
izumil
izumitelj
izumrl
izumrla
izumrli
izustil
izv
izvaja
izvajajo
izvajal
izvajala
izvajalca
izvajalcev
izvajalci
izvajalec
izvajali
izvajanja
izvajanje
izvajanjem
izvajanju
izvajati
izvaz
izve
izvedba
izvedbe
izvedbi
izvedbo
izvede
izvedejo
izvedel
izvedela
izvedeli
izveden
izvedena
izvedene
izvedeni
izvedenih
izvedeno
izvedeti
izvedla
izvedli
izvelic
izvemo
izven
izvesti
izvestno
izvidnis
izvije
izvil
izvila
izvir
izvira
izvirajo
izvirajoc
izvirala
izviren
izviri
izvirna
izvirne
izvirnega
izvirni
izvirnih
izvirnik
izvirnika
izvirniku
izvirno
izvirov
izviru
izvlec
izvlekel
izvod
izvodov
izvoli
izvolil
izvolila
izvolili
izvolite
izvolitev
izvolitve
izvolitvi
izvoljen
izvoljena
izvoljeni
izvor
izvora
izvorno
izvoru
izvos
izvoz
izvoza
izvrs
izvrsten
izvrstna
izvrstno
izvrz
izvzems
izz
izza
izziv
izzivi
izzval
j
ja
jablane
jablanis
jabolc
jabolk
jabolka
jabolko
jac
jack
jackie
jackson
jacob
jacobs
jacopo
jacques
jadra
jadran
jadranskega
jadranskem
jadranski
jadransko
jadranu
jadrno
jadro
jagnje
jagod
jagode
jagodic
jaguar
jaha
jahac
jahal
jahali
jahre
jaime
jajc
jajca
jajce
jajcu
jak
jaka
jake
jakec
jaklic
jako
jakob
jakoba
jakobu
jakopic
jakost
jakosti
jakov
jakovljev
jaks
jam
jama
jamah
jamajs
jamc
jame
james
jamesa
jami
jamie
jamnik
jamo
jamski
jan
jana
janc
jane
janet
janez
janeza
janezek
janezom
janezu
jang
jani
janic
janja
janka
janko
jankovic
janku
janos
jans
januar
januarja
januarjem
januarju
january
janus
janz
jap
japan
japanese
japelj
japonci
japons
japonska
japonske
japonskega
japonskem
japonski
japonskih
japonsko
jar
jarc
jarek
jarem
jarka
jarke
jarki
jarkih
jarkom
jarkov
jarku
jarma
jarnejec
jarnik
jarno
jaroslav
jars
jas
jasen
jasi
jaslice
jasna
jasne
jasnega
jasneje
jasnejs
jasnem
jasni
jasnih
jasnim
jasno
jason
jastreb
jata
jate
java
javi
javier
javil
javna
javne
javnega
javnem
javni
javnih
javnim
javno
javnost
javnosti
javnostmi
javor
javornik
jay
jaz
jazbec
jazz
jazza
jc
je
jean
jeana
jeanne
jec
jecljal
jed
jedel
jeden
jedenkrat
jeder
jedi
jedila
jedina
jedini
jedino
jedjo
jedla
jedli
jedna
jednako
jedne
jednega
jednem
jedni
jedno
jedo
jedra
jedro
jedrom
jedrska
jedrske
jedrskega
jedrski
jedrskih
jedrsko
jedru
jedva
jeff
jefferson
jeffrey
jega
jeglic
jej
jek
jekla
jeklen
jeklene
jekleni
jeklenih
jekleno
jeklo
jel
jela
jelac
jele
jelen
jelena
jelenc
jeleni
jeli
jelica
jelinc
jelka
jelko
jelo
jelovs
jels
jem
jemal
jemala
jemali
jemati
jemlje
jemljejo
jemu
jen
jenko
jennifer
jenny
jensen
jenson
jer
jera
jeraj
jerbas
jerca
jereb
jeremy
jeric
jerica
jerici
jerico
jerman
jernac
jernej
jerneja
jernejc
jerneju
jero
jerome
jerry
jersey
jerusalem
jeruzalem
jeruzalema
jeruzalemskega
jeruzalemski
jeruzalemu
jes
jesen
jeseni
jesenicah
jesenice
jesenis
jesenska
jesenske
jesenskega
jesenski
jesensko
jessica
jest
jesti
jesu
jesus
jet
jeter
jetic
jetnik
jetnika
jetniki
jetnis
jetra
jetrih
jets
jev
jeva
jevgenij
jevi
jewish
jez
jeza
jezdec
jezdeca
jezdecev
jezdeci
jezdi
jezdil
jezdila
jezdili
jeze
jezen
jezer
jezera
jezeri
jezerih
jezero
jezerom
jezersko
jezeru
jezi
jezic
jezik
jezika
jezike
jeziki
jezikih
jezikom
jezikoslovcev
jezikoslovci
jezikoslovec
jezikoslovja
jezikoslovje
jezikov
jezikovna
jezikovne
jezikovni
jezikovnih
jezikovno
jeziku
jezil
jezila
jezili
jezilo
jeziti
jezna
jezni
jezno
jezo
jezu
jezuit
jezuiti
jezuitov
jezuitskega
jezuitski
jezus
jezusa
jezusom
jezusove
jezusovega
jezusovo
jezusu
jeſt
jg
ji
jidel
jih
jihlava
jim
jima
jimi
jimmy
jin
jir
jj
jla
jlib
jm
jn
jo
joa
joachim
joan
job
joc
joe
joel
johan
johann
johanna
johannes
johansson
john
johna
johnny
johnom
johnson
johnu
joj
jok
joka
jokaj
jokaje
jokajo
jokajoc
jokal
jokala
jokali
jokati
jokerit
jokom
joku
jolie
jon
jona
jonas
jonathan
jones
jonski
jopic
jordan
jordaniji
jorge
jos
jose
josef
joseph
josepha
josip
josipa
josipina
journal
journey
jovan
jovana
jovanovic
joyce
joz
jp
jpg
jpl
jr
js
jstor
jt
ju
juan
juana
jud
juda
judd
jude
judez
judi
judita
judje
judom
judov
judovska
judovske
judovskega
judovski
judovskih
judovsko
judovstvo
juels
jug
juga
jugoslavija
jugoslavije
jugoslaviji
jugoslavijo
jugoslovanska
jugoslovanske
jugoslovanskega
jugoslovanski
jugoslovanskih
jugoslovansko
jugoton
jugovzhodne
jugovzhodnem
jugovzhodni
jugovzhodno
jugovzhodu
jugozahodnem
jugozahodni
jugozahodno
jugozahodu
jugu
juha
juhe
juho
jul
jula
julc
jules
julia
julian
julie
julien
julij
julija
julijan
julijana
julijanskem
julijem
julijske
julijskih
juliju
julio
julius
julka
july
jun
junak
junaka
junake
junaki
junakinja
junakom
junakov
junaku
junas
june
jung
juni
junij
junija
junijem
juniju
junior
junkers
juno
jupiter
jupitra
jur
jura
juraj
jurc
jurca
jure
juri
juric
jurij
jurija
jurijem
juriju
juris
jurja
jurko
jus
just
justice
justin
justina
justinijan
justinijana
jusuf
jut
juta
jutra
jutranja
jutranje
jutranjem
jutranji
jutranjih
jutranjo
jutri
jutro
jutru
juvan
juz
jv
jz
k
ka
kabine
kabinet
kabineta
kabinetu
kabino
kac
kacega
kad
kadar
kadarkoli
kader
kadet
kadi
kadil
kadila
kadilo
kadrov
kaf
kah
kai
kairo
kairu
kaiser
kaj
kaja
kajenje
kajetan
kajne
kajo
kajpada
kajpak
kajti
kajz
kak
kaka
kake
kakega
kakem
kakemu
kakers
kaki
kakih
kakim
kakimi
kako
kakor
kakorkoli
kakors
kakos
kakov
kakovost
kakovosti
kakrs
kaks
kal
kala
kalan
kalcija
kalcijev
kale
kali
kalibra
kalif
kalifa
kalifata
kalifornija
kalifornije
kaliforniji
kalijev
kam
kama
kambodz
kambos
kamc
kamen
kamena
kamenc
kamene
kameni
kameniti
kamenitih
kamenja
kamenje
kamenjem
kamenju
kamere
kamero
kami
kamila
kamin
kamna
kamne
kamni
kamnik
kamnika
kamniku
kamnin
kamnina
kamninah
kamnine
kamnis
kamnit
kamnita
kamnite
kamnitega
kamniti
kamnitih
kamnitim
kamnitimi
kamnito
kamnolom
kamnoloma
kamnom
kamnov
kamnu
kamo
kamor
kamorkoli
kampanja
kampanje
kampanji
kampanjo
kamro
kan
kana
kanada
kanadc
kanade
kanadi
kanado
kanadska
kanadske
kanadski
kanadskih
kanadsko
kanal
kanala
kanalc
kanale
kanali
kanalih
kanalov
kanalu
kanarc
kanat
kanata
kanc
kancler
kanclerja
kandal
kandidat
kandidata
kandidate
kandidati
kandidatov
kandidaturo
kandidiral
kane
kaneda
kani
kanje
kanjon
kano
kanon
kanonik
kanov
kansas
kanski
kant
kanton
kantona
kantoni
kantonov
kantonu
kantor
kanu
kao
kaos
kaotic
kap
kapa
kapaciteta
kapaciteto
kape
kapel
kapela
kapelan
kapele
kapeli
kapelica
kapelice
kapelici
kapelico
kapelo
kapetan
kapi
kapital
kapitala
kapitalistic
kapitalizem
kapitalizma
kapitan
kapitana
kapitanu
kapitel
kapiteli
kapitelj
kapitulaciji
kaplan
kaplana
kaplanu
kaplja
kaplje
kapljic
kapljica
kapljice
kapljico
kapljo
kapo
kappa
kar
kara
karakteristic
karakteristike
karantanija
karate
karavanke
karbonat
kardinal
kardinala
kardinali
kardinalov
karel
karen
kari
kariera
kariere
karieri
kariero
karin
karje
karkoli
karl
karla
karlo
karlom
karlovec
karlovs
karlu
karol
karola
karolina
karolins
kart
karta
kartaz
karte
kartezic
karti
kartice
karto
karton
kartus
kas
kaset
kaseta
kasij
kasneje
kasnejs
kasta
kaste
kastelic
kastiljski
kasto
kat
kata
katalog
katalogu
katarina
katarine
katarini
katarino
katastrofa
katastrofe
katastrofo
kate
katedra
katedrala
katedrale
katedrali
katedre
kategorij
kategorija
kategorijah
kategorije
kategoriji
kategorijo
katehet
katekizem
katera
katere
katerega
katerej
katerekoli
katerem
kateremu
kateri
katerih
katerikoli
katerim
katerima
katerimi
katero
katerokoli
katherine
kati
katica
katinka
katja
katle
katlo
katolic
katolis
katra
katri
katrica
kaunas
kava
kavalir
kavarna
kavarne
kavarni
kavarno
kavc
kave
kavi
kavkas
kavkaz
kavkaza
kavkazu
kavo
kaz
kazahstan
kazal
kazala
kazalca
kazalcem
kazale
kazalec
kazali
kazalo
kazan
kazati
kazen
kazenskega
kazenskem
kazenski
kazenskih
kazensko
kazimir
kazimirja
kazni
kaznijo
kazniva
kaznivega
kaznivih
kaznivo
kaznoval
kaznovali
kaznovan
kaznovani
kaznovati
kaznuje
kb
kc
kd
kda
kdaj
kde
kder
kdo
kdor
kdorkoli
kdove
ke
keber
kec
kedaj
kedar
kedo
kega
keith
kej
kekca
kekec
kel
kelih
keller
kelly
kelti
keltski
keltsko
kem
kemic
kemija
kemije
kemiji
kemijo
kemijska
kemijske
kemijski
kemijskih
kemijsko
kemik
kemikalij
kemikalije
kemiki
kempten
kemu
ken
kenda
keniji
kennedy
kenneth
kent
kentucky
kepa
ker
keramic
keramika
keramike
keramiko
kerc
kermauner
kern
kers
kersnik
kervi
kes
kesal
kesanja
kesanje
kesfehe
kette
kevin
key
kg
khan
khl
ki
kic
kidric
kiga
kih
kije
kijev
kijeva
kijevske
kijevski
kijevu
kilogramov
kilometer
kilometra
kilometre
kilometrov
kim
kima
kimal
kimi
kin
kina
kinc
kind
kinematografih
kinetic
king
kingdom
kings
kinja
kino
kinu
kip
kipa
kipar
kiparja
kiparjev
kiparji
kiparstva
kiparstvo
kipe
kipec
kipelo
kipi
kipom
kipov
kipu
kir
kira
kirche
kirurg
kirurs
kis
kisik
kisika
kisikom
kisla
kislin
kislina
kisline
kislino
kislo
kiss
kit
kita
kitajci
kitajs
kitajska
kitajske
kitajskega
kitajskem
kitajski
kitajskih
kitajsko
kitami
kitara
kitare
kitarist
kitaristi
kitaro
kite
kiti
kitic
kitica
kitice
kito
kitov
kitt
kj
kje
kjer
kjerkoli
kjo
kjoto
kjotu
kk
kkinen
kl
kla
kladiva
kladivo
kladivom
kladnik
klagenfurt
klan
klana
klanc
klanca
klancu
klander
klanec
klanja
klanjam
klara
klarica
klarinet
klas
klasic
klasicistic
klasifikacija
klasifikaciji
klasje
klati
klatil
klaus
klavdij
klavdija
klaviature
klavir
klavirja
klavirju
klavirski
klavrno
kle
klec
klein
kleine
klel
klemen
klemena
klemenc
klement
kleopatra
klepec
kles
klet
kletev
kleti
kletki
kletko
klic
klica
klical
klicala
klicali
klicalo
klicanje
klicat
klicati
klice
klici
klima
klin
klinar
klinc
klinic
klis
kljub
kljuc
kljuko
kljun
kljunom
klo
klobas
klobase
klobaso
klobc
klobuc
klobuk
klobuka
klobuke
klobuki
klobukom
klobuku
klop
klopc
klopeh
klopi
klorid
klorida
klos
klotilda
klub
kluba
klube
klubi
klubih
klubom
klubov
klubska
klubski
klubu
klun
km
kmalo
kmalu
kmec
kmet
kmeta
kmete
kmeti
kmetic
kmetica
kmetih
kmetij
kmetija
kmetije
kmetiji
kmetijo
kmetijska
kmetijske
kmetijski
kmetijskih
kmetijsko
kmetijstva
kmetijstvo
kmetijstvom
kmetijstvu
kmetis
kmetje
kmetom
kmetov
kmetska
kmetske
kmetskega
kmetski
kmetskih
kmetsko
kmetu
kn
kneginja
knez
kneza
kneze
knezi
knezom
knezos
knezov
knezu
knight
kninske
knjig
knjiga
knjigah
knjigami
knjige
knjigi
knjigo
knjiz
know
knowledge
ko
koalicija
koalicije
koalicijo
kobajas
kobal
kobarid
kobayashi
kobe
kobila
kobilica
kobilice
kobilo
koc
kocbek
kocelj
koch
kocjan
kocjanc
kocka
kocke
kod
koda
kodb
kodba
kodbe
kodbi
kodbo
kode
kodeks
koder
kodi
kodljiv
kodljiva
kodljive
kodljivih
kodljivo
kodnine
kodnino
kodo
kodoval
kodovala
kodovali
kodovalo
kodovan
kodovana
kodovane
kodovani
kodovanih
kodovano
kodovati
kodoz
kodre
kodri
koduje
kodujejo
koeficient
kof
kofa
kofe
kofi
kofij
kofija
kofije
kofiji
kofijo
kofijski
kofja
kofje
kofjelos
kofji
kofjo
kofom
kofov
kofovska
kofovske
kofovski
kofovsko
kofu
koga
kogar
kognitivne
kogoj
koj
koja
koje
kojega
koji
kojih
kok
kokain
kokaina
kokalj
koker
kokos
koku
kol
kola
kolac
kolar
kole
koledar
koledarja
koledarju
kolega
kolegi
kolegij
kolegija
kolegiju
kolegom
kolektivno
kolen
kolena
kolenc
koleni
kolenih
koleno
kolenu
koles
kolesa
kolesar
kolesarji
kolesarska
koleselj
kolesi
kolesih
kolesom
kolesu
koli
kolic
kolidz
kolika
koliko
kolikokrat
kolikor
kolikrat
koliks
kolis
koljk
koljke
kolo
kolobar
kolodvor
kolodvora
kolodvoru
koloman
kolona
kolone
kolonialne
kolonij
kolonija
kolonijah
kolonije
koloniji
kolonijo
kolonisti
kolono
kolovozu
kolovrat
kolovs
kolpe
kolpi
kolubarskega
kolumb
kolumbija
kolumbije
kolumbiji
kolumna
kom
koma
komac
komaj
komandant
komandanta
komandir
komar
kombinacija
kombinacije
kombinaciji
kombinacijo
komedija
komedije
komediji
komedijo
komentar
komentarji
komentiral
komercialne
komercialni
komercialnih
komercialno
komet
kometa
kometi
kometov
komic
komik
komisar
komisarja
komisarji
komisija
komisije
komisiji
komisijo
komite
komiteja
komnen
komnena
komolcem
komolci
komolec
komora
komore
komoro
kompetenc
kompilacija
kompilacije
kompilacijski
kompleks
kompleksa
kompleksna
kompleksne
kompleksnih
kompleksno
kompleksu
komponent
komponenta
komponente
komponenti
komponento
kompozicija
kompozicije
kompozicijo
kompromis
komtesa
komu
komune
komuniciranje
komunikacija
komunikacije
komunikacijo
komunikacijske
komunikacijski
komunist
komunisti
komunistic
komunistov
komunizem
komunizma
komur
kon
konc
konca
koncem
koncentracija
koncentracijah
koncentracije
koncentracijo
koncentracijskega
koncentracijsko
koncept
koncepta
koncepti
koncert
koncerta
koncerte
koncerti
koncertih
koncertna
koncertni
koncertom
koncertov
koncertu
koncev
konci
koncih
koncil
koncila
koncilu
koncu
kone
konec
konfederacija
konfederacije
konferenc
konferenca
konference
konferenci
konferenco
konflikt
konflikta
konflikti
konfliktov
konfliktu
kong
kongo
kongregacije
kongres
kongresa
kongresu
konic
konice
konico
konj
konja
konje
konjem
konjenica
konjenice
konjenico
konjeniki
konjenikov
konjenis
konjev
konji
konjic
konjicah
konjice
konjih
konjikov
konjis
konjska
konjske
konjski
konjskih
konjsko
konju
konkretno
konkurenc
konkurenca
konkurence
konkurenci
konkurenco
konrad
konrada
kons
konservatoriju
konstancij
konstanta
konstante
konstantin
konstantina
konstantinopel
konstantinopla
konstantinoplu
konstantno
konstanto
konstrukcija
konstrukcije
konstrukcijo
konstruktor
kontekst
konteksta
kontekstu
kontesa
kontrast
kontrola
kontrole
kontrolo
kontrolor
konvencija
konvencije
konvencijo
konvoj
konzul
konzula
konzulat
koordinate
koordinatni
kopa
kopac
kopal
kopala
kopali
kopalis
kopanje
kopati
kopel
kopeli
kopenska
kopenske
kopenski
kopenskih
kopensko
koper
kopic
kopica
kopico
kopij
kopija
kopije
kopijo
kopit
kopita
kopitar
kopiti
kopito
kopja
kopje
koplje
kopnega
kopnem
kopno
kopra
kopriva
koprivnis
koprnec
koprnenje
koprodukcija
kopru
kor
kora
korac
korajz
korak
koraka
korakal
korakala
korakali
korake
koraki
korakih
korakom
korakov
koraku
koran
korana
korc
kore
korec
koreja
koreje
koreji
korejo
korejske
korejski
koren
korena
korenc
korenin
korenina
koreninami
korenine
korenino
korenito
korenjak
korenu
korint
korintski
korist
koristen
koristi
koristil
koristilo
koristna
koristne
koristnega
koristno
korita
koritnik
korito
koritu
korlevic
korne
kornelija
kornje
kornji
korom
koros
korporacije
korporal
korpus
korpusa
korpusov
kortejo
koru
korun
korupcije
koruza
koruze
koruzo
korvete
korzika
korzike
korzis
kos
kosa
kosce
kosci
kose
kosec
kosi
kosil
kosila
kosilo
kosilu
koslovas
kosmac
koso
kosom
kosov
kosova
kosovel
kosovo
kosovu
kospalota
kost
kostanj
kostanjev
kostanjevica
kostanji
kosteh
kosti
kosu
kot
kota
kotanje
kote
kotel
koti
kotic
kotih
kotla
kotlina
kotline
kotlini
kotlino
kotlu
kotnik
kotom
kotor
kotov
kotska
kotske
kotskega
kotskem
kotski
kotsko
kotu
kov
kova
kovac
koval
kovala
kovalainen
kovali
kovance
kovancev
kovanci
kovancih
kovanec
kovanje
kovas
kovati
kovc
kove
kovega
kovi
kovic
kovih
kovin
kovina
kovine
kovino
kovinska
kovinske
kovinski
kovinskih
kovinsko
kovo
koz
koza
kozak
kozaki
kozakov
kozarc
kozarca
kozarce
kozarcev
kozarci
kozarcu
kozarec
kozas
koze
kozel
kozina
kozjak
kozje
kozji
kozla
kozlevc
kozlic
kozma
kozmetic
kozmic
kozo
kozolec
kp
kpj
kps
kr
kra
krac
krade
kradel
kragulj
kraigher
krain
kraj
kraja
krajc
krajcar
krajcarja
krajcarjev
kraje
krajem
krajev
krajevna
krajevne
krajevni
krajevnih
krajevno
kraji
krajih
krajina
krajine
krajini
krajino
krajinski
krajnc
krajs
kraju
krak
kraka
krako
krakov
krakovu
kralj
kralja
kralje
kraljem
kraljestev
kraljestva
kraljestvo
kraljestvom
kraljestvu
kraljev
kraljeva
kraljeve
kraljevega
kraljevem
kraljevi
kraljevic
kraljevih
kraljevim
kraljevina
kraljevine
kraljevini
kraljevino
kraljevo
kraljevska
kraljevske
kraljevski
kraljevsko
kralji
kraljic
kraljica
kraljice
kraljici
kraljico
kralju
kraljuje
kramar
kramer
kranj
kranja
kranjc
kranjci
kranjec
kranjska
kranjske
kranjskega
kranjskem
kranjski
kranjskih
kranjsko
kranju
krapinsko
kras
krasa
krasen
krasi
krasijo
krasna
krasne
krasnega
krasni
krasnih
krasno
krasota
krasote
krasoti
krasoto
krastac
krasti
krasu
krat
kratek
krater
kraterja
krati
kratica
kratice
kratje
kratka
kratke
kratkega
kratkem
kratki
kratkih
kratkim
kratkimi
kratko
kratkoc
kratkoroc
kratni
krav
krava
krave
kravo
kraz
krc
krdela
krdelo
krec
kredo
kreft
kregar
krek
kremen
kremena
kremplje
kremplji
kremz
krene
krenil
krenila
krenili
krepak
krepc
krepi
krepitev
krepka
krepke
krepkega
krepki
krepkih
krepkim
krepko
krepost
kreposti
kres
kresnic
kresnice
kresnik
kresu
kreti
kretnje
kretnjo
kri
kric
kriegsmarine
krije
krik
kriki
krikne
kriknil
kriknila
krikom
kril
krila
krili
krilih
krilo
krilom
krilu
krim
krima
kriminala
kriminalni
krimski
krimu
krinko
kripal
kripala
kriplje
kripta
kripti
kris
krista
kristal
kristali
kristalne
kristalni
kristalno
kristalov
kristan
kristijan
kristina
kristjan
kristjana
kristjane
kristjani
kristjanom
kristjanov
kristjanu
kristus
kristusa
kristusom
kristusov
kristusovega
kristusovo
kristusu
kriterij
kriteriji
kritic
kritik
kritika
kritike
kritiki
kritiko
kritikov
kritiziral
kritizirali
kriv
kriva
krivda
krivde
krivdi
krivdo
krive
krivec
krivega
krivem
krivi
krivic
krivica
krivice
krivici
krivico
krivo
krivulja
krivulje
krivuljo
kriz
kriza
krize
krizi
krizo
krjanc
krjanec
krjavelj
krk
krka
krke
krki
krko
krlez
krmar
krmarja
krme
krmi
krmilo
krmo
kro
krog
kroga
kroge
krogel
krogi
krogih
krogla
krogle
krogli
kroglice
kroglo
krogom
krogov
krogovic
krogu
krohot
krojac
krokar
krokodil
krompir
krompirja
kron
krona
kronal
kronan
kronanja
kronanje
kronanju
krone
kroni
kronic
kronika
kronike
kroniki
kronist
krono
kronologija
kronolos
kronski
kropi
kros
krov
krovni
krovu
kroz
krpan
krs
krst
krsta
krste
krsti
krstil
krstili
krstilnica
krstiti
krstna
krstni
krstnik
krstnika
krstno
krsto
krstu
krt
krtac
kruh
kruha
kruhom
kruhu
krus
krut
kruta
kruti
kruto
krvav
krvava
krvave
krvavec
krvavega
krvavi
krvavih
krvavitev
krvavitve
krvavo
krvi
krvjo
krvne
krvnega
krvni
krvnic
krvnih
krvno
krvoloc
krym
krz
ks
ksaver
ksenija
kte
ktera
ktere
kterega
kterej
kterem
kteremu
kteri
kteriga
kterih
kterim
kterimi
ktero
ku
kuba
kubi
kubic
kubica
kuc
kud
kuga
kuge
kugo
kuha
kuhal
kuhala
kuhali
kuhanje
kuhar
kuharica
kuharico
kuhati
kuhinja
kuhinje
kuhinji
kuhinjo
kuje
kukavica
kult
kulta
kultu
kultur
kultura
kulturah
kulture
kulturi
kulturna
kulturne
kulturnega
kulturnem
kulturni
kulturnih
kulturno
kulturo
kum
kumar
kuna
kunaver
kunc
kunst
kup
kupa
kupc
kupca
kupci
kupe
kupec
kupi
kupico
kupil
kupila
kupili
kupim
kupiti
kupo
kupol
kupola
kupole
kupoli
kupolo
kupoval
kupovali
kupovati
kupu
kupuje
kur
kura
kurat
kure
kurent
kurije
kurnik
kurt
kus
kushiro
kuz
kuzma
kv
kvadrat
kvadrata
kvadratna
kvadratne
kvadratni
kvadratnih
kvadratno
kvadratov
kvalifikacij
kvalifikacijah
kvalifikacije
kvalitete
kvaliteto
kvantna
kvantne
kvantni
kvantno
kvartet
kvas
kvec
kveder
kvintet
kvis
kvjat
kw
kwong
kylie
kz
l
la
labe
labirint
labod
laboratorij
laboratorija
laboratoriju
lac
lada
ladij
ladija
ladije
ladiji
ladijo
ladijske
ladijski
ladislav
ladislava
ladja
ladjah
ladjam
ladjami
ladje
ladjedelnici
ladjevja
ladjevje
ladji
ladjo
lado
lady
lagal
lagala
lagati
laglje
lago
laguna
lagune
lah
lahek
lahen
lahi
lahka
lahke
lahkega
lahki
lahkih
lahko
lahkomiselno
lahkotno
lahkoto
lahkoz
lahna
lahno
lahta
lahtna
lahtni
laibach
laibacher
laic
lains
lajal
lajs
lak
lake
lakersi
lakota
lakote
lakoto
lam
lambda
lamberg
lambert
lamborghini
lampe
lan
lana
lance
land
landes
landscape
lane
lanek
lang
lange
langle
langobardi
langobardov
language
languages
languedoc
lani
lanic
lanica
lanice
lanka
lanke
lanki
lankih
lankov
lanku
lanom
lanov
lanska
lanske
lanski
lansko
lanstvo
lanu
lapajne
lara
larrousse
larry
lars
las
lase
laseh
laser
lasje
lasmi
last
lasten
lasti
lastna
lastne
lastnega
lastnem
lastni
lastnica
lastnih
lastnik
lastnika
lastniki
lastnikom
lastnikov
lastniku
lastnim
lastnimi
lastnina
lastnine
lastnino
lastnis
lastno
lastnoroc
lastnost
lastnosti
lastnostih
lastnostmi
lat
late
later
latin
latins
latinska
latinske
latinskega
latinskem
latinski
latinskih
latinsko
latvija
latvije
latviji
latvijski
lauda
laura
laurence
laurent
lava
laval
lavdon
lave
lavigne
lavra
lavric
law
lawrence
laz
lazar
lazarja
laze
lazi
lazil
lb
lc
ld
ldots
lds
le
lea
leafs
league
learning
leb
leben
lec
leca
leclerc
led
ledena
ledene
ledeni
ledenih
ledenik
ledenika
ledeniki
ledenikov
ledenis
ledeno
ledom
ledu
ledvic
ledvice
lee
left
lega
legacy
legah
legal
legat
lege
legel
legend
legenda
legendarni
legende
legendi
legendo
legi
legij
legija
legije
legijo
legislature
legla
leglo
lego
legovic
lehko
leiden
leipzig
leipzigu
lej
lejte
lek
leksands
leksikon
leksikonografski
lem
len
lena
lenard
lenart
lenarta
lenartu
lenc
lendava
lene
leni
lenica
lenin
lenina
leningrad
lenka
lenkovic
lennon
leno
lenom
lenonoz
lenov
lenu
leo
leon
leona
leonard
leonarda
leonardo
leone
leonhard
leonid
leonija
leonora
leonu
leopard
leopold
leopolda
lep
lepa
lepe
lepega
lepem
lepi
lepih
lepim
lepimi
lepo
leposlovje
leposlovnih
lepota
lepote
lepoti
lepotic
lepotica
lepoto
leps
ler
les
lesa
lesce
lesen
lesena
lesene
lesenega
lesenem
leseni
lesenih
lesenim
lesenimi
leseno
lesjak
leskec
lesketajoc
leskovec
leslie
lesom
lestev
lestve
lestvi
lestvic
lestvica
lestvicah
lestvice
lestvici
lestvico
lesu
let
leta
letajo
letal
letala
letali
letalih
letalis
letalo
letalom
letalonosilke
letalska
letalske
letalskega
letalski
letalskih
letalsko
letalstva
letalstvo
letalstvu
letalu
lete
letec
letel
letela
letele
leteli
letelo
letenja
letenje
leteti
leti
letih
letijo
letina
letja
letje
letju
letn
letna
letne
letnega
letnem
letni
letnica
letnice
letnici
letnico
letnih
letnik
letnika
letniku
letno
leto
letom
letoma
letopis
letos
letovis
letter
letters
letu
lev
leva
leve
levec
levega
levem
levi
levic
levica
levice
levici
levico
levim
levo
levov
levstik
levu
levy
lewis
lex
lexicon
lexikon
lez
leze
lezel
lezi
lezije
lezla
li
libanon
libanonu
liber
liberalci
liberalna
liberalne
liberalni
liberalno
liberta
liberty
library
libreto
libri
libus
lic
lica
lice
licem
licenc
licence
licenco
lici
licih
lico
licu
lidija
lie
liebe
life
liga
ligas
lige
light
lightning
ligi
ligier
ligo
lih
lihtens
lija
lije
lik
lika
likar
like
liki
liko
likov
likovna
likovne
likovni
likovnih
likovno
liku
lil
lila
lili
lilija
lilije
lilo
lim
lima
limbarski
limited
lin
lina
lincoln
linda
lindsay
line
linear
linearna
linearne
linearni
linearno
lines
lingua
linhart
lini
linij
linija
linije
liniji
linijo
link
lino
linux
linz
lion
lions
lipa
lipe
lipi
lipo
lipovec
lipovs
lir
liric
lirika
lirike
lis
lisa
lisbeth
lise
lisec
lisic
lisica
lisice
lisico
lisjak
liso
list
lista
liste
listek
listi
listic
listih
listin
listina
listinah
listine
listini
listino
listja
listje
listjem
listju
listnico
listo
listom
listov
listu
lit
litanije
liter
literarna
literarne
literarnega
literarnem
literarni
literarnih
literarno
literary
literat
literatur
literatura
literature
literaturi
literaturo
litija
litiji
litovska
litovske
litovski
litovsko
litra
litrov
little
liturgic
litva
litve
litvi
litvo
liu
live
liverpool
lives
livij
living
lix
liz
liza
lizika
lizo
lj
lja
ljaj
ljaje
ljajo
ljal
ljala
ljali
ljam
ljanja
ljanje
ljanju
ljati
lje
ljejo
ljem
ljen
ljena
ljene
ljenega
ljeni
ljenih
ljenja
ljenje
ljenju
ljeno
ljenosti
ljeval
ljevala
ljevanja
ljevanje
ljevanju
ljevati
lji
ljija
ljije
ljiji
ljijo
ljite
ljiv
ljiva
ljive
ljivega
ljivi
ljivih
ljivim
ljivo
ljivost
ljivosti
ljivostjo
lju
ljub
ljuba
ljubav
ljubavi
ljubc
ljube
ljubec
ljubega
ljubezen
ljubezenska
ljubezenske
ljubezenski
ljubezenskih
ljubezensko
ljubezni
ljubeznijo
ljubezniv
ljubezniva
ljubeznivi
ljubeznivo
ljubeznjivo
ljubi
ljubic
ljubica
ljubice
ljubici
ljubico
ljubijo
ljubil
ljubila
ljubili
ljubilo
ljubim
ljubimca
ljubimec
ljubimo
ljubis
ljubite
ljubitelj
ljubiteljski
ljubiti
ljubka
ljubko
ljubljana
ljubljanc
ljubljane
ljubljani
ljubljanice
ljubljanici
ljubljanico
ljubljano
ljubljanska
ljubljanske
ljubljanskega
ljubljanskem
ljubljanski
ljubljanskih
ljubljansko
ljubljena
ljubljenc
ljubljene
ljubljenec
ljubljenega
ljubljeni
ljubljeno
ljubo
ljubosumen
ljubosumna
ljubosumnost
ljubs
ljude
ljudeh
ljudem
ljudevit
ljudi
ljudij
ljudje
ljudmi
ljudmila
ljudmilo
ljudska
ljudske
ljudskega
ljudskem
ljudski
ljudskih
ljudsko
ljudstev
ljudstva
ljudstvi
ljudstvo
ljudstvom
ljudstvu
ljuje
ljujem
ljutomer
ljutomeru
lkenberg
lko
ll
ller
lloyd
ln
lna
lnu
lo
lobanja
lobanje
lobanjo
loc
lockheed
log
logar
logatec
logic
logika
logike
logiki
logiko
logistic
logotip
logu
loire
lojz
lojza
lojze
lojzeta
lojzka
lok
loka
lokacij
lokacija
lokacijah
lokacije
lokaciji
lokacijo
lokalna
lokalne
lokalnega
lokalnem
lokalni
lokalnih
lokalnim
lokalnimi
lokalno
lokar
loke
loki
loko
lokom
lokomotiv
lokomotiva
lokomotive
lokostrelci
lokov
loku
lola
lom
lomi
lomil
lona
lonc
lonce
london
londona
londonski
londonu
lonec
loneos
long
look
lopato
lope
lopez
lopi
lopo
lopov
lord
lorda
lorenz
lorenza
lorenzo
los
lost
lot
lotar
lotarins
loti
lotil
lotila
lotili
lotiti
lotus
louis
louisa
louise
louvre
louvru
lov
lova
lovca
lovce
lovcem
lovcev
lovci
lovcu
love
lovec
lovek
loveka
lovekom
lovekov
lovekova
lovekove
lovekovega
lovekovih
lovekovo
loveku
loves
lovi
lovijo
lovil
lovila
lovili
lovis
lovit
loviti
lovom
lovre
lovrenc
lovrenca
lovro
lovs
lovska
lovske
lovskega
lovski
lovskih
lovsko
lovu
low
loz
lp
lr
lsm
lsmeds
lt
ltd
lu
lubi
lubje
luburic
luc
luca
lucas
lucia
luciano
lucij
lucija
lucy
ludi
ludovico
ludovik
ludovika
ludvik
ludvika
ludvikom
ludviku
ludwig
luftwaffe
luigi
luis
luisa
luiza
lujiza
luk
luka
lukas
lukather
luke
lukec
lukenj
lukez
luki
luknja
luknje
luknji
luknjo
luko
luksemburg
luksemburs
lun
luna
lunda
lune
luni
lunin
luno
lupina
lupine
lupino
lus
luteranski
luteranstvo
luther
lutk
lutke
luz
ly
lynch
lynn
lynne
lyon
lz
m
ma
mac
macdonald
mach
machine
macmillan
mad
madame
made
madez
madison
madona
madonna
madrid
madrida
madridu
madz
mag
magajna
magazine
magda
magdalena
magdalene
magdeburg
maggiore
magic
magister
magisterij
magistra
magistrat
magistriral
magistrirali
magistrski
magme
magna
magnet
magnetic
magnetnega
magnetni
magnetno
magnitudo
magnus
magnussen
magyar
mah
maha
mahal
mahala
mahmud
mahne
mahnic
mahnil
mahom
mahoma
mahu
mai
main
maine
mainz
maistra
maj
maja
majal
majar
majc
majcen
majda
maje
majem
majer
majhen
majhna
majhne
majhnega
majhnem
majhni
majhnih
majhnim
majhnimi
majhno
maji
majico
majka
majnhalm
majo
major
majorja
maju
mak
makarovic
make
makedonci
makedonija
makedonije
makedoniji
makedonijo
makedonska
makedonske
makedonskega
makedonski
makedonsko
making
maks
maksa
maksim
maksimalno
maksimilijan
maksimilijana
maksimiljan
makso
mal
mala
malc
malce
malcolm
maldonado
male
malec
malega
malem
malemu
malenkost
malenkosti
mali
malic
malico
malih
malik
malika
malim
malimi
malka
malla
malmo
malo
malodus
malokdaj
malokdo
malomarno
malomes
malone
malopridnez
malos
malta
malte
maltes
malti
malto
malvina
mam
mama
mame
mamelus
mami
mamica
mamice
mamici
mamico
mamo
man
mana
management
manca
manchester
mandat
mandata
mandatom
mandatu
mandelc
mandic
mandz
mane
manet
manfred
manfreda
mani
manica
manieristic
manifest
manj
manja
manjka
manjkajo
manjkajoc
manjkalo
manjs
mann
mannheim
mano
manoj
mans
mansa
mansell
manual
manuel
manuela
many
mao
map
maple
maps
mar
mara
marajo
maral
marala
marali
maram
maras
maraton
marc
marca
marcel
marcello
marcem
march
marco
marcu
marcus
mare
marec
margaret
margareta
margarete
margareto
mari
maria
maribor
maribora
mariborska
mariborske
mariborskega
mariborski
mariborsko
mariboru
maric
marica
marici
marico
marida
marie
marij
marija
marijan
marijana
marijanica
marijano
marije
mariji
marijin
marijina
marijine
marijinega
marijino
marijo
marin
marina
marinc
marine
marinka
marino
mario
marion
maritime
marja
marjan
marjana
marjanca
marjanica
marje
marjeta
marjeti
marjetica
marjetka
marju
mark
marka
marke
market
marketing
marki
markiz
markiza
marko
markom
markov
markovic
marksistic
marku
markus
marljivo
marmor
marmorja
marmorni
marn
marne
marno
maro
maroko
marolt
maros
mars
marsa
marseille
marshall
marsic
marsikaj
marsikak
marsikako
marsikatera
marsikateri
marsikatero
marsikdaj
marsikdo
marsikje
marsikoga
marsikomu
marsikteri
marsu
marta
marti
martin
martina
martinc
martinek
martini
martino
martinom
martinu
martno
marto
marus
marussia
marvec
marx
mary
maryland
mas
masa
mase
maserati
masham
masi
masiv
masiva
mask
maska
maske
masko
masla
maslo
maso
mason
mass
massa
massachusetts
massimo
mast
master
mastering
masters
masti
mat
mate
matej
mateja
matematic
matematik
matematika
matematike
matematiki
matematiko
matematikov
mater
matere
materi
material
materiala
materiale
materiali
materialne
materialnih
materialno
materialom
materialov
materin
materina
materine
materinega
materinem
materini
materino
materins
materjo
materni
maternic
matevz
mathbb
mathbf
mathrm
mathworld
mati
matic
matica
matice
matici
matija
matijc
matije
matijec
matiji
matijo
matilda
matizh
matjas
matjaz
matra
matrika
matrike
matrix
matt
matteo
matthew
matthias
maturi
maturiral
maturo
maurer
maurice
maurizio
mauro
mavc
mavric
mavrica
mavricij
mavzolej
max
maxa
maximilian
maximus
maxwell
may
mayer
mayo
mayor
maz
mb
mba
mbox
mc
mccartney
mcdonald
mcdonnell
mclaren
mcnaught
md
mdr
me
mec
mecen
med
medal
medalj
medalja
medalje
medalji
medaljo
media
medic
medical
medici
medicina
medicine
medicini
medicino
medicinska
medicinske
medicinskega
medicinski
medicinskih
medicinsko
medieval
medij
medija
medije
medijev
mediji
medijih
medijske
medijski
medijsko
meditacije
mediterranean
medlo
mednarodna
mednarodne
mednarodnega
mednarodnem
mednarodni
mednarodnih
mednarodnim
mednarodno
mednje
medsebojne
medsebojni
medsebojnih
medsebojno
medtem
medu
medved
medveda
medvedi
medvedov
medvedu
medves
medvode
medz
megla
megle
megleno
megli
meglic
meglica
meglice
meglo
meh
mehak
mehanic
mehanika
mehanike
mehaniki
mehanizem
mehanizma
mehanizme
mehanizmi
mehanizmov
mehanske
mehansko
mehc
mehika
mehike
mehiki
mehiko
mehis
mehka
mehke
mehkega
mehkejs
mehkem
mehki
mehkih
mehkim
mehko
mehkuz
mehmed
mehur
mehurc
meidz
mein
mej
meja
mejac
mejah
meje
meji
mejna
mejne
mejnega
mejni
mejnih
mejnik
mejno
mejo
mel
mela
melanholic
melbourne
melita
melodic
melodija
melodije
melodijo
membrane
membrano
memo
memorial
memory
men
mena
menart
menaz
mencinger
menda
mene
menec
menedz
menges
mengs
meni
menih
meniha
menihe
menihi
menihom
menihov
menijo
menil
menila
menili
menim
menis
menite
menj
menjalnik
menjava
menjave
menjavi
menjavo
meno
menoj
ment
mentor
mentorstvom
mer
mera
merc
mercedes
mercury
mere
meri
merijo
meril
merila
merili
merilo
merilu
meritev
meriti
meritve
merjenja
merjenje
merkur
mero
mes
mesa
mesar
mesca
mesec
meseca
mesece
mesecev
meseci
mesecih
mesecu
meso
mesom
messerschmitt
messina
mest
mesta
mesteca
mestece
mestecu
mesti
mestih
mestna
mestne
mestnega
mestnem
mestnemu
mestni
mestnih
mestnim
mestnimi
mestno
mesto
mestom
mestoma
mestu
mesu
met
meta
metafizic
metal
metala
metali
metati
mete
metelko
meteorolos
meter
metez
meti
metka
metki
metko
metlika
metliki
metlo
meto
metod
metoda
metodami
metode
metodi
metodo
metra
metre
metri
metric
metrih
metro
metropolit
metropolitan
metropolitanski
metropolitansko
metrov
metternich
metu
metulj
metuljc
metuljev
metulji
meuse
mexico
meyer
mez
mezopotamije
mezopotamiji
mezopotamijo
mf
mg
mgl
mi
mia
miami
mic
mica
mich
michael
michaela
michel
michelangela
michelangelo
michele
michelle
michigan
mici
micika
micka
mico
microsoft
mid
mida
middle
midi
midva
mie
mig
migne
mignil
migracije
miguel
miha
mihael
mihaela
mihaelu
mihail
mihajlovic
mihec
mihel
mihelic
miho
mik
mika
mikalo
mike
miki
miklavc
miklavz
miklos
miko
miks
mil
mila
milan
milana
milano
milanski
milanu
milc
mile
milega
milejs
milena
miles
miley
mili
milic
milica
milice
milico
milijard
milijarde
milijon
milijona
milijone
milijoni
milijonov
milim
milimetrov
military
milj
milje
milka
milko
millennium
miller
mills
milo
milos
milost
milosti
milostiva
milostivi
milostljiva
milostljivi
milostna
milostno
milton
mimi
mimica
mimo
mimogrede
mimoidoc
min
mina
minamoto
minardi
minaret
mind
mine
mineral
minerali
mineralov
minerva
ming
mini
minica
minil
minila
minili
minilo
minimalne
minimalno
minister
ministra
ministri
ministrica
ministrom
ministrov
ministrski
ministrstva
ministrstvo
ministrstvu
ministru
ministry
minka
minko
minnesota
mino
minogue
minor
minula
minulo
minus
minut
minuta
minutah
minute
minuti
minuto
mio
mir
mira
miran
mirana
miranda
mire
miren
miri
miril
mirjam
mirka
mirko
mirna
mirne
mirnega
mirnejs
mirnem
mirni
mirnih
mirnim
mirno
miro
mirom
miroslav
mirovna
mirovne
mirovnega
mirovni
mirovnih
mirovno
miru
miruje
mis
misel
miselnost
misija
misije
misijo
misijonar
misijonarji
mislec
misli
mislih
mislij
mislijo
mislil
mislila
mislili
mislim
mislimi
mislimo
mislis
mislita
mislite
misliti
miss
mission
mississippi
missouri
mistic
misto
mit
mita
mitchell
miti
mitja
mitologija
mitologije
mitologiji
mitolos
mix
miz
miza
mizah
mizar
mize
mizi
mizici
mizico
mizo
mjes
mk
ml
mlac
mlad
mlada
mlade
mladec
mladega
mladem
mlademu
mladen
mladenc
mladenec
mladenic
mladenis
mladenka
mladi
mladic
mladih
mladika
mladike
mladim
mladimi
mladina
mladine
mladini
mladino
mladinska
mladinske
mladinskega
mladinskem
mladinski
mladinskih
mladinsko
mlado
mladoletnega
mladost
mladosti
mladostne
mladostni
mladostno
mlajs
mlaka
mlakar
mlake
mlaki
mlb
mlec
mleka
mleko
mlekom
mleku
mlin
mlina
mlinar
mlini
mlinov
mlinu
mm
mmc
mn
mnenj
mnenja
mnenje
mnenju
mnm
mnoga
mnoge
mnogi
mnogih
mnogim
mnogimi
mnogo
mnogokrat
mnogos
mnoz
mo
mobile
mobilne
mobilni
mobilnih
mobilnost
moc
mod
moda
mode
model
modela
modele
modeli
modelih
modelom
modelov
modelu
modena
moder
modern
moderna
moderne
modernega
moderni
modernih
modernistic
moderno
modi
modna
modni
modo
modra
modre
modrega
modrem
modri
modrih
modrijan
modrim
modrimi
modro
modrost
modrosti
modroval
modul
mogel
mogla
mogle
mogli
moglo
mogoc
mohamed
mohameda
mohor
mohoric
mohorja
mohorjeva
mohorjeve
moj
moja
mojca
mojco
moje
mojega
mojej
mojem
mojemu
moji
mojih
mojim
mojimi
mojo
mojster
mojstra
mojstri
mojstrov
mojstrovina
mojstru
mojzes
mok
moka
moke
moker
moko
mokra
mokre
mokri
mokrih
mokris
mokro
mokronog
mol
molc
moldavija
moldavije
mole
molek
molekul
molekula
molekularni
molekule
molekuli
molekulo
moli
molijo
molil
molila
molili
molim
molimo
molite
molitev
moliti
molitve
molitvenik
molitvi
molitvijo
molk
molka
molku
molly
molu
moment
mon
monaka
monarh
monarha
monarhija
monarhije
monarhiji
monarhijo
monde
monet
money
mongoli
mongoliji
mongolov
mongolska
mongolske
mongolskega
mongolski
mongolsko
monika
monografija
monografije
monopol
mons
mont
montana
montaz
monte
montgomery
montoya
montreal
montrealu
montrichard
monuments
monza
moon
moore
mor
mora
morajo
moral
morala
morale
morali
moralna
moralne
moralni
moralnih
moralno
moralo
moram
moramo
moras
morata
morate
morava
moravc
moravis
moravske
moravskem
moravsko
morda
more
morebiti
morebitne
morebitni
morebitnih
morebitno
morec
morejo
morem
moremo
moreno
mores
moreta
morete
moreva
morfolos
morgan
mori
moric
morila
morilca
morilci
morilec
moris
moritz
morja
morje
morjem
morji
morju
mornar
mornarica
mornarice
mornarici
mornarico
mornaris
mornarjev
mornarji
moro
morris
morska
morske
morskega
morskem
morski
morskih
morsko
mos
moscow
moskovske
moskovskem
moskovski
moskva
moskve
moskvi
moskvo
moslavs
moson
mosque
moss
most
mosta
moste
mostic
mostom
mostov
mostove
mostovi
mostovz
mostu
mota
motec
motenj
moti
motijo
motiko
motil
motila
motili
motilo
motim
motion
motis
motite
motiti
motiv
motivacija
motivacije
motivacijo
motive
motivi
motivov
motne
motnja
motnjami
motnje
motnjo
motno
moto
motociklistic
motociklizmu
motor
motoric
motorizirana
motorja
motorje
motorjem
motorjev
motorji
motorju
motornih
motors
motos
motril
mount
mountain
movie
moz
mozaic
mozaik
mozaika
mozaiki
mozaikov
mozart
mozeg
mozga
mp
mph
mr
mrac
mrak
mraka
mrakom
mraku
mravlja
mravlje
mravljis
mraz
mraza
mrazu
mrc
mrez
mrgolelo
mrk
mrka
mrki
mrko
mrkos
mrlic
mrlis
mrmra
mrmral
mrmrala
mrs
mrtev
mrtva
mrtvas
mrtve
mrtvega
mrtvi
mrtvih
mrtvim
mrtvo
mrz
mrzel
mrzla
mrzle
mrzlega
mrzli
mrzlic
mrzlica
mrzlih
mrzlo
ms
mt
mtv
mu
muc
muca
mudi
mudil
mudilo
mugen
muh
muha
muhammad
muhe
muhic
muho
muk
muka
mukah
muke
muko
mula
mura
murat
mure
muren
muri
murko
murn
murnik
muro
murphy
murray
murs
murska
murski
mus
musa
muse
museo
museum
music
muslimani
muslimanov
muslimanska
muslimanske
muslimanski
muslimanskih
muslimansko
mussolini
mustafa
mutacije
muz
muza
muzej
muzeja
muzejem
muzejev
muzeji
muzejih
muzejska
muzejski
muzeju
muzika
muzikal
mv
mw
my
mystery
n
na
nabere
nabira
nabiral
nabirala
nabla
naboj
naboja
nabojev
naboji
nabor
nabora
naborni
naboru
naboz
nabral
nabrala
nabrali
nabralo
nabrez
nac
nace
nach
nacional
nacionalistic
nacionalizem
nacionalna
nacionalne
nacionalnega
nacionalnem
nacionalni
nacionalnih
nacionalno
nacisti
nacistic
nad
nada
nadalje
nadaljeval
nadaljevala
nadaljevale
nadaljevali
nadaljevalo
nadaljevanja
nadaljevanje
nadaljevanju
nadaljevati
nadaljnja
nadaljnje
nadaljnjega
nadaljnji
nadaljnjih
nadaljnjo
nadaljuje
nadaljujejo
nadarjen
nadarjenost
nadc
nade
nadejal
nadejati
nadel
nadeli
nadenj
nadi
nadiz
nadja
nadlego
nadlegoval
nadlez
nadlog
nadloga
nadloge
nadmorska
nadmorske
nadmorski
nadmorsko
nado
nadoblast
nadomes
nadomestek
nadomesti
nadomestil
nadomestila
nadomestili
nadomestilo
nadomestiti
nadomestni
nadporoc
nads
nadstropij
nadstropja
nadstropje
nadstropji
nadstropjih
nadstropju
naduc
nadvojvoda
nadvojvode
nadvse
nadz
nadzira
nadziral
nadzor
nadzora
nadzorni
nadzornik
nadzornika
nadzorom
nadzoroval
nadzorovala
nadzorovali
nadzorovati
nadzoru
nadzoruje
nadzvoc
naenkrat
nafta
nafte
nafto
nagaja
nagajivo
nagel
nagelj
nagib
nagiba
naglas
naglasom
nagle
nagledati
naglici
naglico
naglo
nagloma
nagnal
nagne
nagnil
nagnila
nagnjen
nagnjena
nagnjeni
nagnjenje
nagnjenost
nagon
nagovarjal
nagovor
nagovori
nagovoril
nagrad
nagrada
nagrade
nagradi
nagrado
nagrajen
nagrajena
nagrajenci
nagrajenec
nagrobni
nagrobnik
nahaja
nahajajo
nahajal
nahajala
nahajali
nahajalis
nahajalo
nahajamo
nahajata
nahrbtnik
naivno
naj
najbliz
najbogatejs
najbolj
najbolje
najboljs
najbrz
najc
najdaljs
najdb
najdbe
najde
najdejo
najdem
najdemo
najden
najdena
najdene
najdeni
najdenih
najdeno
najdes
najdeta
najdete
najdis
najdlje
najdragocenejs
najdraz
najel
najela
najeli
najem
najemnik
najemniki
najemnikov
najemnis
najeti
najhitreje
najhitrejs
najhuje
najhujs
naji
najimenitnejs
najin
najina
najine
najinega
najini
najinih
najino
najjuz
najkasneje
najkoristnejs
najkrajs
najkrasnejs
najlaz
najleps
najljubs
najmanj
najmanjs
najmlajs
najmoc
najnevarnejs
najniz
najnovejs
najobsez
najodlic
najoz
najpogosteje
najpogostejs
najpomembnejs
najpoprej
najpotrebnejs
najprej
najpreprostejs
najprimernejs
najprvo
najraje
najrajs
najrazlic
najs
najsevernejs
najsi
najslabs
najslajs
najslavnejs
najsrec
najstarejs
najstnis
najstras
najsvetejs
najsvetlejs
najtez
najti
naju
najuglednejs
najuspes
najvaz
najvec
najverjetneje
najvidnejs
najvis
najvplivnejs
najz
najzanimivejs
najzgodnejs
najznamenitejs
nak
nakar
nakazal
nakazuje
nakazujejo
nakit
nakita
naklada
naklepe
nakljuc
naklon
nakloni
naklonil
naklonjen
naklonjena
naklonjeni
naklonjenost
naklonjenosti
naknadno
nakopal
nakopic
nakrat
nakup
nakupu
nalahko
nalahno
nalas
naletel
naletela
naleteli
naleti
nalil
nalog
naloga
nalogah
naloge
nalogi
nalogo
naloz
nam
nama
namakanje
namaz
name
namen
namena
namene
nameni
namenil
namenila
namenili
namenjen
namenjena
namenjene
namenjeni
namenjenih
namenjeno
namenom
namenoma
namenov
namenski
namensko
namenu
namerava
nameravajo
nameraval
nameravala
nameravali
namere
nameri
nameril
namerno
namero
names
namesti
namestil
namestili
namestitev
namestnik
namestnika
namesto
namestu
nami
namignil
namiguje
namis
namoc
namrec
namrs
nana
nanas
nancy
nande
nanj
nanje
nanjo
nanos
naoc
naokoli
naokrog
napac
napad
napada
napadajo
napadal
napadalca
napadalci
napadalec
napadali
napadati
napade
napadejo
napadel
napadi
napadih
napadla
napadle
napadli
napadom
napadov
napadu
napaja
napak
napaka
napake
napako
napasti
napel
napeta
napete
napeti
napeto
napetost
napetosti
napetostjo
napev
napije
napil
napis
napisa
napisal
napisala
napisali
napisan
napisana
napisane
napisani
napisanih
napisano
napisati
napise
napisi
napisih
napisom
napisov
napisu
napo
napoc
napol
napoleon
napoleona
napoleonovih
napoleonovo
napoleonu
napoli
napolni
napolnil
napolnila
napolnili
napolnjen
napolnjena
napolnjene
napolnjeno
napor
napora
napori
naporno
naporom
naposled
napoti
napotil
napotila
napotili
napove
napoved
napovedal
napovedala
napovedali
napovedi
napoveduje
napram
naprav
naprava
napravah
napravami
naprave
napravi
napravijo
napravil
napravila
napravili
napravilo
napravim
napraviti
napravlja
napravljen
napravo
napredek
napredka
napredku
napredne
napredno
napredoval
napredovala
napredovali
napredovalo
napredovanja
napredovanje
napreduje
napredujoc
naprej
naprodaj
naproti
napuh
nar
nara
narahlo
naramenska
naras
narasla
naraslo
narava
narave
naraven
naravi
naravna
naravne
naravnega
naravnem
naravni
naravnih
naravnim
naravnimi
naravno
naravnost
naravo
naravoslovec
naravoslovja
naravoslovje
narazen
narec
naredi
naredijo
naredil
naredila
naredile
naredili
naredilo
naredim
naredimo
narediti
narednik
narejen
narejena
narejene
narejeni
narejenih
narejeno
narekoval
narekovala
narekuje
naris
narisal
naro
narobe
naroc
narod
naroda
narode
narodi
narodih
narodna
narodne
narodnega
narodnem
narodni
narodnih
narodnim
narodno
narodnoosvobodilne
narodnoosvobodilni
narodnoosvobodilno
narodnost
narodnosti
narodnostna
narodom
narodov
narodu
nas
nasa
nasadi
nase
naselbina
naselbine
naselbino
naselij
naselil
naselila
naselili
naselilo
naselitev
naselitve
naselja
naselje
naseljem
naseljen
naseljena
naseljencev
naseljenci
naseljeni
naseljenih
naseljeno
naseljevali
naselji
naseljih
naselju
naseljujejo
nash
nasic
nasilja
nasilje
nasiljem
nasilju
nasilne
nasilnih
nasilno
nasip
nasipi
naskoc
naskok
naslanja
naslanjac
nasledi
nasledil
nasledila
naslednica
naslednik
naslednika
nasledniki
naslednikom
naslednikov
nasledniku
naslednja
naslednje
naslednjega
naslednjem
naslednji
naslednjih
naslednjimi
naslednjo
nasledstva
nasledstvo
naslikal
naslikan
naslikana
nasloni
naslonil
naslonila
naslonjac
naslonjen
naslov
naslova
naslove
naslovi
naslovna
naslovnega
naslovni
naslovnica
naslovnici
naslovom
naslovov
naslovu
nasmeh
nasmehne
nasmehnil
nasmehnila
nasmehom
nasmejal
nasmejala
nasmeje
nasmes
nasploh
nasprot
nasproti
nasprotja
nasprotje
nasprotju
nasprotna
nasprotne
nasprotnega
nasprotnem
nasprotni
nasprotnih
nasprotnik
nasprotnika
nasprotnike
nasprotniki
nasprotnikom
nasprotnikov
nasprotniku
nasprotno
nasprotoval
nasprotovala
nasprotovali
nasprotovanja
nasprotovanje
nasprotovanju
nasprotuje
nasprotujejo
nasprotujoc
nastaja
nastajajo
nastajajoc
nastajala
nastajale
nastajanja
nastajanje
nastal
nastala
nastale
nastali
nastalo
nastane
nastanejo
nastanek
nastanil
nastanjen
nastanjena
nastanka
nastankom
nastanku
nastavi
nastavil
nastop
nastopa
nastopajo
nastopajoc
nastopal
nastopala
nastopali
nastopati
nastope
nastopi
nastopih
nastopijo
nastopil
nastopila
nastopili
nastopilo
nastopiti
nastopom
nastopov
nastopu
nasvet
nasvete
nasveti
nasvetoval
nasvetu
nat
nata
natakar
natakarica
nataknil
natalie
natalija
natanc
natanko
natas
nate
natec
nati
natihoma
nation
national
nationale
nations
natis
natisnil
natisnjena
natlac
nato
natoc
natrijev
natrijevega
natura
natural
naturale
naturalistic
nature
nauc
nauk
nauka
nauke
nauki
naukov
nauku
navad
navada
navade
navaden
navadi
navadil
navadna
navadne
navadnega
navadnem
navadni
navadnih
navadnim
navadno
navado
navaja
navajajo
navajen
navajena
navajeni
naval
navdaja
navdajala
navdih
navdihnil
navdihnila
navdus
navedbah
navedel
naveden
navedena
navedene
navedeni
navedenih
navedeno
navedla
navelic
navezal
navezan
navezuje
navidez
navidezna
navidezni
navidezno
navijac
navkljub
navkreber
navodil
navodila
navodilih
navodilo
navpic
navratilova
navsezadnje
navsezgodaj
navy
navzdol
navzgor
navzkriz
navzlic
navznoter
navzoc
navzven
naz
nazadnje
nazaj
nazionale
naziv
naziva
nazivi
nazivom
naznani
naznanil
naznanila
naznanilo
naznaniti
naznanja
nazobc
nazor
nazore
nazori
nazorov
naſ
nba
nc
nchen
nchez
nchnu
nd
nde
nden
nder
ndez
ndh
ndor
ndr
ne
neapelj
neapeljski
neaplja
neaplju
near
neat
neba
nebe
nebes
nebesa
nebesih
nebesni
nebesnih
nebi
nebo
nebom
nebotic
nebroj
nebu
nec
necega
nedalec
nedavna
nedavne
nedavnega
nedavno
nedelja
nedeljah
nedelje
nedeljo
nedeljski
nedeljsko
nedokonc
nedoloc
nedolz
nedosez
nedotaknjena
nedvomno
neenakost
nega
negativen
negativna
negativne
negativni
negativnih
negativno
nege
nego
negotov
negotova
negotovo
negotovost
negotovosti
negri
neha
nehaj
nehal
nehala
nehali
nehote
nehvalez
neil
neill
neizbez
neizkus
neizmerna
neizmerne
neizmerno
neizogibno
neizprosno
neizrec
nej
nejasen
nejasna
nejasne
nejasno
nejc
neje
nejevoljen
nejevoljno
nejo
nejs
nek
neka
nekaj
nekajkrat
nekak
nekaka
nekako
nekaks
nekam
nekatera
nekatere
nekateri
nekaterih
nekaterim
nekaterimi
nekdaj
nekdanja
nekdanje
nekdanjega
nekdanjem
nekdanji
nekdanjih
nekdanjim
nekdanjo
nekdo
neke
nekega
nekem
nekemu
neki
nekih
nekim
nekje
neko
nekoc
nekod
nekoga
nekoliko
nekolikokrat
nekomu
nekropola
nektere
nekteri
nekterih
nel
neloc
nelson
nem
nema
nemalo
nemam
nemara
nemc
nemca
nemce
nemcem
nemcev
nemci
nemcih
nemec
nemi
nemilo
nemilost
nemir
nemira
nemiren
nemiri
nemirna
nemirne
nemirni
nemirno
nemirov
nemo
nemoc
nemogoc
nemoteno
nems
nemu
nemudoma
nen
nenad
nenadna
nenadne
nenadni
nenadno
nenadoma
nenaseljen
nenavaden
nenavadna
nenavadne
nenavadnega
nenavadni
nenavadnih
nenavadno
nenehno
neo
neobc
neobhodno
neobic
neodloc
neodvisen
neodvisna
neodvisne
neodvisni
neodvisnih
neodvisno
neodvisnost
neodvisnosti
neoklasicistic
neomejeno
neopaz
neopredeljen
neopredeljena
nepal
nepala
nepalu
nepogres
nepomuk
nepopisno
neporoc
nepos
neposreden
neposredna
neposredne
neposrednega
neposredni
neposrednih
neposrednim
neposredno
nepotrebne
nepotrebnem
nepotrebnih
nepotrebno
nepotrpez
nepravic
nepravilne
nepravilno
nepravilnosti
neprekinjeno
nepremic
nepremis
neprenehoma
neprestano
nepric
neprijazno
neprijeten
neprijetna
neprijetne
neprijetnega
neprijetni
neprijetno
neprimerno
neprvenstvena
neptun
ner
nerad
nerada
nerazloc
nerazumljivo
nered
neredu
neres
neresnic
neroden
nerodna
nerodno
nervozno
nes
nese
nesebic
nesel
nesem
nesi
neskonc
nesla
nesle
nesli
neslis
neso
nesoglasij
nesoglasja
nespametno
nespec
nespodobno
nesramno
nesrec
nestabilnosti
nesti
nestrpen
nestrpno
nestrpnost
nestrpnosti
net
neta
nete
netek
neto
netopir
netopirji
network
neu
neubauer
neuc
neue
neugodno
neumann
neumen
neumna
neumne
neumnega
neumni
neumno
neumnost
neumnosti
neumorno
neupravic
neuradno
neusmiljen
neusmiljeni
neusmiljeno
neuspeh
neuspes
neustras
neva
nevaren
nevarna
nevarne
nevarnega
nevarni
nevarnih
nevarno
nevarnost
nevarnosti
nevarnostjo
neve
nevede
nevednosti
nevenka
never
neverjetno
nevesta
neveste
nevesti
nevesto
neviden
nevidna
nevidne
nevidni
nevidno
nevihta
nevihte
nevihti
nevihto
nevolja
nevoljen
nevoljno
nevoljo
nevos
nevretenc
nevrolos
nevronov
nevs
nevskega
nevtronov
nevzdrz
new
newcastle
news
newton
newyors
next
nez
nezadovoljen
nezadovoljstvo
nezakonito
nezakonski
nezaslis
nezaupanje
nezaupno
nezavedno
nezavest
nezavesti
nezaz
nezdruz
nezgoda
nezgode
nezmoz
neznan
neznana
neznanca
neznane
neznanec
neznanega
neznani
neznanih
neznano
neznansko
neznatno
neznosna
neznosno
ng
nga
ngc
ngen
nguye
nh
nha
nhl
ni
nic
nica
nicah
nicami
niccolo
nice
nicholas
nicht
nici
nick
nico
nicola
nicolas
nicole
nidars
nie
niga
nigdar
nigel
niger
night
nih
niha
nihalo
nihanja
nihanje
nihc
nij
nije
nijsem
nijsi
nijso
nijste
nik
nika
nikake
nikakega
nikakih
nikakor
nikakors
nikakrs
nikamor
nikar
nikari
nikdar
nikdo
nike
nikedar
niki
nikih
nikita
nikjer
niko
nikoder
nikogar
nikola
nikolaj
nikolaja
nikolajevic
nikolaju
nikolaus
nikoli
nikolic
nikom
nikomer
nikomur
nikov
nikova
nikove
nikovih
nikovo
niks
niku
nil
nila
nils
nilu
nim
nima
nimajo
nimam
nimamo
nimas
nimata
nimate
nimava
nimi
nin
nina
nine
nino
nio
nis
nisem
nisi
nisim
nismo
niso
nista
niste
nisva
nit
niti
nivo
nivoja
nivoju
niz
niza
nizdol
nizek
nizh
nizka
nizke
nizkega
nizkem
nizki
nizkih
nizkim
nizkimi
nizko
nizozemci
nizozems
nizozemska
nizozemske
nizozemskega
nizozemskem
nizozemski
nizozemskih
nizozemsko
nizu
nj
nja
njah
njak
njaki
njam
njami
njan
njas
njava
njave
njavi
njavo
nje
njega
njego
njegov
njegova
njegove
njegovega
njegovej
njegovem
njegovemu
njegovi
njegovih
njegovim
njegovimi
njegovo
njej
njem
njemu
njen
njena
njene
njenega
njenem
njenemu
njeni
njenih
njenim
njenimi
njeno
njev
njevo
njez
nji
njic
njice
njih
njihov
njihova
njihove
njihovega
njihovem
njihovemu
njihovi
njihovih
njihovim
njihovimi
njihovo
njiju
njim
njima
njimi
njiv
njiva
njivah
njivami
njive
njivi
njivo
njo
nju
njun
njuna
njune
njunega
njunem
njuni
njunih
njuno
nk
nkvd
nl
nm
no
noafris
noameris
nob
nobeden
nobel
nobelove
nobelovec
nobelovi
nobelovo
noben
nobena
nobene
nobenega
nobenem
nobenemu
nobeni
nobenih
nobenim
nobeno
noc
noch
nocoj
nocojs
noe
noel
nog
noga
nogah
nogam
nogama
nogami
nogavic
nogavice
noge
nogi
nogo
nogomet
nogometa
nogometas
nogometna
nogometne
nogometni
nogometnih
nogometno
nogometu
nohte
nohti
noj
nokoli
nom
nominacija
nominacije
nominacijo
nominiran
nominirana
non
nor
nora
norbert
norc
norca
nord
nordijska
nordijski
norec
nori
noris
norma
normalna
normalne
normalni
normalnih
normalno
norman
normandije
normandiji
normani
normanski
norme
noro
norost
norosti
norris
north
northern
northrop
norton
norves
norvez
norwich
nos
nosa
nosac
nosec
nosek
nosi
nosijo
nosil
nosila
nosilca
nosilcev
nosilci
nosile
nosilec
nosili
nosilo
nosim
nosis
nositi
nosnice
nosom
nost
nosti
nostih
nostjo
nostmi
nostni
nostno
nosu
not
notar
note
noter
notes
notranja
notranje
notranjega
notranjem
notranji
notranjih
notranjim
notranjo
notranjost
notranjosti
notranjs
notranjskem
notre
notri
nouveau
nov
nova
novac
novak
novce
novcev
nove
novega
novejs
novel
novela
novele
noveli
novelo
novem
november
novembra
novembrom
novembru
novemu
novgorod
novi
novic
novica
novicah
novice
novici
novico
novih
novim
novimi
novinar
novinarja
novinarjev
novinarji
novinarka
novinarstvo
novine
novinec
novj
novo
novomes
novorojenc
novost
novosti
novozelandski
novpogoj
now
noz
np
npr
nr
ns
nster
nt
nther
nu
nuclear
nudi
nudijo
nudil
nudila
nujna
nujne
nujni
nujnih
nujno
nuk
number
numeric
nun
nuna
nunciatura
nuncij
nunciji
nune
nur
nus
nuvolari
ny
nyh
nyi
nyj
nym
nz
o
oa
ob
oba
obadva
obakrat
obal
obala
obalah
obale
obali
obalna
obalne
obalnega
obalni
obalnih
obalno
obalo
obama
obarvane
obc
obdaja
obdajajo
obdan
obdana
obdani
obdano
obdavc
obdelana
obdelava
obdelave
obdelavo
obdelovali
obdelovati
obdeluje
obdobij
obdobja
obdobje
obdobjem
obdobji
obdobjih
obdobju
obdolz
obdrz
obe
obed
obednico
obedu
obeh
obelez
obelisk
obema
obenem
oberne
obes
obesi
obesil
obesila
obesili
obesiti
obeta
obetal
obetala
obhaja
obhajal
obhajala
obhajali
obhajilo
obhajilu
obi
obic
obide
obilne
obilno
obilo
obis
obisk
obiska
obiskal
obiskala
obiskali
obiskalo
obiskat
obiskati
obiske
obiski
obiskom
obiskov
obiskoval
obiskovala
obiskovalce
obiskovalcem
obiskovalcev
obiskovalci
obiskovalec
obiskovali
obiskovati
obisku
obiskuje
obiskujejo
objame
objava
objave
objavi
objavil
objavila
objavili
objavlja
objavljal
objavljati
objavljen
objavljena
objavljene
objavljeni
objavljenih
objavljeno
objavo
objekt
objekta
objekte
objekti
objektivno
objektov
objel
objela
objem
objema
objemal
objemala
objemu
objeti
obkolili
obkroz
oblac
oblak
oblaka
oblake
oblaki
oblakih
oblakov
oblaku
oblast
oblastem
oblasti
oblastjo
oblastno
oble
oblec
oblegal
oblegali
obleganja
obleganje
obleganjem
obleganju
oblegati
oblek
obleka
oblekah
obleke
oblekel
obleki
oblekla
oblekli
obleko
obletnica
obletnice
obletnici
obletnico
oblez
oblic
oblik
oblika
oblikah
oblikami
oblike
obliki
obliko
oblikoval
oblikovala
oblikovalci
oblikovale
oblikovalec
oblikovali
oblikovalka
oblikovan
oblikovana
oblikovane
oblikovani
oblikovanja
oblikovanje
oblikovanjem
oblikovanju
oblikovano
oblikovati
oblikuje
oblikujejo
oblila
obliz
obljub
obljuba
obljube
obljubi
obljubil
obljubila
obljubili
obljubim
obljubiti
obljubljeno
obljubo
obloge
obloz
obmejni
obmejnih
obmoc
obmolknil
obnas
obne
obnih
obnova
obnove
obnovi
obnovil
obnovila
obnovili
obnovitev
obnoviti
obnovljen
obnovljena
obnovljene
obnovljeni
obnovljeno
obnovo
obo
oboc
oboje
oboji
obok
oboka
obokan
obokana
oboke
oboki
obokom
obokov
oboku
obolenja
oboroz
obotavljal
oboz
obr
obrac
obramba
obrambe
obrambi
obrambna
obrambne
obrambnega
obrambni
obrambnih
obrambno
obrambo
obras
obrat
obrata
obrati
obratno
obratov
obratovati
obratuje
obravnava
obravnavajo
obravnaval
obravnavala
obravnavali
obravnavamo
obravnavati
obravnave
obravnavi
obravnavo
obraz
obraza
obraze
obrazec
obrazek
obrazi
obrazih
obrazloz
obrazom
obrazov
obrazu
obred
obreda
obrede
obredi
obredih
obredne
obredov
obredu
obremenitev
obremenitve
obresti
obrez
obri
obris
obrisal
obrisala
obrne
obrnejo
obrnem
obrni
obrnil
obrnila
obrnili
obrnilo
obrniti
obrnivs
obrnjen
obrnjena
obrnjene
obrnjeni
obrnjeno
obrobju
obroc
obrok
obronkih
obrt
obrti
obrtniki
obrtnikov
obrtnis
obrvi
obs
obsedel
obseg
obsega
obsegajo
obsegal
obsegala
obsegalo
obsegu
observatorij
observatorija
observatoriju
observatory
obsez
obsodba
obsodbe
obsodbo
obsodi
obsodil
obsodila
obsodili
obsoja
obsojen
obsojena
obsojeni
obstaja
obstajajo
obstajal
obstajala
obstajale
obstajali
obstajalo
obstajata
obstajati
obstal
obstala
obstali
obstane
obstanek
obstanka
obstati
obstoj
obstoja
obstojec
obstoji
obstoju
obtez
obtic
obtok
obtoz
obuboz
obudil
obup
obupa
obupal
obupan
obupana
obupano
obupen
obupni
obupno
obupu
obutev
obvaroval
obvaruj
obves
obvesti
obvestil
obvestila
obvestilo
obvezna
obvezno
obveznost
obveznosti
obvladal
obvladati
obvladovanje
obz
obzidja
obzidje
obzidjem
obzidju
obzorja
obzorje
obzorju
oc
ocean
oceana
oceanu
ocen
ocena
ocenah
ocene
oceni
ocenil
ocenili
oceniti
ocenjen
ocenjena
ocenjeno
ocenjevanje
ocenjuje
ocenjujejo
oceno
oclc
ocon
oct
october
ocvirk
od
oda
odas
odbija
odbije
odbil
odbila
odbili
odbiti
odbor
odbora
odbori
odbornik
odborov
odboru
odcepi
odda
oddahne
oddahnil
oddahnila
oddaj
oddaja
oddajah
oddajajo
oddaje
oddaji
oddajo
oddal
oddalec
oddaljen
oddaljena
oddaljene
oddaljeni
oddaljenih
oddaljeno
oddaljenost
oddaljenosti
oddaljil
oddati
oddelek
oddelka
oddelke
oddelki
oddelkih
oddelkom
oddelkov
oddelku
odebeljene
odeja
odeje
odejo
oder
odgnal
odgnali
odgnati
odgovarja
odgovarjajo
odgovarjal
odgovarjala
odgovarjali
odgovarjati
odgovor
odgovora
odgovore
odgovoren
odgovori
odgovoril
odgovorila
odgovorili
odgovorim
odgovoriti
odgovorna
odgovorne
odgovorni
odgovorno
odgovornost
odgovornosti
odgovorom
odgovorov
odgovoru
odhaja
odhajajo
odhajajoc
odhajal
odhajala
odhajali
odhitel
odhitela
odhiti
odhod
odhoda
odhodom
odhodu
odide
odidejo
odidem
odideta
odigral
odigrala
odigrali
odigrane
odisej
oditi
odjezdil
odkar
odkas
odkimal
odkimala
odklenil
odklonil
odklonila
odkod
odkoder
odkorakal
odkrije
odkrijejo
odkril
odkrila
odkrili
odkrit
odkrita
odkrite
odkritelji
odkriti
odkritih
odkritij
odkritja
odkritje
odkritjem
odkritju
odkrito
odkritosrc
odkriva
odkrivanje
odkriz
odkupil
odkupnino
odlagalis
odlas
odleglo
odletel
odletela
odleti
odlic
odliko
odlikoval
odlikovala
odlikovan
odlikovanj
odlikovanja
odlikovanje
odlikuje
odlikujejo
odloc
odloga
odlok
odloka
odlokom
odlomek
odlomki
odloz
odmakne
odmaknil
odmaknila
odmerek
odmev
odmeva
odmeval
odmevali
odmevalo
odmor
odnas
odnehal
odnese
odnesel
odnesla
odnesli
odneslo
odnesti
odnos
odnosa
odnose
odnosi
odnosih
odnosom
odnosov
odnosu
odo
odobril
odobrila
odobritev
odpade
odpadke
odpadki
odpadkov
odpadne
odpel
odpeljal
odpeljala
odpeljali
odpeljati
odpelje
odpeljejo
odpira
odpirajo
odpiral
odpirala
odpiranje
odpirat
odpirati
odplul
odplula
odpoc
odpor
odpora
odporna
odporne
odpornis
odpornost
odpornosti
odporu
odposlal
odposlanca
odposlance
odposlancev
odposlanci
odposlanec
odpotoval
odpotovala
odpotovati
odpotuje
odpove
odpoved
odpovedal
odpovedala
odpovedali
odpovedati
odpovedi
odprava
odprave
odpravi
odpravijo
odpravil
odpravila
odpravili
odpraviti
odpravlja
odpravljal
odpravo
odpre
odprejo
odprem
odpreti
odpri
odprite
odprl
odprla
odprle
odprli
odprlo
odpro
odprt
odprta
odprte
odprtega
odprtem
odprti
odprtih
odprtim
odprtimi
odprtina
odprtine
odprtino
odprtje
odprtju
odprto
odpus
odpusti
odpustil
odpustila
odpustili
odpustim
odpustite
odpustiti
odra
odras
odrasel
odrasla
odrasle
odraslega
odrasli
odraslih
odraz
odrec
odred
odreda
odredi
odredil
odredov
odrekel
odrekla
odrekli
odres
odrez
odrezal
odrezala
odrezali
odrih
odrine
odrinil
odrinila
odrinili
odriniti
odru
ods
odsek
odseka
odsekal
odseki
odseku
odsev
odseva
odskoc
odslej
odslovil
odsluz
odsoten
odsotnost
odsotnosti
odstavek
odstavil
odstavili
odstavka
odstavljen
odstop
odstopa
odstopi
odstopil
odstopila
odstopiti
odstopu
odstotek
odstotka
odstotkov
odstotno
odstrani
odstranijo
odstranil
odstranila
odstranili
odstranitev
odstraniti
odstranjen
odstranjena
odstranjeni
odstranjevanje
odtis
odtlej
odtod
odtok
odtrgal
odtrgala
odtrgati
odvalil
odvec
odvede
odvedel
odvedli
odvetnik
odvetnika
odvetniki
odvetnis
odvez
odvezal
odvezo
odvija
odvijajo
odvijala
odvisen
odvisna
odvisne
odvisni
odvisno
odvisnost
odvisnosti
odvod
odvrac
odvrne
odvrnil
odvrnila
odvrniti
odvrz
odvzame
odvzel
odvzeli
odvzem
odvzeti
odz
odziv
odziva
odzive
odzivi
odzove
odzval
odzvala
odzvali
oe
of
ofenziva
ofenzive
ofenzivi
ofenzivo
ofer
off
office
official
officine
oficir
oficirji
og
oga
oge
ogenj
ogibal
ogiblje
ogla
oglas
oglasi
oglasil
oglasila
oglasili
oglasilo
ogled
ogleda
ogledal
ogledala
ogledali
ogledalo
ogledalu
ogledati
ogledoval
ogledovala
ogledovali
ogleduje
oglej
oglejskega
oglejski
oglis
oglja
oglje
ogljik
ogljika
ogljikov
ogljikovega
ogljikovih
oglu
oglus
ognja
ognjem
ognjena
ognjene
ognjeni
ognjenis
ognjeno
ognji
ognjis
ognju
ogo
ogorc
ogovori
ogovoril
ograja
ograje
ograji
ograjo
ogrevanje
ogri
ogrin
ogrnil
ogrodje
ogromen
ogromna
ogromne
ogromnega
ogromni
ogromnih
ogromno
ogroz
ogrska
ogrske
ogrskega
ogrskem
ogrski
ogrskih
ogrskim
ogrsko
oh
oha
ohio
ohis
ohladi
ohlapno
oho
ohrani
ohranijo
ohranil
ohranila
ohranile
ohranili
ohranilo
ohranitev
ohraniti
ohranja
ohranjajo
ohranjanja
ohranjanje
ohranjanju
ohranjen
ohranjena
ohranjene
ohranjeni
ohranjenih
ohranjeno
ohrid
oi
oil
oilers
ois
oise
oizumi
oj
oja
ojac
ojunac
ok
oka
okamenel
okamenela
okcitansko
oken
okence
oklahoma
oklene
oklenil
oklenila
oklep
oklepa
oklepaju
oklepna
oklepne
oklepni
oklepnih
oklepno
okna
okni
oknih
okno
oknom
oknu
oko
okoli
okolic
okolica
okolice
okolici
okolico
okolis
okolja
okolje
okoljem
okoljih
okoljske
okoljski
okoljskih
okolju
okolnosti
okolo
okolu
okonc
okorno
okostje
okraj
okraja
okrajev
okraji
okrajnega
okrajni
okrajno
okrajs
okraju
okras
okrasil
okrasja
okrasje
okraski
okrasne
okrasni
okrene
okrenil
okrenila
okrepc
okrepil
okrepila
okrepili
okrepitev
okrepitve
okreval
okrilje
okriljem
okrog
okrogel
okrogla
okrogle
okroglega
okrogli
okroglih
okroglimi
okroglo
okronan
okroz
oksid
oksida
oksidacija
oksidacijo
okt
oktober
oktobra
oktobrom
oktobru
okupacija
okupacije
okupaciji
okupacijo
okus
okusa
okusil
okusno
okusu
okuz
okvara
okvare
okvir
okvirja
okvirju
okviru
ol
ola
olah
olajs
olal
olan
olanja
olanje
olanju
olar
olc
olca
olci
old
ole
olec
oleg
oleps
olga
olgi
olgo
oli
olimpija
olimpije
olimpiji
olimpijske
olimpijskega
olimpijski
olimpijskih
olimpijsko
oliver
olivier
olja
oljc
olje
oljem
olju
oln
olna
olnar
olne
olni
olnic
olnih
olnik
olnom
olnov
olnu
olo
olsen
olska
olske
olskega
olskem
olski
olskih
olskim
olsko
olstva
olstvo
olstvu
oltar
oltarja
oltarje
oltarjem
oltarjev
oltarji
oltarju
oltarna
oltarne
oltarni
oltarno
olympic
om
omadez
omahne
omahnil
omahnila
omamljen
oman
omar
omara
omare
omari
omaro
omec
omedlela
omega
omehc
omejen
omejena
omejene
omejeni
omejeno
omejil
omejitev
omejiti
omejitve
omejuje
omejujejo
omemba
omembe
omeni
omenil
omenila
omenili
omenim
omenimo
omeniti
omenja
omenjajo
omenjal
omenjen
omenjena
omenjene
omenjenega
omenjenem
omenjeni
omenjenih
omenjeno
omike
omoc
omodske
omogoc
omotic
omotica
omotici
omoz
omrez
on
ona
onadva
onda
ondi
ondod
ondr
ondu
one
onec
onega
onem
onemogel
onemogla
onemogoc
onemu
onesnaz
ong
oni
onih
onim
onimi
onkraj
online
only
ono
onstran
ontario
onufrin
oo
op
opa
opat
opata
opatija
opatije
opatiji
opatijo
opatu
opaz
opazen
opazi
opazijo
opazil
opazila
opazili
opazimo
opaziti
opazke
opazko
opazna
opazno
opazoval
opazovala
opazovalca
opazovalci
opazovalec
opazovali
opazovanj
opazovanja
opazovanje
opazovanjem
opazovanju
opazovati
opazuje
opazujejo
opazujemo
opc
opec
opek
opeka
opeke
opeko
open
oper
opera
operacij
operacija
operacijah
operacije
operaciji
operacijo
operacijski
operativna
operativne
operativni
operativno
operatorname
opere
operi
operna
operni
opero
opes
opic
opica
opice
opira
opiral
opis
opisa
opisal
opisala
opisali
opisan
opisana
opisane
opisani
opisanih
opisano
opisati
opisi
opisom
opisoval
opisu
opisuje
opisujejo
oplas
oplenili
opoldne
opolnoc
opomba
opombe
opomin
opominja
opominjal
opomni
opomnil
opomniti
opomogel
opomogla
oponas
opora
opore
oporis
oporniki
oporo
oporoka
oporoke
oporoki
oporoko
opotekel
opozarja
opozarjajo
opozicija
opozicije
opozori
opozoril
opozorila
opozorili
opozorilo
opozoriti
opras
oprava
opravek
opravi
opravic
opravijo
opravil
opravila
opravili
opravilih
opravilo
opravilu
opraviti
opravka
opravke
opravkih
opravkov
opravlja
opravljajo
opravljal
opravljala
opravljali
opravljanja
opravljanje
opravljanju
opravljati
opravljen
opravljena
opravljeni
opravljenih
opravljeno
opravo
opredelil
opredelitev
opredeliti
opredeljen
opredeljena
opredeljene
opredeljeno
opredeljuje
oprema
opreme
opremi
opremil
opremljen
opremljena
opremljene
opremljeni
opremljeno
opremo
oprezno
oprijel
oprijela
oprl
opros
oprosti
oprostil
oprostite
oprostiti
ops
optic
opus
opusti
opustil
opustila
opustili
opustiti
opustos
or
ora
orac
oral
orange
oranje
oranz
oratorij
oraz
orchestra
order
oreh
orehov
orel
ores
org
organ
organa
organe
organi
organih
organist
organizacij
organizacija
organizacijah
organizacijam
organizacijami
organizacije
organizaciji
organizacijo
organizacijska
organizacijske
organizacijski
organizacijsko
organization
organizational
organizator
organizatorji
organizem
organizira
organizirajo
organiziral
organizirala
organizirali
organiziran
organizirana
organizirane
organizirani
organizirano
organizirati
organizma
organizme
organizmi
organizmov
organizmu
organov
organska
organske
organski
organskih
orgel
orgle
orglice
orient
oriental
origin
original
originalna
originalne
originalni
originalno
origins
orion
oris
orjas
orkester
orkestra
orkestrom
orkestrov
orkestru
orla
orlando
orle
orli
orlov
ormoz
oro
orodij
orodja
orodje
orodjem
oropal
oropali
oroz
orsini
ortenburs
orto
os
osa
osaka
osamljen
osamljena
osamosvojitev
osamosvojitve
osamosvojitvene
osamosvojitvi
osat
osborne
oscar
oseb
oseba
osebah
osebam
osebami
osebe
osebi
osebja
osebje
osebki
osebkov
osebna
osebne
osebnega
osebni
osebnih
osebnim
osebno
osebnost
osebnosti
osebnostne
osebo
osel
osem
osemdeset
osemdesetih
osemnajst
osi
osijes
osjo
oskar
oskarja
oskrba
oskrbe
oskrbi
oskrbnik
oskrbnika
oskrbo
oskrbuje
osla
oslic
oslo
oslu
osma
osman
osmani
osmanska
osmanske
osmanskega
osmanskem
osmanskemu
osmanski
osmanskih
osmanskim
osmansko
osmega
osmem
osmes
osmi
osmih
osmimi
osmo
osnaz
osnova
osnoval
osnovali
osnove
osnovi
osnovna
osnovne
osnovnega
osnovni
osnovnih
osnovno
osnovnos
osnovo
osnutek
oso
osobito
osoda
osodo
osonc
osorno
ospredje
ospredju
osprey
osramoc
osrc
osrec
osrednja
osrednje
osrednjega
osrednjem
osrednji
osrednjih
osrednjim
osrednjo
osredotoc
ost
ostaja
ostajajo
ostajal
ostal
ostala
ostale
ostalega
ostali
ostalih
ostalim
ostalimi
ostalo
ostane
ostanejo
ostanek
ostanem
ostanemo
ostanes
ostaneta
ostanete
ostani
ostanite
ostanke
ostanki
ostankih
ostankov
ostati
ostavil
oster
osti
ostra
ostre
ostrega
ostrejs
ostrem
ostri
ostrih
ostrim
ostrimi
ostriz
ostrmel
ostrmi
ostro
ostrovrhar
ostudno
osupel
osuplo
osupnil
osus
osvajalec
osvajanja
osvajanje
osvajanjem
osvajanju
osveta
osvetlitev
osvez
osvobodi
osvobodil
osvobodila
osvobodili
osvobodilne
osvoboditev
osvoboditi
osvoboditve
osvoboditvi
osvojenih
osvoji
osvojil
osvojila
osvojili
osvojilo
osvojitev
osvojiti
osvojitve
osvojitvi
osvojitvijo
oswald
ot
ota
ote
otec
otel
otez
other
otide
otmar
oto
otoc
otok
otoka
otokar
otoke
otoki
otokih
otokom
otokov
otoku
oton
otona
otonu
otor
otora
otoru
otos
otoz
otresel
otresti
otro
otroc
otroci
otrocih
otrok
otroka
otroke
otroki
otrokom
otrokoma
otroku
otros
ottawa
otto
ottoman
otvoritev
ou
our
out
ov
ova
ovac
ovadil
ovc
ovca
ovce
ovci
ovco
ove
ovec
oven
ovenc
over
overline
overview
oves
ovi
ovije
ovil
ovila
ovinek
ovinka
ovinkih
ovinkom
ovinkov
ovinku
ovir
ovira
ovirala
oviralo
ovirami
ovire
oviro
ovitek
ovo
ovoj
ovratnik
ovsa
owen
oxford
oxfordu
oz
ozadja
ozadje
ozadju
ozaves
ozdravel
ozdravela
ozdravi
ozdravil
ozek
ozemelj
ozemlja
ozemlje
ozemljem
ozemlji
ozemljih
ozemlju
ozhe
ozidje
ozira
oziraje
oziral
ozirala
ozirali
ozirati
ozirom
oziroma
oziru
ozka
ozke
ozkem
ozki
ozkih
ozko
ozn
oznac
oznak
oznaka
oznake
oznako
oznanil
oznanila
oznanja
oznanjal
oznanjenja
oznanjenje
ozrac
ozre
ozrem
ozreti
ozri
ozrl
ozrla
ozrli
ozvezdja
ozvezdje
ozvezdju
p
pa
pablo
pac
pace
pacient
pacienta
pacientov
pacific
pacifis
pad
pada
padajo
padajoc
padal
padala
padale
padali
padalo
padalski
padati
padavin
padavine
padca
padcem
padcu
pade
padec
padejo
padel
padla
padle
padli
padlih
padlim
padlo
padova
padovi
pag
pagatovic
page
pages
pagoda
pahljac
pahne
pahnil
pahnila
pahor
painting
paintings
pajc
pajdas
pajek
pajk
pajka
pajki
pak
paket
pakistan
pakistanu
pakt
pakta
pal
pala
palac
palace
palacio
palais
palazzo
palc
palca
palcem
palcev
palec
paleolog
palermo
palestine
palestini
palestino
paleto
pali
palic
palica
palicami
palice
palici
palico
palm
palma
palme
palmer
palomar
pamet
pameten
pameti
pametna
pametne
pametnega
pametnejs
pametni
pametnih
pametno
pan
panc
panci
panic
panija
panije
paniji
panijo
panis
panj
panja
panoga
panoge
panoniji
panonijo
panorama
pans
panska
panske
panskega
panskem
panski
panskih
panskim
pansko
panteon
panzer
paola
paolo
papa
paper
papers
papes
papez
papi
papir
papirja
papirje
papirjev
papirji
papirju
par
para
parada
parade
paradiz
paradoks
paragvaj
parameter
parametrov
paravojas
parc
parco
pardon
pare
pari
parih
paris
pariz
pariza
parizu
park
parka
parke
parker
parki
parkiris
parkom
parkov
parkrat
parku
parlament
parlamenta
parlamentarne
parlamentarni
parlamentarnih
parlamentu
parma
parna
parne
parni
parnih
parnik
paro
parom
parov
part
parte
parti
partial
partija
partije
partiji
partijo
partito
partizan
partizane
partizani
partizanom
partizanov
partizanska
partizanske
partizanski
partizanskih
partizansko
partner
partnerja
partnerji
partski
party
paru
pas
pasa
pascal
pase
pasejo
pasel
pasem
pasijon
pasivno
pasja
pasje
pasji
pasla
pasli
pasma
pasme
pasom
pasov
pasovi
past
pasti
pastir
pastirc
pastirja
pastirjev
pastirji
pastirju
pastor
pastorka
pasu
pat
patent
pater
patolos
patra
patrese
patria
patriarh
patriarha
patriarhata
patriarhi
patriarhov
patricia
patrick
patrijarh
patrik
patron
patronaz
patrulja
patrulje
patton
pau
paul
paula
paulo
pav
pavc
pavel
paviljon
pavla
pavle
pavleta
pavletu
pavli
pavlic
pavliha
pavlin
pavlina
pavlo
pavlom
pavlovic
pavlu
pavs
pax
paz
pazduho
pazi
pazil
pazila
pazili
pazite
paziti
pazljivo
paznik
pazno
pb
pc
pd
pdf
pe
peace
peak
pearl
pec
ped
pedagog
pedagogi
pedagoginja
pedagos
pedi
pedro
peer
pege
pehota
pehote
pehotna
pehotne
pehotnega
pehotni
pehotnih
pehta
pek
pekel
peking
pekingu
pekla
peklens
peklenska
peklenski
peklensko
pekli
peklo
peklu
peko
pekoc
pektor
pektorja
pel
pela
pelca
pele
peli
peljal
peljala
peljali
peljati
pelje
peljejo
peljem
peljes
pelji
pelo
pen
pena
pene
penec
penguin
penguins
penn
pennsylvania
pensilvanija
people
pepe
pepel
pepela
pepelom
pepo
per
perc
percy
perec
peres
peresa
peresom
performance
peric
perila
perilo
perin
period
periodic
perja
perje
perjem
perk
perko
permission
pernat
pero
peroralno
peroti
perpetua
perry
pers
persian
personal
personality
perspective
perspektiva
perspektive
perspektivo
peru
peruja
peruju
peruti
perva
perve
pervi
pervo
perzijci
perzije
perziji
perzijo
perzijska
perzijske
perzijskega
perzijskem
perzijski
perzijskih
perzijsko
pes
pesek
pesem
pesen
peska
peskom
pesku
pesmi
pesmic
pesmice
pesmico
pesmih
pesmijo
pesmimi
pesni
pesnica
pesnice
pesnik
pesnika
pesnike
pesniki
pesnikom
pesnikov
pesniku
pesnis
pesnitev
pesnitve
pest
pesti
pestjo
pestmi
pet
peta
petami
petan
petar
petdeset
petdesetih
pete
petega
petek
petelin
petelina
petelinc
petelini
petem
peter
peterburg
peterburga
peterburgu
peterlin
petero
peters
petersburg
peterson
peti
petic
petih
petim
petimi
petindvajset
petins
petit
petja
petje
petjem
petju
petka
petkrat
petnajst
petnajstih
peto
petra
petri
petric
petrie
petrom
petronas
petrov
petrova
petrovic
petrovo
petru
petrus
petsto
peugeot
pevca
pevcem
pevcev
pevci
pevec
pevka
pevke
pevko
pevskega
pevski
pevskih
pevsko
pez
pf
pfals
pfalz
pg
ph
phi
phil
philadelphia
philip
philipp
philippe
phillips
philosophical
philosophie
philosophy
phoenix
photo
photos
php
physical
physics
pi
pia
pianist
piano
piazza
pic
pica
pice
pico
picture
pictures
pie
pier
pierluigi
piero
pierre
pieta
pieter
pietra
pietro
piha
pihal
pihala
pihalni
pij
pija
pijac
pijan
pijana
pijanc
pijanec
pijanega
pijani
pijano
pijanost
pijanosti
pije
pijejo
pijem
pijmo
pijo
pijte
pik
pika
pike
piki
piko
pikro
pil
pila
pilastri
pile
pili
pilo
pilot
pilota
piloti
pilotov
pin
pinjin
pink
pino
pintar
pio
pionir
pionirji
pionirski
pipan
pipe
pipec
piper
pipi
pipin
pipo
piquet
piramid
piramida
piramide
piramidi
piramido
piran
piranu
pirates
pirati
pirc
pireneji
pirin
pirnat
pirotskega
pis
pisa
pisal
pisala
pisali
pisalni
pisalno
pisalo
pisan
pisana
pisane
pisani
pisanih
pisanimi
pisanja
pisanje
pisanjem
pisanju
pisano
pisar
pisarja
pisarna
pisarne
pisarni
pisarnis
pisarno
pisatelj
pisatelja
pisatelje
pisateljem
pisateljev
pisatelji
pisateljica
pisateljice
pisatelju
pisati
pisava
pisave
pisavi
pisavo
pisca
piscev
pisci
pisec
pisem
pisemce
pisi
pisma
pismeno
pismenosti
pismi
pismih
pismo
pismom
pismonos
pismu
pisni
pisnih
pisno
pit
pital
piti
pitje
pitne
pitno
pitt
pittsburgh
pius
piva
pivci
pivec
pivka
pivo
pivovarna
piz
pl
pla
plac
place
plah
plaha
plaho
plakala
plakat
plaketa
plakete
plaketo
plamen
plamena
plamenc
plamenec
plameni
plamenom
plamenu
plamtec
plan
plane
planejo
planet
planeta
planete
planeti
planetov
planetu
planici
planil
planila
planili
planin
planina
planinah
planine
planinec
planini
planino
planinska
planinske
planinskega
planinski
planinskih
planinsko
planjave
planjavi
planjavo
plano
planota
planote
planoti
planoto
plans
plant
plantaz
plas
plast
plasteh
plasti
plastic
plastike
plastjo
plat
plata
platforma
platforme
plati
platinasto
platna
platno
platnu
plato
platon
plava
plavajo
plavajoc
plaval
plavala
plavali
plavanje
plavati
plave
plavz
play
playlife
playstation
plaz
plaza
plazi
plazil
plazilcev
plazilci
plazovi
plazu
ple
plec
pleme
plemen
plemena
plemeni
plemenit
plemenita
plemenitas
plemenite
plemenitega
plemeniti
plemenitih
plemenito
plemenu
plemic
plemis
plemstva
plemstvo
plemstvom
plemstvu
plen
plena
plenilci
plenom
ples
plesa
plesal
plesala
plesalci
plesalec
plesali
plesalka
plesati
plese
plesi
plesis
plesna
plesne
plesni
plesnih
plesno
plesom
plesov
plesu
plete
plevel
plezal
plezanje
plezati
plin
plina
plini
plinij
plinom
plinov
plinska
plinski
plitvo
pljevlja
pljuc
pljunil
ploc
plod
plodnosti
plodov
plodovi
ploha
plos
ploskev
ploskve
plot
plotom
plotu
plovbe
plovbo
plovil
plovila
plovilo
plug
plul
plula
pluli
plus
pm
pmatrix
pmid
pn
pnevmatik
pnevmatike
png
po
pobeg
pobegne
pobegnil
pobegnila
pobegnili
pobegniti
pobere
poberi
pobic
pobije
pobil
pobila
pobili
pobira
pobiral
pobirali
pobiranje
pobirati
pobit
pobiti
poboc
poboljs
poboz
pobral
pobrala
pobrali
pobratena
pobrati
pobrez
pobude
pobudnik
pobudo
poc
poceni
pod
poda
podaj
podaja
podaje
podajo
podal
podala
podali
podaljs
podam
podana
podari
podaril
podarila
podarili
podatek
podati
podatke
podatki
podatkih
podatkov
podc
poddruz
pode
podedoval
podedovala
podeli
podelil
podelila
podelili
podelitev
podelitvi
podeljen
podeljena
podeljuje
podeljujejo
podere
podez
podgane
podgorica
podgornik
podgorski
podi
podil
podila
podili
podiplomski
podira
podjetij
podjetja
podjetje
podjetjem
podjetji
podjetjih
podjetju
podjetnik
podjetnis
podlaga
podlage
podlagi
podlago
podlegel
podlez
podlistki
podloz
podmornic
podmornica
podmornice
podmornico
podmornis
podnebja
podnebje
podnebjem
podnebju
podnebne
podnebnih
podnevi
podnoz
podob
podoba
podobah
podobami
podobar
podobe
podoben
podobi
podobna
podobne
podobnega
podobnem
podobni
podobnih
podobnim
podobnimi
podobno
podobnost
podobnosti
podobo
podpec
podpira
podpirajo
podpiral
podpirala
podpirali
podpirati
podpis
podpisa
podpisal
podpisala
podpisali
podpisan
podpisana
podpisati
podpisom
podpisu
podpolkovnik
podpora
podpore
podpori
podporne
podporni
podpornik
podporniki
podpornikov
podporno
podporo
podpre
podpredsednik
podpredsednika
podpredsedniki
podpreti
podprl
podprla
podprli
podprt
podprta
podravske
podraz
podredil
podregijo
podrejen
podrejena
podrejeni
podreti
podrl
podrla
podrli
podrobneje
podrobnejs
podrobno
podrobnosti
podrobnostih
podroc
podruz
podrz
podstavek
podstavku
podstres
podu
poduc
poduk
podvig
podvozje
podvrsta
podvrste
podvrz
podz
podzemlja
podzemlje
podzemna
podzemne
podzemni
podzemnih
podzemno
poet
poetic
poezija
poezije
poeziji
poezijo
pogac
pogajanj
pogajanja
pogajanjih
pogajati
pogani
poganja
poganjajo
poganjal
poganjala
poganske
poganski
poganskih
pogin
pogine
poginil
poginiti
pogladil
poglavar
poglavarja
poglavij
poglavitna
poglavitni
poglavitno
poglavja
poglavje
poglavju
pogle
pogled
pogleda
pogledajo
pogledal
pogledala
pogledali
pogledam
pogledamo
pogledas
pogledat
pogledati
poglede
pogledi
pogledih
pogledom
pogledov
pogledoval
pogledovala
pogledu
pogleduje
poglej
poglejmo
poglejte
pognal
pognala
pognali
pognalo
pognati
pogodb
pogodba
pogodbe
pogodbi
pogodbo
pogodil
pogoj
pogoje
pogojem
pogojev
pogoji
pogojih
pogojno
pogon
pogorel
pogorela
pogoris
pogorja
pogorje
pogorju
pogost
pogosta
pogoste
pogosteje
pogostejs
pogosti
pogostih
pogosto
pogostoma
pogostost
pogostosti
pogovarja
pogovarjajo
pogovarjal
pogovarjala
pogovarjali
pogovarjati
pogovor
pogovora
pogovore
pogovori
pogovorih
pogovoriti
pogovorno
pogovorom
pogovorov
pogovoru
pograbi
pograbil
pograbila
pogreb
pogreba
pogrebci
pogrebne
pogrebni
pogrebu
pogres
pogreznil
pogube
pogubi
pogubo
pogum
poguma
pogumen
pogumna
pogumni
pogumno
pogumom
pohis
pohitel
pohitela
pohiti
pohlep
pohlevno
pohlin
pohod
pohoda
pohode
pohodi
pohodih
pohodnis
pohodom
pohodov
pohodu
pohorja
pohorje
pohorju
pohujs
pohvale
pohvali
pohvalil
pohvalila
pohvalo
poimenoval
poimenovala
poimenovali
poimenovan
poimenovana
poimenovane
poimenovani
poimenovanja
poimenovanje
poimenovano
point
pois
poiskal
poiskala
poiskali
poiskati
poizkus
poizkusi
poizkusil
poizvedoval
poj
pojasni
pojasnil
pojasnila
pojasnilo
pojasniti
pojasnjuje
pojav
pojava
pojave
pojavi
pojavijo
pojavil
pojavila
pojavile
pojavili
pojavilo
pojavlja
pojavljajo
pojavljala
pojavljali
pojavljati
pojavnost
pojavom
pojavov
pojavu
pojde
pojdejo
pojdem
pojdemo
pojdes
pojdete
pojdeva
pojdi
pojdimo
pojdita
pojdite
pojdiva
poje
pojedel
pojedla
pojedli
pojejo
pojem
pojma
pojme
pojmi
pojmov
pojmovanje
pojo
pojoc
pojte
pojutris
pok
poka
pokal
pokala
pokalu
pokanje
pokas
pokaz
pokazal
pokazala
pokazale
pokazali
pokazalo
pokazati
pokima
pokimal
pokimala
poklekne
pokleknil
pokleknila
poklic
poklica
poklical
poklicala
poklicali
poklican
poklicani
poklicati
poklici
poklicna
poklicne
poklicni
poklicnih
poklicno
poklicu
poklon
pokloni
poklonil
pokoj
pokoja
pokojnega
pokojni
pokojnika
pokojno
pokoju
pokol
pokonc
pokonci
pokoncu
pokop
pokopal
pokopali
pokopalis
pokopan
pokopana
pokopani
pokopati
pokora
pokore
pokoren
pokori
pokoril
pokoriti
pokorno
pokoro
pokors
pokos
pokrajin
pokrajina
pokrajinah
pokrajine
pokrajini
pokrajino
pokrajinskega
pokrajinski
pokrepc
pokrije
pokril
pokrila
pokrili
pokrit
pokrita
pokrite
pokriti
pokrito
pokriva
pokrivajo
pokrival
pokrivala
pokrivalo
pokriz
pokrov
pokrovitelj
pokroviteljstvom
pokus
pokvaril
pol
pola
polagoma
polajnar
poland
polarni
polas
polasti
polastil
polastila
polastili
polastiti
polbrat
polbrata
poldan
polde
poldne
poldneva
poldnevu
poldrugi
poldrugo
pole
poleg
polemike
polet
poletel
poleti
poletih
poletja
poletje
poletju
poletna
poletne
poletnega
poletnem
poletni
poletnih
poletno
poletov
polez
polfinale
polfinalu
polglasno
polhov
poli
polic
polica
policaj
police
polici
policija
policije
policiji
policijo
policijska
policijske
policijskega
policijski
policijskih
policijsko
policist
policista
policisti
policistov
polico
policy
polieder
poliedri
poliedrov
poliksena
polis
polish
politic
political
politics
politik
politika
politike
politiki
politiko
politikov
polj
polja
poljak
poljaki
poljakov
poljan
poljanah
poljane
poljanec
poljani
poljc
polje
poljedelstvo
poljem
polji
poljih
poljs
poljska
poljske
poljskega
poljskem
poljski
poljskih
poljskim
poljsko
polju
poljub
poljubi
poljubil
poljubila
poljubiti
poljublja
poljubljal
poljubno
poljubom
poljubov
polk
polka
polke
polki
polkov
polkovna
polkovne
polkovnik
polkovnika
polkroz
polku
polmer
poln
polna
polne
polnega
polnem
polni
polnih
polnila
polnim
polnimi
polnjenje
polno
polnoc
polnoletnih
polo
polobli
polom
polomil
polona
polonica
polotok
polotoka
polotoku
polovic
polovica
polovice
polovici
polovico
poloz
polt
polti
polu
poluglasno
polz
pomaga
pomagac
pomagaj
pomagajo
pomagajte
pomagal
pomagala
pomagale
pomagali
pomagalo
pomagam
pomagat
pomagati
pomakne
pomaknil
pomanjkanja
pomanjkanje
pomanjkanjem
pomanjkanju
pomanjkljivost
pomanjkljivosti
pomanjs
pomaranc
pome
pomec
pomemben
pomembna
pomembne
pomembnega
pomembnejs
pomembni
pomembnih
pomembnimi
pomembno
pomembnost
pomembnosti
pomen
pomena
pomene
pomenek
pomeni
pomenijo
pomenil
pomenila
pomenili
pomenilo
pomeniti
pomeniva
pomenja
pomenljivo
pomenom
pomenov
pomenu
pomeril
pomes
pomez
pomignil
pomika
pomikal
pomikala
pomikati
pomilovalno
pomiri
pomiril
pomirila
pomiriti
pomis
pomisleka
pomisleke
pomisli
pomislil
pomislila
pomislim
pomislimo
pomislite
pomisliti
pomlad
pomladanski
pomladi
pomladni
pomladno
pomni
pomnil
pomnim
pomnoz
pomoc
pomol
pomolc
pomoli
pomolil
pomolu
pomoravskega
pomore
pomors
pomorska
pomorske
pomorskega
pomorski
pomorskih
pomorsko
pomota
pomotoma
pomoz
pomrli
pomurska
ponas
ponatis
ponavadi
ponavlja
ponavljajo
ponavljajoc
ponavljal
ponavljala
ponavljali
ponavljati
ponazarja
ponedeljek
ponekod
ponemc
ponese
ponesrec
poniz
ponj
ponjo
ponoc
ponos
ponosa
ponosen
ponosna
ponosne
ponosnega
ponosni
ponosno
ponosom
ponovi
ponovil
ponovila
ponovili
ponovitev
ponoviti
ponovna
ponovne
ponovnega
ponovnem
ponovni
ponovno
pont
ponte
ponudba
ponudbe
ponudbo
ponudi
ponudil
ponudila
ponudili
ponuditi
ponuja
ponujajo
ponujal
ponujala
ponujali
pooblas
pooblastil
pooblastila
pooblastilo
pop
popa
popac
popade
pope
popeljal
popelje
popeljem
poper
popes
popevka
popevke
popil
popis
popisa
popisal
popisati
popisov
popisu
poplac
poplav
poplava
poplave
poplavi
popo
popoldan
popoldne
popoldneva
popoln
popolna
popolne
popolnega
popolnem
popolni
popolno
popolnoma
popolnost
popolnosti
popolo
popoludne
popotni
popotnik
popotnika
popotniki
popotnikov
popov
popovic
popras
popravi
popravil
popravila
popravili
popravilo
popraviti
popravlja
popravljal
popravljati
popred
poprej
poprejs
poprijel
poprime
poprosi
poprosil
populacija
populacije
populaciji
populacijo
popular
popularen
popularna
popularne
popularni
popularno
popularnost
popularnosti
population
popus
popusti
popustil
popustila
popustiti
por
poraba
porabe
porabi
porabijo
porabil
porabila
porabili
porabiti
porabo
poras
porast
poravna
poravnal
poravnati
poravnavo
poraz
poraza
porazdelitev
porazdelitve
porazi
porazil
porazila
porazili
porazom
porazov
porazu
porcaro
porcelana
porec
poredno
porekla
poreklo
poreklu
poreko
porenje
porine
porinil
poroc
porod
porodil
porodila
porodnis
porodu
porogljivo
porok
poroka
poroke
poroki
poroko
poros
porsche
port
porta
portal
portala
portali
portalom
portalu
porte
porter
porti
portik
portland
portna
portne
portnega
portni
portnih
portnik
portniki
portnikov
portno
porto
portoroz
portrait
portret
portreta
portrete
portreti
portretov
portu
portugalci
portugals
portugalska
portugalske
portugalskega
portugalskem
portugalski
portugalskih
portugalsko
porus
pos
posadi
posadil
posadila
posadili
posadka
posadke
posadko
posamezen
posamezna
posamezne
posameznega
posamezni
posameznih
posameznik
posameznika
posameznike
posamezniki
posameznikih
posameznikom
posameznikov
posameznikovo
posamezniku
posameznim
posameznimi
posamezno
posamic
posavje
posavske
posebej
poseben
posebna
posebne
posebnega
posebnem
posebni
posebnih
posebnim
posebnimi
posebno
posebnost
posebnosti
posec
posedal
posedli
poseg
posega
posegel
posegi
posegla
posekal
posel
poseljena
poseljeno
posest
posestev
posesti
posestnik
posestniki
posestva
posestvih
posestvo
posestvu
posez
posijalo
poskoc
poskrbel
poskrbela
poskrbeli
poskrbeti
poskrbi
poskus
poskusa
poskuse
poskusi
poskusih
poskusil
poskusila
poskusili
poskusiti
poskusom
poskusov
poskusu
posla
poslabs
poslal
poslala
poslali
poslalo
poslan
poslana
poslanca
poslance
poslancev
poslanci
poslanec
poslani
poslanka
poslanska
poslanske
poslanstvo
poslati
poslavlja
poslavljal
posle
posledic
posledica
posledicami
posledice
posledico
poslednja
poslednje
poslednjega
poslednjem
poslednji
poslednjic
poslednjih
poslednjo
poslej
posli
poslih
poslikal
poslikana
poslikane
poslikave
poslom
poslopij
poslopja
poslopje
poslopji
poslopju
poslov
poslovanja
poslovanje
poslovanju
poslovenil
poslovi
poslovil
poslovila
poslovili
posloviti
poslovna
poslovne
poslovnega
poslovnez
poslovni
poslovnih
poslovno
poslu
poslus
posluz
posmeh
posmehljivo
posmehuje
posmejal
posmrtne
posmrtni
posmrtno
posnel
posnela
posneli
posnema
posnemajo
posnemal
posnemali
posnemati
posnet
posneta
posnete
posnetek
posneti
posnetke
posnetki
posnetkih
posnetkov
posnetku
posod
posoda
posodah
posode
posodi
posodil
posodila
posodo
posodobitev
posojila
posojilo
pospes
posplos
pospravil
posrec
posrednik
posredno
posredoval
posredovanja
posredovanje
posredovanjem
posredovanju
posredovati
posreduje
post
posta
postaj
postaja
postajah
postajajo
postajal
postajala
postajale
postajali
postajalis
postajalo
postaje
postaji
postajo
postal
postala
postale
postali
postalo
postane
postanejo
postanek
postanem
postanes
postanku
postaral
postati
postav
postava
postavah
postave
postavi
postavijo
postavil
postavila
postavili
postavilo
postavim
postavimo
postavitev
postaviti
postavitve
postavitvi
postavlja
postavljajo
postavljal
postavljali
postavljati
postavljen
postavljena
postavljene
postavljeni
postavljenih
postavljeno
postavo
postelj
postelja
postelje
postelji
posteljo
postojanka
postojanke
postojanko
postoji
postojna
postojni
postopac
postopal
postopanje
postopek
postopka
postopke
postopki
postopkih
postopkom
postopkov
postopku
postopno
postopoma
postrani
postrec
postregel
postregla
postrez
posus
posuta
posvec
posvet
posveti
posvetil
posvetila
posvetili
posvetilo
posvetitev
posvetiti
posvetna
posvetne
posvetnega
posvetni
posvetnih
posvetno
posvetoval
posvetovali
posvetovanje
pot
pota
potapljac
pote
potec
potegne
potegnil
potegnila
potegnili
potegniti
potegoval
poteh
potek
poteka
potekajo
potekal
potekala
potekale
potekali
potekalo
potekel
potekla
poteku
potem
potemkin
potemtakem
potencial
potenciala
potencialne
potencialno
potepuh
potez
poteza
potezah
poteze
potezo
poti
potice
potih
potihoma
potipal
potisk
potiska
potisne
potisnil
potisnila
potisnili
potjo
potlac
potlej
potne
potni
potnik
potnika
potnike
potniki
potnikom
potnikov
potnis
potno
potoc
potok
potoka
potokar
potoki
potokih
potokom
potokov
potoku
potolaz
potolc
potom
potoma
potomca
potomce
potomcev
potomci
potomec
potop
potopi
potopil
potopila
potopili
potopljena
potopu
potov
potoval
potovala
potovali
potovanj
potovanja
potovanje
potovanjem
potovanjih
potovanju
potovati
potoz
potrc
potrdi
potrdil
potrdila
potrdile
potrdili
potrdilo
potrditev
potrditi
potreb
potreba
potrebam
potrebami
potrebe
potreben
potrebi
potrebna
potrebne
potrebnega
potrebni
potrebnih
potrebnim
potrebno
potrebo
potreboval
potrebovala
potrebovali
potrebs
potrebuje
potrebujejo
potrebujem
potrebujemo
potrebujes
potres
potresa
potresi
potresov
potresu
potrjen
potrjena
potrjeno
potrjuje
potrjujejo
potrka
potrkal
potrkala
potros
potrpeti
potrpez
potrpi
potrpite
potrt
potrta
potrudil
potter
potu
potuhnil
potuje
potujejo
potujoc
pouc
poudarek
poudaril
poudariti
poudarja
poudarjajo
poudarjal
poudarjena
poudarjeno
poudarkom
pouk
pouka
pouku
pour
pouz
povabi
povabil
povabila
povabili
povabilo
povabljen
povabljeni
pove
povec
povedal
povedala
povedali
povedano
povedat
povedati
povedel
povedi
povedo
povej
povejte
povelic
povelja
povelje
poveljeval
poveljnik
poveljnika
poveljniki
poveljnikom
poveljnikov
poveljniku
poveljnis
poveljstva
poveljstvo
poveljstvom
poveljstvu
povem
povemo
poves
povesi
povesil
povesila
povest
poveste
povesti
povez
povezal
povezala
povezali
povezan
povezana
povezane
povezanega
povezani
povezanih
povezanimi
povezano
povezanost
povezanosti
povezati
povezav
povezava
povezave
povezavi
povezavo
povezoval
povezovala
povezovali
povezovanja
povezovanje
povezuje
povezujejo
povijest
povis
povod
povoda
povodenj
povodni
povodnji
povojni
povojnih
povpras
povprec
povrac
povratek
povratku
povratna
povratne
povrh
povrhu
povrne
povrnem
povrni
povrnil
povrnila
povrniti
povrs
povs
povsem
povsod
povsodi
povzame
povzdigne
povzdignil
povzdignila
povzdignjen
povzel
povzela
povzetek
povzpel
povzpela
povzroc
powell
power
poz
pozabi
pozabijo
pozabil
pozabila
pozabili
pozabim
pozabite
pozabiti
pozabljen
pozabljena
pozabljeni
pozabljeno
pozdrav
pozdrava
pozdrave
pozdravi
pozdravil
pozdravila
pozdravili
pozdraviti
pozdravlja
pozdravljajo
pozdravljal
pozdravljali
pozdravljam
pozdravljen
pozdravljena
pozdravljeni
pozicijo
pozimi
pozitiven
pozitivna
pozitivne
pozitivnega
pozitivni
pozitivnih
pozitivno
poziv
poziva
pozlac
pozna
poznajo
poznal
poznala
poznali
poznalo
poznam
poznamo
poznan
poznana
poznane
poznani
poznanih
poznano
poznas
poznata
poznate
poznati
poznavanje
pozne
poznega
pozneje
poznejs
poznem
pozni
poznih
pozno
pozor
pozoren
pozoris
pozorni
pozorno
pozornost
pozornosti
pozornostjo
pozove
pozval
pozvala
pozvali
pozvonil
pp
ppogoj
pr
pra
prac
practice
prado
prag
praga
prage
pragi
pragmatic
prago
pragom
pragu
prah
praha
prahom
prahu
praks
praksa
prakse
praksi
prakso
praktic
pranje
pranjo
prapor
prapors
praprotnik
pras
pratika
pratt
prav
prava
pravda
pravde
pravdo
prave
pravega
pravem
pravi
pravic
pravica
pravicah
pravicami
pravice
pravici
pravico
pravih
pravijo
pravil
pravila
pravilen
pravili
pravilih
pravilna
pravilne
pravilnega
pravilni
pravilnih
pravilnik
pravilno
pravilo
praviloma
pravim
pravimo
pravis
pravite
praviti
pravkar
pravljic
pravljica
pravljicah
pravljice
pravljici
pravljico
pravna
pravne
pravnega
pravni
pravnih
pravnik
pravniki
pravnikov
pravno
pravnomoc
pravo
pravoc
pravokotna
pravokotne
pravokotni
pravokotno
pravopis
pravoslavna
pravoslavne
pravoslavni
pravoslavnih
pravoslavno
pravosodje
pravu
pravzaprav
praz
prazen
prazna
prazne
praznega
praznem
prazni
praznic
praznih
praznik
praznika
praznike
prazniki
praznikih
praznikov
prazniku
praznim
praznimi
praznina
praznino
prazno
praznoval
praznovala
praznovali
praznovanja
praznovanje
praznovanju
praznuje
praznujejo
pre
prebavil
prebere
prebije
prebil
prebila
prebili
prebiral
prebiti
prebiva
prebivajo
prebival
prebivala
prebivalca
prebivalce
prebivalcem
prebivalcev
prebivalci
prebivalec
prebivali
prebivalis
prebivalstva
prebivalstvo
prebivalstvom
prebivalstvu
prebledel
prebledela
preblizu
preboj
prebral
prebrala
prebrati
prebudi
prebudil
prebudila
prec
prece
precej
precejs
pred
preda
predaja
predaji
predajo
predal
predala
predalc
predalec
predali
predan
predana
predanost
predati
predava
predaval
predavanj
predavanja
predavanje
predavatelj
predavatelji
predc
preddverje
preddvor
prede
predel
predela
predelal
predelana
predelava
predelave
predelavo
predele
predeli
predelih
predelov
predelu
preden
predenj
predgovor
predgovoru
predhodne
predhodnega
predhodni
predhodnica
predhodnih
predhodnik
predhodnika
predhodniki
predhodnikov
predhodno
predikant
predla
predlaga
predlagajo
predlagal
predlagala
predlagali
predlagana
predlagano
predlog
predloga
predloge
predlogi
predlogom
predlogov
predlogu
predloz
predmestja
predmestje
predmestju
predmet
predmeta
predmete
predmeti
predmetih
predmetov
predmetu
prednik
prednika
prednike
predniki
prednikov
prednje
prednji
prednjo
predno
prednost
prednosti
predobro
predoc
predolgo
predor
predora
predorov
predpasnik
predpasnikom
predpis
predpise
predpisi
predpisih
predpisov
predpisuje
predpostavlja
predraga
predragi
predrami
predramil
predrugac
predrzen
predrzni
predrzno
predrznost
preds
predse
predsednica
predsednik
predsednika
predsedniki
predsednikom
predsednikov
predsedniku
predsednis
predsedoval
predsedstva
predsedstvo
predsodkov
predstav
predstava
predstavah
predstave
predstavi
predstavil
predstavila
predstavili
predstavitev
predstaviti
predstavitve
predstavitvi
predstavlja
predstavljajo
predstavljal
predstavljala
predstavljale
predstavljali
predstavljalo
predstavljamo
predstavljata
predstavljati
predstavljen
predstavljena
predstavljene
predstavljeni
predstavnica
predstavnik
predstavnika
predstavnike
predstavniki
predstavnikov
predstavnis
predstavo
predstojnik
predstojnika
predvajal
predvajala
predvajali
predvajan
predvajana
predvajanje
predvc
predvec
predvidel
predvidena
predvideno
predvideva
predvidevajo
predvideval
predvsem
prefekt
prefekta
prefektura
prefekture
prefekturi
preganja
preganjajo
preganjal
preganjala
preganjali
preganjanja
preganjanje
preganjati
pregelj
preglavice
pregled
pregleda
pregledal
pregledala
pregledali
pregledati
pregledu
pregnal
pregnala
pregnali
pregnati
pregon
pregona
pregovor
pregovori
pregovoril
pregovoriti
pregrada
pregrade
pregrado
pregrehe
pregres
prehaja
prehajajo
prehitel
prehitela
prehiteti
prehitro
prehladil
prehod
prehoda
prehodi
prehodil
prehodna
prehodne
prehodno
prehodom
prehodov
prehodu
prehrana
prehrane
prehrani
prehranjuje
prehranjujejo
prehrano
prehudo
preide
preidejo
preimenoval
preimenovala
preimenovali
preimenovalo
preimenovan
preimenovana
preis
preiskal
preiskali
preiskati
preiskava
preiskave
preiskavi
preiskavo
preiskovalna
preiskovalni
preizkus
prej
preje
prejel
prejela
prejeli
prejelo
prejema
prejemal
prejemali
prejemnik
prejemniki
prejemnikov
prejeti
prejme
prejmejo
prejs
prek
prekas
prekine
prekinil
prekinila
prekinili
prekinitev
prekiniti
prekinitve
prekinjena
prekleta
prekleti
prekleto
prekletstvo
preklic
preklical
preklinjal
prekmurja
prekmurje
prekmurju
prekmurs
prekmurski
preko
prekomerno
prekop
prekopa
prekorac
prekrasen
prekrasna
prekrasno
prekrit
prekrita
prekrite
prekriva
prekrivajo
prekriz
prekrs
prelaz
prelaza
prelazu
prelepa
prelepe
prelepi
prelepo
preletel
preliv
preliva
prelivu
preljuba
preljubi
prelom
preloma
prelomi
prelomil
prelomu
preloz
preludij
premaga
premagajo
premagal
premagala
premagali
premagan
premagani
premagati
premagoval
premagovati
premaguje
premajhen
premajhna
premakne
premaknil
premaknila
premaknili
premakniti
premalo
premec
premer
premera
premeril
premerom
premeru
premes
premestili
premetaval
premic
premier
premiera
premierja
premierno
premiero
premik
premika
premikajo
premikajoc
premikal
premikala
premikanja
premikanje
premikati
premirja
premirje
premis
premisli
premislil
premislila
premislite
premisliti
premlad
premoc
premog
premoga
premor
premore
premoru
premotil
premoz
prenas
preneha
prenehal
prenehala
prenehali
prenehalo
prenehanje
prenehanju
prenese
prenesejo
prenesel
prenesla
prenesli
prenesti
prenoc
prenos
prenosa
prenosom
prenosu
prenova
prenove
prenovi
prenovljena
prenovo
preobc
preoblec
preoblekel
preoblikoval
preoblikovala
preoblikovanje
preobrat
preobraz
preobrazbo
preostala
preostale
preostali
preostalih
preostalo
preostanek
prepad
prepada
prepeljali
prepeljati
prepeva
prepeval
prepevala
prepevali
prepir
prepira
prepirala
prepirali
prepiri
prepiru
prepis
prepisal
preplas
prepoc
preporod
prepotoval
prepove
prepoved
prepovedal
prepovedala
prepovedali
prepovedan
prepovedana
prepovedane
prepovedani
prepovedanih
prepovedano
prepovedi
prepoveduje
prepozna
prepoznajo
prepoznal
prepoznali
prepoznamo
prepoznati
prepoznavanje
prepoznaven
prepoznavna
prepoznavnost
prepozno
preprec
preprez
prepric
preprog
preproga
preproge
preprogo
preprost
preprosta
preproste
preprostega
preprostejs
preprosti
preprostih
preprostim
preprosto
prepus
prepusti
prepustil
prepustila
prepustili
prepustiti
prerac
prerez
prerok
preroka
preroki
prerokov
preros
pres
prescott
presec
presega
presegajo
presegel
presegla
presek
preseka
presekal
preseli
preselil
preselila
preselili
preselilo
preseliti
presenec
presenetil
presenetila
presenetljivo
present
presez
president
preskoc
preskrbel
preskrbeti
preskrbi
preskus
presledkih
preslis
presneto
prespal
presrc
presrec
press
prestal
prestala
prestali
prestane
prestanka
prestati
prestavil
prestavili
prestavljen
prestiz
prestol
prestola
prestolnica
prestolnice
prestolnici
prestolnico
prestolonaslednik
prestolonaslednika
prestolu
prestop
prestopi
prestopil
prestopila
prestopili
prestopiti
prestopnih
prestopno
prestras
prestregel
pretaka
pretec
pretege
pretekla
pretekle
preteklega
pretekli
preteklih
preteklo
preteklost
preteklosti
preteku
pretep
pretepal
pretepel
pretez
preti
pretila
pretirana
pretirano
pretnar
pretoc
pretok
pretoka
pretrese
pretresel
pretresla
pretreslo
pretrga
pretrgal
pretrgala
pretrpel
pretrpela
pretrpeti
pretvarja
pretvezo
pretvorba
pretvorbo
pretvori
preuc
preudarjal
preuredili
preurejena
preusmeril
prev
prevaja
prevajal
prevajalcev
prevajalci
prevajalec
prevajalka
prevajanja
prevajanje
prevajanju
prevara
prevare
prevaro
prevaz
prevec
prevedel
preveden
prevedena
prevedeno
prevedla
prevedli
prevel
prevelik
prevelika
prevelike
prevelikega
preveliko
preveri
preveriti
preverjanje
preverjen
previden
previdni
previdno
previdnost
previdnosti
previsoko
prevlada
prevlade
prevlado
prevladoval
prevladovala
prevladovali
prevladuje
prevladujejo
prevladujoc
prevlec
prevod
prevoda
prevode
prevodi
prevodov
prevodu
prevoz
prevoza
prevrac
prevrnil
prevroc
prevzame
prevzamejo
prevzel
prevzela
prevzele
prevzeli
prevzelo
prevzem
prevzema
prevzemu
prevzet
prevzeti
prevzeto
prevzvis
prez
prezbiterij
prezbiterija
prezbiteriju
prezgodaj
prezira
prezirljivo
prezrac
prezrl
pri
pribez
pribliz
priboc
priboril
pric
price
prid
prida
pride
pridejo
pridelavo
pridelek
pridelka
pridelke
pridelki
pridelkov
pridem
pridemo
priden
prides
prideta
pridete
prideva
pridevnik
pridi
pridiga
pridigal
pridigar
pridige
pridigo
pridite
pridna
pridne
pridni
pridno
pridobi
pridobijo
pridobil
pridobila
pridobili
pridobilo
pridobitev
pridobiti
pridobitve
pridobiva
pridobivajo
pridobivali
pridobivanja
pridobivanje
pridobivanju
pridobljen
pridobljena
pridobljene
pridobljeni
pridobljenih
pridobljeno
pridruz
pridrz
pridus
priganjal
prignal
prigodilo
prigovarja
prigovarjal
prigovarjala
prigovarjanje
prihaja
prihajajo
prihajajoc
prihajal
prihajala
prihajale
prihajali
prihajalo
prihajam
prihajas
prihajati
prihitel
prihitela
prihiteli
prihiti
prihod
prihoda
prihodkov
prihodnje
prihodnjega
prihodnji
prihodnjic
prihodnjih
prihodnjo
prihodnjost
prihodnost
prihodnosti
prihodom
prihodu
prihranil
priimek
priimka
priimke
priimki
prija
prijatel
prijatelj
prijatelja
prijatelje
prijateljem
prijateljev
prijatelji
prijateljica
prijateljice
prijateljici
prijateljico
prijateljske
prijateljski
prijateljskih
prijateljsko
prijateljstva
prijateljstvo
prijateljstvu
prijatelju
prijavil
prijazen
prijazna
prijazne
prijaznega
prijaznejs
prijaznem
prijazni
prijaznih
prijaznim
prijazno
prijaznost
prijaznosti
prijel
prijela
prijeli
prijelo
prijeten
prijeti
prijetna
prijetne
prijetnega
prijetnejs
prijetni
prijetnih
prijetno
prijezdil
prikaz
prikazal
prikazala
prikazali
prikazalo
prikazan
prikazana
prikazane
prikazani
prikazano
prikazati
prikazen
prikazni
prikazoval
prikazovali
prikazuje
prikazujejo
prikima
prikimal
prikimala
priklic
prikljuc
prikloni
priklonil
prikrajs
prikriti
prikrito
prikrival
prikupil
prilagajanje
prilagodili
prilagoditev
prilagoditi
prilagoditve
prilagojen
prilagojena
prilagojene
prilega
priletel
priletela
prileti
prilez
prilezel
prilic
prilika
prilikah
prilike
priliki
priliko
priljubljen
priljubljena
priljubljene
priljubljeni
priljubljenih
priljubljeno
priljubljenost
priljubljenosti
priloga
priloz
prim
prima
primanjkovalo
primanjkuje
primarna
primarne
primarni
primarnih
primarno
prime
primejo
primer
primera
primere
primerek
primeren
primeri
primerih
primerilo
primerja
primerjaj
primerjal
primerjali
primerjalna
primerjalne
primerjalno
primerjamo
primerjati
primerjava
primerjave
primerjavi
primerjavo
primerki
primerkov
primerna
primerne
primernega
primernejs
primerni
primernih
primerno
primerov
primeru
primes
primi
primoran
primorje
primorska
primorske
primorskem
primorski
primorsko
primoz
prinas
princ
princa
prince
princem
princesa
princese
princeska
princeso
princeton
princip
principles
principu
princu
prinese
prinesejo
prinesel
prinesem
prinesi
prinesite
prinesla
prinesle
prinesli
prineslo
prineso
prinesti
print
printerji
priobc
prior
pripada
pripadajo
pripadajoc
pripadal
pripadala
pripadali
pripadalo
pripadel
pripadla
pripadlo
pripadnik
pripadnike
pripadniki
pripadnikov
pripadnost
pripadnosti
pripekalo
pripeljal
pripeljala
pripeljale
pripeljali
pripeljalo
pripeljati
pripelje
pripeljejo
pripeti
pripetila
pripetilo
pripis
pripisal
pripisali
pripisana
pripisati
pripisovali
pripisuje
pripisujejo
priplazil
pripombe
pripomni
pripomnil
pripomnila
pripomoc
pripomogel
pripomogla
pripomogli
pripomoglo
pripomore
pripor
priporoc
priporu
pripoved
pripovedi
pripovedka
pripovedke
pripovedna
pripovedne
pripovednis
pripovedoval
pripovedovala
pripovedovalec
pripovedovali
pripovedovanja
pripovedovanje
pripovedovanjem
pripovedovanju
pripovedovati
pripoveduje
pripovedujejo
priprav
priprava
pripravah
pripravami
priprave
pripraven
pripravi
pripravijo
pripravil
pripravila
pripravili
pripravite
pripraviti
pripravlja
pripravljajo
pripravljal
pripravljala
pripravljali
pripravljati
pripravljen
pripravljena
pripravljene
pripravljeni
pripravljenih
pripravljeno
pripravljenost
pripravljenosti
pripravno
pripravo
pripros
priprosto
pripus
priredba
priredbe
priredbo
priredil
priredila
priredili
prireditev
prireditvah
prireditve
prireditvi
prirejali
priroc
priroda
prirode
prirodi
prirojena
prirojene
prirojeno
pris
prisec
prisede
prisedel
prisega
prisegam
prisege
prisegel
prisegla
prisegli
prisego
priseljencev
priseljenci
prisez
prisili
prisilil
prisilila
prisilili
prisililo
prisiliti
prisiljen
prisiljena
prisiljeni
prisiljeno
prisilno
priskoc
priskrbel
prisluhnil
prislus
prisluz
prisonc
prisoten
prisotna
prisotne
prisotni
prisotnih
prisotno
prisotnost
prisotnosti
prispe
prispel
prispela
prispeli
prispeva
prispevajo
prispeval
prispevala
prispevali
prispevalo
prispevek
prispevka
prispevke
prispevki
prispevkov
prisrc
pristajalno
pristal
pristala
pristali
pristan
pristane
pristanek
pristanis
pristas
pristava
pristavi
pristavil
pristavila
pristavo
pristno
pristojno
pristojnost
pristojnosti
pristop
pristopa
pristopi
pristopil
pristopila
pristopu
prisvojil
pritajeno
pritec
pritegne
pritegnil
pritegnila
pritekel
pritekla
priti
pritisk
pritiska
pritiskal
pritiskala
pritiskom
pritisku
pritisne
pritisnil
pritisnila
pritlic
pritlikavec
pritok
pritoka
pritoki
pritokov
pritoz
pritrdi
pritrdil
pritrdila
pritrdili
pritrjen
pritrjena
pritrjene
pritrjeni
priuc
privabil
privadi
privadil
privadila
private
privatnik
privatniki
privatno
privede
privedel
privedla
privedle
privedli
privedlo
privez
privezal
privezali
privezan
privid
privil
privilegij
privilegije
privilegijev
privlac
privlec
privlekel
privolil
privolila
privos
privrz
privs
privzdignil
privzel
prix
priz
prizadel
prizadela
prizadelo
prizadene
prizadet
prizadeta
prizadete
prizadeti
prizadetih
prizadeva
prizadevajo
prizadeval
prizadevala
prizadevali
prizadevanj
prizadevanja
prizadevanje
prizadevanjem
prizadevanju
prizanas
prizanesel
prize
prizma
prizna
priznal
priznala
priznali
priznam
priznan
priznana
priznane
priznani
priznanih
priznanj
priznanja
priznanje
priznanju
priznano
priznati
priznava
priznavajo
priznavali
prizor
prizora
prizore
prizori
prizorih
prizoris
prizorov
prizoru
pro
problem
problema
problematic
problematiko
probleme
problemi
problemih
problemom
problemov
proc
proceedings
proces
procesa
procese
procesi
procesih
procesija
procesije
procesiji
procesijo
procesom
procesov
procesu
prod
proda
prodaj
prodaja
prodajajo
prodajal
prodajala
prodajalec
prodajali
prodajalnico
prodajalno
prodajati
prodaje
prodaji
prodajo
prodal
prodala
prodali
prodan
prodana
prodanih
prodati
prodiranje
prodirati
prodor
prodre
prodreti
prodrl
prodrla
prodrli
produ
producent
producenta
producenti
produciral
production
productions
produkcija
produkcije
produkciji
produkcijo
produkt
produkta
produkti
produktivnost
produktivnosti
produktov
prof
profesionalni
profesionalno
profesor
profesorica
profesorja
profesorjem
profesorjev
profesorji
profesorju
profil
profile
prog
proga
proge
progi
proglas
proglasil
progo
program
programa
programe
programi
programih
programiranje
programom
programov
programska
programske
programski
programskih
programsko
programu
proizvaja
proizvajajo
proizvajalca
proizvajalcev
proizvajalci
proizvajalec
proizvajali
proizvajati
proizvede
proizvod
proizvode
proizvodi
proizvodnih
proizvodnja
proizvodnje
proizvodnji
proizvodnjo
proizvodov
project
projekcija
projekt
projekta
projekte
projekti
projektih
projektom
projektov
projektu
prokleta
prokleti
prokleto
promet
prometa
prometna
prometne
prometni
prometnih
prometno
prometu
promocija
promocijo
promoviral
propad
propada
propadati
propade
propadel
propadla
propadlo
propadu
propaganda
propagande
propagando
propeler
prorac
pros
prosec
prosi
prosijo
prosil
prosila
prosili
prosim
prosimo
prosit
prositi
proslavil
proso
prost
prosta
proste
prostega
prostem
prosti
prostih
prostim
prosto
prostodus
prostor
prostora
prostore
prostori
prostorih
prostorna
prostorni
prostornina
prostornine
prostornino
prostorno
prostorom
prostorov
prostorske
prostorsko
prostoru
prostost
prostosti
prostovoljcev
prostovoljci
prostovoljec
prostovoljno
prostrani
prostrano
prosvetni
protection
protein
proteini
proteinov
protektorat
protest
protesta
protestanti
protestantizem
protestantov
protestantska
protestantske
protestantski
protestantskih
protestantsko
protesti
protestniki
protestnikov
protestov
proti
protikomunistic
protinapad
protipapez
protiteles
protitelesa
proto
protokol
protokola
proton
protonov
prototip
prouc
provence
provinc
provinca
provincah
province
provinci
provinco
provizor
provzroc
proz
proza
proze
prozi
prozo
prs
prsa
prsi
prsih
prsnega
prsni
prst
prsta
prstan
prstana
prstanov
prste
prsti
prstih
prstom
prstov
prt
prtic
prtljago
prtom
pruc
prusi
prusija
prusije
prusiji
prusijo
pruska
pruske
pruski
prusko
prva
prvak
prvaka
prvaki
prvakinja
prvakinje
prvakov
prve
prvega
prvem
prvemu
prvenec
prvenstva
prvenstvenih
prvenstvih
prvenstvo
prvenstvu
prvi
prvic
prvih
prvikrat
prvim
prvimi
prvine
prvo
prvoborci
prvotna
prvotne
prvotnega
prvotnem
prvotni
prvotnih
prvotno
przemisl
ps
psa
psalm
pse
psevdonim
psevdonimom
psi
psic
psihiater
psihiatric
psihic
psiholog
psihologi
psihologija
psihologije
psihologijo
psiholos
psom
psov
pst
psu
psychological
psychology
pt
ptic
ptica
pticami
ptice
ptico
ptolemaj
ptolemaja
ptuj
ptuja
ptujski
ptuju
pu
public
publications
publicist
publicisti
publicistic
publicistka
publikacij
publikacije
published
publishers
publishing
publius
puc
puerto
pugelj
puh
pulj
pulju
punc
punca
punce
punco
punk
punt
punta
purple
pus
pust
pusta
puste
pustet
pusti
pustijo
pustil
pustila
pustili
pustim
pustimo
pustis
pustite
pustiti
pustiva
pustni
pusto
pustolovec
pustolovs
pustos
put
putin
putnam
pv
pw
px
python
q
qa
qb
qc
qd
qe
qf
qi
qm
qn
qo
qp
qquad
qr
qs
qt
qu
quad
quarterly
que
quebec
queen
query
qui
quo
quod
qz
r
ra
raba
rabe
rabelj
rabi
rabijo
rabil
rabila
rabili
rabim
rabin
rabiti
rabo
rac
raca
race
rachel
racing
racionalno
rad
rada
radar
rade
radec
radgona
radgoni
radi
radia
radic
radijska
radijske
radijski
radijskih
radijsko
radikalno
radio
radiu
radivoj
rado
radoslav
radost
radosti
radostjo
radostno
radovan
radoveden
radovedna
radovednez
radovedni
radovedno
radovednost
radovednosti
radovljica
radovljici
radovoljno
raduje
radz
raf
rafael
rafaela
raffaele
rahel
rahla
rahlo
rahloc
rail
railroad
railway
rain
rainer
raj
raja
raje
rajh
rajha
raji
rajko
rajmond
rajnega
rajni
rajnki
rajs
rajske
rajski
raju
rak
raka
rake
raket
raketa
rakete
raketni
raketo
rakev
raki
rakom
rakov
rakovec
raku
ralf
ralph
ram
rama
ramah
rame
ramen
ramena
rameni
ramenih
rami
ramo
ramovs
ramzes
ramzesa
ran
rana
rane
rang
rangers
rangle
rani
ranil
ranila
ranjen
ranjena
ranjenca
ranjence
ranjencev
ranjenci
ranjene
ranjenec
ranjenega
ranjeni
ranjenih
ranjeno
rano
rant
rard
ras
rasa
rase
rasel
rasinskega
rasla
rasle
raslo
rast
raste
rastejo
rastel
rasti
rastis
rastislav
rastjo
rastla
rastlin
rastlina
rastlinah
rastlinami
rastline
rastlini
rastlino
rastlinske
rastlinskega
rastlinski
rastlinskih
rastlinstvo
rastlo
rasto
rastoc
rat
ration
ravan
ravbar
raven
ravna
ravnajo
ravnal
ravnala
ravnali
ravnanja
ravnanje
ravnanju
ravnatelj
ravnatelja
ravnatelju
ravnati
ravne
ravneh
ravnem
ravni
ravnice
ravnici
ravnih
ravnikar
ravnina
ravninah
ravnine
ravnini
ravnino
ravno
ravnodus
ravnokar
ravnotez
ravnovesja
ravnovesje
ray
raymond
raz
razbije
razbil
razbila
razbili
razbita
razbiti
razbitine
razbitino
razbito
razbojnik
razbojnika
razbojniki
razbojnikov
razbojnis
razbrati
razburil
razburjen
razburjena
razburjeni
razburjenja
razburjenje
razburjeno
razburjenost
razburjenosti
razc
razcvet
razcveta
razdalja
razdaljah
razdalje
razdalji
razdaljo
razdeli
razdelil
razdelila
razdelili
razdelimo
razdelitev
razdeliti
razdelitvi
razdeljen
razdeljena
razdeljene
razdeljeni
razdeljeno
razdraz
razen
razglas
razglasi
razglasil
razglasila
razglasili
razglasitev
razglasitvi
razgled
razgleda
razgledi
razgovarjal
razgovarjala
razgovarjali
razgovor
razgovora
razgovoru
razgrnil
raziskal
raziskav
raziskava
raziskavah
raziskavami
raziskave
raziskavi
raziskavo
raziskoval
raziskovalca
raziskovalcev
raziskovalci
raziskovalec
raziskovali
raziskovalna
raziskovalne
raziskovalnega
raziskovalnem
raziskovalni
raziskovalnih
raziskovalno
raziskovanja
raziskovanje
raziskovanjem
raziskovanju
raziskovati
raziskuje
razjarjen
razjasni
razjasnil
razjasniti
razjeda
razjezil
razjezila
razjokal
razjokala
razkac
razkladal
razkol
razkola
razkorac
razkos
razkrije
razkril
razkrila
razkrili
razkriti
razkriva
razkropili
razkuz
razlag
razlaga
razlagajo
razlagal
razlagala
razlagali
razlagati
razlage
razlagi
razlago
razlega
razlegal
razlegalo
razlic
razlije
razlik
razlika
razlike
razliko
razlikoval
razlikovala
razlikovali
razlikovanje
razlikovati
razlikuje
razlikujejo
razlikujemo
razlikujeta
razlil
razlila
razloc
razlog
razloga
razloge
razlogi
razlogov
razloz
razmer
razmerah
razmeram
razmerami
razmere
razmerij
razmerja
razmerje
razmerjem
razmerjih
razmerju
razmeroma
razmis
razmnoz
razmrs
razna
raznas
razne
raznesla
razni
raznih
raznim
raznimi
razno
raznolika
raznolike
raznoliko
raznolikost
raznolikosti
raznovrstne
raznovrstnih
raznovrstnost
raznovrstnosti
raznoz
razoc
razodel
razodela
razodene
razodeti
razodetja
razodetje
razodeva
razoroz
razpad
razpada
razpadajoc
razpade
razpadel
razpadla
razpadle
razpadom
razpadu
razpelo
razpis
razpoc
razpok
razpoke
razpolago
razpoloz
razpon
razponu
razporeditev
razporejene
razporejeni
razposajeno
razpotju
razprav
razprava
razpravah
razprave
razpravi
razpravlja
razpravljal
razpravljali
razpravo
razprostira
razprostirajo
razprostirala
razprostrl
razprs
razpus
razpustil
razred
razreda
razredc
razrede
razredi
razredih
razredni
razredov
razredu
razres
razrezali
razrus
razs
razsez
razsrdil
razstav
razstava
razstavah
razstave
razstavi
razstavljen
razstavljena
razstavljene
razstavljeni
razstavo
razsvetljavo
razsvetljena
razsvetljeno
razsvetljenstva
razteza
raztezajo
raztezala
raztolmac
raztopina
raztopine
raztopini
raztopino
raztresene
raztrga
raztrgal
raztrgala
raztrgan
raztrgane
raztrgani
raztrgano
razum
razuma
razume
razumejo
razumel
razumela
razumeli
razumem
razumemo
razumen
razumes
razumete
razumeti
razumevanja
razumevanje
razumevanju
razumljivo
razumno
razumom
razun
razvalin
razvalinah
razvaline
razvedrila
razvedrilo
razven
razveseli
razveselil
razveselila
razvidno
razvija
razvijajo
razvijajoc
razvijal
razvijala
razvijali
razvijalo
razvijanje
razvijati
razvije
razvijejo
razvil
razvila
razvile
razvili
razvilo
razvit
razvita
razvite
razviti
razvitih
razvito
razvnel
razvoj
razvoja
razvojem
razvojna
razvojne
razvojni
razvojnih
razvojno
razvoju
razvrs
razvrstitev
razz
rb
rc
rd
rdec
rdens
re
rea
reagira
reagirajo
reakcij
reakcija
reakcijah
reakcije
reakciji
reakcijo
reaktivni
reaktivno
reaktor
reaktorja
real
realistic
realizem
realizma
realna
realne
realnem
realni
realnih
realno
realnost
realnosti
reb
reber
rebra
rebri
rec
recept
receptor
receptorje
receptorjev
receptorji
reci
recimo
recite
record
records
red
reda
rede
redek
redi
redil
redka
redke
redkeje
redkejs
redki
redkih
redkimi
redko
redkokdaj
redna
redne
rednega
rednem
redni
rednih
redno
redo
redom
redov
redovi
redovnica
redovnik
redovniki
redovnis
redu
reed
reedy
referenc
reference
referendum
referenduma
referendumu
reform
reforma
reformacija
reformacije
reformami
reforme
reformi
reformo
regensburg
regent
regenta
regentstvo
regij
regija
regijah
regije
regiji
regijo
regiment
regina
reginald
region
regional
regionalna
regionalne
regionalni
regionalnih
regionalno
register
registriranih
registru
reich
reid
reinmuth
rejo
rek
reka
rekah
rekama
reke
rekel
reki
rekla
rekli
reklo
reko
rekoc
rekonstrukcija
rekonstrukcije
rekonstrukcijo
rekord
rekorderji
rekordi
rekordov
reks
rektor
rela
related
relations
relativna
relativne
relativno
relativnosti
release
relief
reliefa
reliefi
reliefov
reliefu
religij
religija
religije
religiji
religijo
religion
religious
relikvij
relikvije
relo
rem
rembrandt
remix
ren
rena
renaissance
renata
renato
renault
renc
rene
renesanc
renesansa
renesanse
renesansi
renesanso
renoir
renu
reorganizacijo
rep
repa
repe
repertoar
repic
replika
repo
repom
report
reportaz
reprezentanc
reprezentanca
reprezentance
reprezentanci
reprezentanco
reprezentanti
repu
republic
republik
republika
republikanske
republike
republiki
republiko
republis
rer
res
resa
research
resen
resna
resne
resnega
resnejs
resni
resnic
resnica
resnice
resnici
resnico
resnih
resnik
resnim
resno
resnost
resolucijo
resources
restavracija
restavracije
restavraciji
restavracijo
ret
reti
retrieved
return
rev
reva
revc
reve
reven
revesa
revez
revica
review
revij
revija
revijah
revije
reviji
revijo
revised
revna
revne
revnega
revnejs
revni
revnih
revnim
revno
revo
revolucija
revolucije
revoluciji
revolucijo
revolucionar
revolucionarne
revolucionarni
revolucionarno
revolution
revolver
revs
rex
rey
reynolds
rez
reza
rezal
rezanje
rezbarije
rezervat
rezervata
rezerve
rezervne
rezervni
rezervoar
rezhe
rezidenca
rezidence
rezidenco
rezika
reziki
reziko
rezka
rezko
rezultat
rezultata
rezultate
rezultati
rezultatom
rezultatov
rf
rg
rgen
rh
rhin
rho
ri
ria
rib
riba
ribami
ribar
ribe
ribic
ribica
ribice
ribis
ribje
ribnic
ribnica
ribnici
ribnik
ribnis
ribo
ribolov
ric
rica
ricardo
riccardo
ricci
ricciardo
rice
rich
richard
richarda
richards
richardson
richter
richu
rick
rico
riga
right
rights
rigi
rihard
riharda
rijeka
ril
rilanke
rilanki
riley
rim
rima
rime
rimljane
rimljani
rimljanom
rimljanov
rimokatolic
rimokatolis
rimom
rimska
rimske
rimskega
rimskem
rimskemu
rimski
rimskih
rimskim
rimskimi
rimsko
rimskokatolis
rimu
ring
rio
ris
risal
risanje
risar
risb
risba
risbe
rise
riserva
rita
rite
ritem
ritmic
ritmu
ritoper
ritter
rivalstvo
river
rivera
riz
rj
rja
rjav
rjava
rjave
rjavega
rjavi
rjavih
rjavo
rje
rjestads
rji
rju
rjuhe
rjuho
rk
rka
rkami
rke
rki
rko
rl
rla
rli
rm
rms
rn
rna
rnberg
rne
rnega
rnem
rni
rnih
rnila
rnilo
rnim
rnimi
rnk
rno
rnogorski
rnomelj
rnomlju
rnten
rnuc
ro
road
rob
roba
robcem
robe
robec
robert
roberta
roberto
robertom
roberts
robertson
robertu
robic
robin
robinson
robo
robom
robot
robov
robove
robovi
robovih
robu
roc
rocco
roche
rochefort
rochester
roci
rock
rocka
rod
roda
rodbin
rodbina
rodbine
rodbini
rodbino
rode
rodi
rodil
rodila
rodile
rodili
rodilo
roditeljev
rodna
rodne
rodni
rodno
rodoljub
rodoljubi
rodom
rodos
rodov
rodovi
rodovina
rodovine
rodovitna
rodovitne
rodovitno
rodri
rodu
rog
roga
rogac
rogal
rogas
rogatec
roge
roger
rogerja
rogers
rogljic
rogov
rogovi
rogu
roj
rojak
rojaka
rojake
rojaki
rojakom
rojakov
roje
rojen
rojena
rojene
rojeni
rojenice
rojeno
roji
rojstna
rojstnega
rojstnem
rojstni
rojstno
rojstva
rojstvo
rojstvom
rojstvu
rok
roka
rokah
rokama
rokami
rokav
rokava
rokave
rokavi
rokavice
rokavom
roke
roki
roko
rokodelske
rokometas
rokometne
rokometni
rokometu
rokopis
rokopisa
rokopise
rokopisi
rokopisih
rokopisov
rokopisu
rokovnjac
rokovnjas
roku
roland
rolanda
role
rolf
roll
rolling
rolls
rom
roma
romain
romal
roman
romana
romanca
romance
romane
romani
romanih
romanja
romanje
romano
romanom
romanov
romanska
romanske
romanskem
romanski
romanskih
romansko
romantic
romantika
romantike
romanu
romar
romarje
romarjev
romarji
romarska
romarski
romarsko
rome
romeo
romi
rommel
romunija
romunije
romuniji
romunijo
romunska
romunske
romunski
romunskih
romunsko
ron
rona
ronald
ronnie
room
roosevelt
rop
ropar
roparja
roparjev
roparji
roparski
ropot
ropotanje
ros
rosa
rosanda
rosberg
rose
rosemeyer
rosi
rosne
roso
ross
rossi
rosso
roth
rotil
rotor
rotorja
rotovz
rotunda
rouen
round
rousseau
routledge
rov
rova
rovan
rovu
roy
royal
royce
roz
roza
rozalka
rozi
rozman
rp
rpa
rpal
rpalka
rpalke
rq
rr
rs
rt
rta
rtal
rtami
rtane
rte
rtev
rti
rtic
rtica
rtice
rtih
rtno
rto
rtom
rtomir
rtov
rtoval
rtovali
rtovan
rtovana
rtovane
rtovani
rtovanja
rtovanje
rtovanju
rtovano
rttemberg
rtu
rtuje
rtv
rtvam
rtvami
rtve
rtvi
rtvoval
rtvovala
rtvovanje
rtvovati
rtvslo
rtvuje
ru
rubens
rubin
rubljev
rubrika
ruc
ruda
rudar
rudarjev
rudarji
rudarski
rudarstvo
rude
rudec
rudi
rudnik
rudnika
rudnike
rudniki
rudnikih
rudnikov
rudniku
rudnis
rudo
rudolf
rudolfa
rue
rum
rumen
rumena
rumene
rumenega
rumeni
rumenih
rumenimi
rumenkasto
rumeno
run
rupel
rupert
rupnik
rus
rusa
ruse
rusi
rusija
rusije
rusiji
rusijo
ruska
ruske
ruskega
ruskem
ruskemu
ruski
ruskih
ruskim
ruskimi
rusko
rusom
rusov
russell
russia
russian
russo
ruta
rutar
rute
ruth
ruto
ruz
rv
rva
rvi
rvic
rw
rx
ry
ryan
ryholt
rz
s
sa
saab
sabina
sabine
sablja
sablje
sabljo
sabo
saboj
sad
sadez
sadja
sadje
sadjem
sadu
safety
saga
sage
said
saint
sainte
sainz
saj
saje
sakaj
sakralni
saksofon
sala
saladin
sales
salo
salomon
salon
salona
salonu
salt
salvador
salvatore
salzburg
salzburgu
salzburs
sam
sama
samca
samcev
samci
same
samec
samega
samem
samemu
sami
samic
samica
samice
samih
samim
samimi
samo
samodejno
samoglasnik
samoglasniki
samokres
samomor
samostalnik
samostalniki
samostan
samostana
samostane
samostani
samostanih
samostanom
samostanov
samostanska
samostanske
samostanskega
samostanski
samostanskih
samostansko
samostanu
samostojen
samostojna
samostojne
samostojnega
samostojni
samostojnih
samostojno
samostojnost
samostojnosti
samota
samotar
samote
samoten
samoti
samotna
samotne
samotnem
samotni
samotnih
samotno
samoto
samouprava
samouprave
samoupravne
samoupravni
samoupravnih
samoupravo
samovoljno
samozaloz
samozavest
samozavesti
samozavestno
samuel
san
sancin
sand
sandi
sandra
sandro
sandz
sani
sanj
sanja
sanjah
sanjal
sanjala
sanjalo
sanjam
sanjavo
sanje
sankcije
sankt
sanskrt
sant
santa
santana
santi
santiago
santo
santos
sao
sap
sapa
sape
sapi
sapica
sapo
sar
sara
sarah
sarajeva
sarajevo
sarajevu
sardinija
sarkofag
sars
sas
sasi
satan
satelit
sateliti
satelitov
satelitska
satelitski
satira
satiric
sato
saturn
sauber
sava
save
savi
savici
savinji
savinjske
savinjski
savo
say
sazu
sb
sc
scala
scena
scenarij
scenariju
scenarist
scene
sceni
sceno
scer
scha
schiller
schleswig
schloss
schmidt
schnabl
schneider
scho
school
schro
schu
schumacher
schwa
science
sciences
scientific
scott
scuderia
sculpture
sd
sdaj
sdej
sds
se
sea
sean
search
searchin
seattle
sebastia
sebastian
sebastiano
sebastijan
sebe
sebi
sebic
sebo
seboj
sec
second
secret
section
security
sed
sedaj
sedanja
sedanje
sedanjega
sedanjem
sedanji
sedanjih
sedanjo
sedanjost
sedanjosti
sedanjostjo
sede
sedec
sedel
sedela
sedeli
sedelo
sedem
sedemdeset
sedemdesetih
sedemkrat
sedemnajst
sedemnajstih
sedeti
sedez
sedi
sedijo
sedim
sedis
sedita
sedite
sedla
sedli
sedlo
sedlu
sedma
sedmega
sedmem
sedmi
sedmic
sedmih
sedmimi
sedmo
see
sega
segajo
segajoc
segal
segala
segale
segali
segalo
segel
segla
segrevanje
sein
seine
sej
seja
sejal
seje
sejem
seji
sejma
sejmu
sejo
seka
sekal
sekcija
sekcije
sekira
sekire
sekiro
sekretar
sekretarja
sekretarji
sekte
sektor
sektorja
sektorju
sekund
sekundah
sekundarna
sekundarne
sekundarni
sekundarno
sekunde
sekundi
sekundo
sel
sela
seldz
sele
selektor
selektorji
selena
self
seli
selim
selis
selitev
selitve
selitvi
selma
selo
sels
selu
sem
seme
semen
semena
semenis
semenj
semic
seminar
semintja
semkaj
semtertja
semtertje
sen
sena
senat
senata
senator
senatorjev
senatorji
senatu
senc
senca
sence
senci
sencih
senco
senj
senjske
senna
sennor
seno
senor
senoz
senu
sep
sept
september
septembra
septembrom
septembru
ser
serc
serca
serce
sercu
sergej
sergeja
sergejevic
sergij
sergio
serie
series
serij
serija
serijah
serije
seriji
serijo
serijsko
service
services
ses
sesalcev
sesalci
sesedel
sesedla
sestal
sestanek
sestanka
sestanku
sestav
sestava
sestave
sestavi
sestavil
sestavila
sestavili
sestavin
sestavina
sestavine
sestaviti
sestavlja
sestavljajo
sestavljal
sestavljala
sestavljale
sestavljali
sestavljalo
sestavljata
sestavljen
sestavljena
sestavljene
sestavljeni
sestavljenih
sestavljeno
sestavni
sestavo
sester
sesti
sestoji
sestra
sestre
sestrelil
sestri
sestric
sestrica
sestrice
sestrico
sestro
set
setev
seva
sevanja
sevanje
seve
seveda
seven
sever
severa
severin
severja
severna
severne
severnega
severnem
severni
severnih
severnim
severno
severnoameris
severovzhodnem
severovzhodni
severovzhodno
severovzhodu
severozahod
severozahodne
severozahodnem
severozahodni
severozahodno
severozahodu
severu
sevnica
sex
sez
sezidal
sezidali
sezidati
seznam
seznama
seznami
seznamu
seznanil
seznanila
seznaniti
sezon
sezona
sezonah
sezonama
sezone
sezoni
sezono
sf
sfere
sforza
sfrj
sg
sh
shadow
shajali
shakespeare
shaw
she
shema
sheme
shi
shift
shirley
shka
shod
shodu
shoemaker
short
show
shrambe
shrambo
shrani
shranil
shranjen
shranjena
shranjene
shranjeni
shranjevanje
shs
shujs
si
sibila
sibirije
sibiriji
sibirijo
sic
sicer
sich
sicilija
sicilije
siciliji
sicilijo
sicilskega
sicilski
sida
siddeley
siddharta
side
siding
sidney
sidro
sie
siegfried
siemens
siena
sierra
sigismund
sigismunda
sigma
sigmund
signal
signala
signale
signali
signalov
sigurno
sij
sijaj
sijajno
sijaju
sijal
sijala
sijale
sijalo
sije
sijoc
siknil
sikorsky
sikst
sil
sila
silah
silam
silami
sile
silen
sili
silijo
silil
silila
silile
silili
sililo
siliti
silla
silna
silne
silnega
silnejs
silnem
silni
silnih
silnim
silno
silo
siloma
silovito
silva
silver
silvester
silvija
silvio
silvo
sim
simbol
simbola
simbole
simboli
simbolic
simbolizira
simbolom
simbolov
simc
simeon
simetric
simetrija
simetrije
simetrijo
simfonic
simfonija
simic
simo
simon
simona
simone
simpatic
simpatije
simpozij
simpson
simptome
simptomi
simptomov
simulacija
sin
sina
sinagoga
sinagoge
sinan
sinc
since
sind
sindrom
sindroma
sine
sinek
singel
singer
singl
singla
single
singli
singlom
singlov
sinje
sinji
sinka
sinko
sinoc
sinoda
sinodi
sinom
sinonim
sinov
sinova
sinove
sinovi
sinovo
sinovom
sinovoma
sintetic
sintetizator
sinteza
sinteze
sintezo
sinu
sio
siol
sipine
sir
sira
sire
sirija
sirije
siriji
sirijo
siromak
siromaka
siromaki
siromas
sirota
sirote
sirotis
siroto
sirski
sis
sistem
sistema
sistematic
sisteme
sistemi
sistemih
sistemom
sistemov
sistemski
sistemsko
sistemu
sit
sita
sitar
site
siten
sites
siti
sitna
sitno
sitnosti
sito
situacija
situacijah
situacije
situaciji
situacijo
siv
siva
sive
sivec
sivega
sivi
sivih
sivimi
sivo
six
sj
sk
ska
skac
skakac
skakal
skakalci
skakalec
skakalnica
skakalnici
skakati
skal
skala
skalah
skalami
skalar
skale
skali
skalnati
skalnatih
skalne
skalni
skalnih
skalo
skalovja
skalovje
skalovjem
skalovju
skedenj
skega
skelec
skeptic
skerb
skerbi
skerbno
skesano
ski
skica
skice
sklad
sklada
skladatelj
skladatelja
skladateljev
skladatelji
skladb
skladba
skladbah
skladbe
skladbi
skladbo
skladis
skladno
skladnost
skladu
sklanja
skleda
sklede
skledi
skledo
sklene
sklenejo
sklenil
sklenila
sklenili
skleniti
sklenitvi
sklenjen
sklenjena
sklenjene
sklenjeno
sklep
sklepa
sklepajo
sklepal
sklepala
sklepali
sklepamo
sklepanje
sklepati
sklepe
sklepi
sklepih
sklepom
sklepov
sklepu
sklic
sklical
skliceval
sklicevanje
sklici
sklicuje
skljuc
skloni
sklonil
sklonila
sklonjeno
sklop
sklopu
sko
skoc
skodelico
skok
skoki
skokih
skokom
skokov
skoku
skomignil
skonc
skopec
skopje
skopju
skopuh
skor
skoraj
skorajda
skorajs
skorej
skorja
skorje
skorji
skorjo
skoro
skoval
skoz
skozenj
skozi
skrajne
skrajnem
skrajni
skrajno
skrajnosti
skrajs
skratka
skrb
skrbe
skrbeh
skrbel
skrbela
skrbeli
skrbelo
skrbeti
skrbi
skrbijo
skrbite
skrbjo
skrbna
skrbni
skrbnik
skrbnis
skrbno
skrc
skrije
skril
skrila
skrili
skrinja
skrinje
skrinji
skrinjico
skrinjo
skrit
skrita
skrite
skritega
skriti
skritih
skrito
skriva
skrivaj
skrivajo
skrival
skrivala
skrivali
skrivalis
skrivati
skrivna
skrivne
skrivnem
skrivni
skrivnih
skrivno
skrivnost
skrivnosten
skrivnosti
skrivnostna
skrivnostne
skrivnostnega
skrivnostni
skrivnostno
skrivoma
skromen
skromna
skromne
skromni
skromnih
skromno
skrus
skuhala
skulptur
skulptura
skulpture
skulpturo
skup
skupaj
skupek
skupen
skupin
skupina
skupinah
skupinam
skupinami
skupine
skupini
skupino
skupinski
skupna
skupne
skupnega
skupnem
skupni
skupnih
skupnim
skupnimi
skupno
skupnost
skupnosti
skupnostih
skupnostjo
skups
skus
skusil
sky
sl
sla
slab
slaba
slabe
slabega
slabejs
slabem
slabi
slabih
slabim
slabo
slabost
slabosti
slaboten
slabotna
slabotno
slabs
slac
sladak
sladek
sladka
sladke
sladkega
sladkem
sladki
sladkih
sladkim
sladko
sladkor
sladkorja
sladkorna
sladkorne
sladkorno
sladkost
sladkosti
sladoled
slajs
slak
slalom
slalomu
slam
slama
slame
slami
slamnik
slamo
slamov
slana
slane
slano
slap
slapa
slapov
slapovi
slapu
slas
slast
slasti
slastjo
slastno
slatina
slav
slava
slavc
slave
slavec
slaven
slavi
slavic
slavica
slavija
slavil
slavila
slavili
slavist
slavistic
slavka
slavko
slavna
slavne
slavnega
slavni
slavnih
slavno
slavnost
slavnosti
slavnostni
slavnostno
slavo
slavolok
slavonije
slavoniji
slavonske
sle
slec
sled
sledec
sledeh
sledenje
sledi
sledijo
sledil
sledila
sledile
sledili
sledilo
sledita
slediti
slednja
slednje
slednjega
slednjem
slednji
slednjic
slednjih
slednjo
sledov
sledove
sledovi
sledu
sleherni
sleherno
slej
slekel
slemena
slemenu
slep
slepa
slepar
slepe
slepec
slepi
slepih
slepo
sli
slic
slik
slika
slikah
slikal
slikami
slikanica
slikanice
slikanja
slikanje
slikar
slikarja
slikarjev
slikarji
slikarju
slikarka
slikarske
slikarstva
slikarstvo
slikarstvu
slikati
slike
sliki
sliko
slikovito
slinavke
sline
slino
slis
slo
slobodan
slog
sloga
sloge
slogi
slogom
slogov
slogovno
slogu
sloj
sloja
slojev
sloji
sloms
slon
slona
slonel
slonela
sloni
slonokos
slonov
slonovine
slov
slovan
slovane
slovani
slovanom
slovanov
slovans
slovanska
slovanske
slovanskega
slovanskem
slovanski
slovanskih
slovansko
slovar
slovarja
slovarji
slovarju
slovas
slove
slovec
slovel
sloven
slovenca
slovence
slovencem
slovencev
slovenci
slovencih
slovencu
slovene
slovenec
sloveni
slovenia
slovenian
slovenija
slovenije
sloveniji
slovenijo
slovenj
slovenka
slovenov
slovens
slovenska
slovenske
slovenskega
slovenskem
slovenskemu
slovenski
slovenskih
slovenskim
slovenskimi
slovensko
sloves
slovesa
slovesni
slovesno
slovesnost
slovesnosti
slovesu
slovi
slovnic
slovnica
slovnice
slovnici
slovnico
slovo
slovstva
slovstveno
slovstvo
slovstvu
sloz
sls
sluc
sluga
sluge
slugi
slugo
sluh
sluha
slus
slutec
sluti
slutil
slutila
slutili
slutim
slutiti
slutnja
slutnje
sluz
sluznice
sm
small
smatra
smatrajo
smatral
smatrala
smatrali
smc
sme
smeh
smeha
smehlja
smehljaj
smehljaje
smehljajem
smehljajoc
smehljal
smehljala
smehom
smehu
smejal
smejala
smejale
smejali
smejalo
smejati
smeje
smejejo
smeji
smejo
smejoc
smel
smela
smele
smeli
smelo
smem
smemo
smer
smereh
smeri
smernice
smert
smerti
smes
smeta
smetano
smete
smeti
smetis
smeva
smili
smilil
smilila
smisel
smiselno
smisla
smislu
smith
smo
smodnik
smodnika
smola
smole
smolo
smoter
smr
smrad
smrc
smrdi
smrec
smrek
smreka
smrekar
smreke
smreko
smrt
smrti
smrtjo
smrtna
smrtne
smrtnem
smrtni
smrtnih
smrtno
smrtnost
sms
smuc
smuk
smukac
smuknil
smuku
sn
sna
sname
snaz
sne
sneg
snega
snegom
snegu
snel
snemal
snemalec
snemali
snemanja
snemanje
snemanjem
snemanju
snemati
snez
sng
snl
snoc
snoj
snooker
snop
snopic
snov
snovi
snovjo
snovmi
snow
snu
snubac
snubil
snubit
so
soavtor
sob
soba
sobah
sobe
sobi
sobice
sobici
sobico
sobin
sobo
soboj
sobota
sobotah
sobote
soboti
soboto
soc
social
socialista
socialisti
socialistic
socialistov
socializem
socializma
socialna
socialne
socialnega
socialnem
socialni
socialnih
socialno
socie
society
sociolog
sociologija
sociologije
sociologijo
sociolos
socorro
sod
soda
sodba
sodbe
sodbi
sodbo
sodc
sode
sodec
sodelavca
sodelavcev
sodelavci
sodelavec
sodeloval
sodelovala
sodelovale
sodelovali
sodelovalo
sodelovanja
sodelovanje
sodelovanjem
sodelovanju
sodelovati
sodeluje
sodelujejo
sodelujoc
sodi
sodijo
sodil
sodila
sodili
sodim
sodis
sodite
soditi
sodna
sodne
sodnega
sodni
sodnih
sodnija
sodniji
sodnijo
sodnik
sodnika
sodnike
sodniki
sodnikom
sodnikov
sodniku
sodnis
sodno
sodoben
sodobna
sodobne
sodobnega
sodobnem
sodobni
sodobnih
sodobnik
sodobniki
sodobnikov
sodobnim
sodobnimi
sodobno
sodobnost
sodstvo
sodu
sofija
sofije
sofiji
soglas
soglasja
soglasje
soglasju
soglasno
sojenja
sojenje
sojenju
sojuz
sok
soka
sokol
sokola
sokolov
sokolovic
sokrat
sol
solar
solc
soli
solidarnosti
soliman
soline
solist
solistic
soljo
solkan
solnc
solnca
solnce
solncem
solncu
solnogras
solo
solun
solunu
solz
solza
solzah
solzami
solze
solzi
solzne
solznimi
solzo
som
some
somis
sommer
somrak
son
sonata
sonc
sonca
sonce
soncem
soncu
sonda
sonet
soneti
song
songs
sonic
sonja
sons
sony
sooc
sopel
sophie
sopran
soprog
soproga
soproge
soprogi
soprogo
soprogu
sopron
sorazmerna
sorazmerno
soroden
sorodna
sorodne
sorodni
sorodnica
sorodnih
sorodnik
sorodnika
sorodnike
sorodniki
sorodnikom
sorodnikov
sorodno
sorodstvo
sorodstvu
sorodu
sort
sorte
sos
sosebno
sosed
soseda
sosede
sosedi
sosedje
sosedne
sosedni
sosednja
sosednje
sosednjega
sosednjem
sosednji
sosednjih
sosednjimi
sosednjo
sosedno
sosedom
sosedov
sosedu
soses
soseska
soseske
soseski
sotes
soteska
soteske
soteski
sotesko
sotli
sotoc
souc
soul
sound
soundtrack
source
sources
sous
soustanovitelj
south
southern
sova
sove
soviet
sovjeti
sovjetov
sovjetska
sovjetske
sovjetskega
sovjetski
sovjetskih
sovjetsko
sovpada
sovras
sovraz
soz
sp
spa
spac
space
spacewatch
spada
spadajo
spadal
spadala
spadali
spadalo
spadata
spain
spak
spal
spala
spali
spalnice
spalnici
spalnico
spalo
spanca
spanec
spanish
spanja
spanje
spanjem
spanju
spartak
spat
spati
spd
spe
spears
spec
special
specialist
specialistic
specializirane
specialna
specialne
specialnih
species
specific
specifikacije
speed
spekter
spektra
speljana
spencer
spet
spev
spi
spice
spijo
spim
spirit
spis
spisa
spisal
spise
spisi
spisih
spisov
spisu
splac
splas
splav
splazil
splet
spleta
spletis
spletke
spletna
spletne
spletnega
spletnem
spletni
spletnih
spletno
spletu
splezal
split
splitsko
splitu
sploh
splos
spo
spoc
spod
spodaj
spodbudil
spodbudila
spodbudilo
spodbuja
spodbujajo
spodbujal
spodbujala
spodbujali
spodbujanje
spodi
spodnja
spodnje
spodnjega
spodnjem
spodnji
spodnjih
spodnjim
spodnjo
spodobi
spodobilo
spodobno
spogledala
spogledali
spojin
spojina
spojine
spol
spola
spolna
spolne
spolnega
spolni
spolnih
spolno
spoloma
spolov
spolu
spomenice
spomenik
spomenika
spomenike
spomeniki
spomenikov
spomeniku
spomenis
spomin
spomina
spomine
spominek
spomini
spominih
spominja
spominjajo
spominjal
spominjala
spominjali
spominjam
spominjas
spominjate
spominom
spominov
spominska
spominske
spominskega
spominski
spominsko
spominu
spomlad
spomladi
spomni
spomnil
spomnila
spomnili
spomnim
spomniti
spontano
spopad
spopada
spopade
spopadel
spopadi
spopadih
spopadli
spopadom
spopadov
spopadu
spor
spora
sporazum
sporazuma
sporazumi
sporazumom
sporazumu
spore
sporedu
sporen
spori
sporih
sporna
sporno
sporoc
sporov
sport
sports
sporu
spos
sposoben
sposobna
sposobne
sposobni
sposobnost
sposobnosti
spotoma
spoved
spovedi
spovednik
spozna
spoznajo
spoznal
spoznala
spoznali
spoznam
spoznamo
spoznanj
spoznanja
spoznanje
spoznanju
spoznas
spoznati
spoznaval
spoznavati
sprache
spras
sprava
sprave
spravi
spravijo
spravil
spravila
spravili
spravilo
spravim
spravite
spraviti
spravlja
spravljal
spravo
spred
spredaj
sprednja
sprednje
sprednjem
sprednji
spregovori
spregovoril
spregovorila
spregovoriti
sprehaja
sprehajal
sprehajala
sprehod
sprejel
sprejela
sprejele
sprejeli
sprejelo
sprejem
sprejema
sprejemajo
sprejemal
sprejemala
sprejemali
sprejemanja
sprejemanje
sprejemati
sprejemu
sprejet
sprejeta
sprejete
sprejeti
sprejetje
sprejeto
sprejme
sprejmejo
sprejmem
sprejmi
spreletela
spreletelo
sprememb
sprememba
spremembah
spremembam
spremembami
spremembe
spremembi
spremembo
spremeni
spremenijo
spremenil
spremenila
spremenile
spremenili
spremenilo
spremeniti
spremenjen
spremenjena
spremenjene
spremenjeni
spremenjeno
spremenljivk
spremenljivka
spremenljivke
spremi
spremil
spremila
spreminja
spreminjajo
spreminjajoc
spreminjal
spreminjala
spreminjanja
spreminjanje
spreminjati
spremlja
spremljajo
spremljajoc
spremljal
spremljala
[...]
