!
"
#
##a
##aa
##ab
##ac
##ad
##ae
##af
##ag
##ah
##ai
##aj
##ak
##al
##am
##an
##ao
##ap
##aq
##ar
##as
##at
##au
##av
##aw
##ax
##ay
##az
##b
##ba
##bb
##bc
##bd
##be
##bf
##bg
##bh
##bi
##bj
##bk
##bl
##bm
##bn
##bo
##bp
##bq
##br
##bs
##bt
##bu
##bv
##bw
##bx
##by
##bz
##c
##ca
##cb
##cc
##cd
##ce
##cf
##cg
##ch
##ci
##cj
##ck
##cl
##cm
##cn
##co
##cp
##cq
##cr
##cs
##ct
##cu
##cv
##cw
##cx
##cy
##cz
##d
##da
##db
##dc
##dd
##de
##df
##dg
##dh
##di
##dj
##dk
##dl
##dm
##dn
##do
##dp
##dq
##dr
##ds
##dt
##du
##dv
##dw
##dx
##dy
##dz
##e
##ea
##eb
##ec
##ed
##ee
##ef
##eg
##eh
##ei
##ej
##ek
##el
##em
##en
##eo
##ep
##eq
##er
##es
##et
##eu
##ev
##ew
##ex
##ey
##ez
##f
##fa
##fb
##fc
##fd
##fe
##ff
##fg
##fh
##fi
##fj
##fk
##fl
##fm
##fn
##fo
##fp
##fq
##fr
##fs
##ft
##fu
##fv
##fw
##fx
##fy
##fz
##g
##ga
##gb
##gc
##gd
##ge
##gf
##gg
##gh
##gi
##gj
##gk
##gl
##gm
##gn
##go
##gp
##gq
##gr
##gs
##gt
##gu
##gv
##gw
##gx
##gy
##gz
##h
##ha
##hb
##hc
##hd
##he
##hf
##hg
##hh
##hi
##hj
##hk
##hl
##hm
##hn
##ho
##hp
##hq
##hr
##hs
##ht
##hu
##hv
##hw
##hx
##hy
##hz
##i
##ia
##ib
##ic
##id
##ie
##if
##ig
##ih
##ii
##ij
##ik
##il
##im
##in
##io
##ip
##iq
##ir
##is
##it
##iu
##iv
##iw
##ix
##iy
##iz
##j
##ja
##jb
##jc
##jd
##je
##jf
##jg
##jh
##ji
##jj
##jk
##jl
##jm
##jn
##jo
##jp
##jq
##jr
##js
##jt
##ju
##jv
##jw
##jx
##jy
##jz
##k
##ka
##kb
##kc
##kd
##ke
##kf
##kg
##kh
##ki
##kj
##kk
##kl
##km
##kn
##ko
##kp
##kq
##kr
##ks
##kt
##ku
##kv
##kw
##kx
##ky
##kz
##l
##la
##lb
##lc
##ld
##le
##lf
##lg
##lh
##li
##lj
##lk
##ll
##lm
##ln
##lo
##lp
##lq
##lr
##ls
##lt
##lu
##lv
##lw
##lx
##ly
##lz
##m
##ma
##mb
##mc
##md
##me
##mf
##mg
##mh
##mi
##mj
##mk
##ml
##mm
##mn
##mo
##mp
##mq
##mr
##ms
##mt
##mu
##mv
##mw
##mx
##my
##mz
##n
##na
##nb
##nc
##nd
##ne
##nf
##ng
##nh
##ni
##nj
##nk
##nl
##nm
##nn
##no
##np
##nq
##nr
##ns
##nt
##nu
##nv
##nw
##nx
##ny
##nz
##o
##oa
##ob
##oc
##od
##oe
##of
##og
##oh
##oi
##oj
##ok
##ol
##om
##on
##oo
##op
##oq
##or
##os
##ot
##ou
##ov
##ow
##ox
##oy
##oz
##p
##pa
##pb
##pc
##pd
##pe
##pf
##pg
##ph
##pi
##pj
##pk
##pl
##pm
##pn
##po
##pp
##pq
##pr
##ps
##pt
##pu
##pv
##pw
##px
##py
##pz
##q
##qa
##qb
##qc
##qd
##qe
##qf
##qg
##qh
##qi
##qj
##qk
##ql
##qm
##qn
##qo
##qp
##qq
##qr
##qs
##qt
##qu
##qv
##qw
##qx
##qy
##qz
##r
##ra
##rb
##rc
##rd
##re
##rf
##rg
##rh
##ri
##rj
##rk
##rl
##rm
##rn
##ro
##rp
##rq
##rr
##rs
##rt
##ru
##rv
##rw
##rx
##ry
##rz
##s
##sa
##sb
##sc
##sd
##se
##sf
##sg
##sh
##si
##sj
##sk
##sl
##sm
##sn
##so
##sp
##sq
##sr
##ss
##st
##su
##sv
##sw
##sx
##sy
##sz
##t
##ta
##tb
##tc
##td
##te
##tf
##tg
##th
##ti
##tj
##tk
##tl
##tm
##tn
##to
##tp
##tq
##tr
##ts
##tt
##tu
##tv
##tw
##tx
##ty
##tz
##u
##ua
##ub
##uc
##ud
##ue
##uf
##ug
##uh
##ui
##uj
##uk
##ul
##um
##un
##uo
##up
##uq
##ur
##us
##ut
##uu
##uv
##uw
##ux
##uy
##uz
##v
##va
##vb
##vc
##vd
##ve
##vf
##vg
##vh
##vi
##vj
##vk
##vl
##vm
##vn
##vo
##vp
##vq
##vr
##vs
##vt
##vu
##vv
##vw
##vx
##vy
##vz
##w
##wa
##wb
##wc
##wd
##we
##wf
##wg
##wh
##wi
##wj
##wk
##wl
##wm
##wn
##wo
##wp
##wq
##wr
##ws
##wt
##wu
##wv
##ww
##wx
##wy
##wz
##x
##xa
##xb
##xc
##xd
##xe
##xf
##xg
##xh
##xi
##xj
##xk
##xl
##xm
##xn
##xo
##xp
##xq
##xr
##xs
##xt
##xu
##xv
##xw
##xx
##xy
##xz
##y
##ya
##yb
##yc
##yd
##ye
##yf
##yg
##yh
##yi
##yj
##yk
##yl
##ym
##yn
##yo
##yp
##yq
##yr
##ys
##yt
##yu
##yv
##yw
##yx
##yy
##yz
##z
##za
##zb
##zc
##zd
##ze
##zf
##zg
##zh
##zi
##zj
##zk
##zl
##zm
##zn
##zo
##zp
##zq
##zr
##zs
##zt
##zu
##zv
##zw
##zx
##zy
##zz
$
%
&
'
(
)
*
+
,
-
.
/
0
00
000
0004
001
002
007
01
02
03
04
05
06
0690
07
08
09
0a
0b
0c
0d
0e
0f
0g
0h
0i
0j
0k
0l
0m
0n
0o
0p
0q
0r
0s
0t
0u
0v
0w
0x
0y
0z
1
10
100
1000
10000
1001
1002
1007
101
1016
1017
102
1021
103
1038
104
1046
105
1050
1051
1056
106
107
1073
107343683
108
1080
10855166
1086
1088
109
1093
1095
1097
1098
11
110
1100
1103
111
1111
112
1126
113
1130
1136
114
1146
115
1150
1158
116
1160
117
1170
1177
118
1180
1185
1186
119
12
120
1200
1204
121
122
1220
123
1230
124
1240
1241
125
1250
126
1260
1261
1264934
127
1270
1279
128
1280
1282
129
1290
1291
13
130
1300
1308
131
1310
1318
132
1320
1322
133
1330
1335
134
1340
1348
135
1350
13550863
136
1360
1365
137
1370
1371
138
1380
1389
139
14
140
1400
141
1410
1415
142
1420
143
1430
1435
1438
1439
144
1440
1444
145
1450
1453
1456
146
1460
1463
1469
147
1470
1471
1472
1473
1475
1476
1477
1478
1479
148
1480
1481
1482
1483
1485
149
1490
1492
1493
1494
1495
1497
1498
1499
15
150
1500
1501
1502
1503
1504
1505
1506
1508
1509
151
1510
1511
1512
1513
1514
1515
1516
1517
1519
152
1520
1521
1522
1523
1524
1525
1526
1527
1528
1529
153
1530
1531
1532
1533
1534
1535
1536
1537
1538
154
1540
1541
1542
1543
1545
1546
1547
1548
155
1550
1551
1552
1553
1554
1555
1556
1557
1558
1559
156
1560
1561
1562
1563
1564
1565
1566
1567
1568
1569
157
1570
15706812
1571
1572
1573
1574
1575
1576
1577
1578
1579
158
1580
1581
1582
1583
1584
1585
1586
1587
1588
1589
159
1590
1591
1592
1593
1594
1595
1596
1597
1598
1599
16
160
1600
1601
1602
1603
1604
1605
1606
1607
1608
1609
161
1610
1611
1612
1613
1614
1615
1616
1617
1618
1619
162
1620
1621
1622
1623
1624
1625
1626
1627
1628
1629
163
1630
1631
1632
1633
1634
1635
1638
164
1640
1641
1642
1643
1644
1645
1647
1648
1649
165
1650
1651
1652
1653
1654
1655
1656
1657
1658
1659
166
1660
1661
1663
1664
1665
1666
1667
1668
1669
167
1670
1671
1672
1673
1675
1676
1678
1679
168
1680
1681
1682
1683
1684
1685
1686
1687
1688
1689
169
1690
1691
1693
1694
1695
1696
1697
1698
1699
17
170
1700
1701
170109
1702
1703
1704
1705
1706
1707
1708
1709
171
1710
1711
1712
1713
1714
1715
1716
1717
1718
1719
172
1720
1721
1722
1723
1724
1725
1726
1727
1728
1729
17299517
173
1730
1731
1732
1733
1734
1735
1736
1737
17378135
1738
1739
174
1740
1741
1742
1743
1744
1745
1746
1747
1748
1749
175
1750
1751
1752
1753
1754
1755
1756
1757
1758
1759
176
1760
1761
1762
1763
1764
1765
1766
1767
1768
1769
177
1770
1771
1772
1773
1774
1775
1776
1777
1778
1779
178
1780
1781
1782
1783
1784
1785
1786
1787
1788
1789
1789619
179
1790
1791
1792
1793
1794
1795
1796
1797
1798
1798125
1799
18
180
1800
18002875
1801
1802
1803
1804
1805
1806
1807
1808
1809
181
1810
1811
1812
1813
1814
1815
1816
1817
1818
1819
182
1820
1821
1822
1823
1824
1825
1826
1827
1828
1829
183
1830
1831
1832
1833
1834
1835
1836
1837
1838
1839
184
1840
1841
1842
1843
1844
18446
1845
1846
1847
1848
1849
185
1850
1851
1852
1853
1854
1855
1856
1857
1858
1859
186
1860
1861
1862
1863
1864
1865
1866
1867
1868
1869
18696256
187
1870
1871
1872
1873
1874
1875
1876
1877
1878
1879
188
1880
1881
1882
1883
1884
1885
1886
1887
1888
1889
189
1890
1891
1892
1893
1894
1895
1896
1897
1898
1899
19
190
1900
1901
1902
1903
1904
1905
1906
1907
1908
1909
191
1910
1911
1912
1913
1914
1915
1916
1917
1918
1919
192
1920
1921
1922
1923
1924
1925
1926
1927
1928
1929
193
1930
1931
1932
1933
1934
1935
193563
1936
19368470
1937
1938
1939
194
1940
1941
1942
1943
1944
1945
1946
1947
1948
1949
195
1950
1951
1952
1953
1954
1955
1956
1957
1958
1959
196
1960
1961
1962
1963
1964
1965
1966
1967
1968
1969
197
1970
1971
1972
1973
1974
1975
1976
1977
1978
1979
198
1980
1981
1982
1983
1984
1985
1986
1987
1988
1989
199
1990
1991
1992
1993
19938912
1994
1995
1996
1997
1998
1999
1a
1b
1c
1d
1e
1f
1g
1h
1i
1j
1k
1l
1m
1n
1o
1p
1q
1r
1s
1t
1u
1v
1w
1x
1y
1z
2
20
200
2000
2001
2002
2003
2004
2005
2006
2007
2008
2009
201
2010
2011
2012
2013
2014
2015
2016
2017
2018
2019
202
2020
2021
2022
203
204
205
206
207
208
209
21
210
21008628
211
212
213
214
21401824
215
216
217
218
219
22
220
221
222
223
224
225
226
227
228
229
23
230
2307
231
232
233
234
235
2350
236
237
237227
238
239
24
240
241
242
243
244
244517632
2449070
245
246
247
248
249
25
250
2500
251
252
253
254
255
256
256507
257
258
259
26
260
261
262
263
264
265
266
267
268
269
27
270
271
272
273
27302
274
275
276
277
278
279
28
280
2807
281
282
283
284
285
286
287
288
2886420
289
29
290
291
292
293
294
295
296
297
298
29861311
299
2a
2b
2c
2d
2e
2f
2g
2h
2i
2j
2k
2l
2m
2n
2o
2p
2q
2r
2s
2t
2u
2v
2w
2x
2y
2z
3
30
300
3000
301
302
303
304
304037
305
306
307
308
309
31
310
311
312
313
314
315
316
317
318
319
31964
32
320
321
322
323
324
325
326
327
328
329
33
330
331
332
333
334
335
336
337
338
339
34
340
341
342
343
344
345
346
347
348
349
35
350
3500
351
352
353
354
355
356
357
358
359
36
360
361
362
3621644
363
364
365
36578
366
367
368
369
37
370
371
372
373
37312
374
375
376
377
378
379
38
380
381
382
383
384
384602
385
386
387
388
389
39
390
391
392
393
394
395
396
397
398
399
3a
3b
3c
3d
3e
3f
3g
3h
3i
3j
3k
3l
3m
3n
3o
3p
3q
3r
3s
3t
3u
3v
3w
3x
3y
3z
4
40
400
4000
401
402
403
404
405
406
407
408
409
41
410
411
412
413
414
415
416
417
418
419
42
420
421
422
423
424
425
426
427
428
429
429032
43
430
431
432
433
434
435
436
437
439
44
440
442
443
444
445
446
447
449
45
450
451
452
453
454
455
456
457
458
46
460
462
465
467
469
47
470
471
472
474
475
476
479
48
480
481
483
484
485
486
488
49
490
491
493
495
496
499
4a
4b
4c
4d
4e
4f
4g
4h
4i
4j
4k
4l
4m
4n
4o
4p
4q
4r
4s
4t
4u
4v
4w
4x
4y
4z
5
50
500
5000
501
503
504063
505
5061737
507
51
510
511
515
517
518
52
520
521
522
525
527
53
530
533
534
535
5375741
54
540
545
547
547473
549
55
550
551
553
555
56
560
56239490
565
567
57
570
571
574
575
58
580
582
585
59
590
5a
5b
5c
5d
5e
5f
5g
5h
5i
5j
5k
5l
5m
5n
5o
5p
5q
5r
5s
5t
5u
5v
5w
5x
5y
5z
6
60
600
6000
602
6036
605
609
61
610
617
62
620
63
630
63056
631
639
64
640
641
642
65
650
66
660
664
665807
667
67
670
67129259
674
68
680
69
691
6a
6b
6c
6d
6e
6f
6g
6h
6i
6j
6k
6l
6m
6n
6o
6p
6q
6r
6s
6t
6u
6v
6w
6x
6y
6z
7
70
700
7000
71
711
715
717
72
720
73
737
74
747
75
750
76
760
765
767
77
770
777
78
780
787
79
7a
7b
7c
7d
7e
7f
7g
7h
7i
7j
7k
7l
7m
7n
7o
7p
7q
7r
7s
7t
7u
7v
7w
7x
7y
7z
8
80
800
8000
81
82
820
83
84
840
84433
84443
85
850
86
860
867
87
870
88
880
89
8a
8b
8c
8d
8e
8f
8g
8h
8i
8j
8k
8l
8m
8n
8o
8p
8q
8r
8s
8t
8u
8v
8w
8x
8y
8z
9
90
900
91
912
92
9272
93
94
95
950
953
96
960
961
963
97
978
98
980
98769076
99
999
9a
9b
9c
9d
9e
9f
9g
9h
9i
9j
9k
9l
9m
9n
9o
9p
9q
9r
9s
9t
9u
9v
9w
9x
9y
9z
:
;
<
=
>
?
@
[
[CLS]
[MASK]
[PAD]
[SEP]
[UNK]
\
]
^
_
`
a
a0
a1
a2
a3
a4
a5
a6
a7
a8
a9
aa
aachen
aaron
ab
abauj
abba
abbey
abc
abd
abdul
abeceda
abecede
abel
aber
abgerufen
abigaila
about
abraham
abs
absolutna
absolutni
absolutno
absorbira
abu
ac
academia
academic
academie
academy
access
accessed
account
achille
acid
act
acta
action
activity
acute
ad
ada
adalbert
adam
adama
adamic
adams
adela
adi
adijo
adjunkt
administration
administrativni
administrativno
admiral
admirala
admiralov
adolf
adolfa
adria
adrian
adriano
advanced
advent
advokat
ae
aero
aerospace
af
afera
affairs
afganistan
afganistanu
africa
african
afrika
afrike
afriki
afriko
afriske
afriski
afriskih
after
ag
aga
again
against
agata
agato
age
agencija
agencije
agency
agent
ages
agnes
agostino
agrft
agriculture
agronom
ah
aha
ahac
ahmed
ai
aids
aim
ain
air
airborne
airbus
aircraft
aires
airesu
airlines
airport
aiti
aj
aja
ajda
ajdovscina
ak
akademie
akademija
akademije
akademiji
akademijo
akademik
akademikov
akademske
akademskega
akademski
akademskih
akademsko
akcij
akcija
akcije
akciji
akcijo
ako
akoravno
akt
akti
aktiven
aktivira
aktivist
aktivistka
aktivna
aktivne
aktivnega
aktivni
aktivnih
aktivno
aktivnost
aktivnosti
aktov
aktualni
aktualno
akusticna
akutni
akvitanije
al
ala
alabama
alah
alain
alan
alba
albanci
albanija
albanije
albaniji
albanski
albansko
albatros
albert
alberta
alberti
alberto
albin
albina
albrecht
albreht
album
albuma
albume
albumi
albumom
albumov
albums
albumu
aldo
ale
aleksandar
aleksander
aleksandr
aleksandra
aleksandriji
aleksandrovic
aleksandru
aleksej
alekseja
aleksejevic
aleksij
alena
alencica
alenka
ales
alesa
alessandro
alex
alexander
alexandra
alexandre
alexis
alfa
alfonso
alfonz
alfonza
alfonzo
alfred
alfreda
alfredo
alge
algebra
algoritem
ali
alice
aligned
alj
aljaz
aljosa
alkohol
alkohola
all
alla
allah
allan
alle
allen
allgemeine
allison
allmovie
allmusic
alma
alo
alois
alojz
alojzij
alojzija
alonso
alp
alpah
alpe
alpes
alpha
alphonse
alpinist
alpska
alpske
alpskem
alpski
alpskih
alpsko
als
also
alt
altar
alte
alten
alternativa
alternative
alternativne
alternativni
alto
aluminij
aluminija
aluminijev
alvarez
alzacija
am
amalija
amanda
amaterski
amatersko
amazon
ambroz
ambrozic
amebis
amen
america
american
americani
amerika
amerike
ameriki
ameriko
ameriska
ameriske
ameriskega
ameriskem
ameriski
ameriskih
ameriskim
amerisko
amfiteater
aminokislin
amon
among
amor
amorec
amos
ampak
amr
amsterdam
amsterdamu
amy
an
ana
analiza
analize
analizi
analizo
analysis
anatolij
anatoliji
ancenis
ancient
ancka
ancki
ancko
and
anders
andersen
anderson
andersson
andov
andraz
andre
andrea
andreas
andrej
andreja
andrejcek
andrejec
andrejem
andrejko
andreju
andres
andrew
andrews
andrija
andy
ane
anfangen
ang
angel
angela
angele
angeles
angelesu
angeli
angelica
angelik
angelika
angelin
angelina
angelj
angelo
angelov
angl
anglescina
anglescine
anglescini
anglescino
angleska
angleske
angleskega
angleskem
angleski
angleskih
angleskim
anglesko
anglez
anglezi
anglija
anglije
angliji
anglijo
anglo
ani
anica
anici
anico
animal
animals
anita
anja
anka
anko
ann
anna
annales
annals
anne
anni
annie
anno
annual
ano
anonimno
another
ansambel
ansambla
ant
antarktiki
ante
anthony
anti
antibiotiki
anticna
anticne
anticnega
anticni
anticnih
anticno
antike
antiki
antiquities
antiquity
antoine
antologija
anton
antona
antonia
antonij
antonija
antonin
antonio
antonov
antonu
antwerpen
anza
anze
ao
ap
aparat
apl
aplikacij
aplikacije
apnenca
apnenec
apno
apokalipsa
apollo
apolon
apolona
apolonec
apostol
apostola
apostoli
apostolov
apostolska
apostolskega
apostolski
apostolskih
apple
application
applications
applied
approach
approx
apr
april
aprila
aprilom
aprilu
apside
apsido
aq
ar
ara
arab
arabci
arabela
arabska
arabske
arabskega
arabski
arabskih
arabsko
aragonski
aranzer
aranzma
arc
arch
archaeological
archaeology
archibald
architectural
architecture
archive
archived
archives
archivio
are
area
areas
arena
areni
aretirali
aretiran
argentina
argentine
argentini
argentino
argentinski
argentinskih
argument
arheolog
arheologi
arheologijo
arheoloska
arheoloske
arheoloskem
arheoloski
arheoloskih
arheolosko
arhitekt
arhitekta
arhitekti
arhitektov
arhitektura
arhitekture
arhitekturi
arhitekturna
arhitekturne
arhitekturni
arhitekturnih
arhitekturno
arhitekturo
arhiv
arhiva
arhivirana
arhivirano
arhivu
aria
aristotel
arizona
arkade
arkadij
arko
armad
armada
armade
armadi
armadni
armado
armando
armee
armeekorps
armenia
armenian
armenija
armenije
armeniji
armenijo
armenska
armenske
armenskega
armenski
armensko
arms
armstrong
army
arno
arnold
aron
around
ars
art
arte
arthur
article
articles
artilerije
artilerijska
artilerijski
artist
artists
arts
artur
arxiv
as
ashley
asia
asian
asirski
asistent
askerc
asov
asp
aspects
aspx
assessment
associated
association
asteroid
asteroida
asteroidi
asteroidnem
asteroidov
astronom
astronomi
astronomical
astronomije
astronomiji
astronomijo
astronomov
astronomska
astronomske
astronomskih
astronomy
astrophysical
astrophysics
asunta
asur
at
ata
atelje
aten
atenah
atene
atentat
athens
athletics
atila
atlanta
atlanti
atlantic
atlantik
atlantika
atlantiku
atlantski
atlas
atlet
atletiki
atletinja
atletska
atletske
atmosferi
atmosfero
atn
atom
atoma
atomi
atomic
atomov
atomske
atomsko
atonec
atp
attack
au
auch
audio
auersperg
auf
auflage
aug
august
augusta
auguste
augustin
augusto
augustus
aurora
aus
ausopen
austin
australia
australian
austria
austrian
austro
author
authority
authors
auto
auvergne
aux
av
available
ave
avgust
avgusta
avgustin
avgustina
avgustom
avgustu
aviation
avrelij
avrelija
avril
avro
avsenik
avstralija
avstralije
avstraliji
avstralijo
avstralska
avstralske
avstralski
avstralskih
avstrija
avstrijci
avstrije
avstriji
avstrijo
avstrijska
avstrijske
avstrijskega
avstrijskem
avstrijski
avstrijskih
avstrijskim
avstrijsko
avstro
avto
avtobus
avtobusi
avtocesta
avtoceste
avtohtonih
avtom
avtomatsko
avtomobil
avtomobila
avtomobile
avtomobili
avtomobilom
avtomobilov
avtomobilska
avtomobilski
avtomobilu
avtonomije
avtonomijo
avtonomna
avtonomne
avtonomni
avtonomno
avtor
avtorica
avtorice
avtoritete
avtoriteto
avtorja
avtorje
avtorjem
avtorjev
avtorjeva
avtorji
avtorju
avtorske
avtorskih
avtorsko
avtorstvo
avtu
aw
award
awards
away
ax
axis
ay
az
azerbajdzan
azija
azije
aziji
azijo
azijski
azijskih
b
b0
b1
b2
b3
b4
b5
b6
b7
b8
b9
ba
baba
babe
babi
babic
babica
babice
babici
babico
babilon
babilonski
babnica
babo
baby
bach
back
background
bacon
bad
baden
bagdad
baje
bajka
bajke
bajt
bajta
bajte
bajti
bajto
baker
bakra
bakterij
bakterije
bal
bala
balada
balade
balant
bale
balet
bali
balkan
balkana
balkans
balkanu
balkon
balkonu
ball
balo
balon
baltimore
ban
bana
band
banda
banic
banja
bank
banka
banke
banki
bankir
banko
bankovce
bankovcev
bankovci
bankovec
banovine
baptiste
bar
bara
baraga
baranja
barba
barbara
barbare
barbari
barbaro
barbka
barbo
barcelona
barceloni
bari
barica
bariton
barja
barje
barju
barka
barke
barko
barnes
barocna
barocne
barocnem
barocni
barocnih
barocno
barok
baroka
baron
barona
baroni
baronica
baronom
baronov
baronu
barrett
barry
bartol
bartolomeo
barv
barva
barvah
barvami
barve
barvi
barvne
barvni
barvnih
barvno
barvo
bas
base
baseball
based
basel
basic
basilica
basist
baskovsko
basni
bat
bataljon
bataljona
bataljonov
baterija
baterije
bati
battista
battle
bauer
bavarci
bavarska
bavarske
bavarskega
bavarskem
bavarski
bavarsko
bavil
bay
bayer
baz
baza
baze
bazen
bazi
bazilij
bazilika
bazilike
baziliki
baziliko
bazo
bb
bbc
bc
bcela
bd
bdo
bdp
be
beach
beat
beatles
beatrice
beatrika
beck
becker
beckerath
beda
bedak
bedanca
bedanec
bede
bedi
bedo
been
before
beg
bega
begal
begin
begu
begunce
beguncev
begunci
behavior
behind
bei
being
bej
bel
bela
bele
belec
belega
belem
beletrina
belgija
belgije
belgiji
belgijo
belgijski
belgijskih
beli
belica
belih
belim
belimi
beljak
beljakovin
beljakovine
beljaku
bell
bella
belle
bello
belo
belorusija
ben
benda
benecani
benedetto
benedict
benedik
benedikt
benedikta
benediktinski
beneska
beneske
beneskega
beneskem
beneski
beneskih
benesko
benetk
benetkah
benetke
benito
benjamin
benko
bennett
benson
benz
beograd
beograda
beogradu
ber
berac
beraca
beraci
beracica
beracu
berasko
bere
berejo
berem
beremo
berg
bergen
berger
beri
berila
berilo
berke
berkeley
berlin
berlina
berlinu
bern
bernard
bernarda
bernardo
bernhard
bernik
bernini
bero
berry
bert
berta
bertoncelj
bertrand
berz
bes
besed
beseda
besedah
besedam
besedami
besede
besedi
besedice
besedico
besedij
besedil
besedila
besedili
besedilih
besedilo
besedilom
besedilu
besedna
besedne
besedni
besedno
besedo
besen
besni
besno
best
beta
beton
betona
better
betty
between
bevk
beyond
bez
bezal
bezala
bezali
bezati
beze
bezi
bezigrad
bezite
bf
bg
bh
bhutan
bi
bibcode
bible
biblical
biblija
biblije
bibliografija
biblioteca
bibliotekar
bic
bica
bicem
bie
big
bih
bije
bijejo
bik
bika
bil
bila
bilbao
bile
bili
bilje
bilka
bilke
bill
billboard
billy
bilo
bilogorske
bim
bin
bine
bio
biochemistry
biografico
biografija
biografije
biografski
biographical
biographie
biographisches
biography
biolog
biological
biologija
biologije
biologijo
biology
bioloska
bioloske
bioloski
bioloskih
biolosko
bird
birdlife
birds
biric
birica
birici
birmingham
biro
birth
bis
biser
bisere
biseri
biserov
bishop
bister
bistra
bistre
bistri
bistrica
bistrice
bistrici
bistrico
bistro
bistvena
bistvene
bistveno
bistvo
bistvu
bit
bitenc
biti
bitij
bitja
bitje
bitji
bitju
bitk
bitka
bitkah
bitke
bitki
bitko
biv
biva
bivajo
bival
bivala
bivali
bivalisca
bivalisce
bivanja
bivanje
bivanjem
bivsa
bivse
bivsega
bivsi
bivsih
bizanc
bizanca
bizantinci
bizantinska
bizantinske
bizantinskega
bizantinskem
bizantinski
bizantinskih
bizantinskim
bizantinsko
bizjak
bj
bjelovarsko
bk
bl
bla
black
blackwell
blag
blaga
blagajne
blagajnik
blagajno
blage
blagega
blagi
blaginje
blaginjo
blago
blagom
blagor
blagoslov
blagoslova
blagoslovi
blagoslovil
blagoslovljena
blagoslovljeno
blagostanja
blagostanje
blagovne
blagovno
blagu
blair
blake
blanc
blanka
blata
blatni
blatnik
blato
blatom
blatu
blaz
blaza
blaze
blazen
blazena
blazene
blazenega
blazeni
blazeno
blazic
blazine
blazino
blazna
blazni
blazno
blaznost
blaznosti
bled
bleda
blede
bledega
bledem
bledi
bledih
bledo
bledu
bleiweis
blescece
blesci
blesk
blesti
blisk
bliska
bliski
bliskoma
bliskovito
bliza
blizajo
blizal
blizala
blizali
blize
blizina
blizine
blizini
blizino
blizje
bliznja
bliznje
bliznjega
bliznjem
bliznjemu
bliznji
bliznjih
bliznjim
bliznjo
blizo
blizu
blodil
blog
blok
bloka
bloke
bloki
blokov
blood
blu
blue
blues
bm
bmatrix
bmj
bmw
bn
bnf
bo
board
bob
boba
bobby
boben
bobnar
bobni
boca
bodalo
bode
bodem
bodemo
bodes
bodeta
bodete
bodeva
bodi
bodimo
bodisi
bodite
bodo
bodoce
bodocega
bodoci
bodocnost
bodocnosti
bodoco
body
boeing
bog
boga
bogastva
bogastvo
bogastvom
bogastvu
bogat
bogata
bogataj
bogate
bogatega
bogati
bogatih
bogatim
bogatimi
bogatin
bogato
bogdan
boginja
boginje
boginji
boginjo
bogme
bogo
bogom
bogomila
bogomir
bogoslovje
bogosluzje
bogov
bogove
bogovec
bogovi
bogovom
bogu
bogve
bohinc
bohinj
bohinju
bohoric
bois
boj
boja
bojan
bojana
bojazen
bojazljivo
bojazni
boje
bojec
bojece
bojem
bojev
bojeval
bojevala
bojevali
bojevanja
bojevanje
bojevati
bojevnik
boji
bojih
bojijo
bojim
bojimo
bojis
bojisca
bojisce
bojiscu
bojite
bojna
bojne
bojnem
bojni
bojnih
bojno
bojo
bojte
boju
bojuje
bok
bokal
boke
boksih
boku
bol
bolan
bole
bolece
bolecin
bolecina
bolecinah
bolecine
bolecini
bolecino
bolela
bolelo
boleslav
bolest
bolesti
bolestno
bolezen
bolezni
boleznih
boleznijo
boleznimi
bolgari
bolgarija
bolgarije
bolgariji
bolgarijo
bolgarska
bolgarske
bolgarskega
bolgarski
bolgarsko
boli
bolingbroke
bolj
bolje
boljsa
boljse
boljsega
boljsem
boljsi
boljsih
boljso
bolna
bolne
bolnega
bolni
bolnica
bolnice
bolnici
bolnico
bolnih
bolnik
bolnika
bolnike
bolniki
bolnikih
bolnikom
bolnikov
bolniku
bolnisnica
bolnisnice
bolnisnici
bolnisnico
bolno
bologna
bologni
bolor
bom
bomb
bomba
bombardier
bombardiranje
bombe
bombnik
bombnikov
bombo
bomo
bon
bonaparte
bond
bonifacij
bonn
book
books
bor
bora
borba
borbe
borbi
borbo
borboletta
borcev
borci
bordeaux
border
bore
borec
bori
borijo
boril
borila
borili
borilnih
boris
borisa
boriti
borko
born
borno
borovlje
borsod
borut
bos
bosa
bosanski
bosansko
bosch
bosco
bose
bosko
bosna
bosne
bosni
bosno
bosta
boste
bostjan
bostjana
boston
botanicni
botanik
bote
boter
botra
bova
bovec
box
boy
boys
boza
bozal
bozala
bozanski
bozansko
bozanstev
bozanstva
bozanstvo
boze
bozena
bozic
bozica
bozicna
bozicne
bozicni
bozicno
bozicu
bozidar
bozja
bozje
bozjega
bozjem
bozji
bozjih
bozjim
bozjo
bozo
boſh
bp
bq
br
brabham
brad
brada
brade
bradi
bradley
brado
brain
bral
brala
bralca
bralce
bralcem
bralcev
bralci
bralcu
bralec
brali
bralo
bran
brandenburg
brane
brani
branijo
branil
branila
branilci
branili
branim
braniti
branja
branje
branjem
branju
branka
branko
brat
brata
bratca
bratci
brate
bratec
brati
bratih
bratislava
bratje
bratom
bratoma
bratov
bratovscina
bratovscine
bratranca
bratranec
bratstva
bratstvo
bratu
braun
braunschweig
bravo
brazde
brazilija
brazilije
braziliji
brazilski
brda
brdih
brdo
brdu
brecelj
breda
breg
brega
bregar
bregom
bregov
bregove
bregovi
bregovih
bregu
breme
bremen
bremena
bres
brest
brez
breza
brezbrizno
breze
brezice
brezje
brezmejno
brezna
breznik
brezno
brezobzirno
brezovica
brezplacno
brezpogojno
brezposelnosti
brezskrbno
brezupno
brezuspesno
brian
bric
bridge
bridka
bridke
bridko
bridkost
bridkosti
brief
brien
briga
brigad
brigada
brigade
brigadi
brigadir
brigadni
brigado
brigajo
brigal
brigala
brigita
brill
brisal
brisala
brise
bristol
britain
britanci
britanija
britanije
britaniji
britanijo
britannica
britanska
britanske
britanskega
britanskem
britanski
britanskih
britanskim
britansko
british
britko
britney
brivec
brk
brke
brki
brlog
brlogu
brnot
broadcasting
broadway
brockhaus
brod
brodnik
brodu
bron
brona
bronast
bronasta
bronaste
bronasti
bronastih
bronasto
bronze
brooks
bros
brothers
brown
broz
brozovic
bruce
bruhanje
bruna
bruno
brus
bruselj
bruslju
bruto
brv
brvi
bryan
bryce
brz
brzcas
brzkone
brzo
bs
bt
bu
buca
bucar
buce
buci
bucka
bud
buda
budalo
budapest
buddhism
buddhist
bude
budi
budimpesta
budimpesti
budisticne
budisticni
buditelj
budizem
budizma
buenos
buffalo
bug
building
bujno
bukev
bukvah
bukve
bula
bulgaria
bull
bulletin
bulo
bum
bunker
bureau
burg
burger
burja
burje
burji
burke
burma
burne
burno
burns
burton
bush
business
but
butler
bv
bw
bwv
bx
by
byron
byzantine
byzantium
bz
c
c0
c1
c2
c3
c4
c5
c6
c7
c8
c9
ca
cadez
caf
cairo
caj
caja
caka
cakaj
cakajo
cakajte
cakal
cakala
cakale
cakali
cakalo
cakam
cakamo
cakanje
cakas
cakata
cakati
california
call
cambridge
cambridgeu
camera
cameron
camille
camp
campaign
campbell
campo
can
canada
canadian
canal
cancer
cankar
cankarja
cankarjev
cankarjeva
cankarjeve
cankarjevega
canon
cao
cap
cape
capital
car
cara
caracciola
caravaggio
carbon
care
career
carica
carigrad
carigrada
carigradu
carja
carju
carl
carla
carlo
carlos
carmen
carobna
carobne
carobni
carobno
carol
carolina
caroline
carovnica
carovnice
carovnik
carroll
carski
carter
cas
casa
cascenja
cascenje
case
cases
casi
casih
casnik
casnika
casnikar
casnikih
casniku
caso
casom
casopis
casopisa
casopise
casopisi
casopisih
casopisov
casopisu
casov
casovna
casovne
casovnem
casovni
casovnih
casovno
cast
castel
castello
casti
castijo
castili
castiti
castitljivi
castjo
castle
castna
castne
castnega
castni
castnik
castnika
castnike
castniki
castnikom
castnikov
castniku
castniski
castno
castro
casu
cat
catalana
catalog
catalogue
cathedral
catherine
catholic
cave
cb
cbs
cbw
cc
cca
cd
cdc
cdot
cdots
ce
cebel
cebela
cebelar
cebele
ceca
cecil
cecilija
cedad
cedalje
ceden
cedilu
cedna
cedno
cednost
cednosti
cegar
ceh
cehi
cehov
cekin
cekinar
cekine
cekinov
cel
cela
celada
celade
celado
cele
celega
celem
celestin
celi
celic
celica
celicah
celicami
celice
celici
celicne
celicni
celicnih
celicno
celico
celih
celim
celine
celini
celino
celinske
celinski
celinsko
celja
celje
celjska
celjske
celjskega
celjski
celjskih
celju
celjust
celjusti
cell
cells
celo
celom
celota
celote
celoten
celoti
celotna
celotne
celotnega
celotnem
celotni
celotno
celoto
celovcu
celovec
celovecerni
celu
cem
cemer
cemu
cemur
cen
cena
cene
ceni
cenijo
cenil
cenili
ceniti
cenjen
cenjena
cenjeni
ceno
census
center
centimetrov
centov
centra
central
centralna
centralne
centralnega
centralni
centralno
centre
centri
centro
centrov
centru
centuries
century
cepel
cepela
cepi
cepico
cepiva
cepivo
cepljenje
ceprav
cer
cerar
ceravno
ceri
cerin
cerkev
cerknica
cerkno
cerkovnik
cerkva
cerkvah
cerkvami
cerkve
cerkvena
cerkvene
cerkvenega
cerkvenem
cerkveni
cerkvenih
cerkvenik
cerkvenim
cerkveno
cerkvi
cerkvica
cerkvice
cerkvici
cerkvico
cerkvijo
cerne
cernic
cernigoj
cerro
certifikacije
certifikacijo
ces
cesa
cesar
cesare
cesarica
cesarice
cesarja
cesarjem
cesarjev
cesarjevi
cesarjevo
cesarji
cesarju
cesarska
cesarske
cesarskega
cesarskem
cesarski
cesarskih
cesarsko
cesarstva
cesarstvo
cesarstvom
cesarstvu
cescenje
ceska
ceske
ceskega
ceskem
ceski
ceskih
cesko
ceskoslovaska
ceskoslovaske
ceskoslovaski
ceskoslovasko
cesnje
cessna
cest
cesta
cestah
ceste
cesti
cestitam
cestnega
cestnem
cestni
cestno
cesto
cestokrat
cet
ceta
cetami
cete
ceti
ceto
cetrt
cetrta
cetrte
cetrtega
cetrtek
cetrtem
cetrtfinale
cetrti
cetrtine
cetrtino
cetrto
cetudi
cev
cevelj
cevi
cevlja
cevljar
cevlje
cevljev
cevlji
cevljih
cez
cezar
cezarja
cezenj
cezneptunsko
cf
cg
ch
challenge
championship
championships
chan
chang
change
changes
channel
chapelle
chaplin
chapman
chapter
characteristics
charles
charlesa
charlie
charlotte
chart
charts
chateau
che
chem
chemical
chemistry
chen
cher
chi
chicago
chicagu
chief
chiesa
child
children
chile
china
chinese
chisholm
chobot
choice
chris
christ
christian
christianity
christina
christine
christmas
christoph
christopher
chronic
chronicle
chronology
church
churchill
ci
cia
cicero
ciciban
cigan
cigana
cigani
ciganka
cigar
cigaret
cigarete
cigareto
cigav
cigava
cikel
cikla
ciklu
ciklus
cil
cila
cile
cilinder
cilj
cilja
cilje
ciljem
ciljev
cilji
cilju
cilka
cilki
cilko
cilu
cim
cimbolj
cimdalje
cimer
cimprej
cin
cina
cinema
cini
cink
cinom
cinu
ciper
cipra
cipru
circuit
circus
ciril
cirila
cirilicna
cirilicno
cirkus
ciscenja
ciscenje
cist
cista
ciste
cistega
cistem
cisti
cistih
cistim
cisto
cistost
cistosti
cita
cital
citala
citali
citalnica
citalnice
citalnici
citat
citati
citation
cities
citirano
citre
citta
city
cityju
ciudad
civil
civilistov
civilizacija
civilizacije
civilization
civilna
civilne
civilnega
civilni
civilnih
civilno
cj
ck
cl
claire
clan
clana
clane
clanek
clani
clanic
clanica
clanice
clanka
clanke
clanki
clankih
clankov
clanku
clanom
clanov
clansko
clanstvo
clarendon
clark
clarke
class
classic
classical
classics
classification
claude
claudia
claudio
clemens
clement
clemente
clen
clena
cleni
clenov
clenu
cleveland
climate
clin
clinical
clio
clo
close
clovek
cloveka
clovekom
clovekova
clovekove
clovekovega
clovekovih
clovekovo
cloveku
cloveska
cloveske
cloveskega
cloveskem
cloveski
cloveskih
cloveskim
cloveskimi
clovesko
clovestva
clovestvo
clovestvu
club
cm
cmok
cn
cnn
cnt
co
coast
cobiss
cochrane
code
codex
cohen
col
cold
cole
colin
collection
college
collins
coln
colna
colnar
colne
colni
colnic
colnom
colnov
colnu
colombia
colonna
color
columbia
com
combat
come
comes
comet
command
commanders
commission
committee
common
commons
communication
communications
community
companion
company
comparative
complete
complex
compounds
comprehensive
computer
comte
con
cona
concept
concert
concise
cone
conference
conflict
congress
coni
connecticut
connor
cono
conquest
conrad
conservation
constant
constantine
constantinople
constitution
construction
contemporary
content
context
continental
contra
control
convention
conway
cook
cooper
cop
copa
copate
copic
copy
cornelius
cornell
coronavirus
corporation
corps
corpus
corse
cos
cosimo
costa
cot
could
council
countries
country
county
course
court
cov
cover
covid
cox
cp
cq
cr
craig
crash
crawford
crc
creative
creda
crede
credits
credo
crevesa
crez
crisis
critical
crk
crka
crkami
crke
crki
crko
crkve
crn
crna
crne
crnega
crnem
crni
crnih
crnilo
crnim
crnimi
crno
crnogorski
crnogorsko
crnomelj
croatia
croce
cross
crpalke
crt
crta
crte
crti
crtic
crtica
crtice
crto
crtomir
cruz
crv
crvi
crystal
cs
ct
cu
cuda
cudak
cuden
cudez
cudeze
cudezi
cudezna
cudezni
cudezno
cudi
cudil
cudila
cudili
cudim
cuditi
cudna
cudne
cudnega
cudnem
cudni
cudnih
cudnim
cudno
cudo
cudovit
cudovita
cudovite
cudoviti
cudovito
cuj
cuje
cujejo
cujem
cujes
cujte
cuk
cul
cula
culi
culo
cultural
culture
cum
cunj
cunje
cup
curek
curkoma
current
curtis
custev
custva
custvene
custveno
custvo
cut
cuta
cute
cuti
cutijo
cutil
cutila
cutili
cutilo
cutim
cutimo
cutis
cutiti
cuva
cuvaj
cuvaja
cuval
cuvstev
cuvstva
cuvstvo
cv
cvet
cveta
cvete
cvetela
cvetele
cvetelo
cveti
cvetic
cvetice
cvetja
cvetje
cvetjem
cvetju
cvetka
cvetke
cvetko
cvetlic
cvetlicami
cvetlice
cvetni
cveto
cvetoca
cvetoce
cvetoci
cvetocih
cvetov
cvetove
cvetovi
cvetu
cvrst
cvrsto
cw
cx
cy
cyprus
cyril
cyrus
cz
czech
d
d0
d1
d2
d3
d4
d5
d6
d7
d8
d9
da
daan
dacar
dado
dahnila
daily
daj
dajal
dajala
dajale
dajali
dajalo
dajati
daje
dajejo
dajem
dajmo
dajo
dajte
dakota
dal
dala
dale
dalec
dali
dalj
daljave
daljavi
daljavo
dalje
dalji
daljna
daljne
daljnega
daljnem
daljni
daljnih
daljno
daljnogled
daljo
daljsa
daljse
daljsem
daljsi
daljsih
daljso
dallas
dalmacije
dalmaciji
dalmacijo
dalmatin
dalmatinsko
dalo
dam
dama
dame
dami
damijan
damir
damjan
damjana
damo
dan
dana
danas
danasnja
danasnje
danasnjega
danasnjem
danasnji
danasnjih
danasnjim
danasnjo
dance
dandanasnji
dandanes
dane
danes
dani
danica
danici
danico
daniel
daniela
danijel
danilo
danny
dano
dans
danska
danske
danskem
danski
dansko
dante
dar
dare
daril
darila
darilo
darin
darinka
dario
daritev
darja
dark
darko
darov
daroval
darovala
darovali
darove
darovi
darren
daru
daruje
darwin
das
dasi
dasiravno
dass
dassault
daste
dat
data
database
date
dati
datira
datos
datotek
datoteke
datum
datuma
datumi
davcne
davcni
dave
davek
davi
david
davida
davidson
davies
davis
davisov
davka
davkar
davke
davki
davkov
davnih
davno
davor
davorin
dawn
day
days
daß
db
dc
dd
ddg
de
dead
deal
dean
death
debate
debel
debela
debele
debelega
debeli
debelih
debelim
debelimi
debeljak
debelo
debitantski
debitiral
debitirala
debla
deblo
deblu
deborah
dec
deca
decek
december
decembra
decembrom
decembru
decka
decke
decki
decko
deckov
decku
deco
ded
deda
dedec
dedek
dedic
dedica
dediscina
dediscine
dediscino
dedka
dedni
dedno
dedov
deep
defence
defense
definicija
definicije
definiciji
definicijo
definira
definiran
definirana
definirani
definition
degli
dei
dej
dejal
dejala
dejali
dejan
dejanj
dejanja
dejanje
dejanjem
dejanji
dejanjih
dejanju
dejanski
dejansko
dejaven
dejavna
dejavnik
dejavnike
dejavniki
dejavnikov
dejavnost
dejavnosti
dejavnostih
dejavnostjo
deje
dejstev
dejstva
dejstvo
dejstvu
dekan
dekana
dekanija
dekanije
dekla
deklaracija
dekle
deklet
dekleta
dekletce
dekleti
dekletom
dekletu
dekleva
dekli
deklic
deklica
deklice
deklici
deklico
deklina
dekliski
deklisko
deklo
dekoracija
dekoracije
dekoracijo
del
dela
delaj
delajo
delajte
delal
delala
delale
delali
delalo
delam
delamo
delas
delat
delata
delate
delati
delavca
delavce
delavcem
delavcev
delavci
delavec
delaven
delavka
delavke
delavnic
delavnica
delavnice
delavnici
delavnico
delavska
delavske
delavskega
delavski
delavskih
delavsko
delca
delce
delcev
delci
dele
delec
delegacije
delez
deleza
delezen
delezna
delezni
delhi
deli
delih
delijo
delil
delila
delili
delimo
delitev
deliti
delitve
delitvi
delj
dell
della
delle
delni
delnice
delno
delo
delodajalec
delom
deloma
delov
deloval
delovala
delovale
delovali
delovalo
delovanja
delovanje
delovanjem
delovanju
delovati
delovna
delovne
delovnega
delovnem
delovni
delovnih
delovnim
delovno
delta
delte
delti
delu
deluje
delujejo
dem
demi
demo
demokracija
demokracije
demokracijo
demokrat
demokrati
demokraticna
demokraticne
demokraticni
demokraticno
demokratov
demokratske
demon
demsar
den
denar
denarja
denarje
denarjem
denarjev
denarji
denarju
denarna
denarne
denarni
denarnico
denarnih
denarno
dene
denes
deni
denimo
denis
denkwurdigen
dennis
departma
departmaja
departmaju
department
depresija
depresije
depresijo
depression
der
dere
derek
derzi
des
description
desert
deset
deseta
desetega
deseti
desetih
desetimi
desetine
desetino
desetkrat
desetletij
desetletja
desetletje
desetletji
desetletjih
desetletju
deseto
design
desk
deska
deske
deski
desko
desna
desne
desnega
desnem
desni
desnica
desnice
desnici
desnico
desnim
desno
despot
desus
det
details
detajl
dete
detektiv
deteta
detetom
detetu
detroit
deutsch
deutsche
deutschen
deutscher
deutschland
dev
deva
devanagarska
development
devet
deveta
devetak
devetdesetih
devete
deveti
devetih
devetimi
devetnajst
devetnajstega
deveto
devic
devica
device
devici
devico
devil
devin
devojka
dez
dezel
dezela
dezelah
dezele
dezeli
dezelna
dezelne
dezelnega
dezelnem
dezelni
dezelnih
dezelno
dezelo
dezevalo
dezevni
dezja
dezjem
dezju
deznik
dezuje
df
dg
dh
di
diabetes
diagnosis
diagnoza
diagnozo
diagram
diakon
diakona
dialog
dialogi
diamant
diamond
diana
diane
diaz
dick
dictionare
dictionary
dictionnaire
did
didje
die
diego
dies
diese
dieser
dieter
dietrich
different
digital
digitalna
digitalne
digitalni
digitalnih
digitalno
dih
diha
dihal
dihala
dihalnih
dihanja
dihanje
dihati
dijak
dijaka
dijake
dijaki
dijakov
dijaskih
diktator
dim
dima
dimenzij
dimenzije
dimitrij
dimnik
dimnika
dimu
din
dinamo
dinarjev
dinastija
dinastije
dinastiji
dinastijo
dino
dio
dioksid
dioksida
dion
dioniz
dios
diplomat
diplomatske
diplomatski
diplomatsko
diplome
diplomi
diplomiral
diplomirala
diplomo
diplomska
diplomsko
dir
directory
direktno
direktor
direktorica
direktorja
dirigent
dirja
dirjal
dirk
dirka
dirkac
dirkaca
dirkacev
dirkaci
dirkah
dirkal
dirkaliscu
dirkalnik
dirkalnika
dirkalniki
dirkalnikom
dirkalnikov
dirke
dirki
dirko
diru
dis
disala
disalo
disciplina
disciplinah
discipline
disciplini
disciplino
discogs
discovery
disease
diseases
disece
disertacija
disertacijo
disi
disk
diska
diskografija
disney
disorders
displaystyle
distinguished
distribucijo
distribution
district
divan
divanu
diversity
division
divizij
divizija
divizije
diviziji
divizijo
divja
divjacino
divjak
divjaki
divjal
divjala
divje
divjega
divjem
divji
divjih
divjim
divjo
divno
dizionario
dj
djal
djali
djvu
dk
dl
dlaka
dlake
dlako
dlan
dlani
dlanjo
dlib
dlje
dm
dn
dna
dne
dneh
dnem
dneva
dneve
dnevi
dnevih
dnevna
dnevne
dnevnem
dnevni
dnevnih
dnevnik
dnevnika
dnevniku
dnevno
dnevom
dnevu
dni
dnij
dnk
dno
dnu
do
dob
doba
dobe
dober
dobesedno
dobi
dobicek
dobicka
dobijo
dobil
dobila
dobile
dobili
dobilo
dobim
dobimo
dobis
dobite
dobiti
dobitnik
dobitnike
dobiva
dobivajo
dobival
dobivala
dobivali
dobo
dobra
dobrava
dobrave
dobravi
dobravo
dobre
dobrega
dobrem
dobremu
dobri
dobriga
dobrih
dobrim
dobrimi
dobrin
dobrine
dobro
dobrodelne
dobrohotno
dobrot
dobrota
dobrote
dobroti
dobrotnik
dobrotnika
dobroto
dobrovoljno
dobru
doc
docakal
docela
docent
doch
docim
doctor
document
documents
doda
dodaja
dodajanje
dodal
dodala
dodali
dodamo
dodan
dodana
dodane
dodani
dodano
dodatek
dodaten
dodati
dodatki
dodatkom
dodatna
dodatne
dodatnega
dodatni
dodatnih
dodatnim
dodatno
dodeli
dodelil
dodelili
dodeljen
dodeljena
dodobra
does
dog
dogaja
dogajajo
dogajalni
dogajalo
dogajanja
dogajanje
dogajanju
dognal
dognati
dogodbe
dogodek
dogodilo
dogodivscine
dogodka
dogodke
dogodki
dogodkih
dogodkom
dogodkov
dogodku
dogovor
dogovora
dogovoril
dogovorila
dogovorili
dogovorjeno
dogovoru
dohitel
dohodek
dohodka
dohodke
dohodki
dohodkov
dohtar
doi
dojde
dojencek
dojencka
dojke
dok
dokaj
dokaz
dokaza
dokazal
dokazala
dokazali
dokazano
dokazati
dokaze
dokazi
dokazov
dokazoval
dokazuje
dokazujejo
dokler
dokoncal
dokoncala
dokoncali
dokoncan
dokoncana
dokoncanje
dokoncno
doktor
doktorat
doktoriral
doktorirala
doktorja
doktorju
doktorski
doktorsko
dokument
dokumenta
dokumentarni
dokumente
dokumenti
dokumentih
dokumentov
dokumentu
dol
dola
dolar
dolarjev
dole
dolenc
dolenje
dolenji
dolenjska
dolenjske
dolenjskem
dolenjski
dolenjsko
dolet
doletela
doleti
dolg
dolga
dolgcas
dolge
dolgega
dolgem
dolgi
dolgih
dolgim
dolgimi
dolgo
dolgocasen
dolgocasna
dolgocasno
dolgoletni
dolgoletno
dolgorocno
dolgotrajno
dolgov
dolgove
doli
dolin
dolina
dolinah
dolinar
doline
dolini
dolino
doloca
dolocajo
dolocanje
dolocbe
dolocen
dolocena
dolocene
dolocenega
dolocenem
doloceni
dolocenih
dolocenim
dolocenimi
doloceno
doloci
dolocijo
dolocil
dolocila
dolocili
dolocilo
dolocimo
dolocitev
dolociti
dolocno
dolu
dolzan
dolzin
dolzina
dolzine
dolzini
dolzino
dolzna
dolzni
dolznost
dolznosti
dom
doma
domac
domaca
domace
domacega
domacem
domaci
domacih
domacija
domacije
domaciji
domacijo
domacim
domacimi
domacin
domacini
domacinov
domacinstava
domaco
domen
domenico
domet
domingo
domini
dominik
dominika
dominikanski
dominique
domisli
domislil
domislila
domisliti
domisljija
domisljije
domisljiji
domisljijo
domneva
domnevajo
domneval
domneve
domnevni
domnevno
domnevo
domoljub
domom
domotozje
domov
domovanje
domove
domovi
domovih
domovina
domovine
domovini
domovino
domu
domzalah
domzale
don
dona
donald
donave
donavi
donavo
donel
donelo
doni
donja
donji
donna
dopade
dopisni
dopisnik
dopoldne
dopolnil
dopolnila
dopolnjena
dopolnjuje
dopovedati
doprsni
dopusca
dopust
dopusta
dora
doria
dorica
doris
doro
dorothy
dos
doseci
dosedaj
dosedanje
doseg
dosega
dosegajo
dosegal
doseganje
dosegel
dosegla
dosegle
dosegli
doseglo
dosego
dosel
doseze
dosezejo
dosezek
dosezemo
dosezen
dosezeno
dosezke
dosezki
dosezkov
dosla
dosledno
doslej
dosli
doslo
dospe
dospel
dospela
dospeli
dospevsi
dostavi
dostavil
dostavila
dosti
dostikrat
dostojanstva
dostojanstveno
dostojanstvo
dostojevski
dostojno
dostop
dostopa
dostopano
dostopen
dostopna
dostopne
dostopni
dostopnih
dostopno
dostopnost
dota
dotakne
dotaknil
dotaknila
dotakniti
dote
doticni
dotik
dotika
dotiko
dotlej
doto
double
douglas
dovelj
dover
dovoli
dovolil
dovolila
dovolili
dovolim
dovolite
dovoliti
dovolj
dovoljen
dovoljena
dovoljenja
dovoljenje
dovoljenjem
dovoljeno
dovoljuje
dovrseno
dovrsil
down
doz
doza
dozdaj
dozdeva
dozdevalo
dozivel
dozivela
doziveli
dozivelo
doziveti
dozivetja
dozivi
dozivlja
dozivljajo
dozivljanje
dozorel
dozori
dp
dq
dr
drag
draga
dragan
dragana
drage
dragega
dragi
dragica
dragih
drago
dragocen
dragocena
dragocene
dragoceni
dragocenih
dragoceno
dragocenosti
dragotin
dragulji
dragutin
dram
drama
dramaticno
dramatik
dramatika
dramatike
dramatiki
dramatikov
dramaturg
drame
drami
dramo
dramska
dramske
dramski
dramskih
dramsko
drasticno
drava
drave
dravi
dravo
dravograd
dravske
drazbi
drazi
drazil
dream
dreams
dregnil
dremal
dresden
dreves
drevesa
drevesi
drevesih
drevesom
drevesu
drevi
drevja
drevje
drevjem
drevju
drevo
drevored
drevoredu
drew
drhal
drhtela
drhti
drive
drl
drli
drnovsek
droben
drobiz
drobiza
drobna
drobne
drobnega
drobni
drobnih
drobnimi
drobno
drobtinice
drog
droga
droge
drug
druga
drugace
drugacen
drugaci
drugacna
drugacne
drugacnega
drugacni
drugacnih
drugacno
drugam
druge
drugega
drugej
drugem
drugemu
drugi
drugic
drugih
drugikrat
drugim
drugimi
drugje
drugo
drugod
drugs
druhal
druscina
druscine
druscini
druscino
drustev
drustva
drustvih
drustvo
drustvu
druzb
druzba
druzbah
druzbe
druzbena
druzbene
druzbenega
druzbenem
druzbeni
druzbenih
druzbeno
druzbi
druzbo
druzega
druzi
druzica
druzice
druzico
druziga
druzih
druzin
druzina
druzine
druzini
druzino
druzinska
druzinske
druzinskega
druzinskem
druzinski
druzinskih
druzinsko
drv
drva
drvar
drvi
drzal
drzala
drzale
drzali
drzalo
drzati
drzav
drzava
drzavah
drzavam
drzavama
drzavami
drzave
drzavi
drzavljan
drzavljane
drzavljani
drzavljanov
drzavljanska
drzavljanske
drzavljanski
drzavljanskih
drzavljansko
drzavljanstvo
drzavna
drzavne
drzavnega
drzavnem
drzavnemu
drzavni
drzavnih
drzavnik
drzavnim
drzavno
drzavnozborskih
drzavo
drze
drzec
drzi
drzijo
drzim
drzis
drzita
drzite
drzne
drzni
drznil
drzno
drzo
ds
dt
du
dublin
dubrovnik
dubrovniku
due
duet
duh
duha
duhom
duhov
duhove
duhoven
duhovi
duhovna
duhovne
duhovnega
duhovni
duhovnih
duhovnik
duhovnika
duhovnike
duhovniki
duhovnikom
duhovnikov
duhovniku
duhovnisko
duhovno
duhovscina
duhovscine
duhovscino
duhu
duke
dular
dunaj
dunaja
dunaji
dunajska
dunajske
dunajskega
dunajskem
dunajski
dunajskih
dunajsko
dunaju
duncan
dune
dur
durch
duri
durih
durim
during
durmi
duru
durud
dus
dusa
dusah
dusan
dusana
duse
dusevna
dusevne
dusevnega
dusevnem
dusevni
dusevnih
dusevno
dusi
dusica
dusik
dusika
duska
dusna
dusne
dusni
dusno
duso
dutch
dv
dva
dvajset
dvajsetega
dvajsetih
dvajsetimi
dvakrat
dvanajst
dvanajstih
dvanajsto
dvd
dve
dveh
dvema
dvesto
dvig
dviga
dvigajo
dvigal
dvigala
dvigale
dvigali
dvigalo
dvigne
dvignejo
dvignil
dvignila
dvignile
dvignili
dvignilo
dvigniti
dvignjeno
dviguje
dvoboj
dvoboju
dvojbe
dvojcka
dvoje
dvojic
dvojice
dvojna
dvojne
dvojnem
dvojni
dvojno
dvom
dvoma
dvomi
dvomil
dvomim
dvomiti
dvor
dvora
dvorana
dvoranah
dvorane
dvorani
dvorano
dvoranskih
dvorca
dvorcu
dvorec
dvorisca
dvorisce
dvorisci
dvoriscu
dvorna
dvorne
dvornega
dvorni
dvoru
dw
dx
dy
dynamics
dynasty
dz
dzong
dzs
e
e0
e1
e2
e3
e4
e5
e6
e7
e8
e9
ea
eagle
eagles
earl
early
earth
east
eastern
eb
eberhard
ec
ecclesia
eclipse
ecole
ecology
economic
economics
economy
ed
eddie
eden
edgar
edi
edina
edinburgh
edine
edinega
edini
edino
edinole
edinost
edinstven
edinstvena
edinstveno
edited
edition
editions
editor
editore
edmond
edmund
edo
edouard
eds
edu
eduard
education
edvard
edvarda
edward
edwards
edwin
ee
ef
effect
effects
eg
egipcani
egipcanska
egipcanske
egipcanski
egipcanskih
egipcansko
egipt
egipta
egiptovski
egiptu
ego
egon
egypt
egyptian
eh
ei
ein
eine
einem
einen
einer
eines
einstein
ej
ek
ekip
ekipa
ekipe
ekipi
ekipni
ekipno
ekipo
ekliptiki
ekolosko
ekonomija
ekonomije
ekonomijo
ekonomist
ekonomska
ekonomske
ekonomski
ekonomskih
ekonomsko
ekscelenca
eksperimentalno
eksplozija
eksplozije
eksploziji
eksplozijo
el
ela
eleanor
electric
electronic
elegantno
elektrarna
elektrarne
elektricna
elektricne
elektricnega
elektricni
elektricnih
elektricno
elektrika
elektrike
elektriko
elektro
elektron
elektrona
elektroni
elektronov
elektronska
elektronske
elektronski
elektronskih
elektronsko
elektrotehniko
element
elementa
elemente
elementi
elementov
elements
elena
elete
elias
elija
elisabeth
elite
eliteprospects
eliza
elizabeta
elizabete
elizabeth
elizabeto
ella
ellen
ellis
elo
elsevier
elton
elvira
elvis
elza
em
ema
emanuel
emanuela
embraer
emerson
emi
emil
emile
emilija
emilio
emily
emir
emma
emmanuel
emo
emperor
empire
en
ena
enacb
enacba
enacbe
enacbi
enacbo
enajst
enajsti
enajstih
enajsto
enak
enaka
enake
enakega
enakem
enaki
enakih
enakim
enakimi
enako
enakomerno
enakopravnost
enakost
enakosti
enakovreden
enakovredno
enciclopedia
enciklopedija
encim
encima
encimi
encimov
encyclopaedia
encyclopedia
encyclopædia
end
ene
enega
enej
enem
enemu
energija
energije
energijo
energy
engel
engelbert
engine
engineering
engines
england
english
eni
eniga
enih
enim
enkrat
enkratno
eno
enoglasno
enolicno
enostaven
enostavna
enostavne
enostavno
enot
enota
enotah
enotam
enotami
enote
enoti
enotna
enotne
enotni
enotno
enotnost
enotnosti
enoto
enrico
enrique
enterprise
entertainment
enthaltend
entre
entry
environment
environmental
enzo
enzyklopadie
eo
ep
epa
epafrodit
epidemije
epika
epizod
epizoda
epizode
epizodi
epsilon
eq
equiv
er
era
erazem
eric
erich
erik
erika
erjavec
erna
ernest
ernesto
ernst
ervin
erwin
erzen
es
esej
esejev
eseji
esejist
espana
espn
essays
essential
est
este
estetsko
estonija
estonije
estoniji
et
eta
etc
ethnic
eticno
etienne
etika
etike
etimologija
etimoloski
etnicka
etnicna
etnicne
etnicnih
etnicno
etnolog
ettore
etzrodt
eu
eugen
eugene
eugenio
euler
eur
euro
eurohockey
europa
europe
european
eurovision
ev
eva
evaluation
evangelicanski
evangelij
evangelija
evangelist
evans
eve
evelina
events
ever
evgen
evgenija
evidence
evidencna
evo
evolucije
evolution
evro
evropa
evrope
evropejci
evropi
evropo
evroposlancev
evropska
evropske
evropskega
evropskem
evropski
evropskih
evropskim
evropskimi
evropsko
evrov
evrovizije
evstahij
ew
ex
excavations
exhibition
exp
experience
experimental
exploration
express
ey
eyck
eye
eyes
ez
f
f0
f1
f2
f3
f4
f5
f6
f7
f8
f9
fa
faber
fabio
face
facebook
fact
factbook
facto
factor
facts
fair
faith
fajmoster
faktor
faktorjev
faktorji
fakultet
fakulteta
fakultete
fakulteti
fakulteto
falcon
fall
falls
fame
families
family
fan
fani
fanny
fant
fanta
fantazija
fantazije
fante
fantek
fanti
fantic
fantje
fantom
fantov
fantu
far
fara
faraon
faraona
faraoni
faraonov
fare
fari
farmacevtski
farne
farnese
faro
fasada
fasade
fasadi
fasado
fasc
fasisti
fasisticne
fasizma
fast
faust
faz
faza
fazah
faze
fazi
fazo
fb
fbi
fbref
fc
fd
fda
fdv
fe
fear
feb
februar
februarja
februarjem
february
federacija
federacije
federal
federation
federativne
federico
fej
feldmarsal
felice
feliks
felipe
felix
fenomen
feodor
ferdinand
ferdinanda
ferdinando
ferdinandu
ferdo
ferenc
ferguson
feri
fernandez
fernando
ferrari
festival
festivala
festivalih
festivalov
festivalu
fevd
ff
fg
fh
fi
fiat
fiction
field
fifa
fighter
fighters
fighting
figo
figur
figura
figurami
figure
figures
figuro
fil
file
files
filharmonije
filip
filipa
filipom
filippo
filipu
film
filma
filme
filmi
filmih
filmom
filmov
filmportal
films
filmska
filmske
filmskega
filmskem
filmski
filmskih
filmsko
filmu
filolog
filozof
filozofa
filozofi
filozofija
filozofije
filozofiji
filozofijo
filozofov
filozofska
filozofske
filozofski
filozofskih
filozofsko
fin
fina
final
finala
finale
finalni
finalu
financar
finance
financial
financiranje
financna
financne
financnega
financni
financnih
financno
find
fine
fini
fink
fino
finska
finske
finskem
finski
finskih
finsko
finzgar
fire
firenc
firencah
firence
firenze
first
fis
fischer
fish
fisher
five
fizicna
fizicne
fizicnega
fizicni
fizicnih
fizicno
fizik
fizika
fizikalne
fizikalni
fizikalnih
fizikalno
fizike
fiziki
fiziko
fizikov
fiziologijo
fizol
fj
fjalor
fjodor
fjodorovic
fk
fl
flavij
flavta
flavto
fleet
fleming
fletcher
flight
flora
flore
florence
florida
florijan
florjan
flota
flote
floto
flower
floyd
fly
flying
fm
fn
fo
fokker
fokus
folk
fontana
fontane
food
football
for
forbes
force
forces
ford
foreign
forest
form
forma
formalne
formalno
format
formation
formatu
forme
former
formula
formule
formuli
formulo
fort
forum
foruma
forumu
fosilnih
foster
foto
fotograf
fotografij
fotografija
fotografije
fotografiji
fotografijo
fotomodel
found
foundation
four
fourth
fox
fp
fq
fr
fra
frac
fragment
fragmenti
fragmentov
fran
frana
franc
franca
francaise
france
francek
francelj
frances
francesca
francesco
franceta
francetu
franci
francija
francije
franciji
francijo
francis
francisca
francisco
francisek
franciska
franciskan
franciskani
franciskanski
francka
franco
francois
francoscina
francoscine
francoscini
francoscino
francoska
francoske
francoskega
francoskem
francoskemu
francoski
francoskih
francoskim
francosko
francoz
francoze
francozi
francozje
francozom
francozov
francu
frane
franica
franja
franjo
frank
franka
frankfurt
frankfurtu
franki
franklin
franko
frankopan
frankov
frankovske
frankovskega
frankovski
frankovsko
frantisek
franz
fras
fraser
fraze
fred
frederic
frederick
free
freedom
freeman
freiburg
frekvenca
frekvence
frekvenco
french
fresk
freska
freskami
freske
fresko
freud
frey
fric
friderik
friderika
friderikom
frideriku
friedrich
friedricha
friends
fritz
friz
from
front
fronta
fronte
fronti
fronto
fs
ft
fu
fucca
fucec
full
function
fund
fundacija
fundacije
funkcij
funkcija
funkcije
funkciji
funkcijo
funkcionar
funt
funtov
fur
furlan
furlaniji
furlansko
futbol
future
fuzine
fv
fw
fx
fy
fz
fzs
g
g0
g1
g2
g3
g4
g5
g6
g7
g8
g9
ga
gab
gaber
gabor
gabriel
gabriela
gabriele
gabrijel
gabrijela
gad
gada
gaetano
gaga
gaj
gaja
gaje
gaju
gal
gala
galaksij
galaksija
galaksije
gale
galeb
galerija
galerije
galeriji
galerijo
galiciji
galicijsko
galije
galiji
galijo
galileo
gall
gallery
gama
game
games
gamma
gane
ganil
ganila
ganilo
ganiti
gantar
garcia
garda
garde
garden
gardens
gardna
gardner
gardni
gary
gas
gasilci
gasilski
gasilsko
gaskonji
gaskonsko
gaspar
gasper
gaston
gate
gaulle
gay
gaz
gazela
gazette
gazetteer
gazi
gb
gc
gd
ge
geboren
gegen
gegenwart
gel
gelebt
gemeinsame
gen
gena
gender
gene
geneastar
generacij
generacija
generacije
generaciji
generacijo
general
generala
generale
generali
generalmajor
generalmajorja
generalnega
generalni
generalom
generalov
generalpolkovnik
generalporocnik
generals
generalstaba
generalu
generation
generator
genetic
genetics
genetsko
geni
genij
genija
genov
genova
genovefa
gentiana
geoffrey
geograf
geografija
geografije
geografijo
geografska
geografske
geografski
geografskih
geografsko
geographic
geographical
geography
geolog
geological
geology
geoloska
geoloski
geolosko
geometrija
geometrije
geometriji
geometrijo
geopedia
geopediji
georg
georga
george
georgea
georges
georgia
georgij
gerald
gerard
gerhard
germain
german
germanskih
germany
geschichte
gesel
gesellschaft
gesla
geslo
get
getty
gewirkt
geza
gf
gg
gh
gi
giacomo
gian
gianni
giant
gibal
gibanj
gibanja
gibanje
gibanjem
gibanju
gibati
giblje
gibljejo
gibson
gil
gilbert
gilles
gimnazija
gimnazije
gimnaziji
gimnazijo
gimnazijski
ginjen
giorgio
giovanni
giovannija
girl
girls
girolamo
giuliano
giulio
giuseppe
gizela
gj
gjuhes
gk
gl
glad
gladek
gladi
gladil
gladina
gladine
gladini
gladino
gladka
gladke
gladki
gladkih
gladko
gladu
glagol
glagola
glal
glas
glasba
glasbe
glasbena
glasbene
glasbenega
glasbenem
glasbeni
glasbenica
glasbenih
glasbenik
glasbenika
glasbeniki
glasbenikov
glasbeno
glasbi
glasbila
glasbo
glasen
glasi
glasil
glasila
glasilo
glasna
glasneje
glasni
glasnik
glasnim
glasno
glasom
glasov
glasovanja
glasovanje
glasove
glasovi
glass
glasu
glav
glava
glavah
glavami
glavar
glavarja
glavarju
glave
glavi
glavica
glavice
glavico
glavna
glavne
glavnega
glavnem
glavnemu
glavni
glavnih
glavnim
glavnimi
glavno
glavo
glavobol
glazek
gld
gleda
gledaje
gledajo
gledal
gledala
gledalca
gledalce
gledalcev
gledalci
gledale
gledali
gledalisca
gledalisce
gledaliscem
gledaliscu
gledaliska
gledaliske
gledaliski
gledaliskih
gledalisko
gledalo
gledam
gledamo
gledano
gledas
gledat
gledata
gledati
glede
gledisce
glej
glejte
glenn
gli
glili
glina
gline
glive
global
globalni
globalno
globe
globeli
globin
globina
globinah
globine
globini
globino
globlje
globocine
globocino
globok
globoka
globoke
globokega
globokem
globoki
globokih
globokim
globoko
globus
gloria
glossary
gluh
gluha
gluhi
glukoze
glusic
gm
gmajni
gmbh
gn
gnal
gnala
gnali
gnalo
gneca
gnev
gnezda
gnezdi
gnezdo
gnezdu
gnjezdo
gnoj
gnoja
gnu
gnus
gnusa
go
gob
goba
gobe
gobec
gobo
god
godalni
godba
godbe
godbo
godci
gode
godec
godel
godi
godilo
godina
godrnja
godrnjal
gods
godu
godujejo
godujes
goes
goethe
gogala
gojenje
goji
gojijo
gojil
gojila
gojili
gojiti
gojko
gol
gola
golar
gold
golden
goldinar
goldinarjev
goldstein
gole
golega
golem
golf
goli
golih
golja
goljevscek
golo
golob
goloba
golobica
golov
gomez
gomila
gomile
gomilo
goni
gonil
gonzaga
gonzalez
good
google
gor
gora
gorah
gorak
gorami
goran
goransko
gorazd
gordon
gore
gorec
goreca
gorece
goreci
goreco
gorel
gorela
gorele
gorelo
gorenja
gorenje
gorenji
gorenjska
gorenjske
gorenjskem
gorenjski
gorenjsko
goreti
gori
goric
gorica
goricah
gorice
gorici
gorico
goriska
goriske
goriskega
goriskem
goriski
goriskih
gorisko
goriva
gorivo
gorja
gorjaco
gorjanci
gorje
gorka
gorke
gorkega
gorki
gorko
gornik
gornja
gornje
gornjega
gornjem
gornji
gornjo
goro
gorovja
gorovje
gorovju
gorska
gorske
gorskega
gorskem
gorski
gorskih
gorsko
gos
goscavi
goscavo
gosci
gosco
gosenice
gosi
gosli
gosp
gospa
gospe
gospej
gospica
gospo
gospod
gospoda
gospodar
gospodari
gospodarica
gospodaril
gospodarja
gospodarjem
gospodarjev
gospodarji
gospodarju
gospodarska
gospodarske
gospodarskega
gospodarskem
gospodarski
gospodarskih
gospodarsko
gospodarstva
gospodarstvenik
gospodarstvo
gospodarstvu
gospode
gospodi
gospodicina
gospodicna
gospodicne
gospodicni
gospodicno
gospodine
gospodinja
gospodinje
gospodinji
gospodinjo
gospodinjstev
gospodinjstva
gospodinjstvo
gospodje
gospodo
gospodom
gospodov
gospodu
gosposka
gosposke
gosposki
gosposko
gospostva
gospostvo
gospvd
gost
gosta
goste
gostem
gosti
gostih
gostijo
gostil
gostila
gostilna
gostilnah
gostilne
gostilni
gostilnicar
gostilnici
gostilnico
gostilno
gostim
gostitelj
gostitelja
gostje
gosto
gostom
gostota
gostote
gostoto
gostov
gostu
gostujoci
got
goti
gotike
gotov
gotova
gotove
gotovega
gotovi
gotovo
gotovostjo
gotska
gotske
gotskega
gotskem
gotski
gotskih
gotsko
gott
gottfried
gould
gov
goveda
govedo
govekar
government
govor
govora
govorcev
govore
govorec
govorece
govoreci
govorecih
govori
govorica
govorice
govorici
govorico
govorijo
govoril
govorila
govorile
govorili
govorilo
govorim
govorimo
govoris
govorita
govorite
govoriti
govoriva
govorjenja
govorjenje
govornik
govorom
govorov
govoru
gozd
gozda
gozdar
gozdarski
gozdarstvo
gozde
gozdi
gozdih
gozdna
gozdne
gozdnega
gozdni
gozdnih
gozdno
gozdom
gozdov
gozdove
gozdovi
gozdovih
gozdu
goſpa
gp
gps
gq
gr
graben
grabi
grace
grad
grada
gradbena
gradbeni
gradbenih
gradbenik
gradbenistvo
gradca
gradcu
gradec
gradi
gradic
gradijo
gradil
gradili
gradisca
gradisce
gradiscu
graditelj
graditi
gradiva
gradivo
gradnik
gradnja
gradnje
gradnji
gradnjo
gradom
gradov
gradove
gradovi
gradovih
gradu
graf
grafenauer
graficni
graficno
grafik
grafike
grafov
grah
graham
grajscak
grajska
grajske
grajskega
grajskem
grajski
grajskih
grajsko
grammy
gran
granat
granata
granate
grand
grande
granita
grant
grape
grapi
grapo
grascak
grascaka
grascakinja
grascaku
grascina
grascine
grascini
grascino
grasic
grave
gravitacije
gray
graz
grb
grba
grbi
grbom
grbu
grcar
grcija
grcije
grciji
grcijo
grd
grda
grde
grdega
grdi
grdo
gre
great
greatest
greben
grebena
grebeni
grebenu
grede
gredi
gredo
gredoc
greece
greek
green
greene
greenwood
greg
grega
gregec
gregor
gregorcic
gregoric
gregorij
gregorijanskem
gregorio
gregorja
gregorju
gregory
greh
greha
grehe
grehi
grehov
grehu
greje
grejo
grem
gremo
grenadier
grenadirski
grenka
grenke
grenkega
grenko
gres
gresil
gresnik
gresnika
gresno
gresta
greste
greva
grey
gric
grica
grice
gricev
grici
gricih
gricu
grimm
grivo
grize
grizel
grizla
grk
grki
grkov
grl
grla
grlo
grlu
grm
grma
grmade
grmadi
grmado
grmelo
grmenje
grmi
grmicevje
grmom
grmovja
grmovje
grmovjem
grmovju
grmu
grob
groba
grobem
grobisce
grobnic
grobnica
grobnice
grobnici
grobnico
grobo
grobov
grobove
grobovi
grobovih
grobu
grof
grofa
grofi
grofica
grofice
grofici
grofico
grofija
grofije
grofiji
grofijo
grofinja
grofje
grofom
grofov
grofu
groga
grom
gros
groselj
grosuplje
group
groups
grove
growth
groza
grozd
grozdja
grozdje
groze
grozece
grozen
grozi
grozil
grozila
grozili
grozna
grozne
groznega
grozni
groznih
groznja
groznje
groznjo
grozno
grozo
grozovito
grscina
grscine
grscini
grska
grske
grskega
grskem
grski
grskih
grskim
grsko
gruca
grucah
gruce
gruco
gruda
gruden
grudi
grumman
grunt
grunta
grup
grupa
grupe
grupo
gruyter
gruzija
gruzije
gruziji
gs
gt
gu
guardian
gube
gubec
guide
guidelines
guido
guillaume
guinness
gumb
gumbi
gun
gunter
gunther
gustav
gustava
gustave
gut
gutenberg
guverner
guvernerja
guvernerjev
guy
gv
gvineja
gw
gx
gy
gz
h
h0
h1
h2
h3
h4
h5
h6
h7
h8
h9
ha
haben
habitat
habitatov
habsburske
habsburski
habsbursko
habsburzani
habsburzanov
had
hadrijan
hafner
haha
hahaha
hajdi
hal
hale
half
halil
haljo
hall
halle
halo
hamburg
hamburgu
hamilton
hamlet
hammond
han
hana
hanca
hancock
hand
handbook
handbuch
hannah
hannover
hans
hansa
hansen
happy
harald
hard
hardy
harmonija
harmonije
harmonijo
harmonika
harmonike
harmoniko
harold
harper
harris
harrison
harry
hart
hartman
hartmann
harvard
harvey
has
hasan
hat
haus
haut
haute
havbicni
have
haven
havilland
hawk
hawker
hayden
hayes
hb
hc
hcer
hcera
hcere
hceri
hcerjo
hcerka
hcerke
hcerki
hcerko
hci
hd
he
head
health
heart
heather
heaven
heavy
hebrejsko
heer
heera
heidelberg
heine
heinrich
heinz
hej
hektarjev
helen
helena
helene
heleni
heleno
helga
helicopter
helija
helikopter
helikopterjev
hell
helmut
helsinki
henderson
henri
henrik
henrika
henrikom
henriku
henry
henryja
hepatitis
her
herald
herbart
herberstein
herbert
herbie
hercegovina
hercegovine
hercegovini
herder
here
herge
heritage
herman
hermana
hermann
hermes
hermina
hero
herodot
heroj
heroja
herojev
herr
herzog
hesse
het
hf
hg
hh
hi
hidroelektrarna
hidroelektrarne
hier
hierarchy
hieronim
high
higher
hilarij
hilary
hildski
hill
hills
hilton
himna
himne
himno
hinavec
hinavsko
hindi
hinko
hip
hipa
hipec
hipno
hipoma
hipoteza
hipotezo
hipov
hipu
his
hisa
hisah
hisami
hise
hisi
hisica
hisice
hisici
hisico
hisna
hisne
hisnega
hisni
hisnih
hisnik
hisno
hiso
histoire
historia
historic
historical
history
hit
hite
hitel
hitela
hitele
hiteli
hiter
hiteti
hiti
hitijo
hitim
hitler
hitlerja
hitra
hitre
hitrega
hitreje
hitrejse
hitrejsi
hitrem
hitri
hitrih
hitro
hitrost
hitrosti
hitrostjo
hits
hiv
hj
hk
hkrati
hkratu
hl
hlac
hlacah
hlace
hlad
hladen
hladna
hladne
hladnega
hladnem
hladni
hladnih
hladnik
hladno
hladnokrvno
hladu
hlajenje
hlapca
hlapce
hlapcem
hlapcev
hlapci
hlapcu
hlapec
hlastno
hld
hleb
hlebec
hlev
hleva
hlevi
hlevom
hlevu
hm
hms
hn
ho
hoc
hoce
hocejo
hocem
hocemo
hoces
hoceta
hocete
hoceva
hocevar
hockey
hockeydb
hoda
hodi
hodijo
hodil
hodila
hodile
hodili
hodilo
hodim
hodimo
hodis
hodita
hodite
hoditi
hodnik
hodnika
hodnikih
hodniku
hoffman
hoffmann
hoj
hoja
hoje
hoji
hojo
hokej
hokeja
hokejist
hokejistov
hokejska
hokejske
hokejski
hokeju
holesterola
holland
hollywood
holmes
holt
holy
home
homer
homo
honda
hong
hop
hope
hopkins
hopsasa
hor
horace
horde
hormonov
horn
horse
horst
horvat
hospital
host
hoste
hosti
hostnik
hosto
hot
hote
hotec
hotel
hotela
hotele
hoteli
hotelo
hotelov
hotelu
hotimir
house
houston
hov
how
howard
hp
hq
hr
hraber
hrabri
hrabro
hrabrost
hram
hrama
hramu
hrana
hrane
hrani
hranijo
hranil
hranila
hranili
hraniti
hrano
hrast
hrasta
hrasti
hrastnik
hrastov
hrastu
hrbet
hrbta
hrbtni
hrbtom
hrbtu
hren
hrepenece
hrepenel
hrepenela
hrepenenja
hrepenenje
hrepenenjem
hrepenenju
hrepeni
hrib
hriba
hribar
hribe
hribi
hribih
hribom
hribov
hribovja
hribovje
hribu
hripav
hripavim
hripavo
hrosc
hrovat
hrsg
hrudos
hrup
hrupa
hrupno
hruska
hruske
hrusko
hrust
hrv
hrvascina
hrvaska
hrvaske
hrvaskega
hrvaskem
hrvaski
hrvaskih
hrvasko
hrvat
hrvata
hrvate
hrvati
hrvatje
hrvatov
hrvatska
hrvatske
hrvatskem
hrvatski
hrvatsko
hs
ht
htm
html
http
https
hu
huber
hubert
hud
huda
hude
hudega
hudem
hudi
hudic
hudica
hudicev
hudici
hudicu
hudih
hudim
hudo
hudoba
hudobec
hudoben
hudobije
hudobna
hudobne
hudobnega
hudobni
hudobno
hudodelec
hudodelstvo
hudomusno
hudournik
hudoval
hudson
hugh
hughes
hugo
huje
hujsa
hujse
hujsega
hujsi
hum
human
humanist
humanisticne
humanities
humar
humor
hung
hungarian
hungary
huni
hunt
hunter
hura
hv
hvala
hvale
hvalezen
hvalezna
hvalezni
hvalezno
hvaleznost
hvaleznosti
hvali
hvalijo
hvalil
hvalila
hvalili
hvaliti
hvaljen
hvalo
hw
hx
hy
hz
i
i0
i1
i2
i3
i4
i5
i6
i7
i8
i9
ia
iaaf
ian
iau
ib
iberskega
ibid
ibm
ibn
ibrahim
ic
ice
ich
id
ida
ide
ideal
ideale
ideali
idealna
idealno
idej
ideja
idejami
ideje
ideji
idejo
identifikacijo
identiteta
identitete
identiteto
identity
ideologije
idi
idite
idr
idrija
idriji
ie
ieſt
if
ig
iger
igla
igle
iglo
ign
ignac
ignacij
ignacija
igor
igra
igrac
igraca
igrace
igrah
igrajo
igral
igrala
igralca
igralce
igralcem
igralcev
igralci
igralcu
igrale
igralec
igrali
igralk
igralka
igralke
igralko
igralo
igralske
igralski
igralsko
igram
igrami
igrani
igranja
igranje
igranjem
igranju
igrata
igrati
igre
igri
igrisca
igrisce
igriscu
igro
ih
ihm
ihr
ihre
ihtela
ihtenje
ihti
ii
iii
ij
ijv
ik
ikona
ikone
il
ile
ili
ilija
ilirija
ilirska
ilirske
ilirski
ilirskih
ilirsko
illinois
illustrated
ilona
ilustracija
ilustracije
ilustrator
ilustriral
ilustrirala
im
ima
image
images
imajo
imam
imamo
imas
imata
imate
imava
imdb
ime
imej
imejte
imel
imela
imele
imeli
imelo
imen
imena
imeni
imenih
imenik
imeniten
imenitna
imenitne
imenitnega
imenitni
imenitnih
imenitno
imenom
imenoval
imenovala
imenovali
imenovalo
imenovan
imenovana
imenovane
imenovanega
imenovanem
imenovani
imenovanih
imenovanim
imenovanja
imenovanje
imenovanju
imenovano
imenovati
imenu
imenuje
imenujejo
imenujem
imenujemo
imeti
imetja
imetje
imi
impact
imperial
imperij
imperija
imperiju
implications
imunskega
imunski
in
ina
inc
incident
including
indeks
independent
index
india
indian
indiana
indianapolis
indija
indijancev
indijanci
indijanec
indije
indiji
indijo
indijska
indijske
indijskega
indijskem
indijski
indijskih
indijsko
individual
individualni
individualno
indo
indonesia
industrial
industries
industrija
industrije
industriji
industrijo
industrijska
industrijske
industrijski
industrijskih
industrijsko
industry
ines
infanterie
infantry
infection
influence
info
informacij
informacija
informacije
informacijo
informacijska
informacijske
informacijski
informacijskih
informacijsko
information
infrastrukture
infrastrukturo
infty
ingrid
inja
innsbruck
innsbrucku
ino
inocenc
inorganic
inscriptions
insee
inside
inspektor
institucij
institucija
institucije
institut
instituta
institute
institution
institutu
instruktor
instrument
instrumente
instrumenti
instrumentov
int
integral
intelektualno
inteligenca
inteligence
intelligence
intenzivno
inter
interactive
interakcije
interaktivni
interes
interese
interesi
interesov
interesu
intermediate
international
internationale
internet
interneta
internetu
interpretacija
interpretacije
interpretacijo
interview
intervju
intervjuju
into
introduction
inu
invalidov
invazija
invazije
invaziji
invazijo
investigation
inzenir
inzenirja
inzenirjev
inzenirji
inzenirski
io
ion
ioni
ionov
iowa
ip
ipa
ipd
iq
ir
ira
irak
iraku
iran
irana
iranica
iranski
iranu
iraq
ireland
irena
irene
ireno
irina
iris
irish
irma
iron
ironicno
irska
irske
irskem
irski
irskih
irsko
irving
is
isa
isaac
isbn
isce
iscejo
iscem
iscemo
isces
iscete
isci
iskal
iskala
iskale
iskali
iskanja
iskanje
iskanjem
iskanju
iskat
iskati
iskra
iskre
iskrena
iskreni
iskreno
islam
islama
islamic
islamske
islamski
island
islandija
islands
iso
israel
issn
issue
issues
ist
ista
istanbul
iste
istega
istem
isti
istih
istim
istina
istini
istituto
isto
istocasno
istoimenske
istoimenskega
istoimenskem
istoimenski
istotako
istra
istre
istri
istro
istrski
istrsko
istvan
it
itak
ital
italia
italian
italiana
italiani
italiano
italija
italijan
italijani
italijanov
italijanscina
italijanscini
italijanska
italijanske
italijanskega
italijanskem
italijanski
italijanskih
italijanskim
italijansko
italije
italiji
italijo
italy
itd
iti
itn
its
itunes
iu
iucn
iupac
iv
iva
ivan
ivana
ivancic
ivancna
ivanka
ivanko
ivanom
ivanov
ivanovic
ivanu
ive
ivica
ivo
iw
ix
iy
iz
izabela
izak
izba
izbe
izbere
izberi
izbi
izbira
izbiral
izbirati
izbire
izbiri
izbiro
izbo
izboljsa
izboljsal
izboljsali
izboljsanje
izboljsati
izboljsave
izbor
izbora
izborno
izboru
izbral
izbrala
izbrali
izbran
izbrana
izbrane
izbrani
izbranih
izbrano
izbrati
izbrisati
izbruh
izbruha
izbruhi
izbruhnil
izbruhnila
izbruhom
izbruhu
izd
izda
izdaj
izdaja
izdajah
izdajal
izdajala
izdajalca
izdajalec
izdajati
izdaje
izdaji
izdajo
izdajstvo
izdal
izdala
izdali
izdalo
izdan
izdana
izdane
izdani
izdanih
izdano
izdati
izdatno
izdelal
izdelala
izdelali
izdelan
izdelana
izdelane
izdelani
izdelanih
izdelano
izdelati
izdelava
izdelave
izdelavi
izdelavo
izdelek
izdelka
izdelke
izdelki
izdelkih
izdelkov
izdeloval
izdelovalec
izdelovali
izdelovanje
izdelovati
izdeluje
izdelujejo
izdihnil
izg
izgine
izginejo
izginil
izginila
izginile
izginili
izginilo
izgled
izgleda
izgnal
izgnali
izgnan
izgnanstvo
izgnanstvu
izgon
izgovarja
izgovarjal
izgovor
izgovori
izgovoril
izgovorila
izgovoriti
izgovorivsi
izgovorjava
izgradnja
izgradnje
izgradnji
izgradnjo
izgub
izguba
izgube
izgubi
izgubijo
izgubil
izgubila
izgubile
izgubili
izgubilo
izgubiti
izgublja
izgubljal
izgubljen
izgubljena
izgubljene
izgubljenega
izgubljeni
izgubljenih
izgubljeno
izgubo
izhaja
izhajajo
izhajal
izhajala
izhajali
izhajati
izhod
izhoda
izhodisce
izhodu
izid
izida
izide
izidi
izidom
izidor
izidorja
izidu
izjav
izjava
izjave
izjavi
izjavil
izjavila
izjavo
izjema
izjeme
izjemen
izjemna
izjemne
izjemnih
izjemno
izjemo
izjemoma
izkazal
izkazala
izkazali
izkazalo
izkazati
izkaze
izkazuje
izkljucen
izkljuceno
izkljucno
izkopal
izkopali
izkopavanja
izkopavanji
izkorisca
izkoriscanja
izkoriscanje
izkoristek
izkoristil
izkoristili
izkoristiti
izkusal
izkusen
izkuseni
izkusenj
izkusil
izkusnja
izkusnjah
izkusnje
izkusnjo
izlet
izlete
izlije
izliva
izlivu
izloca
izlocajo
izlocanje
izloci
izlocil
izmed
izmenicno
izmenjave
izmenjavo
izmislil
izmisljena
izmisljeno
izmucen
izmucena
izmuznil
iznad
iznebil
iznebiti
iznenada
iznova
izobilju
izobrazba
izobrazbe
izobrazbi
izobrazbo
izobrazen
izobrazena
izobrazeni
izobrazeval
izobrazevalne
izobrazevalni
izobrazevalnih
izobrazevalno
izobrazevanja
izobrazevanje
izobrazevanju
izogiba
izogibal
izogibanje
izogibati
izogne
izognil
izognili
izogniti
izola
izotop
izotopov
izpadel
izpadla
izpadle
izpadli
izpeljal
izpeljana
izpeljati
izpije
izpil
izpila
izpit
izpite
izplaca
izpod
izpolni
izpolnil
izpolnila
izpolniti
izpolnjuje
izpopolnjeval
izpostavil
izpostavljen
izpostavljena
izpostavljeni
izpostavljenost
izpostavljenosti
izpoved
izpovedal
izpovedi
izpraseval
izprasevala
izprasevali
izprasevati
izpraznil
izpred
izpregovori
izpregovoril
izpregovorila
izpregovoriti
izprehod
izprememba
izpremembe
izpremeni
izpremenil
izpremenila
izpremenilo
izprevidel
izprva
izpuscen
izpusti
izpustil
izpustila
izpustili
izpustiti
izracun
izracuna
izracunal
izrael
izraela
izraelski
izraelu
izraz
izraza
izrazajo
izrazal
izrazanja
izrazanje
izraze
izrazena
izrazeno
izrazi
izrazil
izrazila
izrazili
izrazit
izrazita
izraziti
izrazito
izrazom
izrazov
izrazu
izrece
izreci
izrecno
izredna
izredne
izrednega
izredni
izrednih
izredno
izrek
izreka
izrekel
izrekla
izrekli
izroci
izrocil
izrocila
izrocili
izrocilo
izrocilu
izrocim
izrociti
izsel
izsev
izsla
izsle
izsli
izslo
izsrednost
izstopa
izstopajo
izstopil
izstopila
izstrelki
iztegnil
iztegnila
izteklo
iztok
iztrga
iztrgal
iztrgala
iztrgati
izucil
izum
izumil
izumitelj
izumrl
izumrla
izumrli
izustil
izvaja
izvajajo
izvajal
izvajala
izvajalca
izvajalcev
izvajalci
izvajalec
izvajali
izvajanja
izvajanje
izvajanjem
izvajanju
izvajati
izve
izvedba
izvedbe
izvedbi
izvedbo
izvede
izvedel
izvedela
izvedeli
izveden
izvedena
izvedene
izvedeti
izvedla
izvedli
izvemo
izven
izvesti
izvestno
izvije
izvil
izvila
izvir
izvira
izvirajo
izvirala
izviren
izviri
izvirna
izvirne
izvirnega
izvirni
izvirnih
izvirnik
izvirnika
izvirniku
izvirno
izvirov
izviru
izvlece
izvlekel
izvod
izvodov
izvoli
izvolil
izvolila
izvolili
izvolite
izvolitev
izvolitvi
izvoljen
izvoljena
izvoljeni
izvor
izvora
izvorno
izvoru
izvoz
izvrsevanje
izvrsi
izvrsil
izvrsila
izvrsitev
izvrsiti
izvrsnega
izvrsni
izvrsten
izvrstna
izvrstno
izvzemsi
izza
izziv
j
j0
j1
j2
j3
j4
j5
j6
j7
j8
j9
ja
jablane
jablaniskega
jabolk
jabolka
jabolko
jack
jackie
jackson
jacob
jacobs
jacopo
jacques
jadra
jadran
jadranskega
jadranskem
jadransko
jadranu
jadrno
jagnje
jagod
jagoda
jagode
jaha
jahal
jahali
jahre
jajc
jajca
jajcasti
jajce
jajcec
jajceca
jak
jaka
jake
jakec
jaklic
jako
jakob
jakoba
jakobu
jakost
jakosti
jakov
jakovljev
jam
jama
jamah
jame
james
jamesa
jami
jamie
jamnik
jamo
jan
jana
jancar
jane
janet
janez
janeza
janezek
janezic
janezom
janezu
jani
janja
janka
janko
jankovic
janku
janos
jansa
janse
januar
januarja
januarjem
januarju
january
janus
japan
japanese
japelj
japonci
japonska
japonske
japonskega
japonskem
japonski
japonskih
japonsko
jarc
jarek
jarem
jarka
jarke
jarki
jarkih
jarkom
jarkov
jarku
jarnik
jaroslav
jas
jasa
jase
jasen
jasi
jaslice
jasna
jasne
jasnega
jasneje
jasnem
jasni
jasnih
jasnim
jasno
jason
jastreb
jata
jate
java
javi
javier
javil
javna
javne
javnega
javnem
javni
javnih
javnim
javno
javnost
javnosti
javor
javornik
jay
jaz
jazbec
jazz
jb
jc
jd
je
jean
jeana
jeanne
jeca
jecal
jecanje
jecar
jece
jeci
jeclja
jecljal
jecmen
jeco
jed
jedel
jeden
jedenkrat
jeder
jedi
jedil
jedila
jedina
jedini
jedino
jedjo
jedla
jedli
jedna
jednako
jedne
jednega
jednem
jedni
jedno
jedo
jedra
jedro
jedrom
jedrska
jedrske
jedrskega
jedrski
jedrskih
jedrsko
jedru
jedva
jeff
jefferson
jeffrey
jeglic
jej
jekla
jeklen
jeklene
jekleno
jeklo
jel
jela
jele
jelen
jelena
jeli
jelica
jelka
jelko
jelo
jelsah
jem
jemal
jemala
jemali
jemati
jemlje
jemljejo
jen
jenkins
jenko
jennifer
jenny
jensen
jer
jera
jeraj
jerca
jereb
jeremy
jerica
jerici
jerico
jerman
jernej
jerneja
jerneju
jerome
jerry
jersey
jerusalem
jeruzalem
jeruzalema
jeruzalemski
jeruzalemu
jes
jesen
jeseni
jesenicah
jesenice
jesenska
jesenske
jesenskega
jesenski
jesensko
jesih
jessica
jest
jesti
jesus
jet
jeter
jetnik
jetnika
jetniki
jetra
jetrih
jev
jevgenij
jewish
jews
jez
jeza
jezdec
jezdeca
jezdecev
jezdeci
jezdi
jezdil
jezdila
jezdili
jeze
jezek
jezen
jezer
jezera
jezeri
jezerih
jezero
jezerom
jezersko
jezeru
jezi
jezik
jezika
jezike
jeziki
jezikih
jezikom
jezikoslovcev
jezikoslovec
jezikoslovja
jezikoslovje
jezikov
jezikovna
jezikovne
jezikovni
jezikovnih
jezikovno
jeziku
jezil
jezila
jezili
jezilo
jeziti
jezna
jezni
jezno
jezo
jezu
jezuit
jezuiti
jezuitskega
jezuitski
jezus
jezusa
jezusom
jezusove
jezusovega
jezusovo
jezusu
jeſt
jf
jg
jh
ji
jih
jim
jima
jimmy
jin
jiri
jj
jk
jl
jla
jlib
jm
jn
jo
joachim
joan
job
joce
joe
joel
johan
johann
johanna
johannes
johansson
john
johna
johnny
johnom
johns
johnson
johnston
joint
joj
jok
joka
jokaj
jokaje
jokajo
jokal
jokala
jokali
jokati
jokom
joku
jon
jonas
jonathan
jones
jopic
jordan
jorge
jos
jose
josef
joseph
josepha
joshua
joside
josip
josipa
josipina
josipu
josko
jost
journal
journey
jovan
jovana
jovanovic
joyce
joza
joze
jozef
jozefa
jozefu
jozek
jozeta
jozetu
jozica
jozko
jozsef
jp
jpg
jpl
jq
jr
js
jstor
jt
ju
juan
juana
jud
juda
jude
judi
judita
judith
judje
judom
judov
judovska
judovske
judovskega
judovski
judovskih
judovsko
jug
juga
jugoslavija
jugoslavije
jugoslaviji
jugoslavijo
jugoslovanska
jugoslovanske
jugoslovanskega
jugoslovanski
jugoslovanskih
jugoslovansko
jugovzhodne
jugovzhodnem
jugovzhodni
jugovzhodno
jugovzhodu
jugozahodnem
jugozahodni
jugozahodno
jugozahodu
jugu
juha
juhe
juho
jul
jula
jules
julia
julian
julie
julien
julij
julija
julijan
julijanskem
julijem
julijo
julijske
julijskih
juliju
julio
julius
julka
july
jun
junak
junaka
junake
junaki
junakinja
junakom
junakov
junaku
junaska
junaske
junaski
junaskih
junasko
junastvo
june
jung
juni
junij
junija
junijem
juniju
junior
juno
jupiter
jupitra
jupitrov
jur
jura
juraj
jurca
jurce
jurcek
jurcic
jure
jurgen
juri
jurij
jurija
jurijem
juriju
jurisa
jurja
jurko
jus
just
justice
justin
justina
justinijan
jut
juta
jutra
jutranja
jutranje
jutranjem
jutranji
jutranjo
jutri
jutro
jutru
juvan
juzino
juzna
juzne
juznega
juznem
juzni
juznih
juznim
juzno
juznoafriski
jv
jw
jx
jy
jz
k
k0
k1
k2
k3
k4
k5
k6
k7
k8
k9
ka
kabine
kabinet
kabineta
kabinetu
kabino
kac
kaca
kace
kacega
kaci
kacji
kacjih
kaco
kacur
kad
kadar
kadarkoli
kader
kadi
kadil
kadila
kadilo
kai
kairo
kairu
kaiser
kaiserthums
kaj
kaja
kajenje
kajetan
kajne
kajpada
kajpak
kajti
kak
kaka
kake
kakega
kakem
kakemu
kaki
kakih
kakim
kakimi
kako
kakor
kakorkoli
kakorsen
kakorsna
kakorsne
kakorsno
kakov
kakovost
kakovosti
kakrsen
kakrsna
kakrsne
kakrsnega
kakrsni
kakrsnih
kakrsno
kakrsnokoli
kaksen
kaksna
kaksne
kaksnega
kaksnem
kaksni
kaksnih
kaksnim
kaksno
kal
kala
kalan
kalcija
kalcijev
kali
kalibra
kalif
kalifa
kalifornija
kalifornije
kaliforniji
kalijev
kam
kamen
kamena
kamene
kameni
kameniti
kamenitih
kamenja
kamenje
kamenjem
kamenju
kamere
kamero
kamila
kamin
kamna
kamne
kamni
kamnik
kamnika
kamniku
kamnin
kamnine
kamniske
kamniski
kamnisko
kamnit
kamnita
kamnite
kamniti
kamnitih
kamnitimi
kamnito
kamnom
kamnov
kamnu
kamor
kamorkoli
kampanja
kampanje
kampanji
kampanjo
kamro
kamus
kan
kana
kanada
kanade
kanadi
kanado
kanadska
kanadske
kanadski
kanadskih
kanadsko
kanal
kanala
kanali
kanalov
kanalu
kanat
kanata
kancler
kanclerja
kandidat
kandidata
kandidati
kandidatov
kandidaturo
kandidiral
kane
kann
kanon
kanonik
kansas
kant
kanton
kantona
kantoni
kantonov
kantonu
kantor
kao
kaos
kap
kapa
kapaciteta
kapaciteto
kape
kapela
kapelan
kapele
kapeli
kapelica
kapelice
kapelici
kapelico
kapelo
kapetan
kapi
kapital
kapitala
kapitalizma
kapitan
kapitana
kapitanu
kapiteli
kapitelj
kapitulaciji
kaplan
kaplana
kaplanu
kaplja
kaplje
kapljic
kapljica
kapljice
kapljico
kapljo
kapo
kappa
kar
kara
karakteristike
karantanija
karate
kardinal
kardinala
kardinali
kardinalov
karel
karen
kariera
kariere
karieri
kariero
karin
karkoli
karl
karla
karlin
karlo
karlom
karlovske
karlu
karmen
karnten
karol
karola
karolina
kart
karta
karte
kartice
karto
karton
kasa
kase
kaselj
kaseta
kasneje
kasnejsa
kasnejse
kasnejsega
kasnejsi
kasnejsih
kaso
kastelic
kastelka
kastiljski
kat
kata
katalog
katalogu
katalonsko
katarina
katarine
katarini
katarino
katastrofa
katastrofe
katastrofo
kate
katedra
katedrala
katedrale
katedrali
katedre
kategorij
kategorija
kategorijah
kategorije
kategoriji
kategorijo
katehet
katekizem
katera
katere
katerega
katerej
katerem
kateremu
kateri
katerih
katerikoli
katerim
katerima
katerimi
katero
katerokoli
katherine
kati
katica
katinka
katja
katolicani
katolikus
katoliska
katoliske
katoliskega
katoliski
katoliskih
katolisko
katra
katri
katrica
kava
kavalir
kavarna
kavarne
kavarni
kavarno
kavcic
kave
kavkaz
kavkaza
kavkazu
kavo
kazahstan
kazakca
kazal
kazala
kazalca
kazalcem
kazale
kazalec
kazali
kazalo
kazati
kaze
kazejo
kazen
kazenskega
kazenski
kazensko
kazeta
kazi
kazimir
kazni
kaznijo
kaznivega
kaznivih
kaznivo
kaznoval
kaznovali
kaznovan
kaznovati
kaznuje
kazoc
kb
kc
kd
kdaj
kde
kder
kdo
kdor
kdorkoli
kdove
ke
keber
kedaj
kedar
kedo
keith
kej
kekca
kekec
kelih
keller
kelly
kelti
kemicna
kemicne
kemicni
kemicnih
kemicno
kemija
kemije
kemiji
kemijo
kemijska
kemijske
kemijski
kemijskih
kemijsko
kemik
ken
kenda
kennedy
kenneth
kent
kentaver
kentucky
kepa
ker
keramika
keramike
kermauner
kern
kersnik
kervi
kes
kesal
kesanja
kesanje
kette
kevin
key
kf
kg
kh
khan
ki
kidric
kids
kije
kijev
kijevu
kilogramov
kilometer
kilometra
kilometre
kilometrov
kim
kima
kimal
kind
kinematografih
king
kingdom
kings
kino
kip
kipa
kipar
kiparja
kiparjev
kiparstva
kiparstvo
kipe
kipelo
kipi
kipom
kipov
kipu
kir
kirche
kirurg
kis
kisik
kisika
kisikom
kislin
kislina
kisline
kislino
kislo
kiss
kit
kita
kitajci
kitajscina
kitajska
kitajske
kitajskega
kitajskem
kitajski
kitajskih
kitajsko
kitara
kitare
kitarist
kitaro
kite
kiti
kitic
kitica
kitice
kitici
kitico
kito
kitty
kj
kje
kjer
kjerkoli
kk
kl
kladiva
kladivo
kladivom
kladnik
klagenfurt
klana
klanca
klancu
klander
klanec
klanja
klanjam
klara
klarica
klarinet
klas
klasicna
klasicne
klasicnega
klasicnem
klasicni
klasicnih
klasicno
klasifikacija
klasje
klati
klatil
klaus
klavdij
klavdija
klaviature
klavir
klavirja
klavirju
klavrno
klecal
klecala
klece
kleci
klein
kleine
klel
klemen
klemena
klemencic
klement
klepec
klesce
klet
kletev
kleti
kletki
kletko
klic
klical
klicala
klicali
klicalo
klicanje
klicat
klicati
klice
klicejo
klicem
klici
klin
klinar
klinicne
klinicni
klinicnih
klinicno
kljub
kljuc
kljuca
kljucavnico
kljuce
kljucem
kljucev
kljuci
kljucna
kljucne
kljucnega
kljucni
kljucnih
kljucno
kljuko
kljun
kljunom
klobas
klobase
klobaso
klobuk
klobuka
klobuke
klobuki
klobukom
klobuku
klop
klopcic
klopeh
klopi
klorid
klorida
kloster
klotilda
klub
kluba
klube
klubi
klubih
klubom
klubov
klubu
klun
km
kmalo
kmalu
kmecka
kmecke
kmeckega
kmecki
kmeckih
kmecko
kmecl
kmet
kmeta
kmete
kmeti
kmetic
kmetica
kmetih
kmetij
kmetija
kmetije
kmetiji
kmetijo
kmetijska
kmetijske
kmetijski
kmetijskih
kmetijsko
kmetijstva
kmetijstvo
kmetijstvu
kmetje
kmetom
kmetov
kmetska
kmetske
kmetski
kmetskih
kmetsko
kmetu
kn
kneginja
kneginjo
knez
kneza
kneze
knezevina
knezevine
knezevini
knezevino
knezi
knezji
knezom
knezov
knezu
knight
knj
knjig
knjiga
knjigah
knjigami
knjigarna
knjige
knjigi
knjigo
knjizevna
knjizevne
knjizevni
knjizevnih
knjizevnik
knjizevno
knjizevnost
knjizevnosti
knjizica
knjizice
knjizico
knjizna
knjizne
knjiznega
knjizni
knjiznic
knjiznica
knjiznicah
knjiznicar
knjiznice
knjiznici
knjiznico
knjiznih
knjizno
know
knowledge
known
ko
koalicija
koalicije
koalicijo
kobal
kobarid
kobaridu
kobe
kobila
kobilica
kobilice
kobilo
koblar
koc
koca
kocbek
koce
kocelj
kocevar
kocevje
kocevju
koch
koci
kocija
kocijancic
kocijaz
kocije
kociji
kocijo
kocjancic
kocka
kocke
koco
kod
koda
kode
kodeks
koder
kodo
kodre
kodri
koeficient
koga
kogar
koj
koja
koje
kojega
koji
kojih
kok
kokalj
koker
kokos
kokosi
koku
kol
kola
kolar
kole
koledar
koledarja
koledarju
kolega
kolegi
kolegij
kolegija
kolegov
kolen
kolena
kolenc
koleni
kolenih
koleno
kolenu
koles
kolesa
kolesar
koleselj
kolesi
kolesih
kolesom
kolesu
koli
kolicin
kolicina
kolicinah
kolicine
kolicini
kolicino
kolickaj
kolicnik
kolidz
kolidzu
kolika
koliko
kolikokrat
kolikor
kolikrat
koln
kolnu
kolo
kolobar
kolodvor
kolodvora
kolodvoru
koloman
kolona
kolone
kolonij
kolonija
kolonijah
kolonije
kolonijo
kolovozu
kolovrat
kolovski
kolpe
kolpi
kolumb
kolumbija
kolumbije
kolumbiji
kolumna
kom
komac
komaj
komandant
komandanta
komandir
komar
kombinacija
kombinacije
kombinaciji
kombinacijo
komedija
komedije
komediji
komedijo
komentar
komentarji
komentiral
komercialne
komercialni
komercialnih
komercialno
komet
kometa
kometov
komicni
komik
komisar
komisarja
komisija
komisije
komisiji
komisijo
komite
komiteja
komnen
komnena
komolcem
komolci
komolec
komore
kompilacija
kompleks
kompleksa
kompleksna
kompleksne
kompleksnih
kompleksno
kompleksu
komponent
komponenta
komponente
kompozicija
kompozicije
kompozicijo
komtesa
komu
komunikacija
komunikacije
komunikacijo
komunikacijski
komunist
komunisti
komunisticna
komunisticne
komunisticni
komunisticnih
komunisticno
komunistov
komunizem
komunizma
komur
konca
koncajo
koncal
koncala
koncali
koncalo
koncan
koncana
koncanem
koncani
koncano
koncati
koncem
koncentracija
koncentracije
koncentracijo
koncentracijsko
koncept
koncepta
koncert
koncerta
koncerte
koncerti
koncertih
koncertni
koncertov
koncertu
koncev
konci
koncih
koncil
koncila
koncilu
koncna
koncne
koncnega
koncni
koncnice
koncnico
koncno
koncu
koncuje
konec
konecno
konferenca
konference
konferenci
konferenco
konflikt
konflikta
konflikti
konfliktov
kong
kongo
kongregacije
kongres
kongresa
kongresu
konice
konico
konj
konja
konje
konjem
konjenica
konjenice
konjeniki
konjenikov
konjeniska
konjeniski
konjev
konji
konjic
konjica
konjicah
konjice
konjicek
konjih
konjska
konjske
konjski
konjskih
konjsko
konju
konkretno
konkurenci
konrad
konrada
konservatoriju
konstanta
konstante
konstantin
konstantina
konstantinopel
konstantinopla
konstantinoplu
konstantno
konstanto
konstrukcija
konstrukcije
konstrukcijo
konstruktor
kontekst
kontekstu
kontesa
kontrast
kontrola
kontrole
kontrolo
konvencija
konvencije
konvencijo
konzul
konzula
konzulat
koordinate
koordinati
kopac
kopal
kopala
kopali
kopalisca
kopalisce
kopalnico
kopanje
kopati
kopel
kopeli
kopenska
kopenske
kopenski
kopenskih
koper
kopica
kopico
kopij
kopija
kopije
kopijo
kopit
kopita
kopitar
kopiti
kopito
kopja
kopje
koplje
kopnega
kopnem
kopno
kopriva
koprodukcija
kopru
kor
kora
korak
koraka
korakal
korakala
korakali
korake
koraki
korakih
korakom
korakov
koraku
koran
korea
koreja
koreje
koreji
korejo
korejski
koren
korena
korenin
korenina
koreninami
korenine
korenino
korenito
korenjak
korenje
korenu
korist
koristen
koristi
koristilo
koristna
koristne
koristnega
koristno
korita
koritnik
korito
kornelija
korosec
koroska
koroske
koroskega
koroskem
koroski
koroskih
korosko
korporal
korpus
korpusa
korpusov
kortejo
koru
korun
korupcije
koruza
koruze
koruzo
korzika
korzike
kos
kosa
kosarico
kosarkar
kosarkarski
kosaro
kosate
kosati
kosato
kosce
koscek
kosceno
kosci
koscke
kose
kosec
kosek
kosel
kosem
kosi
kosil
kosila
kosilo
kosilu
kosir
kosmac
koso
kosobrin
kosom
kosov
kosova
kosovel
kosovo
kosovu
kost
kostanj
kostanjev
kostanjevica
kostanji
kosteh
kosti
kosu
kosuta
kot
kota
kote
kotel
koti
koticek
kotih
kotlina
kotline
kotlini
kotlino
kotlu
kotnik
kotom
kotov
kotu
kov
kovac
kovaca
kovacevic
kovaci
kovacic
kovacu
koval
kovali
kovance
kovancev
kovanci
kovancih
kovanec
kovati
kovceg
kovcek
kovic
kovin
kovina
kovine
kovinske
kovinski
kovinskih
kovinsko
koz
koza
kozak
kozaki
kozakov
kozarca
kozarce
kozarcek
kozarcev
kozarci
kozarcu
kozarec
koze
kozel
kozelj
kozi
kozina
kozjak
kozje
kozji
kozla
kozma
kozo
kozolec
kozuh
kp
kpj
kps
kq
kr
kra
krade
kradel
kraigher
krain
kraj
kraja
krajcar
krajcarja
krajcarjev
kraje
krajec
krajem
krajev
krajevna
krajevne
krajevni
krajevnih
krajevno
kraji
krajih
krajina
krajine
krajini
krajino
krajinski
krajnc
krajsa
krajse
krajsi
krajsih
kraju
krak
krakov
krakovu
kralj
kralja
kralje
kraljem
kraljestev
kraljestva
kraljestvo
kraljestvom
kraljestvu
kraljev
kraljeva
kraljeve
kraljevega
kraljevem
kraljevi
kraljevic
kraljevica
kraljevih
kraljevim
kraljevina
kraljevine
kraljevini
kraljevino
kraljevo
kraljevska
kraljevske
kraljevski
kraljevsko
kralji
kraljic
kraljica
kraljice
kraljici
kraljicina
kraljicna
kraljicno
kraljico
kralju
kraljuje
kramar
kramberger
kramer
kranj
kranja
kranjc
kranjci
kranjec
kranjska
kranjske
kranjskega
kranjskem
kranjski
kranjskih
kranjsko
kranju
krapinsko
kras
krasa
krasen
krasi
krasijo
kraska
kraske
kraski
kraskih
krasko
krasna
krasne
krasnega
krasni
krasnih
krasno
krasota
krasote
krasoti
krasoto
krasti
krasu
krat
kratek
krater
krati
kratica
kratico
kratka
kratke
kratkega
kratkem
kratki
kratkih
kratkim
kratkimi
kratko
krav
krava
krave
kravi
kravo
krc
krcenje
krcevito
krci
krcma
krcmah
krcmar
krcmarica
krcmarja
krcmarju
krcme
krcmi
krcmo
krdela
krdelo
kredo
kreft
krek
kremen
kremplje
kremplji
krene
krenil
krenila
krenili
krepak
krepi
krepitev
krepka
krepke
krepkega
krepki
krepkih
krepkim
krepko
krepost
kreposti
kres
kresimir
kresnice
kresnik
kresu
kretnje
kretnjo
kri
krical
kricala
kricali
kricanje
kricati
krice
krici
kriegsmarine
krije
krik
kriki
krikne
kriknil
kriknila
krikom
kril
krila
krili
krilih
krilo
krilom
krilu
krim
krima
krimski
krinko
krista
kristal
kristali
kristalni
kristalno
kristalov
kristan
kristijan
kristina
kristjan
kristjana
kristjane
kristjani
kristjanom
kristjanov
kristof
kristofa
kristofu
kristus
kristusa
kristusom
kristusov
kristusovega
kristusovo
kristusu
kriticen
kriticna
kriticne
kriticni
kriticnih
kriticno
kritik
kritika
kritike
kritiki
kritiko
kritikov
kritiziral
kritizirali
kriv
kriva
krivda
krivde
krivdi
krivdo
krive
krivec
krivega
krivem
krivi
krivic
krivica
krivice
krivici
krivicno
krivico
krivo
krivulja
krivulje
kriz
kriza
krizaj
krizan
krizanega
krizanje
krizarjev
krizarji
krizarka
krizarska
krizarske
krizarski
krizarsko
krizca
krize
krizec
krizem
krizev
krizi
krizisca
krizisce
kriziscu
krizni
krizo
krizu
krjavelj
krka
krke
krki
krko
krleza
krmar
krmarja
krme
krmi
krmilo
krmo
krog
kroga
kroge
krogel
krogi
krogih
krogla
krogle
kroglice
kroglo
krogov
krogu
krohot
krojac
krokar
krompir
krompirja
kron
krona
kronan
kronanje
kronanju
krone
kroni
kronicna
kronicne
kronicno
kronika
kronike
kroniki
kronist
kronlandern
krono
kronologija
kropa
kropi
krov
krovni
krovu
krozi
krozijo
krozna
krozni
kroznice
kroznik
krozno
krpan
krscanska
krscanske
krscanskega
krscanskem
krscanski
krscanskih
krscansko
krscanstva
krscanstvo
krscanstvu
krscen
krsitev
krsitve
krskem
krski
krsko
krst
krsta
krste
krsti
krstil
krstili
krstna
krstni
krstnik
krstnika
krstno
krsto
krstu
krt
kruh
kruha
kruhom
kruhu
krusic
krut
kruta
kruti
kruto
krvav
krvava
krvave
krvavi
krvavih
krvavitev
krvavitve
krvavo
krvi
krvjo
krvne
krvnega
krvni
krvnih
krvno
krzan
ks
ksaver
ksenija
kt
ktera
ktere
kterega
kterej
kterem
kteremu
kteri
kteriga
kterih
kterim
kterimi
ktero
ku
kuba
kubevan
kubicnih
kud
kuga
kuge
kugo
kuha
kuhal
kuhala
kuhali
kuhanje
kuhar
kuharica
kuharico
kuhati
kuhinja
kuhinje
kuhinji
kuhinjo
kuiperjevega
kuje
kukavica
kul
kult
kulta
kultur
kultura
kulturah
kulture
kulturi
kulturna
kulturne
kulturnega
kulturnem
kulturni
kulturnih
kulturno
kulturo
kum
kumar
kunaver
kunst
kup
kupa
kupca
kupcek
kupci
kupcija
kupcije
kupciji
kupcijo
kupe
kupec
kupi
kupico
kupil
kupila
kupili
kupim
kupiti
kupo
kupola
kupole
kupoli
kupolo
kupoval
kupovali
kupu
kupuje
kura
kurat
kure
kurent
kurir
kurt
kuzek
kuzma
kuzmic
kv
kvadrat
kvadrata
kvadratna
kvadratne
kvadratni
kvadratnih
kvadratno
kvak
kvalifikacij
kvalifikacijah
kvalifikacije
kvalitete
kvaliteto
kvantna
kvantne
kvantni
kvantno
kvartet
kvas
kvecjemu
kveder
kvintet
kvisko
kvisku
kw
kx
ky
kyiv
kylie
kz
l
l0
l1
l2
l3
l4
l5
l6
l7
l8
l9
la
lab
labod
laboratorij
laboratorija
laboratoriju
laboratory
lacen
lacna
lacne
lacni
ladan
ladies
ladij
ladija
ladije
ladiji
ladijo
ladijski
ladislav
ladislava
ladja
ladjah
ladjami
ladje
ladjevje
ladji
ladjo
lado
lady
lagal
lagala
lagati
laglje
lago
laguna
lagune
lah
lahek
lahen
lahi
lahka
lahke
lahkega
lahki
lahkih
lahko
lahkomiselno
lahkoto
lahna
lahno
laibach
laibacher
lake
lakota
lakote
lakoto
lambda
lamberg
lambergar
lambert
lan
lancet
land
landes
landscape
lane
lang
lange
langobardi
language
languages
languedoc
lani
lanka
lansko
lapajne
lara
large
largest
larry
lars
las
lasce
lase
laseh
laser
lasje
laske
laskega
laskem
laski
lasko
lasmi
last
lasten
lasti
lastna
lastne
lastnega
lastnem
lastni
lastnica
lastnih
lastnik
lastnika
lastniki
lastnikov
lastniku
lastnim
lastnimi
lastnina
lastnine
lastnino
lastnistvo
lastno
lastnost
lastnosti
lastnostih
lastnostmi
laszlo
lat
late
later
latin
latinscina
latinscine
latinscini
latinscino
latinska
latinske
latinskega
latinskem
latinski
latinskih
latinsko
latvija
launch
laura
laurence
laurent
lava
lave
lavigne
lavra
lavric
law
lawrence
laz
lazar
laze
lazejo
lazem
lazes
lazi
lazil
lazje
lazji
lazjo
lazno
lb
lbf
lc
ld
ldots
lds
le
lea
lead
leader
league
learning
leben
lebensskizzen
lec
lece
leci
led
ledena
ledene
ledeni
ledenih
ledenik
ledenika
ledeniki
ledenikov
ledeno
ledom
ledu
ledvic
ledvice
lee
left
lega
legacy
legal
legales
legat
lege
legel
legend
legenda
legendarni
legende
legendi
legendo
legi
legija
legije
legijo
legla
leglo
lego
lehko
leiden
leif
leipzig
leipzigu
lej
lejte
lek
leksikon
leksikonografski
len
lena
lenard
lenart
lenarta
lenartu
lenca
lencika
lencka
lendava
leni
lenica
lenin
leningrad
lenka
lennon
leno
leo
leon
leona
leonard
leonarda
leonardo
leone
leonid
leonora
leonore
leonu
leopard
leopold
leopolda
lep
lepa
lepe
lepega
lepem
lepi
lepih
lepim
lepimi
lepo
leposlovja
leposlovje
lepota
lepote
lepoti
lepotica
lepoto
lepsa
lepse
lepsega
lepsi
lepsih
lepso
leq
les
lesa
lesce
lesen
lesena
lesene
lesenega
lesenem
leseni
lesenih
lesenim
lesenimi
leseno
lesjak
leskovec
leslie
lesnik
lesom
lestev
lestvi
lestvic
lestvica
lestvicah
lestvice
lestvici
lestvico
lesu
let
leta
letajo
letal
letala
letali
letalih
letalisc
letalisca
letalisce
letaliscu
letalo
letalom
letalska
letalske
letalskega
letalski
letalskih
letalsko
letalstva
letalstvo
letalstvu
letalu
lete
letece
leteci
letel
letela
letele
leteli
letelo
letenja
letenje
leteti
leti
letih
letijo
letina
letn
letna
letne
letnega
letnem
letni
letnica
letnice
letnici
letnico
letnih
letnik
letnika
letniku
letno
leto
letom
letoma
letos
letovisce
letter
letters
letu
lev
leva
leve
levec
levega
level
levem
levi
levica
levice
levici
levico
levim
levo
levov
levstik
levy
lewis
lex
lexicon
lexikon
lezal
lezala
lezale
lezali
lezalo
lezati
leze
lezece
lezecega
lezel
lezi
lezijo
lezisca
lezisce
leziscu
lezita
lezla
lf
lg
lh
li
liber
liberalne
liberalno
liberty
libraries
library
libri
libris
lic
lica
lice
licem
licence
licenco
lici
licih
licinke
licno
licu
lidija
liebe
life
liga
lige
light
ligi
ligo
lih
lija
lije
lik
lika
likar
like
liki
likov
likovna
likovne
likovni
likovnih
likovno
lil
lila
lili
lilija
lilije
lilo
lim
lima
limbii
limited
lin
lina
lincoln
linda
lindsay
line
linear
linearna
linearni
linearno
lines
lingua
linhart
linij
linija
linije
liniji
linijo
link
lino
linux
lion
lipa
lipe
lipi
lipnici
lipo
lipovec
lir
lirika
lirike
lirski
lisa
lise
lisec
lisica
lisice
lisico
lisjak
lisko
liso
lisp
list
lista
liste
listek
listi
listic
listicev
listici
listih
listin
listina
listinah
listine
listini
listino
listja
listje
listjem
listju
listnico
listom
listov
listu
lit
litanije
liter
literarna
literarne
literarnega
literarnem
literarni
literarnih
literarno
literary
literat
literatur
literatura
literature
literaturi
literaturo
litija
litiji
litovski
litovsko
litra
litrov
little
litva
litve
litvi
liu
live
liverpool
lives
livij
living
liza
lize
lizika
lizo
lj
ljub
ljuba
ljubav
ljubavi
ljubcek
ljube
ljubece
ljubega
ljubezen
ljubezenska
ljubezenske
ljubezenski
ljubezenskih
ljubezensko
ljubezni
ljubeznijo
ljubezniv
ljubezniva
ljubeznivi
ljubeznivo
ljubeznjivo
ljubi
ljubic
ljubica
ljubice
ljubici
ljubico
ljubijo
ljubil
ljubila
ljubili
ljubilo
ljubim
ljubimca
ljubimec
ljubimo
ljubis
ljubite
ljubitelj
ljubiteljski
ljubiti
ljubka
ljubko
ljubljana
ljubljane
ljubljani
ljubljanice
ljubljanici
ljubljanico
ljubljano
ljubljanska
ljubljanske
ljubljanskega
ljubljanskem
ljubljanski
ljubljanskih
ljubljansko
ljubljena
ljubljene
ljubljenec
ljubljenega
ljubljeni
ljubljeno
ljubo
ljubosumen
ljubosumna
ljubosumnost
ljubse
ljudeh
ljudem
ljudevit
ljudi
ljudij
ljudje
ljudmi
ljudmila
ljudska
ljudske
ljudskega
ljudskem
ljudski
ljudskih
ljudsko
ljudstev
ljudstva
ljudstvo
ljudstvom
ljudstvu
ljutomer
lk
ll
llc
lloyd
lm
ln
lo
lobanje
lobanjo
local
locen
locena
locene
loceni
locenih
loceno
locevanje
loci
locijo
locil
locila
locili
locilo
locimo
locitev
lociti
locitve
locitvi
lockheed
locuje
loffler
log
logar
logatec
logicno
logika
logike
logiko
logu
loire
lojz
lojza
lojze
lojzeta
lojzka
lok
loka
lokacij
lokacija
lokacijah
lokacije
lokaciji
lokacijo
lokalna
lokalne
lokalnega
lokalnem
lokalni
lokalnih
lokalnim
lokalnimi
lokalno
lokar
loke
loki
loko
lokom
lokomotiva
lokomotive
lokov
loku
lom
lomi
lomil
lona
lonce
loncek
london
londona
londonski
londonu
lonec
lonely
long
look
lopato
lope
lopez
lopi
lopo
lopov
lopova
lopovi
lord
lorenz
lorenza
lorenzo
los
loski
lost
lot
lotar
loti
lotil
lotila
lotili
lotiti
lotus
louis
louisa
louise
louvre
lov
lova
lovato
lovca
lovce
lovcem
lovcev
lovci
lovcu
love
lovec
lovi
lovijo
lovil
lovila
lovili
lovit
loviti
lovre
lovrenc
lovrenca
lovro
lovska
lovske
lovskega
lovski
lovskih
lovsko
lovu
low
loz
loza
loze
lozi
lozo
lp
lq
lr
ls
lsm
lsmeds
lt
ltd
lu
lubi
lubje
luc
luca
lucas
luce
luci
lucia
luciano
lucij
lucija
lucjo
lucka
lucke
lucko
lucy
ludi
ludovik
ludovika
ludvik
ludvika
ludviku
ludwig
luftwaffe
luigi
luis
luiza
lujiza
luka
lukas
luke
lukec
lukenj
lukez
luki
luknja
luknje
luknji
luknjo
luko
luksemburg
lun
luna
lundy
lune
lung
luni
lunin
luno
lupina
lupine
lupino
luther
lutke
luze
lv
lw
lx
ly
lynch
lynn
lynne
lyon
lz
lzmk
m
m0
m1
m2
m3
m4
m5
m6
m7
m8
m9
ma
mac
macdonald
maceha
macek
mach
machine
macje
mack
macka
macke
macki
macko
macmillan
mactutor
madame
made
madez
madison
madona
madonna
madrid
madridu
madzari
madzarov
madzarscina
madzarska
madzarske
madzarskega
madzarskem
madzarski
madzarskih
madzarsko
mag
magajna
magazin
magazine
magda
magdalena
magdalene
maggiore
magic
magister
magisterij
magistrat
magistriral
magistrski
magna
magnet
magnetnega
magnetni
magnetno
magnitudo
magnus
magyar
mah
maha
mahal
mahala
mahmud
mahne
mahnic
mahnil
mahom
mahoma
mahu
mai
mail
main
maine
mainz
maistra
maj
maja
majal
majar
majcen
majda
maje
majem
majer
majhen
majhna
majhne
majhnega
majhnem
majhni
majhnih
majhnim
majhnimi
majhno
maji
majico
majka
majnhalm
majo
major
majorja
maju
mak
makarovic
make
makedonija
makedonije
makedoniji
makedonijo
makedonska
makedonski
makedonsko
making
maks
maksa
maksim
maksimilijan
maksimilijana
maksimiljan
mal
mala
malce
malci
malcolm
male
malega
malem
malemu
malenkost
malenkosti
mali
malico
malih
malik
malika
malim
malimi
malka
malo
malokdaj
malokdo
malomarno
malone
malta
malte
malti
malto
malvina
mam
mama
mame
mami
mamica
mamice
mamici
mamico
mamo
man
mana
management
manca
manchester
mandat
mandata
mandatu
mane
manfred
manfreda
manhattan
manica
manifest
manj
manja
manjka
manjkajo
manjkajoc
manjkalo
manjsa
manjse
manjsega
manjsem
manjsi
manjsih
manjsim
manjsimi
manjsin
manjsina
manjsine
manjso
mann
mano
manoj
mansa
manual
manuel
manuela
many
mao
map
maple
maps
mar
mara
marajo
maral
marala
marali
maram
maras
maraton
marc
marca
marcel
marcello
marcem
march
marco
marcu
marcus
mare
marec
margaret
margareta
margareto
margot
mari
maria
maribor
maribora
mariborska
mariborske
mariborskega
mariborski
mariboru
marica
maricka
marie
marij
marija
marijan
marijana
marijanica
marijano
marije
mariji
marijin
marijina
marijine
marijinega
marijino
marijo
marin
marina
marine
marinka
marino
mario
marion
maritime
marja
marjan
marjana
marjanca
marjanica
marjeta
marjetica
marjetico
marjetka
mark
marka
marke
market
marketing
marki
markiz
markiza
marko
markom
markov
markovic
marku
markus
marljivo
marmor
marmorja
marmorni
marn
marne
maro
maroko
marolt
mars
marsa
marsal
marsala
marsan
marseille
marshall
marsicem
marsikaj
marsikak
marsikako
marsikatera
marsikateri
marsikatero
marsikdaj
marsikdo
marsikje
marsikoga
marsikomu
marsikteri
marsu
mart
marta
martin
martina
martinek
martinez
martini
martino
martinom
martinu
marto
marusa
marusic
maruska
marvec
marx
marxists
mary
maryland
mas
masa
masceval
mascevala
mascevanja
mascevanje
mascevanju
mascevati
mascob
mascobe
mascobnih
mascuje
mase
maserati
masi
mask
maska
maske
masko
masla
maslo
masnik
maso
mason
mass
massa
massachusetts
massimo
mast
master
masters
masti
mat
mate
matej
mateja
mateju
matematicna
matematicne
matematicni
matematicnih
matematicno
matematik
matematika
matematike
matematiki
matematiko
matematikov
mater
matere
materi
material
materiala
materiale
materiali
materialne
materialnih
materialno
materialom
materialov
materials
materin
materina
materine
materinega
materinem
materini
materino
materjo
materni
matevz
matevza
matevzu
math
mathbb
mathbf
mathematical
mathematics
mathrm
mathworld
mati
matic
matica
matice
maticek
matici
maticne
matija
matije
matijec
matiji
matijo
matilda
matjaz
matjaza
matrika
matrike
matrix
matt
matteo
matter
matthew
matthias
maturi
maturiral
maturo
maurer
maurice
mauro
mavrica
mavzolej
max
maximus
maxwell
may
mayer
mayo
mayor
maze
mb
mba
mbox
mc
mcdonald
mcdonnell
mcgraw
mclaren
md
mdr
me
meaning
mec
meca
mece
mecejo
mecem
mecen
mecev
mechanics
meci
med
medal
medalj
medalja
medalje
medalji
medaljo
media
medical
medici
medicina
medicine
medicines
medicini
medicino
medicinska
medicinske
medicinski
medicinskih
medicinsko
medien
medieval
medij
medija
medije
medijev
mediji
medijih
medijske
medijski
medijsko
mediterranean
medlo
mednarodna
mednarodne
mednarodnega
mednarodnem
mednarodni
mednarodnih
mednarodnim
mednarodno
mednje
medsebojne
medsebojni
medsebojnih
medsebojno
medtem
medu
medved
medveda
medvedek
medvedi
medvedov
medvedovo
medvedu
medvode
megadeth
megla
megle
megleno
megli
meglic
meglica
meglice
meglo
meh
mehak
mehanicno
mehanika
mehanike
mehaniki
mehanizem
mehanizma
mehanizmi
mehanizmov
mehanske
mehansko
mehika
mehike
mehiki
mehiko
mehiski
mehka
mehke
mehkega
mehkem
mehki
mehkih
mehkim
mehko
mehmed
mehr
mein
mej
meja
mejah
meje
meji
mejna
mejne
mejnega
mejni
mejnih
mejnik
mejno
mejo
mel
mela
melbourne
melita
melodija
melodije
melodijo
membrane
membrano
memo
memorial
memory
men
mena
menart
mencinger
menda
mene
menec
menedzer
menges
meni
menih
meniha
menihe
menihi
menihov
menijo
menil
menila
menili
menim
menis
menite
menj
menjava
menjave
menjavo
meno
menoj
mentor
mentorstvom
mer
mera
mercedes
mercury
mere
meri
merico
merijo
meril
merila
merili
merilo
merilu
meritev
meriti
meritve
merjenja
merjenje
merkur
mero
mesa
mesal
mesane
mesani
mesanica
mesanice
mesanico
mesanih
mesanje
mesano
mesar
mesati
mesca
mescan
mescana
mescane
mescani
mescanje
mescanom
mescanov
mescanske
mescanski
mescanskih
mescansko
mescanstvo
mesec
meseca
mesece
mesecem
mesecev
meseci
mesecih
mesecina
mesecini
mesecno
mesecu
mesetar
mesko
meso
mesom
mesopotamia
messerschmitt
mest
mesta
mestece
mestecu
mesti
mestih
mestna
mestne
mestnega
mestnem
mestnemu
mestni
mestnih
mestnim
mestnimi
mestno
mesto
mestom
mestoma
mestu
mesu
met
meta
metacritic
metal
metala
metali
metati
mete
metelko
meter
method
methods
meti
metka
metki
metko
metlika
metliki
metlo
meto
metod
metoda
metodami
metode
metodi
metodo
metra
metre
metri
metrih
metro
metropolitan
metropolitansko
metrov
metternich
metu
metulj
metuljev
metulji
mexico
meyer
meznar
mezopotamiji
mf
mg
mgl
mh
mi
mia
miami
mica
mich
michael
michaela
michel
michelangelo
michele
michelle
michigan
mici
micika
micka
mico
microbiology
microsoft
mid
middle
midi
midva
mig
migne
mignil
miguel
miha
mihael
mihaela
mihaelu
mihail
mihajlo
mihajlovic
mihec
mihelic
mihi
miho
mika
mikalo
mike
miki
miklavcic
miklavz
miklavza
miklos
miklosic
mil
mila
milan
milana
milano
milanski
milanu
milcinski
mile
milega
milena
miles
miley
mili
milic
milica
milice
milico
milijard
milijarde
milijon
milijona
milijone
milijoni
milijonov
milim
milimetrov
military
milj
milje
milka
milko
millennium
miller
million
mills
milo
milos
milosevic
milost
milosti
milostiva
milostivi
milostljiva
milostljivi
milostna
milostni
milostno
milton
mimi
mimica
mimo
mimogrede
min
mina
mind
mine
mineral
minerali
mineralov
minerva
ming
mini
minica
minil
minila
minili
minilo
minimalno
minister
ministere
ministra
ministri
ministrica
ministrov
ministrski
ministrstva
ministrstvo
ministrstvu
ministru
ministry
minka
minko
minnesota
mino
minogue
minor
minula
minulo
minut
minuta
minutah
minute
minuti
minuto
mio
mir
mira
miran
mirana
miranda
miren
miri
miril
mirjam
mirka
mirko
mirna
mirne
mirnega
mirnem
mirni
mirnih
mirnim
mirno
miro
mirom
miroslav
mirovna
mirovne
mirovni
mirovno
miru
miruje
mis
misa
misace
misel
miselnost
misi
misic
misica
misicah
misice
misija
misije
misijo
misijonar
miska
miske
misko
mislec
misli
mislih
mislij
mislijo
mislil
mislila
mislili
mislim
mislimi
mislimo
mislis
mislita
mislite
misliti
misljenja
misljenje
misljenju
miss
missile
mission
mississippi
missouri
misto
mit
mita
mitchell
miti
mitja
mitologija
mitologije
mitologiji
mix
miz
miza
mizah
mizar
mize
mizi
mizici
mizico
mizo
mj
mk
ml
mlad
mlada
mlade
mladec
mladega
mladem
mlademu
mladen
mladenca
mladenec
mladenic
mladenica
mladenicev
mladenici
mladenicu
mladenka
mladi
mladic
mladica
mladice
mladicev
mladici
mladih
mladika
mladike
mladim
mladimi
mladina
mladine
mladini
mladino
mladinska
mladinske
mladinskega
mladinskem
mladinski
mladinskih
mladinsko
mlado
mladost
mladosti
mladostne
mladostni
mladostno
mlajsa
mlajse
mlajsega
mlajsemu
mlajsi
mlajsih
mlajsim
mlajso
mlakar
mlake
mlaki
mlb
mleka
mleko
mlekom
mleku
mlin
mlina
mlinar
mlini
mlinov
mlinu
mm
mmc
mn
mnenja
mnenje
mnenju
mnm
mnoga
mnoge
mnogi
mnogih
mnogim
mnogimi
mnogo
mnogokrat
mnozic
mnozica
mnozice
mnozici
mnozicne
mnozicnih
mnozicno
mnozico
mnozina
mo
mobile
mobilnih
moc
mocan
moceh
mocen
moci
mocjo
mocmi
mocna
mocne
mocnega
mocneje
mocnejsa
mocnejse
mocnejsi
mocnem
mocni
mocnih
mocnik
mocnim
mocnimi
mocno
mocvirja
mocvirje
mod
moda
mode
model
modela
modele
modeli
modelom
modelov
models
modelu
moder
modern
moderna
moderndorfer
moderne
modernega
moderni
modernih
moderno
modi
modni
modo
modra
modre
modrega
modrem
modri
modrih
modrijan
modrim
modrimi
modro
modrost
modrosti
modroval
modul
mogel
mogla
mogle
mogli
moglo
mogoc
mogoca
mogoce
mogocen
mogocih
mogocna
mogocne
mogocnega
mogocni
mogocnih
mogocnim
mogocno
mohamed
mohameda
mohor
mohorja
mohorjeva
mohorjeve
moj
moja
mojca
moje
mojega
mojej
mojem
mojemu
moji
mojih
mojim
mojimi
mojo
mojster
mojstra
mojstri
mojstrov
mojstrovina
mojstru
mojzes
moka
moke
moker
moko
mokra
mokre
mokri
mokrih
mokro
mol
molcal
molcala
molcali
molcanje
molcati
molce
molcec
molci
molcim
molcite
mole
molecular
molek
molekul
molekula
molekule
moli
molijo
molil
molila
molili
molim
molimo
molite
molitev
moliti
molitve
molitvenik
molitvi
molitvijo
molk
molka
molku
molly
molu
moment
mon
monaka
monarhija
monarhije
monarhijo
monde
monet
money
mongoli
mongolov
mongolskega
mongolski
mongolsko
monica
monika
monografija
monografije
monopol
mons
mont
montana
monte
montefiore
montgomery
monthly
montreal
montrealu
monuments
moon
moore
mor
mora
morajo
moral
morala
morale
morali
moralna
moralne
moralni
moralnih
moralno
moralo
moram
moramo
moras
morata
morate
morava
moravske
moravskem
moravsko
morda
more
morebiti
morebitne
morebitni
morebitnih
morebitno
morejo
morel
morem
moremo
mores
moreta
morete
moreva
morgan
mori
morilca
morilec
moritz
morja
morje
morjem
morji
morju
mornar
mornarica
mornarice
mornarici
mornarico
mornariske
mornariski
mornarjev
mornarji
morning
moro
morris
morrison
morska
morske
morskega
morskem
morski
morskih
morsko
moscow
moseja
moseje
mosejo
moska
moske
moskega
moskem
moskemu
moski
moskih
moskim
moskimi
mosko
moskovski
moskva
moskve
moskvi
moskvo
moslavske
mosnjo
moss
most
mosta
mostev
mostom
mostov
mostove
mostovi
mostu
mostva
mostvi
mostvo
mostvom
mostvu
motenj
mother
moti
motijo
motiko
motil
motila
motili
motilo
motim
motion
motis
motite
motiti
motiv
motivacija
motive
motivi
motivov
motne
motnja
motnjami
motnje
motnjo
motno
moto
motociklisticna
motor
motorizirana
motorja
motorje
motorjem
motorjev
motorji
motorsport
motril
mount
mountain
movement
movie
movies
moz
moza
mozaik
mozaiki
mozak
mozakar
mozaki
mozart
moze
mozeg
mozek
mozem
mozen
mozga
mozgane
mozgani
mozganih
mozganov
mozganske
mozgansko
mozi
mozic
mozicek
mozina
mozitev
mozje
mozmi
mozna
mozne
mozni
moznih
mozno
moznost
moznosti
moznostjo
mozu
mp
mph
mq
mr
mracen
mracilo
mracna
mracne
mracni
mracno
mrak
mraka
mraku
mravlja
mravlje
mraz
mraza
mrazu
mreta
mreza
mreze
mrezi
mrezo
mrgolelo
mrk
mrka
mrki
mrko
mrlic
mrlica
mrlici
mrlicu
mrmra
mrmral
mrmrala
mrtev
mrtva
mrtvaski
mrtvasko
mrtve
mrtvega
mrtvi
mrtvih
mrtvim
mrtvo
mrzel
mrzla
mrzle
mrzlega
mrzli
mrzlica
mrzlicno
mrzlih
mrzlo
ms
mt
mtv
mu
muc
muca
mucenec
mucenja
mucenje
muci
mucijo
mucil
mucila
mucili
muciti
mucna
mucno
mudi
mudil
mudilo
muh
muha
muhammad
muhe
muhic
muho
muk
muka
mukah
muke
muko
mula
muller
multi
multiple
munchen
munchnu
munster
munzinger
mura
murat
mure
muren
muri
murko
murn
murnik
muro
murphy
murray
murscu
mursec
murska
murski
musa
musee
museo
museum
museums
music
musica
muslimani
muslimanov
muslimanske
muslimanski
muslimanskih
muslimansko
musolina
musolino
mussolini
mustafa
mutacije
muza
muzal
muzej
muzeja
muzejev
muzeji
muzejih
muzeju
muzika
muzikal
mv
mw
mx
my
mystery
myth
mythology
mz
n
n0
n1
n2
n3
n4
n5
n6
n7
n8
n9
na
nabere
nabira
nabiral
nabirala
nabla
naboj
naboja
nabojev
naboji
nabor
naborni
naboru
nabozni
nabral
nabrala
nabrali
nabralo
nace
nacel
nacela
naceli
nacelih
nacelnik
nacelnika
nacelo
nacelom
naceloma
nacelu
nach
nacin
nacina
nacine
nacini
nacinom
nacinov
nacinu
nacional
nacionalna
nacionalne
nacionalnega
nacionalnem
nacionalni
nacionalnih
nacionalno
nacisti
nacisticne
nacisticni
nacrt
nacrta
nacrte
nacrti
nacrtih
nacrtno
nacrtom
nacrtov
nacrtoval
nacrtovali
nacrtovana
nacrtovanja
nacrtovanje
nacrtovanju
nacrtovano
nacrtu
nacrtuje
nacuditi
nad
nada
nadalje
nadaljeval
nadaljevala
nadaljevali
nadaljevalo
nadaljevanja
nadaljevanje
nadaljevanju
nadaljevati
nadaljnja
nadaljnje
nadaljnjega
nadaljnji
nadaljnjih
nadaljnjo
nadaljuje
nadaljujejo
nadarjen
nadarjenost
nade
nadejal
nadel
nadenj
nadi
nadja
nadlegoval
nadlegovati
nadlezen
nadlog
nadloga
nadloge
nadmorska
nadmorske
nadmorski
nadmorsko
nado
nadomesca
nadomesti
nadomestil
nadomestila
nadomestili
nadomestilo
nadomestiti
nadomestni
nadporocnik
nadskof
nadskofa
nadskofija
nadskofije
nadskofov
nadstropij
nadstropja
nadstropje
nadstropji
nadstropjih
nadstropju
naducitelj
nadvojvoda
nadvse
nadzira
nadziral
nadzor
nadzora
nadzornik
nadzornika
nadzorom
nadzoroval
nadzorovati
nadzoru
nadzoruje
naenkrat
nafte
nafto
nag
nagaja
nagajivo
nagel
nagelj
nagiba
naglas
naglasom
nagle
nagledati
naglici
naglico
naglo
nagloma
nagnal
nagne
nagnil
nagnila
nagnjen
nagnjena
nagnjeni
nagnjenje
nagon
nagovarja
nagovarjal
nagovor
nagovori
nagovoril
nagrad
nagrada
nagrade
nagradi
nagrado
nagrajen
nagrajena
nagrajenec
nagrobni
nagrobnik
nagy
nahaja
nahajajo
nahajal
nahajala
nahajali
nahajalisca
nahajalo
nahajamo
nahajata
nahrbtnik
naivno
naj
najblizja
najblizje
najblizji
najbolj
najbolje
najboljsa
najboljse
najboljsega
najboljsem
najboljsi
najboljsih
najboljsim
najboljsimi
najboljso
najbrz
najbrze
najdaljsa
najdaljsi
najdb
najdbe
najde
najdejo
najdem
najdemo
najden
najdena
najdene
najdeni
najdenih
najdes
najdeta
najdete
najdisca
najdisce
najdlje
najdrazje
najel
najela
najeli
najem
najemnik
najeti
najhitreje
najhitrejsi
najhuje
najhujsa
najhujse
najhujsi
najhujsih
naji
najin
najina
najine
najinega
najini
najinih
najino
najkasneje
najlazje
najlepsa
najlepse
najlepsega
najlepsem
najlepsi
najlepsih
najlepso
najljubsa
najljubse
najljubsi
najmanj
najmanjsa
najmanjse
najmanjsega
najmanjsi
najmanjso
najmlajsa
najmlajsega
najmlajsi
najmocnejsa
najmocnejsi
najnizja
najnizje
najnizji
najnovejse
najnovejsi
najpogosteje
najpogostejsa
najpogostejse
najpogostejsi
najpogostejsih
najpomembnejsa
najpomembnejse
najpomembnejsi
najpomembnejsih
najpoprej
najprej
najprvo
najraje
najrajsi
najrazlicnejse
najrazlicnejsih
najsi
najslabse
najstarejsa
najstarejse
najstarejsega
najstarejsi
najstarejsih
najstarejso
najtezje
najti
naju
najuspesnejsi
najuspesnejsih
najvaznejse
najvec
najvecja
najvecje
najvecjega
najvecjem
najvecji
najvecjih
najvecjim
najvecjimi
najvecjo
najveckrat
najverjetneje
najvisja
najvisje
najvisjega
najvisjem
najvisji
najvisjih
najvisjo
najvplivnejsih
najzgodnejsi
nak
nakar
nakazuje
nakazujejo
nakit
nakita
naklada
naklepe
nakljucje
nakljucju
nakljucno
naklon
naklonil
naklonjen
naklonjena
naklonjeni
naklonjenost
naklonjenosti
naknadno
nakopal
nakrat
nakup
nalahko
nalahno
nalasc
naletel
naletela
naleteli
naleti
nalil
nalog
naloga
nalogah
naloge
nalogi
nalogo
nalozena
nalozi
nalozil
nalozila
nalozili
nam
nama
namakanje
name
named
namen
namena
namene
nameni
namenil
namenila
namenili
namenjen
namenjena
namenjene
namenjeni
namenjenih
namenjeno
namenom
namenoma
namenov
namenu
namerava
nameravajo
nameraval
nameravala
nameravali
namere
nameri
nameril
namerno
namero
names
namescen
namescena
namescene
namesceni
namesti
namestili
namestitev
namestnik
namestnika
namesto
namestu
nami
namigne
namignil
namiguje
namrec
nana
nanasa
nanasajo
nancy
nande
nanj
nanje
nanjo
naocnike
naokoli
naokrog
napacen
napacna
napacne
napacnega
napacno
napad
napada
napadajo
napadal
napadalca
napadalci
napadalec
napadali
napadati
napade
napadejo
napadel
napadi
napadih
napadla
napadle
napadli
napadom
napadov
napadu
napaja
napak
napaka
napake
napako
napasti
napel
napeta
napete
napeti
napeto
napetost
napetosti
napev
napije
napil
napis
napisa
napisal
napisala
napisali
napisan
napisana
napisane
napisani
napisanih
napisano
napisati
napise
napisi
napisih
napisom
napisov
napisu
napoci
napocil
napol
napoleon
napoleona
napoleonovo
napolni
napolnil
napolnila
napolnili
napolnjen
napolnjena
napolnjene
napolnjeno
napor
napora
naporno
naporom
naposled
napoti
napotil
napotila
napotili
napove
napoved
napovedal
napovedala
napovedali
napovedi
napoveduje
napram
naprav
naprava
napravah
naprave
napravi
napravijo
napravil
napravila
napravili
napravilo
napravim
napraviti
napravlja
napravljen
napravo
napredek
napredka
napredku
napredne
napredno
napredoval
napredovala
napredovali
napredovanja
napredovanje
napreduje
naprej
naprodaj
naprosil
naproti
napuh
nar
narahlo
narasca
narascala
narasla
naraslo
narava
narave
naravi
naravna
naravne
naravnega
naravnem
naravni
naravnih
naravnim
naravnimi
naravno
naravnost
naravo
naravoslovec
naravoslovje
narazen
narecij
narecja
narecje
narecju
narede
naredi
naredijo
naredil
naredila
naredili
naredilo
naredim
naredimo
narediti
narednik
narejen
narejena
narejene
narejeni
narejenih
narejeno
narekuje
narisal
narobe
naroceno
naroci
narocil
narocila
narocili
narocilo
narocilu
narocje
narocju
narod
naroda
narode
narodi
narodih
narodna
narodne
narodnega
narodnem
narodni
narodnih
narodnim
narodnjak
narodno
narodnoosvobodilne
narodnoosvobodilni
narodnoosvobodilno
narodnost
narodnosti
narodnostna
narodom
narodov
narodu
nas
nasa
nasadi
nase
nasega
nasel
naselbina
naselbine
naselij
naselil
naselila
naselili
naselitev
naselja
naselje
naseljem
naseljen
naseljena
naseljenci
naseljeni
naseljenih
naseljeno
naselji
naseljih
naseljima
naselju
nasem
nasemu
nasi
nasih
nasilja
nasilje
nasiljem
nasilju
nasilne
nasilno
nasim
nasimi
nasip
naskok
nasla
naslanja
naslanjac
naslanjacu
nasle
nasledi
nasledil
nasledila
naslednica
naslednik
naslednika
nasledniki
naslednikom
naslednikov
naslednja
naslednje
naslednjega
naslednjem
naslednji
naslednjih
naslednjimi
naslednjo
nasledstva
nasledstvo
nasli
naslikal
naslikana
naslo
nasloni
naslonil
naslonila
naslonjen
naslov
naslova
naslove
naslovi
naslovnega
naslovni
naslovnici
naslovom
naslovov
naslovu
nasmeh
nasmehne
nasmehnil
nasmehnila
nasmehom
nasmejal
nasmejala
nasmeje
naso
nasploh
nasproti
nasprotja
nasprotje
nasprotju
nasprotna
nasprotne
nasprotnega
nasprotnem
nasprotni
nasprotnih
nasprotnik
nasprotnika
nasprotnike
nasprotniki
nasprotnikom
nasprotnikov
nasprotniku
nasprotno
nasprotoval
nasprotovala
nasprotovali
nasprotovanja
nasprotovanje
nasprotuje
nasprotujejo
nastaja
nastajajo
nastajala
nastajanja
nastajanje
nastal
nastala
nastale
nastali
nastalo
nastane
nastanejo
nastanek
nastanil
nastanjen
nastanka
nastankom
nastanku
nastavi
nastavil
nastel
nasteti
nastetih
nastop
nastopa
nastopajo
nastopal
nastopala
nastopali
nastopati
nastope
nastopi
nastopih
nastopijo
nastopil
nastopila
nastopili
nastopilo
nastopiti
nastopom
nastopov
nastopu
nasvet
nasvete
nasveti
nasvetoval
nasvetu
nat
natakar
natakarica
nataknil
natalie
natalija
natancen
natancna
natancne
natancneje
natancni
natancno
natancnost
natanko
natasa
nate
natecaj
natecaju
nathan
natihoma
nation
national
nationale
nations
natis
natisnil
natisnjena
nato
natoci
natocil
natrijev
natrijevega
natur
natura
natural
naturale
nature
nauci
naucil
naucila
naucili
nauciti
nauk
nauka
nauke
nauki
naukov
nauku
navad
navada
navade
navaden
navadi
navadil
navadna
navadne
navadnega
navadnem
navadni
navadnih
navadnim
navadno
navado
navaja
navajajo
navajanju
navajen
navajena
navajeni
naval
navdaja
navdajala
navdih
navdihnil
navdihnila
navdusen
navdusena
navduseni
navdusenja
navdusenje
navdusenjem
navduseno
navduseval
navdusil
navedbah
navedel
naveden
navedena
navedene
navedeni
navedenih
navedeno
navedi
navelical
navelicala
navelicali
navezal
navezan
navezuje
navidez
navidezni
navidezno
navkljub
navkreber
navodil
navodila
navodilih
navpicno
navsezadnje
navsezgodaj
navy
navzdol
navzgor
navzkriz
navzlic
navzoc
navzoci
navzocih
navzocnost
navzocnosti
navzven
nazadnje
nazaj
nazionale
naziv
naziva
nazivom
naznani
naznanil
naznanila
naznanilo
naznaniti
naznanja
nazor
nazore
nazori
nazorov
nb
nba
nbc
nbn
nc
nd
ndh
ne
neal
neapelj
neaplju
near
neba
nebes
nebesa
nebesih
nebeska
nebeske
nebeskega
nebeski
nebeskih
nebesko
nebesni
nebesnih
nebi
nebo
nebom
nebroj
nebu
necak
necaka
necakinja
necakinjo
nece
necega
necem
neces
necesa
nedalec
nedavno
nedelja
nedeljah
nedelje
nedeljo
nedeljski
nedeljsko
nedokoncana
nedolshnosti
nedolzen
nedolzna
nedolzne
nedolznega
nedolznem
nedolzni
nedolznih
nedolzno
nedolznost
nedolznosti
nedotaknjena
nedvomno
need
nega
negativen
negativna
negativne
negativni
negativnih
negativno
nege
nego
negotov
negotovo
negotovost
negotovosti
neha
nehaj
nehal
nehala
nehali
nehalo
nehati
nehote
neil
neill
neizmerna
neizmerne
neizmerno
neizogibno
neizprosno
neizreceno
nej
nejasna
nejasno
nejc
nejevoljen
nejevoljno
nek
neka
nekaj
nekajkrat
nekak
nekaka
nekako
nekaksen
nekaksna
nekaksne
nekaksno
nekam
nekatera
nekatere
nekateri
nekaterih
nekaterim
nekaterimi
nekdaj
nekdanja
nekdanje
nekdanjega
nekdanjem
nekdanji
nekdanjih
nekdanjim
nekdanjo
nekdo
neke
nekega
nekem
nekemu
neki
nekih
nekim
nekje
neko
nekoc
nekod
nekoga
nekoliko
nekolikokrat
nekom
nekomu
nektere
nekteri
nekterih
nel
nella
nelson
nem
nema
nemalo
nemam
nemara
nemca
nemce
nemcem
nemcev
nemci
nemcih
nemcija
nemcije
nemciji
nemcijo
nemec
nemi
nemilo
nemilost
nemir
nemira
nemiren
nemiri
nemirna
nemirne
nemirni
nemirno
nemirov
nemo
nemogoca
nemogoce
nemoteno
nemscina
nemscine
nemscini
nemscino
nemska
nemske
nemskega
nemskem
nemskemu
nemski
nemskih
nemskim
nemskimi
nemsko
nemudoma
nenad
nenadna
nenadni
nenadno
nenadoma
nenaseljen
nenavaden
nenavadna
nenavadne
nenavadnega
nenavadni
nenavadnih
nenavadno
nenehno
neo
neobhodno
neodvisen
neodvisna
neodvisne
neodvisni
neodvisnih
neodvisno
neodvisnost
neodvisnosti
neomejeno
neopazno
neopredeljena
nepal
nepalu
nepomuk
nepopisno
neposreden
neposredna
neposredne
neposrednega
neposredni
neposredno
nepotrebne
nepotrebnem
nepotrebnih
nepotrebno
nepravilno
nepravilnosti
neprekinjeno
nepremicne
nepremicno
nepremisljeno
neprenehoma
neprestano
nepricakovan
nepricakovano
neprijazno
neprijeten
neprijetna
neprijetne
neprijetnega
neprijetni
neprijetno
neprimerno
neprvenstvena
neptunov
nerad
nerada
nerazumljive
nerazumljivo
nered
neredu
neroden
nerodna
nerodno
nervozno
nese
nesel
nesem
neshka
nesi
neskoncna
neskoncne
neskoncni
neskoncno
neskoncnost
neskoncnosti
nesla
nesle
nesli
neslisno
neso
nespametno
nespodobno
nesramno
nesrec
nesreca
nesrece
nesrecen
nesreci
nesrecna
nesrecne
nesrecnega
nesrecnez
nesrecni
nesrecnica
nesrecnih
nesrecno
nesreco
nestetih
nesteto
nestetokrat
nesti
nestrpen
nestrpno
net
netek
netherlands
netopir
netopirji
network
networks
neubauer
neue
neugodno
neumann
neumen
neumna
neumne
neumnega
neumni
neumno
neumnost
neumnosti
neumorno
neuradno
neusmiljeni
neusmiljeno
neuspeh
neuspesno
neva
nevaren
nevarna
nevarne
nevarnega
nevarni
nevarnih
nevarno
nevarnost
nevarnosti
nevede
nevednosti
neveljavna
nevenka
never
neverjetno
nevesta
neveste
nevesti
nevesto
neviden
nevidna
nevidne
nevidni
nevidno
nevihta
nevihte
nevihti
nevihto
nevolja
nevoljen
nevoljno
nevoljo
nevtronov
new
news
newton
next
neza
nezadovoljen
nezadovoljstvo
nezakonito
nezakonski
nezaupno
nezavedno
nezavesti
nezeleni
nezelenih
nezen
nezgoda
nezgode
nezica
nezika
nezka
nezna
neznan
neznana
neznanca
neznane
neznanec
neznanega
neznani
neznanih
neznano
neznansko
neznatno
nezne
nezni
neznih
nezno
neznosna
neznosno
nezo
nf
ng
ngc
nh
nhl
ni
nic
nica
niccolo
nice
nicemer
nicesa
nicesar
nicholas
nicht
nick
nicle
nico
nicola
nicolas
nicole
nielsen
nigel
niger
night
nih
niha
nihanja
nihce
nij
nije
nijsem
nijsi
nijso
nijste
nik
nika
nikake
nikakega
nikakih
nikakor
nikamor
nikar
nikari
nikdar
nikdo
nike
nikedar
niki
nikjer
niko
nikoder
nikogar
nikola
nikolaj
nikolaja
nikolajevic
nikolaju
nikoli
nikolic
nikomer
nikomur
nil
nila
nima
nimajo
nimam
nimamo
nimas
nimata
nimate
nimava
nina
nine
nino
nis
nisa
nise
nisem
nisi
nisim
nismo
niso
nista
niste
nisva
nit
niti
nivo
nivoju
niz
niza
nizdol
nize
nizek
nizh
nizine
nizja
nizje
nizjega
nizji
nizjih
nizjo
nizka
nizke
nizkega
nizkem
nizki
nizkih
nizkim
nizkimi
nizko
nizozemscina
nizozemska
nizozemske
nizozemskega
nizozemskem
nizozemski
nizozemskih
nizozemsko
nizu
nj
nja
nje
njega
njegov
njegova
njegove
njegovega
njegovej
njegovem
njegovemu
njegovi
njegovih
njegovim
njegovimi
njegovo
njej
njem
njemu
njen
njena
njene
njenega
njenem
njenemu
njeni
njenih
njenim
njenimi
njeno
nji
njih
njihov
njihova
njihove
njihovega
njihovem
njihovemu
njihovi
njihovih
njihovim
njihovimi
njihovo
njiju
njim
njima
njimi
njiv
njiva
njivah
njivami
njive
njivi
njivo
njo
nju
njun
njuna
njune
njunega
njunem
njuni
njunih
njuno
nk
nl
nm
nmi
nn
no
nob
nobeden
nobel
nobelov
nobelove
nobelovec
nobelovo
nobelprize
noben
nobena
nobene
nobenega
nobenem
nobenemu
nobeni
nobenih
nobenim
nobeno
noble
noc
noce
noceh
nocejo
nocem
nocemo
noces
nocete
noch
noci
nocjo
nocna
nocne
nocnega
nocnem
nocni
nocnih
nocno
nocoj
noel
nog
noga
nogah
nogam
nogama
nogami
nogavice
noge
nogi
nogo
nogomet
nogometa
nogometas
nogometasev
nogometna
nogometne
nogometni
nogometnih
nogometno
nogometu
nohte
nohti
noj
nominacija
nominacijo
nominiran
nominirana
non
nor
nora
norbert
norca
norceval
norcevali
norcuje
nord
norec
nori
norma
normalna
normalne
normalni
normalnih
normalno
norman
normandiji
normani
normdatei
norme
noro
norost
north
northern
northrop
norton
norveska
norveske
norveskem
norveski
norveskih
norvesko
nos
nosa
nose
noseca
nosecnosti
nosecnostjo
nosek
nosi
nosijo
nosil
nosila
nosilcev
nosilci
nosile
nosilec
nosili
nosim
nosis
nositi
nosnice
nosom
nosu
not
notar
note
noter
notes
notranja
notranje
notranjega
notranjem
notranji
notranjih
notranjim
notranjo
notranjost
notranjosti
notre
notri
nouveau
nov
nova
novak
novce
novcev
nove
novega
novejsa
novejse
novejsem
novejsi
novejsih
novel
novela
novele
noveli
novelo
novem
november
novembra
novembrom
novembru
novemu
novi
novic
novica
novicah
novice
novico
novih
novim
novimi
novinar
novinarjev
novinarji
novinarka
novine
novj
novo
novost
novosti
novpogoj
now
noz
noza
noze
nozem
nozi
nozice
np
npr
nq
nr
ns
nt
nu
nuclear
nudi
nudijo
nudil
nudila
nujna
nujne
nujno
nuk
number
numbers
nun
nuna
nunciatura
nuncij
nune
nur
nurnberg
nusa
nuvolari
nv
nw
nx
ny
nyc
nyh
nym
nytimes
nz
nzs
o
o0
o1
o2
o3
o4
o5
o6
o7
o8
o9
oa
ob
oba
obadva
obakrat
obal
obala
obalah
obale
obali
obalna
obalne
obalnega
obalni
obalnih
obalno
obalo
obcan
obcanov
obcasno
obce
obceval
obcevati
obcin
obcina
obcinah
obcinami
obcine
obcini
obcino
obcinska
obcinske
obcinskega
obcinski
obcinskih
obcinsko
obcinstva
obcinstvo
obcinstvu
obcni
obcno
obcudoval
obcudovali
obcudovanja
obcudovanje
obcuduje
obcutek
obcuti
obcutil
obcutila
obcutje
obcutka
obcutke
obcutki
obcutkom
obcutkov
obcutljiv
obcutljiva
obcutljive
obcutljivi
obcutljivo
obcutljivost
obcutno
obdaja
obdajajo
obdan
obdana
obdani
obdano
obdelava
obdelave
obdelavo
obdobij
obdobja
obdobje
obdobjem
obdobjih
obdobju
obdrzal
obdrzala
obdrzali
obdrzati
obdrzi
obe
obed
obednico
obedu
obeh
obelisk
obema
obenem
oberne
obesi
obesil
obesila
obesili
obesiti
obeta
obetal
obetala
obhaja
obhajal
obhajala
obhajali
obhajilo
obhajilu
obicaj
obicaje
obicajen
obicajev
obicaji
obicajna
obicajne
obicajnega
obicajni
obicajnih
obicajno
obide
obilno
obilo
obisce
obisk
obiska
obiskal
obiskala
obiskali
obiskat
obiskati
obiske
obiski
obiskom
obiskov
obiskoval
obiskovala
obiskovalce
obiskovalcem
obiskovalcev
obiskovalci
obiskovalec
obiskovali
obiskovati
obisku
obiskuje
obiskujejo
objame
objav
objava
objave
objavi
objavil
objavila
objavili
objavlja
objavljal
objavljala
objavljati
objavljen
objavljena
objavljene
objavljeni
objavljenih
objavljeno
objavo
objekt
objekta
objekte
objekti
objektivno
objektov
objel
objela
objem
objema
objemal
objemala
objemu
objeti
objokana
obkolili
obkroza
obkrozajo
obkrozi
oblacek
oblaci
oblacil
oblacila
oblacilih
oblacilo
oblacno
oblak
oblaka
oblake
oblaki
oblakih
oblakov
oblaku
oblast
oblastem
oblasti
oblastjo
oblastno
oblece
oblecen
oblecena
oblecene
obleceni
obleceno
obleci
oblegal
oblegali
obleganja
obleganje
obleganjem
obleganju
oblegati
oblek
obleka
oblekah
obleke
oblekel
obleki
oblekla
oblekli
obleko
obletnici
obletnico
oblezal
oblezala
oblicja
oblicje
oblik
oblika
oblikah
oblikami
oblike
obliki
obliko
oblikoval
oblikovala
oblikovalec
oblikovali
oblikovalka
oblikovan
oblikovana
oblikovane
oblikovani
oblikovanja
oblikovanje
oblikovanju
oblikovati
oblikuje
oblikujejo
oblila
obljuba
obljube
obljubi
obljubil
obljubila
obljubili
obljubim
obljubiti
obljubljeno
obljubo
oblozena
oblozene
obmocij
obmocja
obmocje
obmocjem
obmocji
obmocjih
obmocju
obmolknil
obnasa
obnasal
obnasanja
obnasanje
obnova
obnove
obnovi
obnovil
obnovila
obnovili
obnovitev
obnoviti
obnovljen
obnovljena
obnovljene
obnovljeni
obnovljeno
obnovo
oboje
obok
oboka
obokana
oboki
obokom
obokov
oboku
oborozen
oborozena
oborozene
oborozeni
oborozenih
oborozeno
oborozitev
obotavljal
obraca
obracajo
obracal
obracala
obracati
obracun
obramba
obrambe
obrambi
obrambne
obrambnega
obrambni
obrambnih
obrambno
obrambo
obrat
obratno
obratov
obravnava
obravnavajo
obravnaval
obravnavali
obravnavamo
obravnavati
obravnave
obravnavi
obravnavo
obraz
obraza
obraze
obrazek
obrazi
obrazih
obrazislovenskihpokrajin
obrazom
obrazov
obrazu
obred
obrede
obredi
obredne
obredov
obredu
obremenitev
obremenitve
obresti
obrezja
obrezje
obrezju
obri
obrisal
obrisala
obrise
obrisi
obrne
obrnejo
obrnem
obrnil
obrnila
obrnili
obrnilo
obrniti
obrnivsi
obrnjen
obrnjena
obrnjene
obrnjeni
obrnjeno
obrobju
obroc
obroca
obroci
obronkih
obrt
obrti
obrtniki
obrtnikov
obrvi
obsedel
obseg
obsega
obsegajo
obsegal
obsegala
obsegalo
obsegu
obsel
observations
observatorij
observatorija
observatoriju
observatory
observer
obsezen
obsezna
obsezne
obsezni
obseznih
obsezno
obsirna
obsirno
obsla
obslo
obsodba
obsodbe
obsodbo
obsodil
obsodili
obsojen
obsojena
obsojeni
obstaja
obstajajo
obstajal
obstajala
obstajale
obstajali
obstajalo
obstajata
obstajati
obstal
obstala
obstali
obstane
obstanek
obstanka
obstati
obstoj
obstoja
obstojece
obstojeci
obstojecih
obstoji
obstoju
obtical
obtok
obtozb
obtozbe
obtozen
obtozil
obtozili
obup
obupa
obupal
obupan
obupana
obupano
obupen
obupno
obupu
obvaroval
obvaruj
obvescevalne
obvesti
obvestil
obvestila
obvestilo
obvezno
obveznosti
obvladal
obvladati
obvladovanje
obzaloval
obzalujem
obzidja
obzidje
obzidjem
obzidju
obzorja
obzorje
obzorju
obzornik
oc
oca
ocala
oce
ocean
oceana
oceanu
oceh
ocem
ocen
ocena
ocenah
ocenas
ocene
oceni
ocenil
ocenili
ocenjena
ocenjeno
ocenjevanje
ocenjuje
ocenjujejo
oceno
ocesa
ocesi
ocesom
ocesu
oceta
ocetje
ocetom
ocetov
ocetova
ocetove
ocetovega
ocetovem
ocetovi
ocetovih
ocetovo
ocetovsko
ocetu
oci
ocij
ocita
ocitajoce
ocital
ocitala
ocitali
ocitanja
ocitanje
ocitati
ocitek
ociten
ocitna
ocitne
ocitno
ocito
ocividno
ocka
oclc
ocmi
oct
october
ocvirk
od
oda
odbija
odbije
odbil
odbila
odbiti
odbor
odbora
odbornik
odboru
odcepi
odda
oddahne
oddahnil
oddahnila
oddaj
oddaja
oddajah
oddajajo
oddaje
oddaji
oddajo
oddal
oddalec
oddaljen
oddaljena
oddaljene
oddaljeni
oddaljenih
oddaljeno
oddaljenost
oddaljenosti
oddaljil
oddati
oddelek
oddelka
oddelke
oddelki
oddelkom
oddelkov
oddelku
odebeljene
odebeljeno
odeja
odeje
odejo
oder
odgnal
odgnali
odgnati
odgovarja
odgovarjajo
odgovarjal
odgovarjala
odgovarjali
odgovarjati
odgovor
odgovora
odgovore
odgovoren
odgovori
odgovoril
odgovorila
odgovorili
odgovorim
odgovoriti
odgovorna
odgovorne
odgovorni
odgovorno
odgovornost
odgovornosti
odgovorom
odgovorov
odgovoru
odhaja
odhajajo
odhajal
odhajala
odhajali
odhitel
odhitela
odhiti
odhod
odhoda
odhodom
odhodu
odide
odidejo
odidem
odideta
odigral
odigrala
odigrali
odigrane
odisej
oditi
odjezdil
odkar
odkimal
odkimala
odklenil
odklonil
odklonila
odkod
odkoder
odkrije
odkrijejo
odkril
odkrila
odkrili
odkrit
odkrita
odkrite
odkriti
odkritih
odkritij
odkritja
odkritje
odkritjem
odkritjih
odkritju
odkrito
odkritosrcno
odkriva
odkrivanje
odkupil
odkupnino
odlasal
odleglo
odletel
odletela
odleti
odlicen
odlicna
odlicne
odlicni
odlicnih
odlicno
odliko
odlikoval
odlikovan
odlikovancev
odlikovanj
odlikovanja
odlikovanje
odlikuje
odlikujejo
odloca
odlocajo
odlocanja
odlocanje
odlocbe
odlocbo
odlocen
odlocena
odloceno
odloci
odlocijo
odlocil
odlocila
odlocili
odlocilna
odlocilni
odlocilno
odlocilo
odlocitev
odlociti
odlocitve
odlocitvi
odlocno
odlocnost
odlocnostjo
odloga
odlok
odlokom
odlomek
odlomki
odlozi
odlozil
odlozila
odloziti
odmakne
odmaknil
odmaknila
odmerek
odmev
odmeva
odmeval
odmevali
odmevalo
odmor
odnehal
odnese
odnesel
odnesla
odnesli
odneslo
odnesti
odnos
odnosa
odnose
odnosi
odnosih
odnosov
odnosu
odobril
odpade
odpadke
odpadki
odpadkov
odpel
odpeljal
odpeljala
odpeljali
odpeljati
odpelje
odpeljejo
odpira
odpirajo
odpiral
odpirala
odpirat
odpirati
odplul
odplula
odpocil
odpor
odpora
odpornost
odpornosti
odposlancev
odposlanec
odpotoval
odpotovala
odpotovati
odpotuje
odpove
odpoved
odpovedal
odpovedala
odpovedali
odpovedati
odpovedi
odprava
odprave
odpravi
odpravijo
odpravil
odpravila
odpravili
odpraviti
odpravlja
odpravljal
odpravo
odpre
odprejo
odprem
odpreti
odpri
odprite
odprl
odprla
odprle
odprli
odprlo
odpro
odprt
odprta
odprte
odprtega
odprtem
odprti
odprtih
odprtim
odprtimi
odprtina
odprtine
odprtino
odprtje
odprtju
odprto
odpuscanja
odpuscanje
odpuscen
odpusti
odpustil
odpustila
odpustili
odpustim
odpustite
odpustiti
odra
odrascal
odrasel
odrasla
odrasle
odrasli
odraslih
odraz
odraza
odrazajo
odrece
odreci
odred
odreda
odredil
odredov
odrekel
odrekla
odresenika
odresenja
odresenje
odrezal
odrezala
odreze
odrih
odrine
odrinil
odrinila
odrinili
odriniti
odru
odsek
odseka
odsekal
odseku
odsel
odsev
odseva
odskocil
odskodnine
odskodnino
odsla
odsle
odslej
odsli
odslo
odslovil
odsoten
odsotnost
odsotnosti
odstavek
odstavil
odstavka
odstavljen
odstop
odstopa
odstopi
odstopil
odstopila
odstopiti
odstopu
odstotek
odstotka
odstotkov
odstrani
odstranijo
odstranil
odstranila
odstranili
odstranitev
odstraniti
odstranjen
odstranjena
odstranjevanje
odtlej
odtod
odtrgal
odtrgala
odtrgati
odurno
odvalil
odvec
odvede
odvedel
odvedli
odvetnik
odvetnika
odvezal
odveze
odvija
odvijala
odvisen
odvisna
odvisne
odvisni
odvisno
odvisnost
odvisnosti
odvod
odvrne
odvrnil
odvrnila
odvrniti
odvzame
odvzel
odvzeli
odvzeti
odziv
odziva
odzove
odzval
odzvala
odzvali
oe
oeis
oesterreich
of
ofenziva
ofenzive
ofenzivo
off
office
official
oficir
oficirji
og
ogenj
ogibal
ogiblje
ogla
oglas
oglasa
oglasal
oglasali
oglasevanja
oglasevanje
oglasi
oglasil
oglasila
oglasili
oglasilo
ogled
ogleda
ogledal
ogledala
ogledali
ogledalo
ogledalu
ogledati
ogledoval
ogledovala
ogledovali
ogleduje
oglej
oglejskega
oglejski
oglisc
oglja
ogljar
oglje
ogljik
ogljika
ogljikov
ogljikovega
ogljikovih
oglu
ognja
ognjem
ognjena
ognjene
ognjeni
ognjeno
ognji
ognjisca
ognjisce
ognjiscu
ognju
ogorceno
ogovori
ogovoril
ograja
ograje
ograji
ograjo
ogrevanje
ogri
ogrin
ogrnil
ogrodje
ogromen
ogromna
ogromne
ogromnega
ogromni
ogromnih
ogromno
ogroza
ogrozena
ogrozene
ogrozenih
ogrska
ogrske
ogrskega
ogrskem
ogrski
ogrskih
ogrsko
oh
ohio
ohladi
ohlapno
oho
ohrani
ohranijo
ohranil
ohranila
ohranile
ohranili
ohranilo
ohranitev
ohraniti
ohranja
ohranjajo
ohranjanja
ohranjanje
ohranjanju
ohranjen
ohranjena
ohranjene
ohranjeni
ohranjenih
ohranjeno
oi
oil
oj
ok
okamenel
okcitansko
oken
okence
oklahoma
oklene
oklenil
oklenila
oklep
oklepa
oklepaju
oklepna
oklepne
oklepni
okna
okni
oknih
okno
oknom
oknu
oko
okoli
okolica
okolice
okolici
okolico
okoliscin
okoliscinah
okoliscine
okoliske
okoliskih
okolja
okolje
okoljem
okoljih
okoljske
okoljskih
okolju
okolnosti
okolo
okolu
okorno
okraj
okraja
okrajev
okraji
okrajnega
okrajni
okrajno
okrajsano
okrajsava
okraju
okras
okrasen
okrasena
okrasene
okraseni
okraseno
okraski
okrasni
okrenil
okrenila
okrepil
okrepila
okreval
okrilje
okriljem
okrog
okrogel
okrogla
okrogle
okroglega
okrogli
okroglih
okroglo
okrozij
okrozja
okrozje
okrozju
okroznega
okrozni
oksid
oksida
okt
oktober
oktobra
oktobrom
oktobru
okupacija
okupacije
okupaciji
okupacijo
okus
okusa
okusil
okusno
okusu
okuzb
okuzba
okuzbe
okuzbi
okuzbo
okuzenih
okvare
okvir
okviru
ol
olajsa
old
oleg
olga
olgi
olgo
olimpija
olimpiji
olimpijo
olimpijske
olimpijskega
olimpijski
olimpijskih
olimpijsko
oliver
olivier
olja
olje
oljem
olju
oltar
oltarja
oltarje
oltarjem
oltarjev
oltarji
oltarju
oltarna
oltarne
oltarni
olympic
olympics
om
omahne
omahnil
omahnila
omamljen
oman
omar
omara
omare
omari
omaro
omedlela
omega
omejen
omejena
omejene
omejeni
omejeno
omejitev
omejitve
omejuje
omejujejo
omemba
omembe
omeni
omenil
omenila
omenili
omenim
omenimo
omeniti
omenja
omenjajo
omenjal
omenjen
omenjena
omenjene
omenjenega
omenjenem
omenjeni
omenjenih
omenjeno
omike
omogoca
omogocajo
omogocal
omogocala
omogoci
omogocil
omogocila
omogocili
omogocilo
omotica
omotici
omozena
omozila
omrezij
omrezja
omrezje
omrezju
on
ona
onadva
onda
ondi
ondu
one
onega
onem
onemogel
onemogla
onemu
oni
onih
onim
onimi
onkraj
online
only
ono
onstran
ontario
oo
op
opac
opat
opata
opatija
opatije
opatiji
opatijo
opazen
opazi
opazijo
opazil
opazila
opazili
opazimo
opaziti
opazke
opazko
opazna
opazno
opazoval
opazovala
opazovalca
opazovalec
opazovali
opazovanj
opazovanja
opazovanje
opazovanju
opazovati
opazuje
opazujejo
opazujemo
opeka
opeke
opeko
open
opera
operacij
operacija
operacijah
operacije
operaciji
operacijo
operacijski
operation
operations
operativni
operativno
operatorname
opere
operi
operna
operni
opero
opica
opice
opira
opiral
opis
opisa
opisal
opisala
opisali
opisan
opisana
opisane
opisani
opisanih
opisano
opisati
opise
opisemo
opisi
opisoval
opisu
opisuje
opisujejo
opoldne
opolnoci
opomba
opombe
opomin
opominja
opominjal
opomni
opomnil
opomniti
opomogel
opomogla
opora
opore
oporisce
oporo
oporoka
oporoki
oporoko
opotekel
opozarja
opozarjajo
opozicije
opozori
opozoril
opozorila
opozorili
opozorilo
opozoriti
oprava
opravek
opravi
opraviceval
opravicil
opravicilo
opraviciti
opravicuje
opravijo
opravil
opravila
opravili
opravilih
opravilo
opravilu
opraviti
opravka
opravke
opravkih
opravkov
opravlja
opravljajo
opravljal
opravljala
opravljali
opravljanja
opravljanje
opravljanju
opravljati
opravljen
opravljena
opravljeni
opravljeno
opravo
opredelil
opredelitev
opredeliti
opredeljen
opredeljena
opredeljene
opredeljuje
oprema
opreme
opremi
opremljen
opremljena
opremljene
opremljeni
opremljeno
opremo
oprezno
oprijel
oprijela
oprl
oprosti
oprostil
oprostite
oprostiti
opticnih
opticno
opus
opuscen
opusti
opustil
opustila
opustili
opustiti
opustosili
oq
or
oral
orange
orbit
orbitalna
orchestra
ordbog
ordbok
order
oreh
orehi
orel
oresnik
org
organ
organa
organe
organi
organic
organih
organisation
organist
organizacij
organizacija
organizacijah
organizacijami
organizacije
organizaciji
organizacijo
organizacijske
organizacijski
organizacijsko
organization
organizational
organizator
organizatorji
organizem
organizira
organizirajo
organiziral
organizirala
organizirali
organiziran
organizirana
organizirane
organizirani
organizirano
organizirati
organizma
organizmi
organizmov
organizmu
organov
organske
organski
organskih
orgel
orgle
oriental
origin
original
originalni
originalno
origins
orion
oris
orjaski
orkester
orkestra
orkestrom
orkestru
orla
orlando
orleans
orli
ormoz
oro
orodij
orodja
orodje
orodjem
oropal
oropali
orozen
orozja
orozje
orozjem
orozju
oroznik
oroznika
orozniki
orsini
os
osabno
osamljen
osamljena
osamosvojitve
osamosvojitvi
osat
oscar
oseb
oseba
osebah
osebam
osebami
osebe
osebi
osebja
osebje
osebki
osebkov
osebna
osebne
osebnega
osebni
osebnih
osebnim
osebno
osebnost
osebnosti
osebnostne
osebo
osel
osem
osemdeset
osemdesetih
osemnajst
osi
oskar
oskarja
oskrba
oskrbe
oskrbi
oskrbnik
oskrbnika
oskrbniku
oskrbo
oskrbuje
osla
oslo
oslu
osma
osman
osmani
osmanska
osmanske
osmanskega
osmanskem
osmanski
osmanskim
osmansko
osmega
osmi
osmih
osmimi
osmo
osnova
osnoval
osnove
osnovi
osnovna
osnovne
osnovnega
osnovni
osnovnih
osnovno
osnovo
osnutek
osobito
osoda
osodo
osoncja
osorno
ospredje
ospredju
osprey
osramocen
osrednja
osrednje
osrednjega
osrednjem
osrednji
osrednjih
osrednjo
osredotoca
osredotocil
ost
ostaja
ostajajo
ostajal
ostal
ostala
ostale
ostali
ostalih
ostalim
ostalimi
ostalo
ostane
ostanejo
ostanek
ostanem
ostanemo
ostanes
ostaneta
ostanete
ostani
ostanite
ostanke
ostanki
ostankih
ostankov
ostati
ostavil
oster
osterc
osterreich
osterreichischen
ostir
ostra
ostre
ostrega
ostri
ostrih
ostrim
ostrimi
ostrmel
ostro
ostrovrhar
ostudno
osupel
osuplo
osupnil
osvajanja
osveta
osvobodi
osvobodil
osvobodili
osvobodilne
osvoboditev
osvoboditi
osvoboditve
osvoboditvi
osvoji
osvojil
osvojila
osvojili
osvojitev
osvojiti
osvojitvi
osvojitvijo
oswald
ot
otel
other
others
otide
otmar
oto
otocek
otocja
otocje
otocju
otocka
otok
otoka
otokar
otoke
otoki
otokih
otokom
otokov
otoku
oton
otona
otozen
otozna
otozno
otoznost
otrese
otresel
otresti
otroci
otrocih
otrocja
otrocje
otrocji
otrocjih
otrok
otroka
otroke
otroki
otrokom
otrokoma
otroku
otroska
otroske
otroskega
otroski
otroskih
otrosko
otrostva
otrostvo
otrostvu
ottawa
otto
ottoman
otvoritev
ou
our
out
ov
ovac
ovadil
ovca
ovcar
ovce
ovcice
ovco
ove
oven
over
overline
overview
oves
ovil
ovila
ovinek
ovinka
ovinkih
ovinkom
ovinkov
ovinku
ovir
ovira
ovirami
ovire
oviro
ovoj
ovratnik
ovsa
ow
owen
own
ox
oxford
oxfordu
oy
oz
ozadja
ozadje
ozadju
ozbe
ozbekce
ozdravel
ozdravela
ozdravi
ozdravil
ozek
ozemelj
ozemlja
ozemlje
ozemljem
ozemljih
ozemlju
ozeni
ozenil
ozeniti
ozenjen
ozine
ozino
ozira
oziraje
ozirajo
oziral
ozirala
ozirali
ozirati
ozirom
oziroma
oziru
ozivel
ozivela
ozivi
ozje
ozjem
ozji
ozka
ozke
ozkem
ozki
ozkih
ozko
ozn
oznacen
oznacena
oznacene
oznaceni
oznaceno
oznacevanje
oznaci
oznacil
oznacila
oznacili
oznacimo
oznacuje
oznacujejo
oznacujemo
oznaka
oznake
oznako
oznanil
oznanila
oznanjenje
ozracja
ozracje
ozracju
ozre
ozrem
ozreti
ozri
ozrl
ozrla
ozrli
ozvezdje
ozvezdju
p
p0
p1
p2
p3
p4
p5
p6
p7
p8
p9
pa
pablo
pac
pace
pacient
pacienta
pacientov
pacific
pad
pada
padajo
padal
padala
padale
padali
padalo
padalski
padati
padavin
padavine
padca
padcem
padcu
pade
padec
padejo
padel
padla
padle
padli
padlih
padlim
padlo
padova
padovi
pag
page
pages
paglavci
pahne
pahnil
pahnila
pahor
pain
painting
paintings
pajcolan
pajek
pajk
pajka
pajki
pak
paket
pakistan
pal
pala
palac
palaca
palace
palaci
palacio
palaco
palais
palazzo
palca
palcek
palcem
palcev
palcic
palcki
palec
palermo
palestine
paleto
pali
palic
palica
palicami
palice
palici
palico
palm
palma
palme
palmer
pamela
pamet
pameten
pameti
pametna
pametne
pametnega
pametni
pametnih
pametno
pan
panj
panja
panoga
panonijo
panorama
pante
pantheon
panzer
paola
paolo
papa
papak
paper
papers
papeska
papeske
papeskega
papeski
papeskih
papesko
papez
papeza
papezem
papezev
papezevo
papezi
papezu
papi
papir
papirja
papirje
papirjev
papirji
papirju
papstgeschichte
par
para
parade
paradiz
paradoks
parameter
parco
pardon
pare
pari
parih
paris
pariskem
pariski
pariz
pariza
parizu
park
parka
parker
parki
parkom
parkov
parkrat
parku
parlament
parlamenta
parlamentu
parliament
parma
parne
parni
parnik
paro
parom
parov
part
partial
partija
partije
partijo
partito
partizan
partizane
partizani
partizanom
partizanov
partizanska
partizanske
partizanski
partizanskih
partizansko
partner
partnerja
partnerji
party
paru
pas
pasa
pascal
pase
pasejo
pasel
pasem
pasi
pasja
pasje
pasji
pasla
pasli
pasma
pasme
pasniki
paso
pasom
pasov
pasovi
past
pasti
pastir
pastircek
pastirica
pastirja
pastirjev
pastirji
pastirju
pastor
pastorka
pasu
pat
patent
pater
paternu
patients
patra
patria
patriarh
patriarha
patricia
patrick
patrijarh
patron
patronaznem
patton
paul
paula
paulo
pav
pavel
paviljon
pavla
pavle
pavleta
pavlic
pavliha
pavlin
pavlina
pavlo
pavlovic
pavlu
pays
paz
pazduho
pazi
pazil
pazila
pazili
pazite
paziti
pazljivo
paznik
pazno
pb
pc
pcinjskega
pd
pdf
pe
peace
pearl
pearson
pec
peca
pecal
pecar
pecat
pecati
pece
pecenke
pecenko
peci
pecinah
pecine
pecino
pecjo
ped
pedagog
pedagoginja
pedagoska
pedagoske
pedagoski
pedagosko
pedi
pedro
peer
peerage
peeters
pegam
pege
pehota
pehote
pehotna
pehotne
pehotnega
pehotni
pehotnih
pehta
pek
pekel
peking
pekingu
pekla
peklenska
peklenski
peklensko
pekli
peklo
peklu
peko
pekoce
pel
pela
pele
peli
pelin
peljal
peljala
peljali
peljati
pelje
peljejo
peljem
pelji
pelo
pen
pena
pene
penelope
penguin
penn
pennsylvania
pensilvanija
people
peoples
pepe
pepel
pepela
per
percy
pere
peres
peresa
peresom
perez
performance
perila
perilo
perin
period
perioda
periodicni
perja
perje
perko
permission
pernat
pero
peroti
perry
persian
persih
person
personal
personality
personen
perspective
perspectives
perspektive
perspektivo
peru
peruti
perva
perve
pervi
pervo
perzijci
perzije
perziji
perzijska
perzijske
perzijskega
perzijski
perzijskih
perzijsko
pes
pesa
pesce
pescena
pescene
pesceni
pescenih
pescenjaka
pesceno
pescev
pesci
pesek
pesem
pesen
peska
peskom
pesku
pesmi
pesmice
pesmico
pesmih
pesmijo
pesmimi
pesni
pesnica
pesnice
pesnik
pesnika
pesnike
pesniki
pesnikom
pesnikov
pesniku
pesniska
pesniske
pesniskega
pesniski
pesniskih
pesnisko
pesnistva
pesnistvo
pesnitev
pesnitve
pespolka
pest
pesti
pestjo
pestmi
pet
peta
petami
petan
petar
petdeset
petdesetih
pete
petega
petek
petelin
petelina
petelincek
petelini
petem
peter
peterburg
peterburgu
peterlin
petero
peters
petersburg
peterson
peti
petih
petim
petimi
petindvajset
petit
petja
petje
petjem
petju
petka
petkrat
petnajst
petnajstih
peto
petra
petric
petrie
petrom
petrov
petrovic
petru
petrus
petsto
pevca
pevcev
pevci
pevcu
pevec
pevka
pevke
pevko
pevskega
pevski
pevsko
pf
pg
ph
pha
pharaohs
pharmacology
phi
phil
philadelphia
philip
philipp
philippe
phillips
philosophical
philosophy
phoenix
photo
photos
php
physical
physics
physiology
pi
pia
pianist
piano
piazza
picice
pico
picture
pictures
pier
piero
pierre
pieter
pietra
pietro
piha
pihal
pihala
pihalni
pij
pija
pijac
pijaca
pijace
pijaci
pijaco
pijan
pijana
pijanec
pijanega
pijani
pijano
pijanost
pijanosti
pije
pijejo
pijem
pijmo
pijo
pijte
pik
pika
pike
piki
piko
pikro
pil
pila
pilastri
pile
pili
pilo
pilot
pilota
piloti
pilotov
pinjin
pink
pinoy
pintar
pio
pionir
pionirski
pipan
pipe
pipec
piper
pipi
pipo
piramid
piramida
piramide
piramido
piran
piranu
pirc
pirin
pirjevec
pirnat
pis
pisa
pisal
pisala
pisali
pisalni
pisalno
pisalo
pisan
pisana
pisane
pisani
pisanih
pisanimi
pisanja
pisanje
pisanjem
pisanju
pisano
pisar
pisarja
pisarna
pisarne
pisarni
pisarno
pisatelj
pisatelja
pisatelje
pisateljem
pisateljev
pisatelji
pisateljica
pisateljice
pisatelju
pisati
pisava
pisave
pisavi
pisavo
pisca
piscal
piscali
piscalko
pisce
piscev
pisci
pise
pisec
pisejo
pisem
pisemce
pisemo
pisi
pisma
pismeno
pismenosti
pismi
pismih
pismo
pismom
pismonosa
pismu
pisni
pisnih
pisno
pistola
pistole
pistolo
pit
piti
pitje
pitne
pitt
pittsburgh
pius
piva
pivci
pivec
pivka
pivo
pj
pk
pl
plac
placa
placaj
placajo
placal
placala
placali
placam
placati
place
places
placeval
placevali
placevati
placila
placilo
placo
placuje
placujejo
plah
plaha
plaho
plakala
plaketa
plaketo
plamen
plamena
plameni
plamenom
plamenu
plan
plane
planejo
planet
planeta
planetary
planete
planeti
planetov
planetu
planica
planici
planil
planila
planili
planin
planina
planinah
planine
planinec
planini
planino
planinska
planinske
planinskega
planinski
planinskih
planinsko
planiti
planjave
planjavi
planjavo
plano
planota
planote
planoti
planoto
plant
plants
plasc
plasca
plascem
plascu
plasi
plasno
plast
plasteh
plasti
plastike
plastjo
plat
platforma
plati
platna
platno
platnu
plato
platon
plava
plavajo
plaval
plavala
plavali
plavati
plave
play
player
playstation
plaz
plaza
plaze
plazi
plazil
plazovi
pleca
plecih
plecnik
pleme
plemen
plemena
plemeni
plemenit
plemenita
plemenitas
plemenitasi
plemenite
plemenitega
plemeniti
plemenitih
plemenito
plemic
plemica
plemicev
plemici
plemiska
plemiske
plemiski
plemiskih
plemstva
plemstvo
plemstvom
plen
plena
plenilci
plenom
ples
plesa
plesal
plesala
plesalci
plesale
plesalec
plesali
plesalka
plesati
plese
plesejo
plesi
plesna
plesne
plesni
plesno
plesom
plesu
plete
plevel
plezal
plezanje
plezati
plin
plina
plini
plinij
plinov
plitvo
pljuc
pljuca
pljucih
pljucnica
pljunil
plod
plodov
plodovi
ploha
plosc
plosca
ploscad
ploscadi
ploscah
ploscami
plosce
plosci
ploscic
ploscice
plosco
ploskev
ploskve
plot
plotom
plotu
plovbe
plovbo
plovil
plovila
plovilo
plt
plug
plul
plula
plus
plutino
pm
pmatrix
pmc
pmid
pn
pnas
po
pobeg
pobegne
pobegnil
pobegnila
pobegnili
pobegniti
pobere
poberi
pobic
pobije
pobil
pobila
pobili
pobira
pobiral
pobirali
pobirati
pobit
pobiti
pobocja
pobocje
pobocjih
pobocju
pobozal
pobozala
pobozen
pobozna
pobozne
poboznega
pobozni
poboznih
pobozno
poboznost
poboznosti
pobral
pobrala
pobrali
pobrati
pobude
pobudnik
pobudo
pocaka
pocakaj
pocakajte
pocakal
pocakala
pocakam
pocakati
pocasen
pocasi
pocasneje
pocasnejsem
pocasno
pocel
pocela
poceli
poceni
pocenja
poceti
pocetja
pocetje
pocetka
pocez
poci
pocil
pocila
pocilo
pocitek
pocitka
pocitku
pocitnic
pocitnicah
pocitnice
pociva
pocivajo
pocival
pocivala
pocivali
pocivat
pocivati
pocne
pocuti
pocutil
pocutila
pocutim
pocutje
pod
poda
podaj
podaja
podaje
podajo
podal
podala
podali
podaljsa
podaljsal
podaljsali
podaljsana
podaljsek
podam
podana
podari
podaril
podarila
podatek
podati
podatke
podatki
podatkih
podatkov
podatkovna
podatkovni
podcastnik
pode
podedoval
podedovala
podeli
podelil
podelila
podelili
podelitev
podelitvi
podeljen
podeljena
podeljuje
podere
podezelja
podezelju
podgane
podgorica
podgornik
podgorski
podi
podil
podila
podili
podiplomski
podira
podjetij
podjetja
podjetje
podjetjem
podjetji
podjetjih
podjetju
podjetnik
podlaga
podlage
podlagi
podlago
podlegel
podlipnik
podloznike
podlozniki
podloznikov
podmornic
podmornica
podmornice
podmornico
podnebja
podnebje
podnebne
podnebnih
podnevi
podob
podoba
podobah
podobami
podobar
podobe
podoben
podobi
podobna
podobne
podobnega
podobnem
podobni
podobnih
podobnim
podobnimi
podobno
podobnost
podobnosti
podobo
podpira
podpirajo
podpiral
podpirala
podpirali
podpirati
podpis
podpisa
podpisal
podpisala
podpisali
podpisan
podpisana
podpisati
podpise
podpisom
podpisu
podpolkovnik
podpora
podpore
podpori
podpornik
podporniki
podporo
podpre
podpredsednik
podpredsednika
podprl
podprla
podprli
podprt
podprta
podprvaka
podregijo
podrejen
podrejena
podrejeni
podreti
podrl
podrla
podrli
podrobneje
podrobnejsi
podrobni
podrobno
podrobnosti
podrocij
podrocja
podrocje
podrocji
podrocjih
podrocju
podruznica
podruznice
podruznicna
podstavek
podstavku
podstresje
podstresju
podu
poduk
podvozje
podvrsta
podzemlja
podzemlje
podzemne
podzemni
podzemnih
poem
poet
poezij
poezija
poezije
poeziji
poezijo
pogacar
pogace
pogacnik
pogajanj
pogajanja
pogajanjih
pogajati
poganja
poganjajo
poganjal
poganjala
poganski
poganskih
pogin
pogine
poginil
poginiti
pogladil
poglavar
poglavarja
poglavij
poglavitna
poglavitni
poglavitno
poglavja
poglavje
poglavju
pogled
pogleda
pogledajo
pogledal
pogledala
pogledali
pogledam
pogledamo
pogledas
pogledat
pogledati
poglede
pogledi
pogledih
pogledom
pogledov
pogledoval
pogledovala
pogledu
pogleduje
poglej
poglejmo
poglejte
pognal
pognala
pognali
pognalo
pognati
pogodb
pogodba
pogodbe
pogodbi
pogodbo
pogodil
pogoj
pogoje
pogojem
pogojev
pogoji
pogojih
pogon
pogorela
pogorja
pogorje
pogorju
pogost
pogosta
pogoste
pogosteje
pogosti
pogostih
pogosto
pogostoma
pogostosti
pogovarja
pogovarjajo
pogovarjal
pogovarjala
pogovarjali
pogovarjata
pogovarjati
pogovor
pogovora
pogovore
pogovori
pogovorih
pogovoriti
pogovorni
pogovorno
pogovorom
pogovorov
pogovoru
pograbi
pograbil
pograbila
pogreb
pogreba
pogrebci
pogrebni
pogrebu
pogresa
pogresal
pogresala
pogresali
pogreznil
pogube
pogubi
pogubo
pogum
poguma
pogumen
pogumna
pogumni
pogumno
pohistva
pohistvo
pohitel
pohitela
pohiti
pohlep
pohlevno
pohlin
pohod
pohoda
pohode
pohodi
pohodih
pohodom
pohodov
pohodu
pohorja
pohorje
pohorju
pohujsanje
pohvale
pohvali
pohvalil
pohvalila
pohvalo
poimenoval
poimenovala
poimenovali
poimenovan
poimenovana
poimenovani
poimenovanja
poimenovanje
poimenovano
point
poisce
poiscem
poisci
poiskal
poiskala
poiskali
poiskati
poizkusil
poizvedoval
poj
pojasni
pojasnil
pojasnila
pojasnilo
pojasniti
pojasnjuje
pojav
pojava
pojave
pojavi
pojavijo
pojavil
pojavila
pojavile
pojavili
pojavilo
pojavlja
pojavljajo
pojavljati
pojavom
pojavov
pojavu
pojde
pojdejo
pojdem
pojdemo
pojdes
pojdete
pojdeva
pojdi
pojdimo
pojdita
pojdite
pojdiva
poje
pojedel
pojedla
pojedli
pojejo
pojem
pojma
pojme
pojmi
pojmov
pojmovanje
pojo
pojte
pojutrisnjem
pok
poka
pokal
pokala
pokalu
pokanje
pokazal
pokazala
pokazale
pokazali
pokazalo
pokazati
pokaze
pokazejo
pokazem
pokazi
pokazite
pokima
pokimal
pokimala
poklekne
pokleknil
pokleknila
poklic
poklica
poklical
poklicala
poklicali
poklican
poklicati
poklice
poklicem
poklici
poklicite
poklicna
poklicne
poklicni
poklicnih
poklicno
poklicu
poklon
pokloni
poklonil
pokoj
pokoja
pokojnega
pokojni
pokojno
pokoju
pokol
pokonci
pokoncu
pokop
pokopal
pokopali
pokopalisca
pokopalisce
pokopaliscu
pokopan
pokopana
pokopani
pokopati
pokora
pokore
pokoren
pokori
pokoriti
pokorno
pokoro
pokorscino
pokrajin
pokrajina
pokrajinah
pokrajine
pokrajini
pokrajino
pokrajinskega
pokrajinski
pokrije
pokril
pokrila
pokrit
pokrita
pokrite
pokriti
pokrito
pokriva
pokrivajo
pokrival
pokrivala
pokrivalo
pokrov
pokrovitelj
pokroviteljstvom
pokvaril
pol
pola
polagoma
polajnar
poland
polasti
polastil
polastila
polastiti
poldan
polde
poldne
poldrugi
poldrugo
pole
poleg
polet
poletel
poleti
poletih
poletja
poletje
poletju
poletna
poletne
poletnega
poletnem
poletni
poletnih
poletno
poletov
polfinale
polfinalu
polglasno
poli
polic
polica
policah
policaj
police
polici
policija
policije
policiji
policijo
policijska
policijske
policijskega
policijski
policijskih
policijsko
policist
policista
policisti
policistov
polico
policy
polieder
poliedrov
poliksena
polish
political
politicarka
politicna
politicne
politicnega
politicnem
politicni
politicnih
politicnim
politicnimi
politicno
politics
politik
politika
politike
politiki
politiko
politikov
polj
polja
poljak
poljaki
poljakov
poljan
poljanah
poljane
poljanec
poljani
poljansek
polje
poljedelstvo
poljem
polji
poljih
poljscina
poljska
poljske
poljskega
poljskem
poljski
poljskih
poljsko
polju
poljub
poljubi
poljubil
poljubila
poljubiti
poljublja
poljubljal
poljubno
polk
polka
polke
polkov
polkovnik
polkovnika
polku
polmer
poln
polna
polne
polnega
polnem
polni
polnih
polnila
polnim
polnimi
polno
polnoc
polnoci
polnoletnih
polo
polobli
polom
polomil
polona
polonca
polonica
polos
polotok
polotoka
polotoku
polovica
polovice
polovici
polovico
polozaj
polozaja
polozaje
polozajem
polozajev
polozaji
polozajih
polozaju
polozen
polozi
polozil
polozila
polozili
poloziti
polt
polti
polu
poluglasno
polz
polzi
pomaga
pomagaj
pomagajo
pomagajte
pomagal
pomagala
pomagale
pomagali
pomagalo
pomagam
pomagat
pomagati
pomakne
pomaknil
pomanjkanja
pomanjkanje
pomanjkanju
pomanjkljivost
pomanjkljivosti
pome
pomemben
pomembna
pomembne
pomembnega
pomembnejsa
pomembnejse
pomembnejsi
pomembnejsih
pomembni
pomembnih
pomembnimi
pomembno
pomembnost
pomembnosti
pomen
pomena
pomene
pomenek
pomeni
pomenijo
pomenil
pomenila
pomenili
pomenilo
pomeniti
pomenja
pomenljivo
pomenom
pomenov
pomenu
pomeril
pomeziknil
pomignil
pomika
pomikal
pomikala
pomikati
pomilovalno
pomiri
pomiril
pomirila
pomiriti
pomisleka
pomisleke
pomisli
pomislil
pomislila
pomislim
pomislimo
pomislite
pomisliti
pomisljal
pomlad
pomladi
pomladni
pomladno
pomni
pomnil
pomnim
pomoc
pomoci
pomocjo
pomocnica
pomocnik
pomocnika
pomocniki
pomol
pomoli
pomolil
pomolila
pomolu
pomore
pomorska
pomorske
pomorski
pomorskih
pomorsko
pomotoma
pomozne
pomozni
pomrli
pomurska
ponasa
ponatis
ponavadi
ponavlja
ponavljajo
ponavljal
ponavljala
ponavljali
ponavljati
ponazarja
ponedeljek
ponekod
ponese
ponesrecil
ponizal
ponizanje
ponizen
ponizna
ponizni
ponizno
poniznost
poniznosti
ponj
ponjo
ponoci
ponos
ponosa
ponosen
ponosna
ponosne
ponosnega
ponosni
ponosno
ponosom
ponovi
ponovil
ponovila
ponovitev
ponoviti
ponovna
ponovne
ponovnega
ponovnem
ponovni
ponovno
pont
ponte
ponudba
ponudbe
ponudbo
ponudi
ponudil
ponudila
ponudili
ponuditi
ponuja
ponujajo
ponujal
ponujala
ponujali
pooblastil
pooblastila
pop
popa
popade
pope
popeljal
popelje
poper
popes
popevka
popevke
popil
popis
popisa
popisal
popisati
popisov
popisu
poplacal
poplav
poplave
popoldan
popoldne
popoldneva
popoln
popolna
popolne
popolnega
popolnem
popolni
popolno
popolnoma
popolnost
popolnosti
popoludne
popotni
popotnik
popotnika
popotniki
popotnikov
popotovanje
popov
popovic
poprasa
popraskal
popravi
popravil
popravila
popravili
popravilo
popraviti
popravlja
popravljal
popravljati
popred
poprej
poprijel
poprime
poprosi
poprosil
populacija
populacije
populaciji
populacijo
popular
popularna
popularne
popularni
popularno
population
populations
popusti
popustil
popustila
por
poraba
porabe
porabi
porabijo
porabil
porabila
porabili
porabiti
porabo
porast
poravna
poravnal
poravnati
poraz
poraza
porazdelitev
porazdelitve
porazen
porazena
porazeni
porazi
porazil
porazili
porazom
porazu
porece
porecem
porecja
porecje
porecju
poredni
poredno
porekla
poreklo
porenje
porine
porinil
poroca
porocajo
porocal
porocala
porocali
porocati
porocen
porocena
porocevalec
poroci
porocil
porocila
porocili
porocilih
porocilo
porocilom
porocilu
porociti
porocni
porocnik
porocnika
porocno
porodila
porodu
porogljivo
porok
poroka
poroke
poroki
poroko
port
porta
portal
portala
portalu
porte
porter
porto
portoroz
portrait
portret
portrete
portreti
portretov
portugal
portugalska
portugalske
portugalskem
portugalski
portugalsko
porusen
porusena
porusil
porusili
pos
posadi
posadil
posadila
posadili
posadka
posadke
posadko
posalil
posamezen
posamezna
posamezne
posameznega
posamezni
posameznih
posameznik
posameznika
posameznike
posamezniki
posameznikom
posameznikov
posameznikovo
posamezniku
posameznimi
posamezno
posamicni
posamicnih
posamicno
posast
posasti
posebej
poseben
posebna
posebne
posebnega
posebnem
posebni
posebnih
posebnim
posebnimi
posebno
posebnost
posebnosti
posedal
posedli
poseg
posega
posegel
posegi
posegla
posel
posest
posestev
posesti
posestnik
posestnika
posestniki
posestva
posestvo
posestvu
posevne
posevno
poseze
posijalo
posije
posilja
posiljajo
posiljal
posiljala
posiljali
posiljati
poskoci
poskocil
poskocila
poskodb
poskodba
poskodbe
poskodbo
poskodoval
poskodovala
poskodovan
poskodovana
poskodovane
poskodovanih
poskoduje
poskrbel
poskrbela
poskrbeti
poskrbi
poskus
poskusa
poskusajo
poskusal
poskusala
poskusali
poskuse
poskusi
poskusih
poskusil
poskusila
poskusili
poskusiti
poskusom
poskusov
poskusu
posla
poslabsalo
poslal
poslala
poslali
poslan
poslana
poslanca
poslance
poslancev
poslanci
poslanec
poslani
poslanka
poslanske
poslanstvo
poslati
poslavlja
poslavljal
posle
posledic
posledica
posledicami
posledice
posledicno
posledico
poslednja
poslednje
poslednjega
poslednjem
poslednji
poslednjic
poslednjih
poslednjo
poslej
posli
poslikal
poslikana
poslikane
poslikave
poslje
posljejo
posljem
poslji
posljite
poslopij
poslopja
poslopje
poslopji
poslopju
poslov
poslovanja
poslovanje
poslovenil
poslovi
poslovil
poslovila
poslovili
posloviti
poslovna
poslovne
poslovnega
poslovnez
poslovni
poslovnih
poslovno
poslu
poslusa
poslusaj
poslusajo
poslusajte
poslusal
poslusala
poslusalcev
poslusalci
poslusali
poslusam
poslusat
poslusati
posmeh
posmehljivo
posmehuje
posmejal
posmrtne
posmrtno
posnel
posnela
posneli
posnema
posnemati
posnet
posneta
posnetek
posneti
posnetke
posnetki
posnetkih
posnetkov
posnetku
posod
posoda
posodah
posode
posodi
posodil
posodo
posojila
posojilo
pospeseno
pospesi
pospesil
pospesila
pospesuje
pospravil
posreci
posrecil
posrecilo
posredno
posredoval
posredovanje
posredovanju
posredovati
posreduje
post
posta
postaj
postaja
postajah
postajajo
postajal
postajala
postajale
postajali
postajalisc
postajalisce
postajalo
postaje
postaji
postajo
postal
postala
postale
postali
postalo
postane
postanejo
postanek
postanem
postanes
postar
postaral
postati
postav
postava
postavah
postave
postavi
postavijo
postavil
postavila
postavili
postavilo
postavim
postavimo
postavitev
postaviti
postavitve
postavitvi
postavlja
postavljajo
postavljal
postavljali
postavljati
postavljen
postavljena
postavljene
postavljeni
postavljenih
postavljeno
postavo
poste
postelj
postelja
postelje
postelji
posteljo
posten
postena
postene
postenega
posteni
postenih
postenim
postenjak
postenje
posteno
postenost
postenosti
postev
posti
postna
postne
postni
posto
postojanka
postojanke
postojanko
postoji
postojna
postojni
postopal
postopanje
postopati
postopek
postopka
postopke
postopki
postopkih
postopkom
postopkov
postopku
postopno
postopoma
postrani
postreci
postregel
postregla
postrezbo
postreze
posusi
posuta
posveca
posvecal
posvecen
posvecena
posvecene
posveceni
posvecenje
posveceno
posveti
posvetil
posvetila
posvetili
posvetilo
posvetiti
posvetna
posvetne
posvetni
posvetnih
posvetno
posvetovali
posvetovanje
pot
pota
pote
potece
potegne
potegnejo
potegnil
potegnila
potegnili
potegniti
potegoval
poteh
potek
poteka
potekajo
potekal
potekala
potekale
potekali
potekalo
potekel
potem
potemkin
potemtakem
potencial
potenciala
potencialni
potencialno
potepuh
potez
poteza
potezah
poteze
potezo
poti
potice
potih
potihoma
potil
potipal
potisk
potiska
potisne
potisnil
potisnila
potjo
potlej
potne
potni
potnik
potnika
potnike
potniki
potnikov
potniski
potnisko
potno
potocek
potocnik
potok
potoka
potokar
potoki
potokih
potokom
potokov
potoku
potolazi
potolazil
potolazila
potolaziti
potom
potoma
potomce
potomcev
potomci
potomec
potop
potopi
potopil
potopila
potopili
potopljena
potov
potoval
potovala
potovali
potovalna
potovanj
potovanja
potovanje
potovanjem
potovanjih
potovanju
potovati
potozil
potozila
potrdi
potrdil
potrdila
potrdili
potrdilo
potrditev
potrditi
potreb
potreba
potrebam
potrebami
potrebe
potreben
potrebi
potrebna
potrebne
potrebnega
potrebni
potrebnih
potrebno
potrebo
potreboval
potrebovala
potrebovali
potrebuje
potrebujejo
potrebujem
potrebujemo
potrebujes
potres
potresa
potresi
potresov
potresu
potrjen
potrjena
potrjeno
potrjuje
potrjujejo
potrka
potrkal
potrkala
potrpeti
potrpezljivo
potrpezljivost
potrpi
potrpite
potrt
potrta
potrudil
potter
potu
potuhnil
potuje
potujejo
pouceval
poucevala
poucevanja
poucevanje
poucevati
poucil
poucuje
poudarek
poudaril
poudariti
poudarja
poudarjajo
poudarjal
poudarjena
poudarjeno
poudarkom
pouk
pouka
pouku
pour
povabi
povabil
povabila
povabili
povabilo
povabljen
povabljeni
pove
poveca
povecajo
povecal
povecala
povecali
povecalo
povecan
povecana
povecane
povecanja
povecanje
povecano
povecati
povecini
povecuje
povecujejo
povedal
povedala
povedali
povedano
povedat
povedati
povedel
povedi
povedo
povej
povejte
povelja
povelje
poveljeval
poveljnik
poveljnika
poveljniki
poveljnikom
poveljnikov
poveljniku
poveljstva
poveljstvo
poveljstvom
povem
povemo
poves
poveseno
povesi
povesil
povesila
povest
poveste
povesti
povezal
povezala
povezali
povezan
povezana
povezane
povezani
povezanih
povezano
povezanost
povezanosti
povezati
povezav
povezava
povezave
povezavi
povezavo
poveze
povezoval
povezovala
povezovali
povezovanje
povezuje
povezujejo
povijest
povisal
povisan
povisanje
povod
povoda
povodenj
povodni
povodnji
povojni
povojnih
povprasa
povprasal
povpraseval
povprasevanje
povprecje
povprecju
povprecna
povprecne
povprecni
povprecno
povracilo
povratek
povratku
povrh
povrhu
povrne
povrnem
povrni
povrnil
povrnila
povrniti
povrsin
povrsina
povrsinah
povrsine
povrsini
povrsino
povrsinske
povrsinsko
povrsja
povrsje
povrsju
povrsno
povse
povseci
povsem
povsod
povsodi
povzame
povzdigne
povzdignil
povzdignila
povzdignjen
povzel
povzela
povzetek
povzpel
povzpela
povzroca
povzrocajo
povzroci
povzrocijo
povzrocil
povzrocila
povzrocile
povzrocili
povzrocilo
powell
power
pozabi
pozabijo
pozabil
pozabila
pozabili
pozabim
pozabis
pozabite
pozabiti
pozabljen
pozabljena
pozabljene
pozabljeni
pozabljeno
pozar
pozara
pozari
pozarov
pozaru
pozdrav
pozdrava
pozdrave
pozdravi
pozdravil
pozdravila
pozdravili
pozdraviti
pozdravlja
pozdravljajo
pozdravljal
pozdravljali
pozdravljam
pozdravljen
pozdravljena
pozdravljeni
pozelenje
pozeljivo
pozene
pozgali
pozimi
poziral
pozirek
pozitiven
pozitivna
pozitivne
pozitivni
pozitivnih
pozitivno
poziv
poziva
pozna
poznajo
poznal
poznala
poznali
poznalo
poznam
poznamo
poznan
poznana
poznane
poznani
poznanih
poznano
poznas
poznata
poznate
poznati
poznavanje
pozne
poznega
pozneje
poznejse
poznejsi
poznejsih
poznem
pozni
poznih
pozno
pozor
pozoren
pozorni
pozorno
pozornost
pozornosti
pozornostjo
pozove
pozre
pozreti
pozrl
pozrla
pozval
pozvala
pozvonil
pp
ppogoj
pq
pr
pra
practice
prado
prag
praga
prage
pragi
prago
pragom
pragu
prah
praha
prahom
prahu
praksa
prakse
praksi
prakso
prakticne
prakticni
prakticno
prapor
praprot
praprotnik
prasa
prasal
prasam
prasek
prasica
prasice
praska
praske
praski
prasni
prastevilo
pratt
prav
prava
pravda
pravde
pravdo
prave
pravega
pravem
pravi
pravic
pravica
pravicah
pravicami
pravice
pravicen
pravici
pravicna
pravicni
pravicno
pravicnost
pravicnosti
pravico
pravih
pravijo
pravil
pravila
pravilen
pravili
pravilih
pravilna
pravilne
pravilnega
pravilni
pravilnih
pravilnik
pravilno
pravilo
praviloma
pravim
pravimo
pravis
pravite
praviti
pravkar
pravljic
pravljica
pravljicah
pravljice
pravljici
pravljicno
pravljico
pravna
pravne
pravnega
pravni
pravnih
pravnik
pravnikov
pravno
pravo
pravocasno
pravokotna
pravokotne
pravokotni
pravokotno
pravopis
pravoslavna
pravoslavne
pravoslavni
pravoslavnih
pravoslavno
pravosodje
pravu
pravzaprav
prazen
prazna
prazne
praznega
prazni
praznicno
praznih
praznik
praznika
praznike
prazniki
praznikih
praznikov
prazniku
praznim
praznimi
praznina
praznino
prazno
praznoval
praznovala
praznovali
praznovanja
praznovanje
praznuje
praznujejo
pre
prebavil
prebere
prebije
prebil
prebila
prebili
prebiral
prebiti
prebiva
prebivajo
prebival
prebivala
prebivalca
prebivalce
prebivalcem
prebivalcev
prebivalci
prebivalec
prebivali
prebivalisce
prebivalstva
prebivalstvo
prebivalstvom
prebivalstvu
prebledel
prebledela
preblizu
preboj
prebral
prebrala
prebrati
prebudi
prebudil
prebudila
prec
precej
precejsen
precejsnje
precejsnjo
precital
precka
preckal
preckala
precno
precudno
pred
preda
predajo
predal
predala
predalec
predali
predan
predati
predava
predaval
predavanj
predavanja
predavanje
predavatelj
predcasno
prede
predel
predela
predelal
predelana
predelavo
predele
predeli
predelih
predelov
predelu
preden
predenj
predgovor
predhodne
predhodnica
predhodnih
predhodnik
predhodnika
predhodniki
predhodnikov
predhodno
predla
predlaga
predlagal
predlagala
predlagali
predlagam
predlagan
predlog
predloga
predloge
predlogi
predlogom
predlogov
predlogu
predlozil
predmestja
predmestje
predmestju
predmet
predmeta
predmete
predmeti
predmetih
predmetov
predmetu
prednik
prednika
predniki
prednikov
prednje
prednji
prednjo
predno
prednost
prednosti
predobro
predolgo
predor
predora
predpasnik
predpasnikom
predpise
predpisi
predpisov
predpostavlja
predraga
predragi
predrami
predramil
predrzen
predrzni
predrzno
predrznost
predse
predsednica
predsednik
predsednika
predsednikom
predsednikov
predsedniku
predsedniskih
predsedoval
predsedstva
predsedstvo
predsodkov
predstav
predstava
predstavah
predstave
predstavi
predstavil
predstavila
predstavili
predstavitev
predstaviti
predstavitve
predstavitvi
predstavlja
predstavljajo
predstavljal
predstavljala
predstavljale
predstavljali
predstavljalo
predstavljamo
predstavljata
predstavljati
predstavljen
predstavljena
predstavljene
predstavljeni
predstavnica
predstavnik
predstavnika
predstavnike
predstavniki
predstavnikov
predstavo
predstojnik
predstojnika
predvajal
predvajali
predvajana
predvecer
predvideva
predvsem
prefekt
prefekta
prefektura
preganja
preganjajo
preganjal
preganjala
preganjali
preganjanja
preganjanje
preganjati
pregelj
pregl
preglavice
pregled
pregleda
pregledal
pregledala
pregledali
pregledati
pregledoval
pregledovalnik
pregledu
pregnal
pregnala
pregnali
pregnati
pregona
pregovor
pregovori
pregovoril
pregovoriti
pregrada
pregrade
pregrehe
pregresil
pregresno
prehaja
prehajajo
prehitel
prehitela
prehiteti
prehitro
prehladil
prehod
prehoda
prehodi
prehodil
prehodno
prehodom
prehodov
prehodu
prehrana
prehrane
prehrani
prehranjuje
prehranjujejo
prehrano
prehudo
preide
preimenoval
preimenovala
preimenovali
preimenovan
preimenovana
preiskal
preiskali
preiskati
preiskava
preiskave
preiskavi
preiskavo
preiskovalna
preiskovalni
preizkus
prej
preje
prejel
prejela
prejeli
prejelo
prejemal
prejemnik
prejemnikov
prejeti
prejme
prejmejo
prejsnja
prejsnje
prejsnjega
prejsnjem
prejsnji
prejsnjih
prejsnjim
prejsnjo
prek
prekine
prekinil
prekinila
prekinili
prekinitev
prekiniti
prekinjena
prekleta
prekleti
prekleto
prekletstvo
preklical
preklinjal
prekmurja
prekmurje
prekmurju
preko
prekomerno
prekop
prekopa
prekoracil
prekrasen
prekrasna
prekrasno
prekrita
prekriva
prekrivajo
prekrizal
prekrizala
prelaz
prelaza
prelazu
prelepa
prelepe
prelepi
prelepo
preletel
preliv
preliva
preljuba
preljubi
prelom
prelomi
prelomil
prelomu
premaga
premagajo
premagal
premagala
premagali
premagan
premagati
premagoval
premagovati
premajhen
premajhna
premakne
premaknil
premaknila
premakniti
premalo
premec
premer
premera
premeril
premerom
premeru
premescen
premestili
premetaval
premier
premiera
premierno
premiero
premik
premika
premikajo
premikal
premikala
premikanje
premikati
premio
premirja
premirje
premisli
premislil
premislila
premislite
premisliti
premislja
premisljal
premisljala
premisljeno
premisljeval
premisljevala
premisljevanja
premisljevanje
premisljevanju
premisljevati
premisljuje
premisljujem
premlad
premoc
premoci
premog
premoga
premore
premozen
premozenja
premozenje
premozni
prenasa
prenasajo
prenasal
prenasala
prenasali
prenasati
preneha
prenehal
prenehala
prenehali
prenehalo
prenese
prenesejo
prenesel
prenesla
prenesli
prenesti
prenocil
prenocisca
prenocisce
prenociti
prenos
prenosa
prenosu
prenova
prenove
prenovi
prenovljena
prenovo
preoblekel
preoblikoval
preoblikovanje
preobrat
preostala
preostale
preostali
preostalih
preostalo
preostanek
prepad
prepada
prepeljali
prepeva
prepeval
prepevala
prepevali
prepir
prepira
prepirala
prepirali
prepirati
prepiri
prepiru
prepis
prepisal
preplasen
preplasena
preplaseni
preplaseno
prepletajo
preporod
prepoved
prepovedal
prepovedala
prepovedali
prepovedan
prepovedana
prepovedane
prepovedano
prepovedi
prepoveduje
prepozna
prepoznal
prepoznali
prepoznamo
prepoznati
prepoznavanje
prepoznaven
prepoznavna
prepozno
preprecevanje
preprecevanju
prepreci
preprecijo
preprecil
preprecila
preprecili
prepreciti
preprecuje
preprecujejo
preprica
preprical
prepricala
prepricali
preprican
prepricana
prepricani
prepricanj
prepricanja
prepricanje
prepricanjem
prepricanju
prepricati
prepricljivo
preproge
preprogo
preprost
preprosta
preproste
preprostega
preprosti
preprostih
preprosto
prepusti
prepustil
prepustila
prepustili
prepustiti
prerok
preroka
presega
presegajo
presegel
presek
preseka
presekal
presel
preseli
preselil
preselila
preselili
preselilo
preseliti
presenecen
presenecena
preseneceni
presenecenja
presenecenje
preseneceno
presenetil
presenetila
presenetljivo
present
preseren
presern
preserna
preserno
presernov
presernova
presernove
presernovega
presernovih
presernovo
presernu
president
presine
presinila
presinilo
preskocil
preskrbel
preskrbeti
preskrbi
presla
presledkih
presli
preslisal
preslo
presneto
prespal
presrcno
press
prestal
prestala
prestane
prestanka
prestati
prestavil
prestavili
prestavljen
prestel
prestol
prestola
prestolnica
prestolnice
prestolnici
prestolnico
prestolonaslednik
prestolonaslednika
prestolu
prestop
prestopi
prestopil
prestopila
prestopiti
prestopnih
prestopno
prestrasen
prestrasena
prestraseni
prestraseno
prestrasi
prestrasil
prestrasila
prestrasili
prestregel
pretaka
pretece
pretege
pretekla
pretekle
preteklega
pretekli
preteklih
preteklo
preteklost
preteklosti
pretep
pretepal
pretepel
pretezko
pretezno
preti
pretila
pretirano
pretnar
pretok
pretoka
pretrese
pretresel
pretresla
pretreslo
pretrga
pretrgal
pretrgala
pretrpel
pretvarja
pretvezo
pretvorbo
pretvori
preuceval
preucevanje
preucevanju
preucuje
preudarjal
preuredili
prev
prevaja
prevajal
prevajalcev
prevajalec
prevajalka
prevajanja
prevajanje
prevajanju
prevara
prevare
prevaro
prevec
prevedel
prevedena
prevedeno
prevedla
prevedli
prevelik
prevelika
prevelike
prevelikega
preveliko
prevention
preveri
preveriti
preverjanje
preverjen
previden
previdni
previdno
previdnost
previdnosti
previsoko
prevlado
prevladovala
prevladovali
prevladuje
prevladujejo
prevladujoca
prevod
prevoda
prevode
prevodi
prevodov
prevodu
prevoz
prevoza
prevrnil
prevzame
prevzamejo
prevzel
prevzela
prevzeli
prevzelo
prevzem
prevzema
prevzemu
prevzet
prevzeti
prezbiterij
prezbiterija
prezene
prezgodaj
prezi
prezira
prezirljivo
prezivel
prezivela
prezivele
preziveli
prezivelih
prezivelo
preziveti
prezivetja
prezivetje
prezivi
prezivijo
prezivljal
prezivljala
prezrl
pri
pribliza
priblizal
priblizala
priblizali
priblizati
priblizek
priblizno
priblizuje
priboril
pric
prica
pricajo
pricakoval
pricakovala
pricakovali
pricakovanja
pricakovanje
pricakovanju
pricakovano
pricakovati
pricakuje
pricakujejo
pricakujem
pricakujemo
prical
pricala
pricalo
price
pricel
pricela
pricele
priceli
pricelo
pricenja
priceti
pricevanje
prici
pricne
pricnejo
prico
prid
prida
pride
pridejo
pridelek
pridelka
pridelke
pridelki
pridelkov
pridem
pridemo
priden
prides
prideta
pridete
prideva
pridevnik
pridi
pridiga
pridigal
pridigar
pridige
pridigo
pridite
pridna
pridne
pridni
pridno
pridobi
pridobijo
pridobil
pridobila
pridobili
pridobitev
pridobiti
pridobitve
pridobiva
pridobivajo
pridobivanja
pridobivanje
pridobljena
pridobljene
pridobljeni
pridobljeno
pridruzi
pridruzijo
pridruzil
pridruzila
pridruzili
pridruzilo
pridruziti
pridrzal
priganjal
prignal
prigodilo
prigovarja
prigovarjal
prigovarjala
prigovarjanje
prihaja
prihajajo
prihajal
prihajala
prihajale
prihajali
prihajalo
prihajam
prihajas
prihajati
prihitel
prihitela
prihiteli
prihiti
prihod
prihoda
prihodkov
prihodnje
prihodnjega
prihodnji
prihodnjic
prihodnjih
prihodnjo
prihodnjost
prihodnost
prihodnosti
prihodom
prihodu
prihranil
priimek
priimka
priimke
priimki
priimkov
prijatel
prijatelj
prijatelja
prijatelje
prijateljem
prijateljev
prijatelji
prijateljica
prijateljice
prijateljici
prijateljico
prijateljski
prijateljsko
prijateljstva
prijateljstvo
prijateljstvu
prijatelju
prijavil
prijazen
prijazna
prijazne
prijaznega
prijaznem
prijazni
prijaznih
prijaznim
prijazno
prijaznost
prijaznosti
prijel
prijela
prijeli
prijelo
prijeten
prijeti
prijetna
prijetne
prijetnega
prijetni
prijetnih
prijetno
prijezdil
prikaz
prikazal
prikazala
prikazali
prikazalo
prikazan
prikazana
prikazane
prikazani
prikazano
prikazati
prikaze
prikazejo
prikazen
prikazni
prikazuje
prikazujejo
prikima
prikimal
prikimala
prikljucena
prikljucil
prikljucila
prikljucitev
prikloni
priklonil
prikriti
prikrito
prikupil
prilagajanje
prilagoditev
prilagoditi
prilagoditve
prilagojena
prilagojene
priletel
priletela
prileti
prileze
prilezel
prilika
prilikah
prilike
priliki
priliko
priljubljen
priljubljena
priljubljene
priljubljeni
priljubljenih
priljubljeno
priljubljenost
priljubljenosti
priloga
priloznost
priloznosti
priloznostih
prim
prima
primanjkovalo
primanjkuje
primarna
primarne
primarni
primarnih
primarno
primary
prime
primejo
primer
primera
primere
primerek
primeren
primeri
primerih
primerilo
primerja
primerjaj
primerjal
primerjali
primerjalna
primerjalne
primerjalno
primerjamo
primerjati
primerjava
primerjavi
primerjavo
primerki
primerkov
primerna
primerne
primernega
primerni
primernih
primerno
primerov
primeru
primi
primoran
primorje
primorska
primorske
primorskem
primorski
primorskih
primorsko
primoz
primoza
prinasa
prinasajo
prinasal
prinasala
prinasali
princ
princa
prince
princem
princesa
princese
princeska
princeso
princess
princeton
princip
principles
principu
princu
prinese
prinesejo
prinesel
prinesem
prinesi
prinesite
prinesla
prinesle
prinesli
prineslo
prineso
prinesti
print
priobcil
prior
pripada
pripadajo
pripadal
pripadala
pripadali
pripadalo
pripadel
pripadla
pripadlo
pripadnik
pripadnike
pripadniki
pripadnikov
pripadnost
pripadnosti
pripekalo
pripeljal
pripeljala
pripeljali
pripeljalo
pripeljati
pripelje
pripeljejo
pripeti
pripetila
pripetilo
pripisal
pripisali
pripisana
pripisati
pripisovali
pripisuje
pripisujejo
priplazil
pripombe
pripomni
pripomnil
pripomnila
pripomocek
pripomocke
pripomocki
pripomockov
pripomogel
pripomogla
pripomogli
pripomoglo
pripomore
priporoca
priporocajo
priporocal
priporocam
priporocil
priporocila
priporocilo
priporocljivo
pripoved
pripovedi
pripovedka
pripovedke
pripovedna
pripovedne
pripovedni
pripovedoval
pripovedovala
pripovedovalca
pripovedovalec
pripovedovali
pripovedovanja
pripovedovanje
pripovedovanjem
pripovedovanju
pripovedovati
pripoveduje
pripovedujejo
pripovedujem
priprav
priprava
pripravah
pripravami
priprave
pripraven
pripravi
pripravijo
pripravil
pripravila
pripravili
pripravite
pripraviti
pripravlja
pripravljajo
pripravljal
pripravljala
pripravljali
pripravljati
pripravljen
pripravljena
pripravljene
pripravljeni
pripravljenih
pripravljeno
pripravljenost
pripravljenosti
pripravno
pripravo
priprosto
priredba
priredbo
priredil
priredila
priredili
prireditev
prireditvah
prireditve
prireditvi
prirocnik
priroda
prirode
prirodi
prirojena
prirojene
prirojeno
prisa
priseci
prisede
prisedel
prisedla
prisedsi
prisega
prisegam
prisege
prisegel
prisegla
prisegli
prisego
prisel
priseljencev
priseljenci
prisezem
prisili
prisilil
prisilila
prisilili
prisiliti
prisiljen
prisiljena
prisiljeni
prisiljeno
prisilno
priskoci
priskocil
priskrbel
prisla
prisle
prislec
prisli
prislo
prisluhnil
prisluskoval
prisluzil
prisluzila
prisoten
prisotna
prisotne
prisotni
prisotnih
prisotno
prisotnost
prisotnosti
prispe
prispel
prispela
prispeli
prispeva
prispevajo
prispeval
prispevala
prispevali
prispevek
prispevke
prispevki
prispevkov
prisrcno
pristal
pristala
pristali
pristan
pristane
pristanek
pristanisc
pristanisca
pristanisce
pristaniscu
pristasi
pristava
pristavi
pristavil
pristavila
pristavo
pristevamo
pristno
pristojnost
pristojnosti
pristop
pristopa
pristopi
pristopil
pristopila
pritajeno
pritece
pritegnil
pritegnila
pritekel
pritekla
priti
pritisk
pritiska
pritiskal
pritiskala
pritiskom
pritisne
pritisnil
pritisnila
pritlicje
pritlicju
pritlikavec
pritok
pritoka
pritoki
pritokov
pritozbe
pritozbo
pritozil
pritrdi
pritrdil
pritrdila
pritrdili
pritrjen
pritrjena
pritrjene
pritrjeval
privabil
privadi
privadil
privadila
private
privatno
privede
privedel
privedla
privedli
privedlo
privezal
privezali
privezan
priveze
privid
privil
privilegij
privilegije
privlacnost
privlekel
privolil
privolila
privosci
privoscil
privoscila
privoscili
privoscim
privosciti
privrzencev
privrzenci
privzdignil
prix
prizadel
prizadela
prizadelo
prizadene
prizadet
prizadeta
prizadeti
prizadeva
prizadevajo
prizadeval
prizadevala
prizadevali
prizadevanj
prizadevanja
prizadevanje
prizadevanju
prize
prizgal
prizgala
prizgali
prizge
prizma
prizna
priznal
priznala
priznali
priznam
priznan
priznana
priznani
priznanih
priznanj
priznanja
priznanje
priznati
priznava
priznavajo
priznica
priznico
prizor
prizora
prizore
prizori
prizorisce
prizoriscu
prizorov
prizoru
pro
problem
problema
problematiko
probleme
problemi
problemih
problemov
problems
proc
proceedings
procelje
procelju
proces
procesa
procese
procesi
procesih
procesija
procesije
procesiji
procesijo
procesom
procesov
process
procesu
prod
proda
prodaj
prodaja
prodajajo
prodajal
prodajala
prodajalec
prodajali
prodajalnico
prodajalno
prodajati
prodaje
prodaji
prodajo
prodal
prodala
prodali
prodam
prodan
prodana
prodanih
prodati
prodor
prodre
prodreti
prodrl
prodrla
prodrli
produ
producent
producenta
produciral
product
production
productions
products
produkcija
produkcije
produkciji
produkcijo
produkt
produkta
produkti
produktivnost
produktov
prof
profesionalni
profesionalno
profesor
profesorica
profesorja
profesorjem
profesorjev
profesorji
profesorju
professional
professor
profil
profile
prog
proga
proge
progi
proglasen
proglasil
progo
program
programa
programe
programi
programih
programiranje
programme
programom
programov
programska
programske
programski
programsko
programu
progress
proizvaja
proizvajajo
proizvajalca
proizvajalcev
proizvajalci
proizvajalec
proizvajali
proizvede
proizvod
proizvodi
proizvodnja
proizvodnje
proizvodnji
proizvodnjo
proizvodov
project
projects
projekt
projekta
projekte
projekti
projektih
projektom
projektov
projektu
prokleta
prokleti
prokleto
promet
prometa
prometna
prometne
prometni
prometnih
prometno
prometu
promocijo
promoviral
propad
propada
propadel
propadla
propadlo
propadu
propaganda
propagando
properties
proracun
proracuna
prosec
prosece
prosi
prosijo
prosil
prosila
prosili
prosim
prosimo
prosit
prositi
prosnja
prosnje
prosnji
prosnjo
proso
prost
prosta
proste
prostega
prostem
prosti
prostih
prostim
prosto
prostor
prostora
prostore
prostori
prostorih
prostorna
prostorni
prostornina
prostornine
prostornino
prostorno
prostorom
prostorov
prostorske
prostorsko
prostoru
prostost
prostosti
prostovoljcev
prostovoljci
prostovoljec
prostovoljno
prostrani
prosvetni
protected
protection
protein
proteinov
protest
protesta
protestanti
protestantov
protestantske
protestantski
protestantskih
protesti
protestov
proti
protipapez
protipomenke
protiteles
protitelesa
protokol
proton
protonov
prototip
prouceval
proucevanje
provence
provinc
provinca
provincah
province
provinci
provincia
provinco
provizor
proza
proze
prozi
prozno
prozo
prs
prsa
prsi
prsih
prst
prsta
prstan
prstana
prstanov
prste
prsti
prstih
prstom
prstov
prt
prtljago
prtom
prusija
prusije
prusijo
pruski
prva
prvak
prvaka
prvaki
prvakinja
prvakinje
prvakov
prve
prvega
prvem
prvemu
prvenec
prvenstva
prvenstvenih
prvenstvih
prvenstvo
prvenstvu
prvi
prvic
prvih
prvikrat
prvim
prvimi
prvine
prvo
prvotna
prvotne
prvotnega
prvotnem
prvotni
prvotnih
prvotno
ps
psa
pse
psenica
psenice
psenico
psevdonim
psevdonimom
psi
psicek
psihiater
psihicno
psiholog
psihologija
psihologije
psihologijo
psiholoske
psiholoski
psiholosko
psom
psov
pst
psu
psychiatry
psychological
psychology
pt
ptic
ptica
ptice
pticek
pticev
ptici
pticica
pticje
pticka
pticke
pticki
ptico
ptolemaj
ptuj
ptuja
ptujski
ptuju
pu
pub
public
publication
publications
publicist
publicistka
publikacij
publikacijah
publikacije
published
publisher
publishers
publishing
publius
puerto
puh
pulj
pulju
punca
punce
puncka
puncko
punco
punk
punt
punta
pure
pusca
puscal
puscava
puscave
puscavi
puscavnik
puscavo
puscica
puscice
puscico
pusk
puska
puskami
puske
pusko
pust
pusta
puste
pustet
pusti
pustijo
pustil
pustila
pustili
pustim
pustimo
pustis
pustite
pustiti
pustiva
pusto
pustolovec
put
putin
putnam
pv
pw
px
py
python
pz
pzs
q
q0
q1
q2
q3
q4
q5
q6
q7
q8
q9
qa
qb
qc
qd
qe
qf
qg
qh
qi
qj
qk
ql
qm
qn
qo
qp
qq
qquad
qr
qs
qt
qu
quad
quality
quantum
quarterly
que
quebec
queen
query
questions
qui
quo
quod
qv
qw
qx
qy
qz
r
r0
r1
r2
r3
r4
r5
r6
r7
r8
r9
ra
raba
rabe
rabelj
rabi
rabijo
rabil
rabila
rabili
rabim
rabiti
rabo
raca
race
rachel
racing
racko
racun
racuna
racunal
racunalnik
racunalnika
racunalniki
racunalnikov
racunalniku
racunalniska
racunalniske
racunalniski
racunalniskih
racunalnisko
racunalnistvo
racunanje
racunati
racune
racuni
racunov
rad
rada
radar
rade
radgona
radi
radia
radic
radijska
radijske
radijski
radijskih
radijsko
radikalno
radio
radiu
radivoj
rado
radoslav
radost
radosti
radostjo
radostno
radovan
radoveden
radovedna
radovedni
radovedno
radovednost
radovednosti
radovljica
radovljici
radovoljno
raf
rafael
raffaele
rahel
rahla
rahlo
rail
railroad
railway
rain
rainer
raj
raja
raje
rajh
rajha
raji
rajko
rajmond
rajnega
rajni
rajnki
rajsa
rajse
rajsi
rajski
raju
rak
raka
rake
raket
raketa
rakete
raketni
rakev
raki
rakom
rakospalota
rakov
rakovec
raku
ralph
ram
ramah
ramami
rame
ramen
ramena
rameni
ramenih
rami
ramo
ramon
ramovsa
ramzesa
ran
rana
random
rane
rang
rangle
rani
ranil
ranila
ranjen
ranjena
ranjenca
ranjence
ranjencev
ranjenec
ranjenega
ranjeni
ranjenih
ranjeno
rano
raphael
ras
rasa
rase
rasel
raskega
rasla
rasle
rasli
raslo
rast
raste
rastejo
rastel
rasti
rastislav
rastla
rastlin
rastlina
rastlinah
rastlinami
rastline
rastlini
rastlino
rastlinske
rastlinski
rastlinskih
rastlinstvo
rastlo
rasto
rat
ravan
ravbar
raven
ravna
ravnajo
ravnal
ravnala
ravnali
ravnanja
ravnanje
ravnanju
ravnatelj
ravnatelja
ravnatelju
ravnati
ravne
ravneh
ravnem
ravni
ravnice
ravnici
ravnih
ravnik
ravnikar
ravnina
ravnine
ravnini
ravnino
ravno
ravnodusno
ravnokar
ravnotezja
ravnotezje
ravnovesje
ray
raymond
raz
razbije
razbil
razbila
razbili
razbiti
razbito
razbojnik
razbojnika
razbojniki
razbojnikov
razbrati
razburil
razburjen
razburjena
razburjeni
razburjenja
razburjenje
razburjeno
razburjenost
razburjenosti
razcvet
razdalja
razdalje
razdalji
razdaljo
razdeli
razdelil
razdelila
razdelili
razdelimo
razdelitev
razdeliti
razdelitvi
razdeljen
razdeljena
razdeljene
razdeljeni
razdeljeno
razen
razglasen
razglasena
razglasi
razglasil
razglasila
razglasili
razglasitev
razglasitvi
razgled
razgleda
razgledi
razgovarjal
razgovarjala
razgovarjali
razgovor
razgovora
razgovoru
razgrnil
raziskav
raziskava
raziskavah
raziskavami
raziskave
raziskavi
raziskavo
raziskoval
raziskovalcev
raziskovalci
raziskovalec
raziskovali
raziskovalka
raziskovalna
raziskovalne
raziskovalnega
raziskovalnem
raziskovalni
raziskovalnih
raziskovalno
raziskovanja
raziskovanje
raziskovanjem
raziskovanju
raziskovati
raziskuje
razjarjen
razjasni
razjasnil
razjasniti
razjeda
razjezi
razjezil
razjezila
razjokal
razjokala
razkladal
razkol
razkosje
razkosno
razkrije
razkril
razkrila
razkriti
razkriva
razlag
razlaga
razlagajo
razlagal
razlagala
razlagali
razlagati
razlage
razlagi
razlago
razlega
razlegal
razlegalo
razlicen
razlicic
razlicica
razlicicah
razlicice
razlicici
razlicico
razlicna
razlicne
razlicni
razlicnih
razlicnim
razlicnimi
razlicno
razlije
razlik
razlika
razlike
razliko
razlikoval
razlikovala
razlikovali
razlikovanje
razlikovati
razlikuje
razlikujejo
razlikujeta
razlil
razlila
razlocek
razlocil
razlocitev
razlociti
razlocka
razlocno
razlog
razloga
razloge
razlogi
razlogov
razlozeno
razlozi
razlozil
razlozila
razloziti
razmer
razmerah
razmeram
razmere
razmerij
razmerja
razmerje
razmerjih
razmerju
razmeroma
razmislja
razmisljal
razmisljala
razmisljanja
razmisljanje
razmisljanju
razmisljati
razmnozevanje
razmnozuje
razna
razne
raznesla
razni
raznih
raznim
raznimi
razno
raznolika
raznolike
raznoliko
raznolikost
raznolikosti
raznovrstne
raznovrstnost
raznovrstnosti
razocaran
razocarana
razocaranja
razocaranje
razodel
razodela
razodene
razodeti
razodetje
razodeva
razpad
razpada
razpade
razpadel
razpadla
razpadom
razpadu
razpelo
razpis
razpoke
razpolago
razpolozenja
razpolozenje
razpolozenju
razpon
razporeditev
razporejene
razporejeni
razposajeno
razprav
razprava
razprave
razpravi
razpravlja
razpravljal
razpravljali
razpravo
razprostira
razprostirajo
razprostirala
razprostrl
razpuscen
razred
razreda
razrede
razredi
razredih
razredov
razredu
razrezali
razseznost
razseznosti
razsiri
razsiril
razsirila
razsirile
razsirili
razsirilo
razsiritev
razsiriti
razsirja
razsirjanje
razsirjen
razsirjena
razsirjene
razsirjeni
razsirjeno
razsirjenost
razsirjenosti
razsla
razsli
razsrdil
razstav
razstava
razstavah
razstave
razstavi
razstavljena
razstavo
razsvetljena
razsvetljeno
razsvetljenstva
razteza
raztezajo
raztopina
raztopine
raztopini
raztopino
raztresene
raztreseni
raztrga
raztrgal
raztrgala
raztrgan
raztrgane
raztrgani
raztrgano
razum
razuma
razume
razumejo
razumel
razumela
razumeli
razumem
razumemo
razumen
razumes
razumete
razumeti
razumevanja
razumevanje
razumevanju
razumljivo
razumno
razumom
razun
razvalin
razvalinah
razvaline
razvedrila
razvedrilo
razven
razveseli
razveselil
razveselila
razvidno
razvija
razvijajo
razvijal
razvijala
razvijali
razvijanje
razvijati
razvije
razvijejo
razvil
razvila
razvile
razvili
razvilo
razvit
razvita
razvite
razviti
razvitih
razvito
razvnel
razvoj
razvoja
razvojem
razvojne
razvojni
razvojno
razvoju
razvrsceni
razvrstitev
razzalil
rb
rc
rd
rdec
rdeca
rdece
rdecega
rdecem
rdeci
rdecica
rdecih
rdecim
rdecimi
rdeckasto
rdeco
re
read
reading
reagira
reakcij
reakcija
reakcijah
reakcije
reakciji
reakcijo
reaktivni
reaktor
reaktorja
real
realisticno
reality
realizem
realizma
realna
realne
realni
realnih
realno
realnost
realnosti
rebecca
rebeka
reber
rebra
rebri
rec
rece
receh
recejo
recem
recemo
receno
recent
recept
receptor
receptorje
receptorjev
reces
reci
recimo
recite
recne
recni
recnih
record
recording
records
red
reda
rede
redek
redi
redka
redke
redkeje
redki
redkih
redkimi
redko
redkokdaj
redna
redne
rednega
rednem
redni
rednih
redno
redom
redov
redovnica
redovnik
redu
reed
ref
reference
referendum
referendumu
reform
reforma
reformacije
reforme
reformi
reformo
regensburg
regent
regij
regija
regijah
regije
regiji
regijo
regiment
regimental
regina
reginald
region
regional
regionalna
regionalne
regionalni
regionalnih
regionalno
regions
register
registra
reich
reid
rejo
rek
reka
rekah
reke
rekel
reki
rekla
rekle
rekli
reklo
reko
rekoc
rekonstrukcija
rekord
rekordov
reksi
rektor
related
relations
relativna
relativno
relativnosti
release
relief
reliefi
reliefu
religij
religija
religije
religiji
religijo
religion
religious
relikvije
remix
ren
rena
renaissance
renata
renato
renault
rene
renesancna
renesancne
renesancnega
renesancni
renesancnih
renesancno
renesansa
renesanse
renesansi
renu
reorganizacijo
rep
repa
repe
repertoar
repic
repo
repom
report
reporter
reports
reprezentanc
reprezentanca
reprezentance
reprezentanci
reprezentancni
reprezentanco
repu
republic
republicki
republik
republika
republike
republiki
republiko
republiski
res
research
resen
resena
reseni
reserve
resevanja
resevanje
resevanju
resi
resijo
resil
resila
resili
resilo
resim
resistance
resite
resitelj
resitev
resiti
resitve
resitvi
resna
resne
resnega
resni
resnic
resnica
resnice
resnicen
resnici
resnicna
resnicne
resnicnega
resnicni
resnicnih
resnicno
resnicnost
resnicnosti
resnico
resnih
resnik
resnim
resno
resonancno
resource
resources
response
restavracija
restavracije
restavraciji
restavracijo
resuje
results
retrieved
return
reuters
rev
reva
revcek
reve
reven
revez
reveza
revezi
revica
review
reviews
revij
revija
revijah
revije
reviji
revijo
revised
revna
revne
revni
revnih
revnim
revno
revolucija
revolucije
revoluciji
revolucijo
revolucionar
revolucionarne
revolution
revolver
revscina
revscine
revscini
revscino
revue
rex
rey
reynolds
rez
reza
rezal
rezala
rezali
reze
rezek
rezervat
rezervata
rezervne
rezervni
rezervoar
rezi
rezidenca
rezidenco
rezija
reziji
rezijo
rezika
reziki
reziko
rezim
rezima
rezimu
reziral
reziser
reziserja
reziserjev
reziserka
rezka
rezko
rezo
rezultat
rezultate
rezultati
rezultatom
rezultatov
rf
rg
rh
rhin
rho
rhone
ri
ria
riaa
rib
riba
ribami
ribe
ribic
ribica
ribice
ribici
ribicic
ribje
ribnica
ribnici
ribnik
ribo
ribolov
ricardo
riccardo
ricci
rice
rich
richard
richarda
richards
richardson
richter
rick
ricordi
riga
right
rights
rihard
riharda
rijeka
rim
rima
rime
rimljane
rimljani
rimljanom
rimljanov
rimom
rimska
rimske
rimskega
rimskem
rimskemu
rimski
rimskih
rimskim
rimskimi
rimsko
rimskokatoliska
rimskokatoliske
rimskokatoliski
rimskokatoliskih
rimu
ring
rio
ris
risal
risanje
risar
risb
risba
risbe
rise
riserva
risk
rita
ritem
ritmalssafn
ritmu
ritoper
ritter
river
rivera
riz
riza
rj
rjav
rjava
rjave
rjavega
rjavi
rjavih
rjavo
rjuhe
rjuho
rk
rkdartists
rl
rm
rms
rn
rna
rnk
ro
road
rob
roba
robcem
robe
robec
robert
roberta
roberto
robertom
roberts
robertson
robertu
robi
robin
robinson
robo
robom
robot
robov
robove
robovi
robovih
robu
rocaj
roche
rochefort
roci
rocice
rocico
rock
rocka
rockline
rocno
rod
roda
rodbin
rodbina
rodbine
rodbini
rodbino
rode
rodi
rodil
rodila
rodile
rodili
rodilo
roditeljev
rodne
rodni
rodno
rodoljub
rodom
rodov
rodovi
rodovina
rodovine
rodovitna
rodovitno
rodriguez
rodu
rog
roga
rogal
rogaska
rogatec
roger
rogers
rogovi
rogu
roj
rojak
rojaka
rojake
rojaki
rojakom
rojakov
roje
rojen
rojena
rojene
rojeni
rojeno
roji
rojstna
rojstnega
rojstnem
rojstni
rojstnih
rojstno
rojstva
rojstvo
rojstvom
rojstvu
rok
roka
rokah
rokama
rokami
rokav
rokava
rokave
rokavi
rokavice
rokavom
roke
roki
roko
rokometas
rokometasev
rokometne
rokopis
rokopisa
rokopise
rokopisi
rokopisov
rokopisu
rokovnjac
rokovnjaci
roku
roland
rolanda
role
rolf
roll
rolling
rolls
rom
roma
romal
roman
romana
romance
romane
romani
romania
romanih
romanja
romanje
romano
romanom
romanov
romanska
romanske
romanski
romanskih
romansko
romanticna
romanticne
romanticni
romanticno
romantika
romantike
romanu
romar
romarjev
romarji
romarska
romarsko
rome
romeo
rommel
romunija
romunije
romuniji
romunska
romunski
romunskih
romunsko
ron
rona
ronald
room
roosevelt
rop
ropar
roparja
roparjev
roparji
roparski
ropot
ropotanje
ros
rosa
rose
rosi
rosne
rosno
roso
ross
rossi
roth
rotil
rotor
rotorja
rotten
round
rousseau
routledge
rov
rovan
rovu
roy
royal
royce
roz
roza
rozalka
rozami
rozanc
roze
rozi
rozic
rozica
rozice
rozman
rozmarin
roznate
roznato
roznega
rozni
roznika
rozo
rozu
rp
rq
rr
rs
rsssf
rt
rta
rtu
rtv
rtvslo
ru
rubens
rubin
rubrika
ruda
rudar
rudarjev
rudarji
rudarski
rude
rudeca
rudece
rudeci
rudi
rudnik
rudnika
rudnikih
rudnikov
rudniku
rudo
rudolf
rudolfa
rue
rum
rumen
rumena
rumene
rumenega
rumeni
rumenih
rumenimi
rumenkasto
rumeno
run
rupel
rupert
rupnik
rus
rusa
ruscina
ruscine
ruscini
ruse
rusenje
rusevin
rusevinah
rusevine
rusi
rusija
rusije
rusiji
rusijo
rusilcev
rusilec
ruska
ruske
ruskega
ruskem
ruski
ruskih
ruskim
rusko
rusom
rusov
russell
russia
russian
ruta
rutar
rute
ruth
ruto
rv
rw
rx
ry
ryan
ryholt
rz
rzen
s
s0
s1
s2
s3
s4
s5
s6
s7
s8
s9
sa
saab
sabina
sabine
sablja
sablje
sabljo
sabo
saboj
sacred
sad
sadez
sadja
sadje
sadjem
sadu
safety
saga
sage
sah
saha
sahist
sahovska
sahovski
said
saint
sainte
saints
saj
saje
sakaj
saksofon
sal
sala
salamun
sale
saleski
sali
salil
saljivo
salko
salo
saloma
salomon
salon
salona
salonu
salt
salvador
salvatore
salzburg
salzburgu
sam
sama
samca
samcev
samci
same
samec
samega
samem
samemu
sami
samic
samica
samice
samih
samim
samimi
samo
samodejno
samokres
samomor
samostalnik
samostan
samostana
samostane
samostani
samostanom
samostanov
samostanska
samostanske
samostanski
samostanskih
samostansko
samostanu
samostojen
samostojna
samostojne
samostojnega
samostojni
samostojnih
samostojno
samostojnost
samostojnosti
samota
samotar
samote
samoten
samoti
samotna
samotne
samotnem
samotni
samotnih
samotno
samoto
samouprava
samouprave
samoupravne
samoupravnih
samozalozba
samozalozbi
samozavest
samozavesti
samozavestno
sampanjca
samuel
san
sanchez
sancin
sand
sandi
sandor
sandra
sandro
sani
sanj
sanja
sanjah
sanjal
sanjala
sanjalo
sanjam
sanjavo
sanje
sankt
sant
santa
santana
santiago
santo
santos
sao
sapa
sape
sapi
sapica
sapo
sar
sara
sarah
sarajevo
sarajevu
sarec
sarkofag
saro
sars
sas
sasa
saska
saske
saski
sasko
saso
sastav
satan
satelit
satelitov
satelitski
satellite
satellites
satira
sato
saturn
saunders
sava
save
savi
savici
savinjski
savo
say
says
sazu
sb
sc
scala
scale
scasoma
scena
scenarij
scenariju
scenarist
scene
sceni
sceno
scer
schiller
schmidt
schnabl
schneider
schon
school
schools
schumacher
schuster
sci
science
sciences
scientific
scientist
scientists
scit
scita
sciti
scott
scuka
sculpture
sd
sdaj
sdo
sds
se
sea
sean
search
searchin
season
seattle
sebastian
sebastijan
sebe
sebi
seboj
sec
seci
second
secret
section
security
sed
sedaj
sedanja
sedanje
sedanjega
sedanjem
sedanji
sedanjih
sedanjo
sedanjost
sedanjosti
sede
sedec
sedeci
sedej
sedel
sedela
sedeli
sedelo
sedem
sedemdeset
sedemdesetih
sedemkrat
sedemnajst
sedeti
sedez
sedeza
sedezem
sedezev
sedezi
sedezu
sedi
sedijo
sedim
sedis
sedita
sedite
sedla
sedli
sedlo
sedlu
sedma
sedmega
sedmem
sedmi
sedmic
sedmih
sedmimi
sedmo
see
sef
sefa
sega
segajo
segal
segala
segale
segali
segalo
sege
segel
segi
segla
sein
seine
seiner
seit
sej
seja
sejal
seje
sejem
seji
sejma
sejmu
sejo
seka
sekal
sekcija
sekcije
sekira
sekire
sekiro
sekretar
sekretarja
sektor
sektorja
sektorju
sekund
sekundarni
sekunde
sekundo
sel
sela
sele
selected
selektor
selena
self
seli
selim
seliskar
selitev
seljak
selo
selu
sem
seme
semen
semena
semenisce
semeniscu
semenj
seminar
semintja
semkaj
sempeter
semtertja
semtertje
sen
sena
senat
senata
senator
senatorjev
senatu
senc
senca
sence
senci
sencih
senco
senj
senna
seno
senor
senozet
senozeti
sent
sentjur
sentvid
sentvidu
senu
sep
sepece
sepet
sepeta
sepetaje
sepetal
sepetala
sepetali
sepetanje
sepnil
sepnila
seppelt
sept
september
septembra
septembrom
septembru
ser
serca
serce
sercno
sercu
sergej
sergeja
sergejevic
sergio
serie
series
serija
serijah
serije
seriji
serijo
serijsko
service
services
servisna
sesalcev
sesalci
sesedel
sesedla
sesla
sesli
sest
sesta
sestal
sestanek
sestanku
sestav
sestava
sestave
sestavi
sestavil
sestavili
sestavin
sestavina
sestavine
sestaviti
sestavlja
sestavljajo
sestavljali
sestavljalo
sestavljata
sestavljen
sestavljena
sestavljene
sestavljeni
sestavljeno
sestavni
sestavo
sestdeset
sestdesetih
sestega
sestem
sester
sestevku
sesti
sestih
sestimi
sestkrat
sestnajst
sestnajstih
sesto
sestoji
sestra
sestre
sestrelil
sestri
sestrica
sestrice
sestricna
sestricno
sestrico
sestro
set
setev
sevanja
sevanje
seve
seveda
seven
sever
severa
severin
severja
severna
severne
severnega
severnem
severni
severnih
severnim
severno
severovzhodnem
severovzhodni
severovzhodno
severovzhodu
severozahodnem
severozahodni
severozahodno
severozahodu
severu
sevnica
sex
sexual
sezana
seze
sezidal
sezidali
seznam
seznama
seznami
seznamu
seznanil
seznanila
seznaniti
seznjev
sezon
sezona
sezonah
sezonama
sezone
sezoni
sezono
sf
sfr
sfrj
sg
sh
shadow
shakespeare
shaw
she
sheet
shema
ship
shod
shodu
short
shorter
should
show
shqipe
shrambe
shrambo
shrani
shranjena
shranjene
shranjeni
shranjevanje
shs
si
siba
sibe
sibila
sibirije
sibiriji
sibirijo
sibka
sibke
sibki
sibko
sibo
sic
sicer
sich
sicilija
sicilije
siciliji
sicilijo
sicilski
sida
side
sidney
sie
siegfried
siemens
siena
sierra
sifrer
sigismund
sigismunda
sigledal
sigma
sigmund
signal
signala
signalov
sij
sijaj
sijajno
sijaju
sijal
sijala
sijale
sijalo
sije
siknil
sikorsky
sil
sila
silah
silam
silami
sile
silen
sili
silijo
silil
silila
silile
silili
sililo
siliti
silna
silne
silnega
silnem
silni
silnih
silnim
silno
silo
siloma
silovito
silva
silver
silvester
silvija
silvio
silvo
sim
simbol
simbola
simbole
simboli
simbolicno
simbolizira
simbolom
simbolov
simcic
sime
simen
simeon
simetrije
simetrijo
simfonicni
simfonija
simic
simon
simona
simone
simoniti
simpatije
simpozij
simpson
simptome
simptomi
simptomov
simulacija
sin
sina
sinagoga
sinan
since
sincek
sincka
sind
sindrom
sindroma
sine
sinek
singel
singer
singh
singl
singla
single
singles
singli
singlom
singlov
sinil
sinila
sinilo
sinje
sinji
sinka
sinko
sinoci
sinom
sinonim
sinov
sinova
sinove
sinovi
sinovo
sinteza
sinteze
sintezo
sinu
sio
siol
sipe
sipine
sipo
sir
sira
siri
sirija
sirije
siriji
sirijo
siril
sirila
sirile
sirili
sirilo
sirina
sirine
sirini
sirino
siritev
siriti
sirjenja
sirjenje
sirjenju
sirnem
sirni
sirno
sirok
siroka
siroke
sirokega
sirokem
siroki
sirokih
sirokim
sirokimi
siroko
sirom
siromak
siromaka
siromaki
sirota
sirote
siroto
sirsa
sirse
sirsega
sirsem
sirsi
sirso
siska
siski
sisko
sistem
sistema
sistematicno
sisteme
sistemi
sistemih
sistemom
sistemov
sistemu
sister
sit
sita
sitar
site
siten
sites
siti
sitna
sitno
sitnosti
sito
situacija
situacijah
situacije
situaciji
situacijo
situation
siv
siva
sivala
sive
sivec
sivega
sivi
sivih
sivilja
sivimi
sivo
six
sj
sk
ska
skace
skaf
skakal
skakalec
skakali
skakalnici
skal
skala
skalah
skalami
skalar
skale
skali
skalnati
skalne
skalni
skalo
skalovja
skalovje
skalovjem
skalovju
skandal
skarje
skatle
skatlo
skedenj
skednju
skerb
skerbi
skerbno
sket
ski
sklad
sklada
skladatelj
skladatelja
skladateljev
skladatelji
skladb
skladba
skladbe
skladbi
skladbo
skladisca
skladisce
skladiscu
skladno
skladu
sklanjatev
skleda
sklede
skledi
skledo
sklene
sklenejo
sklenil
sklenila
sklenili
skleniti
sklenjen
sklenjena
sklenjene
sklenjeno
sklep
sklepa
sklepajo
sklepal
sklepala
sklepali
sklepamo
sklepati
sklepe
sklepi
sklepih
sklepom
sklepov
sklepu
sklic
sklical
sklice
skliceval
sklicevanje
sklici
sklicuje
skljucen
skljucena
skloni
sklonil
sklonila
sklonjeno
sklop
sklopu
skoci
skocil
skocila
skocili
skocim
skociti
skocjan
skoda
skode
skodelico
skodi
skodljiva
skodljive
skodljivih
skodljivo
skodo
skodovalo
skodovati
skodozeljno
skoduje
skof
skofa
skofe
skofij
skofija
skofije
skofiji
skofijo
skofijski
skofja
skofje
skofji
skofom
skofov
skofovska
skofovsko
skofu
skok
skoki
skokih
skokom
skokov
skoku
skoljke
skomignil
skopec
skopje
skopuh
skor
skoraj
skorajda
skorec
skorej
skorja
skorje
skorji
skorjo
skornje
skoro
skotska
skotske
skotskem
skotski
skotsko
skoval
skoz
skozenj
skozi
skrajne
skrajnem
skrajni
skrajno
skrajnosti
skrajsana
skrajsano
skrat
skratka
skrb
skrbeh
skrbel
skrbela
skrbeli
skrbelo
skrbeti
skrbi
skrbij
skrbijo
skrbite
skrbjo
skrbna
skrbno
skrije
skril
skrila
skrili
skrinja
skrinje
skrinji
skrinjico
skrinjo
skripal
skrit
skrita
skrite
skritega
skriti
skritih
skrito
skriva
skrivaj
skrivajo
skrival
skrivala
skrivali
skrivalisca
skrivalisce
skrivati
skrivna
skrivne
skrivnem
skrivni
skrivno
skrivnost
skrivnosten
skrivnosti
skrivnostna
skrivnostne
skrivnostnega
skrivnostni
skrivnostno
skrivoma
skrjanec
skromen
skromna
skromne
skromni
skromno
skuc
skuhal
skuhala
skulptur
skulptura
skulpture
skup
skupaj
skupek
skupen
skupin
skupina
skupinah
skupinam
skupinami
skupine
skupini
skupino
skupna
skupne
skupnega
skupnem
skupni
skupnih
skupnim
skupno
skupnost
skupnosti
skupnostih
skupscina
skupscine
skupscini
skupscino
skus
skusa
skusajo
skusal
skusala
skusali
skusil
skusnje
sky
sl
sla
slab
slaba
slabe
slabega
slabem
slabi
slabih
slabim
slabo
slabost
slabosti
slaboten
slabotna
slabotno
slabsa
slabse
slabsi
sladak
sladek
sladka
sladke
sladkega
sladkem
sladki
sladkih
sladkim
sladko
sladkor
sladkorja
sladkorne
sladkost
sladkosti
sladoled
slak
slalom
slalomu
slam
slama
slame
slami
slamnik
slamo
slana
slano
slap
slapa
slapov
slapovi
slast
slasti
slastjo
slastno
slatina
slava
slavcek
slave
slavec
slaven
slavi
slavic
slavica
slavil
slavili
slavin
slavist
slavisticna
slavistiko
slavka
slavko
slavna
slavne
slavnega
slavni
slavnih
slavno
slavnost
slavnosti
slavnostni
slavnostno
slavo
slavolok
slavonsko
sle
sled
sledeca
sledece
sledeci
sledecih
sledi
sledijo
sledil
sledila
sledile
sledili
sledilo
sledita
slediti
slednja
slednje
slednjega
slednjem
slednji
slednjic
slednjo
sledov
sledove
sledovi
sledu
sleherni
sleherno
slej
slekel
sleme
slemena
slemenu
slep
slepa
slepar
slepe
slepec
slepi
slepo
sli
slik
slika
slikah
slikal
slikami
slikanica
slikanice
slikanja
slikanje
slikar
slikarja
slikarjev
slikarji
slikarju
slikarka
slikarstva
slikarstvo
slikarstvu
slikati
slike
sliki
sliko
slikovito
sline
slino
slisal
slisala
slisali
slisalo
slisati
slisi
slisijo
slisim
slisimo
slisis
slisite
slisno
slo
slobodan
slodnjak
slog
sloga
sloge
slogi
slogom
slogov
slogovno
slogu
sloj
sloja
slojev
sloji
slomsek
slon
slona
slonel
slonela
sloni
slotop
slov
slovan
slovane
slovani
slovanov
slovanska
slovanske
slovanskega
slovanski
slovanskih
slovansko
slovar
slovarja
slovarji
slovarju
slovaska
slovaske
slovaskem
slovaski
slovasko
slovel
sloven
slovenca
slovence
slovencem
slovencev
slovenci
slovencih
slovencu
slovene
slovenec
sloveni
slovenia
slovenian
slovenija
slovenije
sloveniji
slovenijo
slovenj
slovenka
slovenov
slovenscina
slovenscine
slovenscini
slovenscino
slovenska
slovenske
slovenskega
slovenskem
slovenskemu
slovenski
slovenskih
slovenskim
slovenskimi
slovensko
sloves
slovesa
slovesni
slovesno
slovesnost
slovesnosti
slovesu
slovi
slovnica
slovnice
slovnico
slovo
slovstva
slovstvo
slovstvu
slowenischen
sls
slucaj
slucaji
slucajih
slucajno
slucaju
sluga
sluge
slugi
slugo
sluh
sluha
sluti
slutil
slutila
slutili
slutim
slutiti
slutnja
slutnje
sluzabnica
sluzabnik
sluzabnika
sluzabnike
sluzabniki
sluzabnikov
sluzb
sluzba
sluzbah
sluzbe
sluzbeno
sluzbi
sluzbo
sluzboval
sluzenje
sluzi
sluzijo
sluzil
sluzila
sluzile
sluzili
sluzilo
sluzit
sluziti
sluzkinja
sm
small
smarje
smartno
smatra
smatrajo
smatral
smatrali
smc
sme
smeh
smeha
smehlja
smehljaj
smehljaje
smehljajem
smehljal
smehljala
smehom
smehu
smejal
smejala
smejale
smejali
smejalo
smejati
smeje
smejejo
smeji
smejo
smel
smela
smeli
smelo
smem
smemo
smer
smereh
smeri
smernice
smert
smerti
smes
smesen
smesna
smesne
smesno
smetano
smete
smeti
smeva
smili
smilil
smilila
smisel
smiselno
smisla
smislu
smith
smithsonian
smo
smodko
smodnik
smodnika
smola
smole
smolej
smolo
smoter
smrad
smrcek
smrdi
smrek
smreka
smrekar
smreke
smreko
smrt
smrti
smrtjo
smrtna
smrtne
smrtnem
smrtni
smrtnih
smrtno
sms
smucanje
smucanju
smucar
smucarka
smucarska
smucarski
smucarskih
smuk
smukac
smuknil
smuknila
smuku
sn
sna
snac
sname
sneg
snega
snegom
snegu
snel
snela
snemal
snemalec
snemali
snemanja
snemanje
snemanjem
snemanju
snezinke
snezna
snezne
snezni
snezno
sng
snoci
snoj
snooker
snop
snov
snovi
snovjo
snovmi
snow
snu
snubil
snubit
so
soavtor
sob
soba
sobah
sobe
sobi
sobice
sobici
sobico
sobin
sobo
soboj
sobota
sobotah
sobote
soboti
soboto
soc
soca
socasno
soce
soci
social
socialisticna
socialisticne
socialisticni
socialisticno
socialistov
socializem
socializma
socialna
socialne
socialnega
socialni
socialnih
socialno
societe
society
sociolog
sociologije
sociologijo
soco
socutja
socutje
socutno
sod
soda
sodba
sodbe
sodbi
sodbo
sode
sodec
sodelavcev
sodelavci
sodelavec
sodeloval
sodelovala
sodelovali
sodelovalo
sodelovanja
sodelovanje
sodelovanjem
sodelovanju
sodelovati
sodeluje
sodelujejo
sodi
sodijo
sodil
sodila
sodili
sodim
sodisc
sodisca
sodisce
sodiscem
sodiscu
sodite
soditi
sodna
sodne
sodnega
sodni
sodnih
sodnija
sodniji
sodnijo
sodnik
sodnika
sodnike
sodniki
sodnikom
sodnikov
sodniku
sodno
sodoben
sodobna
sodobne
sodobnega
sodobnem
sodobni
sodobnih
sodobnik
sodobniki
sodobnimi
sodobno
sodobnost
sodu
sofer
sofia
sofija
sofije
software
soglasja
soglasje
soglasju
soglasno
soja
sojenje
sok
soka
sokol
sokola
sokolov
sokolski
sol
sola
solah
solal
solanja
solanje
solanju
solar
sole
soli
solid
solnca
solnce
solncem
solncna
solncne
solncnem
solncni
solncnih
solncno
solncu
solnik
solo
solomon
solska
solske
solskega
solskem
solski
solskih
solsko
solstva
solstvo
solstvu
solun
solz
solza
solzah
solzami
solze
solzi
solzne
solznimi
solzo
som
some
somerset
somrak
son
sonata
sonca
sonce
soncem
soncev
soncna
soncne
soncnega
soncnem
soncni
soncnih
soncno
soncu
sonda
sonet
song
songs
sonja
sons
sony
sop
sope
sopek
sopel
sophie
sopomenke
sopran
soprog
soproga
soproge
soprogi
soprogo
soprogu
sorazmerno
sorli
soroden
sorodna
sorodne
sorodni
sorodnica
sorodnih
sorodnik
sorodnika
sorodnike
sorodniki
sorodnikom
sorodnikov
sorodstvo
sorodu
sort
sorte
sosebno
sosed
soseda
sosede
sosedi
sosedje
sosedne
sosedni
sosednja
sosednje
sosednjem
sosednji
sosednjih
sosednjimi
sosednjo
sosedno
sosedom
sosedov
sosedu
soseska
soseske
soseski
soske
soski
sosolci
sosolec
sostanj
sotescan
soteska
soteske
soteski
sotesko
sotocju
sotor
sotora
sotoru
soul
sound
soundtrack
source
sources
sous
soustanovitelj
south
southern
sov
sova
sove
soviet
sovjetska
sovjetske
sovjetskega
sovjetski
sovjetskih
sovjetsko
sovrastva
sovrastvo
sovrastvu
sovrazi
sovrazijo
sovrazil
sovrazila
sovrazim
sovraziti
sovrazna
sovrazne
sovrazni
sovraznih
sovraznik
sovraznika
sovraznike
sovrazniki
sovraznikom
sovraznikov
sovrazniku
sovrazno
sovraznosti
sozluk
sp
space
spada
spadajo
spadal
spadala
spadali
spadalo
spadata
spain
spak
spal
spala
spali
spalnice
spalnici
spalnico
spalo
spanca
spanci
spanec
spanija
spanije
spaniji
spanijo
spanish
spanja
spanje
spanjem
spanju
spanscina
spanscini
spanska
spanske
spanskega
spanskem
spanski
spanskih
spansko
spat
spati
spe
spears
spece
specega
speci
special
specialist
specialne
specialnih
species
specificna
specificne
specificni
specificnih
specificno
speed
spekter
spektra
spela
spelca
speljana
spencer
spet
spev
spi
spice
spiegel
spijo
spik
spil
spim
[...]
