!
"
#
##0
##1
##10
##11
##12
##13
##14
##15
##16
##17
##18
##19
##2
##20
##21
##22
##23
##24
##25
##26
##27
##28
##29
##3
##30
##31
##32
##33
##34
##35
##36
##37
##38
##39
##4
##40
##41
##42
##43
##44
##45
##46
##47
##48
##49
##5
##50
##51
##52
##53
##54
##55
##56
##57
##58
##59
##6
##60
##61
##62
##63
##64
##65
##66
##67
##68
##69
##7
##70
##71
##72
##73
##74
##75
##76
##77
##78
##79
##8
##80
##81
##82
##83
##84
##85
##86
##87
##88
##89
##9
##90
##91
##92
##93
##94
##95
##96
##97
##98
##99
$
%
&
'
(
)
*
+
,
-
.
/
0
00
000
0004
001
002
003
004
005
007
01
013
0140
02
03
0362
04
05
06
0690
07
08
09
1
10
100
1000
10000
1001
1002
1006
1007
101
1016
1017
102
1021
1024
1025
103
1038
104
1046
105
1050
1051
1056
106
1063
1066
107
1073
107343683
108
1080
10855166
1086
1088
109
1093
1095
1097
1098
1099
11
110
1100
1103
111
1111
112
1126
113
1130
1136
114
1140
1146
1147
115
1150
1158
116
1160
117
1170
1177
118
1180
1185
1186
119
1190
1191
1192
1194
1198
12
120
1200
1204
1208
1209
121
1210
1215
122
1220
1225
1227
1228
1229
123
1230
1235
124
1240
1241
1242
125
1250
1253
1256
126
1260
1261
1264934
1265
127
1270
1274
1279
128
1280
1282
129
1290
1291
1295
13
130
1300
1308
131
1310
1318
132
1320
1322
1325
1328
133
1330
1331
1335
1336
134
1340
1346
1348
1349
135
1350
1351
13550863
136
1360
1365
1368
137
1370
1371
1377
138
1380
1385
1386
1389
139
1390
14
140
1400
1408
141
1410
1415
1418
142
1420
1425
143
1430
1431
1435
1438
1439
144
1440
1444
145
1450
1452
1453
1454
1455
1456
1459
146
1460
1461
1463
1466
1466106
1467
1468
1469
147
1470
1471
1472
1473
1474
1475
1476
1477
1478
1479
148
1480
1481
1482
1483
1484
1485
149
1490
1492
1493
1494
1495
1496
1497
1498
1499
15
150
1500
1501
1502
1503
1504
1505
1506
1507
1508
1509
151
1510
1511
1512
1513
1514
1515
1516
1517
1519
152
1520
1521
1522
1523
1524
1525
1526
1527
1528
1529
153
1530
1531
1532
1533
1534
1535
1536
1537
1538
1539
154
1540
1541
1542
1543
1544
1545
1546
1547
1548
155
1550
1551
1552
1553
1554
1555
1556
1557
1558
1559
156
1560
1561
1562
1563
1564
1565
1566
1567
1568
1569
157
1570
15706812
1571
1572
1573
1574
1575
1576
1577
1578
1579
158
1580
1581
1582
1583
1584
1585
1586
1587
1588
1589
159
1590
1591
1592
1593
1594
1595
1596
1597
1598
1599
16
160
1600
1601
1602
1603
1604
1605
1606
1607
1608
1609
161
1610
1611
1612
1613
1614
1615
1616
1617
1618
1619
162
1620
1621
1622
1623
1624
1625
1626
1627
1628
1629
163
1630
1631
1632
1633
1634
1635
1636
1637
1638
1639
164
1640
1641
1642
1643
1644
1645
1647
1648
1649
165
1650
1651
1652
1653
1654
1655
1656
1657
1658
1659
166
1660
1661
1662
1663
1664
1665
1666
1667
1668
1669
167
1670
1671
1672
1673
1674
1675
1676
1678
1679
168
1680
1681
1682
1683
1684
1685
1686
1687
1688
1689
169
1690
1691
1692
1693
1694
1695
1696
1697
1698
1699
17
170
1700
1701
170109
1702
1703
1704
1705
1706
1707
1708
1709
171
1710
1711
1712
1713
1714
1715
1716
1717
1718
1719
172
1720
1721
1722
1723
1724
1725
1726
1727
1728
1729
17299517
173
1730
1731
1732
1733
1734
1735
1736
1737
17378135
1738
1739
174
1740
1741
1742
1743
1744
1745
1746
1747
1748
1749
175
1750
1751
1752
1753
1754
1755
1756
1757
1758
1759
176
1760
1761
1762
1763
1764
1765
1766
1767
1768
1769
177
1770
1771
1772
1773
1774
1775
1776
1777
1778
1779
178
1780
1781
1782
1783
1784
1785
1786
1787
1788
1789
1789619
179
1790
1791
1792
1793
1794
1795
1796
1797
1798
1798125
1799
18
180
1800
18002875
1801
1802
1803
1804
1805
1806
1807
1808
1809
181
1810
1811
1812
1813
1814
1815
1816
1817
1818
1819
182
1820
1821
1822
1823
1824
1825
1826
1827
1828
1829
183
1830
1831
1832
1833
1834
1835
1836
1837
1838
1839
184
1840
1841
1842
1843
1844
18446
1845
1846
1847
1848
1849
185
1850
1851
1852
1853
1854
1855
1856
1857
1858
1859
186
1860
1861
1862
1863
1864
1865
1866
1867
1868
1869
18696256
187
1870
1871
1872
1873
1874
1875
1876
1877
1878
1879
188
1880
1881
1882
1883
1884
1885
1886
1887
1888
1889
189
1890
1891
1892
1893
1894
1895
1896
1897
1898
1899
19
190
1900
1901
1902
1903
1904
1905
1906
1907
1908
1909
191
1910
1911
1912
1913
1914
1915
1916
1917
1918
1919
192
1920
1921
1922
1923
1924
1925
1926
1927
1928
1929
193
1930
1931
1932
1933
1934
1935
193563
1936
19368470
1937
1938
1939
194
1940
1941
1942
1943
1944
1945
1946
1947
1948
1949
195
1950
1951
1952
1953
1954
1955
1956
1957
1958
1959
196
1960
1961
1962
1963
1964
1965
1966
1967
1968
1969
197
1970
1971
1972
1973
1974
1975
1976
1977
1978
1979
198
1980
1981
1982
1983
1984
1985
1986
1987
1988
1989
199
1990
1991
1992
1993
19938912
1994
1995
1996
1997
1998
1999
2
20
200
2000
2001
2002
2003
2004
2005
2006
2007
2008
2009
201
2010
2011
2012
2013
2014
2015
2016
2017
2018
2019
202
2020
2021
2022
203
204
205
206
207
208
209
21
210
2100
21008628
211
212
213
214
21401824
215
216
217
217595
218
219
22
220
2200
221
222
223
224
225
226
227
228
229
23
230
2307
231
232
233
234
235
2350
236
237
237227
238
239
24
240
2400
241
242
243
244
244517632
2449070
245
246
247
248
249
25
250
2500
251
252
253
254
255
256
256507
257
258
259
26
260
261
262
263
264
265
266
267
268
269
27
270
271
272
273
27302
274
275
276
277
278
279
28
280
2807
281
282
283
284
285
286
287
288
2886420
289
29
290
291
292
293
294
295
296
297
298
29861311
299
3
30
300
3000
301
302
303
304
304037
305
306
307
308
309
31
310
311
312
313
314
315
316
317
318
319
31964
32
320
321
322
323
324
325
326
327
328
329
33
330
331
332
333
334
335
336
337
338
339
34
340
341
342
343
344
345
346
347
348
349
35
350
3500
351
352
353
354
355
356
357
358
359
36
360
361
362
3621644
363
364
365
36578
366
367
368
369
37
370
371
372
373
37312
374
375
376
377
378
379
38
380
381
382
383
384
384602
385
386
387
388
389
39
390
391
392
393
394
395
396
397
398
399
4
40
400
4000
401
402
403
404
405
406
407
408
409
41
410
411
412
413
414
415
416
417
418
419
42
420
421
422
423
424
425
426
427
428
429
429032
43
430
431
432
433
4331
434
435
436
437
438
439
44
440
441
442
443
444
445
446
447
448
449
45
450
451
452
453
454
455
456
457
458
459
46
460
461
462
463
465
467
468
469
47
470
471
472
473
474
475
476
477
479
48
480
481
483
484
485
486
488
49
490
491
492
493
495
496
497
499
5
50
500
5000
501
503
504
504063
505
506
5061737
507
509
51
510
511
512
515
517
518
52
520
521
522
524
525
526
527
529
53
530
533
534
535
536
537
5375741
539
54
540
541
543
545
546
547
547473
549
55
550
551
552
553
555
56
560
56239490
565
567
568
57
570
571
574
575
58
580
582
583
585
589
59
590
6
60
600
6000
601
602
603
6036
605
609
61
610
617
618
62
620
628
63
630
63056
631
632
639
64
640
641
642
65
650
653
66
660
664
665807
667
67
670
671
67129259
674
675
68
680
683
688
69
690
691
7
70
700
7000
705
707
71
710
711
715
717
719880
72
720
73
730
737
74
740
747
75
750
76
760
765
767
768
77
770
777
78
780
787
79
8
80
800
8000
81
82
820
83
84
840
84433
84443
85
850
86
860
867
87
870
88
880
89
9
90
900
91
912
92
9272
93
94
95
950
953
955
96
960
961
963
97
973
975
978
98
980
98769076
99
999
:
;
<
=
>
?
@
[
\
]
^
_
`
a
aa
aachen
aaron
ab
aba
abau
abba
abbey
abc
abd
abdul
abe
abeceda
abecede
abel
aben
aber
abgerufen
abi
abigaila
abna
abne
abni
abnica
abnice
abnik
abnika
abnike
abniki
abnikom
abnikov
abno
abnost
abo
about
abraham
abram
abs
absolutna
absolutni
absolutno
absorbira
abu
ac
acade
academia
academic
academy
access
accessed
according
account
ace
achille
acid
across
act
acta
action
active
activity
acute
ad
ada
adalbert
adam
adama
adamic
adams
ade
adela
adez
adi
adijo
adjunkt
adles
administration
administrativni
administrativno
admiral
admirala
admiralov
ado
adolf
adolfa
adria
adrian
adriano
advanced
advent
advokat
ae
aero
aerodinamic
aerodrome
aerospace
af
afera
affairs
afganistan
afganistanu
africa
african
afrika
afrike
afriki
afriko
afris
after
ag
aga
again
against
agar
agata
agati
agato
age
agencija
agencije
agencijo
agency
agent
agenti
ages
agi
agnes
ago
agostino
agrft
agriculture
agronom
ah
aha
ahac
ahist
ahmad
ahmed
ahovska
ahovski
ahu
ai
aid
aids
aim
ain
air
airborne
airbus
aircraft
aires
airesu
airlines
airport
ais
aise
aiti
aj
aja
ajda
ajdovs
aje
ajem
ajen
ajev
aji
ajih
ajmo
ajna
ajne
ajnega
ajnem
ajni
ajnih
ajno
ajo
ajoc
ajte
aju
ak
aka
akademie
akademija
akademije
akademiji
akademijo
akademik
akademikov
akademska
akademske
akademskega
akademski
akademskih
akademsko
akaj
akajmo
akajo
akajoc
akajte
akal
akala
akale
akali
akalo
akam
akamo
akanja
akanje
akar
akas
akata
akati
akcij
akcija
akcije
akciji
akcijo
ake
akelj
aki
akinja
akinjo
ako
akom
akoravno
akov
akova
akoval
akovala
akovali
akovana
akovane
akovanega
akovani
akovanja
akovanje
akovanju
akovano
akovati
akt
akte
akti
aktiven
aktivira
aktivist
aktivistka
aktivna
aktivne
aktivnega
aktivni
aktivnih
aktivno
aktivnost
aktivnosti
aktov
aktualni
aktualno
aku
akuje
akujejo
akujem
akujemo
akujoc
akustic
akutna
akutni
akvadukt
akvitanije
al
ala
alabama
alah
alain
alamun
alan
alarm
alba
albanci
albania
albanija
albanije
albaniji
albanijo
albans
albanski
albansko
albatros
albert
alberta
alberti
alberto
albin
albina
albrecht
albreht
album
albuma
albume
albumi
albumom
albumov
albums
albumu
alca
alce
alcev
alci
alcu
aldo
ale
alec
alega
alegoric
aleksandar
aleksander
aleksandr
aleksandra
aleksandriji
aleksandrov
aleksandrovic
aleksandru
aleksej
alekseja
aleksejevic
aleksij
alen
alena
alenc
alenka
ales
alessandro
alex
alexander
alexandra
alexandre
alexis
alfa
alfonso
alfonz
alfonza
alfonzo
alfred
alfreda
alfredo
alg
alge
algebra
algoritem
ali
alibog
alice
aligned
alija
alik
alil
alila
alili
alilo
alis
alite
alitev
aliti
alj
alja
aljaz
aljen
aljena
aljeni
aljeno
aljive
aljivo
aljos
alk
alka
alke
alko
alkohol
alkohola
all
alla
allah
allan
alle
allen
allgemeine
alliance
allison
allmovie
allmusic
alma
almira
alni
alnik
alno
alo
alois
alojz
alojzij
alojzija
alonso
alost
alosten
alosti
alostjo
alostna
alostne
alostnega
alostni
alostnih
alostnim
alostno
alov
aloval
alovala
alovanja
alovanje
alovati
alp
alpah
alpe
alpes
alpha
alphonse
alpinist
alpinistic
alpska
alpske
alpskem
alpski
alpskih
alpsko
als
also
alt
alta
altar
alte
alten
alternativa
alternative
alternativne
alternativni
alternativno
alto
alu
aluje
alujem
alujoc
aluminij
aluminija
aluminijev
alz
alzacija
am
ama
amalija
amanda
amaterski
amatersko
amazon
ambroz
ame
amebis
amen
americ
america
american
amerika
amerikanec
amerike
ameriki
ameriko
ameris
amfiteater
ami
aminokislin
aminokisline
amo
amon
among
amor
amorec
amos
ampak
ampanjca
amr
ams
amsterdam
amsterdamu
amy
an
ana
analitic
analiza
analize
analizi
analizo
analysis
anatolij
anatoliji
anc
anca
ancenis
ancev
anci
ancient
and
andar
andarji
anders
andersen
anderson
andersson
andes
andor
andov
andra
andraz
andre
andrea
andreas
andrej
andreja
andrejc
andrejec
andrejem
andrejevic
andrejko
andreju
andres
andrew
andrews
andrija
andro
andrzej
andy
ane
anec
anega
anem
anfa
ang
angaz
angel
angela
angelc
angele
angeles
angelesu
angeli
angelica
angelik
angelika
angelin
angelina
angelj
angelo
angelov
angkor
angl
angles
anglez
anglija
anglije
angliji
anglijo
anglo
anglosas
ani
anic
anica
anice
anici
anico
anih
anim
animal
animals
animi
anin
anita
anj
anja
anje
anjem
anji
anjih
anju
ank
anka
anke
anki
anko
ann
anna
annales
annals
anne
anni
annie
anniversary
anno
annual
ano
anom
anonimno
anost
anosti
another
anov
anova
anr
anra
ans
ansambel
ansambla
anska
anske
anskega
anskem
anskemu
anski
anskih
anskim
anskimi
ansko
anstev
anstva
anstvo
anstvom
anstvu
ant
antarktic
antarktiki
ante
anthony
anti
antibiotiki
antic
antike
antiki
antiquities
antiquity
anto
antoine
antologija
anton
antona
antoni
antonia
antonij
antonija
antonio
antonom
antonov
antonu
antropolog
antwerpen
antwerpnu
anu
anz
anza
ao
ap
apa
apac
aparat
aparata
apl
aplikacij
aplikacija
aplikacije
apnenc
apnenca
apnenec
apno
apokalipsa
apollo
apolon
apolona
apolonec
apostol
apostola
apostoli
apostolov
apostolska
apostolskega
apostolski
apostolskih
apple
application
applications
applied
approach
approx
apr
april
aprila
aprilom
aprilu
apside
apsido
aq
ar
ara
arab
arabci
arabela
arabia
arabs
arabska
arabske
arabskega
arabskem
arabski
arabskih
arabsko
aragonski
aral
arala
aran
arana
arani
aranja
aranje
arano
aranz
arati
arbitraz
arc
arca
arch
archa
archaeological
archaeology
arche
archibald
architectural
architecture
archiv
archive
archived
archives
archivio
ardas
are
area
areas
arec
arek
arel
arela
arele
arelo
arena
areni
aretacijo
aretirali
aretiran
argentina
argentine
argentini
argentino
argentinski
argentinskih
argument
arhaic
arheolog
arheologi
arheologije
arheologijo
arheolos
arhitekt
arhitekta
arhitekti
arhitektka
arhitektov
arhitektura
arhitekture
arhitekturi
arhitekturna
arhitekturne
arhitekturni
arhitekturnih
arhitekturno
arhitekturo
arhiv
arhiva
arhivirana
arhivirano
arhivska
arhivu
ari
aria
arica
arice
arico
arih
arija
arije
arijo
aris
aristotel
aritmetic
arizona
arja
arje
arjem
arjev
arjeva
arjevo
arji
arjih
arju
ark
arka
arkade
arkadij
arkar
arkarski
arke
arki
arkih
arko
arkom
arkov
arktic
arm
armad
armada
armade
armadi
armadni
armado
armand
armando
armee
armeekorps
armenia
armenian
armenija
armenije
armeniji
armenijo
armenska
armenske
armenskega
armenski
armensko
armin
arms
armstrong
army
arna
arne
arni
arno
arnold
arnulf
aro
arobna
arobne
arobni
arobno
arom
aron
around
arov
arovnic
arovnica
arovnice
arovnik
arovnis
ars
arska
arske
arskega
arskem
arski
arskih
arsko
arstva
arstvo
art
arte
arthur
article
articles
artilerije
artilerijska
artilerijski
artist
artists
arts
artur
aru
arxiv
as
asa
ase
asen
ashley
asi
asia
asian
asih
asil
asirski
asis
asistent
asna
asne
asnega
asneje
asnejs
asnem
asni
asnih
asnik
asnika
asnikar
asnike
asnikih
asniku
asnim
asnimi
asno
asom
asoma
asopis
asopisa
asopise
asopisi
asopisih
asopisov
asopisu
asov
asovna
asovne
asovnem
asovni
asovnih
asovno
asp
aspects
aspx
assessment
associated
association
ast
asta
aste
astega
asten
asteroid
asteroida
asteroidi
asteroidnem
asteroidov
asteroidu
asti
astih
astijo
astil
astili
astim
astimi
astita
astiti
astitljivi
astjo
astmi
astna
astne
astnega
astni
astnih
astnik
astnika
astnike
astniki
astnikom
astnikov
astniku
astnis
astno
asto
aston
astrid
astro
astronom
astronomi
astronomical
astronomije
astronomiji
astronomijo
astronomov
astronomska
astronomske
astronomski
astronomskih
astronomsko
astronomy
astrophysical
astrophysics
asu
asunta
at
ata
atas
ate
atek
atelje
aten
atena
atenah
atene
atentat
atez
athens
athletics
ati
atih
atila
atim
atis
atlanta
atlanti
atlantic
atlantik
atlantika
atlantiku
atlantski
atlas
atlet
atletiki
atletinja
atletska
atletske
atmosfere
atmosferi
atmosfero
atn
ato
atom
atoma
atomi
atomic
atomov
atomske
atomsko
atonec
atos
atp
attack
au
auch
audio
auersperg
auf
auflage
aug
august
augusta
auguste
augustin
augusto
augustus
aurora
aus
ausopen
austin
australia
australian
austria
austrian
austro
author
authority
authors
auto
auvergne
aux
av
ava
avah
available
aval
avala
avali
avam
avama
avami
avanje
avati
avc
avdio
ave
avec
aven
avg
avgus
avgust
avgusta
avgustom
avgustu
avi
aviation
avja
avje
avljan
avljane
avljani
avljanom
avljanov
avljanska
avljanske
avljanski
avljanskih
avljansko
avljanstvo
avna
avne
avnega
avnem
avnemu
avni
avnic
avnice
avnici
avnico
avnih
avnik
avnika
avnim
avnimi
avnis
avno
avnosti
avnozborskih
avo
avrelij
avrelija
avril
avro
avs
avsenik
avski
avstralija
avstralije
avstraliji
avstralijo
avstralska
avstralske
avstralski
avstralskih
avstrija
avstrijci
avstrije
avstriji
avstrijo
avstrijska
avstrijske
avstrijskega
avstrijskem
avstrijski
avstrijskih
avstrijskim
avstrijsko
avstro
avtentic
avto
avtobus
avtobusi
avtocesta
avtoceste
avtohtone
avtohtonih
avtom
avtomatic
avtomatsko
avtomobil
avtomobila
avtomobile
avtomobili
avtomobilistic
avtomobilom
avtomobilov
avtomobilska
avtomobilski
avtomobilu
avtonomije
avtonomijo
avtonomna
avtonomne
avtonomni
avtonomno
avtoportret
avtor
avtorica
avtorice
avtoritete
avtoriteto
avtorja
avtorje
avtorjem
avtorjev
avtorjeva
avtorji
avtorju
avtorska
avtorske
avtorskih
avtorsko
avtorstvo
avtu
aw
award
awards
away
ax
axis
az
azerbajdz
azija
azije
aziji
azijo
azijske
azijski
azijskih
b
ba
baba
babe
babi
babic
babica
babice
babici
babico
babilon
babilonski
babnica
babo
baby
bac
bach
back
background
bacon
bad
baden
bagdad
bah
baha
bailey
baje
bajic
bajka
bajke
bajt
bajta
bajte
bajti
bajto
baker
bakra
bakterij
bakterije
bal
bala
balada
balade
balant
balantic
balaz
balduin
bale
balet
bali
balistic
balkan
balkana
balkans
balkanu
balkon
balkonu
ball
balo
balon
baltic
baltimore
bam
bamberg
bami
ban
bana
banc
band
banda
banglades
banic
banja
bank
banka
banke
banki
bankir
banko
bankovce
bankovcev
bankovci
bankovec
banovine
banu
baptiste
bar
bara
baraga
baranja
barba
barbara
barbare
barbari
barbaro
barbarossa
barbic
barbka
barbo
barcelona
barceloni
bari
barica
bariton
barja
barje
barju
barka
barke
barker
barko
barnes
baroc
barok
baroka
baron
barona
baroni
baronica
baronom
baronov
baronu
baroque
barrett
barry
bartol
bartolomeo
barv
barva
barvah
barvami
barvanje
barve
barvi
barvna
barvne
barvni
barvnih
barvno
barvo
barz
bas
base
baseball
based
basel
basic
basil
basilica
basin
basist
baskovsko
basni
bat
bataljon
bataljona
bataljonov
bataljonu
baterija
baterije
bati
battista
battle
bauer
bavarci
bavarska
bavarske
bavarskega
bavarskem
bavarski
bavarsko
bavil
bay
bayer
bayern
baz
baza
bazar
baze
bazen
bazena
bazenu
bazi
bazic
bazilij
bazilika
bazilike
baziliki
baziliko
bazo
bb
bbc
bc
bd
bdo
bdp
be
beach
beat
beatles
beatrice
beatrika
beautiful
bec
beck
becker
beckerath
beda
bedak
bedanca
bedanec
bedasto
bede
bedi
bedo
beechcraft
been
before
beg
bega
begal
begin
begom
begu
begunce
beguncev
begunci
behavior
behind
bei
being
bej
bel
bela
belarus
bele
belec
belega
belem
beletrina
belez
belgija
belgije
belgiji
belgijo
belgijski
belgijskih
belgium
beli
belic
belih
belim
belimi
belina
beljak
beljakovin
beljakovine
beljaku
bell
bella
belle
bello
belo
belorusija
beltinci
ben
bena
benc
bencev
benci
bend
benda
bene
benec
benedetto
benedict
benedik
benedikt
benedikta
benediktinski
benega
benem
benes
benetk
benetkah
benetke
beni
benih
benik
beniki
benikov
benim
benimi
benito
benjamin
benko
bennett
beno
benopolitic
benson
benz
beograd
beograda
beogradu
beograjski
ber
berac
beras
bere
berejo
berem
beremo
berg
bergant
bergen
berger
beri
beric
berila
berilo
berke
berkeley
berlin
berlina
berlinski
berlinu
bern
bernard
bernarda
bernardo
bernd
bernhard
bernik
bernini
bero
berry
bert
berta
berti
bertoncelj
bertrand
berz
bes
bese
besed
beseda
besedah
besedam
besedami
besede
besedi
besedic
besedice
besedico
besedij
besedil
besedila
besedili
besedilih
besedilo
besedilom
besedilu
besedis
besedna
besedne
besedni
besednih
besedno
besedo
besen
besni
besno
best
bet
beta
betez
beton
betona
better
betty
between
bevk
beyond
bez
bf
bhutan
bi
bibcode
bible
biblical
biblija
biblije
bibliografija
biblioteca
bibliotekar
bic
bie
big
bih
bihac
bije
bijejo
bik
bika
bil
bila
bilbao
bile
bili
bilje
bilka
bilke
bill
billboard
billy
bilo
bilogorske
bim
bin
binc
bine
bingen
binkos
bio
biochemistry
biografico
biografija
biografije
biografski
biographical
biographie
biographisches
biography
biolog
biological
biologija
biologije
biologijo
biology
biolos
biotehnis
bird
birdlife
birds
biric
birmingham
biro
birth
bis
biser
bisere
biseri
biserov
bishop
bismarck
bister
bistra
bistre
bistri
bistrica
bistrice
bistrici
bistrico
bistris
bistro
bistva
bistvena
bistvene
bistvenega
bistveni
bistveno
bistvo
bistvu
bit
bitenc
biti
bitij
bitja
bitje
bitjem
bitji
bitju
bitk
bitka
bitkah
bitke
bitki
bitko
biv
biva
bivajo
bivajoc
bival
bivala
bivali
bivalis
bivanja
bivanje
bivanjem
bivanju
bivati
bivs
bizanc
bizanca
bizantinci
bizantinska
bizantinske
bizantinskega
bizantinskem
bizantinski
bizantinskih
bizantinskim
bizantinsko
bizjak
bjelovarsko
bjo
bl
bla
black
blackwell
blag
blaga
blagajne
blagajnik
blagajno
blage
blagega
blagi
blaginje
blaginjo
blago
blagodejno
blagom
blagor
blagoslov
blagoslova
blagoslovi
blagoslovil
blagoslovljena
blagoslovljeno
blagostanja
blagostanje
blagovne
blagovno
blagu
blair
blake
blanc
blanka
blata
blatna
blatni
blatnih
blatnik
blato
blatom
blatu
blaz
blazen
blazine
blazini
blazino
blazna
blazni
blazno
blaznost
blaznosti
ble
bled
bleda
blede
bledega
bledem
bledi
bledih
bledo
bledu
bleiweis
bles
blesk
blestec
blesti
bli
blis
blisk
bliska
bliski
bliskoma
bliskovito
bliz
blizo
blizu
blo
block
blodi
blodil
blog
blok
bloka
bloke
bloki
blokov
blood
blu
blue
blues
bluzo
bm
bmatrix
bmj
bmw
bnf
bo
board
bob
boba
bobby
boben
bobnar
bobnenje
bobni
boc
boca
bod
bodalo
bode
bodec
bodem
bodemo
bodes
bodeta
bodete
bodeva
bodi
bodic
bodimo
bodisi
bodite
bodo
bodoc
bodris
body
boeing
bog
boga
bogabojec
bogastva
bogastvo
bogastvom
bogastvu
bogat
bogata
bogataj
bogatas
bogate
bogatega
bogatejs
bogatem
bogati
bogatih
bogatim
bogatimi
bogatin
bogato
bogdan
bogdana
boginja
boginje
boginji
boginjo
bogme
bogo
bogom
bogomila
bogomir
bogoslovje
bogosluz
bogota
bogov
bogove
bogovec
bogovi
bogovom
bogu
bogve
bohinc
bohinj
bohinjski
bohinju
bohoric
bois
boj
boja
bojan
bojana
bojazen
bojazljivo
bojazni
boje
bojec
bojem
bojev
bojeval
bojevala
bojevali
bojevanja
bojevanje
bojevati
bojevnik
bojevniki
bojevnikov
boji
bojih
bojijo
bojim
bojimo
bojis
bojite
bojna
bojne
bojnega
bojnem
bojni
bojnih
bojno
bojo
bojte
boju
bojuje
bok
bokal
boke
boki
bokih
boksih
boku
bol
bolan
bole
bolec
bolela
bolelo
boleslav
boleslava
bolest
bolesten
bolesti
bolestno
boleti
bolezen
bolezni
boleznih
boleznijo
boleznimi
bolgari
bolgarija
bolgarije
bolgariji
bolgarijo
bolgarov
bolgars
bolgarska
bolgarske
bolgarskega
bolgarski
bolgarskih
bolgarsko
boli
bolingbroke
bolj
bolje
bolji
boljs
bolna
bolne
bolnega
bolni
bolnic
bolnica
bolnice
bolnici
bolnico
bolnih
bolnik
bolnika
bolnike
bolniki
bolnikih
bolnikom
bolnikov
bolniku
bolnis
bolno
bologna
bologni
bolor
bols
bolt
bom
bomb
bomba
bombardier
bombardiranje
bombaz
bombe
bombnik
bombnikov
bombo
bomo
bon
bonaparte
bonc
bond
bone
bonifacij
bonn
book
books
bor
bora
borba
borbe
borbi
borbo
borboletta
borcev
borci
bordeaux
border
bore
borec
borghese
bori
borijo
boril
borila
borili
borilnih
boris
borisa
boriti
borko
born
borno
boro
borovlje
bors
borsod
borut
boruta
bos
bosa
bosanski
bosansko
bosch
bosco
bose
bosna
bosne
bosni
bosno
bosta
boste
boston
bot
botanic
botanik
bote
boter
both
botra
bova
boval
bovec
box
boy
boys
boz
boſh
br
bra
brabham
brac
brad
brada
bradac
bradavic
brade
bradi
bradley
brado
brain
bral
brala
bralca
bralce
bralcem
bralcev
bralci
bralcu
bralec
brali
bralo
bran
brand
brandenburg
brandenburs
brane
brani
branic
branijo
branik
branil
branila
branilci
branilec
branili
branilo
branim
braniti
branja
branje
branjem
branju
branka
branko
brankovic
bras
brat
brata
bratca
bratci
brate
bratec
brati
bratih
bratislava
bratje
bratom
bratoma
bratov
bratovo
bratovs
bratranca
bratranec
bratstva
bratstvo
bratu
bratus
braun
braunschweig
bravo
brazde
brazil
brazilija
brazilije
braziliji
brazilski
brc
brda
brdih
brdo
brdu
bre
breaking
brecelj
breda
breg
brega
bregar
bregom
bregov
bregove
bregovi
bregovih
bregu
breme
bremen
bremena
bremenom
brenc
brenner
bres
brest
brez
breza
brezboz
brezbriz
brezc
breze
brezje
brezkonc
brezmadez
brezmejno
brezna
breznik
brezno
brezobzirno
brezovica
brezplac
brezpogojno
brezposelnosti
brezs
brezskrbno
brezsrc
brezupno
brezuspes
brezz
brian
bric
bridge
bridka
bridke
bridko
bridkost
bridkosti
brief
brien
briga
brigad
brigada
brigade
brigadi
brigadir
brigadni
brigado
brigajo
brigal
brigala
brigita
bril
brill
bris
brisac
brisal
brisala
bristol
britain
britanci
britanija
britanije
britaniji
britanijo
britannica
britanska
britanske
britanskega
britanskem
britanski
britanskih
britanskim
britansko
british
britko
britney
brivec
briz
brk
brke
brki
brlog
brlogu
brno
brnot
bro
broadcasting
broadway
brockhaus
brod
brodnik
brodu
broken
bron
brona
bronast
bronasta
bronaste
bronasti
bronastih
bronasto
bronze
brooke
brooks
bros
brothers
brown
browning
broz
brozovic
brs
bru
bruce
bruhanje
brun
bruna
bruno
brus
bruselj
bruslju
bruto
brv
brvi
bryan
bryce
brz
brzo
bs
bt
bu
buc
bud
buda
budalo
budapest
buddhism
buddhist
bude
budi
budimpes
budistic
buditelj
budizem
budizma
buenos
buffalo
bug
building
buildings
bujne
bujno
bukares
bukev
bukovec
bukvah
bukve
bula
bulgaria
bulgarian
bull
bulletin
bulo
bum
bunker
bureau
burg
burger
burgundije
burgundski
burja
burje
burji
burjo
burke
burlington
burma
burne
burno
burns
burton
bury
burz
bus
bush
business
but
butaro
butler
bwv
bx
by
byron
byzantine
byzantium
c
ca
caesar
caf
caharija
cairo
california
call
called
cambridge
cambridgeu
camera
cameron
camille
camillo
camp
campaign
campbell
campo
can
canada
canadian
canal
cancer
cankar
cankarja
cankarjev
cankarjeva
cankarjeve
cankarjevega
cankarjevem
canon
cap
cape
capital
capo
cappella
car
cara
caracciola
caravaggio
carbon
care
career
carica
carigrad
carigrada
carigradu
carja
carju
carl
carla
carlo
carlos
carmen
carol
carolina
caroline
carroll
carski
carter
cas
casa
case
cases
castel
castello
castle
castles
castro
castrum
cat
catalana
catalog
catalogue
catania
cathedral
catherine
catholic
cause
causes
cave
cb
cbs
cbw
cc
cca
cd
cdc
cdot
cdots
ce
ceca
cecil
cecilija
cedilu
cej
cekin
cekinar
cekine
cekini
cekinov
cel
cela
cele
celega
celem
celestin
celi
celic
celica
celicah
celicami
celice
celici
celico
celih
celim
celine
celini
celino
celinske
celinski
celinsko
celja
celje
celjska
celjske
celjskega
celjski
celjskih
celju
cell
cells
celo
celos
celota
celote
celoten
celoti
celotna
celotne
celotnega
celotnem
celotni
celotno
celoto
celovca
celovcu
celovec
celovito
celovs
celtic
cem
cen
cena
cene
cenejs
ceni
cenijo
cenil
cenili
ceniti
cenjen
cenjena
cenjeni
ceno
census
center
centimetrov
centov
centra
central
centralna
centralne
centralnega
centralni
centralno
centre
centri
centro
centrom
centrov
centru
centuries
century
cepiva
cepivo
cepljenje
cerar
cerkev
cerklje
cerknica
cerknis
cerkno
cerkovnik
cerkva
cerkvah
cerkvami
cerkve
cerkvena
cerkvene
cerkvenega
cerkvenem
cerkveni
cerkvenih
cerkvenik
cerkvenim
cerkvenimi
cerkveno
cerkvi
cerkvica
cerkvice
cerkvici
cerkvico
cerkvijo
cerro
certifikacije
certifikacijo
cesar
cesare
cesaric
cesarica
cesarice
cesarja
cesarjem
cesarjev
cesarjeva
cesarjeve
cesarjevega
cesarjevi
cesarjevo
cesarji
cesarju
cesarska
cesarske
cesarskega
cesarskem
cesarski
cesarskih
cesarskim
cesarsko
cesarstva
cesarstvo
cesarstvom
cesarstvu
cessna
cest
cesta
cestah
ceste
cesti
cestne
cestnega
cestnem
cestni
cestno
cesto
cev
cevi
cezar
cezarja
cf
cg
ch
cha
challenge
championship
championships
chan
chang
change
changes
channel
chapel
chapelle
chaplin
chapman
chapter
characteristics
charles
charlesa
charlie
charlotte
chart
charts
che
chelsea
chem
chemical
chemistry
chen
cher
chi
chicago
chicagu
chief
chiesa
child
children
chile
china
chinese
chisholm
chobot
choice
chris
christ
christian
christianity
christie
christina
christine
christmas
christoph
christopher
chronic
chronicle
chronicon
chronology
chu
church
churchill
ci
cia
cicero
ciciban
cie
cigan
cigana
cigani
ciganka
cigaret
cigarete
cigareto
cigaro
cikel
cikla
ciklic
ciklu
ciklus
cila
cilinder
cilj
cilja
cilje
ciljem
ciljev
cilji
ciljno
cilju
cilka
cilki
cilko
cimperman
cin
cinema
cinic
ciper
cipra
cipru
circle
circuit
circus
ciril
cirila
cirilic
cirkus
cis
cistic
cit
citadela
citat
citati
citation
cite
cities
citirano
citre
citta
city
cityju
ciudad
civil
civilistov
civilizacija
civilizacije
civilization
civilna
civilne
civilnega
civilni
civilnih
civilno
ck
cke
cl
claire
clara
clarendon
clark
clarke
class
classic
classical
classics
classification
claude
claudia
claudio
clav
clayton
cle
clemens
clement
clemente
cleveland
clifford
climate
clin
clinical
clinton
clio
clo
close
club
cm
cn
cnn
cnt
co
coast
cobiss
cochrane
code
codex
cohen
col
cold
cole
coleman
colin
collection
collections
college
collins
colombia
colonna
color
colorado
columbia
com
combat
come
comes
comet
command
commander
commanders
commentary
commission
committee
common
commons
commonwealth
communication
communications
communist
community
companion
company
comparative
comparison
complete
complex
compounds
comprehensive
computer
comte
con
cona
conan
concept
concert
concise
cone
conference
conflict
congress
coni
connecticut
connor
cono
conquest
conrad
conservation
constant
constantin
constantine
constantinople
constitution
construction
contemporary
content
context
continental
contra
control
convention
conway
cook
cooper
cop
copate
copy
copyright
cornelius
cornell
coronavirus
corporation
corps
corpus
corse
corte
cos
cosimo
costa
cot
could
council
countries
country
county
course
court
cov
cover
covid
cox
cp
cr
craig
crash
crawford
crazy
crc
cre
creation
creative
credits
crime
crisis
critical
crkve
croatia
croce
croix
cross
crown
cruise
crusades
cruz
crystal
cs
ct
cu
culo
cultural
culture
cum
cunj
cunje
cunjo
cup
curek
curkoma
current
curtis
cv
cve
cvet
cveta
cvete
cvetela
cvetele
cvetelo
cveti
cvetic
cvetice
cvetja
cvetje
cvetjem
cvetju
cvetka
cvetke
cvetko
cvetlic
cvetlica
cvetlicami
cvetlice
cvetni
cvetno
cveto
cvetoc
cvetov
cvetove
cvetovi
cvetu
cvic
cvrc
cyprus
cyril
cyrus
cz
czech
d
da
daan
dac
dacar
dado
dahnil
dahnila
dai
daily
daimler
daj
dajal
dajala
dajale
dajali
dajalo
dajati
daje
dajejo
dajem
dajmo
dajo
dajte
dakota
dal
dala
dale
dalec
dali
dalj
daljave
daljavi
daljavo
dalje
daljec
dalji
daljino
daljna
daljne
daljnega
daljnem
daljni
daljnih
daljno
daljnogled
daljo
daljs
dallas
dalmacije
dalmaciji
dalmacijo
dalmatin
dalmatinsko
dalo
dam
dama
damask
dame
dami
damijan
damir
damjan
damjana
damo
dan
dana
danas
dance
dandanas
dandanes
dane
danes
dani
danic
danica
danici
danico
daniel
daniela
danijel
danilo
danny
dano
dans
danska
danske
danskega
danskem
danski
danskih
dansko
dante
dar
dare
darej
daril
darila
darilo
darin
darinka
daritev
darja
dark
darko
darov
daroval
darovala
darovali
darove
darovi
darren
daru
daruje
darwin
das
dasi
dasiravno
dass
dassault
daste
dat
data
database
date
dati
datira
datiran
datos
datotek
datoteke
datum
datuma
datumi
datumom
davc
dave
davek
davi
david
davida
davidom
davidson
davies
davis
davisov
davka
davkar
davke
davki
davkov
davnih
davno
davor
davorin
davs
dawn
dax
day
days
daß
db
dc
dcr
dd
ddg
de
dead
deadurl
deal
dean
death
debate
debel
debela
debele
debelega
debelejs
debeli
debelih
debelim
debelimi
debeline
debeljak
debelo
debelus
debevec
debitantski
debitiral
debitirala
debla
deblo
deblu
deborah
dec
deca
december
decembra
decembrom
decembru
decline
deco
ded
deda
dedec
dedek
dedic
dedis
dedka
dedni
dedno
dedov
deds
deep
defence
defense
definicija
definicije
definiciji
definicijo
definira
definiran
definirana
definirani
definition
degli
dehtec
dei
dej
dejal
dejala
dejali
dejan
dejanj
dejanja
dejanje
dejanjem
dejanji
dejanjih
dejanju
dejanske
dejanski
dejansko
dejaven
dejavna
dejavnik
dejavnike
dejavniki
dejavnikov
dejavno
dejavnost
dejavnosti
dejavnostih
dejavnostjo
deje
dejstev
dejstva
dejstvo
dejstvom
dejstvu
dekan
dekana
dekanija
dekanije
dekla
deklaracija
dekle
deklet
dekleta
dekletce
dekleti
dekletom
dekletu
dekleva
dekli
deklic
deklica
deklice
deklici
deklico
deklina
deklis
deklo
dekoracija
dekoracije
dekoracijo
del
dela
delaj
delajo
delajte
delal
delala
delale
delali
delalo
delam
delamo
delas
delat
delata
delate
delati
delavca
delavce
delavcem
delavcev
delavci
delavec
delaven
delavka
delavke
delavnic
delavnica
delavnice
delavnici
delavnico
delavska
delavske
delavskega
delavski
delavskih
delavsko
delc
delca
delce
delcev
delci
dele
delec
delegacije
delez
delhi
deli
delih
delijo
delil
delila
delili
delimo
delitev
deliti
delitve
delitvi
delitvijo
delj
dell
della
delle
delni
delnic
delnice
delnis
delno
delo
delodajalec
delom
deloma
delov
deloval
delovala
delovale
delovali
delovalo
delovanja
delovanje
delovanjem
delovanju
delovati
delovna
delovne
delovnega
delovnem
delovni
delovnih
delovnim
delovno
delta
delte
delti
delu
deluje
delujejo
delujoc
dem
demi
demo
democracy
democratic
demokracija
demokracije
demokracijo
demokrat
demokrati
demokratic
demokratov
demokratska
demokratske
demon
demonstracije
dems
den
denar
denarja
denarje
denarjem
denarjev
denarji
denarju
denarna
denarne
denarni
denarnico
denarnih
denarno
denas
dene
denes
deni
denimo
denis
denkwu
dennis
departma
departmaja
departmaju
department
depresija
depresije
depresijo
depression
der
dere
derek
derivati
derndorfer
deroc
derz
des
description
desenis
desert
deset
deseta
desetega
desetem
deseti
desetih
desetimi
desetine
desetino
desetkrat
desetletij
desetletja
desetletje
desetletji
desetletjih
desetletju
desetnica
deseto
design
desk
deska
deske
deski
desko
desna
desne
desnega
desnem
desni
desnic
desnica
desnice
desnici
desnico
desnim
desno
despot
destinacija
desus
det
detail
details
detajl
dete
detektiv
detektiva
detela
detelja
deteta
detetom
detetu
detroit
deutsch
deutsche
deutschen
deutscher
deutschland
dev
deva
devanagarska
development
devet
deveta
devetak
devetdesetih
devete
deveti
devetih
devetimi
devetkrat
devetnajst
devetnajstega
deveto
devic
devica
device
devici
devico
devil
devin
devis
devojka
dez
dg
dh
di
dia
diabetes
diagnosis
diagnostic
diagnoza
diagnozo
diagram
diakon
diakona
dialog
dialogi
diamant
diamanti
diamond
diana
diane
diaz
dic
dick
dict
dictionaries
dictionary
dictionnaire
did
didaktic
didje
die
diego
dies
diese
dieser
dieter
dietrich
different
digital
digitalna
digitalne
digitalni
digitalnih
digitalno
dih
diha
dihal
dihala
dihalne
dihalnih
dihanja
dihanje
dihati
dihur
dijak
dijaka
dijake
dijaki
dijakov
dijas
diktator
dil
dim
dima
dimenzij
dimenzije
dimitrij
dimitrijevic
dimnik
dimnika
dimu
din
dina
dinamic
dinamo
dinarjev
dinastic
dinastija
dinastije
dinastiji
dinastijo
dino
dinske
dinu
dio
dioksid
dioksida
dion
dioniz
dios
diploma
diplomat
diplomatov
diplomatske
diplomatski
diplomatskih
diplomatsko
diplome
diplomi
diplomiral
diplomirala
diplomo
diplomska
diplomsko
dir
direct
director
directory
direktno
direktor
direktorica
direktorja
dirigent
dirja
dirjal
dirk
dirka
dirkac
dirkah
dirkal
dirkalis
dirkalnik
dirkalnika
dirkalniki
dirkalnikom
dirkalnikov
dirkas
dirke
dirki
dirko
diru
dis
disciplina
disciplinah
discipline
disciplini
disciplino
discogs
discovery
disease
diseases
disertacija
disertacijo
disk
diska
diskografija
diskriminacije
disney
disorders
displaystyle
distinguished
distribucijo
distribution
district
ditions
divac
divan
divanu
diversity
division
divizij
divizija
divizije
diviziji
divizijo
divja
divjac
divjak
divjaki
divjal
divjala
divje
divjega
divjem
divji
divjih
divjim
divjimi
divjo
divno
dizionario
dj
djal
djali
djvu
dk
dl
dlac
dlaka
dlake
dlako
dlan
dlani
dlanjo
dlanmi
dlib
dlje
dn
dna
dne
dneh
dnem
dneva
dneve
dnevi
dnevih
dnevna
dnevne
dnevnega
dnevnem
dnevni
dnevnih
dnevnik
dnevnika
dnevniku
dnevno
dnevom
dnevu
dni
dnij
dnk
dno
dnom
dnu
do
dob
doba
dobe
dober
dobesedno
dobi
dobic
dobijo
dobil
dobila
dobile
dobili
dobilo
dobim
dobimo
dobis
dobita
dobite
dobiti
dobitnik
dobitnike
dobiva
dobivajo
dobival
dobivala
dobivali
dobivati
dobo
dobra
dobrava
dobrave
dobravi
dobravo
dobre
dobrega
dobrem
dobremu
dobri
dobriga
dobrih
dobrim
dobrimi
dobrin
dobrine
dobro
dobrodelne
dobrodos
dobrodus
dobrohotno
dobrosrc
dobrot
dobrota
dobrote
dobroti
dobrotnik
dobrotnika
dobroto
dobrovoljno
dobrs
dobru
doc
docela
docent
doch
doctor
document
documents
doda
dodaja
dodajanje
dodajanjem
dodajo
dodal
dodala
dodali
dodamo
dodan
dodana
dodane
dodani
dodano
dodatek
dodaten
dodati
dodatki
dodatkom
dodatkov
dodatna
dodatne
dodatnega
dodatni
dodatnih
dodatnim
dodatnimi
dodatno
dodeli
dodelil
dodelili
dodeljen
dodeljena
dodobra
does
dog
dogaja
dogajajo
dogajalni
dogajalo
dogajanja
dogajanje
dogajanju
dognal
dognati
dogodbe
dogodek
dogodilo
dogodivs
dogodka
dogodke
dogodki
dogodkih
dogodkom
dogodkov
dogodku
dogovor
dogovora
dogovoril
dogovorila
dogovorili
dogovorjeno
dogovoru
dohitel
dohodek
dohodka
dohodke
dohodki
dohodkov
dohtar
doi
dojde
dojenc
dojke
dok
dokaj
dokaz
dokaza
dokazal
dokazala
dokazali
dokazana
dokazano
dokazati
dokaze
dokazi
dokazov
dokazoval
dokazuje
dokazujejo
dokler
dokonc
doktor
doktorat
doktoriral
doktorirala
doktorja
doktorju
doktorski
doktorsko
dokument
dokumenta
dokumentarni
dokumente
dokumenti
dokumentih
dokumentov
dokumentu
dol
dola
dolar
dolarjev
dole
dolenc
dolenja
dolenje
dolenji
dolenjska
dolenjske
dolenjskem
dolenjski
dolenjsko
dolet
doletela
doleti
dolg
dolga
dolgc
dolge
dolgega
dolgem
dolgi
dolgih
dolgim
dolgimi
dolgo
dolgoc
dolgoletni
dolgoletno
dolgoroc
dolgotrajna
dolgotrajno
dolgov
dolgove
doli
dolin
dolina
dolinah
dolinar
doline
dolini
dolino
dolnik
doloc
dolu
dolz
dom
doma
domac
domen
domene
domenico
domet
domingo
domini
dominik
dominika
dominikanski
dominique
domis
domisli
domislil
domislila
domisliti
domneva
domnevajo
domneval
domneve
domnevni
domnevno
domnevo
domo
domoljub
domom
domotoz
domov
domovanje
domove
domovi
domovih
domovina
domovine
domovini
domovino
domovje
domu
domz
don
dona
donald
donas
donava
donave
donavi
donavo
done
donec
donel
donelo
doni
donja
donji
donna
donne
dopade
dopis
dopisni
dopisnik
dopoldne
dopolnil
dopolnila
dopolnjena
dopolnjuje
dopovedati
doprsni
dopus
dopust
dopusta
dopustu
dora
dore
doria
dorica
doris
doro
doroteja
dorothy
dos
dosec
dosedaj
dosedanje
dosedanji
doseg
dosega
dosegajo
dosegal
doseganje
dosegel
dosegla
dosegle
dosegli
doseglo
dosego
dosez
dosledno
doslej
dosmrtno
dospe
dospel
dospela
dospeli
dospevs
dosta
dostavi
dostavil
dostavila
dosti
dostikrat
dostojanstva
dostojanstveno
dostojanstvo
dostojevski
dostojno
dostop
dostopa
dostopano
dostopen
dostopna
dostopne
dostopni
dostopnih
dostopno
dostopnost
dota
dotakne
dotaknil
dotaknila
dotakniti
dote
dotic
dotik
dotika
dotiko
dotlej
doto
douard
double
doubles
doug
douglas
dovelj
dover
dovers
dovoli
dovolil
dovolila
dovolili
dovolim
dovolite
dovoliti
dovolj
dovoljen
dovoljena
dovoljenja
dovoljenje
dovoljenjem
dovoljeno
dovoljuje
dovrs
down
doz
dozdaj
dozdeva
dozdevalo
dozorel
dozori
dr
dra
drac
drag
draga
dragan
drage
dragega
dragi
dragica
dragih
drago
dragocen
dragocena
dragocene
dragoceni
dragocenih
dragoceno
dragocenosti
dragon
dragotin
dragulji
dragutin
drake
dram
drama
dramatic
dramatik
dramatika
dramatike
dramatiki
dramatikov
dramaturg
drame
drami
dramo
dramska
dramske
dramski
dramskih
dramsko
dras
drastic
drava
drave
dravi
dravo
dravograd
dravske
dravskem
draz
drc
dre
dream
dreams
dregnil
drejc
dremal
drenaz
dres
dresden
dreves
drevesa
drevesi
drevesih
drevesnih
drevesom
drevesu
drevi
drevja
drevje
drevjem
drevju
drevo
drevored
drevoredu
drew
drhal
drhtec
drhtela
drhti
driska
drive
drl
drla
drli
drnovs
dro
droben
drobiz
drobna
drobne
drobnega
drobni
drobnic
drobnih
drobnimi
drobno
drobtinice
drog
droga
droge
dru
drug
druga
drugac
drugam
druge
drugega
drugej
drugem
drugemu
drugi
drugic
drugih
drugikrat
drugim
drugimi
drugje
drugo
drugod
drugs
druhal
drus
druz
druzega
druziga
druzih
drv
drva
drvar
drvarji
drvi
drz
drzen
drzne
drzni
drznil
drzno
ds
dt
du
dublin
dubrovnik
dubrovniku
dubrovnis
duc
ducat
due
duet
duh
duha
duhom
duhov
duhove
duhoven
duhovi
duhovito
duhovna
duhovne
duhovnega
duhovni
duhovnih
duhovnik
duhovnika
duhovnike
duhovniki
duhovnikom
duhovnikov
duhovniku
duhovnis
duhovno
duhovs
duhu
duke
dular
dunaj
dunaja
dunajc
dunaji
dunajska
dunajske
dunajskega
dunajskem
dunajski
dunajskih
dunajsko
dunaju
duncan
dune
duo
duomo
dur
durch
duri
durih
durim
during
durmi
duru
durud
dus
dusna
dussel
dutch
dux
dva
dvajset
dvajsetega
dvajsetih
dvajsetimi
dvakrat
dvanajst
dvanajsti
dvanajstih
dvanajstimi
dvanajsto
dvd
dve
dveh
dvema
dvesto
dvig
dviga
dvigajo
dvigal
dvigala
dvigale
dvigali
dvigalo
dvigati
dvigne
dvignejo
dvignil
dvignila
dvignile
dvignili
dvignilo
dvigniti
dvignjeno
dviguje
dviz
dvo
dvoboj
dvoboja
dvoboju
dvoc
dvojbe
dvojc
dvoje
dvojezic
dvojic
dvojica
dvojice
dvojna
dvojne
dvojnega
dvojnem
dvojni
dvojnih
dvojnim
dvojno
dvom
dvoma
dvome
dvomi
dvomil
dvomim
dvomiti
dvor
dvora
dvoran
dvorana
dvoranah
dvorane
dvorani
dvorano
dvoranskih
dvorca
dvorcu
dvorec
dvori
dvoris
dvorna
dvorne
dvornega
dvorni
dvorom
dvoru
dvoz
dx
dynamics
dynasty
dz
dzong
dzs
e
ea
eagle
eagles
earl
earliest
early
earth
earthquake
east
eastern
eb
ebel
ebela
ebelar
ebele
ebelj
eberhard
ec
eca
ecclesia
ece
eclipse
ecology
economic
economics
economist
economy
ed
eda
edad
edalje
eddie
eden
edgar
edge
edi
edina
edinburgh
edine
edinega
edini
edino
edinole
edinost
edinosti
edinstven
edinstvena
edinstvene
edinstveno
edited
edith
edition
editions
editor
editore
editorial
edmond
edmund
edna
edne
edno
ednost
ednosti
edo
eds
edu
eduard
eduardo
education
educational
edvard
edvarda
edward
edwarda
edwards
edwin
ee
ef
efa
efekt
effect
effects
efom
efu
eg
ega
egar
ege
egi
egipc
egipt
egipta
egiptologi
egiptovski
egiptu
ego
egon
egypt
egyptian
eh
eha
ehe
ehi
eho
ehov
ei
ein
eine
einem
einen
einer
eines
einstein
ej
eja
eje
ejen
eji
ejna
ejni
ejo
ek
eka
ekip
ekipa
ekipe
ekipi
ekipni
ekipno
ekipo
ekliptiki
ekolos
ekonomic
ekonomija
ekonomije
ekonomijo
ekonomist
ekonomska
ekonomske
ekonomski
ekonomskih
ekonomsko
ekosistem
ekscelenca
eksotic
ekspedicije
eksperimentalni
eksperimentalno
eksplozija
eksplozije
eksploziji
eksplozijo
eku
el
ela
elada
elade
elado
elah
elam
elami
elastic
ele
eleanor
elec
election
electric
electronic
eleganten
elegantna
elegantno
elektrarn
elektrarna
elektrarne
elektric
elektrika
elektrike
elektriko
elektro
elektron
elektrona
elektroni
elektronov
elektronska
elektronske
elektronski
elektronskih
elektronsko
elektrotehnik
elektrotehniko
elel
elela
eleli
elelo
element
elementa
elemente
elementi
elementov
elements
elen
elena
elene
elenega
eleni
elenih
elenje
eleno
eleti
eleza
elezar
elezen
elezna
elezne
eleznega
elezni
eleznic
eleznica
eleznice
eleznici
eleznico
eleznih
eleznik
elezniki
eleznimi
eleznis
elezno
elezo
elezom
elezov
eli
elias
elic
elih
elija
elijo
elim
elimo
eliptic
elis
elisabeth
elita
elite
eliteprospects
eliza
elizabeta
elizabete
elizabeth
elizabeto
elj
elja
eljah
eljam
elje
elji
eljivo
eljko
eljni
eljno
eljo
elju
eljust
eljusti
elk
elkami
elke
ella
elle
ellen
elliott
ellis
elna
elne
elnega
elnem
elnemu
elni
elnih
elnik
elnika
elno
elo
elodc
elodca
elodcu
elodec
elom
eloma
elsevier
elski
elskih
elsko
elton
elu
elva
elvira
elvis
elza
em
ema
emanuel
emanuela
emanuele
embalaz
embraer
eme
emer
emeren
emergency
emerson
emi
emil
emile
emilia
emilija
emilio
emily
emir
emma
emmanuel
emo
emperor
empeter
empire
empiric
emu
emur
en
ena
enac
enajst
enajsta
enajsti
enajstih
enajsto
enak
enaka
enake
enakega
enakem
enaki
enakih
enakim
enakimi
enako
enakomerno
enakopravnost
enakost
enakosti
enakovreden
enakovredna
enakovredno
enam
enami
enas
enc
enca
ence
encem
encev
enci
enciclope
enciclopedia
enciklopedic
enciklopedija
enciklopedije
encim
encima
encimi
encimov
encu
encyclopaedia
encyclopedia
encyclopædia
end
endemic
ene
enec
enega
enej
enejo
enem
enemu
energic
energija
energije
energijo
energy
enevi
eng
engel
engelbert
engels
engine
engineering
engines
england
english
eni
enic
enica
enice
enici
enico
eniga
enih
enik
enika
eniki
enikov
eniku
enil
enim
enimi
enin
enina
enine
enini
enino
eninu
enir
enirja
enirjev
enirji
enirski
enis
enitev
eniti
enitovanje
enitvi
enj
enja
enjajo
enjak
enjaka
enjaki
enjakov
enjal
enjas
enje
enjem
enjen
enji
enjstva
enjstvo
enju
enk
enka
enke
enki
enko
enkrat
enkratno
eno
enoglasno
enolic
enost
enostaven
enostavna
enostavne
enostavnejs
enostavno
enosti
enostjo
enot
enota
enotah
enotam
enotami
enote
enoten
enoti
enotna
enotne
enotnega
enotni
enotno
enotnost
enotnosti
enoto
enrico
enrique
ens
ensk
enska
enskah
enskam
enskami
enske
enskega
enskem
enski
enskih
enskim
enskimi
ensko
enstva
enstvo
ent
enterprise
entertainment
enthaltend
entjanz
entjur
entre
entry
entvid
entvidu
enu
environment
environmental
enzo
enzyklopa
eo
ep
epa
epafrodit
epe
epec
epel
epela
epet
epeta
epetaje
epetajoc
epetal
epetala
epetale
epetali
epetanje
epi
epic
epico
epidemije
epih
epika
epizod
epizoda
epizode
epizodi
epizodo
epne
epnil
epnila
epov
eprav
epsilon
epu
equiv
er
era
eraj
erajs
eravno
erazem
erdo
ere
eren
eri
eric
erica
erich
erih
erik
erika
erin
erja
erjal
erjali
erjav
erjavec
erjavico
erje
erji
erjo
erka
erke
erki
erko
ern
erna
erne
ernega
ernem
ernest
ernesto
erni
ernic
ernica
ernice
ernigoj
ernih
erno
ernov
ernova
ernove
ernovega
ernovi
ernovih
ernovo
ernst
ernu
ero
erom
erotic
erov
erozije
eru
ervin
erwin
erz
es
esa
esar
esc
esej
esejev
eseji
esejist
esen
esi
esih
eske
eslav
esna
esne
esom
espan
espn
essay
essays
essential
est
esta
estdeset
estdesetih
este
estega
estem
estetsko
esti
estih
estim
estimi
estitam
estkrat
estnajst
estnajstih
esto
estokrat
estonian
estonija
estonije
estoniji
esu
et
eta
etami
etar
etaz
etc
ete
etek
eteric
etev
ethnic
eti
etic
etih
etika
etike
etiko
etimologija
etimolos
etja
etje
etju
etka
etke
etki
etkom
etkoma
etkov
etku
etna
etne
etnem
etni
etnic
etnico
etnih
etnik
etnika
etniki
etno
etnolog
etnolos
eto
etom
etov
etova
etove
etovega
etovem
etovi
etovih
etovo
etovsko
etrt
etrta
etrte
etrtega
etrtek
etrtem
etrtfinale
etrti
etrtic
etrtine
etrtino
etrto
etrus
ettore
etu
etudi
etzrodt
eu
euge
eugen
eugene
eugenio
euler
eur
euro
eurocopter
eurohockey
europa
europaea
europe
european
eurovision
ev
eva
evac
eval
evala
evalca
evalce
evalcev
evalci
evale
evalec
evali
evalna
evalne
evalnega
evalni
evalnih
evalno
evalo
evaluation
evan
evana
evangelic
evangelij
evangelija
evangelist
evangelista
evanj
evanja
evanje
evanjem
evanju
evans
evar
evat
evati
evc
evci
evdora
eve
evec
evega
evelina
evelj
eveljc
evem
evemu
even
events
ever
everything
evgen
evgenija
evi
evic
evica
evidenc
evidence
evih
evim
evimi
evin
evina
evinah
evine
evini
evino
evito
evja
evje
evjem
evju
evka
evlja
evljar
evlje
evljev
evlji
evljih
evna
evne
evnega
evnem
evni
evnih
evnik
evniki
evnikov
evnim
evnimi
evno
evnost
evnosti
evnostjo
evo
evolucije
evolution
evro
evropa
evrope
evropejci
evropi
evropo
evroposlancev
evropska
evropske
evropskega
evropskem
evropski
evropskih
evropskim
evropskimi
evropsko
evrov
evrovizije
evska
evske
evskega
evskem
evski
evsko
evstahij
evzebij
ex
excavations
exchange
exhibition
exp
experience
experimental
exploration
express
eyck
eye
eyes
ez
ezenj
ezlo
ezneptunsko
f
fa
faber
fabio
face
facebook
fact
factbook
facto
factor
facts
fair
faith
fajmos
fajon
faktor
faktorjev
faktorji
fakultet
fakulteta
fakultete
fakulteti
fakulteto
falcon
falk
fall
falls
fame
families
family
famous
fan
fanatic
fani
fanika
fanny
fant
fanta
fantastic
fantazija
fantazije
fante
fantek
fanti
fantic
fantje
fantom
fantov
fantu
far
fara
faraon
faraona
faraoni
faraonov
fare
fari
farm
farmacevtski
farne
farnese
faro
farovz
fas
fasada
fasade
fasadi
fasado
fasc
fast
father
fatur
faust
faz
faza
fazah
faze
fazi
fazo
fbi
fbref
fc
fda
fdv
fe
fear
features
feb
februar
februarja
februarjem
februarju
february
federacija
federacije
federal
federation
federativne
federico
fej
feldmars
felice
feliks
felipe
felix
female
feministic
fenic
fenomen
feodor
fer
ferdinand
ferdinanda
ferdinando
ferdinandu
ferdo
ferenc
ferguson
feri
ferjan
ferna
fernando
ferrara
ferrari
festival
festivala
festivalih
festivalov
festivalu
fevd
ff
ffler
fi
fia
fiat
fic
fiction
fide
field
fifa
fifth
fight
fighter
fighters
fighting
figo
figur
figura
figurami
figure
figures
figuri
figuro
fil
file
files
filharmonije
filip
filipa
filipini
filipom
filipovic
filippo
filipu
film
filma
filme
filmi
filmih
filmom
filmov
filmportal
films
filmska
filmske
filmskega
filmskem
filmski
filmskih
filmsko
filmu
filolog
filozof
filozofa
filozofi
filozofija
filozofije
filozofiji
filozofijo
filozofov
filozofska
filozofske
filozofski
filozofskih
filozofsko
fin
fina
final
finala
finale
finalni
finalu
financ
financar
finance
financial
financiranja
financiranje
find
fine
fini
fink
fino
finska
finske
finskem
finski
finskih
finsko
finz
fire
firenc
firencah
firence
firenze
first
fis
fischer
fish
fisher
fitzgerald
five
fiz
fizic
fizik
fizika
fizikalna
fizikalne
fizikalni
fizikalnih
fizikalno
fizike
fiziki
fiziko
fizikov
fiziologijo
fiziolos
fjalor
fjodor
fjodorovic
fl
flag
flajs
flamski
flavij
flavta
flavto
fleet
fleming
fletcher
flight
flis
flora
flore
florence
florian
florida
florijan
florjan
flota
flote
floto
flower
floyd
fly
flying
fm
fo
focus
fokker
fokus
folk
foltan
fontana
fontane
food
foot
football
for
forbes
force
forces
ford
foreign
forest
form
forma
formacije
formalne
formalni
formalno
format
formation
formatu
forme
former
formula
formule
formuli
formulo
fort
fortuna
forum
foruma
forumu
foscari
fosilnih
foster
foto
fotograf
fotografij
fotografija
fotografije
fotografiji
fotografijo
fotomodel
found
foundation
four
fourth
fox
fr
fra
frac
fragment
fragmenti
fragmentov
frak
fran
frana
franc
franca
france
francelj
frances
francesca
francesco
franceta
francetu
franci
francija
francije
franciji
francijo
francis
francisca
francisco
francka
franco
francos
francoska
francoske
francoskega
francoskem
francoskemu
francoski
francoskih
francoskim
francoskimi
francosko
francoz
francoza
francoze
francozi
francozje
francozom
francozov
francu
frane
franica
franja
franjo
frank
franka
frankfurt
frankfurtu
franki
franklin
franko
frankom
frankopan
frankov
frankovske
frankovskega
frankovski
frankovsko
frans
frantis
franz
fras
fraser
fraze
frc
fre
fred
frederic
frederick
free
freedom
freeman
freiburg
freiherr
frekvenc
frekvenca
frekvence
frekvenco
french
fresk
freska
freskami
freske
fresko
freud
frey
fric
friderik
friderika
friderikom
frideriku
fridrih
friedrich
friedricha
friends
fritz
friz
fro
from
front
fronta
fronte
fronti
fronto
fru
fs
ft
fu
fuc
fudz
full
function
fund
fundacija
fundacije
funkcij
funkcija
funkcije
funkciji
funkcijo
funkcionalne
funkcionalno
funkcionar
funt
funtov
furlan
furlaniji
furlanski
furlansko
futbol
future
fuz
fw
fzs
g
ga
gab
gaber
gabriel
gabriela
gabriele
gabrijel
gabrijela
gac
gad
gada
gaetano
gaga
gaia
gaj
gaja
gaje
gaju
gal
gala
galaksij
galaksija
galaksije
gale
galeb
galerij
galerija
galerije
galeriji
galerijo
gales
gali
galic
galicija
galicije
galiciji
galicijsko
galije
galiji
galijo
galileo
gall
gallery
galo
gama
game
games
gamma
gams
gan
gana
gance
gane
gani
ganih
ganil
ganila
ganilo
ganiti
ganja
ganje
ganjem
ganjen
ganju
gano
ganov
ganske
ganski
ganskih
gansko
gantar
gar
garaz
garci
garcia
garda
garde
garden
gardens
gardna
gardner
gardni
gary
gas
gasilci
gasilski
gasilsko
gaskonji
gaskonsko
gaston
gate
gati
gaulle
gay
gaz
gazela
gazette
gazetteer
gazi
gb
ge
geboren
gec
gegen
gegenwart
gejo
gejs
gel
gelebt
gem
gemeinsame
gen
gena
gender
gene
geneastar
generacij
generacija
generacije
generaciji
generacijo
general
generala
generale
generali
generalmajor
generalmajorja
generalna
generalnega
generalni
generalom
generalov
generalpolkovnik
generalporoc
generals
generalu
generation
generator
generic
genetic
genetics
genetske
genetsko
geni
genij
genija
genocide
genov
genova
genovefa
gentiana
geo
geoffrey
geograf
geografija
geografije
geografijo
geografska
geografske
geografski
geografskih
geografsko
geographic
geographical
geography
geolog
geological
geology
geolos
geometric
geometrija
geometrije
geometriji
geometrijo
geopedia
geopediji
georg
georga
george
georgea
georges
georgia
georgij
geq
ger
gerald
gerard
gerhard
germain
german
germanski
germanskih
germany
gers
ges
geschichte
gesel
gesellschaft
gesla
geslo
gesta
get
gets
getty
gewirkt
geza
gg
gi
gia
giacomo
gian
gianni
giant
gibal
gibanj
gibanja
gibanje
gibanjem
gibanju
gibati
gibc
giblje
gibljejo
gibson
gil
gilbert
gilles
gimnazija
gimnazije
gimnaziji
gimnazijo
gimnazijski
gina
gine
ginjen
giorgio
giovanni
giovannija
girl
girls
giro
girolamo
gis
giuliano
giulio
giuseppe
give
gizela
gjac
gjuhe
gl
gla
glad
gladek
gladi
gladil
gladina
gladine
gladini
gladino
gladka
gladke
gladki
gladkih
gladko
gladu
glagol
glagola
glal
glas
glasba
glasbe
glasbena
glasbene
glasbenega
glasbenem
glasbeni
glasbenica
glasbenih
glasbenik
glasbenika
glasbeniki
glasbenikov
glasbeno
glasbi
glasbila
glasbilo
glasbo
glase
glasek
glasen
glasi
glasil
glasila
glasilo
glasna
glasne
glasneje
glasnejs
glasni
glasnik
glasnim
glasno
glasom
glasov
glasovanja
glasovanje
glasovanju
glasove
glasovi
glass
glasu
glav
glava
glavah
glavami
glavar
glavarja
glavarju
glave
glavi
glavica
glavice
glavico
glavna
glavne
glavnega
glavnem
glavnemu
glavni
glavnih
glavnik
glavnim
glavnimi
glavno
glavo
glavobol
glaz
gld
gle
gleda
gledaje
gledajo
gledajoc
gledal
gledala
gledalca
gledalce
gledalcev
gledalci
gledalcu
gledale
gledalec
gledali
gledalis
gledalo
gledam
gledamo
gledanje
gledano
gledas
gledat
gledata
gledate
gledati
glede
gledis
glej
glejte
glenn
glez
gli
glih
glili
glina
gline
glive
global
globalni
globalno
globalsecurity
globe
globel
globeli
globin
globina
globinah
globine
globini
globino
globlje
globoc
globok
globoka
globoke
globokega
globokem
globoki
globokih
globokim
globoko
globus
gloria
glossary
glu
gluh
gluha
gluhi
glukoze
glumac
glus
gm
gmajni
gmbh
gnada
gnal
gnala
gnali
gnalo
gnec
gnetli
gnev
gnezda
gnezdi
gnezdo
gnezdu
gnjezdo
gnoj
gnoja
gnu
gnus
gnusa
go
gob
goba
gobc
gobe
gobec
gobo
goc
god
godalni
godba
godbe
godbo
godca
godci
gode
godec
godel
godi
godilo
godina
godine
godrnja
godrnjal
gods
godu
godujejo
godujes
goes
goethe
goga
gogala
gojenje
goji
gojijo
gojil
gojila
gojili
gojiti
gojko
gol
gola
golar
golc
gold
golden
goldinar
goldinarjev
goldstein
gole
golega
golem
golf
goli
golic
golih
golimi
golja
goljevs
goljuf
golo
golob
goloba
golobc
golobic
golobica
golov
gomez
gomila
gomile
gomili
gomilo
goni
gonil
gonili
gonjac
gonza
gonzaga
good
google
gor
gora
gorah
gorak
gorami
goran
goransko
gorazd
gorbac
gorc
gordon
gore
gorec
gorel
gorela
gorele
goreli
gorelo
gorenja
gorenje
gorenjec
gorenji
gorenjska
gorenjske
gorenjskega
gorenjskem
gorenjski
gorenjsko
goreti
gori
goric
gorica
goricah
gorice
gorici
gorico
goris
goriv
goriva
gorivo
gorja
gorjac
gorjancev
gorjanci
gorje
gorjup
gorka
gorke
gorkega
gorki
gorko
gornik
gornis
gornja
gornje
gornjega
gornjem
gornji
gornjo
goro
gorovja
gorovje
gorovju
gors
gorska
gorske
gorskega
gorskem
gorski
gorskih
gorsko
gos
gosenice
gosi
gosli
gosp
gospa
gospe
gospej
gospica
gospo
gospod
gospoda
gospodar
gospodari
gospodarica
gospodaril
gospodariti
gospodarja
gospodarje
gospodarjem
gospodarjev
gospodarji
gospodarju
gospodarska
gospodarske
gospodarskega
gospodarskem
gospodarski
gospodarskih
gospodarsko
gospodarstva
gospodarstvenik
gospodarstvo
gospodarstvu
gospode
gospodi
gospodic
gospodine
gospodinja
gospodinje
gospodinji
gospodinjila
gospodinjo
gospodinjstev
gospodinjstva
gospodinjstvo
gospodinjstvu
gospodje
gospodo
gospodom
gospodov
gospodovo
gospodu
gospos
gosposka
gosposke
gosposki
gosposkih
gosposko
gospostva
gospostvo
gospvd
gost
gosta
gostac
goste
gostega
gostejs
gostem
gosti
gostih
gostijo
gostil
gostila
gostili
gostilna
gostilnah
gostilne
gostilni
gostilnic
gostilnici
gostilnico
gostilnis
gostilno
gostim
gostimi
gostis
gostitelj
gostitelja
gostje
gosto
gostoljubnost
gostom
gostota
gostote
gostoto
gostov
gostu
gostujoc
got
gothic
goti
gotike
gotov
gotova
gotove
gotovega
gotovi
gotovo
gotovost
gotovostjo
gots
gotska
gotske
gotskega
gotskem
gotski
gotskih
gotsko
gott
gottfried
gotthard
gould
gov
goveda
govedo
govekar
government
govo
govor
govora
govorcev
govorci
govore
govorec
govori
govoric
govorica
govorice
govorici
govorico
govorijo
govoril
govorila
govorile
govorili
govorilo
govorim
govorimo
govoris
govorita
govorite
govoriti
govoriva
govorjenja
govorjenje
govornik
govornika
govornis
govorom
govorov
govoru
gozd
gozda
gozdar
gozdarski
gozdarstvo
gozde
gozdi
gozdic
gozdih
gozdna
gozdne
gozdnega
gozdni
gozdnih
gozdno
gozdom
gozdov
gozdove
gozdovi
gozdovih
gozdu
goſpa
gp
gps
gr
gra
graben
grabez
grabi
grablje
grac
grace
grad
grada
gradas
gradbena
gradbene
gradbenega
gradbeni
gradbenih
gradbenik
gradbenis
gradca
gradcu
gradec
grades
gradi
gradic
gradijo
gradil
gradili
gradis
graditelj
graditi
gradiva
gradivo
gradnik
gradnja
gradnje
gradnji
gradnjo
gradom
gradov
gradove
gradovi
gradovih
gradu
graf
grafa
grafenauer
grafic
grafik
grafike
grafov
grah
graham
grajs
grajska
grajske
grajskega
grajskem
grajski
grajskih
grajskim
grajsko
grammy
gran
granat
granata
granate
grand
grande
granic
granita
grant
grape
grapi
grapo
gras
grave
gravitacije
gray
graz
grb
grba
grbi
grbom
grbu
grc
grd
grda
grde
grdega
grdi
grdo
grdoba
gre
great
greatest
greben
grebena
grebeni
grebenu
greco
gred
grede
gredi
gredo
gredoc
greece
greek
green
greene
greenwood
greg
grega
gregec
gregor
gregorc
gregoric
gregorij
gregorijanskem
gregorio
gregorja
gregorju
gregory
greh
greha
grehe
grehi
grehov
grehu
greje
grejo
grel
grem
gremo
grenadier
grenadirski
grenak
grenka
grenke
grenkega
grenko
gres
gresta
greste
greva
grey
grga
gric
grigorij
grill
grimm
gris
griva
grivo
griz
grize
grizel
grizla
grk
grki
grkov
grl
grla
grlo
grlu
grm
grma
grmada
grmade
grmadi
grmado
grmec
grmelo
grmenje
grmi
grmic
grmom
grmovja
grmovje
grmovjem
grmovju
grmu
gro
grob
groba
grobem
grobis
grobna
grobnic
grobnica
grobnice
grobnici
grobnico
grobo
grobom
grobov
grobove
grobovi
grobovih
grobu
grof
grofa
grofi
grofic
grofica
grofice
grofici
grofico
grofija
grofije
grofiji
grofijo
grofinja
grofje
grofom
grofov
grofovo
grofu
groga
grom
gros
gross
grosuplje
ground
group
groups
grove
growth
groz
groza
grozd
grozdja
grozdje
groze
grozec
grozen
grozi
grozil
grozila
grozili
grozna
grozne
groznega
grozni
groznih
grozno
grozo
grozovito
grs
gru
gruber
gruc
gruda
gruden
grudi
grumman
grunt
grunta
grup
grupa
grupe
grupo
grus
gruyter
gruzija
gruzije
gruziji
gruzijski
gs
gt
gu
guardian
gube
gubec
gubi
guerra
guez
guide
guidelines
guides
guido
guillaume
guinness
guitar
gumb
gumbe
gumbi
gume
gun
gur
gus
gustav
gustava
gustave
gut
gutenberg
guverner
guvernerja
guvernerjev
guy
gv
gvineja
gyo
h
ha
haas
habe
haben
habitat
habitatov
habsburs
habsburz
hac
had
hadrijan
hadz
hafner
haha
hahaha
hahn
hajd
hajdi
hal
hale
half
hali
halil
halji
haljo
hall
halle
halo
hals
hamburg
hamburgu
hamilton
hamlet
hammond
han
hana
hanca
hancock
hand
handbook
handbuch
handz
hanna
hannah
hannover
hans
hansa
hansen
happy
harald
hard
hardy
harmonic
harmonija
harmonije
harmonijo
harmonika
harmonike
harmoniko
harold
harper
harris
harrison
harry
hart
hartman
hartmann
harvard
harvey
has
hasan
hat
haus
haut
haute
havbic
have
haven
havilland
hawk
hawker
hayden
hayes
hbo
hc
hd
he
head
health
heart
heather
heaven
heavy
hebrejs
hebrejsko
heer
heera
heian
heidelberg
heidelbergu
heine
heinrich
heinz
hej
hektarjev
helen
helena
helene
heleni
helenistic
heleno
helga
helicopter
helija
helikopter
helikopterjev
hell
helmut
help
helsinki
henderson
hendrik
henley
henri
henrik
henrika
henrikom
henriku
henry
henryja
hepatitis
hepatitisa
her
herald
herbart
herberstein
herbert
herbie
hercegovina
hercegovine
hercegovini
herder
here
herge
heritage
herman
hermana
hermann
hermes
hermina
hero
herodot
heroj
heroja
herojev
herr
herzog
hesse
het
hg
hi
hidravlic
hidroelektrarna
hidroelektrarne
hier
hierarchy
hierarhic
hieronim
high
higher
hilarij
hilary
hilds
hill
hills
hilton
him
himna
himne
himno
hinavec
hinavs
hinavsko
hindi
hinko
hip
hipa
hipec
hiperbolic
hipno
hipoma
hipoteza
hipotezo
hipov
hipu
hiros
his
histoire
historia
historic
historical
histories
history
hit
hite
hitec
hitel
hitela
hitele
hiteli
hitelo
hiter
hiteti
hiti
hitijo
hitim
hitler
hitlerja
hitra
hitre
hitrega
hitreje
hitrejs
hitrem
hitri
hitrih
hitrim
hitro
hitrost
hitrosti
hitrostjo
hits
hiv
hk
hkrati
hkratu
hl
hlac
hlad
hladen
hladi
hladna
hladne
hladnega
hladnejs
hladnem
hladni
hladnih
hladnik
hladnim
hladno
hladnokrvno
hladu
hlajenje
hlapc
hlapca
hlapce
hlapcem
hlapcev
hlapci
hlapcu
hlapec
hlastno
hld
hleb
hlebec
hlev
hleva
hleve
hlevi
hlevih
hlevom
hlevu
hlod
hm
hms
ho
hoa
hoc
hockey
hockeydb
hoda
hodi
hodijo
hodil
hodila
hodile
hodili
hodilo
hodim
hodimo
hodis
hodita
hodite
hoditi
hodnik
hodnika
hodniki
hodnikih
hodniku
hodz
hoffman
hoffmann
hofmann
hoj
hoja
hoje
hoji
hojo
hokej
hokeja
hokejist
hokejistov
hokejska
hokejske
hokejski
hokeju
holesterola
holland
hollywood
holmes
holmu
holocaust
holstein
holt
holy
home
homer
homo
honda
hong
honore
hop
hope
hopkins
hopsasa
hor
hora
horace
horde
hormon
hormonov
horn
horse
horst
horvat
hos
hospital
host
hoste
hosti
hostnik
hosto
hot
hote
hotec
hotel
hotela
hotele
hoteli
hotelo
hotelov
hotelu
hotimir
houghton
house
houston
hov
how
howard
howe
hp
hr
hraber
hrabri
hrabro
hrabrost
hrabrosti
hram
hrama
hramu
hrana
hrane
hrani
hranijo
hranil
hranila
hranili
hraniti
hrano
hrast
hrasta
hrasti
hrastnik
hrastom
hrastov
hrastovih
hrastovimi
hrastu
hrbet
hrbta
hrbtenjac
hrbtni
hrbtom
hrbtu
hrc
hren
hrepenec
hrepenel
hrepenela
hrepenenja
hrepenenje
hrepenenjem
hrepenenju
hrepeni
hrer
hres
hrib
hriba
hribar
hribc
hribe
hribi
hribih
hribom
hribov
hribovja
hribovje
hribovju
hribu
hripav
hripavim
hripavo
hros
hrovat
hrsg
hrt
hrudos
hrup
hrupa
hrupno
hrus
hrust
hrv
hrvas
hrvat
hrvata
hrvate
hrvati
hrvatje
hrvatov
hrvatska
hrvatske
hrvatskem
hrvatski
hrvatsko
hs
htm
html
http
https
hu
hubble
huber
hubert
hud
huda
hude
hudega
hudem
hudi
hudic
hudih
hudim
hudo
hudoba
hudobec
hudoben
hudobije
hudobijo
hudobna
hudobne
hudobnega
hudobnez
hudobni
hudobnih
hudobno
hudodelec
hudodelstva
hudodelstvo
hudomus
hudournik
hudoval
hudson
huduje
hugh
hughes
hugo
huje
hujs
hull
hum
human
humanist
humanistic
humanities
humar
humor
humoristic
humorja
hung
hungarian
hungary
huni
hunt
hunter
hura
hus
hvala
hvale
hvalez
hvali
hvalijo
hvalil
hvalila
hvalili
hvaliti
hvaljen
hvalo
hz
i
ia
iaaf
ian
iau
ib
iba
ibe
ibek
iberskega
ibi
ibid
ibila
ibka
ibke
ibkejs
ibki
ibko
ibm
ibn
ibo
ibrahim
ic
ica
icah
icam
icami
icarus
ice
ich
ici
ico
id
ida
idane
idar
ide
ideal
ideale
ideali
idealna
idealni
idealno
idealov
idej
ideja
idejami
ideje
ideji
idejo
idel
identic
identification
identifikacijo
identiteta
identitete
identiteto
identity
ideologije
ideolos
idi
idilic
idite
idje
ido
idov
idr
idrija
idriji
ie
ieſt
if
ifrer
ig
iga
igajo
igal
igali
igar
igav
igava
ige
iger
igla
igle
iglo
ign
ignac
ignacij
ignacija
igo
igon
igor
igorja
igra
igrac
igrad
igrah
igrajo
igral
igrala
igralca
igralce
igralcem
igralcev
igralci
igralcu
igrale
igralec
igrali
igralk
igralka
igralke
igralko
igralo
igralske
igralski
igralsko
igram
igrami
igrani
igranja
igranje
igranjem
igranju
igrata
igrati
igre
igri
igris
igro
igu
ih
ihm
ihr
ihre
ihtec
ihtela
ihtenje
ihti
ii
iii
ij
ija
ijaz
ije
ijejo
ijem
iji
ijo
ijs
iju
ijv
ik
ika
ikal
ike
iki
iknil
iko
ikona
ikone
ikov
il
ila
ilah
ilca
ilcev
ile
ilec
ilegalno
ilen
ili
ilic
ilih
ilija
ilirija
ilirska
ilirske
ilirski
ilirskih
ilirsko
ilis
ilja
iljajo
iljal
iljala
iljali
iljanje
iljati
iljus
ilka
illinois
illustrated
ilna
ilne
ilnega
ilnem
ilni
ilnice
ilnico
ilnih
ilnik
ilnim
ilnimi
ilno
ilnost
ilnosti
ilnostih
ilnostmi
ilo
ilom
iloma
ilona
ilu
ilustracija
ilustracije
ilustrator
ilustriral
ilustrirala
im
ima
image
images
imajo
imam
imamo
imas
imata
imate
imava
imbolj
imdalje
imdb
ime
imej
imejte
imel
imela
imele
imeli
imelo
imen
imena
imeni
imenih
imenik
imeniten
imenitna
imenitne
imenitnega
imenitni
imenitnih
imenitno
imenom
imenoval
imenovala
imenovali
imenovalo
imenovan
imenovana
imenovane
imenovanega
imenovanem
imenovani
imenovanih
imenovanim
imenovanja
imenovanje
imenovanju
imenovano
imenovati
imenu
imenuje
imenujejo
imenujem
imenujemo
imer
imeti
imetja
imetje
imi
imir
imo
impact
imperial
imperij
imperija
imperiju
implications
imprej
impresionistic
imu
imunskega
imunski
in
ina
inac
inah
inam
inami
inar
inc
inca
inci
incident
including
indeks
independent
index
india
indian
indiana
indianapolis
indija
indijancev
indijanci
indijanec
indije
indiji
indijo
indijska
indijske
indijskega
indijskem
indijski
indijskih
indijsko
individual
individualne
individualni
individualno
indo
indonesia
industrial
industries
industrija
industrije
industriji
industrijo
industrijska
industrijske
industrijski
industrijskih
industrijsko
industry
ine
inec
inega
inek
inem
ines
infanterie
infantry
infection
infectious
influence
info
informacij
informacija
informacije
informacijo
informacijska
informacijske
informacijski
informacijskih
informacijsko
information
infrardec
infrastruktura
infrastrukture
infrastrukturo
infty
ing
inge
ingolic
ingrid
ini
inih
inil
inila
inilo
inj
inja
injskega
ink
inka
inke
inki
inko
inkom
inkov
inkovec
inkovin
inkovina
inkovine
inkovit
inkovita
inkovite
inkovitejs
inkoviti
inkovito
inkovitost
inkovitosti
innsbruck
innsbrucku
ino
inocenc
inom
inoma
inorganic
inov
inovacije
ins
inscriptions
insee
inside
inska
inske
inskega
inskem
inski
inskih
inskim
inskimi
insko
instava
institucij
institucija
institucije
institut
institute
institution
instrument
instrumente
instrumenti
instrumentov
instva
instvo
instvom
instvu
int
integral
intelektualne
intelektualno
inteligenca
inteligence
inteligenco
intelligence
intenzivno
inter
interactive
interakcije
interakcijo
interaktivni
interes
interesa
interese
interesi
interesov
interesu
intermediate
internal
international
internationale
internet
interneta
internetu
interpretacija
interpretacije
interpretacijo
interval
interview
intervju
intervjuju
into
intoistic
introduction
inu
invalidov
invasion
invazija
invazije
invaziji
invazijo
investigation
inz
io
ion
ionare
ione
ioni
ionov
iowa
ip
ipa
ipd
ipe
ipke
ipo
ir
ira
irak
iraku
iral
irala
iran
irana
iranica
iranski
iransko
iranu
iraq
iras
irek
ireland
iren
irena
irene
ireno
iri
irija
irije
irijo
iril
irila
irile
irili
irilo
irina
irine
irini
irino
iris
irish
iritev
iriti
iritve
iritvi
iritvijo
irja
irjanje
irjen
irjena
irjene
irjeni
irjenih
irjenja
irjenje
irjenju
irjeno
irjenost
irjenosti
irma
irna
irne
irnem
irni
irno
iro
irok
iroka
iroke
irokega
irokem
iroki
irokih
irokim
irokimi
iroko
irom
iron
ironic
ironija
irs
irska
irske
irskega
irskem
irski
irskih
irsko
irving
is
isa
isaac
isbn
ise
iser
iserja
iserjev
iserka
iskal
iskala
iskale
iskali
iskalo
iskanja
iskanje
iskanjem
iskanju
iskat
iskati
iskra
iskre
iskrena
iskreni
iskreno
isla
islam
islama
islamic
islamske
islamskega
islamski
islamskih
islamsko
island
islandija
islands
isle
iso
israel
issn
issue
issues
ist
ista
istanbul
iste
istega
istejs
istem
isti
istic
istih
istil
istila
istili
istim
istimi
istina
istini
istiti
istituto
isto
istoc
istoimenske
istoimenskega
istoimenskem
istoimenski
istoimensko
istost
istosti
istotako
istra
istre
istri
istro
istrski
istrsko
istva
it
ita
itaj
itajo
itajoc
itak
ital
itala
itali
italia
italian
italiana
italiani
italiano
italija
italijan
italijani
italijanov
italijans
italijanska
italijanske
italijanskega
italijanskem
italijanski
italijanskih
italijanskim
italijansko
italije
italiji
italijo
italnica
italnice
italnici
italo
italy
itam
itanja
itanje
itati
itd
ite
itek
itelj
itelja
itelje
iteljem
iteljev
itelji
iteljica
iteljice
iteljico
iteljis
iteljski
itelju
iten
itena
iteni
itenih
iteno
itev
iti
itijo
itil
itila
itili
ititi
itja
itje
itju
itka
itke
itki
itkom
itkov
itku
itn
itna
itne
itnega
itni
itnic
itnica
itnicah
itnice
itnih
itnik
itnika
itnis
itno
ito
itom
its
itu
itunes
itvah
itve
itvi
itvijo
iu
iucn
iupac
ius
iv
iva
ivahen
ivahna
ivahne
ivahnejs
ivahnem
ivahni
ivahno
ivaj
ivajo
ival
ivala
ivale
ivali
ivalih
ivalim
ivalis
ivalmi
ivalo
ivalska
ivalske
ivalskega
ivalski
ivalskih
ivalsko
ivalstvo
ivam
ivan
ivana
ivanc
ivanja
ivanje
ivanjem
ivanju
ivanka
ivanko
ivanom
ivanov
ivanovic
ivanu
ivara
ivat
ivati
ivc
ivca
ivce
ivcev
ivci
ive
ivec
ivega
ivel
ivela
ivele
iveli
ivelih
ivelo
ivem
iveti
ivetja
ivetje
ivez
ivi
ivic
ivica
ividno
ivih
ivijo
ivil
ivila
ivili
ivilja
ivim
ivimi
ivimo
ivina
ivinc
ivine
ivini
ivino
ivinorejo
ivio
ivis
ivita
ivite
ivitev
iviti
ivka
ivko
ivkovic
ivlja
ivljajo
ivljal
ivljala
ivljali
ivljanja
ivljanje
ivljati
ivljenj
ivljenja
ivljenje
ivljenjem
ivljenjepis
ivljenji
ivljenjska
ivljenjske
ivljenjskega
ivljenjski
ivljenjskih
ivljenjsko
ivljenju
ivo
ivot
ivota
ivotu
ivs
ix
iz
iza
izabela
izak
izba
izbe
izbere
izberejo
izberi
izbi
izbira
izbiral
izbirati
izbirc
izbire
izbiri
izbiro
izbo
izboc
izboljs
izbor
izbora
izborno
izboru
izbral
izbrala
izbrali
izbran
izbrana
izbrane
izbrani
izbranih
izbrano
izbrati
izbris
izbrisati
izbruh
izbruha
izbruhi
izbruhnil
izbruhnila
izbruhom
izbruhov
izbruhu
izc
izd
izda
izdaj
izdaja
izdajah
izdajajo
izdajal
izdajala
izdajalca
izdajalec
izdajati
izdaje
izdaji
izdajo
izdajstvo
izdal
izdala
izdali
izdalo
izdan
izdana
izdane
izdani
izdanih
izdano
izdati
izdatno
izdela
izdelal
izdelala
izdelali
izdelan
izdelana
izdelane
izdelani
izdelanih
izdelano
izdelati
izdelava
izdelave
izdelavi
izdelavo
izdelek
izdelka
izdelke
izdelki
izdelkih
izdelkov
izdeloval
izdelovalec
izdelovali
izdelovanje
izdelovati
izdeluje
izdelujejo
izdihnil
izem
izenac
izg
izgine
izginejo
izginil
izginila
izginile
izginili
izginilo
izginja
izgled
izgleda
izgnal
izgnali
izgnan
izgnani
izgnanstvo
izgnanstvu
izgon
izgovarja
izgovarjal
izgovor
izgovori
izgovoril
izgovorila
izgovoriti
izgovorivs
izgovorjava
izgradnja
izgradnje
izgradnji
izgradnjo
izgres
izgub
izguba
izgube
izgubi
izgubijo
izgubil
izgubila
izgubile
izgubili
izgubilo
izgubiti
izgublja
izgubljal
izgubljati
izgubljen
izgubljena
izgubljene
izgubljenega
izgubljeni
izgubljenih
izgubljeno
izgubo
izhaja
izhajajo
izhajal
izhajala
izhajali
izhajalo
izhajati
izhod
izhoda
izhodis
izhodu
izid
izida
izide
izidi
izidom
izidor
izidorja
izidorju
izidu
izjav
izjava
izjave
izjavi
izjavil
izjavila
izjavo
izjema
izjeme
izjemen
izjemna
izjemne
izjemnih
izjemno
izjemo
izjemoma
izkaz
izkazal
izkazala
izkazali
izkazalo
izkazati
izkazuje
izkazujejo
izkljuc
izkopal
izkopali
izkopavanj
izkopavanja
izkopavanji
izkoris
izkoristek
izkoristil
izkoristili
izkoristiti
izkupic
izkus
izkusil
izlet
izlete
izlez
izlije
izliva
izlivu
izloc
izloz
izlus
izma
izmed
izmenic
izmenjave
izmenjavo
izmis
izmislil
izmislila
izmuc
izmuznil
iznad
iznas
iznebil
iznebiti
iznenada
iznenaden
iznic
iznova
izobc
izobilju
izobraz
izobrazba
izobrazbe
izobrazbi
izobrazbo
izogiba
izogibajo
izogibal
izogibanje
izogibati
izogne
izognil
izognila
izognili
izogniti
izola
izotop
izotopi
izotopov
izpadel
izpadla
izpadle
izpadli
izpeljal
izpeljana
izpeljano
izpeljati
izpije
izpil
izpila
izpit
izpite
izpiti
izpitu
izplac
izpod
izpolni
izpolnil
izpolnila
izpolnilo
izpolnitev
izpolniti
izpolnjevati
izpolnjuje
izpopolnjeval
izpostavil
izpostavljen
izpostavljena
izpostavljene
izpostavljeni
izpostavljenost
izpostavljenosti
izpove
izpoved
izpovedal
izpovedi
izpras
izpraznil
izpraznila
izpred
izpregovori
izpregovoril
izpregovorila
izpregovoriti
izprehod
izprememba
izpremembe
izpremembo
izpremeni
izpremenil
izpremenila
izpremenilo
izprevidel
izpric
izproz
izprva
izpus
izpusti
izpustil
izpustila
izpustili
izpustiti
izrac
izrael
izraela
izraelski
izraelskih
izraelu
izraz
izraza
izraze
izrazi
izrazil
izrazila
izrazili
izrazit
izrazita
izraziti
izrazito
izrazom
izrazov
izrazu
izrec
izrecno
izreden
izredna
izredne
izrednega
izredni
izrednih
izredno
izrek
izreka
izrekel
izrekla
izrekli
izroc
izs
izsev
izsrednost
izstopa
izstopajo
izstopajoc
izstopil
izstopila
izstrelki
izsus
iztaknil
iztec
iztegnil
iztegnila
izteka
izteklo
iztoc
iztok
iztoka
iztrga
iztrgal
iztrgala
iztrgati
izuc
izum
izumil
izumitelj
izumrl
izumrla
izumrli
izustil
izv
izvaja
izvajajo
izvajal
izvajala
izvajalca
izvajalcev
izvajalci
izvajalec
izvajali
izvajanja
izvajanje
izvajanjem
izvajanju
izvajati
izvaz
izve
izvedba
izvedbe
izvedbi
izvedbo
izvede
izvedel
izvedela
izvedeli
izveden
izvedena
izvedene
izvedeni
izvedeno
izvedeti
izvedla
izvedli
izvelic
izvemo
izven
izvesti
izvestno
izvidnis
izvije
izvil
izvila
izvir
izvira
izvirajo
izvirajoc
izvirala
izviren
izviri
izvirna
izvirne
izvirnega
izvirni
izvirnih
izvirnik
izvirnika
izvirniku
izvirno
izvirov
izviru
izvlec
izvlekel
izvod
izvodov
izvoli
izvolil
izvolila
izvolili
izvolite
izvolitev
izvolitvi
izvoljen
izvoljena
izvoljeni
izvor
izvora
izvorna
izvorno
izvoru
izvos
izvoz
izvrs
izvrsten
izvrstna
izvrstno
izvrz
izvzems
izz
izza
izziv
izzval
j
ja
jablane
jablanis
jablano
jabolc
jabolk
jabolka
jabolko
jac
jack
jackie
jackson
jacob
jacobs
jacopo
jacques
jadra
jadralno
jadran
jadranskega
jadranskem
jadransko
jadranu
jadrno
jadro
jagnje
jagod
jagoda
jagode
jagodic
jaha
jahac
jahal
jahali
jahre
jajc
jajca
jajce
jajec
jak
jaka
jake
jakec
jaklic
jako
jakob
jakoba
jakobu
jakop
jakopic
jakost
jakosti
jakov
jakovljev
jaks
jam
jama
jamah
jamajs
jamc
jame
james
jamesa
jami
jamie
jamnik
jamo
jamski
jan
jana
janc
jane
janet
janez
janeza
janezek
janezom
janezu
jang
jani
janic
janja
janka
janko
jankovic
janku
janos
jans
januar
januarja
januarjem
januarju
january
janus
janz
japan
japanese
japelj
japonci
japons
japonska
japonske
japonskega
japonskem
japonski
japonskih
japonsko
jar
jarc
jarca
jarek
jarem
jarka
jarke
jarki
jarkih
jarkom
jarkov
jarku
jarma
jarnik
jaroslav
jars
jas
jasen
jasi
jaslice
jasmina
jasna
jasne
jasnega
jasneje
jasnejs
jasnem
jasni
jasnih
jasnim
jasno
jason
jastreb
jata
jate
java
javi
javier
javil
javna
javne
javnega
javnem
javni
javnih
javnim
javno
javnost
javnosti
javor
javornik
javors
jay
jaz
jazbec
jazz
jazza
jc
je
jean
jeana
jeanne
jec
jeclja
jecljal
jed
jedel
jeden
jedenkrat
jeder
jedi
jedil
jedila
jedina
jedini
jedino
jedjo
jedla
jedli
jedna
jednako
jedne
jednega
jednem
jedni
jedno
jedo
jedra
jedro
jedrom
jedrska
jedrske
jedrskega
jedrski
jedrskih
jedrsko
jedru
jedva
jeff
jefferson
jeffrey
jega
jeglic
jej
jek
jekla
jeklen
jeklene
jekleno
jeklo
jel
jela
jelac
jele
jelen
jelena
jelenc
jeleni
jeli
jelica
jelinc
jelka
jelko
jelo
jelovs
jels
jem
jemal
jemala
jemali
jemati
jemlje
jemljejo
jemu
jen
jenkins
jenko
jennifer
jenny
jens
jensen
jer
jera
jeraj
jerbas
jerca
jereb
jeremy
jeric
jerica
jerici
jerico
jerman
jernac
jernej
jerneja
jernejc
jerneju
jero
jerom
jerome
jerry
jersey
jerusalem
jeruzalem
jeruzalema
jeruzalemskega
jeruzalemski
jeruzalemu
jerzy
jes
jesen
jeseni
jesenicah
jesenice
jesenis
jesenska
jesenske
jesenskega
jesenskem
jesenski
jesenskih
jesensko
jesih
jesse
jessica
jest
jesti
jesu
jesus
jet
jeter
jetic
jetnik
jetnika
jetnike
jetniki
jetnis
jetra
jetrih
jev
jeva
jevgenij
jevi
jewish
jews
jez
jeza
jezdec
jezdeca
jezdecev
jezdeci
jezdi
jezdil
jezdila
jezdili
jeze
jezen
jezer
jezera
jezeri
jezerih
jezero
jezerom
jezersko
jezeru
jezi
jezic
jezik
jezika
jezike
jeziki
jezikih
jezikom
jezikoslovcev
jezikoslovec
jezikoslovja
jezikoslovje
jezikoslovka
jezikov
jezikovna
jezikovne
jezikovni
jezikovnih
jezikovno
jeziku
jezil
jezila
jezili
jezilo
jeziti
jezna
jezni
jezno
jezo
jezu
jezuit
jezuiti
jezuitskega
jezuitski
jezus
jezusa
jezusom
jezusove
jezusovega
jezusovo
jezusu
jeſt
jg
ji
jidel
jih
jim
jima
jimi
jimmy
jin
jir
jla
jlib
jm
jn
jo
joa
joachim
joan
job
joc
joe
joel
johan
johann
johanna
johannes
johansson
john
johna
johnny
johnom
johns
johnson
johnston
johnu
joint
joj
jok
joka
jokaj
jokaje
jokajo
jokajoc
jokal
jokala
jokali
jokati
jokom
joku
jolanda
jolie
jon
jona
jonas
jonathan
jones
jopic
jordan
jorge
jos
jose
josef
joseph
josepha
josh
joshua
josip
josipa
josipina
josipu
journal
journey
jovan
jovana
jovanovic
joyce
joz
joze
jp
jpg
jpl
jr
js
jstor
ju
juan
juana
jud
juda
jude
judez
judi
judit
judita
judith
judje
judom
judov
judovska
judovske
judovskega
judovski
judovskih
judovsko
jug
juga
jugoslavija
jugoslavije
jugoslaviji
jugoslavijo
jugoslovanska
jugoslovanske
jugoslovanskega
jugoslovanski
jugoslovanskih
jugoslovansko
jugovzhodne
jugovzhodnem
jugovzhodni
jugovzhodno
jugovzhodu
jugozahodnem
jugozahodni
jugozahodno
jugozahodu
jugu
juha
juhe
juho
jul
jula
julc
jules
julia
julian
julie
julien
julij
julija
julijan
julijana
julijanskem
julijem
julijo
julijske
julijskih
juliju
julio
julius
julka
july
jun
junak
junaka
junake
junaki
junakinja
junakom
junakov
junaku
junas
june
jung
juni
junij
junija
junijem
juniju
junior
junkers
juno
jupiter
jupitra
jupitrov
jur
jura
juraj
jurc
jurca
jure
juri
juric
jurij
jurija
jurijem
juriju
juris
jurja
jurko
jus
just
justice
justin
justina
justinijan
jut
juta
jutra
jutranja
jutranje
jutranjem
jutranji
jutranjih
jutranjo
jutri
jutris
jutro
jutru
juvan
juz
jz
k
ka
kabine
kabinet
kabineta
kabinetu
kabino
kac
kacega
kacih
kad
kada
kadar
kadarkoli
kader
kadet
kadi
kadil
kadila
kadilo
kaditi
kadrov
kaf
kah
kai
kairo
kairu
kaiser
kaiserthums
kaj
kaja
kajenje
kajetan
kajne
kajo
kajpada
kajpak
kajti
kajz
kak
kaka
kake
kakega
kakem
kakemu
kakers
kaki
kakih
kakim
kakimi
kako
kakor
kakorkoli
kakors
kakos
kakov
kakovost
kakovosti
kakrs
kaks
kal
kala
kalan
kalc
kalcija
kalcijev
kale
kali
kalibra
kalif
kalifa
kalifornija
kalifornije
kaliforniji
kalijev
kam
kama
kambodz
kamc
kamen
kamena
kamenc
kamene
kameni
kamenita
kameniti
kamenitih
kamenja
kamenje
kamenjem
kamenju
kamere
kamero
kami
kamila
kamin
kamiz
kamna
kamne
kamni
kamnik
kamnika
kamniku
kamnin
kamnina
kamninah
kamnine
kamnis
kamnit
kamnita
kamnite
kamniti
kamnitih
kamnitimi
kamnito
kamnolom
kamnom
kamnov
kamnu
kamo
kamor
kamorkoli
kampanja
kampanje
kampanji
kampanjo
kamro
kamus
kan
kana
kanada
kanade
kanadi
kanado
kanadska
kanadske
kanadski
kanadskih
kanadsko
kanal
kanala
kanalc
kanale
kanali
kanalov
kanalu
kanarc
kanat
kanata
kanc
kancler
kanclerja
kandal
kandidat
kandidata
kandidate
kandidati
kandidatov
kandidaturo
kandidiral
kane
kani
kanila
kanje
kanjon
kann
kano
kanon
kanonik
kanov
kansas
kanski
kant
kanton
kantona
kantoni
kantonov
kantonu
kantor
kanu
kao
kaos
kaotic
kap
kapa
kapaciteta
kapaciteto
kape
kapela
kapelan
kapele
kapeli
kapelica
kapelice
kapelici
kapelico
kapelo
kapetan
kapi
kapico
kapital
kapitala
kapitalistic
kapitalizem
kapitalizma
kapitan
kapitana
kapitanu
kapiteli
kapitelj
kapitulaciji
kaplan
kaplana
kaplanu
kaplja
kaplje
kapljic
kapljica
kapljice
kapljico
kapljo
kapo
kappa
kar
kara
karakteristic
karakteristike
karantanija
karate
karavanke
kardinal
kardinala
kardinali
kardinalov
karel
karen
kari
kariera
kariere
karieri
kariero
karin
karja
karje
karkoli
karl
karla
karlin
karlo
karlom
karlovcu
karlovec
karlovs
karlu
karmela
karmen
karol
karola
karolina
karolins
kart
karta
kartaz
karte
kartice
karto
karton
kartus
kas
kaseta
kasneje
kasnejs
kasta
kaste
kastelic
kastelka
kastiljski
kasto
kat
kata
katalog
katalogu
katalonsko
katarina
katarine
katarini
katarino
katastrofa
katastrofe
katastrofo
kate
katedra
katedrala
katedrale
katedrali
katedre
kategorij
kategorija
kategorijah
kategorije
kategoriji
kategorijo
katehet
katekizem
katera
katere
katerega
katerej
katerekoli
katerem
kateremu
kateri
katerih
katerikoli
katerim
katerima
katerimi
katero
katerokoli
katherine
kati
katica
katinka
katja
katla
katle
katlo
katolic
katolikus
katolis
katra
katri
katrica
katz
kava
kavalir
kavarna
kavarne
kavarni
kavarno
kavc
kave
kavi
kavkas
kavkaz
kavkaza
kavkazu
kavo
kaz
kazahstan
kazakc
kazal
kazala
kazalca
kazalcem
kazale
kazalec
kazali
kazalo
kazan
kazati
kazen
kazenskega
kazenski
kazensko
kazimir
kazni
kaznijo
kaznivega
kaznivih
kaznivo
kaznoval
kaznovali
kaznovan
kaznovati
kaznuje
kb
kc
kd
kdaj
kde
kder
kdo
kdor
kdorkoli
kdove
ke
keber
kec
kedaj
kedar
kedo
kega
keith
kej
kekca
kekcu
kekec
kel
kelih
keller
kelly
kelti
keltski
kem
kemic
kemija
kemije
kemiji
kemijo
kemijska
kemijske
kemijski
kemijskih
kemijsko
kemik
kemikalije
kemu
ken
kenda
kennedy
kenneth
kent
kentaver
kentucky
kenya
kepa
ker
keramic
keramika
keramike
kerc
kermauner
kern
kers
kersnik
kervi
kes
kesa
kesal
kesanja
kesanje
kette
kevin
key
kg
khan
ki
kic
kidric
kids
kiga
kih
kije
kijev
kijeva
kijevski
kijevu
killed
kilogramov
kilometer
kilometra
kilometre
kilometrov
kim
kima
kimal
kimi
kin
kina
kinc
kind
kinematografih
kinetic
king
kingdom
kings
kinja
kino
kinu
kip
kipa
kipar
kiparja
kiparjev
kiparstva
kiparstvo
kipe
kipec
kipelo
kipi
kipom
kipov
kipu
kir
kira
kirche
kirurg
kirurs
kis
kisik
kisika
kisikom
kislin
kislina
kisline
kislino
kislo
kiss
kit
kita
kitajci
kitajs
kitajska
kitajske
kitajskega
kitajskem
kitajski
kitajskih
kitajsko
kitara
kitare
kitarist
kitaro
kite
kiti
kitic
kitica
kitice
kitici
kitico
kito
kitty
kj
kje
kjer
kjerkoli
kjo
kjoto
kjotu
kk
kla
klada
kladiva
kladivo
kladivom
kladnik
klagenfurt
klan
klana
klanc
klanca
klancu
klander
klanec
klanja
klanjam
klara
klarica
klarinet
klas
klasic
klasicistic
klasifikacija
klasifikacije
klasifikaciji
klasike
klasje
klati
klatil
klaus
klavdij
klavdija
klaviature
klavir
klavirja
klavirju
klavirski
klavrno
kle
klec
klein
kleine
klek
klel
klemen
klemena
klemenc
klement
klepec
kles
klet
kletev
kleti
kletke
kletki
kletko
klic
klica
klical
klicala
klicali
klicalo
klicanje
klicat
klicati
klice
klici
klin
klinar
klinc
klinic
klis
kljub
kljuc
kljuko
kljun
kljunom
klo
klobas
klobase
klobaso
klobc
klobuc
klobuk
klobuka
klobuke
klobuki
klobukom
klobuku
klop
klopc
klopeh
klopi
klorid
klorida
klos
klotilda
klub
kluba
klube
klubi
klubih
klubom
klubov
klubski
klubu
klun
km
kmalo
kmalu
kmec
kmecl
kmet
kmeta
kmete
kmeti
kmetic
kmetica
kmetih
kmetij
kmetija
kmetije
kmetiji
kmetijo
kmetijska
kmetijske
kmetijski
kmetijskih
kmetijsko
kmetijstva
kmetijstvo
kmetijstvom
kmetijstvu
kmetis
kmetje
kmetom
kmetov
kmetska
kmetske
kmetskega
kmetski
kmetskih
kmetsko
kmetu
kn
kneginja
kneginji
kneginjo
knez
kneza
kneze
knezi
knezom
knezos
knezov
knezu
knight
knj
knjig
knjiga
knjigah
knjigami
knjigarna
knjige
knjigi
knjigo
knjiz
know
knowledge
known
knut
ko
koalicija
koalicije
koalicijo
kobal
kobarid
kobaridu
kobe
kobila
kobilica
kobilice
kobilo
koblar
koc
kocbek
kocelj
koch
kocijanc
kocjan
kocjanc
kocka
kocke
kod
koda
kodb
kodba
kodbe
kodbo
kode
kodeks
koder
kodi
kodilo
kodljiv
kodljiva
kodljive
kodljivih
kodljivo
kodnine
kodnino
kodo
kodoval
kodovala
kodovali
kodovalo
kodovan
kodovana
kodovane
kodovani
kodovanih
kodovano
kodovati
kodoz
kodre
kodri
kodric
koduje
kodujejo
koeficient
kof
kofa
kofe
kofi
kofij
kofija
kofije
kofiji
kofijo
kofijski
kofja
kofje
kofjelos
kofji
kofjo
kofom
kofov
kofovska
kofovski
kofovsko
kofu
koga
kogar
kognitivne
koj
koja
koje
kojega
koji
kojih
kok
kokalj
koker
kokos
koku
kol
kola
kolac
kolar
kole
koledar
koledarja
koledarju
kolega
kolegi
kolegij
kolegija
kolegov
kolen
kolena
kolenc
koleni
kolenih
koleno
kolenu
koles
kolesa
kolesar
kolesarjev
koleselj
kolesi
kolesih
kolesom
kolesu
koli
kolibe
kolibo
kolic
kolidz
kolika
koliko
kolikokrat
kolikor
kolikrat
koliks
koljk
koljke
kolne
kolo
kolobar
kolodvor
kolodvora
kolodvoru
koloman
kolona
kolone
kolonialne
kolonij
kolonija
kolonijah
kolonije
koloniji
kolonijo
kolovozu
kolovrat
kolovs
kolpe
kolpi
kolu
kolumb
kolumbija
kolumbije
kolumbiji
kolumna
kom
koma
komac
komaj
komandant
komandanta
komandir
komar
kombinacija
kombinacije
kombinaciji
kombinacijo
komedija
komedije
komediji
komedijo
komentar
komentarji
komentator
komentiral
komercialne
komercialni
komercialnih
komercialno
komet
kometa
kometov
komic
komik
komisar
komisarja
komisija
komisije
komisiji
komisijo
komite
komiteja
komnen
komnena
komolcem
komolci
komolec
komora
komore
kompilacija
kompleks
kompleksa
kompleksna
kompleksne
kompleksnih
kompleksno
kompleksu
komponent
komponenta
komponente
kompozicija
kompozicije
kompozicijo
komtesa
komu
komuniciranje
komunikacija
komunikacije
komunikacijo
komunikacijske
komunikacijski
komunist
komunisti
komunistic
komunistov
komunizem
komunizma
komur
kon
konc
konca
koncem
koncentracija
koncentracije
koncentracijo
koncentracijsko
koncept
koncepta
koncert
koncerta
koncerte
koncerti
koncertih
koncertna
koncertni
koncertov
koncertu
koncev
konci
koncih
koncil
koncila
koncilu
koncu
kone
konec
konfederacije
konferenc
konferenca
konference
konferenci
konferenco
konflikt
konflikta
konflikti
konfliktov
kong
kongo
kongregacije
kongres
kongresa
kongresu
konic
konice
konico
konj
konja
konje
konjem
konjenica
konjenice
konjenico
konjeniki
konjenikov
konjenis
konjev
konji
konjic
konjicah
konjice
konjih
konjikov
konjis
konjska
konjske
konjski
konjskih
konjsko
konju
konkretno
konkurenc
konkurence
konkurenci
konkurenco
konrad
konrada
kons
konservatoriju
konstanta
konstante
konstantin
konstantina
konstantinopel
konstantinopla
konstantinoplu
konstantno
konstanto
konstrukcija
konstrukcije
konstrukcijo
konstruktor
kontekst
konteksta
kontekstu
kontesa
kontrast
kontrola
kontrole
kontrolo
kontrolor
konvencija
konvencije
konvencijo
konzul
konzula
konzulat
koordinate
koordinati
kopa
kopac
kopal
kopala
kopali
kopalis
kopalnico
kopanje
kopat
kopati
kopel
kopeli
kopenska
kopenske
kopenski
kopenskih
koper
kopic
kopica
kopico
kopij
kopija
kopije
kopijo
kopit
kopita
kopitar
kopiti
kopito
kopja
kopje
koplje
kopljejo
kopnega
kopnem
kopno
kopo
kopriva
koprivnis
koprnec
koprnela
koprnenje
koprodukcija
kopru
kor
kora
korac
korajz
korak
koraka
korakal
korakala
korakali
korake
koraki
korakih
korakom
korakov
koraku
koran
korc
kore
korea
korean
korec
koreja
koreje
koreji
korejo
korejski
koren
korena
korenc
korenin
korenina
koreninami
korenine
korenino
korenito
korenjak
korenje
korenu
korist
koristen
koristi
koristil
koristilo
koristna
koristne
koristnega
koristno
korita
koritnik
korito
koritu
kornelija
kornje
kornji
koros
korporal
korpus
korpusa
korpusov
kortejo
koru
korun
korupcije
koruza
koruze
koruzo
korzika
korzike
korzis
kos
kosa
kosce
kosci
kose
kosec
kosi
kosil
kosila
kosilo
kosilu
koslovas
kosmac
koso
kosobrin
kosom
kosov
kosova
kosovel
kosovo
kosovu
kospalota
kost
kostanj
kostanjev
kostanjevica
kostanji
kosteh
kosti
kosu
kot
kota
kotanje
kote
kotel
koti
kotic
kotih
kotlina
kotline
kotlini
kotlino
kotlu
kotnik
kotom
kotov
kotska
kotske
kotskem
kotski
kotsko
kotu
kov
kova
kovac
koval
kovala
kovali
kovance
kovancev
kovanci
kovancih
kovanec
kovanje
kovas
kovati
kovc
kove
kovega
kovi
kovic
kovih
kovin
kovina
kovine
kovino
kovinske
kovinski
kovinskih
kovinsko
kovo
koz
koza
kozak
kozaki
kozakov
kozarc
kozarca
kozarce
kozarcev
kozarci
kozarcu
kozarec
kozas
koze
kozel
kozi
kozina
kozjak
kozje
kozji
kozla
kozlevc
kozlic
kozma
kozmic
kozo
kozolec
kp
kpj
kps
kr
kra
krac
krade
kradel
kragulj
kraigher
krain
kraj
kraja
krajc
krajcar
krajcarja
krajcarjev
kraje
krajec
krajem
krajev
krajevna
krajevne
krajevni
krajevnih
krajevno
kraji
krajih
krajina
krajine
krajini
krajino
krajinski
krajnc
krajs
kraju
krak
kraka
krako
krakov
krakovu
kralj
kralja
kralje
kraljem
kraljestev
kraljestva
kraljestvo
kraljestvom
kraljestvu
kraljev
kraljeva
kraljeve
kraljevega
kraljevem
kraljevi
kraljevic
kraljevih
kraljevim
kraljevina
kraljevine
kraljevini
kraljevino
kraljevo
kraljevska
kraljevske
kraljevski
kraljevsko
kralji
kraljic
kraljica
kraljice
kraljici
kraljico
kralju
kraljuje
kramar
kramberger
kramer
kranj
kranja
kranjc
kranjci
kranjec
kranjska
kranjske
kranjskega
kranjskem
kranjski
kranjskih
kranjsko
kranju
krapinsko
kras
krasa
krasen
krasi
krasijo
krasna
krasne
krasnega
krasni
krasnih
krasno
krasota
krasote
krasoti
krasoto
krastac
krasti
krasu
krat
kratek
krater
krati
kratica
kratico
kratje
kratka
kratke
kratkega
kratkem
kratki
kratkih
kratkim
kratkimi
kratko
kratkoc
kratna
krav
krava
krave
kravi
kravo
kraz
krc
krdela
krdelo
krec
kredo
kreft
krek
kremen
kremplje
kremplji
kremz
krene
krenil
krenila
krenili
krepak
krepc
krepi
krepitev
krepka
krepke
krepkega
krepki
krepkih
krepkim
krepko
krepost
kreposti
kres
kresnic
kresnice
kresnik
kresu
kretnje
kretnjo
kri
kric
kriegsmarine
krije
krik
kriki
krikne
kriknil
kriknila
krikom
kril
krila
krili
krilih
krilo
krilom
krilu
krim
krima
krimski
krimu
krinko
kripal
kripala
kriplje
kris
krista
kristal
kristali
kristalni
kristalno
kristalov
kristan
kristijan
kristina
kristjan
kristjana
kristjane
kristjani
kristjanom
kristjanov
kristus
kristusa
kristusom
kristusov
kristusovega
kristusovo
kristusu
kriterij
kritic
kritik
kritika
kritike
kritiki
kritiko
kritikov
kritiziral
kritizirali
kriv
kriva
krivda
krivde
krivdi
krivdo
krive
krivec
krivega
krivem
krivi
krivic
krivica
krivice
krivici
krivico
krivo
krivos
krivulja
krivulje
krivuljo
kriz
kriza
krize
krizi
krizo
krjanc
krjanec
krjavelj
krka
krke
krki
krko
krlez
krmar
krmarja
krmarjem
krme
krmez
krmi
krmilo
krmo
kro
krog
kroga
kroge
krogel
krogi
krogih
krogla
krogle
kroglice
kroglo
krogom
krogov
krogovic
krogu
krohot
krojac
krokar
krompir
krompirja
kron
krona
kronal
kronan
kronanja
kronanje
kronanju
krone
kroni
kronic
kronika
kronike
kroniki
kroniko
kronist
kronla
krono
kronologija
kronolos
kropa
kropi
kros
krotiti
krov
krovni
krovu
kroz
krpan
krpe
krs
krst
krsta
krste
krsti
krstil
krstili
krstiti
krstna
krstni
krstnik
krstnika
krstno
krsto
krstu
krt
krtac
kruh
kruha
kruhom
kruhu
krus
krut
kruta
kruti
kruto
krvav
krvava
krvave
krvavec
krvavega
krvavi
krvavih
krvavitev
krvavitve
krvavo
krvi
krvjo
krvne
krvnega
krvni
krvnic
krvnih
krvno
krvoloc
krz
ks
ksaver
ksenija
kt
kte
ktera
ktere
kterega
kterej
kterem
kteremu
kteri
kteriga
kterih
kterim
kterimi
ktero
ku
kuba
kubevan
kubi
kubic
kuc
kud
kuga
kuge
kugo
kuha
kuhal
kuhala
kuhali
kuhanje
kuhar
kuharica
kuharico
kuhati
kuhinja
kuhinje
kuhinji
kuhinjo
kuiperjevega
kuje
kukavica
kul
kult
kulta
kultu
kultur
kultura
kulturah
kulture
kulturi
kulturna
kulturne
kulturnega
kulturnem
kulturni
kulturnih
kulturno
kulturo
kum
kumar
kuna
kunaver
kunc
kunst
kup
kupa
kupc
kupca
kupcev
kupci
kupe
kupec
kupi
kupico
kupil
kupila
kupili
kupim
kupite
kupiti
kupo
kupola
kupole
kupoli
kupolo
kupoval
kupovali
kupovati
kupu
kupuje
kupujejo
kur
kura
kurat
kure
kurent
kurije
kurir
kurja
kurnik
kurt
kus
kuz
kuzma
kv
kvadrat
kvadrata
kvadratna
kvadratne
kvadratni
kvadratnih
kvadratno
kvadratov
kvak
kvalifikacij
kvalifikacijah
kvalifikacije
kvalitete
kvaliteto
kvantna
kvantne
kvantni
kvantno
kvartet
kvas
kvec
kveder
kvintet
kvis
kw
kyiv
kylie
kz
l
la
lab
labod
laboratorij
laboratorija
laboratoriju
laboratory
lac
ladan
ladies
ladij
ladija
ladije
ladiji
ladijo
ladijski
ladislav
ladislava
ladja
ladjah
ladjam
ladjami
ladje
ladjedelnici
ladjevje
ladji
ladjo
lado
lady
lagal
lagala
lagati
laglje
lago
laguna
lagune
lah
lahek
lahen
lahi
lahka
lahke
lahkega
lahki
lahkih
lahko
lahkomiselno
lahkotno
lahkoto
lahkoz
lahna
lahno
lahta
lahtna
lahtne
lahtni
lahtno
laibach
laibacher
laic
lains
lajal
lajanje
lajs
lak
lake
lakota
lakote
lakoto
lam
lama
lambda
lamberg
lambergar
lambert
lampe
lan
lana
lancet
land
landes
landscape
lane
lanek
lang
lange
langobardi
language
languages
languedoc
lani
lanic
lanica
lanice
lanka
lanke
lanki
lankih
lankov
lanku
lanom
lanov
lanska
lanske
lanski
lansko
lanstvo
lanu
lapajne
lara
large
largest
larry
lars
las
lase
laseh
laser
lasje
lasmi
last
lasten
lasti
lastna
lastne
lastnega
lastnem
lastni
lastnica
lastnih
lastnik
lastnika
lastniki
lastnikov
lastniku
lastnim
lastnimi
lastnina
lastnine
lastnino
lastnis
lastno
lastnoroc
lastnost
lastnosti
lastnostih
lastnostmi
lat
late
later
latin
latins
latinska
latinske
latinskega
latinskem
latinski
latinskih
latinsko
latvija
launch
laura
laurence
laurent
lava
laval
lave
lavigne
lavra
lavric
law
lawrence
laz
lazar
lazarja
laze
lazi
lazil
lb
lbf
lc
ld
ldots
lds
le
lea
lead
leader
league
learning
leb
leben
lebensskizzen
lec
leca
led
ledena
ledene
ledeni
ledenih
ledenik
ledenika
ledeniki
ledenikov
ledenis
ledeno
ledom
ledu
ledvic
ledvice
lee
left
lega
legacy
legah
legal
legat
lege
legel
legend
legenda
legendarni
legende
legendi
legendo
legi
legija
legije
legijo
legla
leglo
lego
lehko
leiden
leif
leipzig
leipzigu
lej
lejte
lek
leka
leksikon
leksikonografski
lektor
lem
len
lena
lenard
lenart
lenarta
lenartu
lenc
lendava
lene
leni
lenica
lenin
lenina
leningrad
lenka
lenko
lenkovic
lennon
leno
lenoba
lenov
lenu
leo
leon
leona
leonard
leonarda
leonardo
leone
leonhard
leonid
leonora
leonu
leopard
leopold
leopolda
lep
lepa
lepe
lepega
lepem
lepi
lepih
lepim
lepimi
lepo
leposlovja
leposlovje
lepota
lepote
lepoti
lepotic
lepotica
lepoto
leps
leq
ler
les
lesa
lesce
lesen
lesena
lesene
lesenega
lesenem
leseni
lesenih
lesenim
lesenimi
leseno
lesjak
leskec
lesketajoc
lesketale
leskovec
leslie
lesom
lestev
lestve
lestvi
lestvic
lestvica
lestvicah
lestvice
lestvici
lestvico
lestvo
lesu
let
leta
letajo
letal
letala
letali
letalih
letalis
letalo
letalom
letalonosilke
letalska
letalske
letalskega
letalski
letalskih
letalsko
letalstva
letalstvo
letalstvu
letalu
lete
letec
letel
letela
letele
leteli
letelo
letenja
letenje
leteti
leti
letih
letijo
letina
letja
letje
letju
letn
letna
letne
letnega
letnem
letni
letnica
letnice
letnici
letnico
letnih
letnik
letnika
letniku
letno
leto
letom
letoma
letopis
letos
letovis
letter
letters
letu
lev
leva
leve
levec
levega
level
levem
levi
levic
levica
levice
levici
levico
levim
levo
levov
levstik
levy
lewis
lex
lexicon
lexikon
lez
leze
lezel
lezi
lezije
lezla
li
libanon
liber
liberalci
liberalna
liberalne
liberalni
liberalno
liberty
libraries
library
libreto
libri
libris
libus
lic
lica
lice
licej
liceju
licem
licenc
licence
licenco
lici
licih
lico
licu
lidija
lie
liebe
life
liga
ligas
lige
light
ligi
ligo
lih
lihtens
lija
lije
lik
lika
likar
like
liki
liko
likov
likovna
likovne
likovni
likovnih
likovno
lil
lila
lili
lilija
lilije
lilo
lim
lima
limbii
limited
lin
lina
lincoln
linda
lindsay
line
linear
linearna
linearne
linearni
linearno
lines
lingua
linhart
lini
linij
linija
linije
liniji
linijo
link
linnaeus
lino
linux
lion
lipa
lipe
lipi
lipnici
lipo
lipovec
lipovs
lir
liric
lirika
lirike
lirski
lis
lisa
lise
lisec
lisic
lisica
lisice
lisico
lisjak
liso
list
lista
liste
listek
listi
listic
listih
listin
listina
listinah
listine
listini
listino
listja
listje
listjem
listju
listnico
listom
listov
listu
lit
litanije
liter
litera
literarna
literarne
literarnega
literarnem
literarni
literarnih
literarno
literary
literat
literatur
literatura
literature
literaturi
literaturo
lithuania
litija
litiji
litovske
litovski
litovsko
litra
litrov
little
liturgic
litva
litve
litvi
litvo
liu
live
liverpool
lives
livij
living
lix
liz
liza
lizika
lizo
lj
lja
ljaj
ljaje
ljajo
ljal
ljala
ljali
ljam
ljanja
ljanje
ljanju
ljati
lje
ljejo
ljem
ljen
ljena
ljene
ljenega
ljeni
ljenih
ljenja
ljenje
ljenju
ljeno
ljenosti
ljeval
ljevala
ljevanja
ljevanje
ljevanju
ljevati
lji
ljija
ljije
ljiji
ljijo
ljite
ljiv
ljiva
ljive
ljivega
ljivi
ljivih
ljivim
ljivo
ljivost
ljivosti
ljivostjo
lju
ljub
ljuba
ljubav
ljubavi
ljubc
ljube
ljubec
ljubega
ljubezen
ljubezenska
ljubezenske
ljubezenski
ljubezenskih
ljubezensko
ljubezni
ljubeznijo
ljubezniv
ljubezniva
ljubeznivi
ljubeznivo
ljubeznjivo
ljubi
ljubic
ljubica
ljubice
ljubici
ljubico
ljubijo
ljubil
ljubila
ljubili
ljubilo
ljubim
ljubimca
ljubimec
ljubimo
ljubis
ljubite
ljubitelj
ljubiteljski
ljubiti
ljubka
ljubko
ljubljana
ljubljanc
ljubljane
ljubljani
ljubljanice
ljubljanici
ljubljanico
ljubljano
ljubljanska
ljubljanske
ljubljanskega
ljubljanskem
ljubljanski
ljubljanskih
ljubljansko
ljubljena
ljubljenc
ljubljene
ljubljenec
ljubljenega
ljubljeni
ljubljeno
ljubno
ljubo
ljubosumen
ljubosumna
ljubosumnost
ljubosumnosti
ljubs
ljude
ljudeh
ljudem
ljudevit
ljudi
ljudij
ljudje
ljudmi
ljudmila
ljudska
ljudske
ljudskega
ljudskem
ljudski
ljudskih
ljudsko
ljudstev
ljudstva
ljudstvi
ljudstvo
ljudstvom
ljudstvu
ljuje
ljujem
ljutomer
ljutomeru
lk
lko
ll
llc
ller
lloyd
ln
lna
lnu
lo
lobanje
lobanjo
loc
local
lockheed
log
loga
logar
logatec
logic
logika
logike
logiki
logiko
logistic
logu
loire
lojz
lojza
lojze
lojzeta
lojzka
lok
loka
lokacij
lokacija
lokacijah
lokacije
lokaciji
lokacijo
lokalna
lokalne
lokalnega
lokalnem
lokalni
lokalnih
lokalnim
lokalnimi
lokalno
lokar
loke
loki
loko
lokom
lokomotiva
lokomotive
lokov
loku
lom
lomi
lomil
lona
lonc
lonce
london
londona
londonski
londonu
lonec
lonely
long
look
lopato
lope
lopez
lopi
lopo
lopov
lopova
lopovi
lord
lorda
lorenz
lorenza
lorenzo
los
lost
lot
lotar
lotarins
loti
lotil
lotila
lotili
lotiti
lotus
lou
louis
louisa
louise
louvre
louvru
lov
lova
lovato
lovca
lovce
lovcem
lovcev
lovci
lovcu
love
lovec
lovek
loveka
lovekom
lovekov
lovekova
lovekove
lovekovega
lovekovih
lovekovo
loveku
loves
lovi
lovijo
lovil
lovila
lovili
lovis
lovit
loviti
lovom
lovre
lovrenc
lovrenca
lovro
lovs
lovska
lovske
lovskega
lovski
lovskih
lovsko
lovu
low
lower
loz
lp
lr
lsm
lsmeds
lssafn
lt
ltd
lu
lubje
luc
luca
lucas
lucia
luciano
lucija
lucy
ludi
ludovik
ludovika
ludvik
ludvika
ludvikom
ludviku
ludwig
luftwaffe
luigi
luis
luisa
luiza
lujiza
luk
luka
lukas
lukather
luke
lukec
lukenj
lukez
luki
luknja
luknje
luknji
luknjo
luko
luksemburg
luksemburs
lump
lun
luna
lundy
lune
lung
luni
lunin
luno
lupina
lupine
lupino
lus
luther
lutk
lutke
luz
lv
ly
lycoming
lynch
lynn
lynne
lyon
lz
lzmk
m
ma
mac
macdonald
macedonia
mach
machine
macmillan
mactutor
madame
made
madez
madison
madona
madonna
madrid
madridu
madz
mag
magajna
magazin
magazine
magda
magdalena
magdalene
maggiore
magic
magister
magisterij
magistra
magistrat
magistriral
magistrski
magna
magnet
magnetic
magnetnega
magnetni
magnetno
magnitudo
magnus
magyar
mah
maha
mahal
mahala
mahmud
mahne
mahnic
mahnil
mahom
mahoma
mahu
mai
mail
main
maine
mainz
maistra
maj
maja
majal
majar
majc
majcen
majda
maje
majem
majer
majhen
majhna
majhne
majhnega
majhnem
majhni
majhnih
majhnim
majhnimi
majhno
maji
majico
majka
majnhalm
majo
major
majorja
maju
mak
makarovic
make
makedonija
makedonije
makedoniji
makedonijo
makedonska
makedonske
makedonski
makedonsko
making
maks
maksa
maksim
maksimalno
maksimilijan
maksimilijana
maksimiljan
mal
mala
malc
malce
malcolm
male
malec
malega
malem
malemu
malenkost
malenkosti
malho
mali
malic
malico
malih
malik
malika
malim
malimi
malis
malka
malo
malodane
malodus
malokdaj
malokdo
malomarno
malomes
malone
malopridnez
malos
malta
malte
maltes
malti
malto
malvina
mam
mama
mame
mami
mamica
mamice
mamici
mamico
mamo
man
mana
management
manc
manca
manchester
mandat
mandata
mandatu
mandelc
mandic
mandz
mane
manfred
manfreda
manhattan
mani
manica
manifest
manj
manja
manje
manjka
manjkajo
manjkajoc
manjkalo
manjs
mann
mano
manoj
mans
mansa
manu
manual
manuel
manuela
many
mao
map
maple
maps
mar
mara
marajo
maral
marala
marali
maram
maras
maraton
marc
marca
marcel
marcela
marcello
marcem
march
marco
marcu
marcus
mare
marec
margaret
margareta
margarete
margareto
margot
mari
maria
maribor
maribora
mariborska
mariborske
mariborskega
mariborski
mariborsko
mariboru
maric
marica
marici
marico
marie
marij
marija
marijan
marijana
marijanica
marijano
marije
mariji
marijin
marijina
marijine
marijinega
marijino
marijo
marilyn
marin
marina
marinc
marine
marinka
marinko
marino
mario
marion
maritime
mariupol
marja
marjan
marjana
marjanca
marjanica
marje
marjeta
marjete
marjeti
marjetica
marjetico
marjetka
marju
mark
marka
marke
market
marketing
marki
markiz
markiza
marko
markom
markov
markovic
marks
marksistic
marku
markus
marljivo
marmor
marmorja
marmorni
marn
marne
marno
maro
maroko
marolt
maros
mars
marsa
marsan
marseille
marshall
marsic
marsikaj
marsikak
marsikako
marsikatera
marsikaterega
marsikateri
marsikatero
marsikdaj
marsikdo
marsikje
marsikoga
marsikomu
marsikteri
marsu
mart
marta
marti
martin
martina
martinc
martinek
martini
martino
martinom
martinu
martno
marto
marus
marvec
marx
marxists
mary
maryland
mas
masa
mase
maserati
masi
masiv
masiva
mask
maska
maske
masko
masla
maslo
maso
mason
mass
massa
massachusetts
massimo
mast
master
masters
masti
mastno
mat
mate
matej
mateja
mateju
matematic
matematik
matematika
matematike
matematiki
matematiko
matematikov
mater
matere
materi
material
materiala
materiale
materiali
materialne
materialnih
materialno
materialom
materialov
materials
materin
materina
materine
materinega
materinem
materini
materinih
materino
materjo
materni
matevz
math
mathbb
mathbf
mathematical
mathematics
mathrm
mathworld
mati
matic
matica
matice
matici
matija
matijc
matije
matijec
matiji
matijo
matilda
matjaz
matrika
matrike
matrix
matt
matteo
matter
matthew
matthias
maturi
maturiral
maturo
maurer
maurice
maurizio
mauro
mavc
mavric
mavrica
mavricij
mavzolej
max
maxa
maximilian
maximus
maxwell
may
mayer
mayo
mayor
maz
mb
mba
mbox
mc
mccartney
mcdonald
mcdonnell
mcfarland
mcgraw
mclaren
md
mdr
me
meaning
mec
mecen
mechanics
med
medal
medalj
medalja
medalje
medalji
medaljo
media
medic
medical
medici
medicina
medicine
medicines
medicini
medicino
medicinska
medicinske
medicinski
medicinskih
medicinsko
medien
medieval
medij
medija
medije
medijev
mediji
medijih
medijske
medijski
medijsko
mediterranean
medium
medli
medlo
mednarodna
mednarodne
mednarodnega
mednarodnem
mednarodni
mednarodnih
mednarodnim
mednarodno
mednje
medsebojne
medsebojni
medsebojnih
medsebojno
medtem
medu
medved
medveda
medvedek
medvedi
medvedov
medvedovo
medvedu
medves
medvode
medz
meeting
megadeth
megla
megle
megleno
megli
meglic
meglica
meglice
meglo
meh
mehak
mehanic
mehanika
mehanike
mehaniki
mehaniko
mehanizem
mehanizma
mehanizmi
mehanizmov
mehanske
mehansko
mehc
mehika
mehike
mehiki
mehiko
mehis
mehka
mehke
mehkega
mehkejs
mehkem
mehki
mehkih
mehkim
mehkimi
mehko
mehkuz
mehmed
mehr
mehur
mehurc
meidz
mein
mej
meja
mejac
mejah
meje
meji
mejna
mejne
mejnega
mejni
mejnih
mejnik
mejno
mejo
mel
mela
melanholic
melbourne
melita
melodic
melodija
melodije
melodijo
member
members
membrane
membrano
memo
memorial
memory
men
mena
menart
menaz
mencinger
menda
mene
menec
menedz
menges
mengs
meni
menih
meniha
menihe
menihi
menihom
menihov
menijo
menil
menila
menili
menim
menis
menite
menj
menjava
menjave
menjavo
meno
menoj
ment
mentor
mentorstvom
mer
mera
merc
mercedes
mercury
mere
meri
merico
merijo
meril
merila
merili
merilo
merilu
meritev
meriti
meritve
merjenja
merjenje
merkur
mero
mes
mesa
mesar
mesca
mesec
meseca
mesece
mesecem
mesecev
meseci
mesecih
mesecu
meso
mesom
mesopotamia
messerschmitt
mest
mesta
mesteca
mestece
mestecu
mesti
mestih
mestna
mestne
mestnega
mestnem
mestnemu
mestni
mestnih
mestnim
mestnimi
mestno
mesto
mestom
mestoma
mestu
mesu
met
meta
metacritic
metafizic
metafora
metal
metala
metali
metati
mete
metelko
meteorolos
meter
metez
method
methods
meti
metka
metki
metko
metla
metlika
metliki
metlo
meto
metod
metoda
metodami
metode
metodi
metodo
metra
metre
metri
metric
metrih
metro
metropolit
metropolitan
metropolitansko
metrov
metternich
metu
metulj
metuljc
metuljev
metulji
meuse
mexico
meyer
mez
mezopotamiji
mf
mg
mgl
mh
mhz
mi
mia
miami
mic
mica
mich
michael
michaela
michel
michelangelo
michele
michelle
michigan
mici
micika
micka
mico
microbiology
microsoft
mid
middle
midi
midva
mie
mig
migne
mignil
miguel
miha
mihael
mihaela
mihaelu
mihail
mihajlo
mihajlovic
mihec
mihelic
mihi
miho
mik
mika
mikalo
mike
miki
miklavc
miklavz
miklos
miks
mikuz
mil
mila
milan
milana
milano
milanski
milanu
milc
mile
milega
milejs
milena
miles
miley
mili
milic
milica
milice
milico
milijard
milijarde
milijon
milijona
milijone
milijoni
milijonov
milim
milimetrov
military
milj
milje
milka
milko
millennium
miller
million
mills
milo
milos
milost
milosti
milostiva
milostivi
milostljiva
milostljivi
milostna
milostni
milostno
milton
mimi
mimica
mimo
mimogrede
mimoidoc
min
mina
minamoto
mind
mindat
mine
mineral
minerali
mineralov
minerva
ming
mini
minica
minil
minila
minili
minilo
minimalno
ministe
minister
ministra
ministri
ministrica
ministrom
ministrov
ministrski
ministrstva
ministrstvo
ministrstvu
ministru
ministry
minka
minki
minko
minnesota
mino
minogue
minor
minula
minulih
minulo
minus
minut
minuta
minutah
minute
minuti
minuto
mio
mir
mira
miran
mirana
miranda
mire
miren
miri
miril
mirjam
mirka
mirko
mirna
mirne
mirnega
mirnejs
mirnem
mirni
mirnih
mirnim
mirno
miro
mirom
miroslav
mirovna
mirovne
mirovni
mirovnih
mirovno
mirror
miru
miruje
mis
misel
miselnost
misija
misije
misijo
misijonar
misijonarji
mislec
misli
mislih
mislij
mislijo
mislil
mislila
mislili
mislilo
mislim
mislimi
mislimo
mislis
mislita
mislite
misliti
miss
missile
mission
mississippi
missouri
mistic
misto
mit
mita
mitchell
miti
mitja
mitologija
mitologije
mitologiji
mitolos
mitsubishi
mix
miz
miza
mizah
mizar
mize
mizi
mizici
mizico
mizo
mjes
mk
ml
mla
mlac
mlad
mlada
mlade
mladec
mladega
mladem
mlademu
mladen
mladenc
mladenec
mladenic
mladenis
mladenka
mladi
mladic
mladih
mladika
mladike
mladim
mladimi
mladina
mladine
mladini
mladino
mladinska
mladinske
mladinskega
mladinskem
mladinski
mladinskih
mladinsko
mlado
mladost
mladosti
mladostne
mladostni
mladostno
mlajs
mlaka
mlakar
mlake
mlaki
mlb
mlec
mleka
mleko
mlekom
mleku
mlin
mlina
mlinar
mlinarja
mlinc
mlini
mlinov
mlinu
mm
mmc
mn
mnenj
mnenja
mnenje
mnenju
mnm
mnoga
mnoge
mnogi
mnogih
mnogim
mnogimi
mnogo
mnogokrat
mnogos
mnoz
mo
mobile
mobilne
mobilni
mobilnih
moc
mod
moda
mode
model
modela
modele
modeli
modelom
modelov
models
modelu
moder
modern
moderna
moderne
modernega
moderni
modernih
modernistic
moderno
modi
modna
modni
modo
modra
modre
modrega
modrem
modri
modrih
modrijan
modrim
modrimi
modro
modrost
modrosti
modroval
modul
mogel
mogla
mogle
mogli
moglo
mogoc
mohamed
mohameda
mohor
mohoric
mohorja
mohorjeva
mohorjeve
moi
moj
moja
mojca
mojco
moje
mojega
mojej
mojem
mojemu
moji
mojih
mojim
mojimi
mojo
mojster
mojstra
mojstri
mojstrov
mojstrovina
mojstru
mojzes
mok
moka
moke
moker
moko
mokra
mokre
mokri
mokrih
mokris
mokro
mol
molc
mole
molecular
molek
molekul
molekula
molekule
moli
molie
molijo
molil
molila
molili
molim
molimo
molit
molite
molitev
moliti
molitve
molitvenik
molitvi
molitvijo
molk
molka
molku
molly
molu
moment
mon
monaka
monarhija
monarhije
monarhiji
monarhijo
monde
monet
money
mongoli
mongolov
mongolske
mongolskega
mongolski
mongolsko
monica
monika
monitor
monografija
monografije
monopol
mons
mont
montana
montaz
monte
montefiore
montgomery
monthly
montreal
montrealu
monument
monuments
moon
moore
mor
mora
morajo
moral
morala
morale
morali
moralna
moralne
moralni
moralnih
moralno
moralo
moram
moramo
moras
morata
morate
morava
moravc
moravske
moravskem
moravsko
morda
more
morebiti
morebitne
morebitni
morebitnih
morebitno
morec
morejo
morel
morem
moremo
moreno
mores
moreta
morete
moreva
morfolos
morgan
mori
morila
morilca
morilci
morilec
moris
moritz
morja
morje
morjem
morji
morju
mornar
mornarica
mornarice
mornarici
mornarico
mornaris
mornarjev
mornarji
morning
moro
morris
morrison
morska
morske
morskega
morskem
morski
morskih
morsko
mos
moscow
moses
moskovske
moskovski
moskva
moskve
moskvi
moskvo
moslavs
moss
most
mosta
moste
mostic
mostom
mostov
mostove
mostovi
mostovz
mostu
mota
motec
motenj
mother
moti
motijo
motiko
motil
motila
motili
motilo
motim
motion
motis
motite
motiti
motiv
motiva
motivacija
motivacije
motivacijo
motive
motivi
motivom
motivov
motne
motnja
motnjami
motnje
motnjo
motno
moto
motociklistic
motor
motoric
motorizirana
motorja
motorje
motorjem
motorjev
motorji
motornih
motors
motorsport
motril
mount
mountain
mountains
movement
movie
movies
moz
mozaic
mozaik
mozaiki
mozart
mozeg
mozga
mp
mph
mr
mrac
mrak
mraka
mrakom
mraku
mravlja
mravlje
mravljis
mraz
mraza
mrazu
mrc
mreta
mrez
mrgolelo
mrk
mrka
mrki
mrko
mrkov
mrlic
mrlis
mrmra
mrmral
mrmrala
mrs
mrtev
mrtva
mrtvas
mrtve
mrtveca
mrtvega
mrtvi
mrtvih
mrtvim
mrtvo
mrz
mrzel
mrzla
mrzle
mrzlega
mrzli
mrzlic
mrzlica
mrzlih
mrzlo
ms
mt
mtv
mu
muc
muca
much
muck
mudi
mudil
mudila
mudilo
muh
muha
muhammad
muhe
muhic
muho
muk
muka
mukah
muke
muko
mula
multi
multimedijski
multiple
mun
munzinger
mura
murat
mure
muren
muri
murko
murn
murnik
muro
murphy
murray
murs
murska
murski
mus
musa
muse
museo
museum
museums
music
musik
muslim
muslimani
muslimanov
muslimanske
muslimanski
muslimanskih
muslimansko
musolina
musolino
mussolini
mustafa
mutacije
muz
muza
muzal
muzej
muzeja
muzejev
muzeji
muzejih
muzeju
muzika
muzikal
mw
my
mystery
myth
mythology
mz
n
na
nabere
nabira
nabiral
nabirala
nabla
naboj
naboja
nabojev
naboji
nabor
naborni
naboru
naboz
nabral
nabrala
nabrali
nabralo
nabrez
nac
nace
nach
nacional
nacionalistic
nacionalna
nacionalne
nacionalnega
nacionalnem
nacionalni
nacionalnih
nacionalno
nacisti
nacistic
nad
nada
nadalje
nadaljeval
nadaljevala
nadaljevale
nadaljevali
nadaljevalo
nadaljevanja
nadaljevanje
nadaljevanju
nadaljevati
nadaljnja
nadaljnje
nadaljnjega
nadaljnji
nadaljnjih
nadaljnjo
nadaljuje
nadaljujejo
nadarjen
nadarjenost
nadc
naddekanata
nade
nadejal
nadejati
nadel
nadeli
nadenj
nadi
nadiz
nadja
nadlego
nadlegoval
nadlegovati
nadlez
nadlog
nadloga
nadloge
nadmorska
nadmorske
nadmorski
nadmorsko
nado
nadomes
nadomesti
nadomestil
nadomestila
nadomestili
nadomestilo
nadomestiti
nadomestni
nadporoc
nads
nadstropij
nadstropja
nadstropje
nadstropji
nadstropjih
nadstropju
naduc
nadvojvoda
nadvse
nadz
nadzira
nadziral
nadzor
nadzora
nadzornik
nadzornika
nadzorom
nadzoroval
nadzorovali
nadzorovati
nadzoru
nadzoruje
nadzvoc
naenkrat
nafta
nafte
nafto
nag
nagaja
nagajal
nagajivo
nagel
nagelj
nagib
nagiba
nagibal
naglas
naglasom
nagle
nagledati
naglici
naglico
naglo
nagloma
nagnal
nagne
nagnil
nagnila
nagnjen
nagnjena
nagnjeni
nagnjenje
nagon
nagovarja
nagovarjal
nagovor
nagovori
nagovoril
nagrad
nagrada
nagrade
nagradi
nagrado
nagrajen
nagrajena
nagrajenec
nagrobni
nagrobnik
nagy
nahaja
nahajajo
nahajal
nahajala
nahajali
nahajalis
nahajalo
nahajamo
nahajata
nahrbtnik
naivno
naj
najbliz
najbogatejs
najbolj
najbolje
najboljs
najbrz
najc
najdaljs
najdb
najdbe
najde
najdejo
najdem
najdemo
najden
najdena
najdene
najdeni
najdenih
najdeno
najdes
najdeta
najdete
najdis
najdlje
najdragocenejs
najdraz
najedel
najel
najela
najeli
najem
najemnik
najemniki
najeti
najhitreje
najhitrejs
najhuje
najhujs
naji
najimenitnejs
najin
najina
najine
najinega
najini
najinih
najino
najjuz
najkasneje
najkrajs
najkrasnejs
najlaz
najleps
najljubs
najmanj
najmanjs
najmlajs
najmoc
najnevarnejs
najniz
najnovejs
najobsez
najodlic
najoz
najpogosteje
najpogostejs
najpomembnejs
najpoprej
najpotrebnejs
najprej
najpreprostejs
najprimernejs
najprvo
najraje
najrajs
najrazlic
najs
najsevernejs
najsi
najslabs
najslajs
najslavnejs
najsrec
najstarejs
najstnis
najstras
najsvetejs
najsvetlejs
najtez
najti
naju
najuglednejs
najuspes
najvaz
najvec
najverjetneje
najvidnejs
najvis
najvplivnejs
najz
najzanimivejs
najzgodnejs
najznamenitejs
nak
nakar
nakazuje
nakazujejo
nakit
nakita
naklada
naklepe
nakljuc
naklon
nakloni
naklonil
naklonjen
naklonjena
naklonjeni
naklonjenost
naklonjenosti
naknadno
nakopal
nakopic
nakrat
nakup
nakupu
nalaga
nalagal
nalahko
nalahno
nalas
naletel
naletela
naleteli
naleti
nalil
nalog
naloga
nalogah
naloge
nalogi
nalogo
naloz
nam
nama
namah
namakanje
namaz
name
namec
named
namen
namena
namene
nameni
namenil
namenila
namenili
namenjen
namenjena
namenjene
namenjeni
namenjenih
namenjeno
namenom
namenoma
namenov
namenski
namensko
namenu
namerava
nameravajo
nameraval
nameravala
nameravali
namere
nameri
nameril
namerno
namero
names
namesti
namestil
namestili
namestitev
namestnik
namestnika
namesto
namestu
nami
namigne
namignil
namiguje
namis
namoc
namrec
namrs
namuznil
nana
nanas
nancy
nande
nanj
nanje
nanjo
nanos
nanovo
naoc
naokoli
naokrog
napac
napad
napada
napadajo
napadal
napadalca
napadalci
napadalec
napadali
napadati
napade
napadejo
napadel
napadi
napadih
napadla
napadle
napadli
napadom
napadov
napadu
napaja
napak
napaka
napake
napako
napasti
napel
napela
napeljal
napeta
napete
napeti
napeto
napetost
napetosti
napev
napije
napil
napis
napisa
napisal
napisala
napisali
napisan
napisana
napisane
napisani
napisanih
napisano
napisati
napise
napisi
napisih
napisom
napisov
napisu
napo
napoc
napol
napoleon
napoleona
napoleonovo
napoli
napolni
napolnil
napolnila
napolnili
napolnilo
napolnjen
napolnjena
napolnjene
napolnjeno
napor
napora
naporno
naporom
naposled
napoti
napotil
napotila
napotili
napove
napoved
napovedal
napovedala
napovedali
napovedi
napoveduje
napram
naprav
naprava
napravah
naprave
napravi
napravijo
napravil
napravila
napravile
napravili
napravilo
napravim
napravimo
napravite
napraviti
napravlja
napravljajo
napravljen
napravljena
napravo
napredek
napredka
napredku
napredne
napredno
napredoval
napredovala
napredovali
napredovanja
napredovanje
napreduje
naprej
naprodaj
naprosil
naproti
napuh
nar
nara
narahlo
naramenska
naras
narasla
naraslo
narava
narave
naravi
naravna
naravne
naravnega
naravnem
naravni
naravnih
naravnim
naravnimi
naravno
naravnost
naravo
naravoslovec
naravoslovja
naravoslovje
narazen
narec
narede
naredi
naredijo
naredil
naredila
naredile
naredili
naredilo
naredim
naredimo
narediti
narednik
narejen
narejena
narejene
narejeni
narejenih
narejeno
narekoval
narekovala
narekuje
naris
narisal
narobe
naroc
narod
naroda
narode
narodi
narodih
narodna
narodne
narodnega
narodnem
narodni
narodnih
narodnim
narodnjak
narodno
narodnoosvobodilne
narodnoosvobodilni
narodnoosvobodilno
narodnost
narodnosti
narodnostna
narodom
narodov
narodu
nas
nasa
nasadi
nase
naselbina
naselbine
naselbino
naselij
naselil
naselila
naselili
naselitev
naselja
naselje
naseljem
naseljen
naseljena
naseljenci
naseljeni
naseljenih
naseljeno
naseljevali
naselji
naseljih
naseljima
naselju
nash
nasic
nasilja
nasilje
nasiljem
nasilju
nasilne
nasilno
nasip
nasipi
naskoc
naskok
naslanja
naslanjac
nasledi
nasledil
nasledila
naslednica
naslednik
naslednika
nasledniki
naslednikom
naslednikov
naslednja
naslednje
naslednjega
naslednjem
naslednji
naslednjih
naslednjimi
naslednjo
nasledstva
nasledstvo
naslikal
naslikan
naslikana
nasloni
naslonil
naslonila
naslonjac
naslonjen
naslov
naslova
naslove
naslovi
naslovnega
naslovni
naslovnici
naslovom
naslovov
naslovu
nasmeh
nasmehne
nasmehnil
nasmehnila
nasmehom
nasmejal
nasmejala
nasmeje
nasmes
nasploh
nasproti
nasprotja
nasprotje
nasprotju
nasprotna
nasprotne
nasprotnega
nasprotnem
nasprotni
nasprotnih
nasprotnik
nasprotnika
nasprotnike
nasprotniki
nasprotnikom
nasprotnikov
nasprotniku
nasprotno
nasprotoval
nasprotovala
nasprotovali
nasprotovanja
nasprotovanje
nasprotovanju
nasprotuje
nasprotujejo
nasprotujoc
nastaja
nastajajo
nastajajoc
nastajala
nastajanja
nastajanje
nastal
nastala
nastale
nastali
nastalo
nastane
nastanejo
nastanek
nastanil
nastanjen
nastanjena
nastanka
nastankom
nastanku
nastavi
nastavil
nastop
nastopa
nastopajo
nastopajoc
nastopal
nastopala
nastopali
nastopati
nastope
nastopi
nastopih
nastopijo
nastopil
nastopila
nastopili
nastopilo
nastopiti
nastopom
nastopov
nastopu
nasvet
nasvete
nasveti
nasvetoval
nasvetu
nat
nata
natakar
natakarica
nataknil
natalie
natalija
natanc
natanko
natas
nate
natec
nathan
nati
natih
natihem
natihoma
nation
national
nationale
nations
natis
natisnil
natisnjena
natlac
nato
natoc
natrijev
natrijevega
natur
natura
natural
naturale
naturalistic
nature
nauc
nauk
nauka
nauke
nauki
naukov
nauku
navad
navada
navade
navaden
navadi
navadil
navadila
navadna
navadne
navadnega
navadnem
navadni
navadnih
navadnim
navadno
navado
navaja
navajajo
navajanju
navajen
navajena
navajeni
naval
navdaja
navdajala
navdih
navdihnil
navdihnila
navdus
navedbah
navedel
naveden
navedena
navedene
navedeni
navedenih
navedeno
navedi
navelic
navesti
navez
navezal
navezan
navezuje
navidez
navidezna
navidezni
navidezno
navijac
navkljub
navkreber
navodil
navodila
navodilih
navodilo
navpic
navsezadnje
navsezgodaj
navy
navzdol
navzgor
navzkriz
navzlic
navznoter
navzoc
navzven
naz
nazadnje
nazaj
nazionale
naziv
naziva
nazivom
naznani
naznanil
naznanila
naznanilo
naznaniti
naznanja
nazobc
nazor
nazore
nazori
nazorov
nba
nbc
nbn
nc
nchen
nchez
nchnu
nd
nde
nden
nder
ndern
ndez
ndh
ndor
ne
neal
neapelj
neaplja
neaplju
near
neba
nebe
nebes
nebesa
nebesih
nebesni
nebesnih
nebesno
nebi
nebo
nebom
nebotic
nebraska
nebroj
nebu
nec
necega
nedalec
nedavnega
nedavno
nedelja
nedeljah
nedelje
nedeljo
nedeljski
nedeljsko
nedokonc
nedoloc
nedolshnosti
nedolz
nedosez
nedotaknjena
nedvomno
need
nega
negativen
negativna
negativne
negativni
negativnih
negativno
nege
nego
negotov
negotova
negotovo
negotovost
negotovosti
neha
nehaj
nehal
nehala
nehali
nehalo
nehati
nehote
nehvalez
neil
neill
neizbez
neizkus
neizmerna
neizmerne
neizmerno
neizogibno
neizprosno
neizrec
neizrekljivo
nej
nejasen
nejasna
nejasne
nejasno
nejc
neje
nejevoljen
nejevoljno
nejevoljo
nejo
nejs
nek
neka
nekaj
nekajkrat
nekak
nekaka
nekako
nekaks
nekam
nekatera
nekatere
nekateri
nekaterih
nekaterim
nekaterimi
nekdaj
nekdanja
nekdanje
nekdanjega
nekdanjem
nekdanji
nekdanjih
nekdanjim
nekdanjo
nekdo
neke
nekega
nekem
nekemu
neki
nekih
nekim
nekje
neko
nekoc
nekod
nekoga
nekoliko
nekolikokrat
nekom
nekomu
nektere
nekteri
nekterih
nel
nella
neloc
nelson
nem
nema
nemalo
nemara
nemc
nemca
nemce
nemcem
nemcev
nemci
nemcih
neme
nemec
nemi
nemilo
nemilost
nemir
nemira
nemiren
nemiri
nemirna
nemirne
nemirni
nemirno
nemirov
nemo
nemoc
nemogoc
nemoteno
nems
nemu
nemudoma
nen
nenad
nenadna
nenadne
nenadni
nenadno
nenadoma
nenaseljen
nenavaden
nenavadna
nenavadne
nenavadnega
nenavadni
nenavadnih
nenavadno
nenehno
neo
neobc
neobhodno
neobic
neodloc
neodvisen
neodvisna
neodvisne
neodvisni
neodvisnih
neodvisno
neodvisnost
neodvisnosti
neoklasicistic
neomejeno
neopaz
neopazno
neopredeljena
nepal
nepalu
nepogres
nepomuk
nepopisno
nepos
neposreden
neposredna
neposredne
neposrednega
neposredni
neposrednih
neposrednim
neposredno
nepotrebne
nepotrebnem
nepotrebnih
nepotrebno
nepotrpez
nepravic
nepravilne
nepravilno
nepravilnosti
neprekinjeno
nepremic
nepremis
neprenehoma
neprestano
nepric
neprijazno
neprijeten
neprijetna
neprijetne
neprijetnega
neprijetni
neprijetno
neprimerno
neprvenstvena
neptunov
ner
nerad
nerada
nerazloc
nerazumljive
nerazumljivo
nered
neredu
neres
neresnic
neroden
nerodna
nerodno
nerodnosti
nervozno
nes
nese
nesebic
nesel
nesem
nesi
neskonc
nesla
nesle
nesli
neslis
nesmiselno
neso
nespametno
nespodobno
nesramno
nesrec
nesti
nestrpen
nestrpno
nestrpnost
nestrpnosti
net
neta
nete
netek
netherlands
netopir
netopirji
network
networks
neu
neubauer
neuc
neue
neugodno
neumann
neumen
neumna
neumne
neumnega
neumni
neumno
neumnost
neumnosti
neumorno
neupravic
neuradno
neusmiljen
neusmiljena
neusmiljeni
neusmiljeno
neuspeh
neuspes
neustras
neutrudno
neva
nevada
nevaren
nevarna
nevarne
nevarnega
nevarni
nevarnih
nevarno
nevarnost
nevarnosti
nevarnostjo
neve
nevede
nevednosti
neveljavna
nevenka
never
neverjetno
nevesta
neveste
nevesti
nevesto
neviden
nevidna
nevidne
nevidni
nevidno
nevihta
nevihte
nevihti
nevihto
nevolja
nevoljen
nevoljno
nevoljo
nevos
nevretenc
nevrolos
nevs
nevtronov
nevzdrz
new
news
newton
newyors
next
nez
nezadovoljen
nezadovoljstvo
nezakonito
nezakonski
nezaslis
nezaupanje
nezaupno
nezavedno
nezavest
nezavesti
nezaz
nezdruz
nezgoda
nezgode
nezmoz
neznan
neznana
neznanca
neznane
neznanec
neznanega
neznani
neznanih
neznanim
neznano
neznansko
neznatno
neznosna
neznosno
ng
nga
ngc
ngen
nguye
nh
nha
nhl
ni
nic
nica
nicah
nicami
niccolo
nice
nicholas
nicholson
nicht
nici
nick
nico
nicola
nicolas
nicole
nidars
nie
nielsen
nietzsche
nig
niga
nigel
niger
night
nih
niha
nihalo
nihanja
nihc
nij
nije
nijsem
nijsi
nijso
nijste
nijz
nik
nika
nikake
nikakega
nikakih
nikakor
nikakors
nikakrs
nikamor
nikar
nikari
nikdar
nikdo
nike
nikedar
niki
nikih
nikjer
niko
nikoder
nikogar
nikola
nikolaj
nikolaja
nikolajevic
nikolaju
nikolaus
nikoli
nikolic
nikom
nikomer
nikomur
nikov
nikova
nikove
nikovih
nikovo
niks
niku
nil
nila
nils
nim
nima
nimajo
nimam
nimamo
nimas
nimata
nimate
nimava
nimi
nimo
nin
nina
nine
nini
nino
nio
nis
nisem
nisi
nisim
nismo
niso
nista
niste
nisva
nit
niti
nivo
nivoja
nivoju
niz
niza
nizdol
nizek
nizh
nizka
nizke
nizkega
nizkem
nizki
nizkih
nizkim
nizkimi
nizko
nizozemci
nizozems
nizozemska
nizozemske
nizozemskega
nizozemskem
nizozemski
nizozemskih
nizozemsko
nizu
nj
nja
njah
njak
njaka
njaki
njam
njami
njas
njava
njave
njavi
njavo
nje
njega
njego
njegov
njegova
njegove
njegovega
njegovej
njegovem
njegovemu
njegovi
njegovih
njegovim
njegovimi
njegovo
njej
njem
njemu
njen
njena
njene
njenega
njenem
njenemu
njeni
njenih
njenim
njenimi
njeno
njev
njevo
njez
nji
njic
njica
njice
njici
njih
njihov
njihova
njihove
njihovega
njihovem
njihovemu
njihovi
njihovih
njihovim
njihovimi
njihovo
njiju
njim
njima
njimi
njiv
njiva
njivah
njivami
njive
njivi
njivo
njo
nju
njun
njuna
njune
njunega
njunem
njuni
njunih
njuno
nk
nkvd
nl
nm
nmi
no
noafris
noameris
nob
nobeden
nobel
nobelov
nobelove
nobelovec
nobelovo
nobelprize
noben
nobena
nobene
nobenega
nobenem
nobenemu
nobeni
nobenih
nobenim
nobeno
noble
noc
noch
nocoj
nocojs
noe
noel
nog
noga
nogah
nogam
nogama
nogami
nogavic
nogavice
noge
nogi
nogo
nogomet
nogometa
nogometas
nogometna
nogometne
nogometnega
nogometni
nogometnih
nogometno
nogometu
nohte
nohti
noj
nokoli
nom
nominacija
nominacijo
nominiran
nominirana
non
nor
nora
norbert
norc
norca
norce
norci
nord
norec
nori
noris
norma
normalen
normalna
normalne
normalni
normalnih
normalno
norman
normandiji
normani
normanski
normdatei
norme
noro
norost
norosti
norris
north
northern
northrop
norton
norves
norvez
nos
nosa
nosac
nosec
nosek
nosi
nosijo
nosil
nosila
nosilca
nosilcev
nosilci
nosile
nosilec
nosili
nosilo
nosim
nosis
nositi
nosnice
nosom
nost
nosti
nostih
nostjo
nostmi
nostni
nostno
nosu
not
notar
note
noter
notes
notranja
notranje
notranjega
notranjem
notranji
notranjih
notranjim
notranjo
notranjost
notranjosti
notranjs
notranjskem
notre
notri
nouveau
nov
nova
novac
novak
novce
novcev
nove
novega
novejs
novel
novela
novele
noveli
novelo
novem
november
novembra
novembrom
novembru
novemu
novgorod
novi
novic
novica
novicah
novice
novici
novico
novih
novim
novimi
novinar
novinarja
novinarjev
novinarji
novinarka
novinarstvo
novine
novinec
novj
novo
novomes
novorojenc
novost
novosti
novozelandski
novpogoj
now
noz
npr
nr
ns
nsi
nster
nt
nta
nter
nther
nu
nuclear
nudi
nudijo
nudil
nudila
nujen
nujna
nujne
nujni
nujnih
nujno
nuk
number
numbers
numeric
nun
nuna
nunciatura
nuncij
nune
nur
nus
nuvolari
ny
nyc
nyh
nyi
nym
nytimes
nz
nzs
o
oa
ob
oba
obadva
obakrat
obal
obala
obalah
obale
obali
obalna
obalne
obalnega
obalni
obalnih
obalno
obalo
obama
obarvane
obc
obdaja
obdajajo
obdajal
obdan
obdana
obdani
obdano
obdavc
obdelava
obdelave
obdelavo
obdelovati
obdeluje
obdobij
obdobja
obdobje
obdobjem
obdobjih
obdobju
obdolz
obdrz
obe
obec
obed
obednico
obedu
obeh
obelez
obelisk
obema
obenem
oberne
obes
obesi
obesil
obesila
obesili
obesiti
obeta
obetal
obetala
obhaja
obhajal
obhajala
obhajali
obhajilo
obhajilu
obi
obic
obide
obilne
obilni
obilno
obilo
obis
obisk
obiska
obiskal
obiskala
obiskali
obiskat
obiskati
obiske
obiski
obiskom
obiskov
obiskoval
obiskovala
obiskovalce
obiskovalcem
obiskovalcev
obiskovalci
obiskovalec
obiskovali
obiskovati
obisku
obiskuje
obiskujejo
objame
objav
objava
objave
objavi
objavil
objavila
objavili
objavlja
objavljal
objavljala
objavljati
objavljen
objavljena
objavljene
objavljeni
objavljenih
objavljeno
objavo
objekt
objekta
objekte
objekti
objektivno
objektov
objel
objela
objem
objema
objemal
objemala
objemu
objeti
objokana
objokane
obkolili
obkroz
oblac
oblak
oblaka
oblake
oblaki
oblakih
oblakov
oblaku
oblast
oblastem
oblasti
oblastjo
oblastno
oble
oblec
oblegal
oblegali
obleganja
obleganje
obleganjem
obleganju
oblegati
oblek
obleka
oblekah
obleke
oblekel
obleki
oblekla
oblekli
obleko
obletnica
obletnice
obletnici
obletnico
oblez
oblic
oblik
oblika
oblikah
oblikami
oblike
obliki
obliko
oblikoval
oblikovala
oblikovalec
oblikovali
oblikovalka
oblikovan
oblikovana
oblikovane
oblikovani
oblikovanja
oblikovanje
oblikovanju
oblikovano
oblikovati
oblikuje
oblikujejo
oblila
obliz
obljuba
obljube
obljubi
obljubil
obljubila
obljubili
obljubim
obljubiti
obljubljeno
obljubo
obloge
obloz
obmejnih
obmoc
obmolknil
obnas
obne
obnih
obnova
obnove
obnovi
obnovil
obnovila
obnovili
obnovitev
obnoviti
obnovljen
obnovljena
obnovljene
obnovljeni
obnovljeno
obnovo
obo
oboje
obok
oboka
obokana
oboki
obokom
obokov
oboku
obolenja
oboroz
obotavljal
oboz
obrac
obramba
obrambe
obrambi
obrambna
obrambne
obrambnega
obrambni
obrambnih
obrambno
obrambo
obras
obrat
obrata
obrati
obratno
obratov
obratuje
obravnava
obravnavajo
obravnaval
obravnavali
obravnavamo
obravnavati
obravnave
obravnavi
obravnavo
obraz
obraza
obraze
obrazec
obrazek
obrazi
obrazih
obrazislovenskihpokrajin
obrazloz
obrazom
obrazov
obrazu
obred
obreda
obrede
obredi
obredih
obredne
obredov
obredu
obremenitev
obremenitve
obresti
obrez
obri
obris
obrisal
obrisala
obrne
obrnejo
obrnem
obrni
obrnil
obrnila
obrnili
obrnilo
obrniti
obrnivs
obrnjen
obrnjena
obrnjene
obrnjeni
obrnjeno
obrobju
obroc
obronkih
obrt
obrti
obrtniki
obrtnikov
obrtnis
obrvi
obs
obsedel
obseden
obseg
obsega
obsegajo
obsegal
obsegala
obsegalo
obsegu
observations
observatorij
observatorija
observatoriju
observatory
observer
obsez
obsodba
obsodbe
obsodbo
obsodi
obsodil
obsodila
obsodili
obsoja
obsojen
obsojena
obsojeni
obstaja
obstajajo
obstajal
obstajala
obstajale
obstajali
obstajalo
obstajata
obstajati
obstal
obstala
obstali
obstane
obstanek
obstanka
obstati
obstoj
obstoja
obstojec
obstoji
obstoju
obtez
obtic
obtok
obtoz
obuboz
obudil
obup
obupa
obupal
obupan
obupana
obupano
obupen
obupni
obupno
obupu
obutev
obvaroval
obvaruj
obves
obvesti
obvestil
obvestila
obvestilo
obvezna
obvezno
obveznosti
obvladal
obvladati
obvladovanje
obz
obzidja
obzidje
obzidjem
obzidju
obzorja
obzorje
obzorju
obzornik
oc
ocean
oceana
oceanu
ocen
ocena
ocenah
ocene
oceni
ocenil
ocenili
oceniti
ocenjen
ocenjena
ocenjeno
ocenjevanje
ocenjuje
ocenjujejo
oceno
oclc
oct
october
ocvirk
od
oda
odbija
odbije
odbil
odbila
odbiti
odbor
odbora
odbornik
odborniki
odborov
odboru
odcepi
odda
oddahne
oddahnil
oddahnila
oddaj
oddaja
oddajah
oddajajo
oddaje
oddaji
oddajo
oddal
oddalec
oddaljen
oddaljena
oddaljene
oddaljeni
oddaljenih
oddaljeno
oddaljenost
oddaljenosti
oddaljil
oddati
oddelek
oddelka
oddelke
oddelki
oddelkih
oddelkom
oddelkov
oddelku
odebeljene
odebeljeno
odeja
odeje
odejo
oder
odgnal
odgnali
odgnati
odgovarja
odgovarjajo
odgovarjal
odgovarjala
odgovarjali
odgovarjati
odgovor
odgovora
odgovore
odgovoren
odgovori
odgovoril
odgovorila
odgovorili
odgovorim
odgovoriti
odgovorna
odgovorne
odgovorni
odgovorno
odgovornost
odgovornosti
odgovorom
odgovorov
odgovoru
odhaja
odhajajo
odhajajoc
odhajal
odhajala
odhajali
odhitel
odhitela
odhiti
odhod
odhoda
odhodom
odhodu
odide
odidejo
odidem
odideta
odigral
odigrala
odigrali
odigrane
odisej
oditi
odjezdil
odkar
odkas
odkimal
odkimala
odklenil
odklonil
odklonila
odkod
odkoder
odkorakal
odkrije
odkrijejo
odkril
odkrila
odkrili
odkrit
odkrita
odkrite
odkriti
odkritih
odkritij
odkritja
odkritje
odkritjem
odkritjih
odkritju
odkrito
odkritosrc
odkriva
odkrivanje
odkriz
odkupil
odkupnino
odlagalis
odlas
odleglo
odletel
odletela
odleti
odlic
odliko
odlikoval
odlikovala
odlikovan
odlikovancev
odlikovanj
odlikovanja
odlikovanje
odlikuje
odlikujejo
odloc
odloga
odlok
odlokom
odlomek
odlomki
odloz
odmakne
odmaknil
odmaknila
odmerek
odmev
odmeva
odmeval
odmevali
odmevalo
odmor
odnas
odnehal
odnese
odnesel
odnesla
odnesli
odneslo
odnesti
odnos
odnosa
odnose
odnosi
odnosih
odnosom
odnosov
odnosu
odo
odobril
odobrila
odpade
odpadke
odpadki
odpadkov
odpel
odpeljal
odpeljala
odpeljali
odpeljati
odpelje
odpeljejo
odpira
odpirajo
odpiral
odpirala
odpiranje
odpirat
odpirati
odplul
odplula
odpoc
odpor
odpora
odpornis
odpornost
odpornosti
odposlancev
odposlanci
odposlanec
odpotoval
odpotovala
odpotovati
odpotuje
odpove
odpoved
odpovedal
odpovedala
odpovedali
odpovedati
odpovedi
odprava
odprave
odpravi
odpravijo
odpravil
odpravila
odpravili
odpraviti
odpravlja
odpravljal
odpravo
odpre
odprejo
odprem
odpreti
odpri
odprite
odprl
odprla
odprle
odprli
odprlo
odpro
odprt
odprta
odprte
odprtega
odprtem
odprti
odprtih
odprtim
odprtimi
odprtina
odprtine
odprtino
odprtje
odprtju
odprto
odpus
odpusti
odpustil
odpustila
odpustili
odpustim
odpustite
odpustiti
odra
odras
odrasel
odrasla
odrasle
odraslega
odrasli
odraslih
odraslim
odraz
odre
odrec
odred
odreda
odredil
odredov
odrekel
odrekla
odrekli
odres
odrez
odrezal
odrezala
odrezali
odrih
odrine
odrinil
odrinila
odrinili
odriniti
odru
ods
odsek
odseka
odsekal
odseki
odseku
odsev
odseva
odskoc
odslej
odslovil
odsluz
odsoten
odsotnost
odsotnosti
odstavek
odstavil
odstavili
odstavka
odstavljen
odstop
odstopa
odstopi
odstopil
odstopila
odstopiti
odstopu
odstotek
odstotka
odstotkov
odstrani
odstranijo
odstranil
odstranila
odstranili
odstranitev
odstraniti
odstranjen
odstranjena
odstranjeni
odstranjevanje
odtegnil
odtlej
odtod
odtok
odtrga
odtrgal
odtrgala
odtrgati
odurno
odvalil
odvec
odvede
odvedel
odvedla
odvedli
odvetnik
odvetnika
odvetnis
odvez
odvezal
odvezo
odvija
odvijajo
odvijala
odvisen
odvisna
odvisne
odvisni
odvisno
odvisnost
odvisnosti
odvod
odvrac
odvrne
odvrnil
odvrnila
odvrniti
odvrz
odvzame
odvzel
odvzeli
odvzem
odvzeti
odz
odzdravil
odziv
odziva
odzive
odzove
odzval
odzvala
odzvali
oe
oecd
oeis
oesterreich
of
ofenziva
ofenzive
ofenzivo
ofer
off
office
official
oficir
oficirji
og
oga
oge
ogenj
ogibal
ogibati
ogiblje
ogla
oglas
oglase
oglasi
oglasil
oglasila
oglasili
oglasilo
oglasiti
ogled
ogleda
ogledal
ogledala
ogledali
ogledalo
ogledalu
ogledati
ogledoval
ogledovala
ogledovali
ogleduje
oglej
oglejskega
oglejski
oglis
oglja
ogljar
oglje
ogljik
ogljika
ogljikov
ogljikovega
ogljikovih
oglu
oglus
ognil
ognja
ognjem
ognjena
ognjene
ognjeni
ognjeno
ognji
ognjis
ognju
ogo
ogorc
ogovori
ogovoril
ograja
ograje
ograji
ograjo
ogrevanje
ogri
ogrin
ogrnil
ogrodje
ogromen
ogromna
ogromne
ogromnega
ogromni
ogromnih
ogromno
ogroz
ogrska
ogrske
ogrskega
ogrskem
ogrski
ogrskih
ogrsko
oh
ohio
ohis
ohladi
ohladila
ohlapno
ohne
oho
ohrani
ohranijo
ohranil
ohranila
ohranile
ohranili
ohranilo
ohranitev
ohraniti
ohranja
ohranjajo
ohranjanja
ohranjanje
ohranjanju
ohranjen
ohranjena
ohranjene
ohranjeni
ohranjenih
ohranjeno
oi
oil
ois
oise
oj
oja
ojac
ojunac
ok
oka
okamenel
okamenela
okcitansko
oken
okence
okinc
oklahoma
oklene
oklenil
oklenila
oklep
oklepa
oklepaju
oklepala
oklepna
oklepne
oklepni
okna
okni
oknih
okno
oknom
oknu
oko
okoli
okolic
okolica
okolice
okolici
okolico
okolis
okolja
okolje
okoljem
okoljih
okoljske
okoljskih
okolju
okolnosti
okolo
okolu
okonc
okorno
okraj
okraja
okrajev
okraji
okrajnega
okrajni
okrajno
okrajs
okraju
okras
okrasil
okrasje
okraski
okrasni
okrenil
okrenila
okrepc
okrepil
okrepila
okrepili
okrepitev
okrepitve
okreval
okrilje
okriljem
okrog
okrogel
okrogla
okrogle
okroglega
okrogli
okroglih
okroglo
okroz
oksid
oksida
okt
oktober
oktobra
oktobrom
oktobru
okupacija
okupacije
okupaciji
okupacijo
okus
okusa
okusil
okusno
okusu
okuz
okvare
okvir
okvirja
okviru
ol
ola
olaf
olah
olajs
olal
olan
olanja
olanje
olanju
olar
olc
olca
olcev
olci
old
ole
olec
oleg
oleps
olga
olge
olgi
olgo
oli
olimpija
olimpije
olimpiji
olimpijo
olimpijske
olimpijskega
olimpijski
olimpijskih
olimpijsko
oliver
olivier
olja
oljc
olje
oljem
olju
oln
olna
olnar
olne
olni
olnic
olnik
olnom
olnov
olnu
olo
ologie
ols
olsen
olska
olske
olskega
olskem
olski
olskih
olskim
olsko
olstva
olstvo
olstvu
oltar
oltarja
oltarje
oltarjem
oltarjev
oltarji
oltarju
oltarna
oltarne
oltarni
oltarno
olympedia
olympic
olympics
om
omadez
omahne
omahnil
omahnila
omahoval
omami
omamljen
oman
omar
omara
omare
omari
omaro
omec
omedlela
omega
omehc
omejen
omejena
omejene
omejeni
omejeno
omejil
omejitev
omejiti
omejitve
omejuje
omejujejo
omemba
omembe
omeni
omenil
omenila
omenili
omenim
omenimo
omeniti
omenja
omenjajo
omenjal
omenjen
omenjena
omenjene
omenjenega
omenjenem
omenjeni
omenjenih
omenjeno
omike
omoc
omogoc
omotic
omotica
omotici
omoz
omrez
on
ona
onadva
once
onda
ondi
ondod
ondu
one
onec
onega
onem
onemogel
onemogla
onemogoc
onemu
onesnaz
ong
oni
onih
onim
onimi
onkraj
online
only
ono
onore
onstran
ontario
ony
op
opa
opac
opat
opata
opatija
opatije
opatiji
opatijo
opatu
opaz
opazen
opazi
opazijo
opazil
opazila
opazili
opazimo
opaziti
opazke
opazko
opazna
opazno
opazoval
opazovala
opazovalca
opazovalci
opazovalec
opazovali
opazovanj
opazovanja
opazovanje
opazovanjem
opazovanju
opazovati
opazuje
opazujejo
opazujemo
opc
opec
opek
opeka
opeke
opeko
open
oper
opera
operacij
operacija
operacijah
operacije
operaciji
operacijo
operacijski
operation
operations
operativna
operativni
operativno
operatorname
opere
operi
operna
operni
opernih
opero
opes
opeva
opic
opica
opice
opira
opiral
opis
opisa
opisal
opisala
opisali
opisan
opisana
opisane
opisani
opisanih
opisano
opisati
opisi
opisom
opisoval
opisovanje
opisu
opisuje
opisujejo
oplas
opoldne
opolnoc
opomba
opombe
opomin
opominja
opominjal
opomni
opomnil
opomnila
opomniti
opomogel
opomogla
oponas
opora
opore
oporis
oporniki
oporo
oporoka
oporoke
oporoki
oporoko
opotekel
opozarja
opozarjajo
opozicija
opozicije
opozori
opozoril
opozorila
opozorili
opozorilo
opozoriti
opras
oprava
opravek
opravi
opravic
opravijo
opravil
opravila
opravili
opravilih
opravilo
opravilu
opraviti
opravka
opravke
opravkih
opravkov
opravlja
opravljajo
opravljal
opravljala
opravljali
opravljanja
opravljanje
opravljanju
opravljati
opravljen
opravljena
opravljeni
opravljenih
opravljeno
opravo
opredelil
opredelitev
opredeliti
opredeljen
opredeljena
opredeljene
opredeljuje
oprema
opreme
opremi
opremil
opremljen
opremljena
opremljene
opremljeni
opremljeno
opremo
oprezno
oprijel
oprijela
oprl
opros
oprosti
oprostil
oprostite
oprostiti
optic
optimistic
opus
opusti
opustil
opustila
opustili
opustiti
opustos
or
ora
orac
oral
orange
oranz
oraz
orbit
orbitalna
orchestra
ordbog
ordbok
order
oregon
oreh
orehe
orehi
orehov
orel
ores
org
organ
organa
organe
organi
organic
organih
organisation
organist
organizacij
organizacija
organizacijah
organizacijami
organizacije
organizaciji
organizacijo
organizacijska
organizacijske
organizacijski
organizacijsko
organization
organizational
organizator
organizatorji
organizem
organizira
organizirajo
organiziral
organizirala
organizirali
organiziran
organizirana
organizirane
organizirani
organizirano
organizirati
organizma
organizme
organizmi
organizmov
organizmu
organov
organska
organske
organski
organskih
orgel
orgle
orglice
orient
oriental
origin
original
originalna
originalne
originalni
originalno
origins
orion
oris
orjak
orjas
orkester
orkestra
orkestrom
orkestru
orla
orlando
orle
orli
orlov
ormoz
oro
orodij
orodja
orodje
orodjem
oropal
oropali
oroz
orsini
ortenburs
os
osa
osaka
osamljen
osamljena
osamosvojitve
osamosvojitvi
osat
oscar
ose
oseb
oseba
osebah
osebam
osebami
osebe
osebi
osebja
osebje
osebki
osebkov
osebna
osebne
osebnega
osebni
osebnih
osebnim
osebno
osebnost
osebnosti
osebnostne
osebo
osel
osem
osemdeset
osemdesetih
osemnajst
osi
oskar
oskarja
oskrba
oskrbe
oskrbi
oskrbnik
oskrbnika
oskrbniku
oskrbo
oskrbuje
osla
oslic
oslo
oslu
osma
osman
osmani
osmanska
osmanske
osmanskega
osmanskem
osmanski
osmanskim
osmansko
osmega
osmes
osmi
osmih
osmimi
osmo
osnaz
osnova
osnoval
osnove
osnovi
osnovna
osnovne
osnovnega
osnovni
osnovnih
osnovno
osnovnos
osnovo
osnutek
osobito
osoda
osodo
osojnik
osonc
osorno
ospredje
ospredju
osprey
osramoc
osrc
osrec
osrednja
osrednje
osrednjega
osrednjem
osrednji
osrednjih
osrednjim
osrednjo
osredotoc
ost
ostaja
ostajajo
ostajal
ostal
ostala
ostale
ostali
ostalih
ostalim
ostalimi
ostalo
ostane
ostanejo
ostanek
ostanem
ostanemo
ostanes
ostaneta
ostanete
ostani
ostanite
ostanke
ostanki
ostankih
ostankov
ostati
ostavil
oster
osterc
osti
ostra
ostre
ostrega
ostrejs
ostri
ostrih
ostrim
ostrimi
ostriz
ostrmel
ostrmi
ostro
ostrovrhar
ostudno
osupel
osuplo
osupne
osupnil
osus
osvajanja
osvajanje
osveta
osvez
osvobodi
osvobodil
osvobodila
osvobodili
osvobodilne
osvoboditev
osvoboditi
osvoboditve
osvoboditvi
osvojenih
osvoji
osvojil
osvojila
osvojili
osvojilo
osvojitev
osvojiti
osvojitvi
osvojitvijo
oswald
ot
ota
ote
otec
otel
otez
other
others
otide
otmar
oto
otoc
otok
otoka
otokar
otoke
otoki
otokih
otokom
otokov
otoku
oton
otona
otor
otora
otoru
otos
otoz
otrese
otresel
otresla
otresti
otro
otroc
otroci
otrocih
otrok
otroka
otroke
otroki
otrokom
otrokoma
otrokovo
otroku
otros
ottawa
otto
ottoman
otvoritev
ou
oup
our
out
ov
ova
ovac
ovadil
ovc
ovca
ovce
ovci
ovco
ove
ovec
oven
ovenc
over
overline
overview
oves
ovi
ovije
ovil
ovila
ovinek
ovinka
ovinkih
ovinkom
ovinkov
ovinku
ovir
ovira
ovirami
ovire
oviro
ovitek
ovo
ovoj
ovratnik
ovsa
owen
own
oxford
oxfordu
oz
ozadja
ozadje
ozadju
ozaljs
ozaves
ozdravel
ozdravela
ozdravi
ozdravil
ozdraviti
ozek
ozemelj
ozemlja
ozemlje
ozemljem
ozemljih
ozemlju
ozira
oziraje
ozirajo
oziral
ozirala
ozirali
ozirati
ozirom
oziroma
oziru
ozka
ozke
ozkem
ozki
ozkih
ozko
ozn
oznac
oznak
oznaka
oznake
oznako
oznani
oznanil
oznanila
oznanja
oznanjal
oznanjenje
ozrac
ozre
ozrem
ozreti
ozri
ozrl
ozrla
ozrli
ozvezdje
ozvezdju
p
pa
pablo
pac
pace
pacient
pacienta
pacientov
pacific
pacifis
pad
pada
padajo
padajoc
padal
padala
padale
padali
padalo
padalski
padati
padavin
padavine
padca
padcem
padcu
pade
padec
padejo
padel
padla
padle
padli
padlih
padlim
padlo
padova
padovi
pag
page
pages
paglavci
pagoda
pahljac
pahne
pahnil
pahnila
pahor
pain
painting
paintings
pajc
pajdas
pajek
pajk
pajka
pajki
pak
paket
pakistan
pakt
pal
pala
palac
palace
palacio
palais
palazzo
palc
palca
palcem
palcev
palec
paleolog
palermo
palestine
paleto
palgrave
pali
palic
palica
palicami
palice
palici
palico
palm
palma
palme
palmer
pamela
pamet
pameten
pameti
pametna
pametne
pametnega
pametnejs
pametni
pametnih
pametno
pan
panc
panci
panic
panija
panije
paniji
panijo
panj
panja
panoga
panoge
panonijo
panorama
pans
panska
panske
panskega
panskem
panski
panskih
pansko
pante
pantheon
panzer
paola
paolo
papa
paper
papers
papes
papez
papi
papir
papirja
papirje
papirjev
papirji
papirju
papstgeschichte
par
para
parada
parade
paradiz
paradoks
parameter
parc
parco
pardon
pare
pari
parih
paris
pariz
pariza
parizu
park
parka
parke
parker
parki
parkiris
parkom
parkov
parkrat
parks
parku
parlament
parlamenta
parlamentarne
parlamentarnih
parlamentu
parliament
parma
parna
parne
parni
parnik
paro
parom
parov
part
parte
parti
partial
partija
partije
partijo
partito
partizan
partizane
partizani
partizanih
partizanom
partizanov
partizanska
partizanske
partizanskega
partizanski
partizanskih
partizansko
partner
partnerja
partnerji
party
paru
pas
pasa
pascal
pase
pasejo
pasel
pasem
pasja
pasje
pasji
pasla
pasli
pasma
pasme
pasom
pasov
pasovi
past
pasti
pastir
pastirc
pastirica
pastirja
pastirjem
pastirjev
pastirji
pastirju
pastor
pastorka
pasu
pat
patent
pater
paternu
path
patients
patolos
patra
patria
patriarh
patriarha
patricia
patrick
patrijarh
patrik
patron
patrona
patronaz
patru
patton
paul
paula
paulo
pav
pavc
pavel
paviljon
pavla
pavle
pavleta
pavletu
pavli
pavlic
pavliha
pavlin
pavlina
pavlo
pavlom
pavlovic
pavlu
pavs
pays
paz
pazduho
pazi
pazijo
pazil
pazila
pazili
pazite
paziti
pazljivo
paznik
pazno
pb
pbs
pc
pd
pdf
pe
peace
peak
pearl
pearson
pec
ped
pedagog
pedagogike
pedagoginja
pedagos
pedi
pedro
peer
peerage
peeters
pegam
pege
peha
pehota
pehote
pehotna
pehotne
pehotnega
pehotni
pehotnih
pehta
pek
pekel
peking
pekingu
pekla
peklens
peklenska
peklenski
peklensko
pekli
peklo
peklu
peko
pekoc
pektor
pel
pela
pelca
pele
peli
pelin
peljal
peljala
peljali
peljati
pelje
peljejo
peljem
peljes
pelji
pelo
pen
pena
pene
penec
penguin
peni
penn
pennsylvania
penny
pensilvanija
people
peoples
pepe
pepel
pepela
pepelom
pepo
per
perc
percy
pere
perec
peres
peresa
peresom
performance
peric
perila
perilo
perin
period
perioda
periodic
peris
perja
perje
perjem
perk
perko
permission
pernat
pero
peroti
perry
pers
persian
persih
person
personal
personality
personen
perspective
perspectives
perspektiva
perspektive
perspektivo
peru
peruju
peruti
perva
perve
pervi
pervo
perzijci
perzije
perziji
perzijska
perzijske
perzijskega
perzijski
perzijskih
perzijsko
pes
pesek
pesem
pesen
peska
peskom
pesku
pesmi
pesmice
pesmico
pesmih
pesmijo
pesmimi
pesni
pesnica
pesnice
pesnik
pesnika
pesnike
pesniki
pesnikom
pesnikov
pesniku
pesnis
pesnitev
pesnitve
pest
pesti
pestic
pestjo
pestmi
pet
peta
petami
petan
petar
petdeset
petdesetih
pete
petega
petek
petelin
petelina
petelinc
petelini
petem
peter
peterburg
peterburgu
peterlin
petero
peters
petersburg
peterson
peti
petic
petih
petim
petimi
petindvajset
petins
petit
petja
petje
petjem
petju
petka
petkrat
petnajst
petnajstih
peto
petr
petra
petric
petrie
petrom
petrov
petrovic
petrovo
petru
petrus
petsto
pevca
pevcem
pevcev
pevci
pevcu
pevec
pevka
pevke
pevko
pevskega
pevski
pevskih
pevsko
pez
pf
pfals
pg
ph
pha
pharaohs
pharmacology
phi
phil
philadelphia
philip
philipp
philippe
phillips
philosophical
philosophie
philosophy
phoenix
photo
photos
php
phys
physical
physics
physiology
pi
pia
pianist
piano
piazza
pic
pica
pice
pico
picture
pictures
pie
pier
piero
pierre
pieta
pieter
pietra
pietro
piha
pihal
pihala
pihalni
pij
pija
pijac
pijan
pijana
pijanc
pijanca
pijanci
pijanec
pijanega
pijani
pijano
pijanost
pijanosti
pije
pijejo
pijem
pijmo
pijo
pijte
pik
pika
pike
piki
piko
pikro
pil
pila
pilastri
pile
pili
pilo
pilot
pilota
piloti
pilotov
pin
pinjin
pink
pinoy
pintar
pio
pionir
pionirji
pionirski
pipa
pipan
pipe
pipec
piper
pipi
pipin
pipo
pir
piramid
piramida
piramide
piramidi
piramido
piran
piranu
pirati
pirc
pirin
pirjevec
pirnat
pis
pisa
pisal
pisala
pisali
pisalni
pisalno
pisalo
pisan
pisana
pisane
pisanega
pisani
pisanih
pisanimi
pisanja
pisanje
pisanjem
pisanju
pisano
pisar
pisarja
pisarna
pisarne
pisarni
pisarnis
pisarno
pisatelj
pisatelja
pisatelje
pisateljem
pisateljev
pisatelji
pisateljica
pisateljice
pisatelju
pisati
pisava
pisave
pisavi
pisavo
pisca
piscev
pisci
pisec
pisem
pisemce
pisi
pisma
pismeno
pismenost
pismenosti
pismi
pismih
pismo
pismom
pismonos
pismu
pisni
pisnih
pisno
pit
pital
piti
pitje
pitne
pitno
pitt
pittsburgh
pius
piva
pivci
pivec
pivka
pivo
pivovarna
piz
pl
pla
plac
place
places
plah
plaha
plaho
plakala
plaketa
plaketo
plamen
plamena
plamenc
plamenec
plameni
plamenom
plamenu
plamtec
plan
plane
planejo
planem
planet
planeta
planetary
planete
planeti
planetov
planetu
planica
planici
planil
planila
planili
planin
planina
planinah
planine
planinec
planini
planino
planinska
planinske
planinskega
planinski
planinskih
planinsko
planiti
planjave
planjavi
planjavo
planning
plano
planota
planote
planoti
planoto
plans
plant
plantaz
plants
plas
plast
plasteh
plasti
plastic
plastike
plastjo
plat
plata
platforma
platforme
plati
platna
platno
platnu
plato
platon
plava
plavajo
plavajoc
plaval
plavala
plavali
plavanje
plavati
plave
plavz
play
player
playstation
plaz
plaza
plazi
plazil
plazovi
plazu
ple
plec
pleme
plemen
plemena
plemeni
plemenit
plemenita
plemenitas
plemenite
plemenitega
plemeniti
plemenitih
plemenito
plemic
plemis
plemstva
plemstvo
plemstvom
plemstvu
plen
plena
plenic
plenilci
plenom
ples
plesa
plesal
plesala
plesalci
plesale
plesalec
plesali
plesalka
plesati
plese
plesi
plesis
plesna
plesne
plesni
plesno
plesom
plesu
plete
pleve
plevel
pleza
plezal
plezanje
plezati
plin
plina
plini
plinij
plinov
plitvo
pljuc
pljunil
ploc
plod
plodov
plodovi
ploha
plos
ploskev
ploskve
plot
plotom
plotu
plovbe
plovbo
plovil
plovila
plovilo
plt
plug
plul
plula
pluli
plus
plutino
pm
pmatrix
pmc
pmid
pn
pnas
po
pobeg
pobegne
pobegnil
pobegnila
pobegnili
pobegniti
pobere
poberi
pobes
pobic
pobije
pobil
pobila
pobili
pobira
pobiral
pobirala
pobirali
pobirati
pobit
pobiti
poboc
poboljs
poboz
pobral
pobrala
pobrali
pobrati
pobrez
pobude
pobudnik
pobudo
poc
poceni
pod
poda
podaj
podaja
podaje
podajo
podal
podala
podali
podaljs
podam
podana
podari
podaril
podarila
podatek
podati
podatke
podatki
podatkih
podatkov
podatkovna
podatkovni
podc
poddruz
pode
podedoval
podedovala
podeli
podelil
podelila
podelili
podelitev
podelitvi
podeljen
podeljena
podeljuje
podeljujejo
podere
podez
podgana
podgane
podgorica
podgornik
podgorski
podi
podil
podila
podili
podiplomski
podira
podjetij
podjetja
podjetje
podjetjem
podjetji
podjetjih
podjetju
podjetnik
podjetnis
podkrnos
podlaga
podlage
podlagi
podlago
podlegel
podlez
podlipnik
podloz
podmornic
podmornica
podmornice
podmornico
podmornis
podnaslov
podnebja
podnebje
podnebju
podnebne
podnebnih
podnevi
podnoz
podob
podoba
podobah
podobami
podobar
podobe
podoben
podobi
podobna
podobne
podobnega
podobnem
podobni
podobnih
podobnim
podobnimi
podobno
podobnost
podobnosti
podobo
podpec
podpira
podpirajo
podpiral
podpirala
podpirali
podpirati
podpis
podpisa
podpisal
podpisala
podpisali
podpisan
podpisana
podpisati
podpisom
podpisu
podplate
podpolkovnik
podpora
podpore
podpori
podpornik
podporniki
podporo
podpre
podpredsednik
podpredsednika
podprl
podprla
podprli
podprt
podprta
podprvaka
podraz
podregijo
podrejen
podrejena
podrejeni
podreti
podrl
podrla
podrli
podrobneje
podrobnejs
podrobni
podrobno
podrobnosti
podrobnostih
podroc
podruz
podrz
podstavek
podstavku
podstres
podu
poduc
poduk
podvozje
podvrsta
podvrz
podz
podzemeljski
podzemlja
podzemlje
podzemne
podzemni
podzemnih
poem
poet
poetic
poetry
poezij
poezija
poezije
poeziji
poezijo
pogac
pogajanj
pogajanja
pogajanjih
pogajati
pogani
poganja
poganjajo
poganjal
poganjala
poganske
poganski
poganskih
pogin
pogine
poginil
poginiti
pogladi
pogladil
pogladila
poglavar
poglavarja
poglavij
poglavitna
poglavitni
poglavitno
poglavja
poglavje
poglavju
pogle
pogled
pogleda
pogledajo
pogledal
pogledala
pogledali
pogledalo
pogledam
pogledamo
pogledas
pogledat
pogledati
poglede
pogledi
pogledih
pogledom
pogledov
pogledoval
pogledovala
pogledu
pogleduje
poglej
poglejmo
poglejte
pognal
pognala
pognali
pognalo
pognati
pogodb
pogodba
pogodbe
pogodbi
pogodbo
pogodil
pogoj
pogoje
pogojem
pogojev
pogoji
pogojih
pogojno
pogoltnil
pogon
pogorel
pogorela
pogoris
pogorja
pogorje
pogorju
pogost
pogosta
pogoste
pogosteje
pogostejs
pogosti
pogostih
pogosto
pogostoma
pogostosti
pogovarja
pogovarjajo
pogovarjal
pogovarjala
pogovarjali
pogovarjata
pogovarjati
pogovor
pogovora
pogovore
pogovori
pogovorih
pogovorila
pogovoriti
pogovorni
pogovorno
pogovorom
pogovorov
pogovoru
pograbi
pograbil
pograbila
pogreb
pogreba
pogrebci
pogrebni
pogrebu
pogres
pogreznil
pogube
pogubi
pogubo
pogum
poguma
pogumen
pogumna
pogumni
pogumno
pogumom
pohis
pohitel
pohitela
pohiti
pohlep
pohlevno
pohlin
pohod
pohoda
pohode
pohodi
pohodih
pohodnis
pohodom
pohodov
pohodu
pohorja
pohorje
pohorju
pohujs
pohvale
pohvali
pohvalil
pohvalila
pohvalili
pohvalo
poimenoval
poimenovala
poimenovali
poimenovan
poimenovana
poimenovani
poimenovanja
poimenovanje
poimenovano
point
pois
poiskal
poiskala
poiskali
poiskati
poizkus
poizkusi
poizkusil
poizvedoval
poj
pojasni
pojasnil
pojasnila
pojasnilo
pojasniti
pojasnjuje
pojav
pojava
pojave
pojavi
pojavijo
pojavil
pojavila
pojavile
pojavili
pojavilo
pojavlja
pojavljajo
pojavljala
pojavljati
pojavom
pojavov
pojavu
pojde
pojdejo
pojdem
pojdemo
pojdes
pojdete
pojdeva
pojdi
pojdimo
pojdita
pojdite
pojdiva
poje
pojedel
pojedla
pojedli
pojejo
pojem
pojemajoc
pojma
pojme
pojmi
pojmom
pojmov
pojmovanje
pojo
pojoc
pojte
pojutris
pok
poka
pokal
pokala
pokalo
pokalu
pokanje
pokas
pokaz
pokazal
pokazala
pokazale
pokazali
pokazalo
pokazati
pokima
pokimal
pokimala
poklekne
pokleknil
pokleknila
poklic
poklica
poklical
poklicala
poklicali
poklican
poklicani
poklicati
poklicna
poklicne
poklicni
poklicnih
poklicno
poklicu
poklon
pokloni
poklonil
pokoj
pokoja
pokojnega
pokojni
pokojno
pokoju
pokol
pokonc
pokonci
pokoncu
pokop
pokopal
pokopali
pokopalis
pokopan
pokopana
pokopani
pokopati
pokora
pokore
pokoren
pokori
pokoril
pokoriti
pokorno
pokoro
pokors
pokos
pokrajin
pokrajina
pokrajinah
pokrajine
pokrajini
pokrajino
pokrajinskega
pokrajinski
pokrepc
pokrije
pokril
pokrila
pokrili
pokrit
pokrita
pokrite
pokriti
pokrito
pokriva
pokrivajo
pokrival
pokrivala
pokrivalo
pokriz
pokrov
pokrovitelj
pokroviteljstvom
pokus
pokvari
pokvaril
pol
pola
polagoma
polajnar
poland
polarni
polas
polasti
polastil
polastila
polastiti
polbrat
polbrata
poldan
polde
poldne
poldneva
poldnevu
poldrugi
poldrugo
pole
poleg
polegel
polemike
polena
poleno
polet
poletel
poleti
poletih
poletja
poletje
poletju
poletna
poletne
poletnega
poletnem
poletni
poletnih
poletno
poletov
polez
polfinale
polfinalu
polglasno
polhov
poli
polic
polica
policah
policaj
police
polici
policija
policije
policiji
policijo
policijska
policijske
policijskega
policijski
policijskih
policijsko
policist
policista
policisti
policistov
polico
policy
polieder
poliedri
poliedrov
poliksena
polis
polish
politic
political
politics
politik
politika
politike
politiki
politiko
politikov
politolog
polj
polja
poljak
poljaki
poljakov
poljan
poljanah
poljane
poljanec
poljani
poljans
poljc
polje
poljedelstvo
poljem
polji
poljih
poljs
poljska
poljske
poljskega
poljskem
poljski
poljskih
poljskim
poljsko
polju
poljub
poljubc
poljubi
poljubil
poljubila
poljubim
poljubiti
poljublja
poljubljal
poljubljala
poljubno
poljubom
poljubov
polk
polka
polke
polkov
polkovna
polkovnik
polkovnika
polkroz
polku
polmer
poln
polna
polne
polnega
polnem
polni
polnih
polnil
polnila
polnim
polnimi
polno
polnoc
polnoletnih
polo
polobli
polom
polomil
polona
polonca
polonica
polos
polotok
polotoka
polotoku
polovic
polovica
polovice
polovici
polovico
poloz
polski
polt
polti
polu
poluglasno
polz
pomaga
pomagac
pomagaj
pomagajo
pomagajte
pomagal
pomagala
pomagale
pomagali
pomagalo
pomagam
pomagat
pomagati
pomakne
pomaknil
pomanjkanja
pomanjkanje
pomanjkanju
pomanjkljivost
pomanjkljivosti
pomanjs
pomaranc
pome
pomec
pomemben
pomembna
pomembne
pomembnega
pomembnejs
pomembni
pomembnih
pomembnimi
pomembno
pomembnost
pomembnosti
pomen
pomena
pomene
pomenek
pomeni
pomenijo
pomenil
pomenila
pomenili
pomenilo
pomeniti
pomeniva
pomenja
pomenljivo
pomenom
pomenov
pomenu
pomeril
pomes
pomez
pomignil
pomika
pomikal
pomikala
pomikati
pomilovalno
pomiri
pomiril
pomirila
pomiriti
pomis
pomisleka
pomisleke
pomislekov
pomisli
pomislil
pomislila
pomislim
pomislimo
pomislite
pomisliti
pomlad
pomladanski
pomladi
pomladni
pomladno
pomni
pomnil
pomnim
pomnoz
pomoc
pomol
pomolc
pomoli
pomolil
pomolila
pomolu
pomore
pomors
pomorska
pomorske
pomorskega
pomorski
pomorskih
pomorsko
pomota
pomotoma
pomoz
pomrli
pomurska
ponas
ponatis
ponavadi
ponavlja
ponavljajo
ponavljajoc
ponavljal
ponavljala
ponavljali
ponavljam
ponavljanje
ponavljati
ponazarja
ponedeljek
ponekod
ponemc
ponese
ponesrec
poniz
ponj
ponjo
ponoc
ponos
ponosa
ponosen
ponosna
ponosne
ponosnega
ponosni
ponosno
ponosom
ponovi
ponovil
ponovila
ponovili
ponovitev
ponoviti
ponovna
ponovne
ponovnega
ponovnem
ponovni
ponovno
pont
ponte
ponudba
ponudbe
ponudbo
ponudi
ponudil
ponudila
ponudili
ponuditi
ponuja
ponujajo
ponujal
ponujala
ponujali
pooblas
pooblastil
pooblastila
pop
popa
popac
popade
pope
popek
popeljal
popelje
popeljem
poper
popes
popevka
popevke
popil
popila
popis
popisa
popisal
popisati
popisov
popisu
popisuje
poplac
poplav
poplava
poplave
popo
popoldan
popoldne
popoldneva
popoln
popolna
popolne
popolnega
popolnem
popolni
popolno
popolnoma
popolnost
popolnosti
popolo
popoludne
popotni
popotnico
popotnik
popotnika
popotnike
popotniki
popotnikov
popotnis
popotovanje
popov
popovic
popras
popraskal
popravi
popravil
popravila
popravili
popravilo
popraviti
popravlja
popravljal
popravljati
popred
poprej
poprejs
poprijel
poprime
poprosi
poprosil
populacija
populacije
populaciji
populacijo
popular
popularna
popularne
popularni
popularno
popularnost
popularnosti
population
populations
popus
popusti
popustil
popustila
popustiti
por
poraba
porabe
porabi
porabijo
porabil
porabila
porabili
porabiti
porabo
poras
porast
poravna
poravnal
poravnala
poravnati
poraz
poraza
porazdelitev
porazdelitve
porazi
porazil
porazila
porazili
porazom
porazov
porazu
porec
poredni
poredno
porekla
poreklo
poreko
porenje
porine
porinil
poroc
porodil
porodila
porodnis
porodu
porogljivo
porok
poroka
poroke
poroki
poroko
poros
port
porta
portal
portala
portalom
portalu
porte
porter
portna
portne
portnega
portni
portnih
portnik
portniki
portnikov
portno
porto
portoroz
portrait
portret
portrete
portreti
portretov
portu
portugal
portugalci
portugals
portugalska
portugalske
portugalskega
portugalskem
portugalski
portugalskih
portugalsko
porus
pos
posadi
posadil
posadila
posadili
posadka
posadke
posadko
posamezen
posamezna
posamezne
posameznega
posamezni
posameznih
posameznik
posameznika
posameznike
posamezniki
posameznikih
posameznikom
posameznikov
posameznikovo
posamezniku
posameznim
posameznimi
posamezno
posamic
posebej
poseben
posebna
posebne
posebnega
posebnem
posebni
posebnih
posebnim
posebnimi
posebno
posebnost
posebnosti
posec
posedal
posedli
poseg
posega
posegel
posegi
posegla
posekal
posekali
posel
poseljeno
posest
posestev
posesti
posestnik
posestnika
posestniki
posestva
posestvo
posestvu
posez
posijalo
posije
position
poskoc
poskrbel
poskrbela
poskrbeli
poskrbeti
poskrbi
poskrili
poskus
poskusa
poskuse
poskusi
poskusih
poskusil
poskusila
poskusili
poskusiti
poskusom
poskusov
poskusu
posla
poslabs
poslal
poslala
poslali
poslalo
poslan
poslana
poslanca
poslance
poslancev
poslanci
poslanec
poslani
poslanka
poslanske
poslanstvo
poslati
poslavlja
poslavljal
posle
posledic
posledica
posledicami
posledice
posledico
poslednja
poslednje
poslednjega
poslednjem
poslednji
poslednjic
poslednjih
poslednjo
poslej
posli
poslih
poslikal
poslikana
poslikane
poslikave
poslom
poslopij
poslopja
poslopje
poslopjem
poslopji
poslopju
poslov
poslovanja
poslovanje
poslovenil
poslovi
poslovil
poslovila
poslovili
posloviti
poslovna
poslovne
poslovnega
poslovnez
poslovni
poslovnih
poslovno
poslu
poslus
posluz
posmeh
posmehljivo
posmehovali
posmehuje
posmejal
posmrtne
posmrtno
posnel
posnela
posneli
posnema
posnemal
posnemali
posnemati
posnet
posneta
posnete
posnetek
posneti
posnetka
posnetke
posnetki
posnetkih
posnetkov
posnetku
posod
posoda
posodah
posode
posodi
posodil
posodila
posodo
posojila
posojilo
pospes
posplos
pospravil
pospravila
posrec
posredno
posredoval
posredovanja
posredovanje
posredovanju
posredovati
posreduje
possible
post
posta
postaj
postaja
postajah
postajajo
postajal
postajala
postajale
postajali
postajalis
postajalo
postaje
postaji
postajo
postal
postala
postale
postali
postalo
postane
postanejo
postanek
postanem
postanes
postaral
postati
postav
postava
postavah
postave
postaven
postavi
postavijo
postavil
postavila
postavili
postavilo
postavim
postavimo
postavitev
postaviti
postavitve
postavitvi
postavlja
postavljajo
postavljal
postavljali
postavljanje
postavljati
postavljen
postavljena
postavljene
postavljeni
postavljenih
postavljeno
postavo
postelj
postelja
postelje
postelji
posteljo
postojanka
postojanke
postojanko
postoji
postojna
postojni
postopac
postopal
postopanje
postopati
postopek
postopka
postopke
postopki
postopkih
postopkom
postopkov
postopku
postopno
postopoma
postrani
postrec
postregel
postregla
postrez
postrvi
posus
posuta
posvaril
posvec
posveti
posvetil
posvetila
posvetili
posvetilo
posvetiti
posvetna
posvetne
posvetni
posvetnih
posvetno
posvetoval
posvetovali
posvetovanje
pot
pota
potapljac
pote
potec
potegne
potegnejo
potegnil
potegnila
potegnili
potegniti
potegoval
poteh
potek
poteka
potekajo
potekal
potekala
potekale
potekali
potekalo
potekel
potekla
poteku
potem
potemkin
potemtakem
potencial
potenciala
potencialne
potencialni
potencialno
potential
potepuh
potez
poteza
potezah
poteze
potezo
poti
potice
potih
potiho
potihoma
potil
potipal
potisk
potiska
potisne
potisnil
potisnila
potjo
potlac
potlej
potne
potni
potnik
potnika
potnike
potniki
potnikom
potnikov
potnis
potno
potoc
potok
potoka
potokar
potoki
potokih
potokom
potokov
potoku
potolaz
potolc
potom
potoma
potomca
potomce
potomcev
potomci
potomec
potop
potopi
potopil
potopila
potopili
potopljena
potov
potoval
potovala
potovali
potovalna
potovanj
potovanja
potovanje
potovanjem
potovanjih
potovanju
potovati
potoz
potrc
potrdi
potrdil
potrdila
potrdili
potrdilo
potrditev
potrditi
potreb
potreba
potrebam
potrebami
potrebe
potreben
potrebi
potrebna
potrebne
potrebnega
potrebni
potrebnih
potrebnim
potrebno
potrebo
potreboval
potrebovala
potrebovali
potrebs
potrebuje
potrebujejo
potrebujem
potrebujemo
potrebujes
potrebujete
potres
potresa
potresi
potresov
potresu
potrjen
potrjena
potrjeno
potrjuje
potrjujejo
potrka
potrkal
potrkala
potros
potrpeti
potrpez
potrpi
potrpite
potrpljenje
potrt
potrta
potrudil
potter
potu
potuhnil
potuje
potujejo
potujoc
pouc
poudarek
poudari
poudaril
poudariti
poudarja
poudarjajo
poudarjal
poudarjena
poudarjeno
poudarkom
pouk
pouka
pouku
pour
pouz
povabi
povabil
povabila
povabili
povabilo
povabljen
povabljeni
pove
povec
povedal
povedala
povedali
povedano
povedat
povedati
povedel
povedi
povedo
povej
povejte
povelic
povelja
povelje
poveljeval
poveljnik
poveljnika
poveljniki
poveljnikom
poveljnikov
poveljniku
poveljnis
poveljstva
poveljstvo
poveljstvom
povem
povemo
poves
povesi
povesil
povesila
povest
poveste
povesti
povez
povezal
povezala
povezali
povezan
povezana
povezane
povezani
povezanih
povezano
povezanost
povezanosti
povezati
povezav
povezava
povezave
povezavi
povezavo
povezoval
povezovala
povezovali
povezovanje
povezuje
povezujejo
povijest
povis
povod
povoda
povodenj
povodni
povodnji
povojni
povojnih
povpras
povprec
povrac
povratek
povratku
povratne
povrh
povrhu
povrne
povrnem
povrni
povrnil
povrnila
povrniti
povrs
povs
povse
povsem
povsod
povsodi
povz
povzame
povzdigne
povzdignil
povzdignila
povzdignjen
povzel
povzela
povzetek
povzpel
povzpela
povzroc
powell
power
poz
pozabi
pozabijo
pozabil
pozabila
pozabili
pozabim
pozabis
pozabite
pozabiti
pozabljen
pozabljena
pozabljene
pozabljeni
pozabljeno
pozdrav
pozdrava
pozdrave
pozdravi
pozdravil
pozdravila
pozdravili
pozdravim
pozdraviti
pozdravlja
pozdravljajo
pozdravljal
pozdravljala
pozdravljali
pozdravljam
pozdravljen
pozdravljena
pozdravljeni
pozimi
pozitiven
pozitivna
pozitivne
pozitivnega
pozitivni
pozitivnih
pozitivno
poziv
poziva
pozlac
pozna
poznajo
poznal
poznala
poznali
poznalo
poznam
poznamo
poznan
poznana
poznane
poznani
poznanih
poznano
poznas
poznata
poznate
poznati
poznava
poznavalec
poznavanje
pozne
poznega
pozneje
poznejs
poznem
pozni
poznih
pozno
pozor
pozoren
pozoris
pozorni
pozorno
pozornost
pozornosti
pozornostjo
pozove
pozval
pozvala
pozvali
pozvoni
pozvonil
pp
ppogoj
pr
pra
practice
prado
prag
praga
prage
pragi
pragmatic
prago
pragom
pragu
prague
prah
praha
prahom
prahu
praks
praksa
prakse
praksi
prakso
praktic
pranje
pranjo
prapor
prapors
praprot
praprotnik
pras
pratt
prav
prava
pravda
pravde
pravdo
prave
pravega
pravem
pravi
pravic
pravica
pravicah
pravicami
pravice
pravici
pravico
pravih
pravijo
pravil
pravila
pravilen
pravili
pravilih
pravilna
pravilne
pravilnega
pravilni
pravilnih
pravilnik
pravilno
pravilo
praviloma
pravim
pravimo
pravis
pravite
praviti
pravkar
pravljic
pravljica
pravljicah
pravljice
pravljici
pravljico
pravna
pravne
pravnega
pravni
pravnih
pravnik
pravnikov
pravno
pravnomoc
pravo
pravoc
pravokotna
pravokotne
pravokotni
pravokotno
pravopis
pravopisu
pravoslavna
pravoslavne
pravoslavni
pravoslavnih
pravoslavno
pravosodje
pravu
pravzaprav
praz
prazen
prazna
prazne
praznega
praznem
prazni
praznic
praznih
praznik
praznika
praznike
prazniki
praznikih
praznikov
prazniku
praznim
praznimi
praznina
praznino
prazno
praznoval
praznovala
praznovali
praznovanja
praznovanje
praznovanju
praznuje
praznujejo
pre
prebavil
prebere
prebije
prebil
prebila
prebili
prebiral
prebiti
prebiva
prebivajo
prebival
prebivala
prebivalca
prebivalce
prebivalcem
prebivalcev
prebivalci
prebivalec
prebivali
prebivalis
prebivalstva
prebivalstvo
prebivalstvom
prebivalstvu
prebledel
prebledela
prebledi
preblizu
preboj
prebral
prebrala
prebrali
prebrati
prebrisan
prebudi
prebudil
prebudila
prec
prece
precej
precejs
pred
preda
predaja
predaji
predajo
predal
predala
predalc
predalec
predali
predan
predana
predati
predava
predaval
predavanj
predavanja
predavanje
predavatelj
predc
preddvor
prede
predel
predela
predelal
predelana
predelava
predelave
predelavo
predele
predeli
predelih
predelov
predelu
preden
predenj
predgovor
predgovoru
predhodne
predhodnica
predhodnih
predhodnik
predhodnika
predhodniki
predhodnikov
predhodno
predla
predlaga
predlagal
predlagala
predlagali
predlagam
predlagan
predlagano
predlog
predloga
predloge
predlogi
predlogom
predlogov
predlogu
predloz
predmestja
predmestje
predmestju
predmet
predmeta
predmete
predmeti
predmetih
predmetov
predmetu
prednica
prednik
prednika
prednike
predniki
prednikov
prednje
prednji
prednjo
predno
prednost
prednosti
predobro
predoc
predolgo
predor
predora
predpasnik
predpasnikom
predpis
predpise
predpisi
predpisih
predpisov
predpostavlja
predpust
predraga
predragi
predrami
predramil
predrugac
predrzen
predrznez
predrzni
predrzno
predrznost
preds
predse
predsednica
predsednik
predsednika
predsednikom
predsednikov
predsedniku
predsednis
predsedoval
predsedstva
predsedstvo
predsodkov
predstav
predstava
predstavah
predstave
predstavi
predstavil
predstavila
predstavili
predstavitev
predstaviti
predstavitve
predstavitvi
predstavlja
predstavljajo
predstavljal
predstavljala
predstavljale
predstavljali
predstavljalo
predstavljamo
predstavljata
predstavljati
predstavljen
predstavljena
predstavljene
predstavljeni
predstavljeno
predstavnica
predstavnik
predstavnika
predstavnike
predstavniki
predstavnikov
predstavnis
predstavo
predstojnik
predstojnika
predvajal
predvajali
predvajan
predvajana
predvc
predvec
predvidel
predvidena
predvideno
predvideva
predvidevajo
predvideval
predvsem
prefekt
prefekta
prefektura
prefekture
prefekturi
preganja
preganjajo
preganjal
preganjala
preganjali
preganjanja
preganjanje
preganjati
pregelj
pregl
preglavice
pregled
pregleda
pregledal
pregledala
pregledali
pregledati
pregledoval
pregledovalnik
pregledu
pregnal
pregnala
pregnali
pregnati
pregona
pregovor
pregovori
pregovoril
pregovoriti
pregrada
pregrade
pregrehe
pregres
prehaja
prehajajo
prehistoric
prehitel
prehitela
prehiteti
prehitro
prehladil
prehod
prehoda
prehodi
prehodil
prehodna
prehodno
prehodom
prehodov
prehodu
prehrana
prehrane
prehrani
prehranjuje
prehranjujejo
prehrano
prehudo
preide
preimenoval
preimenovala
preimenovali
preimenovan
preimenovana
preis
preiskal
preiskali
preiskati
preiskava
preiskave
preiskavi
preiskavo
preiskovalna
preiskovalni
preizkus
preizkusil
prej
preje
prejel
prejela
prejeli
prejelo
prejema
prejemal
prejemnik
prejemnikov
prejeti
prejme
prejmejo
prejs
prek
prekas
prekine
prekinil
prekinila
prekinili
prekinitev
prekiniti
prekinjena
prekleta
prekleti
prekleto
prekletstvo
preklic
preklical
preklinjal
prekmurja
prekmurje
prekmurju
prekmurs
prekmurski
preko
prekomerno
prekop
prekopa
prekorac
prekrasen
prekrasna
prekrasno
prekrita
prekriva
prekrivajo
prekriz
prekrs
prelat
prelaz
prelaza
prelazu
prelepa
prelepe
prelepi
prelepo
preletel
prelil
preliv
preliva
preljuba
preljubi
prelom
preloma
prelomi
prelomil
prelomu
preloz
premaga
premagajo
premagal
premagala
premagali
premagan
premagani
premagati
premagoval
premagovati
premaguje
premajhen
premajhna
premakne
premaknil
premaknila
premakniti
premalo
premec
premer
premera
premeril
premerom
premeru
premes
premestili
premetaval
premic
premier
premiera
premierja
premierno
premiero
premik
premika
premikajo
premikajoc
premikal
premikala
premikanja
premikanje
premikati
premio
premirja
premirje
premis
premisleka
premisli
premislil
premislila
premislite
premisliti
premlad
premlada
premoc
premog
premoga
premore
premotil
premoz
prenas
preneha
prenehal
prenehala
prenehali
prenehalo
prenehanju
prenese
prenesejo
prenesel
prenesla
prenesli
prenesti
prenoc
prenos
prenosa
prenosu
prenova
prenove
prenovi
prenovljena
prenovo
prentice
preobc
preoblec
preoblekel
preoblikoval
preoblikovanje
preobrat
preobraz
preobrazbo
preostala
preostale
preostali
preostalih
preostalo
preostanek
prepad
prepada
prepaden
prepadu
prepeljali
prepeva
prepeval
prepevala
prepevali
prepevati
prepir
prepira
prepirala
prepirali
prepirati
prepiri
prepiru
prepis
prepisal
preplas
prepletajo
prepoc
preporod
prepotoval
prepove
prepoved
prepovedal
prepovedala
prepovedali
prepovedan
prepovedana
prepovedane
prepovedani
prepovedano
prepovedi
prepoveduje
prepozna
prepoznal
prepoznali
prepoznamo
prepoznati
prepoznavanje
prepoznaven
prepoznavna
prepoznavnost
prepozno
preprec
preprez
prepric
preproga
preproge
preprogo
preprost
preprosta
preproste
preprostega
preprostejs
preprosti
preprostih
preprostim
preprosto
prepus
prepusti
prepustil
prepustila
prepustili
prepustiti
prerac
preras
prerez
prerok
preroka
preroki
preros
pres
presec
presega
presegajo
presegel
presegla
presek
preseka
presekal
preseli
preselil
preselila
preselili
preselilo
preseliti
presenec
presenetil
presenetila
presenetilo
presenetljivo
present
presez
president
preskoc
preskrbel
preskrbeti
preskrbi
preskus
presledkih
preslis
presneto
prespal
presrc
presrec
press
prestal
prestala
prestali
prestane
prestanka
prestati
prestavil
prestavili
prestavljen
prestiz
prestol
prestola
prestolnica
prestolnice
prestolnici
prestolnico
prestolonaslednik
prestolonaslednika
prestolu
prestop
prestopi
prestopil
prestopila
prestopili
prestopiti
prestopnih
prestopno
prestras
prestregel
pretaka
pretec
pretege
pretekla
pretekle
preteklega
pretekli
preteklih
preteklo
preteklost
preteklosti
preteklostjo
preteku
pretep
pretepal
pretepel
pretez
preti
pretila
pretirana
pretirano
pretnar
pretoc
pretok
pretoka
pretrese
pretresel
pretresla
pretreslo
pretrga
pretrgal
pretrgala
pretrpel
pretrpela
pretrpeti
pretvarja
pretvezo
pretvorbo
pretvori
preuc
preudarjal
preuredili
preusmeril
prev
prevaja
prevajal
prevajalcev
prevajalec
prevajalka
prevajanja
prevajanje
prevajanju
prevara
prevare
prevaro
prevaz
prevec
prevedel
preveden
prevedena
prevedeno
prevedla
prevedli
prevel
prevelik
prevelika
prevelike
prevelikega
preveliko
prevention
preveri
preveriti
preverjanje
preverjen
previden
previdna
previdni
previdno
previdnost
previdnosti
previsoko
prevlado
prevladovala
prevladovali
prevladuje
prevladujejo
prevladujoc
prevlec
prevod
prevoda
prevode
prevodi
prevodov
prevodu
prevoz
prevoza
prevrac
prevrnil
prevroc
prevzame
prevzamejo
prevzel
prevzela
prevzele
prevzeli
prevzelo
prevzem
prevzema
prevzemu
prevzet
prevzeti
prevzeto
prevzvis
prez
prezbiterij
prezbiterija
prezbiteriju
prezgodaj
prezira
prezirljivo
prezrac
prezrl
prgis
pri
pribez
pribliz
priboljs
priboril
pric
price
prid
prida
pride
pridejo
pridelavo
pridelek
pridelka
pridelke
pridelki
pridelkov
pridem
pridemo
priden
prides
prideta
pridete
prideva
pridevnik
pridi
pridiga
pridigal
pridigar
pridige
pridigo
pridite
pridna
pridne
pridni
pridno
pridobi
pridobijo
pridobil
pridobila
pridobili
pridobilo
pridobitev
pridobiti
pridobitve
pridobiva
pridobivajo
pridobivanja
pridobivanje
pridobivanju
pridobljena
pridobljene
pridobljeni
pridobljenih
pridobljeno
pridruz
pridrz
pridus
priganjal
prignal
prigodilo
prigovarja
prigovarjal
prigovarjala
prigovarjanje
prihaja
prihajajo
prihajajoc
prihajal
prihajala
prihajale
prihajali
prihajalo
prihajam
prihajas
prihajati
prihitel
prihitela
prihiteli
prihiti
prihod
prihoda
prihodkov
prihodnje
prihodnjega
prihodnji
prihodnjic
prihodnjih
prihodnjo
prihodnjost
prihodnost
prihodnosti
prihodom
prihodu
prihranil
priimek
priimka
priimke
priimki
priimkom
priimkov
prija
prijatel
prijatelj
prijatelja
prijatelje
prijateljem
prijateljev
prijatelji
prijateljica
prijateljice
prijateljici
prijateljico
prijateljske
prijateljski
prijateljskih
prijateljsko
prijateljstva
prijateljstvo
prijateljstvu
prijatelju
prijavil
prijazen
prijazna
prijazne
prijaznega
prijaznejs
prijaznem
prijazni
prijaznih
prijaznim
prijazno
prijaznost
prijaznosti
prijel
prijela
prijeli
prijelo
prijeten
prijeti
prijetna
prijetne
prijetnega
prijetnejs
prijetni
prijetnih
prijetno
prijezdil
prikaz
prikazal
prikazala
prikazali
prikazalo
prikazan
prikazana
prikazane
prikazani
prikazano
prikazati
prikazen
prikazni
prikazuje
prikazujejo
prikima
prikimal
prikimala
priklic
prikljuc
prikloni
priklonil
prikrajs
prikriti
prikrito
prikrival
prikrivati
prikupil
prikupiti
prilagajanje
prilagoditev
prilagoditi
prilagoditve
prilagojena
prilagojene
prilega
priletel
priletela
prileti
prilez
prilezel
prilic
prilika
prilikah
prilike
priliki
priliko
priljubljen
priljubljena
priljubljene
priljubljeni
priljubljenih
priljubljeno
priljubljenost
priljubljenosti
priloga
priloz
prim
prima
primaknil
primanjkovalo
primanjkuje
primarna
primarne
primarni
primarnih
primarno
primary
prime
primejo
primer
primera
primere
primerek
primeren
primeri
primerih
primerilo
primerja
primerjaj
primerjal
primerjali
primerjalna
primerjalne
primerjalno
primerjamo
primerjati
primerjava
primerjavi
primerjavo
primerki
primerkov
primerna
primerne
primernega
primernejs
primerni
primernih
primerno
primerov
primeru
primes
primi
primoran
primorje
primorska
primorske
primorskem
primorski
primorskih
primorsko
primoz
prinas
princ
princa
prince
princem
princesa
princese
princeska
princeso
princess
princeton
princip
principles
principu
princu
prinese
prinesejo
prinesel
prinesem
prinesi
prinesite
prinesla
prinesle
prinesli
prineslo
prineso
prinesti
print
priobc
prior
pripada
pripadajo
pripadajoc
pripadal
pripadala
pripadali
pripadalo
pripadel
pripadla
pripadlo
pripadnik
pripadnike
pripadniki
pripadnikov
pripadnost
pripadnosti
pripekalo
pripeljal
pripeljala
pripeljale
pripeljali
pripeljalo
pripeljati
pripelje
pripeljejo
pripeljem
pripeti
pripetila
pripetilo
pripis
pripisal
pripisali
pripisana
pripisati
pripisovali
pripisuje
pripisujejo
priplazil
pripombe
pripomni
pripomnil
pripomnila
pripomoc
pripomogel
pripomogla
pripomogli
pripomoglo
pripomore
priporoc
pripoved
pripovedi
pripovedka
pripovedke
pripovedna
pripovedne
pripovedni
pripovednik
pripovednis
pripovedno
pripovedoval
pripovedovala
pripovedovalca
pripovedovalec
pripovedovali
pripovedovanja
pripovedovanje
pripovedovanjem
pripovedovanju
pripovedovati
pripoveduje
pripovedujejo
pripovedujem
priprav
priprava
pripravah
pripravami
priprave
pripraven
pripravi
pripravijo
pripravil
pripravila
pripravili
pripravite
pripraviti
pripravlja
pripravljajo
pripravljal
pripravljala
pripravljali
pripravljati
pripravljen
pripravljena
pripravljene
pripravljeni
pripravljenih
pripravljeno
pripravljenost
pripravljenosti
pripravno
pripravo
pripros
priprosto
pripus
priredba
priredbe
priredbo
priredil
priredila
priredili
prireditev
prireditvah
prireditve
prireditvi
priroc
priroda
prirode
prirodi
prirodo
prirojena
prirojene
prirojeno
pris
prisa
prisec
prisede
prisedel
prisedla
prisega
prisegam
prisege
prisegel
prisegla
prisegli
prisego
priseljencev
priseljenci
prisez
prisili
prisilil
prisilila
prisilili
prisiliti
prisiljen
prisiljena
prisiljeni
prisiljeno
prisilno
priskoc
priskrbel
prisluhnil
prislus
prisluz
prisonc
prisoten
prisotna
prisotne
prisotni
prisotnih
prisotno
prisotnost
prisotnosti
prispe
prispel
prispela
prispeli
prispeva
prispevajo
prispeval
prispevala
prispevali
prispevalo
prispevek
prispevke
prispevki
prispevkov
prisrc
pristajalno
pristal
pristala
pristali
pristan
pristane
pristanek
pristanis
pristas
pristava
pristavi
pristavil
pristavila
pristavo
pristno
pristojnost
pristojnosti
pristop
pristopa
pristopi
pristopil
pristopila
pristopu
prisvojil
pritajeno
pritec
pritegne
pritegnil
pritegnila
pritekel
pritekla
priti
pritisk
pritiska
pritiskal
pritiskala
pritiskom
pritisku
pritisne
pritisnil
pritisnila
pritlic
pritlikavec
pritok
pritoka
pritoki
pritokov
pritoz
pritrdi
pritrdil
pritrdila
pritrdili
pritrjen
pritrjena
pritrjene
pritrjeni
pritrjeval
priuc
privabil
privadi
privadil
privadila
privaditi
private
privatno
privede
privedel
privedla
privedli
privedlo
privez
privezal
privezali
privezan
privid
privil
privila
privilegij
privilegije
privlac
privlec
privlekel
privoli
privolil
privolila
privos
privrz
privzdignil
prix
priz
prizadel
prizadela
prizadelo
prizadene
prizadet
prizadeta
prizadete
prizadeti
prizadetih
prizadeva
prizadevajo
prizadeval
prizadevala
prizadevali
prizadevanj
prizadevanja
prizadevanje
prizadevanju
prizanas
prizanesel
prize
prizma
prizna
priznal
priznala
priznali
priznam
priznan
priznana
priznane
priznani
priznanih
priznanj
priznanja
priznanje
priznano
priznati
priznava
priznavajo
prizor
prizora
prizore
prizori
prizorih
prizoris
prizorov
prizoru
pro
problem
problema
problematic
problematiko
probleme
problemi
problemih
problemom
problemov
problems
proc
proceedings
proces
procesa
procese
procesi
procesih
procesija
procesije
procesiji
procesijo
procesom
procesov
process
procesu
prod
proda
prodaj
prodaja
prodajajo
prodajal
prodajala
prodajalec
prodajali
prodajalnico
prodajalno
prodajati
prodaje
prodaji
prodajo
prodal
prodala
prodali
prodam
prodan
prodana
prodanih
prodati
prodor
prodre
prodreti
prodrl
prodrla
prodrli
produ
producent
producenta
producenti
produciral
product
production
productions
products
produkcija
produkcije
produkciji
produkcijo
produkt
produkta
produkti
produktivnost
produktivnosti
produktov
prof
profesionalni
profesionalno
profesor
profesorica
profesorja
profesorjem
profesorjev
profesorji
profesorju
professional
professor
profil
profile
prog
proga
proge
progi
proglas
proglasil
progo
program
programa
programe
programi
programih
programiranje
programme
programom
programov
programska
programske
programski
programskih
programsko
programu
progress
proizvaja
proizvajajo
proizvajalca
proizvajalcev
proizvajalci
proizvajalec
proizvajali
proizvajati
proizvede
proizvod
proizvode
proizvodi
proizvodnja
proizvodnje
proizvodnji
proizvodnjo
proizvodov
project
projects
projekt
projekta
projekte
projekti
projektih
projektom
projektov
projektu
prokleta
prokleti
prokleto
proleksis
promet
prometa
prometheus
prometna
prometne
prometni
prometnih
prometno
prometu
promocijo
promoviral
propad
propada
propade
propadel
propadla
propadlo
propadu
propaganda
propagande
propagando
propeler
properties
prorac
pros
prosec
prosi
prosijo
prosil
prosila
prosili
prosim
prosimo
prosit
prositi
proso
prost
prosta
proste
prostega
prostem
prosti
prostih
prostim
prosto
prostodus
prostor
prostora
prostorc
prostore
prostori
prostorih
prostorna
prostorni
prostornina
prostornine
prostornino
prostorno
prostorom
prostorov
prostorske
prostorsko
prostoru
prostost
prostosti
prostovoljcev
prostovoljci
prostovoljec
prostovoljno
prostrani
prostrano
prosvetni
protected
protection
protein
proteini
proteinov
protest
protesta
protestanti
protestantov
protestantska
protestantske
protestantski
protestantskih
protestantsko
protesti
protestov
proti
protikomunistic
protipapez
protipomenke
protiteles
protitelesa
proto
protokol
proton
protonov
prototip
prouc
provence
provinc
provinca
provincah
province
provinci
provincia
provinco
provizor
provzroc
proz
proza
proze
prozi
prozo
prs
prsa
prsi
prsih
prsnega
prsni
prst
prsta
prstan
prstana
prstanov
prste
prsti
prstih
prstom
prstov
prt
prtic
prtljago
prtom
pruc
prusija
prusije
prusiji
prusijo
pruske
pruski
prusko
prva
prvak
prvaka
prvaki
prvakinja
prvakinje
prvakov
prve
prvega
prvem
prvemu
prvenec
prvenstva
prvenstvenih
prvenstvih
prvenstvo
prvenstvu
prvi
prvic
prvih
prvikrat
prvim
prvimi
prvine
prvo
prvotna
prvotne
prvotnega
prvotnem
prvotni
prvotnih
prvotno
przemisl
ps
psa
pse
psevdonim
psevdonimom
psi
psic
psihiater
psihiatric
psihic
psiholog
psihologija
psihologije
psihologijo
psiholos
psom
psov
pst
psu
psychiatry
psychological
psychology
pt
ptic
ptica
pticami
ptice
ptico
ptolemaj
ptuj
ptuja
ptujski
ptuju
pu
pub
public
publication
publications
publicist
publicistic
publicistka
publikacij
publikacija
publikacijah
publikacije
published
publisher
publishers
publishing
publius
puc
puerto
puh
pulj
pulju
punc
punca
punce
punco
punk
punt
punta
pure
pus
pust
pusta
puste
pustet
pusti
pustijo
pustil
pustila
pustili
pustim
pustimo
pustis
pustite
pustiti
pustiva
pustni
pusto
pustolovec
pustolovs
pustos
put
putin
putnam
python
pzs
q
qquad
quad
quality
quantum
quarterly
que
quebec
queen
query
question
questions
qui
quo
quod
r
ra
raba
rabe
rabelj
rabi
rabijo
rabil
rabila
rabili
rabim
rabin
rabiti
rabo
rac
raca
race
rachel
racing
racko
rad
rada
radar
rade
radec
radgona
radgoni
radi
radia
radic
radijska
radijske
radijski
radijskih
radijsko
radikalno
radio
radiu
radivoj
rado
radoslav
radost
radosti
radostjo
radostno
radovan
radoveden
radovedna
radovednez
radovedni
radovedno
radovednost
radovednosti
radovljica
radovljici
radovljis
radovoljno
raduje
radz
raf
rafael
rafaela
raffaele
rahel
rahla
rahli
rahlo
rahloc
rai
rail
railroad
railway
rain
rainer
raj
raja
raje
rajh
rajha
raji
rajko
rajmond
rajnega
rajni
rajnki
rajs
rajske
rajski
rajsko
raju
rak
raka
rake
raket
raketa
rakete
raketni
raketo
rakev
raki
rakom
rakov
rakovec
raku
ral
ralph
ram
rama
ramah
ramami
rame
ramen
ramena
rameni
ramenih
rami
ramo
ramon
ramovs
ramzes
ramzesa
ran
rana
random
rane
ranega
rang
range
rangle
rani
ranil
ranila
ranjen
ranjena
ranjenca
ranjence
ranjencev
ranjenci
ranjene
ranjenec
ranjenega
ranjeni
ranjenih
ranjeno
ranks
rano
raphael
rard
ras
rasa
rase
rasel
rasinskega
rasla
rasle
rasli
raslo
rast
raste
rastejo
rastel
rasti
rastis
rastislav
rastla
rastlin
rastlina
rastlinah
rastlinami
rastline
rastlini
rastlino
rastlinske
rastlinskega
rastlinski
rastlinskih
rastlinstvo
rastlo
rasto
rastoc
rat
ration
ravan
ravbar
raven
ravna
ravnajo
ravnal
ravnala
ravnali
ravnanja
ravnanje
ravnanju
ravnatelj
ravnatelja
ravnatelju
ravnati
ravne
ravneh
ravnem
ravni
ravnice
ravnici
ravnih
ravnik
ravnikar
ravnina
ravninah
ravnine
ravnini
ravnino
ravno
ravnodus
ravnokar
ravnotez
ravnovesje
ray
raymond
raz
razbije
razbil
razbila
razbili
razbita
razbiti
razbitino
razbito
razbojnik
razbojnika
razbojniki
razbojnikov
razbojnis
razbrati
razburil
razburila
razburjen
razburjena
razburjeni
razburjenja
razburjenje
razburjeno
razburjenost
razburjenosti
razc
razcvet
razcveta
razdalja
razdaljah
razdalje
razdalji
razdaljo
razdeli
razdelil
razdelila
razdelili
razdelimo
razdelitev
razdeliti
razdelitvi
razdeljen
razdeljena
razdeljene
razdeljeni
razdeljeno
razdraz
razen
razglas
razglasi
razglasil
razglasila
razglasili
razglasitev
razglasitvi
razgled
razgleda
razgledi
razgovarjal
razgovarjala
razgovarjali
razgovor
razgovora
razgovoru
razgrnil
razgrnila
raziskal
raziskav
raziskava
raziskavah
raziskavami
raziskave
raziskavi
raziskavo
raziskoval
raziskovala
raziskovalcev
raziskovalci
raziskovalec
raziskovali
raziskovalka
raziskovalna
raziskovalne
raziskovalnega
raziskovalnem
raziskovalni
raziskovalnih
raziskovalno
raziskovanja
raziskovanje
raziskovanjem
raziskovanju
raziskovati
raziskuje
razjarjen
razjasni
razjasnil
razjasniti
razjeda
razjezi
razjezil
razjezila
razjokal
razjokala
razkac
razkladal
razkol
razkorac
razkos
razkrije
razkril
razkrila
razkriti
razkriva
razkropili
razkuz
razlag
razlaga
razlagajo
razlagal
razlagala
razlagali
razlagati
razlage
razlagi
razlago
razlega
razlegal
razlegalo
razlic
razlije
razlik
razlika
razlike
razliko
razlikoval
razlikovala
razlikovali
razlikovanje
razlikovati
razlikuje
razlikujejo
razlikujeta
razlil
razlila
razloc
razlog
razloga
razloge
razlogi
razlogov
razloz
razmer
razmerah
razmeram
razmerami
razmere
razmerij
razmerja
razmerje
razmerjem
razmerjih
razmerju
razmeroma
razmis
razmnoz
razmrs
razna
raznas
razne
raznesla
razni
raznih
raznim
raznimi
razno
raznolika
raznolike
raznoliko
raznolikost
raznolikosti
raznovrstne
raznovrstnih
raznovrstnost
raznovrstnosti
razoc
razodel
razodela
razodene
razodeti
razodetja
razodetje
razodeva
razodeval
razoroz
razpad
razpada
razpadajoc
razpade
razpadel
razpadla
razpadom
razpadu
razpelo
razpis
razpoc
razpoke
razpolago
razpoloz
razpon
razporeditev
razporejene
razporejeni
razposajeno
razpotja
razpotju
razprav
razprava
razpravah
razprave
razpravi
razpravlja
razpravljal
razpravljali
razpravo
razprostira
razprostirajo
razprostirala
razprostrl
razprs
razpus
razpustil
razred
razreda
razredc
razrede
razredi
razredih
razredov
razredu
razres
razrezali
razrus
razs
razsaja
razsez
razsrdil
razstav
razstava
razstavah
razstave
razstavi
razstavljena
razstavljene
razstavljeni
razstavo
razsvetljavo
razsvetljena
razsvetljeno
razsvetljenstva
raztegnil
razteza
raztezajo
raztezala
raztolmac
raztopina
raztopine
raztopini
raztopino
raztresene
raztreseni
raztrga
raztrgal
raztrgala
raztrgan
raztrgana
raztrgane
raztrgani
raztrgano
razum
razuma
razume
razumejo
razumel
razumela
razumeli
razumem
razumemo
razumen
razumes
razumete
razumeti
razumevanja
razumevanje
razumevanju
razumljivo
razumno
razumom
razumu
razun
razvalin
razvalinah
razvaline
razvedrila
razvedrilo
razven
razveseli
razveselil
razveselila
razvidno
razvija
razvijajo
razvijajoc
razvijal
razvijala
razvijali
razvijalo
razvijanje
razvijati
razvije
razvijejo
razvil
razvila
razvile
razvili
razvilo
razvit
razvita
razvite
razviti
razvitih
razvito
razvnel
razvoj
razvoja
razvojem
razvojna
razvojne
razvojni
razvojnih
razvojno
razvoju
razvrs
razvrstitev
razz
rb
rc
rd
rdec
rdigen
re
read
reading
reagira
reakcij
reakcija
reakcijah
reakcije
reakciji
reakcijo
reaktivni
reaktivno
reaktor
reaktorja
real
realistic
reality
realizem
realizma
realna
realne
realnem
realni
realnih
realno
realnost
realnosti
rebecca
rebeka
reber
rebra
rebri
rec
recent
recept
receptor
receptorje
receptorjev
receptorji
reci
recimo
recite
record
recording
records
red
reda
rede
redek
redi
redil
rediti
redka
redke
redkeje
redkejs
redki
redkih
redkimi
redko
redkokdaj
redna
redne
rednega
rednem
redni
rednih
redno
redo
redom
redov
redovnica
redovnik
redu
reed
ref
referenc
reference
referendum
referenduma
referendumu
referent
reform
reforma
reformacije
reforme
reformi
reformo
regensburg
regent
regenta
regij
regija
regijah
regije
regiji
regijo
regiment
regimental
regina
reginald
region
regional
regionalna
regionalne
regionalni
regionalnih
regionalno
regions
register
registra
regno
reich
reid
reign
reinhard
reinhold
rejo
rek
reka
rekah
rekama
reke
rekel
reki
rekla
rekle
rekli
reklo
reko
rekoc
rekonstrukcija
rekonstrukcijo
rekord
rekordov
reks
rektor
rela
related
relations
relationship
relativna
relativno
relativnosti
release
relief
reliefi
reliefu
religij
religija
religije
religiji
religijo
religion
religious
relikvij
relikvije
relo
rem
remix
ren
rena
renaissance
renata
renato
renault
renc
rene
renesanc
renesansa
renesanse
renesansi
rentac
renu
reorganizacijo
rep
repa
repe
repertoar
repic
repo
repom
report
reportaz
reporter
reports
reprezentanc
reprezentanca
reprezentance
reprezentanci
reprezentanco
reprint
repu
republic
republik
republika
republike
republiki
republiko
republis
rer
res
research
resen
reserve
resistance
resna
resne
resnega
resnejs
resni
resnic
resnica
resnice
resnici
resnico
resnih
resnik
resnim
resno
resnobno
resnost
resolution
resonanc
resource
resources
response
restavracija
restavracije
restavraciji
restavracijo
results
reti
retoric
retrieved
return
reuters
rev
reva
revc
reve
reveals
reven
revesa
revez
revica
review
reviews
revij
revija
revijah
revije
reviji
revijo
revised
revna
revne
revnega
revni
revnih
revnim
revno
revo
revolucija
revolucije
revoluciji
revolucijo
revolucionar
revolucionarne
revolucionarno
revolution
revolver
revs
revue
rex
rey
reynolds
rez
reza
rezal
rezervat
rezervata
rezervne
rezervni
rezervoar
rezidenca
rezidence
rezidenco
rezika
reziki
reziko
rezka
rezko
rezultat
rezultata
rezultate
rezultati
rezultatom
rezultatov
rg
rgen
rhin
rho
ri
ria
riaa
rib
riba
ribami
ribar
ribe
ribic
ribica
ribice
ribis
ribje
ribnic
ribnica
ribnici
ribnik
ribnis
ribo
ribolov
ric
rica
ricardo
riccardo
ricci
rice
rich
richard
richarda
richards
richardson
richter
richu
rick
rico
ricordi
riga
right
rights
rihard
riharda
rijeka
ril
rilanki
riley
rim
rima
rime
rimljane
rimljani
rimljanom
rimljanov
rimokatolis
rimom
rimska
rimske
rimskega
rimskem
rimskemu
rimski
rimskih
rimskim
rimskimi
rimsko
rimskokatolis
rimu
ring
rio
ris
risal
risanje
risar
risb
risba
risbe
rise
riserva
risk
rit
rita
ritem
riti
ritma
ritmic
ritmu
ritoper
ritter
river
rivera
riz
rja
rjav
rjava
rjave
rjavega
rjavi
rjavih
rjavo
rje
rji
rju
rjuhe
rjuho
rk
rka
rkami
rkc
rkdartists
rke
rki
rko
rl
rla
rli
rm
rms
rn
rna
rnberg
rne
rnega
rnem
rni
rnih
rnila
rnilo
rnim
rnimi
rnk
rno
rnogorski
rnogorsko
rnomelj
rnomlju
rnten
rnuc
ro
road
rob
roba
robato
robcem
robe
robec
robert
roberta
roberto
robertom
roberts
robertson
robertu
robi
robic
robin
robinson
robo
robom
robot
robov
robove
robovi
robovih
robu
roc
roche
rochefort
roci
rock
rocka
rocket
rockline
rod
roda
rodbin
rodbina
rodbine
rodbini
rodbino
rode
rodi
rodil
rodila
rodile
rodili
rodilo
roditeljev
roditelji
roditi
rodna
rodne
rodni
rodno
rodoljub
rodoljubi
rodom
rodos
rodov
rodovi
rodovina
rodovine
rodovino
rodovitna
rodovitne
rodovitno
rodri
rodriganda
rodu
rog
roga
rogac
rogal
rogas
rogatec
roge
roger
rogers
rogljic
rogov
rogove
rogovi
rogu
roj
rojak
rojaka
rojake
rojaki
rojakom
rojakov
roje
rojen
rojena
rojene
rojeni
rojenice
rojeno
roji
rojstna
rojstnega
rojstnem
rojstni
rojstnih
rojstno
rojstva
rojstvo
rojstvom
rojstvu
rok
roka
rokah
rokama
rokami
rokav
rokava
rokave
rokavi
rokavice
rokavom
roke
roki
roko
rokometas
rokometne
rokopis
rokopisa
rokopise
rokopisi
rokopisov
rokopisu
rokovnjac
rokovnjas
roku
roland
rolanda
role
rolf
roll
rolling
rolls
rom
roma
romal
roman
romana
romanca
romance
romane
romani
romania
romanih
romanja
romanje
romano
romanom
romanov
romanska
romanske
romanski
romanskih
romansko
romantic
romantika
romantike
romanu
romar
romarje
romarjev
romarji
romarska
romarski
romarsko
rome
romeo
rommel
romunija
romunije
romuniji
romunijo
romuns
romunska
romunski
romunskih
romunsko
ron
rona
ronald
room
roosevelt
roots
rop
ropar
roparja
roparjev
roparji
roparski
ropot
ropota
ropotanje
ros
rosa
rose
rosen
rosi
rosne
rosno
roso
ross
rossi
roth
rotil
rotor
rotorja
rotovz
rotten
rouge
round
rousseau
route
routledge
rov
rova
rovan
rovi
rovu
rowing
roy
royal
royce
roz
roza
rozalka
rozi
rozman
rpa
rpal
rpalke
rr
rs
rsssf
rt
rta
rtal
rtami
rtane
rte
rtev
rti
rtic
rtica
rtice
rtih
rtno
rto
rtom
rtomir
rtov
rtoval
rtovali
rtovan
rtovana
rtovanja
rtovanje
rtovanju
rtovano
rttemberg
rtu
rtuje
rtv
rtvam
rtvami
rtve
rtvi
rtvoval
rtvovala
rtvovanje
rtvovati
rtvslo
rtvuje
ru
rubens
rubin
rubrika
ruc
ruda
rudar
rudarjev
rudarji
rudarski
rudarstvo
rude
rudec
rudi
rudnik
rudnika
rudniki
rudnikih
rudnikov
rudniku
rudnis
rudo
rudolf
rudolfa
rue
ruiz
rule
rum
rumen
rumena
rumene
rumenega
rumeni
rumenih
rumenimi
rumenkasto
rumeno
run
rupel
rupert
rupnik
rus
rusa
ruse
rusi
rusija
rusije
rusiji
rusijo
ruska
ruske
ruskega
ruskem
ruskemu
ruski
ruskih
ruskim
rusko
rusom
rusov
russell
russia
russian
russo
ruta
rutar
rute
ruth
ruto
ruz
rv
rva
rvi
rvic
ry
ryan
ryholt
rz
s
sa
saab
sabina
sabine
sablja
sablje
sabljo
sabo
saboj
sacred
sad
sadez
sadja
sadje
sadjem
sadove
sadu
safety
saga
sage
said
saint
sainte
saints
saj
saje
sakaj
saksofon
sala
sales
sally
saloma
salomon
salon
salona
salonu
salt
salvador
salvatore
salzburg
salzburgu
salzburs
sam
sama
samca
samcev
samci
same
samec
samega
samem
samemu
sami
samic
samica
samice
samih
samim
samimi
samo
samodejno
samokres
samomor
samorad
samostalnik
samostalnis
samostan
samostana
samostane
samostani
samostanih
samostanom
samostanov
samostanska
samostanske
samostanskega
samostanski
samostanskih
samostansko
samostanu
samostojen
samostojna
samostojne
samostojnega
samostojni
samostojnih
samostojno
samostojnost
samostojnosti
samota
samotar
samote
samoten
samoti
samotna
samotne
samotnem
samotni
samotnih
samotno
samoto
samouprava
samouprave
samoupravne
samoupravnih
samoupravo
samovoljno
samozaloz
samozavest
samozavesti
samozavestno
samuel
san
sancin
sand
sandi
sandra
sandro
sandz
sani
sanj
sanja
sanjah
sanjal
sanjala
sanjalo
sanjam
sanjavo
sanje
sankt
sant
santa
santana
santi
santiago
santo
santos
sao
sap
sapa
sape
sapi
sapica
sapo
sar
sara
sarah
sarajevo
sarajevu
sarkofag
sars
sas
sastav
satan
satelit
satelitov
satelitski
satellite
satellites
satira
satire
satiric
sato
satu
saturn
saudi
saunders
sava
save
savi
savici
savinji
savinjski
savinjsko
savo
say
says
sazu
sb
sc
scala
scale
scena
scenarij
scenariju
scenarist
scene
sceni
sceno
scer
scha
schiller
schleswig
schmidt
schnabl
schneider
scho
schon
school
schools
schro
schu
schumacher
schuster
sci
science
sciences
scientific
scientist
scientists
scott
screen
sculpture
sd
sdaj
sdo
sds
se
sea
sean
search
searchin
season
seattle
sebastia
sebastian
sebastijan
sebe
sebi
sebic
sebo
seboj
sec
second
secret
secrets
section
security
sed
sedaj
sedanja
sedanje
sedanjega
sedanjem
sedanji
sedanjih
sedanjo
sedanjost
sedanjosti
sedanjostjo
sede
sedec
sedej
sedel
sedela
sedeli
sedelo
sedem
sedemdeset
sedemdesetih
sedemkrat
sedemnajst
sedeti
sedez
sedi
sedijo
sedim
sedis
sedita
sedite
sedla
sedli
sedlo
sedlu
sedma
sedmega
sedmem
sedmi
sedmic
sedmih
sedmimi
sedmo
see
sega
segajo
segajoc
segal
segala
segale
segali
segalo
segel
segla
sein
seine
seiner
seit
sej
seja
sejal
seje
sejem
seji
sejma
sejmu
sejo
seka
sekal
sekali
sekcija
sekcije
sekira
sekire
sekiro
sekretar
sekretarja
seks
sektor
sektorja
sektorju
sekund
sekundah
sekundarni
sekunde
sekundo
sel
sela
seldz
sele
selected
selection
selektor
selena
self
seli
selim
selis
selitev
selitve
seljak
selo
sels
selu
sem
seme
semen
semena
semenis
semenj
semic
seminar
seminarju
semintja
semkaj
semtertja
semtertje
sen
sena
senat
senata
senator
senatorjev
senatu
senc
senca
sence
senci
sencih
senco
senj
senjske
senna
seno
senor
senoz
senu
sep
seppelt
sept
september
septembra
septembrom
septembru
ser
serbia
serc
serca
serce
sercu
sergej
sergeja
sergejevic
sergij
sergio
serie
series
serij
serija
serijah
serije
seriji
serijo
serijsko
service
services
servisna
ses
sesalcev
sesalci
sesedel
sesedla
sestal
sestanek
sestanka
sestanku
sestav
sestava
sestave
sestavi
sestavil
sestavila
sestavili
sestavin
sestavina
sestavine
sestaviti
sestavlja
sestavljajo
sestavljala
sestavljale
sestavljali
sestavljalo
sestavljata
sestavljen
sestavljena
sestavljene
sestavljeni
sestavljenih
sestavljeno
sestavni
sestavo
sester
sesti
sestoji
sestra
sestre
sestrelil
sestri
sestric
sestrica
sestrice
sestrico
sestro
set
setev
seva
sevanja
sevanje
seve
seveda
seven
sever
severa
severin
severja
severna
severne
severnega
severnem
severni
severnih
severnim
severno
severnoameris
severovzhodnem
severovzhodni
severovzhodno
severovzhodu
severozahodnem
severozahodni
severozahodno
severozahodu
severu
sevnica
sex
sexual
seymour
sez
sezidal
sezidali
sezidati
seznam
seznama
seznami
seznamu
seznani
seznanil
seznanila
seznaniti
sezon
sezona
sezonah
sezonama
sezone
sezoni
sezono
sf
sfere
sforza
sfr
sfrj
sg
sh
shadow
shajali
shakespeare
shannon
shaw
she
sheet
shema
sheme
shi
ship
ships
shka
sho
shod
shodu
short
shorter
should
show
shqipe
shrambe
shrambo
shrani
shranil
shranjen
shranjena
shranjene
shranjeni
shranjevanje
shs
shujs
si
sibila
sibirije
sibiriji
sibirijo
sic
sicer
sich
sicilija
sicilije
siciliji
sicilijo
sicilski
sida
siddharta
side
sidney
sie
siegfried
siemens
siena
sierra
sigismund
sigismunda
sigledal
sigma
sigmund
signal
signala
signale
signalov
signs
sigurno
sij
sijaj
sijajna
sijajno
sijaju
sijal
sijala
sijale
sijalo
sije
sijoc
siknil
sikorsky
sil
sila
silah
silam
silami
sile
silen
sili
silijo
silil
silila
silile
silili
sililo
siliti
silna
silne
silnega
silnejs
silnem
silni
silnih
silnim
silno
silo
siloma
silovito
silva
silver
silvester
silvija
silvio
silvo
sim
sima
simbol
simbola
simbole
simboli
simbolic
simbolizira
simbolom
simbolov
simc
simeon
simetric
simetrija
simetrije
simetrijo
simfonic
simfonija
simic
simo
simon
simona
simone
simonic
simoniti
simpatic
simpatije
simpozij
simpson
simptome
simptomi
simptomov
simulacija
sin
sina
sinagoga
sinan
sinc
since
sind
sindrom
sindroma
sine
sinek
singel
singer
singh
singl
singla
single
singles
singli
singlom
singlov
sinje
sinji
sinka
sinko
sinoc
sinom
sinonim
sinov
sinova
sinove
sinovi
sinovo
sinovom
sinovoma
sintetic
sinteza
sinteze
sintezo
sinu
sio
siol
sipine
sir
sira
sire
sirija
sirije
siriji
sirijo
siromak
siromaka
siromaki
siromas
sirota
sirote
sirotis
siroto
sis
sistem
sistema
sistematic
sisteme
sistemi
sistemih
sistemom
sistemov
sistemu
sister
sit
sita
sitar
site
siten
sites
siti
sitna
sitni
sitno
sitnosti
sito
situacija
situacijah
situacije
situaciji
situacijo
situation
siv
siva
sive
sivec
sivega
sivi
sivih
sivimi
sivo
six
size
sj
sk
ska
skac
skakac
skakal
skakala
skakalec
skakali
skakalnici
skakati
skal
skala
skalah
skalami
skalar
skale
skali
skalnate
skalnati
skalnatih
skalne
skalni
skalnih
skalo
skalovja
skalovje
skalovjem
skalovju
skaz
skedenj
skednju
skega
skelec
skeptic
skerb
skerbi
skerbno
skesano
sket
ski
skice
skin
sklad
sklada
skladatelj
skladatelja
skladateljev
skladatelji
skladb
skladba
skladbah
skladbe
skladbi
skladbo
skladis
skladno
skladu
sklanja
sklanjatev
skleda
sklede
skledi
skledo
sklene
sklenejo
sklenil
sklenila
sklenili
skleniti
sklenjen
sklenjena
sklenjene
sklenjeno
sklep
sklepa
sklepajo
sklepal
sklepala
sklepali
sklepamo
sklepati
sklepe
sklepi
sklepih
sklepom
sklepov
sklepu
sklic
sklical
skliceval
sklicevanje
sklici
sklicuje
skljuc
skloni
sklonil
sklonila
sklonjeno
sklop
sklopu
sko
skoc
skodelice
skodelico
skok
skoki
skokih
skokom
skokov
skoku
skomignil
skonc
skopec
skopje
skopju
skopuh
skor
skoraj
skorajda
skorej
skorja
skorje
skorji
skorjo
skoro
skoval
skoz
skozenj
skozi
skrajne
skrajnem
skrajni
skrajno
skrajnosti
skrajs
skratka
skrb
skrbe
skrbeh
skrbel
skrbela
skrbeli
skrbelo
skrbeti
skrbi
skrbij
skrbijo
skrbite
skrbjo
skrbna
skrbni
skrbnis
skrbno
skrc
skremz
skrije
skril
skrila
skrili
skrinja
skrinje
skrinji
skrinjico
skrinjo
skrit
skrita
skrite
skritega
skriti
skritih
skrito
skriva
skrivaj
skrivaje
skrivajo
skrival
skrivala
skrivali
skrivalis
skrivati
skrivna
skrivne
skrivnem
skrivni
skrivnih
skrivno
skrivnost
skrivnosten
skrivnosti
skrivnostna
skrivnostne
skrivnostnega
skrivnostni
skrivnostno
skrivoma
skromen
skromna
skromne
skromni
skromnih
skromno
skrus
skuhal
skuhala
skulptur
skulptura
skulpture
skulpturo
skup
skupaj
skupek
skupen
skupin
skupina
skupinah
skupinam
skupinami
skupine
skupini
skupino
skupna
skupne
skupnega
skupnem
skupni
skupnih
skupnim
skupno
skupnost
skupnosti
skupnostih
skups
skus
skusil
sky
sl
sla
slab
slaba
slabe
slabega
slabejs
slabem
slabi
slabic
slabih
slabim
slabo
slabost
slabosti
slaboten
slabotna
slabotno
slabs
slac
sladak
sladek
sladka
sladke
sladkega
sladkem
sladki
sladkih
sladkim
sladko
sladkor
sladkorja
sladkorne
sladkost
sladkosti
sladoled
slajs
slak
slalom
slalomu
slam
slama
slame
slami
slamnik
slamo
slana
slane
slano
slap
slapa
slapov
slapovi
slapu
slas
slast
slasti
slastjo
slastno
slatina
slav
slava
slavc
slave
slavec
slaven
slavi
slavic
slavica
slavil
slavila
slavili
slavin
slavist
slavistic
slavistiko
slavka
slavko
slavna
slavne
slavnega
slavni
slavnih
slavno
slavnost
slavnosti
slavnostni
slavnostno
slavo
slavoj
slavolok
slavonsko
sle
slec
sled
sledec
sledeh
sledi
sledijo
sledil
sledila
sledile
sledili
sledilo
sledita
slediti
slednja
slednje
slednjega
slednjem
slednji
slednjic
slednjih
slednjo
sledov
sledove
sledovi
sledu
sleherni
sleherno
slej
slekel
sleme
slemena
slemenu
slep
slepa
slepar
slepe
slepec
slepi
slepih
slepo
slg
sli
slic
slik
slika
slikah
slikal
slikala
slikami
slikanica
slikanice
slikanja
slikanje
slikar
slikarja
slikarjev
slikarji
slikarju
slikarka
slikarstva
slikarstvo
slikarstvu
slikati
slike
sliki
sliko
slikovito
slinavke
sline
slino
slis
slo
slobodan
slodnjak
slog
sloga
sloge
slogi
slogom
slogov
slogovno
slogu
sloj
sloja
slojev
sloji
sloms
slon
slona
slonel
slonela
sloni
slonokos
slonov
slonovine
slotop
slov
slovan
slovane
slovani
slovanom
slovanov
slovanska
slovanske
slovanskega
slovanskem
slovanski
slovanskih
slovansko
slovar
slovarja
slovarji
slovarju
slovas
slove
slovec
slovel
sloven
slovenca
slovence
slovencem
slovencev
slovenci
slovencih
slovencu
slovene
slovenec
sloveni
slovenia
slovenian
slovenija
slovenije
sloveniji
slovenijo
slovenistiko
slovenj
slovenka
slovenov
slovens
slovenska
slovenske
slovenskega
slovenskem
slovenskemu
slovenskenovice
slovenski
slovenskih
slovenskim
slovenskimi
slovensko
slovenstva
sloves
slovesa
slovesni
slovesno
slovesnost
slovesnosti
slovesu
slovi
slovnic
slovnica
slovnice
slovnici
slovnico
slovo
slovstva
slovstveno
slovstvo
slovstvu
slowenischen
sloz
sls
sluc
sluga
sluge
slugi
slugo
sluh
sluha
slus
slutec
sluti
slutil
slutila
slutili
slutim
slutiti
slutnja
slutnje
sluz
sm
small
smart
smatra
smatrajo
smatral
smatrala
smatrali
smc
sme
smeh
smeha
smehlja
smehljaj
smehljaje
smehljajem
smehljajoc
smehljal
smehljala
smehom
smehu
smejal
smejala
smejale
smejali
smejalo
smejati
smeje
smejejo
smeji
smejo
smejoc
smel
smela
smele
smeli
smelo
smem
smemo
smer
smereh
smeri
smernice
smert
smerti
smes
smeta
smetano
smete
smeti
smetis
smeva
smili
smilil
smilila
smisel
smiselno
smisla
smislu
smith
smithsonian
smo
smodko
smodnik
smodnika
smola
smole
smolej
smolo
smoter
smrad
smrc
smrdi
smrec
smrek
smreka
smrekar
smreke
smreko
smrt
smrti
smrtjo
smrtna
smrtne
smrtnem
smrtni
smrtnih
smrtno
smrtnost
sms
smuc
smuk
smukac
smuknil
smuknila
smuku
sn
sna
snac
sname
snaz
sne
snedel
sneg
snega
snegom
snegu
sneguljc
snel
snela
snellman
snemal
snemalec
snemali
snemanja
snemanje
snemanjem
snemanju
snemati
snez
sng
snl
snoc
snoj
snooker
snop
snopic
snov
snovi
snovjo
snovmi
snow
snu
snubac
snubil
snubit
snuje
so
soavtor
sob
soba
sobah
sobane
sobe
sobi
sobice
sobici
sobico
sobin
sobo
soboj
sobota
sobotah
sobote
soboti
soboto
soc
social
socialist
socialistic
socialistov
socializem
socializma
socialna
socialne
socialnega
socialnem
socialni
socialnih
socialno
socie
society
sociolog
sociologija
sociologije
sociologijo
sociolos
sod
soda
sodba
sodbe
sodbi
sodbo
sodc
sode
sodec
sodelavca
sodelavcev
sodelavci
sodelavec
sodeloval
sodelovala
sodelovale
sodelovali
sodelovalo
sodelovanja
sodelovanje
sodelovanjem
sodelovanju
sodelovati
sodeluje
sodelujejo
sodelujoc
sodi
sodijo
sodil
sodila
sodili
sodim
sodis
sodite
soditi
sodna
sodne
sodnega
sodni
sodnih
sodnija
sodnije
sodniji
sodnijo
sodnik
sodnika
sodnike
sodniki
sodnikom
sodnikov
sodniku
sodnis
sodno
sodoben
sodobna
sodobne
sodobnega
sodobnem
sodobni
sodobnih
sodobnik
sodobniki
sodobnikov
sodobnim
sodobnimi
sodobno
sodobnost
sodobnosti
sodstvo
sodu
sofia
sofija
sofije
software
soglas
soglasja
soglasje
soglasju
soglasno
sojenja
sojenje
sok
soka
sokol
sokola
sokolov
sokolovic
sokolski
sokrat
sol
solar
solc
soli
solid
soline
solistic
soljo
solkan
solnc
solnca
solnce
solncem
solncu
solnogras
solo
solomon
solun
solunu
solz
solza
solzah
solzami
solze
solzi
solzne
solznimi
solzo
som
some
somerset
somis
somrak
son
sonata
sonc
sonca
sonce
soncem
soncu
sonda
sonet
song
songs
sonja
sons
sony
sooc
sopel
sophie
sopomenke
sopran
soprog
soproga
soproge
soprogi
soprogo
soprogu
sorazmerna
sorazmerno
soroden
sorodna
sorodne
sorodni
sorodnica
sorodnih
sorodnik
sorodnika
sorodnike
sorodniki
sorodnikom
sorodnikov
sorodno
sorodstvo
sorodstvu
sorodu
sort
sorte
sos
sosebno
sosed
soseda
sosede
sosedi
sosedje
sosedne
sosedni
sosednja
sosednje
sosednjega
sosednjem
sosednji
sosednjih
sosednjimi
sosednjo
sosedno
sosedo
sosedom
sosedov
sosedu
soses
soseska
soseske
soseski
sosic
sotes
soteska
soteske
soteski
sotesko
sotli
sotoc
souc
soul
sound
soundtrack
source
sources
sous
soustanovitelj
south
southeast
southern
sova
sove
soviet
sovjeti
sovjetska
sovjetske
sovjetskega
sovjetski
sovjetskih
sovjetsko
sovpada
sovras
sovraz
soz
sp
spa
spac
space
spada
spadajo
spadal
spadala
spadali
spadalo
spadata
spain
spak
spaka
spal
spala
spali
spalnice
spalnici
spalnico
spalo
spanec
spanish
spanja
spanje
spanjem
spanju
spat
spati
spd
spe
spears
spec
special
specialist
specialistic
specialna
specialne
specialnih
species
specific
speculative
speed
spekla
spekter
spektra
speljana
spencer
spes
spet
spev
spi
spice
spiegel
spijo
spim
spin
spirit
spis
spisa
spisal
spise
spisi
spisih
spisov
spisu
splac
splas
splav
splazil
splet
spleta
spletis
spletke
spletna
spletne
spletnega
spletnem
spletni
spletnih
spletno
spletu
spleza
splezal
split
splitsko
splitu
sploh
splos
spo
spoc
spod
spodaj
spodbudil
spodbudila
spodbudilo
spodbuja
spodbujajo
spodbujal
spodbujala
spodbujanje
spodi
spodil
spodnja
spodnje
spodnjega
spodnjem
spodnji
spodnjih
spodnjim
spodnjo
spodobi
spodobilo
spodobno
spogledala
spogledali
spojin
spojina
spojine
spol
spola
spolna
spolne
spolnega
spolni
spolnih
spolno
spoloma
spolov
spolu
spomenik
spomenika
spomenike
spomeniki
spomenikov
spomeniku
spomenis
spomin
spomina
spomine
spominek
spomini
spominih
spominja
spominjajo
spominjal
spominjala
spominjali
spominjam
spominjas
spominjate
spominjati
spominom
spominov
spominska
spominske
spominskega
spominski
spominsko
spominu
spomlad
spomladi
spomni
spomnil
spomnila
spomnili
spomnim
spomnis
spomnite
spomniti
spontano
spopad
spopada
spopade
spopadi
spopadih
spopadli
spopadov
spopadu
spor
spora
sporazum
sporazuma
sporazumom
sporazumu
spore
sporedu
spori
sporih
sporna
sporno
sporoc
sporov
sport
sports
sporu
spos
sposoben
sposobna
sposobne
sposobni
sposobnost
sposobnosti
spotaknil
spotoma
spoved
spovedi
spovednik
spozna
spoznajo
spoznal
spoznala
spoznali
spoznam
spoznamo
spoznanj
spoznanja
spoznanje
spoznanju
spoznas
spoznati
spoznava
spoznaval
spoznavati
spra
sprache
spras
sprave
spravi
spravijo
spravil
spravila
spravili
spravilo
spravim
spravite
spraviti
spravlja
spravljal
spravljali
spravo
spred
spredaj
spredi
sprednje
sprednjem
sprednji
spregledal
spregovori
spregovoril
spregovorila
spregovoriti
sprehaja
sprehajal
sprehajala
sprehod
sprejel
sprejela
sprejele
sprejeli
sprejelo
sprejem
sprejema
sprejemajo
sprejemal
sprejemala
sprejemali
sprejemanje
sprejemati
sprejemu
sprejet
sprejeta
sprejete
sprejeti
sprejetje
sprejeto
sprejme
sprejmejo
sprejmem
sprejmi
spreletela
spreletelo
sprememb
sprememba
spremembah
spremembam
spremembami
spremembe
spremembi
spremembo
spremeni
spremenijo
spremenil
spremenila
spremenile
spremenili
spremenilo
spremeniti
spremenjen
spremenjena
spremenjene
spremenjeni
spremenjeno
spremenljivk
spremenljivka
spremenljivke
spremi
spremil
spremila
spreminja
spreminjajo
spreminjajoc
spreminjal
spreminjala
spreminjanja
spreminjanje
spreminjati
spremlja
spremljajo
spremljajoc
spremljal
spremljala
spremljale
spremljali
spremljalo
spremljanje
spremljati
spremljevalca
spremljevalci
spremljevalec
spremljevalka
spremljevalni
spremna
spremstva
spremstvo
spremstvom
spremstvu
spreobrnil
spreten
spretno
spretnost
spretnosti
spretnostjo
sprevidel
sprevod
spric
sprijazniti
spring
springer
sprl
sprla
spros
sprosti
sproti
sproz
sprva
spus
spusti
spustijo
spustil
spustila
spustili
spustiti
sq
sqrt
square
sr
srajc
srajca
srajce
srajci
srajco
sraka
srakar
sram
sramez
sramota
sramote
sramoti
sramotno
sramoto
sramoval
sramovala
sramovati
sramu
sramuje
srb
srbi
srbija
srbije
srbiji
srbijo
srbohrvas
srbov
srbs
srbska
srbske
srbskega
srbskem
srbski
srbskih
srbsko
src
srca
srce
srcem
srci
srcih
srcu
srd
srda
srdit
srdito
srdu
sre
srebra
srebrn
srebrna
srebrne
srebrni
srebrnih
srebrnim
srebrnimi
srebrno
srebro
srebrom
srebru
srec
sred
sreda
srede
sredi
sredina
sredine
sredini
[...]
