!
"
#
##0
##1
##10
##11
##12
##13
##14
##15
##16
##17
##18
##19
##2
##20
##21
##22
##23
##24
##25
##26
##27
##28
##29
##3
##30
##31
##32
##33
##34
##35
##36
##37
##38
##39
##4
##40
##41
##42
##43
##44
##45
##46
##47
##48
##49
##5
##50
##51
##52
##53
##54
##55
##56
##57
##58
##59
##6
##60
##61
##62
##63
##64
##65
##66
##67
##68
##69
##7
##70
##71
##72
##73
##74
##75
##76
##77
##78
##79
##8
##80
##81
##82
##83
##84
##85
##86
##87
##88
##89
##9
##90
##91
##92
##93
##94
##95
##96
##97
##98
##99
$
%
&
'
(
)
*
+
,
-
.
/
0
00
000
0000
000000
001
002
003
005
006
007
0078
0079
009
01
010
012
01745329252
019
02
03
039
04
05
06
0600
07
08
09
09999999999999
1
10
100
1000
10000
100000
10001
1001
1003
1004
1009
101
1010
102
1024
1025
1026
103
1030
1037
1039
104
1040
1048
105
1050
1054
1055
106
107
108
109
11
110
1100
111
112
113
1130
114
115
1150
1152
116
1160
1165
1167
117
1170
1171
1173
118
1182
1186
119
1192
12
120
1200
12000
1201
1206
121
1210
122
1226
123
1230
1234
1236
124
1240
1242
1246
125
1250
1258
126
127
1272
128
129
1290
1291
1296
1297
1298
13
130
1300
13000
131
1315
132
1320
1321
1325
133
1333
134
1340
135
1350
1351
1353
136
1365
1368
137
138
1388
139
14
140
1400
141
1414
142
143
144
145
1450
1451
1453
146
147
148
149
1490
1492
1498
15
150
1500
15000
1501
1502
1508
151
1517
1519
152
1520
1521
1523
1524
1526
153
1530
1538
154
1540
1542
1545
155
1550
1551
1554
1555
1556
156
1566
157
158
1580
1582
1583
1588
1589
159
1590
1591
15919
1592
15924
1595
1598
1599
16
160
1600
1603
1604
1605
1606
1607
161
1610
1612
1613
1614
1617
1618
162
1627
1628
1629
163
1631
164
1640
1642
165
1650
1656
1658
166
1661
1665
167
168
1683
1689
169
1699
17
170
1700
1701
1703
1707
171
1712
1718
172
173
1736
1738
1739
174
1740
1747
175
1750
1752
1753
1755
1757
1758
1759
176
1760
1761
1762
1763
1768
1769
177
1770
1772
1774
1775
1776
1777
1778
178
1780
1781
1782
1783
1786
1789
179
1790
1791
1792
1793
1795
1797
1798
1799
18
180
1800
1801
1803
1804
1806
1807
1808
1809
181
1810
1811
1812
1813
1814
1815
1817
1818
1819
182
1820
1821
1822
1823
1824
1825
1826
1827
1828
1829
183
1830
1831
1832
1833
1834
1835
1836
1837
1838
1839
184
1840
1841
1842
1843
1844
1845
1846
1847
1848
1849
185
1850
1851
1852
1853
1854
1855
1856
1857
1858
1859
186
1860
1861
1862
1863
1864
1865
1866
1867
1868
1869
187
1870
1871
1872
1873
1874
1875
1876
1877
1878
1879
188
1880
1881
1882
1883
1884
1885
1886
1887
1888
1889
189
1890
1891
1892
1893
1894
1895
1896
1897
1898
1899
19
190
1900
1901
1902
1903
1904
1905
1906
1907
1908
1909
191
1910
1911
1912
1913
1914
1915
1916
1917
1918
1919
192
1920
1921
1922
1923
1924
1925
1926
1927
1928
1929
193
1930
1931
1932
1933
1934
1935
1936
1937
1938
1939
194
1940
1941
1942
1943
1944
1945
1946
1947
1948
1949
195
1950
1951
1952
1953
1954
1955
1956
1957
1958
1959
196
1960
1961
1962
1963
1964
1965
1966
1967
1968
1969
197
1970
1971
1972
1973
1974
1975
1976
1977
1978
1979
198
1980
1981
1982
1983
1984
1985
1986
1987
1988
1989
199
1990
1991
1992
1993
1994
1995
1996
1997
1998
1999
2
20
200
2000
20000
2001
2002
2003
2004
2005
2006
2007
2008
2009
201
2010
2011
2012
2013
2014
2015
2016
2017
2018
2019
202
2020
2021
2022
2023
203
204
205
206
207
208
209
21
210
2100
211
212
213
214
215
216
217
218
219
22
220
2200
221
222
223
224
225
226
227
228
229
23
230
2300
231
232
233
234
235
236
237
238
239
24
240
2400
241
242
243
244
245
246
247
248
249
25
250
2500
25000
251
252
253
254
255
256
257
258
259
26
260
261
262
263
264
265
266
267
268
269
27
270
271
272
273
274
275
276
277
278
279
28
280
281
282
283
284
285
286
287
288
289
29
290
291
292
293
294
295
296
297
298
299
3
30
300
3000
30000
301
302
303
304
305
306
307
308
309
31
310
311
312
313
314
315
316
3166
316846592
317
318
319
32
320
321
322
323
324
325
326
327
328
329
33
330
331
332
333
334
335
336
337
338
339
34
340
341
342
343
344
345
346
347
348
349
35
350
3500
351
352
353
354
355
356
357
358
359
36
360
3600
361
362
363
364
365
366
367
368
369
37
370
371
372
373
374
375
376
377
378
379
38
380
381
382
383
384
385
386
387
388
389
39
390
391
392
393
394
395
397
398
399
4
40
400
4000
40000000000001
401
402
403
404
405
406
407
408
409
41
410
411
412
413
414
415
416
417
418
419
42
420
421
4217
422
424
425
426
427
428
429
43
430
431
432
433
434
435
436
437
438
439
44
440
441
443
444
446
447
448
449
45
450
4500
452
454
455
457
458
459
46
460
461
462
463
465
467
469
47
470
474
475
477
478
48
480
481
484
485
486
487
488
489
49
490
492
493
495
496
497
498
499
5
50
500
5000
50000
501
504
505
506
507
51
510
511
512
513
517
52
520
522
524
525
528
53
530
531
532
535
536
537
538
54
540
543
548
549
55
550
553
555
558
559
56
560
561
562
565
566
567
569
57
570
571
574
579
58
580
581
582
583
585
587
59
590
592
596
597
599
6
60
600
6000
601
607
61
610
613
616
619
62
620
622
623
624
625
626
627
628
63
630
632
633
634
639
64
640
641
642
643
644
646
647
648
65
650
651
656
658
659
66
660
661
662
664
665
666
667
668
669
67
671
673
674
676
678
68
680
683
685
687
689
69
690
692
693
695
7
70
700
7000
702
705
708
709
71
710
711
712
716
717
72
720
725
728
73
734
735
74
740
742
748
75
750
751
752
76
760
762
764
77
771
78
780
786
79
793
8
80
800
8000
80665
81
82
825
828
83
830
8316846592
84
85
850
854
86
8601
87
870
873
875
88
89
890
895
9
90
900
90000000000001
907
9098
91
910
914
919
92
921
925
927
928
929
93
930
935
94
940
942
944
948
95
950
952
957
96
960
961
962
963
965
969
97
970
973
975
978
979
98
99
995
998
999
9999
:
;
<
=
>
?
@
\
^
_
`
a
aa
aaa
ab
abbasi
abbr
abbreviated
abbreviation
abbreviations
abc
abd
abdul
abkhazia
able
ablo
ablon
ablona
ablonas
ablono
about
above
aboveclass
abovestyle
abraham
abs
absolute
absolutely
abu
abuse
abusefilter
abutilon
ac
academic
academy
accept
acceptable
accepted
accepts
access
accessdate
accessed
accessibility
accessible
accesskey
according
account
accounting
accounts
ace
achieve
acid
acre
acres
across
act
acting
action
actioncompleted
actions
active
activity
acts
actual
actually
ad
adabi
adam
add
addcat
addclass
added
addfooterlink
adding
addition
additional
addon
addportletlink
address
addresses
adds
addtypesascolor
adelaide
adj
adjacent
adjectival
adjust
adjusted
adm
admin
administration
administrative
administrator
administrators
adminonly
admins
advanced
advertising
ae
aerial
af
afd
affairs
affect
affected
affects
affiliation
affricate
afghan
afghanistan
africa
african
after
again
against
age
agency
agf
ago
agr
agta
ah
ahmad
ahmed
ahref
ai
aiatsis
aid
air
aircraft
aires
airport
airports
ajax
ak
aka
al
ala
alabama
alam
alameda
alaska
albania
albanian
albert
alberta
album
alert
alexander
algeria
ali
alias
aliases
aliasesp
align
aligned
alignment
alize
all
allah
alliance
allow
allowbots
allowed
allowing
allows
almost
alone
along
alpes
alpha
alphabet
alphabetical
alphabetically
alphabets
already
als
also
alt
alter
alternate
alternative
alternativemap
although
altlink
altnames
altogether
alttext
alttype
altvar
alveolar
alveolo
always
am
amal
amazon
ambox
amendment
america
american
among
amount
amp
ampersand
amrita
amsterdam
amtrak
an
ana
analysis
anchor
anchors
ancient
and
andorra
andre
andrew
andries
android
ang
angeles
angiosperms
angle
angola
animal
animals
animated
annual
anon
anonymous
another
antarctica
anthem
anti
antigua
antonio
any
anyone
anything
anyway
anywhere
ao
apache
apg
api
apiobj
apostrophe
app
apparent
appear
appearance
appearing
appears
append
appendchild
appendtext
apple
applicable
application
applications
applied
applies
apply
applying
appointed
approach
appropriate
approval
approved
approximant
approximate
apps
apr
april
ar
arab
arabia
arabian
arabic
aramaic
arc
archaeological
archaeology
architecture
archive
archived
archivedate
archives
archiveurl
arctic
are
area
areas
aren
arg
argentina
argnumber
args
argsdate
argsi
argsk
argskey
argument
arguments
arizona
arm
armed
armenia
armenian
arms
army
around
array
art
arthur
article
articlehistory
articlehistoryobj
articles
articletags
artist
arts
aruba
arxiv
aryan
arz
as
asbox
asdf
ashar
asia
asian
asin
asit
ask
asked
asko
aslam
asp
asphalt
aspx
assemble
assembleoutput
assembly
assert
assesment
assessment
assets
assign
assigned
associated
association
assume
assuming
ast
asterisk
astronomy
at
ata
atdate
athens
athletes
athletics
atlanta
atlantic
atlas
atm
atp
atta
attached
attack
attempt
attention
attr
attribs
attribute
attributes
au
audio
aug
august
aus
australia
australian
austria
austrian
aut
author
authorities
authority
authorlink
authormask
authorn
authors
auto
autoblock
autocollapse
autoconfirmed
autodoc
autofillprop
automated
automatic
automatically
autonomous
autoreview
autotaxon
autotaxontype
autourl
autumn
av
available
average
aviation
avoid
avoided
avoids
awamiawaz
awaran
award
awards
aware
away
awb
ayta
az
azad
azerbaijan
azerbaijani
azerbaiya
aziz
b
ba
babel
back
background
backgroundcolor
backlinks
backwards
bad
baden
badge
badin
badshahi
bagh
bahamas
bahrain
bai
baku
ball
balochistan
baltic
baltistan
baltit
ban
band
banda
bangkok
bangladesh
bank
banking
banner
bar
barbados
barbara
barbuda
barcelona
bare
bars
base
baseball
based
basestyle
basic
basin
basketball
basque
bat
batak
batch
batchdelete
batchoperation
bathymetry
battle
battles
baw
bay
bb
bbc
bbl
bbots
bc
bce
bd
be
beach
beautiful
became
because
become
becomes
been
before
begin
beginning
begins
behaves
behavior
behaviour
behind
beijing
being
bel
belarus
belgium
belize
belongs
below
belowclass
belowstyle
belt
ben
beng
bengal
benin
benny
ber
berkeley
berlin
bermuda
best
beta
betawiki
better
between
beyond
bf
bg
bgd
bh
bhatti
bhutan
bi
bibcode
bibi
bible
bibliography
big
bikol
bilabial
bill
billion
bin
binomen
binomial
bio
biographies
biography
biology
biorxiv
biota
bird
birds
birth
bissau
bit
bits
bl
bla
black
blacklist
blacklisted
blah
blank
block
blocked
blocking
blocks
blockwise
blog
blogspot
blood
blp
blue
blurb
bms
bn
bo
board
bodies
body
bodyclass
bodystyle
bogota
bold
bolded
bolivia
bombay
bonus
book
bookdata
books
boolean
border
borders
born
borough
bosnia
boston
bot
botany
both
bots
botswana
bottom
box
boxargs
boxes
boxprotectionlevel
br
braces
bracket
bracketclose
bracketopen
brackets
branch
brazil
break
breaking
breaks
breast
brick
bridge
brief
brill
britain
britannica
british
broken
bronze
brook
brother
brown
browse
browser
browsers
bruce
brugmansia
brunei
bruno
bs
btu
bu
bucket
buddhism
buddhist
buenos
buffalo
buffer
bug
build
builder
building
buildings
built
bukhari
bul
bulgaria
bulgarian
bullet
bulleted
bullets
bumps
bureau
burkina
burundi
bus
business
but
button
buttons
bux
bvf
bwpsr
by
byte
bytes
c
ca
caca
cache
cactions
cairo
cal
calculate
calculated
calculations
calendar
california
caliphate
call
callback
callbacks
called
calling
callparserfunction
calls
cambodia
cambridge
cameroon
campaign
campaigns
campo
campus
can
canada
canadian
cancel
cancer
candidate
cannot
canonical
cant
canton
cantonese
cap
cape
capita
capital
capitalised
capitalization
caption
captions
captionstyle
capture
car
cardinal
care
caribbean
carolina
carte
case
cases
castle
casualties
cat
catalan
catalogue
catch
cate
categories
categorisation
categorise
categorization
categorize
categorizes
category
categoryhandler
categorystring
categorytoc
catlinks
catname
cats
caucasus
cause
caused
causes
causing
caution
cayman
cb
cc
ccccff
cd
cdata
ce
ceased
ceb
cell
cellcount
cells
celtic
cement
census
center
centered
central
centre
centuries
century
ceo
ceremonial
certain
cf
cfd
cfds
cfg
ch
cha
chad
chain
chairman
chak
cham
championship
championships
chancellor
chandio
change
changed
changes
changing
channel
chap
chapter
char
character
characters
charge
charles
chars
chart
che
check
checkbox
checkboxes
checked
checking
checknumandaddsuffix
checks
checktype
chemical
chemistry
chi
chiayi
chicago
chief
child
childhood
children
chile
chilean
chin
china
chinantec
chinese
chn
choice
choose
chosen
chr
christ
christian
christianity
chrome
chronology
church
ci
cia
circa
circle
circulation
circumstances
cit
citakan
citation
citationclass
citations
cite
cited
citemain
citeparams
citeref
cites
citeseerx
citeselect
citetb
cithakan
cities
citing
city
citypopulation
civil
civilization
cjk
ckb
cl
clades
claim
claims
claimspropertyid
class
classes
classic
classical
classification
classis
classname
clean
cleanup
clear
clearly
click
clicking
client
climate
clock
clone
close
closed
closing
cloud
cm
cmbox
co
coast
coastal
coat
coauthor
coauthors
code
coded
codepoint
codes
coding
coins
col
cold
colhead
collaboration
collapse
collapsed
collapsible
collection
collective
college
collins
colombia
colon
colonial
colony
color
colorado
colors
colour
colours
cols
colspan
colstyle
columbia
column
columns
com
combatant
combatants
combination
combinations
combined
combo
come
comes
comic
coming
comma
command
commander
commanders
commas
comment
comments
commission
committee
common
commonly
commons
commonsets
commonwealth
communities
community
comoros
comp
compact
companies
company
comparative
compare
compared
comparison
compatibility
compatible
competition
competitions
complete
completed
completely
complex
compliant
comply
component
components
composite
comprehensive
compressed
compresssparsearray
computer
computers
concat
concatenation
concerns
concise
concrete
condition
conf
conference
config
configuration
configured
confirm
confirmed
conflict
conflicts
congo
congress
conj
conjunction
connect
connected
connecticut
conquest
consensus
conservation
consider
considered
consistency
consistent
consisting
console
consonant
constituency
constitution
constructed
construction
consult
contact
contain
contained
container
containing
contains
content
contentargs
contents
contest
context
continent
continue
contrast
contribute
contributing
contribution
contributions
contributor
contributors
control
controls
controversial
convenience
convenient
convention
conventions
conversations
conversion
conversions
convert
converted
converting
converts
cook
coor
coord
coordinate
coordinates
coords
copied
copy
copying
copypaste
copyright
core
corner
cornish
coronavirus
corporate
corporation
correct
correctly
corresponding
corridor
cos
cost
costa
could
council
count
counter
counties
countries
country
counts
county
coup
course
court
cov
cover
covers
covid
cr
create
created
createelement
createlevel
creates
createtextnode
creating
creation
creator
cree
creek
creole
cricket
crisis
criteria
criterion
critical
criticism
croatia
crop
cropped
cross
cs
cscr
csd
css
csstext
ct
ctx
cu
cuba
cubic
cuft
cuin
cultural
culture
cup
cur
currency
current
currently
currentpage
currentparams
currenttitle
currtaxon
cursor
curstate
custom
customary
cut
cuyd
cv
cvt
cy
cycle
cycling
cyprus
cyrillic
cyrl
cyrus
czech
d
da
dab
dadu
dai
daily
dakota
dallas
dam
dan
dance
dani
daniel
danish
dar
dark
daro
dash
dashes
data
database
datacode
dataset
datatype
datavalue
date
datecode
dated
dateformat
datenum
dates
datestr
datestring
datestuff
datetime
datevec
daughter
david
davis
dawn
day
days
db
dc
dd
ddddff
de
dead
deadurl
deal
deals
death
debug
dec
decade
december
decimal
decimalprecision
decimals
declaration
decode
decorate
decorative
decyear
dedicated
def
defamatory
defargs
default
defaultconfig
defaults
defer
deferred
define
defined
defines
defining
definition
definitions
deg
degree
degrees
deh
del
delaware
delete
deleted
deletepage
deleting
deletion
deletionsummaryad
delhi
delimiter
delivery
delta
demo
democracy
democratic
demographics
demonym
denmark
denomination
denominator
dens
density
dental
deny
department
depend
dependencies
depending
depends
depot
deprecated
depth
der
dera
derawar
des
desc
describe
described
description
descriptions
descriptive
desert
design
designed
desirable
desired
desk
desktop
despite
destination
detail
detailed
details
detect
detected
detection
detects
determine
determined
determines
deu
developed
developers
development
devi
devices
df
dflt
di
dia
diacritic
diacritics
diagram
dialect
dialects
dialog
diameter
dictionaries
dictionary
did
didn
die
diego
dies
diff
differ
difference
differences
different
digit
digital
digits
dii
dim
dimensions
din
diplomacy
dir
direct
directed
direction
directives
directly
director
directory
disable
disabled
disables
disambig
disambiguation
discharge
discuss
discussed
discussion
discussionpage
discussions
disease
disk
disp
display
displayed
displaying
displays
displaytext
dispute
disputed
disruptive
dissertation
distance
distancefromleft
distinct
distinguish
distr
distribution
district
districts
div
diversity
divisio
division
divisions
djibouti
dk
dl
dlen
dm
dms
dmy
do
doc
doctitle
document
documentation
documented
documents
does
doesn
dog
dogon
doi
doing
dollar
dolor
dom
domain
dominica
dominican
don
done
donum
doo
doors
dos
dot
dots
dotted
double
douglas
down
download
downtown
dq
dr
draft
drama
draw
drawn
dress
drive
dropdown
dry
drygal
ds
dsb
dsh
dst
dt
dts
du
dublin
due
dunam
dunams
dup
duplicate
duration
during
dutch
dv
dwarf
dx
dximagetransform
dyk
dynamic
dynasty
dz
e
ea
each
earlier
early
earth
ease
easier
easily
east
eastern
easy
ebook
ebooks
ec
economic
economics
economy
ecp
ecuador
ed
edge
edinburgh
edit
edited
editing
editintro
edition
editlevel
editmode
editor
editorlink
editormask
editors
editprot
edits
editsummary
edittoken
ednumber
eds
edu
education
educational
edward
edwin
edłoga
edłoha
ee
eee
effect
effective
efficiency
efficient
efforts
eg
egypt
egyptian
ei
eid
eight
eighth
eissn
either
ejective
el
election
elections
electronic
element
elements
elevation
else
elseif
elsewhere
em
email
embargo
embargoed
embed
embedded
emblem
emergency
emirates
empire
empty
en
enable
enabled
enables
enbarten
enclosed
encode
encoded
encyclopaedia
encyclopedia
encyclopediasindhiana
encyclopedic
encyclopædia
encyclopædiabritannica
end
endcolorstr
ending
ends
energy
eng
engineering
england
english
enlabelcate
enlink
enname
enough
ensign
ensure
enter
entered
entertainment
entire
entirely
entit
entities
entity
entityid
entrance
entries
entry
enum
enumerated
enumvalues
env
environment
enwiki
eo
epiglottal
episode
eq
equal
equals
equatorial
equipment
equity
equivalent
er
era
eritrea
err
error
errorcheck
errors
errortext
es
esc
escape
escstr
esoteric
esp
especially
espncricinfo
essay
essays
est
established
estimate
estimated
estonia
eswatini
et
etal
etc
ethi
ethiopia
ethnic
ethnologue
etymology
eu
eugene
euro
europe
european
ev
evaluate
even
evenodd
evenstyle
event
events
ever
every
everyone
everything
evt
ex
exact
exactly
example
examples
except
exception
exceptional
exceptions
excerpt
excessive
exchange
exclude
excluded
exclusive
exec
executive
exist
existence
existing
exists
expand
expanded
expandtemplate
expansion
expected
expensive
experience
experiment
expiry
explanation
explicitly
explorer
exponent
export
express
expression
expressions
ext
extend
extended
extendedconfirmed
extension
extensions
extensiontag
external
extinct
extinction
extra
extract
eye
f
fa
faa
face
facebook
fact
factbook
factor
facts
fail
failed
fails
fair
faisal
faith
faiz
fakir
fall
fallback
falling
falls
false
fam
familia
families
family
famous
faq
far
faroe
fashion
faso
faster
father
fb
fc
fd
fdfdfd
fe
feature
featured
features
feb
february
fed
federal
federation
feed
feedback
feel
feet
fellow
female
feminist
festival
festivals
fetch
fetchlanguagename
few
ff
ffd
fff
ffffff
fg
fi
fiction
field
fieldname
fieldobj
fields
fifth
fight
figure
figures
fiji
file
filename
files
fill
filled
film
films
filter
fim
fin
final
finance
financial
find
finding
findlang
finds
fine
finish
finished
finland
finnish
fire
firefox
first
firstchild
firstn
firstweekday
fish
fit
fits
five
fix
fixed
fixing
fj
fl
flag
flagged
flaggedrevs
flagicon
flags
flat
flex
flight
flip
float
floating
floor
floors
florida
flow
flower
flowering
flown
fluff
flush
fmbox
fmt
fn
fo
focus
folk
folklore
follow
followed
following
follows
font
fontcolor
fonts
fontsize
foo
food
foot
football
footballbox
footer
footnote
footnotes
for
foranononly
force
forces
foreign
forest
forget
form
formal
formally
format
formatcharacters
formatdate
formatentityid
formaterror
formation
formatnum
formats
formatstatements
formatstr
formatted
formatting
formed
former
formevents
forms
formula
forregisteredonly
fort
forth
forum
forward
fossil
found
foundation
founded
founder
founding
four
fourth
fr
fra
frac
fraction
fragment
frame
frameless
frameonly
franc
france
francis
francisco
free
freedom
french
frequency
frequent
fress
fricative
friendly
friends
frisian
from
front
frontier
fs
ft
ftin
fuego
fuel
fulfulde
full
fullargs
fullname
fulltext
fullurl
fully
fun
func
funcname
function
functionality
functions
further
fusion
future
fw
fy
g
ga
gabon
gadget
gadgets
gal
galaxy
galicia
gallery
gambia
game
games
gan
gap
gaps
garden
gas
gate
gaza
gazette
gazetteer
gb
gbaya
gbe
gbr
gce
gd
gdp
ge
gelber
gen
gender
gene
general
generally
generate
generated
generates
generating
generic
genesis
genomics
genre
genres
genus
geo
geographic
geographical
geography
geohack
geology
geomask
george
georgia
georgian
geos
german
germanic
germany
get
getarg
getargnums
getargs
getbeststatements
getcallbackparameters
getchecked
getcontent
getcontentlanguage
getcurrentframe
getcurrenttitle
getdata
getdate
getelementbyid
getelements
getentity
getentityidforcurrentpage
getentityidfromvalue
getentityobject
getenvironment
geterror
getexpandedmessage
getfriendlypref
getlabel
getlink
getmapparams
getmetatable
getmsg
getname
getopt
getp
getpagetext
getparameters
getparametervalue
getparent
getpref
gets
getsitelink
getstatuselement
getting
gettitle
geturl
getutcfullyear
getvalue
getvaluebyqual
ghana
ghani
ghulam
gi
gibraltar
gif
gil
gini
girl
girls
give
given
gives
giving
gj
gje
gl
glance
glands
global
globalize
globals
globe
glossary
glottal
glottolog
gm
gmatch
gn
gnd
go
goal
god
goddesses
gods
goes
going
gold
golden
good
google
gordon
gos
got
gov
governing
government
governor
govt
gr
gradient
grammar
gran
grand
grandparent
graph
graphic
gravity
gray
grc
great
greater
greatgrandparent
greece
greek
green
greenland
gregorian
grek
grenada
grenadines
grep
grey
grid
ground
group
grouped
grouping
groupn
groups
groupstyle
groupwidth
grow
growth
gsub
gt
gu
guarani
guardian
guatemala
guide
guideline
guidelines
guides
guinea
gujr
gul
gulf
guru
gutenberg
guyana
gw
h
ha
hack
had
haiti
haitian
haji
hajibeyov
half
hall
halt
hamburg
hampshire
han
hand
handball
handle
handled
handler
handlers
handles
handling
hang
hangul
hani
hans
hant
happen
happens
haq
harassment
hard
hart
harv
harvard
has
hasan
hasclass
hash
hassan
hat
hatnote
have
haven
having
hawaii
hayat
hcard
hcards
hdi
hdl
he
head
header
headers
headerstyle
headertext
heading
headings
headquarters
health
heart
hebr
hebrew
hectares
height
held
helicopter
helipad
hello
helmet
help
helper
helps
helptip
helsinki
hemisphere
hence
henry
her
here
hereafter
heritage
herzegovina
hex
hg
hi
hidden
hiddencat
hide
hides
hierarchy
high
higher
highest
highland
highlight
highly
highway
hill
him
hindi
hindu
hinduism
hint
hip
hiran
his
hist
historic
historical
history
hitler
hk
hl
hlist
hm
hmong
hms
hn
ho
hockey
hold
holding
holds
holidays
holy
home
homepage
homo
honduras
hong
honours
hook
hooks
hope
horizontal
hospital
hospitals
host
hostname
hour
hours
house
housing
houston
hover
how
however
hp
hr
href
hrv
hsb
ht
hth
htm
html
htmlbuilder
htmlnode
http
https
hu
hub
huge
huishui
human
hun
hundred
hungarian
hungary
hussain
hy
hyderabad
hypertext
hyphen
hyphenated
hyphens
hypothetical
i
ia
iana
iata
ibn
ibrahim
ic
icao
icc
ice
iceland
icelandic
icon
icons
id
idea
ideas
identical
identification
identified
identifier
identifiers
identifies
identify
identity
ideograph
ids
idx
ie
ietf
if
ig
ign
ignore
ignored
ii
iid
iii
ik
il
ile
illinois
illustrated
illustration
im
image
imagediv
imageleft
imageleftstyle
imageright
images
imagesize
imagestyle
imbox
imdb
img
immediately
impact
impaired
imperial
impgal
implement
implementation
implemented
implements
import
importance
important
imported
importscript
impoz
imprint
improper
improve
improved
improvements
in
inactive
inappropriate
inc
inch
inches
include
included
includes
including
inclusion
income
incomplete
incorporated
incorrect
incorrectly
incr
increase
increment
incubator
ind
indef
indefinite
indefinitely
indent
independence
independent
index
indexof
india
indian
indiana
indic
indica
indicate
indicated
indicates
indicating
indication
indicator
indigenous
indirect
individual
individuals
indo
indonesia
indus
industry
infinity
influence
info
infobase
infoboks
infobox
infoboxes
infokas
information
infrastructure
infrataxon
infrataxonrank
infriendlyconfig
inherit
init
initial
initialcontrib
initialise
initialize
initially
initials
inline
inlinered
inner
innerhtml
input
inputs
ins
insert
inserted
inserts
inside
insignia
instance
instances
instead
institute
institution
instructions
instrument
instruments
insufficient
int
integer
integral
intelligence
intended
intensity
inter
interactive
interest
interested
interface
interior
intermediate
internal
internally
international
internet
interpreted
interview
interwiki
interwikitable
intisar
into
intro
introduction
introto
invalid
inventor
invert
inverted
invisible
invocation
invoke
invoked
involved
io
ioc
ios
iowa
ip
ipa
ipairs
ipsum
iqbal
ir
ira
iran
iranian
iranica
iraq
iraqi
ireland
irish
iron
irs
is
isbn
islam
islamabad
islamic
island
islands
isle
ismail
ismn
isn
isnegative
isnotempty
iso
isodate
isoname
israel
israeli
issmall
issn
issue
issued
issues
isxn
it
ita
italian
italic
italicize
italicized
italics
italictitle
italy
item
itemid
itemkey
items
iterate
its
itself
iucn
iv
ivoire
ivory
ix
j
ja
jack
jahan
jahangir
jaisalmer
jakarta
jam
jamaica
jamali
james
jan
jane
jang
january
japan
japanese
java
javascript
javed
je
jean
jee
jersey
jerusalem
jesus
jewish
jfm
jhansi
ji
jlabel
jo
joaquin
job
jogi
john
johnson
join
joins
jordan
jose
joseph
journal
journey
jpeg
jpg
jpn
jquery
jr
js
json
jstor
jts
juan
judeo
jul
julian
july
jun
junction
june
junior
jupiter
just
jv
k
ka
kabul
kaleem
kali
kalinga
kambar
kamber
kan
kana
kansas
karachi
karen
kartographer
kashmir
kate
kategori
kawish
kayan
kazakhstan
kcal
ke
keep
keeping
ken
kentucky
kenya
kept
key
keys
keyword
keywords
kg
kgf
khan
khaplu
khmer
ki
killed
kilometers
kim
kind
king
kingdom
kingrani
kings
kiribati
kirthar
kj
kk
kl
km
kml
kn
knda
knots
know
knowledge
known
ko
kong
korea
korean
kosovo
kot
kp
kpa
kph
kr
ks
ksh
ku
kurdish
kuwait
kv
kw
kwh
ky
kyrgyzstan
l
la
lab
label
labelorid
labels
labiodental
lack
lacks
lacrosse
laea
lahore
lake
lakes
lal
lan
land
lang
langcode
lange
langobj
langpref
langswitch
language
languagecode
languages
lanka
lao
laoo
laos
large
larger
largest
larkana
las
last
lastauthoramp
lastn
lat
latd
late
later
lateral
latest
latif
latin
latitude
latm
latn
latter
latvia
law
laws
lay
laydate
layout
laysummary
lazily
lb
lbf
lbmol
lbv
lc
lccn
le
lead
leader
leaders
leading
leaf
league
leap
learn
learning
least
leave
leaves
leaving
lebanon
led
lee
left
legacy
legal
legend
len
length
lengths
leo
leone
les
lesotho
less
lesser
leste
let
letter
letters
level
levels
lhs
lht
li
liberation
liberia
library
libraryutil
libya
license
liechtenstein
lieutenant
life
light
like
likely
lime
limit
limitations
limited
lincoln
line
linear
linen
lines
linguist
linguistic
linguistics
link
linkdate
linked
linkedarticle
linkfunctions
linking
links
linktext
linktitle
list
listclass
listed
listing
listn
listpadding
lists
liststyle
listtotext
listtype
lit
literal
literary
literature
lithuania
lithuanian
little
live
living
lk
ll
ln
lnk
lo
load
loadapi
loaddata
loaded
loader
loading
loc
local
localisation
localising
located
location
locations
locator
lock
locmap
log
logged
logic
login
logo
logos
logpage
lon
london
long
longd
longdate
longer
longitude
lonnie
look
looking
looks
lookup
lookupcreator
loop
lord
lorem
los
loser
loss
lost
lot
louis
louisiana
love
loves
low
lower
lowercase
lt
ltd
ltf
lu
lua
lui
luis
lum
lumans
luxembourg
lv
m
ma
macau
macedonia
machine
macmillan
macrolanguage
madagascar
made
madera
mag
magazine
magic
magnetic
magnitude
mahal
mai
maiden
mail
main
maindate
mainly
mainsnak
mainspace
maint
maintain
maintenance
major
majority
make
makecategorylink
makedata
makefeaturedlink
makeinvokefunc
makeinvokefunction
makes
makeurllink
makewikilink
makewikitexterror
makewrapper
making
mal
malagasy
malawi
malay
malaysia
maldives
male
malformed
mali
malik
malir
malki
mall
malline
malta
man
management
mandatory
mandi
manobo
manual
manually
many
map
mapfiles
mapframe
mapname
mapping
mappings
maps
mapsize
mar
march
margin
margintext
marguments
mari
maria
marine
marino
mark
marked
marker
markers
market
marks
marksize
markup
marriage
mars
marshall
martin
mary
mashan
masjid
mask
mass
massachusetts
master
match
matches
matching
material
math
mathbf
mathematical
mathematics
mathrm
matter
matthew
mauritania
mauritius
max
maximum
maxium
may
maya
maybe
mazatec
mb
mbi
mbox
mbtu
mc
mcal
mccain
md
mdy
me
mean
meaning
means
meant
measure
measurement
medal
media
mediawiki
medical
medicine
medieval
mediterranean
medium
meet
meeting
meetings
melbourne
melton
member
members
membership
memorial
memory
men
menu
mercury
merge
merged
meridian
merriam
message
messagebox
messages
met
meta
metadata
metatable
meter
meters
method
methods
metre
metres
metric
metro
metropole
metropolitan
mex
mexico
mf
mfd
mg
mh
mhatlist
mhatnote
mhr
mi
miami
mian
miao
michael
michigan
microformat
microformats
micronesia
microsoft
mid
middle
might
mile
miles
milestones
military
millennium
million
min
minar
mind
mini
minimum
minister
ministry
minnesota
minor
minus
minute
minutes
mir
mirror
mirza
mismatch
miss
missing
mit
miwok
mixe
mixed
mixtec
mj
mk
ml
mlt
mm
mmbtu
mn
mna
mo
mobile
mod
modal
mode
model
modelo
modern
modified
modify
modifytime
module
modules
mohammad
mohammed
mol
molar
moldova
moment
mon
monaco
monday
mong
mongolia
mongolian
monobook
monolingualtext
monster
montenegro
monterey
month
monthandyear
monthly
months
montreal
monument
monuments
moon
more
morebits
morning
morocco
morris
mos
moscow
mosflag
mosque
most
mostly
mother
motion
motto
mound
mount
mountain
mountains
move
moved
movelevel
movement
moves
movie
moz
mozambique
mp
mpa
mpgimp
mpgus
mph
mr
ms
msg
msgs
mshared
msn
mt
mtabletools
mu
much
mughal
muh
muhammad
mul
multan
multi
multilingual
multimedia
multiple
multiplier
multiref
mumbai
municipal
municipality
museum
music
musical
musician
musicians
muslim
muslims
must
mw
mx
my
myanmar
myna
mythology
n
na
nacional
naga
nagar
nahuatl
nam
name
named
namedrefs
names
namespace
namespaces
namibia
naming
nan
nap
narayan
narrative
nasal
nascar
nation
national
nations
native
nativename
natsci
natural
nature
nauru
nav
naval
navbar
navbox
navboxes
navchild
navframe
navigation
navigational
navigator
navseasoncats
navtoggle
navy
nb
nbsp
nc
ncov
nd
ndates
ndma
nds
ne
near
nearby
nearest
necessarily
necessary
need
needed
needing
needs
negative
neither
nelson
neo
nepal
nerve
nested
net
netball
netherlands
network
neutral
nevada
never
new
newcomers
newfoundland
newline
newlines
newport
news
newsletter
newspaper
newspapers
newton
next
ng
ngr
nh
nhra
ni
nicaragua
nice
nickname
nicknames
niger
nigeria
night
nihongo
nil
nine
ninka
ninth
niv
nj
nl
nm
nmi
nn
nnnnnn
no
nobots
nocat
nocreate
node
nodefunc
nodes
nodyn
noeditsection
noflip
noicon
noinclude
nolink
nomenclature
nominal
nomination
non
none
nonstandard
noor
nopp
noprint
nor
noref
norfolk
norm
normal
normalize
normalized
normalizeds
normally
norman
north
northeast
northern
northwest
northwestern
norway
norwegian
not
notability
notable
notation
note
noted
notes
nothing
notice
noticeboard
notices
notification
notifications
notified
notify
notifying
notifytext
notoc
noun
nov
novalue
novel
november
now
nowiki
nowrap
nr
nrr
ns
nstable
nsw
ntitle
nu
nuclear
null
num
number
numbered
numbering
numbers
numdot
numeral
numerals
numerator
numeric
numerical
numforms
nums
numsep
nuvola
nw
ny
nz
o
oakland
oaxaca
obispo
obituaries
obj
object
objects
oblast
obscure
observation
oc
occupation
occur
occurs
ocean
ocinsoutput
oclc
oct
october
od
odd
oddstyle
odisha
of
off
offers
office
officeholder
officer
official
officially
offset
often
og
ogg
oh
ohio
oil
ojibwa
ok
oklahoma
ol
old
older
oldest
oldfield
oldid
olocalisation
olympic
om
oman
ombox
omit
omitted
on
once
one
onepage
ones
onfailure
online
only
onlysourced
onsavefailure
onsuccess
ontario
op
open
opened
opening
openstreetmap
opera
operating
operation
operations
operator
opinion
ops
opt
option
optional
optionally
options
optionsk
optout
or
orange
order
ordered
orders
ordinal
ordo
ordsuffix
ore
oregon
org
organic
organisation
organization
organizations
organized
oriental
orig
origargs
origin
original
originally
origins
origyear
orleans
orphan
orphanages
orphaned
orthography
orya
os
osti
other
others
otherwise
otomi
ottoman
our
out
outer
outinfo
outline
output
outputs
outside
outstring
outvalue
over
overall
overflow
overlap
overlay
overridden
override
overrides
overview
overwrite
own
owner
ownership
oxford
oz
ozt
p
pa
pacific
pad
padded
padding
padlock
page
pageid
pagename
pagenamenorm
pageobj
pageparam
pages
pagetext
pagetitle
pagetype
pahenjiakhbar
paid
painting
pair
pairs
pak
pakistan
pakistani
pakvoter
palace
palatal
palato
palestine
palestinian
palm
pam
pan
panama
panel
paper
papers
papua
par
para
paragraph
paragraphs
paraguay
param
parameter
parameterfuncs
parameters
params
paramsp
parent
parentargs
parentfirst
parentheses
parenthesis
parenthetical
parentnode
parentonly
parents
pargs
paris
park
parliament
parm
parms
parpola
parse
parsed
parsedformat
parseinput
parseint
parseparam
parser
part
partial
participants
participate
particle
particular
particularly
parties
parts
party
pas
pasha
pashto
pass
passage
passed
passenger
passes
password
past
paste
pat
patent
path
patrick
patrol
patron
patrono
pattern
patterns
paul
paulo
pavilion
pbs
pc
pcall
pd
pdf
pe
peace
peak
peer
pen
pending
peninsula
pennsylvania
people
peoples
per
percent
percentage
perform
performance
performed
performer
perhaps
period
periodical
periods
persian
persistent
person
personal
persons
peru
peshawar
peso
peter
petunia
pframe
pg
ph
phabricator
phase
phi
phil
philadelphia
philippines
philosophy
phlox
phoenix
phoneme
phonemes
phonetic
phonetics
photo
photograph
photographs
photography
photos
php
phrase
phrases
phylum
physical
physics
pi
pick
picture
pictures
pid
pidgin
pinyin
pipe
piped
pir
pitch
pittsburgh
pix
pixel
pixels
pk
pl
place
placed
placeholder
placement
places
placing
plain
plainlinks
plan
planet
planned
plant
plantilla
plants
plate
play
played
player
players
playgroup
playing
please
plosive
plot
plural
plus
pm
pmc
pmid
pn
png
po
poetry
poets
pog
point
pointer
points
pol
poland
pole
policies
policy
polish
political
politician
politicpk
politics
polo
poly
pomo
poor
pop
popoloca
popular
populated
population
por
port
portal
portals
portion
portland
portlet
portrait
portugal
portuguese
pos
position
positional
positions
positive
possible
possibly
post
postal
postalveolar
posted
postfix
posts
postscript
potd
potentially
pound
pow
power
pp
ppp
pr
practice
pradesh
prague
prange
pre
prec
preceded
precedence
preceding
precision
predefinic
predloga
predloz
pref
prefecture
prefer
preferably
preference
preferences
preferred
prefix
prefixed
prefixedtext
prefixes
prefixindex
prefs
preg
preload
premier
prep
prepared
prepend
preprocess
preprocesssinglearg
present
presentation
presented
preserve
preset
president
presidential
press
pressure
preunit
prev
prevent
prevents
preview
previewbox
previewlink
previous
previously
pri
primarily
primary
prime
prince
principal
principles
print
printed
printing
prior
priority
private
prix
prize
pro
probably
problem
problems
proceed
process
processed
processing
prod
produce
produced
produces
products
prof
professor
profile
profit
progid
program
progress
progressbox
progressive
project
projects
prominence
promote
promotion
pron
pronunciation
proof
prop
proper
properly
properties
property
propertyid
propertyvalue
prophet
proposal
proposals
proposed
props
prose
protect
protected
protection
protectionlevel
protectionlevels
protectionobj
protein
proto
protocol
prototype
protruded
proveit
provide
provided
provides
providing
province
provinces
provincial
provisional
ps
psi
psl
pt
ptr
pts
ptv
public
publication
publicationdate
publications
published
publisher
publishers
publishing
pubmed
puerto
pump
punctuation
punjab
punjabi
purely
purge
purple
purpose
purposes
push
pushpin
put
puts
putting
px
pxpx
py
pya
python
q
qa
qatar
qid
qoo
qp
qprefix
qq
qsuffix
qu
qua
qual
qualid
qualifier
qualifierid
qualifiers
quality
quall
quantity
quarter
que
quebec
quechua
queen
queensland
queries
query
querystring
question
questions
queue
quichua
quick
quickform
quickly
quit
quotation
quote
quoted
quotes
quran
qureshi
r
ra
race
racing
radiation
radio
radius
rahman
rail
railroad
railway
rain
rainbow
raiseerror
raja
rajasthan
rally
ram
rand
random
range
ranges
rani
rank
ranked
ranking
rankpos
ranks
rare
rarely
rate
rather
ratio
rationale
raw
rawget
rawset
ray
rd
re
reached
read
readability
reader
readers
reading
reads
ready
real
really
reason
reasons
receive
received
recent
recently
recognised
recognized
recommend
recommendations
recommended
record
recorded
records
recreate
rect
recurrent
red
reddot
redirect
redirected
redirects
reduce
redundant
ref
refbegin
refer
reference
referenced
references
referencing
referred
reff
reflect
reflist
reflisti
refname
refobj
refrence
refs
reftagurl
reftoolbar
reg
regarding
regardless
regency
regex
regexp
region
regional
regions
register
registered
registration
regnum
regular
related
relations
relationship
relative
relatively
relativity
release
released
relevant
reliable
relief
reliefkarte
religion
religions
religious
remain
remaining
remember
removal
remove
removeblanks
removed
removes
removing
ren
rename
renamed
render
rendered
rendering
renders
rendertrackingcategories
rep
repeat
repeated
replace
replacechild
replaced
replacement
replacements
replaces
reply
report
reported
reports
represent
representing
represents
republic
request
requested
requests
require
required
requires
res
research
reserved
reservoir
reset
resolution
resolve
resource
resources
respect
respective
respectively
responsexml
rest
result
resulting
results
ret
retrieve
retrieved
retroflex
return
returned
returning
returns
retval
reuse
rev
revenue
reverse
revert
reverted
reverttorevision
revid
review
revised
revision
revisions
revival
revived
revolution
rfc
rft
rhine
rhs
ri
rica
rich
richard
richmond
rico
right
rights
rio
rise
risk
river
rivers
rm
rn
rnd
ro
roa
road
roads
robert
robinson
rock
role
rollback
romaji
roman
romani
romania
romanian
romanization
rome
roof
roofing
roofs
root
rose
round
rounded
rounding
rounds
route
routledge
row
rowargs
rownum
rows
rowspan
rowstyle
royal
rr
rs
rtl
ru
rugby
rukn
rule
rules
run
running
runway
runways
rural
rus
russia
russian
rvprop
rw
rwanda
ryear
s
sa
sablon
sacramento
sacred
safe
sahib
said
saint
saints
salt
salvador
sam
same
sami
samoa
sample
san
sana
sand
sandbox
sandboxtitle
sandgrouse
sans
sanskrit
santa
sapiens
sar
sardinian
sars
saskatchewan
sat
satellite
saturn
saudi
save
saved
saving
saxon
saxony
say
says
sc
scale
scales
scandinavia
scheme
school
schools
science
sciences
scientific
sco
scope
score
scotland
scott
scottish
screen
screenshot
scribunto
script
scriptcode
scripts
scroll
scrollbox
scrolling
scwt
sd
sdwiki
se
sea
seal
search
searching
season
seat
seats
sec
second
secondary
seconds
secret
section
sections
security
see
seed
seem
seems
seen
seg
select
selected
selection
self
selfref
semi
sen
send
senegal
senior
senoufo
sense
sent
sentence
sep
separate
separated
separation
separator
separators
sepc
seps
september
seq
sequence
serbia
serbian
serial
series
serif
serotype
served
server
servers
service
services
set
setattribute
setcallbackparameters
setcontent
setcreateoption
seteditsummary
setfollowredirect
setmetatable
setpagetext
setranks
sets
setscriptname
setting
settings
settitle
settlement
setup
setvalues
setwatchlist
setwatchlistfrompreferences
seven
seventh
several
sex
seychelles
sf
sfn
sg
sh
shaded
shadow
shah
shahbaz
shahdad
shahdadkot
shaheed
shahid
shakil
shall
shape
shapes
share
shared
sharif
sharma
she
sheet
sheets
shepherd
sher
shi
shield
shift
shifted
ships
shiraz
shire
short
shortcut
shortcuts
shortened
shorter
shortform
shortname
shot
should
shouldbe
shouldn
show
showing
shown
shows
shrine
si
sibilant
side
sidebar
sierra
sig
sigfig
sign
signature
significant
significantly
signs
sikh
silesian
silhouette
silver
similar
similarly
simon
simple
simpler
simplewindow
simplicity
simplified
simply
sin
since
sind
sindh
sindhi
sindhiadabiboard
sindhiana
sindhila
sindhpdf
sindhsalamat
sindhu
sindhzameen
singapore
singer
singh
single
singular
sinh
sir
sister
sit
site
sitelink
sitelinks
sites
situation
six
sixth
size
sizes
sjabloon
sk
skabelon
skew
skin
skins
skip
skipping
sky
skyline
sl
slash
slavic
sld
slightly
slovakia
slovenia
sm
small
smaller
smalltext
smith
sn
snak
snaks
snaktype
snapdate
snippet
snippets
snið
snow
so
soc
soccer
social
society
sock
soft
software
solar
solid
solo
solomon
solution
som
somalia
some
someone
somerset
something
sometimes
somevalue
son
song
sonoma
soomro
soon
sort
sortable
sorted
sorting
sortkey
sound
soundfile
source
sourced
sources
south
southeast
southeastern
southern
southwest
southwestern
soviet
sp
space
spaces
spacing
spain
spam
span
spanish
spantag
sparingly
speaker
speakers
speaking
spec
special
speciality
specialized
species
specific
specifically
specification
specified
specifies
specify
specifying
speech
speed
speedway
speedy
spell
spelled
spelling
spin
split
spoken
sport
sports
spot
spring
springfield
sq
sqft
sqin
sqkm
sqmi
sqrt
square
squares
sr
src
sri
ss
ssrn
st
stabilize
stable
staff
stage
stampa
stand
standalone
standard
standardization
standards
stands
stanford
star
stars
start
startcolorstr
started
starting
starts
starttimestamp
startyear
stat
state
statelem
statement
statements
states
statesparameters
static
station
stations
statistics
stats
status
statuscfg
statuselement
std
step
steps
stf
still
stock
stone
stop
storage
store
stored
stores
stories
story
str
strain
strange
strategy
street
strength
strict
string
strings
stringsi
stringtoformat
strip
stripes
striping
stripmarker
stripped
striptonil
stroke
strong
strongly
strout
structure
structures
struggle
stt
stub
stubcats
stubs
students
studies
study
stuff
stupa
style
styled
styles
styling
su
sub
subcategories
subcategory
subdiv
subdivision
subdivisions
subdivs
subgenus
subgroup
subgroups
subheader
subject
subjectlink
subjectspace
submit
subpage
subpages
subscribe
subscription
subsequent
subspecies
subst
substitute
substituted
substitution
substring
subtables
subtags
subtype
subunit
success
successful
successor
such
sudan
suff
suffice
sufficient
suffix
suffixes
sufi
suggest
suggested
suggestions
suitable
sultan
sum
summary
summaryad
summarytext
summer
summit
sun
sunday
sunset
sup
super
superdomain
superfamilia
supplied
supply
support
supported
supporting
supports
suppress
suppressed
suppression
sur
sure
surface
suriname
surname
surrounded
surrounding
survey
sussex
sutter
sv
svg
sw
swahili
swap
sweden
swedish
swiss
switch
switzerland
sx
sy
sydney
syed
sym
symbol
symbols
synonym
synonyms
syntax
syria
syriac
sysop
sysops
system
systems
szablon
t
ta
tab
tabber
table
tables
tabletools
tabs
tabsbottom
tag
tagged
tagging
tagline
tagname
tags
tai
tail
taiwan
taj
tajikistan
take
taken
takes
taking
tale
talk
talkback
talkpage
taluka
tamil
taml
tan
tando
tanton
tanzania
tarask
target
targeted
targettaxon
targettaxonrank
targs
targspre
tariq
task
tasmania
tat
tax
taxa
taxobox
taxoboxes
taxoboxtable
taxon
taxonomic
taxonomy
taxontable
tay
tbl
tbtarget
tc
td
te
teaching
team
teams
tech
technical
technically
technology
tehran
tehsil
tehsils
teke
tel
television
tell
telu
temp
tempargs
temperature
temperatures
templat
template
templateargs
templateargstarget
templatecfg
templatedata
templateeditor
templatename
templates
templatestyles
templatetitle
temple
temporal
temporary
ten
tennis
tens
term
terminal
terminus
terms
territories
territory
test
testament
testcases
testcasestitle
tested
testfunc
testing
tests
teta
tex
texas
text
textarea
textcontent
textpart
texts
textstyle
tf
tfd
tfrac
tg
th
tha
thai
thailand
than
thank
thanks
thar
tharparkar
that
thatta
the
their
them
themselves
then
theory
there
therefore
these
thesis
they
thing
things
think
third
this
thispage
tho
thomas
those
though
thought
thousand
thousands
threads
three
through
throughout
throw
thul
thumb
thumbnail
thumbtime
thus
ti
tibet
tibetan
ticker
tid
tidy
tie
ties
tile
time
timeline
times
timestamp
timev
timezone
timor
tip
title
titlebar
titleclass
titlegroup
titleobj
titlepart
titles
titlestyle
tj
tk
tl
tld
tlf
tlx
tm
tmbox
tmp
tn
tname
tnavbar
tnt
to
tobago
toc
today
todo
tofawiki
together
toggle
togo
token
tokens
tokyo
tom
tomb
tome
ton
tonga
tonne
tonumber
too
tool
toolbar
tools
tooltip
top
topic
topics
topo
topographic
topography
toronto
torque
torr
tostring
tot
total
totonac
tour
tourism
tournament
tourwiki
towards
tower
town
towns
tp
tpi
tr
track
tracking
trackingcategories
trade
trademark
tradition
traditional
trailing
trainer
trans
transclude
transcluded
transcluder
transcludes
transcluding
transclusion
transcription
transl
translate
translated
translatewiki
translation
translations
translator
translit
transliteration
transparent
transport
transportation
transwiki
travel
treat
treated
tree
triangle
tribe
tribune
trick
triggered
trim
trimarg
trimmed
trinidad
trinomial
truck
true
trump
truthy
try
ts
tt
tu
tunisia
tur
turkey
turkic
turkish
turkmenistan
turks
turn
turned
tusi
tutorial
tuvalu
tv
tw
twelve
twenty
twice
twinkle
twinkleconfig
twitter
two
tx
txantiloi
txt
txtlang
typ
type
typen
typeof
types
typical
typically
typing
u
ua
uc
ucfirst
uci
ucode
ug
uganda
ugly
ui
uk
ukr
ukraine
ul
ulx
um
un
unbulleted
und
undef
undefined
undelete
under
underneath
understand
understanding
understands
undo
unesco
unicode
unified
union
unions
unique
unit
unitcode
united
units
universal
universities
university
unknown
unless
unlike
unlikely
unlink
unlinked
unlinker
unnamed
unnecessary
unpack
unprotected
unranked
unrecognized
unreferenced
unregistered
unrounded
unset
unsourced
unsubscribe
unsupported
until
unusual
up
update
updated
updates
updating
upload
uploading
uploads
upon
upper
uppercase
upright
upwards
ur
urban
urdu
uri
url
urls
uruguay
us
usa
usability
usage
usdrygal
use
used
useful
usename
user
userbox
userboxes
userisingroup
userlinks
username
usernames
usernotification
userpage
users
userspace
usertalk
usertalkpage
uservalue
uses
usewikidata
usfloz
usgal
using
usman
usoz
ustring
usual
usually
ut
utable
utah
utc
util
utilities
utility
utype
uvular
uw
uz
uzbekistan
v
va
val
valid
validate
validation
valinfo
valley
vals
value
valuefunc
values
valuesarray
valuesi
van
vanc
vancouver
vandal
vandalism
vandaltalklink
vanuatu
var
variable
variables
variant
variants
variations
variety
various
vatican
vauthors
vcard
ve
vec
vector
ved
veditors
veidne
velar
venezuela
venue
verde
verified
vers
version
versions
vertical
very
vi
via
vice
victoria
victory
video
videos
vienna
vietnam
vietnamese
view
viewing
viewpoint
views
vii
viii
village
villages
vincent
violation
violations
virgin
virginia
virus
viruses
visibility
visible
vision
visit
visited
visual
visualeditor
visually
vo
voice
voiced
voiceless
voivodeship
vol
volapu
volleyball
volume
volumes
volunteers
von
vorlage
vote
voting
vowel
vowels
vs
w
wa
wala
wales
wall
walls
walter
wan
want
wanted
war
warn
warning
warnings
warring
wars
was
washington
watch
watchlist
water
way
wayback
ways
wazir
we
weather
web
webkit
website
websites
webster
week
weeks
weight
welcome
welcomeen
well
were
west
western
westphalia
wgnamespacenumber
wgpagename
wgrelevantusername
wgtitle
wgusername
what
whatever
when
where
whereas
whether
which
while
white
whitelist
whitespace
who
whole
wholestr
whose
why
wide
widely
wider
widget
width
wife
wik
wiki
wikibase
wikibooks
wikicode
wikicup
wikidata
wikilink
wikilinked
wikilinks
wikimarkup
wikimedia
wikinews
wikipage
wikipedia
wikipedias
wikiproject
wikiprojects
wikiquote
wikis
wikiscript
wikisource
wikispecies
wikitable
wikitext
wikt
wiktionary
wilcox
will
william
win
wind
window
windows
windsor
winner
winter
wise
wish
wishlist
with
within
without
wmf
wmflabs
woman
women
won
wood
word
wording
wordnet
words
work
workaround
working
works
world
worldcat
worldwide
worth
would
wp
wptextbox
wrap
wrapped
wrapper
wrappers
wrapping
wraps
write
writer
writers
writing
written
wrong
ws
wu
ww
www
x
xfd
xfdcat
xfdtarget
xg
xii
xml
xmldoc
xsampa
xunion
xx
xxx
y
ya
yale
yar
yard
yd
yday
year
years
yellow
yemen
yes
yesno
yesorno
yet
yi
ym
ymd
ymdhm
ymdhms
yo
york
you
young
your
yourself
youth
youtube
yuba
yue
yyyy
z
za
zambia
zapotec
zbl
zealand
zephyr
zero
zeros
zh
zhuang
zimbabwe
zinh
zone
zoo
zoology
zoom
zoomlevel
zyyy
{
|
}
~


£
¤
¥
§
©
«
¬
­
°
±
²
³
´
µ
¶
·
º
»
¼
½
¾
×
æ
ð
ø
ħ
ŋ
œ
ǀ
ǁ
ǂ
ǃ
ɏ
ɐ
ɑ
ɒ
ɔ
ɕ
ɖ
ɘ
ə
ɛ
ɜ
ɞ
ɟ
ɡ
ɢ
ɣ
ɤ
ɨ
ɪ
ɬ
ɭ
ɮ
ɯ
ɰ
ɲ
ɳ
ɴ
ɵ
ɶ
ɷ
ɸ
ɹ
ɻ
ʁ
ʂ
ʃ
ʇ
ʈ
ʉ
ʊ
ʋ
ʌ
ʎ
ʏ
ʐ
ʑ
ʒ
ʔ
ʕ
ʖ
ʗ
ʘ
ʜ
ʝ
ʟ
ʡ
ʢ
ʰ
ʱ
ʲ
ʷ
ʷː
ʷˑ
ʻ
ʼ
ʿ
ˀ
ˈ
ˌ
ː
ˑ
˔
˕
˖
˗
˞
ˡ
ˤ
̀
́
̂
̃
̄
̆
̇
̈
̉
̊
̋
̌
̍
̏
̑
̓
̔
̚
̛
̜
̝
̞
̟
̠
̣
̤
̥
̦
̧
̨
̩
̪
̫
̬
̯
̰
̱
̲
̵
̹
̺
̼
̽
͂
ͅ
͍
͜
͡
α
β
γ
ε
η
θ
ι
μ
ν
ο
προ
ρ
ς
τ
τυπο
χ
ω
а
в
г
д
з
и
к
н
не
о
п
р
с
т
у
х
ш
шабле
шаблон
ы
я
і
կ
կաղապար
ְ
ִ
ֵ
ֶ
ָ
ֿ
א
ה
ו
י
ל
מ
ס
פ
ר
ש
ת
תבנית
،
ؑ
ؒ
ؓ
ؔ
ؕ
؛
؟
ء
ا
اء
اب
ابا
ابابيل
ابادي
اباڻا
اباڻو
اباڻي
ابتدا
ابتداء
ابتداي
ابتو
ابتي
ابتڙ
ابجد
ابخاز
ابخازي
ابخازيه
ابدال
ابدالي
ابداليء
ابدي
ابر
ابرار
ابراهيم
ابراھام
ابراھيم
ابرق
ابشرون
ابل
ابلاغ
ابن
ابو
ابوالاعلي
ابوالبقا
ابوالحسن
ابوالخير
ابوالفضل
ابوالقاسم
ابوالڪلام
ابوبڪر
ابوجهل
ابوذر
ابوسفيان
ابوطالب
ابي
ابيات
ابيب
ابيرياي
ابڙا
ابڙو
ابڙي
ات
اتاترڪ
اتان
اتحاد
اتحادن
اتحادي
اتحادين
اتر
اترادي
اتراولھ
اتري
اترين
اتريون
اترپرديش
اتساهه
اتفاق
اتم
اتهاس
اتهاسن
اتي
اثاثا
اثاثن
اثبات
اثر
اثرات
اثرانداز
اثراي
اثرن
اثير
اجازت
اجاي
اجايو
اجاگر
اجتماع
اجتماعي
اجتماعيت
اجراء
اجرت
اجرڪ
اجل
اجلاس
اجلاسن
اجمل
اجمير
اجنبي
اجواڻي
احاطو
احاطي
احتجاج
احتجاجن
احتجاجي
احترام
احتياط
احد
احرام
احساس
احساسن
احسان
احسن
احمد
احمدا
احمدي
احمر
احوال
احڪام
احڪامن
اخبار
اخبارن
اخبارون
اخباري
اختتام
اختر
اختصار
اختلاف
اختلافن
اختلافي
اختيار
اختيارن
اختياري
اختيارين
اخذ
اخر
اخلاص
اخلاق
اخلاقي
اخلاقيات
ادا
ادارا
ادارت
ادارن
اداره
ادارو
اداري
ادارہ
اداس
اداسي
اداي
اداڪار
اداڪارا
اداڪاراي
اداڪارن
اداڪاره
اداڪاري
اداڪاريء
اداڪارہ
ادب
ادبي
ادبيات
ادراڪ
ادراڪي
ادريس
ادرڪ
ادل
ادو
ادي
اديب
اديبن
اديتي
اذان
اذيت
ار
ارا
ارادن
ارادو
ارادي
ارب
ارباب
اربع
اربن
اربين
ارتسخ
ارتقا
ارتقاء
ارتقاي
ارجن
ارجنٽاي
ارجنٽينا
ارد
اردشير
اردن
اردني
اردو
اردوء
اردگرد
ارسطو
ارسطوء
ارسلان
ارشاد
ارشد
ارشميدس
ارضيات
ارضياتي
ارطغرل
ارغون
ارغونن
ارقم
ارل
ارم
ارمان
ارنيسٽ
ارهه
ارون
ارونا
اروڙ
اري
اريٽيريا
اريڪتاس
ارپنا
ارٿ
ارڙ
ارڙنھين
ارڙهن
ارڙهين
ارڙھن
ارڙھين
ارڪان
ارگ
ارگر
از
ازان
ازانسواء
ازبڪ
ازبڪستان
ازخود
ازدواجي
ازلي
ازم
اس
اساس
اساسي
اسامه
اسان
اسانجو
اسانجي
اسانکي
اسباب
است
استاد
استادن
استان
استثنا
استحصال
استحڪام
استرخاء
استري
استعفي
استعمال
استعيفا
استعيفي
استقبال
استنبول
استوا
استواي
استور
اسحاق
اسد
اسدالله
اسر
اسرار
اسراي
اسراڻ
اسري
اسرڻ
اسسٽنٽ
اسلام
اسلامي
اسلاميات
اسلاميه
اسلاميہ
اسلامڪ
اسلامی
اسلم
اسلوب
اسم
اسماء
اسماعيل
اسماعيلي
اسماعيلين
اسمبلي
اسمن
اسمگلنگ
اسود
اسي
اسير
اسيمبلي
اسيمبليء
اسيمبلين
اسيمبليون
اسين
اسٽار
اسٽاف
اسٽالن
اسٽاي
اسٽاپ
اسٽاڪ
اسٽرابو
اسٽرلنگ
اسٽريٽ
اسٽنٽ
اسٽور
اسٽوري
اسٽوريج
اسٽون
اسٽونيا
اسٽوپا
اسٽوڊنٽس
اسٽوڊيو
اسٽي
اسٽيج
اسٽيشن
اسٽيشنن
اسٽيشنون
اسٽيفن
اسٽيل
اسٽيم
اسٽين
اسٽينڊرڊ
اسٽينڊنگ
اسٽيٽ
اسٽيٽس
اسٽيڊيم
اسٽڊي
اسٽڊيز
اسپارٽا
اسپاي
اسپتال
اسپتالن
اسپتالون
اسپرم
اسپنوزا
اسپورٽس
اسپيس
اسپيشل
اسپين
اسپينش
اسپيني
اسپيڪر
اسٿان
اسڪاء
اسڪالر
اسڪالرشپ
اسڪاي
اسڪاٽ
اسڪاٽش
اسڪاٽلينڊ
اسڪردو
اسڪرين
اسڪرپٽ
اسڪلنده
اسڪندر
اسڪندريہ
اسڪواي
اسڪور
اسڪول
اسڪولن
اسڪولي
اسڪوپ
اسڪي
اسڪيل
اسڪيم
اسڪين
اسڪينر
اسڪيچ
اسے
اشارا
اشارن
اشارو
اشاري
اشاريو
اشاريي
اشاعت
اشاعتي
اشباع
اشتر
اشتراڪ
اشتراڪي
اشتراڪيت
اشتقاق
اشتهار
اشتهارن
اشتهاري
اشتياق
اشرافيه
اشرف
اشعار
اشعري
اشفاق
اشوڪ
اشوڪا
اصحاب
اصحابن
اصحابو
اصحابي
اصحابين
اصرار
اصطخر
اصطلاح
اصطلاحات
اصطلاحن
اصطلاحون
اصطلاحي
اصغر
اصفهان
اصفهاني
اصفھان
اصل
اصلاح
اصلاحات
اصلاحن
اصلاحي
اصلوڪا
اصلوڪن
اصلوڪو
اصلوڪي
اصلي
اصليت
اصول
اصولن
اصولي
اضافو
اضافي
اطاعت
اطالوي
اطاليه
اطلاع
اطلاعات
اطمينان
اظهار
اظهر
اظھار
اعتبار
اعتدال
اعتراض
اعتراضن
اعتراف
اعتقاد
اعتماد
اعجاز
اعداد
اعراب
اعرابن
اعزاز
اعزازن
اعزازي
اعصابي
اعظم
اعل
اعلان
اعلى
اعلي
اعلی
اعمال
اعوان
اعواڻ
اغوا
افاديت
افادہ
افتتاح
افتتاحي
افتخار
افراد
افرادي
افراط
افروز
افزاي
افسانا
افسانن
افسانه
افسانو
افسانوي
افساني
افسر
افسوس
افشار
افضل
افغان
افغانستان
افغانن
افغاني
افغانين
افق
افقي
افلاطون
افيي
افيڪٽ
اقامت
اقبال
اقتباس
اقتدار
اقتصادي
اقتصاديات
اقرار
اقصي
اقليت
اقليتن
اقليتي
اقليدس
اقوام
ال
الا
الاباما
الارض
الازھر
الاساطير
الاسلام
الاسڪا
الاضحي
الاقوامي
الاقومي
الانا
الانسان
الاهي
الاهيء
الاول
الاولياء
الاي
الاھي
البانيا
البت
البته
البتہ
البحر
البدل
البرٽ
البقرة
البقرہ
البقيع
البلاغه
البلدان
البم
البيروني
البيرونيء
التجا
التحصيل
التمش
الثاني
الجبرا
الجزاي
الجيريا
الحاج
الحاد
الحاق
الحال
الحاڪم
الحبيب
الحديث
الحرام
الحرمين
الحروف
الحسن
الحسين
الحسيني
الحق
الحليم
الحمد
الحيدري
الحڪمت
الخط
الدر
الدوله
الدين
الدین
الرازي
الرحم
الرحمان
الرحمة
الرحمن
الرحيم
الرشيد
الزام
الزامن
الزمان
الزهراء
الزواوي
الس
السلام
السنڌ
الشان
الشعراء
الصلواة
الطاف
الطبعيات
العابدين
العارفين
العرب
العربي
العلم
العلماء
العلوم
العين
الغ
الغوزو
الف
الفا
الفابيٽ
الفارابي
الفاظ
الفتاوي
الفريڊ
الفضل
الفطر
الفطرت
القاب
القاسم
القدر
القدس
القرا
القوامي
الل
اللدنيہ
اللسان
اللساني
الله
اللو
اللہ
الم
المال
المبارڪ
المسلمين
المعارف
المعروف
المقدس
الملوڪ
الملڪ
المو
المواھب
المولى
المولي
المومنين
الميه
الميو
النبي
النسا
النساء
النسوان
النور
الهاس
الهام
الهامي
الهبچايو
الهداد
الهند
الهندو
الهندي
الهه
الهيار
الهڏنو
الوجود
الوحيد
الوداع
الور
الوطني
الوطنيء
الوقت
الي
الياس
اليزي
الينواي
اليڪشن
اليڪٽران
اليڪٽرانڪ
اليڪٽرانڪس
اليڪٽرو
اليڪٽرون
اليڪٽريڪل
اليڪٽرڪ
اليگزينڊر
الٽي
الٽيٽيوڊ
الٽٽيوڊ
الپس
الٿنگ
الک
الڪا
الڪرام
الڪلام
الڪوحل
الگ
الگو
الڳ
الھ
الھندي
الھيار
ام
امارات
امارت
امام
امامت
امامن
امان
امانت
اماڻي
اماڻيو
امبر
امت
امتحان
امتحانن
امتزاج
امتياز
امتيازي
امجد
امداد
امدادي
امر
امرت
امرتا
امرتسر
امرجليل
امروهي
امروٽ
امروٽي
امروٽيء
امريڪا
امريڪي
امرڏنو
امرڪوٽ
امریکی
املا
املهه
امن
امنگن
امور
اموي
اموين
اميد
اميدوار
اميدوارن
اميدون
امير
اميرالمومنين
اميرخاني
اميرن
امين
امينڊمينٽ
اميه
اميہ
امپاي
امپيريل
امڙ
امڪان
امڪاني
امید
امیر
امین
ان
انا
اناج
انار
انارڪلي
اناطوليه
اناي
انب
انبار
انبن
انت
انتخاب
انتساب
انتشار
انتظار
انتظام
انتظامن
انتظامي
انتظاميا
انتظاميه
انتظاميہ
انتقال
انتقام
انتها
انتهاي
انتھا
انتھاي
انجام
انجم
انجمن
انجنيي
انجو
انجي
انجير
انجيل
انجيني
انجينيي
انجيي
انجڻ
اند
انداز
اندازا
اندازن
اندازو
اندازي
اندر
اندرا
اندراج
اندراجيت
اندران
اندرون
اندروني
اندري
اندريان
اندرين
اندريون
اندلس
اندور
اندوز
انديشو
انر
انرجي
انس
انسان
انسانذات
انسانن
انساني
انسانيت
انساي
انسٽيٽوٽ
انسٽيٽيوٽ
انسپيڪٽر
انشا
انشاء
انشورنس
انصار
انصاري
انصاريء
انصاف
انصافي
انضمام
انعام
انعامن
انعقاد
انفارميشن
انفرا
انفرادي
انفراديت
انفراسٽرڪچر
انفرميشن
انفيڪشن
انقره
انقلاب
انقلابن
انقلابي
انقلابين
انمول
انناس
انند
انهن
انهي
انهيء
انهين
انو
انوار
انور
انوشڪا
انومان
انوپ
انوکو
انوکي
اني
انيتا
انيس
انيل
انيلا
انيڪ
انٽارڪٽيڪا
انٽر
انٽرفيس
انٽرميڊي
انٽرميڊيي
انٽرني
انٽرنيشنل
انٽرنيٽ
انٽرويو
انٽيليجنس
انچ
انچارج
انچن
انچيف
انڊا
انڊر
انڊس
انڊسٽري
انڊسٽريز
انڊسٽريل
انڊلٺ
انڊلٺون
انڊو
انڊونيشيا
انڊونيشياي
انڊيا
انڊيانا
انڊيز
انڊين
انڊيڪس
انڌو
انڌي
انڍڙ
انڙ
انڙن
انکان
انکانسواء
انکانپوء
انکي
انڪار
انڪاري
انڪارپوريشن
انڪري
انڪشاف
انڪم
انڪواي
انگ
انگريز
انگريزن
انگريزي
انگريزيء
انگریزي
انگریزی
انگلستان
انگلش
انگلنڊ
انگلينڊ
انگن
انگور
انگورن
انگولا
انگي
انگيز
انھن
انھي
انھيء
انہوں
انہیں
اه
اها
اهاي
اهتمام
اهرام
اهل
اهلحديث
اهليت
اهلڪار
اهلڪارن
اهم
اهميت
اهن
اهنسا
اهو
اهوي
اهي
اهيا
اهيو
اهڃاڻ
اهڙ
اهڙا
اهڙن
اهڙو
اهڙي
اهڙيء
اهڙين
اهڙيون
او
اوارڊ
اواي
اوباما
اوبر
اوبلاسٽ
اوتار
اوتارن
اوترا
اوترو
اوتري
اوج
اور
اورنگ
اورنگا
اورنگزيب
اورنگي
اوري
اورينٽل
اورڪزي
اوز
اوزار
اوزارن
اوزون
اوس
اوساري
اوساريء
اوست
اوستا
اوسر
اوسط
اوسلو
اوسي
اوشيانيا
اوطاق
اوقاف
اوقيانوس
اول
اولاد
اولاهين
اولاھين
اولمپڪ
اولمپڪس
اوله
اولهاي
اولهندي
اولهه
اولهہ
اولي
اولياء
اولياي
اوليت
اولين
اولڊ
اولڙو
اولھ
اولھندي
اولھه
اوم
اومان
اون
اونداهي
اونداهيء
اوندهه
اونس
اونهارو
اونهاري
اونهاي
اونهو
اونهي
اونهيون
اونو
اوني
اونڌو
اونڌي
اونھارو
اونھاري
اونھاي
اونھو
اونھي
اوهان
اوهانکي
اوهين
اوور
اووين
اوي
اويس
اوٻاسي
اوٽ
اوپن
اوپيرا
اوڀارين
اوڀاريون
اوڀر
اوڀرندي
اوڀڙ
اوچ
اوچا
اوچاي
اوچتو
اوچتي
اوچو
اوچي
اوڌ
اوڌو
اوڍو
اوڏ
اوڏانهن
اوڏن
اوڙاهه
اوڙي
اوڙيسا
اوکا
اوڪاڙا
اوڻويهين
اوڻويھين
اوڻيهين
اوھان
اي
اياز
ايام
ايان
ايباڪس
ايبرڊين
ايبل
ايبٽ
ايبڪ
ايترا
ايترو
ايتري
ايتريقدر
ايتريون
ايج
ايجاد
ايجادن
ايجادون
ايجنسي
ايجنسين
ايجنٽ
ايجنٽن
ايجنڊا
ايجوڪيشن
ايجوڪيشنل
ايذاء
ايراضي
ايراضيء
ايراضين
ايران
ايراني
ايرانين
ايرزونا
ايروان
ايريا
ايريزونا
ايرين
ايريگيشن
ايرڪ
ايرگي
ايس
ايستاي
ايسر
ايسرداس
ايسوسي
ايسوسيي
ايسٽ
ايسٽرن
ايسپ
ايسڊ
ايشن
ايشور
ايشوري
ايشيا
ايشياء
ايشياي
ايشياٽڪ
ايشين
ايضا
ايف
ايل
ايلزبيٿ
ايلس
ايلسا
ايلن
ايليا
ايليمينٽري
ايليٽ
ايلچي
ايم
ايما
ايمان
ايماندار
ايمانداري
ايمانداريء
ايماني
ايمرجنسي
ايملي
ايمن
ايمنسٽي
ايميچوي
ايمپاي
ايمپريس
اين
اينالاگ
اينجلس
ايندا
ايندو
ايندي
اينديون
ايندڙ
ايندڙن
ايني
اينٽلانٽڪ
اينٽي
اينڊ
اينڊروي
اينڊريو
اينگرو
اينگلز
اينگلس
اينگلو
ايو
ايوارڊ
ايوارڊز
ايوارڊن
ايوان
ايوانن
ايواني
ايوب
ايوبي
ايونٽ
ايوي
ايوڌيا
ايي
ايٽ
ايٽلانٽڪ
ايٽم
ايٽمن
ايٽمي
ايپ
ايپل
ايپليڪيشن
ايٿوپيا
ايڇ
ايڊ
ايڊريس
ايڊز
ايڊم
ايڊمرل
ايڊمن
ايڊمنسٽريشن
ايڊمنسٽريٽر
ايڊنبرا
ايڊنبرگ
ايڊواي
ايڊورڊ
ايڊولف
ايڊووڪيٽ
ايڊيشن
ايڊيشنل
ايڊيوڪيشن
ايڊيوڪيشنل
ايڊيٽر
ايڊيٽرن
ايڊيٽنگ
ايڊيٽوريل
ايڊٽ
ايڊٽنگ
ايڌي
ايڏا
ايڏو
ايڏي
ايڪ
ايڪا
ايڪانامڪ
ايڪاي
ايڪتا
ايڪس
ايڪساي
ايڪسٽينشن
ايڪسپريس
ايڪسپو
ايڪسچينج
ايڪشن
ايڪن
ايڪو
ايڪي
ايڪيهين
ايڪٽ
ايڪٽر
ايڪٽن
ايڪڙ
ايڪڙن
ايگريڪلچر
ايگزيڪيوٽو
اٹک
اٺ
اٺن
اٺون
اٺين
اٺڙي
اٽالين
اٽل
اٽلي
اٽليء
اٽو
اٽي
اٽڪ
اٽڪاي
اٽڪل
اٽڪنسن
اٽڪي
اپ
اپاء
اپالو
اپاي
اپت
اپر
اپريل
اپسمنڊ
اپلاي
اپلوڊ
اپنا
اپنايو
اپنشد
اپني
اپنی
اپنے
اپيل
اپٻيٽ
اپٽار
اپڀرنش
اپڊيٽ
اپگرهي
اپگرھ
اپگرھن
اٿاري
اٿاريو
اٿارٽي
اٿارٽيء
اٿارڻ
اٿاي
اٿس
اٿل
اٿم
اٿن
اٿندڙ
اٿو
اٿي
اٿينز
اٿينس
اٿيو
اٿڻ
اڀ
اڀاريو
اڀرندو
اڀرندي
اڀرندڙ
اڀري
اڀريل
اڀريو
اڀرڻ
اڀو
اڀي
اڀياس
اڃ
اڃا
اڃان
اڃايل
اڄ
اڄوڪو
اڄوڪي
اڄڪلهه
اڄڪلھ
اڄڻ
اچ
اچار
اچارن
اچارڻ
اچانڪ
اچرج
اچن
اچو
اچي
اچيو
اچڪزي
اچڻ
اڇا
اڇاڻ
اڇلاي
اڇلايو
اڇن
اڇو
اڇوت
اڇي
اڇڙو
اڇڙي
اڌ
اڌارام
اڌو
اڌوري
اڍاي
اڏا
اڏام
اڏامندڙ
اڏامون
اڏامي
اڏامڻ
اڏاوت
اڏاوتن
اڏاوتون
اڏاوتي
اڏاي
اڏايو
اڏري
اڏرڻ
اڏن
اڏو
اڏوھي
اڏي
اڏيرو
اڏيرولال
اڏيري
اڏيل
اڏيو
اڏڻ
اڙدو
اڙل
اڙي
اک
اکبر
اکر
اکرن
اکروٽ
اکري
اکل
اکنڊ
اکين
اکيون
اڪ
اڪابر
اڪادمي
اڪالي
اڪاي
اڪاين
اڪبر
اڪبري
اڪثر
اڪثريت
اڪثريتي
اڪرام
اڪرم
اڪري
اڪريل
اڪليز
اڪنامڪس
اڪي
اڪير
اڪيلا
اڪيلاي
اڪيلو
اڪيلي
اڪيچار
اڪيڊمي
اڪيڊميء
اڪيڊمڪ
اگاميمنان
اگر
اگرچ
اگرچه
اگني
اگهاڙو
اگهم
اگهن
اگهه
اگھم
اڱارو
اڱاري
اڱڻ
اڳ
اڳتي
اڳراي
اڳواٽ
اڳواڻ
اڳواڻن
اڳواڻي
اڳواڻيء
اڳوڻا
اڳوڻن
اڳوڻو
اڳوڻي
اڳوڻيون
اڳي
اڳيان
اڳياڙي
اڳين
اڳيون
اڳيي
اڳٺ
اڳڀراي
اڳڀرو
اڳڪٿي
اڳڪٿيون
اڻ
اڻاٺ
اڻبڻت
اڻلڀ
اڻويهين
اڻويھ
اڻويھين
اڻوڻندڙ
اڻي
اڻپورا
اڻپورو
اڻپوري
اڻٿڪ
اڻڄاتل
اڻڻ
اھا
اھتمام
اھخامنشي
اھل
اھم
اھميت
اھن
اھو
اھوي
اھي
اھير
اھڃاڻ
اھڙا
اھڙن
اھڙو
اھڙي
اھڙيء
اھڙين
اھڙيون
ای
ایبٹ
ایس
ایسا
ایل
ایم
این
ایٹمی
ایچ
ایک
اے
ب
با
باء
بااثر
بااختيار
باالله
باب
بابا
باباء
بابت
بابر
بابل
بابلي
بابن
بابو
بابي
بابينو
بات
باتصوير
باخبر
باد
بادام
بادشاه
بادشاهت
بادشاهن
بادشاهه
بادشاهي
بادشاهيء
بادشاهہ
بادشاھ
بادشاھت
بادشاھتن
بادشاھتون
بادشاھن
بادشاھي
بادشاھيء
بادل
بادي
باديء
بادياتي
بادين
باديون
بادڪاري
بادڪاريء
بادگار
بادگارن
بار
باران
باراني
بارش
بارشن
بارود
باري
باريڪ
بارٽل
بارڊر
بارڪ
بارگاهه
بارگاھ
بارڻ
بارے
باز
بازار
بازارن
بازارون
بازن
بازنطيني
بازنظيني
بازي
بازيء
باس
باسو
باسڪٽ
باشد
باشعور
باشندا
باشندن
باضابطا
باضابطه
باضابطہ
باطل
باطن
باطني
باعث
باغ
باغات
باغبان
باغباني
باغن
باغي
باغين
باغيچا
باقاعده
باقاعدي
باقاعدگيء
باقاي
باقر
باقراڻي
باقي
باقيء
باقيات
بال
بالا
بالاتر
بالادستي
بالاچ
بالاڪوٽ
بالشويڪ
بالشويڪن
بالشيوڪ
بالغ
بالغن
بالله
بالن
بالي
باليووڊ
بالٽڪ
بالڪل
باميان
بان
باندر
باندي
بانس
بانسري
بانو
باني
بانين
بانيڪار
بانيڪارن
بانڊ
باه
باهمي
باهه
باهو
باهيون
باهہ
باوجود
باي
بايزيد
بايو
بايوز
باپ
باٿ
باچا
باڊي
باڊھ
باک
باڪس
باڪساي
باڪسنگ
باڪمال
باڪو
باگو
باگي
باگڙي
باگڙين
باھ
باھمي
باھو
ببر
ببليوگرافي
بت
بتاريخ
بتن
بتي
بتيون
بتڙ
بجا
بجاء
بجار
بجاراڻي
بجاي
بجر
بجلي
بجليء
بجي
بجير
بجيٽ
بجيڪٽ
بجٽ
بحال
بحالي
بحاليء
بحث
بحثن
بحر
بحران
بحري
بحرين
بحريه
بحريہ
بحواله
بحيثيت
بخار
بخارا
بخارن
بخاري
بخاريء
بخت
بختاور
بختيار
بخش
بخشش
بخشل
بخشو
بخشي
بخشڻ
بخوبي
بد
بدامني
بدبوء
بدترين
بدر
بدرا
بدرالدين
بدران
بدعت
بدعنواني
بدقسمتي
بدقسمتيء
بدل
بدلاي
بدلجندڙ
بدلجي
بدلجڻ
بدلو
بدلي
بدليل
بدن
بدنام
بدنصيب
بدو
بدوز
بدوش
بدولت
بدوي
بدي
بديء
بديع
بديل
بدين
بدڪ
بذات
بر
برا
براء
برابر
برابري
برابريء
برادر
برادرز
برادرس
برادري
برادريء
برادرين
برازيل
برانچ
برانڊ
براهمي
براهمڻ
براهوي
براي
براين
براڊ
براڊڪاسٽر
براڊڪاسٽنگ
براگا
براہ
برای
برباد
برباديء
بربر
برتري
برج
برجن
برخلاف
بردار
برداشت
برده
بردي
برري
برريء
برس
برسات
برساتن
برساتون
برساتي
برصغير
برطانوي
برطانيا
برطانيه
برطانيہ
برطرف
برعڪس
برف
برفاني
برفباري
برفت
برفي
برق
برقرار
برقعو
برقعي
برقي
برقياتي
برلا
برلن
برما
برمودا
برمي
برمڪي
برن
برنارڊ
برنارڊشا
برنس
برني
برهان
برهانپور
برهم
برهما
برهمي
برهمڻ
برهمڻن
برهمڻي
برو
بروز
بروس
بروني
برونڊي
بروهي
بروهيء
بروهين
بروھي
بري
بريري
بريريء
بريرين
بريريون
بريلوي
برين
بريڪ
برٽش
برٽن
برٽنيڪا
برپا
برڊ
برک
برکا
برڪ
برڪت
برڪلي
برڪينا
برگ
برگر
برگيڊ
برگيڊيي
برھما
برھمڻ
برھمڻن
بزرگ
بزرگن
بزرگوار
بزم
بزنس
بس
بسال
بساي
بسترن
بستري
بستي
بستيء
بستيون
بستی
بسر
بسم
بسن
بسنت
بسون
بش
بشار
بشارت
بشر
بشريات
بشمول
بشير
بشپ
بصر
بصرن
بصره
بصري
بصيرت
بطن
بطور
بطوطا
بطوطه
بظاهر
بعثت
بعد
بعض
بعضي
بغاوت
بغاوتن
بغاوتون
بغداد
بغدادي
بغل
بغير
بـ
بفرزون
بقا
بقاء
بقاي
بقول
بل
بلا
بلاذري
بلاسٽ
بلاغت
بلال
بلاول
بلاي
بلاڪ
بلاڪن
بلاگ
بلاگر
بلب
بلبل
بلبن
بلتستان
بلحاظ
بلخ
بلديا
بلدياتي
بلغاريا
بلغاريه
بلغم
بلغمي
بلقان
بلند
بلندي
بلنديء
بلندين
بلو
بلور
بلوغت
بلوچ
بلوچستان
بلوچن
بلوچي
بلي
بليدي
بلين
بليو
بليڪ
بلڊ
بلڊنگ
بلڙي
بلڙيء
بلڪ
بلڪل
بلڪه
بلڪي
بلڪہ
بلگرامي
بم
بمباري
بمبي
بمطابق
بن
بنا
بناء
بنارس
بنان
بناوت
بناوٽ
بناي
بنايا
بنايل
بنايو
بنت
بنجر
بنجن
بنجي
بنجڻ
بند
بندر
بندراناي
بندرن
بندرگاه
بندرگاهن
بندرگاهه
بندرگاھ
بندرگاھون
بندش
بندن
بنده
بندو
بندوبست
بندوق
بندوقن
بندي
بنديء
بندگي
بنسبت
بنهه
بنو
بنون
بني
بنيا
بنياد
بنيادن
بنيادي
بنيو
بنگال
بنگالي
بنگل
بنگلا
بنگلاديش
بنگلو
بنگلور
بنگلي
به
بها
بهاء
بهادر
بهادرن
بهادري
بهادريء
بهار
بهارو
بهاري
بهانو
بهاني
بهاول
بهاولپور
بهبود
بهتر
بهتري
بهتريء
بهترين
بهر
بهرام
بهرحال
بهرو
بهشت
بهوا
بهڻ
بو
بوء
بواء
بواسير
بواي
بوبڪاي
بوتل
بوتو
بورا
بورس
بورڊ
بورڊن
بورڊنگ
بوزاي
بوزدار
بوس
بوستان
بوسحاقي
بوسنيا
بوسنياي
بوسينيا
بوعلي
بوقت
بول
بولا
بولان
بولي
بوليويا
بولٽن
بولچند
بون
بونا
بونو
بوني
بوهري
بوواري
بوي
بوٽ
بوٽسوانا
بوڪ
بوگرا
بوگرہ
بوگنڊا
بوھرا
بوھڙ
بي
بيابان
بياس
بياض
بيان
بيانات
بيانن
بياني
بيباڪ
بيبي
بيبيء
بيت
بيتن
بيتي
بيجا
بيجنگ
بيحد
بيد
بيدا
بيدار
بيداري
بيدل
بيدي
بيراج
بيربل
بيرل
بيرنگ
بيروت
بيروزگاري
بيروني
بيري
بيريا
بيزار
بيس
بيسن
بيسنت
بيسٽ
بيسڪ
بيشمار
بيشڪ
بيضوي
بيضي
بيعت
بيل
بيلاروس
بيلجيم
بيلجيي
بيلي
بيليز
بيليٽ
بيلٽ
بيمار
بيماري
بيماريء
بيمارين
بيماريون
بين
بينا
بينظير
بينظيرا
بينن
بينڊ
بينڪ
بينڪاڪ
بينڪن
بينگ
بينگال
بينگالي
بيهاري
بيهاريو
بيهارڻ
بيهجي
بيهن
بيهندا
بيهندو
بيهندي
بيهوش
بيهي
بيهڪ
بيهڻ
بيورو
بيوروڪريسي
بيوس
بيون
بيي
بيٺا
بيٺل
بيٺو
بيٺي
بيٺيون
بيٺڪ
بيٺڪون
بيٺڪي
بيٺڪيت
بيٽ
بيٽا
بيٽن
بيٽنگ
بيچ
بيچلر
بيچيني
بيڊ
بيڪ
بيڪار
بيڪانير
بيڪر
بيڪس
بيڪن
بيڪٽريا
بيڪٽيريا
بيگ
بيگلار
بيگم
بيگناهه
بيھي
بيھڪ
بيھڻ
بٹن
بٺ
بٺورو
بٺوري
بٺي
بٽ
بٽالين
بٽڻ
بپاشي
بپاشيء
بپتسما
بچاء
بچاي
بچايو
بچت
بچل
بچن
بچندو
بچو
بچي
بچيا
بچيل
بچيو
بچڻ
بڊو
بڊي
بڙ
بڙدي
بڙودا
بڙي
بک
بکر
بکري
بکريء
بڪ
بڪانير
بڪر
بڪرمي
بڪين
بڪيون
بگ
بگاڙ
بگاڙي
بگهياڙ
بگهڙ
بگو
بگودڙو
بگٽي
بگڙجي
بگڙي
بگڙيل
بگھڙ
بڻ
بڻاي
بڻاياي
بڻايل
بڻايو
بڻايون
بڻجن
بڻجندو
بڻجي
بڻجڻ
بڻي
بڻيا
بڻياد
بڻيل
بڻيو
بھ
بھا
بھاء
بھادر
بھادري
بھار
بھاماس
بھاول
بھاولپور
بھاي
بھتر
بھتري
بھترين
بھرام
بھرحال
بھوا
بھٹہ
بھکر
بھی
بہ
بہادر
بہاولنگر
بہت
بہتر
بی
بیشتر
بین
بیٹ
ة
ت
تا
تاب
تابع
تابڪاري
تاتار
تاتاري
تاتارين
تاثر
تاثرات
تاثير
تاج
تاجدار
تاجر
تاجل
تاجو
تاجپور
تاجڪ
تاجڪستان
تاحال
تاحيات
تار
تارا
تاراچند
تارن
تارو
تارون
تاري
تاريخ
تاريخدان
تاريخدانن
تاريخن
تاريخون
تاريخي
تارڪ
تاریخ
تازا
تازه
تازو
تازي
تازيون
تازگي
تازہ
تاشقند
تال
تاليف
تامل
تان
تاندورا
تاندورن
تانگ
تاهم
تاي
تاڃي
تاڙي
تاڪ
تاڪن
تاڪيد
تب
تبادلہ
تباه
تباهه
تباهي
تباهيء
تباھ
تباھي
تباھيء
تبت
تبتي
تبديل
تبديلون
تبديلي
تبديليء
تبديلين
تبديليون
تبريز
تبسم
تبصرا
تبصرو
تبصري
تبليغ
تبليغي
تت
تتبع
تتر
تجارت
تجارتي
تجديد
تجربا
تجرباتي
تجربن
تجربو
تجربي
تجربيڪار
تجريدي
تجزي
تجزيا
تجزياتي
تجزيو
تجزيي
تجسس
تجليء
تجنيس
تجويز
تجويزون
تحت
تحرير
تحريرن
تحريرون
تحريري
تحريڪ
تحريڪن
تحريڪون
تحرڪ
تحریر
تحسين
تحصيل
تحصيلن
تحصيلون
تحصیل
تحفا
تحفة
تحفته
تحفتہ
تحفظ
تحفن
تحفو
تحفي
تحقيق
تحقيقات
تحقيقاتي
تحقيقن
تحقيقي
تحليل
تحويل
تخت
تختا
تختن
تختو
تختي
تختگاه
تختگاهه
تخريب
تخلص
تخليق
تخليقات
تخليقون
تخليقي
تخليقڪار
تخلیق
تخمي
تخمينو
تخميني
تخيل
تدبير
تدبيرون
تدريس
تدريسي
تدفين
تدوين
تذڪرن
تذڪره
تذڪرو
تذڪري
تر
تراب
ترار
ترانا
ترانو
تراني
تراي
تربت
تربيت
تربيتي
ترت
ترتيب
ترتيبوار
ترتیب
ترجما
ترجمان
ترجماني
ترجمن
ترجمه
ترجمو
ترجمون
ترجمي
ترجمہ
ترجيح
ترجيحن
ترخان
ترخانن
ترديد
ترسي
ترسيا
ترسيل
ترسيو
ترسڻ
ترغيب
ترقي
ترقيء
ترقياتي
ترم
ترمذي
ترميز
ترميم
ترميمن
ترميمون
ترميمي
ترمیم
ترن
ترندڙ
ترنم
ترو
تروسو
ترويج
تري
تريء
ترياق
ترين
ترڪ
ترڪستان
ترڪش
ترڪمانستان
ترڪن
ترڪي
ترڪيء
ترڪيب
ترڪيبي
ترڻ
تسبيح
تسلسل
تسلط
تسلي
تسليم
تسمانيا
تسڪين
تش
تشبيهه
تشخيص
تشدد
تشريح
تشريحي
تشريف
تشي
تشيع
تشڪيل
تصحيح
تصديق
تصغیر
تصنيف
تصنيفات
تصنيفن
تصنيفون
تصور
تصوراتي
تصورن
تصوف
تصوير
تصويرن
تصويرون
تصويري
تصویر
تضاد
تعارف
تعارفي
تعال
تعالى
تعالي
تعاون
تعبير
تعجب
تعداد
تعريف
تعريفون
تعصب
تعظيم
تعلق
تعلقا
تعلقات
تعلقاتن
تعلقن
تعلقه
تعلقو
تعلقي
تعليم
تعليمات
تعليمدان
تعليمي
تعلیم
تعمير
تعميرات
تعميراتي
تعميري
تعميل
تعمیر
تعين
تغلق
تـ
تفاوت
تفتان
تفريح
تفريحي
تفريق
تفسير
تفصيل
تفصيلن
تفصيلي
تفھيم
تقابلي
تقاضا
تقاضاي
تقدس
تقدير
تقرري
تقريب
تقريبا
تقريبن
تقريبون
تقرير
تقريرن
تقريرون
تقریبا
تقسيم
تقليد
تقوي
تقويت
تقويم
تقي
تل
تلاء
تلاش
تلاوت
تلاي
تلخ
تلسي
تلفظ
تلقين
تلمود
تلنگانا
تلهار
تلوار
تلوارن
تلوارون
تلور
تلڪ
تم
تما
تماشا
تماشاي
تماشو
تمام
تماچي
تماچيء
تماڪ
تمثيل
تمثيلي
تمدن
تمدني
تمر
تمغه
تمغو
تمل
تمنا
تمناي
تمهيد
تميز
تميم
تميمي
تن
تنازعو
تنازعي
تناسب
تناظر
تنبو
تنبيهه
تنت
تنتن
تنتي
تند
تندسر
تندن
تندور
تندون
تنزانيا
تنزانيه
تنظيم
تنظيمن
تنظيمون
تنظيمي
تنفسي
تنقيد
تنقيدي
تنقید
تنهاي
تنهن
تنهنجا
تنهنجو
تنهنجي
تنهنکانپوء
تنهنڪري
تنوار
تنوير
تنين
تنيو
تنگ
تنگي
تنھن
تنھنجي
تنھنڪري
ته
تهذيب
تهذيبن
تهذيبون
تهذيبي
تهران
تهن
تهه
تهوار
تهڙي
تو
تواريخ
تواريخي
توازن
تواناي
توبن
توبون
توت
توتي
توثيق
توجه
توجهه
توجھ
توجہ
توحيد
تور
تورو
توري
توريت
توسان
توسيع
توفيق
توقع
تولا
تولد
تولو
تولي
تون
تونيا
تونيو
تونگ
توهان
توهانجي
توهانکي
توهين
توپ
توپن
توپون
توڙ
توڙي
توکان
توکي
توڪل
توڳاچي
توڻي
توھان
توھين
تي
تيار
تياري
تياريء
تياريون
تيجاڻي
تير
تيرا
تيرن
تيرنهن
تيرهن
تيرهون
تيرهين
تيري
تيرٿ
تيرھن
تيرھين
تيز
تيزاب
تيزابي
تيزي
تيزيء
تيستاي
تيسين
تيشخ
تيل
تيلي
تيليء
تيلين
تيليون
تيليگو
تيلگو
تيمور
تيموري
تين
تيور
تيون
تيونس
تيي
تپ
تپا
تپسيا
تپش
تپن
تپو
تپي
تپيدار
تڏ
تڏهن
تڏهوڪي
تڏهين
تڏھن
تڙ
تڙي
تک
تکا
تکو
تکي
تڪ
تڪافل
تڪبير
تڪرار
تڪرارن
تڪراري
تڪسيد
تڪليف
تڪليفن
تڪليفون
تڪميل
تڪن
تڪنيڪي
تڪي
تڪيو
تڪڙ
تڪڙو
تڪڙي
تگي
تڻ
تڻو
تڻي
تھ
تھا
تھذيب
تھذيبن
تھران
تھل
تھن
تھھ
تھی
تھے
تہ
ث
ثابت
ثابتي
ثابتيون
ثار
ثارن
ثاقب
ثالث
ثانوي
ثاني
ثانيء
ثبوت
ثر
ثريا
ثقافت
ثقافتن
ثقافتون
ثقافتي
ثقفي
ثقل
ثقلي
ثم
ثمر
ثميره
ثنا
ثناء
ثواب
ج
جا
جاء
جابر
جابلو
جات
جاتا
جاتي
جاتيء
جاتين
جاتيون
جاتی
جادو
جادوء
جادوي
جادوگر
جارج
جارجيا
جارجياي
جاري
جارڊن
جاسوس
جاسوسن
جاسوسي
جالنڌر
جام
جامع
جامعه
جامعہ
جامي
جاميٽري
جان
جانب
جانبدار
جاندار
جاندارن
جانسن
جانشين
جانور
جانورن
جانوري
جاني
جانچ
جانچيو
جانگ
جانے
جاوا
جاويد
جاي
جاين
جايون
جاٽ
جاٽن
جاپان
جاپاني
جاچ
جاچي
جاچڻ
جاڙا
جاڙو
جاڙي
جاڙيجا
جاکري
جاکوڙ
جاکوڙي
جاکوڙيندڙ
جاگرافي
جاگرافيء
جاگرافياي
جاگرافيدان
جاگرافيدانن
جاگير
جاگيراڻي
جاگيردار
جاگيردارن
جاگيرداري
جاگيرن
جاگيرون
جاڳ
جاڳاي
جاڳايو
جاڳرتا
جاڳندي
جاڳو
جاڳي
جاڳيو
جاڻ
جب
جبار
جبر
جبرالٽر
جبران
جبراي
جبري
جبريت
جبل
جبلت
جبلن
جبوتي
جت
جتان
جتن
جتوي
جتي
جج
ججن
ججهو
ججهي
جحش
جد
جدا
جداي
جدت
جدوجهد
جدوجھد
جدول
جدي
جديد
جديديت
جدگال
جدگالي
جدید
جذب
جذبا
جذبات
جذباتي
جذبن
جذبو
جذبي
جر
جرات
جراثيم
جراي
جرم
جرمن
جرمنن
جرمني
جرمنيء
جرنل
جرنيل
جروار
جري
جريب
جرير
جرڳي
جز
جزا
جزاي
جزن
جزو
جزوي
جزيرا
جزيرن
جزيرو
جزيري
جس
جساف
جسامت
جست
جستجو
جسقم
جسم
جسماني
جسمم
جسمن
جسٽ
جسٽريٽ
جسٽس
جسڪاڻي
جشن
جعفر
جعفرا
جعفري
جغرافياي
جـ
جـو
جـي
جل
جلا
جلاب
جلال
جلاله
جلاوطن
جلاوطني
جلاوطنيء
جلاي
جلباڻي
جلد
جلدن
جلدي
جلسا
جلسو
جلسي
جلندر
جلندڙ
جلوس
جلي
جليل
جم
جمادي
جماع
جماعت
جماعتن
جماعتون
جماعتي
جمال
جمالو
جمالي
جماليء
جماليات
جمالياتي
جمشيد
جمع
جمعو
جمعي
جمعيت
جمل
جملا
جملن
جملو
جملي
جمن
جمنا
جمهوري
جمهوريا
جمهوريت
جمهوريه
جمهوريہ
جمود
جمي
جميعت
جميل
جمھوري
جمھوريت
جمھوريه
جمھوريہ
جن
جناب
جناح
جنازو
جنازي
جنب
جنت
جنتا
جنتر
جنتري
جنجوعا
جند
جندڙ
جنرل
جنرلن
جنريشن
جنس
جنسار
جنسن
جنسون
جنسي
جنسيت
جنم
جنن
جنهن
جنهنجو
جنهنجي
جنهنکي
جنهنڪري
جنوبي
جنوبی
جنود
جنوري
جنوريء
جنون
جنيد
جنين
جنيوا
جنپنگ
جنڊ
جنڊيء
جنڪشن
جنگ
جنگبندي
جنگجو
جنگل
جنگن
جنگو
جنگون
جنگي
جنگين
جنگيون
جنھن
جنھنڪري
جه
جهاد
جهاز
جهازن
جهازي
جهالاوان
جهالت
جهان
جهانسي
جهانن
جهانيان
جهانگياڻي
جهانگير
جهتيال
جهجهي
جهرڪ
جهرڪن
جهل
جهلم
جهلي
جهلين
جهليندا
جهليندو
جهليو
جهلڪ
جهلڻ
جهم
جهمر
جهمپير
جهن
جهنم
جهنڊ
جهنڊو
جهنڊي
جهنگ
جهنگل
جهنگلن
جهنگلي
جهه
جهول
جهولي
جهونا
جهونن
جهونو
جهوني
جهوڪ
جهي
جهيڙا
جهيڙن
جهيڙو
جهيڙي
جهٽ
جهڏي
جهڙا
جهڙن
جهڙو
جهڙوڪ
جهڙوڪر
جهڙي
جهڙيء
جهڙين
جهڙيون
جهڪاي
جهڪر
جهڪي
جهڳٽو
جهہ
جو
جوء
جوا
جواب
جوابدار
جوابده
جوابن
جوابي
جواد
جواز
جوان
جوانن
جواني
جوانيء
جواهر
جواهرن
جواي
جوبلي
جوت
جوزف
جوسو
جوش
جوشي
جول
جولاء
جولاي
جوليا
جوليس
جون
جونا
جونيي
جونپوري
جوه
جوهر
جوهري
جوهي
جوهيء
جوي
جويو
جويي
جوٽي
جوپيٽر
جوڀن
جوڊيشل
جوڌا
جوڌپور
جوڙ
جوڙا
جوڙاي
جوڙايل
جوڙايو
جوڙايون
جوڙجڪ
جوڙن
جوڙو
جوڙي
جوڙيا
جوڙيل
جوڙين
جوڙيندا
جوڙيندو
جوڙيندڙ
جوڙيو
جوڙيون
جوڙڻ
جوکيا
جوکين
جوکيو
جوگی
جوڳ
جوڳا
جوڳو
جوڳي
جوڳين
جوڳيون
جوڻ
جوڻو
جوڻي
جوڻيجا
جوڻيجو
جوڻيجي
جوھان
جوھر
جوھري
جوھي
جي
جيء
جيان
جياپو
جياپي
جيت
جيترا
جيترو
جيتري
جيتريون
جيتن
جيتوڻيڪ
جيجل
جيجي
جيد
جيرو
جيروسلم
جيري
جيريا
جيستاي
جيسر
جيسلمير
جيسيتاي
جيسين
جيسينا
جيسيه
جيسيڪا
جيل
جيلاني
جيلانيء
جيلن
جيلي
جيم
جيمز
جيمس
جين
جينز
جينوم
جيني
جينياتي
جيو
جيوت
جيوتي
جيون
جيوڙا
جيوڻي
جيي
جيٽ
جيڏا
جيڏو
جيڏي
جيڏيون
جيڪ
جيڪا
جيڪب
جيڪر
جيڪرن
جيڪو
جيڪي
جيڪڏنهن
جيڪڏهن
جيڪڏھن
جٽ
جٽاء
جپان
جپاني
جپسم
جپو
جپي
جٿو
جٿي
جڊيشل
جڏنهن
جڏهن
جڏهين
جڏھن
جڙي
جڙيا
جڙيل
جڙيو
جڙڻ
جکراڻي
جڪ
جڪارتا
جگجيت
جگر
جگني
جگہ
جڳ
جڳت
جڳتراء
جڳتياڻي
جڳه
جڳهن
جڳهه
جڳهون
جڳهيون
جڳهہ
جڳھ
جڳھن
جڳھون
جڻ
جھ
جھاد
جھاز
جھازران
جھازن
جھان
جھانگير
جھرم
جھرمٽ
جھل
جھلم
جھلي
جھنڊو
جھنڊي
جھنگ
جھنگلي
جھولي
جھوک
جھوڪ
جھٽ
جھڙا
جھڙن
جھڙو
جھڙوڪ
جھڙي
جھڙين
جھڙيون
جھہ
جہان
جہلم
جی
جیت
جے
ح
حاتم
حاجب
حاجن
حاجي
حاجيبايوف
حاجين
حاجی
حادثا
حادثن
حادثو
حادثي
حارث
حاسد
حاشيه
حاصل
حاصلا
حاصلات
حاضر
حاضري
حاضريء
حاضرين
حافظ
حافظي
حال
حالات
حالانڪ
حالانڪه
حالت
حالتن
حالتون
حالي
حامد
حامل
حامي
حامين
حاوي
حاڪم
حاڪمن
حاڪميت
حب
حبشه
حبشي
حبيب
حتمي
حج
حجاب
حجاج
حجاز
حجام
حجت
حجر
حجرت
حجري
حجم
حد
حداد
حدن
حدود
حدون
حديبيه
حديث
حديثن
حديثون
حديد
حدیث
حذف
حر
حرا
حرارت
حراست
حرام
حران
حرب
حرص
حرف
حرفن
حرفي
حرم
حرمت
حرمين
حرن
حروف
حريت
حرڪت
حرڪتن
حزب
حس
حساب
حسابن
حسابي
حساس
حسام
حسب
حسد
حسرت
حسن
حسني
حسيب
حسين
حسينا
حسينه
حسيني
حسينيء
حسین
حشر
حشو
حشوء
حصا
حصار
حصن
حصه
حصو
حصول
حصي
حصيدار
حصيداري
حضرات
حضرت
حضور
حفاظت
حفاظتي
حفص
حفظ
حفيظ
حق
حقارت
حقاني
حقدار
حقن
حقوق
حقيقت
حقيقتن
حقيقتون
حقيقي
حل
حلاج
حلال
حلب
حلف
حلقا
حلقن
حلقو
حلقي
حلوو
حليم
حليمه
حليو
حماد
حمام
حمايت
حمايتي
حمد
حمزه
حمزو
حمزہ
حمل
حملا
حملن
حملو
حملي
حميد
حميده
حنا
حنبل
حنفي
حنيف
حنيفه
حوا
حواري
حواس
حواسن
حوال
حوالا
حوالن
حوالو
حوالي
حوالہ
حوصلا
حوصلو
حوصلي
حوض
حوقل
حويلي
حويليء
حويليون
حویلی
حي
حياء
حيات
حياتي
حياتيء
حياتيات
حياتياتي
حيثيت
حيدر
حيدرا
حيدربخش
حيدري
حيران
حيرت
حيض
حيوان
حيوانات
حيوانن
حيواني
حڪم
حڪمت
حڪمران
حڪمرانن
حڪمراني
حڪمرانيء
حڪمن
حڪومت
حڪومتن
حڪومتون
حڪومتي
حڪيم
حڪيمن
حیدرا
خ
خاتمو
خاتمي
خاتون
خادم
خار
خاران
خارج
خارجه
خارجي
خارجين
خارجہ
خارش
خاص
خاصخيلي
خاصو
خاصي
خاصيت
خاصيتن
خاصيتون
خاطر
خاطري
خاقان
خال
خالد
خالده
خالص
خالف
خالق
خالي
خام
خاموش
خاموشي
خاموشيء
خامين
خاميون
خان
خانا
خانات
خانان
خاناي
خانبهادر
خاندان
خاندانن
خانداني
خانصاحب
خانقاه
خانقاهه
خانقاھ
خانم
خانن
خانه
خانو
خاني
خانيوال
خانيٽ
خانپور
خانچند
خانگي
خانڳڙھ
خانہ
خانیوال
خاڪ
خاڪا
خاڪسار
خاڪن
خاڪو
خاڪي
خبر
خبردار
خبرن
خبرون
ختلف
ختم
ختي
خدا
خداا
خدابخش
خداداد
خداوند
خداي
خدايار
خدشو
خدمت
خدمتن
خدمتون
خدمتگار
خديجه
خديجہ
خذ
خر
خراب
خرابي
خرابين
خراج
خراسان
خراساني
خرت
خرد
خرم
خروش
خري
خريد
خريدار
خريداري
خريف
خرين
خرچ
خرچن
خرچي
خرڪار
خزان
خزانا
خزانو
خزاني
خزانچي
خزيمه
خسرو
خشڪ
خشڪي
خشڪيء
خصوصا
خصوصي
خصوصيت
خصوصيتن
خصوصيتون
خضدار
خضر
خط
خطا
خطاب
خطابت
خطاطي
خطاي
خطبا
خطبو
خطبي
خطرا
خطرن
خطرناڪ
خطرو
خطري
خطن
خطو
خطي
خطيب
خفقان
خفيف
خفيه
خفيہ
خلا
خلاباز
خلاصو
خلاصي
خلاف
خلافت
خلاي
خلجي
خلجيء
خلدون
خلطن
خلعت
خلف
خلفاء
خلق
خلل
خلوص
خليج
خليفا
خليفن
خليفه
خليفو
خليفي
خليق
خليل
خلين
خم
خمير
خميس
خميسو
خميسي
خميني
خمينيء
خن
خنجر
خندق
خنساء
خواب
خوابن
خواتين
خواجا
خواجن
خواجه
خواجہ
خوارزم
خواص
خوان
خواندگي
خواه
خواهش
خواهشمند
خواهشن
خواهه
خواھ
خواھش
خوب
خوبصورت
خوبصورتي
خوبصورتيء
خوبي
خوبين
خوبيون
خود
خودبخود
خودمختيار
خودمختياري
خودمختياريء
خودي
خودڪار
خودڪش
خودڪشي
خور
خوراڪ
خورد
خوردبيني
خورشيد
خوش
خوشاب
خوشبو
خوشبوء
خوشبودار
خوشبوي
خوشحال
خوشحالي
خوشحاليء
خوشخبري
خوشي
خوشيء
خوشين
خوشيون
خوشگوار
خوف
خوفناڪ
خون
خونخوار
خوند
خونريز
خونريزي
خوني
خي
خيال
خيالات
خيالن
خيالي
خياليء
خيام
خيانت
خيبر
خيبرپختونخوا
خير
خيرات
خيراتي
خيرالدين
خيرمحمد
خيرو
خيري
خيرپور
خيرپورميرس
خيرپورناٿن
خيز
خيل
خيما
خيمي
خيو
خٽڪ
خچر
خیال
خیل
د
دا
داء
داب
داتا
داخل
داخلا
داخلاي
داخلت
داخلي
داخليت
داد
دادا
دادن
دادو
دادوء
دادي
دار
دارا
دارالحڪومت
دارالعلوم
دارومدار
داري
داس
داستان
داستانن
داعش
داعظم
داعي
داغ
داغستان
داغن
دال
دالان
دالين
داليون
دامن
دان
داناء
داناي
دانش
دانشمند
دانشور
دانشورن
دانن
دانهن
دانهون
داني
داو
داي
داٻ
داڻا
داڻن
داڻو
داڻي
دب
دبي
دت
دتا
دتيء
دجله
دخل
در
درا
دراز
درازا
دراصل
دراني
دراوڙ
دراوڙن
دراوڙي
دربار
دربدر
دربند
درج
درجا
درجابندي
درجن
درجه
درجو
درجي
درجھ
درجہ
درحقيقت
درخت
درخواست
درخواستون
درد
دردناڪ
درزي
درس
درست
درستي
درستگي
درستی
درسي
درسگاهه
درسگاهون
درسگاھ
درش
درشن
درشهوار
درشي
درمحمد
درميان
درمياني
درن
دره
درهم
دروازا
دروازن
دروازو
دروازي
درويش
درويشن
دروپدي
دري
دريء
دريا
درياء
درياخان
دريافت
درياه
درياهن
درياهه
درياهي
درياي
درياڻي
درياھ
درين
دريون
درٻار
درٻاري
درٻارين
درٻيلو
درٻيلي
درپيش
درڪار
درگا
درگاه
درگاهن
درگاهه
درگاهون
درگاھ
درھم
دز
دس
دست
دستا
دستار
دستاربندي
دستاويز
دستاويزن
دستاويزي
دستبردار
دستخط
دسترس
دستن
دستو
دستور
دستي
دستياب
دستگير
دشت
دشمن
دشمنن
دشمني
دشمنيء
دعا
دعاي
دعوا
دعواي
دعوت
دعوتون
دعوى
دعوي
دعويدار
دعوی
دغا
دفاع
دفاعي
دفتر
دفترن
دفتري
دفع
دفعا
دفعو
دفعي
دفن
دفناي
دفنايو
دل
دلاور
دلاي
دلبر
دلدار
دلشاد
دلمراد
دلو
دلوراء
دلي
دلير
دليري
دليل
دليلن
دلين
دليون
دليپوٽا
دلپسند
دلچسپ
دلچسپي
دلچسپيء
دلڪش
دلگير
دلیل
دم
دماغ
دماغي
دمشق
دمشماري
دمشماريء
دمڪشي
دن
دنبوري
دنيا
دنياوي
دنياي
دنيوي
دنگ
دنگي
دنیا
ده
دهراي
دهشت
دهشتگرد
دهشتگردن
دهشتگردي
دهشتگرديء
دهل
دهلن
دهلوي
دهلويء
دهلي
دهليء
دو
دوا
دوارڪا
دواسازي
دواي
دوباره
دوحہ
دودو
دودي
دور
دورا
دوران
دورانيو
دوربين
دورن
دورو
دوري
دوزخ
دوست
دوستاڻا
دوستن
دوستو
دوستي
دوستيء
دوسرے
دولت
دولترام
دولتمند
دولتپور
دولهه
دولھ
دوم
دونم
دونهون
دونهين
دونوں
دوها
دوهن
دوهو
دوهي
دوي
دوڙ
دوکي
دوڪان
دي
ديا
ديار
ديال
ديامير
ديباچو
ديباچي
ديبل
ديبلي
ديت
ديدار
دير
ديرا
ديره
ديرو
ديري
ديس
ديسي
ديش
ديمند
دين
دينا
دينار
ديندار
ديني
دينيات
ديهانت
ديهن
ديهه
ديهون
ديو
ديوار
ديوارن
ديوارون
ديوارين
ديوان
ديواني
ديوبند
ديوبندي
ديوتا
ديوتاي
ديول
ديومالا
ديومالاي
ديون
ديوناگري
ديوي
ديويء
ديوين
ديويون
ديوڪيء
ديپالپور
ديپڪ
ديڳڙي
ديھ
ديھن
ديھون
دٻاء
دٻاي
دٻايو
دٻجي
دٻدٻي
دٻن
دٻي
دٻيل
دڙا
دڙن
دڙو
دڙي
دک
دکن
دڪان
دڪاندار
دڪانن
دڳ
دھشت
دھشتگردي
دھشلا
دھلي
دھليء
دہ
دی
دیا
دیر
دین
دیکھ
دیکھیں
دیگر
دیں
دے
ذ
ذات
ذاتي
ذاتين
ذاتيون
ذاي
ذاڪر
ذبح
ذخيرا
ذخيرن
ذخيرو
ذخيري
ذر
ذرا
ذراي
ذرباي
ذرن
ذرو
ذري
ذريعا
ذريعات
ذريعن
ذريعو
ذريعي
ذرڙا
ذرڙن
ذليل
ذمري
ذمي
ذميدار
ذميداري
ذميداريون
ذميوار
ذميواري
ذميوارين
ذميواريون
ذهانت
ذهن
ذهنن
ذهني
ذهنيت
ذهين
ذوالحج
ذوالفقار
ذوالقعد
ذوق
ذولفقار
ذي
ذيل
ذيلي
ذڪر
ذڪريا
ذھن
ذھني
ذیل
ر
را
راء
رابرٽ
رابرٽس
رابطا
رابطن
رابطه
رابطو
رابطي
رابعه
رابن
رابندر
رابندرناٿ
رابيل
رات
راتين
راتيون
راج
راجا
راجاي
راجستان
راجستاني
راجسٿان
راجسٿاني
راجن
راجو
راجيو
راجپوت
راجپوتانا
راجپوتن
راجڪمار
راحت
راحتون
راحيل
راد
راز
رازن
رازي
راس
راست
راشد
راشده
راشدي
راشديء
راشديه
راشٽر
راضي
راضپو
راغب
رافيل
راقم
رام
راما
راماي
رامداس
رامن
رامي
رامچند
رامچندر
رامگاهه
رامگاھ
ران
رانا
رانجهو
رانجھا
رانجھو
رانجھي
راند
راندين
رانديون
رانديڪا
رانديگر
رانديگرن
رانوتي
راني
راه
راهب
راهداري
راهه
راهو
راهون
راهي
راو
راوت
راول
راولپنڊي
راولپنڊيء
راوي
راوين
راوڻ
راي
رايا
رايل
راين
رايو
راٺوڙ
راڄ
راڄن
راڄو
راڄوڻي
راڄي
راڄپر
راڄڌاني
راڄڌانيء
راڄڌانيون
راڄڙ
راڌا
راڌڻ
راکي
راڪ
راڪيٽ
راڳ
راڳن
راڳي
راڳين
راڳيندڙ
راڳڻي
راڳڻيء
راڻ
راڻا
راڻن
راڻو
راڻي
راڻيء
راڻين
راڻيون
راڻيپور
راھ
راھو
رب
رباعي
رباعيون
رباني
ربذه
ربط
ربطيات
ربنواز
ربيع
ربيعه
رة
رت
رتا
رتبو
رتبي
رتن
رتو
رتوديرو
رتوڇاڻ
رتوڪوٽ
رتي
رتيديري
رج
رجب
رجحان
رجحانن
رجز
رجسٽر
رجسٽرار
رجسٽريشن
رجسٽرڊ
رجعت
رجوع
رجي
رح
رحلت
رحم
رحمان
رحماني
رحمة
رحمت
رحمته
رحه
رحيم
رحيمداد
رحیم
رخ
رخصت
رخصتي
رخن
رخي
رد
ردعمل
ردن
رده
ردو
ردي
رديف
رز
رزاق
رزرو
رزميه
رس
رسا
رسالا
رسالت
رسالن
رساله
رسالو
رسالي
رساي
رسايو
رستا
رستم
رستن
رستو
رستي
رسد
رسل
رسم
رسمن
رسمون
رسمي
رسن
رسندو
رسو
رسوخ
رسول
رسي
رسيء
رسيو
رسڪن
رسڻ
رش
رشتا
رشتن
رشتو
رشتي
رشتيدار
رشد
رشوت
رشي
رشيد
رشين
رض
رضا
رضامندي
رضاڪار
رضاڪارن
رضه
رضوان
رضوي
رضويء
رضويه
رضي
رضيه
رضہ
رطوبت
رعايا
رعايت
رعايتون
رعيت
رغبت
رف
رفاقت
رفت
رفتار
رفتاريء
رفورس
رفيع
رفيق
رفيل
رقبو
رقص
رقم
رقمن
رقمون
رقيه
رل
رلاي
رلي
رليء
رليخ
رليز
رلينڊ
رليون
رم
رماي
رمز
رمزون
رمسٽرانگ
رمضان
رمل
رمن
رموز
رمي
رميء
رمين
رميني
رمينيا
رمينياي
رمينٽ
رميڊا
رن
رنج
رنجيت
رند
رندن
رندو
رندي
رنز
رنسن
رنسون
رني
رنڊڪ
رنگ
رنگا
رنگت
رنگدار
رنگريز
رنگس
رنگن
رنگي
رنگين
ره
رهاي
رهايو
رهاڪن
رهاڪو
رهاڻ
رهاڻيون
رهبر
رهبري
رهبريء
رهجي
رهن
رهندا
رهندس
رهندو
رهندي
رهنديون
رهندڙ
رهندڙن
رهنما
رهنماي
رهه
رهو
رهواسي
رهواسين
رهون
رهي
رهيا
رهيس
رهيل
رهيو
رهيون
رهڻ
رهڻو
رهڻي
رو
روء
روا
روابط
رواج
رواجن
رواجي
رواداري
روان
روانا
روانو
رواني
روانڊا
روانگي
روايت
روايتن
روايتون
روايتي
روباٽ
روبرو
روبوٽ
روبي
روبينا
روح
روحاني
روحانيت
روحل
روحن
رود
رور
رورل
روز
روزا
روزانه
روزانو
روزاني
روزانہ
روزمره
روزنامه
روزه
روزو
روزويلٽ
روزي
روزگار
روس
روسو
روسي
روسين
روش
روشن
روشناس
روشناي
روشنایی
روشني
روشنيء
روضو
روضي
روغن
رول
رولنگ
روم
رومال
رومانس
رومانوي
روماني
رومانيا
رومانيت
رومن
رومي
روميء
رومين
رون
رونا
روند
رونق
رونما
روهي
روهڙا
روهڙي
روهڙيء
روي
رويا
روين
روينيو
رويو
رويي
روٽ
روٽي
روپ
روپلو
روپوش
روپي
روپيا
روپين
روپيه
روڊ
روڊن
روڙ
روڙي
روڪ
روڪي
روڪيو
روڪڻ
روڳ
روھڙي
ري
ريء
ريا
رياست
رياستن
رياستون
رياستي
رياض
رياضت
رياضي
رياضيء
رياضيات
رياضياتي
رياضيدان
ريان
رياي
ريت
ريتن
ريتون
ريتي
ريتيء
ريج
ريجا
ريجمينٽ
ريجن
ريجنل
ريحان
ريز
ريزيڊنٽ
ريزڪي
ريس
ريسر
ريسرچ
ريسٽر
ريسٽورنٽ
ريشم
ريشمي
ريشو
ريفرنس
ريفرنڊم
ريفرينڊم
ريل
ريلوي
ريلويز
ريلي
ريليز
ريم
رين
رينج
رينجرز
ريني
ريه
ريو
ريون
ريي
ريٽ
ريٽا
ريٽاي
ريٽرننگ
ريٽنگ
ريپبلڪ
ريپبلڪن
ريپريزنٽيٽوز
ريپپلڪ
ريڊ
ريڊار
ريڊر
ريڊنگ
ريڊي
ريڊيو
ريڊيي
ريڍار
ريڙهي
ريڙهيون
ريڪارڊ
ريڪجاويڪ
ريڪشن
ريڪٽ
ريڪٽر
ريڪٽرن
ريڪٽري
ريڪٽوريٽ
ريگا
ريگستان
ريگستاني
ريڻ
ريہ
رٻڙ
رٽ
رٽاي
رٽس
رٽسٽ
رٽي
رٽيڪل
رٽيڪلز
رپ
رپار
رپرسن
رپورٽ
رپورٽر
رپورٽس
رپورٽن
رپورٽنگ
رپورٽون
رپيا
رپين
رپيو
رٿ
رٿا
رٿابندي
رٿابنديء
رٿاي
رٿر
رٿوڊڪس
رٿي
رٿيل
رٿيو
رچ
رچاء
رچاي
رچرڊ
رچنا
رچناي
رچيندڙ
رڇ
رڊ
رڊر
رڊيننس
رڌ
رڌل
رڌي
رڌڻ
رڍ
رڍن
رڍون
رڙ
رڙو
رڙي
رڙيون
رک
رکان
رکاي
رکب
رکبا
رکبو
رکجن
رکجي
رکما
رکن
رکندا
رکندو
رکندي
رکنديون
رکندڙ
رکندڙن
رکو
رکون
رکي
رکيا
رکياي
رکيل
رکيو
رکيون
رکڻ
رکڻو
رڪ
رڪارڊ
رڪارڊنگ
رڪاوٽ
رڪاوٽن
رڪاوٽون
رڪاي
رڪجي
رڪعتن
رڪعتون
رڪن
رڪنن
رڪني
رڪنيت
رڪوع
رڪي
رڪيالاجسٽ
رڪيالاجي
رڪيالاجيڪل
رڪيٽيڪٽ
رڪيٽيڪچر
رڪيپيلاگو
رڪٽڪ
رڪڊ
رڪڻ
رگ
رگناي
رگويد
رڱ
رڱڻ
رڳ
رڳن
رڳو
رڻ
رڻپٽ
رھاي
رھاڪن
رھاڪو
رھجي
رھن
رھندا
رھندو
رھندي
رھندڙ
رھنماي
رھواسي
رھواسين
رھي
رھيا
رھيل
رھيو
رھيون
رھڻ
رھڻي
رہ
رہا
رہے
رۃ
ریاست
رے
ز
زابل
زاد
زادي
زاديء
زادين
زار
زاري
زال
زالن
زالون
زان
زاهد
زاي
زاھدان
زبان
زبانن
زبانون
زباني
زبر
زبردست
زبردستي
زبور
زبون
زبيده
زبير
زحل
زخم
زخمن
زخمي
زخمين
زد
زر
زراعت
زرتشت
زرتشتي
زرخيز
زرخيزي
زرد
زرداري
زرداريء
زردشتي
زردي
زرعي
زرقاني
زري
زريعي
زرين
زرينه
زعفران
زلزلا
زلزلو
زلزلي
زلمي
زليخا
زم
زمان
زمانن
زمانو
زماني
زماي
زمايو
زمبابوي
زمرا
زمرن
زمرو
زمري
زمرہ
زمين
زميندار
زميندارن
زمينداري
زمينن
زمينون
زميني
زمین
زن
زنا
زنانو
زناني
زنجبار
زنجير
زنجيرن
زنجيرون
زند
زنداوستا
زنده
زندهه
زندگي
زندگيء
زندگين
زندھ
زندہ
زنگ
زنگي
زهد
زهر
زهرا
زهره
زهري
زهريلي
زو
زوار
زوال
زور
زوردار
زوري
زوريء
زون
زويا
زويگ
زي
زياد
زيادتي
زيادتين
زياده
زيارت
زيارتگاهه
زيان
زيب
زيبرا
زيتون
زيد
زيدي
زير
زيرو
زيشن
زيمبيا
زين
زينب
زينت
زيور
زيورن
زيوس
زيڊ
زپ
زڪ
زڪام
زڪريا
زڪوات
زھر
زھرہ
زیادہ
زیر
زیریں
س
سا
ساء
سابق
ساتھ
ساجد
ساجن
ساحر
ساحل
ساحلي
ساخت
ساخته
ساختون
سادا
سادات
ساداتن
سادن
سادو
سادي
سادگي
سادگيء
سار
سارا
ساراه
ساراهه
ساراهيو
ساراھ
سارس
سارسنڀال
سارن
سارنگ
ساره
سارو
ساري
ساريء
سارين
ساريو
ساريون
سارڪ
سارہ
ساز
سازش
سازشن
سازشي
سازن
سازي
سازيء
سازگار
ساساني
ساسانين
ساعت
سافٽ
سافٽويي
ساقي
سال
سالا
سالار
سالاري
سالم
سالميت
سالن
ساله
سالو
سالي
ساليانو
سالياني
سالٽ
سالڪ
سالڪن
سالگره
سالگرهه
سام
سامارو
سامان
سامبس
سامتاڻي
سامراج
سامراجي
سامراجيت
سامعين
سامهون
سامونڊري
سامونڊي
ساموي
سامي
ساميء
سامٽيا
سامھون
سان
سانت
سانتا
سانجھيء
سانحو
سانحي
ساند
ساندهه
سانند
سانول
سانوڻ
سانوڻي
سانوڻيء
ساني
سانيء
سانڀر
سانچا
سانچن
سانچو
سانچي
سانچہ
سانچے
سانڍي
سانڍيل
سانڍيو
سانگ
سانگهڙ
سانگي
سانگيء
سانگھڙ
ساه
ساهت
ساهتي
ساهتيء
ساهتيا
ساهتيه
ساهه
ساهوارن
ساهي
ساهيوال
ساهڙ
ساهہ
ساوا
ساون
ساوڪ
ساوڻ
ساي
سايون
ساٺ
ساٿ
ساٿي
ساٿيء
ساٿياڻيون
ساٿين
ساڃاهه
ساڄو
ساڄي
ساڌ
ساڌن
ساڌو
ساڍا
ساڍن
ساڙ
ساڙهيء
ساڙي
ساڙيو
ساڙڻ
ساک
ساکون
ساڪراي
ساڪرو
ساڪري
ساڪن
ساگان
ساگر
ساڳ
ساڳي
ساڳيء
ساڳيا
ساڳين
ساڳيو
ساڳيون
ساڻ
ساڻس
ساڻن
ساھ
ساھيوال
سب
سبب
سببان
سببن
سبجيڪٽ
سبحان
سبز
سبزل
سبزي
سبزين
سبزيون
سبط
سبق
سبقن
سبل
سبي
سبيء
سبيل
سبڪتگين
سبڻ
ست
ستابو
ستاد
ستار
ستارا
ستارن
ستاره
ستارو
ستاري
ستان
ستانه
ستانو
ستاي
ستت
ستر
سترام
سترهن
سترهين
سترھين
ستل
ستلج
ستم
ستن
سته
ستو
ستون
ستي
ستين
ستگي
سج
سجاد
سجاده
سجاول
سجاولي
سجاوٽ
سجاي
سجاڳ
سجاڳي
سجاڳيء
سجدو
سجدي
سحر
سخا
سخاوت
سخت
سختي
سختيء
سختيون
سخن
سخي
سخيراڻي
سدا
سداي
سدن
سر
سرء
سراء
سراج
سراسر
سراسري
سرانجام
سراي
سرب
سربراه
سربراهن
سربراهه
سربراهي
سربراهيء
سربراهہ
سربراھ
سربراھي
سربيا
سرتاج
سرتيون
سرجان
سرجري
سرجن
سرجيو
سرجيوو
سرحد
سرحدن
سرحدون
سرحدي
سرخ
سرخي
سرخيون
سرد
سردار
سردارن
سرداري
سردي
سرديء
سردين
سرزمين
سرس
سرسبز
سرسري
سرسوتي
سرسي
سرشار
سرشتن
سرشتو
سرشتي
سرطان
سرطاني
سرفراز
سرفهرست
سرماي
سرمايو
سرمايي
سرمد
سرمست
سرن
سرندي
سرندڙ
سرنهن
سرنھن
سرها
سرهاڻ
سرهندي
سرو
سرواڻ
سرواڻي
سرواڻيء
سرود
سرور
سروري
سروس
سروسز
سرون
سروور
سروي
سرويچ
سري
سريا
سريل
سريلنڪا
سريلي
سريندر
سريو
سرٽيفڪيٽ
سرپرست
سرپرستي
سرپرستيء
سرچ
سرچشمو
سرڪار
سرڪاري
سرڪش
سرڪشي
سرڪل
سرڪو
سرڪي
سرڪٽ
سرگذشت
سرگرم
سرگرمي
سرگرميء
سرگرمين
سرگرميون
سرگس
سرگودھا
سرگوڌا
سرگي
سرڻ
سز
سزا
سزاي
سس
سست
سستا
سستو
سستي
سسلي
سسي
سسٽم
سطح
سطحن
سطحي
سعادت
سعد
سعدالله
سعدي
سعود
سعودي
سعي
سعيد
سعيدا
سـ
ســ
سفارت
سفارتخانو
سفارتخاني
سفارتي
سفارتڪار
سفارتڪارن
سفارتڪاري
سفارتڪاريء
سفارش
سفر
سفرناما
سفرنامن
سفرنامو
سفرنامي
سفري
سفوف
سفيان
سفيد
سفير
سفيرن
سفڪ
سقراط
سل
سلا
سلاجيت
سلاست
سلام
سلامت
سلامتي
سلامتيء
سلامي
سلاميء
سلاي
سلجهاي
سلجوقي
سلجھاي
سلسلا
سلسلن
سلسله
سلسلو
سلسلي
سلسليوار
سلطان
سلطانن
سلطانه
سلطاني
سلطنت
سلطنتن
سلطنتون
سلفر
سلم
سلمان
سلمه
سلهاڙيل
سلهه
سلو
سلوار
سلور
سلون
سلوني
سلوواڪيا
سلووينيا
سلوڪ
سلي
سليس
سليم
سليمان
سليماني
سليڪان
سلڪ
سم
سما
سماء
سماج
سماجن
سماجي
سماجيات
سمارٽ
سماع
سمان
سمانن
سماني
سماي
سمايل
سماٽ
سماچار
سماڌي
سمبارا
سمجهان
سمجهاي
سمجهايو
سمجهاڻي
سمجهبو
سمجهجي
سمجهن
سمجهندا
سمجهندو
سمجهندي
سمجهه
سمجهو
سمجهون
سمجهي
سمجهيا
سمجهياي
سمجهيو
سمجهڻ
سمجھ
سمجھان
سمجھاي
سمجھاڻي
سمجھن
سمجھندا
سمجھندو
سمجھو
سمجھي
سمجھيا
سمجھيو
سمجھڻ
سمر
سمرقند
سمن
سمند
سمندر
سمنڊ
سمنڊن
سمهي
سمهڻ
سمو
سموادي
سمورا
سمورن
سمورو
سموري
سمورين
سموريون
سمون
سمي
سميت
سميجا
سميجن
سميجو
سمير
سميري
سميع
سميلن
سمپورن
سمٿ
سمھڻ
سن
سناتن
سنان
سناي
سنبت
سنت
سنتن
سنجر
سنجوگيتا
سنجي
سنجيده
سنجيدگي
سند
سندا
سندر
سندراڻي
سندرو
سندري
سندس
سندن
سندو
سندون
سندي
سنديلو
سندين
سندھ
سندھی
سنز
سنس
سنسار
سنسڪرت
سنسڪرتي
سنن
سنه
سنها
سنهالي
سنهري
سنهو
سنهي
سنهيون
سنهڙا
سنهڙو
سنهڙي
سنوار
سنواري
سنواريل
سنواريو
سنوارڻ
سنوان
سنوت
سني
سنياسي
سنيما
سنٻاليندا
سنٿالن
سنڀار
سنڀال
سنڀالي
سنڀالياي
سنڀاليندا
سنڀاليندو
سنڀاليندي
سنڀاليندڙ
سنڀاليو
سنڀاليون
سنڀالڻ
سنڊي
سنڌ
سنڌالاجي
سنڌالاجيء
سنڌسلامت
سنڌن
سنڌو
سنڌوء
سنڌوديش
سنڌولاجي
سنڌوندي
سنڌونديء
سنڌي
سنڌيء
سنڌيانا
سنڌياڻي
سنڌيت
سنڌين
سنڌيڪا
سنڌيڪار
سنڌڙي
سنڍ
سنڪيانگ
سنگ
سنگاپور
سنگت
سنگتي
سنگر
سنگرز
سنگل
سنگم
سنگمرمر
سنگهار
سنگهه
سنگهڻ
سنگيت
سنگيتڪار
سنگين
سنگھ
سنھا
سنھي
سنہ
سه
سهارو
سهاري
سهاسي
سهاي
سهاڳ
سهتا
سهتو
سهتي
سهراب
سهرو
سهروردي
سهولت
سهولتن
سهولتون
سهوليت
سهوليتون
سهي
سهيل
سهيڙيل
سهڪار
سهڪاري
سهڻا
سهڻاي
سهڻن
سهڻو
سهڻي
سهڻيون
سو
سوء
سوا
سواء
سوات
سواحلي
سواد
سوار
سوارن
سواري
سواريء
سوال
سوالن
سوامي
سوانح
سوانحي
سواي
سوجهرو
سود
سودا
سوداگر
سودو
سودي
سور
سوراخ
سوراخن
سوراشٽر
سورة
سورت
سورتن
سورتون
سورج
سورس
سورلي
سورما
سورمو
سورمي
سورن
سورنهن
سوره
سورهن
سورهين
سورهيه
سوري
سوريء
سوريا
سوريه
سورٺ
سورٺي
سورھن
سورھين
سورہ
سورۃ
سوز
سوزش
سوس
سوساي
سوسيي
سوشل
سوشلزم
سوشلسٽ
سوشيالاجي
سوغات
سوفسطاي
سول
سولا
سولاي
سولر
سولنڪي
سولنگي
سولنگيء
سولو
سولومن
سولي
سوليماني
سوم
سومار
سومر
سومرا
سومرن
سومره
سومرو
سومري
سومقاييت
سومل
سومناٿ
سون
سونا
سونارا
سونهري
سونهن
سونو
سوني
سونيا
سونپي
سونپيو
سونھري
سونھن
سوويت
سوي
سويت
سوير
سويلين
سوين
سويوز
سويڊش
سويڊن
سوٽ
سوٽي
سوڀ
سوڀارو
سوڀاري
سوڀراج
سوڀو
سوڀي
سوڄ
سوچ
سوچن
سوچون
سوچي
سوچيو
سوچڻ
سوڊان
سوڌو
سوڌي
سوڍا
سوڍن
سوڍو
سوڍي
سوڙهو
سوڙهي
سوکڙي
سوکڙيون
سوڳ
سوڻ
سي
سيء
سياح
سياحت
سياحتي
سياحن
سيارا
سيارن
سيارو
سياري
سياست
سياستدان
سياستدانن
سياسي
سياسيات
سيال
سيالڪوٽ
سياچن
سياڻو
سياڻپ
سيتا
سيج
سيخ
سيخن
سيد
سيدا
سيدن
سيدنا
سيده
سيدي
سيدہ
سير
سيراب
سيرت
سيرس
سيرن
سيرو
سيري
سيريز
سيريل
سيزر
سيزن
سيستان
سيسم
سيسي
سيسيء
سيشن
سيف
سيل
سيلاب
سيلاني
سيلاي
سيلر
سيلرا
سيلز
سيلف
سيلون
سيم
سيما
سيمسن
سيمن
سيمنٽ
سيمي
سيمينار
سيمينارن
سيمينٽ
سين
سينا
سينو
سيني
سينيما
سينيي
سينيٽ
سينيٽر
سينيگال
سينٽ
سينٽر
سينٽرل
سينٽي
سينٽيميٽر
سينچوري
سينڊروم
سينگار
سينگاري
سينگاريل
سينگاريو
سينگارڻ
سيه
سيهرس
سيو
سيوا
سيوستان
سيون
سيوهاڻي
سيوهاڻيء
سيوهڻ
سيوي
سيويء
سيوڪ
سيوھڻ
سيي
سيٺ
سيٺارجا
سيٽ
سيٽلاي
سيٽلمينٽ
سيٽن
سيٽون
سيپٽمبر
سيڊنا
سيڙپ
سيڙپڪار
سيڙپڪاري
سيکاري
سيکاريندا
سيکاريو
سيکارڻ
سيکاٽ
سيکت
سيڪريٽري
سيڪريٽريء
سيڪريٽريٽ
سيڪس
سيڪسنس
سيڪشن
سيڪنڊ
سيڪنڊري
سيڪنڊن
سيڪيورٽي
سيڪيولر
سيڪيون
سيڪٽر
سيڪڙو
سيڪڙي
سيڻ
سيھڙ
سٺ
سٺا
سٺن
سٺو
سٺي
سٺيون
سٽ
سٽا
سٽاء
سٽاي
سٽرالوپٿيڪس
سٽرو
سٽريا
سٽرياي
سٽريلوي
سٽريليا
سٽريلياي
سٽريلين
سٽن
سٽو
سٽون
سٽي
سٽيل
سپ
سپاس
سپاهي
سپاهين
سپاھي
سپاھين
سپت
سپر
سپرد
سپرنووا
سپرنٽينڊنٽ
سپرواي
سپريم
سپلاء
سپنا
سپه
سپهه
سپوت
سپورٽ
سپين
سپڙ
سپھ
سٿ
سٿين
سڀ
سڀا
سڀاء
سڀاويڪ
سڀاڻي
سڀن
سڀني
سڀي
سڀيتا
سڀيي
سڀڪو
سڃ
سڃاتا
سڃاتل
سڃاتو
سڃاتي
سڃاڻ
سڃاڻي
سڃاڻپ
سڃاڻڻ
سڄا
سڄاڻ
سڄو
سڄي
سڄيء
سڄڻ
سچ
سچا
سچار
سچاي
سچل
سچن
سچو
سچي
سڊني
سڌ
سڌا
سڌار
سڌارا
سڌارن
سڌارو
سڌاري
سڌارڪ
سڌارڻ
سڌريل
سڌن
سڌو
سڌوسني
سڌي
سڌيء
سڌين
سڌيون
سڏ
سڏاي
سڏايل
سڏايو
سڏبا
سڏبو
سڏبي
سڏجن
سڏجندڙ
سڏجي
سڏجڻ
سڏراي
سڏي
سڏيا
سڏياي
سڏين
سڏيندا
سڏيندو
سڏيندي
سڏيو
سڏڻ
سڙهه
سڙي
سڙيل
سڙڪ
سک
سکتا
سکتے
سکر
سکمي
سکن
سکي
سکيا
سکياي
سکيو
سکڻ
سڪ
سڪا
سڪار
سڪاي
سڪايل
سڪر
سڪرنڊ
سڪل
سڪن
سڪندر
سڪندراعظم
سڪندري
سڪو
سڪون
سڪونت
سڪي
سڪيورٽي
سڪڻ
سگا
سگريٽ
سگريٽن
سگنل
سگهارو
سگهاري
سگهان
سگهبو
سگهجن
سگهجي
سگهن
سگهندا
سگهندو
سگهندي
سگهنديون
سگهه
سگهو
سگهون
سگهوي
سگهي
سگهيا
سگهيس
سگهيو
سگهيون
سگهڙ
سگهڙن
سگهڻ
سگھ
سگھبو
سگھجن
سگھجي
سگھن
سگھندا
سگھندو
سگھندي
سگھه
سگھو
سگھون
سگھي
سگھيا
سگھيو
سگھڙ
سڱ
سڱن
سڱي
سڳا
سڳن
سڳنڌ
سڳو
سڳورا
سڳورن
سڳوري
سڳي
سڻ
سڻاي
سڻي
سڻيء
سڻڀ
سھارس
سھارو
سھتو
سھراب
سھروردي
سھولت
سھولتن
سھولتون
سھي
سھيل
سھڪار
سھڻا
سھڻو
سھڻي
سی
سید
سے
ش
شا
شاخ
شاخن
شاخون
شاد
شاداب
شادمان
شادي
شاديء
شادين
شاديون
شارجه
شارح
شاردا
شارل
شارٽ
شارڪ
شازيه
شاستر
شاستري
شاعر
شاعرا
شاعراڻو
شاعراڻي
شاعرن
شاعره
شاعري
شاعريء
شافعي
شال
شالا
شاليمار
شام
شامل
شامي
شان
شانتا
شانتي
شاندار
شاه
شاهاڻي
شاهبندر
شاهجهان
شاهجهاني
شاهد
شاهدي
شاهديون
شاهراهه
شاهراھ
شاهنواز
شاهه
شاهوڪار
شاهي
شاهين
شاهپور
شاهڪار
شاهہ
شاي
شايد
شايع
شاٽ
شاپنگ
شاڪر
شاگرد
شاگردن
شاگردي
شاگرديء
شاگردياڻي
شاھ
شاھجھان
شاھد
شاھراھ
شاھل
شاھنواز
شاھه
شاھي
شاھپور
شاھڪار
شاھہ
شاہ
شب
شبد
شبلي
شبنم
شبير
شبيهه
شتمل
شجاع
شجاعت
شجرة
شجره
شجرو
شجري
شخص
شخصن
شخصي
شخصيت
شخصيتن
شخصيتون
شد
شدت
شده
شديد
شدہ
شر
شراب
شراڪت
شربت
شرح
شرر
شرط
شرطن
شرطون
شرعي
شرف
شرقی
شرم
شرما
شرناء
شروان
شروانشاھي
شروع
شروعات
شروعاتي
شري
شريان
شريعت
شريف
شريفين
شريمتي
شريڪ
شرڪ
شرڪت
شریف
شعار
شعاع
شعاعن
شعاي
شعب
شعبا
شعبان
شعبن
شعبو
شعبي
شعر
شعراء
شعرن
شعري
شعلا
شعلن
شعلو
شعور
شعوري
شعيب
شغل
شفا
شفاف
شفق
شفقت
شفيع
شفيق
شفٽ
شق
شل
شلوار
شمار
شمارا
شمارو
شماري
شماريء
شماريات
شمارياتي
شمالي
شمالی
شمر
شمس
شمسي
شمشاد
شمشير
شمشيرا
شمشيرالحيدري
شمع
شمعون
شمل
شملا
شمن
شموليت
شن
شنا
شناخت
شناختي
شناس
شناسي
شناسيء
شنل
شنڪر
شنگھاي
شه
شهاب
شهادت
شهاڻي
شهباز
شهداد
شهدادپور
شهدادڪوٽ
شهر
شهرت
شهرستان
شهرن
شهري
شهريار
شهريت
شهرين
شهزادن
شهزادو
شهزادي
شهزاديء
شهنشاه
شهنشاهت
شهنشاهه
شهه
شهيد
شهيدن
شو
شوال
شوبز
شودر
شور
شورا
شورو
شوري
شوز
شوق
شوقين
شون
شوي
شوڪت
شي
شيء
شيام
شيبان
شيخ
شيخن
شيخوپوره
شيداي
شيدي
شير
شيراز
شيرازي
شيرازيء
شيرين
شيشو
شيشي
شيطان
شيطاني
شيعا
شيعن
شيعه
شيعہ
شيل
شيلا
شيلڊ
شين
شينهن
شينھن
شيو
شيوا
شيوارام
شيون
شيي
شيٽ
شيڊول
شيکلي
شيڪسپيي
شپ
شپنگ
شڌ
شڌي
شکار
شڪ
شڪار
شڪاري
شڪارين
شڪارپور
شڪارپوري
شڪارگاھ
شڪايت
شڪايتون
شڪاگو
شڪتي
شڪر
شڪرالله
شڪست
شڪستون
شڪل
شڪلبندي
شڪلن
شڪلين
شڪليون
شڪن
شڪنتلا
شڪوه
شڪي
شڪيل
شگاهه
شگر
شڳر
شھاب
شھابا
شھابن
شھابو
شھابي
شھادت
شھباز
شھتيرن
شھداد
شھدادپور
شھدادڪوٽ
شھر
شھرت
شھرستان
شھرن
شھري
شھريار
شھريت
شھرين
شھزادو
شھزادي
شھنشاھ
شھنشاھيت
شھيد
شھيدن
شہ
شہر
شیخ
شیخوپورہ
شیر
شیعہ
ص
صابر
صابڻ
صاحب
صاحبان
صاحبزادو
صاحبزادي
صاحبن
صاحبه
صاحبي
صاحبيء
صاحبہ
صادر
صادق
صارف
صارفن
صارفين
صارفین
صاف
صالح
صاي
صبح
صبر
صبغت
صحابه
صحابي
صحابين
صحارا
صحافت
صحافتي
صحافي
صحافيء
صحافين
صحبت
صحت
صحتمند
صحتياب
صحرا
صحراي
صحي
صحيح
صحيحون
صحيون
صد
صدا
صدارت
صدارتي
صداقت
صداڪار
صدر
صدرالدين
صدرمقام
صدف
صدقو
صدقي
صدمو
صدمي
صدي
صديء
صديق
صديقي
صديقيء
صدين
صديون
صدی
صرف
صغير
صف
صفا
صفات
صفاري
صفاي
صفايو
صفت
صفتن
صفتون
صفحا
صفحات
صفحن
صفحه
صفحو
صفحي
صفحہ
صفحے
صفدر
صفر
صفرا
صفراوي
صفن
صفه
صفوي
صفي
صفيه
صلاح
صلاحون
صلاحيت
صلاحيتن
صلاحيتون
صلاحڪار
صلح
صلعم
صلى
صلي
صليب
صليبي
صلی
صندل
صندوق
صنعان
صنعت
صنعتن
صنعتون
صنعتي
صنعتڪاري
صنف
صنفن
صنفون
صنفي
صنم
صه
صوابي
صوبا
صوباي
صوبدار
صوبن
صوبو
صوبي
صوبيدار
صوبيداري
صوتي
صوتيو
صورت
صورتحال
صورتخطي
صورتخطيء
صورتن
صورتون
صوف
صوفي
صوفيء
صوفيا
صوفياء
صوفيانه
صوفياڻي
صوفين
صول
صومالي
صوماليا
صوماليه
صيحت
صہ
ض
ضابطا
ضابطن
ضابطو
ضابطي
ضامن
ضايع
ضبط
ضخيم
ضد
ضرب
ضرور
ضرورت
ضرورتن
ضرورتون
ضروري
ضعف
ضعيف
ضلع
ضلعا
ضلعن
ضلعو
ضلعي
ضم
ضماء
ضمانت
ضمني
ضمير
ضيا
ضياء
ضياءين
ط
طابق
طارق
طاري
طاس
طاقت
طاقتن
طاقتور
طاقتون
طالب
طالبان
طالبانن
طالبن
طاهر
طاهري
طاي
طاھر
طب
طباعت
طبري
طبع
طبعزاد
طبعي
طبعيات
طبعيت
طبقا
طبقات
طبقاتي
طبقن
طبقو
طبقي
طبلو
طبي
طبيب
طبيبن
طبيعت
طبيعيات
طرح
طرحين
طرز
طرزيات
طرف
طرفا
طرفان
طرفدار
طرفن
طرفو
طرفي
طرفين
طريقا
طريقت
طريقن
طريقو
طريقي
طريقيڪار
طريل
طعام
طفيل
طلاق
طلب
طنز
طهر
طو
طواف
طواي
طور
طورتي
طوس
طوطو
طوطي
طوفان
طوفاني
طول
طويل
طوھر
طي
طيب
ظ
ظالم
ظاهر
ظاهري
ظاھر
ظاھري
ظرف
ظفر
ظلم
ظلمن
ظهور
ظهير
ظھور
ع
عا
عابد
عابده
عاج
عاجز
عادت
عادتن
عادل
عادي
عارب
عارضي
عارف
عاشق
عاشقن
عاصم
عافيت
عاقل
عال
عالم
عالمانه
عالماڻي
عالمن
عالمي
عالمگير
عالمگيري
عالي
عاليشان
عام
عامر
عامل
عامه
عاي
عباد
عبادت
عبادتن
عبادتگاهن
عبادتگاهه
عبارت
عباس
عباسي
عباسيء
عباسين
عباسيه
عبد
عبدالباقي
عبدالجبار
عبدالجليل
عبدالحسين
عبدالحفيظ
عبدالحق
عبدالحليم
عبدالحميد
عبدالحي
عبدالحڪيم
عبدالخالق
عبدالرحم
عبدالرحمان
عبدالرحيم
عبدالرزاق
عبدالرسول
عبدالرشيد
عبدالستار
عبدالسلام
عبدالطيف
عبدالعزيز
عبدالعلي
عبدالغفار
عبدالغفور
عبدالغني
عبدالقادر
عبدالقيوم
عبداللطيف
عبدالله
عبداللہ
عبدالماجد
عبدالمجيد
عبدالمطلب
عبدالملڪ
عبدالناصر
عبدالنبي
عبدالنبيء
عبدالهادي
عبدالواحد
عبدالوحيد
عبدالوهاب
عبدالوھاب
عبدالڪريم
عبراني
عبرت
عبور
عبوري
عبيد
عبيدالله
عتاب
عتيق
عثمان
عثماني
عثمانين
عثمانيه
عجاي
عجب
عجم
عجيب
عدالت
عدالتن
عدالتون
عدالتي
عدد
عددن
عددي
عدل
عدليه
عدم
عدن
عدنان
عدي
عذاب
عذر
عراق
عراقي
عرب
عربستان
عربن
عربي
عربيء
عربيه
عربی
عرس
عرساڻي
عرساڻيء
عرش
عرصو
عرصي
عرض
عرضداشت
عرضي
عرف
عرفات
عرفان
عرق
عروج
عروض
عروضي
عزاداري
عزت
عزم
عزير
عزيز
عزيزالله
عزيزن
عزيزي
عزيمت
عسڪري
عشرت
عشق
عشقي
عشقيه
عصر
عصمت
عضوا
عضون
عضوو
عضوي
عطا
عطاء
عطار
عطارد
عطر
عطيلا
عطيو
عظمت
عظمي
عظيم
عظیم
عـ
عفان
عقاب
عقاي
عقبه
عقل
عقلمند
عقلي
عقيدا
عقيدت
عقيدتمند
عقيدتمندن
عقيدن
عقيدو
عقيدي
عقيق
عقيل
عقيلي
علاء
علاج
علاقاي
علاقو
علامات
علامت
علامتن
علامتون
علامتي
علامه
علامہ
علاو
علاوالدين
علاوه
علاوھ
علاوہ
علاي
علت
علحده
علحدگي
علم
علماء
علمبردار
علمن
علمي
علميات
علميت
علوم
علوي
علي
عليء
عليحده
عليحدگي
عليشا
عليم
عليه
عليي
علييف
عليگ
عليہ
علڻ
علی
علیہ
عماد
عمار
عمارت
عمارتن
عمارتون
عمارتي
عمان
عمدا
عمدو
عمدي
عمديء
عمر
عمران
عمراڻي
عمرو
عمري
عمرڪوٽ
عمل
عملدار
عملدارن
عملداري
عملدرا
عملن
عملو
عملي
عمليء
عمليون
عمودي
عموما
عمومي
عمير
عميق
عن
عنات
عناصر
عنايت
عنبر
عنبسه
عنصر
عنصرن
عنه
عنوان
عنوانن
عه
عهد
عهدا
عهدن
عهدنامه
عهدنامو
عهدنامي
عهدو
عهدي
عهديدار
عهديدارن
عوام
عوامي
عورت
عورتاڻي
عورتن
عورتون
عوف
عيال
عيب
عيد
عيدن
عيدي
عيدگاهه
عيدگاھ
عيسا
عيساي
عيساڻي
عيسوي
عيسويء
عيسى
عيسي
عيش
عين
عينيه
عيوض
عيوضي
عڪاسي
عڪس
عڪسلون
عڪسن
عھد
عھدا
عھدن
عھدنامي
عھدو
عھدي
عہد
عیسی
غ
غا
غار
غارن
غارون
غاز
غازي
غازی
غافل
غالب
غالبا
غاليچا
غاي
غدار
غداري
غدر
غدود
غدودن
غذا
غذاي
غربت
غربی
غرض
غرق
غرور
غريب
غريبن
غزالي
غزل
غزلن
غزنوي
غزنويء
غزني
غزنيء
غزوه
غزوہ
غسان
غسل
غصي
غضنفر
غفار
غفاري
غفلت
غلاف
غلام
غلامن
غلامي
غلاميء
غلبو
غلبي
غلط
غلطي
غلطيء
غلطين
غلطيون
غليظ
غم
غمگين
غني
غنيمت
غوث
غور
غوري
غياث
غيب
غيبي
غير
غيرا
غيرت
غيرجانبدار
غيرسرڪاري
غيرقانوني
غيرمعروف
غيرمعمولي
غيرملڪي
غیر
ـ
ـر
ــ
ـــ
ـل
ـن
ـو
ـي
ف
فا
فاتح
فاتحن
فاتحه
فادر
فار
فارس
فارسي
فارسيء
فارسی
فارغ
فارم
فارمن
فارمولا
فارمولو
فارميٽ
فاروق
فاروقي
فارين
فاسفورس
فاسفيٽ
فاسق
فاسو
فاسٽ
فاصلا
فاصلو
فاصلي
فاضل
فاضلن
فاطمه
فاطمي
فاطمہ
فاعل
فاق
فاقي
فال
فالتو
فالج
فالـج
فان
فاني
فانٽ
فاي
فاٽا
فبروري
فت
فتاب
فتاوي
فتح
فتحن
فتحون
فتن
فتني
فتوا
فتواي
فتوح
فتوحات
فتوي
فجر
فجي
فحش
فخر
فخرالدين
فدا
فرات
فرار
فراق
فرانز
فرانس
فرانسس
فرانسسڪو
فرانسي
فرانسيسي
فراهم
فراهمي
فراي
فراھم
فرحان
فرحت
فرخ
فرد
فردن
فردوس
فردوسي
فردوسيء
فرزانه
فرزند
فرزندن
فرسٽ
فرش
فرشبندي
فرشتن
فرشته
فرشتو
فرشتي
فرشن
فرض
فرضن
فرضي
فرعون
فرق
فرقا
فرقن
فرقو
فرقي
فرقيواريت
فرم
فرمان
فرمانبردار
فرمانبرداري
فرمانروا
فرماي
فرماياي
فرمايو
فرنيچر
فرنٽ
فرنٽيي
فرنچاي
فرنگي
فرهنگ
فروخت
فروش
فروشي
فروغ
فري
فرياد
فريال
فريب
فريد
فريدا
فريدون
فريدي
فريسڪو
فريقا
فريقي
فريلانس
فريلانسرز
فريم
فرينچ
فرينڪ
فرينڪلن
فريي
فريڊرڪ
فريڊم
فريڪا
فريڪن
فريڪوي
فريڪي
فرھنگ
فزيڪل
فزڪس
فس
فسا
فساد
فسادن
فش
فشان
فشريز
فصاحت
فصل
فصلن
فصيح
فضا
فضاي
فضل
فضلي
فضول
فضيلت
فطرت
فطرتي
فطري
فعال
فعاليت
فعل
فقدان
فقر
فقرن
فقرو
فقري
فقط
فقه
فقهه
فقهي
فقير
فقيرن
فقيري
فقيه
فقيھن
فقہ
فل
فلاء
فلابرٽ
فلاح
فلاحي
فلاسافر
فلاسافي
فلاسافيء
فلاي
فلاپي
فلاڻو
فلاڻي
فلحال
فلس
فلسطين
فلسطيني
فلسفو
فلسفي
فلسفياڻي
فلسفين
فلم
فلمساز
فلمن
فلمون
فلموگرافي
فلمي
فلو
فلور
فلوريڊا
فلوٽيلا
فليمش
فليگ
فلپ
فلپاي
فلڪي
فلڪيات
فلڪياتي
فن
فنا
فنانس
فندي
فنديء
فنلينڊ
فنن
فنون
فني
فنڊ
فنڪار
فنڪارن
فنڪشن
فنڪشنل
فهرست
فهرستون
فهم
فهمي
فهميده
فهيم
فو
فوبس
فوبوس
فوت
فوتگيون
فوج
فوجداري
فوجن
فوجون
فوجي
فوجين
فور
فورا
فوربز
فورس
فورسز
فورم
فورن
فوري
فورٽ
فورڊ
فوزيه
فوقيت
فولاد
فون
فونٽ
فونٽس
فوٽ
فوٽان
فوٽن
فوٽو
فوڊ
في
فياض
فيبروري
فيبروريء
فيروز
فيز
فيس
فيسر
فيسرن
فيسن
فيسون
فيسٽيول
فيشل
فيشن
فيصد
فيصل
فيصلا
فيصلن
فيصلو
فيصلي
فيض
فيضياب
فيطانوي
فيلسوف
فيلو
فيلوشپ
فيلڊ
فيلڊس
فيلڪس
فيم
فيملي
فيميل
فيمينزم
فيمينسٽ
فين
فينڪس
فيوزن
فيي
فيٽش
فيچر
فيڊ
فيڊرل
فيڊريشن
فيڪلٽي
فيڪٽري
فيڪٽرين
فيڪٽريون
فيڪٽس
فيڪٽو
فٽ
فٽبال
فٽن
فڪ
فڪر
فڪري
فڪشن
فگار
فھرست
فہرست
فی
فیصلہ
ق
قا
قابض
قابل
قابلي
قابليت
قابو
قاتل
قاتلاڻي
قاتلن
قادر
قادربخش
قادري
قادريء
قادريه
قادن
قاري
قازقستان
قاسم
قاسمي
قاصد
قاصر
قاضن
قاضي
قاضيء
قاضين
قاعدا
قاعدن
قاعدو
قاعدي
قاف
قافلا
قافلن
قافلو
قافلي
قافين
قافيه
قافيو
قافيي
قافيہ
قال
قالب
قالين
قانع
قانون
قانوندان
قانونساز
قانونسازي
قانونن
قانوني
قاهره
قاي
قاچار
قاھرہ
قبا
قباد
قباي
قباچه
قباچي
قبر
قبرستان
قبرص
قبرن
قبرون
قبض
قبضن
قبضو
قبضي
قبل
قبلا
قبلاي
قبله
قبلو
قبلي
قبن
قبو
قبول
قبولي
قبوليت
قبوليو
قبي
قبيلا
قبيلاي
قبيلن
قبيلو
قبيلي
قتال
قتل
قتلام
قجر
قد
قدامت
قدر
قدرت
قدرتي
قدردان
قدرداني
قدرن
قدري
قدس
قدم
قدمن
قدمي
قدوسي
قديم
قديمه
قديمي
قديمہ
قدیم
قذافي
قرا
قرابتي
قرار
قرارداد
قراقرم
قران
قرب
قربان
قرباني
قربانيء
قربت
قرة
قرض
قرضن
قرضي
قرون
قريب
قريبن
قريبي
قريش
قريشي
قريشيء
قريظه
قزاخستان
قزاقستان
قزلباش
قزوين
قسط
قسطلاني
قسطن
قسطنطنيه
قسم
قسمت
قسمن
قسمون
قسمين
قصا
قصاص
قصبا
قصبو
قصبہ
قصر
قصن
قصه
قصو
قصور
قصوري
قصي
قصيدا
قصيده
قصيدو
قصيدي
قضا
قطار
قطارن
قطارون
قطب
قطبي
قطر
قطريا
قطع
قطعا
قطعو
قطعي
قفقاز
قلات
قلب
قلبي
قلعا
قلعن
قلعه
قلعو
قلعي
قلعہ
قلم
قلمبند
قلمدان
قلمن
قلمي
قلندر
قلندرز
قلندري
قلي
قليچ
قم
قمبر
قمبراڻي
قمر
قمري
قميص
قن
قنبر
قندابيل
قنوج
قنڌار
قنڌاري
قو
قوال
قوالي
قوت
قوتن
قوتون
قوس
قول
قولنج
قوم
قومن
قومون
قومي
قوميت
قوميتن
قومپرست
قومپرستن
قومپرستي
قومپرستيء
قونصل
قوي
قي
قيادت
قياس
قيام
قيامت
قيد
قيدخاني
قيدي
قيدين
قيس
قيصر
قيمت
قيمتن
قيمتون
قيمتي
قيوم
ك
ل
لا
لاء
لات
لاتعداد
لاثاني
لاجواب
لارنس
لاروا
لاري
لارڊ
لازم
لازمي
لازوال
لاس
لاسي
لاش
لاشاري
لاشاريء
لاشارين
لاشعور
لاشن
لاطيني
لافاني
لال
لالا
لاله
لالو
لالواڻي
لالچ
لالچند
لام
لامحدود
لامڪان
لان
لانس
لانچ
لانچر
لانڍي
لانڍين
لانگ
لانگاھ
لانگيٽيوڊ
لاه
لاهري
لاهن
لاهه
لاهوت
لاهوتي
لاهور
لاهوري
لاهي
لاهين
لاهيندا
لاهيندو
لاهيندي
لاهڻ
لاوا
لاي
لاٽ
لاپ
لاٿ
لاٿو
لاڀ
لاڀاي
لاچار
لاڏ
لاڏا
لاڏاي
لاڏاڻو
لاڏاڻي
لاڏو
لاڏي
لاڏيء
لاڙ
لاڙا
لاڙن
لاڙو
لاڙي
لاڙڪ
لاڙڪاڻو
لاڙڪاڻي
لاک
لاکا
لاکاٽ
لاکو
لاکي
لاکير
لاکين
لاڪ
لاگ
لاگس
لاڳاتار
لاڳاپا
لاڳاپن
لاڳاپو
لاڳاپي
لاڳاپيل
لاڳت
لاڳتن
لاڳو
لاڳيتا
لاڳيتو
لاڳيتي
لاڻي
لاھور
لاھوري
لاھي
لاھڻ
لاہور
لب
لباس
لبرل
لبريشن
لبم
لبنان
لبناني
لبه
لبيا
لت
لتا
لتاڙي
لحاظ
لد
لداخ
لداس
لذت
لذيذ
لر
لرننگ
لري
لريء
لز
لزبن
لس
لسان
لساني
لسانيات
لسانياتي
لسو
لسي
لسيء
لسٻيلو
لسٻيلي
لسٽ
لشم
لشيم
لشڪر
لشڪرن
لشڪري
لطف
لطيف
لطيفا
لطيفه
لطيفي
لطيفيات
لعل
لعلچند
لعنت
لغات
لغاري
لغاريء
لغارين
لغت
لغتن
لغوي
لف
لفظ
لفظن
لفظي
لفٽ
لقاء
لقب
لقبن
لقمان
لقوي
لم
لمحن
لميٽيڊ
لميٽڊ
لن
لند
لندي
لنڊ
لنڊن
لنڊي
لنڪ
لنڪا
لنڪس
لنڪن
لنڪيش
لنگ
لنگر
لنگهاي
لنگهه
لنگهي
لنگهيو
لنگي
لنگھ
لنگھي
له
لهجا
لهجن
لهجو
لهجي
لهر
لهراي
لهرن
لهرون
لهري
لهن
لهندا
لهندو
لهندي
لهندڙ
لهه
لهو
لهي
لهڻ
لهڻو
لو
لودگي
لودھراں
لوط
لولاي
لولي
لومڙ
لون
لونگ
لونگي
لوه
لوهار
لوهاڻا
لوهاڻو
لوهر
لوهه
لوهي
لوي
لوٽا
لوڊ
لوڌران
لوڌي
لوڏي
لوڙهن
لوڙهي
لوڙھ
لوڪ
لوڪل
لوڪلبورڊ
لوڪن
لوگ
لوگو
لوڻ
لوڻياٺي
لوھ
لوھار
لوھھ
لي
ليء
ليا
لياري
لياقت
ليب
ليبارٽري
ليبر
ليبيا
ليتي
ليتيء
ليث
ليجسليٽو
ليجنڊ
ليديا
ليز
ليزر
ليس
ليف
ليفورنيا
ليفٽيننٽ
ليل
ليلا
ليلارام
ليلي
ليمون
ليمي
لين
لينج
لينس
لينن
لينڊ
لينڊر
لينڊز
لينڊڪ
لينڪس
لينگويج
لينگي
ليو
ليور
ليول
ليون
ليي
ليٽ
ليٽر
ليٽويا
ليٽوياي
ليپ
ليٿو
ليڊر
ليڊرن
ليڊي
ليک
ليکبو
ليکبي
ليکجن
ليکجي
ليکراج
ليکن
ليکي
ليکيا
ليکيو
ليکڪ
ليکڪا
ليکڪاي
ليکڪن
ليڪ
ليڪا
ليڪس
ليڪن
ليڪون
ليڪچر
ليڪچرار
ليڪچرر
ليگ
ليگي
لٺ
لٽ
لٽجي
لٽر
لٽرري
لٽريچر
لٽي
لٽيو
لپري
لپور
لپي
لپيء
لٿا
لٿل
لٿو
لٿوينيا
لٿوينياي
لٿي
لڀ
لچڪ
لچڪدار
لڇمڻ
لڇڻ
لڊ
لڌا
لڌل
لڌو
لڌي
لڌيون
لڌڙو
لڏ
لڏي
لڏپلاڻ
لڏڻ
لڙاي
لڙاين
لڙايون
لڙي
لڙڪ
لڙڪي
لک
لکان
لکاي
لکبو
لکت
لکتن
لکتون
لکجي
لکجڻ
لکراي
لکمير
لکن
لکندا
لکندو
لکندي
لکندڙ
لکندڙن
لکنو
لکني
لکو
لکي
لکيا
لکياي
لکيت
لکيل
لکين
لکيو
لکيون
لکٽيا
لکپت
لکپڙهه
لکڻ
لکڻي
لکڻيء
لکڻين
لکڻيون
لکھ
لکھا
لڪ
لڪاي
لڪايو
لڪسمبرگ
لڪشمي
لڪل
لڪن
لڪو
لڪي
لڪيء
لڪياري
لڪير
لڪيرن
لڪيل
لڪٽنسٽاي
لڪڻ
لگي
لڳ
لڳا
لڳاء
لڳاتار
لڳاي
لڳايا
لڳايل
لڳايو
لڳايون
لڳس
لڳل
لڳن
لڳندا
لڳندو
لڳندي
لڳنديون
لڳندڙ
لڳو
لڳولڳ
لڳي
لڳيون
لڳڀڳ
لڳڻ
لڻ
لھ
لھجا
لھجو
لھجي
لھر
لھرن
لھرون
لھندا
لھي
لھڻ
لہ
لیا
لیکن
لیگ
لیں
لیہ
لیے
لے
م
ما
ماء
مابعد
مات
ماتا
ماتحت
ماتحتي
ماتر
ماتراي
ماتلي
ماتم
ماتمي
ماجد
ماجسٽريٽ
ماجھي
ماحول
ماحوليات
ماحولياتي
ماخذ
ماخذن
ماد
مادا
مادر
مادري
مادن
ماده
مادو
مادي
ماديء
ماديت
مار
ماراي
مارايو
ماربل
مارجي
مارشل
مارشلا
مارننگ
مارو
مارواڙ
مارواڙي
ماروي
ماري
ماريا
ماريندا
ماريندو
ماريندڙ
ماريه
ماريو
مارٽن
مارچ
مارڪ
مارڪس
مارڪسزم
مارڪسي
مارڪو
مارڪيٽ
مارڪيٽنگ
مارگريٽ
مارڻ
ماس
ماسا
ماسات
ماستر
ماستري
ماسن
ماسي
ماسٽر
ماسٽرز
ماسٽرس
ماسڪو
ماضي
ماضيء
مال
مالا
مالامال
مالاڪنڊ
مالدار
مالدووا
مالديپ
مالش
مالها
مالهي
مالوا
مالوند
مالي
ماليات
مالياتي
ماليت
ماليخوليا
ماليڪيول
ماليڪيولن
مالٽا
مالڪ
مالڪن
مالڪي
مام
ماما
مامتورا
مامرن
مامري
مامو
مامور
مامون
مامي
مان
مانجهند
مانجھند
مانس
مانسهره
ماني
مانيء
مانيٽر
مانچسٽر
مانگر
مانگهه
ماه
ماهتاب
ماهر
ماهرن
ماهه
ماهوار
ماهي
ماي
مايا
مايو
مايوس
مايوسي
مايون
مايي
ماٹھن
ماٹھو
ماٺ
ماپ
ماپا
ماپن
ماپو
ماپي
ماپڻ
ماٿر
ماٿري
ماٿريء
ماٿرين
ماٿيلو
ماٿيلي
ماڃر
ماچيس
ماڇي
ماڇين
ماڊرن
ماڊل
ماڊيول
ماڑی
ماڙ
ماڙي
ماڙيون
ماکي
ماکيء
ماڪ
ماڪڙ
ماڱر
ماڳ
ماڳن
ماڻ
ماڻهن
ماڻهو
ماڻهوء
ماڻهون
ماڻي
ماڻيا
ماڻياي
ماڻيندڙ
ماڻيو
ماڻيون
ماڻڪ
ماڻڪاڻي
ماڻڪي
ماڻڪٽارو
ماڻڪٽاري
ماڻڻ
ماڻھن
ماڻھو
ماڻھوء
ماڻھون
ماھر
ماھرن
ماھرين
ماھوار
ماھي
ماھيگيري
مباحثا
مباحثو
مباحثي
مبارک
مبارڪ
مبارڪون
مبتلا
مبر
مبرج
مبرڪ
مبصر
مبلغ
مبني
مبين
مبينا
مت
متا
متاثر
متاثرن
متارا
متارو
متاع
متان
متبادل
متحد
متحدا
متحده
متحدہ
متحرڪ
متر
مترادف
مترجم
متروڪ
متضاد
متعارف
متعدد
متعدي
متعلق
متعلقہ
متعين
متفرق
متفق
متقي
متلاشي
متن
متناسب
متو
متوازن
متوازي
متوجهه
متوفي
متوقع
متولي
متوليء
متوڪل
متي
متڀيد
مثال
مثالن
مثالي
مثاني
مثبت
مثقال
مثل
مثلا
مثنوي
مثنويء
مثنويون
مجاز
مجازي
مجاهد
مجاهدن
مجاهدين
مجاور
مجاھد
مجاھدن
مجبور
مجبوري
مجتبي
مجدد
مجددي
مجذوب
مجرب
مجرد
مجرم
مجرماڻي
مجروح
مجسم
مجسما
مجسمو
مجسمي
مجلس
مجلسن
مجلسون
مجمدار
مجمع
مجموعا
مجموعة
مجموعن
مجموعو
مجموعي
مجنون
مجيب
مجيد
مجيدي
مجیب
محاذ
محارف
محاصرو
محاصري
محافظ
محال
محاورا
محاورو
محاوري
محب
محبت
محبتي
محبوب
محبوبا
محتاج
محتاط
محترم
محترمه
محدث
محدود
محراب
محرابپور
محرم
محروم
محرڪ
محزون
محسن
محسوس
محصول
محصولن
محض
محفل
محفلن
محفلون
محفوظ
محقق
محققن
محل
محلا
محلات
محلن
محله
محلو
محلي
محلہ
محمد
محمدن
محمدي
محمود
محنت
محنتي
محو
محور
محي
محيط
محڪمي
محڪوم
مخاطب
مخالف
مخالفت
مخالفن
مختار
مختصر
مختصرن
مختلف
مختيار
مختيارڪار
مخدوم
مخروطي
مخزن
مخزنن
مخصوص
مخفف
مخفي
مخلتف
مخلص
مخلوط
مخلوق
مخمور
مد
مدات
مداح
مداحون
مداخلت
مدار
مداري
مدافعت
مدافعتي
مداي
مدبر
مدت
مدح
مدد
مددگار
مدراس
مدرس
مدرسا
مدرسة
مدرسته
مدرسن
مدرسه
مدرسو
مدرسي
مدرسہ
مدرفت
مدفن
مدفون
مدن
مدنظر
مدني
مدنيء
مدنيت
مدهوش
مدو
مدورفت
مدي
مديا
مدير
مدينه
مدينو
مديني
مذاق
مذاڪرات
مذمت
مذهب
مذهبن
مذهبي
مذڪر
مذڪور
مذڪوره
مذھب
مذھبن
مذھبي
مر
مرا
مراد
مرادو
مرادي
مرادياب
مراقبي
مراٺي
مراڪش
مربع
مربوط
مربي
مرتب
مرتبو
مرتبي
مرتضي
مرثيا
مرثين
مرثيه
مرثيو
مرحب
مرحلا
مرحلن
مرحلو
مرحلي
مرحوم
مرد
مردان
مرداڻي
مردم
مردن
مرزا
مرزاپور
مرشد
مرض
مرضن
مرضي
مرضيء
مرلي
مرمت
مرمر
مرن
مرندي
مرندڙ
مره
مرهم
مرهٺي
مرهٽن
مرهٽي
مرو
مروان
مروت
مروج
مرودشت
مروه
مري
مريء
مريت
مريخ
مريد
مريدن
مريدي
مريض
مريضن
مريم
مرين
مريڪا
مريڪن
مريڪي
مريڪين
مرچ
مرچن
مرکنڊ
مرڪ
مرڪب
مرڪبن
مرڪري
مرڪز
مرڪزن
مرڪزي
مرڪزيت
مرگهي
مرڻ
مز
مزاج
مزاجن
مزاح
مزاحمت
مزاحمتي
مزاحيا
مزاحيه
مزاحيہ
مزار
مزارن
مزارون
مزاري
مزدور
مزدورن
مزدوري
مزدڪ
مزو
مزور
مزورن
مزوري
مزي
مزيد
مزيدار
مزید
مس
مسافر
مسافرن
مسافري
مسالو
مسالي
مساوات
مساوي
مساي
مست
مستاني
مستحب
مستحق
مستحڪم
مستري
مستطيل
مستعمل
مستقبل
مستقل
مستند
مستونگ
مستوي
مستي
مستيء
مسجد
مسجدن
مسجدون
مسدس
مسرت
مسرور
مسز
مسعود
مسعودي
مسقط
مسلح
مسلسل
مسلم
مسلمان
مسلمانن
مسلڪ
مسند
مسو
مسواڙ
مسودن
مسودو
مسودي
مسوري
مسي
مسيح
مسيحي
مسيحيت
مسٽر
مسڪن
مسڪين
مسڪينن
مسڻ
مسیح
مشابهت
مشابھت
مشاعرا
مشاعرن
مشاعرو
مشاعري
مشاهدا
مشاهدن
مشاهدو
مشاهدي
مشاهير
مشاورت
مشاي
مشاھدن
مشاھدو
مشاھدي
مشتاق
مشتري
مشترڪ
مشترڪه
مشتق
مشتمل
مشرف
مشرق
مشرقي
مشروب
مشروط
مشرڪ
مشرڪن
مشعل
مشغلو
مشغول
مشق
مشن
مشنري
مشهد
مشهور
مشهوري
مشورا
مشورو
مشوري
مشي
مشير
مشين
مشينري
مشينن
مشينون
مشيني
مشڪ
مشڪل
مشڪلات
مشڪلاتن
مشڪلاتون
مشڪن
مشڪور
مشڪون
مشھد
مشھور
مشھوري
مصالح
مصالحا
مصالحن
مصالحو
مصالحي
مصدر
مصر
مصرع
مصرعن
مصرعون
مصروف
مصري
مصرين
مصطفى
مصطفي
مصعب
مصلحت
مصنف
مصنفن
مصنوعات
مصنوعي
مصور
مصوري
مصوريء
مصيبت
مصيبتن
مضامين
مضامین
مضبوط
مضبوطي
مضبوطيء
مضمون
مضمونن
مضون
مطابق
مطابقت
مطالبا
مطالبن
مطالبو
مطالبي
مطالعو
مطالعي
مطلب
مطلع
مطلق
مطمي
مطيع
مظاهرا
مظاهرن
مظاهرو
مظاهري
مظاھرا
مظاھرو
مظبوط
مظفر
مظلوم
مظهر
مظھر
مع
معاذ
معاش
معاشرتي
معاشرن
معاشرو
معاشري
معاشي
معاشيات
معاف
معافي
معاملا
معاملات
معاملن
معاملو
معاملي
معاهدا
معاهدن
معاهدو
معاهدي
معاوضو
معاوضي
معاون
معاونت
معاويه
معاي
معاھدن
معاھدو
معاھدي
معبود
معتبر
معتدل
معتصم
معتقد
معتقدن
معدني
معدنيات
معدي
معذرت
معذور
معراج
معرفت
معروضي
معروف
معروفيت
معرڪي
معز
معزالدين
معزز
معزول
معزولي
معشوق
معشيت
معصوم
معصومي
معطل
معظم
معقول
معلم
معلوم
معلومات
معلوماتي
معمار
معمول
معمولي
معنا
معناي
معنوي
معنى
معني
معنی
معيار
معيارن
معياري
معيشت
معيشيت
معين
مغرب
مغربي
مغز
مغل
مغلن
مغليه
مغيره
مغيري
مـ
مفاد
مفادن
مفاصلو
مفاصلي
مفت
مفتاح
مفتون
مفتي
مفرد
مفروضو
مفروضي
مفسر
مفصل
مفعول
مفلس
مفهوم
مفيد
مفڪر
مفڪرن
مفھوم
مقابل
مقابلا
مقابلن
مقابلو
مقابلي
مقاطعي
مقالا
مقالات
مقالن
مقاله
مقالو
مقالي
مقام
مقامن
مقامي
مقبرا
مقبرن
مقبرو
مقبري
مقبول
مقبوليت
مقتول
مقدار
مقداري
مقدر
مقدس
مقدسي
مقدم
مقدما
مقدمة
مقدمن
مقدمه
مقدمو
مقدمي
مقدونيہ
مقرر
مقرري
مقص
مقصد
مقصدن
مقصود
مقعد
مقناطيسي
مقننه
مقيم
مل
ملا
ملاح
ملاحظہ
ملاحن
ملازم
ملازمت
ملازمتون
ملازمن
ملاقات
ملاقاتون
ملامت
ملان
ملاوٽ
ملاي
ملايا
ملايو
ملاکڙن
ملاکڙو
ملاکڙي
ملاڪا
ملاڻو
ملبار
ملت
ملتان
ملتاني
ملتوي
ملحد
ملز
ملفوظات
ململ
ملن
ملندا
ملندو
ملندي
ملنديون
ملندڙ
ملهار
ملهاي
ملهايو
ملهه
ملوث
ملون
ملوڪ
ملي
مليا
مليالم
ملير
مليريا
مليس
مليل
ملين
مليو
مليون
ملٽري
ملٽن
ملٽي
ملک
ملکوال
ملڪ
ملڪا
ملڪاڻي
ملڪاڻيء
ملڪن
ملڪه
ملڪي
ملڪيت
ملڪيتن
ملڪيتون
ملڪہ
ملڻ
ملھ
ملھاي
ملھايو
ممبر
ممبي
ممتاز
مملوڪ
مملڪت
مملڪتي
ممنوع
ممڪن
من
منا
منات
مناجات
منارا
مناره
منارو
مناري
مناسب
مناسبت
مناظري
مناف
منافعي
مناقبا
منت
منتخب
منتر
منتشر
منتظر
منتظم
منتظمن
منتظمين
منتقل
منتقلي
منجنيق
منجهان
منجهاني
منجهاي
منجهس
منجهن
منجهند
منجهه
منجهيل
منجھ
منجھان
منجھس
منجھند
منحصر
مند
مندر
مندرن
منزل
منزلن
منزلون
منسلڪ
منسوب
منسوخ
منسوخي
منسٽر
منش
منشا
منشور
منشي
منشيء
منشيات
منصب
منصف
منصفانه
منصوب
منصوبا
منصوبابندي
منصوبن
منصوبه
منصوبو
منصوبي
منصور
منصوره
منصوري
منطق
منطقي
منظر
منظرن
منظم
منظور
منظوري
منظوريء
منظوم
منع
منعقد
منفرد
منفي
منقبت
منه
منهن
منهنجا
منهنجو
منهنجون
منهنجي
منهه
منو
منوج
منور
منوره
مني
منيء
منير
منيلا
منين
منٺار
منٽ
منٽن
منٽو
منٿ
منڇر
منڈی
منڊ
منڊا
منڊل
منڊلي
منڊليء
منڊو
منڊي
منڊيء
منڊين
منڊڪ
منڍ
منڍي
منڪر
منگ
منگل
منگلا
منگها
منگهارام
منگهو
منگو
منگول
منگولن
منگوليا
منگوڇر
منگي
منگيء
منگيشڪر
منھن
منھنجو
منھنجي
مه
مها
مهاتما
مهاجر
مهاجرن
مهاديو
مهاديون
مهار
مهاراج
مهاراجا
مهاراشٽر
مهارت
مهارن
مهان
مهانگي
مهاوير
مهاڀارت
مهاڀاري
مهاڏو
مهاڳ
مهاڻا
مهاڻن
مهاڻي
مهتا
مهتاب
مهجور
مهدي
مهذب
مهر
مهراج
مهراڻ
مهراڻي
مهربان
مهرباني
مهربانيء
مهربانيون
مهرن
مهرون
مهري
مهرچند
مهل
مهلب
مهلڪ
مهم
مهمان
مهمانن
مهمن
مهمون
مهن
مهندار
مهورت
مهون
مهيا
مهيسر
مهيش
مهين
مهينا
مهينن
مهينو
مهيني
مهڪ
مهڪري
مو
مواد
مواصلات
مواصلاتي
موافق
موافقت
موباي
موت
موتمار
موتي
موتين
موثر
موج
موجب
موجد
موجود
موجودات
موجوده
موجودگي
موجودگيء
موجودھ
موجودہ
مودودي
مودي
موذي
مور
موراي
مورت
مورتون
مورتي
مورتيون
مورث
مورثي
مورخ
مورخن
مورس
مورن
مورو
موروثي
موري
موريء
موريا
مورياڻي
موريشس
مورچا
مورڙو
موز
موزاي
موزمبيق
موزون
موسا
موسم
موسمن
موسمون
موسمي
موسمياتي
موسوي
موسى
موسي
موسيقار
موسيقارن
موسيقي
موسيقيء
موسی
موصل
موصوف
موصول
موضوع
موضوعن
موقع
موقعا
موقعن
موقعو
موقعي
موقف
مول
مولا
مولابخش
مولانا
مولاي
مولف
مولود
مولوي
مولوين
مولي
مولچند
مومل
مومن
مون
مونث
مونجهارو
مونو
مونوگراف
مونٽي
مونٽگومري
مونکي
موهن
موهي
موهين
موهيندڙ
موومنٽ
موومينٽ
مووي
موي
موٽ
موٽاي
موٽر
موٽندي
موٽواڻي
موٽي
موٽيو
موٽڻ
موچارو
موچاري
موچي
موڊ
موڙ
موڙي
موکي
موڪل
موڪلاي
موڪلون
موڪلي
موڪليا
موڪلياي
موڪليل
موڪليندا
موڪليندو
موڪليو
موڪليون
موڪلڻ
موڪن
موھن
مي
ميا
ميان
ميانداد
ميانمار
ميانوال
ميانوالي
مياي
مياڻ
مياڻي
مياڻيء
ميت
ميتلو
ميثاق
ميجر
ميخاي
ميد
ميدان
ميدانن
ميداني
ميدن
ميدوار
مير
ميرا
ميراث
ميرالي
ميران
ميرانپور
ميراڻي
ميراڻيء
ميربحر
ميرزا
ميرس
ميرصاحب
ميرن
ميرو
ميرواهه
ميرواھ
ميروخان
ميري
ميريي
ميرپور
ميرپورخاص
ميرڪ
ميرڻ
ميز
ميزان
ميزاي
ميزبان
ميزباني
ميسا
ميسارجي
ميسر
ميسو
ميسوپوٽيميا
ميسيج
ميشرس
ميقات
ميل
ميلا
ميلاد
ميلاپ
ميلبورن
ميلن
ميلو
ميلي
ميمبر
ميمبرشپ
ميمبرن
ميملز
ميمن
ميموري
ميموريء
ميموريل
ميمڻ
ميمڻن
مين
مينا
مينار
ميندي
مينديء
مينهن
مينهون
مينيا
مينيجر
مينيجمينٽ
مينيوفيڪچرنگ
مينيوي
مينڊرين
مينڊيٽ
مينڌرو
مينگل
مينگهواڙ
مينھن
مينھون
ميهار
ميهڙ
ميوا
ميوارام
ميوزم
ميوزيم
ميوزيڪل
ميوزڪ
ميون
ميونسيپل
ميونسپالٽي
ميونسپالٽيء
ميونسپالٽين
ميونسپل
ميونسپلٽي
ميونسپلٽين
ميوو
ميوي
ميويدار
ميي
ميين
ميٺا
ميٺاج
ميٽ
ميٽا
ميٽر
ميٽرن
ميٽروپولس
ميٽروپوليٽن
ميٽري
ميٽرڪ
ميٽل
ميٽنگ
ميٽڪ
ميٿين
ميٿيو
ميچ
ميڊل
ميڊم
ميڊن
ميڊيا
ميڊياوڪي
ميڊيسن
ميڊيم
ميڊيٽرينين
ميڊيڪل
ميڙ
ميڙي
ميڪ
ميڪاي
ميڪس
ميڪسيڪو
ميڪنگ
ميگا
ميگاواٽ
ميگزين
ميگنيٽڪ
ميگهواڙ
ميگي
ميگھواڙ
ميں
ميڻ
ميڻا
ميھڙ
مٺ
مٺا
مٺاي
مٺايون
مٺاڻ
مٺل
مٺو
مٺي
مٺيء
مٺياڻي
مٺيون
مٺڻ
مٽ
مٽاسٽا
مٽاي
مٽايو
مٽجي
مٽجڻ
مٽر
مٽن
مٽي
مٽيء
مٽياري
مٽياريء
مٽيارين
مپ
مپس
مپن
مٿا
مٿان
مٿانهون
مٿانهين
مٿاني
مٿاهون
مٿاهين
مٿاڇرو
مٿاڇري
مٿاھين
مٿرا
مٿس
مٿن
مٿو
مٿي
مٿيان
مٿين
مٿينء
مٿيون
مٿڀرو
مڃاي
مڃايو
مڃتا
مڃن
مڃي
مڃيا
مڃيل
مڃين
مڃيندا
مڃيندڙ
مڃيندڙن
مڃيو
مڃڻ
مچ
مچاي
مچي
مڇ
مڇر
مڇرن
مڇي
مڇيء
مڇين
مڇيون
مڊل
مڌر
مڌرويل
مڌم
مڌيا
مڌيه
مڏ
مڙس
مڙسن
مڙسي
مڙني
مڙهه
مڙهي
مڙهيل
مڙهيو
مڙهڻ
مڙي
مڙيل
مڙيي
مک
مکررات
مکي
مکيا
مکين
مکيه
مکيون
مکيہ
مکڻ
مڪ
مڪالما
مڪالمن
مڪان
مڪانن
مڪاني
مڪانيت
مڪاي
مڪتب
مڪتبن
مڪتبه
مڪتوبات
مڪر
مڪران
مڪراني
مڪرر
مڪسچر
مڪلي
مڪليء
مڪمل
مڪه
مڪو
مڪي
مڪين
مڪينيڪل
مڪڙ
مڪڙي
مگر
مگسي
مگڌ
مڱ
مڱريو
مڱيو
مڱڻهار
مڱڻي
مڱڻيجا
مڻ
مڻيا
مھا
مھاتما
مھاجر
مھاجرن
مھاراجا
مھاراشٽر
مھارت
مھايان
مھاڀارت
مھاڀاري
مھاڏو
مھتاب
مھدي
مھر
مھراب
مھراڻ
مھرباني
مھرچند
مھل
مھم
مھمان
مھيا
مھيسر
مھينا
مھينن
مھينو
مھيني
می
میانوالی
میانی
میر
میری
میں
ن
نا
نااميد
ناانصافي
نااهل
نابالغ
نابري
نابود
نابين
نات
ناتا
ناتر
ناتن
ناتو
ناتوان
ناتي
ناجاي
ناحق
نادر
نادرشاهه
نادرن
نار
نارا
ناراض
ناراي
نارايڻ
نارمل
نارمن
نارنگي
نارنگيء
نارنگين
نارنگيون
نارو
نارووال
ناروي
ناري
ناريل
نارين
ناريون
نارٿ
ناز
نازل
نازو
نازي
نازين
نازڪ
ناس
ناسا
ناستڪ
ناسور
ناسورن
ناسي
ناشاد
ناشر
ناصر
ناصرالدين
ناصري
ناظرين
ناظم
ناظمن
نافذ
نافرماني
ناقابل
ناقص
نال
نالا
نالن
نالو
نالي
ناليء
نالين
ناليوار
ناليوارن
ناليوارو
ناليواري
ناليون
نام
ناما
نامدار
نامزد
نامزدگي
نامعلوم
ناممڪن
نامن
نامناسب
نامه
نامو
نامور
نامي
نامياتي
ناميارا
ناميارن
ناميارو
نامياري
نامڪمل
نامہ
نان
نانء
نانا
ناناڻن
ناناڻي
نانو
ناني
نانڪ
نانڪرام
نانڪي
نانگ
نانگن
ناهن
ناهي
ناهين
ناو
ناول
ناولن
ناوليٽ
ناي
ناياب
ناٺي
ناٽ
ناٽيڪل
ناٽڪ
ناٽڪن
ناپاڪ
ناپسند
ناپيد
ناٿ
ناٿن
ناچ
ناچڻي
ناڊا
ناڊو
ناڙي
ناڙين
ناک
ناڪ
ناڪاري
ناڪام
ناڪامي
ناڪاميء
ناگري
ناگپور
ناڻو
ناڻي
ناھن
ناھي
نب
نباتات
نباتاتي
نبض
نبوت
نبوي
نبي
نبيء
نبيرو
نبيري
نبيرڻ
نبين
نت
نتاشا
نتيجا
نتيجن
نتيجو
نتيجي
نتیجو
نتیجہ
نث
نثار
نثر
نثري
نج
نجات
نجان
نجد
نجف
نجم
نجوم
نجي
نجيب
نحو
ند
ندا
نداي
ندر
ندري
ندل
ندن
نده
ندو
ندون
ندي
نديء
نديم
ندين
نديون
ندڙ
ندگي
نذر
نذرانو
نذير
نر
نرا
نرالو
نرالي
نرتڪي
نرجي
نرخ
نرري
نرز
نرس
نرسري
نرم
نرمي
نرن
نرو
نروار
نرواڻ
نري
نريندر
نرڙ
نرگس
نز
نزاري
نزاڪت
نزديڪ
نزلي
نزول
نس
نساي
نسب
نسبت
نسبتا
نسبتن
نسبتي
نستعليق
نسخ
نسخا
نسخن
نسخو
نسخي
نسدان
نسدانن
نسر
نسز
نسل
نسلن
نسلون
نسلي
نسن
نسون
نسي
نسيم
نسٽاي
نسڊاي
نشاستو
نشاستي
نشان
نشاندهي
نشانن
نشانو
نشاني
نشانيء
نشانين
نشانيون
نشتر
نشر
نشريات
نشرياتي
نشو
نشونما
نشوونما
نشي
نشين
نشيني
نشينيء
نصاب
نصابي
نصب
نصر
نصرت
نصرپور
نصف
نصيب
نصيحت
نصير
نصيرا
نصيرالدين
نضير
نظارا
نظارن
نظارو
نظاري
نظام
نظاماڻي
نظامن
نظامي
نظر
نظرانداز
نظربند
نظربندي
نظربنديء
نظرثاني
نظرداري
نظرداريء
نظرن
نظرون
نظري
نظريا
نظرياتي
نظرين
نظريه
نظريو
نظريي
نظم
نظمن
نظير
نعت
نعتيه
نعرا
نعرو
نعري
نعم
نعمان
نعماني
نعمت
نعمتن
نعيم
نعيمه
نغزه
نـ
نف
نفاذ
نفت
نفرت
نفس
نفساني
نفسيات
نفسياتي
نفعو
نفعي
نفل
نفي
نفيس
نقاب
نقاد
نقادن
نقاش
نقاشي
نقد
نقش
نقشا
نقشبندي
نقشن
نقشو
نقشي
نقص
نقصان
نقصانن
نقصانڪار
نقطا
نقطن
نقطه
نقطو
نقطي
نقطہ
نقل
نقلي
نقوي
نل
نلاي
نلن
نلي
نليء
نلين
نم
نما
نماء
نماز
نماي
نمايان
نماڻي
نمبر
نمبرن
نمر
نمرود
نمودار
نمونا
نمونن
نمونو
نموني
نمونيا
نمي
نمڪ
نمڪين
نن
ننجا
نند
نندا
نندو
نندي
ننهن
ننڊ
ننڍ
ننڍا
ننڍن
ننڍو
ننڍي
ننڍيء
ننڍين
ننڍيون
ننڍپڻ
ننڍڙا
ننڍڙن
ننڍڙو
ننڍڙي
ننڍڙين
ننڍڙيون
ننگ
ننگر
ننگريجا
ننگرپارڪر
ننھن
نه
نهاد
نهايت
نهج
نهر
نهرو
نهري
نهن
نهنجي
نهي
نهيء
نهين
نو
نوا
نواب
نوابشاه
نوابشاهه
نوابشاھ
نوابن
نوابي
نوادرات
نوار
نواز
نوازشريف
نوازي
نوازيو
نوان
نواں
نواڻ
نوبت
نوبل
نوبيل
نوجوان
نوجوانان
نوجوانن
نوح
نوحا
نوحاڻي
نور
نورا
نورالدين
نورالله
نورالهدي
نوراني
نورجهان
نورس
نورل
نورمحمد
نورنگ
نورواھ
نوري
نوريء
نوريي
نورپور
نورڊڪ
نوسارز
نوشهره
نوشهرو
نوشهروفيروز
نوشهري
نوشي
نوشڪي
نوشھرو
نوشھروفيروز
نوشھري
نوع
نوعيت
نوفل
نول
نومبر
نون
نوناري
نووا
نوي
نويد
نويس
نويسن
نويسي
نويسيء
نوٽ
نوٽس
نوٽن
نوٽيس
نوٽيفڪيشن
نوڙت
نوڪ
نوڪدار
نوڪر
نوڪرن
نوڪري
نوڪريء
نوڪرين
نوڪريون
ني
نيء
نيا
نياد
نيادي
نياز
نيازي
نياپا
نياپو
نياپي
نياڻي
نياڻيء
نياڻين
نياڻيون
نيت
نيتي
نيجر
نيجمينٽ
نيجنگ
نيدرلينڊز
نير
نيرا
نيرن
نيرو
نيرون
نيري
نيز
نيزي
نيس
نيست
نيشاپور
نيشن
نيشنز
نيشنل
نيل
نيلام
نيلسن
نيلم
نيلوفر
نيم
نيما
نين
نينهن
نينو
نيو
نيواڊا
نيوران
نيوز
نيوزي
نيوزيلينڊ
نيوسعيدا
نيول
نيون
نيوي
نيويارڪ
نيوٽران
نيوٽن
نيوڪلياي
نيوڪليس
نيوڪليي
نيوگني
نيي
نيٺ
نيٽ
نيٽو
نيٽورڪ
نيپال
نيپالي
نيپولين
نيپي
نيپيي
نيپچون
نيچ
نيچرل
نيڪ
نيڪال
نيڪالي
نيڪوٽين
نيڪي
نيڪيء
نيگرو
نيڻ
نٽ
نٽس
نٽشي
نٽن
نٽي
نٿ
نٿا
نٿو
نٿي
نٿيون
نڀ
نڀاي
نڀاياي
نڀايو
نچ
نچي
نچڻ
نڇون
نڊ
نڊا
نڊرڊ
نڊمي
نڊن
نڊو
نڊي
نڌ
نڌرا
نڌو
نڌي
نڍ
نڙ
نڙي
نڙيء
نک
نکاد
نکون
نکي
نکٽن
نڪ
نڪا
نڪاح
نڪتا
نڪتل
نڪتن
نڪتو
نڪتي
نڪرن
نڪرندا
نڪرندو
نڪرندي
نڪرنديون
نڪرندڙ
نڪري
نڪرڻ
نڪل
نڪن
نڪو
نڪولس
نڪوٽين
نڪي
نگ
نگار
نگارن
نگاري
نگاريء
نگاه
نگاهن
نگاهه
نگر
نگران
نگراني
نگرانيء
نگري
نگن
نگورنو
نگويج
نگي
نگھبان
نھ
نھايت
نھرو
نھن
نھيء
نہ
نہیں
نیشنل
نیویارک
نے
ه
ها
هاء
هاجره
هادي
هار
هاراي
هارايو
هاربر
هارس
هارمون
هارمونيم
هارورڊ
هارون
هاري
هاريء
هارين
هارڊ
هارڊويي
هاسارام
هاسٽل
هاشم
هاشمي
هاضمي
هال
هالا
هالار
هالاي
هالاڻي
هالاڻيء
هالن
هالي
هالينڊ
هاليپوٽو
هان
هانگ
هاي
هاير
هاٿي
هاٿيء
هاٿين
هاڃو
هاڃيڪار
هاڙ
هاڪ
هاڪاري
هاڪي
هاڪڙو
هاڪڙي
هاڻ
هاڻوڪا
هاڻوڪن
هاڻوڪو
هاڻوڪي
هاڻي
های
هباري
هت
هتان
هتي
هجرت
هجري
هجريء
هجن
هجو
هجوم
هجي
هجڻ
هدايت
هدايتن
هدايتون
هدايتڪار
هدايتڪاري
هر
هرات
هراس
هربل
هرجي
هردوار
هرش
هرن
هرهڪ
هروڀرو
هري
هريانا
هريجن
هريسنگهه
هرچند
هرڪو
هرگز
هرڻ
هزار
هزارن
هزاري
هزارين
هسته
هستي
هستيء
هستين
هسٽاريڪل
هسٽري
هسپانوي
هشام
هضم
هـ
هـن
هـي
هفت
هفتا
هفتن
هفتو
هفتي
هفتيوار
هل
هلال
هلاي
هلايا
هلايل
هلايو
هلاڪو
هلت
هلن
هلندا
هلندو
هلندي
هلنديون
هلندڙ
هلي
هليا
هليلي
هليو
هليون
هلچل
هلڪا
هلڪو
هلڪي
هلڻ
هم
هماليا
هماليه
همايون
همايوني
همت
همدرد
همدردي
همراهن
همراهه
همعصر
همعصرن
همه
هموار
همير
هميشه
هميشہ
همٿ
همٿاي
همٿايو
هن
هنب
هنج
هنجن
هند
هندستان
هندستاني
هندستانيء
هندستانين
هندن
هندو
هندوء
هندوستان
هندوستاني
هندومت
هندوڪش
هندي
هنديء
هنر
هنرمند
هنرن
هنري
هنن
هني
هنيا
هنيو
هنڌ
هنڌان
هنڌن
هنڪتاب
هنگ
هنگامي
هنگر
هنگري
هنگلاج
هنگي
هنڱوراڻي
هنڱورجا
هه
ههڙي
هو
هوء
هوا
هواي
هوبهو
هوت
هوتچند
هوجا
هوري
هوريان
هوس
هوش
هوشو
هوشيار
هول
هولي
هوم
هون
هونء
هوند
هوندا
هوندو
هوندي
هونديون
هوني
هوي
هوٽل
هوٽلن
هوٿل
هوچي
هوڏانهن
هوڏي
هي
هيء
هيا
هيان
هيبت
هير
هيرا
هيرانند
هيرس
هيرن
هيرو
هيروي
هيري
هيريٽيج
هيرڻ
هيس
هيسباڻي
هيستاي
هيل
هيلن
هيلي
هيلٿ
هيم
هيمنداس
هيمون
هين
هينري
هيني
هيو
هيوز
هيومن
هيون
هيونسانگ
هيي
هيٺ
هيٺان
هيٺانهين
هيٺاهين
هيٺي
هيٺيان
هيٺين
هيٺينء
هيٺيون
هيٽي
هيڊ
هيڊو
هيڊي
هيڊڪوارٽر
هيڏانهن
هيڏي
هيڪاري
هيڪتاب
هيڪٽر
هيڪڙاي
هيگ
هيگل
هٽ
هٽاي
هٽايو
هٽلر
هٽي
هٿ
هٿان
هٿرادو
هٿن
هٿي
هٿيار
هٿياربند
هٿيارن
هٿين
هڃاڻ
هڏ
هڏا
هڏن
هڏي
هڏين
هڏيون
هڙ
هڙاپا
هڙتال
هڙي
هڙپا
هڪ
هڪجهڙا
هڪجهڙاي
هڪجهڙو
هڪجهڙي
هڪدم
هڪٻي
هڪڙا
هڪڙو
هڪڙي
هڪڙيء
هڻ
هڻاي
هڻن
هڻندا
هڻندو
هڻندي
هڻندڙ
هڻو
هڻي
هڻڻ
و
وء
وا
واء
وابسته
وابستگي
وابستہ
وات
واتان
واجب
واجبي
واجد
واحد
واد
وادي
واديء
وادين
واديون
وار
وارا
واران
وارتا
وارث
وارثن
وارد
وارسا
وارن
وارهه
وارو
واري
واريء
وارياسو
وارياسي
وارين
واريون
وارڊ
وارڊن
وارڪا
وارھ
واز
وازن
وازي
واس
واسديو
واسطا
واسطن
واسطو
واسطي
واسطيدار
واسو
واسواڻي
واسواڻيء
واسي
واسين
واسينگ
واسڪو
واشنگٽن
واصف
واضح
واضع
واعدو
واعدي
واعظ
واقع
واقعا
واقعات
واقعاتي
واقعن
واقعو
واقعي
واقف
واقفيت
وال
والا
والار
والاري
والد
والده
والدين
والس
والي
واليء
والٽر
والٽي
والہ
والی
والے
وان
وانجهيل
واندڪاي
وانڍ
وانگر
وانگي
وانگيان
واه
واهن
واهه
واهي
واهپو
واهپي
واهڻ
واو
واي
وايو
وايومنڊل
وايون
واٽ
واٽر
واٽس
واٽون
واپار
واپاري
واپارين
واپراي
واپس
واپسي
واپسيء
واپڊا
واچ
واڊيا
واڌ
واڌارا
واڌارو
واڌاري
واڌو
واڌواڻي
واڌويجھ
واڙي
واکاڻ
واڪ
واڱڻاي
واڳ
واڳون
واڳيل
واڻ
واڻي
واڻيا
واھ
واھن
واھڻ
واہ
واہن
وب
وبا
وباي
وت
وتايو
وتر
وتي
وجد
وجدان
وجه
وجهبو
وجهجي
وجهن
وجهندا
وجهندو
وجهندي
وجهنديون
وجهندڙ
وجهه
وجهي
وجهڻ
وجهہ
وجود
وجودي
وجي
وجھ
وجھندڙ
وجھي
وجھڻ
وجہ
وحداني
وحدانيت
وحدت
وحشي
وحي
وحيد
ود
ودي
وديا
ودپوٽو
ودپوٽي
ور
ورا
وراثت
وراثتي
ورانسي
وراي
وراچڊ
وراڻي
وراڻيو
ورت
ورتا
ورتاء
ورتاي
ورتر
ورتل
ورتو
ورتي
ورتيون
ورثو
ورثي
ورج
ورجاء
ورجاي
ورجن
ورجينيا
ورد
ورزش
ورزن
ورزي
ورسي
ورق
ورقن
ورلي
ورلڊ
ورلڊڪپ
ورم
ورما
ورن
ورندي
ورنه
ورنيڪيولر
ورهاست
ورهاي
ورهايل
ورهايو
ورهاڱو
ورهاڱي
ورهين
ورهيه
ورو
وري
وريء
وريا
وريل
وريو
ورپ
ورٿ
ورڇ
ورڊ
ورڊي
ورژن
ورڪ
ورڪر
ورڪرز
ورڪرن
ورڪس
ورڪشاپ
ورڪنگ
ورڪي
ورڻ
ورھاست
ورھاي
ورھايل
ورھايو
ورھاڱي
ورھين
ورھيه
وز
وزارت
وزر
وزن
وزني
وزو
وزي
وزير
وزيراعظم
وزيراعلي
وزيرستان
وزيرن
وس
وساري
وساريل
وسارڻ
وساي
وسايا
وساياي
وسايو
وساڻ
وستي
وسري
وسرڳ
وسطي
وسعت
وسق
وسلم
وسن
وسندي
وسنديء
وسندين
وسنديون
وسندڙ
وسنگ
وسهڻ
وسي
وسير
وسيع
وسيل
وسيلا
وسيلن
وسيلو
وسيلي
وسيم
وسڪارو
وسڪاري
وسڪاي
وسڻ
وش
وشال
وشنداس
وشنو
وصال
وصف
وصفن
وصفون
وصول
وصولي
وصيت
وضاحت
وضع
وضو
وطن
وطني
وظيفو
وعدو
وعظ
وغيره
وغيرهه
وغيرھ
وغيرہ
وغیرہ
وف
وفا
وفات
وفاتون
وفادار
وفاداري
وفاداريء
وفاق
وفاقي
وفاي
وفد
وفدن
وقار
وقت
وقتاي
وقتن
وقتي
وقف
وقفو
وقفي
وقوع
ول
ولا
ولاء
ولادت
ولاديمير
ولاي
ولايت
ولايتي
ولد
ولر
ولسن
ولو
ولي
وليء
وليج
وليد
وليم
ولين
وليون
ولڀ
وم
ون
ونء
وند
وندر
وندراي
ونر
ونس
ونسل
ونسلر
ونسلن
ونسلون
ونسي
ونلوڊ
ونن
وني
ونيونٽ
ونٽ
ونٽس
ونٽنٽ
ونٽنگ
ونٽي
ونٽين
ونٽيون
ونڊ
ونڊاي
ونڊجي
ونڊن
ونڊوز
ونڊيشن
ونڊيو
ونڊڻ
ونگ
ونگن
ونگو
ونگي
وه
وهانء
وهاي
وهم
وهن
وهنجڻ
وهندا
وهندو
وهندي
وهندڙ
وهنوار
وهه
وهي
وهيء
وهڪرا
وهڪرن
وهڪرو
وهڪري
وهڻ
وو
وولف
وولٽ
وولگا
وومين
ووني
ووهان
ووٽ
ووٽر
ووٽرن
ووٽن
ووٽنگ
ووڊ
وي
ويء
ويا
وياج
وياسين
ويانا
وياڪرڻ
ويب
ويبساي
ويتر
ويتنام
ويجها
ويجهر
ويجهن
ويجهه
ويجهو
ويجهي
ويجهڙاي
ويجھ
ويجھا
ويجھن
ويجھو
ويجھي
ويجھڙاي
ويد
ويدانت
ويدانتي
ويدن
ويدڪ
وير
ويرا
ويران
ويراني
ويراڳ
ويرناٿ
ويرومل
ويري
ويرين
ويز
ويزن
ويس
ويساهه
ويساک
ويسر
ويسٽ
ويسٽرن
ويل
ويلر
ويلز
ويلس
ويلفيي
ويلن
ويلنٽاي
ويلي
ويلٽ
ويلٿ
ويلڻ
ويم
وين
وينجهار
ويندا
وينداسين
ويندس
ويندو
ويندي
وينديون
ويندڙ
وينزويلا
وينس
ويهارو
ويهاري
ويهاريو
ويهن
ويهندا
ويهندو
ويهندي
ويهه
ويهون
ويهي
ويهين
ويهڪ
ويهڻ
ويو
ويون
ويي
ويٺا
ويٺل
ويٺو
ويٺي
ويٽ
ويٽنام
ويٽنامي
ويٽو
ويڄ
ويچار
ويچارا
ويچارن
ويچاري
ويڊيو
ويڙهاڪ
ويڙهاڪن
ويڙهه
ويڙهي
ويڙهيل
ويڙھ
ويڙھاڪ
ويڙھاڪن
ويڙھيل
ويڪ
ويڪر
ويڪرا
ويڪراي
ويڪرو
ويڪري
ويڪريون
ويڪسين
ويڪيپيڊيا
ويڳي
ويڻي
ويھ
ويھن
ويھون
ويھي
ويھين
ويھڻ
وٺ
وٺاي
وٺايو
وٺبو
وٺجي
وٺراي
وٺن
وٺندا
وٺندو
وٺندي
وٺنديون
وٺندڙ
وٺو
وٺي
وٺڻ
وٺڻي
وٽ
وٽا
وٽامن
وٽان
وٽرام
وٽس
وٽن
وٽنگ
وٽو
وٽي
وپ
وپي
وٿ
وٿاڻ
وٿي
وٿيء
وڀوشن
وڃ
وڃان
وڃاي
وڃايل
وڃايو
وڃبو
وڃجي
وڃن
وڃو
وڃون
وڃي
وڃين
وڃيو
وڃڻ
وڃڻو
وڄ
وڄاي
وڄايو
وڄت
وڄون
وڄي
وچ
وچان
وچم
وچن
وچور
وچولو
وچولي
وچون
وچي
وچين
وچيون
وچٿري
وچڙ
وچڙندڙ
وڇاي
وڇايل
وڇايو
وڇون
وڇوٽي
وڇوٽيء
وڇوڙو
وڇوڙي
وڇڙي
وڊ
وڊر
وڊيو
وڊيوز
وڌ
وڌا
وڌاء
وڌاي
وڌايل
وڌايو
وڌل
وڌن
وڌندا
وڌندو
وڌندي
وڌنديون
وڌندڙ
وڌو
وڌوا
وڌي
وڌيا
وڌيل
وڌيو
وڌيون
وڌيڪ
وڌڻ
وڍ
وڍي
وڍڻ
وڏ
وڏا
وڏاي
وڏن
وڏو
وڏي
وڏيء
وڏيرا
وڏيرن
وڏيرو
وڏيري
وڏين
وڏيون
وڏڙا
وڏڙن
وڙ
وڙهندا
وڙهندو
وڙهندي
وڙهندڙ
وڙهي
وڙهيا
وڙهيو
وڙهڻ
وڙي
وڙھي
وڙھيا
وڙھيو
وڙھڻ
وک
وکر
وکون
وڪ
وڪالت
وڪرم
وڪرمي
وڪرو
وڪري
وڪوڙي
وڪوڙيل
وڪي
وڪيء
وڪيل
وڪيلن
وڪيميڊيا
وڪيو
وڪيٽ
وڪيٽن
وڪيٽون
وڪيپيڊي
وڪيپيڊيا
وڪيپيڊياي
وڪيپيڊين
وڪيڊيٽا
وڪٽر
وڪٽوريا
وڪٽوريه
وڪڙ
وڪڙن
وڪڙو
وڪڻندا
وڪڻي
وڪڻڻ
وگهي
وڳ
وڳو
وڳوڙ
وڳوڙن
وڳي
وڳڻ
وڻ
وڻج
وڻن
وڻندو
وڻندڙ
وڻي
وڻيو
وڻڪار
وھانء
وھاڙي
وھن
وھندو
وھندڙ
وھي
وھڪرو
وھڪري
وھڻ
وہ
ویب
ویکی
ویکیپیڈیا
ى
ي
يء
يا
ياب
يات
ياترا
ياتري
ياد
ياداشت
يادداشت
يادن
يادو
يادون
يادگار
يادگارن
يادگيري
يادگيرين
يادگيريون
يار
يارمحمد
يارن
يارنهن
يارهن
يارهين
يارو
ياري
يارڊ
يارڪ
يارھن
يارھون
يارھين
ياسر
ياسرقاض
ياسمين
ياسين
يافتا
يافته
يافتہ
ياقوت
يان
يانگ
ياي
يب
يبل
يبند
يبي
يبيريا
يت
يتا
يتن
يتون
يتيم
يثرب
يج
يجان
يجاني
يجر
يجيريا
يحي
يحيي
يخ
يد
يدار
يدارن
يداري
يداريء
يدو
ير
يرغمال
يرقان
يرن
يرو
يروشلم
يريوان
يز
يزر
يزرلينڊ
يزي
يزيد
يزيشن
يس
يسز
يسن
يسنس
يسنسڪاري
يش
يشن
يشيا
يعقوب
يعقوبي
يعني
يف
يفل
يقين
يقينا
يقينن
يقيني
يل
يلا
يلن
يلي
يلينڊ
يم
يمري
يمز
يمس
يمن
يمني
ين
ينء
ينا
يند
يندا
ينداد
يندس
ينده
يندو
يندي
يندين
ينديون
يندڙ
يندڙن
ينر
ينز
ينس
ينل
ينن
ينه
ينهن
ينو
يني
ينڊ
ينگ
ينگڊانگ
يه
يهودي
يهودين
يو
يوا
يوار
يواري
يوان
يور
يورال
يوراگوي
يورو
يوروپا
يوروپي
يوري
يوريشيا
يورينس
يورينيم
يورپ
يورپي
يورپين
يوز
يوزر
يوزرز
يوزرس
يوزرن
يوسف
يوسفي
يوسي
يولاجي
يوم
يون
يونان
يوناني
يونانين
يوناي
يونس
يوني
يونيسيف
يونيسڪو
يونيفارم
يونين
يونيورس
يونيورسل
يونيورسٽي
يونيورسٽيء
يونيورسٽين
يونيورسٽيون
يونيڪوڊ
يونٽ
يونٽن
يونگ
يوي
يويٽ
يويٽا
يوٽا
يوٽوپيا
يوٽيوب
يوپي
يوٿ
يوڪراي
يوڪرين
يوڪريني
يوڪيريي
يوگ
يوگنڊا
يوگوسلاويا
يوڳي
يي
يٽ
يٽا
يٽر
يٽرس
يٽزرلينڊ
يٽس
يٽل
يٽن
يٽنگ
يٽو
يٽون
يٽي
يٽيو
يٽيڊ
يٽڊ
يپ
يچارو
يچاري
يڊ
يڊروجن
يڊس
يڊن
يڊنگ
يڪ
يڪا
يڪاٽ
يڪتارو
يڪتاري
يڪدم
يڪراء
يڪسان
يڪل
يڪلو
يڪلوپيڊيا
يڪو
يڪي
يڪيء
يگ
يگانو
يگر
يگي
يگيه
يڻ
يھودي
يھوديت
يھودين
يہ
ً
ٌ
ٍ
َ
ُ
ِ
ّ
ْ
ٓ
ٔ
ٕ
ٖ
ٗ
٠
١
١٠
١٤
١٥
٢
٣
٣٠
٤
٥
٦
٧
٨
٩
٪
٫
٬
٭
ٰ
ٹ
ٹانک
ٹاو
ٹبی
ٹھٹھہ
ٹی
ٹیکنیکل
ٺ
ٺا
ٺارو
ٺاري
ٺاهه
ٺاهي
ٺاهيا
ٺاهياي
ٺاهيل
ٺاهين
ٺاهيندا
ٺاهيندو
ٺاهيندي
ٺاهيندڙ
ٺاهيو
ٺاهيون
ٺاهڻ
ٺاٺ
ٺاڪر
ٺاھ
ٺاھن
ٺاھي
ٺاھيا
ٺاھيل
ٺاھيندا
ٺاھيندڙ
ٺاھيو
ٺاھيون
ٺاھڻ
ٺري
ٺل
ٺلهه
ٺلھ
ٺمري
ٺن
ٺهراء
ٺهراي
ٺهرايا
ٺهراياي
ٺهرايل
ٺهرايو
ٺهرايون
ٺهن
ٺهندا
ٺهندو
ٺهندي
ٺهنديون
ٺهندڙ
ٺهي
ٺهيا
ٺهيل
ٺهيو
ٺهيون
ٺهڪي
ٺهڻ
ٺو
ٺوس
ٺوڙهي
ٺي
ٺيء
ٺيان
ٺين
ٺيٺ
ٺيڙھي
ٺيڪ
ٺيڪو
ٺيڪي
ٺيڪيدار
ٺٺ
ٺٽ
ٺٽو
ٺٽوي
ٺٽويء
ٺٽي
ٺڙڪ
ٺڪر
ٺڪراٺو
ٺڪرن
ٺڳ
ٺھراء
ٺھراي
ٺھرايا
ٺھرايو
ٺھن
ٺھندا
ٺھندو
ٺھندڙ
ٺھي
ٺھيل
ٺھيو
ٺھيون
ٺھڻ
ٻ
ٻاجهر
ٻاجهري
ٻاجهريء
ٻاجهه
ٻار
ٻاراڻا
ٻاراڻو
ٻاراڻي
ٻارن
ٻارنهن
ٻارنھن
ٻارهن
ٻارهون
ٻارهين
ٻاروتڻ
ٻاري
ٻاريء
ٻاريندا
ٻاريو
ٻارڙا
ٻارڙن
ٻارڙي
ٻارڻ
ٻارھن
ٻارھين
ٻالڪ
ٻالڪپڻ
ٻانهن
ٻانهون
ٻانهي
ٻانهين
ٻانهيون
ٻانڀڻ
ٻانڌي
ٻانھن
ٻانھين
ٻاه
ٻاهر
ٻاهران
ٻاهري
ٻاهريان
ٻاهرين
ٻاهريون
ٻاونجاهه
ٻاويهه
ٻاوڙي
ٻاي
ٻاٻاڻي
ٻاٻيهو
ٻاڦ
ٻاڻي
ٻاڻيون
ٻاھر
ٻاھران
ٻاھريان
ٻاھرين
ٻاھريون
ٻج
ٻجن
ٻر
ٻرن
ٻرندي
ٻرندڙ
ٻرهل
ٻروچن
ٻري
ٻرڙو
ٻرڙي
ٻرڻ
ٻلو
ٻلي
ٻلين
ٻن
ٻنجو
ٻنهي
ٻنهين
ٻني
ٻنيء
ٻنين
ٻنيون
ٻنڊين
ٻنڌ
ٻنڌڻ
ٻنھي
ٻه
ٻهراڙي
ٻهراڙيء
ٻهراڙين
ٻور
ٻورو
ٻوري
ٻول
ٻولن
ٻوله
ٻولهه
ٻولي
ٻوليء
ٻولين
ٻوليون
ٻولھ
ٻوٽا
ٻوٽن
ٻوٽو
ٻوٽي
ٻوٽيء
ٻوٽين
ٻوٽيون
ٻوڌي
ٻوڏ
ٻوڏن
ٻوڙ
ٻوڙا
ٻوڙن
ٻوڙو
ٻوڙي
ٻي
ٻيء
ٻيا
ٻيجل
ٻير
ٻيرن
ٻيلا
ٻيلن
ٻيلو
ٻيلي
ٻين
ٻيهر
ٻيو
ٻيون
ٻيي
ٻيٽ
ٻيٽن
ٻيڙا
ٻيڙن
ٻيڙو
ٻيڙي
ٻيڙيء
ٻيڙين
ٻيڙيون
ٻيڻ
ٻيڻو
ٻيڻي
ٻيھر
ٻٻر
ٻٽ
ٻٽو
ٻٽي
ٻٽير
ٻچا
ٻچن
ٻچو
ٻچي
ٻڌ
ٻڌا
ٻڌاء
ٻڌاي
ٻڌايا
ٻڌاياي
ٻڌايل
ٻڌايو
ٻڌبو
ٻڌجي
ٻڌرايو
ٻڌل
ٻڌمت
ٻڌن
ٻڌندا
ٻڌندو
ٻڌندي
ٻڌنديون
ٻڌندڙ
ٻڌندڙن
ٻڌو
ٻڌي
ٻڌيء
ٻڌڻ
ٻڍل
ٻڍو
ٻڍي
ٻڏي
ٻڏڻ
ٻڙي
ٻڪر
ٻڪرار
ٻڪري
ٻڪريء
ٻڪرين
ٻڪريون
ٻگهيو
ٻگھيو
ٻھ
ٻھراڙي
ٻھراڙيء
ٻھراڙين
ٻہ
ٽ
ٽا
ٽاري
ٽاريء
ٽارين
ٽاريون
ٽارچر
ٽالسٽاء
ٽالمي
ٽالهي
ٽالهيء
ٽالپر
ٽالپرن
ٽالپور
ٽالپورن
ٽام
ٽامو
ٽامي
ٽانوري
ٽانڪ
ٽاو
ٽاور
ٽاي
ٽاپ
ٽاڊ
ٽاڪ
ٽاڪرو
ٽر
ٽراء
ٽراسڪي
ٽرافي
ٽرام
ٽرانزسٽر
ٽرانزسٽرن
ٽرانس
ٽرانسپورٽ
ٽراي
ٽراپيڪل
ٽربيونل
ٽرسٽ
ٽرلين
ٽرم
ٽرمينل
ٽرمپ
ٽرن
ٽرنيڊاڊ
ٽروجن
ٽروجنس
ٽرول
ٽري
ٽريفڪ
ٽرين
ٽريننگ
ٽريٽي
ٽريڊ
ٽريڪ
ٽريڪس
ٽرڪ
ٽزرلينڊ
ٽس
ٽل
ٽلانٽڪ
ٽلس
ٽلٽي
ٽلٽيء
ٽم
ٽماهي
ٽماٽي
ٽمن
ٽمورتي
ٽمي
ٽن
ٽنب
ٽنهي
ٽنڊو
ٽنڊوا
ٽنڊوالهيار
ٽنڊوڄام
ٽنڊي
ٽنگ
ٽنگن
ٽنگون
ٽنگيل
ٽنھي
ٽه
ٽهلرام
ٽهيء
ٽو
ٽوبا
ٽورنامنٽ
ٽورنامينٽ
ٽول
ٽولا
ٽولن
ٽولو
ٽولي
ٽوليء
ٽوليون
ٽون
ٽوني
ٽونگا
ٽوي
ٽوينٽي
ٽويو
ٽويٽر
ٽوٽل
ٽوپ
ٽوپو
ٽوپي
ٽوپيء
ٽوڙ
ٽوڙي
ٽوڙيو
ٽوڙڻ
ٽوڪ
ٽوڪري
ٽوڪيو
ٽوگو
ٽي
ٽيء
ٽيا
ٽياڪڙي
ٽيبل
ٽيج
ٽيرا
ٽيريٽري
ٽيسٽ
ٽيل
ٽيلي
ٽيليفون
ٽيليويزن
ٽيليڪاسٽ
ٽيليڪميونيڪيشن
ٽيليگراف
ٽيم
ٽيمن
ٽيمون
ٽيمپريٽ
ٽيمپل
ٽيمپي
ٽين
ٽينس
ٽيهن
ٽيهه
ٽيو
ٽيوب
ٽيون
ٽيي
ٽيٽ
ٽيپ
ٽيپو
ٽيچر
ٽيچرس
ٽيڊ
ٽيڙو
ٽيڪ
ٽيڪا
ٽيڪس
ٽيڪساس
ٽيڪسلا
ٽيڪسيلا
ٽيڪسٽ
ٽيڪسٽاي
ٽيڪنالاجي
ٽيڪنالاجيء
ٽيڪنالوجي
ٽيڪنيڀياس
ٽيڪنيڪ
ٽيڪنيڪل
ٽيڪنيڪي
ٽيڪنڪ
ٽيڪچند
ٽيگ
ٽيگور
ٽيھ
ٽٽل
ٽٽي
ٽٽڻ
ٽپ
ٽپال
ٽپاي
ٽپو
ٽپي
ٽپڙ
ٽڙي
ٽڙيل
ٽکڙ
ٽکڙاي
ٽڪ
ٽڪا
ٽڪر
ٽڪرا
ٽڪراء
ٽڪراي
ٽڪرن
ٽڪرو
ٽڪري
ٽڪريء
ٽڪرين
ٽڪريون
ٽڪل
ٽڪلي
ٽڪن
ٽڪنڊو
ٽڪنڊي
ٽڪور
ٽڪي
ٽڪيٽ
ٽڻ
ٽڻن
ٽھڪ
ٽہ
پ
پا
پاء
پابند
پابندي
پابندين
پابنديون
پات
پاتا
پاتال
پاتاي
پاتل
پاتو
پاتي
پادري
پادريء
پادرين
پار
پارا
پاران
پاراي
پارس
پارسي
پارسيء
پارسين
پارلياماني
پارليامينٽ
پارليامينٽري
پارن
پارو
پاروتي
پاري
پارٽ
پارٽي
پارٽيء
پارٽيز
پارٽين
پارٽيون
پارپولا
پارک
پارکو
پارڪ
پارڪر
پاس
پاسا
پاسارگاد
پاساي
پاسن
پاسو
پاسي
پاسيرو
پاسپورٽ
پاسڪل
پاشا
پال
پالاري
پالاي
پالتو
پالش
پالنا
پالي
پاليء
پاليسي
پاليسيء
پاليسين
پاليسيون
پاليل
پاليندا
پاليندڙ
پاليو
پالڪ
پالڪيء
پالڻ
پامير
پان
پاناما
پاند
پاني
پانيل
پانيلن
پانڊو
پانڊون
پانڌي
پانڌيي
پاهڙ
پاوا
پاور
پاي
پايه
پايو
پايون
پايي
پاٺ
پاٽ
پاٽاي
پاٽن
پاٽينجر
پاپ
پاپوا
پاپوش
پاپولر
پاڇا
پاڇو
پاڇي
پاڙ
پاڙا
پاڙن
پاڙو
پاڙون
پاڙي
پاڙيسري
پاڙيسرين
پاکستان
پاڪ
پاڪاي
پاڪستان
پاڪستاني
پاڪيزه
پاڪيٽ
پاڳارو
پاڳاري
پاڳل
پاڻ
پاڻمرادو
پاڻهي
پاڻي
پاڻيء
پاڻياٺ
پاڻيٺ
پاڻيپٽ
پبلشر
پبلشرز
پبلشنگ
پبليڪيشن
پبلڪ
پبلڪيشن
پت
پتا
پتافي
پتر
پترا
پترڪ
پتل
پتلو
پتلي
پتن
پتو
پتوجا
پتوڙيو
پتي
پتيء
پتڻ
پختا
پختو
پختون
پختونخوا
پختي
پختگي
پد
پدم
پدما
پذير
پذيراي
پر
پرا
پراجيڪٽ
پراسرار
پراسيس
پرامن
پراي
پراياي
پرايو
پراپرٽي
پراچين
پراڊڪشن
پراڪرت
پراڻ
پراڻا
پراڻن
پراڻو
پراڻي
پراڻيء
پراڻين
پراڻيون
پربت
پرت
پرتاب
پرتي
پرتگال
پرتگالي
پرجوش
پردا
پرداخت
پردن
پرده
پردو
پردي
پرديس
پرديسي
پرديش
پرزا
پرزاي
پرزو
پرساد
پرست
پرستن
پرستي
پرستيء
پرسرام
پرسن
پرسنل
پرش
پرشن
پرشيا
پرشين
پرفارم
پرفارمنس
پرل
پرلوڪ
پرمار
پرمانند
پرميل
پرن
پرنس
پرنسلي
پرنسپال
پرنسپل
پرنسپلٽي
پرنٹرز
پرنٽ
پرنٽر
پرنٽرس
پرنٽنگ
پرهه
پرهيز
پرهيزگار
پرو
پرواز
پروانو
پرواهه
پروجيڪٽ
پرور
پرورش
پروسيس
پروسيسر
پروسيسنگ
پروشيا
پروف
پروفاي
پروفيسر
پروفيشنل
پروفیسر
پرولي
پروليء
پروموشن
پروهت
پرويز
پروين
پروٽان
پروٽسٽنٽ
پروٽو
پروٽوڪول
پروٽيسٽنٽ
پروٽين
پروپي
پروپيگنڊا
پروڊيوس
پروڊيوسر
پروڊڪشن
پروڙ
پروڙي
پروڪسيما
پروگرام
پروگرامن
پروگرامنگ
پروگريسو
پري
پريا
پريان
پريت
پريتم
پريزنٽيشن
پريزيڊنسي
پريزيڊنٽ
پريس
پريشان
پريشاني
پريشر
پريشن
پريفيڪچر
پريل
پريم
پريمي
پريميي
پرين
پرينء
پريوگ
پريوڳ
پريٽر
پريٽنگ
پريٽو
پريڊ
پريڪٽس
پرٿ
پرٿوي
پرڀات
پرڀرو
پرچا
پرچار
پرچارڪ
پرچم
پرچن
پرچو
پرچي
پرڏيهه
پرڏيهي
پرڏيھ
پرڏيھي
پرک
پرکي
پرکيو
پرکڻ
پرڪاش
پرڪشش
پرگت
پرڳڻا
پرڳڻن
پرڳڻو
پرڳڻي
پرڻاي
پرڻجڻ
پرڻو
پرڻيل
پرھ
پرھيز
پس
پسارڪي
پساي
پست
پستڪ
پستڪن
پسراي
پسمنظر
پسند
پسندن
پسندي
پسنديء
پسنديده
پسي
پسگرداي
پسڻ
پشاور
پشت
پشتو
پشتون
پشم
پشپا
پشڪر
پــ
پل
پلا
پلاء
پلازما
پلاسٽڪ
پلان
پلاند
پلاننگ
پلانٽ
پلاي
پلاٽ
پلاڻ
پلجي
پلس
پلستر
پلنگ
پلو
پلوٽو
پلي
پليجاڻي
پليجو
پليجي
پلين
پليو
پليي
پليٽ
پليٽفارم
پليگ
پلٽڻ
پمفليٽ
پمپ
پن
پنا
پناه
پناهه
پناهگير
پناهگيرن
پناھ
پنج
پنجاب
پنجابي
پنجابيء
پنجاهه
پنجاھ
پنجن
پنجو
پنجواڻي
پنجون
پنجويهن
پنجويهه
پنجويھ
پنجي
پنجين
پنجٽيهه
پنجگور
پندرنهن
پندرهن
پندرهين
پندرھين
پنري
پنن
پنهجي
پنهنجا
پنهنجن
پنهنجو
پنهنجون
پنهنجي
پنهنجيء
پنهنجين
پنهنجيون
پنهوار
پنهور
پنهورن
پنهون
پنهونء
پنو
پنوعاقل
پني
پنير
پنٿ
پنٿي
پنچ
پنچاي
پنچم
پنچڊ
پنڈ
پنڈی
پنڊ
پنڊت
پنڊتن
پنڊي
پنڊپھڻ
پنڌ
پنگ
پنگتي
پنھجي
پنھنجا
پنھنجن
پنھنجو
پنھنجون
پنھنجي
پنھوارو
پنھور
پنھون
پنھونء
پهاڙ
پهاڙن
پهاڙي
پهاڪا
پهاڪن
پهاڪو
پهتا
پهتس
پهتل
پهتو
پهتي
پهتيون
پهر
پهراي
پهراڻ
پهري
پهريان
پهرياي
پهريدار
پهرين
پهرينء
پهريو
پهريون
پهلو
پهلوء
پهلوان
پهلوي
پهچ
پهچاي
پهچايو
پهچن
پهچندا
پهچندو
پهچندي
پهچي
پهچڻ
پهڻ
پو
پوء
پواي
پوتر
پوجا
پور
پورا
پوراي
پورب
پورس
پورن
پورهي
پورهيت
پورهيتن
پورهيو
پورهيي
پورو
پوري
پوريء
پوريل
پوريون
پورٽ
پورٽريٽ
پورٽس
پورٽو
پورچوگال
پورچوگيز
پورچوگيزن
پورچوگيزي
پورچوگيزين
پورھيت
پورہ
پوزيشن
پوسل
پوسٽ
پوسٽل
پوش
پوشاڪ
پوشي
پول
پولار
پولر
پولش
پولنگ
پولو
پولي
پوليس
پولينڊ
پوليٽيڪل
پولٽ
پون
پونا
پونجي
پوندا
پوندو
پوندي
پونديون
پوندڙ
پوني
پونير
پوي
پويان
پويتر
پوين
پويون
پوٺو
پوٽا
پوٽر
پوٽن
پوٽو
پوٽوھاري
پوٽي
پوٽيء
پوٽيشم
پوپ
پوپٽ
پوپٽي
پوڄا
پوڄاري
پوڄيندا
پوڙهو
پوڙهي
پوک
پوکبا
پوکبو
پوکبي
پوکجي
پوکي
پوکيء
پوکيا
پوکيل
پوکيندا
پوکيو
پوکيون
پوکڻ
پوڪرداس
پوڻ
پوڻا
پي
پيء
پيا
پيادا
پيادل
پيار
پيارا
پيارجي
پيارن
پيارو
پياري
پياريو
پيارڻ
پياس
پيالا
پيالن
پيالو
پيالي
پيانو
پياڪ
پيتو
پيتي
پيج
پيدا
پيداشون
پيداوار
پيداواري
پيداي
پيدل
پيدوار
پير
پيرا
پيراميٽر
پيران
پيراي
پيراگوي
پيرزادو
پيرزادي
پيرس
پيرساي
پيرل
پيرن
پيرو
پيروز
پيرون
پيروي
پيروڪار
پيروڪارن
پيري
پيرين
پيزلي
پيس
پيسا
پيسفڪ
پيسن
پيسو
پيسي
پيسيفڪ
پيسٽ
پيش
پيشا
پيشاب
پيشابدان
پيشاني
پيشرو
پيشقدمي
پيشن
پيشنگوي
پيشه
پيشو
پيشوا
پيشواي
پيشي
پيشڪار
پيشڪش
پيغام
پيغمبر
پيغمبرن
پيل
پيلا
پيلاڻ
پيلن
پيلو
پيلي
پيليوليٿڪ
پيمانو
پيماني
پيماي
پين
پينسل
پينشن
پينل
پينٽ
پينٽر
پينٽنگ
پيهي
پيو
پيوتن
پيون
پيوند
پيوٽن
پيي
پيٽ
پيٽارو
پيٽر
پيٽرز
پيٽرول
پيٽروليم
پيٽروڪلس
پيٽرڪ
پيٽي
پيپر
پيپلز
پيپلزپارٽي
پيپلزپارٽيء
پيچ
پيچش
پيچوھا
پيچيده
پيچيدھ
پيڇو
پيڊ
پيڊرو
پيڊيا
پيڙا
پيڙهه
پيڙهي
پيڙهيء
پيڪ
پيڪنگ
پيڪو
پيڪٽ
پيڻ
پٹ
پٺ
پٺاڻ
پٺاڻن
پٺتي
پٺن
پٺو
پٺي
پٺيء
پٺيان
پٺڀراي
پٻ
پٽ
پٽالا
پٽاندر
پٽاندڙ
پٽاٽا
پٽن
پٽنا
پٽو
پٽي
پٽيء
پٽيالا
پٽيالہ
پٽيشن
پٽيل
پٽين
پٽيون
پٽيڪل
پٽڙو
پٽڙي
پٽڪو
پٽڻ
پپر
پٿر
پٿرن
پٿري
پٿريلي
پٿورو
پڃرو
پڃري
پڄاڻان
پڄاڻي
پڄاڻيء
پڄي
پچ
پچاء
پچاي
پچندو
پچو
پچي
پچڻ
پڇ
پڇا
پڇاڙي
پڇاڙيء
پڇندو
پڇو
پڇي
پڇيا
پڇياي
پڇيو
پڇڙ
پڇڻ
پڊ
پڊوڪون
پڌ
پڌرا
پڌراي
پڌرنامو
پڌرنامي
پڌرو
پڌري
پڌريون
پڙ
پڙاڏو
پڙتال
پڙن
پڙهاي
پڙهايا
پڙهايو
پڙهن
پڙهندا
پڙهندو
پڙهندي
پڙهندڙ
پڙهندڙن
پڙهه
پڙهو
پڙهي
پڙهيا
پڙهياي
پڙهيل
پڙهيو
پڙهڻ
پڙھاي
پڙھايو
پڙھندا
پڙھندڙ
پڙھو
پڙھي
پڙھيل
پڙھيو
پڙھيون
پڙھڻ
پڦي
پکا
پکن
پکو
پکي
پکيء
پکين
پکيڙ
پکيڙي
پکيڙيو
پکيڙڻ
پکڙجي
پکڙجڻ
پکڙي
پکڙيل
پکڙيو
پڪ
پڪا
پڪل
پڪن
پڪو
پڪوڙا
پڪي
پڪين
پڪيون
پڪڙ
پڪڙجي
پڪڙي
پڪڙيو
پڪڙڻ
پگهار
پگهر
پگھار
پڳ
پڳدار
پڻ
پڻس
پڻي
پھاڙ
پھاڙي
پھتا
پھتو
پھتي
پھر
پھري
پھريان
پھرياي
پھرين
پھريون
پھلو
پھلوي
پھلويء
پھچ
پھچاي
پھچايو
پھچن
پھچي
پھچڻ
پہ
پہلے
پی
پیدا
پیداي
پیر
پیش
پیغام
پیکسل
ٿ
ٿا
ٿالهه
ٿالهي
ٿامس
ٿان
ٿانء
ٿانهينء
ٿانو
ٿانون
ٿاي
ٿاڪ
ٿاڻا
ٿاڻن
ٿاڻو
ٿاڻي
ٿر
ٿراپي
ٿرسو
ٿرلر
ٿرمل
ٿرمو
ٿرو
ٿري
ٿرين
ٿرپارڪر
ٿرڊ
ٿرڙي
ٿس
ٿل
ٿلها
ٿلهو
ٿلهي
ٿلهيون
ٿلھو
ٿلھي
ٿلھيون
ٿنڀ
ٿنڀا
ٿنڀن
ٿنڀو
ٿهيم
ٿو
ٿورا
ٿوراي
ٿورن
ٿورو
ٿوري
ٿوريون
ٿورڙو
ٿورڙي
ٿولهه
ٿولھ
ٿولھھ
ٿوهر
ٿوهي
ٿوڪ
ٿي
ٿيء
ٿيا
ٿياسافيڪل
ٿيان
ٿيس
ٿيسز
ٿيل
ٿيلن
ٿيم
ٿين
ٿيندا
ٿيندس
ٿيندو
ٿيندي
ٿينديون
ٿيندڙ
ٿيندڙن
ٿينس
ٿيو
ٿيوري
ٿيون
ٿيي
ٿيٻو
ٿيٽر
ٿيڻ
ٿيڻو
ٿيڻي
ٿڃ
ٿڌ
ٿڌا
ٿڌو
ٿڌي
ٿڌيون
ٿڙ
ٿڙن
ٿڪ
ٿڪاوٽ
ٿڻ
ٿڻن
ڀ
ڀا
ڀاء
ڀاتي
ڀاتين
ڀار
ڀارت
ڀارتي
ڀاري
ڀاشا
ڀاشاني
ڀان
ڀاني
ڀاو
ڀاوي
ڀاي
ڀاٽيا
ڀاڃ
ڀاڄ
ڀاڄاي
ڀاڄي
ڀاڄيء
ڀاڄين
ڀاڄيون
ڀاڙي
ڀاڪر
ڀاڱا
ڀاڱن
ڀاڱو
ڀاڱي
ڀاڱيدار
ڀاڱيداري
ڀاڱيدارين
ڀاڱيداريون
ڀاڳ
ڀاڳو
ڀاڳي
ڀاڻ
ڀاڻس
ڀاڻيجو
ڀاڻيجي
ڀت
ڀتر
ڀتين
ڀتيون
ڀر
ڀراي
ڀرت
ڀرتي
ڀرجي
ڀرجڻ
ڀرسان
ڀرندو
ڀرندي
ڀرو
ڀروسو
ڀروسي
ڀري
ڀريا
ڀريل
ڀرين
ڀريندا
ڀريندي
ڀريو
ڀريون
ڀرپاسي
ڀرپور
ڀرچونڊي
ڀرڳڙي
ڀرڳڙيء
ڀرڻ
ڀل
ڀلا
ڀلاي
ڀلو
ڀلي
ڀليڪار
ڀنڀرو
ڀنڀري
ڀنڀور
ڀنگ
ڀنگر
ڀو
ڀوت
ڀورو
ڀوري
ڀوشن
ڀولا
ڀومي
ڀوميء
ڀون
ڀونء
ڀونوچ
ڀونگر
ڀوٽان
ڀوپال
ڀوڄراج
ڀوڏيسر
ڀوڳ
ڀي
ڀياس
ڀيد
ڀير
ڀيرا
ڀيرو
ڀيرومل
ڀيروي
ڀيري
ڀيل
ڀيلن
ڀيم
ڀينر
ڀينرن
ڀيو
ڀيٽ
ڀيٽا
ڀيٽي
ڀيڻ
ڀيڻون
ڀٽ
ڀٽا
ڀٽاي
ڀٽن
ڀٽو
ڀٽون
ڀٽي
ڀٽيء
ڀڃ
ڀڃي
ڀڃڪڙي
ڀڃڻ
ڀڃڻي
ڀڄ
ڀڄاي
ڀڄن
ڀڄندو
ڀڄي
ڀڄڻ
ڀڙ
ڀڙڪي
ڀڪر
ڀڪشو
ڀگوان
ڀڳ
ڀڳا
ڀڳت
ڀڳتن
ڀڳتي
ڀڳل
ڀڳو
ڀڳوان
ڀڳوت
ڃ
ڃاتو
ڃاتي
ڃاڻپ
ڃي
ڄ
ڄاتل
ڄاتو
ڄار
ڄاري
ڄاريء
ڄارين
ڄام
ڄامشورو
ڄامشوري
ڄامن
ڄاموٽ
ڄامڙو
ڄانڀو
ڄانڀي
ڄاوا
ڄاول
ڄاي
ڄاڃي
ڄاڙي
ڄاڙيء
ڄاڻ
ڄاڻا
ڄاڻان
ڄاڻاي
ڄاڻايا
ڄاڻايل
ڄاڻايو
ڄاڻخانو
ڄاڻن
ڄاڻندو
ڄاڻو
ڄاڻون
ڄاڻي
ڄاڻيل
ڄاڻڻ
ڄم
ڄمار
ڄماي
ڄمايو
ڄمن
ڄمندي
ڄمون
ڄمي
ڄميل
ڄميو
ڄمڻ
ڄو
ڄي
ڄيٺ
ڄيٺانند
ڄيٺمل
ڄيٺملاڻي
ڄيٺي
ڄڀ
ڄڃ
ڄڻ
ڄڻا
ڄڻن
ڄڻو
ڄڻي
ڄڻڪ
ڄڻڻ
چ
چا
چابھار
چادر
چادرن
چادرون
چار
چارج
چارسده
چارلس
چارلي
چارو
چاري
چاريا
چاريه
چارٽ
چارٽر
چارڻ
چارڻن
چاغي
چاقو
چال
چالاڪ
چالاڪي
چالو
چاليهن
چاليهه
چاليھ
چاند
چاندي
چانديء
چانسلر
چانهن
چانهه
چانور
چانورن
چانڊوڪي
چانڊوڪيء
چانڊيا
چانڊين
چانڊيو
چانڊيي
چانڊڪا
چانڊڪي
چانگ
چانھ
چانھن
چاهه
چاهي
چاهيان
چاهين
چاهيندا
چاهيندو
چاهيو
چاهيون
چاي
چاچا
چاچن
چاچو
چاچي
چاچڙ
چاڊ
چاڙهن
چاڙهه
چاڙهي
چاڙهيندا
چاڙهيو
چاڙهڻ
چاڙھي
چاڙھيو
چاڙھڻ
چاڪ
چاڪر
چاڪليٽ
چاڳلا
چاڳلي
چاھ
چاھي
چاھيو
چاہتے
چتاء
چتر
چترال
چترڪار
چترڪاري
چر
چراغ
چراگاهه
چراگاھون
چرتر
چرخو
چرخي
چرن
چري
چرياي
چرين
چريو
چرٻي
چرٻيء
چرپر
چرچ
چرچل
چرچو
چرڪس
چشتي
چشم
چشما
چشمن
چشمو
چشمي
چغتاي
چقمق
چقمقي
چل
چلت
چلم
چلي
چلڊرين
چم
چمبڙ
چمن
چمي
چمپا
چمچو
چمڙن
چمڙو
چمڙي
چمڙيء
چمڪ
چمڪدار
چمڪندڙ
چمڪي
چن
چنا
چناب
چناي
چنبي
چنبيلي
چنبڙي
چنجڻي
چند
چندر
چندريگر
چندرگپت
چندن
چندو
چندي
چنو
چني
چنيسر
چنيوٽ
چنڊ
چنڊن
چنڊول
چنگ
چنگيز
چنگيزي
چنگھاي
چنڱڙو
چنیوٹ
چهرو
چهري
چهنب
چو
چوان
چوانء
چواي
چواڻي
چور
چوراي
چورس
چورن
چورنگي
چورو
چوري
چورڻ
چولستان
چولو
چولي
چولياڻي
چوماسي
چون
چوندا
چوندو
چوندي
چونديون
چونس
چوني
چونڊ
چونڊبا
چونڊجي
چونڊجڻ
چونڊن
چونڊون
چونڊي
چونڊيا
چونڊيل
چونڊيندا
چونڊيندو
چونڊيندي
چونڊيو
چونڊڻ
چونڪ
چونڪي
چوهاڻ
چوويهه
چوي
چوٽ
چوٽي
چوٽيء
چوٽين
چوٽيون
چوپاي
چوپاين
چوپايو
چوٿاي
چوٿون
چوٿين
چوڌاري
چوڌري
چوڏهن
چوڏهين
چوڏھن
چوڏھون
چوڏھين
چوڙيون
چوڦير
چوڪ
چوڪنڊي
چوڪي
چوڪيون
چوگرد
چوڻ
چوڻي
چوڻين
چوڻيون
چي
چيا
چياي
چيتن
چيخوف
چير
چيري
چيز
چيزل
چيس
چيف
چيل
چيلهار
چيلهه
چيلھ
چيمبر
چين
چينل
چينلن
چيني
چينيء
چينڊلر
چيو
چيون
چيي
چيٽ
چيٽي
چيچن
چيچنيا
چيڪ
چيڪلو
چيڪلي
چيڪي
چٽ
چٽا
چٽاي
چٽاڀيٽي
چٽاڀيٽيء
چٽسالي
چٽساليء
چٽو
چٽي
چٽيء
چٽيل
چٽيو
چٽڻي
چپ
چپلن
چپن
چپي
چڀڙ
چچ
چچنامو
چچنامي
چچنيا
چڙ
چڙهاي
چڙهندا
چڙهندو
چڙهي
چڙهيا
چڙهيل
چڙهيو
چڙهڻ
چڙيا
چڙھاي
چڙھاڪو
چڙھي
چڙھيل
چڙھڻ
چک
چکوال
چڪ
چڪا
چڪاس
چڪر
چڪس
چڪو
چڪوال
چڪور
چڪوري
چڪي
چڪيون
چڱا
چڱاي
چڱن
چڱو
چڱي
چڱيء
چڱيون
چڻ
چڻن
چھري
چھنب
چھوڑ
چیمہ
چین
ڇ
ڇا
ڇاتي
ڇاتيء
ڇاتين
ڇالاء
ڇانو
ڇانوڻي
ڇانوڻيء
ڇاني
ڇانيل
ڇانگ
ڇاي
ڇاٻڙيا
ڇاپ
ڇاپا
ڇاپاڪو
ڇاپاڪي
ڇاپن
ڇاپو
ڇاپي
ڇاپيا
ڇاپيل
ڇاپيندڙ
ڇاپيو
ڇاپڻ
ڇاڇرو
ڇاڇري
ڇاڙ
ڇاڙهه
ڇاڪاڻ
ڇاڻ
ڇاڻي
ڇت
ڇتو
ڇتي
ڇتيس
ڇتين
ڇتيون
ڇجو
ڇر
ڇرڪ
ڇلا
ڇلاي
ڇلر
ڇلو
ڇلي
ڇليدار
ڇن
ڇند
ڇني
ڇنڇر
ڇنڊ
ڇنڊي
ڇنڊڇاڻ
ڇهن
ڇهه
ڇهون
ڇهين
ڇهڻ
ڇو
ڇوته
ڇوتہ
ڇوجو
ڇور
ڇوليون
ڇوٽ
ڇوٽڪارو
ڇوٽڪاري
ڇوڏا
ڇوڏن
ڇوڏي
ڇوڙ
ڇوڙي
ڇوڪر
ڇوڪرا
ڇوڪرن
ڇوڪرو
ڇوڪري
ڇوڪريء
ڇوڪرين
ڇوڪريون
ڇي
ڇيد
ڇيلا
ڇيو
ڇيڙا
ڇيڙن
ڇيڙو
ڇيڙي
ڇيڻن
ڇيڻي
ڇٺيء
ڇٽ
ڇٽاي
ڇٽو
ڇٽي
ڇپ
ڇپاي
ڇپايا
ڇپاياي
ڇپايل
ڇپايو
ڇپبا
ڇپجندا
ڇپجندڙ
ڇپجي
ڇپجڻ
ڇپر
ڇپراي
ڇپرايا
ڇپرايو
ڇپي
ڇپيا
ڇپيل
ڇپيندڙ
ڇپيو
ڇپيون
ڇڄ
ڇڄي
ڇڄڙا
ڇڊي
ڇڏ
ڇڏاي
ڇڏبو
ڇڏجن
ڇڏجي
ڇڏي
ڇڏيا
ڇڏيان
ڇڏياي
ڇڏيل
ڇڏين
ڇڏيندا
ڇڏيندس
ڇڏيندو
ڇڏيندي
ڇڏينديون
ڇڏيو
ڇڏيون
ڇڏڻ
ڇڏڻو
ڇڙوڇڙ
ڇڙي
ڇڪ
ڇڪاي
ڇڪايو
ڇڪتاڻ
ڇڪجي
ڇڪون
ڇڪي
ڇڪيندا
ڇڪڻ
ڇڳا
ڇڻي
ڇھ
ڇھن
ڇھون
ڇھين
ڇھہ
ڈ
ڈاکٹر
ڈبلیو
ڈگر
ڈی
ڈیرہ
ڈیٹا
ڊ
ڊاء
ڊارون
ڊالر
ڊالرن
ڊالي
ڊالٽن
ڊان
ڊانس
ڊانسر
ڊانهڻ
ڊاهي
ڊاهڻ
ڊاي
ڊاٺو
ڊاٽ
ڊاک
ڊاڪ
ڊاڪٽر
ڊاڪٽرن
ڊاڪٽري
ڊاڪٽريٽ
ڊاڪٽوريٽ
ڊبل
ڊبلن
ڊبليو
ڊجيٽل
ڊرافٽ
ڊراما
ڊراماي
ڊرامن
ڊرامه
ڊرامو
ڊرامي
ڊراي
ڊرو
ڊروجن
ڊرون
ڊري
ڊريم
ڊرين
ڊرگھ
ڊزاي
ڊزني
ڊسمبر
ڊسمس
ڊسٽري
ڊسٽرڪٽ
ڊسپلي
ڊسپينسري
ڊسپينسريون
ڊسڪ
ڊسڪيٽ
ڊفينس
ڊمي
ڊن
ڊنڊي
ڊهي
ڊو
ڊواي
ڊول
ڊولپر
ڊولپمينٽ
ڊومين
ڊومينيڪا
ڊومينيڪن
ڊونلڊ
ڊويزن
ڊويزنل
ڊويزنن
ڊويزنون
ڊوڙ
ڊوڙاي
ڊوڙون
ڊوڙي
ڊوڙڻ
ڊوگر
ڊي
ڊيء
ڊيرا
ڊيره
ڊيز
ڊيزاي
ڊيزل
ڊيسي
ڊيسڪ
ڊيشن
ڊيل
ڊيلي
ڊيلٽا
ڊيم
ڊيمن
ڊيموڪريسي
ڊيموڪريٽڪ
ڊيمي
ڊين
ڊينش
ڊينمارڪ
ڊينور
ڊيني
ڊينٽل
ڊيو
ڊيورانٽ
ڊيورنٽ
ڊيوس
ڊيولپمينٽ
ڊيوٽي
ڊيوڊ
ڊيوڪ
ڊيي
ڊيٽا
ڊيٽابيس
ڊيٽوريم
ڊيپو
ڊيگهه
ڊيگھ
ڊيگھھ
ڊٺل
ڊپ
ڊپارٽمينٽ
ڊپريشن
ڊپلوما
ڊپلوميسي
ڊپٽي
ڊپٽيز
ڊڀري
ڊڄي
ڊچ
ڊچي
ڊکڻ
ڊڪ
ڊڪشت
ڊڪشنري
ڊڪشنريء
ڊڪشنرين
ڊڪشنريون
ڊڪٽيٽر
ڊگري
ڊگرين
ڊگريون
ڊگها
ڊگهاي
ڊگهن
ڊگهو
ڊگهي
ڊگهين
ڊگهيون
ڊگھ
ڊگھا
ڊگھاي
ڊگھو
ڊگھي
ڊگھيون
ڊھي
ڌ
ڌا
ڌات
ڌاتن
ڌاتو
ڌاتوء
ڌاتوي
ڌار
ڌارا
ڌاران
ڌاراي
ڌاري
ڌاريا
ڌاريجو
ڌاريل
ڌارين
ڌاريو
ڌارڻ
ڌام
ڌامراھ
ڌامراھا
ڌامراھو
ڌاي
ڌايو
ڌاڙي
ڌاڙيل
ڌاڙيلن
ڌاڪو
ڌاڳا
ڌاڳن
ڌاڳو
ڌاڳي
ڌاڻا
ڌر
ڌرتي
ڌرتيء
ڌرم
ڌرمداس
ڌرمن
ڌرمي
ڌري
ڌرين
ڌريو
ڌريون
ڌرڀاء
ڌل
ڌمال
ڌماڪا
ڌماڪن
ڌماڪو
ڌماڪي
ڌمت
ڌمڪي
ڌمڪيون
ڌن
ڌنار
ڌنن
ڌنون
ڌني
ڌنڌ
ڌنڌا
ڌنڌن
ڌنڌو
ڌنڌي
ڌو
ڌوم
ڌوي
ڌوپ
ڌوڙ
ڌوڪو
ڌوڪي
ڌي
ڌيء
ڌيان
ڌيوت
ڌيي
ڌيڪ
ڌٻڻ
ڌپ
ڌڙ
ڌڙن
ڌڙي
ڌڪ
ڌڪي
ڌڪڻ
ڌڱ
ڌڱاڻو
ڌڻ
ڌڻي
ڌڻيء
ڍ
ڍار
ڍال
ڍانچو
ڍانچي
ڍاٽ
ڍاٽڪي
ڍاڪا
ڍرو
ڍل
ڍنڍ
ڍنڍن
ڍنڍون
ڍنگ
ڍو
ڍور
ڍورا
ڍورن
ڍورو
ڍوري
ڍول
ڍولڪ
ڍي
ڍير
ڍڪ
ڍڪجي
ڍڪي
ڍڪيل
ڍڪيو
ڍڪڻ
ڍڳ
ڍڳا
ڍڳن
ڍڳو
ڍڳي
ڍڳين
ڍڳيون
ڏ
ڏا
ڏات
ڏاتار
ڏاتو
ڏاج
ڏار
ڏام
ڏامر
ڏامي
ڏامڻ
ڏانء
ڏاند
ڏانهن
ڏانڊي
ڏانڊيء
ڏانھن
ڏاها
ڏاهاڪا
ڏاهر
ڏاهري
ڏاهن
ڏاهو
ڏاهي
ڏاهپ
ڏاي
ڏاچي
ڏاڍ
ڏاڍا
ڏاڍاي
ڏاڍو
ڏاڍي
ڏاڍيون
ڏاڏا
ڏاڏن
ڏاڏو
ڏاڏي
ڏاڙهون
ڏاڙهي
ڏاڙھون
ڏاکڻو
ڏاکڻي
ڏاکڻين
ڏاکڻيون
ڏاڪا
ڏاڪو
ڏاڪي
ڏاڪڻ
ڏاھر
ڏاھري
ڏاھپ
ڏبو
ڏبي
ڏتل
ڏجن
ڏجي
ڏجين
ڏر
ڏس
ڏسان
ڏسبا
ڏسبو
ڏسجن
ڏسجي
ڏسن
ڏسندا
ڏسندو
ڏسندي
ڏسندڙ
ڏسو
ڏسون
ڏسي
ڏسڻ
ڏسڻو
ڏسڻي
ڏن
ڏنا
ڏناي
ڏند
ڏندن
ڏندڪٿا
ڏندڪٿاي
ڏندڻ
ڏنس
ڏنل
ڏنو
ڏني
ڏنيون
ڏنڊ
ڏنڊو
ڏنگ
ڏنگي
ڏنگين
ڏه
ڏهاي
ڏهاڙا
ڏهاڙن
ڏهاڙو
ڏهاڙي
ڏهاڪن
ڏهاڪو
ڏهاڪي
ڏهر
ڏهراج
ڏهرسيه
ڏهرن
ڏهن
ڏهه
ڏهون
ڏهي
ڏهين
ڏهڪاء
ڏهہ
ڏو
ڏواڻي
ڏواڻيء
ڏور
ڏورانهن
ڏورانهين
ڏوري
ڏونگر
ڏوهاري
ڏوهارين
ڏوهن
ڏوهه
ڏوهي
ڏوهٽو
ڏوي
ڏوکي
ڏوڪري
ڏوڪريء
ڏوڪڙ
ڏوھ
ڏوھاري
ڏوھن
ڏي
ڏيا
ڏيارام
ڏياري
ڏياريندڙ
ڏياريو
ڏيارڻ
ڏيان
ڏياچ
ڏيتي
ڏيجي
ڏير
ڏيرا
ڏيرو
ڏيري
ڏين
ڏيندا
ڏينداسين
ڏيندس
ڏيندو
ڏيندي
ڏينديون
ڏيندڙ
ڏيندڙن
ڏينهن
ڏينهون
ڏينھن
ڏيهان
ڏيهن
ڏيهه
ڏيهي
ڏيو
ڏيوالو
ڏيون
ڏيي
ڏيپر
ڏيپلاي
ڏيپلو
ڏيپلي
ڏيپي
ڏيٿو
ڏيڍ
ڏيڏر
ڏيک
ڏيکاء
ڏيکار
ڏيکاري
ڏيکاريا
ڏيکاريل
ڏيکارين
ڏيکاريندا
ڏيکاريندو
ڏيکاريندي
ڏيکاريندڙ
ڏيکاريو
ڏيکاريون
ڏيکارڻ
ڏيکاي
ڏيڻ
ڏيڻا
ڏيڻو
ڏيڻي
ڏيھ
ڏيھي
ڏٺ
ڏٺا
ڏٺاي
ڏٺم
ڏٺو
ڏٺي
ڏٺيون
ڏڦيڙ
ڏک
ڏکن
ڏکوي
ڏکي
ڏکيا
ڏکياي
ڏکين
ڏکيو
ڏکڻ
ڏڪار
ڏڪر
ڏڪي
ڏڻ
ڏڻن
ڏھ
ڏھاي
ڏھاڙو
ڏھاڙي
ڏھاڪن
ڏھاڪو
ڏھاڪي
ڏھن
ڏھون
ڏھي
ڏھين
ژ
ژوب
ڙ
ڙا
ڙس
ڙن
ڙهي
ڙو
ڙي
ڙيا
ڙيل
ڙيون
ڙڪ
ڦ
ڦار
ڦاساي
ڦاسي
ڦاسيء
ڦاهي
ڦاٽ
ڦاٽن
ڦاٽي
ڦاٽڪ
ڦاٽڻ
ڦاٿل
ڦاڙي
ڦاڪ
ڦاھي
ڦر
ڦرلٽ
ڦرندو
ڦرندي
ڦرندڙ
ڦري
ڦريل
ڦرين
ڦريو
ڦريون
ڦرڙين
ڦرڻ
ڦل
ڦلاڻي
ڦلجي
ڦلن
ڦلي
ڦليلي
ڦليليء
ڦلپوٽو
ڦلڪارو
ڦهلاء
ڦهلاي
ڦهلجي
ڦهليل
ڦودنو
ڦورو
ڦول
ڦولن
ڦوهارو
ڦوٽ
ڦوٽا
ڦوٽو
ڦوڙ
ڦوڪ
ڦوڳ
ڦوڳن
ڦير
ڦيرا
ڦيراي
ڦيرو
ڦيرواڻي
ڦيري
ڦيرڦار
ڦيرگهير
ڦيٿي
ڦٻاي
ڦٽ
ڦٽا
ڦٽل
ڦٽن
ڦٽندو
ڦٽو
ڦٽي
ڦٽيء
ڦٽڻ
ڦڙا
ڦڙتيلو
ڦڙن
ڦڙو
ڦڦڙ
ڦڦڙن
ڦڪا
ڦڪو
ڦڪي
ڦڳڻ
ڦڻي
ڦھلاء
ڦھلجي
ڦھليل
ک
کا
کاتا
کاتن
کاتو
کاتي
کار
کاراي
کارو
کاري
کاريء
کالونی
کام
کان
کانسواء
کاني
کانپوء
کاهي
کاي
کاٻو
کاٻي
کاٽ
کاڄ
کاڌ
کاڌا
کاڌاي
کاڌل
کاڌن
کاڌو
کاڌي
کاڙ
کاڙو
کاڻ
کاڻن
کاڻي
کاڻين
کاڻيون
کبڙ
کتاب
کتري
کتل
کجور
کجي
کجيء
کجين
کر
کراچی
کرب
کرتا
کرتے
کرج
کرل
کرم
کرنا
کرنے
کرو
کري
کریں
کسجي
کسي
کسيو
کسڻ
کسی
کل
کلاڙي
کلاں
کلن
کلندو
کلندي
کلون
کلي
کليا
کليل
کليو
کلڻ
کم
کن
کنا
کنوڻ
کني
کنيا
کنياي
کنيل
کنيو
کنيون
کنڀ
کنڀات
کنڀن
کنڀي
کنڊ
کنڊر
کنڊرات
کنڊرن
کنڊن
کنڊو
کنگهه
کنگھ
کنگھار
که
کهاوڙ
کهنبا
کهنبو
کهڙو
کهڙي
کو
کوج
کوجنا
کوجناي
کوجي
کوسا
کوسن
کوسو
کوسي
کولاي
کولي
کوليا
کولياي
کوليو
کوليون
کولڻ
کون
کونگهرن
کوهن
کوهه
کوي
کوٹ
کوٹلہ
کوٹلی
کوٽ
کوٽاي
کوٽايو
کوٽي
کوٽيل
کوٽڻ
کوپڙي
کوپڙيء
کوڙ
کوڙي
کوڙيا
کوکر
کوھ
کي
کيا
کياي
کيتر
کيتلاري
کيتي
کير
کيرا
کيراي
کيرو
کيري
کيرپياريندڙ
کيرٿر
کيس
کيل
کيمچند
کين
کيه
کيو
کيي
کيڏندا
کيڏي
کيڏيو
کيڏيون
کيڏڻ
کيڙي
کيہ
کٻي
کٻڙ
کٽ
کٽا
کٽاڻ
کٽمنڊو
کٽن
کٽو
کٽي
کٽيء
کٽيا
کٽياي
کٽياڻ
کٽيندڙ
کٽيو
کٽيون
کٽڻ
کپ
کپاي
کپت
کپرو
کپري
کپن
کپي
کڄي
کچھ
کڏ
کڏن
کڏو
کڏون
کڏي
کڏھري
کڙ
کڙا
کڙو
کڙي
کڻ
کڻاي
کڻن
کڻندا
کڻندو
کڻندي
کڻندڙ
کڻي
کڻڻ
کڻڻو
کھاوڙ
کھڙو
کہ
کہا
کی
کیا
کیمیاي
کیوں
کے
ڪ
ڪا
ڪابل
ڪابلي
ڪابه
ڪابينا
ڪابينه
ڪابہ
ڪات
ڪاتب
ڪاتيار
ڪار
ڪارا
ڪاراباخ
ڪاراي
ڪاراڻ
ڪارب
ڪاربان
ڪاربن
ڪارج
ڪارخانا
ڪارخانن
ڪارخانو
ڪارخاني
ڪاررواي
ڪاررواين
ڪارروايون
ڪارل
ڪارن
ڪارناما
ڪارنامن
ڪارنامو
ڪارنامي
ڪارنر
ڪارو
ڪاروان
ڪارواي
ڪاروايون
ڪاروبار
ڪاروباري
ڪارون
ڪارونجهر
ڪارونجھر
ڪاروهنوار
ڪاري
ڪاريء
ڪارين
ڪاريون
ڪاريگر
ڪاريگرن
ڪاريگري
ڪاريگريء
ڪارٽر
ڪارٽون
ڪارپوريشن
ڪارپيٽ
ڪارٿيج
ڪارڊ
ڪارڙا
ڪارڪ
ڪارڪردگي
ڪارڪردگيء
ڪارڪن
ڪارڪنن
ڪارگر
ڪارگل
ڪارڻ
ڪاس
ڪاساي
ڪاسني
ڪاسٽ
ڪاسٽر
ڪاش
ڪاشي
ڪاشيء
ڪاظم
ڪاظمي
ڪاغذ
ڪاغذن
ڪاغذي
ڪاف
ڪافر
ڪافرن
ڪافور
ڪافي
ڪافيء
ڪافين
ڪافيون
ڪال
ڪالا
ڪالاباغ
ڪالاڻي
ڪالج
ڪالرا
ڪالم
ڪالمن
ڪالهه
ڪالوني
ڪالونين
ڪالونيون
ڪالي
ڪاليج
ڪاليجز
ڪاليجن
ڪاليداس
ڪام
ڪاما
ڪامران
ڪامرس
ڪامريڊ
ڪامل
ڪامن
ڪامنز
ڪامورا
ڪامورن
ڪامورو
ڪامون
ڪامياب
ڪاميابي
ڪاميابيء
ڪاميابين
ڪاميابيون
ڪاميٽي
ڪاميٽيء
ڪاميٽين
ڪاميٽيون
ڪاميڊي
ڪامپليڪس
ڪان
ڪانء
ڪانسي
ڪانفرنس
ڪانفرنسن
ڪانفرنسون
ڪانه
ڪانهي
ڪانو
ڪانوينٽ
ڪاني
ڪانپور
ڪانڀو
ڪانڌڙا
ڪانڌڙو
ڪانڪريٽ
ڪانگ
ڪانگريس
ڪانگريسي
ڪانگن
ڪانگو
ڪانھي
ڪانہ
ڪاهن
ڪاهه
ڪاهو
ڪاهون
ڪاهي
ڪاهيو
ڪاو
ڪاوش
ڪاوشن
ڪاوڙ
ڪاوڙجي
ڪاي
ڪايا
ڪاٺ
ڪاٺي
ڪاٺيء
ڪاٺياواڙ
ڪاٺين
ڪاٺيون
ڪاٽ
ڪاٽن
ڪاٽو
ڪاٽي
ڪاٽياي
ڪاپاري
ڪاپي
ڪاپيون
ڪاٿو
ڪاٿي
ڪاڇو
ڪاڇي
ڪاڇڙي
ڪاڙهو
ڪاڙهي
ڪاڪ
ڪاڪا
ڪاڪوس
ڪاڪي
ڪاڪڙ
ڪاڻ
ڪاھ
ڪاھي
ڪبا
ڪباب
ڪبو
ڪبوتر
ڪبوترن
ڪبي
ڪبير
ڪتا
ڪتاب
ڪتابت
ڪتابن
ڪتابي
ڪتابڙا
ڪتابڙو
ڪتابڙي
ڪتب
ڪتبا
ڪتبخانا
ڪتبخانو
ڪتبخاني
ڪتبن
ڪتبو
ڪتبي
ڪتن
ڪتو
ڪتي
ڪتڻ
ڪثرت
ڪثير
ڪج
ڪجن
ڪجه
ڪجهه
ڪجهہ
ڪجو
ڪجي
ڪجھ
ڪجھه
ڪجھھ
ڪجھہ
ڪده
ڪر
ڪراس
ڪرافٽ
ڪرام
ڪرامت
ڪرامتن
ڪراي
ڪرايا
ڪراياي
ڪرايل
ڪرايو
ڪرايون
ڪراچي
ڪراچيء
ڪربلا
ڪربلاي
ڪرت
ڪرتار
ڪرتب
ڪرد
ڪردار
ڪردارن
ڪرزوس
ڪرزي
ڪرسمس
ڪرسي
ڪرسٽل
ڪرسٽوفر
ڪرسچن
ڪرشما
ڪرشن
ڪرشنا
ڪرغزستان
ڪرفيو
ڪرم
ڪرمان
ڪرماني
ڪرمنل
ڪرن
ڪرناٽڪ
ڪرناٽڪا
ڪرندا
ڪرندو
ڪرندي
ڪرندڙ
ڪرنسي
ڪرنل
ڪرنٽ
ڪرنگهي
ڪرنگھي
ڪرنگھيدار
ڪرو
ڪروز
ڪروسافٽ
ڪروم
ڪروموسوم
ڪرون
ڪرونا
ڪرونيشيا
ڪروي
ڪروٽ
ڪروڙ
ڪروڙن
ڪروڙين
ڪري
ڪريا
ڪريان
ڪريس
ڪريل
ڪريم
ڪريمن
ڪرين
ڪريو
ڪريون
ڪريي
ڪريٽر
ڪريٽو
ڪريڊٽ
ڪريڪ
ڪرپشن
ڪرڙ
ڪرڙي
ڪرڪ
ڪرڪيٽ
ڪرڪيٽر
ڪرڻ
ڪرڻا
ڪرڻن
ڪرڻو
ڪرڻي
ڪزنس
ڪس
ڪساي
ڪسر
ڪسفورڊ
ڪسوٽي
ڪسي
ڪسيجن
ڪسٽم
ڪش
ڪشادا
ڪشادو
ڪشادي
ڪشتو
ڪشتي
ڪشش
ڪشف
ڪشمش
ڪشمور
ڪشمير
ڪشميري
ڪشمڪش
ڪشن
ڪشنچند
ڪشور
ڪشي
ڪعب
ڪعبة
ڪعبو
ڪعبي
ڪـ
ڪفايت
ڪفر
ڪفن
ڪل
ڪلا
ڪلاب
ڪلارڪ
ڪلاس
ڪلاسن
ڪلاسيڪل
ڪلاسيڪي
ڪلاسڪ
ڪلام
ڪلامن
ڪلامي
ڪلان
ڪلاي
ڪلاچي
ڪلاڪ
ڪلاڪار
ڪلاڪن
ڪلب
ڪلبي
ڪلثوم
ڪلر
ڪلراٺي
ڪلري
ڪلرڪ
ڪلفٽن
ڪلمتي
ڪلمو
ڪلمي
ڪلن
ڪلنٽن
ڪلهن
ڪلهه
ڪلهوڙا
ڪلهوڙن
ڪلهوڙو
ڪلهوڙي
ڪلهي
ڪلو
ڪلوميٽر
ڪلوميٽرن
ڪلوواٽ
ڪلوي
ڪلوپيڊيا
ڪلوگرام
ڪلي
ڪليات
ڪلياڻ
ڪليسا
ڪليم
ڪلين
ڪلينڊر
ڪلينڪ
ڪليون
ڪليي
ڪليڪٽر
ڪلپنا
ڪلچر
ڪلچرل
ڪلڪ
ڪلڪتا
ڪلڪتو
ڪلڪتي
ڪلھ
ڪلھوڙا
ڪلھوڙن
ڪلھوڙو
ڪلھوڙي
ڪم
ڪمار
ڪماري
ڪمال
ڪماليت
ڪمان
ڪمانڊ
ڪمانڊر
ڪماي
ڪمايو
ڪمبل
ڪمبوڊيا
ڪمرا
ڪمرشل
ڪمرن
ڪمرو
ڪمري
ڪمزور
ڪمزوري
ڪمزوريء
ڪمزورين
ڪمشنر
ڪمل
ڪمن
ڪمند
ڪمي
ڪميشن
ڪميون
ڪميونزم
ڪميونسٽ
ڪميونسٽن
ڪميونيڪيشز
ڪميونيڪيشن
ڪميونيڪيشنز
ڪميونٽي
ڪميٽي
ڪميٽيء
ڪميٽين
ڪميٽيون
ڪمپني
ڪمپنيء
ڪمپنين
ڪمپنيون
ڪمپوز
ڪمپوزر
ڪمپوزنگ
ڪمپيوٽر
ڪمپيوٽرن
ڪمپيوٽنگ
ڪمپيي
ڪن
ڪنار
ڪنارا
ڪنارن
ڪناره
ڪنارو
ڪناري
ڪنب
ڪنجهي
ڪندا
ڪنداسون
ڪنداسين
ڪندس
ڪندن
ڪندو
ڪندي
ڪنديس
ڪنديون
ڪندڙ
ڪندڙن
ڪنري
ڪنز
ڪنس
ڪنسرٽ
ڪنعان
ڪنفيڊريشن
ڪنن
ڪنهن
ڪنو
ڪنوار
ڪنواري
ڪنواريتن
ڪنور
ڪنول
ڪنوينر
ڪنوينشن
ڪني
ڪنيا
ڪنيت
ڪنيڪشن
ڪنٽرول
ڪنٽرولر
ڪنٽري
ڪنڀار
ڪنڀر
ڪنڊ
ڪنڊا
ڪنڊن
ڪنڊو
ڪنڊي
ڪنڊيارو
ڪنڊياري
ڪنڊڪٽر
ڪنڌ
ڪنڌي
ڪنڌيء
ڪنڌڪوٽ
ڪنڍي
ڪنڙ
ڪنگ
ڪنگا
ڪنگراڻي
ڪنگري
ڪنگز
ڪنگور
ڪنگڊم
ڪنھن
ڪه
ڪهاڻي
ڪهاڻيء
ڪهاڻين
ڪهاڻيون
ڪهاڻيڪار
ڪهه
ڪهي
ڪهڙا
ڪهڙن
ڪهڙو
ڪهڙي
ڪهڙيء
ڪهڙيون
ڪهڪشان
ڪهڪشاي
ڪهڻي
ڪهڻيء
ڪو
ڪوا
ڪوارٽر
ڪوارٽرز
ڪوالالمپور
ڪوانٽم
ڪوبه
ڪوبہ
ڪوتا
ڪوثر
ڪور
ڪوراي
ڪورس
ڪورنگي
ڪورو
ڪورون
ڪورونا
ڪوروناواي
ڪوروين
ڪوري
ڪوريا
ڪورياي
ڪوريج
ڪوريجا
ڪوريجو
ڪورين
ڪورٽ
ڪورٽن
ڪورٽون
ڪوس
ڪوسي
ڪوسٽ
ڪوش
ڪوشش
ڪوششن
ڪوششون
ڪوفي
ڪول
ڪولاچي
ڪولمبس
ڪولمبو
ڪولمبيا
ڪولن
ڪولهي
ڪولي
ڪوليسٽرول
ڪولڪتا
ڪومت
ڪومل
ڪومنتانگ
ڪون
ڪونج
ڪونسل
ڪونه
ڪونهن
ڪونهي
ڪونوڪارپس
ڪونڊيء
ڪونڊين
ڪونڍير
ڪونھي
ڪونہ
ڪوه
ڪوهاٽ
ڪوهستان
ڪوهستاني
ڪوهن
ڪوهه
ڪوهيار
ڪووي
ڪووڊ
ڪوي
ڪويت
ڪويتا
ڪوٺاي
ڪوٺايل
ڪوٺجي
ڪوٺي
ڪوٺيء
ڪوٺين
ڪوٺيندا
ڪوٺيو
ڪوٺيون
ڪوٽ
ڪوٽا
ڪوٽڏجي
ڪوٽڙي
ڪوٽڙيء
ڪوپرنيڪس
ڪوپن
ڪوچ
ڪوڊ
ڪوڏ
ڪوڏر
ڪوڏي
ڪوڏيون
ڪوڙ
ڪوڙا
ڪوڙاي
ڪوڙهه
ڪوڙو
ڪوڙي
ڪوڙھ
ڪوڪ
ڪوڪا
ڪوڪلتاش
ڪوڪن
ڪوڪند
ڪوڪو
ڪوھ
ڪوھاٽ
ڪوھستان
ڪي
ڪيء
ڪيا
ڪياماڙي
ڪيان
ڪياني
ڪياي
ڪيبل
ڪيبورڊ
ڪيترا
ڪيتراي
ڪيترن
ڪيترو
ڪيتري
ڪيترين
ڪيتريون
ڪير
ڪيرالا
ڪيراي
ڪيرايو
ڪيرت
ڪيرولينا
ڪيري
ڪيريبي
ڪيريبين
ڪيريو
ڪيريي
ڪيس
ڪيسن
ڪيسٽ
ڪيسپي
ڪيش
ڪيف
ڪيفيت
ڪيفيتن
ڪيل
ڪيلا
ڪيلاس
ڪيلشم
ڪيلشيم
ڪيلنڊر
ڪيلو
ڪيلوري
ڪيلي
ڪيليفورنيا
ڪيلينڊر
ڪيليڊونيا
ڪيلٽڪ
ڪيم
ڪيمبرج
ڪيمرون
ڪيمسٽري
ڪيميا
ڪيمياي
ڪيمياگر
ڪيميڪل
ڪيمپ
ڪيمپس
ڪيمپن
ڪين
ڪينال
ڪيناڊا
ڪينبرا
ڪينجهر
ڪينجھر
ڪينسر
ڪينو
ڪيني
ڪينيا
ڪينيڊا
ڪينيڊي
ڪينٽ
ڪينٽونمينٽ
ڪيهر
ڪيو
ڪيوب
ڪيوبا
ڪيوبڪ
ڪيوري
ڪيوسڪ
ڪيولراماڻي
ڪيولراماڻيء
ڪيون
ڪيي
ڪيٽ
ڪيٽي
ڪيٽين
ڪيپ
ڪيپسول
ڪيپيٽل
ڪيپٽن
ڪيٿاي
ڪيٿراي
ڪيٿولڪ
ڪيٿيڊرل
ڪيچ
ڪيڊٽ
ڪيڏارو
ڪيڏانهن
ڪيڏو
ڪيڏي
ڪيڙا
ڪيڙن
ڪيڙو
ڪيڙي
ڪيڪ
ڪٺا
ڪٺو
ڪٺي
ڪٻر
ڪٽ
ڪٽاي
ڪٽجي
ڪٽر
ڪٽريا
ڪٽرپڻي
ڪٽس
ڪٽنب
ڪٽنبن
ڪٽوبر
ڪٽومبر
ڪٽي
ڪٽيريا
ڪٽيل
ڪٽپر
ڪٽڪ
ڪٽڻ
ڪپ
ڪپتان
ڪپر
ڪپن
ڪپهه
ڪپور
ڪپي
ڪپڙا
ڪپڙن
ڪپڙو
ڪپڙي
ڪپھ
ڪٿ
ڪٿا
ڪٿان
ڪٿاي
ڪٿي
ڪچ
ڪچا
ڪچرو
ڪچري
ڪچلڻ
ڪچن
ڪچهري
ڪچهريء
ڪچهرين
ڪچهريون
ڪچو
ڪچي
ڪچين
ڪچيون
ڪڇ
ڪڇا
ڪڇي
ڪڇيء
ڪڍ
ڪڍاي
ڪڍبو
ڪڍن
ڪڍندا
ڪڍندو
ڪڍندي
ڪڍنديون
ڪڍي
ڪڍيا
ڪڍياي
ڪڍيل
ڪڍيو
ڪڍيون
ڪڍڻ
ڪڏهن
ڪڏھن
ڪڙ
ڪڙا
ڪڙهه
ڪڙو
ڪڙي
ڪڙيو
ڪڙيون
ڪڙڇ
ڪڙڪي
ڪک
ڪکن
ڪڪ
ڪڪر
ڪڪرن
ڪڪڙ
ڪڪڙاي
ڪڪڙن
ڪڻ
ڪڻڪ
ڪھاڻي
ڪھاڻيء
ڪھاڻين
ڪھاڻيون
ڪھاڻيڪار
ڪھڙو
ڪھڙي
ڪھڪشان
ڪھڪشاي
گ
گا
گابا
گابو
گابي
گاج
گاجي
گادي
گاديء
گار
گارا
گارو
گاري
گارڊ
گارڊن
گال
گاما
گامڻ
گانء
گانا
گانن
گانو
گاني
گانڌي
گانڌيء
گاه
گاهن
گاهه
گاهي
گاو
گاي
گايتري
گاڏهي
گاڏي
گاڏيء
گاڏين
گاڏيون
گاڏڙ
گاڏھي
گاڻي
گاھ
گاھي
گبر
گبسن
گبول
گج
گجر
گجرات
گجراتي
گجراتيء
گجرانوالا
گدا
گداي
گدرا
گدري
گدلاڻ
گدو
گدواڻي
گدومل
گدي
گدڙ
گذار
گذارش
گذارو
گذاري
گذاريا
گذارياي
گذاريم
گذارين
گذاريندا
گذاريندو
گذاريندڙ
گذاريو
گذارڻ
گذر
گذران
گذرن
گذرندو
گذرندي
گذرندڙ
گذري
گذريا
گذريل
گذريو
گذريون
گذرڻ
گر
گرا
گرادیان
گراس
گراف
گرافي
گرافڪ
گرافڪس
گرام
گرامر
گراموفون
گرامي
گرانٽ
گرانڊ
گراهڪ
گراهڪن
گراي
گراڊ
گربخشاڻي
گربخشاڻيء
گرجا
گرد
گرداس
گردش
گردن
گردونواح
گردي
گرفت
گرفتار
گرفتاري
گرفتاريء
گرفتاريون
گرل
گرلز
گرلس
گرم
گرماي
گرمي
گرميء
گرمين
گرمکي
گرنار
گرنٿ
گره
گرهن
گرهه
گرهوڙي
گرهڻ
گرو
گروزني
گرونانڪ
گروه
گروهن
گروهه
گروهي
گروي
گروپ
گروپن
گروھ
گروھن
گروہ
گري
گريجوي
گريجويشن
گرين
گريناي
گريناڊا
گرينڊ
گريي
گريٽ
گريٽر
گريڊ
گريگوري
گريگورين
گرڊ
گرڊرن
گرڙيون
گرگيج
گرھ
گرھن
گرھڻ
گز
گزدر
گزري
گزين
گزيٽ
گزيٽيي
گس
گساي
گستاخي
گسٽ
گسٽس
گشت
گفتار
گفتگو
گل
گلاب
گلابي
گلاس
گلاسگو
گلان
گلبرگ
گلدستو
گلزار
گلستان
گلشن
گلف
گلم
گلن
گلو
گلوب
گلوبل
گلوڪار
گلوڪاراي
گلوڪاره
گلي
گليشيي
گليلي
گليليو
گليليي
گلڊ
گلڪاري
گلگت
گلی
گم
گمان
گمبٽ
گمنام
گن
گنان
گناه
گناهن
گناهه
گناھ
گنب
گنبد
گنبذ
گنبٽ
گنج
گنجاي
گنجي
گند
گندرف
گندري
گندي
گندگي
گنهگار
گنو
گني
گنيز
گنڀير
گنڌار
گنڌارا
گنگ
گنگا
گه
گهارو
گهاري
گهايل
گهاٽ
گهاٽا
گهاٽاي
گهاٽن
گهاٽو
گهاٽي
گهاڻي
گهر
گهرا
گهران
گهراي
گهرايل
گهرايو
گهراڻا
گهراڻن
گهراڻو
گهراڻي
گهربل
گهرج
گهرجن
گهرجون
گهرجي
گهرن
گهرندا
گهرندو
گهرو
گهرواري
گهرواريء
گهري
گهرياي
گهريلو
گهريو
گهرڙا
گهرڙن
گهرڙي
گهرڪتاب
گهرڻ
گهلو
گهم
گهماي
گهمرو
گهمندا
گهمندو
گهمندڙ
گهمي
گهميل
گهميو
گهمڻ
گهنور
گهور
گهوش
گهوٽ
گهوٽالو
گهوٽالي
گهوٽي
گهوٽڪي
گهوٽڪيء
گهوڙا
گهوڙن
گهوڙو
گهوڙي
گهي
گهير
گهيرو
گهيري
گهيريل
گهٽ
گهٽاي
گهٽبو
گهٽتاي
گهٽجي
گهٽجڻ
گهٽي
گهٽيء
گهٽين
گهڙ
گهڙت
گهڙو
گهڙي
گهڙيء
گهڙيا
گهڙيال
گهڙيل
گهڙين
گهڙيو
گهڙيون
گهڙڻ
گهڻ
گهڻا
گهڻاي
گهڻن
گهڻو
گهڻي
گهڻيء
گهڻين
گهڻيون
گو
گوء
گوا
گوادر
گوار
گواليار
گوبند
گوبندرام
گوبي
گوتم
گوجر
گوجرانوالا
گوجرانوالہ
گود
گور
گورا
گورباچوف
گورن
گورنر
گورنرس
گورنرن
گورنري
گورنريء
گورنريٽ
گورنمنيٽ
گورنمنٽ
گورنمينٽ
گورو
گوري
گوريلا
گورڊن
گورک
گورکناٿ
گورڪي
گوشت
گوشه
گوشي
گول
گولا
گولاي
گولاڙچي
گولن
گولو
گولي
گوليون
گولڊ
گولڊن
گومڙ
گوني
گونچ
گونگي
گوهر
گوي
گويا
گويو
گوپال
گوپانگ
گوڏ
گوڏن
گوڙ
گوڪل
گوگل
گوھر
گي
گيء
گيا
گيان
گيانا
گيانچنداڻي
گيت
گيتا
گيتن
گير
گيري
گيريزن
گيس
گيسن
گيلان
گيلاني
گيلري
گيلن
گيم
گيمبيا
گيمز
گين
گينيميڊ
گينگ
گيهه
گيٽ
گيٽسبي
گيڙو
گيگا
گيھ
گٽار
گپ
گپت
گپتا
گچ
گچيري
گڊ
گڊو
گڏ
گڏاي
گڏاپ
گڏجاڻي
گڏجاڻيء
گڏجاڻين
گڏجاڻيون
گڏجي
گڏجڻ
گڏهه
گڏو
گڏوگڏ
گڏي
گڏيل
گڏيو
گڏھ
گڑھ
گڑھی
گڙدن
گڻ
گھ
گھانا
گھاٽ
گھاٽاي
گھاٽو
گھاٽي
گھاڙ
گھر
گھرا
گھراي
گھرايو
گھراڻن
گھراڻو
گھراڻي
گھربل
گھرجن
گھرجي
گھرن
گھرو
گھرواري
گھري
گھريلو
گھرڙا
گھرڙن
گھرڙي
گھرڙياي
گھم
گھمي
گھميل
گھمڻ
گھوٽ
گھوٽڪي
گھوڙا
گھوڙن
گھوڙو
گھوڙي
گھيراء
گھيرو
گھيري
گھيريل
گھٽ
گھٽاي
گھٽتاي
گھٽجي
گھٽجڻ
گھٽي
گھٽين
گھٽيون
گھڙي
گھڙيال
گھڙيل
گھڙين
گھڻ
گھڻا
گھڻاي
گھڻن
گھڻو
گھڻي
گھڻين
گھڻيون
گی
گیا
گے
ڱ
ڱر
ڱرين
ڱريون
ڱوٺي
ڳ
ڳاتو
ڳاري
ڳاله
ڳالهاي
ڳالهايو
ڳالهايون
ڳالهه
ڳالهين
ڳالهيون
ڳالهہ
ڳالھ
ڳالھاي
ڳالھايو
ڳالھه
ڳالھين
ڳالھيون
ڳالھھ
ڳانڍاپو
ڳانڍاپي
ڳاها
ڳاهه
ڳاي
ڳايا
ڳاياي
ڳايل
ڳايو
ڳاٽا
ڳاٽن
ڳاٽو
ڳاٽي
ڳاڙها
ڳاڙهاڻ
ڳاڙهن
ڳاڙهو
ڳاڙهي
ڳاڙھا
ڳاڙھن
ڳاڙھو
ڳاڙھي
ڳاڻيٽو
ڳاھ
ڳتيل
ڳجهارت
ڳجهارتون
ڳجهن
ڳجهو
ڳجهي
ڳجھارت
ڳجھو
ڳر
ڳرا
ڳرو
ڳري
ڳرڻ
ڳل
ڳلي
ڳن
ڳنڍ
ڳنڍا
ڳنڍجي
ڳنڍي
ڳنڍيل
ڳنڍين
ڳنڍيندڙ
ڳنڍيو
ڳنڍيون
ڳنڍڻ
ڳنڍڻا
ڳنڍڻن
ڳنڍڻو
ڳنڍڻي
ڳهه
ڳو
ڳورپٽ
ڳورڙ
ڳولا
ڳولها
ڳولهي
ڳولهڻ
ڳولي
ڳوليو
ڳولڻ
ڳولھا
ڳوٺ
ڳوٺاڻا
ڳوٺاڻن
ڳوٺاڻي
ڳوٺن
ڳوٿري
ڳوڙها
ڳوڙهن
ڳوڙهو
ڳوڙهين
ڳوڙهيون
ڳي
ڳيرو
ڳيري
ڳيچ
ڳڀ
ڳڀيرڻ
ڳچ
ڳچي
ڳچيء
ڳڙ
ڳڙه
ڳڙهه
ڳڙهي
ڳڙکيء
ڳڙھ
ڳڙھي
ڳڻ
ڳڻتي
ڳڻتيء
ڳڻي
ڳڻيو
ڳڻپ
ڳڻپيوڪر
ڳڻڻ
ں
ڻ
ڻا
ڻبا
ڻبو
ڻجي
ڻداس
ڻن
ڻو
ڻي
ڻين
ڻيندا
ڻيندو
ڻيندي
ڻيندڙ
ڻيو
ڻيون
ڻڻ
ھ
ھا
ھاء
ھاجرہ
ھار
ھاراي
ھارمون
ھارون
ھاري
ھارين
ھارٽ
ھاسٽل
ھاسپيٽل
ھاشم
ھاشمي
ھاضمي
ھال
ھالا
ھالاي
ھالاڻي
ھان
ھانگ
ھاورڊ
ھاي
ھاٿي
ھاڪي
ھاڻ
ھاڻوڪو
ھاڻوڪي
ھاڻي
ھبسبرگ
ھبل
ھت
ھتان
ھتي
ھجرت
ھجري
ھجن
ھجي
ھجڻ
ھدايت
ھدايتون
ھدايتڪار
ھر
ھرات
ھرزگوينه
ھري
ھرياڻہ
ھرگز
ھرڻ
ھرڻين
ھرھڪ
ھزار
ھزارا
ھزارن
ھزارو
ھزارين
ھستي
ھشام
ھضم
ھفتن
ھفتي
ھفتيوار
ھل
ھلال
ھلاي
ھلايو
ھلاڪ
ھلندا
ھلندو
ھلندي
ھلندڙ
ھلي
ھليا
ھليو
ھلڪا
ھلڪو
ھلڪي
ھلڻ
ھم
ھماليہ
ھمايون
ھمت
ھموار
ھمير
ھميشه
ھميشھ
ھميشہ
ھمٿ
ھن
ھند
ھندستان
ھندستاني
ھندن
ھندو
ھندوازم
ھندوستان
ھندوستاني
ھندوڪش
ھندي
ھنر
ھنزہ
ھنن
ھني
ھنيو
ھنڌ
ھنڌن
ھنگري
ھنڱورجا
ھه
ھو
ھوء
ھوا
ھوابازي
ھواي
ھوتچند
ھوش
ھول
ھولو
ھولي
ھوليڪا
ھوم
ھون
ھوندا
ھوندو
ھوندي
ھونديون
ھونڊوراس
ھوي
ھوٽل
ھي
ھيء
ھيا
ھيان
ھير
ھيرو
ھيروي
ھيس
ھيلي
ھيليم
ھيلٿ
ھين
ھينان
ھينري
ھيني
ھيو
ھيون
ھيي
ھيٺ
ھيٺان
ھيٺاھين
ھيٺي
ھيٺيان
ھيٺين
ھيٺيون
ھيڊ
ھيڊوجن
ھيڪٽر
ھٽاي
ھٽايو
ھٽلر
ھٽي
ھٿ
ھٿان
ھٿرادو
ھٿن
ھٿي
ھٿيار
ھٿياربند
ھٿيارن
ھڏن
ھڏي
ھڏين
ھڏڪي
ھڏڪيون
ھڪ
ھڪجھڙاي
ھڪدم
ھڪٻي
ھڪڙا
ھڪڙو
ھڪڙي
ھگانا
ھڻي
ھڻڻ
ھہ
ھے
ہ
ہاو
ہر
ہری
ہم
ہمیشہ
ہنگورجا
ہو
ہوا
ہوتا
ہوتی
ہونے
ہوي
ہوں
ہی
ہیں
ہے
ۃ
ی
یا
یار
یر
ین
یوں
یچ
یک
یں
یہ
یہاں
ے
۔
ۙ
ۚ
ۜ
ۡ
ۤ
۰
۱
۱۰
۱۱
۱۲
۱۴
۱۵
۱۷
۱۹۷۰
۱۹۷۶
۲
۲۰
۲۰۰۷
۳
۴
۵
۶
۷
۸
۹
۽
۾
ܐ
ܠ
ހ
ނ
ރ
އ
ވ
ފ
ތ
ަ
ާ
ި
ު
ް
ँ
ं
इ
ई
क
ग
च
ज
ट
ड
ढ
ण
त
थ
द
ध
न
प
फ
ब
भ
म
य
र
ल
व
श
ष
स
ह
़
ा
ि
ी
ु
ू
े
ै
ो
ौ
्
।
ঁ
ং
এর
ক
গ
চ
ঝ
ট
ড
ঢ
ণ
ত
থ
দ
ধ
ন
প
ব
ম
মপ
য
র
ল
শ
ষ
স
হ
়
া
ি
ী
ু
ূ
ৃ
ে
ৈ
্
ৰ
ৱ
ਆ
ਕ
ਘ
ਜ
ਡ
ਤ
ਧ
ਨ
ਪ
ਬ
ਮ
ਰ
ਲ
ਵ
ਸ
ਹ
਼
ਾ
ਿ
ੀ
ੁ
ੰ
ੱ
ં
ક
ચ
ઢ
ત
મ
ર
વ
સ
હ
ા
િ
ી
ુ
ો
્
କ
ଗ
ଚ
ଛ
ଞ
ଟ
ବ
ର
ା
ି
ୁ
େ
୍
க
ச
த
ப
ம
ய
ர
வ
ா
ி
ு
ே
ை
்
ం
మ
ర
వ
స
ా
ి
ు
ూ
్
ಂ
ಗ
ಟ
ಪ
ರ
ಲ
ವ
ಶ
ಸ
ಾ
ಿ
ು
ೂ
ೆ
್
ೕ
ം
ക
ത
ദ
ന
പ
ഫലക
മ
യ
ര
റ
ല
ള
വ
സ
ാ
ി
ു
െ
േ
്
ൽ
ක
ට
ත
ද
ප
ර
ල
ව
ස
්
ා
ැ
ි
ු
ෙ
ด
พ
ม
ย
ล
ว
ศ
ั
ิ
ี
ุ
ู
แบบ
แม
่
้
์
ດ
ວ
ັ
ິ
င
စ
ာ
း
်
თარგი
틀
ង
ថ
ទ
ព
រ
ស
ា
ិ
ី
ូ
ៃ
ំ
័
្
ᴇ
ᵏ
ᵑ
ᵝ
ᵝː
ᵝˑ
ᵻ
ᶢ
​
‌
‍
‎
‏
–
—
‘
’
‛
“
”
‟
†
•
…
′
″
‹
›
‼
⁄
⁦
⁩
ⁿ
€
₼
←
→
↔
↷
∂
−
∙
∫
⏩
⏪
③
④
⑦
─
■
▪
►
◀
◄
◌
●
◦
⟨
⟩
⺀
⺄
⺆
⺈
⺊
⺌
⺕
⺝
⺸
⺼
⿰
⿱
⿲
⿳
⿴
⿵
⿶
⿷
⿸
⿹
⿺
⿻
〢
か
の
ま
よ
ら
り
゙
゚
ア
ィ
キ
コ
シ
タ
ト
フ
ユ
ー
㇁
㇂
㇄
㇇
㇈
㇉
㇓
㐁
㐄
㐅
㐌
㐫
㐬
㐭
㐮
㐱
㑒
㒵
㒸
㒼
㓁
㓞
㔾
㕛
㕣
㖾
㘝
㚅
㚇
㚔
㚘
㝉
㝡
㝴
㝵
㞋
㞢
㞷
㠩
㠭
㠯
㡀
㡭
㡿
㢲
㢴
㣇
㣺
㥯
㪅
㫄
㫐
㫒
㫺
㬅
㬎
㬥
㬰
㲋
㳄
㷠
㸒
㸚
㸦
㼌
㼲
㽞
㿟
䀠
䂞
䍃
䏍
䒑
䖍
䖒
䖝
䖵
䙴
䚻
䜌
䝿
䡛
䧹
䪞
一
丁
丂
七
丄
丅
丆
万
丈
三
上
下
丌
不
与
丏
丐
丑
专
且
丕
世
丘
丙
业
东
丞
丢
丣
两
严
並
丨
丩
个
丫
丬
中
丮
丰
丱
串
丵
丶
丷
丸
丹
为
主
丽
丿
乀
乂
乃
久
乆
乇
么
义
之
乌
乍
乎
乏
乐
乑
乔
乖
乗
乘
乙
乚
乛
乜
九
乞
也
习
乡
乳
乾
亀
亅
了
亇
予
争
事
二
亍
于
亏
亐
云
互
亓
五
井
亘
亚
亜
亞
亟
亠
亡
亢
交
亥
亦
产
亨
亩
享
京
亭
亮
亯
亰
亲
亳
亶
亷
人
亻
亼
亾
仁
今
介
仌
从
仐
仑
仒
仓
仕
他
付
仝
代
令
以
任
企
伊
伏
伐
休
会
伯
但
位
何
佘
余
作
佥
使
來
侈
侌
侖
侯
侵
便
保
俞
信
修
倉
倍
候
倠
備
僉
僕
儿
兀
允
兂
元
兄
充
兆
兇
先
光
兊
克
兌
免
兑
兒
兓
兔
党
兜
兟
入
全
兩
兪
八
公
六
兮
兰
共
关
兵
其
具
典
兹
兼
冀
冂
冃
冄
内
冈
冉
冊
冋
册
再
冎
冏
冐
冒
冓
冖
冗
冘
军
农
冝
冡
冥
冫
冬
冷
几
凡
凢
凵
凶
凷
凸
凹
出
函
凾
刀
刁
刂
刃
刄
刅
分
切
刍
刑
刕
刖
列
刘
则
初
別
利
别
到
制
刺
則
削
剌
前
剡
剽
劉
力
功
加
劦
助
劫
劳
劵
勃
勇
勉
勒
動
務
勞
勤
勹
勺
勻
勾
勿
匀
匂
包
匆
匈
匊
匋
匍
匕
化
北
匚
匝
匡
匪
匱
匸
匹
区
医
匽
匿
區
十
卂
千
卄
卅
卆
升
午
卉
半
卌
华
卑
卒
卓
单
卖
南
卜
卝
卞
占
卡
卢
卣
卤
卦
卩
卪
卬
卯
印
危
即
却
卵
卷
卸
卻
厂
厃
厄
历
厈
厉
厌
厓
厘
厚
原
厤
厥
厨
厭
厲
厶
厷
厸
去
厼
厽
叀
参
參
叅
又
叉
及
友
双
反
叐
发
叒
叔
叕
取
受
叚
叜
叟
口
古
句
另
叩
只
召
可
台
叱
史
右
叵
号
司
叹
吂
各
吅
合
吉
吊
吋
同
名
后
吏
向
吕
君
吝
吞
否
含
启
吳
吴
吹
吾
呂
呆
呈
告
员
呙
周
命
咅
和
咎
咠
咢
咨
咸
咼
哀
品
哉
員
哥
哲
唐
商
啇
問
啚
啬
啻
善
喜
喬
單
喿
嗇
噩
嚴
囊
囗
囘
囙
囚
四
回
囟
因
囧
囬
困
囱
囷
固
国
圂
圅
國
圍
圓
土
圡
圣
圥
在
圭
地
圶
圼
坐
坑
坒
坚
坴
垂
垔
垚
埀
埋
城
埶
執
基
堂
堅
堆
堇
堯
場
塞
墨
壘
士
壬
壯
声
壳
壴
壹
壺
壽
夂
处
夅
夆
备
夊
夋
夌
复
夏
夒
夕
外
夗
夘
多
夜
夢
大
夨
天
太
夫
夬
夭
央
失
夲
头
夷
夸
夹
夻
夾
奂
奄
奇
奈
奉
奎
奏
奐
契
奓
奔
奚
奞
奠
奢
奥
奭
女
奴
奻
好
如
妄
妙
妟
妥
妻
妾
姑
委
姜
威
娄
婁
婴
嬰
嬴
子
孑
孔
孕
孖
字
存
孚
孛
孝
孟
季
孤
学
孫
孱
學
宀
宁
宂
它
宅
宇
守
安
宋
完
宏
宓
宗
官
定
宛
宜
宝
客
宣
室
宮
宰
害
家
容
宾
宿
寄
寅
密
富
寒
察
寧
審
寫
寬
寮
寸
对
寺
寻
寽
対
寿
封
尃
射
将
將
專
尉
尊
尋
尌
對
小
少
尒
尓
尔
尖
尗
尚
尞
尢
尣
尤
尧
尨
尭
就
尸
尹
尺
尻
尼
尽
尾
尿
局
居
屈
屋
屎
屏
屑
展
屖
屚
属
屠
屡
屬
屮
屯
屰
山
屵
屾
岁
岂
岑
岡
岩
岳
岸
峯
島
崇
崑
崔
崖
崙
崩
嵬
嶲
巂
巛
川
州
巟
巠
巢
巤
工
左
巧
巨
巩
巫
差
己
已
巳
巴
巷
巸
巽
巾
巿
帀
市
布
希
帚
帛
帝
带
師
席
帶
常
干
平
年
幵
并
幷
幸
幺
幻
幼
幽
幾
广
広
庄
床
底
店
庚
府
度
庫
庭
庶
康
庸
廉
廌
廛
廣
廩
廴
延
廷
建
廾
廿
开
弁
弃
弄
弇
弋
式
弓
弔
引
弗
弘
弜
弟
弥
弦
弱
張
強
强
彊
彌
彎
彐
彑
当
彔
录
彖
彗
彡
形
彥
彦
彧
彭
彳
役
彼
往
待
律
徒
得
徙
從
復
微
徵
心
忄
必
忌
忍
志
忝
忠
忩
快
念
忽
忿
思
怠
急
怱
恆
恒
恩
恭
息
悉
患
悤
悲
悶
惠
惡
惢
愁
愈
意
愛
感
慈
慧
慮
憂
憲
應
戀
戈
戉
戊
戋
戌
戍
戎
成
我
戒
戔
或
戚
戠
戢
截
戲
戶
户
戹
戼
戾
房
所
扁
扇
手
扌
才
打
托
执
承
技
折
拉
拜
拿
掌
推
提
摩
支
攴
攵
收
攸
改
放
政
敄
敏
敕
敖
敗
敝
敞
敢
散
敦
敫
敬
数
敷
數
斂
文
斉
斊
斗
斤
斥
斩
斬
斯
新
方
於
施
斿
旁
旋
族
无
旡
既
旣
日
旦
旧
旨
早
旬
旱
旲
时
旾
昆
昇
昌
昍
明
昏
易
昔
昗
昜
星
春
昬
是
昱
昴
昷
時
晃
晋
晏
普
景
晶
智
暑
暴
曇
曩
曰
曲
曳
更
曷
書
曹
曼
曾
替
最
朁
會
月
有
朋
服
朔
朕
朗
望
朝
期
木
朩
未
末
本
札
朮
术
朱
朵
朶
朿
杀
杏
杜
束
条
来
東
杲
杳
松
析
林
枚
果
枝
枲
枼
某
柔
查
柬
柰
柴
栗
桀
桑
桥
桼
梁
條
梟
梨
棘
棠
棥
森
楚
業
楽
榮
樂
樊
欠
次
欣
欮
欲
欶
欽
款
歆
歇
歛
歡
止
正
此
步
武
歨
歪
歮
歯
歰
歲
歴
歷
歸
歹
歺
死
殳
段
殷
殸
殹
殺
殻
殿
毋
毌
母
每
毒
比
毕
毚
毛
毳
氏
氐
民
气
氣
水
氵
氶
氷
永
氺
氾
求
汉
汝
汞
江
沃
沓
沙
沝
泉
法
波
泣
泥
泰
洛
洞
洪
洲
活
派
流
浦
浪
浮
海
淡
淮
清
渚
渠
湯
滿
漢
漸
火
灬
灭
灰
灵
灷
炅
炎
炏
炗
炙
炭
為
烈
烏
烝
焉
無
焦
焱
然
煞
熊
熏
燕
營
燮
爪
爫
爭
爯
爰
爱
爲
爵
父
爻
爽
爾
爿
片
牙
牚
牛
牜
牟
牢
牧
物
牪
牽
犀
犬
犭
犮
狂
狄
狊
独
狺
猋
猒
猪
献
獻
玄
率
玉
王
玟
玨
珎
班
琴
瑟
瑩
瓜
瓦
甘
甚
生
産
用
甫
甬
田
由
甲
申
电
甶
男
甸
甹
画
甾
畀
界
畏
畐
留
畜
畟
畢
畧
畨
番
畫
異
畱
當
畺
畾
疊
疋
疌
疑
疒
疾
癶
癸
癹
登
發
白
百
皀
皃
的
皆
皇
皋
皐
皕
皮
皷
皿
盃
盆
盇
盈
益
盍
盎
监
盒
盖
盛
盡
監
盤
盧
目
直
相
盾
省
眇
眉
看
眔
眞
真
眷
眼
眾
着
睘
睪
睿
瞏
瞢
瞿
矍
矛
矞
矢
矣
知
矦
短
石
破
碎
磊
磨
示
礻
礼
祟
票
祭
禀
禁
禸
禹
禺
离
禽
禾
禿
秀
秃
秉
秋
科
秝
秦
移
稟
穀
穌
穴
究
穹
空
穿
突
窄
窒
立
竒
竜
竝
竟
章
童
竹
笑
笠
第
筆
等
答
箕
算
箴
節
篤
篭
米
粉
粛
粟
粤
粦
粲
糞
糸
糹
系
紀
約
納
素
索
紫
累
細
絜
絫
絲
維
綿
縣
繇
纍
纟
纪
缶
网
罒
罔
罕
罗
罙
罡
罢
罪
署
罷
羅
羊
羌
羍
美
羔
羕
羗
羞
羡
羣
群
義
羲
羸
羽
翁
翏
習
翕
翟
翠
翼
老
耂
考
者
耆
而
耎
耑
耒
耳
耴
耶
耷
聂
聊
聖
聚
聶
聿
肀
肃
肅
肉
肖
肙
肥
肩
肯
育
肴
肺
胃
背
胡
胥
能
脊
脩
膚
臣
臤
臧
自
臬
臭
臯
臱
至
致
臺
臼
臽
臾
臿
舀
舂
舄
與
興
舉
舌
舍
舛
舜
舞
舟
般
艮
良
色
艸
艹
艾
芒
芔
芬
芮
花
芳
芺
芻
苔
苗
苟
若
苦
英
茶
茸
荅
草
荒
荣
荼
莆
莧
莫
莽
菆
菊
菐
華
萬
落
葉
著
葛
董
葵
蒙
蒦
蒼
蓋
蓬
蓺
蔑
蔡
蕉
蕭
薄
薛
薦
薰
藍
藏
藥
蘭
虍
虎
虐
虒
虔
處
虖
虗
虘
虚
虛
虜
虞
虫
虽
蚤
蚩
蜀
蜜
蟲
蠡
血
行
衍
衛
衣
衤
表
衮
衰
袁
袞
褭
褱
襄
襾
西
覀
要
覃
見
規
覓
覧
親
覽
见
角
解
言
訁
訇
計
詹
誩
諸
讠
谷
豆
豈
豊
豐
豕
豖
豙
象
豦
豩
豪
豸
貇
貝
貞
貟
負
貢
貧
貪
貫
責
貳
貴
買
費
賁
資
賈
賏
賓
賔
賛
賞
賢
賣
質
賴
贊
贝
贡
责
贯
贲
贵
赖
赞
赤
赦
走
越
足
路
蹇
身
躬
車
軍
軎
軟
輦
车
辛
辜
辟
辥
辰
辱
農
辵
辶
边
达
过
迎
近
连
迷
追
退
送
逆
逐
通
速
造
逢
連
逮
進
遀
遂
過
道
達
遣
適
遷
遺
邊
邑
邕
那
邦
邪
郎
部
郭
都
鄉
酉
酋
配
酓
釆
采
里
重
野
量
金
釒
錢
钅
镇
長
镸
长
門
閃
閉
開
閏
閑
閒
間
閔
閵
閻
闌
门
间
闷
阑
阜
阝
阿
降
院
陳
隆
隊
隋
隡
隨
隱
隶
隹
隺
隻
隼
隽
难
雀
雁
集
雈
雋
雍
雐
雔
雙
雚
雜
雝
離
難
雨
雩
雪
雲
零
雷
需
霍
霜
霝
霞
霸
靈
靑
青
非
靡
面
靣
革
韋
韦
韭
韯
韱
音
頁
頃
項
須
頗
頡
頻
顛
页
風
风
飛
飞
食
飠
養
饣
首
香
馬
馮
駦
马
骨
高
髟
鬥
鬯
鬲
鬼
魚
魯
鮮
鱼
鲁
鳥
鳳
鸟
鹵
鹿
麃
麗
麥
麦
麻
黃
黄
黍
黎
黑
黒
黨
黹
黽
黾
鼎
鼓
鼠
鼻
齊
齋
齐
齒
齿
龍
龙
龜
龟
龠
龰
龱
龴
龵
龶
龷
龸
龹
ꜜ





者
艹
ﭔ
ﭖ
ﭗ
ﭘ
ﭙ
ﭜ
ﭝ
ﭞ
ﭟ
ﭠ
ﭡ
ﭤ
ﭥ
ﭰ
ﭲ
ﭴ
ﭵ
ﭸ
ﭺ
ﭼ
ﭽ
ﮀ
ﮁ
ﮂ
ﮃ
ﮄ
ﮅ
ﮐ
ﮑ
ﮓ
ﮔ
ﮕ
ﮘ
ﮙ
ﮠ
ﮡ
ﮢ
ﮣ
ﮦ
ﮧ
ﮬ
ﮭ
ﯾ
ﯿ
﴾
﴿
﷢
﷥
﷦
ﷲ
ﷺ
️
ﺀ
ﺁ
ﺂ
ﺅ
ﺆ
ﺋ
ﺌ
ﺍ
ﺎ
ﺏ
ﺐ
ﺑ
ﺒ
ﺔ
ﺕ
ﺖ
ﺗ
ﺘ
ﺛ
ﺜ
ﺝ
ﺞ
ﺟ
ﺠ
ﺡ
ﺢ
ﺣ
ﺤ
ﺦ
ﺧ
ﺨ
ﺩ
ﺪ
ﺫ
ﺬ
ﺭ
ﺮ
ﺯ
ﺰ
ﺱ
ﺲ
ﺳ
ﺴ
ﺵ
ﺶ
ﺷ
ﺸ
ﺻ
ﺼ
ﺿ
ﻀ
ﻂ
ﻃ
ﻄ
ﻅ
ﻇ
ﻈ
ﻉ
ﻊ
ﻋ
ﻌ
ﻏ
ﻐ
ﻑ
ﻒ
ﻓ
ﻔ
ﻕ
ﻖ
ﻗ
ﻘ
ﻝ
ﻞ
ﻟ
ﻠ
ﻡ
ﻢ
ﻣ
ﻤ
ﻥ
ﻦ
ﻧ
ﻨ
ﻩ
ﻪ
ﻫ
ﻬ
ﻭ
ﻮ
ﻱ
ﻲ
ﻳ
ﻴ
ﻻ
ﻼ
﻿
！
？
￼
🌷
👇
🔍
𠀁
𠀃
𠀆
𠀉
𠀎
𠀐
𠁁
𠁣
𠂆
𠂇
𠂈
𠂉
𠂊
𠂋
𠂎
𠂒
𠂔
𠂛
𠂡
𠂢
𠂤
𠂬
𠂭
𠂹
𠃊
𠃋
𠃌
𠃍
𠃎
𠃑
𠃓
𠃔
𠃜
𠄌
𠄎
𠄠
𠄢
𠆢
𠆥
𠇍
𠈌
𠌵
𠓜
𠔉
𠔥
𠔼
𠔽
𠔿
𠕀
𠕁
𠕋
𠘧
𠘨
𠙻
𠙼
𠚏
𠚒
𠚤
𠚪
𠣏
𠤎
𠤕
𠥓
𠦄
𠦑
𠦝
𠧒
𠧗
𠧪
𠩺
𠪚
𠫓
𠫔
𠫤
𠬛
𠬝
𠬞
𠬢
𠬤
𠬶
𠮛
𠮦
𠮷
𠯑
𠱠
𠳮
𠷎
𡈼
𡉀
𡉵
𡌥
𡍮
𡏳
𡕒
𡕩
𡕰
𡖅
𡗗
𡗜
𡘆
𡘤
𡧱
𡨄
𡩧
𡬠
𡭽
𡰣
𡰥
𡰪
𡰯
𡰱
𡷈
𡸁
𡿨
𡿩
𡿪
𡿺
𢀖
𢀛
𢀩
𢁙
𢆉
𢆰
𢆶
𢇁
𢇇
𢉖
𢌬
𢌿
𢏚
𢑑
𢑚
𢖻
𢙣
𢛳
𢦏
𢦒
𢧵
𢼄
𢾕
𣁋
𣄼
𣅀
𣅽
𣍘
𣎳
𣎵
𣏋
𣏼
𣗥
𣥂
𣥖
𣦵
𣦼
𣧄
𣪊
𣪠
𣬉
𣳾
𣶒
𤇾
𤊽
𤐫
𤓰
𤔔
𤕨
𤣩
𤰇
𤰔
𤰞
𤴓
𤴔
𤽄
𥁑
𥁕
𥃦
𥃩
𥃭
𥇡
𥑟
𥘅
𥘈
𥝢
𥫗
𥱡
𦈢
𦉪
𦉬
𦉼
𦍌
𦍒
𦎧
𦐇
𦓔
𦔮
𦘒
𦙃
𦚏
𦣝
𦣞
𦣻
𦥑
𦥔
𦥯
𦨉
𦭝
𦰩
𧆞
𧈧
𧘇
𧰨
𧴪
𧴮
𧵩
𧾷
𨸏
𨾴
𩙿
𩠐
𩫏
𩵋
𪉷
𪜀
𪟽
𪠲
𪩲
𫇦
𫔭
𫜸
𫝀
𫠣
𫠩
𫢉
𫥞
𫩏
𫩠
𫪡
𫲽
𫶧
𬀷
𬐘
𬗌
𬙙
𬛸
𬜯
𬟩
𬯁
𬴘
𬺻
𬼉
𬼖
𭀰
𭁈
𭁨
𭅰
𭑈
𭕄
𭗼
𭤨
𭥫
𭻾
𮅕
𮊿
𮍌
𮍏
𮓗
𮥼
𮧮
廾
𰀁
𰀄
𰀈
𰀉
𰀕
𰀠
𰀡
𰀢
𰀪
𰁜
𰃮
𰆊
𰆘
𰋙
𰕎
𰢴
𰧭
𰯲
00--
01--
02--
03--
04--
05--
06--
07--
08--
09--
101--
330--
418--
47--
51--
54--
55--
57--
60--
61--
63--
65--
67--
68--
70--
72--
73--
74--
75--
76--
77--
78--
79--
80--
81--
82--
83--
84--
85--
86--
87--
88--
89--
90--
91--
92--
93--
95--
96--
978--
98--
99--
a--
aa--
ab--
ac--
act--
ad--
add--
advan--
ae--
af--
affi--
ag--
agu--
ah--
ai--
air--
ak--
al--
alex--
all--
als--
alt--
am--
an--
ana--
ance--
and--
anim--
anniver--
announ--
anthro--
anti--
any--
ao--
apo--
aqu--
ar--
ara--
arc--
arg--
args--
as--
asce--
assi--
at--
au--
auto--
av--
aw--
az--
b--
ba--
back--
bact--
bad--
baha--
bal--
ban--
banner--
bar--
base--
batch--
bb--
bc--
be--
ben--
ber--
best--
bh--
bha--
bi--
biblio--
big--
bil--
bio--
bir--
bl--
bla--
block--
bo--
bold--
bon--
book--
bot--
bour--
bow--
box--
br--
brig--
brit--
bro--
broad--
bu--
bud--
build--
bur--
by--
c--
ca--
cal--
calcu--
can--
cap--
car--
cat--
cauc--
cc--
ce--
cele--
cen--
certifi--
cfg--
ch--
cha--
chall--
che--
check--
chi--
child--
chu--
ci--
cir--
cite--
cl--
claim--
clean--
clo--
co--
code--
col--
com--
communi--
comp--
con--
conc--
conce--
conf--
conl--
cons--
constr--
content--
conti--
contr--
copy--
corn--
corr--
cr--
create--
cric--
cs--
cu--
cur--
current--
cy--
d--
da--
dab--
dan--
dar--
data--
date--
dated--
day--
dd--
de--
dec--
dee--
def--
default--
delete--
deli--
demo--
deplo--
df--
dha--
di--
disa--
disc--
discip--
disco--
disp--
display--
dist--
div--
dl--
dlgt--
dm--
do--
doc--
doi--
don--
dr--
dt--
du--
dur--
e--
ea--
ec--
ed--
edit--
eg--
ei--
el--
elec--
elim--
em--
emph--
empty--
en--
encour--
end--
eng--
env--
epi--
equi--
er--
err--
error--
es--
esc--
escape--
esp--
establish--
et--
eu--
eura--
ev--
evol--
ex--
exam--
exca--
excl--
expl--
export--
extra--
f--
fa--
faci--
fair--
fb--
fd--
fe--
fetch--
ff--
fi--
file--
final--
find--
first--
fix--
fl--
flag--
flo--
fo--
fol--
font--
for--
form--
format--
fr--
frame--
free--
ft--
ful--
full--
fun--
fut--
g--
ga--
gal--
gan--
gar--
gb--
ge--
gene--
general--
geo--
get--
getbest--
getutc--
gha--
gho--
gi--
gil--
gl--
gm--
gn--
go--
god--
gr--
grav--
gre--
great--
group--
gu--
guad--
gui--
gw--
gy--
h--
ha--
hand--
har--
hard--
harr--
has--
hay--
haz--
he--
her--
hex--
hi--
him--
his--
hl--
hm--
hn--
ho--
hol--
hu--
hug--
humb--
hy--
hydr--
hyper--
i--
ia--
ic--
icon--
id--
if--
ig--
ik--
il--
illu--
im--
image--
img--
imp--
in--
index--
infe--
info--
infra--
ins--
insert--
int--
integ--
inter--
intro--
invi--
io--
ip--
iq--
ir--
is--
iso--
isvalid--
it--
item--
iv--
iz--
j--
ja--
jam--
je--
jhu--
ji--
jo--
json--
ju--
judi--
jun--
k--
ka--
kal--
kan--
kar--
kara--
kath--
ke--
key--
kha--
khe--
khi--
kho--
khu--
ki--
kilo--
kilog--
kir--
kl--
km--
kn--
ko--
kon--
kor--
kp--
kr--
ku--
kv--
kw--
ky--
l--
la--
lab--
label--
lag--
lak--
lang--
las--
last--
lat--
laun--
lay--
le--
legi--
lex--
li--
libr--
line--
ling--
link--
list--
ll--
lo--
load--
log--
lon--
low--
lu--
lua--
ly--
m--
ma--
mac--
mad--
mag--
maha--
main--
maj--
mak--
make--
makh--
mal--
mamm--
man--
map--
mar--
mari--
mark--
mask--
max--
mb--
mc--
me--
mega--
memo--
men--
mer--
merge--
meta--
mg--
mi--
micr--
mid--
migr--
mil--
mill--
min--
mir--
miscel--
mix--
ml--
mm--
mn--
mo--
mon--
mor--
mora--
moro--
move--
mp--
mt--
mu--
multi--
mur--
mw--
my--
n--
na--
name--
nav--
naz--
nc--
nd--
ne--
new--
news--
next--
ng--
ni--
nico--
nil--
nj--
nl--
nm--
nn--
no--
node--
non--
nor--
not--
nou--
nr--
ns--
nu--
num--
nuts--
ny--
nz--
o--
ob--
obs--
obser--
oc--
occa--
od--
of--
og--
oh--
ok--
ol--
old--
om--
on--
only--
op--
open--
or--
ori--
os--
other--
out--
over--
ox--
p--
pa--
page--
pan--
par--
para--
param--
parse--
parser--
pas--
pat--
pc--
pe--
pen--
per--
ph--
phi--
pho--
pi--
pin--
pl--
po--
pol--
pop--
post--
pp--
pr--
pray--
pre--
prevalence--
pri--
print--
pro--
ps--
psych--
pt--
pu--
publ--
pue--
pul--
pun--
pur--
py--
q--
qa--
qu--
quick--
r--
ra--
rad--
raj--
ram--
rankby--
raw--
rd--
re--
read--
rece--
reci--
reco--
red--
rede--
ref--
regex--
remove--
render--
req--
rev--
rho--
ri--
rm--
ro--
row--
rs--
ru--
s--
sa--
sacr--
sal--
sam--
samar--
san--
sar--
save--
sc--
scho--
schu--
score--
sd--
se--
search--
see--
self--
semi--
sen--
sep--
ser--
set--
sf--
sg--
sh--
show--
si--
simp--
sindhi--
sk--
skip--
sl--
slo--
sm--
small--
sn--
snak--
snippet--
so--
soft--
sol--
some--
sorting--
sovere--
sp--
sq--
sr--
ss--
st--
status--
ste--
str--
stu--
su--
sub--
succ--
sum--
sun--
sup--
super--
sur--
sv--
svg--
sw--
sy--
syll--
sym--
syn--
t--
ta--
table--
tag--
tagging--
talk--
tar--
tc--
td--
te--
tel--
temp--
template--
ter--
terr--
test--
text--
th--
tha--
the--
ti--
time--
title--
tn--
to--
toc--
top--
tr--
trans--
tri--
trig--
trip--
tro--
ts--
tt--
tu--
tur--
tw--
twinkle--
ty--
type--
tz--
u--
ug--
uk--
ul--
um--
un--
under--
unit--
univ--
up--
ur--
url--
us--
use--
user--
ut--
v--
va--
val--
valen--
valid--
van--
var--
ve--
ven--
ver--
vi--
viki--
viol--
vita--
vla--
vo--
vol--
w--
wa--
wan--
want--
war--
watch--
we--
web--
wed--
wel--
wg--
whe--
whi--
wic--
wiki--
wil--
win--
with--
wo--
wol--
wor--
word--
worker--
wp--
wro--
wu--
x--
xfd--
y--
ya--
yer--
yi--
yo--
york--
yuc--
yugosla--
z--
za--
zay--
zh--
zhu--
zoo--
zu--
ŋ--
ɡ--
τ--
вики--
д--
з--
к--
катег--
н--
п--
с--
ء--
ا--
اب--
ابا--
ابر--
ابو--
ابوال--
ات--
اتر--
اتم--
اث--
اجه--
اجو--
اح--
احب--
اخ--
اخت--
ار--
ارا--
ارت--
ارم--
اري--
ارڙ--
از--
اس--
است--
اسم--
اسٽر--
اش--
اشرا--
اشڪ--
اص--
اض--
اضا--
اط--
اظ--
اع--
اف--
افو--
اق--
اقد--
ال--
الا--
الح--
الخ--
الس--
الص--
الع--
الغ--
الف--
الق--
الل--
الم--
اله--
الي--
الڪ--
الھ--
ام--
امر--
امي--
امير--
ان--
انا--
انب--
انت--
اند--
انس--
انويس--
اني--
انٽر--
انٽيگ--
انڊپ--
انگ--
اه--
اهل--
او--
اوج--
اور--
اول--
اون--
اوي--
اوڍ--
اوڏ--
اوڪلا--
اي--
ايج--
ايس--
ايل--
ايم--
اين--
ايني--
ايو--
ايٽ--
ايٿ--
ايڊ--
ايڪ--
ايگري--
ايگز--
اٺ--
اٻ--
اپ--
اڀ--
اڄ--
اچ--
اڌ--
اڏر--
اڏي--
اک--
اڪ--
اگر--
اگز--
اگه--
اگها--
اڳ--
اڻ--
ای--
ب--
با--
باخ--
باد--
بار--
باس--
بال--
بايو--
بت--
بحر--
بحي--
بد--
بدخ--
بر--
برا--
برج--
برط--
برن--
برو--
بري--
بزد--
بزر--
بزن--
بس--
بسط--
بش--
بص--
بع--
بغ--
بقا--
بل--
بلو--
بم--
بن--
بنا--
بند--
بندر--
به--
بها--
بو--
بول--
بوي--
بوھي--
بي--
بيس--
بيل--
بين--
بيو--
بيڊ--
بيڪ--
بيگ--
بٹ--
بٽ--
بچا--
بڇ--
بڇي--
بڊ--
بڑ--
بک--
بڪ--
بگ--
بڻ--
بھ--
بہ--
بی--
ت--
تا--
تاب--
تاج--
تان--
تب--
تبص--
تت--
تث--
تح--
تحر--
تر--
ترا--
ترو--
تري--
ترڪ--
تش--
تشبي--
تص--
تع--
تـ--
تف--
تق--
تل--
تم--
تن--
تند--
ته--
تو--
توت--
تي--
تڏ--
تڙ--
تڪ--
تھ--
تی--
ث--
ثار--
ثم--
ج--
جا--
جام--
جان--
جب--
جت--
جج--
جد--
جر--
جرم--
جز--
جس--
جع--
جغرا--
جـ--
جفا--
جل--
جلي--
جم--
جمد--
جن--
جنگ--
جه--
جهان--
جهن--
جهڳ--
جو--
جوت--
جون--
جي--
جيم--
جيو--
جٽ--
جڙ--
جڙا--
جڙن--
جڪ--
جڳ--
جڻ--
جھ--
جھي--
جہ--
جی--
ح--
حا--
حب--
حد--
حر--
حس--
حسن--
حش--
حق--
حل--
حوص--
حي--
حکو--
حی--
خ--
خا--
خار--
خام--
خان--
خد--
خدا--
خدم--
خر--
خز--
خص--
خط--
خم--
خن--
خو--
خوا--
خوب--
خود--
خوز--
خوش--
خي--
خير--
د--
دا--
دار--
دارال--
داس--
دال--
دان--
دب--
دت--
در--
درس--
دس--
دست--
دل--
دم--
دن--
ده--
دو--
دوا--
دي--
ديو--
دٻ--
دک--
دھر--
دی--
ذ--
ذر--
ذوال--
ذي--
ر--
را--
رات--
راج--
راز--
راض--
رام--
ران--
راه--
راو--
راڄ--
راڳ--
رب--
رت--
رج--
رخ--
رد--
رز--
رس--
رش--
رف--
رقا--
رل--
رم--
رن--
رنگ--
ره--
رو--
روا--
رود--
روز--
رون--
روپ--
روڊ--
ري--
ريج--
ريز--
ريس--
رين--
ريو--
ريٽ--
ريگي--
رٽ--
رپ--
رٿ--
رچ--
رڊ--
رڌي--
رڙ--
رک--
رڪ--
رگ--
رڱ--
رڳ--
رڻ--
رھ--
رہ--
ری--
ز--
زا--
زاد--
زاپا--
زر--
زلز--
زم--
زن--
زو--
زي--
زير--
زڪ--
زھر--
س--
سا--
سار--
سال--
سام--
سان--
ساه--
سب--
سبز--
سبي--
ست--
ستر--
ستي--
سج--
سد--
سدا--
سر--
سرب--
سرش--
سرو--
سري--
سرچ--
سس--
سـ--
سل--
سلا--
سلو--
سلي--
سم--
سما--
سمر--
سمو--
سن--
سنجه--
سنس--
سنڌ--
سنگ--
سنھ--
سه--
سو--
سور--
سوم--
سون--
سوي--
سوڙ--
سوڳ--
سي--
سير--
سيل--
سيم--
سين--
سيو--
سيٽ--
سٻا--
سٽ--
سپ--
سپر--
سٿ--
سڀ--
سڌ--
سک--
سڪ--
سڪڙ--
سگه--
سگھ--
سڱ--
سڻ--
سھا--
سہ--
سی--
ش--
شا--
شان--
شاه--
شاھ--
شب--
شد--
شر--
شرم--
شط--
شع--
شق--
شل--
شن--
شه--
شهن--
شو--
شوداس--
شور--
شي--
شير--
شين--
شڪ--
شڪر--
شھ--
شہ--
شی--
ص--
صاحب--
صح--
صد--
صف--
صو--
صوا--
صي--
صيه--
ض--
ضرب--
ضم--
ضياء--
ط--
طا--
طب--
طر--
طرب--
طغ--
طل--
طو--
طي--
ظ--
ظفر--
ع--
عا--
عبد--
عبدال--
عجو--
عز--
عص--
عـ--
عل--
علا--
علي--
عمر--
عن--
عيا--
عيد--
عی--
غ--
غا--
غم--
غير--
ـ--
ـــ--
ـو--
ف--
فا--
فار--
فاص--
فت--
فتح--
فر--
فرقي--
فري--
فرڊ--
فس--
فص--
فق--
فل--
فلم--
فن--
فو--
فوٽو--
في--
فيس--
فيو--
فيڊ--
فی--
ق--
قا--
قب--
قد--
قر--
قز--
قص--
قلم--
قم--
قمر--
قن--
قو--
قي--
ك--
ل--
لا--
لات--
لال--
لام--
لاپ--
لاڳ--
لب--
لت--
لح--
لد--
لس--
لف--
للڪ--
لم--
لن--
لنگ--
له--
لو--
لوه--
لوڙ--
لوڪ--
لي--
ليز--
لين--
ليو--
ليٽ--
لٽ--
لٿو--
لڀ--
لڌي--
لڏ--
لڙ--
لڙڪ--
لک--
لڪ--
لڳ--
لڳا--
لھ--
لی--
م--
ما--
مار--
مال--
مان--
ماه--
ماڪ--
مت--
متو--
مجا--
مح--
محمد--
مخ--
مد--
مذ--
مر--
مرا--
مرث--
مز--
مس--
مست--
مش--
مشا--
مص--
مصط--
مض--
مط--
مطال--
مطلو--
مع--
مغ--
مـ--
مف--
مق--
مقت--
مقد--
مل--
ملا--
ملي--
مم--
من--
منا--
مني--
منگ--
مه--
مها--
مهر--
مو--
مور--
مول--
مون--
مونجه--
موٽ--
مي--
مير--
ميلن--
مين--
ميوسي--
ميڊي--
ميڪ--
ميگا--
مٺ--
مٽ--
مٽي--
مپ--
مٿ--
مٿا--
مڃ--
مچ--
مڇ--
مڙ--
مک--
مڪ--
مڱ--
مڻ--
مھ--
مھا--
مھر--
مہ--
می--
میر--
ن--
نا--
نار--
ناس--
ناش--
ناظ--
نام--
ناو--
ناڪ--
نب--
نت--
نثر--
نج--
نخ--
نذر--
نر--
نرم--
نز--
نس--
نسر--
نش--
نص--
نصر--
نط--
نع--
نـ--
نف--
نق--
نقا--
نل--
نم--
نن--
نه--
نو--
نور--
نوش--
نوشي--
نول--
نون--
ني--
نيا--
نيم--
نين--
نيو--
نيڪ--
نٽ--
نپو--
نڀ--
نچ--
نڊ--
نڊي--
نڍ--
نڙ--
نک--
نڪ--
نڪارا--
نڪو--
نگ--
نگه--
نھ--
نی--
ه--
ها--
هالي--
هر--
هري--
هـ--
هل--
هم--
هن--
هند--
هنڱ--
هه--
هو--
هوا--
هوم--
هي--
هيل--
هيم--
هيڊ--
هٽ--
هٿ--
هڏ--
هڙ--
هڪ--
هڱ--
هڻ--
و--
وا--
وار--
وال--
وان--
واه--
وب--
وت--
وجھ--
وح--
ود--
ور--
ورا--
ورن--
وز--
وزي--
وس--
وسط--
وسن--
وش--
وص--
وظ--
وق--
ول--
ولا--
ولي--
وم--
ون--
ونڊ--
وه--
وهن--
وو--
وي--
ويا--
ويد--
وير--
وين--
ويو--
ويڙ--
ويڪ--
ويھ--
وٺ--
وٽ--
وپ--
وٿ--
وڃ--
وڄ--
وچ--
وڊ--
وڌ--
وڍ--
وڏ--
وڙ--
وک--
وڪ--
وڪي--
وڻ--
وھا--
وی--
ي--
يا--
يار--
يارو--
يب--
يج--
يد--
ير--
يز--
يس--
يش--
يف--
يل--
يم--
ين--
ينس--
يه--
يو--
يوگ--
يي--
يپ--
يڊ--
يڪ--
يگ--
٠--
١--
١٨--
١٩--
٢--
٣--
٤--
٦--
ٹ--
ٹھ--
ٺ--
ٺا--
ٺاه--
ٺو--
ٺوڙ--
ٺي--
ٺٺ--
ٻ--
ٻا--
ٻار--
ٻان--
ٻاوي--
ٻر--
ٻن--
ٻه--
ٻي--
ٻير--
ٻڌ--
ٻڍ--
ٻھ--
ٽ--
ٽا--
ٽر--
ٽري--
ٽس--
ٽل--
ٽم--
ٽما--
ٽن--
ٽنگ--
ٽه--
ٽو--
ٽي--
ٽين--
ٽيڪ--
ٽٻ--
ٽپ--
ٽڪ--
پ--
پا--
پاد--
پار--
پارلي--
پاس--
پال--
پان--
پاٽ--
پاپ--
پاڪ--
پاڳ--
پبل--
پت--
پتوڙي--
پد--
پر--
پرا--
پراسي--
پرو--
پري--
پری--
پس--
پشي--
پل--
پلي--
پن--
پنج--
پنگ--
پنھ--
پو--
پور--
پولي--
پوي--
پوڙ--
پي--
پير--
پين--
پيو--
پيڙ--
پٻ--
پٽ--
پٿا--
پٿي--
پڄ--
پچ--
پڇ--
پڊ--
پڌ--
پڑ--
پڙ--
پکڙ--
پڪ--
پڪا--
پگه--
پڳ--
پھا--
پہ--
پی--
ٿ--
ٿا--
ٿر--
ٿل--
ٿو--
ٿي--
ٿيا--
ٿيو--
ٿڌ--
ٿڪ--
ڀ--
ڀا--
ڀاو--
ڀاڱي--
ڀاڳ--
ڀر--
ڀرو--
ڀل--
ڀلي--
ڀنڀ--
ڀنگ--
ڀو--
ڀول--
ڀون--
ڀوڳ--
ڀي--
ڀٽ--
ڀڃ--
ڀڙ--
ڀڳ--
ڃ--
ڄ--
ڄاڻ--
ڄنگ--
ڄڻي--
چ--
چا--
چار--
چال--
چاڙ--
چاڻ--
چبو--
چتر--
چر--
چرا--
چل--
چم--
چمڪ--
چن--
چنگ--
چو--
چور--
چونڊ--
چوڪ--
چي--
چير--
چيل--
چٻ--
چٽ--
چٽي--
چپ--
چچ--
چڙ--
چک--
چڪ--
چڪر--
چڻ--
چھ--
چی--
ڇ--
ڇا--
ڇاپ--
ڇت--
ڇر--
ڇل--
ڇو--
ڇي--
ڇٽ--
ڇپ--
ڇڄ--
ڇڏ--
ڇڙ--
ڇڪ--
ڈ--
ڈھ--
ڈی--
ڊ--
ڊا--
ڊان--
ڊاڀ--
ڊاڪ--
ڊسڪ--
ڊم--
ڊن--
ڊو--
ڊوڙ--
ڊي--
ڊيم--
ڊيمو--
ڊيو--
ڊپ--
ڊڄ--
ڊڪ--
ڌ--
ڌا--
ڌام--
ڌر--
ڌن--
ڌو--
ڌي--
ڌڙ--
ڌڪ--
ڍ--
ڍل--
ڍو--
ڍي--
ڍڪ--
ڍڪي--
ڏ--
ڏا--
ڏام--
ڏاڙ--
ڏر--
ڏس--
ڏن--
ڏه--
ڏو--
ڏور--
ڏي--
ڏيا--
ڏيو--
ڏک--
ڏھ--
ژ--
ڙ--
ڙا--
ڦ--
ڦا--
ڦاڙ--
ڦر--
ڦل--
ڦهل--
ڦول--
ڦي--
ڦٽ--
ڦڙ--
ڦڙڪ--
ڦھل--
ک--
کا--
کار--
کان--
کر--
کل--
کلن--
کم--
کن--
که--
کو--
کوٽ--
کوہ--
کي--
کٽ--
کپ--
کڏ--
کڙ--
کڻ--
کھ--
کہ--
کی--
ڪ--
ڪا--
ڪار--
ڪاس--
ڪاش--
ڪال--
ڪام--
ڪان--
ڪاڙ--
ڪتب--
ڪج--
ڪر--
ڪرد--
ڪرم--
ڪرن--
ڪرو--
ڪري--
ڪرپال--
ڪس--
ڪسي--
ڪش--
ڪـ--
ڪل--
ڪلا--
ڪلو--
ڪلي--
ڪلڪ--
ڪم--
ڪمي--
ڪن--
ڪنز--
ڪنگ--
ڪه--
ڪو--
ڪوا--
ڪور--
ڪوريو--
ڪول--
ڪون--
ڪوٺ--
ڪوٽ--
ڪي--
ڪير--
ڪيس--
ڪيل--
ڪيم--
ڪين--
ڪيو--
ڪيٽ--
ڪٽ--
ڪٽي--
ڪپ--
ڪچ--
ڪڇ--
ڪڍ--
ڪڙ--
ڪک--
ڪڪ--
ڪڪر--
ڪڪڙ--
ڪھ--
گ--
گا--
گار--
گج--
گدا--
گذر--
گر--
گرد--
گرو--
گري--
گز--
گس--
گل--
گلو--
گلي--
گم--
گن--
گنگ--
گه--
گها--
گهر--
گهم--
گهٽ--
گو--
گور--
گول--
گي--
گچ--
گڏ--
گڙ--
گڻ--
گھ--
گھا--
گھر--
گھم--
گھو--
گی--
ڱ--
ڳ--
ڳا--
ڳاڙه--
ڳاڻ--
ڳر--
ڳن--
ڳو--
ڳوڙ--
ڳي--
ڳڀ--
ڳڙ--
ڳڻ--
ڻ--
ڻا--
ڻو--
ھ--
ھا--
ھر--
ھرز--
ھل--
ھم--
ھن--
ھو--
ھوا--
ھوش--
ھي--
ھير--
ھيٺ--
ھيڊ--
ھٿ--
ھڙ--
ھڪ--
ھڻن--
ہ--
ہر--
ہم--
ہو--
ہی--
ی--
یا--
یق--
یون--
۱--
۱۹--
۲--
۲۰--
۳--
۴--
۵--
۶--
۷--
۸--
۹--
र--
व--
--0
--00
--000
--01
--03
--1
--11
--2
--21
--22
--29
--3
--30
--33
--35
--37
--4
--40
--44
--48
--5
--50
--57
--6
--60
--64
--66
--7
--75
--8
--80
--84
--88
--9
--999
--a
--aa
--ab
--abad
--able
--ably
--ac
--ace
--acy
--ad
--ada
--ade
--adi
--ado
--ae
--af
--afa
--ag
--age
--aging
--ah
--ai
--ain
--ais
--aj
--ak
--aki
--al
--ald
--ale
--alias
--ally
--am
--ama
--ame
--ami
--an
--ance
--ane
--angular
--ani
--ano
--ans
--ant
--ants
--ao
--ap
--api
--ar
--ara
--ard
--area
--arg
--args
--ari
--aries
--ark
--ary
--as
--ash
--at
--ate
--ated
--ately
--ater
--ates
--athon
--ati
--atic
--ating
--ation
--ations
--ative
--ator
--au
--ava
--ave
--avi
--aw
--awa
--ax
--ay
--aya
--az
--b
--ba
--bal
--bar
--baricon
--be
--ber
--bi
--ble
--block
--blurb
--bo
--bot
--box
--bt
--bu
--burg
--by
--c
--ca
--case
--cat
--category
--ce
--ced
--cell
--cfg
--ch
--chunks
--cies
--cing
--cio
--ck
--co
--code
--color
--con
--count
--cs
--ct
--cus
--cy
--d
--da
--dad
--das
--data
--date
--day
--de
--ded
--den
--der
--dhi
--di
--div
--do
--ds
--du
--dy
--e
--ea
--eal
--ean
--ear
--ec
--ect
--ection
--ects
--ed
--edia
--ee
--eed
--eel
--een
--ees
--ef
--ei
--ein
--ek
--ekh
--el
--ela
--elf
--eli
--ell
--els
--ely
--em
--en
--ena
--ence
--end
--ene
--ened
--ens
--ense
--ensive
--ent
--entry
--ents
--eo
--eous
--ep
--epec
--er
--ere
--ered
--eri
--ern
--ero
--erous
--error
--ers
--ert
--erve
--ery
--es
--ese
--ess
--est
--et
--ete
--eti
--ets
--ett
--eur
--eus
--ew
--ews
--ex
--ey
--ez
--f
--fa
--failure
--fax
--ff
--fied
--field
--flag
--form
--fromitem
--ful
--fy
--g
--ga
--gai
--gar
--ge
--ger
--gg
--gham
--gi
--ging
--git
--gla
--go
--gp
--group
--gs
--gu
--gua
--gus
--gy
--h
--ha
--hai
--hal
--ham
--har
--hari
--he
--header
--hed
--hen
--hes
--hi
--hian
--hic
--hip
--ho
--holm
--hood
--how
--hs
--ht
--html
--hu
--hua
--hy
--i
--ia
--iah
--ial
--ian
--ians
--ib
--ible
--ibs
--ic
--ica
--ical
--ich
--ick
--icon
--ics
--id
--ida
--ide
--ided
--ident
--ides
--ids
--ie
--ied
--ier
--ies
--iff
--ification
--ified
--ify
--ii
--ik
--ika
--ike
--il
--ila
--ility
--illa
--illion
--ily
--im
--ima
--image
--ime
--iment
--in
--ina
--index
--ine
--info
--ing
--ings
--ini
--ink
--ino
--io
--ion
--ions
--ious
--ip
--ir
--ire
--iro
--is
--isation
--ise
--ised
--ish
--ision
--ism
--ist
--istic
--ists
--it
--ite
--item
--items
--ities
--ition
--itle
--ity
--ium
--ius
--iv
--ive
--ix
--iya
--iz
--ization
--ize
--ized
--izes
--izing
--j
--ja
--je
--ji
--jo
--js
--ju
--k
--ka
--kar
--ke
--ked
--ker
--key
--kh
--kha
--ki
--kin
--ko
--ks
--kt
--ku
--ky
--l
--la
--label
--lah
--land
--lang
--lar
--ld
--le
--led
--ler
--les
--less
--level
--ley
--lf
--li
--lia
--ling
--link
--links
--list
--ll
--lla
--lle
--lly
--lm
--lo
--log
--long
--lor
--ls
--lt
--lty
--lu
--lus
--ly
--lying
--m
--ma
--main
--major
--man
--mania
--map
--mas
--mat
--mba
--me
--media
--ment
--ments
--mer
--mi
--mic
--ming
--minor
--mo
--model
--ms
--msg
--mu
--mus
--n
--na
--nak
--nal
--name
--nce
--nd
--nda
--ne
--ned
--ner
--nes
--nese
--ness
--ng
--nga
--ngi
--ngo
--ngs
--ni
--nia
--nian
--nic
--ning
--nism
--nk
--nne
--no
--node
--notice
--ns
--nt
--nta
--nto
--nts
--nu
--num
--number
--nus
--ny
--o
--oa
--ob
--obj
--oc
--ock
--od
--oe
--of
--ogy
--oi
--oit
--oj
--ol
--oli
--olis
--ology
--om
--oma
--omb
--on
--ong
--only
--ono
--ons
--ont
--oo
--oon
--oot
--op
--ope
--or
--ora
--oration
--order
--ore
--orm
--oro
--ors
--ort
--ory
--os
--osa
--ose
--ot
--ou
--ous
--out
--ov
--ow
--oy
--oyed
--p
--pa
--page
--pages
--pan
--param
--params
--part
--pe
--pec
--ped
--pei
--pet
--pi
--ping
--po
--ponse
--pos
--pref
--ps
--pur
--q
--qt
--r
--ra
--ran
--ras
--rat
--rb
--rc
--rd
--re
--ref
--reme
--rey
--rf
--rg
--ri
--ria
--rian
--rid
--rie
--ried
--ries
--rin
--ring
--rk
--rl
--rm
--rn
--ro
--ron
--row
--rra
--rry
--rs
--rt
--ru
--ry
--s
--sa
--sburg
--scape
--sday
--se
--sed
--ser
--ses
--set
--sh
--si
--sia
--sion
--sk
--slist
--sm
--so
--son
--sor
--sp
--spaces
--span
--ss
--st
--stan
--stein
--ster
--ston
--str
--sts
--style
--su
--sy
--sym
--t
--ta
--table
--tag
--tags
--talk
--te
--ted
--teenth
--ter
--tes
--text
--th
--thi
--ti
--tia
--tial
--tic
--time
--ting
--tio
--tion
--tions
--tis
--title
--tive
--tla
--tle
--to
--toc
--ton
--tone
--tor
--tr
--tring
--trum
--ts
--tt
--tta
--tu
--tus
--ty
--tya
--tyle
--type
--tz
--u
--ua
--ual
--uan
--ub
--uct
--uction
--ud
--ue
--uf
--ui
--ul
--ula
--ular
--um
--un
--une
--ung
--up
--ups
--ur
--ure
--url
--us
--use
--user
--uses
--ust
--ut
--ute
--uting
--v
--va
--val
--value
--ve
--ver
--ves
--vi
--ville
--ving
--vio
--w
--wa
--wal
--way
--we
--web
--wi
--width
--wk
--wl
--wo
--wood
--work
--x
--xi
--xors
--y
--ya
--yan
--ye
--year
--yi
--yn
--yo
--yr
--ys
--yu
--z
--za
--ze
--zed
--zi
--zing
--zo
--zon
--ς
--υ
--а
--ар
--и
--на
--п
--я
--ء
--ا
--اء
--اب
--اة
--ات
--اتن
--اتي
--اج
--اجي
--اح
--اخ
--اد
--ار
--ارن
--ارو
--اري
--ارڊ
--ارڪ
--از
--ازم
--اس
--اسي
--اش
--اط
--اع
--اعي
--اغ
--اف
--افي
--اق
--ال
--الا
--الن
--اله
--الو
--الہ
--ام
--اما
--امل
--امه
--امو
--امي
--ان
--انا
--انن
--انه
--اني
--انہ
--انی
--اه
--اهه
--او
--اوان
--اي
--ايا
--اٽ
--اپور
--اٿ
--اڊ
--اڊور
--اڑی
--اڙ
--اڙي
--اڪ
--اڪا
--اڪن
--اڪو
--اگ
--اں
--اڻ
--اڻا
--اڻن
--اڻو
--اڻي
--اڻيء
--اڻين
--اھ
--اہ
--ب
--با
--باد
--بة
--بت
--بر
--برگ
--بز
--بس
--بع
--بل
--بن
--به
--بو
--بي
--بيا
--بہ
--ة
--ت
--تا
--تاح
--تان
--تح
--تر
--ترا
--تن
--ته
--تو
--تون
--تي
--تيء
--تيا
--تڪ
--تہ
--تی
--تے
--ث
--ثن
--ثي
--ج
--جا
--جات
--جان
--جاهه
--جاڻي
--جة
--جر
--جن
--جه
--جها
--جو
--جي
--جيء
--جڪ
--جڻ
--جھ
--جہ
--ح
--حا
--خ
--خان
--خانا
--خت
--خل
--د
--دا
--داد
--دار
--دارن
--داس
--دان
--داهو
--در
--دس
--دل
--دم
--دن
--ده
--دو
--دون
--دي
--ديء
--ديون
--دڙ
--دڙن
--دڪ
--دگي
--دھ
--دہ
--دی
--ذ
--ذب
--ذهب
--ر
--را
--راء
--رام
--ران
--راي
--رت
--رد
--رز
--رس
--رشاد
--رم
--رن
--ره
--رو
--ري
--ريء
--ريا
--رٽ
--رٿ
--رڊ
--رڪ
--رگ
--رڻ
--رہ
--ری
--ز
--زا
--زاده
--زر
--زز
--زش
--زل
--زم
--زن
--زه
--زو
--زوي
--زي
--زگ
--س
--سا
--سازي
--ساي
--ست
--ستان
--سد
--سر
--سز
--سس
--سل
--سن
--سه
--سو
--سون
--سي
--سيا
--سين
--سٽ
--سٽر
--سٽس
--سٽڪ
--سڊ
--سڪ
--سہ
--ش
--شا
--شاھ
--شت
--شر
--شس
--شش
--شل
--شم
--شن
--شنز
--شو
--شي
--شيا
--شيم
--شين
--شٽ
--شپ
--شڪ
--شڻ
--شی
--ص
--صل
--صه
--صہ
--ض
--ضا
--ضن
--ضه
--ضو
--ضي
--ضی
--ط
--طا
--طانيا
--طر
--طن
--طه
--طہ
--ظ
--ظر
--ع
--عا
--عات
--عب
--عت
--عد
--عظم
--علي
--عه
--عو
--عي
--عہ
--غ
--غان
--غر
--ـ
--ـا
--ـم
--ـن
--ـو
--ـي
--ف
--فا
--فت
--فر
--فري
--فس
--فع
--فن
--فه
--فو
--في
--فڪ
--فہ
--ق
--قب
--قت
--قط
--قل
--قن
--قه
--قي
--قہ
--قی
--ك
--ل
--لا
--لاجي
--لال
--لة
--لر
--لز
--لس
--لق
--لم
--لن
--له
--لو
--لوء
--لور
--لي
--لين
--ليٿڪ
--لڊ
--لڪ
--لہ
--لی
--م
--ما
--مان
--مب
--مت
--مر
--مل
--مم
--من
--مند
--منٽ
--مو
--مي
--ميا
--ميشن
--مينٽ
--مٽ
--مڪ
--مہ
--ن
--نء
--نا
--ناف
--نامو
--ناٿ
--ناڪ
--نة
--نت
--نتي
--نج
--ند
--ندا
--ندر
--ندو
--ندي
--ندڙ
--ندڙن
--نز
--نزم
--نس
--نش
--نل
--نن
--نه
--نهن
--نو
--ني
--نيشيا
--نٽ
--نڊ
--نڊر
--نڊس
--نڪ
--نگ
--نگا
--نگار
--نگر
--نہ
--نی
--نے
--ه
--هء
--ها
--هار
--هر
--هرو
--هل
--هم
--هن
--هه
--هو
--هون
--هي
--هين
--هٺ
--هٽ
--هڙ
--هڙو
--هڻ
--هہ
--و
--وء
--وا
--واد
--وار
--وال
--وب
--وة
--وت
--وتي
--وج
--وح
--ود
--ور
--ورس
--وري
--وز
--وس
--وسا
--وش
--وشن
--وع
--وعہ
--وف
--ول
--ولس
--وم
--ومل
--ون
--وني
--ونيا
--وه
--وو
--وي
--ويل
--وٹ
--وٺ
--وٽ
--وٽر
--وچ
--وچا
--وڊ
--وڑ
--وڙو
--وڪ
--وڪار
--وڪس
--وگ
--وں
--وی
--ى
--ي
--يء
--يا
--يات
--يان
--ياي
--ياڻي
--ية
--يت
--يتي
--يث
--يج
--يد
--يده
--ير
--يرا
--يري
--يز
--يس
--يسي
--يش
--يشن
--يف
--يل
--يلو
--يم
--ين
--ينج
--ينٽ
--يه
--يهه
--يهين
--يو
--يولر
--يون
--يي
--يٽ
--يٽر
--يڊ
--يڪ
--يڪا
--يڪس
--يڪل
--يڪن
--يڪو
--يھ
--يہ
--٠
--٢
--٣
--ٹ
--ٹا
--ٺ
--ٺو
--ٻ
--ٻا
--ٻاي
--ٻو
--ٽ
--ٽا
--ٽال
--ٽر
--ٽري
--ٽز
--ٽس
--ٽل
--ٽن
--ٽو
--ٽي
--ٽيشن
--ٽڪ
--ٽڪس
--ٽڪل
--پ
--پا
--پر
--پس
--پو
--پور
--پي
--پٿيڪس
--ٿ
--ٿا
--ٿن
--ٿو
--ٿي
--ٿڪ
--ڀ
--ڀٽ
--ڄ
--ڄن
--چ
--چا
--چاڻي
--چر
--چن
--چند
--چه
--چو
--چي
--ڇ
--ڇل
--ڈ
--ڈا
--ڈہ
--ڈی
--ڈیا
--ڊ
--ڊا
--ڊاي
--ڊر
--ڊز
--ڊس
--ڊل
--ڊم
--ڊن
--ڊنٽ
--ڊو
--ڊور
--ڊي
--ڊيا
--ڊڪ
--ڊڪٽ
--ڊڻ
--ڌ
--ڌا
--ڌر
--ڌن
--ڌو
--ڌي
--ڍ
--ڍا
--ڍر
--ڍن
--ڍڻ
--ڏ
--ڏنو
--ڏني
--ڑ
--ڑا
--ڑہ
--ڑی
--ڙ
--ڙا
--ڙاي
--ڙن
--ڙه
--ڙو
--ڙي
--ڙيء
--ڙين
--ڙيو
--ڙڻ
--ڙھ
--ک
--کا
--کي
--کی
--کے
--ڪ
--ڪا
--ڪار
--ڪاري
--ڪت
--ڪر
--ڪس
--ڪل
--ڪلس
--ڪم
--ڪن
--ڪو
--ڪي
--ڪيا
--ڪٽ
--ڪہ
--گ
--گا
--گار
--گان
--گاھ
--گاہ
--گر
--گري
--گل
--گن
--گو
--گون
--گي
--گيء
--گير
--گيشن
--گہ
--گی
--ڱ
--ڱڻ
--ڳ
--ڳو
--ڳي
--ڳڙھ
--ں
--ڻ
--ڻا
--ڻن
--ڻو
--ڻي
--ڻيء
--ڻين
--ھ
--ھا
--ھار
--ھر
--ھرو
--ھم
--ھن
--ھو
--ھي
--ھڙ
--ھڻ
--ھی
--ہ
--ۃ
--ی
--یا
--یات
--یاي
--یاں
--یب
--یت
--ید
--یر
--یز
--یس
--یع
--یف
--یل
--یم
--ین
--یو
--یي
--یٹ
--یکا
--یں
--یہ
--ے
--۰
--۰۰
--۱
--۲
--۳
--۴
--۵
--۷
--۸
--۹
