!
"
#
##0
##1
##10
##11
##12
##13
##14
##15
##16
##17
##18
##19
##2
##20
##21
##22
##23
##24
##25
##26
##27
##28
##29
##3
##30
##31
##32
##33
##34
##35
##36
##37
##38
##39
##4
##40
##41
##42
##43
##44
##45
##46
##47
##48
##49
##5
##50
##51
##52
##53
##54
##55
##56
##57
##58
##59
##6
##60
##61
##62
##63
##64
##65
##66
##67
##68
##69
##7
##70
##71
##72
##73
##74
##75
##76
##77
##78
##79
##8
##80
##81
##82
##83
##84
##85
##86
##87
##88
##89
##9
##90
##91
##92
##93
##94
##95
##96
##97
##98
##99
$
%
&
'
(
)
*
+
,
-
.
/
0
00
000
0000
0001
001
01
0140
018
02
024
03
0362
04
05
06
07
08
09
0971
1
10
100
1000
10000
100000
10001
1001
1002
1007
1009
101
1010
1016
1017
102
1021
1024
1025
1026
1027
103
1030
1032
1037
1038
1039
104
1040
1041
1045
1048
105
1050
1052
1054
1057
106
107
108
1080
1086
109
1093
1095
1099
11
110
1100
1101
1104
111
1111
112
1126
113
1130
114
11413
1148
115
1150
1152
116
1160
1163
1165
1167
1168
117
1170
1171
1173
1177
118
1182
1186
1187
1189
119
1190
1191
1192
1194
12
120
1200
12000
1201
1206
1207
121
1210
12148
122
1226
123
1234
1235
1236
124
1240
1242
1246
125
1250
1256
1258
1259
126
1260
1261
127
1272
1274
1277
128
129
1290
1291
1296
1297
1298
13
130
1300
1304
131
1315
132
1320
1325
133
1333
1336
134
1340
1341
135
1350
1351
1353
1356
136
1365
1368
137
138
1380
1388
139
14
140
1400
141
1414
142
143
144
145
1450
1451
1453
146
1469
147
148
149
1490
1492
1498
15
150
1500
15000
1502
1504
1508
151
1511
1516
1517
1519
152
1520
1521
1523
1524
1525
1526
153
1530
1538
154
1540
1542
1545
155
1550
1551
1552
1554
1555
1556
156
1564
1568
157
158
1580
1583
1588
1589
159
1590
1591
1592
1595
1598
1599
16
160
1600
1602
1603
1604
1605
1606
1607
161
1610
1612
1613
1617
1618
162
1626
1627
1628
1629
163
1631
1635
1637
164
1640
1642
165
1650
1656
1657
1658
166
1661
1665
167
16784
168
1681
1688
1689
169
1692
1699
17
170
1700
1701
1703
1707
171
1712
1718
1719
172
1722
173
1734
1735
1736
1737
1738
1739
174
1740
1742
1747
1748
1749
175
1750
1752
1753
1755
1757
1758
1759
176
1760
1761
1762
1763
1767
1768
1769
177
1770
1771
1772
1773
1774
1775
1776
1777
1778
1779
178
1780
1781
1782
1783
1786
1787
1788
1789
179
1790
1791
1792
1793
1794
1795
1796
1797
1798
1799
18
180
1800
1801
1802
1803
1804
1806
1807
1808
1809
181
1810
1811
1812
1813
1814
1815
1817
1818
1819
182
1820
1821
1822
1823
1824
1825
1826
1827
1828
1829
183
1830
1831
1832
1833
1834
1835
1836
1837
1838
1839
184
1840
1841
1842
1843
1844
1845
1846
1847
1848
1849
185
1850
1851
1852
1853
1854
1855
1856
1857
1858
1859
186
1860
1861
1862
1863
1864
1865
1866
1867
1868
1869
187
1870
1871
1872
1873
1874
1875
1876
1877
1878
1879
188
1880
1881
1882
1883
1884
1885
1886
1887
1888
1889
189
1890
1891
1892
1893
1894
1895
1896
1897
1898
1899
19
190
1900
1901
1902
1903
1904
1905
1906
1907
1908
1909
191
1910
1911
1912
1913
1914
1915
1916
1917
1918
1919
192
1920
1921
1922
1923
1924
1925
1926
1927
1928
1929
193
1930
1931
1932
1933
1934
1935
1936
1937
1938
1939
194
1940
1941
1942
1943
1944
1945
1946
1947
1948
1949
195
1950
1951
1952
1953
1954
1955
1956
1957
1958
1959
196
1960
1961
1962
1963
1964
1965
1966
1967
1968
1969
197
1970
1971
1972
1973
1974
1975
1976
1977
1978
1979
198
1980
1981
1982
1983
1984
1985
1986
1987
1988
1989
199
1990
1991
1992
1993
1994
1995
1996
1997
1998
1999
2
20
200
2000
20000
2001
2002
2003
2004
2004016785
2005
2006
2007
2008
2009
201
2010
2011
2012
2013
2014
2015
2016
2017
2018
2019
202
2020
2021
2022
2023
2024
203
204
205
206
207
208
209
21
210
2103
211
212
213
214
215
216
217
218
219
22
220
2200
221
222
223
224
225
226
227
228
229
23
230
2305
2307
231
232
233
234
235
236
237
238
239
24
240
241
242
243
244
245
246
247
248
249
25
250
2500
25000
251
252
253
254
255
256
257
258
259
26
260
261
262
263
264
265
266
267
268
269
27
270
2700
271
272
273
274
275
276
277
278
279
28
280
281
282
283
284
285
286
287
288
289
29
290
291
292
293
294
295
296
297
298
299
3
30
300
3000
30000
301
302
303
304
305
306
307
308
309
31
310
311
312
313
314
315
316
317
318
319
32
320
321
3218
322
323
324
325
326
327
328
329
33
330
331
332
333
334
335
336
337
338
339
34
340
341
342
343
344
345
346
347
348
349
35
350
3500
351
352
353
354
355
356
357
358
359
36
360
361
362
363
364
365
366
367
368
369
37
370
371
372
374
375
376
377
379
38
380
381
382
383
384
385
386
387
388
389
39
390
391
392
393
394
395
398
399
4
40
400
4000
401
402
403
405
409
41
410
411
412
413
415
416
417
419
42
420
421
422
424
425
426
427
428
429
43
430
431
432
433
4331
434
4342
435
436
437
438
439
44
440
441
443
445
446
447
448
449
45
450
4500
451
452
455
456
457
459
46
460
461
462
463
4638
465
468
469
47
470
472
474
475
477
478
479
48
480
481
484
485
486
488
489
49
490
491
492
493
494
495
497
498
499
5
50
500
5000
50000
501
505
506
507
508
509
51
510
511
512
5124
514
517
518
52
520
521
522
525
528
529
53
530
532
533
535
537
54
540
542
543
549
55
550
554
558
559
56
560
561
562
566
569
57
570
571
574
576
579
58
583
587
59
590
593
599
6
60
600
6000
605
607
61
610
611
613
615
618
62
620
622
623
624
625
626
627
628
63
630
631
632
633
634
637
639
64
640
641
642
643
644
645
646
648
65
650
651
652
654
655
656
658
66
660
661
662
664
665
667
669
67
670
671
672
6736
674
678
68
680
681
683
684
685
687
689
69
690
691
692
693
694
695
699
7
70
700
7000
70000
705
708
71
710
711
712
713
717
72
720
725
728
73
733
734
74
740
742
75
750
751
752
755
76
760
762
765
767
77
771
78
780
786
79
791
7929
8
80
800
8000
808
81
812
8160
817
82
822
82405
828
83
830
831
833
836
84
840
849
85
850
851
86
860
866
87
870
873
877
88
880
883
89
890
895
896
897
9
90
900
905
9098
91
910
911
914
919
92
927
928
929
93
930
935
94
940
942
944
949
95
950
953
958
96
960
961
962
963
965
969
97
970
971
974
975
976
977
978
98
980
982
987
99
99166
995
998
:
;
<
=
>
?
@
[
\
]
^
_
`
a
aa
aamir
ab
abad
abbas
abbasi
abbasid
abc
abd
abdul
abdullah
abdur
abi
abkhazia
about
above
abraham
abro
abs
absolute
abstract
abu
abul
ac
academia
academic
academy
access
accessdate
accessed
accident
according
account
accounting
accounts
accused
acfu
acid
acku
acquired
acref
across
act
acting
action
active
activist
activists
activities
activity
actor
actors
actress
acts
acute
ad
adab
adabi
adam
adams
add
added
addition
address
adds
adelaide
aditi
adm
admin
administration
administrative
adopted
advanced
advani
adventure
ae
aein
af
affair
affairs
afghan
afghanistan
afghans
africa
african
afridi
after
afzal
again
against
age
agence
agency
agent
ages
agglomerations
aggregate
agha
ago
agreement
agricultural
agriculture
ah
ahead
ahmad
ahmed
ahukewj
ai
aid
aimer
air
airlines
airport
airports
akademi
akbar
akhtar
al
alabama
alan
albert
albuquerque
aleph
alexa
alexander
ali
alive
aliyev
alize
aljazeera
all
alla
allah
allahyar
allama
allan
allen
alliance
almost
along
alpha
alphabet
also
alternative
although
always
am
amal
amanullah
amar
amazon
amended
amendment
america
american
amid
amin
amir
ammad
amman
amnesty
among
amp
amrita
an
analysis
anand
anas
anchor
ancient
and
andalus
anderson
andhra
andrew
android
angel
angeles
anil
animal
animals
aniston
ann
anna
anne
anniversary
annotated
announced
announces
annual
another
ansari
ant
anthem
anthology
anthony
anthropology
anti
antiquities
antiquity
anu
anurag
anushka
any
ap
api
app
appear
appendix
apple
applied
appointed
appointment
approach
approaches
appropriate
approves
apr
april
ar
arab
arabia
arabic
arabs
arc
archaeological
archaeology
archimedes
architecture
archive
archived
archives
archiveurl
arctic
are
area
areas
argento
arif
arizona
arjun
ark
arm
armed
armenia
armenian
armenians
arms
armstrong
army
arnold
around
arrested
art
arthur
article
articles
articleshow
artist
artists
arts
arunachal
ary
arya
aryan
arynews
as
asad
asean
asha
ashraf
asia
asian
asiatic
asif
asked
asko
asma
asmr
asp
aspects
aspx
assam
assembly
assessment
assets
associated
association
astronomical
astronomy
at
athens
atkinson
atlantic
atlas
atmosphere
atmospheric
atta
attack
attacks
attempt
au
audio
aug
august
aurat
austin
australia
australian
austria
aut
auteur
author
authorities
authority
authors
autobiography
autonomous
autonomy
autumn
available
avatar
average
aviation
awami
awamiawaz
awaran
award
awards
away
awaz
ayub
ayyan
az
azad
azam
azer
azerbaijan
azerbaijani
azeri
aziz
azu
azərbaycan
aɪ
b
ba
baba
babar
babelio
back
background
bacteria
bacterial
bad
badin
bagh
baghdad
bahadur
bahawalpur
bai
baikal
baker
baku
ballet
baloch
balochistan
baltic
baltistan
baluchistan
ban
banarsidass
band
bandar
bandaranaike
bang
bangkok
bangladesh
bank
banking
bar
barack
barbara
baron
bartleby
base
based
bashir
basic
basin
basis
bat
battle
bay
bb
bbc
bc
bce
bd
be
bean
beautiful
beauty
became
because
become
becomes
bedi
been
before
beg
begin
beginning
begins
begum
behind
beijing
being
beliefs
bell
below
belt
ben
benazir
bengal
benjamin
benny
berg
berkeley
berlin
bernard
best
beta
better
between
beweb
beyond
bf
bharat
bhasha
bhaskar
bhatia
bhatti
bhojpuri
bhopal
bhosle
bhurgri
bhutto
bibcode
bible
bibleref
bibliographical
bibliographique
bibliographisches
bibliography
bibliothe
big
biggest
bihar
bilawal
bill
billion
billionaires
bin
bio
biographical
biographies
biography
biological
biology
bios
bird
birds
birth
birthday
bissau
bjp
bl
black
blackwell
blasphemy
blast
blasts
blica
block
blockwise
blog
blogs
blogspot
blood
bloomberg
blue
bn
bnf
bo
board
bodies
body
bollywood
bomb
bombay
bombs
book
booker
bookid
books
booktitle
border
borders
born
boston
bosworth
bot
botanical
both
boundaries
bournoutian
box
br
brain
brains
brand
brandsynario
brazil
breaking
breaks
brian
brick
bridge
brief
brill
brings
brisbane
britain
britannica
british
broadcasting
broadway
brockhaus
brohi
broken
bronze
brother
brown
browser
bruce
bruno
bu
bucket
buddha
buddhism
buddhist
budget
buffalo
building
built
bukhari
bulletin
bureau
buriro
burton
bush
bushra
business
but
bux
buy
bwpsr
by
byron
c
ca
caa
cab
cabinet
calcutta
calendar
california
caliphate
call
called
calls
cambridge
came
camel
camp
campaign
campbell
campo
camus
can
canada
canadian
canal
canberra
cancer
candidate
candidates
cannot
cant
capita
capital
car
care
career
caretaker
carl
carlos
carpet
case
cases
cash
caspian
cast
caste
casualties
cat
catalana
catalog
cataloging
catalogue
category
catherine
catholic
caucasus
cause
causes
cavendish
cb
cc
ccl
cd
cdc
ce
celebrate
celebrated
celebrates
celebrity
cell
cells
celtic
cement
cengage
census
center
centers
central
centre
centuries
century
ceo
ceres
cf
cgi
ch
chairman
chak
challenge
challenges
chamber
chancellor
chand
chander
chandigarh
chandio
chandler
chandra
chang
change
changed
changes
changing
channel
chapter
character
characteristics
characters
charge
charles
charter
charts
chat
chatterjee
chaudhary
check
checked
chekhov
chemical
chemistry
chennai
chiayi
chicago
chief
child
children
chile
china
chinas
chinese
chitrali
chitwood
choice
chosen
chris
christ
christian
christianity
christians
christmas
christopher
chromosome
chronicle
chronology
church
ci
cia
cinema
cinestaan
circle
cit
citation
citationclass
cite
cities
citizen
citizens
citizenship
city
cityid
citypopulation
citysurround
civil
civilization
claim
claims
clark
clash
class
classes
classical
classification
clay
clear
climate
clinical
clio
clive
clock
close
closed
club
cm
cms
cn
cnn
co
coal
coalition
coast
code
codes
coefficient
col
cold
colin
collection
college
collins
colonial
colony
color
colour
columbia
columbus
com
come
comedy
comes
commander
commentary
commerce
commercial
commission
commissioner
committee
common
commons
commonwealth
communal
communication
communique
communist
communities
community
companies
companion
company
comparative
complete
complex
composition
comprehensive
computer
concept
concepts
concern
concerning
concise
conditional
conditions
conference
confirmed
conflict
congo
congress
conjugated
conjugation
connection
connor
conquest
conservation
considered
consonant
constantinople
constituency
constitution
constitutional
construction
consulate
contact
contains
contemporary
content
context
continent
continue
contribution
control
controversy
convention
conversion
cook
cooperation
coordinates
copies
copy
copyright
core
cornell
coronavirus
corporation
corpus
correspondent
corruption
cost
costa
cotton
could
council
count
counties
countries
country
county
coup
course
court
courts
cov
cover
covering
covid
crane
crash
crashes
crater
crc
created
creation
creative
cricinfo
cricket
crime
crimea
crisis
critical
criticism
critics
crore
cross
cruise
cs
ct
cultural
culture
cultures
cup
curfew
currency
current
curtis
curve
custom
customs
cyprus
cyrus
cz
czech
d
da
dada
dadu
dagestan
daily
dailyimkaan
dailytimes
dajani
dale
dam
dan
dance
dancer
dancing
danger
daniel
danish
dar
dara
dark
daro
darryl
darwin
das
data
database
date
dated
dates
dating
daughter
david
davis
dawn
day
days
db
dc
de
dead
deal
deals
death
debate
debut
dec
deccan
december
decision
declaration
declared
declares
decree
deepika
default
defence
defense
define
defined
definition
definitions
deh
del
delhi
delta
demand
demands
democracy
democratic
demographia
demographic
demographics
demography
dengue
denis
denmark
density
department
depression
der
dera
dero
des
descartes
described
description
desert
design
desk
despite
destination
detail
details
detained
deutschland
dev
devanagari
developed
developing
development
devi
dflt
dharma
di
dia
dialect
diamond
dic
dictionaries
dictionary
did
die
died
diego
dies
diesel
difference
different
difficult
digital
din
dipali
diplomacy
diplomatic
direct
director
directorate
directory
disambiguation
disaster
discogs
discover
discovery
discrimination
discussion
disease
diseases
display
displaystyle
disposable
distance
distancing
distinct
distr
distribute
distribution
district
districts
diversity
divide
divided
divine
division
divisions
divya
diwali
diwan
dk
dmy
dna
do
dobaaraa
doc
docs
doctor
document
documentation
documents
does
dog
doi
doing
domain
domestic
dominica
don
donald
doors
dost
double
douglas
down
download
dq
dr
draft
drama
dravidian
dream
drive
driving
drought
druze
dry
ds
du
dual
dubai
dublin
dudley
due
dundee
dunya
dunyanews
during
dutch
dutt
dutta
dw
dwarf
dwight
dx
dyb
dynasty
dz
e
ea
each
earlier
earliest
early
earth
earthquake
east
eastern
eb
ebert
ebook
ebooks
ec
ece
ecology
economic
economics
economictimes
economist
economy
ecp
ecs
ed
edge
edinburgh
edited
edition
editor
editorial
editors
edmund
eds
edu
education
educational
edward
edwin
ee
effect
effective
eftsindh
egypt
egyptian
ei
eight
einstein
eisenhower
either
ek
el
elect
elected
election
elections
electric
electromagnetic
electronic
elements
elevation
elisabeth
elizabeth
elliot
elsevier
embassy
emergency
emerging
emma
emperor
empire
empires
empty
en
enciclope
enciclopedia
enciklopedija
encyclopaedia
encyclopedia
encyclopediasindhiana
encyclopædia
encyclopædiabritannica
end
ending
ends
energy
engineering
england
english
enough
enseignement
entertainment
entire
entitled
entry
environment
environmental
enzy
enzyklopa
epaper
epic
epidemic
equatorial
equivalised
er
era
eric
ernest
error
es
esa
esc
eskij
espan
especially
espn
espncricinfo
essay
essays
established
establishment
estate
estimate
estimated
estimates
estonia
et
etc
ethics
ethiopia
ethnic
ethnicity
ethnologue
etymology
eu
europa
europe
european
eurostat
even
evening
event
events
ever
every
everyone
evidence
evil
evolution
evolutionary
ex
example
examples
except
exchange
exclusive
executive
expansion
experience
expert
explorations
explorer
explosion
express
expression
external
externalid
extraordinary
eye
eyes
f
fa
face
facebook
faces
fact
factbook
factor
facts
failed
fair
faisal
faisalabad
faith
fakir
fall
falling
false
fame
families
family
famous
fan
fao
far
farm
faroe
fashion
fast
fateh
father
fathers
fatima
fe
feature
features
feb
february
federal
federation
feed
feet
female
feminine
feminism
feminist
festival
festivals
fever
few
ff
fgm
fi
fiction
field
fields
fifa
fifth
fight
fighter
fighting
figure
figures
fiji
file
files
film
filmfare
filmportal
films
final
finance
financial
find
findagrave
fine
fire
firm
first
firstpost
fish
fitzgerald
five
flag
flagstaff
flat
flight
flights
flood
floods
floor
floors
florida
flower
fo
focus
folk
follow
followed
following
font
food
for
forbes
force
forced
forces
foreign
forgotten
forkel
form
formal
formally
format
formation
formed
former
forms
fort
fortune
forum
found
foundation
founded
founder
four
fourth
fox
fp
fr
franc
france
francis
francisco
frank
fred
free
freedom
french
frequency
friday
friends
from
front
frontcover
frontier
fruit
ft
ftn
ftnref
fu
full
func
function
fund
further
fusion
future
g
ga
gaj
galaxy
galilei
galileo
gallery
game
games
gandhi
gao
garden
garhi
gary
gas
gate
gates
gatsby
gauri
gawc
gay
gazette
gazetteer
gb
gc
gdp
ge
gec
gelber
gen
gender
gene
genealogie
geneastar
general
generally
generation
genesis
genetic
genetics
geneva
genocide
genomics
genus
geo
geographic
geographical
geography
geohive
geological
geology
george
georgia
georgian
geos
geoscience
german
germany
germplasm
get
gets
gfdl
ghani
ghar
ghebi
ghotki
ghulam
gibran
gif
gil
gilgit
gini
girl
girls
give
given
gives
giving
glance
glands
glasgow
glenn
global
globaldatalab
globalization
globe
glory
glosbe
glossary
glottolog
glove
glucose
gnd
gnu
go
gobustan
god
goddess
goddesses
gods
goes
going
gold
golden
good
goods
google
gordon
gos
gospel
got
goth
gov
governance
governing
government
governor
govt
gr
graham
grammar
gran
grand
grant
grave
graveyard
gravitational
gravity
gray
great
greater
greatest
gree
greece
greek
green
greenland
greenwood
gregory
grenada
grenville
grin
gross
ground
group
groups
grove
growing
growth
grup
gu
guardian
guide
guinea
gujarat
gujranwala
gujrat
gul
gulf
gulfnews
gupta
guru
gutenberg
guwahati
h
ha
habib
had
hai
haider
haji
hajibeyov
half
hall
halt
hamid
hammarstro
han
hand
handbook
handle
hans
happy
haq
harald
harappa
hard
haroon
harper
harpercollins
harry
harsh
hart
harvard
has
hasan
haspelmath
hassan
have
haven
having
hawaii
hdi
hdr
he
head
health
heart
heat
hebrew
held
helmet
help
helsinki
henry
her
herald
herat
here
heritage
hero
heydar
hi
higgins
high
higher
highest
highlights
highly
highway
hill
him
himself
hindi
hindu
hinduism
hindus
hindustan
hindustantimes
his
histoire
historic
historical
history
hit
hitler
hits
hl
ho
hold
holiday
holidays
holland
hollywood
holy
homai
home
homo
hong
honor
honour
hope
horse
hospital
host
hot
house
household
housing
houston
how
however
hr
hrithik
hrvatska
htm
html
http
https
hu
hub
hudson
huffingtonpost
huge
hugh
hughes
hum
human
hume
humsari
hundred
hundreds
hungama
hungarian
hungary
husband
hussain
hyderabad
hypertext
i
ian
iaoj
ibn
ibrahim
ic
ica
icc
ice
iceland
icelandic
icon
id
idea
ideas
identifiants
identified
identity
idi
ie
ieee
if
ignored
ii
iii
ijs
il
illegal
illinois
illustrated
ils
im
image
images
imam
imdb
imf
immigration
impact
imperative
imperfect
imperial
implementation
implications
important
imprint
imran
imtiaz
in
inc
include
included
includes
including
income
increase
independence
independent
index
india
indian
indiana
indianexpress
indians
indiatimes
indiatoday
indica
indicative
indicators
indices
indira
individual
indo
indonesia
indonesian
indus
industrial
industry
inequality
infection
influence
info
infobase
infobox
informal
information
infrastructure
injured
inner
innovation
input
inquiry
inscriptions
inserted
inside
insider
institut
institute
institution
institutions
instituto
int
integrated
integration
intellectual
intelligence
inter
interactive
interest
interim
interior
international
internet
interview
interviews
into
introduction
invalid
invariant
invasion
investment
io
ip
ipa
iphone
iqbal
ir
iran
iranian
iranica
iranicaonline
iraq
ireland
irish
iron
irregular
irrigation
is
isaac
isabart
isani
isbn
isfahan
ishaq
isi
isis
islam
islamabad
islamic
islamskij
island
islands
ismail
iso
israel
israeli
issn
issue
issues
ist
istanbul
it
italian
italy
ite
item
its
itself
iucn
iucnredlist
iv
ivoire
ivory
ix
j
ja
jaa
jack
jacob
jacobabad
jagir
jagjit
jahan
jahangir
jain
jakarta
jam
jamali
jameel
james
jamia
jammu
jamnagar
jamshed
jamshoro
jan
jane
jang
january
japan
japanese
jaswant
jatoi
javed
jay
jazeera
je
jean
jee
jena
jennifer
jerusalem
jesus
jewish
jews
jhelum
jhukar
ji
jihad
jim
jimmy
jinnah
jinping
jo
job
johi
john
johnson
join
joins
joint
jokowi
jolie
jonathan
jones
jong
jordan
jose
joseph
journal
journalism
journalist
journals
journey
jp
jpg
jr
jsmm
jsp
jsqm
jstor
ju
juan
judicial
jug
jul
julex
julia
july
jun
junaid
junction
june
junejo
jupiter
just
justice
k
ka
kabul
kalar
kalat
kalhoro
kali
kallar
kalpana
kalyan
kambar
kamber
kapoor
karabakh
karachi
karann
kargil
karim
karl
karnataka
karsh
kashmir
kashmiri
kashyap
kasur
kate
kaur
kawish
kazakhstan
kazi
kb
keats
keep
keeping
keith
kelly
kennedy
kenneth
kerala
key
khairpur
khalid
khalil
khan
khanates
khanum
khaqan
khel
khoso
khuzdar
ki
kidman
kierkegaard
kill
killed
killing
killings
kills
kim
kin
kind
king
kingdom
kingdoms
kingrani
kings
kiran
kitab
km
know
knowledge
known
ko
kohat
kolkata
kong
korea
korean
kot
krishan
krishna
kumar
kuwait
l
la
lab
label
laboratory
labour
lady
laghari
lahore
laid
lake
lal
lancet
land
lands
landscape
lang
language
languages
languoid
lanka
lankesh
large
larger
largest
larkana
larry
las
lashari
last
lata
late
later
latest
latif
latifabad
latimes
latin
latvia
launch
launched
launcher
launches
law
lawrence
laws
layers
layout
le
lead
leader
leaders
leadership
leading
leaf
league
learn
learning
least
leave
leaves
lebanon
led
lee
left
legacy
legal
legend
legendary
legends
legislation
legislative
leiden
leksikon
length
lens
leo
leprosy
les
less
leste
let
letter
letters
level
levels
lewis
lexicon
li
liaquatabad
liberty
libraries
library
libris
license
liechtenstein
life
lifestyle
light
like
likely
limited
line
lines
linguistic
linguistics
link
links
linux
list
listed
listing
lists
literary
literature
lithuania
lithuanian
litrature
little
littlefield
live
lived
lives
livestock
living
ll
llc
lo
loading
loc
local
localities
located
location
log
logo
lok
london
lonely
long
longitude
longman
look
lord
los
loss
lost
louis
love
low
lower
lpg
lt
ltd
lu
lua
lucknow
lundy
luxembourg
lzmk
m
ma
mac
machine
macmillan
macquarie
mad
made
madison
madras
magazine
magnetic
magsi
mahal
maharashtra
mahatma
mahesh
mai
maiden
mail
main
majlis
majnun
major
majority
majumdar
make
makes
making
mal
malala
malaysia
male
malik
malini
malir
malta
man
management
mandarin
mandi
mangeshkar
manto
manual
many
manzoor
map
mapping
maps
mar
marc
march
marco
margaret
mari
maria
mariam
marie
marine
marino
mark
market
marks
marriage
married
marshall
martin
mary
mass
master
match
material
materials
mathbf
mathematician
mathematics
mathrm
matiari
matt
matter
matters
matthew
maulana
max
may
mayor
mazhar
mb
mc
mccain
md
me
meaning
means
measures
mecca
med
medal
medals
media
medical
medicine
medieval
mediterranean
medium
meet
meeting
mehran
mein
melbourne
melton
member
members
membership
memoirs
memon
memorial
memory
men
mengal
mental
mercer
mercury
merriam
mes
message
met
meta
meteorological
meter
method
methods
metro
metropolitan
mexican
mexico
mg
mi
mian
michael
microbiol
microbiology
microsoft
mid
middle
might
migration
mike
miles
militants
military
million
millions
min
minahan
mind
minister
ministers
ministry
minor
minorities
minority
mir
mirpur
mirror
mirza
mis
mismatch
miss
missing
mission
mit
mixed
mixing
mm
mna
mo
mobile
mode
model
modern
modi
modified
module
mohammad
mohammed
mohenjo
mokhi
moldova
molecular
monarchy
monetary
money
mongolia
monitor
monsoon
month
monthly
months
monument
monuments
moon
moral
more
morning
morocco
morris
mortar
mos
moscow
mosque
most
mother
motilal
motion
motor
mound
mount
mountain
mountains
move
movement
movements
movie
movies
moving
mozambique
mp
mpa
mps
mqm
mr
ms
mt
mu
mubarak
much
mud
mughal
muhammad
mukhtiar
mulk
muller
multan
multiple
mumbai
mumtaz
municipal
municipality
munzinger
murad
murder
murray
murtaza
muscles
museum
musharraf
mushtaq
music
musical
musicbrainz
muslim
muslims
must
mustafa
mx
my
mystery
myth
mythology
myths
n
na
nabi
nacional
nadu
nagar
nagorno
nagpur
nai
name
named
names
namespace
namibia
napier
narayan
narendra
narrative
nasa
nasarpur
nasir
nasirul
nasr
nath
nation
national
nationale
nationalencyklopedin
nationalism
nationality
nations
native
nato
natural
nature
nawab
nawabshah
nawaz
nb
nbc
ncbi
ncikloprdic
ncov
nd
ndma
ndtv
ne
near
nearly
ned
need
needed
needs
neil
nelson
neolithic
nepal
nerve
net
netflix
netherlands
network
networks
never
new
newly
news
newspaper
newspapers
newsweek
newton
next
ng
ni
niaz
nic
nicole
nigeria
night
nih
nil
nine
nineteenth
nisar
niv
nizamuddin
nkcr
nkp
nl
nla
nlm
nm
no
nobel
node
nominal
nomination
nominations
non
none
noor
nordic
norman
norske
north
northeast
northern
norway
not
note
notes
nothing
notice
notices
notification
nottingham
noun
nous
nov
novel
november
now
npr
nu
nuclear
num
number
numbers
nur
ny
nytimes
nz
o
oath
obama
obituaries
obituary
object
oblast
observatory
observed
obtained
occupation
occupied
ocean
oceania
oceanic
ochs
oclc
oct
october
odisha
oecd
of
off
office
officer
official
officially
officials
often
og
oi
oil
ok
ol
old
oldest
oldid
oliver
olympic
oman
omar
on
once
one
onepage
online
onlineindus
only
ons
op
opac
open
opening
opens
opera
operation
operations
opinion
opinions
opposition
optics
options
or
orange
order
ordered
orders
org
organic
organisation
organization
oriental
origin
original
origins
os
other
others
ots
ottoman
oup
our
out
outbreak
outlook
outstanding
over
overseas
overview
owen
own
oxford
p
pa
pacific
padma
padmavati
page
pagelist
pages
pahenjiakhbar
paid
painting
pak
pakistan
pakistani
pakistantoday
pakpattan
pakvoter
palace
palestine
palestinian
palestinians
palgrave
palijo
pan
pandemic
pandhi
panhwar
pannu
paper
papers
par
para
paradigm
paradise
parameter
parekh
paris
park
parliament
parliamentary
parpola
part
participle
participles
particular
parties
partition
partnership
parts
party
pas
pasargadae
pasha
pashto
pass
passage
passes
past
pat
patel
patent
path
pathan
patowary
patterns
paul
pay
pbs
pbscensus
pc
pcb
pdf
pe
peace
peak
pearl
pearson
pechro
peerage
pendant
penguin
peninsula
pennsylvania
people
peoples
per
perepis
performance
performs
period
permanent
permission
persia
persian
person
personal
personalties
persons
perspective
perspectives
perth
peru
peshawar
peter
petunia
pew
pg
ph
philip
philippines
phillips
philosopher
philosophical
philosophy
phlox
phoenix
phone
phoneme
photo
photojournalist
photos
php
phrases
phylum
physical
physics
pi
pia
picture
pictures
pilot
pioneer
pir
pk
pl
plac
place
placenta
places
plan
planck
plane
planet
planets
planning
plans
plant
plants
play
players
playing
plays
please
plot
plural
plus
pluto
pm
pmc
pmid
pml
pnas
png
po
poblacio
poem
poems
poet
poetic
poetics
poetry
poets
point
points
poland
pole
police
policy
polish
political
politician
politicpk
politics
poll
polls
polo
pooja
poor
pop
popular
population
por
port
portal
portrait
portugal
portuguese
position
positive
possible
post
postal
posts
potential
pour
poverty
power
powerful
powers
pp
ppp
pr
practical
practice
pradesh
prayer
pre
preface
prefix
preliminary
premchand
present
preserve
presidency
president
presidential
presidentialism
press
presse
pressure
prevention
price
pride
primary
prime
prince
princeton
principal
principles
print
printed
printing
printsec
private
prize
pro
probably
probe
problem
problems
proceedings
process
product
production
products
prof
professor
profile
profiles
program
programme
programmes
progress
project
projects
proleksis
pronoun
pronounced
pronouncing
pronunciation
proof
property
prophet
prospects
protect
protected
protection
protein
protest
protests
proto
provide
provided
province
provinces
provincial
provisional
ps
psl
psychology
pt
pti
ptolemy
ptv
pub
publ
public
publication
publications
published
publisher
publishers
publishing
punjab
punjabi
punjnud
pure
purposes
pushkar
pushpa
put
putin
pya
q
qa
qaiser
qandeel
qasim
qatar
qazi
quaid
quality
quarterly
que
queen
query
question
questions
quetta
quick
quickfacts
quotation
quote
quoted
quran
qureshi
r
ra
rabindranath
race
radha
radiation
radical
radio
raffles
rafi
rahim
rahman
rai
rail
railway
railways
rain
rains
raj
raja
rajanpur
rajasthan
rajput
rally
ram
rana
ranbir
random
range
rani
rank
ranked
ranking
rankings
rao
rape
rapid
rashid
rate
ratio
rauf
ravi
ray
raza
rd
re
reach
reaction
read
reading
ready
real
reality
really
rebels
received
recent
recognition
recognized
record
recorded
recorder
records
red
rediff
redir
ref
refcelebrite
reference
references
referendum
reflection
reform
reforms
refs
refugee
refugees
reg
regarding
regime
region
regional
regions
register
registrar
registration
registry
rehabilitation
rehman
rejects
rekhta
related
relating
relations
relationship
relative
relativity
release
released
releases
reliefweb
religion
religions
religious
remains
remembering
renaissance
renowned
rentiels
report
reporter
reports
representative
reprint
repu
republic
required
requires
res
research
reserve
reshma
resident
residents
resigns
resistance
resolution
resource
resources
respect
respiratory
response
responsible
rest
restoration
result
results
resultsboard
retrieved
return
returns
reuters
rev
reveals
revenue
review
reviews
revised
revision
revolution
reykjavi
rhymes
ri
rica
rice
rich
richard
richest
rieur
right
rights
rio
riots
rise
rising
risk
river
rivers
rizvi
rk
rlts
ro
roach
road
robert
roberts
robertson
robinson
rock
rocks
roger
roglo
role
roma
roman
romance
romanian
rome
ronald
roof
roofing
room
roots
rose
roshan
round
routledge
rowan
rowman
roy
royal
rs
rt
ru
rubina
rudhramadevi
rudramadevi
rukhsana
rule
rules
ruling
run
rural
ruskin
russell
russia
russian
ruth
s
sa
saadat
sabha
sacred
sadiq
saeed
safety
sage
sahara
sahib
sahitya
said
saif
saint
saints
salman
salvador
samaa
same
sampa
san
sana
sand
sangat
sanger
sanghar
sanskrit
santa
sapna
saqib
sar
sarah
sardar
sargodha
sarkar
sarmad
sarovar
sars
sarwar
satellite
sattar
saturn
saudi
save
say
says
sc
scale
scandinavia
scarecrow
scheme
scholar
scholars
school
schools
schuster
sci
science
sciences
scientific
scientists
scotland
scott
scottish
screen
scribd
script
scripts
sd
se
sea
search
season
seat
seats
sec
second
secondary
secret
secretariat
secretary
section
sections
security
see
seeks
seen
selected
selection
self
semi
sen
senate
senior
sensation
sense
sensory
sep
separate
september
sequence
series
served
server
service
services
session
set
sets
settlement
seven
several
sex
sexism
sexual
sfn
shah
shahdad
shahdadkot
shaheed
shahid
shaikh
shakil
shall
shamshera
shanghai
shankar
shape
share
sharif
sharma
sharp
she
sheet
sheikh
sheila
sher
shi
shia
shikarpur
shiva
short
shot
should
show
shown
shows
shraddha
shri
shrine
shtml
shyam
si
sialkot
siberia
siddiqui
side
sig
sign
signed
significant
signs
sikh
silc
similar
simon
simple
since
sind
sindh
sindhi
sindhiadabiboard
sindhiana
sindhila
sindhipeoples
sindhpdf
sindhsalamat
sindhu
sindhyat
sindhzameen
singapore
singer
singh
single
singular
sir
sirimavo
sister
sita
site
sites
situation
six
sixteenth
sixth
size
skardu
sky
sl
slams
slovak
slovar
small
smh
smith
smoking
snac
snaccooperative
snippet
snl
snow
so
social
socialist
society
socio
sociology
soft
software
soil
solanki
solar
soldier
soldiers
solomon
some
someone
something
sometimes
son
song
songs
sons
soomro
soon
sound
source
sources
south
southeast
southern
sovereign
soviet
sp
space
spain
spanish
speak
speaker
speakers
speaking
special
specialized
species
specific
spectrum
speech
speed
spelling
spinoza
spiritual
spoken
sport
sports
spread
spreads
spring
springer
sq
squad
square
sr
sri
st
stable
stadium
staff
stage
stalin
stamford
stand
standard
standards
stands
stanford
star
starrer
stars
start
starting
stat
state
statement
statements
states
station
statistical
statistics
statistik
statoids
stats
statue
status
statute
stay
stefan
stein
stem
stephen
steps
steve
steven
still
stm
stock
stockholm
stone
stop
store
stories
storm
story
strategic
strategy
stream
street
strength
stress
strike
strong
structure
struggle
stuart
stub
students
studies
studio
study
stupa
stuttgart
style
su
sub
subdivision
subject
subjects
subjunctive
subnational
subst
success
such
sudan
sufi
sufism
sugar
suicide
sukkur
suleman
sultan
sultanate
sulzberger
summary
summer
sun
sunday
sunny
sunset
suny
supe
super
supplement
support
supports
supreme
sur
surface
survey
survival
survivor
susan
suspected
swara
sweden
swedish
sworn
sy
sydney
syed
symbol
symbolic
symbols
symptoms
syndrome
syria
system
systematic
systems
søren
t
ta
taapsee
tabari
table
tables
tabriz
tag
tagore
tahsil
taiwan
taj
take
taken
takes
taking
talbot
tale
tales
taliban
talk
talks
talpur
taluka
tamasha
tamil
tando
tank
tanton
tanzania
tapo
tar
taraqi
tareekh
tariq
tasmania
tauris
tax
taxon
taxonomic
taxonomy
tay
taylor
tb
te
teacher
teachers
teaching
teachings
team
teams
tech
technical
technology
ted
tehran
tehsil
tehsils
telangana
telecommunication
telegraph
television
telugu
temperature
template
temple
temples
ten
term
terminal
terminology
terms
terrestrial
territorial
territories
territory
terror
terrorism
terrorist
terrorists
tes
test
testament
texas
text
textbook
texts
th
thailand
than
thar
tharparkar
that
thatcher
the
theater
theatre
theguardian
thehindu
their
thekawish
them
then
thenews
theory
thepeerage
there
therefore
thesaurus
these
thesis
they
things
think
third
this
thomas
thomson
those
though
thought
thousand
thousands
threads
threatened
three
thriller
through
throughout
thul
thumb
thus
ti
tibet
tibetan
ties
tim
time
timeline
times
timesofindia
timor
timothy
title
titles
tnn
to
today
todays
together
tokyo
told
toll
tom
tomb
tomorrow
tongue
tony
too
took
toolforge
tools
top
topic
topics
toronto
total
tourism
tourist
towards
tower
town
towns
toyota
tp
tr
track
trade
trademark
tradition
traditional
traditions
traffic
tragedy
trailer
train
training
trans
transformation
transition
translate
translated
translation
translations
transparent
transport
travel
tre
treatment
treaty
tree
treechart
trends
trial
triangle
tribal
tribe
tribune
tribuneindia
tribute
troops
true
trump
trust
truth
tu
tumor
turkey
turkic
turkish
turks
turn
turns
tusi
tv
twentieth
twenty
twitter
two
type
types
u
ua
uae
uc
uchicago
uganda
uk
ukraine
ukrainian
ul
un
una
unabridged
uncategorized
und
under
understanding
undp
une
unesco
unhcr
union
unions
unique
unit
united
units
unity
universal
universe
universities
university
unknown
uno
unsupported
until
up
update
updated
updates
uploads
upon
upper
ur
urban
urdu
urdupoint
url
urs
uruguay
us
usa
usage
usd
use
used
user
users
uses
using
usman
ussr
usually
utc
utilities
uttar
uzbekistan
v
va
vaccine
valentine
valley
value
values
van
variety
various
varun
vaswani
ve
ved
vedic
venezuela
verb
verbs
verlag
verse
version
very
vi
via
vice
victims
victoria
victory
video
videos
vienna
vietnam
view
vii
viii
village
villages
vin
vincent
violence
viral
virginia
virtual
virus
vision
visions
visit
visited
visual
vital
vitamin
vj
vladimir
vocabulary
voice
voices
vol
voltaire
volume
volumes
von
vote
votes
vous
vowel
vows
vs
vyarawalla
w
wa
wah
wahab
wahi
wahiduddin
wala
wales
wali
walker
wall
walls
walter
want
war
ward
warner
warren
wars
was
washington
washingtonpost
wasim
watch
water
watson
way
wayback
ways
wc
wd
wdf
we
weather
weatherbase
web
website
webster
wedding
week
weekly
welcome
well
wells
weo
were
west
western
westphal
what
when
where
wherry
which
while
white
who
whole
whose
why
wi
wide
widely
width
wife
wiki
wikidata
wikimania
wikimedia
wikinews
wikipedia
wikivoyage
wiktionary
wild
wildlife
wiley
will
william
williams
wilson
win
wind
window
windows
winner
winners
wins
winter
wire
wisconsin
wise
wissen
with
within
without
wo
woman
women
won
wood
word
wordle
wordnet
wordpress
words
work
workers
working
works
world
worldatlas
worldbank
worldcat
worlds
worldwide
worship
worst
worth
would
wounded
wp
write
writer
writers
writing
writings
written
wrong
wsj
wu
wuhan
ww
www
x
xbox
xi
xii
xiv
xix
xls
xml
xx
y
ya
yahoo
yale
yar
yard
yasin
yasmine
year
yearbook
years
yellow
yerevan
yes
yet
york
you
young
your
yousif
youth
youtube
yunus
yusuf
z
za
zafar
zainab
zaman
zanzibar
zardari
zealand
zee
zero
zh
zhuhai
zi
zia
zone
zones
zubaida
zulfiqar
zweig
{
|
}
~
£
§
©
«
­
°
±
²
´
µ
·
º
»
¼
½
¾
¿
×
ð
ı
ŋ
ɑ
ɔ
ə
ɛ
ɜ
ɪ
ʃ
ʰ
ʲ
ʹ
ʻ
ʼ
ʾ
ʿ
ˈ
ˌ
ː
̀
́
̂
̃
̄
̆
̇
̈
̉
̊
̋
̌
̓
̔
̛
̣
̤
̥
̦
̧
̨
̩
̯
̱
̲
͂
ͅ
α
β
δ
ε
η
θ
ι
μ
ν
ο
ς
ψ
ω
а
азербаи
баку
в
г
года
д
и
к
м
мая
н
на
населения
не
о
официальныи
п
по
президента
р
раи
республики
россии
с
ская
скои
т
у
федерации
х
ы
энциклопедия
ю
я
է
։
ְ
ִ
ֵ
ֶ
ַ
ָ
ּ
ֿ
א
ב
ג
ה
ז
י
ל
ם
נ
ס
ע
פ
ר
ש
ת
،
ؑ
ؒ
ؓ
ؔ
ؕ
؛
؟
ء
ا
اء
اب
ابا
ابابيل
ابادي
اباڪس
اباڻا
اباڻو
اباڻي
ابت
ابتدا
ابتداء
ابتداي
ابتو
ابتي
ابتڙ
ابجد
ابخازي
ابخازيه
ابخازيہ
ابدال
ابدالي
ابداليء
ابدي
ابر
ابرار
ابراهام
ابراهيم
ابراھام
ابراھيم
ابرق
ابشرون
ابل
ابلاغ
ابن
ابو
ابوالاعلي
ابوالبقا
ابوالحسن
ابوالخير
ابوالفتح
ابوالفضل
ابوالقاسم
ابوالڪلام
ابوبڪر
ابوجهل
ابوداي
ابوذر
ابوسفيان
ابوطالب
ابي
ابيات
ابيب
ابيرياي
ابڙا
ابڙن
ابڙو
ابڙي
ات
اتاترڪ
اتان
اتاي
اتحاد
اتحادن
اتحادي
اتحادين
اتر
اترادي
اتراولھ
اتراوڀر
اتري
اتريان
اترين
اتريون
اترپرديش
اتساهه
اتفاق
اتفاقي
اتم
اتهاس
اتهاسن
اتهاسڪار
اتي
اثاثا
اثاثن
اثبات
اثر
اثرات
اثرانداز
اثراي
اثرن
اثنا
اثير
اجازت
اجاي
اجايو
اجاگر
اجتماع
اجتماعي
اجتماعيت
اجر
اجراء
اجرت
اجرڪ
اجل
اجلاس
اجلاسن
اجماع
اجمل
اجمير
اجنبي
اجهو
اجواڻي
اجورو
اجي
اجيت
اجگر
اح
احاديث
احاطو
احاطي
احتجاج
احتجاجن
احتجاجي
احترام
احتياط
احد
احرام
احساس
احساسن
احسان
احسن
احمد
احمدا
احمدي
احمدين
احمر
احوال
احوز
احياء
احڪام
احڪامن
اخبار
اخبارن
اخبارون
اخباري
اختتام
اختر
اختصار
اختلاف
اختلافن
اختلافي
اختيار
اختيارن
اختياري
اختياريء
اختيارين
اخذ
اخر
اخلاص
اخلاق
اخلاقي
اخلاقيات
اد
ادا
ادارا
ادارت
ادارن
اداره
ادارو
اداري
ادارہ
اداس
اداسي
اداي
اداڪار
اداڪارا
اداڪاراي
اداڪارن
اداڪاره
اداڪاري
اداڪاريء
اداڪارہ
ادب
ادبي
ادبيات
ادراڪ
ادراڪي
ادريس
ادرڪ
ادل
ادو
ادي
اديب
اديبن
اديتي
اذان
اذيت
ار
ارا
ارادن
ارادو
ارادي
ارب
ارباب
اربع
اربن
اربين
ارتسخ
ارتفاق
ارتقا
ارتقاء
ارتقاي
ارجمند
ارجن
ارجنٽاي
ارجنٽينا
ارد
اردشير
اردن
اردني
اردو
اردوء
اردگرد
ارسطو
ارسطوء
ارسلان
ارشاد
ارشد
ارشميدس
ارضيات
ارضياتي
ارطغرل
ارغون
ارغونن
ارقم
ارل
ارم
ارمان
ارمغان
ارنيسٽ
ارهه
ارون
ارونا
اروڙ
اري
اريٽيريا
اريڪتاس
اريگيشن
ارپنا
ارٿ
ارڙ
ارڙهن
ارڙهين
ارڙھن
ارڙھين
ارڪان
ارگ
ارگر
از
ازان
ازانسواء
ازبڪ
ازبڪستان
ازخود
ازدواجي
ازل
ازلي
ازم
اس
اساس
اساسي
اسامه
اسان
اسانجو
اسانجي
اسانکي
اسباب
است
استاد
استادن
استان
استثنا
استحصال
استحڪام
استدعا
استرخاء
استري
استعاري
استعفا
استعفاي
استعفي
استعمال
استعمالن
استعيفا
استعيفاي
استعيفي
استفادو
استقبال
استقلال
استنبول
استوا
استواي
استور
اسحاق
اسد
اسدالله
اسر
اسرار
اسراي
اسراڻ
اسرندڙ
اسري
اسرڻ
اسسٽنٽ
اسعث
اسلام
اسلامي
اسلاميء
اسلاميات
اسلاميه
اسلاميہ
اسلامڪ
اسلامی
اسلم
اسلوب
اسم
اسماء
اسماعيل
اسماعيلي
اسماعيلين
اسمبلي
اسمن
اسمگلنگ
اسود
اسي
اسير
اسيمبلي
اسيمبليء
اسيمبلين
اسيمبليون
اسين
اسٽار
اسٽاف
اسٽالن
اسٽاي
اسٽاپ
اسٽاڪ
اسٽرابو
اسٽرلنگ
اسٽريٽ
اسٽريٽجڪ
اسٽنٽ
اسٽور
اسٽوري
اسٽوريج
اسٽون
اسٽونيا
اسٽوپا
اسٽوڊنٽ
اسٽوڊنٽس
اسٽوڊيو
اسٽي
اسٽيج
اسٽيشن
اسٽيشنن
اسٽيشنون
اسٽيفن
اسٽيل
اسٽيم
اسٽين
اسٽينڊ
اسٽينڊرڊ
اسٽينڊنگ
اسٽيٽ
اسٽيٽس
اسٽيڊيم
اسٽڊي
اسٽڊيز
اسپارٽا
اسپاي
اسپتال
اسپتالن
اسپتالون
اسپرم
اسپنوزا
اسپورٽس
اسپيس
اسپيشل
اسپيشلسٽ
اسپين
اسپينش
اسپيني
اسپيڪر
اسٿان
اسڪاء
اسڪالر
اسڪالرشپ
اسڪاي
اسڪاٽ
اسڪاٽش
اسڪاٽلينڊ
اسڪردو
اسڪرين
اسڪرپٽ
اسڪلنده
اسڪندر
اسڪندريہ
اسڪواي
اسڪواڊ
اسڪور
اسڪول
اسڪولس
اسڪولن
اسڪولي
اسڪوپ
اسڪي
اسڪيل
اسڪيم
اسڪين
اسڪيچ
اشارا
اشارن
اشارو
اشاري
اشاريو
اشاريي
اشاعت
اشاعتي
اشباع
اشتر
اشتراڪي
اشتراڪيت
اشتقاق
اشتهار
اشتهارن
اشتهاري
اشتياق
اشرافيه
اشرف
اشعار
اشعت
اشعري
اشفاق
اشوري
اشوڪ
اشوڪا
اصحاب
اصحابن
اصحابو
اصحابي
اصحابين
اصرار
اصطخر
اصطلاح
اصطلاحن
اصطلاحي
اصغر
اصفهان
اصفهاني
اصفھان
اصل
اصلاح
اصلاحن
اصلاحي
اصلوڪا
اصلوڪن
اصلوڪو
اصلوڪي
اصلي
اصليت
اصول
اصولن
اصولي
اضافو
اضافي
اضافيت
اطاعت
اطالوي
اطلاع
اطلاعات
اطلاعن
اطلاق
اطمينان
اطهر
اظهار
اظهر
اظھار
اظھاري
اع
اعتبار
اعتدال
اعتراض
اعتراضن
اعتراف
اعتزاز
اعتقاد
اعتماد
اعجاز
اعداد
اعراب
اعرابن
اعزاز
اعزازن
اعزازي
اعزالدين
اعصابي
اعظم
اعل
اعلان
اعلانيل
اعلى
اعلي
اعلی
اعمال
اعوان
اعواڻ
اغوا
اف
افاديت
افتتاح
افتتاحي
افتخار
افراتفري
افراد
افرادي
افراط
افروز
افزا
افزاي
افسانا
افسانن
افسانه
افسانو
افسانوي
افساني
افسر
افسوس
افسوسناڪ
افشار
افضل
افغان
افغانستان
افغانن
افغاني
افغانين
افق
افقي
افلاطون
افيي
افيڪٽ
اق
اقامت
اقبال
اقتباس
اقتدار
اقتصادي
اقتصاديات
اقرار
اقصي
اقليت
اقليتن
اقليتي
اقليدس
اقوال
اقوام
ال
الا
الاباما
الاجي
الارض
الازھر
الاساطير
الاسرار
الاسلام
الاسڪا
الاضحي
الاعظم
الاقوامي
الامراء
الانا
الانبياء
الانسان
الاهي
الاهيء
الاول
الاولياء
الاي
الاٽ
الاھي
الب
البانيا
البت
البته
البتہ
البحر
البدل
البرٽ
البقرة
البقرہ
البقيع
البلاغه
البلدان
البم
البيروني
البيرونيء
التاريخ
التجا
التحصيل
التمش
التوبة
الثاني
الجامع
الجبرا
الجبراي
الجزاي
الجي
الجيريا
الحاج
الحاد
الحاق
الحال
الحاڪم
الحبيب
الحديث
الحرام
الحرمين
الحروف
الحسن
الحسين
الحسيني
الحق
الحليم
الحمد
الحيدري
الحڪم
الحڪمت
الخط
الخطن
الخوارزمي
الخواطر
الدر
الدوله
الدين
الدین
الر
الرازي
الراشد
الرجي
الرحم
الرحمان
الرحمة
الرحمن
الرحيم
الرشيد
الزام
الزامن
الزبير
الزم
الزمان
الزهراء
الزواوي
الس
السفر
السلام
السندي
السنڌ
الشان
الشعرا
الشعراء
الص
الصالحين
الصلواة
الطاف
العابدين
العارفين
العاص
العام
العرب
العربي
العلم
العلماء
العلوم
العنان
العين
الغ
الغوزو
الغوزي
الف
الفا
الفابيٽ
الفاروق
الفاظ
الفتح
الفريڊ
الفضل
الفطر
الفطرت
القاسم
القاعده
القاي
القدر
القدس
القرا
القوامي
الل
اللسان
الله
اللو
اللہ
الم
المال
الماي
المبارڪ
المسلمين
المشاي
المعارف
المعروف
المقدس
الملت
الملوڪ
الملڪ
المناڪ
المو
المواھب
المولى
المولي
المومنين
الميه
الميو
الن
الناس
النبي
النسا
النساء
النساي
النسوان
النور
اله
الهاس
الهام
الهامي
الهبچايو
الهداد
الهلال
الهند
الهندو
الهندي
الهه
الهيار
الهڏنو
الوجود
الوحيد
الوداع
الور
الوطني
الوطنيء
الي
الياس
اليزي
اليڪشن
اليڪٽران
اليڪٽرانڪ
اليڪٽرانڪس
اليڪٽرو
اليڪٽريڪل
اليڪٽرڪ
اليگزينڊر
الٽي
الٽيٽيوڊ
الٽٽيوڊ
الپتگين
الپس
الٿنگ
الک
الڪا
الڪبري
الڪبير
الڪرام
الڪريم
الڪلام
الڪوحل
الگ
الڳ
الھ
الھرکيو
الھندي
الھيار
ام
امارات
امارت
امام
امامت
امامن
امان
امانت
اماڻي
اماڻيو
امبر
امت
امتحان
امتحانن
امتزاج
امتياز
امتيازي
امجد
امداد
امدادي
امر
امراء
امرت
امرتا
امرتسر
امرجليل
امروهي
امروٽ
امروٽي
امروٽيء
امريڪا
امريڪي
امرڏنو
امرڪوٽ
امریکی
املهه
امن
امنگن
امور
اموي
اموين
اميتاڀ
اميد
اميدن
اميدوار
اميدوارن
اميدون
امير
اميرالمومنين
اميرخاني
اميرن
اميزون
امين
امينو
امينڊمينٽ
اميه
اميچوي
اميہ
امپاي
امپيريل
امڙ
امڪان
امڪاني
امیر
ان
انا
اناج
انار
انارڪلي
انارڪليء
اناطوليه
اناي
انب
انبار
انبن
انبوري
انبوهه
انت
انتخاب
انتساب
انتشار
انتظار
انتظام
انتظامن
انتظامي
انتظاميا
انتظاميه
انتظاميہ
انتقال
انتقام
انتها
انتهاي
انتهاپسند
انتهاپسندن
انتھا
انتھاي
انجام
انجم
انجمن
انجنيي
انجو
انجي
انجير
انجيسون
انجيل
انجيني
انجينيي
انجيي
انجڻ
انداز
اندازا
اندازن
اندازو
اندازي
اندر
اندرا
اندران
اندرون
اندروني
اندري
اندريان
اندرين
اندريون
اندلس
اندور
اندوز
انديشو
انر
انرجي
انس
انسان
انسانذات
انسانن
انساني
انسانيت
انساي
انسٽيٽوٽ
انسٽيٽيوٽ
انسپيڪٽر
انشا
انشاء
انشاي
انشورنس
انصار
انصاري
انصاريء
انصاف
انصافي
انضمام
انعام
انعامن
انعقاد
انفارميشن
انفرا
انفرادي
انفراديت
انفراسٽرڪچر
انفرميشن
انفلوي
انفيڪشن
انقره
انقلاب
انقلابن
انقلابي
انقلابين
انمول
انناس
انند
انهن
انهي
انهيء
انو
انوار
انور
انوشڪا
انومان
انوپ
انوکو
انوکي
اني
انيتا
انيس
انيل
انيلا
انيڪ
انٽارڪٽيڪا
انٽر
انٽرفيس
انٽرميڊي
انٽرميڊيي
انٽرني
انٽرنيشنل
انٽرنيٽ
انٽرويو
انٽرويوز
انٽيل
انٽيليجنس
انٽيليجينس
انچ
انچارج
انچن
انچيف
انڊ
انڊا
انڊر
انڊروميڊا
انڊس
انڊسٽري
انڊسٽريز
انڊسٽريل
انڊلٺ
انڊو
انڊونيشيا
انڊونيشياي
انڊيا
انڊيانا
انڊيز
انڊين
انڊيڪس
انڌا
انڌن
انڌو
انڌي
انڍڙ
انڙ
انڙن
انکان
انکانسواء
انکانپوء
انکي
انڪار
انڪاري
انڪارپوريشن
انڪري
انڪشاف
انڪم
انڪواي
انگ
انگريز
انگريزن
انگريزي
انگريزيء
انگریزي
انگریزی
انگسو
انگلستان
انگلش
انگلنڊ
انگلينڊ
انگن
انگور
انگورن
انگوري
انگولا
انگي
انگيز
انگيزي
انھن
انھي
انھيء
انہوں
انہیں
اه
اها
اهاي
اهتمام
اهرام
اهل
اهليت
اهلڪار
اهلڪارن
اهم
اهميت
اهن
اهنر
اهنسا
اهو
اهوي
اهي
اهيا
اهيو
اهڃاڻ
اهڙ
اهڙا
اهڙن
اهڙو
اهڙي
اهڙيء
اهڙين
اهڙيون
او
اوارڊ
اواي
اوباما
اوبر
اوبراء
اوبلاسٽ
اوتار
اوتارن
اوترا
اوترو
اوتري
اوج
اور
اورت
اورنگ
اورنگا
اورنگزيب
اورنگي
اوري
اورينٽل
اوريي
اورڪزي
اوز
اوزار
اوزارن
اوزاعي
اوزون
اوس
اوساري
اوساريء
اوست
اوستا
اوستو
اوستي
اوسر
اوسط
اوسلو
اوسي
اوسيي
اوشو
اوشيانا
اوشيانيا
اوطاق
اوطاقن
اوقات
اوقاف
اوقيانوس
اول
اولاد
اولاهين
اولاھين
اولمپڪ
اولمپڪس
اوله
اولهاي
اولهندي
اولهه
اولهہ
اولي
اوليا
اولياء
اولياي
اوليت
اولين
اولڊ
اولڙو
اولھ
اولھندي
اولھه
اوم
اومان
اون
اونداهو
اونداهي
اونداهيء
اوندهه
اونهارو
اونهاري
اونهاي
اونهو
اونهي
اونهيون
اونو
اوني
اونچاي
اونڌو
اونڌي
اونھارو
اونھاري
اونھاي
اونھو
اونھي
اوهان
اوهانکي
اوهين
اوور
اووين
اوي
اويس
اوٻاسي
اوٻاسيون
اوٽ
اوپن
اوپيرا
اوڀارو
اوڀارين
اوڀايو
اوڀر
اوڀرندي
اوڀڙ
اوچ
اوچا
اوچاي
اوچتو
اوچتي
اوچو
اوچي
اوچيون
اوڊيسي
اوڌ
اوڌر
اوڌو
اوڍو
اوڏ
اوڏانهن
اوڏن
اوڏي
اوڏڪي
اوڏڻ
اوڙاهه
اوڙي
اوڙيسا
اوکا
اوگهڙ
اوڻويهين
اوڻويھين
اوڻيهين
اوھان
اوھين
اي
ايء
اياز
ايام
ايان
ايبرڊين
ايبل
ايبٽ
ايبڪ
ايترا
ايترو
ايتري
ايتريقدر
ايتريون
ايج
ايجاد
ايجادن
ايجادون
ايجنسي
ايجنسين
ايجنسيون
ايجنٽ
ايجنٽن
ايجنڊا
ايجوڪيشن
ايجوڪيشنل
ايذاء
اير
ايراضي
ايراضيء
ايراضين
ايران
ايراني
ايرانين
ايرزونا
ايروان
ايريا
ايريزونا
ايرين
ايريگيشن
ايرڪ
ايرگي
ايس
ايستاي
ايسر
ايسرداس
ايسوسي
ايسوسيي
ايسي
ايسٽ
ايسٽرن
ايسپ
ايسڊ
ايشن
ايشور
ايشوري
ايشيا
ايشياي
ايشياٽڪ
ايشين
ايضا
ايف
ايل
ايلرڄي
ايلزبيٿ
ايلس
ايلسا
ايلن
ايلي
ايليا
ايليمينٽري
ايليٽ
ايلچي
ايم
ايما
ايمان
ايماندار
ايمانداري
ايمانداريء
ايماني
ايمرجنسي
ايملي
ايمن
ايمنسٽي
ايميچوي
ايمپاي
ايمپريس
اين
اينالاگ
اينجلس
ايندا
ايندس
ايندو
ايندي
اينديون
ايندڙ
ايندڙن
ايني
اينيميليا
اينيو
اينٽلانٽڪ
اينٽي
اينڊ
اينڊروي
اينڊريو
اينڪر
اينگرو
اينگلز
اينگلس
اينگلو
ايو
ايوارڊ
ايوارڊز
ايوارڊن
ايوان
ايوانن
ايواني
ايوب
ايوبي
ايوي
ايوڌيا
ايي
ايٽ
ايٽلانٽڪ
ايٽم
ايٽمن
ايٽمي
ايپ
ايپل
ايپليڪيشن
ايٿوپيا
ايڇ
ايڊ
ايڊريس
ايڊز
ايڊشن
ايڊم
ايڊمرل
ايڊمز
ايڊمنسٽريشن
ايڊمنسٽريٽر
ايڊمنڊ
ايڊنبرا
ايڊنبرگ
ايڊواي
ايڊورڊ
ايڊولف
ايڊووڪيٽ
ايڊيشن
ايڊيشنل
ايڊيوڪيشن
ايڊيوڪيشنل
ايڊيٽر
ايڊيٽرن
ايڊيٽنگ
ايڊيٽوريل
ايڊٽ
ايڌي
ايڏا
ايڏو
ايڏي
ايڪ
ايڪا
ايڪانامڪ
ايڪاي
ايڪتا
ايڪس
ايڪساي
ايڪسٽينشن
ايڪسپريس
ايڪسپلوريشنس
ايڪسپو
ايڪسپورٽ
ايڪسچينج
ايڪشن
ايڪن
ايڪو
ايڪي
ايڪيهه
ايڪٽ
ايڪٽر
ايڪٽن
ايڪٽيهه
ايڪڙ
ايڪڙن
ايگريڪلچر
ايگريڪلچرل
ايگزيڪيوٽو
اٹک
اٺ
اٺن
اٺون
اٺين
اٺڙي
اٽالين
اٽل
اٽلي
اٽليء
اٽو
اٽي
اٽڪ
اٽڪاي
اٽڪل
اٽڪنسن
اٽڪي
اپ
اپاء
اپالو
اپاي
اپت
اپر
اپريل
اپریل
اپسمنڊ
اپلاي
اپنا
اپنايو
اپنشد
اپني
اپنی
اپنے
اپيل
اپيلون
اپٻيٽ
اپٽار
اپڀرنش
اپڪار
اپگرهي
اپگرھ
اٿاري
اٿاريو
اٿارٽي
اٿارٽيء
اٿارڻ
اٿاي
اٿس
اٿل
اٿم
اٿن
اٿندڙ
اٿو
اٿي
اٿينز
اٿينس
اٿيو
اٿيي
اٿڻ
اڀ
اڀاريو
اڀرندو
اڀرندي
اڀرندڙ
اڀري
اڀريل
اڀريو
اڀرڻ
اڀو
اڀي
اڀياس
اڃ
اڃا
اڃان
اڃايل
اڄ
اڄوڪو
اڄوڪي
اڄڪلهه
اڄڪلھ
اڄڻ
اچ
اچار
اچارن
اچارڻ
اچان
اچانڪ
اچرج
اچن
اچو
اچي
اچين
اچيو
اچيومينٽ
اچڪزي
اچڻ
اچڻو
اچڻي
اڇا
اڇاڻ
اڇلاي
اڇلايو
اڇن
اڇو
اڇوت
اڇي
اڇڙو
اڇڙي
اڌ
اڌارام
اڌارو
اڌو
اڌوري
اڍاي
اڏا
اڏام
اڏامندڙ
اڏامون
اڏامي
اڏامڻ
اڏاوت
اڏاوتن
اڏاوتون
اڏاوتي
اڏاي
اڏايو
اڏري
اڏرڻ
اڏن
اڏو
اڏوهي
اڏوھي
اڏي
اڏيء
اڏيرو
اڏيرولال
اڏيري
اڏيل
اڏيو
اڏڻ
اڙدو
اڙل
اڙي
اڙيسا
اک
اکا
اکتوبر
اکر
اکرن
اکروٽ
اکري
اکل
اکنڊ
اکين
اکيون
اکڙيون
اڪ
اڪابر
اڪادمي
اڪال
اڪالي
اڪاي
اڪاين
اڪبر
اڪبري
اڪثر
اڪثريت
اڪثريتي
اڪر
اڪرام
اڪرم
اڪري
اڪريل
اڪليز
اڪمل
اڪنامڪس
اڪي
اڪير
اڪيلا
اڪيلاي
اڪيلو
اڪيلي
اڪيچار
اڪيڊمي
اڪيڊميء
اڪيڊمڪ
اگاميمنان
اگر
اگرچ
اگرچه
اگزيڪٽو
اگست
اگني
اگهاڙو
اگهاڙي
اگهم
اگهن
اگهه
اگھم
اڱارو
اڱاري
اڱر
اڱڻ
اڳ
اڳتي
اڳراي
اڳواٽ
اڳواڻ
اڳواڻن
اڳواڻي
اڳواڻيء
اڳوڻا
اڳوڻن
اڳوڻو
اڳوڻي
اڳي
اڳيان
اڳياڙي
اڳين
اڳيون
اڳيي
اڳٺ
اڳڀراي
اڳڀرو
اڳڙي
اڳڪٿي
اڳڪٿين
اڳڪٿيون
اڻ
اڻاٺ
اڻبڻت
اڻلڀ
اڻويهين
اڻويھ
اڻويھين
اڻوڻندڙ
اڻي
اڻٽر
اڻپورو
اڻپوري
اڻٿڪ
اڻڄاتل
اڻڻ
اھا
اھتمام
اھخامنشي
اھل
اھليت
اھم
اھميت
اھن
اھو
اھوي
اھي
اھير
اھڃاڻ
اھڙا
اھڙن
اھڙو
اھڙي
اھڙيء
اھڙين
اھڙيون
ای
ایران
ایس
ایل
ایم
این
ایٹمی
ایچ
ایک
ایکسپریس
اے
ب
با
باء
بااثر
بااختيار
باالله
باب
بابا
باباء
بابت
بابر
بابري
بابل
بابلي
بابن
بابو
بابي
بابينو
بات
باتصوير
باجارا
باجوڙ
باخبر
باد
بادام
بادامي
بادشاه
بادشاهت
بادشاهن
بادشاهه
بادشاهي
بادشاهيء
بادشاهہ
بادشاھ
بادشاھت
بادشاھتن
بادشاھتون
بادشاھن
بادشاھي
بادشاھيء
بادفرنگ
بادل
بادي
باديء
بادياتي
بادين
باديون
بادڪاري
بادڪاريء
بادگار
بادگارن
بادی
بار
باران
باراني
بارش
بارشن
بارود
بارودي
باري
باريڪ
بارٽل
بارڊر
بارڪ
بارگاهه
بارگاھ
بارڻ
باز
بازار
بازارن
بازارون
بازاري
بازن
بازنطيني
بازنظيني
بازي
بازيء
بازياب
بازيابي
بازيگر
باس
باسو
باشد
باشعور
باشندا
باشندن
باشو
باصلاحيت
باضابطا
باضابطه
باضابطہ
باطل
باطن
باطني
باعث
باغ
باغات
باغبان
باغباني
باغن
باغي
باغين
باقاعده
باقاعدي
باقاعدگي
باقاعدگيء
باقاي
باقر
باقراڻي
باقي
باقيء
باقيات
بال
بالا
بالاتر
بالادستي
بالادي
بالاچ
بالاڪوٽ
بالر
بالشويڪ
بالشويڪن
بالشيوڪ
بالغ
بالغن
بالله
بالن
بالي
باليووڊ
بالٽڪ
بالڪل
بامبي
باميان
بان
باندر
باندي
بانس
بانسري
بانو
باني
بانين
بانيڪار
بانيڪارن
بانڊ
باه
باهمي
باهه
باهو
باهيون
باهہ
باو
باوجود
باوقار
باي
بايزيد
بايو
باپ
باٿ
باچا
باڊي
باڊھ
باک
باڪس
باڪساي
باڪسر
باڪسنگ
باڪمال
باڪو
باگراڻي
باگو
باگي
باگڙي
باگڙين
باھ
باھلي
باھمي
باھو
ببر
ببليوگرافي
بت
بتا
بتاریخ
بتن
بتو
بتي
بتيون
بتڙ
بج
بجا
بجاء
بجاج
بجار
بجاراڻي
بجاي
بجر
بجلي
بجليء
بجي
بجير
بجيٽ
بجيڪٽ
بجٽ
بحال
بحالي
بحاليء
بحث
بحثن
بحر
بحران
بحري
بحرين
بحريه
بحريہ
بحق
بحواله
بحيثيت
بحيره
بخار
بخارا
بخارن
بخاري
بخاريء
بخت
بختاور
بختر
بختي
بختيار
بخش
بخشش
بخشل
بخشو
بخشي
بخشيو
بخشڻ
بخوبي
بد
بدامني
بدبوء
بدتر
بدترين
بدحالي
بدحاليء
بدخشان
بدر
بدرا
بدرالدين
بدران
بدستور
بدسلوڪي
بدعت
بدعنواني
بدقسمتي
بدقسمتيء
بدل
بدلاي
بدلجندڙ
بدلجي
بدلجڻ
بدلو
بدلي
بدليل
بدن
بدنام
بدنامي
بدنصيب
بدني
بدو
بدوز
بدوش
بدولت
بدوي
بدي
بديء
بديع
بديل
بدين
بدڪ
بدڪاري
بذات
بر
برا
براء
برابر
برابري
برابريء
برادر
برادرز
برادرس
برادري
برادريء
برادرين
براري
برازيل
برانچ
برانڊ
براهمي
براهمڻ
براهمڻن
براهوي
براي
براين
براڊ
براڊڪاسٽر
براڊڪاسٽنگ
براڪ
برای
برباد
برباديء
بربر
بربريت
برتاء
برتر
برتري
برتن
برج
برجن
برخلاف
بردار
برداشت
بردبار
برده
بردي
برري
برريء
بررين
برزبين
برس
برسات
برساتن
برساتون
برساتي
برسلز
برش
برصغير
برطانوي
برطانيا
برطانياي
برطانيه
برطانيہ
برطرف
برعڪس
برف
برفاني
برفباري
برفت
برفي
برق
برقرار
برقعو
برقعي
برقي
برقيات
برقياتي
برلا
برلاس
برلن
برما
برمودا
برمي
برمڪي
برن
برنارڊ
برنارڊشا
برنس
برني
برنگي
بره
برهان
برهانپور
برهم
برهما
برهماڻي
برهمي
برهمڻ
برهمڻن
برهمڻي
برو
بروز
بروس
بروشسڪي
بروقت
بروناي
بروني
برونڊي
بروهي
بروهيء
بروهين
بروو
بروھي
بري
بريري
بريريء
بريرين
بريريون
بريلوي
برين
بريڪ
برٽش
برٽن
برٽنيڪا
برپا
برڊ
برک
برکا
برڪت
برڪلي
برڪينا
برگ
برگر
برگيڊ
برگيڊيي
برھما
برھمڻ
برھمڻن
بزرور
بزرگ
بزرگن
بزرگوار
بزم
بزنجو
بزنس
بس
بسال
بساي
بسترن
بستري
بستي
بستيء
بستين
بستيون
بستی
بسر
بسطام
بسم
بسن
بسنت
بسون
بش
بشار
بشارت
بشاري
بشر
بشريات
بشمول
بشير
بشپ
بصر
بصرن
بصره
بصري
بصيرت
بطن
بطور
بطوطا
بطوطه
بظاهر
بعثت
بعد
بعض
بعضي
بعيت
بعيد
بغاوت
بغاوتن
بغاوتون
بغداد
بغدادي
بغداديء
بغل
بغير
بـ
بفرزون
بقا
بقاء
بقاي
بقرة
بقول
بل
بلا
بلاذري
بلاسٽ
بلاغت
بلال
بلاول
بلاي
بلاڪ
بلاڪن
بلاگ
بلاگر
بلب
بلبل
بلبن
بلتستان
بلتي
بلحاظ
بلخ
بلديا
بلدياتي
بلغاريا
بلغاريه
بلغم
بلغمي
بلقان
بلقيس
بلند
بلندي
بلنديء
بلندين
بلو
بلور
بلوري
بلوغت
بلوچ
بلوچستان
بلوچن
بلوچي
بلي
بليدي
بلين
بليو
بليي
بليڪ
بلڊ
بلڊنگ
بلڙي
بلڙيء
بلڪ
بلڪل
بلڪه
بلڪي
بلڪہ
بلگرامي
بم
بمبار
بمباري
بمبي
بمطابق
بمن
بن
بنا
بناء
بنارس
بنان
بناوت
بناوٽ
بناي
بنايا
بناياي
بنايو
بنت
بنجر
بنجن
بنجي
بنجڻ
بند
بندر
بندراناي
بندرعباس
بندرن
بندرگاه
بندرگاهن
بندرگاهه
بندرگاھ
بندرگاھن
بندرگاہ
بندش
بندن
بنده
بندو
بندوبست
بندوق
بندوقن
بندي
بنديء
بندگي
بنسبت
بنهه
بنو
بنواميہ
بنون
بني
بنيا
بنياد
بنيادن
بنيادي
بنيو
بنگال
بنگالي
بنگل
بنگلا
بنگلاديش
بنگلاديشي
بنگلو
بنگلي
بنھ
به
بها
بهاء
بهادر
بهادرن
بهادري
بهادريء
بهار
بهارو
بهاري
بهانو
بهاني
بهاول
بهاولپور
بهبود
بهتر
بهتري
بهتريء
بهترين
بهر
بهرام
بهرحال
بهرو
بهشت
بهه
بهوا
بهڻ
بو
بوء
بواء
بواسير
بواي
بوبڪ
بوبڪاي
بوتل
بود
بودلو
بورا
بورس
بورچي
بورڊ
بورڊن
بورڊنگ
بوزاي
بوزدار
بوس
بوستان
بوسحاقي
بوسنيا
بوسنياي
بوسينيا
بوسٽن
بوعلي
بوقت
بول
بولا
بولان
بولي
بوليويا
بولٽن
بولچند
بون
بونا
بونن
بونو
بوني
بوهري
بوواري
بوي
بويريا
بوٽ
بوٽسوانا
بوڪ
بوگرا
بوگره
بوگرہ
بوگنڊا
بوھرا
بوھڙ
بي
بيء
بيابان
بياس
بياض
بياضن
بيان
بيانن
بياني
بيباڪ
بيبو
بيبي
بيبيء
بيبين
بيت
بيتن
بيتي
بيجا
بيجنگ
بيحد
بيد
بيدا
بيدار
بيداري
بيدخل
بيدل
بيدي
بير
بيراج
بيربل
بيرل
بيرنگ
بيروت
بيروزگاري
بيروزگاريء
بيروني
بيري
بيريا
بيزار
بيزاري
بيس
بيسنت
بيسٽ
بيسڪ
بيشمار
بيشڪ
بيضن
بيضوي
بيضي
بيعت
بيل
بيلاروس
بيلاروسي
بيلجيم
بيلجيي
بيلي
بيليٽ
بيلٽ
بيمار
بيمارن
بيماري
بيماريء
بيمارين
بيماريون
بين
بينا
بينر
بينظير
بينظيرا
بينن
بيني
بينچ
بينڊ
بينڪ
بينڪاڪ
بينڪن
بينگ
بينگال
بينگالي
بيهاري
بيهاريو
بيهارڻ
بيهجي
بيهن
بيهندا
بيهندو
بيهندي
بيهنديون
بيهوش
بيهي
بيهڪ
بيهڻ
بيورو
بيوس
بيوفاي
بيوقوف
بيون
بيوه
بيي
بيٺا
بيٺل
بيٺو
بيٺي
بيٺيون
بيٺڪ
بيٺڪن
بيٺڪون
بيٺڪي
بيٺڪيت
بيٽ
بيٽا
بيٽن
بيٽنگ
بيچ
بيچلر
بيچيني
بيڊ
بيڊن
بيڪ
بيڪار
بيڪانير
بيڪر
بيڪس
بيڪن
بيڪٽريا
بيڪٽيريا
بيگ
بيگاري
بيگلار
بيگم
بيگناه
بيگناهه
بيھي
بيھڪ
بيھڻ
بٺ
بٺورو
بٺوري
بٺي
بٽ
بٽاليا
بٽالين
بٽي
بٽڻ
بپاشي
بپاشيء
بپتسما
بچاء
بچاي
بچايو
بچاڻي
بچت
بچل
بچن
بچندو
بچو
بچي
بچيا
بچيل
بچيو
بچڻ
بڊاماڻي
بڊو
بڊي
بڙ
بڙدي
بڙودا
بڙي
بک
بکر
بکراڻي
بکري
بکريء
بڪ
بڪاري
بڪانير
بڪاي
بڪر
بڪرمي
بڪيجاڻي
بڪين
بڪيون
بگ
بگاڙ
بگاڙي
بگهاڙ
بگهياڙ
بگهڙ
بگو
بگودڙو
بگٽي
بگڙجي
بگڙي
بگڙيل
بگھڙ
بڻ
بڻاي
بڻايا
بڻاياي
بڻايل
بڻايو
بڻايون
بڻجن
بڻجندو
بڻجي
بڻجڻ
بڻي
بڻيا
بڻياد
بڻيل
بڻيو
بھ
بھا
بھاء
بھادر
بھادري
بھار
بھارت
بھاماس
بھاول
بھاولپور
بھاي
بھتر
بھتري
بھترين
بھرام
بھرحال
بھوا
بھی
بہ
بہادر
بہت
بی
بین
بے
ة
ت
تا
تاء
تاب
تابع
تابعدار
تابڪاري
تات
تاتار
تاتاري
تاتارين
تاثر
تاثرات
تاثير
تاج
تاجدار
تاجر
تاجل
تاجو
تاجپور
تاجپوشي
تاجڪ
تاجڪستان
تاحيات
تار
تارا
تاراٻاي
تاراچند
تارن
تارو
تارون
تاري
تاريخ
تاريخدان
تاريخدانن
تاريخن
تاريخون
تاريخي
تارڙ
تارڪ
تاریخ
تازا
تازن
تازه
تازو
تازي
تازين
تازيون
تازگي
تاس
تاشقند
تال
تاليف
تامل
تان
تاندورا
تاندورن
تانگ
تاهم
تاي
تاڃي
تاڙي
تاڪ
تاڪن
تاڪيا
تاڪيد
تب
تباه
تباهه
تباهي
تباهيء
تباھ
تباھي
تباھيء
تبت
تبتي
تبديل
تبديلي
تبديليء
تبديلين
تبديليون
تبريز
تبسم
تبصرا
تبصرو
تبصري
تبليغ
تبليغي
تبو
تت
تتبع
تتر
تترن
تجارت
تجارتي
تجديد
تجر
تجربا
تجرباتي
تجربن
تجربو
تجربي
تجربيڪار
تجريدي
تجزي
تجزيا
تجزياتي
تجزيه
تجزيو
تجزيي
تجسس
تجنيس
تجويز
تجويزن
تجويزون
تحت
تحرير
تحريرن
تحريرون
تحريري
تحريڪ
تحريڪن
تحريڪون
تحرڪ
تحسين
تحصيل
تحصيلن
تحصيلون
تحصیل
تحفا
تحفة
تحفته
تحفتہ
تحفظ
تحفن
تحفو
تحفي
تحقيق
تحقيقات
تحقيقاتي
تحقيقن
تحقيقي
تحليل
تحويل
تخت
تختا
تختن
تختو
تختي
تختيون
تختگاه
تختگاهه
تخلص
تخليق
تخليقات
تخليقن
تخليقون
تخليقي
تخليقڪار
تخم
تخمي
تخمينو
تخميني
تخيل
تدبير
تدبيرون
تدريس
تدريسي
تدفين
تدوين
تذڪرن
تذڪره
تذڪرو
تذڪري
تر
تراب
ترار
ترارين
ترانو
تراني
تراويح
تراي
تربت
تربيت
تربيتي
ترت
ترتيب
ترتيبوار
ترتیب
ترجما
ترجمان
ترجماني
ترجمن
ترجمه
ترجمو
ترجمون
ترجمي
ترجيح
ترجيحن
ترخان
ترخانن
ترديد
ترس
ترسي
ترسيا
ترسيل
ترسيو
ترسڻ
ترغيب
ترقي
ترقيء
ترقياتي
ترمذي
ترميم
ترميمن
ترميمون
ترميمي
ترن
ترندڙ
ترنم
ترو
تروسو
ترويج
تري
تريء
ترياق
ترين
ترڪ
ترڪستان
ترڪمان
ترڪمانستان
ترڪن
ترڪي
ترڪيء
ترڪيب
ترڪيبي
ترڻ
تسبيح
تسلسل
تسلط
تسلي
تسليم
تسمانيا
تسنيم
تسڪين
تش
تشبيهه
تشبيھ
تشخيص
تشدد
تشريح
تشريحي
تشريف
تشي
تشيع
تشڪيل
تصحيح
تصديق
تصنيف
تصنيفات
تصنيفن
تصنيفون
تصور
تصوراتي
تصورن
تصوف
تصوير
تصويرن
تصويرون
تصويري
تضاد
تضادن
تعارف
تعارفي
تعال
تعالى
تعالي
تعاون
تعبير
تعجب
تعداد
تعريف
تعزيت
تعصب
تعظيم
تعلق
تعلقا
تعلقات
تعلقاتن
تعلقن
تعلقه
تعلقو
تعلقي
تعليم
تعليمات
تعليمدان
تعليمي
تعلیم
تعمير
تعميرات
تعميراتي
تعميري
تعميل
تعمیر
تعويذ
تعين
تغلبي
تغلق
تـ
تفاوت
تفتيش
تفريح
تفريحي
تفريق
تفسير
تفصيل
تفصيلن
تفصيلي
تفھيم
تقابلي
تقاضا
تقاضاي
تقدس
تقدير
تقرري
تقريب
تقريبا
تقريبن
تقريبون
تقرير
تقريرن
تقريرون
تقریبا
تقسيم
تقليد
تقوي
تقويت
تقويم
تقي
تل
تلاء
تلاش
تلاوت
تلاي
تلخ
تلسي
تلفظ
تلقين
تلمود
تلنگانا
تلهار
تلوار
تلوارن
تلوارون
تلور
تلي
تلڪ
تم
تما
تماشا
تماشاي
تماشو
تمام
تماچي
تماچيء
تماڪ
تمثيل
تمثيلي
تمدن
تمدني
تمر
تمغه
تمغو
تمل
تمنا
تمناي
تمهيد
تميز
تميم
تميمي
تن
تنازعو
تنازعي
تناسب
تناظر
تنبو
تنبيهه
تنت
تنتن
تنتي
تند
تندرست
تندرستي
تندسر
تندن
تندور
تندون
تنزانيا
تنزانيه
تنظيم
تنظيمن
تنظيمون
تنظيمي
تنقيد
تنقيدون
تنقيدي
تنها
تنهاي
تنهن
تنهنجا
تنهنجو
تنهنجون
تنهنجي
تنهنکانپوء
تنهنڪري
تنوار
تنور
تنوير
تنين
تنيو
تنگ
تنگي
تنھن
تنھنجي
تنھنڪري
ته
تهذيب
تهذيبن
تهذيبون
تهذيبي
تهران
تهن
تهه
تهوار
تهڙو
تهڙي
تهڙيء
تو
تواريخ
تواريخي
توازن
تواناي
تواي
توبن
توبهه
توبون
توبھ
توت
توتي
توثيق
توجه
توجهه
توجھ
توحيد
تور
تورو
توري
توريت
توسان
توسيع
توفيق
توقع
تولا
تولد
تولن
تولو
تولي
تون
تونيا
تونيو
تونگ
توهان
توهين
توپ
توپن
توپون
توڙ
توڙي
توکان
توکي
توڪل
توڳاچي
توڻي
توھان
توھين
تي
تيء
تيار
تياري
تياريء
تيارين
تياريون
تير
تيرا
تيرن
تيرنهن
تيرهن
تيرهون
تيرهين
تيري
تيرٿ
تيرھن
تيرھين
تيز
تيزاب
تيزابي
تيزابيت
تيزي
تيزيء
تيستاي
تيسين
تيشخ
تيغ
تيل
تيلي
تيليء
تيلين
تيليون
تيليگو
تيلگو
تيمم
تيمور
تيموري
تين
تيور
تيون
تيونس
تيوڻو
تيي
تپ
تپا
تپسيا
تپش
تپن
تپو
تپي
تپيدار
تڏ
تڏا
تڏهن
تڏهوڪي
تڏهين
تڏھن
تڙ
تڙي
تک
تکا
تکو
تکي
تڪ
تڪافل
تڪبير
تڪرار
تڪرارن
تڪراري
تڪسيد
تڪليف
تڪليفن
تڪليفون
تڪميل
تڪن
تڪنيڪي
تڪي
تڪيو
تڪڙ
تڪڙا
تڪڙو
تڪڙي
تگي
تڻ
تڻو
تھ
تھا
تھذيب
تھذيبن
تھران
تھل
تھمينہ
تھن
تھھ
تھی
تھے
تہ
تین
ث
ثابت
ثابتي
ثابتيون
ثار
ثارن
ثاقب
ثالث
ثانوي
ثاني
ثانيء
ثبوت
ثبوتن
ثر
ثريا
ثقافت
ثقافتن
ثقافتي
ثقفي
ثقل
ثقلي
ثم
ثمر
ثميره
ثنا
ثناء
ثناي
ثواب
ج
جا
جاء
جاب
جابر
جابلو
جات
جاتا
جاتي
جاتيء
جاتين
جادم
جادو
جادوء
جادوي
جادوگر
جاذب
جارج
جارجيا
جارجياي
جارحيت
جاري
جارڊن
جاسوس
جاسوسن
جاسوسي
جاسوسيء
جال
جالب
جالنڌر
جام
جامع
جامعه
جامعہ
جامو
جامي
جاميٽري
جاميٽريء
جان
جانب
جانبدار
جاندار
جاندارن
جانسن
جانشين
جانو
جانور
جانورن
جانوري
جاني
جانيون
جانچ
جانچڻ
جانڻ
جاهل
جاهليت
جاو
جاوا
جاويد
جاي
جاين
جايون
جاٽ
جاٽن
جاپان
جاپاني
جاچ
جاچي
جاچڻ
جاڙا
جاڙو
جاڙي
جاڙيجا
جاڙيجن
جاکري
جاکوڙ
جاکوڙي
جاگرافي
جاگرافيء
جاگرافياي
جاگرافيدان
جاگرافيدانن
جاگير
جاگيراڻي
جاگيردار
جاگيرداراڻي
جاگيردارن
جاگيرداري
جاگيرن
جاگيرون
جاڳ
جاڳاي
جاڳايو
جاڳرتا
جاڳندي
جاڳو
جاڳي
جاڳيو
جاڳڻ
جاڻ
جب
جبار
جبر
جبرالٽر
جبران
جبراي
جبري
جبريت
جبل
جبلت
جبلن
جبوتي
جت
جتان
جتن
جتوي
جتي
جج
ججن
ججهو
ججهي
ججيي
جد
جدا
جداي
جدت
جدوجهد
جدوجھد
جدول
جدي
جديد
جديديت
جدگال
جدگالي
جدید
جذام
جذب
جذبا
جذبات
جذباتي
جذبن
جذبو
جذبي
جر
جرات
جراثيم
جراثيمن
جراي
جرم
جرمن
جرمنن
جرمني
جرمنيء
جرنل
جرنيل
جروار
جري
جريب
جرير
جرڳو
جرڳي
جز
جزا
جزاي
جزن
جزو
جزوي
جزيرن
جزيرو
جزيري
جس
جساف
جسامت
جست
جستجو
جسقم
جسم
جسماني
جسمم
جسمن
جسٽ
جسٽريٽ
جسٽس
جسڪاڻي
جشن
جعفر
جعفرا
جعفري
جعلي
جغرافياي
جـ
جـو
جـي
جل
جلا
جلاب
جلال
جلاله
جلاوطن
جلاوطني
جلاوطنيء
جلاي
جلباڻي
جلد
جلدن
جلدي
جلسا
جلسن
جلسو
جلسي
جلندر
جلندڙ
جلوس
جلي
جليانوالا
جليل
جم
جماد
جمادي
جماع
جماعت
جماعتن
جماعتون
جماعتي
جمال
جمالو
جمالي
جماليء
جماليات
جمالياتي
جماڻي
جمشيد
جمع
جمعو
جمعي
جمعيت
جمل
جملا
جملن
جملو
جملي
جمن
جمنا
جمهوري
جمهوريا
جمهوريت
جمهوريه
جمهوريہ
جمود
جمون
جمي
جميعت
جميل
جمڙاي
جمھور
جمھوري
جمھوريت
جمھوريه
جمھوريہ
جن
جناب
جناح
جنازو
جنازي
جنب
جنت
جنتا
جنتر
جنتري
جنجوعا
جند
جندڙ
جنرل
جنرلن
جنريشن
جنس
جنسار
جنسن
جنسون
جنسي
جنم
جنن
جنهن
جنهنجو
جنهنجي
جنهنکي
جنهنڪري
جنوب
جنوبي
جنوبی
جنود
جنوري
جنوريء
جنون
جنيد
جنين
جنيوا
جنپنگ
جنڊ
جنڊيء
جنکي
جنڪشن
جنگ
جنگبندي
جنگجو
جنگشاهي
جنگل
جنگن
جنگو
جنگون
جنگي
جنگين
جنگيون
جنھن
جنھنڪري
جه
جهاتي
جهاد
جهادي
جهاز
جهازن
جهازي
جهالاوان
جهالت
جهان
جهانسي
جهانن
جهانيان
جهانگياڻي
جهانگير
جهتيال
جهجهو
جهجهي
جهرڪ
جهرڪن
جهرڪي
جهل
جهلجي
جهلم
جهلي
جهليل
جهلين
جهليندا
جهليندو
جهليو
جهلڪ
جهلڻ
جهم
جهمر
جهمپير
جهن
جهنم
جهنڊ
جهنڊو
جهنڊي
جهنگ
جهنگل
جهنگلن
جهنگلي
جهنگن
جهه
جهو
جهول
جهولي
جهوليء
جهونا
جهونن
جهونو
جهوني
جهوپڙي
جهوڪ
جهي
جهيڙا
جهيڙن
جهيڙو
جهيڙي
جهٽ
جهٽڪا
جهڏي
جهڙ
جهڙا
جهڙن
جهڙو
جهڙوڪ
جهڙوڪر
جهڙي
جهڙيء
جهڙين
جهڙيون
جهڙپ
جهڙپن
جهڙپون
جهڪاء
جهڪاي
جهڪر
جهڪي
جهڳٽو
جهڳٽي
جهڳڙو
جهہ
جو
جوء
جوا
جواب
جوابدار
جوابدارن
جوابده
جوابي
جواد
جواز
جوان
جوانمردي
جوانن
جواني
جوانيء
جواهر
جواهرات
جواهرن
جواي
جوبلي
جوت
جوتش
جوتواڻي
جوزف
جوس
جوسو
جوش
جوشي
جول
جولاء
جولاي
جولي
جوليا
جوليس
جون
جونا
جونيي
جونپوري
جوه
جوهر
جوهري
جوهي
جوهيء
جوي
جويا
جويو
جويي
جوٽي
جوپيٽر
جوڀن
جوڊيشل
جوڌا
جوڌپور
جوڙ
جوڙا
جوڙاي
جوڙايل
جوڙايو
جوڙايون
جوڙجڪ
جوڙن
جوڙو
جوڙي
جوڙيا
جوڙيل
جوڙين
جوڙيندا
جوڙيندو
جوڙيندڙ
جوڙيو
جوڙيون
جوڙڻ
جوکي
جوکيا
جوکين
جوکيو
جوڳ
جوڳا
جوڳو
جوڳي
جوڳين
جوڳيون
جوڻ
جوڻو
جوڻي
جوڻيجا
جوڻيجن
جوڻيجو
جوڻيجي
جوھان
جوھاي
جوھر
جوھري
جوھي
جي
جيء
جيا
جيان
جياپو
جياپي
جياڀياس
جياڻو
جيبي
جيت
جيترا
جيترو
جيتري
جيتريون
جيتن
جيتوڻيڪ
جيتي
جيجل
جيجي
جيد
جيدرٿ
جيرو
جيروسلم
جيري
جيريا
جيس
جيستاي
جيسر
جيسلمير
جيسي
جيسيتاي
جيسين
جيسينا
جيسيه
جيسيڪا
جيل
جيلاني
جيلانيء
جيلر
جيلن
جيلي
جيم
جيمز
جيمس
جين
جيند
جينز
جينوم
جيني
جينياتي
جينيسز
جيو
جيوت
جيوتي
جيون
جيوڙا
جيوڙن
جيوڻي
جيي
جيٽ
جيٽلي
جيپ
جيڏا
جيڏانهن
جيڏو
جيڏي
جيڏيون
جيڪ
جيڪا
جيڪب
جيڪر
جيڪرن
جيڪسن
جيڪو
جيڪي
جيڪڏهن
جيڪڏھن
جيڻا
جٽ
جٽاء
جٽادار
جپان
جپاني
جپانين
جپسم
جپسي
جپو
جپي
جٿو
جٿي
جڊيشل
جڏنهن
جڏهن
جڏهين
جڏھن
جڙ
جڙتو
جڙي
جڙيا
جڙيل
جڙيو
جڙڻ
جکر
جکراڻي
جکرو
جڪ
جڪارتا
جڪڙيل
جگجيت
جگر
جگن
جگني
جڳ
جڳت
جڳتراء
جڳتياڻي
جڳه
جڳهن
جڳهه
جڳهون
جڳهہ
جڳھ
جڳھن
جڻ
جھ
جھاد
جھادي
جھاز
جھازران
جھازن
جھالت
جھان
جھانگير
جھرم
جھرمٽ
جھل
جھلم
جھلي
جھنڊو
جھنڊي
جھنگ
جھنگلي
جھول
جھولي
جھوک
جھوڪ
جھيڙو
جھٽ
جھڙا
جھڙن
جھڙو
جھڙوڪ
جھڙي
جھڙين
جھڙيون
جھہ
جھے
جہان
جہلم
جی
جیتا
جے
ح
حاتم
حاجب
حاجت
حاجن
حاجي
حاجيبايوف
حاجين
حادثا
حادثن
حادثو
حادثي
حارث
حاسد
حاشين
حاشيه
حاشيو
حاصل
حاصلا
حاصلات
حاضر
حاضره
حاضري
حاضريء
حاضرين
حافظ
حافظي
حال
حالات
حالانڪ
حالانڪه
حالت
حالتن
حالتون
حالي
حاليء
حامد
حامل
حامي
حامين
حاوي
حاڪم
حاڪمن
حاڪميت
حب
حبشه
حبشي
حبيب
حتمي
حج
حجاب
حجاج
حجاز
حجازي
حجام
حجت
حجر
حجرت
حجري
حجم
حد
حداد
حدف
حدن
حدود
حدون
حديبيه
حديث
حديثن
حديثون
حديد
حدیث
حذف
حر
حرارت
حراست
حرام
حران
حرب
حرص
حرف
حرفن
حرفي
حرم
حرمت
حرمين
حرن
حروف
حريت
حرڪت
حرڪتن
حرڪتون
حزب
حس
حساب
حسابن
حسابي
حساس
حسام
حسب
حسد
حسرت
حسن
حسني
حسي
حسيب
حسين
حسينا
حسينه
حسيني
حسينيء
حسین
حشر
حشرات
حشمت
حشو
حشوء
حصا
حصن
حصه
حصو
حصول
حصي
حصيدار
حصيدارن
حصيداري
حضرات
حضرت
حضور
حفاظت
حفاظتي
حفص
حفظ
حفيظ
حق
حقارت
حقاني
حقاي
حقدار
حقق
حقن
حقوق
حقي
حقيقت
حقيقتن
حقيقتون
حقيقي
حل
حلاج
حلال
حلب
حلف
حلقا
حلقن
حلقه
حلقو
حلقي
حلوو
حليم
حليمه
حماد
حماس
حمام
حمايت
حمايتي
حمد
حمزه
حمزو
حمزہ
حمل
حملا
حملن
حمله
حملو
حملي
حملہ
حميد
حميده
حنا
حنبل
حنبلي
حنفي
حنيف
حنيفه
حنين
حوا
حواري
حوارين
حواس
حواسن
حوال
حوالا
حوالن
حوالو
حوالي
حوصلا
حوصلو
حوصلي
حوض
حوقل
حويلي
حويليء
حويلين
حويليون
حي
حيا
حياء
حيات
حياتي
حياتيء
حياتيات
حياتياتي
حياتين
حياتيون
حيثيت
حيدر
حيدرا
حيدربخش
حيدري
حيران
حيرت
حيض
حيوان
حيوانات
حيوانن
حيواني
حکومت
حڪايت
حڪم
حڪمت
حڪمران
حڪمرانن
حڪمراني
حڪمرانيء
حڪمن
حڪومت
حڪومتن
حڪومتون
حڪومتي
حڪيم
حڪيمن
حیدرا
خ
خابرو
خاتمو
خاتمي
خاتون
خادم
خار
خاران
خارج
خارجه
خارجي
خارجين
خارجہ
خارش
خارڪيف
خاش
خاص
خاصخيلي
خاصخيليء
خاصو
خاصي
خاصيت
خاصيتن
خاصيتون
خاطر
خاطري
خاقان
خال
خالد
خالده
خالص
خالف
خالق
خالي
خام
خامناي
خاموش
خاموشي
خاموشيء
خامي
خامين
خاميون
خان
خانا
خانات
خانان
خاناي
خانبهادر
خانبھادر
خاندان
خاندانن
خانداني
خانصاحب
خانقاه
خانقاهه
خانقاھ
خانم
خانن
خانه
خانو
خاني
خانيت
خانيوال
خانيٽ
خانپور
خانچند
خانگي
خانڳڙھ
خانہ
خاي
خاڪ
خاڪا
خاڪسار
خاڪن
خاڪو
خاڪي
خبر
خبردار
خبرداريء
خبرن
خبرون
ختلف
ختم
خدا
خداا
خدابخش
خداداد
خداوند
خداي
خدايار
خدشو
خدمت
خدمتن
خدمتون
خدمتگار
خديجه
خر
خراب
خرابي
خرابيء
خرابين
خراج
خراسان
خراساني
خرت
خرد
خرقو
خرم
خروش
خري
خريد
خريدار
خريداري
خريف
خرين
خرچ
خرچن
خرچي
خرڪار
خزانا
خزانو
خزاني
خزانچي
خزيمه
خسرو
خشڪ
خشڪي
خشڪيء
خصوص
خصوصا
خصوصي
خصوصيت
خصوصيتن
خصوصيتون
خضدار
خضر
خط
خطا
خطاب
خطابت
خطاطي
خطاي
خطبا
خطبو
خطبي
خطرا
خطرن
خطرناڪ
خطرو
خطري
خطن
خطو
خطي
خطيب
خطيبي
خفقان
خفيف
خفيه
خفيہ
خلا
خلاباز
خلاصو
خلاف
خلافت
خلاي
خلجي
خلجيء
خلدون
خلطن
خلعت
خلفاء
خلق
خلل
خلوص
خليج
خليفا
خليفن
خليفه
خليفو
خليفي
خليق
خليل
خلين
خم
خمير
خميس
خميسو
خميسي
خميني
خمينيء
خن
خنجر
خندق
خنساء
خواب
خوابن
خواتين
خواجا
خواجن
خواجه
خواجہ
خوار
خوارزم
خواص
خوان
خواندگي
خواني
خواه
خواهش
خواهشمند
خواهشن
خواهشون
خواهه
خواھ
خواھش
خواھشن
خوب
خوبصورت
خوبصورتي
خوبصورتيء
خوبي
خوبيء
خوبين
خوبيون
خود
خودمختيار
خودمختياري
خودمختياريء
خودي
خودڪار
خودڪش
خودڪشي
خودڪشيء
خور
خوراڪ
خورد
خوردبيني
خورشيد
خوري
خوش
خوشاب
خوشبو
خوشبوء
خوشبودار
خوشبوي
خوشحال
خوشحالي
خوشحاليء
خوشخبري
خوشي
خوشيء
خوشين
خوشيون
خوشگوار
خوف
خوفناڪ
خون
خونخوار
خوند
خونريز
خونريزي
خوني
خويش
خي
خيال
خيالات
خيالن
خيالي
خياليء
خيام
خيانت
خيبر
خيبرپختونخوا
خيبرپختونخواھ
خير
خيرا
خيرات
خيراتي
خيرالدين
خيرالنساء
خيرباد
خيرمحمد
خيرو
خيري
خيرپور
خيرپورميرس
خيرپورناٿن
خيرپوري
خيز
خيل
خيما
خيمي
خيو
خٽڪ
خچر
خیال
خیل
د
دا
داء
داب
داتا
داخل
داخلا
داخلاي
داخلت
داخله
داخلي
داخليت
داد
دادا
دادن
دادو
دادوء
دادي
دار
دارا
دارالحڪومت
دارالخلافت
دارالعلوم
داردي
داردڪ
دارومدار
دارون
داري
داس
داستان
داستانن
داعش
داعظم
داعي
داغ
داغستان
داغن
دال
دالان
دالن
دالين
داليون
دامن
دان
داناء
داناي
دانش
دانشمند
دانشور
دانشورن
دانن
دانهن
دانهون
دانهين
داني
داو
داي
داٻ
داڳ
داڻا
داڻن
داڻو
داڻي
دب
دبي
دت
دتا
دجله
دختر
دخل
در
درا
دراز
درازا
دراصل
دراني
دراوڙ
دراوڙن
دراوڙي
دربار
دربان
دربدر
دربند
درج
درجا
درجابندي
درجن
درجه
درجو
درجي
درجہ
درحقيقت
درخت
درخواست
درد
دردناڪ
درزي
درس
درست
درستگين
درسي
درسگاهن
درسگاهه
درسگاهون
درسگاھ
درش
درشن
درشهوار
درشي
درمحمد
درميان
درمياني
درن
دره
درهم
درو
دروازا
دروازن
دروازو
دروازي
درويش
درويشن
دروپدي
دري
دريء
دريا
درياء
درياخان
دريافت
درياه
درياهن
درياهه
درياهي
درياي
درياڻي
درياھ
درياھه
درين
دريون
دريوڌن
درٻار
درٻاري
درٻارين
درٻيلو
درٻيلي
درپيش
درڪار
درگا
درگاه
درگاهن
درگاهه
درگاهون
درگاهي
درگاھ
درھم
دز
دس
دست
دستا
دستار
دستاربندي
دستاويز
دستاويزن
دستاويزي
دستبردار
دستخط
دسترس
دستن
دستو
دستور
دستي
دستياب
دستگير
دسرٿ
دسمبر
دشت
دشمن
دشمنن
دشمني
دشمنيء
دعا
دعاي
دعوا
دعواي
دعوت
دعوتون
دعوى
دعوي
دعويدار
دعويداري
دعوی
دغا
دفاع
دفاعي
دفتر
دفترن
دفتري
دفع
دفعا
دفعو
دفعي
دفن
دفناي
دفنايو
دل
دلال
دلاور
دلاي
دلبر
دلت
دلدار
دلشاد
دلفريب
دلمراد
دلو
دلوراء
دلي
دلير
دليري
دليل
دليلن
دلين
دليون
دليپ
دليپوٽا
دلپسند
دلچسپ
دلچسپي
دلچسپيء
دلڪش
دلگير
دم
دماغ
دماغي
دمشق
دمشماري
دمشماريء
دمي
دمڪشي
دمڪشيء
دن
دنبوري
دنيا
دنياوي
دنياي
دنيوي
دنگ
دنگي
دنیا
ده
دهشت
دهشتگرد
دهشتگردن
دهشتگردي
دهشتگرديء
دهل
دهلن
دهلوي
دهلويء
دهلي
دهليء
دو
دوا
دوار
دوارڪا
دواسازي
دواي
دوباره
دودو
دودي
دور
دورا
دوران
دورانيو
دوربين
دورن
دورو
دوري
دوزخ
دوس
دوست
دوستاڻا
دوستن
دوستي
دوستيء
دولت
دولتاڻي
دولترام
دولتمند
دولتمندن
دولتپور
دولهه
دولھ
دوم
دونهون
دونهين
دوها
دوهن
دوهو
دوهي
دوي
دوڙ
دوکي
دوڪان
دي
ديا
ديار
ديال
ديامير
ديان
ديباچو
ديباچي
ديبل
ديبلي
ديت
ديد
ديدار
دير
ديرا
ديره
ديرو
ديري
ديس
ديسي
ديش
ديمند
دين
دينا
دينار
ديندار
ديني
دينيات
ديهانت
ديهن
ديهه
ديهون
ديو
ديوار
ديوارن
ديوارون
ديوارين
ديوان
ديوانن
ديواني
ديوبند
ديوبندي
ديوتا
ديوتاي
ديول
ديومالاي
ديون
ديوناگري
ديوي
ديويء
ديوين
ديوڪيء
ديپالپور
ديپيڪا
ديپڪ
ديڳ
ديڳڙي
ديھ
ديھن
ديھون
دٻاء
دٻاي
دٻجي
دٻدٻي
دٻن
دٻي
دٻيل
دڙا
دڙن
دڙو
دڙي
دک
دکن
دکني
دکي
دڪان
دڪاندار
دڪانن
دڳ
دھشت
دھشتگردي
دھشلا
دھل
دھلي
دھليء
دہ
دی
دیا
دین
دیگر
ذ
ذا
ذات
ذاتي
ذاتين
ذاتيون
ذاي
ذاڪر
ذبح
ذخيرا
ذخيرن
ذخيرو
ذخيري
ذر
ذرا
ذراعت
ذرباي
ذرن
ذرو
ذري
ذريعا
ذريعن
ذريعو
ذريعي
ذرڙا
ذرڙن
ذرڙو
ذلت
ذليل
ذمرو
ذمري
ذمو
ذمي
ذميدار
ذميداري
ذميداريون
ذميوار
ذميواري
ذميوارين
ذميواريون
ذهانت
ذهن
ذهنن
ذهني
ذهنيت
ذهين
ذوالحج
ذوالفقار
ذوالقعد
ذوالنون
ذوق
ذولفقار
ذي
ذيلي
ذڪر
ذڪريا
ذھن
ذھني
ذھين
ر
را
راء
رابرٽ
رابرٽس
رابطا
رابطن
رابطه
رابطو
رابطي
رابعه
رابن
رابندر
رابندرناٿ
رابيل
رات
راتين
راتيون
راج
راجا
راجاي
راجستان
راجستاني
راجسٿان
راجسٿاني
راجن
راجو
راجيو
راجپوت
راجپوتانا
راجپوتن
راجڪمار
راحت
راحتون
راحيل
راد
رادو
راز
رازن
رازي
راس
راست
راسته
راشد
راشده
راشدي
راشديء
راشدين
راشديه
راشٽر
راضي
راضپو
راضپي
راغب
رافيل
راقم
رام
راما
راماي
رامداس
رامن
رامي
رامچند
رامچندر
رامگاهه
رامگاھ
ران
رانا
رانجهو
رانجھا
رانجھو
رانجھي
راند
راندين
رانديون
رانديڪا
رانديگر
رانديگرن
رانس
رانوتي
راني
راه
راهب
راهداري
راهمون
راهه
راهو
راهون
راهي
راهيء
راو
راوت
راول
راولپنڊي
راولپنڊيء
راوي
راوين
راوڙي
راوڻ
راي
رايا
رايل
راين
رايو
راٺوڙ
راٺوڙن
راڄ
راڄن
راڄو
راڄوڻي
راڄي
راڄپر
راڄڌاني
راڄڌانيء
راڄڙ
راڊ
راڌا
راڌڻ
راڙو
راکي
راڪ
راڪيٽ
راڳ
راڳداريء
راڳن
راڳي
راڳين
راڳيندڙ
راڳڻي
راڳڻيء
راڳڻين
راڻ
راڻا
راڻن
راڻو
راڻي
راڻيء
راڻين
راڻيون
راڻيپور
راھ
راھو
رب
ربا
رباب
رباط
رباعي
رباعيون
رباني
ربذه
ربطيات
ربواه
ربيس
ربيع
ربيعه
رت
رتا
رتبو
رتبي
رتن
رتو
رتوديرو
رتوڇاڻ
رتوڪوٽ
رتي
رتيديري
رتين
رتيون
رج
رجاي
رجب
رجحان
رجحانن
رجسٽر
رجسٽرار
رجسٽريشن
رجسٽرڊ
رجعت
رجوع
رجي
رح
رحلت
رحم
رحمان
رحماني
رحمة
رحمت
رحمته
رحمدل
رحمڪي
رحه
رحيم
رحيمداد
رحیم
رخ
رخصت
رخصتي
رخن
رخي
رد
ردار
ردعمل
ردم
ردن
ردو
ردي
رديف
رز
رزا
رزاق
رزرو
رزلٽ
رزميه
رزو
رس
رسا
رسالا
رسالت
رسالن
رساله
رسالو
رسالي
رساي
رسايو
رستا
رستم
رستن
رستو
رستي
رسد
رسرچ
رسل
رسم
رسمن
رسمون
رسمي
رسن
رسندو
رسو
رسوخ
رسول
رسي
رسيء
رسين
رسيني
رسيو
رسيون
رسڪن
رسڻ
رش
رشتا
رشتن
رشتو
رشتي
رشتيدار
رشتيدارن
رشد
رشوت
رشي
رشيا
رشيد
رشين
رشید
رض
رضا
رضامندي
رضاڪار
رضاڪارانه
رضه
رضوان
رضوي
رضويء
رضويه
رضي
رضيه
رضہ
رطوبت
رعايا
رعايت
رعايتن
رعايتون
رعب
رعيت
رعيتي
رغبت
رف
رفاقت
رفت
رفتار
رفتاري
رفتاريء
رفته
رفتي
رفورس
رفيع
رفيق
رقبو
رقص
رقم
رقمن
رقمون
رقيه
ركعتين
رل
رلاي
رلي
رليء
رليخ
رليز
رليف
رلينڊ
رليون
رم
رماي
رمز
رمزون
رمضان
رمل
رمن
رمي
رميء
رميش
رمين
رميني
رمينيا
رمينياي
رمينٽ
رميڊا
رن
رنج
رنجيت
رند
رندا
رندن
رندو
رندي
رنسن
رنسون
رني
رنڊڪ
رنگ
رنگا
رنگت
رنگدار
رنگريز
رنگن
رنگي
رنگيلو
رنگين
ره
رها
رهاي
رهايو
رهاڪن
رهاڪو
رهاڻ
رهاڻيون
رهبر
رهبري
رهبريء
رهجي
رهزن
رهن
رهندا
رهندس
رهندو
رهندي
رهنديون
رهندڙ
رهندڙن
رهنما
رهنماي
رهه
رهو
رهواسي
رهواسين
رهون
رهي
رهيا
رهيس
رهيل
رهيو
رهيون
رهڻ
رهڻو
رهڻي
رو
روء
روا
رواج
رواجن
رواجي
رواداري
روان
روانا
روانو
رواني
روانڊا
روانگي
روانگيء
روايات
روايت
روايتن
روايتون
روايتي
روبرو
روبي
روبينا
روجھ
روح
روحاني
روحانيت
روحل
روحن
رود
رور
رورل
روز
روزا
روزانه
روزانو
روزاني
روزانہ
روزمره
روزنامه
روزنامہ
روزه
روزو
روزويلٽ
روزي
روزگار
روس
روسو
روسي
روسين
روش
روشن
روشناس
روشناي
روشنایی
روشندان
روشني
روشنيء
روشنی
روضو
روضي
روغن
رول
رولنگ
روم
رومال
رومانس
رومانوي
رومانويت
روماني
رومانيا
رومانيت
رومن
رومي
روميء
رومين
رون
رونا
روند
رونق
رونقون
رونما
روهي
روهڙا
روهڙي
روهڙيء
روي
رويا
روين
روينيو
رويو
رويي
روٽ
روٽي
روپ
روپلو
روپلي
روپوش
روپي
روپيا
روپين
روپيه
روپيو
روڊ
روڊن
روڙ
روڙي
روڪ
روڪي
روڪيندو
روڪيو
روڪڻ
روگ
روڳ
روھڙي
روھڙيء
ري
ريء
ريا
رياست
رياستن
رياستون
رياستي
رياض
رياضت
رياضي
رياضيء
رياضيات
رياضياتي
رياضيدان
ريان
رياي
ريت
ريتن
ريتون
ريتي
ريتيء
ريج
ريجا
ريجمينٽ
ريجن
ريجنل
ريحان
ريز
ريزيڊنٽ
ريزڪي
ريس
ريسر
ريسرچ
ريسٽر
ريسٽورنٽ
ريشم
ريشما
ريشمي
ريشن
ريشو
ريفرنس
ريفرنڊم
ريفرينڊم
ريل
ريلوي
ريلويز
ريلي
ريليز
ريليون
ريم
ريمن
رين
رينج
رينجرز
رينجرس
ريني
رينڪنگ
ريه
ريو
ريون
ريي
ريٽ
ريٽا
ريٽاي
ريٽرننگ
ريٽنگ
ريٽينا
ريپ
ريپبلڪ
ريپبلڪن
ريپريزنٽيٽوز
ريپپلڪ
ريڊ
ريڊار
ريڊر
ريڊنگ
ريڊي
ريڊيو
ريڊيي
ريڍار
ريڙهي
ريڙهيون
ريڪارڊ
ريڪجاويڪ
ريڪس
ريڪشن
ريڪٽر
ريڪٽرن
ريڪٽري
ريڪٽوريٽ
ريگا
ريگستان
ريگستاني
ريڻ
ريہ
رٻڙ
رٽ
رٽاي
رٽرننگ
رٽس
رٽسٽ
رٽن
رٽي
رٽيڪل
رٽيڪلز
رپ
رپار
رپرسن
رپن
رپورٽ
رپورٽر
رپورٽس
رپورٽن
رپورٽنگ
رپورٽون
رپي
رپيا
رپين
رپيو
رٿ
رٿا
رٿابندي
رٿابنديء
رٿاي
رٿر
رٿون
رٿوڊڪس
رٿي
رٿيل
رٿيو
رڃ
رچاء
رچاي
رچرڊ
رچنا
رچناي
رچي
رڇ
رڊ
رڊر
رڊولف
رڊيننس
رڊينو
رڊينيٽر
رڌ
رڌل
رڌي
رڌڻ
رڍ
رڍن
رڍون
رڙ
رڙو
رڙي
رڙيون
رک
رکاي
رکب
رکبا
رکبو
رکجن
رکجي
رکما
رکن
رکندا
رکندو
رکندي
رکنديون
رکندڙ
رکندڙن
رکو
رکون
رکي
رکيا
رکياي
رکيل
رکيو
رکيون
رکڻ
رکڻو
رڪ
رڪارڊ
رڪارڊنگ
رڪاوٽ
رڪاوٽن
رڪاوٽون
رڪاي
رڪجي
رڪس
رڪعت
رڪعتن
رڪعتون
رڪن
رڪنن
رڪني
رڪنيت
رڪوع
رڪي
رڪيالاجسٽ
رڪيالاجي
رڪيالاجيڪل
رڪيٽيڪٽ
رڪيٽيڪچر
رڪيپيلاگو
رڪٽڪ
رڪڊ
رڪڻ
رگ
رگناي
رگويد
رڱ
رڱڻ
رڳ
رڳن
رڳو
رڳڙ
رڻ
رڻپٽ
رھاي
رھاڪن
رھاڪو
رھاڻ
رھبر
رھجي
رھن
رھندا
رھندو
رھندي
رھنديون
رھندڙ
رھنماي
رھواسي
رھواسين
رھي
رھيا
رھيل
رھيو
رھيون
رھڻ
رھڻي
رہ
رہا
رہے
رۃ
ریاست
ریسرچ
رے
ز
زابل
زاد
زادي
زاديء
زادين
زار
زال
زالن
زالون
زان
زاهد
زاي
زاھدان
زبان
زبانن
زبانون
زباني
زبر
زبردست
زبردستي
زبور
زبون
زبيده
زبير
زحل
زخم
زخمن
زخمي
زخمين
زد
زده
زر
زرار
زراعت
زرتشت
زرتشتي
زرتشتين
زرخيز
زرخيزي
زرد
زرداري
زرداريء
زردشتي
زردي
زرعي
زري
زريعي
زرين
زرينا
زرينه
زعفران
زلزلا
زلزلو
زلزلي
زلمي
زليخا
زم
زمان
زمانن
زمانو
زماني
زماي
زمايو
زمبابوي
زمرا
زمرو
زمري
زمين
زميندار
زميندارن
زمينداري
زمينن
زمينون
زميني
زمین
زن
زنا
زنانو
زناني
زنجبار
زنجير
زنجيرن
زنداوستا
زنده
زندهه
زندگي
زندگيء
زندگين
زندھ
زندہ
زني
زنگ
زنگي
زه
زهد
زهر
زهرا
زهرن
زهره
زهري
زهريلا
زهريلو
زهريلي
زو
زوار
زوال
زور
زوردار
زوري
زوريء
زولاجي
زون
زويا
زويگ
زي
زياد
زيادتي
زيادتين
زياده
زيادہ
زيارت
زيارتن
زيارتگاهه
زيان
زيب
زيباي
زيبرا
زيتون
زيد
زيدي
زير
زيرو
زيشن
زيمبيا
زيمسٽوو
زين
زينب
زينت
زيور
زيورن
زيوس
زيڊ
زپ
زڊ
زڪ
زڪام
زڪريا
زڪوات
زھر
زھرہ
زیادہ
س
سا
ساء
سابق
سات
ساتھ
ساجد
ساجن
ساحر
ساحل
ساحلي
ساخت
ساخته
سادا
سادات
ساداتن
سادن
سادو
سادي
سادگي
سادگيء
سار
سارا
ساراه
ساراهه
ساراهيو
ساراھ
سارتر
سارس
سارسنڀال
سارن
سارنگ
سارنگي
ساره
سارو
ساري
ساريء
ساريا
ساريال
سارين
ساريو
ساريون
سارڪ
سارہ
ساز
سازش
سازشن
سازشون
سازشي
سازن
سازي
سازيء
سازگار
ساس
ساساني
ساسانين
ساعت
ساغر
سافٽ
سافٽويي
ساقي
سال
سالا
سالار
سالاري
سالانہ
سالم
سالميت
سالن
ساله
سالو
سالي
ساليانو
سالياني
سالٽ
سالڪ
سالڪن
سالگره
سالگرهه
سام
سامارو
سامان
ساماني
سامبس
سامتاڻي
سامراج
سامراجي
سامراجيت
سامعين
سامهون
سامونڊري
سامونڊي
ساموي
سامي
ساميء
سامٽيا
سامٽيو
سامھون
سان
سانت
سانتا
سانجھيء
سانحو
سانحي
ساند
ساندهه
سانند
سانول
سانوڻ
سانوڻي
سانوڻيء
ساني
سانيء
سانيٽ
سانچو
سانچي
سانڍي
سانڍيل
سانڍڻ
سانگ
سانگهڙ
سانگي
سانگيء
سانگھرو
سانگھڙ
ساه
ساهت
ساهتي
ساهتيء
ساهتيا
ساهتيه
ساهه
ساهوارن
ساهي
ساهيوال
ساهڙ
ساهہ
ساوا
ساوتري
ساون
ساوڙو
ساوڪ
ساوڻ
ساي
سايون
ساٺ
ساٿ
ساٿي
ساٿيء
ساٿين
ساڃاهه
ساڄو
ساڄي
ساڌ
ساڌن
ساڌو
ساڍا
ساڍن
ساڙ
ساڙي
ساڙيا
ساڙيو
ساڙڻ
ساک
ساکون
ساڪ
ساڪراي
ساڪرو
ساڪري
ساڪن
ساگان
ساگر
ساڳ
ساڳي
ساڳيء
ساڳيا
ساڳين
ساڳيو
ساڳيون
ساڻ
ساڻس
ساڻن
ساھ
ساھيوال
سب
سبب
سببان
سببن
سبجيڪٽ
سبحان
سبز
سبزل
سبزي
سبزين
سبزيون
سبط
سبق
سبقن
سبي
سبيء
سبيل
سبڪتگين
سبڻ
ست
ستا
ستابو
ستابي
ستاد
ستار
ستارا
ستارن
ستاره
ستارو
ستاري
ستان
ستانو
ستاي
ستت
ستر
سترام
سترهن
سترهين
سترھين
ستل
ستلج
ستم
ستن
سته
ستو
ستون
ستي
ستين
سج
سجاد
سجاده
سجاول
سجاولي
سجاوليء
سجاوٽ
سجاي
سجايو
سجاڳ
سجاڳي
سجاڳيء
سجدو
سجدي
سحر
سخا
سخاوت
سخت
سختي
سختيء
سختيون
سخن
سخي
سخيء
سخيراڻي
سدا
سدارنگاڻي
سداي
سدرن
سدن
سر
سرء
سرا
سراء
سراج
سراسر
سراسري
سرانجام
سراوان
سراي
سراپا
سرب
سربراه
سربراهن
سربراهه
سربراهي
سربراهيء
سربراهہ
سربراھ
سربراھي
سربند
سربيا
سرت
سرتاج
سرتيون
سرجان
سرجري
سرجريء
سرجن
سرجڻهار
سرحد
سرحدن
سرحدون
سرحدي
سرخ
سرد
سردار
سردارن
سرداري
سردي
سرديء
سردين
سرزمين
سرس
سرسبز
سرسري
سرسوتي
سرسي
سرشار
سرشتن
سرشتو
سرشتي
سرشٽي
سرطان
سرطاني
سرفراز
سرفهرست
سرماي
سرمايو
سرمايي
سرمد
سرمست
سرن
سرندي
سرنديء
سرندڙ
سرنهن
سرنھن
سرها
سرهاڻ
سرهند
سرهندي
سرو
سرواڻ
سرواڻي
سرواڻيء
سرود
سرور
سروري
سروس
سروسز
سرون
سروور
سروي
سرويچ
سروپ
سري
سريا
سريراڳ
سريل
سريلنڪا
سريلي
سريندر
سرينگر
سريو
سرٽيفڪيٽ
سرپرست
سرپرستي
سرپرستيء
سرچ
سرچارلس
سرچشمو
سرڪار
سرڪاري
سرڪس
سرڪش
سرڪشي
سرڪل
سرڪلون
سرڪو
سرڪي
سرڪٽ
سرگذشت
سرگرم
سرگرمي
سرگرميء
سرگرمين
سرگرميون
سرگس
سرگم
سرگودھا
سرگوڌا
سرڳ
سرڻ
سرڻي
سرھ
سز
سزا
سزاي
سس
سست
سستا
سستو
سستي
سستيون
سسلي
سسي
سسٽم
سطح
سطحن
سطحي
سعادت
سعد
سعدالله
سعدي
سعود
سعودي
سعي
سعيد
سعيدا
سعيدپور
سـ
ســ
سفارت
سفارتخانو
سفارتخاني
سفارتي
سفارتڪار
سفارتڪارن
سفارتڪاري
سفارتڪاريء
سفارش
سفر
سفرناما
سفرنامن
سفرنامو
سفرنامي
سفري
سفوف
سفيان
سفيد
سفير
سفيرن
سفڪ
سقراط
سل
سلا
سلاد
سلاست
سلام
سلامت
سلامتي
سلامتيء
سلامي
سلاميء
سلاي
سلجهاي
سلجوقي
سلجھاي
سلسلا
سلسلن
سلسله
سلسلو
سلسلي
سلسليوار
سلطان
سلطانن
سلطانه
سلطاني
سلطنت
سلطنتن
سلفر
سلفيٽ
سلم
سلمان
سلمه
سلهاڙي
سلهاڙيل
سلهه
سلو
سلوار
سلور
سلون
سلوني
سلوواڪيا
سلوڪ
سلي
سليس
سليم
سليمان
سليماني
سليڪان
سلڪ
سلھاڙيل
سم
سما
سماء
سماج
سماجن
سماجي
سماجيات
سمارٽ
سماع
سمان
سمانن
سماني
سماي
سمايل
سماٽ
سماچار
سماڌي
سمبارا
سمجهان
سمجهاي
سمجهايو
سمجهاڻي
سمجهبو
سمجهجي
سمجهن
سمجهندا
سمجهندو
سمجهندي
سمجهه
سمجهو
سمجهون
سمجهي
سمجهيا
سمجهياي
سمجهيو
سمجهيون
سمجهڻ
سمجھ
سمجھاي
سمجھاڻي
سمجھن
سمجھندا
سمجھندو
سمجھندي
سمجھو
سمجھي
سمجھيا
سمجھيو
سمجھڻ
سمر
سمراٽ
سمرقند
سمعت
سمن
سمند
سمندر
سمنڊ
سمنڊن
سمهي
سمهڻ
سمو
سموادي
سمورا
سمورن
سمورو
سموري
سمورين
سموريون
سمون
سمي
سميت
سميجا
سميجن
سميجو
سمير
سميري
سميع
سميلن
سمپورن
سمٿ
سمڊ
سمھڻ
سمیت
سن
سناتن
سنان
سناي
سنبت
سنت
سنتن
سنجر
سنجراڻي
سنجهوري
سنجوگيتا
سنجوڳ
سنجي
سنجيده
سنجيدگي
سند
سندا
سندر
سندراڻي
سندرو
سندري
سندس
سندن
سندو
سندون
سندي
سنديس
سنديلو
سندين
سندھ
سندھی
سنز
سنس
سنسار
سنسڪرت
سنسڪرتي
سنن
سنه
سنها
سنهالي
سنهري
سنهو
سنهي
سنهين
سنهيون
سنهڙا
سنهڙو
سنهڙي
سنواري
سنواريو
سنوارڻ
سنوان
سنوت
سني
سنياسي
سنياسين
سنيما
سنٻاليندا
سنٿالن
سنڀار
سنڀال
سنڀالي
سنڀالياي
سنڀاليندا
سنڀاليندو
سنڀاليندي
سنڀاليندڙ
سنڀاليو
سنڀاليون
سنڀالڻ
سنڊي
سنڌ
سنڌالاجي
سنڌالاجيء
سنڌسلامت
سنڌن
سنڌو
سنڌوء
سنڌوديش
سنڌولاجي
سنڌوندي
سنڌونديء
سنڌي
سنڌيء
سنڌيا
سنڌيات
سنڌيانا
سنڌياڻي
سنڌيت
سنڌين
سنڌيڪا
سنڌيڪار
سنڌڙي
سنڌڙيء
سنڌڻ
سنڍ
سنڪيانگ
سنگ
سنگاپور
سنگت
سنگتي
سنگر
سنگل
سنگم
سنگمرمر
سنگهار
سنگهه
سنگهڻ
سنگيت
سنگيتڪار
سنگين
سنگھ
سنگھار
سنھا
سنھي
سنہ
سه
سهارو
سهاري
سهاسي
سهاسيء
سهاي
سهاڳ
سهتا
سهتو
سهتي
سهرا
سهراب
سهرو
سهروردي
سهرورديء
سهنج
سهولت
سهولتن
سهولتون
سهوليت
سهوليتون
سهي
سهيل
سهيڙيل
سهڪار
سهڪاري
سهڻ
سهڻا
سهڻاي
سهڻن
سهڻو
سهڻي
سهڻيون
سو
سوء
سوا
سواء
سوات
سواحلي
سواد
سوادي
سوار
سوارن
سواري
سواريء
سوال
سوالن
سوالي
سوامي
سوانح
سوانحي
سواي
سوجهرو
سوجھرو
سود
سودا
سوداوي
سوداي
سوداگر
سودو
سودي
سور
سوراخ
سوراخن
سوراشٽر
سورة
سورت
سورتن
سورتون
سورج
سورس
سورلي
سورما
سورمن
سورمو
سورمي
سورن
سورنهن
سوره
سورهن
سورهياي
سورهين
سورهيه
سوري
سوريء
سوريا
سوريه
سورٺ
سورٺا
سورٺو
سورٺي
سورھن
سورھين
سورہ
سورۃ
سوز
سوزش
سوس
سوساي
سوسيي
سوشل
سوشلزم
سوشلسٽ
سوشيالاجي
سوغات
سول
سولا
سولاي
سولجر
سولر
سولنڪي
سولنگي
سولنگيء
سولنگين
سولو
سولومن
سولي
سوليماني
سوم
سومار
سومر
سومرا
سومرن
سومره
سومرو
سومري
سومقاييت
سومل
سومناٿ
سون
سونا
سونارا
سونارن
سوناري
سونهاري
سونهري
سونهن
سونهون
سونو
سوني
سونيا
سونپي
سونپيو
سونھري
سونھن
سوهني
سوويت
سوي
سويت
سوير
سويلين
سوين
سويوز
سويڊش
سويڊن
سوٽ
سوٽي
سوڀ
سوڀارو
سوڀاري
سوڀراج
سوڀو
سوڀي
سوڄ
سوڄن
سوچ
سوچن
سوچون
سوچي
سوچيتا
سوچيو
سوچيي
سوچڻ
سوڊان
سوڌو
سوڌي
سوڍا
سوڍن
سوڍو
سوڍي
سوڙها
سوڙهو
سوڙهي
سوکڙي
سوکڙيون
سوڪ
سوگهو
سوڳ
سوڻ
سي
سيء
سياح
سياحت
سياحتي
سياحن
سيارا
سيارن
سيارو
سياري
سيارچن
سياست
سياستدان
سياستدانن
سياسي
سياسيات
سيال
سيالڪوٽ
سيام
سياه
سياچن
سياڻو
سياڻپ
سيتا
سيج
سيخ
سيخن
سيد
سيدا
سيدن
سيدنا
سيده
سيدي
سيدہ
سير
سيراب
سيرانديء
سيرت
سيرس
سيرن
سيرو
سيري
سيريز
سيريل
سيز
سيزر
سيزن
سيس
سيستان
سيسم
سيسي
سيسيء
سيشن
سيف
سيفو
سيل
سيلاب
سيلاني
سيلاي
سيلر
سيلرا
سيلرو
سيلز
سيلف
سيلون
سيلي
سيليولر
سيليوڪس
سيم
سيما
سيمسن
سيمن
سيمنٽ
سيمي
سيمينار
سيمينارن
سيمينٽ
سين
سينا
سيناي
سينو
سيني
سينيما
سينيي
سينيٽ
سينيٽر
سينيٽرن
سينيگال
سينٽ
سينٽر
سينٽرل
سينٽي
سينچري
سينچوري
سينڌ
سينگار
سينگاري
سينگاريل
سينگاريو
سينگارڻ
سيه
سيهرس
سيو
سيوا
سيوستان
سيون
سيوهاڻي
سيوهاڻيء
سيوهڻ
سيوي
سيويء
سيوڪ
سيوھڻ
سيي
سيٺ
سيٺارجا
سيٺين
سيٽ
سيٽلاي
سيٽلمينٽ
سيٽن
سيٽون
سيپٽمبر
سيڊنا
سيڙپ
سيڙپڪار
سيڙپڪاري
سيکاري
سيکاريندا
سيکاريو
سيکارڻ
سيکاٽ
سيکت
سيڪريٽري
سيڪريٽريء
سيڪريٽريٽ
سيڪس
سيڪسن
سيڪسنس
سيڪشن
سيڪنڊ
سيڪنڊري
سيڪنڊن
سيڪيورٽي
سيڪيولر
سيڪيولرازم
سيڪٽر
سيڪڙو
سيڪڙي
سيڻ
سيھڙ
سٺ
سٺا
سٺاي
سٺن
سٺو
سٺي
سٺيون
سٽ
سٽا
سٽاء
سٽاي
سٽرو
سٽريا
سٽرياي
سٽريلوي
سٽريليا
سٽريلياي
سٽريلين
سٽن
سٽو
سٽون
سٽي
سٽيل
سپ
سپاس
سپاهه
سپاهي
سپاهين
سپاھي
سپاھين
سپت
سپر
سپرد
سپرنووا
سپرنٽينڊنٽ
سپرواي
سپريم
سپرين
سپلاء
سپنا
سپه
سپهه
سپوت
سپورٽ
سپين
سپڙ
سپھ
سٿ
سٿان
سٿنيز
سٿين
سٿڻ
سڀ
سڀا
سڀاء
سڀاويڪ
سڀاڳو
سڀاڻي
سڀن
سڀني
سڀي
سڀيتا
سڀيي
سڀڪنهن
سڀڪو
سڃ
سڃا
سڃاتا
سڃاتل
سڃاتو
سڃاتي
سڃاڻ
سڃاڻي
سڃاڻپ
سڃاڻڻ
سڄا
سڄاڻ
سڄو
سڄي
سڄيء
سڄڻ
سچ
سچا
سچار
سچاي
سچل
سچن
سچو
سچي
سڊ
سڊني
سڌ
سڌا
سڌار
سڌارا
سڌارن
سڌارو
سڌاري
سڌارڪ
سڌارڻ
سڌريل
سڌن
سڌو
سڌوسني
سڌي
سڌيء
سڌين
سڌيون
سڏ
سڏاي
سڏايل
سڏايو
سڏبا
سڏبو
سڏبي
سڏبيون
سڏجن
سڏجندڙ
سڏجي
سڏجڻ
سڏراي
سڏن
سڏي
سڏيا
سڏياي
سڏين
سڏيندا
سڏيندو
سڏيندي
سڏيو
سڏڻ
سڙهه
سڙي
سڙيل
سڙڪ
سڙڻ
سک
سکر
سکمي
سکن
سکي
سکيا
سکياي
سکيو
سکڻ
سڪ
سڪا
سڪار
سڪاي
سڪايل
سڪر
سڪرنڊ
سڪل
سڪن
سڪندر
سڪندراعظم
سڪندري
سڪو
سڪون
سڪونت
سڪي
سڪيورٽي
سڪڻ
سگا
سگريٽ
سگريٽن
سگنل
سگهارو
سگهاري
سگهان
سگهبا
سگهبو
سگهبي
سگهجن
سگهجي
سگهن
سگهندا
سگهنداسين
سگهندو
سگهندي
سگهنديون
سگهه
سگهو
سگهون
سگهوي
سگهي
سگهيا
سگهيس
سگهيو
سگهيون
سگهڙ
سگهڙن
سگهڻ
سگھ
سگھاري
سگھبو
سگھجن
سگھجي
سگھن
سگھندا
سگھندو
سگھندي
سگھه
سگھو
سگھون
سگھي
سگھيا
سگھيو
سگھڙ
سگھڻ
سڱ
سڱن
سڳا
سڳن
سڳنڌ
سڳو
سڳورا
سڳورن
سڳوري
سڳي
سڻ
سڻاي
سڻي
سڻيء
سڻڀ
سھارس
سھارو
سھاسي
سھتو
سھراب
سھروردي
سھولت
سھولتن
سھولتون
سھي
سھيل
سھڪار
سھڻا
سھڻو
سھڻي
سی
سید
سیستان
سے
ش
شا
شابراڻي
شاخ
شاخن
شاخون
شاد
شاداب
شادمان
شادي
شاديء
شادين
شاديون
شادی
شارجه
شارح
شاردا
شارل
شارٽ
شارڪ
شازيه
شاستر
شاستري
شاعر
شاعرا
شاعرانه
شاعراڻو
شاعراڻي
شاعرن
شاعره
شاعري
شاعريء
شافعي
شال
شالا
شاليمار
شام
شامل
شامي
شان
شانتا
شانتي
شاندار
شاه
شاهاڻي
شاهاڻيء
شاهبندر
شاهجهان
شاهجهاني
شاهد
شاهدن
شاهدي
شاهديون
شاهراهه
شاهراھ
شاهنواز
شاهه
شاهوڪار
شاهي
شاهين
شاهپور
شاهڪار
شاهہ
شاي
شايد
شايع
شاپنگ
شاڪر
شاگرد
شاگردن
شاگردي
شاگرديء
شاگردياڻي
شاگردياڻين
شاھ
شاھاڻي
شاھبيگ
شاھجھان
شاھد
شاھراھ
شاھل
شاھنواز
شاھه
شاھو
شاھي
شاھپور
شاھڪار
شاھہ
شاہ
شب
شبد
شبلي
شبنم
شبير
شبيهه
شت
شتمل
شجاع
شجاعت
شجرة
شجره
شجرو
شجري
شخص
شخصن
شخصي
شخصيت
شخصيتن
شخصيتون
شد
شدت
شده
شديد
شدہ
شر
شراب
شرابي
شرارت
شرافت
شراڪت
شربت
شرح
شرر
شرط
شرطن
شرطون
شرعي
شرف
شرقی
شرم
شرما
شرناء
شروانشاھي
شروع
شروعات
شروعاتي
شري
شريان
شريعت
شريف
شريفين
شريمتي
شريمد
شريڪ
شرڪ
شرڪت
شریف
شطرنج
شعار
شعاع
شعاعن
شعاي
شعب
شعبا
شعبان
شعبن
شعبو
شعبي
شعر
شعراء
شعرن
شعري
شعلا
شعلن
شعلو
شعور
شعوري
شعيب
شغل
شفا
شفاف
شفق
شفقت
شفيع
شفيق
شفٽ
شق
شقون
شل
شلا
شلوار
شلوڪ
شمار
شمارا
شمارو
شماري
شماريات
شمارياتي
شمال
شمالي
شمالی
شمر
شمس
شمسي
شمشاد
شمشير
شمشيرا
شمشيرالحيدري
شمع
شمعون
شمل
شملا
شمن
شموليت
شن
شنا
شناخت
شناختي
شناس
شناسي
شناسيء
شنل
شنڪر
شنگھاي
شه
شهاب
شهادت
شهادتن
شهاڻي
شهباز
شهداد
شهدادپور
شهدادڪوٽ
شهر
شهرت
شهرستان
شهرن
شهري
شهريار
شهريت
شهرين
شهزادن
شهزادو
شهزادي
شهزاديء
شهناز
شهنشاه
شهنشاهت
شهنشاهه
شهنشاھ
شهه
شهيد
شهيدن
شو
شوال
شوب
شوبز
شودر
شور
شورا
شورش
شورو
شوري
شوز
شوق
شوقين
شولداس
شوما
شون
شوي
شوٽنگ
شوڪت
شي
شيء
شيام
شيبان
شيخ
شيخاڻي
شيخن
شيخوپوره
شيداي
شيدي
شيدين
شير
شيراز
شيرازي
شيرازيء
شيرافگن
شيرواني
شيرين
شيشا
شيشم
شيشن
شيشو
شيشي
شيطان
شيطاني
شيعا
شيعن
شيعه
شيعہ
شيل
شيلا
شيلڊ
شيلڊون
شين
شينا
شينهن
شينھن
شيهي
شيو
شيوا
شيواجي
شيوارام
شيون
شيي
شيٽ
شيڊ
شيڊول
شيکلي
شيڪسپيي
شپ
شپنگ
شڌ
شڌي
شکار
شکست
شڪ
شڪار
شڪارا
شڪاري
شڪارين
شڪارپور
شڪارپوري
شڪارگاھ
شڪايت
شڪايتون
شڪاگو
شڪتي
شڪر
شڪرالله
شڪست
شڪستون
شڪل
شڪلن
شڪلين
شڪليون
شڪن
شڪنتلا
شڪوه
شڪي
شڪيل
شگاهه
شگر
شگفته
شڳر
شھاب
شھابا
شھابن
شھابو
شھابي
شھابيا
شھادت
شھباز
شھتيرن
شھداد
شھدادپور
شھدادڪوٽ
شھر
شھرت
شھرستان
شھرن
شھري
شھريار
شھريت
شھرين
شھزادو
شھزادي
شھنشاھ
شھنشاھيت
شھيد
شھيدن
شہ
شہر
شیخ
شیخوپورہ
شیعہ
ص
صابر
صابري
صابو
صابڻ
صاحب
صاحبان
صاحبزادو
صاحبزادي
صاحبسنگهه
صاحبن
صاحبه
صاحبي
صاحبيء
صاحبڏنو
صاحبہ
صادر
صادق
صارفن
صارفين
صاف
صالح
صاي
صبح
صبر
صبغت
صحابه
صحابي
صحابين
صحارا
صحافت
صحافتي
صحافي
صحافيء
صحافين
صحبت
صحبتي
صحت
صحتمند
صحتياب
صحرا
صحراي
صحن
صحي
صحيح
صحيحون
صحيفن
صحيون
صد
صدا
صدارت
صدارتي
صداقت
صدام
صداي
صداڪار
صدر
صدرالدين
صدرمقام
صدف
صدقو
صدقي
صدمو
صدمي
صدي
صديء
صديق
صديقي
صديقيء
صدين
صديون
صدی
صرف
صغير
صف
صفا
صفات
صفاتي
صفاري
صفاي
صفت
صفتن
صفتون
صفحا
صفحن
صفحه
صفحو
صفحي
صفحہ
صفدر
صفر
صفرا
صفراوي
صفن
صفه
صفوي
صفي
صفيه
صلاة
صلاح
صلاحون
صلاحيت
صلاحيتن
صلاحيتون
صلاحڪار
صلاحڪارن
صلح
صلعم
صلواة
صلى
صلي
صليب
صليبي
صلی
صندل
صندوق
صنعان
صنعت
صنعتن
صنعتون
صنعتي
صنعتڪار
صنعتڪاري
صنف
صنفن
صنفون
صنفي
صنم
صه
صوابي
صوبا
صوباي
صوبدار
صوبن
صوبو
صوبي
صوبيدار
صوبيداري
صوتي
صوتيات
صوتيو
صورت
صورتحال
صورتخطي
صورتخطيء
صورتن
صورتون
صوف
صوفن
صوفي
صوفيء
صوفيا
صوفياء
صوفيانه
صوفياڻي
صوفين
صول
صومالي
صوماليا
صوماليه
صيحت
صہ
ض
ضابطا
ضابطن
ضابطو
ضابطي
ضامن
ضايع
ضبط
ضخيم
ضد
ضرب
ضربخاني
ضرور
ضرورت
ضرورتن
ضرورتون
ضروري
ضعف
ضعيف
ضلع
ضلعا
ضلعن
ضلعو
ضلعي
ضم
ضمانت
ضمني
ضمير
ضميري
ضميمي
ضيا
ضياء
ضياءين
ط
طابق
طارق
طاري
طاس
طاقت
طاقتن
طاقتور
طاقتون
طالب
طالبان
طالبن
طاهر
طاهره
طاهري
طاي
طاھر
طب
طباعت
طبري
طبع
طبعزاد
طبعي
طبعيات
طبعيت
طبقا
طبقات
طبقاتي
طبقن
طبقو
طبقي
طبلو
طبلي
طبي
طبيب
طبيبن
طبيعت
طبيعيات
طرح
طرحين
طرز
طرف
طرفان
طرفدار
طرفن
طرفو
طرفي
طرفين
طريقا
طريقت
طريقن
طريقه
طريقو
طريقي
طريقيڪار
طريل
طعام
طفيل
طلاق
طلب
طنز
طنزيه
طهر
طو
طواف
طواي
طور
طورتي
طوس
طوسي
طوطا
طوطو
طوطي
طوفان
طوفانن
طوفاني
طوق
طول
طولون
طويل
طوھر
طي
طيب
طيبه
طيفور
ظ
ظالم
ظالمن
ظاهر
ظاهري
ظاھر
ظاھري
ظرافت
ظرف
ظريف
ظفر
ظلم
ظلمن
ظهور
ظهير
ظهيرالدين
ظھور
ع
عا
عابد
عابده
عاج
عاجز
عاجزي
عادت
عادتن
عادتون
عادل
عادي
عارب
عارباڻي
عارضي
عارف
عاشق
عاشقن
عاصم
عاصمه
عافيت
عاقل
عال
عالم
عالمانه
عالماڻي
عالمن
عالمي
عالمگير
عالمگيري
عالي
عاليشان
عاليه
عاليہ
عام
عامر
عامل
عاملن
عاي
عباد
عبادت
عبادتن
عبادتگاهن
عبادتگاهه
عبارت
عباس
عباسي
عباسيء
عباسين
عباسيه
عبد
عبدالباقي
عبدالجبار
عبدالجليل
عبدالحسين
عبدالحفيظ
عبدالحق
عبدالحليم
عبدالحميد
عبدالحي
عبدالحڪيم
عبدالخالق
عبدالرحم
عبدالرحمان
عبدالرحيم
عبدالرزاق
عبدالرسول
عبدالرشيد
عبدالرو
عبدالستار
عبدالسلام
عبدالسميع
عبدالصمد
عبدالطيف
عبدالعزيز
عبدالعلي
عبدالغفار
عبدالغفور
عبدالغني
عبدالفتاح
عبدالقادر
عبدالقدير
عبدالقدیر
عبدالقيوم
عبداللطيف
عبدالله
عبداللہ
عبدالماجد
عبدالمجيد
عبدالمطلب
عبدالملڪ
عبدالمناف
عبدالناصر
عبدالنبي
عبدالنبيء
عبدالهادي
عبدالواحد
عبدالوحيد
عبدالوهاب
عبدالوھاب
عبدالڪريم
عبدي
عبراني
عبرت
عبور
عبوري
عبيد
عبيدالله
عتاب
عتبي
عتيق
عتڪي
عثمان
عثماني
عثمانين
عثمانيه
عجاي
عجب
عجم
عجمي
عجيب
عدالت
عدالتن
عدالتون
عدالتي
عدد
عددن
عددي
عدل
عدليه
عدم
عدن
عدنان
عدي
عذاب
عذر
عذرا
عراب
عرار
عراق
عراقي
عرب
عربستان
عربن
عربي
عربيء
عربيه
عربی
عرس
عرساڻي
عرساڻيء
عرش
عرصو
عرصي
عرض
عرضداشت
عرضي
عرف
عرفات
عرفان
عرق
عروج
عروض
عروضي
عزاداري
عزت
عزتي
عزم
عزير
عزيز
عزيزالله
عزيزن
عزيزي
عزيمت
عسڪري
عشاء
عشرت
عشري
عشق
عشقي
عشقيه
عشقيہ
عصر
عصمت
عضوا
عضون
عضوو
عضوي
عطا
عطاء
عطار
عطارد
عطر
عطيلا
عطيو
عظمت
عظمي
عظيم
عظیم
عـ
عفان
عقاب
عقاي
عقبه
عقل
عقلمند
عقلي
عقليت
عقيدا
عقيدت
عقيدتمند
عقيدتمندن
عقيدن
عقيدو
عقيدي
عقيق
عقيل
عقيلي
علاء
علاج
علاقاي
علاقو
علاقي
علامات
علامت
علامتن
علامتون
علامتي
علامه
علامہ
علاو
علاوالدين
علاوه
علاوھ
علاوہ
علاي
علت
علحده
علحدگي
علم
علماء
علماي
علمبردار
علمن
علمي
علميت
علوم
علوي
على
علي
عليء
عليحده
عليحدگي
عليشا
عليم
عليه
عليي
علييف
عليگ
عليڳڙهه
عليھ
عليہ
علڻ
علی
علیہ
عم
عماد
عمار
عمارت
عمارتن
عمارتون
عمارتي
عمان
عمدا
عمدن
عمدو
عمدي
عمر
عمران
عمراڻي
عمرو
عمري
عمرڪوٽ
عمل
عملدار
عملدارن
عملداري
عملدرا
عملن
عملو
عملي
عمليء
عمودي
عموما
عمومي
عميق
عن
عنات
عنايت
عنبر
عنبسا
عنبسه
عنصر
عنصرن
عنه
عنوان
عنوانن
عنہ
عه
عهد
عهدا
عهدن
عهدنامه
عهدنامو
عهدنامي
عهدو
عهدي
عهديدار
عهديدارن
عوام
عوامي
عوانا
عود
عورت
عورتاڻي
عورتن
عورتون
عوف
عيال
عيب
عيد
عيدالفطر
عيدن
عيدي
عيدگاهه
عيدگاھ
عيسا
عيساي
عيساڻي
عيسب
عيسو
عيسوي
عيسويء
عيسى
عيسي
عيش
عين
عينيه
عينيہ
عينڪ
عيوض
عيوضي
عڪاسي
عڪس
عڪسل
عھد
عھدن
عھدنامي
عھدو
عھدي
عہد
عیسی
غ
غا
غار
غارن
غارون
غاز
غازي
غازين
غازی
غافل
غالب
غالبا
غاليچا
غاي
غت
غدار
غداري
غدر
غدود
غدودن
غذا
غذاي
غربت
غرض
غرق
غرور
غريب
غريبن
غزالي
غزل
غزلن
غزنوي
غزنويء
غزني
غزنيء
غزه
غزوه
غزوہ
غزہ
غسان
غسل
غصي
غضنفر
غفار
غفاري
غفلت
غلام
غلامن
غلامي
غلاميء
غلبو
غلبي
غلط
غلطي
غلطيء
غلطين
غلطيون
غليظ
غم
غمگين
غني
غنيمت
غوث
غور
غوري
غياث
غيب
غيبي
غير
غيرا
غيرت
غيرجانبدار
غيرسرڪاري
غيرقانوني
غيرمعروف
غيرمعمولي
غيرملڪي
غيزر
غیر
ـ
ـر
ـس
ــ
ـــ
ـل
ـن
ـو
ـي
ف
فا
فاتح
فاتحن
فاتحه
فادر
فار
فارس
فارسي
فارسيء
فارغ
فارم
فارمن
فارمولا
فارمولو
فارميسي
فارميٽ
فارن
فارنهاي
فاروق
فاروقي
فارين
فاسفورس
فاسفيٽ
فاسق
فاسو
فاسٽ
فاصلا
فاصلو
فاصلي
فاضل
فاضلن
فاطمه
فاطمي
فاطمہ
فاعل
فاق
فاقي
فاقڀياس
فال
فالتو
فالج
فالـج
فام
فان
فانوس
فاني
فانٽ
فاي
فاٽا
فبروري
فبروريء
فت
فتاب
فتاوي
فتح
فتحن
فتحون
فتن
فتني
فتو
فتوا
فتواي
فتوح
فتوحات
فتوي
فجر
فجي
فحش
فخر
فخرالدين
فدا
فداي
فرات
فرار
فراز
فراق
فرام
فرانز
فرانس
فرانسس
فرانسسڪو
فرانسي
فرانسيسي
فراهم
فراهمي
فراواني
فراي
فراھم
فرج
فرحان
فرحت
فرخ
فرخي
فرد
فردن
فردوس
فردوسي
فردوسيء
فرزانه
فرزند
فرزندن
فرسوده
فرسٽ
فرش
فرشبندي
فرشتن
فرشته
فرشتو
فرشتي
فرشن
فرض
فرضن
فرضي
فرعون
فرق
فرقا
فرقن
فرقو
فرقي
فرقيوار
فرقيواريت
فرم
فرمان
فرمانبردار
فرمانبرداري
فرمانروا
فرماي
فرماياي
فرمايو
فرنيچر
فرنٽ
فرنٽيي
فرنچاي
فرنگي
فرهاد
فرهنگ
فروخت
فروش
فروشي
فروغ
فروٽ
فري
فرياد
فريادي
فريال
فريب
فريد
فريدا
فريده
فريدون
فريدي
فريسڪو
فريقا
فريقي
فريلانس
فريم
فرين
فرينچ
فرينڊن
فرينڪ
فرينڪلن
فريي
فريڊرڪ
فريڊم
فريڪا
فريڪن
فريڪوي
فريڪي
فرھنگ
فزيڪل
فزڪس
فس
فسا
فساد
فسادن
فسادي
فسادين
فش
فشان
فشر
فشريز
فصاحت
فصل
فصلن
فصيح
فضا
فضاي
فضل
فضلي
فضول
فضيلت
فطرت
فطرتي
فطري
فعال
فعل
فعلن
فق
فقدان
فقر
فقراه
فقرن
فقرو
فقري
فقط
فقه
فقهه
فقهي
فقير
فقيراڻي
فقيرن
فقيري
فقيه
فقيھن
فقہ
فل
فلاء
فلابرٽ
فلاح
فلاحي
فلاسافر
فلاسافرن
فلاسافي
فلاسافيء
فلاي
فلاڻو
فلاڻي
فلحال
فلس
فلسطين
فلسطيني
فلسفو
فلسفي
فلسفيانه
فلسفياڻي
فلسفين
فلم
فلمايو
فلمساز
فلمن
فلمنڱگو
فلمون
فلمي
فلو
فلور
فلوريڊا
فلوٽيلا
فليگ
فلپ
فلپاي
فلڪ
فلڪي
فلڪيات
فلڪياتي
فن
فنا
فنانس
فندي
فنديء
فنن
فنون
فني
فنڊ
فنڪار
فنڪارن
فنڪاره
فنڪشن
فنڪشنل
فنگاء
فنگس
فهد
فهرست
فهرستون
فهم
فهمي
فهميده
فهيم
فو
فواي
فوبس
فوبوس
فوت
فوتين
فوج
فوجداري
فوجن
فوجون
فوجي
فوجين
فور
فورا
فوربز
فورس
فورسز
فورم
فورن
فوري
فورٽ
فورڊ
فوزيه
فوقيت
فولاد
فولادي
فون
فونٽ
فوٽ
فوٽان
فوٽن
فوٽو
فوڊ
فوڪ
في
فياض
فياضي
فيبروري
فيبروريء
فيروز
فيروزي
فيري
فيز
فيس
فيسر
فيسرن
فيسن
فيسون
فيسٽيول
فيشل
فيشن
فيصد
فيصل
فيصلا
فيصلاي
فيصلن
فيصلو
فيصلي
فيض
فيضياب
فيلسوف
فيلو
فيلوشپ
فيلڊ
فيلڊس
فيلڊنگ
فيلڪس
فيم
فيملي
فيميل
فيمينسٽ
فين
فينڪس
فيوجن
فيور
فيوزن
فيي
فيچر
فيڊ
فيڊر
فيڊرل
فيڊريشن
فيڊريٽيڊ
فيڪلٽي
فيڪٽري
فيڪٽرين
فيڪٽريون
فيڪٽس
فيڪٽو
فٽ
فٽبال
فٽن
فڪ
فڪر
فڪري
فڪشن
فگار
فھرست
فھم
فی
فیصلہ
ق
قا
قابض
قابل
قابلي
قابليت
قابو
قاتل
قاتلاڻي
قاتلن
قادر
قادربخش
قادري
قادريء
قادريه
قادرپور
قادن
قاري
قازقستان
قاسم
قاسمي
قاصد
قاصر
قاض
قاضن
قاضي
قاضيء
قاضين
قاعدا
قاعدن
قاعدو
قاعدي
قاف
قافلا
قافلن
قافلو
قافلي
قافي
قافين
قافيه
قافيو
قافيي
قافيہ
قال
قالين
قام
قانع
قانون
قانوندان
قانونساز
قانونسازي
قانونن
قانوني
قاهره
قاي
قاھرہ
قبا
قباد
قباي
قباچه
قباچو
قباچي
قبر
قبرستان
قبرص
قبرن
قبرون
قبض
قبضا
قبضن
قبضو
قبضي
قبل
قبلا
قبلاي
قبله
قبلو
قبلي
قبن
قبو
قبول
قبولي
قبوليت
قبوليو
قبي
قبيلا
قبيلاي
قبيلن
قبيلو
قبيلي
قت
قتال
قتل
قتلام
قتلغ
قتلن
قجر
قحط
قد
قدامت
قدر
قدرت
قدرتي
قدردان
قدرداني
قدرن
قدري
قدس
قدم
قدمن
قدمي
قدوسي
قديم
قديمه
قديمي
قديمہ
قدیم
قذافي
قرا
قرابتي
قرار
قرارداد
قراقرم
قرامطي
قران
قرب
قربان
قرباني
قربانيء
قربانيون
قربت
قرة
قرر
قرض
قرضن
قرضي
قرمزي
قرني
قرون
قريب
قريبن
قريبي
قريش
قريشي
قريشيء
قريظه
قزاخستان
قزاق
قزاقستان
قزلباش
قزوين
قسط
قسطن
قسطنطنيه
قسم
قسمت
قسمن
قسمين
قصا
قصاص
قصبو
قصبہ
قصر
قصن
قصه
قصو
قصور
قصوري
قصي
قصيدا
قصيده
قصيدو
قصيدي
قضا
قطار
قطارن
قطارون
قطاري
قطب
قطبي
قطر
قطري
قطريا
قطع
قطعا
قطعه
قطعو
قطعي
قفقاز
قلات
قلب
قلبي
قلت
قلعا
قلعن
قلعه
قلعو
قلعي
قلعہ
قلم
قلمبند
قلمدان
قلمن
قلمي
قلندر
قلندرز
قلندري
قلي
قليچ
قم
قمبر
قمبراڻي
قمر
قمري
قميص
قن
قناعت
قنبر
قنبراڻي
قندابيل
قندھار
قنوج
قنڌار
قنڌاري
قهر
قو
قواعد
قوال
قوالي
قوت
قوتن
قوتون
قوس
قول
قولنج
قوم
قومن
قومون
قومي
قوميت
قومپرست
قومپرستن
قومپرستي
قومپرستيء
قونصل
قوي
قي
قيادت
قياس
قيام
قيامت
قيد
قيدخاني
قيدي
قيدين
قيس
قيصر
قيمت
قيمتن
قيمتون
قيمتي
قيوم
قیام
ك
ل
لا
لاء
لابي
لات
لاتعداد
لاتو
لاثاني
لاج
لاجواب
لاحق
لادن
لارنس
لاروا
لاري
لارڊ
لازم
لازمي
لازوال
لاس
لاسي
لاش
لاشاري
لاشاريء
لاشارين
لاشعور
لاشن
لاطيني
لافاني
لال
لالا
لالو
لالواڻي
لالٽين
لالچ
لالچند
لام
لامحدود
لامڪان
لان
لانس
لاني
لانچ
لانچر
لانڍي
لانڍين
لانگ
لانگاهه
لانگاھ
لانگيٽيوڊ
لاه
لاهري
لاهن
لاهه
لاهوت
لاهوتي
لاهور
لاهوري
لاهي
لاهين
لاهيندا
لاهيندو
لاهيندي
لاهڻ
لاوا
لاي
لاٽ
لاپ
لاپته
لاٿ
لاٿو
لاٿي
لاڀ
لاڀاي
لاچار
لاڏ
لاڏا
لاڏاي
لاڏاڻو
لاڏاڻي
لاڏو
لاڏي
لاڏيء
لاڙ
لاڙا
لاڙن
لاڙو
لاڙي
لاڙڪ
لاڙڪاڻو
لاڙڪاڻي
لاک
لاکا
لاکاٽ
لاکن
لاکو
لاکي
لاکير
لاکين
لاڪ
لاگ
لاڳ
لاڳاتار
لاڳاپا
لاڳاپجي
لاڳاپن
لاڳاپو
لاڳاپي
لاڳاپيل
لاڳت
لاڳتن
لاڳو
لاڳيتا
لاڳيتو
لاڳيتي
لاڻي
لاھ
لاھور
لاھوري
لاھي
لاھڻ
لاہور
لب
لباس
لبرل
لبريشن
لبم
لبنان
لبناني
لبه
لبيا
لت
لتا
لتاڙ
لتاڙي
لجبرا
لجھاي
لحاظ
لد
لداخ
لداس
لذت
لذيذ
لر
لري
لز
لزبن
لس
لسا
لسان
لساني
لسانيات
لسانياتي
لسو
لسي
لسيء
لسٻيلو
لسٻيلي
لسٽ
لشم
لشيم
لشڪر
لشڪرن
لشڪري
لشڪرين
لطف
لطيف
لطيفه
لطيفي
لطيفيات
لعاب
لعل
لعلچند
لعنت
لغات
لغاري
لغاريء
لغارين
لغت
لغتن
لغوي
لف
لفط
لفظ
لفظن
لفظي
لفٽ
لق
لقاء
لقب
لقبن
لقمان
لقوي
لله
لليت
للڪار
لم
لمحن
لمحي
لميٽيڊ
لميٽڊ
لن
لند
لندي
لنواري
لنواي
لنڊ
لنڊن
لنڊي
لنڪ
لنڪا
لنڪس
لنڪن
لنڪيش
لنگ
لنگر
لنگهاي
لنگهندي
لنگهه
لنگهي
لنگهيو
لنگهڻ
لنگي
لنگھ
لنگھي
له
لهاڻا
لهجا
لهجن
لهجو
لهجي
لهر
لهراي
لهرن
لهرون
لهري
لهن
لهندا
لهندو
لهندي
لهه
لهو
لهي
لهڻ
لهڻو
لو
لواري
لوث
لودگي
لورالاي
لوط
لوقا
لولاي
لولو
لولي
لومڙ
لون
لونگ
لونگي
لوه
لوهار
لوهاڻا
لوهاڻو
لوهاڻي
لوهر
لوهري
لوهه
لوهي
لوي
لوٽا
لوٽو
لوڀ
لوچي
لوڊ
لوڌي
لوڌيء
لوڏي
لوڙهن
لوڙهو
لوڙهي
لوڙھ
لوڪ
لوڪل
لوڪلبورڊ
لوڪن
لوگو
لوڻ
لوڻياٺي
لوھ
لوھار
لوھھ
لي
ليء
ليا
ليار
لياري
لياقت
ليب
ليبارٽري
ليبر
ليبيا
ليتي
ليتيء
ليث
ليجسليٽو
ليجنڊ
ليجيي
ليري
ليز
ليزر
ليس
ليف
ليفورنيا
ليفٽيننٽ
ليل
ليلا
ليلارام
ليلى
ليلي
ليما
ليمن
ليمو
ليمون
ليمي
لين
لينج
لينس
لينن
لينڊ
لينڊر
لينڊز
لينڪس
لينگويج
لينگي
ليو
ليور
ليول
ليون
ليي
ليٽ
ليٽر
ليٽرس
ليٽويا
ليٽوياي
ليٽي
ليپ
ليٿو
ليڊر
ليڊرن
ليڊي
ليڊيز
ليک
ليکبا
ليکبو
ليکبي
ليکجن
ليکجي
ليکراج
ليکن
ليکو
ليکي
ليکيا
ليکيو
ليکڪ
ليکڪا
ليکڪن
ليکڪه
ليڪ
ليڪا
ليڪس
ليڪن
ليڪو
ليڪون
ليڪچر
ليڪچرار
ليڪچرر
ليگ
ليگي
لٺ
لٽ
لٽجي
لٽر
لٽرري
لٽريچر
لٽل
لٽي
لٽين
لٽيو
لپري
لپور
لپي
لپيء
لپين
لپيٽ
لٿا
لٿل
لٿو
لٿوينيا
لٿوينياي
لٿي
لڀ
لڀي
لڄ
لچڪ
لچڪدار
لڇمڻ
لڇڻ
لڊ
لڌا
لڌل
لڌو
لڌي
لڌيون
لڏ
لڏاي
لڏي
لڏپلاڻ
لڏڻ
لڙاي
لڙاين
لڙايون
لڙهي
لڙي
لڙيو
لڙڪ
لڙڪي
لڙھ
لک
لکان
لکاي
لکبو
لکت
لکتن
لکتون
لکجي
لکجڻ
لکراي
لکرايو
لکمير
لکن
لکندا
لکندو
لکندي
لکندڙ
لکندڙن
لکنو
لکنوء
لکني
لکو
لکي
لکيء
لکيا
لکياي
لکيت
لکيل
لکين
لکيو
لکيون
لکٽيا
لکپت
لکپڙهه
لکڻ
لکڻي
لکڻيء
لکڻين
لکڻيون
لڪ
لڪاي
لڪسمبرگ
لڪشمي
لڪل
لڪن
لڪو
لڪي
لڪيء
لڪياري
لڪير
لڪيرن
لڪيل
لڪٽنسٽاي
لڪڻ
لگي
لڳ
لڳا
لڳاء
لڳاتار
لڳاي
لڳايا
لڳايل
لڳايو
لڳايون
لڳراي
لڳس
لڳل
لڳن
لڳندا
لڳندو
لڳندي
لڳنديون
لڳندڙ
لڳو
لڳولڳ
لڳي
لڳيون
لڳڀڳ
لڳڻ
لڻ
لھ
لھجا
لھجو
لھجي
لھر
لھرن
لھرون
لھندا
لھي
لھڻ
لہ
لیا
لیکن
لیے
م
ما
ماء
مابعد
مات
ماتا
ماتحت
ماتحتي
ماتر
ماترا
ماتراي
ماتلي
ماتم
ماتمي
ماجد
ماجسٽريٽ
ماحول
ماحوليات
ماحولياتي
ماخذ
ماخذن
ماد
مادا
مادام
مادر
مادري
مادن
ماده
مادو
مادي
ماديء
ماديت
مار
مارا
ماراي
مارايو
ماربل
مارجي
مارجڻ
مارس
مارشل
مارشلا
مارفاڻي
مارن
مارننگ
مارو
مارواڙ
مارواڙي
ماروي
ماري
ماريا
ماريطانيہ
ماريندا
ماريندو
ماريندڙ
ماريو
مارٽ
مارٽر
مارٽن
مارچ
مارڪ
مارڪس
مارڪسزم
مارڪسي
مارڪو
مارڪي
مارڪيٽ
مارڪيٽن
مارڪيٽنگ
مارگريٽ
مارڻ
ماس
ماسا
ماسات
ماستر
ماستري
ماسن
ماسي
ماسٽر
ماسٽرز
ماسٽرس
ماسڪو
ماض
ماضي
ماضيء
مافوق
مال
مالا
مالابار
مالامال
مالاي
مالاڪنڊ
مالدار
مالدووا
مالديپ
مالش
مالها
مالهي
مالهيء
مالوا
مالوند
مالوه
مالي
ماليات
مالياتي
ماليت
ماليخوليا
ماليڪيول
ماليڪيولن
ماليڪيولي
مالٽا
مالڪ
مالڪن
مالڪي
مام
ماما
مامتورا
مامرن
مامرو
مامري
مامو
مامور
مامون
مامي
مان
مانجهند
مانجهي
مانجھند
مانس
مانسهره
مانوس
ماني
مانيء
مانيٽر
مانيٽرنگ
مانچسٽر
مانگر
مانگهه
ماه
ماهتاب
ماهر
ماهرن
ماهه
ماهوار
ماهي
ماهيگير
ماهيگيرن
ماي
مايا
مايو
مايوس
مايوسي
مايون
مايي
ماٹھن
ماٹھو
ماٺ
ماپ
ماپا
ماپن
ماپو
ماپي
ماپيل
ماپڻ
ماٿر
ماٿري
ماٿريء
ماٿرين
ماٿيلو
ماٿيلي
ماڃر
ماچيس
ماڇي
ماڇين
ماڊرن
ماڊل
ماڊلنگ
ماڊيول
ماڏڻ
ماڑی
ماڙ
ماڙي
ماڙين
ماڙيون
ماکي
ماکيء
ماڪ
ماڪوڙو
ماڪڙ
ماڱر
ماڳ
ماڳن
ماڻ
ماڻهن
ماڻهو
ماڻهوء
ماڻهون
ماڻي
ماڻيا
ماڻياي
ماڻيل
ماڻيندڙ
ماڻيو
ماڻيون
ماڻڪ
ماڻڪاڻي
ماڻڪي
ماڻڪٽارو
ماڻڪٽاري
ماڻڻ
ماڻھن
ماڻھو
ماڻھوء
ماھر
ماھرن
ماھرين
ماھوار
ماھي
ماھيگيري
مباحثا
مباحثي
مبارک
مبارڪ
مبارڪباد
مبارڪون
مبتلا
مبر
مبرج
مبرڪ
مبشر
مبصر
مبصرن
مبلغ
مبني
مبين
مبينا
مت
متا
متاثر
متاثرن
متاثرين
متارا
متارو
متاع
متان
متبادل
متحد
متحدا
متحده
متحدہ
متحرڪ
متر
مترادف
مترجم
متروڪ
متضاد
متعارف
متعدد
متعدي
متعلق
متعين
متفق
متفقه
متقي
متل
متن
متناسب
متو
متوازن
متوازي
متوجه
متوجهه
متوفي
متوقع
متولي
متوليء
متوڪل
متي
متڀيد
متڪلم
مثال
مثالن
مثالي
مثاني
مثبت
مثقال
مثل
مثلا
مثمن
مثنوي
مثنويء
مثنويون
مجاز
مجازي
مجال
مجاهد
مجاهدن
مجاهدين
مجاور
مجاھد
مجاھدن
مجبور
مجبورن
مجبوري
مجبورين
مجتبي
مجدد
مجددي
مجذوب
مجرب
مجرد
مجرم
مجروح
مجسما
مجسمو
مجسمي
مجلس
مجلسن
مجلسون
مجمدار
مجمع
مجموعا
مجموعن
مجموعه
مجموعو
مجموعي
مجنون
مجيب
مجيد
مجيدي
محاذ
محاذن
محاصرو
محاصري
محافظ
محال
محاورا
محاورن
محاورو
محاوري
محب
محبت
محبتي
محبوب
محبوبا
محبوبن
محتاج
محتاجن
محتاط
محترم
محترمه
محترمہ
محدث
محدود
محراب
محرابن
محرابپور
محرم
محروم
محرومي
محرڪ
محزون
محسن
محسود
محسوس
محصول
محصولن
محض
محفل
محفلن
محفلون
محفوظ
محقق
محققن
محل
محلا
محلات
محلن
محله
محلو
محلي
محلہ
محمد
محمدباقي
محمدن
محمدي
محمود
محنت
محنتن
محنتي
محو
محور
محي
محيط
محڪم
محڪمي
محڪوم
مخاطب
مخالف
مخالفت
مخالفن
مختار
مختصر
مختصرن
مختلف
مختيار
مختيارڪار
مخدوم
مخزن
مخزنن
مخصوص
مخفف
مخفي
مخلتف
مخلص
مخلوط
مخلوق
مخمور
مد
مدات
مداح
مداحون
مداخلت
مدار
مداري
مدافعت
مدامي
مداي
مدبر
مدت
مدح
مدد
مددگار
مدر
مدراس
مدرس
مدرسا
مدرسة
مدرسته
مدرسن
مدرسه
مدرسو
مدرسي
مدرسہ
مدرفت
مدفن
مدفون
مدن
مدنظر
مدني
مدنيء
مدنيت
مدهوش
مدو
مدورفت
مدي
مدير
مدينه
مدينو
مديني
مدیر
مذاق
مذاڪرات
مذمت
مذهب
مذهبن
مذهبي
مذڪر
مذڪور
مذڪوره
مذھب
مذھبن
مذھبي
مر
مرا
مراد
مرادو
مرادي
مرادياب
مرادين
مراعتون
مراقبي
مران
مراٺي
مراڪش
مربع
مربو
مربوط
مربي
مرتب
مرتبو
مرتبي
مرتضي
مرثيا
مرثين
مرثيه
مرثيو
مرحلا
مرحلن
مرحلو
مرحلي
مرحوم
مرد
مردار
مردان
مردانو
مرداڻي
مردم
مردن
مرده
مرزا
مرزاپور
مرشد
مرشدن
مرض
مرضن
مرضي
مرضيء
مرلي
مرمت
مرمر
مرن
مرندا
مرندو
مرندي
مره
مرهم
مرهٺي
مرهٽن
مرهٽي
مرو
مروان
مروت
مروج
مرودشت
مروه
مري
مريء
مريت
مريخ
مريد
مريدن
مريدي
مريض
مريضن
مريضه
مريم
مرين
مريڪا
مريڪن
مريڪي
مريڪين
مرچ
مرچن
مرکنڊ
مرڪ
مرڪب
مرڪبن
مرڪري
مرڪز
مرڪزن
مرڪزي
مرڪزيت
مرڪوز
مرڪي
مرگهي
مرڻ
مز
مزاج
مزاجن
مزاح
مزاحمت
مزاحمتي
مزاحيا
مزاحيه
مزاحيہ
مزار
مزارن
مزارون
مزاري
مزدور
مزدورن
مزدوري
مزدڪ
مزمان
مزو
مزور
مزورن
مزوري
مزي
مزيد
مزيدار
مس
مسافر
مسافرن
مسافري
مسافريء
مسالو
مسالي
مساوات
مساواتن
مساوي
مساي
مست
مستاني
مستحب
مستحق
مستحڪم
مستري
مستطيل
مستعمل
مستفيد
مستقبل
مستقل
مستند
مستونگ
مستوي
مستي
مستيء
مسجد
مسجدن
مسجدون
مسخرو
مسدس
مسرت
مسرور
مسز
مسعود
مسعودي
مسقط
مسلح
مسلسل
مسلط
مسلم
مسلمان
مسلمانن
مسلني
مسلڪ
مسند
مسنون
مسو
مسواڙ
مسودن
مسودو
مسودي
مسي
مسيح
مسيحي
مسيحيت
مسٽر
مسڪن
مسڪين
مسڪينن
مسڻ
مسیح
مشابهت
مشابھت
مشارڪ
مشاعرا
مشاعرن
مشاعرو
مشاعري
مشاهدا
مشاهدن
مشاهدو
مشاهدي
مشاهير
مشاورت
مشاورتي
مشاي
مشاھدن
مشاھدو
مشاھدي
مشتاق
مشتري
مشترڪ
مشترڪه
مشتق
مشتمل
مشرف
مشرق
مشرقي
مشروب
مشروط
مشرڪ
مشرڪن
مشعل
مشغلو
مشغول
مشق
مشقت
مشقون
مشن
مشنري
مشهد
مشهور
مشهوري
مشورا
مشورو
مشوري
مشير
مشين
مشينري
مشينن
مشينون
مشيني
مشڪ
مشڪل
مشڪلات
مشڪلاتن
مشڪلاتون
مشڪن
مشڪور
مشڪون
مشھد
مشھور
مشھوري
مصالح
مصالحن
مصالحو
مصالحي
مصباح
مصدر
مصر
مصرع
مصرعن
مصرعون
مصروف
مصروفيت
مصري
مصرين
مصطفى
مصطفي
مصعب
مصلحت
مصنف
مصنفن
مصنوعات
مصنوعي
مصور
مصوري
مصوريء
مصيبت
مصيبتن
مضبوط
مضبوطي
مضبوطيء
مضمون
مضمونن
مطابق
مطابقت
مطالبا
مطالبن
مطالبو
مطالبي
مطالع
مطالعو
مطالعي
مطبع
مطلب
مطلع
مطلق
مطمي
مطيع
مظاهرا
مظاهرن
مظاهرو
مظاهري
مظاهرين
مظاھرا
مظاھرو
مظبوط
مظفر
مظلوم
مظهر
مظھر
مع
معاذ
معاش
معاشرتي
معاشرن
معاشرو
معاشري
معاشي
معاشيات
معاف
معافي
معافيء
معاملا
معاملات
معاملن
معاملو
معاملي
معاهدا
معاهدن
معاهدو
معاهدي
معاوضو
معاوضي
معاون
معاويه
معاي
معاھدا
معاھدن
معاھدو
معاھدي
معبود
معتبر
معتدل
معتصم
معتقد
معتقدن
معتمد
معجزا
معجزن
معجزو
معدني
معدنيات
معدو
معدي
معذرت
معذور
معذوري
معراج
معرفت
معروضي
معروف
معرڪي
معز
معزالدين
معزز
معزول
معشر
معشوق
معصوم
معصومي
معطل
معظم
معظمه
معقول
معلم
معلوم
معلومات
معلوماتي
معمار
معمور
معمول
معمولي
معنا
معناي
معنوي
معنى
معني
معنی
معيار
معيارن
معياري
معيد
معيشت
معيشيت
معين
مغرب
مغربي
مغز
مغل
مغلن
مغليه
مغيره
مغيري
مـ
مــ
مفاد
مفادن
مفاصلو
مفاصلي
مفت
مفتاح
مفتون
مفتي
مفروضو
مفروضي
مفسر
مفسرن
مفصل
مفعول
مفلس
مفهوم
مفيد
مفڪر
مفڪرن
مفھوم
مقابل
مقابلا
مقابلن
مقابلو
مقابلي
مقاطعي
مقالا
مقالات
مقالن
مقالو
مقالي
مقام
مقامن
مقامي
مقبرا
مقبرن
مقبرو
مقبري
مقبول
مقبوليت
مقتول
مقدار
مقدارن
مقداري
مقدر
مقدس
مقدسي
مقدم
مقدما
مقدمة
مقدمن
مقدمه
مقدمو
مقدمي
مقدونيہ
مقرر
مقرري
مقرريء
مقص
مقصد
مقصدن
مقصود
مقعد
مقناطيس
مقناطيسي
مقننه
مقيم
مل
ملا
ملاح
ملاحن
ملازم
ملازمت
ملازمن
ملاقات
ملاقاتون
ملامت
ملان
ملاوي
ملاوٽ
ملاي
ملايا
ملايو
ملاکڙن
ملاکڙو
ملاکڙي
ملاڪا
ملاڻو
ملبار
ملت
ملتان
ملتاني
ملتوي
ملحد
ملر
ملز
ملفوظات
ململ
ملن
ملندا
ملندو
ملندي
ملنديون
ملندڙ
ملهار
ملهاي
ملهايو
ملهه
ملهہ
ملوث
ملون
ملوڪ
ملي
مليا
مليالم
ملير
مليريا
مليس
مليشيا
مليل
ملين
مليو
مليون
ملٽري
ملٽن
ملٽي
ملک
ملڪ
ملڪا
ملڪان
ملڪاڻي
ملڪاڻيء
ملڪن
ملڪه
ملڪو
ملڪي
ملڪيت
ملڪيتن
ملڪيتون
ملڪہ
ملڻ
ملڻو
ملھ
ملھاي
ملھايو
مماليه
ممبر
ممبي
ممتاز
مملوڪ
مملڪت
مملڪتي
ممنوع
ممڪن
من
منا
منات
مناجات
مناجاتون
منارا
منارن
مناره
منارو
مناري
مناسب
مناسبت
مناظر
مناظرو
مناظري
مناف
منافع
منافعي
مناقبا
منت
منتخب
منتر
منتشر
منتظر
منتظم
منتقل
منتقلي
منجنيق
منجهان
منجهاني
منجهاي
منجهس
منجهن
منجهند
منجهه
منجهيل
منجھ
منجھان
منجھاني
منجھس
منجھن
منجھند
منجھه
منحصر
مند
مندر
مندرن
مندي
منزل
منزلن
منزلون
منسلڪ
منسوب
منسوخ
منسوخي
منسٽر
منش
منشا
منشور
منشي
منشيء
منشيات
منصب
منصف
منصوب
منصوبا
منصوبابندي
منصوبن
منصوبه
منصوبو
منصوبي
منصور
منصوره
منصوري
منطق
منطقي
منطقگري
منظر
منظرن
منظم
منظور
منظوري
منظوريء
منظوم
منع
منعقد
منفرد
منفي
منقبت
منه
منهاج
منهن
منهنجا
منهنجو
منهنجون
منهنجي
منهه
منو
منوج
منور
منوره
مني
منيء
منير
منيلا
منين
منٺار
منٽ
منٽن
منٽو
منٿ
منڇر
منڈی
منڊ
منڊا
منڊل
منڊلي
منڊليء
منڊو
منڊي
منڊيء
منڊين
منڊڪ
منڍ
منڍي
منڪر
منگ
منگل
منگلا
منگها
منگهارام
منگهو
منگو
منگول
منگولن
منگوليا
منگوڇر
منگي
منگيء
منگيشڪر
منھ
منھن
منھنجو
منھنجي
مه
مها
مهابت
مهاتما
مهاجر
مهاجرن
مهاديو
مهار
مهاراج
مهاراجا
مهاراشٽر
مهاراشٽرا
مهارت
مهارن
مهان
مهانگو
مهانگي
مهاوير
مهاڀارت
مهاڀاري
مهاڏو
مهاڳ
مهاڻا
مهاڻن
مهاڻي
مهتا
مهتاب
مهجور
مهدوي
مهدي
مهذب
مهر
مهراج
مهراڻ
مهراڻي
مهربان
مهرباني
مهربانيء
مهرن
مهرون
مهري
مهرچند
مهل
مهلب
مهلڪ
مهم
مهمان
مهمانن
مهمن
مهمون
مهن
مهندار
مهورت
مهون
مهيا
مهيسر
مهيش
مهيشوري
مهين
مهينا
مهينن
مهينو
مهيني
مهڙ
مهڪ
مهڪري
مو
مواد
موادن
مواصلات
مواصلاتي
موافق
موافقت
موباي
موت
موتمار
موتي
موتين
موثر
موج
موجب
موجد
موجود
موجوده
موجودگي
موجودگيء
موجودھ
موجودہ
مودودي
مودي
موذي
مور
موراي
مورت
مورتون
مورتي
مورتيون
مورث
مورثي
مورخ
مورخن
مورس
مورن
مورو
موروثي
موري
موريء
موريا
مورياڻي
موريو
مورچا
مورچن
مورڙو
مورڳو
موز
موزاي
موزمبيق
موزون
موسا
موسم
موسمن
موسمون
موسمي
موسمياتي
موسوي
موسى
موسي
موسيقار
موسيقارن
موسيقي
موسيقيء
موسی
موصل
موصوف
موصول
موضع
موضوع
موضوعن
موقع
موقعا
موقعن
موقعو
موقعي
موقف
موقوف
مول
مولا
مولابخش
مولانا
مولاي
مولف
مولود
مولودن
مولوي
مولوين
مولي
مولچند
مومل
مومن
مون
مونا
مونث
مونجهارو
موندر
مونو
مونوگراف
مونٽي
مونٽگومري
مونکي
موهن
موهي
موهين
موهيندڙ
موومينٽ
مووي
موي
موٽ
موٽاي
موٽر
موٽرز
موٽرساي
موٽندي
موٽواڻي
موٽي
موٽيا
موٽيو
موٽڻ
موچارو
موچاري
موچي
موڊ
موڙ
موڙن
موڙي
موڙيو
موڙڻ
موکي
موڪل
موڪلاي
موڪلون
موڪلي
موڪليا
موڪلياي
موڪليل
موڪليندا
موڪليندو
موڪليو
موڪليون
موڪلڻ
موڪن
موھن
موھي
مي
ميا
ميان
ميانداد
ميانمار
ميانوال
ميانوالي
مياي
مياڻ
مياڻي
مياڻيء
ميت
ميتلو
ميثاق
ميجر
ميخاي
ميد
ميدان
ميدانن
ميداني
ميدن
ميدوار
ميدي
ميدياي
مير
ميرا
ميراث
ميرالي
ميران
ميرانپور
ميراڻي
ميراڻيء
ميربحر
ميرزا
ميرس
ميرصاحب
ميرن
ميرو
ميرواهه
ميرواھ
ميروخان
ميري
ميرين
ميريي
ميرٽ
ميرپور
ميرپورخاص
ميرڪ
ميرڻ
ميز
ميزان
ميزاي
ميزبان
ميزباني
ميزش
ميسا
ميسارجي
ميسر
ميسن
ميسو
ميسور
ميسوپوٽيميا
ميسيج
ميشرس
ميقات
ميل
ميلا
ميلاد
ميلاپ
ميلبورن
ميلن
ميلو
ميلي
ميمبر
ميمبرشپ
ميمبرن
ميمن
ميموري
ميموريل
ميمڻ
ميمڻن
مين
مينا
مينار
ميندي
مينديء
مينهن
مينهون
مينيجر
مينيجمينٽ
مينيوفيڪچرنگ
مينڊرين
مينڊيٽ
مينڌرو
مينگل
مينگهراج
مينگهواڙ
مينھن
مينھون
ميهار
ميهڙ
ميوا
ميوارام
ميوزم
ميوزيم
ميوزيڪل
ميوزڪ
ميوسيڪانس
ميون
ميونخ
ميونسيپل
ميونسپالٽي
ميونسپالٽيء
ميونسپالٽين
ميونسپل
ميونسپلٽي
ميونسپلٽين
ميوو
ميوي
ميويدار
ميي
ميين
ميٺا
ميٺاج
ميٽ
ميٽر
ميٽرن
ميٽرو
ميٽروپوليٽن
ميٽرڪ
ميٽل
ميٽنگ
ميٽڪ
ميٿلي
ميٿميٽڪس
ميٿين
ميٿيو
ميچ
ميڊ
ميڊل
ميڊم
ميڊن
ميڊيا
ميڊيسن
ميڊيم
ميڊيٽرينين
ميڊيڪل
ميڙ
ميڙاڪن
ميڙي
ميڪ
ميڪانڪي
ميڪاي
ميڪس
ميڪسيڪو
ميڪنگ
ميگا
ميگزين
ميگنيٽڪ
ميگهه
ميگهواڙ
ميگي
ميگھواڙ
ميں
ميڻ
ميڻا
ميھڙ
مٺ
مٺا
مٺاي
مٺايون
مٺاڻ
مٺل
مٺن
مٺو
مٺي
مٺيء
مٺياڻي
مٺيون
مٺڻ
مٽ
مٽا
مٽاسٽا
مٽاي
مٽايو
مٽجي
مٽجڻ
مٽر
مٽن
مٽي
مٽيء
مٽياري
مٽياريء
مٽيارين
مپ
مپس
مپن
مٿا
مٿان
مٿانهون
مٿانهين
مٿاني
مٿاهون
مٿاهين
مٿاڇرو
مٿاڇري
مٿاھون
مٿاھين
مٿرا
مٿس
مٿن
مٿو
مٿي
مٿيان
مٿين
مٿينء
مٿيون
مٿڀرو
مڃاي
مڃايو
مڃتا
مڃن
مڃي
مڃيا
مڃيل
مڃين
مڃيندا
مڃيندو
مڃيندڙ
مڃيندڙن
مڃيو
مڃڻ
مچ
مچاي
مچي
مڇ
مڇر
مڇرن
مڇي
مڇيء
مڇين
مڇيون
مڊل
مڌر
مڌرويل
مڌم
مڌيا
مڌيه
مڏ
مڙس
مڙسن
مڙسي
مڙني
مڙهه
مڙهي
مڙهيل
مڙهيو
مڙهڻ
مڙي
مڙيل
مڙيي
مک
مکرجي
مکي
مکيا
مکين
مکيه
مکيون
مکيہ
مکڻ
مڪ
مڪالما
مڪالمن
مڪالمو
مڪان
مڪانن
مڪاني
مڪانيت
مڪاي
مڪتب
مڪتبن
مڪتبه
مڪتوبات
مڪر
مڪران
مڪراني
مڪسچر
مڪعب
مڪلي
مڪليء
مڪمل
مڪه
مڪو
مڪي
مڪين
مڪينيڪل
مڪينڪس
مڪڙ
مڪڙي
مگر
مگسي
مگڌ
مڱ
مڱريو
مڱيو
مڱڻهار
مڱڻو
مڱڻي
مڱڻيجا
مڻ
مڻيا
مھا
مھاتما
مھاجر
مھاجرن
مھاراجا
مھاراشٽر
مھارانا
مھارت
مھايان
مھاڀارت
مھاڀاري
مھاڻن
مھتاب
مھدي
مھر
مھراب
مھراڻ
مھربان
مھرباني
مھرچند
مھل
مھلب
مھلبي
مھم
مھمان
مھيا
مھيسر
مھينا
مھينن
مھينو
مھيني
می
میانوالی
میر
میرمحمد
میں
ن
نا
نااميد
ناانصافي
نااهل
نابالغ
نابري
نابود
نابين
نات
ناتا
ناتر
ناتن
ناتو
ناتوان
ناتي
ناجاي
ناحق
ناخوش
نادر
نادرشاهه
نادرن
نادري
نار
نارا
ناراض
ناراي
نارايڻ
نارمل
نارمن
نارنگي
نارنگيء
نارنگين
نارنگيون
نارو
نارووال
ناروي
ناري
ناريجو
ناريل
نارين
ناريون
نارٿ
نارڊڪ
ناز
نازل
نازو
نازي
نازين
نازڪ
ناس
ناسا
ناساز
ناسب
ناستڪ
ناسور
ناسورن
ناسي
ناشاد
ناشر
ناصر
ناصرالدين
ناصري
ناظره
ناظرين
ناظم
ناظمن
نافذ
نافرماني
ناقابل
ناقص
نال
نالا
نالن
نالو
نالي
ناليء
نالين
ناليوار
ناليوارا
ناليوارن
ناليوارو
ناليواري
ناليون
نام
ناما
نامدار
نامزد
نامزدگي
نامعلوم
ناممڪن
نامن
نامناسب
نامه
نامو
نامور
ناموس
نامون
نامي
نامياتي
ناميارا
ناميارن
ناميارو
نامياري
نامڪمل
نامہ
نان
نانء
نانا
ناناڻن
ناناڻي
نانو
ناني
نانڪ
نانڪرام
نانڪي
نانگ
نانگا
نانگن
نانگو
ناهن
ناهه
ناهي
ناهين
ناو
ناول
ناولن
ناوليٽ
ناي
ناياب
ناٺي
ناٽ
ناٽيڪل
ناٽڪ
ناٽڪن
ناپاڪ
ناپسند
ناپيد
ناٿ
ناٿن
ناڀ
ناچ
ناچڻي
ناڊا
ناڊو
ناڙي
ناڙين
ناڙيون
ناکي
ناڪ
ناڪاره
ناڪاري
ناڪام
ناڪامي
ناڪاميء
ناگراڻي
ناگري
ناگپور
ناڻو
ناڻي
ناھن
ناھي
نب
نباتات
نباتاتي
نبض
نبوت
نبوي
نبويء
نبي
نبيء
نبيرو
نبيري
نبيرڻ
نبين
نت
نتاشا
نتيجا
نتيجن
نتيجو
نتيجي
نث
نثار
نثر
نثرنويس
نثري
نج
نجات
نجد
نجف
نجفي
نجم
نجميات
نجو
نجوم
نجي
نجيب
نجڪاري
نحو
ند
ندا
نداي
ندر
ندري
ندل
ندن
نده
ندو
ندوي
ندي
نديء
نديم
ندين
نديون
ندڙ
ندگي
نذر
نذرانو
نذير
نر
نرا
نرالا
نرالو
نرالي
نرجي
نرخ
نرخن
نرري
نرز
نرس
نرسري
نرم
نرملداس
نرمي
نرن
نرو
نروار
نرواڻ
نري
نريندر
نرڙ
نرگس
نز
نزا
نزاري
نزارين
نزاڪت
نزديڪ
نزلو
نزلي
نزول
نس
نسان
نساي
نسب
نسبت
نسبتا
نسبتن
نسبتي
نستعليق
نسخ
نسخا
نسخن
نسخو
نسخي
نسدان
نسدانن
نسر
نسروانجي
نسز
نسق
نسل
نسلن
نسلون
نسلي
نسن
نسي
نسيم
نسٽاي
نسڊاي
نشاستو
نشاستي
نشاط
نشان
نشاندهي
نشانن
نشانو
نشاني
نشانيء
نشانين
نشانيون
نشتر
نشر
نشريات
نشرياتي
نشست
نشو
نشونما
نشي
نشين
نشينن
نشيني
نشينيء
نصاب
نصابي
نصب
نصر
نصرالله
نصرت
نصرپور
نصف
نصيب
نصيحت
نصير
نصيرا
نصيرالدين
نظارا
نظارن
نظارو
نظاري
نظام
نظاماڻي
نظاماڻيء
نظامن
نظامي
نظر
نظرانداز
نظربند
نظربندي
نظربنديء
نظرثاني
نظرداري
نظرداريء
نظرن
نظرون
نظري
نظريا
نظرياتي
نظرين
نظريه
نظريو
نظريي
نظم
نظمن
نظير
نعت
نعتيه
نعرا
نعرو
نعري
نعل
نعم
نعمان
نعماني
نعمت
نعمتن
نعيم
نعيمه
نغارا
نغزه
نـ
نف
نفاذ
نفاست
نفرت
نفس
نفساني
نفسيات
نفسياتي
نفعو
نفعي
نفل
نفي
نفيس
نقاب
نقاد
نقادن
نقاش
نقاشي
نقد
نقش
نقشا
نقشبندي
نقشن
نقشو
نقشي
نقص
نقصان
نقصانن
نقصانڪار
نقطا
نقطن
نقطه
نقطو
نقطي
نقل
نقلي
نقوي
نل
نلاي
نلاین
نلن
نلي
نليء
نلين
نم
نما
نماء
نماز
نمازون
نماي
نمايان
نماڻي
نمبر
نمبرن
نمر
نمرود
نمودار
نمونا
نمونن
نمونو
نموني
نمونيا
نمي
نمڪ
نمڪين
نن
ننجا
نند
نندا
نندو
نندي
ننهن
ننڊ
ننڍ
ننڍا
ننڍن
ننڍو
ننڍي
ننڍيء
ننڍين
ننڍيون
ننڍپڻ
ننڍڙا
ننڍڙن
ننڍڙو
ننڍڙي
ننڍڙين
ننڍڙيون
ننگ
ننگر
ننگريجا
ننگرپارڪر
ننھن
نه
نهاد
نهايت
نهج
نهر
نهرو
نهري
نهن
نهنجي
نهي
نهيء
نهين
نهڙي
نهڙيو
نو
نوا
نواء
نواب
نوابشاه
نوابشاهه
نوابشاھ
نوابن
نوابي
نوادرات
نوار
نواز
نوازشريف
نوازي
نوازيو
نوان
نواي
نواڻ
نوبت
نوبل
نوبيل
نوجوان
نوجوانن
نوجواني
نوح
نوحا
نوحاڻي
نوحه
نوحو
نور
نورا
نورالدين
نورالله
نورالهدي
نوران
نوراني
نورجهان
نورس
نورل
نورمحمد
نورنگ
نورواھ
نوري
نوريء
نوريي
نورپور
نورڊڪ
نوسار
نوسارز
نوش
نوشهره
نوشهرو
نوشهروفيروز
نوشهري
نوشي
نوشيروان
نوشڪي
نوشھرو
نوشھروفيروز
نوشھري
نوع
نوعيت
نوفل
نول
نولراء
نومبر
نون
نوناري
نووا
نوي
نويد
نويس
نويسن
نويسي
نويسيء
نوٽ
نوٽن
نوٽيس
نوٽيفڪيشن
نوڙت
نوڙيون
نوڪ
نوڪدار
نوڪر
نوڪرن
نوڪري
نوڪريء
نوڪرين
نوڪريون
نى
ني
نيء
نيا
نياد
نيادي
نياز
نيازي
نياپو
نياڻي
نياڻيء
نياڻين
نياڻيون
نيبولا
نيت
نيتي
نيتيء
نيجر
نيجمينٽ
نيجنگ
نيدرلينڊ
نيدرلينڊز
نير
نيرا
نيرن
نيرو
نيرون
نيري
نيز
نيزا
نيزي
نيس
نيست
نيشاپور
نيشن
نيشنز
نيشنل
نيل
نيلام
نيلسن
نيلم
نيلوفر
نيلي
نيم
نيما
نيمروز
نين
نينا
نينهن
نينو
نينگر
نيو
نيوران
نيوز
نيوزي
نيوزيلينڊ
نيوسعيدا
نيول
نيون
نيوي
نيويارڪ
نيوٽران
نيوٽن
نيوڪلياي
نيوڪليس
نيوڪليي
نيوگني
نيي
نيٺ
نيٽ
نيٽو
نيٽورڪ
نيپال
نيپالي
نيپولين
نيپي
نيپيي
نيپچون
نيچ
نيچر
نيچرل
نيڪ
نيڪال
نيڪالي
نيڪي
نيڪيء
نيگرو
نيگيٽو
نيڻ
نٺ
نٽ
نٽس
نٽشي
نٽن
نٽي
نپوڙي
نٿ
نٿا
نٿو
نٿي
نٿيون
نڀ
نڀاي
نڀاياي
نڀايو
نڀن
نڀور
نچ
نچي
نچڻ
نڇون
نڊ
نڊا
نڊرڊ
نڊن
نڊو
نڊي
نڌ
نڌرا
نڌو
نڌي
نڍ
نڙ
نڙي
نڙيء
نک
نکاد
نکون
نکٽ
نکٽن
نڪ
نڪا
نڪاح
نڪاڪ
نڪتا
نڪتل
نڪتن
نڪته
نڪتو
نڪتي
نڪرن
نڪرندا
نڪرندو
نڪرندي
نڪرنديون
نڪرندڙ
نڪري
نڪرڻ
نڪل
نڪن
نڪو
نڪولس
نڪون
نڪوٽين
نڪي
نگ
نگار
نگارا
نگارن
نگاري
نگاريء
نگاهن
نگاهه
نگر
نگران
نگراني
نگرانيء
نگري
نگن
نگهداشت
نگو
نگورنو
نگويج
نگي
نگھ
نگھبان
نھ
نھايت
نھرو
نھن
نھيء
نہ
نہیں
نیشنل
نیوز
نے
ه
ها
هاء
هاجره
هادي
هار
هاراي
هارايو
هاربر
هارمون
هارمونيم
هارورڊ
هارون
هاري
هاريء
هارين
هارڊ
هارڊويي
هاسارام
هاسي
هاسٽل
هاشم
هاشمي
هاضمي
هال
هالا
هالار
هالاي
هالاڻي
هالاڻيء
هالن
هالي
هالينڊ
هاليپوٽو
هاليپوٽي
هان
هانء
هانگ
هاي
هاير
هاٿي
هاٿيء
هاٿين
هاڃو
هاڃيڪار
هاڪ
هاڪاري
هاڪي
هاڪڙو
هاڪڙي
هاڻ
هاڻوڪا
هاڻوڪن
هاڻوڪو
هاڻوڪي
هاڻي
های
هباري
هبل
هت
هتان
هتي
هجان
هجرت
هجري
هجريء
هجن
هجو
هجوم
هجي
هجين
هجڻ
هدايت
هدايتن
هدايتون
هدايتڪار
هدايتڪاري
هذا
هر
هرات
هراس
هراسان
هردوار
هرسال
هرش
هرهڪ
هرو
هروڀرو
هري
هريء
هريانا
هريجن
هريسنگهه
هرچند
هرڪو
هرگز
هرڻ
هزار
هزارن
هزاره
هزاري
هزارين
هستي
هستيء
هستين
هسٽاريڪل
هسٽري
هسپانوي
هشام
هضم
هـ
هـن
هـي
هفت
هفتا
هفتن
هفته
هفتو
هفتي
هفتيوار
هل
هلال
هلاي
هلايا
هلاياي
هلايل
هلايو
هلايون
هلاڪو
هلت
هلمند
هلن
هلندا
هلندو
هلندي
هلنديون
هلندڙ
هلو
هلون
هلي
هليا
هليلي
هليو
هليون
هلچل
هلڪا
هلڪو
هلڪي
هلڪيون
هلڻ
هم
هماليا
هماليه
همايون
همايوني
همايونيء
همت
همدرد
همدردي
همراه
همراهن
همراهه
همعصر
همعصرن
همه
هموار
هموٻاي
همير
هميشه
هميشھ
هميشہ
همٿ
همٿاي
همٿايو
هن
هنب
هنج
هنجن
هند
هندستان
هندستاني
هندستانيء
هندستانين
هندن
هندو
هندوء
هندوستان
هندوستاني
هندومت
هندوي
هندوڪش
هندي
هنديء
هنر
هنرمند
هنرن
هنري
هنن
هنومان
هني
هنيا
هنياي
هنيو
هنيون
هنيي
هنٽر
هنڌ
هنڌان
هنڌن
هنگ
هنگاما
هنگامي
هنگر
هنگري
هنگريء
هنگلاج
هنگي
هنڱوراڻي
هنڱورجا
هه
ههڙي
هو
هوء
هوا
هواي
هوبهو
هوت
هوتچند
هوجا
هوري
هوريان
هوس
هوش
هوشو
هوشيار
هول
هولي
هوم
هومر
هومز
هون
هونء
هوند
هوندا
هوندو
هوندوا
هوندي
هونديون
هوني
هوي
هوٽل
هوٽلن
هوٿل
هوچي
هوڏانهن
هوڏي
هوڻ
هي
هيء
هيا
هيان
هياي
هيبت
هير
هيرا
هيرانند
هيراننداڻي
هيرس
هيرن
هيرو
هيروي
هيري
هيريٽيج
هيرڻ
هيس
هيسباڻي
هيستاي
هيل
هيلن
هيلي
هيلٿ
هيم
هيمنداس
هيمون
هين
هينري
هيني
هينڊ
هيو
هيوز
هيومن
هيون
هيونسانگ
هيي
هيٺ
هيٺان
هيٺانهين
هيٺاهين
هيٺي
هيٺيان
هيٺين
هيٺينء
هيٺيون
هيڊ
هيڊماستر
هيڊو
هيڊي
هيڊڪوارٽر
هيڏانهن
هيڏي
هيڪاري
هيڪل
هيڪٽر
هيڪڙاي
هيگ
هيگل
هيڻا
هٽ
هٽاي
هٽايو
هٽلر
هٽي
هٽڻ
هٿ
هٿان
هٿرادو
هٿن
هٿي
هٿيار
هٿياربند
هٿياربندن
هٿيارن
هٿين
هڃاڻ
هڏ
هڏا
هڏن
هڏو
هڏي
هڏين
هڏيون
هڙ
هڙاپا
هڙتال
هڙتالون
هڙي
هڙپا
هڪ
هڪجهڙا
هڪجهڙاي
هڪجهڙو
هڪجهڙي
هڪدم
هڪي
هڪٻي
هڪڙا
هڪڙو
هڪڙي
هڪڙيء
هڻ
هڻاي
هڻجن
هڻن
هڻندا
هڻندو
هڻندي
هڻنديون
هڻندڙ
هڻو
هڻي
هڻڻ
و
وء
وا
واء
وابسته
وابستگي
وابستہ
وات
واتان
واجب
واجبي
واجد
واجپاي
واحد
واد
وادي
واديء
وادين
واديون
وار
وارا
واران
وارث
وارثن
وارثي
وارد
واردات
وارسا
وارن
وارنر
واره
وارهه
وارو
واري
واريء
وارياسو
وارياسي
وارين
واريون
وارڊ
وارڊن
وارڪا
وارھ
واز
وازن
وازي
واس
واسديو
واسطا
واسطن
واسطو
واسطي
واسطيدار
واسو
واسواڻي
واسواڻيء
واسي
واسين
واسينگ
واسڪو
واش
واشنگٽن
واصف
واضح
واضع
واعدو
واعدي
واعظ
واقع
واقعا
واقعات
واقعاتي
واقعن
واقعو
واقعي
واقف
واقفيت
وال
والا
والار
والاري
والاريل
والد
والده
والدين
والي
واليء
واليم
والٽر
والٽن
والٽي
والہ
والی
والے
وان
وانجهيل
واندو
واندڪاي
وانڍ
وانگر
وانگي
وانگيان
واه
واهر
واهن
واهه
واهي
واهپو
واهپي
واهڻ
واو
واي
وايو
وايومنڊل
وايون
وايوڪيات
واٽ
واٽر
واٽس
واٽن
واٽون
واپار
واپاري
واپاريء
واپارين
واپراي
واپس
واپسي
واپسيء
واپڊا
واچ
واڊيا
واڌ
واڌارا
واڌارو
واڌاري
واڌايون
واڌو
واڌواڻي
واڙ
واڙي
واکاڻ
واڪ
واڪي
واڱڻ
واڱڻاي
واڳ
واڳون
واڳيل
واڻ
واڻي
واڻيا
واھ
واھن
واھه
واھوچا
واھڻ
واہن
وب
وبا
وباي
وت
وتايو
وتر
وتن
وتندو
وتي
وجد
وجدان
وجه
وجهبا
وجهبو
وجهبي
وجهجي
وجهن
وجهندا
وجهندو
وجهندي
وجهنديون
وجهندڙ
وجهه
وجهي
وجهڻ
وجهہ
وجود
وجودي
وجوديت
وجي
وجھ
وجھندا
وجھندڙ
وجھي
وجھڻ
وجہ
وح
وحداني
وحدانيت
وحدت
وحشي
وحي
وحيد
ود
ودي
وديا
وديرو
ودپوٽو
ودپوٽي
ودگل
ور
ورا
وراثت
وراثتي
ورانسي
وراي
ورايو
وراچڊ
وراڻي
وراڻيو
ورة
ورت
ورتا
ورتاء
ورتاي
ورتر
ورتل
ورتو
ورتي
ورتيون
ورثو
ورثي
ورج
ورجاء
ورجاي
ورجايو
ورجن
ورجينيا
ورد
وردي
ورزش
ورزن
ورزي
ورس
ورسي
ورق
ورقن
ورلي
ورلڊ
ورلڊڪپ
ورم
ورن
ورندي
ورنه
ورنيڪيولر
ورهاست
ورهاي
ورهايا
ورهايل
ورهايو
ورهاڱو
ورهاڱي
ورهين
ورهيه
ورو
وروجي
وري
وريء
وريا
وريام
وريل
وريو
ورپ
ورٿ
ورچوي
ورڇ
ورڊ
ورڊي
ورژن
ورڪ
ورڪر
ورڪرز
ورڪرن
ورڪس
ورڪشاپ
ورڪنگ
ورڪي
ورڻ
ورھاست
ورھاي
ورھايل
ورھايو
ورھاڱي
ورھين
ورھيه
وز
وزارت
وزارتن
وزر
وزن
وزني
وزو
وزي
وزير
وزيراعظم
وزيراعلي
وزيرستان
وزيرن
وس
وساري
وساريل
وساريو
وسارڻ
وساي
وسايا
وساياي
وسايو
وساڻ
وستي
وستڦيليا
وسري
وسرڳ
وسطي
وسعت
وسلم
وسن
وسندي
وسنديء
وسندين
وسنديون
وسندڙ
وسنگ
وسهڻ
وسي
وسير
وسيع
وسيل
وسيلا
وسيلن
وسيلو
وسيلي
وسيم
وسڪارو
وسڪاري
وسڪاي
وسڻ
وش
وشال
وشن
وشنداس
وشنو
وشنوء
وصال
وصف
وصفن
وصفون
وصول
وصولي
وصيت
وضاحت
وضاحتن
وضاحتون
وضع
وضو
وطن
وطني
وظيفو
وعدو
وعدي
وعظ
وغيره
وغيرهه
وغيرھ
وغيرہ
وف
وفا
وفات
وفاتون
وفادار
وفاداري
وفاداريء
وفاق
وفاقي
وفاي
وفد
وفدن
وقار
وقت
وقتاي
وقتن
وقتي
وقعت
وقف
وقفو
وقفي
وقوع
ول
ولا
ولاء
ولادت
ولاديمير
ولاي
ولايت
ولايتن
ولايتي
ولد
ولر
ولسن
ولو
ولي
وليء
وليج
وليد
وليداد
وليم
ولين
وليون
ولڀ
وم
ون
ونء
ونا
ونجهه
وند
وندر
وندراي
وندي
ونر
ونرو
ونس
ونسل
ونسلر
ونسلن
ونسلون
ونسي
ونش
ونلوڊ
ونن
ونهن
ونواهه
ونود
وني
ونيونٽ
ونٽ
ونٽر
ونٽس
ونٽنٽ
ونٽنگ
ونٽي
ونٽين
ونٽيون
ونڊ
ونڊاي
ونڊجي
ونڊن
ونڊوز
ونڊيشن
ونڊڻ
ونگ
ونگن
ونگو
ونگي
وه
وهان
وهانء
وهاي
وهاڻو
وهاڻي
وهب
وهم
وهن
وهنجڻ
وهندا
وهندو
وهندي
وهندڙ
وهنوار
وهه
وهي
وهيء
وهٽ
وهڪ
وهڪرا
وهڪرن
وهڪرو
وهڪري
وهڻ
وو
وولف
وولگا
وومن
وومين
ووني
ووهان
ووٽ
ووٽر
ووٽرن
ووٽن
ووٽنگ
ووڊ
ووڪيشنل
وي
ويء
ويا
وياج
وياراوالا
وياسين
ويانا
وياڪرڻ
ويب
ويبساي
ويتر
ويجها
ويجهن
ويجهه
ويجهو
ويجهي
ويجهيون
ويجهڙاي
ويجھ
ويجھا
ويجھن
ويجھو
ويجھي
ويجھڙاي
ويد
ويدانت
ويدانتي
ويدن
ويدڪ
وير
ويرا
ويران
ويراني
ويراڳ
ويراڳي
ويرناٿ
ويرو
ويرومل
ويري
ويرين
ويز
ويزا
ويزن
ويس
ويساهه
ويساک
ويسر
ويسٽ
ويسٽرن
ويل
ويلر
ويلز
ويلس
ويلش
ويلفيي
ويلن
ويلنٽاي
ويلي
ويلٽ
ويلٿ
ويلڻ
ويم
ويمن
وين
وينجن
وينجهار
وينجهري
ويندا
وينداسين
ويندس
ويندو
ويندي
وينديون
ويندڙ
وينزويلا
وينس
ويهارو
ويهاري
ويهارياي
ويهاريو
ويهارڻ
ويهن
ويهندا
ويهندو
ويهندي
ويهه
ويهون
ويهي
ويهين
ويهڪ
ويهڻ
ويو
ويون
ويي
ويٺا
ويٺل
ويٺو
ويٺي
ويٺيون
ويٽ
ويٽنام
ويٽنامي
ويٽو
ويٽيڪن
ويپن
ويڄ
ويچار
ويچارا
ويچارن
ويچاري
ويچارڻ
ويڊيو
ويڌن
ويڙه
ويڙهاند
ويڙهاڪ
ويڙهاڪن
ويڙهه
ويڙهو
ويڙهي
ويڙهيل
ويڙھ
ويڙھاڪ
ويڙھاڪن
ويڙھي
ويڙھيل
ويڪ
ويڪر
ويڪرا
ويڪراي
ويڪرو
ويڪري
ويڪريون
ويڪسين
ويگن
ويڳي
ويڻي
ويھ
ويھن
ويھندا
ويھي
ويھين
ويھڻ
وٺ
وٺاي
وٺايو
وٺبو
وٺبي
وٺجي
وٺراي
وٺن
وٺندا
وٺندو
وٺندي
وٺنديون
وٺندڙ
وٺندڙن
وٺو
وٺون
وٺي
وٺڻ
وٺڻو
وٺڻي
وٽ
وٽا
وٽامن
وٽان
وٽاني
وٽرام
وٽس
وٽن
وٽنگ
وٽو
وٽي
وپ
وپي
وٿ
وٿاڻ
وٿون
وٿي
وٿيء
وڀوشن
وڃ
وڃان
وڃاي
وڃايل
وڃايو
وڃبو
وڃجن
وڃجي
وڃن
وڃو
وڃون
وڃي
وڃين
وڃيو
وڃڻ
وڃڻو
وڄ
وڄاي
وڄايو
وڄت
وڄون
وڄي
وچ
وچان
وچم
وچن
وچور
وچولو
وچولي
وچون
وچي
وچين
وچيون
وچٿري
وچڙ
وچڙندڙ
وڇاي
وڇايل
وڇايو
وڇون
وڇونء
وڇوٽ
وڇوٽي
وڇوٽيء
وڇوڙو
وڇوڙي
وڇڙي
وڊ
وڊر
وڊيو
وڊيوز
وڌ
وڌا
وڌاء
وڌاي
وڌايل
وڌايو
وڌل
وڌن
وڌندا
وڌندو
وڌندي
وڌنديون
وڌندڙ
وڌو
وڌوا
وڌي
وڌيا
وڌيل
وڌيو
وڌيون
وڌيڪ
وڌڻ
وڍ
وڍي
وڍڻ
وڏ
وڏا
وڏاي
وڏن
وڏو
وڏي
وڏيء
وڏيرا
وڏيرن
وڏيرو
وڏيري
وڏين
وڏيون
وڏڙا
وڏڙن
وڙ
وڙن
وڙهن
وڙهندا
وڙهندو
وڙهندي
وڙهندڙ
وڙهي
وڙهيا
وڙهيو
وڙهڻ
وڙي
وڙھندي
وڙھي
وڙھيا
وڙھيو
وڙھڻ
وک
وکر
وکرن
وکون
وڪ
وڪاس
وڪالت
وڪرم
وڪرمي
وڪرو
وڪري
وڪشنري
وڪوڙي
وڪوڙيل
وڪي
وڪيغت
وڪيل
وڪيلن
وڪيميڊيا
وڪيو
وڪيٽن
وڪيٽون
وڪيپيڊيا
وڪٽر
وڪٽوريا
وڪٽوريه
وڪڙ
وڪڙن
وڪڙو
وڪڻندا
وڪڻي
وڪڻڻ
وگهي
وڳ
وڳا
وڳو
وڳوڙ
وڳوڙن
وڳي
وڳڻ
وڻ
وڻج
وڻن
وڻندو
وڻندي
وڻندڙ
وڻي
وڻيو
وڻڪار
وھانء
وھاڙي
وھن
وھندو
وھندڙ
وھي
وھڪرو
وھڪري
وھڻ
وہ
ویب
ویکیپیڈیا
ى
ي
يء
يا
ياب
يات
ياترا
ياتري
ياترين
ياد
ياداشت
يادداشت
يادن
يادو
يادون
يادگار
يادگارن
يادگيري
يادگيرين
يادگيريون
يار
يارمحمد
يارن
يارنهن
يارهن
يارهون
يارهين
يارو
ياروديرو
ياري
يارڪ
يارھن
يارھين
ياس
ياسر
ياسرقاض
ياسمين
ياسين
يافتا
يافته
يافتہ
ياقوت
يامسوڪرو
يامين
يان
ياي
ياڪ
يب
يبل
يبند
يبيريا
يت
يتا
يتن
يتون
يتيم
يثرب
يج
يجان
يجاني
يجر
يجيريا
يحي
يحيي
يخ
يد
يدار
يدارن
يداري
يداريء
يدو
ير
يرغمال
يرقان
يرن
يرو
يروشلم
يريوان
يز
يزر
يزرلينڊ
يزي
يزيد
يزيشن
يزڊ
يس
يساڻي
يسز
يسن
يسٽ
يش
يشن
يشيا
يشياي
يع
يعقوب
يعقوبي
يعني
يف
يفل
يق
يقين
يقينا
يقينن
يقيني
يل
يلا
يلن
يلو
يلي
يلين
يلينڊ
يلڊ
يم
يمري
يمز
يمس
يمن
يمني
ين
ينء
ينا
يند
يندا
ينداد
يندس
ينده
يندو
يندي
يندين
ينديون
يندڙ
يندڙن
ينر
ينز
ينس
ينل
ينن
يننگ
ينه
ينهن
ينو
يني
ينڊ
ينگ
ينگڊانگ
يه
يهودي
يهودين
يهي
يو
يوار
يواري
يوان
يور
يورال
يوراگوي
يورو
يوروپا
يوروپي
يوروپين
يوري
يوريشيا
يورينس
يورينيم
يورپ
يورپي
يورپين
يوز
يوزر
يوسف
يوسفي
يوسي
يولاجي
يوم
يون
يونان
يوناني
يونانين
يوناي
يونس
يونسي
يوني
يونيسيف
يونيسڪو
يونيفارم
يونين
يونيورس
يونيورسل
يونيورسٽي
يونيورسٽيء
يونيورسٽين
يونيورسٽيون
يونيڪوڊ
يونٽ
يونٽن
يونگ
يوي
يويٽ
يويٽا
يوٽا
يوٽوپيا
يوٽيوب
يوپي
يوٿ
يوڪراي
يوڪرين
يوڪريني
يوڪيريي
يوگ
يوگا
يوگنڊا
يوگوسلاويا
يوڳي
يي
يٽ
يٽا
يٽر
يٽرز
يٽرس
يٽزرلينڊ
يٽس
يٽل
يٽن
يٽنگ
يٽو
يٽون
يٽي
يٽيو
يٽيڊ
يٽڊ
يپ
يپن
يپور
يٿ
يچ
يچارو
يچاري
يڊ
يڊر
يڊروجن
يڊس
يڊن
يڊنگ
يڪ
يڪا
يڪاٽ
يڪتارو
يڪتاري
يڪدم
يڪراء
يڪس
يڪسان
يڪل
يڪلو
يڪلوپيڊيا
يڪو
يڪي
يڪيء
يگ
يگانو
يگاني
يگي
يگيه
يڻ
يھ
يھودي
يھوديت
يھودين
يہ
ً
ٌ
ٍ
َ
ُ
ِ
ّ
ْ
ٓ
ٔ
ٕ
ٖ
ٗ
٠
١
١٠
١٤
١٥
١٦
٢
٣
٣٠
٤
٥
٦
٧
٨
٩
٪
٫
٬
٭
ٰ
ٹ
ٹاس
ٹاو
ٹی
ٺ
ٺا
ٺارو
ٺاري
ٺاهه
ٺاهي
ٺاهيا
ٺاهياي
ٺاهيل
ٺاهين
ٺاهيندا
ٺاهيندو
ٺاهيندي
ٺاهينديون
ٺاهيندڙ
ٺاهيو
ٺاهيون
ٺاهڻ
ٺاٺ
ٺاڪر
ٺاڪرن
ٺاھ
ٺاھن
ٺاھي
ٺاھيا
ٺاھيل
ٺاھيندا
ٺاھيندو
ٺاھيندڙ
ٺاھيو
ٺاھيون
ٺاھڻ
ٺري
ٺل
ٺلهه
ٺلھ
ٺمري
ٺن
ٺهراء
ٺهراي
ٺهرايا
ٺهراياي
ٺهرايل
ٺهرايو
ٺهرايون
ٺهن
ٺهندا
ٺهندو
ٺهندي
ٺهنديون
ٺهندڙ
ٺهي
ٺهيا
ٺهيل
ٺهيو
ٺهيون
ٺهڪي
ٺهڻ
ٺو
ٺوس
ٺوڙهي
ٺوڙھا
ٺي
ٺيء
ٺيان
ٺين
ٺيٺ
ٺيڙھي
ٺيڪ
ٺيڪو
ٺيڪي
ٺيڪيدار
ٺٺ
ٺٺي
ٺٽ
ٺٽو
ٺٽوي
ٺٽويء
ٺٽي
ٺڙڪ
ٺڪاء
ٺڪاڻو
ٺڪر
ٺڪراٺو
ٺڪرن
ٺڳ
ٺڳي
ٺھراء
ٺھراي
ٺھرايا
ٺھرايو
ٺھن
ٺھندا
ٺھندو
ٺھندي
ٺھندڙ
ٺھي
ٺھيا
ٺھيل
ٺھيو
ٺھيون
ٺھڻ
ٻ
ٻاجهر
ٻاجهري
ٻاجهريء
ٻاجهه
ٻار
ٻاراڻا
ٻاراڻو
ٻاراڻي
ٻارن
ٻارنهن
ٻارنھن
ٻارهن
ٻارهون
ٻارهين
ٻارو
ٻاروتڻ
ٻاري
ٻاريء
ٻاريندا
ٻاريو
ٻارڙا
ٻارڙن
ٻارڙي
ٻارڻ
ٻارھن
ٻارھين
ٻال
ٻالڪ
ٻالڪپڻ
ٻانهن
ٻانهو
ٻانهون
ٻانهي
ٻانهين
ٻانهيون
ٻانڀڻ
ٻانڌي
ٻانھن
ٻانھي
ٻانھين
ٻاهر
ٻاهران
ٻاهري
ٻاهريان
ٻاهرين
ٻاهريون
ٻاونجاهه
ٻاويهه
ٻاوڙي
ٻاي
ٻاٻاڻي
ٻاٻيهو
ٻاٽ
ٻاڦ
ٻاڻي
ٻاڻيون
ٻاھر
ٻاھران
ٻاھريان
ٻاھرين
ٻاھريون
ٻج
ٻجن
ٻر
ٻرن
ٻرندي
ٻرندڙ
ٻرهل
ٻروچ
ٻروچن
ٻري
ٻرڙو
ٻرڙي
ٻرڻ
ٻـ
ٻلو
ٻلي
ٻليء
ٻلين
ٻن
ٻنجو
ٻنهي
ٻنهين
ٻني
ٻنيء
ٻنين
ٻنيون
ٻنڊين
ٻنڌ
ٻنڌين
ٻنڌڻ
ٻنڌڻن
ٻنھي
ٻه
ٻهراڙي
ٻهراڙيء
ٻهراڙين
ٻور
ٻورو
ٻوري
ٻوسڻ
ٻول
ٻولن
ٻولهاڙي
ٻولهه
ٻولي
ٻوليء
ٻولين
ٻوليون
ٻولھ
ٻوهيو
ٻوٽا
ٻوٽن
ٻوٽو
ٻوٽي
ٻوٽيء
ٻوٽين
ٻوٽيون
ٻوڌي
ٻوڏ
ٻوڏن
ٻوڙ
ٻوڙا
ٻوڙن
ٻوڙو
ٻوڙي
ٻي
ٻيء
ٻيا
ٻيجل
ٻير
ٻيرن
ٻيلا
ٻيلن
ٻيلو
ٻيلي
ٻين
ٻيهر
ٻيو
ٻيون
ٻيي
ٻيٽ
ٻيٽن
ٻيپھري
ٻيڙا
ٻيڙن
ٻيڙو
ٻيڙي
ٻيڙيء
ٻيڙين
ٻيڙيون
ٻيڻ
ٻيڻو
ٻيڻي
ٻيھر
ٻٻر
ٻٽ
ٻٽو
ٻٽي
ٻٽير
ٻچا
ٻچن
ٻچو
ٻچي
ٻڌ
ٻڌا
ٻڌاء
ٻڌاي
ٻڌايا
ٻڌاياي
ٻڌايل
ٻڌايو
ٻڌايون
ٻڌبو
ٻڌبي
ٻڌجي
ٻڌر
ٻڌراي
ٻڌرايو
ٻڌل
ٻڌمت
ٻڌن
ٻڌندا
ٻڌندو
ٻڌندي
ٻڌنديون
ٻڌندڙ
ٻڌندڙن
ٻڌو
ٻڌي
ٻڌيء
ٻڌيا
ٻڌيو
ٻڌيون
ٻڌڻ
ٻڍل
ٻڍو
ٻڍي
ٻڏل
ٻڏي
ٻڏڻ
ٻڙي
ٻڪر
ٻڪرار
ٻڪري
ٻڪريء
ٻڪرين
ٻڪريون
ٻگهيو
ٻگھيو
ٻھ
ٻھراڙي
ٻھراڙيء
ٻھراڙين
ٻہ
ٽ
ٽا
ٽاء
ٽار
ٽارن
ٽاري
ٽاريء
ٽارين
ٽاريون
ٽارچ
ٽارچر
ٽارگيٽ
ٽارڻ
ٽاس
ٽالسٽاء
ٽالمي
ٽالهي
ٽالهيء
ٽالپر
ٽالپرن
ٽالپري
ٽالپور
ٽالپورن
ٽام
ٽامو
ٽامي
ٽانوري
ٽانڊن
ٽانڪ
ٽانڪي
ٽاو
ٽاور
ٽاي
ٽاپ
ٽاڊ
ٽاڪ
ٽاڪرو
ٽاڪور
ٽر
ٽراء
ٽراسڪي
ٽرافي
ٽرام
ٽرانزسٽر
ٽرانزسٽرن
ٽرانزيٽ
ٽرانس
ٽرانسپورٽ
ٽراي
ٽراپيڪل
ٽربيون
ٽربيونل
ٽرز
ٽرسٽ
ٽرسٽي
ٽرلين
ٽرم
ٽرمينل
ٽرمپ
ٽرن
ٽروجن
ٽروجنس
ٽرول
ٽري
ٽريبيون
ٽريجڊي
ٽريفڪ
ٽرين
ٽريننگ
ٽريول
ٽريٽي
ٽريڊ
ٽريڪ
ٽرڪ
ٽرڪن
ٽزرلي
ٽزرلينڊ
ٽس
ٽشو
ٽل
ٽلانٽڪ
ٽلس
ٽلو
ٽلٽي
ٽلٽيء
ٽم
ٽماهي
ٽماٽا
ٽماٽي
ٽمن
ٽمورتي
ٽمي
ٽن
ٽنب
ٽنهي
ٽنڊو
ٽنڊوا
ٽنڊوالهيار
ٽنڊوڄام
ٽنڊي
ٽنگ
ٽنگن
ٽنگون
ٽنگي
ٽنگيل
ٽنھي
ٽه
ٽهلرام
ٽهلياڻي
ٽهيء
ٽهڪ
ٽو
ٽورنامنٽ
ٽورنامينٽ
ٽول
ٽولا
ٽولن
ٽولو
ٽولي
ٽوليء
ٽولين
ٽوليون
ٽون
ٽوني
ٽونڪ
ٽونگا
ٽوي
ٽوينٽي
ٽويو
ٽويوٽا
ٽويٽر
ٽوٻا
ٽوٽل
ٽوپ
ٽوپو
ٽوپي
ٽوپيء
ٽوڊي
ٽوڙ
ٽوڙي
ٽوڙيو
ٽوڙڻ
ٽوڪ
ٽوڪري
ٽوڪيو
ٽوگراف
ٽوگو
ٽي
ٽيء
ٽيا
ٽياڪڙي
ٽيبل
ٽيج
ٽيرا
ٽيريٽري
ٽيسٽ
ٽيل
ٽيلر
ٽيلي
ٽيليفون
ٽيليويزن
ٽيليڪاسٽ
ٽيليڪميونيڪيشن
ٽيليگراف
ٽيم
ٽيمن
ٽيمون
ٽيمپريٽ
ٽيمپل
ٽيمپي
ٽين
ٽينء
ٽينس
ٽينڪ
ٽيهارو
ٽيهن
ٽيهه
ٽيو
ٽيوب
ٽيون
ٽيي
ٽيٽيهر
ٽيپ
ٽيپو
ٽيچر
ٽيچرس
ٽيڊ
ٽيڙو
ٽيڪ
ٽيڪا
ٽيڪس
ٽيڪساس
ٽيڪسلا
ٽيڪسي
ٽيڪسيلا
ٽيڪسٽ
ٽيڪسٽاي
ٽيڪنالاجي
ٽيڪنالاجيء
ٽيڪنالوجي
ٽيڪنيڀياس
ٽيڪنيڪ
ٽيڪنيڪل
ٽيڪنيڪي
ٽيڪنڪ
ٽيڪچند
ٽيگ
ٽيگور
ٽيھ
ٽيھن
ٽٽل
ٽٽي
ٽٽڻ
ٽپ
ٽپا
ٽپال
ٽپاي
ٽپو
ٽپي
ٽپڙ
ٽپڻ
ٽڙي
ٽڙيل
ٽکڙ
ٽکڙاي
ٽڪ
ٽڪا
ٽڪر
ٽڪرا
ٽڪراء
ٽڪراي
ٽڪرن
ٽڪرو
ٽڪري
ٽڪريء
ٽڪرين
ٽڪريون
ٽڪل
ٽڪن
ٽڪنڊو
ٽڪنڊي
ٽڪور
ٽڪي
ٽڪيٽ
ٽڪڻ
ٽڳڙ
ٽڻ
ٽھڪ
ٽہ
پ
پا
پاء
پابند
پابندي
پابندين
پابنديون
پات
پاتا
پاتال
پاتاي
پاتل
پاتو
پاتي
پادري
پادريء
پادرين
پادشاهه
پار
پارا
پاران
پاراي
پارس
پارسي
پارسيء
پارسين
پارلياماني
پارليامينٽ
پارليامينٽري
پارليامينٽرين
پارن
پارو
پاروتي
پاري
پارٽ
پارٽنرشپ
پارٽي
پارٽيء
پارٽيز
پارٽين
پارٽيون
پارپولا
پارک
پارکو
پارڪ
پارڪر
پارڪري
پاس
پاسا
پاسارگاد
پاساي
پاسداري
پاسن
پاسو
پاسي
پاسيرو
پاسپورٽ
پاشا
پال
پالاري
پالاي
پالتو
پالش
پالنا
پالي
پاليء
پاليسي
پاليسيء
پاليسين
پاليسيون
پاليل
پاليندا
پاليندڙ
پاليو
پالڪ
پالڪي
پالڪيء
پالڻ
پالڻهار
پامير
پان
پاناما
پاند
پاني
پانيل
پانيلن
پانڊو
پانڊون
پانڌي
پانڌيي
پاهڙ
پاهڻ
پاوا
پاور
پاون
پاي
پايا
پايه
پايو
پايون
پايي
پاٺ
پاٽ
پاٽاي
پاٽن
پاٽنجر
پاٽولي
پاپ
پاپاي
پاپوا
پاپوش
پاپولر
پاٿ
پاڇا
پاڇو
پاڇي
پاڇيلي
پاڙ
پاڙا
پاڙن
پاڙو
پاڙون
پاڙي
پاڙيسري
پاڙيسرين
پاکستان
پاڪ
پاڪاي
پاڪستان
پاڪستاني
پاڪستانين
پاڪيزه
پاڪيٽ
پاڳارو
پاڳاري
پاڻ
پاڻمرادو
پاڻهي
پاڻي
پاڻيء
پاڻياٺ
پاڻيهي
پاڻيٺ
پاڻيپٽ
پبلشر
پبلشرز
پبلشنگ
پبليڪشن
پبليڪيشن
پبلڪ
پبلڪيشن
پت
پتا
پتافي
پتر
پترا
پتل
پتلو
پتلي
پتن
پتو
پتوجا
پتوڙيو
پتي
پتيء
پتڻ
پختا
پختو
پختون
پختونخوا
پختونن
پختي
پختگي
پد
پدم
پدما
پذير
پذيراي
پذيري
پر
پرا
پراجيڪٽ
پراسرار
پراسيس
پراسيڪيوٽر
پرامن
پراونسز
پراي
پراياي
پرايو
پراچين
پراڊڪشن
پراڪرت
پراگ
پراڻ
پراڻا
پراڻن
پراڻو
پراڻي
پراڻيء
پراڻين
پراڻيون
پربت
پرت
پرتاب
پرتشدد
پرتي
پرتگال
پرتگالي
پرجوش
پردا
پرداخت
پردازڪاري
پردن
پرده
پردو
پردي
پرديس
پرديسي
پرديش
پردہ
پرزا
پرزاي
پرزو
پرزور
پرساد
پرست
پرستش
پرستن
پرستي
پرستيء
پرسرام
پرسن
پرسنل
پرسڪون
پرش
پرشاد
پرشن
پرشيا
پرشين
پرفارم
پرفارمنس
پرل
پرلوڪ
پرمار
پرمانند
پرميل
پرن
پرنس
پرنسلي
پرنسيپال
پرنسپال
پرنسپل
پرنسپلٽي
پرنٹرز
پرنٽ
پرنٽر
پرنٽرس
پرنٽنگ
پرهه
پرهيز
پرهيزگار
پرو
پرواز
پروان
پروانو
پرواهه
پروجيڪٽ
پرور
پرورش
پروسيس
پروسيسر
پروسيسنگ
پروشيا
پروف
پروفاي
پروفيسر
پروفيشنل
پرولي
پروليء
پروموشن
پروهت
پرويز
پروين
پروٽان
پروٽسٽنٽ
پروٽو
پروٽوڪول
پروٽيسٽنٽ
پروٽين
پروپي
پروپيگنڊا
پروڊيوس
پروڊيوسر
پروڊڪشن
پروڙ
پروڙي
پروڪسيما
پروگرام
پروگرامن
پروگرامنگ
پروگريسو
پري
پريا
پريان
پرياگ
پريت
پريتم
پريزيڊنسي
پريزيڊنٽ
پريس
پريشان
پريشاني
پريشانين
پريشر
پريشن
پريفيڪچر
پريل
پريم
پريميي
پرين
پرينء
پريون
پريوگ
پريوڳ
پريٽر
پريٽنگ
پريٽو
پريڊ
پريڪٽس
پرٿ
پرٿوي
پرڀات
پرڀاتي
پرڀرو
پرڀو
پرچا
پرچار
پرچارڪ
پرچن
پرچو
پرچي
پرڏيهه
پرڏيهي
پرڏيھ
پرڏيھي
پرک
پرکي
پرکيو
پرکڻ
پرڪاش
پرڪرتي
پرڪشش
پرگت
پرگهور
پرڳڻا
پرڳڻن
پرڳڻو
پرڳڻي
پرڻ
پرڻاي
پرڻجي
پرڻجڻ
پرڻو
پرڻي
پرڻيل
پرڻيو
پرھ
پرھيز
پریزاي
پس
پسارڪو
پسارڪي
پساهه
پساي
پست
پستا
پستڪ
پستڪن
پسراي
پسمنظر
پسند
پسندن
پسندي
پسنديء
پسنديده
پسني
پسي
پسٽل
پسگرداي
پسڻ
پشاور
پشت
پشتو
پشتون
پشم
پشين
پشپا
پشڪر
پـ
پل
پلا
پلاء
پلازما
پلاسٽڪ
پلان
پلاند
پلاننگ
پلانٽ
پلاي
پلاٽ
پلاڻ
پلجي
پلس
پلستر
پلنگ
پلو
پلوٽو
پلي
پليجاڻي
پليجو
پليجي
پلين
پليو
پليي
پليٽ
پليٽفارم
پليگ
پلٽڻ
پلیٹ
پمفليٽ
پمپ
پن
پنا
پناه
پناهه
پناهگير
پناهگيرن
پناھ
پناھگير
پناھگيرن
پنج
پنجاب
پنجابي
پنجابيء
پنجابين
پنجابی
پنجاه
پنجاهه
پنجاھ
پنجن
پنجو
پنجواڻي
پنجواڻيء
پنجون
پنجويهن
پنجويهه
پنجويھ
پنجي
پنجين
پنجٽيهه
پنجگور
پندرنهن
پندرهن
پندرهين
پندرھن
پندرھين
پنري
پنن
پنهجي
پنهل
پنهنجا
پنهنجن
پنهنجو
پنهنجون
پنهنجي
پنهنجيء
پنهنجين
پنهنجيون
پنهوار
پنهور
پنهورن
پنهون
پنهونء
پنو
پنوعاقل
پني
پنير
پنٿ
پنچ
پنچاي
پنچم
پنڈی
پنڊ
پنڊت
پنڊتن
پنڊي
پنڌ
پنگ
پنگتي
پنگريو
پنگھورو
پنھجي
پنھنجا
پنھنجن
پنھنجو
پنھنجون
پنھنجي
پنھنجيون
پنھوارو
پنھور
پنھون
پنھونء
پهاڙ
پهاڙن
پهاڙي
پهاڪا
پهاڪن
پهاڪو
پهاڪي
پهتا
پهتس
پهتل
پهتو
پهتي
پهتيون
پهر
پهراي
پهراڻ
پهرن
پهري
پهريان
پهرياي
پهريدار
پهريل
پهرين
پهرينء
پهريو
پهريون
پهلو
پهلوء
پهلوان
پهلوانن
پهلوي
پهچ
پهچاي
پهچايو
پهچن
پهچندا
پهچندو
پهچندي
پهچندڙ
پهچي
پهچڻ
پهڻ
پهڻن
پو
پوء
پواي
پوتر
پوجا
پور
پورا
پوراي
پورب
پورس
پورن
پورهي
پورهيت
پورهيتن
پورهيو
پورهيي
پورو
پوري
پوريء
پوريل
پوريون
پورٽ
پورٽريٽ
پورٽس
پورچو
پورچوگال
پورچوگيز
پورچوگيزن
پورچوگيزي
پورچوگيزين
پورڻ
پورھيت
پورہ
پوزيشن
پوسل
پوسٽ
پوسٽل
پوش
پوشاڪ
پوشي
پول
پولار
پولش
پولنگ
پولو
پولي
پوليس
پولينيشيا
پولينڊ
پوليٽيڪل
پوليٽيڪو
پولٽ
پون
پونا
پونجا
پونجي
پوندا
پوندو
پوندي
پونديون
پوندڙ
پونم
پوني
پونير
پوي
پويان
پويتر
پوين
پويون
پوٺو
پوٽا
پوٽر
پوٽن
پوٽو
پوٽوھاري
پوٽي
پوٽيشم
پوپ
پوپٽ
پوپٽي
پوڄا
پوڄاري
پوڄيندا
پوڄڻ
پوڙها
پوڙهو
پوڙهي
پوک
پوکبا
پوکبو
پوکبي
پوکجن
پوکجي
پوکن
پوکي
پوکيء
پوکيا
پوکيل
پوکيندا
پوکيو
پوکيون
پوکڻ
پوڪرداس
پوڻ
پوڻا
پي
پيء
پيا
پيادا
پيادل
پيار
پيارا
پياربو
پيارجي
پيارن
پيارو
پياري
پياريندڙ
پياريو
پيارڻ
پياس
پياسي
پيالا
پيالن
پيالو
پيالي
پيام
پيانو
پياڪ
پيتو
پيتي
پيج
پيدا
پيداوار
پيداواري
پيداي
پيدل
پيدوار
پير
پيرا
پيران
پيراي
پيراگوي
پيرزادو
پيرزادي
پيرس
پيرساي
پيرسن
پيرل
پيرن
پيرو
پيروز
پيرون
پيرونء
پيروي
پيروڪار
پيروڪارن
پيري
پيريء
پيرين
پيزلي
پيس
پيسا
پيسفڪ
پيسن
پيسو
پيسي
پيسيفڪ
پيسٽ
پيش
پيشاب
پيشابدان
پيشاني
پيشانيء
پيشقدمي
پيشن
پيشنگوي
پيشه
پيشو
پيشوا
پيشواي
پيشي
پيشڪار
پيشڪش
پيغام
پيغمبر
پيغمبرن
پيل
پيلا
پيلاڻ
پيلن
پيلو
پيلي
پيليوليٿڪ
پيما
پيمانو
پيماني
پيماي
پيمرا
پين
پينسل
پينشن
پينل
پينٽ
پينٽر
پينٽنگ
پينٽنگز
پيهي
پيهڻ
پيو
پيوتن
پيون
پيوند
پيوٽن
پيي
پيٽ
پيٽارو
پيٽر
پيٽرز
پيٽرول
پيٽروليم
پيٽرڪ
پيٽي
پيپر
پيپل
پيپلز
پيپلزپارٽي
پيپلزپارٽيء
پيچ
پيچرو
پيچش
پيچوھا
پيچيده
پيچيدھ
پيڇو
پيڊ
پيڊرو
پيڊيا
پيڙا
پيڙهه
پيڙهي
پيڙهيء
پيڙهين
پيڙي
پيڙھ
پيڪ
پيڪنگ
پيڪو
پيڪٽ
پيڻ
پٹ
پٺ
پٺاڻ
پٺاڻن
پٺتي
پٺن
پٺو
پٺي
پٺيء
پٺيان
پٺڀراي
پٻ
پٻڻ
پٽ
پٽا
پٽالا
پٽاندر
پٽاندڙ
پٽاٽا
پٽاٽي
پٽجي
پٽن
پٽنا
پٽو
پٽي
پٽيء
پٽيالا
پٽيالہ
پٽيشن
پٽيل
پٽين
پٽيون
پٽڙو
پٽڙي
پٽڪو
پٽڻ
پپر
پپراسر
پٿر
پٿراي
پٿرن
پٿري
پٿريء
پٿريلي
پٿورو
پٿوري
پٿيا
پڃرو
پڃري
پڄاڻان
پڄاڻي
پڄاڻيء
پڄندي
پڄي
پچ
پچاء
پچاي
پچندو
پچو
پچي
پچڻ
پڇ
پڇا
پڇاڙي
پڇاڙيء
پڇمي
پڇندو
پڇو
پڇي
پڇيا
پڇياي
پڇيو
پڇڙ
پڇڙي
پڇڻ
پڊ
پڊعيدن
پڊوڪون
پڌ
پڌاري
پڌاريو
پڌرا
پڌراي
پڌرنامو
پڌرنامي
پڌرو
پڌري
پڌريون
پڙ
پڙاڏو
پڙتال
پڙن
پڙهاي
پڙهايا
پڙهاياي
پڙهايو
پڙهن
پڙهندا
پڙهندو
پڙهندي
پڙهندڙ
پڙهندڙن
پڙهه
پڙهو
پڙهي
پڙهيا
پڙهياي
پڙهيل
پڙهيو
پڙهيون
پڙهڻ
پڙهڻي
پڙي
پڙھاي
پڙھايو
پڙھندا
پڙھندڙ
پڙھي
پڙھيا
پڙھيل
پڙھيو
پڙھيون
پڙھڻ
پڦي
پک
پکا
پکن
پکو
پکي
پکيء
پکين
پکيڙ
پکيڙي
پکيڙيو
پکيڙڻ
پکڙجندڙ
پکڙجي
پکڙجڻ
پکڙي
پکڙيا
پکڙيل
پکڙيو
پڪ
پڪا
پڪار
پڪاريو
پڪل
پڪن
پڪو
پڪوڙا
پڪي
پڪين
پڪيون
پڪڙ
پڪڙجي
پڪڙي
پڪڙيو
پڪڙڻ
پگهار
پگهر
پگھار
پڳ
پڳدار
پڻ
پڻس
پڻو
پڻي
پھاڙ
پھاڙن
پھاڙي
پھتا
پھتو
پھتي
پھر
پھري
پھريان
پھرياي
پھرين
پھريون
پھلو
پھلوان
پھلوي
پھلويء
پھچ
پھچاي
پھچايو
پھچن
پھچندو
پھچندي
پھچي
پھچڻ
پہ
پہلی
پی
پیدا
پیداي
پیر
پیش
ٿ
ٿا
ٿالهه
ٿالهي
ٿامس
ٿان
ٿانء
ٿانهينء
ٿانو
ٿانور
ٿانورداس
ٿانون
ٿانوي
ٿاي
ٿاڪ
ٿاڻا
ٿاڻن
ٿاڻو
ٿاڻي
ٿجي
ٿر
ٿرام
ٿراپي
ٿرسو
ٿرلر
ٿرمل
ٿرو
ٿري
ٿرين
ٿرپارڪر
ٿرڊ
ٿرڙي
ٿس
ٿل
ٿلها
ٿلهو
ٿلهي
ٿلهيون
ٿلڳ
ٿلھو
ٿلھي
ٿلھيون
ٿن
ٿنڀ
ٿنڀا
ٿنڀن
ٿنڀو
ٿنڪ
ٿهيم
ٿو
ٿورا
ٿوراي
ٿورن
ٿورو
ٿوري
ٿوريون
ٿورڙا
ٿورڙن
ٿورڙو
ٿورڙي
ٿولهه
ٿولھ
ٿولھھ
ٿوم
ٿوهر
ٿوڪ
ٿي
ٿيء
ٿيا
ٿياسافيڪل
ٿياسين
ٿيان
ٿيس
ٿيسز
ٿيل
ٿيلن
ٿيلهي
ٿيم
ٿين
ٿيندا
ٿيندس
ٿيندو
ٿيندي
ٿينديون
ٿيندڙ
ٿيندڙن
ٿينس
ٿيو
ٿيوري
ٿيون
ٿيي
ٿيٻو
ٿيٽر
ٿيڻ
ٿيڻا
ٿيڻو
ٿيڻي
ٿڃ
ٿڌ
ٿڌا
ٿڌو
ٿڌي
ٿڌيون
ٿڌڙي
ٿڏي
ٿڙ
ٿڙن
ٿڪ
ٿڪاوٽ
ٿڪاي
ٿڪجي
ٿڻ
ٿڻن
ڀ
ڀا
ڀاء
ڀاتي
ڀاتين
ڀار
ڀارت
ڀارتي
ڀاري
ڀاشا
ڀاشاني
ڀان
ڀانت
ڀانن
ڀاني
ڀانيو
ڀاو
ڀاوي
ڀاي
ڀاٽيا
ڀاٽيه
ڀاڃ
ڀاڄ
ڀاڄاي
ڀاڄي
ڀاڄيء
ڀاڄين
ڀاڄيون
ڀاڙي
ڀاڪر
ڀاڱا
ڀاڱن
ڀاڱو
ڀاڱي
ڀاڱيدار
ڀاڱيداري
ڀاڳ
ڀاڳت
ڀاڳو
ڀاڳي
ڀاڳيا
ڀاڻ
ڀاڻس
ڀاڻيجو
ڀاڻيجي
ڀت
ڀتر
ڀتين
ڀتيون
ڀر
ڀراي
ڀرت
ڀرتي
ڀرجي
ڀرجڻ
ڀرسان
ڀرمي
ڀرندو
ڀرندي
ڀرندڙ
ڀرو
ڀروسو
ڀروسي
ڀري
ڀريا
ڀريل
ڀرين
ڀريندا
ڀريندو
ڀريندي
ڀريو
ڀريون
ڀريي
ڀرپاسي
ڀرپور
ڀرچونڊي
ڀرڪيو
ڀرڳڙي
ڀرڳڙيء
ڀرڻ
ڀسم
ڀل
ڀلا
ڀلاي
ڀلجي
ڀلو
ڀلوڙ
ڀلي
ڀليء
ڀليڏنو
ڀليڪار
ڀنڀرو
ڀنڀري
ڀنڀور
ڀنڊ
ڀنڊار
ڀنگ
ڀنگر
ڀنگوار
ڀو
ڀواي
ڀوت
ڀور
ڀورا
ڀورو
ڀوري
ڀوسلي
ڀوشن
ڀولا
ڀولڙا
ڀولڙي
ڀومي
ڀوميء
ڀون
ڀونء
ڀونوچ
ڀونگر
ڀوٽان
ڀوپال
ڀوڄ
ڀوڄراج
ڀوڏيسر
ڀوڳ
ڀي
ڀياس
ڀيانڪ
ڀيد
ڀير
ڀيرا
ڀيرو
ڀيرومل
ڀيروي
ڀيري
ڀيل
ڀيلن
ڀيم
ڀينء
ڀينر
ڀينرن
ڀينرون
ڀيو
ڀيٽ
ڀيٽا
ڀيٽي
ڀيٽيو
ڀيچي
ڀيڙو
ڀيڻ
ڀيڻون
ڀٽ
ڀٽا
ڀٽاي
ڀٽن
ڀٽو
ڀٽون
ڀٽي
ڀٽيء
ڀڃ
ڀڃبو
ڀڃي
ڀڃڪڙي
ڀڃڪڙين
ڀڃڻ
ڀڃڻي
ڀڄ
ڀڄاي
ڀڄن
ڀڄندو
ڀڄي
ڀڄڻ
ڀڙ
ڀڙڪاي
ڀڙڪي
ڀڪر
ڀڪشو
ڀگوان
ڀڳ
ڀڳا
ڀڳت
ڀڳتن
ڀڳتي
ڀڳل
ڀڳو
ڀڳوان
ڀڳوانداس
ڀڳوت
ڀڳونتي
ڃ
ڃاتو
ڃاتي
ڃاڻپ
ڃي
ڄ
ڄاتل
ڄاتو
ڄاتي
ڄار
ڄارو
ڄاري
ڄاريء
ڄارين
ڄاريون
ڄام
ڄامشورو
ڄامشوري
ڄامن
ڄاموٽ
ڄامڙو
ڄانڀو
ڄانڀي
ڄاوا
ڄاول
ڄاي
ڄاڃي
ڄاڙي
ڄاڙيء
ڄاڻ
ڄاڻا
ڄاڻان
ڄاڻاي
ڄاڻايا
ڄاڻايل
ڄاڻايو
ڄاڻن
ڄاڻندو
ڄاڻندي
ڄاڻندڙ
ڄاڻو
ڄاڻون
ڄاڻي
ڄاڻڻ
ڄم
ڄمار
ڄماي
ڄمايو
ڄمن
ڄمندي
ڄمون
ڄمي
ڄميل
ڄميو
ڄمڻ
ڄو
ڄي
ڄيٺ
ڄيٺانند
ڄيٺمل
ڄيٺملاڻي
ڄٽ
ڄڀ
ڄڃ
ڄڻ
ڄڻا
ڄڻن
ڄڻو
ڄڻي
ڄڻڪ
ڄڻڻ
چ
چا
چاء
چابھار
چادر
چادرن
چادرون
چار
چارج
چارسده
چارلس
چارلي
چارن
چارو
چاري
چاريا
چاريندا
چاريه
چارٽ
چارٽر
چارڻ
چارڻن
چاغي
چاقو
چال
چالاڪ
چالاڪي
چالو
چاليهن
چاليهه
چاليھ
چاند
چاندني
چاندي
چانديء
چانسلر
چانهه
چانهون
چانور
چانورن
چانڊوڪي
چانڊوڪيء
چانڊي
چانڊيا
چانڊين
چانڊيو
چانڊيي
چانڊڪا
چانڊڪي
چانگ
چانھ
چانھن
چاهه
چاهي
چاهيان
چاهين
چاهيندا
چاهيندو
چاهيندي
چاهيو
چاهيون
چاي
چاٻي
چاپ
چاچ
چاچا
چاچن
چاچو
چاچي
چاچڙ
چاچڪان
چاڊ
چاڙهن
چاڙهه
چاڙهي
چاڙهين
چاڙهيندا
چاڙهيو
چاڙهڻ
چاڙھ
چاڙھي
چاڙھيو
چاڙھڻ
چاڪ
چاڪر
چاڪليٽ
چاڳلا
چاڳلي
چاڳليء
چاڻڪيه
چاھ
چاھي
چاھيو
چتاء
چتر
چترال
چترڪار
چترڪاري
چتور
چر
چراغ
چراگاهه
چراگاھ
چراگاھون
چرتر
چرخو
چرخي
چرس
چرن
چري
چرياي
چرين
چريو
چريون
چرٻي
چرٻيء
چرپر
چرچ
چرچو
چرڪس
چرڻ
چست
چشتي
چشم
چشما
چشمن
چشمو
چشمي
چغتاي
چقمق
چقمقي
چل
چلت
چلم
چلي
چليء
چلڊرين
چم
چمبڙ
چمن
چمي
چمپا
چمچو
چمچي
چمڙو
چمڙي
چمڙيء
چمڪ
چمڪاي
چمڪدار
چمڪندڙ
چمڪي
چن
چنا
چناب
چناي
چنبا
چنبن
چنبي
چنبيلي
چنبڙاي
چنبڙي
چنجڻي
چند
چندا
چندر
چندرونسي
چندريگر
چندرگپت
چندن
چندو
چندي
چنه
چنو
چني
چنيسر
چنيوٽ
چنڊ
چنڊن
چنڊول
چنڙ
چنگ
چنگيز
چنگيزي
چنگھاي
چنڱڙو
چه
چهرو
چهري
چهنب
چهنبدار
چهچ
چو
چوان
چوانء
چواي
چواڻي
چوديواريء
چور
چوراي
چورس
چورن
چورنگي
چورو
چوري
چوطرف
چولستان
چولو
چولي
چولياڻي
چوماسو
چوماسي
چون
چوندا
چوندو
چوندي
چونديون
چونس
چوني
چونڊ
چونڊبا
چونڊجي
چونڊجڻ
چونڊن
چونڊون
چونڊي
چونڊيا
چونڊيل
چونڊيندا
چونڊيندو
چونڊيندي
چونڊيو
چونڊڻ
چونڪ
چونڪي
چوهاڻ
چوهڙ
چوويهن
چوويهه
چوي
چويهه
چوٽ
چوٽي
چوٽيء
چوٽين
چوٽيون
چوپاي
چوپايو
چوپڙا
چوٿاي
چوٿون
چوٿين
چوڌاري
چوڌري
چوڏس
چوڏنهن
چوڏهن
چوڏهين
چوڏھن
چوڏھون
چوڏھين
چوڙيون
چوڦير
چوڪ
چوڪنڊو
چوڪنڊي
چوڪور
چوڪي
چوڪيون
چوگرد
چوڻ
چوڻي
چوڻيء
چوڻين
چوڻيون
چي
چيا
چيانگ
چياي
چيتا
چيتن
چيخوف
چير
چيري
چيز
چيزل
چيس
چيف
چيل
چيلا
چيلنج
چيلهار
چيلهه
چيلو
چيلينج
چيلھ
چيمبر
چيمپيي
چين
چينل
چينلن
چيني
چينيء
چينين
چينڊلر
چيو
چيون
چيي
چيٽ
چيٽي
چيچ
چيچن
چيچنيا
چيڪ
چيڪلو
چيڪي
چٽ
چٽا
چٽاي
چٽاڀيٽي
چٽاڀيٽيء
چٽسالي
چٽساليء
چٽن
چٽو
چٽي
چٽيء
چٽيل
چٽيو
چٽڻي
چپ
چپلن
چپن
چپي
چڀڙ
چچ
چچا
چچنامو
چچنامي
چچنيا
چڙ
چڙهاي
چڙهندا
چڙهندو
چڙهندي
چڙهي
چڙهيا
چڙهيل
چڙهيو
چڙهڻ
چڙيا
چڙھاي
چڙھي
چڙھيل
چڙھڻ
چک
چکڻ
چڪ
چڪا
چڪاس
چڪر
چڪريون
چڪس
چڪو
چڪوال
چڪور
چڪوري
چڪي
چڪيون
چڱا
چڱاي
چڱن
چڱو
چڱي
چڱيء
چڱيون
چڳڙ
چڻ
چڻا
چڻن
چھري
چھل
چھنب
چھوڑ
چین
ڇ
ڇا
ڇاتي
ڇاتيء
ڇاتين
ڇالاء
ڇانو
ڇانوڻي
ڇانوڻيء
ڇاني
ڇانيل
ڇانگ
ڇاي
ڇاٻڙيا
ڇاپ
ڇاپا
ڇاپاڪو
ڇاپاڪي
ڇاپخاني
ڇاپن
ڇاپو
ڇاپي
ڇاپيا
ڇاپيو
ڇاپڻ
ڇاڇرو
ڇاڇري
ڇاڙ
ڇاڙهه
ڇاڪاڻ
ڇاڻ
ڇاڻي
ڇت
ڇتو
ڇتي
ڇتيس
ڇتين
ڇتيون
ڇجو
ڇر
ڇرڪ
ڇلا
ڇلاي
ڇلر
ڇلو
ڇلي
ڇليدار
ڇلگري
ڇن
ڇند
ڇني
ڇنڇر
ڇنڊ
ڇنڊي
ڇنڊڇاڻ
ڇهن
ڇهه
ڇهون
ڇهين
ڇهڻ
ڇو
ڇوت
ڇوته
ڇوتہ
ڇوجو
ڇور
ڇوليون
ڇوٽ
ڇوٽي
ڇوٽڪارو
ڇوٽڪاري
ڇوڏا
ڇوڏن
ڇوڏو
ڇوڏي
ڇوڙ
ڇوڙي
ڇوڪر
ڇوڪرا
ڇوڪرن
ڇوڪرو
ڇوڪري
ڇوڪريء
ڇوڪرين
ڇوڪريون
ڇي
ڇيد
ڇيلا
ڇيهو
ڇيو
ڇيڙ
ڇيڙا
ڇيڙن
ڇيڙو
ڇيڙي
ڇيڻن
ڇيڻو
ڇيڻي
ڇٺيء
ڇٽ
ڇٽاي
ڇٽل
ڇٽو
ڇٽي
ڇپ
ڇپاي
ڇپايا
ڇپاياي
ڇپايل
ڇپايو
ڇپبا
ڇپجندا
ڇپجنديون
ڇپجندڙ
ڇپجي
ڇپجڻ
ڇپر
ڇپراي
ڇپرايا
ڇپرايو
ڇپي
ڇپيا
ڇپيل
ڇپيندڙ
ڇپيو
ڇپيون
ڇڄ
ڇڄي
ڇڄڙا
ڇڊا
ڇڊي
ڇڏ
ڇڏاي
ڇڏايو
ڇڏبو
ڇڏجن
ڇڏجي
ڇڏي
ڇڏيا
ڇڏيان
ڇڏياي
ڇڏيل
ڇڏين
ڇڏيندا
ڇڏيندس
ڇڏيندو
ڇڏيندي
ڇڏينديون
ڇڏيو
ڇڏيون
ڇڏڻ
ڇڏڻو
ڇڙ
ڇڙوڇڙ
ڇڙي
ڇڪ
ڇڪاي
ڇڪايو
ڇڪتاڻ
ڇڪجي
ڇڪي
ڇڪيندا
ڇڪيو
ڇڪڻ
ڇڳا
ڇڻ
ڇڻي
ڇھ
ڇھن
ڇھون
ڇھين
ڇھہ
ڈ
ڈاکٹر
ڈبلیو
ڈگر
ڈی
ڈیٹا
ڊ
ڊاء
ڊارو
ڊارون
ڊالر
ڊالرن
ڊالي
ڊالٽن
ڊان
ڊانس
ڊانسر
ڊاهه
ڊاهي
ڊاهڻ
ڊاي
ڊاٽ
ڊاڀڙو
ڊاک
ڊاڪ
ڊاڪٽر
ڊاڪٽرن
ڊاڪٽري
ڊاڪٽريٽ
ڊاڪٽوريٽ
ڊاگ
ڊبل
ڊبلن
ڊبليو
ڊجيٽل
ڊراما
ڊراماي
ڊرامن
ڊرامه
ڊرامو
ڊرامي
ڊراي
ڊرم
ڊرو
ڊروجن
ڊرون
ڊري
ڊريم
ڊرين
ڊرگ
ڊرگھ
ڊزاي
ڊزني
ڊزيز
ڊسمبر
ڊسمس
ڊسٽري
ڊسٽريبيوٽري
ڊسٽرڪٽ
ڊسپلي
ڊسپينسري
ڊسپينسريون
ڊسڪ
ڊفينس
ڊل
ڊمي
ڊن
ڊنڊي
ڊهي
ڊو
ڊواي
ڊول
ڊولپر
ڊولپمينٽ
ڊومين
ڊونلڊ
ڊويزن
ڊويزنل
ڊويزنن
ڊويزنون
ڊويڊنڊ
ڊوڙ
ڊوڙاي
ڊوڙي
ڊوڙڻ
ڊوگر
ڊي
ڊيء
ڊيرا
ڊيره
ڊيز
ڊيزاي
ڊيساي
ڊيسڪ
ڊيشن
ڊيل
ڊيلي
ڊيلٽا
ڊيم
ڊيمن
ڊيموڪريسي
ڊيموڪريٽس
ڊيموڪريٽڪ
ڊيمي
ڊين
ڊينش
ڊينمارڪ
ڊينور
ڊيني
ڊينٽل
ڊينگو
ڊينگي
ڊيو
ڊيورانٽ
ڊيورنٽ
ڊيوس
ڊيولپمينٽ
ڊيوٽي
ڊيوڊ
ڊيوڪ
ڊيي
ڊيٽا
ڊيٽابيس
ڊيٽر
ڊيٽوريم
ڊيپو
ڊيگهه
ڊيگھ
ڊيگھه
ڊيگھھ
ڊيگھہ
ڊٺل
ڊٻ
ڊپ
ڊپارٽمينٽ
ڊپريشن
ڊپلوما
ڊپلوميسي
ڊپٽي
ڊپٽيز
ڊڀري
ڊڄي
ڊچ
ڊچي
ڊکڻ
ڊڪ
ڊڪشت
ڊڪشنري
ڊڪشنريء
ڊڪشنرين
ڊڪشنريون
ڊڪٽيٽر
ڊگري
ڊگرين
ڊگريون
ڊگها
ڊگهاي
ڊگهن
ڊگهو
ڊگهي
ڊگهين
ڊگهيون
ڊگھ
ڊگھا
ڊگھاي
ڊگھن
ڊگھو
ڊگھي
ڊگھيون
ڊھي
ڌ
ڌا
ڌات
ڌاتن
ڌاتو
ڌاتوء
ڌاتوي
ڌار
ڌارا
ڌاران
ڌاراي
ڌارن
ڌارو
ڌاري
ڌاريا
ڌاريجو
ڌاريل
ڌارين
ڌاريو
ڌارڻ
ڌام
ڌامراھ
ڌامراھا
ڌامراھو
ڌاي
ڌايو
ڌاڙا
ڌاڙو
ڌاڙي
ڌاڙيل
ڌاڙيلن
ڌاڪو
ڌاڳا
ڌاڳن
ڌاڳو
ڌاڳي
ڌاڻا
ڌر
ڌرتي
ڌرتيء
ڌرم
ڌرما
ڌرمداس
ڌرمن
ڌرمي
ڌري
ڌرين
ڌريو
ڌريون
ڌرڀاء
ڌرڻا
ڌرڻو
ڌل
ڌم
ڌمال
ڌماڪا
ڌماڪن
ڌماڪو
ڌماڪي
ڌماڪيدار
ڌمت
ڌمڪ
ڌمڪي
ڌمڪيون
ڌن
ڌنار
ڌنون
ڌنڌ
ڌنڌا
ڌنڌن
ڌنڌو
ڌنڌي
ڌو
ڌوم
ڌوي
ڌوٻي
ڌوپ
ڌوڙ
ڌوڪو
ڌوڪي
ڌي
ڌيء
ڌيان
ڌيوت
ڌيي
ڌيڪ
ڌيگام
ڌٻڻ
ڌپ
ڌڙ
ڌڙن
ڌڙي
ڌڙڪن
ڌڙڪي
ڌڙڪڻ
ڌڪ
ڌڪا
ڌڪار
ڌڪي
ڌڪڻ
ڌڱ
ڌڱاڻو
ڌڻ
ڌڻي
ڌڻيء
ڌڻين
ڍ
ڍار
ڍال
ڍانچا
ڍانچو
ڍانچي
ڍاي
ڍاٽ
ڍاٽڪي
ڍاڪا
ڍاڻي
ڍرو
ڍل
ڍنڍ
ڍنڍن
ڍنڍون
ڍنگ
ڍو
ڍور
ڍورا
ڍورن
ڍورو
ڍوري
ڍول
ڍولڪ
ڍوي
ڍي
ڍير
ڍڪ
ڍڪجي
ڍڪي
ڍڪيل
ڍڪيندا
ڍڪيو
ڍڪڻ
ڍڳ
ڍڳا
ڍڳن
ڍڳو
ڍڳي
ڍڳين
ڍڳيون
ڏ
ڏا
ڏات
ڏاتار
ڏاتر
ڏاتو
ڏاج
ڏار
ڏاريندڙ
ڏاس
ڏام
ڏامر
ڏامندڙ
ڏامي
ڏامڻ
ڏانء
ڏاند
ڏانهس
ڏانهن
ڏانڊاڙ
ڏانڊي
ڏانڊيء
ڏانھن
ڏاها
ڏاهر
ڏاهري
ڏاهريء
ڏاهن
ڏاهو
ڏاهي
ڏاهپ
ڏاي
ڏاچي
ڏاڍ
ڏاڍا
ڏاڍاي
ڏاڍو
ڏاڍي
ڏاڍيء
ڏاڍيون
ڏاڏ
ڏاڏا
ڏاڏن
ڏاڏو
ڏاڏي
ڏاڏيء
ڏاڙهون
ڏاڙهونء
ڏاڙهي
ڏاڙهياري
ڏاڙھون
ڏاکڻو
ڏاکڻي
ڏاکڻين
ڏاکڻيون
ڏاڪا
ڏاڪو
ڏاڪي
ڏاڪڻ
ڏاھر
ڏاھري
ڏاھپ
ڏبو
ڏبي
ڏتل
ڏجن
ڏجي
ڏجين
ڏر
ڏس
ڏسان
ڏسبا
ڏسبو
ڏسجن
ڏسجي
ڏسجڻ
ڏسن
ڏسندا
ڏسندو
ڏسندي
ڏسندڙ
ڏسندڙن
ڏسو
ڏسون
ڏسي
ڏسڻ
ڏسڻو
ڏسڻي
ڏن
ڏنا
ڏناي
ڏند
ڏندن
ڏندڪٿا
ڏندڪٿاي
ڏندڻ
ڏنس
ڏنل
ڏنو
ڏنومل
ڏني
ڏنيون
ڏنڊ
ڏنڊو
ڏنڊي
ڏنگ
ڏنگي
ڏنگين
ڏه
ڏهاي
ڏهاڙا
ڏهاڙن
ڏهاڙو
ڏهاڙي
ڏهاڪن
ڏهاڪو
ڏهاڪي
ڏهر
ڏهراج
ڏهرسيه
ڏهرن
ڏهرڪي
ڏهن
ڏهه
ڏهون
ڏهي
ڏهين
ڏهڪاء
ڏو
ڏواڻي
ڏواڻيء
ڏور
ڏورانهن
ڏورانهين
ڏوري
ڏونگر
ڏوه
ڏوهاري
ڏوهارين
ڏوهن
ڏوهه
ڏوهي
ڏوهٽو
ڏوي
ڏوڏي
ڏوکي
ڏوڪري
ڏوڪريء
ڏوڪڙ
ڏوھ
ڏوھاري
ڏوھن
ڏي
ڏيا
ڏيارام
ڏياري
ڏيارياي
ڏياريندڙ
ڏياريو
ڏيارڻ
ڏيان
ڏياچ
ڏيتي
ڏيجي
ڏير
ڏيرا
ڏيرو
ڏيري
ڏيساور
ڏين
ڏيندا
ڏينداسين
ڏيندس
ڏيندو
ڏيندي
ڏينديون
ڏيندڙ
ڏيندڙن
ڏينه
ڏينهن
ڏينهون
ڏينھن
ڏيهان
ڏيهن
ڏيهه
ڏيهي
ڏيو
ڏيوالو
ڏيوالي
ڏيون
ڏيي
ڏيپر
ڏيپلاي
ڏيپلو
ڏيپلي
ڏيپي
ڏيٿو
ڏيڍ
ڏيڏر
ڏيک
ڏيکاء
ڏيکار
ڏيکاربو
ڏيکاري
ڏيکاريا
ڏيکاريل
ڏيکارين
ڏيکاريندا
ڏيکاريندو
ڏيکاريندي
ڏيکاريو
ڏيکاريون
ڏيکارڻ
ڏيڻ
ڏيڻا
ڏيڻو
ڏيڻي
ڏيھ
ڏيھي
ڏٺ
ڏٺا
ڏٺاي
ڏٺل
ڏٺم
ڏٺو
ڏٺي
ڏٺيون
ڏٿ
ڏڌ
ڏڦيڙ
ڏک
ڏکن
ڏکوي
ڏکي
ڏکيا
ڏکياي
ڏکين
ڏکيو
ڏکڻ
ڏڪار
ڏڪر
ڏڪي
ڏڻ
ڏڻن
ڏھ
ڏھاي
ڏھاڙو
ڏھاڙي
ڏھاڪن
ڏھاڪي
ڏھن
ڏھون
ڏھي
ڏھين
ژوب
ڙ
ڙا
ڙاي
ڙس
ڙن
ڙو
ڙي
ڙيا
ڙيل
ڙيو
ڙيون
ڙڻ
ڦ
ڦار
ڦاساي
ڦاسي
ڦاسيء
ڦاهي
ڦاهيء
ڦاٽ
ڦاٽي
ڦاٽڪ
ڦاٽڻ
ڦاٿل
ڦاڙي
ڦاڪ
ڦاڪون
ڦاھي
ڦر
ڦرلٽ
ڦرمار
ڦرن
ڦرندا
ڦرندو
ڦرندي
ڦرندڙ
ڦري
ڦريل
ڦرين
ڦريو
ڦريون
ڦرڙين
ڦرڻ
ڦل
ڦلاڻي
ڦلجي
ڦلواڙي
ڦلي
ڦليلي
ڦليليء
ڦلپوٽو
ڦلڙيون
ڦلڪارو
ڦهلاء
ڦهلاي
ڦهلجي
ڦهليل
ڦورو
ڦول
ڦولن
ڦوهارو
ڦوهه
ڦوٽ
ڦوٽا
ڦوٽو
ڦوٽي
ڦوڙ
ڦوڪ
ڦوڳ
ڦوڳن
ڦير
ڦيرا
ڦيراي
ڦيرو
ڦيرواڻي
ڦيري
ڦيرڦار
ڦيرگهير
ڦيٿن
ڦيٿي
ڦٻاي
ڦٽ
ڦٽا
ڦٽاي
ڦٽل
ڦٽن
ڦٽندو
ڦٽو
ڦٽي
ڦٽيء
ڦٽيون
ڦٽڻ
ڦڙا
ڦڙن
ڦڙو
ڦڙڪاي
ڦڦڙ
ڦڦڙن
ڦڪا
ڦڪو
ڦڪي
ڦڳڻ
ڦڻ
ڦڻي
ڦھلاء
ڦھلاي
ڦھلجي
ڦھليل
ک
کا
کاء
کاتا
کاتن
کاتو
کاتي
کار
کارا
کاراي
کارايو
کارو
کاري
کاريء
کالونی
کام
کان
کانسواء
کاني
کانپو
کانپوء
کاهوڙي
کاهي
کاهيء
کاي
کاٻو
کاٻي
کاٽ
کاٽي
کاڄ
کاڌ
کاڌا
کاڌاي
کاڌل
کاڌن
کاڌو
کاڌي
کاڙ
کاڙو
کاڻ
کاڻن
کاڻون
کاڻوٺ
کاڻي
کاڻيء
کاڻين
کاڻيون
کاھي
کبرون
کبڙ
کبھی
کتاب
کتري
کترين
کتل
کجور
کجي
کجيء
کجين
کر
کراچی
کرب
کرتا
کرج
کرد
کرل
کرنے
کري
کرڙي
کسجي
کسي
کسيو
کسڻ
کش
کل
کلاڙي
کلاں
کلن
کلندي
کلون
کلي
کليا
کليل
کليو
کلڻ
کم
کن
کنا
کند
کنوڻ
کني
کنيا
کنياي
کنيل
کنيو
کنيون
کنڀ
کنڀات
کنڀن
کنڀي
کنڊ
کنڊر
کنڊرات
کنڊرن
کنڊن
کنڊو
کنگهه
کنگھ
کنگھار
که
کهاوڙ
کهنبا
کهنبو
کهڙو
کهڙي
کو
کوج
کوجنا
کوجناي
کوجي
کوریا
کوسا
کوسن
کوسو
کوسي
کولاي
کولي
کوليا
کولياي
کوليو
کوليون
کولڻ
کون
کونگهرن
کوهن
کوهه
کوي
کوٹ
کوٹلہ
کوٽ
کوٽاي
کوٽايا
کوٽايو
کوٽي
کوٽيل
کوٽڻ
کوپي
کوپڙي
کوپڙيء
کوڙ
کوڙي
کوڙيا
کوکر
کوھ
کي
کيا
کيتر
کيتلاري
کيتي
کير
کيرا
کيراي
کيرو
کيري
کيرٿر
کيس
کيل
کيم
کيمچند
کين
کيه
کيو
کيي
کيپ
کيڏندا
کيڏندو
کيڏي
کيڏيو
کيڏيون
کيڏڻ
کيڙي
کيہ
کٻي
کٻڙ
کٽ
کٽا
کٽاڻ
کٽمنڊو
کٽن
کٽو
کٽي
کٽيء
کٽيا
کٽياي
کٽياڻ
کٽيندڙ
کٽيو
کٽيون
کٽڻ
کپ
کپاي
کپت
کپرو
کپري
کپن
کپي
کڄي
کچھ
کڏ
کڏن
کڏو
کڏون
کڏي
کڏھري
کڙ
کڙا
کڙو
کڙي
کڻ
کڻاي
کڻن
کڻندا
کڻندو
کڻندي
کڻندڙ
کڻي
کڻڻ
کڻڻو
کھاوڙ
کھڙو
کہ
کی
کیا
کیمیاي
کیوں
کے
ڪ
ڪا
ڪابل
ڪابلي
ڪابه
ڪابينا
ڪابينه
ڪابہ
ڪات
ڪاتب
ڪاتي
ڪاتيار
ڪار
ڪارا
ڪاراباخ
ڪاراي
ڪاراڻ
ڪاراڻي
ڪارب
ڪاربان
ڪاربن
ڪارتڪ
ڪارج
ڪارخانا
ڪارخانن
ڪارخانو
ڪارخاني
ڪاررواي
ڪاررواين
ڪارروايون
ڪارزي
ڪارل
ڪارن
ڪارناما
ڪارنامن
ڪارنامو
ڪارنامي
ڪارنر
ڪارو
ڪاروان
ڪارواي
ڪاروايون
ڪاروبار
ڪاروباري
ڪارون
ڪارونجهر
ڪارونجھر
ڪاروهنوار
ڪاري
ڪاريء
ڪارين
ڪاريون
ڪاريگر
ڪاريگرن
ڪاريگري
ڪاريگريء
ڪارٽر
ڪارٽون
ڪارپوريشن
ڪارٿيج
ڪارڊ
ڪارڙا
ڪارڪ
ڪارڪردگي
ڪارڪردگيء
ڪارڪن
ڪارڪنن
ڪارگر
ڪارگل
ڪارڻ
ڪاس
ڪاساي
ڪاسني
ڪاسٽ
ڪاسٽر
ڪاش
ڪاشي
ڪاشيء
ڪاظم
ڪاظمي
ڪاغذ
ڪاغذن
ڪاغذي
ڪاف
ڪافر
ڪافرن
ڪافور
ڪافي
ڪافيء
ڪافين
ڪافيون
ڪال
ڪالا
ڪالاباغ
ڪالاڻي
ڪالج
ڪالرا
ڪالم
ڪالمن
ڪالهه
ڪالو
ڪالوني
ڪالونين
ڪالونيون
ڪالي
ڪاليج
ڪاليجز
ڪاليجن
ڪاليجي
ڪاليداس
ڪالڪا
ڪام
ڪاما
ڪامران
ڪامرس
ڪامريڊ
ڪامل
ڪامن
ڪامنز
ڪامورا
ڪامورن
ڪامورو
ڪامون
ڪامياب
ڪاميابي
ڪاميابيء
ڪاميابين
ڪاميابيون
ڪاميٽي
ڪاميٽيء
ڪاميٽين
ڪاميٽيون
ڪاميڊي
ڪامپليڪس
ڪان
ڪانء
ڪانسرٽ
ڪانفرس
ڪانفرنس
ڪانفرنسن
ڪانفرنسون
ڪانن
ڪانه
ڪانهن
ڪانهي
ڪانو
ڪانوينٽ
ڪاني
ڪانپور
ڪانڀو
ڪانڌڙا
ڪانڌڙو
ڪانڪريٽ
ڪانگ
ڪانگا
ڪانگريس
ڪانگريسي
ڪانگن
ڪانگو
ڪانھي
ڪانہ
ڪاه
ڪاهان
ڪاهن
ڪاهه
ڪاهو
ڪاهون
ڪاهي
ڪاهيو
ڪاو
ڪاوش
ڪاوشن
ڪاوڙ
ڪاوڙجي
ڪاي
ڪايا
ڪاٺ
ڪاٺي
ڪاٺيء
ڪاٺيا
ڪاٺياواڙ
ڪاٺين
ڪاٺيون
ڪاٽ
ڪاٽن
ڪاٽو
ڪاٽي
ڪاٽياي
ڪاٽڻ
ڪاپاري
ڪاپي
ڪاپيون
ڪاپڙي
ڪاٿو
ڪاٿي
ڪاڄ
ڪاڇو
ڪاڇي
ڪاڇڙي
ڪاڙهو
ڪاڙهي
ڪاڪ
ڪاڪا
ڪاڪو
ڪاڪوس
ڪاڪي
ڪاڪڙ
ڪاڻ
ڪاھ
ڪاھي
ڪبا
ڪباب
ڪبت
ڪبو
ڪبوتر
ڪبوترن
ڪبي
ڪبير
ڪتا
ڪتاب
ڪتابت
ڪتابن
ڪتابي
ڪتابڙا
ڪتابڙو
ڪتابڙي
ڪتب
ڪتبا
ڪتبخانا
ڪتبخانن
ڪتبخانو
ڪتبخاني
ڪتبن
ڪتبو
ڪتبي
ڪتن
ڪتو
ڪتي
ڪتڻ
ڪثرت
ڪثير
ڪج
ڪجانء
ڪجل
ڪجن
ڪجه
ڪجهه
ڪجهہ
ڪجو
ڪجي
ڪجھ
ڪجھه
ڪجھھ
ڪجھہ
ڪده
ڪر
ڪرا
ڪراس
ڪرافٽ
ڪرام
ڪرامت
ڪرامتن
ڪراي
ڪرايا
ڪراياي
ڪرايل
ڪرايو
ڪرايون
ڪراچي
ڪراچيء
ڪربلا
ڪربلاي
ڪرت
ڪرتار
ڪرتب
ڪرد
ڪردار
ڪردارن
ڪردستان
ڪردن
ڪرزي
ڪرسمس
ڪرسي
ڪرسيء
ڪرسٽل
ڪرسٽوفر
ڪرسچن
ڪرشن
ڪرشنا
ڪرغزستان
ڪرفيو
ڪرم
ڪرمان
ڪرماني
ڪرمتي
ڪرمنل
ڪرن
ڪرناٽڪ
ڪرناٽڪا
ڪرندا
ڪرندو
ڪرندي
ڪرندڙ
ڪرنسي
ڪرنل
ڪرنٽ
ڪرنگهي
ڪرنگھي
ڪرنگھيدار
ڪرو
ڪروز
ڪروسافٽ
ڪروموسوم
ڪرون
ڪرونا
ڪرونيشيا
ڪرونيڪل
ڪروي
ڪروڙ
ڪروڙن
ڪروڙين
ڪري
ڪريا
ڪريان
ڪريل
ڪريم
ڪريمن
ڪرين
ڪريو
ڪريون
ڪريي
ڪريٽ
ڪريٽر
ڪريڊٽ
ڪريڪ
ڪرٹ
ڪرٽيي
ڪرپالاڻي
ڪرپشن
ڪرڙ
ڪرڪ
ڪرڪيٽ
ڪرڪيٽر
ڪرگس
ڪرڻ
ڪرڻا
ڪرڻن
ڪرڻو
ڪرڻي
ڪزنس
ڪس
ڪساي
ڪسر
ڪسفورڊ
ڪسن
ڪسني
ڪسوٽي
ڪسي
ڪسيجن
ڪسٽم
ڪش
ڪشادا
ڪشادو
ڪشادي
ڪشتو
ڪشتي
ڪشش
ڪشف
ڪشفہ
ڪشمش
ڪشمور
ڪشمير
ڪشميري
ڪشمڪش
ڪشن
ڪشنچند
ڪشور
ڪشي
ڪعب
ڪعبة
ڪعبو
ڪعبي
ڪـ
ڪفايت
ڪفر
ڪفن
ڪفني
ڪل
ڪلا
ڪلاب
ڪلارڪ
ڪلاس
ڪلاسن
ڪلاسيڪل
ڪلاسيڪي
ڪلاسڪ
ڪلام
ڪلامن
ڪلامي
ڪلان
ڪلاي
ڪلاچي
ڪلاڪ
ڪلاڪار
ڪلاڪن
ڪلب
ڪلبي
ڪلثوم
ڪلر
ڪلراٺي
ڪلري
ڪلرڪ
ڪلفٽن
ڪلمتي
ڪلمو
ڪلمي
ڪلن
ڪلنٽن
ڪلهن
ڪلهه
ڪلهو
ڪلهوڙا
ڪلهوڙن
ڪلهوڙو
ڪلهوڙي
ڪلهي
ڪلو
ڪلوميٽر
ڪلوميٽرزچورس
ڪلوميٽرن
ڪلون
ڪلوي
ڪلوپيڊيا
ڪلوگرام
ڪلي
ڪليات
ڪلياڻ
ڪليري
ڪليسا
ڪليساي
ڪليم
ڪلين
ڪلينڊر
ڪلينڪ
ڪليون
ڪليي
ڪليڪٽر
ڪلٽي
ڪلپنا
ڪلچر
ڪلچرل
ڪلڪ
ڪلڪتا
ڪلڪتو
ڪلڪتي
ڪلھ
ڪلھوڙا
ڪلھوڙن
ڪلھوڙو
ڪلھوڙي
ڪم
ڪمار
ڪماري
ڪمال
ڪماليت
ڪمان
ڪمانڊ
ڪمانڊر
ڪمانڊرن
ڪماي
ڪمايو
ڪمبوڊيا
ڪمرا
ڪمرشل
ڪمرن
ڪمرو
ڪمري
ڪمزور
ڪمزوري
ڪمزوريء
ڪمزورين
ڪمشنر
ڪمشنري
ڪمل
ڪملا
ڪمن
ڪمند
ڪمي
ڪميشن
ڪميون
ڪميونزم
ڪميونسٽ
ڪميونسٽن
ڪميونيڪيشن
ڪميونيڪيشنز
ڪميونٽي
ڪميٽي
ڪميٽيء
ڪميٽين
ڪميٽيون
ڪمپاي
ڪمپني
ڪمپنيء
ڪمپنين
ڪمپنيون
ڪمپوز
ڪمپوزر
ڪمپوزنگ
ڪمپيوٽر
ڪمپيوٽرن
ڪمپيوٽنگ
ڪمپيي
ڪن
ڪنار
ڪنارا
ڪنارن
ڪناره
ڪنارو
ڪناري
ڪنب
ڪنجهي
ڪندا
ڪنداسون
ڪنداسين
ڪندس
ڪندن
ڪندو
ڪندي
ڪنديس
ڪندين
ڪنديون
ڪندڙ
ڪندڙن
ڪنري
ڪنز
ڪنزرويٽو
ڪنس
ڪنسرٽ
ڪنسلٽنٽ
ڪنعان
ڪنفيڊريشن
ڪنن
ڪنهن
ڪنو
ڪنوار
ڪنواري
ڪنواريتن
ڪنواريون
ڪنور
ڪنول
ڪنوينر
ڪنوينشن
ڪني
ڪنيا
ڪنيت
ڪنيڪشن
ڪنٺ
ڪنٺي
ڪنٽرول
ڪنٽرولر
ڪنٽري
ڪنڀار
ڪنڀر
ڪنڊ
ڪنڊا
ڪنڊن
ڪنڊو
ڪنڊي
ڪنڊيء
ڪنڊيارو
ڪنڊياري
ڪنڊڪٽر
ڪنڌ
ڪنڌي
ڪنڌيء
ڪنڌڪوٽ
ڪنڍي
ڪنڙ
ڪنگ
ڪنگا
ڪنگراڻي
ڪنگري
ڪنگز
ڪنگور
ڪنگڊم
ڪنگڻ
ڪنھن
ڪه
ڪهاني
ڪهاڻي
ڪهاڻيء
ڪهاڻين
ڪهاڻيون
ڪهاڻيڪار
ڪهاڻيڪارن
ڪهاڻيڪاره
ڪهنه
ڪهه
ڪهي
ڪهيري
ڪهڙا
ڪهڙن
ڪهڙو
ڪهڙي
ڪهڙيء
ڪهڙيون
ڪهڪشان
ڪهڪشاي
ڪهڻي
ڪهڻيء
ڪو
ڪوا
ڪوارٽر
ڪوارٽرز
ڪوالالمپور
ڪوانٽم
ڪوبه
ڪوبہ
ڪوتا
ڪوثر
ڪور
ڪوراي
ڪورس
ڪورنگي
ڪورو
ڪورون
ڪورونا
ڪوروناواي
ڪوري
ڪوريا
ڪورياي
ڪوريج
ڪوريجا
ڪوريجو
ڪورين
ڪوريي
ڪورٽ
ڪورٽن
ڪورٽون
ڪوس
ڪوسوو
ڪوسي
ڪوسٽ
ڪوش
ڪوشش
ڪوششن
ڪوششون
ڪوفي
ڪول
ڪولا
ڪولاچي
ڪولمبس
ڪولمبو
ڪولمبيا
ڪولن
ڪولهي
ڪولي
ڪوليسٽرول
ڪولڪتا
ڪوماي
ڪومت
ڪومل
ڪومنتانگ
ڪون
ڪونج
ڪونجون
ڪونسل
ڪونه
ڪونهن
ڪونهي
ڪونوڪارپس
ڪونڊيء
ڪونڊين
ڪونڍير
ڪونھي
ڪونہ
ڪوه
ڪوهاٽ
ڪوهستان
ڪوهستاني
ڪوهن
ڪوهه
ڪوهيار
ڪووي
ڪووڊ
ڪوي
ڪويت
ڪويتا
ڪوٺ
ڪوٺاي
ڪوٺايل
ڪوٺايو
ڪوٺجي
ڪوٺي
ڪوٺيء
ڪوٺين
ڪوٺيندا
ڪوٺيو
ڪوٺيون
ڪوٽ
ڪوٽا
ڪوٽن
ڪوٽڏجي
ڪوٽڏيجي
ڪوٽڙي
ڪوٽڙيء
ڪوپ
ڪوپرنيڪس
ڪوپن
ڪوچ
ڪوڊ
ڪوڏ
ڪوڏر
ڪوڏي
ڪوڏين
ڪوڏيون
ڪوڙ
ڪوڙا
ڪوڙاي
ڪوڙن
ڪوڙهه
ڪوڙو
ڪوڙي
ڪوڙيون
ڪوڙھ
ڪوڪ
ڪوڪا
ڪوڪلتاش
ڪوڪن
ڪوڪند
ڪوڪو
ڪوھ
ڪوھاٽ
ڪوھستان
ڪي
ڪيء
ڪيا
ڪياماڙي
ڪيان
ڪياني
ڪياي
ڪيبل
ڪيبورڊ
ڪيترا
ڪيتراي
ڪيترن
ڪيترو
ڪيتري
ڪيترين
ڪيتريون
ڪيخسرو
ڪير
ڪيرالا
ڪيراي
ڪيرايا
ڪيرايو
ڪيرت
ڪيرن
ڪيري
ڪيريبي
ڪيريبين
ڪيريو
ڪيريي
ڪيس
ڪيسن
ڪيسٽ
ڪيسٽون
ڪيسپي
ڪيش
ڪيف
ڪيفي
ڪيفيت
ڪيفيتن
ڪيل
ڪيلا
ڪيلاش
ڪيلشم
ڪيلشيم
ڪيلن
ڪيلنڊر
ڪيلو
ڪيلي
ڪيليفورنيا
ڪيلينڊر
ڪيليڊونيا
ڪيلٽڪ
ڪيم
ڪيمبرج
ڪيمرون
ڪيمسٽري
ڪيموٿراپي
ڪيميا
ڪيمياي
ڪيمياگر
ڪيميڪل
ڪيمپ
ڪيمپس
ڪيمپن
ڪين
ڪينال
ڪيناڊا
ڪينبرا
ڪينجهر
ڪينجھر
ڪينسر
ڪينهن
ڪينو
ڪيني
ڪينيا
ڪينيڊا
ڪينيڊي
ڪينٽ
ڪينٽن
ڪينٽونمينٽ
ڪينڪي
ڪيهر
ڪيو
ڪيوبا
ڪيوبڪ
ڪيوري
ڪيوسڪ
ڪيول
ڪيولراماڻي
ڪيولراماڻيء
ڪيون
ڪيي
ڪيٽ
ڪيٽاگري
ڪيٽي
ڪيٽين
ڪيٽيگري
ڪيٽگري
ڪيٽگريز
ڪيپ
ڪيپسول
ڪيپيٽل
ڪيپٽن
ڪيٿاي
ڪيٿراي
ڪيٿرين
ڪيٿولڪ
ڪيٿيڊرل
ڪيچ
ڪيڊٽ
ڪيڏا
ڪيڏارو
ڪيڏانهن
ڪيڏو
ڪيڏي
ڪيڙا
ڪيڙن
ڪيڙو
ڪيڙي
ڪيڪ
ڪٺا
ڪٺو
ڪٺي
ڪٻر
ڪٽ
ڪٽاي
ڪٽجي
ڪٽر
ڪٽريا
ڪٽرپڻي
ڪٽس
ڪٽنب
ڪٽنبن
ڪٽوبر
ڪٽومبر
ڪٽي
ڪٽيريا
ڪٽيل
ڪٽپر
ڪٽڪ
ڪٽڻ
ڪپ
ڪپتان
ڪپر
ڪپن
ڪپهه
ڪپور
ڪپي
ڪپڙا
ڪپڙن
ڪپڙو
ڪپڙي
ڪپھ
ڪٿ
ڪٿا
ڪٿان
ڪٿاي
ڪٿي
ڪچ
ڪچا
ڪچرو
ڪچري
ڪچلڻ
ڪچن
ڪچهري
ڪچهريء
ڪچهرين
ڪچهريون
ڪچو
ڪچي
ڪچين
ڪچيون
ڪڇ
ڪڇا
ڪڇن
ڪڇي
ڪڇيء
ڪڍ
ڪڍاي
ڪڍبو
ڪڍجي
ڪڍراي
ڪڍن
ڪڍندا
ڪڍندو
ڪڍندي
ڪڍنديون
ڪڍي
ڪڍيا
ڪڍياي
ڪڍيل
ڪڍيو
ڪڍيون
ڪڍڻ
ڪڏهن
ڪڏھن
ڪڙ
ڪڙا
ڪڙهه
ڪڙو
ڪڙي
ڪڙيو
ڪڙيون
ڪڙڇ
ڪڙڪي
ڪک
ڪکن
ڪڪ
ڪڪر
ڪڪرن
ڪڪڙ
ڪڪڙاي
ڪڪڙن
ڪڻ
ڪڻڪ
ڪھاڻي
ڪھاڻيء
ڪھاڻين
ڪھاڻيون
ڪھاڻيڪار
ڪھڙا
ڪھڙو
ڪھڙي
ڪھڪشان
ڪھڪشاي
گ
گا
گابا
گابو
گابي
گاج
گاجي
گادي
گاديء
گار
گارا
گارو
گاري
گاريون
گارڊ
گارڊز
گارڊن
گارڊين
گال
گاما
گامٽو
گامڻ
گانء
گانا
گانن
گانو
گاني
گانڌي
گانڌيء
گاه
گاهن
گاهه
گاهي
گاهہ
گاو
گاي
گايتري
گايون
گاٺ
گاڊ
گاڏن
گاڏهي
گاڏي
گاڏيء
گاڏين
گاڏيون
گاڏڙ
گاڏھي
گاڻي
گاھ
گاھي
گبر
گبسن
گبول
گبوٽ
گج
گجر
گجرات
گجراتي
گجراتيء
گجرانوالا
گجرن
گجي
گجگوڙ
گدا
گدام
گداي
گدرا
گدرن
گدري
گدلاڻ
گدو
گدواڻي
گدومل
گدي
گدڙ
گذار
گذارش
گذارو
گذاري
گذاريا
گذارياي
گذاريم
گذارين
گذاريندا
گذاريندو
گذاريندي
گذاريندڙ
گذاريو
گذارڻ
گذر
گذران
گذرن
گذرندو
گذرندي
گذرندڙ
گذري
گذريا
گذريل
گذريو
گذريون
گذرڻ
گذرڻو
گر
گرا
گراس
گراف
گرافي
گرافڪ
گرافڪس
گرام
گرامر
گرامن
گراموفون
گرامي
گرانٽ
گرانڊ
گراهڪ
گراهڪن
گراي
گراڊ
گربخشاڻي
گربخشاڻيء
گرجا
گرد
گرداس
گردان
گردش
گردن
گردي
گرفت
گرفتار
گرفتاري
گرفتاريء
گرفتاريون
گرل
گرلز
گرلس
گرم
گرماي
گرمي
گرميء
گرمين
گرمکي
گرنار
گرنيڊ
گرنٿ
گرنٿن
گره
گرهن
گرهه
گرهوڙي
گرهڻ
گرو
گروء
گروزني
گرونانڪ
گروه
گروهن
گروهه
گروهي
گروي
گروپ
گروپن
گروھ
گروھن
گري
گرياي
گريجوي
گريجويشن
گرين
گريناي
گريناڊا
گرينڊ
گريي
گريٽ
گريٽر
گريڊ
گريگوري
گرڀ
گرڊ
گرڊرن
گرڙيون
گرگ
گرگيج
گرھ
گرھن
گرھڻ
گرین
گز
گزدر
گزري
گزين
گزيٽ
گزيٽيي
گس
گساي
گستاخي
گسٽ
گسٽس
گشت
گشتي
گـ
گفت
گفتار
گفتگو
گل
گلاب
گلابي
گلاس
گلاسگو
گلان
گلبرگ
گلدستو
گلزار
گلستان
گلشن
گلشير
گلف
گلقاڻ
گلقند
گلم
گلن
گلو
گلوب
گلوبل
گلوڪار
گلوڪارن
گلوڪاره
گلوڪارہ
گلي
گليشيي
گليلي
گليليو
گليليي
گليور
گلڊ
گلڪاري
گلگت
گم
گمان
گمبٽ
گمراهه
گمراھ
گمنام
گن
گنان
گناه
گناهن
گناهه
گناھ
گنب
گنبد
گنبذ
گنبٽ
گنج
گنجاي
گنجو
گنجي
گند
گندرف
گندري
گندو
گندي
گندگي
گنهگار
گنو
گني
گنيز
گنيشم
گنڀير
گنڊا
گنڌار
گنڌارا
گنگ
گنگا
گنگولي
گنھگار
گه
گهارو
گهاري
گهانا
گهايل
گهاٽ
گهاٽا
گهاٽاي
گهاٽن
گهاٽو
گهاٽي
گهاڙ
گهاڻي
گهر
گهرا
گهران
گهراي
گهرايا
گهرايل
گهرايو
گهراڻا
گهراڻن
گهراڻو
گهراڻي
گهربل
گهرج
گهرجن
گهرجي
گهرجين
گهرن
گهرندا
گهرندو
گهرو
گهرواري
گهرواريء
گهري
گهرياي
گهريلو
گهريو
گهرڙا
گهرڙن
گهرڙي
گهرڻ
گهلو
گهم
گهماي
گهمرو
گهمندا
گهمندو
گهمندي
گهمندڙ
گهمي
گهميل
گهميو
گهمڻ
گهن
گهنور
گهنڊ
گهنگهرو
گهور
گهوش
گهونگهٽ
گهوٽ
گهوٽالو
گهوٽالي
گهوٽي
گهوٽيتن
گهوٽڪي
گهوٽڪيء
گهوڙا
گهوڙن
گهوڙو
گهوڙي
گهي
گهير
گهيرو
گهيري
گهيريل
گهٽ
گهٽاي
گهٽايو
گهٽبو
گهٽتاي
گهٽجي
گهٽجڻ
گهٽي
گهٽيء
گهٽين
گهڙ
گهڙت
گهڙو
گهڙي
گهڙيء
گهڙيا
گهڙيال
گهڙيل
گهڙين
گهڙيو
گهڙيون
گهڙڻ
گهڻ
گهڻا
گهڻاي
گهڻن
گهڻو
گهڻي
گهڻيء
گهڻين
گهڻيون
گو
گوء
گوا
گوادر
گوار
گواليار
گوبستان
گوبند
گوبندرام
گوبي
گوتم
گوجر
گوجرانوالا
گوجرانوالہ
گود
گودڙي
گور
گورا
گورباچوف
گورمي
گورن
گورنر
گورنرس
گورنرن
گورنري
گورنريء
گورنريٽ
گورنمنٽ
گورنمينٽ
گورو
گوري
گوريان
گوريلا
گوريون
گورچاڻي
گورڊن
گورک
گورکناٿ
گورڪي
گوشت
گوشه
گوشي
گول
گولا
گولاي
گولاڙچي
گولن
گولو
گولي
گوليون
گولڊ
گولڊن
گومل
گومڙ
گونج
گوني
گونيء
گونچ
گونگي
گوهر
گووندا
گوي
گويا
گويو
گوپال
گوپانگ
گوڌرا
گوڏ
گوڏا
گوڏن
گوڙ
گوڪل
گوڪلي
گوگ
گوگل
گوھر
گي
گيء
گيا
گيان
گيانا
گيانچنداڻي
گيبگبو
گيت
گيتا
گيتن
گير
گيري
گيريزن
گيس
گيسن
گيسون
گيل
گيلان
گيلاني
گيلري
گيم
گيمبيا
گيمز
گين
گينيميڊ
گينگ
گيهه
گيي
گيٽ
گيٽسبي
گيڙو
گيگا
گيھ
گپ
گپت
گپتا
گچ
گچيري
گڊ
گڊا
گڊو
گڏ
گڏاي
گڏاپ
گڏجاڻي
گڏجاڻيء
گڏجاڻين
گڏجاڻيون
گڏجن
گڏجي
گڏجڻ
گڏهه
گڏو
گڏوگڏ
گڏي
گڏيا
گڏيل
گڏيو
گڏھ
گڑھ
گڑھی
گڙدن
گڙنگ
گگر
گڻ
گڻن
گھ
گھارو
گھانا
گھاٽ
گھاٽاي
گھاٽن
گھاٽو
گھاٽي
گھاڙ
گھر
گھرا
گھراي
گھرايو
گھراڻن
گھراڻو
گھراڻي
گھربل
گھرجن
گھرجي
گھرن
گھرو
گھرواري
گھري
گھريلو
گھريو
گھرڙا
گھرڙن
گھرڙو
گھرڙي
گھرڙياي
گھم
گھمندو
گھمي
گھميل
گھمڻ
گھنٽو
گھور
گھوٽ
گھوٽڪي
گھوڙا
گھوڙن
گھوڙو
گھوڙي
گھيراء
گھيرو
گھيري
گھيريل
گھٽ
گھٽاي
گھٽتاي
گھٽجي
گھٽي
گھٽين
گھٽيون
گھڙي
گھڙيء
گھڙيال
گھڙيل
گھڙين
گھڻ
گھڻا
گھڻاي
گھڻن
گھڻو
گھڻي
گھڻين
گھڻيون
گیا
گے
ڱ
ڱر
ڱرين
ڱريون
ڱوٺو
ڱوٺي
ڳ
ڳاء
ڳاتو
ڳاري
ڳاله
ڳالهاي
ڳالهايو
ڳالهايون
ڳالهه
ڳالهين
ڳالهيون
ڳالهہ
ڳالھ
ڳالھاي
ڳالھايو
ڳالھايون
ڳالھه
ڳالھين
ڳالھيون
ڳالھھ
ڳانو
ڳانڍاپو
ڳانڍاپي
ڳاها
ڳاهن
ڳاهه
ڳاي
ڳايا
ڳاياي
ڳايل
ڳايو
ڳاٽا
ڳاٽن
ڳاٽو
ڳاٽي
ڳاڇا
ڳاڙها
ڳاڙهاڻ
ڳاڙهسرو
ڳاڙهن
ڳاڙهو
ڳاڙهي
ڳاڙھا
ڳاڙھن
ڳاڙھو
ڳاڙھي
ڳاڻيٽو
ڳتيل
ڳجهارت
ڳجهارتون
ڳجهن
ڳجهه
ڳجهو
ڳجهي
ڳجھارت
ڳر
ڳرا
ڳرن
ڳرو
ڳري
ڳريل
ڳريون
ڳرڻ
ڳل
ڳلن
ڳلي
ڳن
ڳنڍ
ڳنڍا
ڳنڍجي
ڳنڍي
ڳنڍيل
ڳنڍين
ڳنڍيندڙ
ڳنڍيو
ڳنڍيون
ڳنڍڄار
ڳنڍڻ
ڳنڍڻو
ڳنڍڻي
ڳهه
ڳو
ڳوراهو
ڳورڙ
ڳورھاي
ڳولا
ڳولها
ڳولهي
ڳولهڻ
ڳولي
ڳوليو
ڳولڻ
ڳولھا
ڳوٺ
ڳوٺاڻا
ڳوٺاڻن
ڳوٺاڻي
ڳوٺن
ڳوٿري
ڳوڙها
ڳوڙهن
ڳوڙهو
ڳوڙهي
ڳوڙهين
ڳوڙهيون
ڳي
ڳيرو
ڳيري
ڳيچ
ڳڀ
ڳڀيرڻ
ڳچ
ڳچي
ڳچيء
ڳڙ
ڳڙه
ڳڙهه
ڳڙهي
ڳڙکيء
ڳڙھ
ڳڙھي
ڳڻ
ڳڻتي
ڳڻتيء
ڳڻي
ڳڻيا
ڳڻيو
ڳڻپ
ڳڻپاي
ڳڻپيوڪر
ڳڻپيوڪري
ڳڻڻ
ں
ڻ
ڻا
ڻبا
ڻبو
ڻجي
ڻداس
ڻن
ڻو
ڻويهين
ڻي
ڻين
ڻيندا
ڻيندو
ڻيندي
ڻيندڙ
ڻيو
ڻيون
ڻڻ
ھ
ھا
ھاء
ھاجران
ھاجرہ
ھار
ھاراي
ھارمون
ھارون
ھاري
ھارين
ھارٽ
ھاسٽل
ھاسپيٽل
ھاشم
ھاشمي
ھاضمي
ھال
ھالا
ھالاي
ھالاڻي
ھان
ھانگ
ھاورڊ
ھاي
ھاٿي
ھاڪ
ھاڪي
ھاڻ
ھاڻوڪو
ھاڻوڪي
ھاڻي
ھبسبرگ
ھبل
ھت
ھتان
ھتي
ھجرت
ھجري
ھجن
ھجي
ھجڻ
ھخامنشي
ھدايت
ھدايتڪار
ھر
ھرات
ھري
ھرياڻہ
ھرگز
ھرڻ
ھرڻين
ھرھڪ
ھزار
ھزارا
ھزارن
ھزاره
ھزارو
ھزارين
ھستي
ھشام
ھضم
ھفتن
ھفتي
ھفتيوار
ھل
ھلاي
ھلايو
ھلاڪ
ھلمند
ھلندا
ھلندو
ھلندي
ھلندڙ
ھلي
ھليا
ھليو
ھلڪا
ھلڪو
ھلڪي
ھلڻ
ھم
ھماليہ
ھمايون
ھمت
ھمدرد
ھمو
ھموار
ھمير
ھميشه
ھميشھ
ھميشہ
ھمٿ
ھن
ھند
ھندستان
ھندستاني
ھندن
ھندو
ھندوازم
ھندوستان
ھندوستاني
ھندوڪش
ھندي
ھنر
ھنزہ
ھنن
ھني
ھنيو
ھنڌ
ھنڌن
ھنگري
ھنڱورجا
ھه
ھو
ھوء
ھوا
ھوابازي
ھواي
ھوتچند
ھوسٽن
ھوش
ھوفوي
ھول
ھولو
ھولي
ھوليڪا
ھوم
ھون
ھوندا
ھوندو
ھوندي
ھونديون
ھونڊوراس
ھوي
ھوٽل
ھوٽلن
ھي
ھيء
ھيا
ھيان
ھير
ھيرا
ھيرن
ھيرو
ھيروي
ھيس
ھيلي
ھيليم
ھيلٿ
ھين
ھينان
ھينري
ھيني
ھيو
ھيومن
ھيون
ھيي
ھيٺ
ھيٺان
ھيٺاھون
ھيٺاھين
ھيٺي
ھيٺيان
ھيٺين
ھيٺيون
ھيٽي
ھيڊ
ھيڊران
ھيڊوجن
ھيڊڪوارٽر
ھيڪٽر
ھٽ
ھٽاي
ھٽايو
ھٽلر
ھٽي
ھٽڙي
ھٿ
ھٿان
ھٿرادو
ھٿن
ھٿي
ھٿيار
ھٿياربند
ھٿيارن
ھڏن
ھڏي
ھڏين
ھڏڪي
ھڏڪين
ھڏڪيون
ھڙيون
ھڪ
ھڪجھڙاي
ھڪدم
ھڪٻي
ھڪڙا
ھڪڙو
ھڪڙي
ھگانا
ھگنس
ھڻ
ھڻي
ھڻڻ
ھہ
ھی
ھے
ہ
ہا
ہاو
ہر
ہری
ہلاک
ہم
ہمیشہ
ہنگورجا
ہو
ہوا
ہوتا
ہوتی
ہوي
ہوں
ہی
ہیں
ہے
ۃ
ی
یا
یار
یر
یقینا
ین
یو
یوسف
یونیورسٽي
یوں
یچ
یڈنگ
یک
یں
یہ
یہاں
ے
۔
ۖ
ۗ
ۙ
ۚ
ۜ
ۡ
ۢ
ۤ
۰
۱
۱۰
۱۱
۱۲
۱۴
۱۷
۱۹۷۰
۱۹۷۶
۲
۲۰۰۷
۳
۴
۵
۶
۷
۸
۹
۽
۾
ं
ः
आ
ई
ए
क
ख
ग
च
छ
ज
ट
ड
ण
त
थ
द
ध
न
प
फ
ब
भ
म
य
र
ल
व
वन
श
ष
स
ह
़
ा
ि
ी
ु
ू
े
ै
ॉ
ो
ौ
्
।
ং
ক
খ
গ
চ
ছ
জ
ট
ড
ত
থ
দ
ন
ব
ম
য
র
ল
শ
স
়
া
ি
ী
ু
ে
্
ਕ
ਘ
ਜ
ਨ
ਪ
ਬ
ਮ
ਰ
ਲ
ਸ
ਾ
ਿ
ੀ
ੌ
ੰ
ੱ
િ
ી
્
க
ச
ட
த
ப
ம
ய
ா
ி
ு
ே
ை
்
క
ట
మ
ి
ు
్
ವ
ಿ
್
ิ
ี
ា
្
​
‌
‍
‎
‏
–
—
‘
’
‚
‛
“
”
‟
†
•
…
‧
‬
′
″
›
⁄
€
₼
ℓ
№
™
→
↔
↷
−
⋅
⏩
⏪
③
④
⑦
◀
●
◦
☉
➕
ⲁ
⺀
⺄
⺆
⺈
⺊
⺌
⺕
⺝
⺸
⺼
⿰
⿱
⿲
⿳
⿴
⿵
⿶
⿷
⿸
⿹
⿺
⿻
〢
い
う
こ
し
す
ち
の
る
ん
゙
コ
シ
ナ
ユ
㇁
㇂
㇄
㇇
㇈
㇉
㇓
㐁
㐄
㐅
㐌
㐫
㐬
㐭
㐮
㐱
㑒
㒵
㒸
㒼
㓁
㓞
㔾
㕛
㕣
㖾
㘝
㚅
㚇
㚔
㚘
㝉
㝡
㝴
㝵
㞋
㞢
㞷
㠩
㠭
㠯
㡀
㡭
㡿
㢲
㢴
㣇
㣺
㥯
㪅
㫄
㫐
㫒
㫺
㬅
㬎
㬥
㬰
㲋
㳄
㷠
㸒
㸚
㸦
㼌
㼲
㽞
㿟
䀠
䂞
䍃
䏍
䒑
䖍
䖒
䖝
䖵
䙴
䚻
䜌
䝿
䡛
䧹
䪞
一
丁
丂
七
丄
丅
丆
万
丈
三
上
下
丌
不
与
丏
丐
丑
专
且
丕
世
丘
丙
业
东
丞
丢
丣
两
严
並
丨
丩
个
丫
丬
中
丮
丰
丱
串
丵
丶
丷
丸
丹
为
主
丽
丿
乀
乂
乃
久
乆
乇
么
义
之
乌
乍
乎
乏
乐
乑
乔
乖
乗
乘
乙
乚
乛
乜
九
乞
也
习
乡
书
乳
乾
亀
亅
了
亇
予
争
事
二
亍
于
亏
亐
云
互
亓
五
井
亘
亚
亜
亞
亟
亠
亡
亢
交
亥
亦
产
亨
亩
享
京
亭
亮
亯
亰
亲
亳
亶
亷
人
亻
亼
亾
仁
今
介
仌
从
仐
仑
仒
仓
仕
他
付
仝
代
令
以
任
企
伊
伏
伐
休
会
伯
但
位
何
佘
余
作
佥
使
來
侈
侌
侖
侯
侵
便
保
俞
信
修
倉
倍
候
倠
備
僉
僕
儿
兀
允
兂
元
兄
充
兆
兇
先
光
兊
克
兌
免
兑
兒
兓
兔
党
兜
兟
入
全
兩
兪
八
公
六
兮
兰
共
关
兵
其
具
典
兹
兼
冀
冂
冃
冄
内
冈
冉
冊
冋
册
再
冎
冏
冐
冒
冓
冖
冗
冘
军
农
冝
冡
冥
冫
冬
况
冷
几
凡
凢
凵
凶
凷
凸
凹
出
函
凾
刀
刁
刂
刃
刄
刅
分
切
刍
刑
刕
刖
列
刘
则
初
別
利
别
到
制
刺
則
削
剌
前
剡
剽
劉
力
功
加
劦
助
劫
劳
劵
勃
勇
勉
勒
動
務
勞
勤
勹
勺
勻
勾
勿
匀
匂
包
匆
匈
匊
匋
匍
匕
化
北
匚
匝
匡
匪
匱
匸
匹
区
医
匽
匿
區
十
卂
千
卄
卅
卆
升
午
卉
半
卌
华
卑
卒
卓
单
卖
南
卜
卝
卞
占
卡
卢
卣
卤
卦
卩
卪
卬
卯
印
危
即
却
卵
卷
卸
卻
厂
厃
厄
历
厈
厉
厌
厓
厘
厚
原
厤
厥
厨
厭
厲
厶
厷
厸
去
厼
厽
叀
参
參
叅
又
叉
及
友
双
反
叐
发
叒
叔
叕
取
受
叚
叜
叟
口
古
句
另
叩
只
召
可
台
叱
史
右
叵
号
司
叹
吂
各
吅
合
吉
吊
吋
同
名
后
吏
向
吕
君
吝
吞
否
含
启
吳
吴
吹
吾
呂
呆
呈
告
员
呙
周
命
咅
和
咎
咠
咢
咨
咸
咼
哀
品
哉
員
哥
哲
唐
商
啇
問
啚
啬
啻
善
喜
喬
單
喿
嗇
嘉
噩
嚴
囊
囗
囘
囙
囚
四
回
囟
因
囧
囬
困
囱
囷
固
国
圂
圅
國
圍
圓
土
圡
圣
圥
在
圭
地
圶
圼
坐
坑
坒
坚
坴
垂
垔
垚
埀
埋
埶
執
基
堂
堅
堆
堇
堯
場
塞
墨
壘
士
壬
壯
声
壳
壴
壹
壺
壽
夂
处
夅
夆
备
夊
夋
夌
复
夏
夒
夕
外
夗
夘
多
夜
夢
大
夨
天
太
夫
夬
夭
央
失
夲
头
夷
夸
夹
夻
夾
奂
奄
奇
奈
奉
奎
奏
奐
契
奓
奔
奚
奞
奠
奢
奥
奭
女
奴
奻
好
如
妄
妙
妟
妥
妻
妾
姑
委
姜
威
娄
婁
婴
嬰
嬴
子
孑
孔
孕
孖
字
存
孚
孛
孝
孟
季
孤
学
孫
孱
學
宀
宁
宂
它
宅
宇
守
安
宋
完
宏
宓
宗
官
定
宛
宜
宝
客
宣
室
宮
宰
害
家
容
宾
宿
寄
寅
密
富
寒
察
寧
審
寫
寬
寮
寸
对
寺
寻
寽
対
寿
封
尃
射
将
將
專
尉
尊
尋
尌
對
小
少
尒
尓
尔
尖
尗
尚
尞
尢
尣
尤
尧
尨
尭
就
尸
尹
尺
尻
尼
尽
尾
尿
局
居
屈
屋
屎
屏
屑
展
屖
屚
属
屠
屡
屬
屮
屯
屰
山
屵
屾
岁
岂
岑
岡
岩
岳
岸
峡
峯
島
崇
崑
崔
崖
崙
崩
嵬
嶲
巂
巛
川
州
巟
巠
巢
巤
工
左
巧
巨
巩
巫
差
己
已
巳
巴
巷
巸
巽
巾
巿
帀
市
布
希
帚
帛
帝
带
師
席
帶
常
干
平
年
幵
并
幷
幸
幺
幻
幼
幽
幾
广
広
庄
床
底
店
庚
府
度
庫
庭
庶
康
庸
廉
廌
廛
廣
廩
廴
延
廷
建
廾
廿
开
弁
弃
弄
弇
弋
式
弓
弔
引
弗
弘
弜
弟
弥
弦
弱
張
強
强
彊
彌
彎
彐
彑
当
彔
录
彖
彗
彡
形
彥
彦
彧
彭
彳
役
彼
往
待
律
徒
得
徙
從
復
微
徵
心
忄
必
忌
忍
志
忝
忠
忩
快
念
忽
忿
思
怠
急
怱
恆
恒
恩
恭
息
悉
患
悤
悲
悶
惠
惡
惢
愁
愈
意
愛
感
慈
慧
慮
憂
憲
應
戀
戈
戉
戊
戋
戌
戍
戎
成
我
戒
戔
或
戚
戠
戢
截
戲
戶
户
戹
戼
戾
房
所
扁
扇
手
扌
才
打
托
执
承
折
报
拉
拜
拿
掌
推
提
摩
支
攴
攵
收
攸
改
放
政
敄
敏
敕
敖
敗
敝
敞
敢
散
敦
敫
敬
数
敷
數
斂
文
斉
斊
斗
斤
斥
斩
斬
斯
新
方
於
施
斿
旁
旋
族
无
旡
既
旣
日
旦
旧
旨
早
旬
旱
旲
时
旾
昆
昇
昌
昍
明
昏
易
昔
昗
昜
星
春
昬
是
昱
昴
昷
時
晃
晋
晏
普
景
晶
智
暑
暴
曇
曩
曰
曲
曳
更
曷
書
曹
曼
曾
替
最
朁
會
月
有
朋
服
朔
朕
朗
望
朝
木
朩
未
末
本
札
朮
术
朱
朵
朶
朿
杀
杏
杜
束
条
来
東
杲
杳
松
析
林
枚
果
枝
枲
枼
某
柔
查
柬
柰
柴
栗
桀
桑
桥
桼
梁
條
梟
梨
棘
棠
棥
森
楚
業
楽
概
榮
樂
樊
機
欠
次
欣
欮
欲
欶
欽
款
歆
歇
歛
止
正
此
步
武
歨
歪
歮
歯
歰
歲
歴
歷
歸
歹
歺
死
殳
段
殷
殸
殹
殺
殻
殿
毋
毌
母
每
毒
比
毕
毚
毛
毳
氏
氐
民
气
氣
水
氵
氶
氷
永
氺
氾
求
汉
汝
汞
江
沃
沓
沙
沝
河
治
泉
法
波
泣
泥
泰
洛
洞
洪
活
派
流
济
浦
浪
浮
海
淡
淮
清
渚
渠
湯
滿
漸
火
灬
灭
灰
灵
灷
炅
炎
炏
炗
炙
炭
為
烈
烏
烝
焉
無
焦
焱
然
煞
熊
熏
燕
營
燮
爪
爫
爭
爯
爰
爱
爲
爵
父
爻
爽
爾
爿
片
版
牙
牚
牛
牜
牟
牢
牧
牪
牽
犀
犬
犭
犮
狂
狄
狊
独
狺
猋
猒
猪
献
獻
玄
率
玉
王
玟
玨
珎
珠
班
琴
瑟
瑩
瓜
瓦
甘
甚
生
産
用
甫
甬
田
由
甲
申
电
甶
男
甸
甹
画
甾
畀
界
畏
畐
留
畜
畟
畢
畧
畨
番
畫
異
畱
當
畺
畾
疊
疋
疌
疑
疒
疾
癶
癸
癹
登
發
白
百
皀
皃
的
皆
皇
皋
皐
皕
皮
皷
皿
盃
盆
盇
盈
益
盍
盎
监
盒
盖
盛
盡
監
盤
盧
目
直
相
盾
省
眇
眉
看
眔
眞
真
眷
眼
眾
着
睘
睪
睿
瞏
瞢
瞿
矍
矛
矞
矢
矣
知
矦
短
石
破
碎
磊
磨
示
礻
礼
社
祟
票
祭
禀
禁
禸
禹
禺
离
禽
禾
禿
秀
秃
秉
秋
科
秝
秦
移
稟
穀
穌
穴
究
穹
空
穿
突
窄
窒
立
竒
站
竜
竝
竟
章
童
竹
笑
笠
筆
等
答
箕
算
箴
節
篤
篭
米
粉
粛
粟
粤
粦
粲
糞
糸
糹
系
約
納
素
索
紫
累
細
絜
絫
絲
維
綿
縣
繇
纍
纟
经
统
维
缶
网
罒
罔
罕
罗
罙
罡
罢
罪
署
罷
羅
羊
羌
羍
美
羔
羕
羗
羞
羡
羣
群
義
羲
羸
羽
翁
翏
習
翕
翟
翠
翼
老
耂
考
者
耆
而
耎
耑
耒
耳
耴
耶
耷
聂
聊
聖
聚
聶
聿
肀
肃
肅
肉
肖
肙
肥
肩
肯
育
肴
胃
背
胡
胥
能
脊
脩
膚
臣
臤
臧
自
臬
臭
臯
臱
至
致
臺
臼
臽
臾
臿
舀
舂
舄
與
興
舉
舌
舍
舛
舜
舞
舟
航
般
艮
良
色
艸
艹
艾
芒
芔
芬
芮
花
芳
芺
芻
苔
苗
苟
若
苦
英
茶
茸
荅
草
荒
荣
荼
莆
莧
莫
莽
菆
菊
菐
華
萬
落
葉
著
葛
董
葵
蒙
蒦
蒼
蓋
蓬
蓺
蔑
蔡
蕉
蕭
薄
薛
薦
薰
藍
藏
藥
蘭
虍
虎
虐
虒
虔
處
虖
虗
虘
虚
虛
虜
虞
虫
虽
蚤
蚩
蜀
蜜
蟲
蠡
血
行
衍
衛
衣
衤
表
衮
衰
袁
袞
褭
褱
襄
襾
西
覀
要
覃
見
規
覓
覧
親
覽
见
角
解
言
訁
訇
計
詹
語
誩
諸
讠
计
话
语
谷
豆
豈
豊
豐
豕
豖
豙
象
豦
豩
豪
豸
貇
貝
貞
貟
負
貢
貧
貪
貫
責
貳
貴
買
費
賁
資
賈
賏
賓
賔
賛
賞
賢
賣
質
賴
贊
贝
贡
责
贯
贲
贵
赖
赞
赤
赦
走
越
足
路
蹇
身
躬
車
軍
軎
軟
輦
车
辛
辜
辟
辥
辰
辱
農
辵
辶
边
达
过
近
连
迷
追
退
送
逆
逐
通
速
造
逢
連
逮
進
遀
遂
過
道
達
遣
適
遷
遺
邊
邑
邕
那
邦
邪
郎
部
郭
都
鄉
酉
酋
配
酓
釆
采
里
重
野
量
金
釒
鈍
鋭
錢
钅
镇
長
镸
长
門
閃
閉
開
閏
閑
閒
間
閔
閵
閻
闌
门
间
闷
阑
阜
阝
阿
降
院
陳
隆
隊
隋
隡
隨
隱
隶
隹
隺
隻
隼
隽
难
雀
雁
集
雈
雋
雍
雐
雔
雙
雚
雜
雝
離
難
雨
雩
雪
雲
零
雷
需
霍
霜
霝
霞
霸
靈
靑
青
非
靡
面
靣
革
韋
韦
韭
韯
韱
音
頁
頃
項
須
頗
頡
頻
顛
页
風
风
飛
飞
食
飠
養
饣
首
香
馬
馮
駦
马
骨
高
髟
鬥
鬯
鬲
鬼
魚
魯
鮮
鱼
鲁
鳥
鳳
鸟
鹵
鹿
麃
麗
麥
麦
麻
黃
黄
黍
黎
黑
黒
黨
黹
黽
黾
鼎
鼓
鼠
鼻
齊
齋
齐
齒
齿
龍
龙
龜
龟
龠
龰
龱
龴
龵
龶
龷
龸
龹



者
艹
ﭔ
ﭖ
ﭘ
ﭙ
ﭜ
ﭝ
ﭞ
ﭠ
ﭡ
ﭤ
ﭥ
ﭲ
ﭴ
ﭵ
ﭸ
ﭺ
ﭼ
ﭽ
ﮀ
ﮁ
ﮂ
ﮃ
ﮄ
ﮅ
ﮐ
ﮑ
ﮓ
ﮔ
ﮕ
ﮘ
ﮙ
ﮠ
ﮡ
ﮢ
ﮣ
ﮧ
ﮬ
ﮭ
﴾
﴿
﷢
﷥
﷦
ﷲ
ﷺ
️
︠
︡
ﺀ
ﺁ
ﺂ
ﺆ
ﺋ
ﺌ
ﺍ
ﺎ
ﺏ
ﺐ
ﺑ
ﺒ
ﺔ
ﺕ
ﺖ
ﺗ
ﺘ
ﺛ
ﺜ
ﺝ
ﺞ
ﺟ
ﺠ
ﺡ
ﺢ
ﺣ
ﺤ
ﺥ
ﺦ
ﺧ
ﺨ
ﺩ
ﺪ
ﺫ
ﺬ
ﺭ
ﺮ
ﺯ
ﺰ
ﺱ
ﺲ
ﺳ
ﺴ
ﺵ
ﺶ
ﺷ
ﺸ
ﺻ
ﺼ
ﺿ
ﻀ
ﻂ
ﻃ
ﻄ
ﻅ
ﻈ
ﻉ
ﻊ
ﻋ
ﻌ
ﻍ
ﻏ
ﻐ
ﻑ
ﻒ
ﻓ
ﻔ
ﻕ
ﻖ
ﻗ
ﻘ
ﻝ
ﻞ
ﻟ
ﻠ
ﻡ
ﻢ
ﻣ
ﻤ
ﻥ
ﻦ
ﻧ
ﻨ
ﻩ
ﻪ
ﻫ
ﻬ
ﻭ
ﻮ
ﻱ
ﻲ
ﻳ
ﻴ
ﻻ
ﻼ
﻿
，
？
￼
�
🌷
🜨
𠀁
𠀃
𠀆
𠀉
𠀎
𠀐
𠁁
𠁣
𠂆
𠂇
𠂈
𠂉
𠂊
𠂋
𠂎
𠂒
𠂔
𠂛
𠂡
𠂢
𠂤
𠂬
𠂭
𠂹
𠃊
𠃋
𠃌
𠃍
𠃎
𠃑
𠃓
𠃔
𠃜
𠄌
𠄎
𠄠
𠄢
𠆢
𠆥
𠇍
𠈌
𠌵
𠓜
𠔉
𠔥
𠔼
𠔽
𠔿
𠕀
𠕁
𠕋
𠘧
𠘨
𠙻
𠙼
𠚏
𠚒
𠚤
𠚪
𠣏
𠤎
𠤕
𠥓
𠦄
𠦑
𠦝
𠧒
𠧗
𠧪
𠩺
𠪚
𠫓
𠫔
𠫤
𠬛
𠬝
𠬞
𠬢
𠬤
𠬶
𠮛
𠮦
𠮷
𠯑
𠱠
𠳮
𠷎
𡈼
𡉀
𡉵
𡌥
𡍮
𡏳
𡕒
𡕩
𡕰
𡖅
𡗗
𡗜
𡘆
𡘤
𡧱
𡨄
𡩧
𡬠
𡭽
𡰣
𡰥
𡰪
𡰯
𡰱
𡷈
𡸁
𡿨
𡿩
𡿪
𡿺
𢀖
𢀛
𢀩
𢁙
𢆉
𢆰
𢆶
𢇁
𢇇
𢉖
𢌬
𢌿
𢏚
𢑑
𢑚
𢖻
𢙣
𢛳
𢦏
𢦒
𢧵
𢼄
𢾕
𣁋
𣄼
𣅀
𣅽
𣍘
𣎳
𣎵
𣏋
𣏼
𣗥
𣥂
𣥖
𣦵
𣦼
𣧄
𣪊
𣪠
𣬉
𣳾
𣶒
𤇾
𤊽
𤐫
𤓰
𤔔
𤕨
𤣩
𤰇
𤰔
𤰞
𤴓
𤴔
𤽄
𥁑
𥁕
𥃦
𥃩
𥃭
𥇡
𥑟
𥘅
𥘈
𥝢
𥫗
𥱡
𦈢
𦉪
𦉬
𦉼
𦍌
𦍒
𦎧
𦐇
𦓔
𦔮
𦘒
𦙃
𦚏
𦣝
𦣞
𦣻
𦥑
𦥔
𦥯
𦨉
𦭝
𦰩
𧆞
𧈧
𧘇
𧰨
𧴪
𧴮
𧵩
𧾷
𨸏
𨾴
𩙿
𩠐
𩫏
𩵋
𪉷
𪜀
𪟽
𪠲
𪩲
𫇦
𫔭
𫜸
𫝀
𫠣
𫠩
𫢉
𫥞
𫩏
𫩠
𫪡
𫲽
𫶧
𬀷
𬐘
𬗌
𬙙
𬛸
𬜯
𬟩
𬯁
𬴘
𬺻
𬼉
𬼖
𭀰
𭁈
𭁨
𭅰
𭑈
𭕄
𭗼
𭤨
𭥫
𭻾
𮅕
𮊿
𮍌
𮍏
𮓗
𮥼
𮧮
廾
𰀁
𰀄
𰀈
𰀉
𰀕
𰀠
𰀡
𰀢
𰀪
𰁜
𰃮
𰆊
𰆘
𰋙
𰕎
𰢴
𰧭
𰯲
00--
01--
02--
03--
07--
08--
09--
40--
53--
58--
60--
73--
75--
78--
80--
81--
82--
85--
87--
88--
978--
97801--
a--
aa--
ab--
aber--
ac--
acc--
acce--
achieve--
ad--
adve--
advo--
ae--
aeij--
aeik--
aest--
af--
affe--
ah--
ai--
air--
ak--
akh--
al--
alig--
all--
am--
amo--
an--
analy--
ang--
ans--
any--
ap--
app--
appli--
aq--
ar--
arc--
as--
ash--
aste--
astr--
at--
attr--
au--
aura--
av--
ava--
ave--
ay--
az--
b--
ba--
back--
bal--
bar--
bat--
bb--
be--
bel--
ben--
ber--
bha--
bhak--
bi--
bio--
bir--
bis--
bl--
bo--
bos--
bot--
boy--
br--
bre--
bro--
broad--
bu--
bul--
bur--
by--
c--
ca--
cal--
calcul--
can--
capt--
car--
cas--
ce--
cele--
cen--
cere--
ch--
cha--
champion--
char--
cho--
choud--
ci--
cle--
cli--
clo--
cn--
co--
col--
com--
commemo--
con--
conc--
conne--
conser--
consi--
const--
consu--
conta--
conti--
contr--
conve--
coor--
cor--
cos--
cosmo--
cour--
cra--
cre--
cri--
criti--
cro--
cru--
cs--
cu--
culti--
cur--
cyc--
d--
da--
daily--
dam--
de--
dec--
dee--
defe--
defi--
den--
descri--
dete--
deut--
dha--
dho--
di--
dia--
disc--
do--
dr--
du--
dur--
dyna--
dʒ--
e--
ea--
ec--
ed--
eff--
ei--
el--
emb--
emp--
en--
encyclope--
ene--
eng--
epi--
er--
es--
esta--
et--
eu--
eura--
eva--
ex--
expe--
expl--
f--
fa--
faq--
far--
fav--
fe--
fen--
fer--
feu--
fi--
film--
flo--
fo--
fol--
for--
fos--
fr--
fre--
free--
fu--
g--
ga--
gar--
gau--
ge--
gene--
geo--
gha--
gi--
gio--
gla--
gli--
go--
gor--
gr--
gu--
gul--
gur--
h--
ha--
hak--
happ--
har--
hard--
harri--
has--
hay--
haz--
he--
hein--
hel--
heli--
hen--
hi--
ho--
home--
hor--
horiz--
hot--
hu--
huff--
hy--
hydr--
i--
ib--
ibe--
id--
iden--
if--
il--
illust--
im--
imagin--
in--
incor--
infe--
influ--
initi--
insp--
inst--
instru--
inter--
inve--
investi--
invol--
io--
ir--
is--
it--
j--
ja--
jar--
jas--
je--
jen--
ji--
jo--
jos--
jp--
ju--
jud--
k--
ka--
kal--
kan--
kar--
kas--
ke--
ken--
key--
kh--
kha--
kho--
khu--
ki--
kilo--
ko--
ku--
kun--
l--
la--
lak--
lan--
land--
lay--
le--
ley--
li--
libe--
lin--
liqu--
lo--
lu--
ly--
m--
ma--
mac--
mag--
mah--
maha--
main--
mak--
makh--
mal--
man--
mar--
mas--
maur--
mc--
me--
measure--
mech--
meh--
mer--
met--
meta--
mi--
mic--
micro--
mid--
mill--
min--
mir--
mis--
mo--
moha--
mono--
mor--
mot--
mou--
mu--
muha--
mult--
mur--
my--
myst--
n--
na--
nar--
nav--
navi--
naz--
nd--
ne--
neces--
new--
news--
ng--
ni--
no--
nor--
nu--
nuc--
ny--
o--
ob--
occ--
od--
ok--
ol--
on--
one--
op--
or--
orb--
os--
out--
over--
ox--
oxford--
p--
pa--
pac--
page--
pan--
par--
pat--
patri--
pe--
per--
perce--
ph--
phil--
pho--
phy--
physi--
pi--
pl--
plat--
play--
po--
poli--
pos--
post--
pr--
pra--
pre--
prim--
pro--
pu--
pul--
pur--
push--
q--
qa--
qu--
qua--
quali--
quan--
r--
ra--
raj--
ran--
re--
rece--
recog--
recom--
ref--
rele--
res--
ri--
ridd--
ro--
rou--
row--
rs--
ru--
run--
rus--
s--
sa--
sab--
sac--
saf--
sak--
sar--
sax--
sc--
sch--
sche--
se--
sen--
ser--
sha--
shar--
sho--
shu--
si--
sid--
sie--
sil--
sin--
sindh--
sk--
sl--
sla--
so--
sp--
spec--
st--
ste--
stru--
stu--
su--
sub--
suff--
sug--
sun--
sur--
susp--
swa--
sy--
syll--
syn--
t--
ta--
tar--
te--
ter--
th--
the--
thefree--
ti--
tis--
to--
tr--
trans--
tro--
trop--
trou--
tu--
turk--
twi--
u--
ul--
ume--
un--
unve--
up--
ur--
us--
uz--
v--
va--
vari--
ve--
ver--
vi--
viol--
vo--
vol--
voya--
w--
wa--
war--
we--
web--
wet--
whe--
wi--
wiki--
wil--
wo--
wol--
won--
wor--
world--
x--
xi--
xin--
y--
ya--
z--
za--
ze--
zh--
zi--
zoroastr--
ν--
м--
н--
о--
с--
ء--
ا--
اب--
ابا--
ابو--
ابوال--
ات--
اتر--
اتم--
اث--
اجت--
اجه--
اجو--
اح--
اخت--
اد--
ار--
ارا--
ارم--
اري--
ارڙ--
از--
اس--
است--
اسم--
اسٽر--
اش--
اشت--
اشر--
اشڪ--
اص--
اض--
اط--
اظ--
اع--
اف--
اق--
ال--
الا--
الب--
الح--
الر--
الس--
الص--
الع--
الغ--
الف--
الق--
الك--
الم--
الن--
اله--
الي--
الگ--
الھ--
ام--
امر--
امير--
ان--
انا--
انب--
انس--
انسٽي--
انو--
انٽيگ--
انڊ--
انڙ--
انگ--
اه--
اهل--
او--
اوج--
اور--
اوس--
اول--
اون--
اوي--
اوڍ--
اوڏ--
اوڳ--
اوڻو--
اي--
اير--
ايل--
ايم--
اين--
ايو--
ايڊ--
ايگري--
ايگز--
اٺ--
اٻ--
اپ--
اڀ--
اڄ--
اچ--
اڌ--
اڍي--
اڏر--
اڏي--
اک--
اڪ--
اگر--
اگه--
اڳ--
اڻ--
ای--
ب--
با--
باخ--
باد--
بار--
باس--
بال--
بت--
بج--
بحر--
بد--
بر--
برا--
برج--
برط--
برو--
بزد--
بس--
بش--
بغ--
بقا--
بل--
بلو--
بم--
بن--
به--
بها--
بو--
بي--
بيد--
بيروز--
بيل--
بين--
بيڊ--
بيڪ--
بيگ--
بٹ--
بٽ--
بڇي--
بڊ--
بڑ--
بک--
بڪ--
بگ--
بڻ--
بھ--
بہ--
بہاول--
بی--
ت--
تا--
تان--
تب--
تث--
تح--
تحر--
تر--
ترا--
ترو--
تري--
ترڪ--
تش--
تص--
تع--
تق--
تل--
تم--
تن--
تنگ--
ته--
تو--
توت--
تي--
تڏ--
تڙ--
تڪ--
تھ--
ث--
ثار--
ثم--
ج--
جا--
جال--
جام--
جان--
جب--
جت--
جج--
جد--
جر--
جرم--
جز--
جس--
جغرا--
جـ--
جفا--
جل--
جم--
جمد--
جن--
جه--
جهان--
جهن--
جهو--
جو--
جي--
جيا--
جيم--
جيو--
جڙ--
جڪ--
جڻ--
جھ--
جھي--
جی--
ح--
حا--
حب--
حد--
حر--
حسن--
حل--
حوص--
حي--
حی--
خ--
خاطر--
خان--
خد--
خدا--
خر--
خص--
خط--
خم--
خن--
خو--
خوا--
خوب--
خود--
خوز--
خوش--
خي--
خير--
د--
دا--
دار--
دارال--
داس--
دال--
دب--
دت--
در--
درا--
درس--
دس--
دست--
دل--
دم--
دن--
ده--
دو--
دوا--
دي--
ديو--
دٻ--
دڙ--
دک--
دھر--
دھم--
دی--
دیک--
ذ--
ذا--
ذوال--
ذي--
ر--
را--
رات--
راج--
رام--
ران--
راو--
راڄ--
رب--
رت--
رتن--
رج--
رخ--
رد--
رز--
رش--
رف--
رقا--
رل--
رم--
رن--
رنگ--
ره--
رو--
رود--
روز--
رون--
روپ--
روڊ--
ري--
ريج--
ريز--
ريس--
ريل--
ريو--
ريپ--
ريگي--
رپ--
رٿ--
رڊ--
رڌي--
رک--
رکو--
رڪ--
رگ--
رڱ--
رڳ--
رڻ--
رہ--
ری--
ز--
زا--
زاپا--
زر--
زم--
زن--
زو--
زي--
زير--
زڪ--
زھر--
س--
سا--
ساس--
سال--
سام--
سان--
ساه--
ساڃ--
سب--
سبز--
ست--
ستا--
ستر--
ستي--
سج--
سد--
سر--
سرا--
سرب--
سري--
سس--
سـ--
سل--
سلا--
سلو--
سلي--
سلی--
سم--
سمر--
سن--
سنجھ--
سنڌ--
سنھ--
سه--
سهي--
سو--
سور--
سوم--
سون--
سوي--
سوڙ--
سوڳ--
سي--
سير--
سيل--
سين--
سٽ--
سپ--
سٿ--
سڀ--
سچي--
سڌ--
سک--
سڪ--
سڪڙ--
سڱ--
سی--
ش--
شا--
شاه--
شاھ--
شب--
شت--
شد--
شر--
شرم--
شفت--
شل--
شم--
شن--
شه--
شو--
شوداس--
شي--
شير--
شڪ--
شھ--
ص--
صح--
صف--
صو--
صيه--
ض--
ضم--
ضياء--
ط--
طب--
طغ--
طل--
طي--
ظ--
ظفر--
ع--
عا--
عبد--
عبدال--
عجو--
عز--
عزن--
عق--
عل--
علا--
عم--
عمر--
عن--
عيا--
عی--
غ--
غا--
غير--
ـ--
ـــ--
ف--
فا--
فار--
فاص--
فتح--
فحا--
فر--
فرا--
فراخ--
فس--
فص--
فق--
فل--
فن--
فو--
فوٽو--
في--
فيس--
فی--
ق--
قا--
قب--
قت--
قد--
قر--
قز--
قسط--
قص--
قط--
قلم--
قم--
قمر--
قن--
قو--
قي--
ك--
ل--
لا--
لات--
لاج--
لام--
لاپ--
لب--
لج--
لح--
لر--
لف--
لم--
لن--
لنگ--
له--
لو--
لوڙ--
لوڪ--
لي--
لين--
ليو--
لٽ--
لٿو--
لڀ--
لڌي--
لڏ--
لڙ--
لڙن--
لڙڪ--
لک--
لڪ--
لڳا--
لھ--
م--
ما--
مال--
مان--
ماه--
ماڪ--
مت--
مجت--
مح--
مخ--
مد--
مر--
مرا--
مرث--
مز--
مس--
مست--
مش--
مشا--
مص--
مصط--
مض--
مع--
مغ--
مـ--
مف--
مفا--
مق--
مقت--
مقد--
مل--
ملا--
ملن--
من--
منا--
مني--
مه--
مها--
مهر--
مو--
مور--
مول--
مون--
مونجه--
موٽ--
مي--
مير--
ميلن--
مين--
ميڊ--
ميڪ--
مٺ--
مٽ--
مٽي--
مپ--
مٿا--
مڃ--
مڙ--
مک--
مڪ--
مڱ--
مڻ--
مھا--
می--
ن--
نا--
نار--
ناس--
نام--
ناڪ--
ناگا--
نب--
نت--
نج--
نخ--
نذر--
نر--
نز--
نس--
نص--
نط--
نع--
نف--
نق--
نقا--
نل--
نم--
نن--
نند--
نه--
نو--
نور--
ني--
نيا--
نيو--
نيڪ--
نٽ--
نڀ--
نچ--
نڙ--
نک--
نڪ--
نڪارا--
نڪو--
نگ--
نگه--
نھ--
ه--
ها--
هر--
هري--
هـ--
هل--
هم--
هن--
هنڱ--
هه--
هو--
هوا--
هوم--
هي--
هيل--
هيم--
هٻ--
هٽ--
هٿ--
هڙ--
هڪ--
هڱ--
هڻ--
و--
وا--
وار--
وال--
واه--
وت--
وجھ--
وح--
ود--
ور--
ورا--
وز--
وزي--
وس--
وسط--
وسن--
وش--
وظ--
ول--
ولا--
ولي--
وم--
ون--
وني--
ونڊ--
وه--
وهن--
وو--
وي--
ويڳ--
ويھ--
وٺ--
وڄ--
وچ--
وڊ--
وڍ--
وڏ--
وڙ--
وک--
وڪ--
ي--
يا--
يار--
يج--
يد--
ير--
يز--
يس--
يش--
يف--
يل--
يم--
ينس--
يو--
يي--
يپ--
يڊ--
يڪ--
يگ--
٠--
١--
١٨--
٢--
ٹ--
ٹھٹ--
ٺ--
ٺا--
ٺاه--
ٺهڪ--
ٺو--
ٺوڙ--
ٺي--
ٺٺ--
ٻ--
ٻا--
ٻار--
ٻان--
ٻاٽ--
ٻر--
ٻلي--
ٻن--
ٻه--
ٻور--
ٻول--
ٻي--
ٻير--
ٻڌ--
ٻگھ--
ٽ--
ٽا--
ٽر--
ٽري--
ٽس--
ٽم--
ٽما--
ٽن--
ٽه--
ٽو--
ٽي--
ٽين--
ٽيڪ--
ٽٻ--
ٽپ--
ٽڙ--
ٽڪ--
پ--
پا--
پار--
پاٻ--
پاڪ--
پاڳ--
پبل--
پتوڙي--
پد--
پر--
پرا--
پرو--
پرومي--
پري--
پس--
پشي--
پل--
پن--
پنج--
پنھ--
پو--
پوڙ--
پي--
پير--
پيش--
پيل--
پين--
پيچيد--
پيڙ--
پٻ--
پٽ--
پٿا--
پڄ--
پچ--
پڇ--
پڙ--
پک--
پکڙ--
پڪ--
پگه--
پڳ--
پی--
ٿ--
ٿا--
ٿر--
ٿل--
ٿن--
ٿو--
ٿي--
ٿڌ--
ڀ--
ڀا--
ڀانڊ--
ڀاو--
ڀاڳ--
ڀر--
ڀرو--
ڀنڀ--
ڀو--
ڀول--
ڀون--
ڀوڄ--
ڀوڳ--
ڀي--
ڀٽ--
ڀڃ--
ڀڙ--
ڀڳ--
ڃ--
ڄ--
ڄام--
ڄنگ--
ڄڻي--
چ--
چا--
چار--
چال--
چاڙ--
چبو--
چر--
چرا--
چل--
چم--
چمڪ--
چن--
چه--
چو--
چور--
چوڪ--
چي--
چير--
چٻ--
چٽ--
چٽي--
چپ--
چڙ--
چک--
چڪ--
ڇ--
ڇا--
ڇاٻ--
ڇاپ--
ڇت--
ڇر--
ڇو--
ڇي--
ڇٽ--
ڇپ--
ڇڄ--
ڇڏ--
ڇڙ--
ڇڪ--
ڇڪي--
ڈ--
ڈی--
ڊ--
ڊا--
ڊاڪ--
ڊرا--
ڊسڪ--
ڊل--
ڊن--
ڊو--
ڊوڙ--
ڊي--
ڊيم--
ڊيمو--
ڊيو--
ڊپ--
ڊڄ--
ڊڪ--
ڌ--
ڌا--
ڌام--
ڌر--
ڌم--
ڌن--
ڌو--
ڌي--
ڌڙ--
ڍ--
ڍان--
ڍل--
ڍو--
ڍي--
ڍڪ--
ڍڪي--
ڏ--
ڏا--
ڏام--
ڏاڙ--
ڏر--
ڏس--
ڏه--
ڏو--
ڏور--
ڏي--
ڏيا--
ڏک--
ڏھ--
ڙ--
ڦ--
ڦاڙ--
ڦر--
ڦل--
ڦهل--
ڦود--
ڦول--
ڦٽ--
ڦڙ--
ڦھل--
ک--
کا--
کار--
کان--
کر--
کش--
کل--
کلن--
کم--
کن--
که--
کو--
کوٽ--
کي--
کٽ--
کڏ--
کڙ--
کڻ--
کہ--
کی--
ڪ--
ڪا--
ڪار--
ڪاس--
ڪاش--
ڪام--
ڪان--
ڪث--
ڪج--
ڪر--
ڪرا--
ڪرش--
ڪرم--
ڪرو--
ڪري--
ڪرڙ--
ڪس--
ڪسي--
ڪش--
ڪـ--
ڪل--
ڪلو--
ڪم--
ڪن--
ڪنز--
ڪه--
ڪو--
ڪوا--
ڪور--
ڪول--
ڪون--
ڪوٽ--
ڪي--
ڪير--
ڪيس--
ڪيل--
ڪيم--
ڪيو--
ڪٽ--
ڪٽي--
ڪپ--
ڪچ--
ڪڇ--
ڪڍ--
ڪڙ--
ڪک--
ڪڪ--
ڪڪر--
ڪڪڙ--
گ--
گا--
گج--
گذر--
گر--
گرا--
گري--
گز--
گس--
گل--
گلو--
گلي--
گم--
گما--
گن--
گنگ--
گه--
گها--
گهر--
گهن--
گهٽ--
گو--
گور--
گي--
گيل--
گين--
گچ--
گڍ--
گڏ--
گڙ--
گڻ--
گھ--
گھر--
گھم--
گھو--
ڱ--
ڳ--
ڳاڙه--
ڳاڻ--
ڳن--
ڳو--
ڳوڙ--
ڳي--
ڳڀ--
ڳڙ--
ڳڻ--
ڳڻي--
ڳڻپ--
ڳڻپيو--
ڻ--
ھ--
ھا--
ھاليپ--
ھر--
ھل--
ھم--
ھن--
ھو--
ھوا--
ھي--
ھٿ--
ھڙ--
ھڪ--
ھڻ--
ہ--
ہو--
ی--
یا--
یو--
۱--
۱۹--
۲--
۲۰--
۳--
۴--
۵--
۶--
۷--
आ--
ए--
क--
प--
म--
र--
स--
--0
--00
--1
--12
--2
--3
--4
--5
--6
--67
--7
--71
--78
--8
--81
--87
--9
--a
--aaj
--aar
--ab
--abad
--able
--acy
--ad
--ade
--ado
--ae
--age
--ah
--ai
--ain
--aj
--ak
--al
--ally
--als
--am
--ama
--an
--ana
--ance
--ang
--ani
--ania
--ano
--ant
--ao
--aqbaj
--ar
--ard
--ari
--aries
--arr
--ars
--ary
--as
--ast
--at
--ate
--ated
--ates
--ating
--ation
--ational
--ations
--ator
--au
--aw
--awi
--ay
--az
--b
--be
--bi
--ble
--bo
--bon
--bra
--bs
--by
--c
--ca
--cal
--ce
--cent
--ces
--ch
--che
--cht
--ck
--cks
--cky
--cle
--co
--cs
--ct
--ctions
--cy
--d
--da
--dad
--day
--dd
--de
--ded
--dh
--di
--do
--dor
--ds
--du
--dy
--e
--eal
--ect
--ed
--edia
--ee
--eek
--eem
--een
--eer
--ees
--ef
--ei
--ek
--ekh
--el
--ell
--em
--en
--ena
--ence
--end
--ens
--ensive
--ent
--ep
--er
--ered
--erium
--erous
--ers
--ert
--es
--ese
--est
--et
--ett
--eus
--ev
--ew
--ey
--ez
--f
--fer
--frey
--ft
--ful
--fy
--g
--ga
--gar
--gate
--ge
--ged
--ger
--ges
--gi
--ging
--gir
--gle
--go
--gs
--gton
--gual
--h
--ha
--ham
--har
--he
--hen
--hes
--hi
--hip
--ho
--hood
--hra
--hs
--ht
--hts
--hu
--hy
--i
--ia
--iaaj
--ial
--ian
--ians
--ib
--ic
--ich
--ics
--id
--ide
--idence
--ides
--ie
--ied
--ient
--ier
--ies
--ified
--igan
--ight
--ik
--il
--ila
--ile
--ily
--im
--imum
--in
--ina
--india
--ine
--ing
--ings
--ini
--ins
--io
--ion
--ions
--ior
--ious
--ir
--is
--isation
--ise
--ised
--ish
--ishes
--ism
--ist
--istic
--ists
--it
--ite
--ities
--ity
--ium
--ius
--ive
--ix
--iya
--iz
--ization
--ized
--j
--ja
--ji
--jo
--k
--ka
--kar
--ke
--kh
--kha
--khsh
--ki
--ks
--l
--la
--lah
--ld
--le
--ler
--ley
--lf
--li
--lie
--lies
--lin
--line
--ling
--lis
--lism
--list
--lity
--lk
--ll
--lla
--lle
--lm
--lo
--ls
--lsh
--lus
--ly
--m
--ma
--mag
--man
--me
--ment
--mer
--mi
--mma
--mond
--ms
--n
--na
--nah
--nal
--nce
--nd
--nda
--nds
--ne
--ner
--ners
--nes
--ness
--news
--ng
--ni
--nia
--ning
--nity
--nk
--nn
--nne
--ns
--nt
--ntly
--nu
--ny
--o
--ock
--od
--ography
--ogy
--ol
--ology
--om
--omy
--on
--ona
--onia
--ons
--oo
--ooq
--oor
--or
--ore
--ors
--os
--ot
--ou
--oud
--ous
--ousness
--ov
--ow
--ows
--oy
--p
--pe
--posed
--post
--ps
--pur
--q
--qbaj
--qi
--r
--ra
--rage
--ral
--ran
--rat
--rd
--re
--rea
--rg
--rgh
--ri
--ria
--rick
--rid
--ries
--ring
--rl
--rn
--ro
--ron
--rp
--rry
--rs
--rt
--rus
--ry
--ryo
--s
--sa
--se
--sed
--ses
--sh
--sha
--shire
--si
--sia
--sial
--sing
--sion
--sis
--sk
--sm
--son
--ss
--st
--stan
--ston
--sts
--t
--ta
--tai
--taining
--tal
--tan
--te
--ted
--ter
--th
--thi
--thing
--ti
--tia
--tial
--tic
--tics
--times
--ting
--tion
--tive
--tle
--to
--ton
--tor
--ts
--tt
--tty
--ty
--tz
--u
--ua
--ual
--ud
--ue
--ug
--ugh
--ught
--ui
--ula
--ular
--ullah
--um
--ume
--un
--up
--ur
--ural
--ure
--us
--ut
--ution
--v
--va
--ve
--ves
--vi
--vious
--vo
--w
--wal
--ware
--web
--west
--wiki
--wise
--wn
--x
--y
--ya
--yi
--yo
--ys
--z
--za
--zar
--ze
--zeb
--zi
--zon
--ə
--а
--б
--в
--и
--к
--н
--нов
--р
--т
--ы
--я
--ء
--ا
--اء
--اب
--ات
--اتي
--اج
--اخ
--اد
--ار
--ارن
--ارو
--اري
--اريء
--ارڪ
--ارڻ
--از
--ازي
--اس
--اسن
--اسي
--اش
--اصر
--اط
--اع
--اف
--افي
--اق
--ال
--الا
--الو
--الہ
--ام
--اما
--امل
--امو
--امي
--ان
--انا
--اندي
--انه
--اني
--انہ
--اه
--اهه
--اوان
--اي
--ايا
--اٽ
--اپور
--اٿ
--اڊ
--اڊا
--اڊور
--اڙ
--اڪ
--اڪا
--اڪو
--اگ
--اں
--اڻ
--اڻا
--اڻن
--اڻو
--اڻي
--اڻيء
--اھ
--اہ
--ب
--با
--بب
--بر
--برگ
--بس
--بع
--بن
--بو
--بي
--بيا
--بہ
--ة
--ت
--تا
--تان
--ترا
--تن
--ته
--تو
--تي
--تيا
--تہ
--تے
--ث
--ثن
--ثہ
--ج
--جا
--جان
--جاهه
--جاڻي
--جر
--جن
--جها
--جو
--جي
--جيت
--جڻ
--جہ
--ح
--حا
--حو
--حہ
--خ
--خان
--خانا
--خانو
--د
--دا
--داد
--دار
--دارن
--داس
--دان
--دة
--در
--دس
--دن
--ده
--دو
--دون
--دي
--ديء
--ديون
--دڙ
--دڙن
--دگي
--دھ
--دہ
--ذ
--ر
--را
--راء
--راج
--رام
--رث
--رد
--رز
--رس
--رم
--رن
--ره
--رو
--ري
--ريا
--رٽ
--رڊ
--رڪ
--رگ
--رڻ
--رہ
--ری
--ز
--زا
--زاده
--زل
--زم
--زن
--زوي
--زي
--زگ
--س
--سا
--سد
--سر
--سس
--سل
--سن
--سو
--سوم
--سون
--سي
--سيا
--سين
--سٽ
--سٽر
--سٽس
--سٽڪ
--سڪ
--سہ
--ش
--شا
--شاھ
--شت
--شس
--شش
--شل
--شم
--شن
--شنز
--شو
--شي
--شيا
--شيم
--شٽ
--شپ
--شڪ
--شڻ
--ص
--صل
--صه
--صي
--ض
--ضا
--ضو
--ضي
--ط
--طانيا
--طين
--طہ
--ظ
--ع
--عت
--عد
--عه
--عو
--عي
--غ
--غي
--ـ
--ـي
--ف
--فر
--فس
--فظ
--فع
--فن
--فه
--في
--ق
--قا
--قب
--قت
--قل
--قه
--قي
--قی
--ك
--ل
--لا
--لاجي
--لدين
--لر
--لم
--لن
--له
--لو
--لوء
--لي
--ليهه
--لڊ
--لڪ
--لہ
--لی
--لے
--م
--ما
--مار
--مان
--مب
--مت
--مر
--مش
--مل
--من
--مند
--منٽ
--مو
--مي
--ميا
--ميشن
--ميم
--مينٽ
--ميٽر
--مٽ
--مڪ
--ن
--نء
--نا
--ناي
--ناٿ
--نة
--نتي
--نج
--ند
--ندا
--ندر
--ندو
--ندي
--ندڙ
--نز
--نس
--نش
--نن
--نه
--نو
--ني
--نيم
--نٽ
--نڊ
--نڊر
--نڪ
--نگ
--نگار
--نہ
--نی
--ه
--ها
--هار
--هتر
--هر
--هل
--هم
--هن
--هه
--هو
--هون
--هي
--هيء
--هين
--هٺ
--هڙ
--هڙو
--هڻ
--هہ
--و
--وء
--وا
--واد
--وار
--وب
--وت
--وتي
--وح
--ود
--ور
--وز
--وس
--وش
--وشن
--وع
--وعہ
--وف
--ول
--وم
--ومل
--ون
--وني
--وه
--وي
--ويل
--وٽ
--وٽر
--وڊ
--وڙو
--وڪ
--وں
--ى
--ي
--يء
--يا
--يات
--يان
--ياي
--ياڻي
--يت
--يث
--يج
--يد
--يده
--يدڪ
--ير
--يري
--يز
--يس
--يسي
--يش
--يشن
--يف
--يل
--يم
--ين
--ينيم
--ينٽ
--يه
--يهه
--يو
--يون
--يي
--يٽ
--يٽو
--يٽي
--يڊ
--يڊاڊ
--يڪ
--يڪا
--يڪل
--يڪن
--يڪو
--يھ
--يہ
--٠
--٦
--ٹ
--ٹو
--ٺ
--ٺو
--ٻ
--ٻا
--ٻو
--ٽ
--ٽا
--ٽر
--ٽز
--ٽس
--ٽل
--ٽن
--ٽو
--ٽي
--ٽڪ
--ٽڪس
--پ
--پا
--پر
--پو
--پور
--پي
--پٿيڪس
--ٿ
--ٿا
--ٿي
--ٿڪ
--ڀ
--ڀٽ
--ڄ
--چ
--چا
--چر
--چن
--چند
--چو
--چي
--ڇ
--ڇل
--ڈ
--ڊ
--ڊا
--ڊاي
--ڊر
--ڊس
--ڊل
--ڊم
--ڊن
--ڊو
--ڊور
--ڊوٽس
--ڊي
--ڊيا
--ڊڪٽ
--ڊڻ
--ڌ
--ڌر
--ڌن
--ڌو
--ڌي
--ڍ
--ڍا
--ڍر
--ڍن
--ڏ
--ڏنو
--ڏني
--ڑ
--ڑہ
--ڙ
--ڙا
--ڙن
--ڙه
--ڙو
--ڙي
--ڙيء
--ڙين
--ڙڻ
--ڙھ
--ک
--کا
--کي
--کھ
--ڪ
--ڪا
--ڪار
--ڪر
--ڪره
--ڪس
--ڪل
--ڪلس
--ڪن
--ڪو
--ڪي
--ڪيا
--ڪٽ
--گ
--گا
--گار
--گان
--گاھ
--گر
--گل
--گن
--گهو
--گو
--گون
--گي
--گيء
--گٽن
--ڱ
--ڳ
--ڳي
--ڳڙھ
--ں
--ڻ
--ڻا
--ڻن
--ڻو
--ڻي
--ڻيء
--ڻين
--ھ
--ھا
--ھار
--ھد
--ھر
--ھل
--ھم
--ھن
--ھو
--ھي
--ھڙ
--ھڻ
--ہ
--ہرہ
--ۃ
--ی
--یا
--یت
--ید
--یز
--یف
--یل
--یم
--ین
--یو
--یں
--یہ
--ے
--۰
--۱
--۳
--۸
--न
