!
"
#
##0
##1
##10
##11
##12
##13
##14
##15
##16
##17
##18
##19
##2
##20
##21
##22
##23
##24
##25
##26
##27
##28
##29
##3
##30
##31
##32
##33
##34
##35
##36
##37
##38
##39
##4
##40
##41
##42
##43
##44
##45
##46
##47
##48
##49
##5
##50
##51
##52
##53
##54
##55
##56
##57
##58
##59
##6
##60
##61
##62
##63
##64
##65
##66
##67
##68
##69
##7
##70
##71
##72
##73
##74
##75
##76
##77
##78
##79
##8
##80
##81
##82
##83
##84
##85
##86
##87
##88
##89
##9
##90
##91
##92
##93
##94
##95
##96
##97
##98
##99
$
%
&
'
(
)
*
+
,
-
.
/
0
00
000
0000
000000
001
002
003
004
005
006
007
01
02
03
04
05
06
07
08
09
1
10
100
1000
101
102
103
104
105
106
107
108
109
11
110
1100
111
112
113
114
115
116
117
118
119
12
120
1200
121
122
123
124
125
126
127
128
129
13
130
1300
131
132
133
134
135
136
137
138
139
14
140
1400
141
142
143
144
145
146
147
148
149
15
150
1500
151
152
153
154
155
156
157
158
159
16
160
1600
161
162
163
164
165
166
167
168
169
17
170
1700
171
172
173
174
175
176
177
178
1789
179
1790
1791
1792
1793
1795
18
180
1800
1801
1804
1806
181
1814
1815
182
1820
1821
1822
1824
1825
1829
183
1830
1831
1832
1834
1835
1837
1839
184
1840
1841
1842
1843
1844
1845
1846
1847
1848
1849
185
1850
1851
1852
1853
1854
1855
1856
1857
1858
1859
186
1860
1861
1862
1863
1864
1865
1866
1867
1868
1869
187
1870
1871
1872
1873
1874
1875
1876
1877
1878
1879
188
1880
1881
1882
1883
1884
1885
1886
1887
1888
1889
189
1890
1891
1892
1893
1894
1895
1896
1897
1898
1899
19
190
1900
1901
1902
1903
1904
1905
1906
1907
1908
1909
191
1910
1911
1912
1913
1914
1915
1916
1917
1918
1919
192
1920
1921
1922
1923
1924
1925
1926
1927
1928
1929
193
1930
1931
1932
1933
1934
1935
1936
1937
1938
1939
194
1940
1941
1942
1943
1944
1945
1946
1947
1948
1949
195
1950
1951
1952
1953
1954
1955
1956
1957
1958
1959
196
1960
1961
1962
1963
1964
1965
1966
1967
1968
1969
197
1970
1971
1972
1973
1974
1975
1976
1977
1978
1979
198
1980
1981
1982
1983
1984
1985
1986
1987
1988
1989
199
1990
1991
1992
1993
1994
1995
1996
1997
1998
1999
2
20
200
2000
2001
2002
2003
2004
2005
2006
2007
2008
2009
201
2010
2011
2012
2013
2014
2015
2016
2017
2018
20180
2019
202
2020
2021
2022
2023
2024
203
204
205
206
207
208
209
21
210
211
212
213
214
215
216
217
218
219
22
220
221
222
223
224
225
226
227
228
229
23
230
231
2310
232
2325
233
234
235
2352
236
2367
2369
237
238
239
2394
2399
24
240
2400
2404
2405
2406
2408
241
2410
2411
2413
2414
2415
2416
2417
2418
2419
242
2420
2421
2422
2423
2424
2425
2426
2427
2428
2429
243
2430
2431
2432
2433
2434
2435
2436
2437
2438
2439
244
2440
2441
2442
2443
2444
2445
2446
2447
2448
2449
245
2450
2451
2452
2453
2454
2455
2456
2457
2458
2459
246
2460
2461
2462
2463
2464
2465
2466
2467
2468
2469
247
2470
2471
2472
2473
2474
2475
2476
2477
2478
2479
248
2480
2481
2482
2483
2484
2485
2486
2487
2488
2489
249
2490
2491
2492
2493
2494
2495
2496
2497
2498
2499
25
250
2500
2501
2502
2503
2504
2505
2506
2507
2508
2509
251
2510
2511
2512
2513
2514
2515
2516
2517
2518
2519
252
2520
2521
2522
2523
2524
2525
2526
2527
2528
2529
253
2530
2531
2532
2533
2534
2535
2536
2537
2538
2539
254
2540
2541
2542
2543
2544
2545
2546
2547
2548
2549
255
2550
2551
2552
2553
2554
2555
2556
2557
2558
2559
256
2560
2561
2562
2563
2564
2565
2566
257
258
259
26
260
261
262
263
264
265
266
267
268
269
27
270
271
272
273
274
275
276
277
278
279
28
280
281
282
283
284
285
286
287
288
289
29
290
291
292
294
295
296
297
298
299
3
30
300
3000
301
302
303
304
305
306
307
308
309
31
310
311
312
313
314
315
316
317
318
319
32
320
321
322
323
324
325
326
327
328
329
33
330
331
332
333
334
335
336
337
338
34
340
341
343
344
345
346
347
35
350
355
356
357
36
360
365
367
37
370
375
38
380
386
39
390
395
399
4
40
400
401
402
404
405
41
410
415
42
420
425
43
430
435
44
440
45
450
46
460
47
470
48
480
49
5
50
500
5000
501
51
510
52
520
521
525
53
530
54
540
543
55
550
555
556
56
560
57
570
58
580
59
6
60
600
61
616
62
620
625
63
639
64
640
65
650
66
660
67
670
68
69
7
70
700
71
72
720
73
737
74
747
75
750
757
76
77
777
78
787
79
8
80
800
802
81
82
83
84
85
850
86
87
88
89
9
90
900
91
92
93
94
95
950
96
97
974
978
98
99
999
:
;
<
=
>
?
@
\
^
_
`
a
aa
aaa
ab
abbr
abbrev
abc
able
about
above
abs
absolute
abstract
ac
acacia
academic
academy
accept
access
accessed
according
account
accounts
ace
acid
acoustic
across
act
acting
action
active
activity
actor
actress
ad
adam
add
addclass
added
adding
additional
address
administration
advance
advanced
adventure
adventures
ae
af
afc
affairs
affect
africa
african
after
ag
again
against
age
agency
agent
agents
ages
agriculture
ah
ai
aid
air
aircraft
airlines
airport
ais
akb
al
alan
albert
album
albums
alex
alexander
alfred
algorithm
ali
alias
aliases
alice
alien
align
alive
all
allen
alliance
allow
allows
alone
along
alpha
alpinia
already
also
alt
alternate
alternative
altnames
always
am
amazing
amazon
america
american
among
an
analysis
anatomy
anchor
ancient
and
anderson
andre
andrew
android
angel
angeles
angels
angle
animal
animation
anime
ann
anna
anne
anniversary
annual
annular
another
anterior
anthem
anthony
anti
antonio
any
ap
api
app
appear
apple
application
applied
approach
appropriate
apr
april
aquarium
ar
arab
arabic
arc
architecture
archive
archived
archives
are
area
arena
arg
args
argument
arguments
aristitleism
arm
arms
army
around
array
art
artery
arthur
article
articles
artist
artists
arts
as
asahi
asean
asia
asian
ask
asp
aspx
assembly
assessment
associated
association
at
atlantic
atlas
attack
attr
au
audio
audition
aug
august
austin
australia
australian
austria
author
authority
authors
auto
automatic
automatically
autumn
av
available
aviation
avoid
award
awards
away
ax
az
b
ba
baby
bachelor
back
background
bact
bad
baker
ball
ban
band
bang
bangkok
bank
banner
bar
barbara
barcelona
barry
barset
base
based
basic
bass
bat
bataille
batman
battle
bay
bb
bbc
bc
bd
be
beach
bear
beast
beat
beautiful
beauty
because
become
been
before
begin
beginning
begins
behavior
behind
beijing
being
belgium
believe
bell
below
ben
benjamin
berkeley
berlin
bernard
best
beta
betta
better
between
beyonce
beyond
bg
bi
bias
bible
big
bill
billboard
billy
bin
bio
biography
biological
biology
bird
birds
birth
birthday
bit
biz
black
blackwell
blank
blind
block
blog
blogspot
blood
blue
blues
blurb
bmatrix
bmw
bnk
bo
board
bob
body
boeing
bold
bond
bone
book
books
boolean
border
born
borneo
boston
bot
both
bottom
bowl
box
boxes
boxrec
boy
boys
br
brain
branch
brand
brazil
break
brian
bridge
brief
britain
britannica
british
broadcasting
broken
bros
brother
brothers
brown
browser
bruce
bs
bts
bu
buddha
buddhism
buddhist
bug
bugs
build
building
bulletin
bureau
burma
bus
business
but
butterfly
button
by
bye
c
ca
cafe
calamus
calendar
california
call
called
cambodia
cambridge
camp
campaign
campbell
can
canada
canadian
canal
cancer
cannot
canvas
cap
cape
capital
captain
caption
car
carbon
card
care
career
carl
carolina
cartoon
case
cases
cast
castle
cat
categories
category
cathedral
catherine
catholic
cats
cause
cb
cbs
cbt
cc
cd
cdot
cdots
ce
cell
cells
census
center
central
centre
century
cf
cfg
ch
cha
chain
chainwit
challenge
chamber
champion
champions
championship
championships
chan
chance
chang
change
changed
changes
channel
chapter
char
character
characters
charity
charles
chart
chat
check
chemical
chemistry
chen
chi
chiang
chicago
chief
child
children
chile
china
chinese
cho
choice
choose
chris
christian
christmas
christopher
chronicle
chu
chula
church
cia
cinema
circle
citation
citations
cite
cities
city
civic
civil
cj
claim
claims
clark
clash
class
classes
classic
classical
classification
clean
clear
click
climate
clinical
clip
close
club
clue
cm
cn
cnn
co
coalition
coast
coat
code
codes
cognitive
coins
col
cold
cole
collaboration
collapse
collapsible
collection
college
color
colors
colour
columbia
column
columns
com
combat
combination
combinations
come
comedy
comic
comics
coming
command
commander
comment
commercial
commission
committee
common
commons
communication
communist
communities
community
companion
company
comparative
competition
complete
complex
computer
concat
concept
concert
conference
config
configuration
conflict
congress
conservation
constitution
construction
contact
containing
contains
contemporary
content
contents
contest
context
continental
contribute
control
convention
convert
cool
coordinates
copy
core
corporation
correct
cortex
cos
cost
could
council
count
countdown
counter
countries
country
county
coupe
course
court
cov
cover
covering
covid
cp
cr
crazy
create
created
creation
creative
crime
crisis
critical
critics
cropped
cross
crown
cry
crystal
cs
css
csstext
ct
cu
cultural
culture
cup
current
currently
custom
cut
cv
cvt
cycle
cyp
d
da
dagostino
dai
daily
dallas
dame
dan
dance
dangerous
daniel
dans
dark
das
dash
data
database
datavalue
date
dates
dave
david
davis
dawn
day
days
db
dc
dd
de
dead
dean
dear
death
debut
dec
december
decimal
decision
deep
def
default
defaults
defense
defined
definition
degree
dek
del
delhi
delivery
delta
demo
democracy
democratic
den
dendrobium
denmark
density
department
deprecated
der
des
description
design
destiny
detail
detailed
details
detective
detour
developers
development
devil
dex
df
di
diamond
diana
diary
dictionary
did
die
dies
diff
different
digit
digital
digits
direct
direction
directly
director
directory
disc
discovery
discussion
disease
diseases
disney
disorder
display
displayed
displays
distance
distribution
district
div
division
dj
dl
dna
do
doc
doctor
document
documentary
documentation
documents
does
doesn
dog
doi
domain
don
donald
done
dong
door
dorsal
dot
double
douglas
down
download
dr
dragon
drama
dream
dreams
drive
drop
drug
ds
dsm
dt
du
due
duke
dur
during
dutch
dvd
dx
dynamic
dynasty
e
ea
each
eagle
early
earth
east
eastern
easy
eb
ec
eclipse
economic
economics
economy
ecw
ed
edge
edit
edited
editing
edition
editor
editors
edits
eds
edu
education
edward
ee
effect
effects
egypt
egyptian
eight
either
el
election
elections
electric
electronic
element
elements
elimination
elite
elizabeth
else
elseif
em
emblem
emperor
empire
empty
en
encyclopaedia
encyclopedia
encyclopædia
end
ending
energy
eng
engine
engineer
engineering
england
english
enough
ensign
enter
entertainment
entity
entries
entry
environment
environmental
ep
epidendrum
episode
episodes
equals
er
era
eric
err
error
errors
es
escape
espan
espn
essays
est
et
etc
ethnologue
eu
europa
europe
european
eve
even
event
events
ever
every
everything
evidence
evil
evolution
ex
example
examples
excerpt
exchange
executive
exhibition
exist
existing
exists
expand
experience
expo
express
expression
expressway
extended
extension
external
extra
extreme
eye
eyes
f
fa
face
facebook
fact
factor
factory
facts
faculty
fair
fairy
fall
false
fame
families
family
fan
fantasy
far
fashion
fast
fat
father
favorite
fb
fc
fe
feat
feature
features
featuring
feb
february
federal
federation
feedback
feel
female
festival
fever
few
ff
ffffff
fi
fiber
fiction
field
fields
fifa
fight
fighter
fighting
figure
figures
file
files
film
films
filter
final
financial
find
fine
fire
first
fish
fivb
five
fix
fixed
flag
flags
flash
flight
float
floor
flora
florida
flow
flower
flowers
fly
flying
fm
fmt
focus
follow
following
font
fontsize
foo
food
foot
football
for
force
forces
ford
foreign
forest
forever
form
format
formation
former
formula
fort
forum
forward
found
foundation
four
fourth
fox
fr
frac
frame
franc
france
francis
francisco
frank
fred
frederick
free
freedom
french
friday
friend
friends
from
front
ft
fu
fuel
fuji
full
fun
function
functions
fund
further
future
g
ga
galaxy
gallery
gam
game
games
gamma
garden
gary
gas
gate
gauge
gay
gb
gdp
ge
gen
gene
general
generation
gentiana
genus
geographic
geography
geonuch
george
georgia
german
germany
get
getargs
getparent
gets
ghost
gi
giant
gif
girl
girls
give
given
gives
gl
glass
global
globe
glory
gm
gmm
gn
go
goal
god
gods
goes
going
gold
golden
good
goodbye
google
gordon
got
gov
governance
government
gp
gr
graham
grammy
grand
grant
graph
gray
great
greater
greatest
greece
greek
green
grey
ground
group
groups
growth
gs
gsater
gsub
gt
gu
guard
guardian
guest
guide
guidelines
guinea
guitar
gun
gundam
guts
guy
h
ha
had
hair
half
hall
hamilton
han
hand
handbook
handler
hands
hans
happiness
happy
hard
hardy
harper
harris
harry
harvard
has
hat
hate
have
hawaii
hayate
hd
he
head
header
heading
health
heart
heat
heaven
heavy
heavyweight
height
held
hell
hello
help
henry
her
here
heritage
hero
heroes
hey
hi
hidden
hide
high
higher
highness
highway
hill
him
hindu
his
historia
historic
historical
history
hit
hitler
hits
hk
hkt
ho
hold
hollywood
holy
home
homepage
homo
honda
hong
honor
hook
hope
horizontal
horse
horus
hospital
host
hot
hotel
hour
hours
house
how
howard
however
hp
hr
hs
htm
html
http
https
hu
hua
hudson
human
hungary
hunter
hybrid
i
ia
ian
ibf
ibn
ic
icd
ice
icon
ict
id
idea
ideas
identifier
identity
idol
ie
ieee
if
ii
iii
il
illustrated
im
image
images
imdb
img
imp
impact
imperial
impgal
important
in
inc
include
included
includes
including
increment
independence
independent
index
india
indian
individual
indonesia
industrial
industry
info
infobox
information
infty
initial
inline
input
insert
inside
instagram
instead
institute
institution
instrumental
int
intel
intelligence
interactive
interface
interior
internal
international
internet
interview
interwiki
into
introduction
invalid
ioc
ip
ipa
ipairs
iran
iranica
irc
ireland
irish
iron
is
isbn
islam
islamic
island
islands
iso
isoname
israel
issn
issue
issues
it
italian
italic
italy
item
itemid
items
itis
its
itunes
itv
iucn
iv
ix
j
ja
jack
jackson
jacques
jam
james
jan
jane
january
japan
japanese
jason
java
jay
jazz
jean
jeff
jerry
jersey
jet
jewish
ji
jim
jimmy
jin
jma
jo
joe
john
johnny
johnson
join
joint
jonathan
jones
jordan
jose
joseph
journal
journey
jp
jpg
jr
js
jtwc
ju
juan
jul
july
jump
jun
june
jung
jungide
junior
just
justice
jutiphan
k
ka
kai
kamen
kara
karaoke
karen
karl
kat
kbs
ke
keep
kelly
ken
kenneth
kevin
key
keys
kg
khan
ki
kid
kids
kill
killer
kim
kimi
kind
king
kingdom
kings
kiss
km
knight
know
knowledge
known
ko
koi
kong
korea
korean
kpn
kr
ku
kv
l
la
lab
label
labor
laboratory
labour
lady
lake
lambda
land
lang
langcode
language
languages
laos
large
las
last
late
later
lateral
latest
latin
law
lawrence
laws
layer
lb
lc
le
lead
leader
leading
leaf
league
learn
learning
least
leave
led
lee
left
leg
legacy
legal
legend
legends
len
length
leo
lerdsuwa
les
less
let
letter
letters
level
lewis
lfloor
li
liberal
liberation
liberty
library
license
lie
life
light
like
lim
limit
limited
line
linear
lines
linguistics
link
linked
links
lion
list
listed
lists
literature
little
liu
live
liverpool
lives
living
ll
ln
lo
load
loc
local
location
log
logic
logo
loma
london
lonely
long
longer
look
looking
loop
lord
los
lost
lotus
louis
love
lovekrittaya
lover
low
lower
lp
lt
ltd
lu
lua
lucky
lv
lyrics
m
ma
mac
machine
macmillan
mad
made
madrid
mag
magazine
magic
maglev
magnolia
mai
mail
main
maintenance
majesty
major
make
makes
making
malaysia
male
man
management
manager
manchester
manop
manual
many
map
maps
mar
marc
march
margin
maria
marie
marine
mario
mark
marker
market
marketing
markup
mars
marshall
martin
marvel
mary
mask
mass
massachusetts
master
masters
match
matches
material
materials
math
mathbf
mathematical
mathematics
mathrm
matrix
matt
matter
matthew
max
may
mb
mbc
mbox
mc
mcot
md
me
mean
meaning
means
med
medal
media
medial
mediawiki
medical
medicine
medieval
meet
meeting
mega
melody
mem
member
members
memorial
memories
memory
men
menu
mercedes
message
messages
met
meta
metal
method
metro
metropolitan
mexican
mexico
mg
mhz
mi
michael
michel
michigan
microsoft
mid
middle
midnight
might
mike
mile
miles
military
miller
million
min
mind
mini
minister
ministry
minor
minute
minutes
miracle
mirror
miss
missing
mission
mister
mit
mix
mixed
mizuki
mk
ml
mm
mn
mnet
mo
mobile
mod
mode
model
models
modern
module
modules
mol
molecular
moment
mon
money
monkey
monster
month
months
moon
moore
more
morning
mos
moscow
most
mother
motion
motor
mount
mountain
move
movement
movie
movies
mp
mr
mri
mrs
ms
msg
mt
mthai
mtv
mu
much
muhammad
multi
multiple
muscle
museum
music
musical
muslim
must
mv
mw
my
myanmar
mystery
n
na
nakare
nam
name
named
names
namespace
nana
nasa
nat
nation
national
nations
native
natural
nature
naval
navbox
navigational
navy
nc
nd
ne
near
need
needed
needs
negative
nelson
neo
nepal
nepenthes
nerve
net
netherlands
network
neuron
never
new
news
newsid
newsletter
newspaper
next
ng
nguye
nh
nhk
ni
nicholas
nick
night
nil
nine
nippon
nissan
nj
nl
nm
no
nobel
node
non
none
normal
norman
north
northern
norway
not
note
notes
nothing
notice
notoc
nov
novel
november
now
nowiki
np
nr
ns
nu
nuclear
nucleus
null
nullzero
num
number
numbered
numbers
numeric
nwa
nxt
ny
o
obj
object
oblast
observer
ocean
oclc
oct
octahedron
october
octra
of
off
office
officer
official
offset
ogg
oh
oil
ok
ol
old
olympic
olympics
omega
omitted
on
once
one
online
only
op
opbf
open
opening
opera
operation
operations
opt
option
optional
options
or
orange
orchestra
order
org
organic
organization
oricon
oriental
orientation
origin
original
origins
os
osaka
ost
other
others
otherwise
ou
our
out
output
outside
outstanding
ova
over
overlay
override
overview
own
oxford
oz
p
pa
paba
pacific
padding
pagasa
page
pagename
pages
pain
painting
pair
pairs
pakistan
palace
pan
pantip
paper
papers
paradise
param
parameter
parameters
params
parent
paris
park
parliament
parms
part
partial
particular
parts
party
pass
passed
past
path
patrick
pattaya
pattern
patterns
paul
pbs
pc
pd
pdf
pe
peace
pearl
penguin
people
per
perfect
performance
period
persian
person
personal
personality
perspective
pet
peter
pframe
pg
ph
phantom
phase
phcap
phi
philip
philippine
philippines
philosophy
phoenix
photo
photos
php
physical
physics
pi
piano
picture
pictures
piece
pierre
pink
pl
place
placed
places
plain
plan
plane
planet
planning
plant
plants
plate
platform
platinum
play
player
players
please
plural
plus
pm
pmid
png
po
point
points
poke
poland
police
policy
polish
political
politics
poly
pool
pop
popular
population
port
portal
portrait
portugal
pos
position
positive
possible
post
posted
posterior
potapt
potential
potter
power
powered
pp
pr
practice
pre
precision
precure
prefecture
prefix
premier
premium
prepared
preprocess
present
presentation
presented
presents
president
press
pressure
pretty
preview
previous
price
primary
prime
prince
princess
princeton
principles
print
private
prix
prize
pro
problem
problems
proceedings
process
processing
produce
producer
produces
product
production
productions
products
professional
professor
profile
program
programme
programming
progress
progressive
project
projects
prop
properties
property
protected
protection
protein
protocol
provide
provided
province
ps
psi
psychology
pt
pu
public
publication
publications
published
publisher
publishers
publishing
pure
purple
purpose
put
pwi
px
q
qid
qs
quad
quality
que
queen
quest
question
questions
quote
r
ra
race
radio
rail
railway
rain
rainbow
random
range
ranger
rank
ranked
ranking
rankings
ratchakitcha
rate
rather
ratio
raw
ray
raymond
rd
re
read
reader
reading
ready
real
reality
rear
reason
receive
recent
receptor
record
recording
records
rect
red
redirect
ref
reference
references
reflex
reform
region
regional
regular
related
relations
release
released
relief
religion
religious
remember
remix
remove
removed
renaissance
replace
report
reports
republic
republican
request
require
required
res
rescue
research
resident
resistance
resolution
resource
resources
response
result
results
ret
retrieved
return
returns
reuters
rev
reverse
review
reviews
revised
revolution
revolutionary
rfloor
rgb
rho
rhythm
ri
ric
rice
rich
richard
ride
rider
right
rights
rin
ring
rio
rise
rising
risk
river
rna
ro
road
roadblock
robert
roberts
robin
robot
rock
rocket
roger
role
roll
roman
romance
romania
rome
room
root
rose
ross
round
route
routledge
row
rows
roy
royal
rs
rt
ru
rule
rules
run
running
russell
russia
russian
rx
ryan
s
sa
safety
saga
said
sailor
saint
sakura
sam
same
samuel
samurai
san
sandbox
sanook
santa
sarah
saros
sars
satellite
saturday
save
say
sayori
says
sbs
sc
scale
scene
school
sci
science
sciences
scientific
score
scorpianpk
scotland
scott
screen
script
sd
se
sea
seal
search
season
seasons
sec
second
secondary
secret
section
sections
security
see
seed
select
selected
selection
self
semi
senior
sense
seoul
sep
separate
separator
september
sequence
series
server
service
services
session
set
seven
several
sex
sexual
sh
sha
shadow
shah
shall
shanghai
share
she
sheet
shi
shield
shift
shin
ship
sho
shock
shop
short
shortname
shot
should
show
showing
shown
shows
si
siam
side
sigma
sign
signal
silver
similar
simon
simple
sin
since
sing
singapore
singer
singh
single
singles
sir
sister
site
sites
six
sixth
size
sk
ske
skin
skip
sky
sl
sleep
sm
smackdown
small
smart
smile
smith
snow
so
soc
soccer
social
socialism
socialist
society
sodium
software
solar
soldier
solid
solo
some
something
son
song
songs
sons
sony
soon
sorry
sort
soul
sound
soundtrack
source
sources
south
southeast
southern
soviet
sp
space
spaces
spain
span
spanish
spec
special
species
specific
specified
specify
speech
speed
spider
spin
spirit
split
sport
sports
spring
springer
sqrt
squad
square
sr
sri
sry
ss
st
stadium
staff
stage
stand
standard
stanford
star
stars
start
state
statement
states
station
statistical
statistics
stats
status
stay
steel
step
stephen
steve
steven
still
stone
stop
storage
store
stories
storm
story
str
strange
strategy
street
strike
string
strings
strip
strong
structure
stuart
student
studies
studio
studios
study
style
styles
su
sub
subject
subpage
subscribe
success
such
suffix
sugar
suggested
suite
sum
summary
summer
sun
sunday
sung
sunset
super
superior
superstar
support
supported
supporting
supreme
sur
sure
surface
surname
surprise
survey
susan
suzuki
sv
svg
sweden
swedish
sweet
switch
sword
sydney
symbol
symbols
symphony
syndrome
syntax
system
systems
t
ta
tab
table
tables
tag
tags
tai
tail
taiwan
take
taken
takes
tale
tales
talk
tan
tang
target
task
taweetha
taylor
tbs
tc
td
te
tea
team
teams
tech
technical
technology
teen
telegraph
television
tell
temperature
template
templates
templatestyles
temple
ten
tennis
term
terminal
terms
test
testcases
testing
tests
texas
text
texts
tfrac
tg
th
tha
thai
thailand
thairath
than
thank
thanks
that
the
theater
theatre
their
them
theme
then
theory
therapy
there
thermal
these
theta
they
thing
things
think
third
this
thomas
thompson
those
thought
thousand
three
through
thumb
thumbnail
ti
tig
tiger
till
tim
time
timekeepertmk
timeline
times
tinuviel
tipb
tipe
titb
tite
title
titles
tna
to
toc
today
todo
together
tokyo
tom
tomorrow
tonumber
tony
too
tool
tools
tooltip
top
topic
toronto
tostring
total
touch
tour
tourism
tournament
tower
town
toyota
tr
track
tracking
tract
trade
tradition
traditional
train
training
trans
transfer
transit
translate
translated
translation
translations
translator
transport
travel
treasure
treatment
treaty
tree
trial
tribute
trim
triple
tropical
true
trust
truth
try
ts
tt
tu
tun
turkey
turkish
turn
turner
tv
tvb
tvcccp
twa
twenty
twin
twitter
two
ty
type
types
u
ucode
uefa
uk
ukraine
ul
ultimate
ultra
un
und
under
understanding
unesco
union
unique
unit
united
units
unity
universal
universe
universities
university
unknown
unsubscribe
until
up
update
updated
upload
uploaded
upon
upper
upright
urban
url
us
usa
usage
use
used
useful
user
users
uses
using
ustring
usually
utc
util
utilities
utype
v
va
val
valid
valley
value
values
van
vanda
vandalism
var
variable
variant
variety
various
vcd
ve
vector
venus
ver
verlag
version
vertical
very
vi
via
vice
victor
victoria
victory
video
vie
vienna
vietnam
view
vii
viii
village
vincent
virgin
virginia
virtual
virus
vision
visual
visualeditor
vocal
vocals
voice
vol
volleyball
volume
von
vote
vs
vu
w
wa
wake
wales
walk
walker
wall
walter
wang
wanna
want
war
warner
warning
warrior
warriors
wars
was
washington
wat
watch
water
wattle
wave
way
ways
wba
wbc
wbo
wcw
wd
we
web
website
webster
wedding
week
weekly
wei
weight
welcome
well
were
west
western
what
when
where
whether
which
while
white
who
whole
why
wi
wid
wide
width
wiki
wikia
wikibase
wikidata
wikilink
wikimedia
wikipe
wikipedia
wikipedias
wikis
wikisource
wikitext
wild
wiley
will
william
williams
wilson
win
wind
window
windows
wing
winner
winter
wish
with
within
without
wmf
wo
wolf
woman
women
won
wonder
wood
word
words
work
workers
working
works
world
worldwide
worst
would
wp
wrap
wrestlemania
wrestler
wrestlers
wrestling
write
writer
writers
writing
written
wrong
ws
wu
wwe
wwf
www
x
xi
xiii
xx
xxx
y
ya
yahoo
yale
yan
yang
ye
year
years
yellow
yes
yesno
yesona
yet
yi
yo
york
you
young
your
youth
youtube
yu
yyyy
z
za
zealand
zero
zh
zhang
zone
zoo
zu
{
|
}
~
¡
£
§
©
«
­
®
°
±
²
³
´
µ
·
¸
º
»
½
×
æ
ð
÷
ø
ŋ
ɔ
ə
ʰ
ʻ
ʼ
ʾ
ʿ
ˈ
ˌ
ː
̀
́
̂
̃
̄
̆
̇
̈
̉
̊
̋
̌
̍
̓
̔
̛
̠
̣
̤
̥
̦
̧
̨
̪
̱
̸
͂
ͅ
͡
α
β
γ
δ
ε
η
θ
ι
κ
λ
μ
ν
ξ
ο
π
ρ
ς
σ
τ
υ
φ
χ
ω
а
в
г
е
и
к
м
н
о
с
т
у
шаблон
،
ا
ب
ج
ر
ص
ل
م
ن
ه
و
ي
َ
ُ
ِ
ّ
ْ
ٓ
ٔ
ٕ
ܵ
ँ
ं
ः
क
ग
च
ज
त
द
ध
न
प
भ
म
य
र
ल
व
श
ष
स
ह
ा
ि
ी
ु
ू
े
ो
्
१
ট
ল
া
ে
্
ு
்
ക
്
ก
กก
กกฎหมาย
กกต
กกร
กกรณ
กกระต
กกระส
กกล
กกว
กกองท
กกอล
กกะ
กกะส
กกะฮ
กกา
กการ
กการต
กการท
กการบ
กการพ
กการศ
กการะ
กการเด
กการเม
กการแข
กการใช
กกำจ
กกำพร
กกำล
กกำหนดให
กข
กขภ
กขระ
กขว
กขวา
กของ
กของกล
กของค
กของจ
กของซ
กของต
กของท
กของน
กของผ
กของพ
กของม
กของร
กของว
กของส
กของอ
กขององค
กขะเว
กขา
กค
กคณ
กคณะร
กคน
กคนก
กคนต
กคนท
กคนน
กคนม
กคนร
กคนหน
กคนอ
กคนได
กคร
กครอบคร
กคล
กคว
กควบค
กความในมาตรา
กคาม
กคาร
กฆ
กง
กงส
กงาน
กงานกองท
กงานข
กงานคณะกรรมการการศ
กงานคณะกรรมการการอ
กงานคณะกรรมการการเล
กงานคณะกรรมการว
กงานจ
กงานต
กงานตำรวจแห
กงานท
กงานทร
กงานบร
กงานปล
กงานผ
กงานฝ
กงานพ
กงานพระพ
กงานร
กงานราชบ
กงานว
กงานส
กงานอ
กงานเขตพ
กงานเจ
กงานเลขาธ
กงานเลขาน
กงานใหญ
กจ
กจร
กจะต
กจะถ
กจะม
กจะอย
กจะเก
กจะเข
กจะเป
กจะเร
กจะใช
กจะได
กจะไม
กจำก
กจำค
กจำนวน
กจำนวนหน
กฉ
กฉบ
กช
กชน
กชนชาวไทย
กชนน
กชวนให
กชาต
กชาย
กชายท
กชาวไทย
กซ
กซานดร
กซานดรา
กซานเดร
กซานเดอร
กซาร
กญ
กฎ
กฎกระทรวง
กฎหมาย
กฎหมายท
กฎหมายบ
กฎหมายว
กฎอ
กฎเกณฑ
กฐาน
กฐานช
กฐานท
กฐานทางประว
กฐานทางโบราณคด
กฐานว
กฐานอ
กด
กดนตร
กดา
กดาราศาสตร
กดาหาร
กดำน
กดำบรรพ
กดำเน
กต
กตร
กตรอน
กตรอนท
กตระก
กตลอดช
กตอร
กตอเร
กตะกร
กตะว
กตา
กตาทอง
กตำหน
กตำแหน
กถ
กถอนส
กท
กทม
กทร
กทรอน
กทฤษฎ
กทอง
กทางหน
กทาส
กทำร
กทำลาย
กทำให
กธ
กธงช
กธน
กธรณ
กธรรมช
กธาต
กน
กนก
กนายกร
กนำต
กนำมาใช
กนำเข
กนำไปใช
กบ
กบร
กบรรจ
กบล
กบวช
กบาศก
กป
กปฏ
กปปส
กปร
กประก
กประกอบด
กประการ
กประการหน
กประด
กประพ
กประมาณ
กประว
กประหารช
กประเภท
กปราชญ
กปล
กปลงพระชนม
กผ
กผล
กฝ
กฝร
กพ
กพร
กพระราชว
กพระองค
กพระเจ
กพล
กพากย
กพาต
กฟ
กฟร
กภ
กภาพ
กภาษาศาสตร
กม
กมน
กมล
กมวย
กมวยท
กมวยปล
กมวยสากลชาวฟ
กมวยสากลชาวไทยร
กมวยสากลสม
กมองว
กมาก
กมากกว
กมากข
กมากท
กมากมาย
กมาร
กย
กยกเล
กยาว
กยาเธอ
กร
กรก
กรกฎาคม
กรกล
กรข
กรค
กรจ
กรช
กรชาวไทย
กรซ
กรณ
กรด
กรดไขม
กรต
กรท
กรน
กรบ
กรบท
กรบร
กรปกครองส
กรพ
กรพงษ
กรพรรด
กรภพ
กรม
กรมการปกครอง
กรมการเม
กรมข
กรมฉบ
กรมตำรวจ
กรมท
กรมทร
กรมทหารราบท
กรมป
กรมประชาส
กรมพ
กรมพระยาดำรงราชาน
กรมพระราชว
กรมพระศร
กรมว
กรมศ
กรมส
กรมสมเด
กรมสาม
กรมหม
กรมหลวงนราธ
กรมหลวงพ
กรมอ
กรมาลา
กรมาลาและเหร
กรย
กรยาน
กรยานยนต
กรร
กรรม
กรรมการ
กรรมการบร
กรรมการผ
กรรมการร
กรรมด
กรรมต
กรรมท
กรรมน
กรรมว
กรรมส
กรรมาธ
กรรมเม
กรรายการ
กรล
กรว
กรวมเข
กรวรรด
กรวาล
กรวาลท
กรวาลภาพยนตร
กรวาลว
กรส
กรหร
กรหล
กรอ
กรอบ
กรอย
กรฮ
กระง
กระจ
กระจายพ
กระจายอย
กระจายเส
กระจายไปท
กระช
กระด
กระต
กระท
กระทรวง
กระทรวงกลาโหม
กระทรวงการคล
กระทรวงการต
กระทรวงคมนาคม
กระทรวงพาณ
กระทรวงมหาดไทย
กระทรวงย
กระทรวงว
กระทรวงศ
กระทรวงสาธารณส
กระทรวงเกษตรและสหกรณ
กระทำความผ
กระทำต
กระทำผ
กระทำให
กระน
กระบ
กระบวนการน
กระบอก
กระป
กระฟ
กระส
กระหว
กระเท
กระเบ
กระเป
กระแสน
กระแสไฟฟ
กราก
กราช
กราชว
กราชวงศ
กราชได
กราน
กรานย
กราบถวายบ
กราบท
กราบบ
กราฟ
กรายการ
กราว
กราวด
กรเป
กรเพ
กรแห
กรโรม
กรได
กรไทย
กรไม
กรไอน
กฤด
กฤดากร
กฤต
กฤตการณ
กฤทธ
กฤษฎ
กฤษณ
กล
กลง
กลงท
กลมกล
กลย
กลว
กลศาสตร
กลอง
กลอบส
กลาง
กลางค
กลางท
กลางอย
กลายมาเป
กลายเป
กลาส
กว
กวง
กวน
กวนอ
กวอลเลย
กวาง
กวางต
กวาดการ
กศ
กศร
กษ
กษณ
กษณะ
กษณะคล
กษณะด
กษณะต
กษณะท
กษณะน
กษณะบ
กษณะพ
กษณะภ
กษณะร
กษณะส
กษณะสถาป
กษณะสำค
กษณะอ
กษณะอย
กษณะเช
กษณะเด
กษณะเป
กษณะเหม
กษน
กษม
กษร
กษรกร
กษรค
กษรจ
กษรซ
กษรต
กษรท
กษรน
กษรย
กษรละต
กษรว
กษรศาสตร
กษรส
กษรอ
กษรอาหร
กษรฮ
กษรโรม
กษรไทย
กษะ
กษา
กษาก
กษากร
กษาการ
กษาการณ
กษาการตามพระราชบ
กษาข
กษาขนาดใหญ
กษาของร
กษาค
กษาความปลอดภ
กษาความม
กษาความสงบเร
กษาความสงบแห
กษาความเป
กษาจ
กษาจาก
กษาจากมหาว
กษาจากโรงเร
กษาช
กษาด
กษาต
กษาตอนต
กษาตอนปลาย
กษาถ
กษาท
กษาธ
กษาน
กษาบ
กษาป
กษาปร
กษาประต
กษาประถมศ
กษาผ
กษาพ
กษาพระปร
กษาพระองค
กษาม
กษามหาว
กษาย
กษาร
กษาระด
กษาล
กษาว
กษาศ
กษาศาสตร
กษาส
กษาสำหร
กษาหน
กษาหร
กษาหล
กษาหาร
กษาอ
กษาอย
กษาเก
กษาเขต
กษาเช
กษาเป
กษาเพ
กษาเม
กษาเร
กษาเล
กษาเอกชน
กษาแก
กษาแพทย
กษาแล
กษาแห
กษาโรค
กษาโรคมะเร
กษาในจ
กษาในป
กษาในระด
กษาในโรงเร
กษาให
กษาได
กษาไม
กษาไว
กส
กสก
กสงฆ
กสถ
กสถาน
กสท
กสทช
กสน
กสนาน
กสภากร
กสภาท
กสภาน
กสภาผ
กสภาร
กสม
กสยาม
กสร
กสล
กสองป
กสอน
กสอนท
กสากล
กสาว
กสาวท
กสำค
กสำหร
กสำเร
กห
กหญ
กหน
กหนา
กหม
กหย
กหร
กหล
กหลายคน
กหลายคร
กหลายเร
กหลายแห
กอ
กอง
กองกลางฟ
กองกำก
กองกำล
กองค
กองท
กองบ
กองพ
กองพลท
กองร
กองหน
กองหล
กองเร
กอญ
กอธ
กอน
กอนชาร
กอนซาเลซ
กอบรม
กอย
กอร
กอล
กอส
กออกแบบท
กอะวอดส
กอาช
กอาย
กอาศ
กฮ
กะ
กะท
กะร
กะเหร
กา
กาก
กากลาง
กาค
กาจ
กาช
กาซ
กาญจน
กาญจนบ
กาญจนาภ
กาด
กาต
กาตะว
กาตาร
กาท
กาน
กานต
กานา
กาบ
กาพย
กาม
กาย
กายน
กายว
กายส
กายอ
กายโปรเตสแตนต
กายโรม
การ
การก
การกระจายพ
การกระต
การกล
การกลายพ
การการศ
การกำก
การกำจ
การข
การขนส
การขยายต
การค
การคณะร
การคมนาคม
การคร
การคล
การควบค
การคาดการณ
การฆ
การจ
การจดทะเบ
การจำก
การจำหน
การจำแนก
การฉ
การช
การชก
การซ
การณ
การด
การดำเน
การต
การตกแต
การตลาด
การตอบร
การถ
การถกเถ
การท
การทหาร
การทหารบก
การทางการแพทย
การทางว
การทำงาน
การทำหน
การทำให
การน
การนายกร
การนำเข
การนำไปใช
การบ
การบด
การบร
การบรรจ
การบล
การบาดเจ
การบำบ
การบำร
การป
การปกครอง
การปกครองส
การปกครองออกเป
การปฏ
การปร
การประกวด
การประกาศว
การประกาศใช
การประช
การประด
การประท
การประย
การประเม
การปรากฏต
การปล
การปลดปล
การผ
การผจญภ
การผล
การฝ
การพ
การพรรค
การพล
การฟ
การม
การมหาชน
การมอบรางว
การย
การยกเล
การยอมร
การร
การรณรงค
การรถไฟแห
การรวมต
การระบ
การระบาดท
การระหว
การระเบ
การล
การลงท
การลงประชามต
การลงมต
การละเม
การว
การวางจำหน
การศ
การศาสนา
การส
การสน
การสร
การสล
การสหประชาชาต
การสาธารณส
การสำน
การห
การหน
การหม
การหย
การหร
การหล
การอ
การอธ
การอน
การอนาม
การอภ
การอย
การออกกำล
การออกอากาศ
การออกเส
การออกแบบ
การาก
การาม
การเก
การเกษตร
การเข
การเคร
การเคล
การเง
การเจ
การเจร
การเฉล
การเช
การเด
การเต
การเตร
การเท
การเน
การเป
การเปร
การเปล
การเผยแพร
การเพ
การเม
การเร
การเล
การเว
การเส
การเสด
การเสร
การเห
การแก
การแข
การแจ
การแต
การแบ
การแผ
การแพทย
การแพร
การแลกเปล
การและผ
การแสดง
การแห
การโจมต
การโดย
การโต
การโทรศ
การใช
การในจ
การในป
การใส
การให
การได
การไฟฟ
การไม
กาล
กาลก
กาลด
กาลต
กาลถ
กาลท
กาลน
กาลแรก
กาว
กาวะ
กาส
กาฬส
กาอ
กาเจ
กาเซ
กาเบร
กาเป
กาเพ
กาเม
กาเร
กาเหน
กาแล
กาแลคซ
กาใต
กาในป
กาให
กาได
กำก
กำจ
กำน
กำป
กำล
กำหนด
กำหนดข
กำหนดจ
กำหนดช
กำหนดว
กำหนดเป
กำหนดแข
กำหนดในกฎกระทรวง
กำหนดให
กำหนดไว
กำเน
กำแพงเพชร
กเก
กเกณฑ
กเกต
กเกมส
กเกอร
กเข
กเขตท
กเค
กเคม
กเคร
กเคล
กเง
กเจ
กเจอส
กเฉ
กเช
กเชอร
กเซ
กเซมเบ
กเซล
กเด
กเต
กเตอร
กเตะ
กเตะท
กเท
กเทนน
กเธอ
กเน
กเบ
กเป
กเปล
กเผยแพร
กเพ
กเม
กเมน
กเย
กเยาวชน
กเยาวชนท
กเยาวชนฤด
กเร
กเล
กเลขาธ
กเลง
กเลย
กเว
กเศรษฐศาสตร
กเส
กเสนอช
กเสนอเม
กเสบ
กเสบท
กเสร
กเห
กเหต
กเหน
กเหม
กเหล
กเอ
กแก
กแข
กแจ
กแชมเป
กแซ
กแต
กแตน
กแท
กแทนท
กแน
กแบ
กแบบหน
กแผ
กแม
กแมน
กแล
กและน
กและผ
กและม
กและว
กและส
กและเป
กแสดง
กแสดงช
กแสดงชายชาวไทย
กแสดงชายชาวไทยในศตวรรษท
กแสดงชาวอ
กแสดงชาวอเมร
กแสดงชาวเกาหล
กแสดงชาวไทย
กแสดงท
กแสดงนำ
กแสดงนำชายยอดเย
กแสดงนำหญ
กแสดงภาพยนตร
กแสดงร
กแสดงละครโทรท
กแสดงส
กแสดงสมทบ
กแสดงสมทบชายยอดเย
กแสดงสมทบหญ
กแสดงหญ
กแสดงหน
กแสดงหล
กแสดงอ
กแสดงอเมร
กแสดงเด
กแสดงและน
กแสดงในส
กแห
กแหล
กโก
กโค
กโจมต
กโชว
กโซ
กโทษ
กโทษท
กโบราณ
กโบราณคด
กโป
กโยธ
กโลก
กโลกทองคำ
กโลกเหน
กใคร
กใจ
กใช
กใต
กใน
กในกล
กในครอบคร
กในช
กในท
กในน
กในนาม
กในป
กในพ
กในย
กในร
กในว
กในส
กในอ
กในเร
กใฝ
กใส
กให
กใหญ
กใหม
กไก
กได
กไทมส
กไทย
กไป
กไปท
กไปย
กไฟฟ
กไม
กไล
กไว
กไหม
กๆ
ข
ขก
ขงจ
ขงเบ
ขจ
ขจร
ขณะกำล
ขณะท
ขณะน
ขณะม
ขณะอาย
ขณะเด
ขด
ขต
ขท
ขน
ขนมป
ขนส
ขนาด
ขนาดกว
ขนาดต
ขนาดท
ขนาดพ
ขนาดย
ขนาดส
ขนาดหน
ขนาดเท
ขนาดเล
ขนาดเส
ขนาดใหญ
ขนานก
ขบ
ขบวน
ขบวนการทางการเม
ขบวนการน
ขพ
ขภาพ
ขภาพจ
ขภาพด
ขภาพท
ขภาพแห
ขม
ขมคอ
ขมนตร
ขย
ขยายต
ขยายพ
ขร
ขล
ขว
ขวบ
ขวา
ขศ
ขศาสตร
ขส
ขสมก
ขสว
ขอ
ของ
ของก
ของกร
ของกล
ของกษ
ของกองท
ของการแข
ของข
ของขว
ของค
ของคร
ของจ
ของช
ของชาต
ของชาร
ของซ
ของญ
ของด
ของต
ของตน
ของตนเอง
ของตระก
ของท
ของทว
ของน
ของบ
ของบร
ของป
ของประชากรท
ของประชาชน
ของประเทศ
ของประเทศจ
ของประเทศญ
ของประเทศอ
ของประเทศไทย
ของผ
ของฝ
ของฝร
ของพ
ของพระบาทสมเด
ของพระพ
ของพระองค
ของพระเจ
ของพระเยซ
ของพวกเขา
ของฟ
ของภ
ของภาพยนตร
ของม
ของมน
ของมหาว
ของมหาสม
ของมาร
ของย
ของร
ของราชวงศ
ของรายการ
ของฤด
ของล
ของว
ของวง
ของศ
ของส
ของสก
ของสถาน
ของสถาบ
ของสมาช
ของสมเด
ของสหร
ของสหราชอาณาจ
ของสาธารณร
ของสำน
ของห
ของหน
ของหม
ของอ
ขององค
ของอน
ของอาณาจ
ของอาร
ของอเมร
ของฮ
ของเกาหล
ของเขา
ของเขาท
ของเคร
ของเจ
ของเซลล
ของเด
ของเธอ
ของเน
ของเม
ของเยอรมน
ของเร
ของเรา
ของเล
ของเว
ของเส
ของเหล
ของเอ
ของแต
ของแผ
ของแม
ของโรงเร
ของโลก
ของไทย
ขอต
ขอท
ขอนแก
ขอบค
ขอย
ขอร
ขออน
ขออภ
ขอเป
ขอให
ขา
ขาด
ขาภ
ขาย
ขายด
ขายได
ขาล
ขาว
ขาวท
ขแห
ฃ
ค
คก
คกลาง
คการแพทย
คค
คคร
คคล
คคลจากกร
คคลจากคณะน
คคลจากคณะร
คคลจากคณะศ
คคลจากจ
คคลจากมหาว
คคลจากร
คคลจากว
คคลจากอำเภอเม
คคลจากแคว
คคลจากโรงเร
คคลชาย
คคลซ
คคลด
คคลต
คคลท
คคลน
คคลผ
คคลม
คคลสำค
คคลหญ
คคลหน
คคลหร
คคลอ
คคลเข
คคลเหล
คคลแบ
คคลในคร
คคลในประว
คคลในย
คฆ
คง
คงต
คงท
คงม
คงย
คงอย
คงเป
คงเหล
คงไม
คจ
คช
คซ
คณ
คณบด
คณะ
คณะกรรมการ
คณะกรรมการการเล
คณะกรรมการกำหนด
คณะกรรมการจ
คณะกรรมการบร
คณะกรรมการพาราล
คณะกรรมการโอล
คณะกรรมาธ
คณะคร
คณะท
คณะน
คณะบร
คณะปฏ
คณะผ
คณะพยาบาลศาสตร
คณะมน
คณะมนตร
คณะร
คณะว
คณะศ
คณะส
คณะสงฆ
คณะสถาป
คณะอ
คณะอน
คณะเทคโนโลย
คณะเภส
คณะเศรษฐศาสตร
คณะแพทย
คณะแพทยศาสตร
คณาจารย
คด
คต
คตอเร
คถ
คท
คน
คนก
คนกล
คนข
คนค
คนจ
คนช
คนซ
คนด
คนต
คนถ
คนท
คนธ
คนน
คนบ
คนป
คนผ
คนพ
คนม
คนย
คนร
คนล
คนละ
คนส
คนสน
คนสำค
คนห
คนหน
คนอ
คนอย
คนเก
คนเข
คนเด
คนเท
คนเป
คนเร
คนเล
คนเส
คนเหล
คนแรก
คนแรกท
คนใช
คนใน
คนให
คนใหม
คนไข
คนได
คนไม
คบ
คป
คพ
คพอยท
คฟ
คม
คมของอ
คมช
คมอ
คย
คร
ครท
ครน
ครบ
ครบถ
ครบท
ครบรอบ
ครม
ครมหาเสนาบด
ครมเหส
ครร
ครรภ
ครราชก
ครราชท
ครสมาช
ครองตำแหน
ครองนครน
ครองนครเช
ครองราชย
ครองราชสมบ
ครองเม
ครองแชมป
ครอบคร
ครอบคล
คราชวงศ
คราฟต
คราม
คราวน
ครเข
ครเป
ครเล
คฤหาสน
คล
คลอง
คลองว
คลากร
คลากรท
คลาร
คลาส
คลาสส
คว
ควบค
ควร
ควรจะม
ควรจะเป
ควรท
ควรม
ควรเป
ควรใช
ควรให
ควรได
ควอนต
ความ
ความก
ความกล
ความกว
ความกำกวม
ความข
ความค
ความคล
ความจ
ความจร
ความจำเป
ความช
ความซ
ความด
ความต
ความตาย
ความถ
ความท
ความทรงจำ
ความน
ความบ
ความบกพร
ความประพฤต
ความประสงค
ความปลอดภ
ความผ
ความฝ
ความพ
ความพยายามท
ความพร
ความม
ความย
ความยาว
ความยาวคล
ความยาวท
ความยาวประมาณ
ความร
ความล
ความละเอ
ความว
ความส
ความสน
ความสมบ
ความสว
ความสามารถ
ความสามารถด
ความสามารถท
ความสามารถพ
ความสำค
ความสำเร
ความหนาแน
ความหมาย
ความหมายถ
ความหมายท
ความหมายว
ความหลากหลายทางเพศ
ความหว
ความอ
ความเก
ความเข
ความเคร
ความเคล
ความเจ
ความเจร
ความเช
ความเด
ความเท
ความเป
ความเปล
ความเร
ความเส
ความเห
ความเอนเอ
ความแข
ความแค
ความแตกต
ความแม
ความโดดเด
ความใกล
ความได
ความไม
คส
คสช
คสถาน
คสม
คสามก
คห
คหล
คอ
คอต
คอน
คอนกร
คอนซต
คอนต
คอนสแตนต
คอนเส
คอปเตอร
คอฟ
คอม
คอมพ
คอมม
คอมมานด
คอย
คอยช
คอยด
คอยร
คอร
คอล
คอลล
คอสตาร
คอสม
คะ
คะแนน
คะแนนท
คะแนนส
คะแนนเส
คา
คาค
คาง
คาช
คาซ
คาดการณ
คาดค
คาดว
คาดหว
คาทอล
คาน
คานธ
คาบ
คาบสม
คาม
คามวาส
คาร
คาราบาว
คาราวาน
คาล
คาว
คาวะ
คาส
คาอ
คาเบร
คาเมนไรเดอร
คาโก
คาโต
คาโอร
คำ
คำกล
คำขว
คำขอโดย
คำจำก
คำต
คำถาม
คำท
คำน
คำนำหน
คำปร
คำปลดปล
คำพ
คำภ
คำม
คำย
คำร
คำว
คำศ
คำส
คำอ
คำอธ
คำเต
คำให
คเก
คเกอร
คเค
คเจอร
คเซ
คเด
คเตอร
คเป
คเร
คเฮอ
คแรก
คและโกทา
คแห
คโบราณ
คใหม
คได
ฅ
ฆ
ฆวน
ฆาต
ง
งก
งกร
งกรณ
งกรท
งกรหยก
งกระด
งกระต
งกระท
งกระทรวง
งกระน
งกระส
งกระเบ
งกราบท
งกฤษ
งกฤษก
งกฤษจ
งกฤษช
งกฤษซ
งกฤษด
งกฤษต
งกฤษท
งกฤษน
งกฤษม
งกฤษย
งกฤษว
งกฤษอ
งกฤษอย
งกฤษเข
งกฤษเช
งกฤษเป
งกฤษเพ
งกฤษเร
งกฤษได
งกล
งกลาง
งกลายมาเป
งกลายเป
งกลาเทศ
งกว
งกษ
งกองกลาง
งกองกำล
งกองท
งกองบ
งกองหน
งกองหล
งกอร
งกะ
งกะส
งกา
งกาน
งกาย
งการ
งการก
งการค
งการจ
งการต
งการถ
งการท
งการบ
งการบร
งการปกครองออกเป
งการปฏ
งการผล
งการพ
งการม
งการย
งการร
งการล
งการว
งการศ
งการส
งการสร
งการอ
งการเก
งการเข
งการเป
งการเปล
งการเร
งการเล
งการเส
งการแข
งการโจมต
งการใช
งการให
งกาฬ
งกำล
งกำหนดให
งกำเน
งข
งขณะน
งขนาดเล
งขนาดใหญ
งขร
งขรณ
งขว
งขวา
งของ
งของก
งของกล
งของกองท
งของข
งของค
งของจ
งของช
งของซ
งของด
งของต
งของท
งของน
งของบ
งของบร
งของป
งของผ
งของพ
งของพระองค
งของม
งของมหาว
งของย
งของร
งของล
งของว
งของศ
งของส
งของสหร
งของสำน
งของห
งของหน
งของอ
งของเขา
งของเคร
งของเจ
งของเม
งของโรงเร
งของโลก
งขอให
งขะ
งค
งคงดำเน
งคงต
งคงถ
งคงม
งคงย
งคงร
งคงอย
งคงเป
งคงเหล
งคงใช
งคงได
งคงไม
งคณบด
งคณะร
งคด
งคน
งคนท
งคนน
งคนหน
งคนอ
งคม
งคมจ
งคมท
งคมน
งคมประชาธ
งคมว
งคมศ
งคมศาสตร
งคมสงเคราะห
งคมอ
งคมออนไลน
งคมและความม
งคมและว
งคมแห
งคมไทย
งคร
งครรภ
งครอบคร
งครอบคล
งคราว
งคล
งคลาภ
งคลาราม
งคว
งควบค
งความค
งความจร
งความช
งความต
งความตาย
งความผ
งความม
งความย
งความร
งความล
งความว
งความส
งความสำค
งความสำน
งความสำเร
งความหว
งความเช
งความเป
งความเร
งความเส
งความแตกต
งความไม
งคอนสแตนต
งคอย
งคอร
งคอล
งคะ
งคา
งคาดว
งคาม
งคามส
งคาร
งคารท
งคาเร
งคำร
งคำว
งคำส
งคโปร
งฆ
งฆปร
งฆราช
งฆราชเจ
งฆาราม
งง
งงะ
งงะท
งงา
งงาน
งงานก
งงานความร
งงานจลน
งงานต
งงานท
งงานน
งงานส
งงานอ
งงานแล
งงานแสงอาท
งงานไฟฟ
งงาม
งจ
งจนถ
งจบฤด
งจร
งจอก
งจอร
งจะกล
งจะจ
งจะช
งจะต
งจะถ
งจะทำให
งจะม
งจะร
งจะส
งจะเก
งจะเข
งจะเป
งจะเร
งจะเห
งจะใช
งจะให
งจะได
งจะไม
งจาก
งจากกล
งจากการต
งจากการล
งจากการส
งจากการเส
งจากการแข
งจากข
งจากค
งจากจ
งจากช
งจากต
งจากถ
งจากท
งจากน
งจากบ
งจากป
งจากผ
งจากพ
งจากม
งจากย
งจากร
งจากระด
งจากว
งจากส
งจากอ
งจากเก
งจากเข
งจากเป
งจากเร
งจากเส
งจากเสร
งจากเหต
งจากได
งจำท
งจำนวน
งจำเป
งฉ
งฉบ
งฉากก
งช
งชน
งชนะเล
งชาต
งชาร
งชาวจ
งชาวญ
งชาวอ
งชาวอเมร
งชาวฮ
งชาวเกาหล
งชาวไทย
งชาวไทยในศตวรรษท
งชเลสว
งซ
งญ
งด
งดงาม
งดนตร
งดำรงตำแหน
งดำเน
งต
งตกอย
งตกเป
งตนเป
งตร
งตรงก
งตรงข
งตระก
งตอนน
งตอบว
งตะล
งตะว
งตะเภา
งตามช
งตามท
งตามทว
งตามป
งตามประเทศ
งตามประเภท
งตามมาตรา
งตามร
งตามส
งตามอาช
งตามเม
งตาย
งตำบล
งตำแหน
งถ
งถว
งถามว
งท
งทร
งทรงพระกร
งทรงพระเยาว
งทรงม
งทรงเป
งทฤษฎ
งทว
งทหาร
งทอ
งทอง
งทองหลาง
งทะเล
งทางการเม
งทางด
งทางตะว
งทางน
งทางว
งทางอากาศ
งทำหน
งทำเป
งทำให
งทำได
งธ
งธน
งธนบ
งธรรม
งธรรมชาต
งธาต
งน
งนก
งนอร
งนายกร
งนาวาร
งนำไปส
งบ
งบประมาณ
งบร
งบรรจ
งบราซ
งบล
งบวก
งบวร
งบวรสถานมงคล
งบอกถ
งบอกว
งบางคร
งบางส
งบาร
งบาวาเร
งบำร
งป
งปกต
งปฏ
งปร
งประกอบด
งประกอบไปด
งประจ
งประชาชน
งประชาร
งประด
งประต
งประท
งประธานาธ
งประมาณ
งประว
งประส
งประสงค
งประสบความสำเร
งประเด
งประเทศ
งประเทศจ
งประเทศญ
งประเทศอ
งประเทศไทย
งประโยชน
งปรากฏต
งปรากฏว
งปล
งปวง
งปวงก
งปวงท
งปาร
งผ
งผล
งผลกระทบต
งผลต
งผลทำให
งผลให
งผา
งฝ
งฝร
งพ
งพน
งพบว
งพบได
งพม
งพร
งพรรคการเม
งพระ
งพระท
งพระบาทสมเด
งพระพ
งพระมหากษ
งพระราชบ
งพระราชว
งพระศพ
งพระส
งพระอ
งพระองค
งพระเจ
งพฤต
งพล
งพาก
งพาณ
งพาน
งพาย
งฟ
งฟร
งภ
งภาพ
งภาพยนตร
งภายหล
งภายใต
งภายใน
งม
งมงก
งมน
งมรดกโลก
งมรดกโลกทางว
งมวล
งมหาว
งมหาสม
งมหาสมบ
งมอบให
งมอสโก
งมา
งมาก
งมากกว
งมากข
งมากท
งมาต
งมาตรา
งมาถ
งมาท
งมาย
งมาร
งมาเป
งมาเร
งมาให
งย
งยกท
งยกเล
งยอดน
งยอดเย
งยอมร
งยอร
งยาง
งยางอนาม
งยาว
งร
งรถ
งรวมก
งรวมถ
งรวมท
งรวมไปถ
งรองชนะเล
งรอบ
งรอบช
งระด
งระบ
งระหว
งระเบ
งรางว
งราชท
งราชบ
งราชวงศ
งราชสมบ
งราชสำน
งราชอาณาจ
งราย
งรายช
งรายละเอ
งรายได
งราว
งฤด
งล
งลง
งลบ
งลอนดอน
งละ
งลำไส
งว
งวง
งวงดนตร
งวร
งวล
งวลว
งวลเก
งวอช
งวอร
งวะ
งวาล
งวาลย
งศ
งศก
งศตวรรษท
งศพ
งศร
งศาสตราจารย
งษ
งส
งสก
งสกอตแลนด
งสง
งสงคราม
งสงครามโลกคร
งสต
งสถ
งสถาน
งสถานท
งสถาบ
งสน
งสม
งสมณศ
งสมบ
งสมมต
งสมาช
งสมาธ
งสมเด
งสยาม
งสยามได
งสร
งสรรค
งสฤษฎ
งสล
งสว
งสวน
งสวรรค
งสหประชาชาต
งสหพ
งสหภาพโซเว
งสหร
งสหราชอาณาจ
งสอง
งสองก
งสองกล
งสองข
งสองคน
งสองคร
งสองจ
งสองช
งสองด
งสองต
งสองท
งสองน
งสองฝ
งสองพระองค
งสองม
งสองร
งสองส
งสองอย
งสองเป
งสองได
งสะท
งสะพ
งสาธารณร
งสาม
งสามารถต
งสามารถเข
งสามารถใช
งสายฟ
งสาว
งสาวท
งสาเหต
งสำค
งสำน
งสำหร
งสำเร
งสเปน
งห
งหงสาวด
งหญ
งหน
งหนาท
งหม
งหมด
งหมดก
งหมดจ
งหมดจำนวน
งหมดด
งหมดต
งหมดถ
งหมดท
งหมดน
งหมดประมาณ
งหมดม
งหมดส
งหมดหร
งหมดอย
งหมดเป
งหมดแล
งหมดให
งหมดได
งหมายความว
งหมายถ
งหมายเพ
งหย
งหร
งหล
งหลงเหล
งหลบหน
งหลวง
งหลาย
งหลายก
งหลายจ
งหลายท
งหลายว
งหลายได
งหว
งหวะ
งหวะท
งหาคม
งหาร
งหารท
งหารหม
งหาได
งหเสน
งอ
งองค
งอด
งอธ
งอน
งอภ
งอมร
งอย
งอร
งอรรถ
งอรรถและอ
งอว
งอส
งออก
งออกเป
งออกได
งออร
งออสเตร
งออสเตรเล
งอาจจะเป
งอาจทำให
งอาจม
งอาจารย
งอาจเก
งอาจเป
งอาณาจ
งอาย
งอาร
งอารมณ
งอาว
งอาศ
งอาหาร
งอำเภอ
งอเมร
งอเล
งฮ
งฯ
งะ
งาช
งาน
งานก
งานการเม
งานจ
งานช
งานด
งานต
งานท
งานน
งานบ
งานประกาศผลรางว
งานพ
งานร
งานว
งานศ
งานส
งานอ
งานอด
งานอย
งานเข
งานเป
งานเล
งานในป
งานได
งาม
งาวะ
งเก
งเกณฑ
งเกต
งเกตการณ
งเกตว
งเกตเห
งเกตได
งเกล
งเกษตรกร
งเกอร
งเกาหล
งเข
งเขต
งเขตการปกครอง
งเขตการปกครองย
งเขตการปกครองออกเป
งเขตร
งเขตเล
งเขป
งเขา
งเขาก
งเขาเป
งเขาได
งเค
งเคนต
งเคยม
งเคยเป
งเคร
งเคราะห
งเคล
งเง
งเงอร
งเจ
งเจร
งเฉ
งเฉล
งเช
งเซ
งเซนต
งเซลล
งเซอร
งเด
งเดนมาร
งเต
งเตร
งเถ
งเท
งเทคน
งเทพ
งเทพคร
งเทพธ
งเทพธนบ
งเทพมหานคร
งเทพมหานครม
งเทพมหานครเป
งเทพมหานครและปร
งเทพฯ
งเทรา
งเธอได
งเน
งเนเธอร
งเบ
งเบลเย
งเบอร
งเป
งเปร
งเปล
งเผ
งเผยแพร
งเพ
งเพล
งเพลง
งเพลงชาวอเมร
งเพลงท
งเพลงน
งเฟ
งเม
งเย
งเยร
งเยอรม
งเยอรมน
งเร
งเล
งเลขาธ
งเลย
งเว
งเวท
งเวลส
งเวลา
งเวลาท
งเศส
งเศสก
งเศสซ
งเศสต
งเศสท
งเศสน
งเศสม
งเศสย
งเศสเป
งเศสได
งเส
งเสด
งเสนาบด
งเสบ
งเสร
งเห
งเหต
งเหน
งเหม
งเหย
งเหร
งเหล
งเอ
งเอด
งเอล
งเอาไว
งเอเช
งเอเธนส
งเฮ
งแก
งแกร
งแข
งแค
งแคว
งแจ
งแชมป
งแซ
งแดง
งแต
งแตกต
งแท
งแทน
งแน
งแนวค
งแบ
งแบบ
งแบบบ
งแบบส
งแบบแบ
งแปลว
งแผ
งแพ
งแพร
งแม
งแมตช
งแย
งแยกด
งแร
งแรก
งแรกก
งแรกของประเทศไทย
งแรกต
งแรกท
งแรกน
งแรกว
งแรกเป
งแรกเม
งแรกใน
งแรกในช
งแรกในป
งแรกในประว
งแรกในประเทศไทย
งแรกในรอบ
งแรกในว
งแรกในเด
งแรง
งแรงข
งแล
งแลนด
งและต
งและท
งและน
งและผ
งและพ
งและพาณ
งและม
งและย
งและร
งและส
งและอ
งและอาณาเขต
งและเป
งและเปล
งและแต
งและได
งและไม
งแวดล
งแวร
งแสง
งแสดงถ
งแสดงว
งแสดงให
งแห
งแหล
งแอนด
งแอฟร
งแฮม
งโก
งโค
งโครงสร
งโจ
งโจมต
งโซล
งโดย
งโดยท
งโดยม
งโดยใช
งโดยไม
งโต
งโตเก
งโบราณคด
งโป
งโปรดเกล
งโปรดให
งโปรต
งโปแลนด
งโพธ
งโรงเร
งโรจน
งโรม
งโรมาเน
งโลก
งโอล
งใกล
งใจ
งใจท
งใจว
งใจให
งใช
งใด
งใดท
งใต
งใน
งในก
งในกร
งในกรณ
งในกล
งในการต
งในการเล
งในการแข
งในข
งในขณะน
งในค
งในคร
งในจ
งในช
งในซ
งในด
งในต
งในท
งในน
งในบ
งในบร
งในป
งในประว
งในประเทศไทย
งในผ
งในพ
งในภาพยนตร
งในย
งในร
งในระด
งในระหว
งในฤด
งในล
งในว
งในศ
งในส
งในสม
งในสมาช
งในสหร
งในห
งในหน
งในหม
งในอ
งในอด
งในเจ
งในเด
งในเม
งในเร
งในแต
งในและต
งใส
งให
งใหญ
งใหม
งไข
งไคล
งไง
งไงก
งได
งไต
งไท
งไทย
งไป
งไปกว
งไปถ
งไปท
งไปย
งไปส
งไปให
งไฟ
งไฟฟ
งไม
งไร
งไล
งไว
งไห
งไหม
งไอร
งๆ
งๆท
งๆแล
จ
จก
จกรรม
จกรรมด
จกรรมต
จกรรมท
จกรรมทางการเม
จกรรมน
จกรรมส
จกรรมอ
จกล
จการ
จการก
จการกระจายเส
จการค
จการต
จการท
จการน
จการร
จการศ
จการอ
จการแห
จการโทรคมนาคมแห
จการโทรท
จข
จค
จคร
จง
จงร
จงเหว
จงได
จจ
จจร
จจาน
จฉ
จฉร
จฉา
จฉาท
จช
จชาวไทย
จซ
จญ
จด
จดทะเบ
จดหมายเหต
จต
จตกต
จถ
จท
จน
จนกระท
จนกลายเป
จนกว
จนต
จนถ
จนท
จนทำให
จนป
จนม
จนมาถ
จนร
จนว
จนส
จนสำเร
จนเก
จนเป
จนเม
จนเส
จนในท
จนในป
จนได
จนไม
จบ
จบการศ
จบช
จบร
จบฤด
จบอ
จปร
จประท
จผ
จพ
จพจน
จพระกน
จพระจ
จพระจอมเกล
จพระญาณส
จพระน
จพระนางเจ
จพระนารายณ
จพระนเรศวรมหาราช
จพระนโรดม
จพระบรมชนกาธ
จพระบรมราชชนน
จพระบรมราชาธ
จพระบรมโอรสาธ
จพระบวรราชเจ
จพระป
จพระปกเกล
จพระปรม
จพระปรเมนทรมหาอาน
จพระพ
จพระมงก
จพระมห
จพระมหาจ
จพระมหาภ
จพระมหาสมณเจ
จพระย
จพระราช
จพระราชดำเน
จพระราชาธ
จพระรามาธ
จพระว
จพระวช
จพระศร
จพระส
จพระอ
จพระอน
จพระอร
จพระเจ
จพระเทพร
จพอเพ
จม
จมากท
จย
จร
จระหว
จระเข
จราชการ
จราชการเม
จราชการแทนพระองค
จราชการแผ
จล
จว
จศ
จส
จสมบ
จสวรรคต
จสวรรคตเม
จหน
จหร
จหล
จอ
จอง
จอน
จอมพล
จอย
จอร
จอห
จฯ
จะ
จะก
จะกล
จะกลายเป
จะข
จะค
จะควบค
จะฆ
จะจ
จะช
จะซ
จะด
จะดำเน
จะต
จะถ
จะท
จะทำหน
จะทำให
จะทำได
จะน
จะบ
จะป
จะปฏ
จะปร
จะปล
จะผ
จะผล
จะพ
จะฟ
จะม
จะย
จะร
จะล
จะลงเล
จะว
จะส
จะสน
จะสร
จะห
จะหน
จะหย
จะหล
จะอ
จะอย
จะอาศ
จะเก
จะเข
จะเคล
จะเช
จะเด
จะเท
จะเน
จะเป
จะเปล
จะเพ
จะเร
จะเล
จะเส
จะเสด
จะเห
จะแก
จะแข
จะแต
จะแตกต
จะแบ
จะใช
จะใส
จะให
จะได
จะไม
จา
จาก
จากก
จากกร
จากกล
จากการค
จากการจ
จากการต
จากการท
จากการร
จากการศ
จากการส
จากการเป
จากการเล
จากการแข
จากข
จากค
จากจ
จากช
จากซ
จากด
จากต
จากท
จากน
จากบ
จากบร
จากป
จากผ
จากฝ
จากพ
จากภาพยนตร
จากม
จากมหาว
จากย
จากร
จากรายการ
จากล
จากละคร
จากละครเร
จากว
จากศ
จากส
จากสถาน
จากสถาบ
จากสมเด
จากสำน
จากสำมะโน
จากห
จากหน
จากหล
จากอ
จาการ
จากเด
จากเพลง
จากเม
จากเร
จากเว
จากเหต
จากโรงเร
จาค
จาคท
จาคเง
จาง
จาต
จาน
จาม
จาร
จารณ
จารณา
จารณาคด
จารณาคร
จารณาความอาญา
จารณาด
จารณาต
จารณาถ
จารณาพ
จารณาภายในว
จารณาร
จารณาว
จารณาอ
จารณาเป
จารณาเห
จารณาแล
จารณาให
จารณาได
จำก
จำค
จำต
จำนวน
จำนวนคร
จำนวนท
จำนวนน
จำนวนประชากร
จำนวนผ
จำนวนมาก
จำนวนมากท
จำนวนส
จำนวนสมาช
จำนวนหน
จำนวนเต
จำนวนไม
จำร
จำลอง
จำหน
จำเป
จำเร
จำเลยท
จำแนกไว
จำได
จเก
จเข
จเจ
จเจกบ
จเช
จเด
จเท
จเป
จเพ
จเม
จเย
จเร
จเสร
จแล
จและส
จแห
จใน
จในช
จในป
จให
จใหม
จได
จไทย
จไปประท
จไปย
ฉ
ฉน
ฉบ
ฉล
ฉลอง
ฉลาด
ฉะน
ฉะบ
ฉะเช
ฉาก
ฉากท
ฉาย
ฉายา
ฉายาว
ฉายเม
ช
ชก
ชกรรม
ชกาล
ชกาลท
ชกาลป
ชกาลพระบาทสมเด
ชกาลสมเด
ชค
ชคณ
ชจ
ชช
ชชกาลท
ชชน
ชชา
ชชาแห
ชชาใหญ
ชซ
ชฌ
ชฌาย
ชญ
ชญา
ชญาด
ชญาท
ชด
ชดย
ชดอก
ชดอกท
ชดา
ชดาภ
ชต
ชท
ชทายาท
ชทายาทแห
ชน
ชนก
ชนกล
ชนช
ชนชาต
ชนท
ชนพ
ชนออนไลน
ชนะ
ชนะการเล
ชนะการแข
ชนะคะแนน
ชนะจะได
ชนะด
ชนะท
ชนะน
ชนะรางว
ชนะส
ชนะเล
ชนาธ
ชนาล
ชนเผ
ชบ
ชป
ชผ
ชพ
ชภ
ชม
ชมงคล
ชมท
ชมพ
ชมภ
ชย
ชยศาสตร
ชร
ชรบ
ชรพล
ชระ
ชรา
ชราต
ชล
ชลดา
ชลธ
ชลบ
ชว
ชวด
ชวน
ชวนช
ชวล
ชศาสตร
ชส
ชสม
ชอ
ชอบ
ชอบก
ชอบด
ชอปแห
ชอว
ชะน
ชะฮ
ชา
ชาก
ชาการ
ชาการจ
ชาการด
ชาการต
ชาการท
ชาการบ
ชาการศ
ชาค
ชาคณ
ชาคร
ชาคอมพ
ชาง
ชาจ
ชาช
ชาญ
ชาญช
ชาญว
ชาด
ชาต
ชาตร
ชาท
ชาธ
ชาน
ชาบ
ชาบร
ชาประว
ชาพ
ชาฟ
ชาภ
ชาภาษาอ
ชาม
ชาย
ชายช
ชายชาวอเมร
ชายชาวไทย
ชายต
ชายท
ชายน
ชายผ
ชายฝ
ชายร
ชายหน
ชายอ
ชาร
ชาล
ชาลส
ชาว
ชาวก
ชาวกร
ชาวจ
ชาวซ
ชาวญ
ชาวด
ชาวต
ชาวบ
ชาวฝร
ชาวพ
ชาวพม
ชาวม
ชาวย
ชาวร
ชาวว
ชาวสว
ชาวอ
ชาวออสเตรเล
ชาวอเมร
ชาวฮ
ชาวเกาหล
ชาวเม
ชาวเยอรม
ชาวโปรต
ชาวไทย
ชาวไทยท
ชาวไทยเช
ชาศ
ชาส
ชาห
ชาอ
ชาเคม
ชาเทคโนโลย
ชาเป
ชาเศรษฐศาสตร
ชาโดว
ชาได
ชำร
ชเชสแห
ชเชอร
ชเท
ชเป
ชเว
ชและส
ชแห
ชโคล
ชในวงศ
ชให
ชได
ซ
ซก
ซง
ซช
ซซ
ซซาร
ซท
ซน
ซม
ซล
ซสถาน
ซอ
ซอง
ซอน
ซอฟต
ซอย
ซอร
ซะ
ซา
ซาก
ซากด
ซากะ
ซาค
ซาง
ซาช
ซาด
ซาน
ซานฟรานซ
ซาบ
ซาม
ซาย
ซายากะ
ซาร
ซาราห
ซาล
ซาว
ซาวด
ซาวะ
ซาส
ซาอ
ซาเบธ
ซาเบธท
ซาเบธแห
ซาเล
ซาเลม
ซาโต
ซาโตช
ซาโตะ
ซเซ
ซเบก
ซและเดนมาร
ซได
ฌ
ฌอง
ฌอน
ญ
ญก
ญกร
ญกรณ
ญกรรม
ญกว
ญข
ญของ
ญของจ
ญของร
ญค
ญคร
ญจ
ญจร
ญจะ
ญจาบ
ญฉบ
ญช
ญชน
ญชนะ
ญชนะต
ญชนะท
ญชร
ญชล
ญชา
ญชาการ
ญชาการกองท
ญชาการตำรวจแห
ญชาการทหารบก
ญชาการทหารส
ญชาการทหารเร
ญชาต
ญชาให
ญซ
ญญ
ญญะ
ญญา
ญญาก
ญญากาศ
ญญาจ
ญญาฉบ
ญญาซ
ญญาณ
ญญาณด
ญญาณต
ญญาณท
ญญาณว
ญญาณอ
ญญาณเต
ญญาด
ญญาต
ญญาตร
ญญาท
ญญาน
ญญาบ
ญญาประด
ญญาพ
ญญาย
ญญาร
ญญาว
ญญาส
ญญาอ
ญญาอน
ญญาเก
ญญาเช
ญญาเด
ญญาเป
ญญาเอก
ญญาแวร
ญญาโท
ญญาให
ญญาใหม
ญด
ญต
ญถ
ญท
ญทางประว
ญธงชาต
ญธรรม
ญน
ญบ
ญบาน
ญป
ญประเทศ
ญผ
ญพ
ญพระบารม
ญพระพ
ญพระราชก
ญม
ญมณ
ญมา
ญมาก
ญย
ญร
ญรอด
ญล
ญว
ญศ
ญศร
ญส
ญสน
ญสำหร
ญหน
ญหร
ญหล
ญหา
ญหาก
ญหาข
ญหาด
ญหาต
ญหาท
ญหาน
ญหาย
ญหาว
ญหาส
ญหาอ
ญหาอย
ญหาเก
ญหาเร
ญอ
ญอย
ญา
ญาณ
ญาณว
ญาต
ญาตต
ญาตท
ญาตหร
ญาตโดยเจ
ญาตใช
ญาตให
ญาโตต
ญเก
ญเข
ญเจ
ญเช
ญเด
ญเต
ญเท
ญเป
ญเพ
ญเม
ญเร
ญเล
ญเส
ญเสด
ญแก
ญแจ
ญแล
ญและว
ญแห
ญโญ
ญในช
ญให
ญได
ญไม
ญๆ
ฎ
ฎก
ฎกฉบ
ฎราชก
ฎเกล
ฎไทย
ฏ
ฏจ
ฏฐ
ฏราชว
ฏว
ฏสวนส
ฏอ
ฏาน
ฏเช
ฐ
ฐก
ฐกล
ฐค
ฐคว
ฐจ
ฐจอร
ฐฉ
ฐช
ฐซ
ฐด
ฐต
ฐถ
ฐท
ฐธรรมน
ฐน
ฐนอร
ฐบ
ฐบร
ฐบาล
ฐบาลก
ฐบาลกลาง
ฐบาลจ
ฐบาลช
ฐบาลซ
ฐบาลญ
ฐบาลต
ฐบาลท
ฐบาลฝร
ฐบาลม
ฐบาลย
ฐบาลร
ฐบาลสหร
ฐบาลอ
ฐบาลเป
ฐบาลแห
ฐบาลโชก
ฐบาลใหม
ฐบาลได
ฐบาลไทย
ฐป
ฐประชาชนจ
ฐประชาธ
ฐประศาสนศาสตร
ฐประหาร
ฐประหารในประเทศไทย
ฐผ
ฐฝร
ฐพ
ฐพล
ฐฟลอร
ฐภ
ฐภาค
ฐม
ฐมนตร
ฐย
ฐร
ฐล
ฐว
ฐวอช
ฐศก
ฐศาสตร
ฐส
ฐสภา
ฐสภาอ
ฐสภาแห
ฐสมาช
ฐหร
ฐอ
ฐอย
ฐออนแทร
ฐออนไลน
ฐอาหร
ฐอเมร
ฐฯ
ฐาน
ฐานข
ฐานท
ฐานว
ฐานะเท
ฐานะเป
ฐเกาหล
ฐเช
ฐเท
ฐเนวาดา
ฐเป
ฐเพ
ฐเพนซ
ฐเม
ฐเยอรม
ฐเยอรมน
ฐเวอร
ฐแคล
ฐแมสซาช
ฐและด
ฐแห
ฐแอร
ฐโดม
ฐโอไฮโอ
ฐในป
ฐในอาร
ฐให
ฐได
ฐไม
ฐไอร
ฑ
ฑา
ฒ
ฒจ
ฒน
ฒนก
ฒนธรรม
ฒนธรรมจ
ฒนธรรมท
ฒนธรรมร
ฒนธรรมสม
ฒนธรรมอ
ฒนธรรมแห
ฒนธรรมไทย
ฒนบร
ฒนพาน
ฒนศ
ฒนะ
ฒนา
ฒนาก
ฒนาการ
ฒนาการท
ฒนาการศ
ฒนาการเศรษฐก
ฒนาข
ฒนาค
ฒนาจ
ฒนาช
ฒนาด
ฒนาต
ฒนาท
ฒนาน
ฒนาบ
ฒนาประชาธ
ฒนาผ
ฒนาพ
ฒนาพรรณวด
ฒนาร
ฒนาราม
ฒนาว
ฒนาศ
ฒนาส
ฒนาหล
ฒนาอ
ฒนาองค
ฒนาอย
ฒนาเคร
ฒนาเด
ฒนาเทคโนโลย
ฒนาเป
ฒนาเพ
ฒนาเม
ฒนาเศรษฐก
ฒนาแล
ฒนาโดย
ฒนาให
ฒาจารย
ณ
ณก
ณค
ณคร
ณจ
ณช
ณฐ
ณฑ
ณฑร
ณฑสถานแห
ณฑะเลย
ณณ
ณณวด
ณด
ณต
ณท
ณทหารลาดกระบ
ณธรรม
ณน
ณบ
ณป
ณประโยชน
ณผ
ณพ
ณภ
ณภาพ
ณภาพการศ
ณภาพช
ณภาพด
ณภาพส
ณม
ณย
ณร
ณรงค
ณล
ณว
ณศ
ณส
ณสมบ
ณห
ณหญ
ณหน
ณหพลศาสตร
ณหภ
ณหะว
ณหา
ณหาน
ณอ
ณอย
ณา
ณาธ
ณาน
ณาภรณ
ณาว
ณาโปรดเกล
ณเข
ณเจ
ณเดชน
ณเป
ณเม
ณแก
ณแม
ณแห
ณโรค
ณได
ณไม
ด
ดก
ดกฎหมาย
ดกร
ดกระช
ดกระทรวง
ดกระทรวงกลาโหม
ดกระทรวงมหาดไทย
ดกระทรวงศ
ดกระทรวงสาธารณส
ดกระบ
ดกล
ดกลาง
ดกว
ดกองท
ดกาญจนบ
ดการ
ดการก
ดการกองท
ดการข
ดการค
ดการจ
ดการช
ดการด
ดการต
ดการท
ดการทร
ดการน
ดการบร
ดการป
ดการปฏ
ดการประช
ดการฝ
ดการพ
ดการย
ดการร
ดการล
ดการว
ดการศ
ดการส
ดการอ
ดการออนไลน
ดการเคล
ดการเปล
ดการเร
ดการเล
ดการแข
ดการใช
ดการให
ดการใหญ
ดกาฬส
ดกำล
ดกำเน
ดกำแพงเพชร
ดข
ดขนาดเล
ดขนาดใหญ
ดขวาง
ดของ
ดของกล
ดของค
ดของจ
ดของช
ดของต
ดของท
ดของน
ดของป
ดของประเทศ
ดของผ
ดของม
ดของย
ดของร
ดของล
ดของว
ดของส
ดของหน
ดของอ
ดของเขา
ดของเส
ดของโลก
ดของไทย
ดขอนแก
ดขอบฟ
ดขาด
ดค
ดคณะสงฆ
ดคด
ดคน
ดคนหน
ดคย
ดคร
ดครอง
ดครองด
ดคล
ดความข
ดความค
ดความต
ดความผ
ดความร
ดความว
ดความส
ดความเข
ดความเป
ดความเร
ดความเส
ดความไม
ดคอนเส
ดคอร
ดคานางาวะ
ดคำว
ดคำส
ดฆ
ดง
ดงค
ดงาน
ดจ
ดจร
ดจะต
ดจะม
ดจะเป
ดจะได
ดจาก
ดจากการต
ดจากการท
ดจากการรวมร
ดจากการใช
ดจากท
ดจากน
ดจากว
ดจากเร
ดจำก
ดจำนวน
ดจำหน
ดฉ
ดฉะเช
ดช
ดชน
ดชนะเล
ดชลบ
ดชอบ
ดชอบจำนวน
ดชอบด
ดชอบต
ดชอบโรงเร
ดชะง
ดชายแดนภาคใต
ดชาร
ดซ
ดด
ดดา
ดดาใน
ดดำเน
ดต
ดตร
ดตราด
ดตลอดกาล
ดตา
ดตาก
ดตาม
ดตามท
ดตามรห
ดตำแหน
ดถ
ดท
ดทร
ดทอง
ดทางโทรท
ดทางให
ดทำ
ดทำการเร
ดทำข
ดทำร
ดทำให
ดธ
ดธนบ
ดธาต
ดน
ดนครนายก
ดนครปฐม
ดนครพนม
ดนครราชส
ดนครศร
ดนครสวรรค
ดนตร
ดนนทบ
ดนราธ
ดบ
ดบร
ดบวรน
ดป
ดปกต
ดปฏ
ดปท
ดปร
ดประจวบค
ดประจำชาต
ดประช
ดประด
ดประต
ดประท
ดประมาณ
ดประว
ดประส
ดประสงค
ดประโยชน
ดปราจ
ดปล
ดปาก
ดปากน
ดผ
ดผน
ดผล
ดฝ
ดพ
ดพร
ดพรรคก
ดพรรคชาต
ดพรรคประชาธ
ดพรรคพล
ดพรรคเพ
ดพรรคไทยร
ดพระธาต
ดพระนคร
ดพระนครศร
ดพระพ
ดพระศร
ดพระองค
ดพระเก
ดพระเจ
ดพระเชต
ดพระแก
ดพล
ดพลาด
ดพะเยา
ดพาย
ดฟ
ดฟอร
ดภ
ดภาพ
ดภาษาอ
ดม
ดมก
ดมการณ
ดมคต
ดมน
ดมศ
ดมสมบ
ดมหาธาต
ดมหาว
ดมหาสารคาม
ดมา
ดมาก
ดมากกว
ดมาเป
ดย
ดยอด
ดยะลา
ดยา
ดยโสธร
ดร
ดรธาน
ดระฆ
ดระด
ดระนอง
ดระยอง
ดระว
ดระหว
ดระเบ
ดราก
ดราชบ
ดราชบพ
ดราม
ดรายการ
ดรายการว
ดราษฎร
ดราษฏร
ดฤด
ดล
ดลง
ดลงเม
ดลพบ
ดลม
ดลำด
ดลำปาง
ดลำพ
ดว
ดวง
ดวงจ
ดวงอาท
ดวช
ดวาร
ดศ
ดศร
ดส
ดสกลนคร
ดสงขลา
ดสงครามโลกคร
ดสต
ดสถาน
ดสน
ดสนามแอนฟ
ดสม
ดสร
ดสรร
ดสรรท
ดสระบ
ดสระเกศ
ดสระแก
ดสว
ดสอน
ดสอนระด
ดสอนหล
ดสอนในระด
ดสาม
ดสำค
ดสำน
ดสำหร
ดห
ดหง
ดหน
ดหนองคาย
ดหนองบ
ดหม
ดหมวดหม
ดหย
ดหร
ดหล
ดหว
ดหาท
ดอ
ดอก
ดอกช
ดอกบ
ดอกส
ดอกหญ
ดอกอ
ดอกเตอร
ดอกไม
ดองค
ดอน
ดอนเม
ดอภ
ดอม
ดอย
ดอร
ดอล
ดอลลาร
ดอว
ดออก
ดออกจากการแข
ดออฟเดอะร
ดอะไรข
ดอาย
ดอาร
ดอาว
ดอำนาจเจร
ดฮ
ดฮอต
ดะ
ดา
ดาก
ดาของ
ดาของท
ดาของพระองค
ดาของพระเจ
ดาของเจ
ดาค
ดาจ
ดาช
ดาด
ดาท
ดาน
ดาบ
ดาพระองค
ดาม
ดามารดา
ดาย
ดาร
ดารา
ดาราจ
ดาราศาสตร
ดาล
ดาว
ดาวน
ดาวร
ดาวฤกษ
ดาวอ
ดาวเคราะห
ดาวเท
ดาวเร
ดาส
ดาห
ดาอ
ดาองค
ดาฯ
ดาเน
ดาเป
ดาเปสต
ดาแห
ดาในพระเจ
ดาในสมเด
ดาในเจ
ดาได
ดำ
ดำท
ดำร
ดำรงตำแหน
ดำรงอย
ดำรงไทย
ดำเน
ดเก
ดเกม
ดเกล
ดเข
ดเค
ดเคร
ดเง
ดเจ
ดเจด
ดเจน
ดเจนว
ดเจร
ดเฉล
ดเช
ดเซ
ดเด
ดเดอร
ดเต
ดเตร
ดเถ
ดเท
ดเทพศ
ดเทศกาล
ดเน
ดเบ
ดเบญจมบพ
ดเป
ดเปล
ดเผย
ดเผยข
ดเผยต
ดเผยว
ดเพ
ดเพชรบ
ดเพล
ดเม
ดเย
ดเร
ดเล
ดเลย
ดเว
ดเวย
ดเวฬ
ดเส
ดเสร
ดเห
ดเหต
ดเหน
ดเหม
ดเหย
ดเหล
ดเอ
ดเอฟเอ
ดแก
ดแข
ดแค
ดแจ
ดแชมป
ดแต
ดแน
ดแบ
ดแบบอ
ดแปรพ
ดแปลง
ดแปลงเป
ดแผ
ดแพร
ดแม
ดแมน
ดแย
ดแรก
ดแรกท
ดแรกให
ดแล
ดและม
ดและเป
ดแวร
ดแสดง
ดแสดงท
ดแห
ดแอร
ดโดย
ดโต
ดโทษ
ดโบสถ
ดโป
ดโพธ
ดโรค
ดโรงเร
ดโลก
ดโอกาสให
ดโอซากะ
ดใกล
ดใจ
ดใช
ดใด
ดใต
ดใน
ดในกร
ดในกล
ดในคร
ดในครอบคร
ดในจ
ดในช
ดในท
ดในทว
ดในป
ดในประว
ดในประเทศ
ดในประเทศไทย
ดในพ
ดในย
ดในร
ดในล
ดในว
ดในส
ดในสม
ดในสหร
ดในหน
ดในอ
ดในเด
ดในเม
ดในเร
ดในเอเช
ดในโลก
ดใบ
ดใบน
ดใส
ดให
ดใหญ
ดใหม
ดได
ดไทย
ดไป
ดไผ
ดไฟ
ดไฟฟ
ดไม
ดไร
ดไว
ดๆ
ต
ตก
ตกก
ตกช
ตกต
ตกรรม
ตกล
ตกลงก
ตกว
ตกหล
ตกอย
ตกเป
ตกแต
ตข
ตของ
ตของผ
ตของเขา
ตค
ตคร
ตครอบคร
ตคอม
ตคอยน
ตง
ตจ
ตจร
ตจากมะเร
ตจากอ
ตช
ตซ
ตซอล
ตซอลช
ตด
ตต
ตตะ
ตตา
ตตาน
ตถ
ตถเลขา
ตท
ตน
ตนก
ตนค
ตนจ
ตนช
ตนตร
ตนถ
ตนบ
ตนม
ตนร
ตนราชก
ตนราชส
ตนศาสดาราม
ตนส
ตนะ
ตนา
ตนาคนห
ตนาธ
ตนาภรณ
ตนายกร
ตนาราม
ตนาว
ตนเป
ตนเอง
ตนโกส
ตนได
ตนไม
ตบ
ตบร
ตบอล
ตบอลจ
ตบอลช
ตบอลชาวญ
ตบอลชาวบราซ
ตบอลชาวฝร
ตบอลชาวสเปน
ตบอลชาวอ
ตบอลชาวเยอรม
ตบอลชาวไทย
ตบอลต
ตบอลถ
ตบอลท
ตบอลน
ตบอลนานาชาต
ตบอลบ
ตบอลบาร
ตบอลย
ตบอลยอดเย
ตบอลระด
ตบอลระหว
ตบอลล
ตบอลส
ตบอลหญ
ตบอลอ
ตบอลอาช
ตบอลอาร
ตบอลเอเช
ตบอลแมนเชสเตอร
ตบอลแห
ตบอลโลก
ตบอลโลกหญ
ตบอลในประเทศอ
ตบอลในประเทศไทย
ตบอลในโอล
ตป
ตปร
ตประจำว
ตประจำส
ตประธานาธ
ตประเพณ
ตปล
ตผ
ตฝ
ตฝร
ตพ
ตพร
ตพล
ตฟ
ตฟล
ตฟอร
ตภ
ตภาพยนตร
ตม
ตมหาปราสาท
ตมหาว
ตมหาส
ตย
ตยกรรม
ตยกรรมท
ตยกรรมศาสตร
ตยสถาน
ตยสภา
ตยสาร
ตยา
ตยาบ
ตร
ตรก
ตรกร
ตรกรรม
ตรกรรมฝาผน
ตรการศ
ตรข
ตรของ
ตรค
ตรคนท
ตรคร
ตรง
ตรงก
ตรงกลาง
ตรงข
ตรงท
ตรงน
ตรจ
ตรช
ตรชาย
ตรชายคนท
ตรชายท
ตรด
ตรต
ตรถยนต
ตรท
ตรธ
ตรน
ตรนานาชาต
ตรบ
ตรบร
ตรป
ตรปกต
ตรปร
ตรประกาศน
ตรประจำต
ตรประชาชนเพ
ตรผ
ตรพ
ตรภาพ
ตรม
ตรร
ตรระด
ตรลดา
ตรว
ตรวจการแผ
ตรวจจ
ตรวจสอบผ
ตรศ
ตรส
ตรหน
ตรอ
ตรองนายกร
ตรฯ
ตระก
ตระด
ตระหน
ตระหว
ตรา
ตราการส
ตราการเก
ตราการเต
ตราค
ตราด
ตราดอกเบ
ตราท
ตราพระราชบ
ตราภาษ
ตราร
ตราส
ตราอาร
ตราเง
ตราเร
ตราแผ
ตรเข
ตรเครด
ตรเจ
ตรเป
ตรเพ
ตรเม
ตรเล
ตรเส
ตรแห
ตรให
ตรได
ตล
ตลก
ตลง
ตลอด
ตลอดกาล
ตลอดช
ตลอดท
ตลอดเวลา
ตลาด
ตลาดน
ตลาดหล
ตลาธ
ตว
ตวว
ตวา
ตวาศก
ตวแพทย
ตวแพทยศาสตร
ตศ
ตศร
ตศาสตร
ตส
ตสม
ตสมาช
ตสวรรค
ตสหร
ตสาหกรรม
ตสาหกรรมท
ตสำน
ตสำหร
ตห
ตหน
ตหร
ตหล
ตอ
ตองอ
ตอธ
ตอน
ตอนจบ
ตอนต
ตอนท
ตอนน
ตอนพ
ตอนล
ตอนส
ตอนหน
ตอนเด
ตอนเหน
ตอนใต
ตอบ
ตอบร
ตอบว
ตอบสนองต
ตอบโต
ตอย
ตอร
ตอล
ตอาณาน
ตฮ
ตะ
ตะก
ตะกร
ตะล
ตะว
ตะเค
ตะเภา
ตา
ตาก
ตาท
ตาน
ตานนท
ตาม
ตามก
ตามกฎหมาย
ตามกฎหมายว
ตามข
ตามค
ตามความเช
ตามคำส
ตามจ
ตามช
ตามด
ตามต
ตามท
ตามธรรมชาต
ตามธรรมเน
ตามน
ตามบ
ตามปกต
ตามปฏ
ตามประว
ตามพ
ตามพระราชบ
ตามม
ตามมต
ตามมา
ตามมาด
ตามมาตรา
ตามร
ตามระเบ
ตามล
ตามลำด
ตามว
ตามวรรคหน
ตามส
ตามหน
ตามหล
ตามอ
ตามเด
ตามเวลาท
ตามเสด
ตามแต
ตาย
ตายค
ตายท
ตายแล
ตาร
ตารางก
ตารางการแข
ตารางคะแนน
ตารางวา
ตารางสร
ตารางเมตร
ตารางเหร
ตารางไมล
ตาล
ตาส
ตาห
ตาเล
ตำนาน
ตำนานสมเด
ตำบล
ตำบลก
ตำบลข
ตำบลค
ตำบลจ
ตำบลช
ตำบลด
ตำบลต
ตำบลท
ตำบลธาต
ตำบลน
ตำบลบ
ตำบลป
ตำบลผ
ตำบลพ
ตำบลภ
ตำบลม
ตำบลร
ตำบลล
ตำบลว
ตำบลศร
ตำบลส
ตำบลสร
ตำบลห
ตำบลหนองก
ตำบลหนองบ
ตำบลหนองแวง
ตำบลหล
ตำบลอ
ตำบลเช
ตำบลเน
ตำบลเม
ตำบลเว
ตำบลเหล
ตำบลแก
ตำบลแม
ตำบลโพธ
ตำบลในเม
ตำบลไผ
ตำรวจ
ตำรวจภ
ตำล
ตำหน
ตำแหน
ตเก
ตเข
ตเคยเป
ตเคร
ตเจ
ตเช
ตเซ
ตเซอร
ตเด
ตเต
ตเตอร
ตเท
ตเน
ตเป
ตเพ
ตเม
ตเมนต
ตเร
ตเลขาธ
ตเลต
ตเลอร
ตเว
ตเวช
ตเส
ตเสร
ตเหล
ตแชมป
ตแต
ตแพทย
ตแม
ตแล
ตแลนด
ตและจำหน
ตแห
ตโชมาร
ตโดย
ตโดยบร
ตโต
ตโตร
ตโนม
ตใจ
ตใจด
ตใจท
ตใน
ตในช
ตในท
ตในป
ตในว
ตในอ
ตให
ตใหญ
ตใหม
ตได
ตไทย
ตไป
ตไปแล
ตไฟฟ
ตไม
ตไว
ถ
ถกเถ
ถน
ถนน
ถนนพ
ถนนพระรามท
ถนนพหลโยธ
ถนนร
ถนนว
ถนนส
ถนนอ
ถนนในจ
ถนอม
ถล
ถว
ถวาย
ถวายต
ถวายพระเพล
ถอนต
ถาม
ถามว
ถาวร
ท
ทก
ทกภ
ทการ
ทข
ทค
ทคอม
ทจ
ทจดทะเบ
ทช
ทซ
ทด
ทต
ทท
ททกน
ททบ
ททาน
ทธ
ทธการ
ทธการท
ทธการยาว
ทธกาล
ทธจ
ทธช
ทธท
ทธน
ทธนา
ทธนาว
ทธบ
ทธบาท
ทธปฏ
ทธประว
ทธภ
ทธมณฑล
ทธมนต
ทธยอดฟ
ทธยา
ทธร
ทธรณ
ทธล
ทธว
ทธศ
ทธศตวรรษท
ทธศาสตร
ทธศาสน
ทธศาสนา
ทธศาสนาน
ทธศาสนาแห
ทธส
ทธห
ทธองค
ทธะ
ทธา
ทธาท
ทธาธรรม
ทธาน
ทธาราม
ทธาวาส
ทธเจ
ทธเล
ทน
ทนต
ทนา
ทบ
ทบวง
ทประก
ทผ
ทผล
ทพ
ทม
ทย
ทยฐานะ
ทยบร
ทยา
ทยาการ
ทยาการคอมพ
ทยาการจ
ทยาคม
ทยาคาร
ทยาญ
ทยาท
ทยาน
ทยานประว
ทยานแห
ทยาย
ทยาล
ทยาศาสตร
ทยาศาสตรบ
ทยาศาสตรมหาบ
ทยาส
ทยาหร
ทยาอ
ทยาเขต
ทยาเขตส
ทยาเช
ทร
ทรก
ทรง
ทรงก
ทรงข
ทรงค
ทรงครองราชย
ทรงจ
ทรงช
ทรงดำรงตำแหน
ทรงต
ทรงถ
ทรงน
ทรงบ
ทรงบำเพ
ทรงปฏ
ทรงพ
ทรงพระกร
ทรงพระราชดำร
ทรงพล
ทรงฟ
ทรงม
ทรงย
ทรงร
ทรงล
ทรงศ
ทรงส
ทรงสร
ทรงอ
ทรงอภ
ทรงเข
ทรงเคร
ทรงเจร
ทรงเป
ทรงเร
ทรงเล
ทรงเสกสมรสก
ทรงเห
ทรงแต
ทรงใช
ทรงให
ทรงได
ทรท
ทรปราการ
ทรมลาย
ทรรศการ
ทรรศน
ทรสงคราม
ทรสาคร
ทรอ
ทรอยต
ทรอาร
ทรา
ทรานส
ทราบ
ทราบก
ทราบข
ทราบช
ทราบถ
ทราบท
ทราบป
ทราบว
ทราบสาเหต
ทราบแน
ทราย
ทรเกาหล
ทรแปซ
ทรแอตแลนต
ทรใต
ทรไอบ
ทฤษฎ
ทล
ทว
ทวงศ
ทศวรรษ
ทศวรรษท
ทส
ทสนมก
ทหาร
ทหารท
ทหารบก
ทหารบกชาวไทย
ทหารม
ทหารร
ทหารเร
ทอ
ทอง
ทองคำ
ทองจ
ทองด
ทองส
ทองอ
ทองแดง
ทอดอกซ
ทอตน
ทอม
ทอมม
ทอย
ทอร
ทอล
ทฯ
ทะ
ทะล
ทะเบ
ทะเล
ทา
ทาก
ทากะ
ทากาฮาช
ทาค
ทาคาฮาช
ทาง
ทางการ
ทางการท
ทางการบ
ทางการเม
ทางการแพทย
ทางข
ทางค
ทางจ
ทางช
ทางซ
ทางด
ทางดาราศาสตร
ทางตอนเหน
ทางตอนใต
ทางตะว
ทางท
ทางธรรมชาต
ทางน
ทางบ
ทางบร
ทางประว
ทางผ
ทางฝ
ทางพ
ทางร
ทางรถยนต
ทางราชการได
ทางว
ทางส
ทางสถาน
ทางหลวงหมายเลข
ทางหลวงแผ
ทางอ
ทางอากาศ
ทางเข
ทางเคม
ทางเด
ทางเพศ
ทางเล
ทางเศรษฐก
ทางเหน
ทางแยกต
ทางโทรท
ทางใต
ทาจ
ทาทา
ทาน
ทานพ
ทานากะ
ทาม
ทาร
ทาวน
ทาวเวอร
ทาส
ทาห
ทาเคช
ทาโร
ทำ
ทำก
ทำการ
ทำการก
ทำการค
ทำการจ
ทำการต
ทำการบ
ทำการย
ทำการร
ทำการศ
ทำการส
ทำการอ
ทำการเป
ทำการแข
ทำการไปรษณ
ทำข
ทำค
ทำงาน
ทำงานก
ทำงานด
ทำงานท
ทำงานร
ทำงานอย
ทำงานเป
ทำงานให
ทำงานได
ทำด
ทำต
ทำท
ทำน
ทำนอง
ทำบ
ทำประต
ทำผ
ทำพ
ทำม
ทำร
ทำรายได
ทำลายสถ
ทำส
ทำสถ
ทำหน
ทำอ
ทำอย
ทำออกมาได
ทำเคร
ทำเง
ทำเช
ทำเน
ทำเป
ทำให
ทำได
ทำไม
ทำไว
ทเท
ทเทอร
ทเป
ทแคโรไลนา
ทแม
ทโธปกรณ
ทในเคร
ทได
ทไวซ
ธ
ธก
ธค
ธง
ธงช
ธงชาต
ธงน
ธงไชย
ธช
ธต
ธท
ธน
ธนบ
ธนพร
ธนะร
ธนา
ธนาคาร
ธนาคารกร
ธนาคารแห
ธป
ธปท
ธประจำต
ธพ
ธภ
ธม
ธย
ธยม
ธยมต
ธยมท
ธยมปลาย
ธยมว
ธยมศ
ธยา
ธยาคร
ธยาตอนปลาย
ธยาศ
ธร
ธรจ
ธรณ
ธรภาค
ธรรม
ธรรมชาต
ธรรมดา
ธรรมท
ธรรมน
ธรรมย
ธรรมร
ธรรมราช
ธรรมว
ธรรมศ
ธรรมศาสตร
ธรรมเน
ธว
ธส
ธหล
ธอ
ธอร
ธา
ธาดา
ธาต
ธาน
ธเป
ธได
น
นก
นกท
นกน
นกย
นกร
นกรณ
นกรรมการ
นกรรมการบร
นกรรมการผ
นกระจ
นกระด
นกระบวนการท
นกระส
นกราด
นกล
นกลม
นกลย
นกลาง
นกลายเป
นกว
นกษ
นกอ
นกองกำล
นกองท
นกองหน
นการ
นการก
นการกระทำท
นการกล
นการข
นการค
นการจ
นการฉ
นการช
นการซ
นการด
นการดำเน
นการต
นการถ
นการท
นการน
นการบ
นการบร
นการป
นการปฏ
นการปร
นการปล
นการผ
นการผล
นการฝ
นการพ
นการม
นการย
นการร
นการล
นการละเม
นการว
นการศ
นการส
นการสร
นการอ
นการอย
นการอาช
นการเก
นการเข
นการเคล
นการเง
นการเช
นการเด
นการเต
นการเป
นการเปล
นการเพ
นการเม
นการเร
นการเล
นการเส
นการแก
นการแข
นการแต
นการแบ
นการโจมต
นการโดย
นการใช
นการให
นการได
นการไม
นกำล
นกำเน
นข
นขนส
นขนาด
นขนาดเล
นขนาดใหญ
นขนานท
นขว
นของ
นของก
นของกล
นของกองท
นของข
นของขว
นของค
นของจ
นของช
นของซ
นของด
นของต
นของตน
นของตนเอง
นของท
นของน
นของบ
นของบร
นของป
นของผ
นของฝ
นของฝร
นของพ
นของพระองค
นของม
นของย
นของร
นของล
นของว
นของส
นของสหร
นของห
นของหน
นของอ
นขององค
นของเขา
นของเจ
นของเรา
นของแข
นขาด
นขาว
นค
นคง
นคงของมน
นคงแห
นคด
นคน
นคนข
นคนจ
นคนด
นคนต
นคนท
นคนน
นคนม
นคนร
นคนส
นคนสำค
นคนหน
นคนอ
นคนเด
นคนแรก
นคนแรกท
นคร
นครช
นครน
นครนายก
นครปฐม
นครพนม
นครร
นครราชส
นครศร
นครสวรรค
นครองราชย
นครองราชสมบ
นครอบคร
นครในจ
นคล
นคว
นควบค
นควร
นความข
นความค
นความจร
นความจำเป
นความต
นความถ
นความผ
นความร
นความล
นความส
นความสำค
นความเช
นความเป
นความเร
นความเส
นคอนเส
นคอมม
นคอร
นคอล
นคา
นคาทอล
นคาบศ
นคาร
นคำ
นคำท
นคำพ
นคำร
นคำว
นคำส
นฆ
นง
นงาน
นงานด
นงานท
นงานเข
นจ
นจง
นจดทะเบ
นจนกระท
นจนถ
นจร
นจอห
นจะต
นจะถ
นจะทำให
นจะม
นจะย
นจะร
นจะส
นจะอย
นจะเก
นจะเข
นจะเป
นจะเร
นจะใช
นจะได
นจะไม
นจา
นจาก
นจากความเป
นจากต
นจากตำแหน
นจากท
นจากน
นจากผ
นจากร
นจากว
นจากส
นจากอ
นจาร
นจำค
นจำนวน
นจำนวนมาก
นจำนวนเง
นจำนวนเต
นจำเป
นฉ
นฉบ
นช
นชน
นชม
นชอบ
นชอบก
นชอบด
นชอบให
นชา
นชาต
นชาย
นชาร
นชาวจ
นชาวญ
นชาวย
นชาวอ
นชาวอเมร
นชาวไทย
นชไตน
นซ
นซอฟต
นซา
นซาก
นซาม
นญ
นญาต
นฐาน
นฐานด
นฐานท
นฐานอย
นณว
นด
นดง
นดนตร
นดย
นดร
นดรศ
นดอกไม
นดอน
นดอนสามเหล
นดอร
นดา
นดาด
นดาน
นดาบ
นดาม
นดาร
นดารา
นดาล
นดาลใจให
นดาลให
นดาว
นดาวเคราะห
นดำ
นดำรงตำแหน
นดำเน
นต
นตก
นตกของจ
นตกของแม
นตกต
นตกท
นตกม
นตกอย
นตกเฉ
นตกเป
นตต
นตน
นตนา
นตนาการ
นตป
นตภ
นตภาพร
นตร
นตรก
นตรง
นตรงก
นตรงต
นตรงท
นตระก
นตรา
นตราย
นตรายต
นตรายท
นตรายแก
นตสมาคม
นตหรา
นตอน
นตอนต
นตอนท
นตอนน
นตอนว
นตะ
นตะปาปา
นตะว
นตา
นตาม
นตามท
นตามมาตรา
นตามลำด
นตาย
นตาล
นตำบลหน
นตำรวจโท
นตำแหน
นตแพทย
นตแพทยศาสตร
นถ
นถล
นท
นทก
นทจ
นทซ
นทด
นทน
นทนนท
นทนา
นทนาการ
นทบ
นทป
นทมห
นทร
นทรคต
นทรงค
นทรงเป
นทรน
นทรพ
นทรพจน
นทรภ
นทรมหาภ
นทรล
นทรว
นทรศ
นทรศก
นทรส
นทรา
นทราช
นทราธ
นทราบรมราช
นทราบรมราชชนน
นทราภรณ
นทราย
นทราวาส
นทรเกษม
นทรเดชา
นทรเวช
นทฤษฎ
นทว
นทศวรรษ
นทหาร
นทหารม
นทหารราบท
นทอง
นทอช
นทะ
นทะเบ
นทะเล
นทา
นทาก
นทาง
นทางกล
นทางการ
นทางการค
นทางการท
นทางการว
นทางการเม
นทางการในว
นทางข
นทางช
นทางด
นทางต
นทางตะว
นทางถ
นทางท
นทางน
นทางบ
นทางป
นทางผ
นทางมาถ
นทางมาย
นทางรถไฟฟ
นทางระหว
นทางล
นทางว
นทางส
นทางหล
นทางหลวงแผ
นทางอ
นทางเข
นทางเด
นทางเพ
นทางเล
นทางได
นทางไปถ
นทางไปท
นทางไปย
นทามะ
นทาราม
นทาส
นทาโร
นทำหน
นทำให
นธ
นธก
นธง
นธงชาต
นธน
นธบ
นธม
นธร
นธรรม
นธรรมชาต
นธรรมดา
นธรรมเน
นธวงศ
นธส
นธาต
นธไมตร
นน
นนกท
นนท
นนทบ
นนวน
นนอก
นนอกเหน
นนะ
นนะคร
นนา
นนาค
นนาง
นนางช
นนางท
นนางผ
นนางฝ
นนางอ
นนาน
นนานาชาต
นนายกร
นนาร
นนำ
นบ
นบก
นบกท
นบทความค
นบทความท
นบน
นบนพ
นบร
นบรรณาธ
นบรรท
นบรรพบ
นบรรยากาศ
นบล
นบวก
นบวร
นบะระ
นบางคร
นบางส
นบาท
นบาทถ
นบำเหน
นป
นปกต
นปช
นปฏ
นปร
นประก
นประกอบด
นประกอบไปด
นประกาศผล
นประกาศในราชก
นประจ
นประจำ
นประจำท
นประจำป
นประชาธ
นประด
นประต
นประถมศ
นประท
นประธาน
นประธานกรรมการ
นประธานาธ
นประธานในพ
นประม
นประมาณ
นประว
นประส
นประเด
นประเทศ
นประเทศท
นประเพณ
นประเสร
นประโยชน
นปรากฏการณ
นปล
นปลาท
นปลาน
นปลายช
นปลาสวยงาม
นปาล
นผ
นผล
นผลงานท
นผลสำเร
นผลให
นผลไม
นฝ
นฝร
นพ
นพน
นพบ
นพบก
นพบท
นพบน
นพบว
นพบในป
นพย
นพร
นพรรคการเม
นพรหม
นพระ
นพระกรรมวาจาจารย
นพระคร
นพระจ
นพระชนม
นพระญาต
นพระท
นพระธ
นพระน
นพระบ
นพระบาทสมเด
นพระปกเกล
นพระพ
นพระภ
นพระมหากษ
นพระมเหส
นพระราช
นพระราชธ
นพระราชน
นพระราชบ
นพระราชาคณะช
นพระราชโอรสพระองค
นพระราชโอรสองค
นพระส
นพระอ
นพระองค
นพระอน
นพระเจ
นพฤต
นพฤห
นพล
นพลเม
นพลเร
นพากย
นพาณ
นพาย
นพาร
นฟ
นฟร
นฟลายเวท
นฟอร
นฟะ
นฟาโรห
นภ
นภาค
นภาคต
นภาพ
นภาพท
นภาพยนตร
นภาพเข
นภายหล
นภายใต
นภารก
นภาษ
นภาษาญ
นภาษาท
นภาษาอ
นภาษาแม
นภาษาไทย
นม
นมน
นมรดกโลก
นมหาราช
นมหาว
นมะเร
นมา
นมาก
นมากกว
นมากข
นมากท
นมากน
นมากมาย
นมาจนถ
นมาช
นมาด
นมาต
นมาตรฐาน
นมาตรา
นมาถ
นมาท
นมาน
นมาม
นมาย
นมาร
นมาว
นมาส
นมาอ
นมาอย
นมาเป
นมาเพ
นมาเร
นมาเล
นมาแต
นมาแล
นมาใช
นมาให
นมาใหม
นมาได
นย
นยง
นยนต
นยอดน
นยอดเย
นยอม
นยอมให
นยา
นยาท
นยายน
นยาร
นยารช
นยาว
นยำ
นร
นรก
นรถ
นรถท
นรถยนต
นรวม
นรวมถ
นรวมท
นรห
นรองนายกร
นรองผ
นรองห
นรอบค
นรอบช
นรอบต
นรอบส
นระด
นระบ
นระบบ
นระบบท
นระยะ
นระยะทาง
นระยะเวลา
นระหว
นระเบ
นรางว
นราช
นราชท
นราชธาน
นราชบ
นราชภ
นราชวงศ
นราชสก
นราชอาณาจ
นราธ
นรายการ
นรายการท
นรายการโทรท
นรายช
นรายใหญ
นรายได
นราว
นรำ
นฤด
นฤมล
นล
นลง
นลงท
นลงเล
นลม
นลองจ
นละ
นละคร
นละครท
นละครโทรท
นลายล
นลำด
นว
นวงกลมใหญ
นวงกว
นวงดนตร
นวงศ
นวน
นวล
นวอนเดอเรอส
นวอลล
นวอลเลย
นวา
นวาคม
นวาคมป
นวางจำหน
นวาย
นศ
นศตวรรษท
นศร
นศาสตราจารย
นษา
นส
นสก
นสกฤต
นสค
นสด
นสต
นสตร
นสถ
นสถาน
นสถานท
นสถานศ
นสถาบ
นสถาป
นสถาปน
นสท
นสน
นสนามก
นสนามเหย
นสป
นสม
นสมควร
นสมบ
นสมมต
นสมาช
นสมเด
นสร
นสล
นสลาย
นสว
นสวรรค
นสหร
นสอง
นสองกล
นสองคนส
นสองช
นสองส
นสองเท
นสะเท
นสากล
นสาธารณร
นสาม
นสามส
นสามารถเล
นสามารถใช
นสายการบ
นสายพ
นสายล
นสารท
นสาราน
นสาเหต
นสำค
นสำน
นสำปะหล
นสำหร
นสำเน
นสำเร
นสเตอร
นสโมสรฟ
นห
นหญ
นหน
นหนา
นหม
นหมด
นหมวดหม
นหมายความว
นหมายถ
นหมายเลข
นหย
นหร
นหล
นหลง
นหลายคร
นหว
นหอม
นหา
นหาข
นหาท
นอ
นอก
นอกจากน
นอกน
นอกเหน
นองค
นอด
นอต
นอธ
นอน
นอนว
นอภ
นอย
นอยด
นอยส
นอร
นอล
นอว
นอวกาศ
นอส
นออก
นออกกลาง
นออกของจ
นออกของแม
นออกต
นออกท
นออกมา
นออกส
นออกเฉ
นออกเป
นออกไกล
นออกไป
นออร
นอาคาร
นอาคารคอนกร
นอาคารท
นอาคารเร
นอาคารไม
นอาจม
นอาจารย
นอาจเป
นอาช
นอาณาจ
นอาณาน
นอาท
นอาย
นอาร
นอารมณ
นอาว
นอาศ
นอาสนว
นอาหาร
นอาหารท
นอาหารได
นอำเภอหน
นอเมร
นฮ
นฮาร
นฯ
นะ
นะคร
นะฮ
นา
นาก
นากาม
นาค
นาคม
นาง
นางก
นางงามจ
นางจ
นางพ
นางฟ
นางร
นางส
นางอ
นางเธอ
นางแบบ
นาจ
นาซ
นาฏ
นาฏศ
นาด
นาต
นาตาล
นาถ
นาถว
นาถเอล
นาถแห
นาท
นาน
นานก
นานกว
นานด
นานถ
นานน
นานมาน
นานหล
นานะ
นานา
นานาชาต
นาบ
นาม
นามปากกา
นามว
นามสก
นามเด
นาย
นายก
นายกร
นายกองค
นายกเทศมนตร
นายจ
นายช
นายต
นายท
นายทะเบ
นายน
นายบ
นายป
นายปร
นายพ
นายพล
นายม
นายร
นายว
นายศ
นายส
นายอ
นายอภ
นายเร
นายแพทย
นาร
นารา
นารายณ
นาล
นาว
นาวะ
นาศ
นาส
นาฬ
นาอ
นาเป
นาเมนต
นาแห
นาโด
นาได
นำ
นำกล
นำกองท
นำข
นำช
นำต
นำท
นำน
นำบทบ
นำประเทศ
นำฝ
นำมาซ
นำมาใช
นำร
นำว
นำส
นำหน
นำอ
นำเข
นำเร
นำแสดงโดย
นำโชค
นำโดย
นำไปส
นำไปใช
นเก
นเกณฑ
นเกม
นเกมท
นเกมส
นเกย
นเกรกอเร
นเกล
นเกาหล
นเกาะท
นเข
นเขตท
นเขตร
นเขา
นเขาก
นเขาจ
นเขาย
นเขาได
นเค
นเคย
นเคยก
นเคร
นเคล
นเคโฟร
นเง
นเจ
นเจด
นเจร
นเจอร
นเฉ
นเฉล
นเช
นเชสเตอร
นเชอร
นเซ
นเซนต
นเซลล
นเซอร
นเด
นเดซ
นเดย
นเดร
นเดอร
นเดอะแบงก
นเต
นเตร
นเตอร
นเถ
นเถล
นเท
นเทคน
นเทคว
นเทคโนโลย
นเทนน
นเทนโด
นเทพ
นเทพเจ
นเทศบาลเม
นเทอร
นเธอก
นเธอได
นเน
นเนอร
นเบ
นเป
นเปร
นเปล
นเผ
นเผา
นเพ
นเพราะว
นเพลง
นเพลงชาต
นเพลงท
นเพลย
นเฟ
นเฟเธอร
นเม
นเมร
นเมล
นเย
นเร
นเล
นเลขาธ
นเลขาน
นเลย
นเว
นเวท
นเวย
นเวลา
นเวลากว
นเวลาท
นเวลานาน
นเวลาส
นเวลาหน
นเวลาหลายป
นเวอร
นเส
นเสด
นเสนาบด
นเสม
นเสมอ
นเสร
นเสาร
นเห
นเหต
นเหน
นเหม
นเหย
นเหร
นเหล
นเอ
นเอก
นเอกฉ
นเอกล
นเอง
นเองก
นเอท
นเอาไว
นเอเช
นแก
นแกรน
นแกล
นแข
นแขกร
นแค
นแคว
นแจ
นแชมป
นแดง
นแดน
นแดนต
นแดนท
นแดนน
นแดนส
นแดนอ
นแดนแห
นแต
นแตกต
นแท
นแทน
นแทนท
นแน
นแนล
นแนวค
นแนวร
นแนวโชเน
นแบ
นแบนต
นแบบ
นแบบท
นแบบน
นแบบอ
นแบบอย
นแบบเด
นแบร
นแป
นแปซ
นแปลว
นแผ
นแผน
นแพ
นแพทย
นแพร
นแม
นแย
นแร
นแรก
นแรกท
นแรกเป
นแรง
นแรงกว
นแรงข
นแรงต
นแรงท
นแรงบ
นแรงส
นแรม
นแล
นแลนด
นและ
นและก
นและข
นและค
นและจ
นและช
นและด
นและต
นและถ
นและท
นและน
นและบ
นและป
นและปราบปรามการท
นและผ
นและพ
นและม
นและย
นและร
นและล
นและว
นและส
นและหน
นและอ
นและเป
นและเร
นและได
นและไม
นแห
นแหล
นแอ
นแอน
นแอนด
นแอร
นโกะ
นโค
นโครงสร
นโคว
นโจ
นโจมต
นโชว
นโซ
นโซไดอาเซพ
นโด
นโดจ
นโดดเด
นโดท
นโดน
นโดย
นโดยค
นโดยท
นโดยน
นโดยผ
นโดยม
นโดยส
นโดยอ
นโดยใช
นโดยไม
นโดร
นโดวส
นโต
นโตน
นโท
นโทก
นโน
นโนเฟอร
นโบราณ
นโบสถ
นโบอ
นโปรด
นโปรต
นโปเล
นโพธ
นโมฆะ
นโมบ
นโย
นโยบาย
นโรค
นโรคต
นโรคท
นโรงเร
นโล
นโลก
นโลห
นโอ
นโอล
นโอเมกา
นใกล
นใคร
นใจ
นใจต
นใจท
นใจย
นใจว
นใจเข
นใจเล
นใจให
นใช
นใด
นใดท
นใดน
นใต
นใน
นในก
นในกร
นในกรณ
นในกล
นในการต
นในการแข
นในขณะท
นในขณะน
นในค
นในคร
นในจ
นในช
นในซ
นในด
นในต
นในตำแหน
นในท
นในน
นในนาม
นในบ
นในบร
นในป
นในประเทศญ
นในประเทศไทย
นในพ
นในพร
นในฟ
นในภายหล
นในย
นในร
นในระด
นในระหว
นในรายการ
นในฤด
นในล
นในลาล
นในว
นในศตวรรษท
นในส
นในสงครามโลกคร
นในสม
นในสหร
นในห
นในหน
นในหม
นในอ
นในอด
นในเซเร
นในเด
นในเม
นในเร
นในเล
นในเวลา
นในเวลากลางค
นในเอเช
นในแต
นในโอล
นในไทยล
นใส
นให
นใหญ
นใหม
นไก
นไข
นไซ
นไซด
นได
นไดเล
นไดเส
นไต
นไตย
นไท
นไทย
นไทยแลนด
นไนน
นไป
นไปก
นไปข
นไปจนถ
นไปช
นไปด
นไปต
นไปตามข
นไปตามท
นไปตามระเบ
นไปตามหล
นไปถ
นไปท
นไปน
นไปย
นไปร
นไปส
นไปอ
นไปอย
นไปเป
นไปเพ
นไปเม
นไปเร
นไปเล
นไปแล
นไปใช
นไปในแต
นไปให
นไปได
นไปไม
นไพร
นไฟ
นไฟฟ
นไฟล
นไม
นไร
นไรเฟ
นไล
นไลท
นไว
นไวร
นไส
นไหม
นไหว
นไหวขนาด
นไหวคร
นไหวท
นๆ
นๆท
นๆอ
นๆได
บ
บก
บกร
บกรณ
บกระด
บกระผม
บกล
บกลายเป
บกว
บกษ
บกองกำล
บกองท
บการ
บการก
บการกล
บการข
บการขนานนามว
บการค
บการควบค
บการจ
บการช
บการซ
บการด
บการดำเน
บการต
บการตอบร
บการถ
บการท
บการน
บการบ
บการบร
บการบรรจ
บการป
บการปฏ
บการปร
บการประช
บการประเม
บการปล
บการผ
บการผล
บการฝ
บการพ
บการฟ
บการม
บการย
บการยกฐานะเป
บการยกย
บการยกเว
บการยอมร
บการร
บการล
บการว
บการศ
บการส
บการสถาปนาเป
บการสน
บการสร
บการอ
บการอน
บการเก
บการเข
บการเคล
บการเช
บการเด
บการเต
บการเป
บการเปล
บการเผยแพร
บการเพ
บการเม
บการเร
บการเล
บการเสนอช
บการแก
บการแข
บการแต
บการแสดง
บการแสดงโดย
บการโจมต
บการใช
บการให
บกำล
บข
บขม
บของ
บของท
บของร
บค
บคด
บคน
บคนท
บคนร
บคนอ
บคนไข
บคร
บครอบคร
บคล
บความค
บความจร
บความช
บความด
บความต
บความถ
บความน
บความผ
บความพ
บความม
บความย
บความร
บความล
บความส
บความสำค
บความสำเร
บความเข
บความเช
บความเด
บความเป
บความเร
บความเส
บความเห
บความไว
บคอมพ
บคะแนนเส
บคาร
บคำท
บคำร
บคำว
บคำส
บคำใบ
บง
บจ
บจก
บจอห
บจาก
บจากน
บฉ
บฉายาว
บช
บชน
บชาต
บชาร
บซ
บญ
บญาต
บด
บดนตร
บดาว
บต
บตกแต
บตน
บตระก
บตะว
บตา
บตำแหน
บถ
บถาวร
บท
บทกว
บทความ
บทความค
บทความท
บทความน
บทความว
บทความหล
บทความเก
บทท
บทน
บทบ
บทบาท
บทบาทท
บทบาททางการเม
บทบาทสำค
บทบาทในล
บทประพ
บทพ
บทภาพยนตร
บทร
บทฤษฎ
บทว
บทส
บทอง
บทอด
บทอดต
บทอดตำแหน
บทางหลวงแผ
บทำให
บทโทรท
บธ
บธรรมชาต
บน
บนช
บนชาร
บนต
บนท
บนบ
บนผ
บนฝ
บนพ
บนภ
บนว
บนส
บนห
บนหน
บนหล
บนานาชาต
บนเคร
บนเน
บนเร
บนเวท
บนเส
บนแผ
บบ
บบท
บบทความท
บบทน
บบทเด
บบทเป
บบทโดย
บบนส
บบร
บบล
บบอร
บบาดเจ
บบาร
บป
บปฏ
บปร
บประก
บประกาศน
บประจ
บประชาชน
บประต
บประถมศ
บประทาน
บประทานได
บประว
บประสบการณ
บประเด
บประเทศ
บประเทศอ
บประเทศไทย
บประโยชน
บปล
บปวด
บผ
บผม
บผล
บผลกระทบ
บผลประโยชน
บฝ
บฝร
บพ
บพน
บพม
บพร
บพรรคการเม
บพระบ
บพระพ
บพระมหากร
บพระมหากษ
บพระราชทาน
บพระราชทานบรรดาศ
บพระราชทานว
บพระราชทานส
บพระราชทานเคร
บพระราชบ
บพระราชห
บพระอ
บพระองค
บพระเจ
บพฤต
บพล
บพลา
บพลาอ
บพาย
บฟ
บภ
บภาพ
บภาพยนตร
บภาพยอดเย
บภารก
บภาษ
บภาษาอ
บภาษาไทย
บม
บมจ
บมน
บมหาว
บมองซ
บมอบหมายให
บมา
บมาก
บมากกว
บมาช
บมาด
บมาต
บมาตรฐาน
บมาตรา
บมาถ
บมาท
บมาม
บมาย
บมาร
บมารวมต
บมาส
บมาอ
บมาอย
บมาเข
บมาเป
บมาเร
บมาเล
บมาใช
บมาได
บย
บยกย
บร
บรถ
บรถยนต
บรถไฟฟ
บรมนาถบพ
บรมราชาภ
บรรจ
บรรณ
บรรณาธ
บรรณาน
บรรดาผ
บรรดาศ
บรรท
บรรพบ
บรรยายไทย
บรรล
บรรเลง
บรวมก
บรอง
บรองว
บรองให
บรอลตาร
บรอฮ
บระด
บระหว
บระเบ
บรางว
บราชการ
บราชการท
บราชการอย
บราชการเป
บราชท
บราชบ
บราชวงศ
บราชส
บราชสมบ
บราชอาณาจ
บราซ
บราวน
บราฮ
บราเธอร
บฤด
บล
บลร
บลราชธาน
บลอนด
บละ
บว
บวก
บวกก
บวง
บวงดนตร
บวร
บวรส
บศ
บส
บสก
บสต
บสตร
บสถาน
บสถานการณ
บสถานท
บสถาบ
บสน
บสนก
บสนองพระบรมราชโองการ
บสภาผ
บสภาพแวดล
บสม
บสมบ
บสมาช
บสมเด
บสร
บสลาก
บสลากสำหร
บสว
บสวน
บสหภาพโซเว
บสหร
บสหราชอาณาจ
บสอง
บสองป
บสากล
บสาธารณร
บสาม
บสายพ
บสาห
บสำน
บสำหร
บสโมสร
บสโมสรฟ
บห
บหญ
บหน
บหม
บหร
บหล
บอ
บอก
บอกก
บอกซ
บอกว
บอกเล
บอกให
บองค
บอด
บอน
บอนด
บอนไดออกไซด
บอย
บอยแบนด
บอร
บอล
บอลช
บอลชายช
บอลย
บอลล
บอลหญ
บอลเว
บอลในป
บอลในโอล
บอส
บอสต
บอสเน
บอากาศ
บอาจารย
บอาช
บอาณาจ
บอาย
บอาร
บอารมณ
บอาว
บอำเภอเม
บฮ
บฮาร
บะ
บา
บาก
บาค
บางกล
บางกอก
บางกะป
บางข
บางคนก
บางคร
บางช
บางชน
บางต
บางท
บางนา
บางร
บางส
บางอย
บางเขน
บางแห
บาซ
บาดเจ
บาต
บาตชาต
บาท
บาน
บานประต
บานะ
บานเย
บาบ
บาป
บาย
บายถ
บายท
บายว
บายอย
บายโดยย
บายให
บายได
บายไว
บาร
บารม
บาราก
บาล
บาลท
บาลบ
บาส
บาสเกตบอล
บาห
บำบ
บำร
บำเพ
บเก
บเกล
บเกาหล
บเข
บเขตการปกครองข
บเขา
บเค
บเคร
บเคล
บเง
บเจ
บเช
บเซ
บเซลล
บเด
บเต
บเท
บเทคโนโลย
บเธอ
บเน
บเบ
บเบราว
บเบอร
บเป
บเปล
บเผ
บเพ
บเพล
บเพลง
บเพลย
บเม
บเย
บเยอรมน
บเยาวชน
บเร
บเรา
บเล
บเว
บเวลา
บเส
บเสด
บเหต
บเหน
บเหย
บเหร
บเหล
บเอ
บเอกซ
บเอม
บแก
บแข
บแค
บแคว
บแจ
บแชมป
บแต
บแท
บแนวค
บแผ
บแพ
บแม
บแมนเชสเตอร
บแรก
บแรงบ
บแล
บแสง
บแห
บแหล
บโครงสร
บโดย
บโดยอน
บโต
บโตข
บโตท
บโตทางเศรษฐก
บโตอย
บโตได
บโทรศ
บโปรดเกล
บโปรต
บโมเลก
บโรงเร
บโลก
บใจ
บใช
บใน
บในช
บในป
บในว
บในอ
บใบอน
บใส
บให
บใหญ
บใหม
บไข
บไซด
บไซต
บได
บไทย
บไป
บไปด
บไปท
บไปย
บไปร
บไปส
บไปอย
บไปเป
บไปเม
บไปแล
บไปใช
บไม
บไล
บไว
บๆ
ป
ปก
ปกครอง
ปกครองด
ปกครองท
ปกครองร
ปกครองเม
ปกคล
ปกต
ปกป
ปกรณ
ปการ
ปการปกครองแผ
ปการปกครองในระบอบประชาธ
ปข
ปค
ปคร
ปคล
ปจ
ปช
ปซ
ปญ
ปฏ
ปณ
ปด
ปดา
ปดาห
ปต
ปตท
ปตศก
ปถ
ปท
ปน
ปนาว
ปบ
ปป
ปปางมารว
ปผ
ปผลการค
ปผลการแข
ปผลรางว
ปผา
ปพ
ปภาพ
ปม
ปย
ปร
ปรกต
ปรม
ประก
ประกอบ
ประกอบก
ประกอบข
ประกอบด
ประกอบท
ประกอบธ
ประกอบพ
ประกอบภาพยนตร
ประกอบร
ประกอบละคร
ประกอบละครเร
ประกอบว
ประกอบอาช
ประกอบไปด
ประการ
ประการท
ประการหน
ประการใด
ประกาศ
ประกาศกระทรวงมหาดไทย
ประกาศข
ประกาศจ
ประกาศต
ประกาศน
ประกาศย
ประกาศว
ประกาศสำน
ประกาศเป
ประกาศเม
ประกาศแต
ประกาศใช
ประกาศในราชก
ประกาศให
ประจ
ประจวบ
ประจวบค
ประจำ
ประจำจ
ประจำชาต
ประจำต
ประจำท
ประจำบ
ประจำป
ประจำมหาว
ประจำว
ประจำส
ประจำสำน
ประจำอย
ประจำเด
ประจำโรงเร
ประช
ประชา
ประชากร
ประชากรท
ประชากรประมาณ
ประชากรมากท
ประชากรส
ประชากรไทย
ประชาชน
ประชาชนท
ประชาชนได
ประชาชาต
ประชาธ
ประชามต
ประชาส
ประด
ประต
ประถมศ
ประท
ประธาน
ประธานกรรมการ
ประธานกรรมการบร
ประธานบร
ประธานร
ประธานศาลฎ
ประธานสภาผ
ประธานาธ
ประพ
ประพฤต
ประม
ประมาณ
ประมาณป
ประมาณร
ประมาณว
ประย
ประว
ประส
ประสงค
ประสบก
ประสบการณ
ประสบความสำเร
ประสบป
ประสบภ
ประสบอ
ประสาท
ประสาทส
ประสานม
ประหย
ประหลาด
ประหลาดท
ประหารช
ประเด
ประเทศ
ประเทศก
ประเทศกร
ประเทศกาตาร
ประเทศค
ประเทศจ
ประเทศซ
ประเทศญ
ประเทศต
ประเทศท
ประเทศน
ประเทศนอร
ประเทศบ
ประเทศบราซ
ประเทศฝร
ประเทศพม
ประเทศฟ
ประเทศมาเลเซ
ประเทศย
ประเทศร
ประเทศล
ประเทศลาว
ประเทศส
ประเทศสว
ประเทศสหร
ประเทศสเปน
ประเทศอ
ประเทศออสเตร
ประเทศออสเตรเล
ประเทศอาร
ประเทศฮ
ประเทศเกาหล
ประเทศเดนมาร
ประเทศเนเธอร
ประเทศเบลเย
ประเทศเป
ประเทศเม
ประเทศเยอรมน
ประเทศเว
ประเทศแคนาดา
ประเทศแอฟร
ประเทศโปแลนด
ประเทศไทย
ประเทศไทยม
ประเทศไทยเป
ประเทศไทยในป
ประเพณ
ประเภท
ประเภทค
ประเภทชาย
ประเภทท
ประเภทน
ประเภทว
ประเภทหญ
ประเม
ประเสร
ประโยค
ประโยชน
ปรากฏ
ปรากฏการณ
ปรากฏข
ปรากฏช
ปรากฏต
ปรากฏว
ปรากฏหล
ปรากฏอย
ปรากฏเป
ปรากฏใน
ปรากฏในหน
ปราคา
ปราคาบางส
ปราคาเต
ปรางค
ปราจ
ปราช
ปราชญ
ปราย
ปรายท
ปรายไม
ปราสาท
ปราเนช
ปราโมช
ปราโมทย
ปล
ปลดปล
ปลอดภ
ปลอมต
ปลา
ปลาก
ปลาซ
ปลาด
ปลาต
ปลาตะเพ
ปลาท
ปลาน
ปลาบ
ปลาป
ปลาย
ปลายป
ปลาส
ปลาหม
ปว
ปวช
ปวส
ปศ
ปส
ปสงค
ปสมบท
ปสมบทเป
ปสรรค
ปสรรคต
ปสล
ปสามเหล
ปห
ปหน
ปหล
ปหลายเหล
ปอ
ปองค
ปอด
ปอนด
ปอบ
ปอย
ปอร
ปอล
ปอเมร
ปอเรช
ปฮอป
ปฮาด
ปะการ
ปะชานาต
ปะทะ
ปะทะก
ปะห
ปา
ปาก
ปากน
ปางมารว
ปาฏ
ปาณ
ปาน
ปานามา
ปาป
ปาร
ปารากว
ปาล
ปาห
ปาเลสไตน
ปเก
ปเด
ปเตอร
ปเท
ปเป
ปเปอร
ปเล
ปเหร
ปเอเช
ปแบบ
ปแบบการเล
ปแบบการแข
ปแบบของ
ปแบบซ
ปแบบด
ปแบบต
ปแบบท
ปแบบน
ปแบบพ
ปแบบว
ปแบบส
ปแบบสถาป
ปแบบหน
ปแบบอ
ปแบบเด
ปแบบเป
ปแบบเส
ปแบบใหม
ปแล
ปและข
ปแห
ปแอนตาร
ปแอฟร
ปโป
ปโปแคมป
ปโภค
ปโภคบร
ปโหลด
ปโหลดไฟล
ปให
ปไข
ปได
ปไตย
ปไตยคองโก
ปไตยต
ปไตยท
ปไตยภายใต
ปไตยส
ปไตยอ
ปไม
ผ
ผจญภ
ผด
ผน
ผบ
ผม
ผมก
ผมค
ผมจ
ผมม
ผมย
ผมร
ผมว
ผมส
ผมเข
ผมเป
ผมเห
ผมได
ผมไม
ผล
ผลก
ผลกระทบต
ผลการเล
ผลการแข
ผลข
ผลค
ผลงาน
ผลงานการแสดง
ผลงานของ
ผลงานช
ผลงานด
ผลงานต
ผลงานท
ผลงานภาพยนตร
ผลงานร
ผลงานล
ผลงานละครโทรท
ผลงานว
ผลงานอ
ผลงานเด
ผลงานเพลง
ผลด
ผลต
ผลตอบร
ผลท
ผลทำให
ผลน
ผลบ
ผลประโยชน
ผลปรากฏว
ผลผล
ผลรางว
ผลล
ผลว
ผลส
ผลอ
ผลอย
ผลเป
ผลใช
ผลในการประกาศใช
ผลให
ผลไม
ผศ
ผสม
ผสมก
ผสมพ
ผอ
ผา
ผาส
ฝ
ฝน
ฝร
พ
พก
พกร
พกล
พข
พค
พคร
พงศ
พงศธร
พงศาวล
พงษ
พจ
พจน
พจนาน
พช
พชาวอเมร
พซ
พญ
พด
พต
พท
พทม
พธ
พน
พนธ
พนม
พนมยงค
พนมเท
พนว
พบ
พบก
พบกช
พบกระจายพ
พบกสหร
พบคร
พบท
พบน
พบบ
พบผ
พบมากท
พบร
พบว
พบหล
พบเห
พบในทว
พบในประเทศอ
พบในประเทศไทย
พบได
พปลดปล
พผ
พฝ
พฝร
พพ
พพม
พพาน
พภ
พภาคท
พม
พมาต
พย
พยากร
พยากรณ
พยากรท
พยากรธรณ
พยากรธรรมชาต
พยากรน
พยากรมน
พยางค
พยาธ
พยายามท
พร
พรช
พรพ
พรรค
พรรคก
พรรคการเม
พรรคความหว
พรรคคอมม
พรรคชาต
พรรคน
พรรคประชาธ
พรรคพล
พรรคร
พรรคส
พรรคเพ
พรรคเสร
พรรคไทยร
พรรณ
พรรณบ
พรรณหงส
พรรณไม
พรรษา
พรสวรรค
พรหม
พระ
พระก
พระกร
พระขน
พระค
พระคร
พระจ
พระจอมเกล
พระช
พระชนม
พระชนมาย
พระชายา
พระญาต
พระตำหน
พระท
พระธ
พระธาต
พระน
พระนคร
พระนครศร
พระนางจ
พระนางมาร
พระนางเจ
พระนาม
พระนามว
พระนามเด
พระนารายณ
พระบ
พระบรมธาต
พระบรมมหาราชว
พระบรมราช
พระบรมราชชนน
พระบรมราชาน
พระบรมราชโองการ
พระบรมราชโองการโปรดเกล
พระบรมวงศาน
พระบรมสาร
พระบาท
พระบาทสมเด
พระป
พระปร
พระประว
พระประส
พระปรางค
พระปล
พระผ
พระพ
พระภ
พระภาคเจ
พระมงก
พระมหากษ
พระมหาอ
พระมเหส
พระยา
พระยาจ
พระยาน
พระยาพ
พระยาว
พระยาศร
พระยาส
พระยาอ
พระร
พระราช
พระราชก
พระราชกรณ
พระราชกฤษฎ
พระราชดำร
พระราชทาน
พระราชทานปร
พระราชทานพระบรมราชาน
พระราชทานส
พระราชทานเคร
พระราชทานเพล
พระราชทานเหร
พระราชธ
พระราชน
พระราชบ
พระราชประว
พระราชประสงค
พระราชพ
พระราชพงศาวดารกร
พระราชล
พระราชว
พระราชวงศ
พระราชส
พระราชสมภพ
พระราชสวาม
พระราชโองการให
พระราชโอรส
พระราชโอรสองค
พระราม
พระล
พระว
พระวรราชเทว
พระวรวงศ
พระศ
พระศร
พระส
พระสงฆ
พระสม
พระสวาม
พระห
พระอ
พระองค
พระอธ
พระอน
พระอภ
พระอาจารย
พระอาท
พระอารามหลวง
พระอารามหลวงช
พระเก
พระเจ
พระเจด
พระเชษฐภค
พระเป
พระเมร
พระเยซ
พระเยโฮวาห
พระแก
พระแม
พระโพธ
พระโอรส
พระโอรสธ
พระโอรสองค
พระโอรสและธ
พระไตรป
พราหมณ
พฤต
พฤศจ
พฤษภาคม
พฤห
พล
พลต
พลตร
พลตำรวจตร
พลตำรวจเอก
พลตำรวจโท
พลท
พลว
พลศ
พลอด
พลอย
พลอากาศเอก
พละกำล
พลาซ
พลาสต
พลเม
พลเร
พลเอก
พลโท
พว
พวก
พวกก
พวกข
พวกท
พวกน
พวกพ
พวกม
พวกอ
พวกเข
พวกเขา
พวกเขาก
พวกเขาจ
พวกเขาต
พวกเขาถ
พวกเขาม
พวกเขาย
พวกเขาเป
พวกเขาได
พวกเขาไม
พวกเจ
พศ
พส
พสหร
พห
พหน
พหล
พหลโยธ
พอ
พอก
พอด
พอตเตอร
พอถ
พอท
พอพระท
พอย
พอร
พอล
พอลล
พอส
พอากาศ
พอากาศสหร
พอากาศอ
พอใจ
พอใจก
พอใจท
พอใจในโลก
พอได
พะเยา
พา
พาก
พากย
พากษ
พากษา
พากษาคด
พากษาให
พาณ
พาท
พาทย
พาทเร
พาน
พาย
พาร
พารากอน
พาราม
พาราล
พาล
พาวเวอร
พำน
พเข
พเจ
พเป
พเพ
พเพส
พเม
พเยอรม
พเร
พแห
พโซเว
พในป
พให
พใหญ
พได
พไทย
พไปต
ฟ
ฟก
ฟกาน
ฟซ
ฟต
ฟท
ฟฟ
ฟฟาน
ฟย
ฟยอดเย
ฟร
ฟรานซ
ฟล
ฟลอร
ฟลอเรนซ
ฟลาย
ฟลายเวท
ฟว
ฟวร
ฟส
ฟอ
ฟอกซ
ฟอง
ฟอน
ฟอร
ฟะฮ
ฟา
ฟาง
ฟาน
ฟาร
ฟาสซ
ฟาโรห
ฟเบ
ฟเฟ
ฟเวอร
ฟแลนด
ฟได
ภ
ภก
ภช
ภชลาศ
ภพ
ภร
ภรรยา
ภว
ภา
ภาค
ภาคกลาง
ภาคค
ภาคต
ภาคตะว
ภาคท
ภาคน
ภาคพ
ภาคภ
ภาคม
ภาคย
ภาคร
ภาคว
ภาคศาสตร
ภาคอ
ภาคเหน
ภาคเอเช
ภาคแรก
ภาคใต
ภาณ
ภาน
ภาพ
ภาพก
ภาพจ
ภาพด
ภาพต
ภาพถ
ภาพท
ภาพน
ภาพบ
ภาพพ
ภาพยนตร
ภาพร
ภาพรวม
ภาพล
ภาพส
ภาพสตร
ภาพหน
ภาพอ
ภาพเข
ภาพเหม
ภายนอก
ภายหล
ภายใต
ภายใน
ภายในบร
ภายในป
ภายในประด
ภายในม
ภายในว
ภายในส
ภายในห
ภายในอ
ภารก
ภาว
ภาวด
ภาวะ
ภาวะน
ภาวะแทรกซ
ภาษ
ภาษา
ภาษากร
ภาษาจ
ภาษาซ
ภาษาญ
ภาษาต
ภาษาท
ภาษาน
ภาษาบาล
ภาษาฝร
ภาษาร
ภาษาละต
ภาษาศาสตร
ภาษาส
ภาษาอ
ภาษาอาหร
ภาษาฮ
ภาษาเกาหล
ภาษาเยอรม
ภาษาไทย
ม
มก
มกร
มกราคม
มกล
มกว
มกองท
มการก
มการค
มการท
มการบ
มการผล
มการศ
มการส
มการเม
มการแข
มการใช
มกำล
มกำเน
มข
มของ
มของต
มของน
มของผ
มของร
มของอ
มค
มคนท
มคร
มครอง
มครองผ
มครองส
มคล
มคว
มควบค
มความต
มความร
มความเป
มความเร
มความเส
มความแข
มคอตเอชด
มง
มงก
มงคล
มงวด
มงาน
มจ
มจะต
มจะม
มจะได
มจาก
มจากข
มฉ
มช
มชน
มชนท
มชนบ
มชนว
มชนะเล
มชนเม
มชาต
มชาย
มซ
มณ
มณฑล
มณฑลทหารบกท
มด
มดนตร
มดวง
มดาว
มดำ
มดำเน
มต
มตะว
มถ
มท
มทร
มทอง
มทำให
มธ
มธาน
มน
มนต
มนตร
มนาสต
มนาฬ
มบ
มบร
มบวร
มบาร
มป
มปฏ
มปทาน
มปร
มประต
มประท
มประส
มผ
มผล
มฝ
มพ
มพงศาวดาร
มพร
มพระชนมพรรษา
มพระเก
มพล
มพว
มพวง
มพวา
มพา
มพานต
มฟ
มภ
มภวาป
มภาพ
มภาษณ
มภาษาอ
มม
มมลพ
มมองท
มมองบ
มมะ
มมา
มมาก
มมากกว
มมากข
มมาน
มมาร
มมาส
มย
มยอดเย
มร
มรณภาพ
มรดกโลก
มรวมเพลง
มรส
มรองชนะเล
มระด
มระหว
มฤทธ
มล
มลพ
มลม
มละ
มละลาย
มลาย
มว
มวยปล
มวยไทย
มวาง
มศ
มส
มสต
มสน
มสภาผ
มสม
มสมองอ
มสมาช
มสร
มสลาย
มสลายของจ
มสว
มสาย
มสาระการเร
มสำหร
มสเตอร
มสโมสรฟ
มห
มหญ
มหน
มหม
มหร
มหล
มหา
มหาจ
มหาช
มหาชน
มหาดเล
มหาธาต
มหาน
มหาบ
มหาภ
มหามงคลเฉล
มหาราช
มหาว
มหาศ
มหาส
มหาสม
มหาสารคาม
มหาอ
มหาอำมาตย
มหาโพธ
มอ
มองค
มองซ
มองว
มองเห
มองโกเล
มองไม
มอญ
มอด
มอน
มอนด
มอนต
มอนท
มอนร
มอนสเตอร
มอบรางว
มอบหมาย
มอบหมายให
มอบให
มอย
มอร
มอลล
มอส
มอสโก
มออกอากาศต
มอาคาร
มอาช
มอาย
มอาร
มอารมณ
มอเตอร
มฮ
มฮอตสเปอร
มะ
มะน
มะพร
มะม
มะล
มะส
มะอ
มะฮ
มะเข
มะเม
มะเร
มะเส
มะแม
มะโรง
มา
มาก
มากกว
มากข
มากซ
มากถ
มากท
มากน
มากมาย
มากย
มากร
มากรรม
มากว
มากเก
มากเป
มาข
มาของช
มาค
มาคร
มาจ
มาจนถ
มาจาก
มาจากการเล
มาจากคำว
มาจากช
มาจากท
มาจากภาษากร
มาช
มาซ
มาซาก
มาณ
มาณท
มาณน
มาด
มาดร
มาดาก
มาต
มาตร
มาตรฐาน
มาตรา
มาถ
มาท
มาธ
มาน
มานพ
มาบ
มาประช
มาพ
มาพร
มาม
มาย
มายา
มาร
มารดา
มารดาช
มารวมก
มาราม
มารแห
มาล
มาลา
มาลาก
มาว
มาศ
มาส
มาสค
มาสด
มาสร
มาสเตอร
มาห
มาอ
มาอย
มาเก
มาเข
มาเป
มาเพ
มาเม
มาเย
มาเร
มาเล
มาเลเซ
มาเอดะ
มาแต
มาแล
มาใช
มาให
มาได
มเก
มเกล
มเข
มเค
มเคร
มเคล
มเง
มเจ
มเจร
มเช
มเซ
มเซลล
มเด
มเต
มเท
มเน
มเบ
มเบร
มเบอร
มเป
มเปล
มเปอร
มเพ
มเพลง
มเพลงในป
มเฟ
มเม
มเมอร
มเย
มเร
มเล
มเว
มเวท
มเศร
มเส
มเสร
มเห
มเหง
มเหน
มเหม
มเหล
มเหลว
มเหส
มเอ
มเอช
มเอนเตอร
มเอส
มแก
มแข
มแจ
มแชมป
มแต
มแบ
มแบน
มแบร
มแปนซ
มแพ
มแพร
มแม
มแรก
มแรกท
มแล
มและพ
มและม
มแสง
มแห
มแอลกอฮอล
มโค
มโจมต
มโดย
มโดยพระราชบ
มโนท
มโบ
มโพธ
มโฟน
มโรงเร
มโลก
มใจ
มใช
มใต
มใน
มในช
มในป
มในว
มในเด
มใส
มให
มใหญ
มใหม
มได
มไทย
มไบ
มไป
มไปด
มไพร
มไม
มไว
มๆ
ย
ยก
ยกก
ยกกล
ยกกองท
ยกข
ยกค
ยกช
ยกฐานะเป
ยกด
ยกต
ยกท
ยกน
ยกบ
ยกป
ยกประช
ยกผ
ยกพ
ยกม
ยกย
ยกร
ยกระด
ยกล
ยกลาง
ยกว
ยกส
ยกอ
ยกอย
ยกา
ยการ
ยการจ
ยการศ
ยการส
ยการอาช
ยกำล
ยกเก
ยกเข
ยกเป
ยกเล
ยกเว
ยกใช
ยกให
ยกได
ยข
ยของ
ยของจ
ยของผ
ยของพระบาทสมเด
ยของพระองค
ยของพระเจ
ยของร
ยของส
ยของสมเด
ยขอนแก
ยค
ยคต
ยคร
ยความร
ยง
ยงก
ยงกล
ยงข
ยงของ
ยงค
ยงคนเด
ยงคร
ยงคล
ยงคำ
ยงจ
ยงช
ยงชน
ยงซ
ยงด
ยงดนตร
ยงดาว
ยงต
ยงตอบร
ยงตามลำด
ยงถ
ยงท
ยงทอง
ยงธรรม
ยงน
ยงบ
ยงป
ยงประชามต
ยงผ
ยงพ
ยงพย
ยงพระองค
ยงพอ
ยงพอต
ยงพอท
ยงพากย
ยงภาพ
ยงม
ยงมากท
ยงย
ยงยอดเย
ยงยาง
ยงร
ยงราย
ยงล
ยงลำด
ยงลำพ
ยงว
ยงวรรณย
ยงศ
ยงส
ยงสน
ยงสป
ยงสระ
ยงสา
ยงห
ยงหน
ยงหร
ยงหล
ยงอ
ยงอย
ยงฮ
ยงเก
ยงเข
ยงเคร
ยงเจ
ยงเช
ยงเด
ยงเท
ยงเป
ยงเพ
ยงเพลง
ยงเม
ยงเร
ยงเล
ยงเส
ยงเหน
ยงเหม
ยงแก
ยงแค
ยงแต
ยงแล
ยงแสน
ยงแห
ยงโด
ยงโดย
ยงใจย
ยงใด
ยงใต
ยงในห
ยงให
ยงใหม
ยงไกร
ยงได
ยงไม
ยงไว
ยงไฮ
ยจ
ยจะม
ยช
ยชนะ
ยชนะท
ยชนะเหน
ยซ
ยญ
ยญกษาปณ
ยญการแข
ยญจ
ยญช
ยญด
ยญท
ยญทอง
ยญทองแดง
ยญทองโอล
ยญธรรม
ยญพ
ยญร
ยญรางว
ยญราชการชายแดน
ยญล
ยญสหร
ยญเง
ยณอาย
ยด
ยดก
ยดช
ยดด
ยดต
ยดท
ยดนาม
ยดนามท
ยดนามเหน
ยดนามใต
ยดม
ยดส
ยดอ
ยดาย
ยดเก
ยดเบ
ยดเป
ยดเพ
ยต
ยตท
ยตะว
ยตได
ยถ
ยท
ยทร
ยทางว
ยธ
ยธรรม
ยธรรมชาต
ยธรรมศาสตร
ยธรรมาธ
ยธาน
ยน
ยนก
ยนกร
ยนกล
ยนการ
ยนการสอน
ยนการสอนในระด
ยนข
ยนค
ยนคร
ยนความค
ยนความร
ยนจ
ยนช
ยนชาวอ
ยนชาวอเมร
ยนชาวไทย
ยนซ
ยนด
ยนต
ยนถ
ยนท
ยนทอง
ยนทาง
ยนน
ยนนวน
ยนนวม
ยนนา
ยนนานาชาต
ยนนายร
ยนนายเร
ยนบ
ยนบด
ยนบท
ยนบทความ
ยนบทภาพยนตร
ยนบทโดย
ยนป
ยนปร
ยนประจำจ
ยนประถมศ
ยนประว
ยนผ
ยนฝ
ยนพ
ยนพร
ยนพรรคการเม
ยนพระปร
ยนฟ
ยนภาษาอ
ยนม
ยนมา
ยนมาร
ยนมาเป
ยนมาใช
ยนย
ยนร
ยนระด
ยนระหว
ยนราช
ยนราชว
ยนราษฎร
ยนล
ยนว
ยนศ
ยนศร
ยนส
ยนสตร
ยนสวนก
ยนสาธ
ยนสำหร
ยนห
ยนหญ
ยนหน
ยนหม
ยนหร
ยนหล
ยนหาดใหญ
ยนอ
ยนอน
ยนอย
ยนอร
ยนฮ
ยนา
ยนาท
ยนานาชาต
ยนเก
ยนเกมส
ยนเข
ยนเคร
ยนเจ
ยนเช
ยนเซนต
ยนเด
ยนเต
ยนเตร
ยนเท
ยนเทพศ
ยนเทศบาล
ยนเน
ยนเบ
ยนเบญจมราช
ยนเป
ยนเพ
ยนเม
ยนเร
ยนเรศวร
ยนเล
ยนเส
ยนเสนาธ
ยนแต
ยนแบบ
ยนแปลง
ยนแปลงการปกครอง
ยนแปลงช
ยนแปลงท
ยนแปลงน
ยนแปลงร
ยนแปลงสภาพภ
ยนแปลงอย
ยนแปลงเขตตำบลในท
ยนแปลงได
ยนแพทย
ยนแล
ยนแห
ยนแอร
ยนโดย
ยนโรงเร
ยนในความร
ยนในจ
ยนในช
ยนในตลาดหล
ยนในบ
ยนในป
ยนในพ
ยนในระด
ยนในว
ยนในส
ยนในโรงเร
ยนให
ยนใหญ
ยนใหม
ยนได
ยนไป
ยนไปน
ยนไปเป
ยนไปใช
ยนไม
ยนไว
ยบ
ยบก
ยบข
ยบคะแนนจากการเล
ยบง
ยบด
ยบต
ยบท
ยบน
ยบบร
ยบผ
ยบพล
ยบร
ยบว
ยบเค
ยบเคร
ยบเท
ยบเป
ยบเร
ยบเสม
ยบเหม
ยบได
ยป
ยประช
ยประมาณ
ยผ
ยฝ
ยพ
ยพงษ
ยพยาบาลบรมราชชนน
ยพร
ยพระบาทสมเด
ยพระเจ
ยพฤกษ
ยพล
ยพะเยา
ยพาย
ยฟ
ยภ
ยภาษ
ยภาษาอ
ยภาษาไทย
ยม
ยมก
ยมข
ยมค
ยมความพร
ยมงคล
ยมจ
ยมช
ยมซ
ยมณ
ยมด
ยมต
ยมถ
ยมท
ยมทหาร
ยมน
ยมบ
ยมปฏ
ยมประจำเด
ยมประเพณ
ยมปล
ยมปากแม
ยมผ
ยมพ
ยมพร
ยมม
ยมมากท
ยมย
ยมร
ยมราฐ
ยมล
ยมว
ยมศ
ยมส
ยมสำหร
ยมห
ยมหร
ยมหาจ
ยมหามก
ยมหาสารคาม
ยมอ
ยมอย
ยมาก
ยมากกว
ยมากข
ยมเข
ยมเช
ยมเป
ยมเพ
ยมเย
ยมเร
ยมเล
ยมแห
ยมโซเว
ยมใช
ยมในหม
ยมให
ยมได
ยมไว
ยย
ยยศ
ยยศเป
ยร
ยรต
ยรภาพ
ยรส
ยระด
ยระหว
ยราชนาร
ยราชภ
ยราชวงศ
ยรามคำแหง
ยล
ยลม
ยลล
ยว
ยวก
ยวกล
ยวข
ยวค
ยวคร
ยวงศ
ยวงษ
ยวจ
ยวช
ยวชาญ
ยวชาญด
ยวซ
ยวด
ยวต
ยวถ
ยวท
ยวทาโร
ยวน
ยวบ
ยวป
ยวผ
ยวพ
ยวม
ยวมะ
ยวย
ยวร
ยวรม
ยวล
ยวว
ยวศร
ยวส
ยวห
ยวหน
ยวหร
ยวอ
ยวอย
ยวะ
ยวะท
ยวะส
ยวเข
ยวเช
ยวเด
ยวเท
ยวเน
ยวเป
ยวเพ
ยวเม
ยวเร
ยวเล
ยวเส
ยวเหล
ยวเอ
ยวแก
ยวและก
ยวแห
ยวโกะ
ยวโต
ยวในจ
ยวให
ยวได
ยวไม
ยศ
ยศด
ยศย
ยศร
ยศาสตร
ยศเป
ยส
ยสงขลานคร
ยสงคราม
ยสงครามโลกคร
ยสงฆ
ยสต
ยสท
ยสม
ยสมรภ
ยสมเด
ยสร
ยสำค
ยสำหร
ยห
ยหน
ยหม
ยหร
ยหล
ยหว
ยหาย
ยหายต
ยหายท
ยหายอย
ยหายแก
ยหายให
ยอ
ยอง
ยอด
ยอดขาย
ยอดจำหน
ยอดน
ยอดผ
ยอดมน
ยอดร
ยอดเย
ยอน
ยอนเซ
ยอม
ยอมร
ยอมแพ
ยอมให
ยอย
ยอร
ยออกซฟอร
ยอา
ยอาคเนย
ยอาช
ยอำนาจตามความในมาตรา
ยฮ
ยฮาร
ยฯ
ยะ
ยะก
ยะดา
ยะท
ยะร
ยะลา
ยะห
ยะอ
ยะฮ
ยา
ยาก
ยากท
ยากร
ยากล
ยาค
ยาง
ยางค
ยางคศ
ยาฉะ
ยาช
ยาซ
ยาซาก
ยาด
ยาต
ยาท
ยาน
ยานนท
ยาบ
ยาปฏ
ยาภรณ
ยาม
ยามท
ยามว
ยามะ
ยามาโมโตะ
ยาย
ยายช
ยายท
ยายว
ยายอ
ยายเร
ยาร
ยาราม
ยาล
ยาว
ยาวกว
ยาวท
ยาวประมาณ
ยาส
ยาห
ยาอ
ยาเคม
ยาเสพต
ยาแก
ยเก
ยเกษตรศาสตร
ยเกษตรและเทคโนโลย
ยเข
ยเคมบร
ยเง
ยเจ
ยเจร
ยเฉล
ยเช
ยเซ
ยเด
ยเต
ยเตอร
ยเท
ยเทคน
ยเทคโนโลย
ยเน
ยเป
ยเปร
ยเพ
ยเม
ยเยาว
ยเร
ยเล
ยเส
ยเหน
ยเหม
ยเหล
ยเอ
ยเอง
ยแก
ยแค
ยแคล
ยแชมป
ยแต
ยแบ
ยแปซ
ยแพทยศาสตร
ยแม
ยแรก
ยแล
ยและน
ยและนว
ยและพ
ยและม
ยและร
ยและอ
ยและเฮอร
ยแห
ยแอร
ยโก
ยโน
ยโบราณ
ยโลก
ยโลกฤด
ยโสธร
ยใจ
ยใช
ยใต
ยใน
ยในช
ยในท
ยในป
ยในย
ยในว
ยในเด
ยในโอล
ยให
ยใหม
ยได
ยไทย
ยไป
ยไปย
ยไม
ยไว
ร
รก
รการ
รงค
รจ
รฉ
รช
รญาณวโรรส
รณ
รณปฏ
รณรงค
รณะ
รณะว
รณาการ
รณาญาส
รด
รต
รตซ
รถ
รถจ
รถด
รถต
รถถ
รถท
รถบ
รถบรรท
รถยนต
รถโดยสารประจำทาง
รถไฟ
รถไฟช
รถไฟท
รถไฟฟ
รถไฟใต
รท
รน
รนต
รนาม
รนาร
รบ
รบก
รป
รพ
รพงษ
รพล
รพา
รฟม
รภ
รม
รมย
รย
รร
รว
รวงศ
รวด
รวดเร
รวม
รวมก
รวมต
รวมถ
รวมท
รวมผลสองน
รวมม
รวมร
รวมศ
รวมส
รวมอย
รวมอาย
รวมเข
รวมเป
รวมเร
รวมไปถ
รวรรณ
รศ
รษะ
รส
รสชาต
รห
รอ
รอง
รองชนะเล
รองนายกร
รองประธานาธ
รองผ
รองร
รองศาสตราจารย
รองห
รองอ
รองอธ
รองเจ
รองเท
รองเลขาธ
รองแชมป
รอด
รอดช
รอดพ
รอน
รอบ
รอบก
รอบค
รอบจ
รอบช
รอบต
รอบท
รอบน
รอบภ
รอบรองชนะเล
รอบส
รอบสอง
รอบเพลย
รอบแบ
รอบแพ
รอบแรก
รอย
รอยร
รอร
รอว
รอส
รอสส
รอาน
รอเบ
ระ
ระก
ระกา
ระฆ
ระง
ระช
ระด
ระท
ระน
ระนอง
ระบ
ระบบ
ระบบข
ระบบขนส
ระบบควบค
ระบบด
ระบบท
ระบบน
ระบบป
ระบบปฏ
ระบบร
ระบบส
ระบบอ
ระพ
ระม
ระย
ระยอง
ระยะ
ระยะท
ระยะทาง
ระยะทางประมาณ
ระยะส
ระยะห
ระยะหน
ระยะเวลา
ระล
ระว
ระศ
ระส
ระหว
ระอ
ระเบ
ระได
รา
ราก
รากศ
รากแก
ราค
ราคา
ราคาถ
ราคาส
ราง
รางค
รางว
ราจ
ราช
ราชก
ราชการ
ราชดำเน
ราชท
ราชน
ราชนาว
ราชบ
ราชพยาบาล
ราชภ
ราชมงคล
ราชมงคลล
ราชย
ราชร
ราชว
ราชวงศ
ราชส
ราชสก
ราชสมบ
ราชสำน
ราชอาณาจ
ราชฯ
ราชา
ราชาธ
ราชาภ
ราชเจ
ราซ
ราณ
ราด
ราตร
ราธ
ราน
ราบ
ราบล
ราบส
ราพ
ราฟ
ราฟาเอล
ราม
รามางก
รามาธ
ราย
รายการ
รายการท
รายการน
รายการว
รายการอ
รายการแข
รายการโทรท
รายงาน
รายงานการประช
รายงานข
รายงานผ
รายงานว
รายจ
รายช
รายน
รายนามผ
รายนามเจ
รายละเอ
รายว
รายส
รายเขตเล
รายได
ราร
ราล
ราลงกรณ
ราว
ราวก
ราวป
ราศ
ราษฎร
ราห
ราอ
ราเค
รำล
รเกล
รเดช
ฤ
ฤกษ
ฤด
ฤทธ
ฤๅษ
ล
ลก
ลกร
ลกระหม
ลกล
ลกอร
ลกากร
ลการ
ลข
ลของ
ลของน
ลของพ
ลของส
ลค
ลคร
ลคว
ลคอมพ
ลคอร
ลง
ลงคะแนน
ลงช
ลงต
ลงท
ลงทะเบ
ลงม
ลงมต
ลงร
ลงว
ลงสม
ลงเขา
ลงเร
ลงเล
ลงแข
ลงได
ลจ
ลจอมเกล
ลจาก
ลจำเพาะ
ลช
ลชนะเล
ลชมเชย
ลซ
ลฐาน
ลด
ลดลง
ลดอร
ลดา
ลดาว
ลต
ลตร
ลถ
ลท
ลทซ
ลทร
ลทรรศน
ลธรรม
ลน
ลนาฏราช
ลบ
ลบร
ลบอทเท
ลบอร
ลป
ลปกรรม
ลปกรรมศาสตร
ลประจำส
ลปว
ลปศาสตร
ลปศาสตรบ
ลปศาสตรมหาบ
ลปอาชา
ลปะ
ลปะการต
ลปะการแสดง
ลปะท
ลปะร
ลปะล
ลปะสม
ลปะอ
ลปะและว
ลปากร
ลปากรได
ลปาคม
ลผ
ลพ
ลพบ
ลพระกร
ลพระราชทาน
ลพระเจ
ลพาท
ลพาราล
ลฟ
ลฟอนโซท
ลฟอร
ลฟา
ลภ
ลภาพยนตร
ลม
ลมพ
ลมาดร
ลมาร
ลย
ลยศาสตร
ลยา
ลยาณ
ลยาณม
ลยเดช
ลยเดชมหาราช
ลยแพทย
ลร
ลรองชนะเล
ลระด
ลระหว
ลล
ลลภ
ลลอห
ลลอฮ
ลละอองธ
ลลา
ลลาร
ลลำด
ลว
ลวงศ
ลวา
ลวาดอร
ลศ
ลส
ลสงคราม
ลสว
ลสำหร
ลห
ลหน
ลหร
ลหล
ลอ
ลอง
ลองด
ลอตต
ลอน
ลอนดอน
ลอย
ลอยด
ลอร
ลอว
ลอส
ลอสแอนเจล
ลออสการ
ลอะซ
ลฮ
ลฮาร
ละ
ละกล
ละข
ละค
ละคน
ละคร
ละครช
ละครซ
ละครท
ละครพ
ละครส
ละครเท
ละครเร
ละครเวท
ละครโทรท
ละจ
ละช
ละชน
ละด
ละต
ละท
ละน
ละบ
ละป
ละประเทศ
ละฝ
ละม
ละร
ละว
ละส
ละหน
ละอ
ละอย
ละเขตเล
ละเม
ละเอ
ละแห
ลา
ลาก
ลากจากตะว
ลาการ
ลาการร
ลาการศาลร
ลาคม
ลาจาร
ลาด
ลาดพร
ลาต
ลาท
ลาน
ลานนท
ลาม
ลาย
ลาร
ลาฤกษ
ลาล
ลาว
ลาศ
ลาส
ลาสเวก
ลาอ
ลาออก
ลาออกจากตำแหน
ลาอาสน
ลาเดลเฟ
ลาเวซ
ลาแลง
ลำ
ลำด
ลำต
ลำท
ลำน
ลำปาง
ลำพ
ลำห
ลำไส
ลเก
ลเกล
ลเข
ลเง
ลเจ
ลเช
ลเซ
ลเด
ลเดมาร
ลเดอร
ลเท
ลเทนน
ลเทอร
ลเบ
ลเบร
ลเบอร
ลเป
ลเพ
ลเฟรด
ลเม
ลเมขลา
ลเมเน
ลเร
ลเล
ลเลต
ลเลน
ลเลอร
ลเว
ลเวอร
ลเวเน
ลเส
ลเหต
ลเหร
ลเหล
ลเอ
ลเฮ
ลเฮล
ลแก
ลแกรมม
ลแกเร
ลแต
ลแบ
ลแบร
ลแมน
ลแรก
ลแล
ลแห
ลโด
ลโทรท
ลโนเบล
ลโล
ลโอล
ลในป
ลในส
ลให
ลใหญ
ลใหม
ลไซเมอร
ลได
ลไทย
ลไม
ลไฮเนส
ว
วก
วกร
วกระต
วกล
วกลาง
วกว
วการ
วข
วของ
วของด
วของต
วของท
วของน
วของผ
วของม
วของว
วของอ
วของเขา
วของโคว
วขาว
วค
วคร
วคราว
วคล
วควบค
วคาสเซ
วง
วงก
วงกล
วงกลางป
วงการบ
วงการปฏ
วงข
วงค
วงคร
วงจ
วงช
วงซ
วงด
วงดนตร
วงต
วงท
วงทศวรรษ
วงทศวรรษท
วงน
วงบ
วงป
วงปลายคร
วงปลายป
วงปลายเด
วงพ
วงม
วงย
วงร
วงระหว
วงฤด
วงล
วงละเม
วงว
วงศ
วงศตวรรษท
วงษ
วงส
วงสงครามโลกคร
วงสม
วงห
วงหน
วงหล
วงอ
วงอย
วงอาย
วงาม
วงเก
วงเข
วงเช
วงเด
วงเป
วงเร
วงเล
วงเว
วงเวลา
วงเวลาด
วงเวลาท
วงเวลาน
วงเวลาส
วงเวลาเด
วงแรก
วงโซ
วงได
วงไม
วจ
วจร
วจะต
วจะม
วจะเป
วจะได
วจะไม
วฉ
วช
วชน
วซ
วณ
วด
วดำ
วดำเน
วต
วตน
วตนจร
วตนท
วตบห
วตร
วตรอน
วตาย
วถ
วท
วทรงพระกร
วทอง
วทำให
วน
วนก
วนกล
วนกลาง
วนข
วนของ
วนของร
วนของหม
วนค
วนคำว
วนจ
วนช
วนซ
วนด
วนต
วนตำบล
วนตำบลท
วนตำบลบ
วนตำบลว
วนตำบลห
วนถ
วนท
วนทำให
วนน
วนบ
วนบร
วนป
วนประกอบ
วนประกอบท
วนผ
วนพ
วนพระมหากษ
วนพระองค
วนภ
วนม
วนมาก
วนมากม
วนมากเป
วนย
วนร
วนรวม
วนราชการ
วนราชการท
วนล
วนว
วนส
วนสำค
วนห
วนหน
วนหร
วนหล
วนอ
วนอย
วนะ
วนะคร
วนา
วนาราม
วนำยวดย
วนเก
วนเคร
วนเจ
วนเช
วนเด
วนเท
วนเน
วนเป
วนเพ
วนเม
วนเร
วนเส
วนแต
วนแบ
วนแล
วนโค
วนใน
วนให
วนใหญ
วนได
วนไม
วบ
วบร
วบล
วบา
วบาน
วป
วปร
วประก
วประมาณ
วประว
วประเทศ
วปล
วผ
วผล
วฝ
วพ
วพบว
วพร
วพระองค
วพระเจ
วฟ
วภ
วภาพ
วม
วมก
วมกล
วมการประกวดม
วมการประช
วมการแข
วมข
วมค
วมงาน
วมงานก
วมจ
วมช
วมด
วมต
วมถ
วมท
วมน
วมบ
วมบร
วมประช
วมประชาธ
วมผล
วมฝ
วมพ
วมม
วมร
วมส
วมสม
วมสร
วมห
วมอ
วมอย
วมาก
วมากกว
วมเข
วมเด
วมเป
วมเพศ
วมเล
วมแข
วมแสดงก
วมได
วย
วยก
วยกฎหมาย
วยกระเบ
วยกล
วยกองท
วยการก
วยการค
วยการจ
วยการต
วยการท
วยการบร
วยการป
วยการพ
วยการย
วยการร
วยการส
วยการสร
วยการเข
วยการเป
วยการเล
วยการใช
วยการให
วยกำล
วยข
วยขวาง
วยค
วยคร
วยคล
วยความช
วยความท
วยความม
วยความร
วยความส
วยความเป
วยความเร
วยคะแนน
วยคะแนนเส
วยคำว
วยงาน
วยงานของร
วยงานด
วยงานต
วยงานท
วยงานร
วยงานอ
วยงานในส
วยจ
วยช
วยซ
วยด
วยต
วยตนเอง
วยตาเปล
วยถ
วยท
วยทำให
วยน
วยนม
วยนะคร
วยบ
วยบร
วยป
วยปฏ
วยปร
วยผ
วยผล
วยผลประต
วยฝ
วยพ
วยพระราชทาน
วยพระราชทานประเภท
วยพระองค
วยพระเจ
วยพล
วยฟ
วยภ
วยม
วยย
วยร
วยรบพ
วยระเบ
วยรางว
วยล
วยว
วยศ
วยศาสตราจารย
วยส
วยสน
วยสมาช
วยสมเด
วยสร
วยสาเหต
วยห
วยหน
วยหม
วยหร
วยหล
วยอ
วยองค
วยอธ
วยอน
วยอย
วยอร
วยอาย
วยอาว
วยอำเภอเม
วยเก
วยเข
วยเคร
วยเง
วยเจ
วยเช
วยเซลล
วยเด
วยเต
วยเท
วยเน
วยเป
วยเพ
วยเพลง
วยเม
วยเร
วยเล
วยเลขาน
วยเส
วยเหต
วยเหล
วยเอ
วยแก
วยแต
วยแม
วยแล
วยโรคมะเร
วยให
วยไข
วยได
วยไฟฟ
วยไม
วยไว
วร
วรข
วรน
วรพ
วรรค
วรรคสอง
วรรคสาม
วรรคหน
วรรณ
วรรณกรรม
วรรณค
วรรณคด
วรรณภ
วรรณย
วรรณร
วรรณศ
วรรณาราม
วรว
วรส
วระหว
วราชอาณาจ
วราราม
วราว
วรเดช
วล
วลง
วละคร
วละครจากการ
วละครจากเร
วละครต
วละครท
วละครน
วละครหญ
วละครหล
วละครอ
วละครในบ
วลาด
วลาล
วลำภ
วลำโพง
วว
วศ
วส
วสต
วสร
วสาย
วสำรอง
วสำหร
วห
วหน
วหนา
วหม
วหมาก
วหร
วหล
วหลวง
วอ
วอก
วอช
วอทช
วอน
วอย
วอยซ
วอร
วอล
วอลต
วอลล
วอลเตอร
วอลเลย
วอส
วออร
วอาย
วอเตอร
วฮ
วะ
วะระ
วา
วาก
วาง
วางจำหน
วางต
วางศ
วางใจ
วางไข
วางไว
วาซ
วาต
วาตานาเบะ
วาตาร
วาท
วาทก
วาน
วานนท
วาย
วาร
วาระ
วาระการดำรงตำแหน
วาล
วาส
วาสนา
วาสราชนคร
วาห
วาไรต
วเก
วเข
วเขา
วเขาก
วเคม
วเคร
วเคล
วเง
วเจ
วเจอร
วเฉ
วเช
วเซ
วเซย
วเซลล
วเซอร
วเซาท
วเด
วเดล
วเต
วเตมาลา
วเตอร
วเท
วเน
วเบ
วเป
วเปล
วเพ
วเม
วเร
วเรซ
วเราะ
วเล
วเลข
วเลขท
วเว
วเส
วเสด
วเสร
วเสายอดเย
วเห
วเหน
วเหม
วเหล
วเอ
วเอกของเร
วเอง
วเองก
วเองด
วเองท
วเองว
วเองอย
วเองเป
วเองเพ
วเองให
วเองได
วเอเช
วแก
วแดง
วแต
วแทน
วแทนท
วแน
วแปร
วแปรเสร
วแม
วแรก
วแล
วและม
วแห
วโก
วโคน
วโต
วโนสไอเรส
วโปรดเกล
วโมง
วโมงต
วโลก
วโลกท
วโลกส
วโลกเหน
วโลกใต
วใจ
วใจท
วใจร
วใจล
วใจส
วใจห
วใจเต
วใช
วใต
วใน
วในช
วในตอนท
วในท
วในป
วในภาพยนตร
วในว
วในอ
วในเด
วใส
วให
วใหญ
วใหม
วได
วไป
วไปก
วไปค
วไปด
วไปต
วไปท
วไปน
วไปม
วไปย
วไปร
วไปว
วไปอย
วไปเป
วไปแล
วไปได
วไปไม
วไฟฟ
วไม
วไว
วไหล
วๆ
ศ
ศก
ศการแข
ศจ
ศจรรย
ศณ
ศด
ศต
ศตวรรษ
ศตวรรษท
ศตะว
ศท
ศทาง
ศทางท
ศทางเด
ศน
ศนคต
ศนศ
ศนา
ศนาท
ศพ
ศฟ
ศม
ศย
ศร
ศรา
ศรางก
ศราน
ศล
ศลท
ศว
ศวกร
ศวกรรม
ศวกรรมศาสตร
ศวกรรมอ
ศวกรรมเคร
ศวกรรมโยธา
ศวกรรมไฟฟ
ศวง
ศวร
ศวาส
ศศ
ศส
ศหล
ศอ
ศอก
ศา
ศาจ
ศาจท
ศาล
ศาลจ
ศาลฎ
ศาลม
ศาลร
ศาลส
ศาลอ
ศาลาการเปร
ศาลเจ
ศาสตร
ศาสตรบ
ศาสตราจารย
ศาสน
ศาสนก
ศาสนสถาน
ศาสนา
ศาสนาคร
ศาสนาพ
ศาสนาอ
ศาสนาฮ
ศเป
ศเหน
ศแห
ศใต
ศให
ศได
ษ
ษจ
ษฎ
ษฏ
ษฐ
ษฐา
ษฐาธ
ษฐาน
ษฐานท
ษฐานพระพ
ษฐานว
ษฐานอย
ษฐานไว
ษณ
ษต
ษท
ษน
ษบา
ษผ
ษย
ษยชน
ษยชนแห
ษยชาต
ษยว
ษยศาสตร
ษยา
ษร
ษส
ษา
ส
สก
สกร
สกล
สกลนคร
สกว
สกอตต
สกอตแลนด
สกอร
สกา
สกายวอล
สการ
สข
สค
สคร
สคอนซ
สง
สงกรานต
สงขลา
สงคราม
สงครามกลางเม
สงครามคร
สงครามอ
สงครามเก
สงครามโลกคร
สงฆ
สงบ
สงส
สจ
สช
สซ
สซา
สด
สดาร
สดใส
สต
สตกาล
สตจ
สตธรรมค
สตร
สตอร
สตา
สตางค
สตาฟ
สตาร
สตาล
สถ
สถาน
สถานกงส
สถานการณ
สถานท
สถานศ
สถานะ
สถานะเป
สถานเอกอ
สถาบ
สถาป
สถาปน
สถาปนาข
สท
สทร
สธรรมชาต
สน
สนธ
สนาม
สนามก
สนามท
สนามบ
สนามฟ
สนามหลวง
สนามเหย
สนามแข
สนามแม
สนามแห
สนใจ
สบ
สบด
สบอน
สบาย
สป
สปร
สประเทศ
สปอร
สปาร
สผ
สพ
สพฐ
สพป
สพม
สฟ
สภา
สภากาชาดไทย
สภาจ
สภาท
สภาน
สภาผ
สภาพท
สภาพพ
สภาพภ
สภาพเป
สภาพแวดล
สภามหาว
สภาร
สภาว
สภาส
สภาแห
สม
สมก
สมค
สมควร
สมชาย
สมณศ
สมด
สมบ
สมพงษ
สมพร
สมภพ
สมม
สมมต
สมร
สมรภ
สมรส
สมรสก
สมศ
สมหว
สมอง
สมาคมก
สมาคมน
สมาคมผ
สมาคมฟ
สมาช
สมาธ
สมาน
สมาพ
สมาร
สมาอ
สมเก
สมเด
สมเหต
สย
สยองขว
สยา
สยาม
สยามก
สยามบรมราชก
สยามมก
สยามสแควร
สร
สรณ
สรน
สรพงศ
สรภาพ
สรรพค
สรรพส
สรรเสร
สระ
สระท
สระน
สระบ
สระแก
สรา
สราเอล
สราเอลท
สฤษด
สล
สละแชมป
สลา
สลาม
สลามอ
สลายต
สว
สวด
สวน
สวนก
สวนล
สวนส
สวนสน
สวมช
สวมเส
สวมใส
สวย
สวยงาม
สวร
สวรรค
สวรรคต
สวรรษท
สวางคว
สส
สสร
สสะ
สสาวะ
สสาอ
สห
สหกรณ
สหประชาชาต
สหพ
สหภาพย
สหภาพโซเว
สหร
สหราชอาณาจ
สหว
สหส
สอ
สอง
สองก
สองข
สองค
สองคร
สองช
สองต
สองท
สองน
สองป
สองพ
สองม
สองร
สองว
สองส
สองอย
สองเป
สอด
สอดคล
สอน
สอนว
สอนให
สอบได
สอบไล
สอย
สอร
สะ
สะด
สะดวก
สะต
สะท
สะพาน
สะพานข
สะพานม
สะอาด
สะเกษ
สะเด
สะเท
สะใภ
สา
สากล
สาขบ
สาขา
สาขาท
สาขาน
สาขาฟ
สาขาภาพยนตร
สาขาย
สาขาร
สาขาว
สาขาศ
สาขาส
สาขาอ
สาขาเคม
สาคร
สาธ
สาธารณร
สาธารณส
สาธารณะ
สาน
สานต
สานท
สาม
สามก
สามช
สามต
สามท
สามป
สามพ
สามม
สามว
สามส
สามารถ
สามารถก
สามารถกล
สามารถข
สามารถค
สามารถคว
สามารถควบค
สามารถจ
สามารถช
สามารถซ
สามารถด
สามารถดำเน
สามารถต
สามารถถ
สามารถท
สามารถทำให
สามารถทำได
สามารถบ
สามารถป
สามารถปฏ
สามารถปร
สามารถปล
สามารถผ
สามารถผล
สามารถพ
สามารถพบได
สามารถม
สามารถมองเห
สามารถย
สามารถร
สามารถรองร
สามารถระบ
สามารถว
สามารถส
สามารถสร
สามารถหมายถ
สามารถอ
สามารถอธ
สามารถเก
สามารถเข
สามารถเคล
สามารถเช
สามารถเด
สามารถเป
สามารถเปล
สามารถเพ
สามารถเร
สามารถเล
สามารถเห
สามารถแก
สามารถแบ
สามารถแปลงร
สามารถโจมต
สามารถใช
สามารถให
สามเณร
สามเส
สามเหล
สาย
สายการบ
สายการแข
สายท
สายน
สายพ
สายฟ
สายร
สายล
สายส
สายอ
สายเฉล
สายเล
สาร
สารก
สารคด
สารต
สารท
สารน
สารบ
สารพ
สารว
สารส
สารสนเทศ
สารสนเทศและการส
สาระ
สาระน
สาระสำค
สาราน
สารเคม
สาล
สาว
สาวน
สาวร
สาวๆ
สาหก
สาหร
สาเหต
สำค
สำน
สำร
สำราญ
สำหร
สำเน
สำเร
สำโรง
สเก
สเข
สเช
สเซ
สเซน
สเซล
สเซลล
สเซลส
สเซอร
สเซา
สเด
สเต
สเตช
สเตต
สเตฟาน
สเตร
สเตอร
สเตเด
สเท
สเบ
สเป
สเปซ
สเปน
สเปอร
สเปเช
สเพ
สเม
สเร
สเล
สเว
สเหน
สเอ
สแก
สแกรนด
สแควร
สแต
สแตนด
สแตนล
สแมคดาวน
สแลม
สแห
สโก
สโคโรนา
สโซ
สโต
สโตน
สโตร
สโตเต
สโตเฟอร
สโนว
สโมสร
สโมสรก
สโมสรท
สโมสรน
สโมสรฟ
สโมสรย
สโมสรวอลเลย
สโมสรอาช
สโมสรเอเช
สโมสรโลก
สโมสรได
สโลว
สโลวาเก
สโสล
สในป
สให
สได
สไตน
สไตรค
สไตล
สไทยแลนด
สไปเดอร
สไม
ห
หก
หง
หงษ
หงส
หงา
หญ
หท
หน
หนองคาย
หนองบ
หนา
หนาน
หนายก
หนาว
หนาวท
หนาแน
หม
หมด
หมดส
หมวด
หมวดหม
หมอช
หมอบร
หมากร
หมาป
หมายความว
หมายถ
หมายเลข
หมายเลขหน
หมายเหต
หย
หยวน
หยาง
หร
หรา
หล
หลง
หลงร
หลงเหล
หลบหน
หลวง
หลวงจ
หลวงป
หลวงพ
หลวงว
หลวงส
หลอดเล
หลา
หลากหลาย
หลาน
หลาบ
หลาบว
หลาย
หลายคน
หลายคร
หลายช
หลายชน
หลายต
หลายท
หลายป
หลายร
หลายว
หลายส
หลายอย
หลายเร
หลายแห
หว
หวง
หวาน
หอด
หอประช
หอพ
หอม
หอระฆ
หอศ
หอสม
หอสวดมนต
หอเก
หะระต
หา
หาก
หากค
หากต
หากท
หากผ
หากม
หากย
หากว
หากเป
หากแต
หากไม
หาง
หาดใหญ
หาท
หาน
หาม
หาย
หายต
หายสาบส
หายไป
หาร
หารก
หารการศ
หารงานการศ
หารจ
หารด
หารท
หารธ
หารน
หารบร
หารพ
หารพรรค
หารม
หารร
หารระด
หารราชการแผ
หารว
หารศาสตร
หารส
หารอ
หารเป
หารแห
หารโรงเร
หาได
หาไม
หเสนา
ฬ
ฬา
ฬาข
ฬาจ
ฬาซ
ฬาต
ฬาท
ฬาน
ฬาพาราล
ฬาฟ
ฬาภรณ
ฬาภรณราชว
ฬาภรณวล
ฬามหาว
ฬาย
ฬาร
ฬาล
ฬาลงกรณ
ฬาลงกรณราชว
ฬาว
ฬาวอลเลย
ฬาส
ฬาสก
ฬาสม
ฬาอ
ฬาฮอกก
ฬาฯ
ฬาเข
ฬาเทคว
ฬาเยาวชนแห
ฬาเร
ฬาเหร
ฬาเอเช
ฬาแห
ฬาโลก
ฬาโลกมหาราช
ฬาโอล
ฬาในจ
ฬาในร
ฬาในโอล
อ
อก
อกก
อกข
อกค
อกจ
อกช
อกซ
อกด
อกต
อกท
อกน
อกนายกร
อกบ
อกบทความ
อกปฏ
อกผ
อกพ
อกม
อกย
อกยอดเย
อกร
อกรก
อกรณ
อกรอบสอง
อกรอบสาม
อกรอบแรก
อกระด
อกระต
อกระหว
อกล
อกลอง
อกว
อกวน
อกษ
อกส
อกสมาช
อกสำหร
อกห
อกหน
อกหร
อกอ
อกองท
อกอย
อกฮ
อการ
อการก
อการกำเร
อการค
อการจ
อการด
อการดำเน
อการต
อการถ
อการท
อการน
อการบ
อการบร
อการป
อการปฏ
อการผล
อการพ
อการม
อการย
อการร
อการว
อการศ
อการส
อการสร
อการอ
อการอน
อการเก
อการเข
อการเคล
อการเด
อการเป
อการเปล
อการเม
อการเร
อการเล
อการแก
อการแข
อการแพทย
อการใช
อการให
อการได
อกำจ
อกำป
อกำล
อกำหนด
อกำเน
อกเก
อกเกอร
อกเข
อกเขาห
อกเขาแอลป
อกเตอร
อกเป
อกเพ
อกเย
อกเร
อกเล
อกเส
อกแข
อกและเคร
อกแอนด
อกโก
อกโดย
อกโฮล
อกใช
อกให
อกได
อกไม
อกไว
อข
อขนส
อขนาดใหญ
อของ
อของค
อของจ
อของช
อของต
อของท
อของน
อของบ
อของผ
อของม
อของย
อของร
อของล
อของว
อของส
อของอ
อของเขา
อของเม
อขอให
อขาย
อค
อคก
อคณะร
อคด
อคต
อคน
อคนท
อคนอ
อคนแรก
อคร
อครอบคร
อคล
อควบค
อความ
อความข
อความค
อความด
อความต
อความท
อความน
อความปลอดภ
อความผ
อความม
อความร
อความว
อความส
อความอ
อความเข
อความเช
อความเป
อความเส
อความไม
อคำว
อคำส
อคแมน
อฆ
อง
องก
องกง
องกร
องกระส
องกล
องกลายเป
องกว
องกาญจนบ
องการ
องการค
องการจ
องการด
องการต
องการท
องการปกครอง
องการพ
องการม
องการร
องการส
องการสร
องการอ
องการเข
องการเป
องการเปล
องการเพ
องการใช
องการให
องการได
องกาฬส
องกำเน
องกำแพงเพชร
องข
องขอ
องของ
องของท
องของผ
องของอ
องขอนแก
องขอให
องค
องคด
องคมนตร
องคร
องคล
องคลอด
องควบค
องความร
องคอมพ
องคำน
องง
องจ
องจร
องจราจร
องจาก
องจากก
องจากข
องจากค
องจากช
องจากต
องจากถ
องจากท
องจากน
องจากป
องจากผ
องจากพ
องจากม
องจากย
องจากร
องจากว
องจากส
องจากอ
องจากเก
องจากเป
องจากเหต
องจากได
องจากไม
องฉ
องฉะเช
องช
องชลบ
องชาย
องชาวอ
องชาวอเมร
องชาวเกาหล
องชาวไทย
องซ
องฌ
องญ
องด
องดนตร
องดำเน
องต
องตกเป
องตร
องตระก
องตาก
องถ
องท
องทร
องทอง
องทองธาน
องทางเด
องทำให
องธ
องน
องนคร
องนครจำปาศ
องนครพนม
องนครราชส
องนครศร
องนครสวรรค
องนนทบ
องนางเธอ
องนำ
องนำทาง
องบ
องบร
องป
องปกต
องปฏ
องปร
องประช
องประด
องประสาน
องประสานเส
องปราจ
องปล
องผ
องผล
องฝ
องฝร
องพ
องพบก
องพม
องพร
องพระพ
องพล
องพะเยา
องฟ
องภ
องม
องมหาสารคาม
องมะร
องมาก
องมากท
องมาจากพระราชดำร
องมาร
องย
องยนต
องยาเธอ
องยโสธร
องร
องระด
องระนอง
องระบ
องระวางโทษจำค
องระวางโทษปร
องระหว
องราชบ
องราชอ
องราว
องราวของ
องราวต
องราวท
องราวเก
องล
องลพบ
องลำปาง
องลำพ
องว
องศ
องศร
องศา
องศาตะว
องศาเซลเซ
องศาเหน
องศาใต
องส
องสก
องสกลนคร
องสงขลา
องสงส
องสต
องสตร
องสนามหลวง
องสม
องสร
องสระบ
องสว
องสอน
องสามก
องสาว
องสำค
องสำหร
องสำอาง
องห
องหญ
องหน
องหนองคาย
องหม
องหมาย
องหมายการค
องหมายเลข
องหย
องหร
องหล
องหลวง
องหลวงของจ
องหลวงของร
องหลวงพระบาง
องอ
องอก
องอกร
องอย
องออกจากการแข
องอาศ
องอเมร
องฮ
องเก
องเข
องเค
องเคร
องเคล
องเง
องเจ
องเช
องเซ
องเด
องเต
องเถ
องเท
องเทศ
องเน
องเป
องเปล
องเผช
องเพ
องเพชรบ
องเพลง
องเพลงล
องเม
องเร
องเล
องเลย
องเว
องเส
องเสด
องเสร
องเห
องเหน
องเหม
องเหล
องเอ
องแก
องแข
องแคล
องแจ
องแต
องแบ
องแบบน
องแพร
องแม
องแร
องแรก
องแรกค
องแรกท
องแล
องและน
องและส
องแสง
องแห
องโดย
องโทรท
องโทรทรรศน
องโบราณ
องโลก
องใช
องใด
องใต
องใน
องในจ
องในช
องในป
องในประเทศอ
องในร
องในว
องในแคว
องใส
องให
องใหญ
องใหม
องไซ
องได
องไทย
องไทยท
องไทรบ
องไปย
องไม
องไว
องไห
องๆ
อจ
อจร
อจะต
อจะม
อจะเป
อจะให
อจะได
อจาก
อจากท
อจากน
อจำก
อจำหน
อฉ
อฉบ
อช
อชน
อชาต
อชาวบ
อซ
อญ
อญาต
อด
อดก
อดด
อดต
อดท
อดน
อดม
อดร
อดส
อดสมอง
อดห
อดอ
อดอล
อดาบฟ
อดาว
อดำ
อดำน
อดำเน
อดเน
อดเป
อดแดง
อต
อตกลงก
อตซ
อตต
อตร
อตระก
อตอน
อตอนท
อตอบสนองต
อตา
อตามท
อตารางก
อตำแหน
อตแลนด
อถ
อถกเถ
อท
อทร
อทว
อทอง
อทางการค
อทางว
อทางเศรษฐก
อทำหน
อทำให
อธ
อธรรมชาต
อน
อนก
อนกรกฎาคม
อนกล
อนกว
อนการปฏ
อนการแก
อนการแข
อนกำล
อนข
อนของ
อนค
อนคร
อนจ
อนจร
อนจะกล
อนจะถ
อนจะม
อนจะย
อนจะเป
อนจะได
อนจำ
อนช
อนชาวไทย
อนซ
อนด
อนต
อนตำแหน
อนถ
อนท
อนธ
อนน
อนบ
อนบอล
อนป
อนประว
อนผ
อนฝ
อนพ
อนพฤศจ
อนพฤษภาคม
อนภ
อนม
อนมกราคม
อนมน
อนมาก
อนย
อนร
อนรองชนะเล
อนระหว
อนล
อนละ
อนว
อนศ
อนส
อนสต
อนสน
อนสม
อนสาม
อนห
อนหน
อนหย
อนหร
อนหล
อนอ
อนอย
อนาค
อนาคต
อนาท
อนาม
อนายกร
อนายทะเบ
อนเก
อนเข
อนเจ
อนเช
อนเด
อนเต
อนเท
อนเน
อนเบ
อนเป
อนเพ
อนเพล
อนเม
อนเมษายน
อนเร
อนเล
อนเส
อนเหล
อนแก
อนแต
อนแม
อนแล
อนแห
อนแอ
อนโยน
อนใจ
อนให
อนใหม
อนไข
อนไขท
อนไขว
อนได
อนไต
อนไม
อนไว
อนไหว
อนไหวต
อนไหวท
อนไหวทางการเม
อนไหวได
อนๆ
อบ
อบกพร
อบจ
อบด
อบต
อบถ
อบท
อบทความ
อบทความว
อบบ
อบร
อบรรท
อบล
อบส
อบอ
อบางคร
อบางส
อป
อปกป
อปฏ
อปท
อปป
อปร
อประจ
อประชาชน
อประชาธ
อประด
อประต
อประท
อประมาณ
อประว
อประเทศ
อประเม
อประโยชน
อปล
อปลายป
อปส
อปเปอร
อปโมเดล
อปไลน
อผ
อผล
อผลประโยชน
อฝ
อฝร
อพ
อพน
อพบก
อพม
อพยพเข
อพร
อพระชนมาย
อพระท
อพระบาทสมเด
อพระพ
อพระมหากษ
อพระราชบ
อพระวงศ
อพระองค
อพระเจ
อพฤต
อพล
อพาย
อฟ
อภ
อภาพยนตร
อภาษาอ
อม
อมก
อมกร
อมกล
อมข
อมค
อมความกดอากาศต
อมจ
อมฉ
อมช
อมซ
อมด
อมต
อมถ
อมท
อมน
อมบ
อมบำร
อมป
อมปราบศ
อมผ
อมพ
อมม
อมย
อมร
อมรอบ
อมรอบด
อมระหว
อมราชวงศ
อมล
อมว
อมวลชน
อมส
อมสำหร
อมห
อมหญ
อมหน
อมหาว
อมอ
อมอย
อมะเร
อมา
อมาก
อมากกว
อมากลายเป
อมาค
อมาจ
อมาจนถ
อมาจาก
อมาช
อมาด
อมาต
อมาตยก
อมาตรา
อมาถ
อมาท
อมาน
อมาป
อมาพ
อมาภายหล
อมาม
อมาย
อมาร
อมาว
อมาหล
อมาอ
อมาเขาได
อมาเจ
อมาเธอได
อมาเป
อมาเปล
อมาเม
อมาเร
อมาใน
อมาในการเล
อมาในช
อมาในป
อมาในร
อมาในว
อมาในสม
อมาในเด
อมาได
อมาไม
อมเก
อมเกล
อมเข
อมเคร
อมเจ
อมเป
อมเพ
อมเม
อมเร
อมเส
อมแซม
อมแล
อมแห
อมโยงก
อมใจก
อมใช
อมให
อมได
อมไทรอยด
อมไม
อมไร
อมๆ
อมๆก
อย
อยก
อยกล
อยกว
อยกเว
อยข
อยของ
อยค
อยคน
อยคร
อยคลาน
อยจ
อยช
อยซ
อยด
อยต
อยตร
อยตำรวจ
อยถ
อยท
อยน
อยบ
อยป
อยผ
อยพ
อยพระจ
อยพล
อยม
อยมา
อยมาก
อยมาจนถ
อยย
อยร
อยล
อยลง
อยละ
อยว
อยส
อยห
อยหน
อยหร
อยหล
อยอ
อยอย
อยออกเป
อยากทราบว
อยากม
อยากร
อยากเป
อยากให
อยากได
อยเก
อยเข
อยเช
อยเท
อยเป
อยเพ
อยเม
อยเร
อยเล
อยเส
อยเอ
อยเอก
อยแก
อยแต
อยแล
อยแห
อยโท
อยให
อยใหญ
อยได
อยไป
อยไม
อยๆ
อร
อรช
อรถยนต
อรท
อรบ
อรวมก
อรห
อรองร
อระด
อระบ
อระล
อระหว
อระเบ
อรางว
อราชวงศ
อรายช
อราว
อราษฎร
อรำล
อฤด
อล
อลชไตน
อลท
อละคร
อลำน
อว
อวกาศ
อวกาศนานาชาต
อวง
อวงศ
อวอร
อวางอ
อศ
อศาสนาคร
อศาสนาพ
อศาสนาอ
อส
อสก
อสงส
อสด
อสต
อสตร
อสถาน
อสถานการณ
อสถานท
อสถาบ
อสน
อสม
อสมท
อสมาช
อสมเด
อสร
อสหร
อสาม
อสาย
อสายจ
อสายย
อสายอ
อสายเยอรม
อสายแอฟร
อสายไอร
อสาร
อสารก
อสารท
อสารมวลชน
อสำค
อสำน
อสำหร
อสำเร
อห
อหญ
อหน
อหม
อหมายเลข
อหย
อหร
อหล
อหลายคร
อหว
อหา
อหาข
อหาต
อหาท
อหาน
อหาผ
อหาร
อหาว
อหาส
อหาเก
อหาเด
อหาเป
อหาไม
ออ
ออก
ออกกำล
ออกคำส
ออกจากตำแหน
ออกจากบ
ออกจากเม
ออกจำหน
ออกฉายคร
ออกฉายเม
ออกฉายในป
ออกซ
ออกตาปอญปาด
ออกท
ออกมา
ออกมาด
ออกมาเป
ออกมาได
ออกฤทธ
ออกวางจำหน
ออกส
ออกอ
ออกอากาศ
ออกอากาศคร
ออกอากาศต
ออกอากาศท
ออกอากาศทาง
ออกอากาศทางช
ออกอากาศทางสถาน
ออกอากาศป
ออกอากาศว
ออกอากาศเม
ออกเด
ออกเป
ออกเส
ออกแถลงการณ
ออกแบบ
ออกแบบต
ออกแบบมาเพ
ออกแบบโดย
ออกแบบให
ออกไซด
ออกไป
อองค
ออด
ออตโตม
ออธ
ออน
ออนไลน
ออฟ
ออฟฟ
ออภ
ออย
ออร
ออล
ออส
ออสการ
ออสต
ออสเตร
ออสเตรเล
ออะไร
ออาจเป
ออาช
ออาณาจ
ออาย
ออาร
ออาว
ออเรนจ
ออโต
อฮ
อะ
อะก
อะค
อะคาเดม
อะซ
อะตอม
อะน
อะบ
อะม
อะล
อะห
อะฮ
อะเมซ
อะไร
อะไรก
อะไรท
อะไรบ
อา
อาก
อากร
อาการ
อาการท
อาการบาดเจ
อากาศ
อากาศท
อากาศยาน
อาค
อาคาร
อาคารก
อาคารท
อาคารผ
อาคารร
อาคารส
อาคารสำน
อาคารหล
อาคารเฉล
อาคารเร
อาคารเสนาสนะ
อาคารเสนาสนะท
อาจ
อาจก
อาจกล
อาจจะต
อาจจะม
อาจจะเก
อาจจะเป
อาจจะไม
อาจช
อาจต
อาจถ
อาจทำให
อาจปฏ
อาจม
อาจร
อาจส
อาจหมายถ
อาจารย
อาจเก
อาจเป
อาจเร
อาจใช
อาจได
อาจไม
อาช
อาซ
อาซาฮ
อาญา
อาณ
อาณาจ
อาณาน
อาณาเขต
อาณาเขตต
อาด
อาดอร
อาต
อาท
อาน
อานนท
อาบ
อาม
อาย
อายะ
อาร
อารมณ
อารย
อาระเบ
อาล
อาว
อาศ
อาส
อาสนว
อาสาสม
อาห
อาหร
อาหาร
อาหารท
อาหารอ
อาอ
อาเจ
อาเซ
อาเซอร
อาเธอร
อาเบะ
อาโออ
อำนวยการ
อำนวยการฝ
อำนวยการศ
อำนวยการสถาบ
อำนวยการสร
อำนวยการสำน
อำนวยการโรงเร
อำนวยพร
อำนาจ
อำนาจท
อำนาจน
อำนาจพ
อำนาจส
อำนาจหน
อำนาจเหน
อำนาจแต
อำพ
อำมาตย
อำเภอ
อำเภอก
อำเภอข
อำเภอค
อำเภอจ
อำเภอช
อำเภอด
อำเภอท
อำเภอน
อำเภอบ
อำเภอป
อำเภอพ
อำเภอภ
อำเภอร
อำเภอว
อำเภอศร
อำเภอส
อำเภอห
อำเภอหนองบ
อำเภออ
อำเภอเช
อำเภอเม
อำเภอเว
อำเภอแก
อำเภอแม
อำไพพงษ
อเก
อเกล
อเข
อเขาได
อเค
อเคร
อเคล
อเง
อเจ
อเจร
อเฉล
อเช
อเซ
อเซลล
อเด
อเต
อเตร
อเท
อเทศ
อเธอ
อเน
อเบ
อเป
อเปร
อเปล
อเผยแพร
อเพ
อเพล
อเพลง
อเพลงท
อเพลงว
อเฟ
อเม
อเมร
อเมเจอร
อเย
อเร
อเรอร
อเล
อเว
อเวนเจอร
อเวลา
อเวลาผ
อเวลาพ
อเศรษฐก
อเส
อเสด
อเสร
อเห
อเหต
อเหน
อเหม
อเหย
อเหล
อเอ
อเอก
อเอชไอว
อแก
อแกงล
อแข
อแค
อแคน
อแจ
อแดง
อแต
อแตกต
อแท
อแบ
อแบคท
อแผ
อแพ
อแม
อแย
อแร
อแล
อแลกก
อแลกเปล
อและท
อและแม
อแสดงถ
อแห
อแหล
อโค
อโคร
อโครงสร
อโจมต
อโดย
อโต
อโตเต
อโท
อโรค
อโรงเร
อโลก
อใกล
อใคร
อใช
อใด
อใดก
อใต
อใน
อในกรณ
อในช
อในท
อในน
อในป
อในร
อในระด
อในว
อในส
อในเร
อใบ
อใส
อให
อใหญ
อใหม
อไก
อไข
อได
อไต
อไทย
อไป
อไปก
อไปด
อไปถ
อไปท
อไปน
อไปย
อไปว
อไปอ
อไปเป
อไปแล
อไปได
อไฟล
อไม
อไร
อไว
อไวร
อไหร
อๆ
ฮ
ฮง
ฮย
ฮว
ฮอกก
ฮอนด
ฮอร
ฮอล
ฮอลล
ฮอลแลนด
ฮอว
ฮะ
ฮา
ฮาค
ฮาจ
ฮาช
ฮาน
ฮาพส
ฮาม
ฮาร
ฮาระ
ฮาล
ฮาอ
ฮเย
ฯ
ฯพณฯ
ฯลฯ
ะ
ะคร
ะจ
ะต
ะท
ั
า
าก
ากร
ากรมข
ากล
ากว
ากษ
ากองท
ากาก
าการ
าการก
าการกระทรวงกลาโหม
าการกระทรวงการคล
าการกระทรวงการต
าการกระทรวงคมนาคม
าการกระทรวงพาณ
าการกระทรวงมหาดไทย
าการกระทรวงย
าการกระทรวงว
าการกระทรวงศ
าการกระทรวงสาธารณส
าการกระทรวงอ
าการกระทรวงเกษตรและสหกรณ
าการค
าการจ
าการต
าการท
าการร
าการส
าการอ
าการเม
าการเล
าการใช
ากาว
ากำล
าข
าขนส
าขนาดใหญ
าขว
าของ
าของก
าของข
าของค
าของต
าของท
าของน
าของบ
าของบร
าของป
าของผ
าของม
าของร
าของล
าของว
าของส
าของห
าของหน
าของหร
าของอ
าของเขา
าขาย
าขายก
าขาว
าค
าคงต
าคงท
าคณะจ
าคณะปฏ
าคณะภาค
าคณะร
าคณะใหญ
าคน
าคนท
าคนอ
าคร
าครอบคร
าคล
าคว
าควบค
าความจร
าความต
าความร
าความส
าความเป
าคอนเฟเดอเรช
าคาร
าคำว
าง
างก
างกร
างกระด
างกล
างกว
างกองท
างกะท
างกาย
างกายท
างกายมน
างกายส
างกายเป
างกายได
างการก
างการต
างการถ
างการปฏ
างการพ
างการร
างการส
างการเด
างการแข
างการใช
างข
างขวา
างขวาง
างของ
างของต
างของร
างของส
างของอ
างค
างคนต
างคร
างคล
างความประท
างความม
างความร
างความส
างความเข
างความเป
างความเส
างความไม
างคาว
างง
างงาน
างจ
างจร
างจาก
างจากกร
างจากจ
างจากต
างจากท
างจากน
างจากร
างจากเม
างฉ
างช
างชน
างชาต
างซ
างด
างดาว
างต
างถ
างถนน
างถาวร
างท
างทอง
างทาง
างน
างบ
างบน
างบร
างป
างปฏ
างปร
างประต
างประมาณ
างประว
างประเทศ
างประเทศท
างประเทศอ
างประเทศเพ
างประเทศแห
างประเทศได
างปลอดภ
างผ
างผล
างฝ
างฝร
างพ
างพร
างพระท
างพระพ
างพระราชบ
างพระราชว
างพระองค
างพระเจ
างพล
างพาก
างฟ
างภ
างภาพ
างภาพยนตร
างม
างมน
างมหาว
างมาก
างมากก
างมากต
างมากท
างมากมาย
างย
างยอดเย
างยาวนาน
างร
างรวดเร
างระด
างระม
างระหว
างรายได
างฤด
างล
างลง
างละ
างละเอ
างลำต
างว
างวงศ
างศ
างส
างสงครามโลกคร
างสถ
างสถาน
างสน
างสม
างสมบ
างสร
างสรรค
างสรรพส
างสาม
างสำค
างสำหร
างห
างหน
างหม
างหร
างหล
างหาก
างอ
างองค
างอน
างอย
างออกไป
างอาคาร
างอาคารเร
างอารมณ
างาม
างเก
างเข
างเค
างเคร
างเง
างเจ
างเจด
างเช
างเซลล
างเด
างเต
างเท
างเน
างเป
างเปล
างเผ
างเพ
างเพลง
างเม
างเร
างเล
างเว
างเส
างเสร
างเห
างเหต
างเหน
างเหม
างเหมาะสม
างเหล
างแก
างแข
างแค
างแดนด
างแต
างแท
างแน
างแบ
างแผ
างแพร
างแม
างแล
างแห
างโจว
างโดดเด
างโดย
างโบสถ
างโรงเร
างโลก
างใกล
างใช
างใด
างใดอย
างใต
างใน
างในคร
างในจ
างในช
างในป
างในร
างในสม
างให
างใหญ
างใหม
างไกล
างได
างไทย
างไทยก
างไป
างไม
างไร
างไรก
างไรคร
างไรบ
างไว
างๆ
างๆท
างๆได
าจ
าจร
าจอ
าจอร
าจะกล
าจะค
าจะจ
าจะช
าจะด
าจะต
าจะถ
าจะทำให
าจะพ
าจะม
าจะย
าจะร
าจะส
าจะสร
าจะอย
าจะเก
าจะเข
าจะเป
าจะเพ
าจะเร
าจะเล
าจะใช
าจะให
าจะได
าจะไม
าจากมหาว
าจำเป
าฉ
าช
าชน
าชม
าชาต
าชานเม
าชาย
าชายก
าชายจอร
าชายท
าชายน
าชายฟ
าชายฟร
าชายม
าชายร
าชายว
าชายส
าชายหล
าชายอ
าชายเลน
าชายเอ
าชายแห
าชาร
าชาลส
าซ
าซธรรมชาต
าซาง
าซาร
าญ
าด
าดาราร
าดาว
าต
าตนเป
าตร
าตอง
าตา
าตากส
าตาด
าตาย
าตำแหน
าถ
าท
าทร
าทอง
าทาย
าทำให
าธ
าธนบ
าธรรมเน
าน
านก
านกร
านกล
านกลาง
านกว
านการก
านการขนส
านการค
านการจ
านการต
านการท
านการบร
านการพ
านการร
านการว
านการศ
านการส
านการเง
านการเม
านการแพทย
านการแสดง
านการใช
านข
านขวา
านค
านคน
านคนต
านคนท
านคร
านครจำปาศ
านความถ
านความปลอดภ
านความม
านความร
านง
านจ
านช
านซ
านด
านดนตร
านดอลลาร
านดาวเท
านต
านตอง
านตะว
านถ
านท
านทาง
านทาน
านธ
านน
านนอก
านนา
านบ
านบน
านบร
านบาท
านป
านปร
านประว
านปอนด
านผ
านฝ
านพ
านพร
านพล
านฟ
านภ
านภาล
านม
านมน
านมหาสม
านมา
านย
านร
านรอบค
านราชท
านล
านละ
านว
านวรรณกรรม
านศ
านส
านสถาน
านสมเด
านสร
านสวน
านสาธารณส
านห
านหญ
านหน
านหนองบ
านหม
านหร
านหล
านอ
านอน
านอย
านอาหาร
านฮ
านาน
านาย
านายท
านายฝ
านเก
านเกณฑ
านเข
านเคร
านเจ
านเช
านเด
านเท
านเทคน
านเทคโนโลย
านเน
านเป
านเผด
านเพ
านเม
านเยน
านเร
านเล
านเลขท
านเว
านเศรษฐก
านเส
านเห
านเหน
านเหร
านเหล
านเอ
านแก
านแต
านแผ
านแพ
านแม
านแล
านแห
านแหลม
านโคก
านโป
านโพธ
านใกล
านใต
านใน
านให
านใหญ
านใหม
านได
านไป
านไปย
านไผ
านไม
านไร
านไว
านไวร
าบ
าบร
าบรมวงศ
าป
าปกต
าปฏ
าปร
าประกวด
าประช
าประด
าประต
าประท
าประมาณ
าประว
าประเวณ
าปล
าผ
าผล
าผา
าผาก
าฝ
าฝร
าพ
าพน
าพร
าพรรค
าพรรคประชาธ
าพรรษา
าพระ
าพระจ
าพระท
าพระนครเหน
าพระพ
าพระยา
าพระยาจ
าพระยาท
าพระยาบด
าพระยาบรมมหาศร
าพระยาพ
าพระยาพระคล
าพระยายมราช
าพระยาราชส
าพระยาศร
าพระยาส
าพระยาอภ
าพระอ
าพระองค
าพระเจ
าพล
าพวกม
าพาย
าพเจ
าฟ
าฟร
าภ
าภค
าภาคว
าภาณ
าภาพ
าภาพจ
าภาพยนตร
าภาษ
าม
ามก
ามค
ามจ
ามช
ามชาต
ามต
ามท
ามน
ามป
ามผ
ามพ
ามม
ามร
ามล
ามว
ามส
ามห
ามหานคร
ามหาว
ามหาวช
ามหาส
ามา
ามาก
ามากกว
ามาค
ามาจ
ามาช
ามาด
ามาต
ามาถ
ามาท
ามาน
ามาพ
ามาม
ามาย
ามาร
ามาส
ามาอ
ามาอย
ามาเก
ามาเป
ามาเพ
ามาเร
ามาแทนท
ามาแล
ามาใกล
ามาใช
ามาในห
ามาได
ามเน
ามแม
ามใช
ามไม
ามไว
าย
ายก
ายกล
ายกว
ายข
ายขวา
ายของ
ายของช
ายของฤด
ายค
ายคร
ายคล
ายจ
ายช
ายชนะ
ายชาวนาแห
ายซ
ายญ
ายด
ายดาย
ายต
ายตรงข
ายตะว
ายถ
ายท
ายทหาร
ายทอดสด
ายทำ
ายทำท
ายทำภาพยนตร
ายทำในร
ายน
ายนรส
ายบ
ายบร
ายป
ายปฏ
ายผ
ายผล
ายฝ
ายพ
ายพม
ายพระเจ
ายพลเร
ายภาพ
ายภาพยนตร
ายม
ายมน
ายมหาน
ายมาร
ายมาส
ายมาอย
ายย
ายร
ายระบ
ายล
ายว
ายศ
ายส
ายสมเด
ายสำหร
ายห
ายหญ
ายหน
ายหย
ายหร
ายหล
ายอ
ายอน
ายอย
ายาง
ายเก
ายเข
ายเง
ายเจ
ายเช
ายเด
ายเป
ายเพ
ายเพลง
ายเม
ายเร
ายเล
ายเส
ายเหน
ายเหล
ายแก
ายแต
ายแบบ
ายแพ
ายแม
ายแรง
ายแรงท
ายแล
ายแห
ายโดย
ายโรงเร
ายใต
ายใน
ายในช
ายในป
ายในร
ายในว
ายในเด
ายให
ายใหม
ายได
ายไป
ายไปท
ายไปย
ายไปร
ายไปส
ายไปอย
ายไปเป
ายไปเล
ายไม
ายๆ
าร
ารห
ารอบ
ารอบก
ารอบต
ารอบส
าระด
าระว
าระหว
ารางว
าราชการ
าราชการกร
าราชการการเม
าราชการจ
าราชการช
าราชการท
าราชการผ
าราชการฝ
าราชการพลเร
าราชการเม
าราชบ
าราชบร
าราชวงศ
าราชวรวงศ
าราชาธ
ารำไพพรรณ
าล
าลง
าว
าวก
าวกล
าวข
าวค
าวง
าวจ
าวช
าวซ
าวด
าวต
าวถ
าวท
าวทำให
าวน
าวบ
าวป
าวผ
าวพ
าวฟ
าวภาคค
าวม
าวมาน
าวมาแล
าวย
าวร
าวรวงศ
าวล
าวว
าวศร
าวส
าวสด
าวสาร
าวสาล
าวหน
าวหม
าวหล
าวหา
าวหาท
าวหาว
าวอ
าวอย
าวเก
าวเข
าวเจ
าวเช
าวเด
าวเท
าวเป
าวเปล
าวเปอร
าวเพ
าวเม
าวเร
าวเหน
าวแก
าวแล
าวแห
าวโพด
าวให
าวได
าวไทย
าวไพร
าวไม
าวไว
าศ
าศร
าศาลา
าส
าสงวนแห
าสงส
าสต
าสถ
าสถาน
าสน
าสนใจ
าสม
าสมบ
าสมาช
าสมเด
าสร
าสว
าสวรรค
าสหร
าสาม
าสายส
าสำค
าสำน
าสำหร
าห
าหงษาวด
าหงสาวด
าหญ
าหน
าหม
าหมาย
าหมายถ
าหมายท
าหมายหล
าหมายเพ
าหย
าหร
าหล
าหลวง
าหลวงใหญ
าหลานเธอ
าหว
าหาก
าหากว
าหาญ
าอ
าอก
าองค
าอธ
าอน
าอภ
าอย
าอส
าออก
าอะไร
าอากาศยาน
าอากาศยานดอนเม
าอากาศยานท
าอากาศยานนานาชาต
าอากาศยานส
าอาจเป
าอาณาน
าอาย
าอาร
าอาวาส
าอาวาสร
าอาวาสว
าอเล
าฮ
าฯ
าฯให
าเก
าเกล
าเข
าเขา
าเขาม
าเขาเป
าเขาได
าเขาไม
าเค
าเคร
าเง
าเจ
าเจมส
าเฉ
าเฉล
าเช
าเซ
าเซลล
าเด
าเต
าเถ
าเท
าเธอ
าเธอเป
าเน
าเบ
าเป
าเปล
าเผ
าเฝ
าเพ
าเพชรร
าเฟร
าเฟรเดอร
าเม
าเย
าเร
าเล
าเว
าเส
าเสด
าเสน
าเสร
าเสา
าเห
าเหต
าเหน
าเหม
าเหย
าเหร
าเหล
าเอ
าเฮ
าเฮนร
าแก
าแข
าแค
าแจ
าแชมป
าแชมเป
าแดง
าแดด
าแต
าแท
าแผ
าแพ
าแม
าแมน
าแล
าและด
าและบร
าและพ
าและม
าและส
าและอ
าแห
าแหน
าโจมต
าโปรดกระหม
าโพธ
าโรงเร
าโลก
าโสมสวล
าใกล
าใคร
าใครเป
าใจ
าใจก
าใจง
าใจถ
าใจท
าใจผ
าใจว
าใจได
าใช
าใด
าใดน
าใต
าใน
าในช
าในท
าในป
าในร
าในว
าในส
าในอ
าในเม
าใบ
าใส
าให
าใหญ
าใหม
าได
าไทย
าไป
าไปก
าไปข
าไปช
าไปด
าไปต
าไปถ
าไปท
าไปทางท
าไปพ
าไปม
าไปย
าไปร
าไปส
าไปอ
าไปอย
าไปเป
าไปเฝ
าไปเล
าไปแล
าไปในห
าไปได
าไม
าไร
าไรน
าไว
าไหม
าไหร
าๆ
ำ
ำก
ำกร
ำกว
ำข
ำขนาดใหญ
ำค
ำคร
ำจ
ำช
ำซ
ำด
ำต
ำตก
ำตกห
ำตา
ำตาล
ำตาลอ
ำตาลเข
ำถ
ำท
ำทะเล
ำน
ำนม
ำบ
ำป
ำปล
ำผ
ำผลไม
ำฝน
ำพ
ำพร
ำพระพ
ำฟ
ำม
ำมาก
ำย
ำร
ำรวย
ำล
ำลง
ำว
ำส
ำสม
ำสะเท
ำห
ำหน
ำหร
ำหล
ำอ
ำอย
ำอส
ำอาช
ำเก
ำเกล
ำเข
ำเค
ำเง
ำเจ
ำเช
ำเด
ำเต
ำเป
ำเพ
ำเม
ำเย
ำเร
ำเล
ำเส
ำเสมอ
ำเหล
ำแข
ำแม
ำแย
ำแยงซ
ำแล
ำแห
ำโขง
ำโสม
ำใจ
ำใต
ำในโอล
ำใส
ำให
ำใหญ
ำได
ำไทย
ำไนล
ำไม
ำไรน
ำไว
ิ
ี
ึ
ื
ุ
ู
ฺ
฿
เ
เก
เกค
เกจ
เกซ
เกณฑ
เกต
เกตส
เกน
เกม
เกมช
เกมด
เกมต
เกมท
เกมน
เกมล
เกมส
เกมสำหร
เกมโชว
เกย
เกร
เกรงว
เกรซ
เกรด
เกรย
เกล
เกว
เกษ
เกษตร
เกษตรกรรม
เกษม
เกษมส
เกส
เกอร
เกะ
เกา
เกาหล
เกาะ
เกาะค
เกาะซ
เกาะต
เกาะท
เกาะน
เกาะม
เกาะร
เกาะล
เกาะส
เกาะอ
เข
เขต
เขตการปกครอง
เขตการเล
เขตด
เขตต
เขตท
เขตปท
เขตพ
เขตพระนคร
เขตม
เขตร
เขตว
เขตส
เขตอ
เขตเล
เขมร
เขา
เขาก
เขากล
เขากลายเป
เขากำล
เขาข
เขาค
เขาจ
เขาช
เขาด
เขาดำรงตำแหน
เขาต
เขาถ
เขาท
เขาทำประต
เขาน
เขาพ
เขาม
เขาย
เขาร
เขาล
เขาลงเล
เขาว
เขาศ
เขาส
เขาสร
เขาห
เขาอ
เขาอย
เขาเก
เขาเข
เขาเช
เขาเด
เขาเป
เขาเร
เขาเล
เขาเส
เขาแต
เขาใช
เขาให
เขาใหญ
เขาได
เขาไฟ
เขาไม
เค
เคช
เคซ
เคด
เคท
เคน
เคนจ
เคนต
เคนน
เคนเนด
เคป
เคม
เคย
เคยค
เคยช
เคยดำรงตำแหน
เคยต
เคยถ
เคยม
เคยร
เคยส
เคยอย
เคยเก
เคยเข
เคยเป
เคยเล
เคยเห
เคยใช
เคยให
เคยได
เคร
เครด
เครน
เคราะห
เคล
เคลย
เคลล
เคว
เคสตรา
เคอ
เคอร
เคาน
เคานต
เคานท
เคเบ
เคโอ
เง
เงา
เงาร
เจ
เจด
เจน
เจนต
เจนท
เจนน
เจฟฟ
เจฟฟร
เจม
เจมส
เจย
เจร
เจล
เจส
เจสซ
เจสส
เจอ
เจอก
เจอร
เจเนอเรช
เฉ
เฉพาะ
เฉพาะต
เฉพาะท
เฉพาะผ
เฉย
เฉล
เช
เชน
เชนจ
เชม
เชร
เชล
เชลซ
เชลยศ
เชลล
เชษฐ
เชอร
เชาว
เซ
เซก
เซซ
เซต
เซตส
เซน
เซนจ
เซนต
เซนอล
เซนเตอร
เซบ
เซฟ
เซม
เซย
เซร
เซล
เซลล
เซอ
เซอร
เซาท
เซเดส
เซเบอร
เซเร
เซเลอร
เซเว
เซโกว
เซโลนา
เฒ
เด
เดช
เดซ
เดน
เดนต
เดนท
เดนน
เดนมาร
เดนโอ
เดบ
เดฟ
เดม
เดย
เดร
เดล
เดลต
เดว
เดส
เดอ
เดอร
เดอะ
เดอะค
เดอะช
เดอะซ
เดอะน
เดอะบ
เดอะม
เดอะมอลล
เดอะร
เดอะลอร
เดอะสตาร
เดะ
เดเอ
เดโยช
เต
เตน
เตนใหญ
เตม
เตร
เตสแห
เตอร
เตอส
เถ
เถา
เถาะ
เท
เทกซ
เทค
เทคน
เทคว
เทคโนโลย
เทน
เทนน
เทนเม
เทนเมนต
เทนเมนท
เทพ
เทพธ
เทพบ
เทพพ
เทพห
เทพเจ
เทพแห
เทย
เทร
เทล
เทว
เทวก
เทวดา
เทวร
เทศ
เทศกาลภาพยนตร
เทศน
เทศบาล
เทศบาลตำบล
เทศบาลตำบลท
เทศบาลตำบลบ
เทศบาลเม
เทศศาสตร
เทอร
เทา
เทเกอร
เทเช
เทเบ
เทเลว
เทโร
เทโรศาสน
เธ
เธอ
เธอก
เธอกล
เธอค
เธอจ
เธอต
เธอถ
เธอม
เธอย
เธอร
เธออย
เธอเข
เธอเป
เธอเร
เธอเล
เธอใช
เธอได
เธอไม
เน
เนก
เนช
เนซ
เนต
เนตร
เนท
เนนต
เนนท
เนบ
เนปาล
เนม
เนย
เนร
เนล
เนลล
เนลส
เนว
เนส
เนสโก
เนอร
เนะ
เนเธอร
เนเว
เบ
เบก
เบกษา
เบกษาเป
เบจ
เบต
เบน
เบนจาม
เบนซ
เบบ
เบย
เบร
เบล
เบลด
เบลล
เบลาร
เบลเย
เบศร
เบส
เบอร
เบา
เบเกอร
เป
เปดร
เปน
เปนข
เปนต
เปนท
เปนผ
เปนอ
เปนเจ
เปร
เปรม
เปรสช
เปล
เปอร
เปา
เปาบ
เผ
เผช
เผด
เผยว
เผยแพร
เฝ
เพ
เพชร
เพชรบ
เพชรพระอ
เพนกว
เพนน
เพย
เพร
เพรส
เพรสล
เพราะ
เพราะข
เพราะค
เพราะฉน
เพราะฉะน
เพราะช
เพราะต
เพราะถ
เพราะท
เพราะน
เพราะผ
เพราะม
เพราะย
เพราะร
เพราะว
เพราะส
เพราะอ
เพราะเป
เพราะเม
เพราะเห
เพราะเหต
เพราะได
เพราะไม
เพล
เพลง
เพลงค
เพลงช
เพลงชาต
เพลงด
เพลงต
เพลงท
เพลงน
เพลงบ
เพลงป
เพลงประกอบ
เพลงประกอบจากเร
เพลงประกอบภาพยนตร
เพลงประกอบละคร
เพลงพ
เพลงร
เพลงล
เพลงส
เพลงอ
เพลงฮ
เพลงเป
เพลงในป
เพลงไทยสากล
เพลย
เพศ
เพศผ
เพศส
เพอร
เพาะปล
เพาเวอร
เฟ
เฟซบ
เฟน
เฟย
เฟร
เฟรนช
เฟรเดอร
เฟล
เฟส
เฟสต
เฟอร
เฟเดอเรอร
เฟเธอร
เภส
เม
เมก
เมฆ
เมจ
เมช
เมด
เมต
เมตตา
เมตร
เมตรต
เมท
เมทร
เมธ
เมน
เมนต
เมนท
เมนส
เมนเทอร
เมมโมร
เมย
เมร
เมล
เมษายน
เมส
เมสซ
เมอร
เมะ
เมะท
เมะเร
เมะและม
เมะโทรท
เมา
เมาส
เมเจอร
เมเน
เย
เยน
เยร
เยลโล
เยอร
เยอรม
เยอรมน
เยาว
เยาวชน
เร
เรก
เรกค
เรขาคณ
เรคคอร
เรจ
เรช
เรซ
เรด
เรดาร
เรต
เรตต
เรตส
เรน
เรนซ
เรนส
เรนะ
เรนเจอร
เรนโบว
เรย
เรล
เรลล
เรว
เรส
เรสต
เรสเซ
เรอ
เรอร
เระ
เรา
เราก
เราค
เราจ
เราต
เราท
เราม
เราย
เราร
เราะฮ
เราเป
เราเร
เราเห
เราได
เราไม
เรเช
เรเน
เล
เลก
เลข
เลขท
เลขาธ
เลขาน
เลช
เลด
เลน
เลนส
เลฟเวน
เลย
เลยคร
เลยท
เลยว
เลว
เลวร
เลส
เลสเต
เลสเตอร
เลสเนอร
เลอ
เลอร
เลเซอร
เลเวล
เลโอ
เว
เวก
เวกเตอร
เวช
เวชชาช
เวชศาสตร
เวณ
เวณก
เวณข
เวณจ
เวณช
เวณชายฝ
เวณด
เวณต
เวณท
เวณน
เวณบ
เวณป
เวณพ
เวณร
เวณล
เวณว
เวณส
เวณห
เวณหน
เวณหล
เวณอ
เวณเด
เวณเม
เวณใกล
เวต
เวท
เวทมนตร
เวน
เวนต
เวนส
เวย
เวร
เวล
เวลคอม
เวลล
เวลส
เวลสต
เวลา
เวลาก
เวลาการแข
เวลาต
เวลาท
เวลาน
เวลาบ
เวลาประมาณ
เวลาว
เวลาส
เวลาเช
เวลาเด
เวลาเพ
เวศ
เวศน
เวศว
เวส
เวสต
เวอร
เวเดอร
เวเนซ
เศ
เศก
เศร
เศรษฐ
เศรษฐก
เศรษฐศาสตร
เศษ
เศษก
เศษค
เศษช
เศษด
เศษต
เศษท
เศษน
เศษว
เศษส
เศษสำหร
เศษอ
เศษเพ
เศษแก
เศษให
เศาะลาห
เษก
เษกก
เษกสมรส
เษกสมรสก
เษกสมรสคร
เษกสมรสในว
เษกเป
เส
เสกสมรส
เสกสมรสก
เสด
เสถ
เสธ
เสธข
เสธท
เสธว
เสธไม
เสน
เสนอ
เสนอช
เสนอต
เสนอว
เสนอแนะการปร
เสนอให
เสนาธ
เสนาบด
เสม
เสมอ
เสมอก
เสร
เสว
เสวยราชสมบ
เสา
เสาร
เสาวล
เห
เหง
เหงา
เหต
เหน
เหม
เหมาะก
เหมาะสม
เหมาะสมก
เหมาะสมท
เหมาะสมสำหร
เหมาะสำหร
เหมาะแก
เหย
เหร
เหล
เหว
เอ
เอก
เอกช
เอกซ
เอกราช
เอกล
เอกวาดอร
เอกส
เอกสาร
เอกอ
เอค
เอง
เองก
เองท
เอจ
เอช
เอชด
เอชท
เอซ
เอด
เอดจ
เอต
เอตถะ
เอตเถสา
เอท
เอธ
เอน
เอนจ
เอนด
เอนเตอร
เอนไซม
เอบ
เอพ
เอฟ
เอฟซ
เอฟเวอร
เอฟเอ
เอฟเอค
เอฟเอคอมม
เอฟแอลค
เอม
เอย
เอร
เอล
เอลซ
เอลฟ
เอลล
เอลา
เอว
เอส
เอสซ
เอสด
เอสท
เอสบ
เอสปาด
เอสเคอ
เอสเอ
เอสเอส
เอสแอร
เอสโตเน
เออ
เออร
เอะ
เอา
เอาก
เอาช
เอาชนะ
เอาต
เอาท
เอาแต
เอาไว
เอเคบ
เอเคอร
เอเช
เอเซ
เอเล
เอเวอร
เอเอ
เอเอฟซ
เอโก
เฮ
เฮง
เฮด
เฮนร
เฮนเดอร
เฮฟว
เฮย
เฮล
เฮอร
เฮาส
เฮเลน
แ
แก
แกน
แกนด
แกร
แกรนด
แกรมม
แกล
แกะสล
แข
แขกร
แขน
แขวง
แขวงเม
แค
แคท
แคทเธอร
แคน
แคนาดา
แคปซ
แคมป
แคร
แคล
แคลร
แคลเซ
แคว
แคเมอร
แจ
แจงว
แฉก
แช
แชนแนล
แชมป
แชมเบอร
แชมเป
แชร
แชล
แชลล
แซ
แซนด
แซม
แซย
แซร
แซล
แฌร
แด
แดง
แดงท
แดงเข
แดดและโตเบโก
แดน
แดนซ
แดนน
แดร
แดเน
แต
แตก
แตกต
แตง
แตน
แตร
แตะจาม
แถบ
แถบส
แถมย
แถลงการณ
แถลงข
แถลงว
แถว
แท
แทน
แทนค
แทนด
แทนตำแหน
แทนท
แทนน
แทนพระองค
แทนราษฎร
แทนราษฎรกร
แทนราษฎรคร
แทนราษฎรจ
แทนราษฎรท
แทนราษฎรมาแล
แทนราษฎรเป
แทนราษฎรแบบบ
แทนราษฎรแบบส
แทนราษฎรได
แทนราษฎรไทย
แทนราษฎรไทยเป
แทนราษฎรไทยแบบบ
แทนเน
แทนเส
แทบท
แทบไม
แทร
แน
แนว
แนวค
แนวความค
แนวร
แนวว
แนวหน
แนวเส
แนวโน
แนะนำ
แนะนำให
แบ
แบคท
แบงก
แบงค
แบดม
แบตเตอร
แบทเท
แบทแมน
แบน
แบนด
แบนต
แบบ
แบบค
แบบจ
แบบด
แบบต
แบบท
แบบน
แบบบ
แบบพ
แบบฟ
แบบม
แบบย
แบบล
แบบว
แบบส
แบบอ
แบบเก
แบบเกรกอเร
แบบเด
แบบใหม
แบบไม
แบร
แบรด
แบรนด
แบล
แป
แปซ
แปด
แปร
แปรร
แปล
แปลก
แปลง
แปลงร
แปลช
แปลว
แปลเป
แปลโดย
แผ
แผนกว
แผนการเร
แผนท
แผนผ
แพ
แพท
แพทย
แพทยศาสตร
แพทยศาสตรศ
แพทร
แพนด
แพร
แพรวา
แฟ
แฟช
แฟน
แฟนคล
แฟนตาซ
แฟนเทเช
แฟม
แฟร
แฟรงก
แฟรงค
แม
แมกซ
แมกน
แมคอ
แมงม
แมชช
แมตช
แมตต
แมทช
แมน
แมนจ
แมนน
แมนเชสเตอร
แมร
แมลง
แมว
แมสซาช
แย
แยก
แยกก
แยกต
แยกพ
แยกย
แยกเป
แยร
แร
แรก
แรกท
แรกเร
แรกให
แรง
แรงข
แรงงาน
แรงจ
แรงด
แรงบ
แรงม
แรงโน
แรน
แรนด
แรม
แล
แลก
แลกเปล
แลข
แลของ
แลด
แลต
แลท
แลน
แลนซ
แลนด
แลบ
แลผ
แลพ
แลม
แลร
แลระบบ
แลล
แลว
แลส
แลหน
แลอย
และ
และก
และกร
และกล
และกลายเป
และกว
และกองท
และการก
และการค
และการจ
และการต
และการท
และการบ
และการบร
และการปฏ
และการพ
และการร
และการว
และการศ
และการส
และการสร
และการเข
และการเม
และการเล
และการแข
และการใช
และกำก
และกำล
และกำหนดให
และข
และขอให
และค
และคณ
และคณะ
และคนท
และคนอ
และคร
และครอบคร
และคล
และคว
และควบค
และความร
และความส
และความเป
และคาดว
และคำว
และจ
และจะต
และจะม
และจะได
และจะไม
และจากน
และช
และซ
และญ
และด
และดำรงตำแหน
และดำเน
และต
และตะว
และตำบลบ
และตำแหน
และถ
และท
และทร
และทรงเป
และทว
และทำหน
และทำให
และธ
และน
และนอกจากน
และนายกร
และนำไปส
และบ
และบร
และบางคร
และบางส
และบาดเจ
และป
และปฏ
และปร
และประว
และประสบความสำเร
และประเภทท
และปล
และผ
และผล
และฝ
และฝร
และพ
และพบว
และพร
และพระพ
และพระองค
และพระเจ
และพฤต
และพล
และฟ
และภ
และภาพยนตร
และภายหล
และภาษาอ
และม
และมน
และมหาว
และมาตรา
และมาร
และย
และร
และระด
และระหว
และรางว
และฤด
และล
และละครโทรท
และว
และศ
และส
และสถาน
และสถานท
และสถาบ
และสน
และสม
และสมาช
และสมเด
และสร
และสว
และสหร
และสาขาว
และสามารถใช
และสำน
และสำหร
และสำเร
และห
และหญ
และหน
และหม
และหย
และหล
และอ
และองค
และอด
และอธ
และอน
และอย
และออสเตรเล
และอาจม
และอาจารย
และอาร
และอาว
และอำเภอเม
และฮ
และเก
และเข
และเขาก
และเขาย
และเขาได
และเคยเป
และเคร
และเคล
และเง
และเจ
และเช
และเซ
และเด
และเต
และเท
และเทคโนโลย
และเธอก
และเธอย
และเธอได
และเน
และเป
และเปล
และเผยแพร
และเพ
และเพลง
และเม
และเร
และเล
และเว
และเส
และเสด
และเสร
และเห
และเหต
และเหร
และเหล
และเอ
และเอเช
และแก
และแข
และแจ
และแชมป
และแต
และแบ
และแผ
และแพ
และแม
และแล
และแหล
และแอนตาร
และโทรท
และโปรด
และโรงเร
และใช
และใน
และในกรณ
และในช
และในท
และในป
และในว
และในส
และในเด
และให
และได
และไม
และไอร
แลเม
แลเร
แลเห
แลให
แลได
แว
แวน
แวมไพร
แวร
แสง
แสงส
แสงสว
แสงอาท
แสดง
แสดงค
แสดงความค
แสดงต
แสดงถ
แสดงท
แสดงภาพยนตร
แสดงร
แสดงว
แสดงส
แสดงเป
แสดงโดย
แสดงให
แสตมป
แสน
แห
แหม
แหล
แหวน
แอ
แองเจ
แองเจล
แอชล
แอซ
แอด
แอตแลนต
แอน
แอนด
แอนดร
แอนดรอยด
แอนต
แอนท
แอนน
แอนนา
แอนฟ
แอนเดร
แอนเดอร
แอนโทน
แอบบ
แอบร
แอปพล
แอปเป
แอฟร
แอม
แอร
แอล
แอลกอฮอล
แอลจ
แอลล
แอลเบเน
แอสซ
แอสต
แฮ
แฮนด
แฮปป
แฮม
แฮมป
แฮมย
แฮมเมอร
แฮร
โ
โก
โกก
โกค
โกช
โกซ
โกด
โกปปาอ
โกปาเดลเรย
โกปาเดเอสป
โกม
โกร
โกรธ
โกล
โกลด
โกลบอล
โกว
โกศล
โกส
โกสต
โกสลาเว
โกะ
โกเซย
โกเดมาดร
โกไข
โข
โขท
โค
โคก
โคค
โคจ
โคช
โคซ
โคด
โคต
โคน
โคบ
โคบวร
โคบายาช
โคม
โคร
โครง
โครงการ
โครงการก
โครงการจ
โครงการท
โครงการน
โครงการพ
โครงการว
โครงการส
โครงข
โครงสร
โครงเร
โครเอเช
โคล
โคลอมเบ
โคว
โคส
โคอ
โคเร
โฆษณา
โง
โจ
โจจ
โจทก
โจทย
โจน
โจนส
โจนาธาน
โจม
โจมต
โจว
โจอ
โจเซฟ
โฉมท
โช
โชก
โชค
โชคช
โชคด
โชซ
โชต
โชว
โซ
โซด
โซน
โซนตะว
โซนภาคตะว
โซนร
โซนา
โซฟ
โซมาเล
โซล
โซอ
โซเด
โซเฟ
โซเว
โซโล
โญ
โณ
โด
โดก
โดดเด
โดน
โดพ
โดม
โดย
โดยก
โดยกล
โดยกองท
โดยการจ
โดยการส
โดยการแข
โดยการใช
โดยกำหนดให
โดยข
โดยค
โดยคร
โดยคำว
โดยง
โดยจ
โดยจะต
โดยจะม
โดยจะเป
โดยช
โดยซ
โดยด
โดยต
โดยตรง
โดยถ
โดยท
โดยน
โดยบ
โดยบร
โดยป
โดยปกต
โดยปร
โดยผ
โดยผล
โดยฝ
โดยพ
โดยพระบาทสมเด
โดยพระองค
โดยพระเจ
โดยม
โดยมาก
โดยย
โดยร
โดยรวมแล
โดยรอบ
โดยระบ
โดยล
โดยว
โดยศ
โดยส
โดยสมาช
โดยสมเด
โดยสร
โดยสาร
โดยสารท
โดยสารได
โดยสำน
โดยห
โดยหน
โดยหล
โดยหว
โดยอ
โดยองค
โดยอน
โดยอย
โดยอาศ
โดยเก
โดยเข
โดยเขาได
โดยเคร
โดยเจ
โดยเฉพาะ
โดยเฉพาะก
โดยเฉพาะท
โดยเฉพาะอย
โดยเฉพาะเม
โดยเฉล
โดยเช
โดยเด
โดยเธอได
โดยเน
โดยเป
โดยเปล
โดยเพ
โดยเม
โดยเร
โดยเล
โดยเส
โดยเหต
โดยแต
โดยแบ
โดยแพ
โดยใช
โดยในช
โดยในป
โดยในว
โดยให
โดยได
โดยไม
โดร
โดราเอมอน
โดว
โดะ
โดเน
โต
โตช
โตม
โตร
โตรเล
โตะ
โตเก
โตเต
โตโยต
โท
โทก
โทค
โทช
โทน
โทบ
โทม
โทร
โทรคมนาคม
โทรท
โทรศ
โทลค
โทษ
โทเน
โทโมม
โธม
โน
โนก
โนซ
โนท
โนบ
โนม
โนร
โนลด
โนว
โนวา
โนอ
โนะ
โนะม
โนเป
โนเวล
โบ
โบน
โบนาปาร
โบร
โบราณ
โบราณคด
โบราณว
โบราณสถาน
โบราณสถานในจ
โบล
โบว
โบวล
โบสถ
โบสถม
โบสถว
โบสถหล
โบอ
โบะ
โป
โปร
โปรด
โปรดเกล
โปรดให
โปรต
โปรเจกต
โปรแกรม
โปรโมช
โปล
โปสเตอร
โปเกมอน
โปแลนด
โผล
โพคาล
โพธ
โพรพ
โพล
โพสต
โฟร
โฟล
โภค
โม
โมก
โมกข
โมง
โมงค
โมซ
โมธ
โมน
โมบ
โมร
โมล
โมฮ
โมะ
โมเด
โมเดล
โมเมนต
โมเลก
โมโกลบ
โมโตะ
โย
โยค
โยช
โยชน
โยท
โยธ
โยน
โยม
โยร
โยฮ
โยะ
โยะช
โยเซ
โยเซฟ
โยโกะ
โยไควอทช
โยไคเผ
โร
โรก
โรค
โรคกล
โรคจ
โรคซ
โรคต
โรคท
โรคน
โรคห
โรคอ
โรง
โรงพ
โรงพยาบาล
โรงพยาบาลจ
โรงพยาบาลศ
โรงพยาบาลส
โรงพยาบาลสมเด
โรงภาพยนตร
โรงเร
โรงแรม
โรงไฟฟ
โรจน
โรช
โรซ
โรฒ
โรด
โรดร
โรต
โรท
โรธ
โรน
โรบ
โรป
โรปตะว
โรปท
โรปาล
โรปได
โรม
โรมาเน
โรย
โรล
โรลล
โรว
โรส
โรห
โรอ
โระ
โรเจอร
โรเบ
โรเป
โรแบร
โรแมนต
โล
โลก
โลกก
โลกท
โลกน
โลกร
โลกเฮฟว
โลต
โลน
โลม
โลร
โลว
โลส
โลห
โลเก
โลเปซ
โลเมตร
โลเมตรต
โลเมตรท
โลโก
โว
โวล
โวลต
โส
โสภณ
โสภาพ
โห
โหด
โหต
โหน
โหมด
โหลด
โอ
โอก
โอกะ
โอกาส
โอกาสท
โอกาสน
โอกาสร
โอกาสเข
โอกาสได
โอค
โอจ
โอช
โอชา
โอซ
โอซากะ
โอด
โอดอร
โอต
โอท
โอน
โอนพ
โอบ
โอบามา
โอป
โอพ
โอภาก
โอม
โอร
โอรส
โอล
โอลด
โอว
โอส
โออ
โอะ
โอเกม
โอเกมท
โอเช
โอเดจาเนโร
โอเป
โอเพ
โอเพลง
โอเร
โอเล
โอเวอร
โอได
โอไทด
โฮ
โฮจ
โฮช
โฮม
โฮมส
โฮร
โฮล
โฮลด
โฮะ
โฮเต
ใ
ใกล
ใคร
ใครก
ใครท
ใครร
ใครเป
ใจ
ใจก
ใจด
ใจท
ใจร
ใจว
ใจส
ใจให
ใจไทย
ใช
ใด
ใดก
ใดจ
ใดท
ใดฝ
ใดม
ใดเป
ใดได
ใดไม
ใดๆ
ใต
ใน
ในก
ในกร
ในกรณ
ในกล
ในกองท
ในการ
ในการก
ในการข
ในการค
ในการควบค
ในการจ
ในการช
ในการด
ในการดำเน
ในการต
ในการถ
ในการท
ในการน
ในการบ
ในการบร
ในการป
ในการปฏ
ในการปร
ในการประช
ในการผล
ในการพ
ในการย
ในการร
ในการว
ในการศ
ในการส
ในการสร
ในการอ
ในการเข
ในการเด
ในการเป
ในการเปล
ในการเร
ในการเล
ในการแก
ในการแข
ในการแปลงร
ในการโจมต
ในการใช
ในการให
ในข
ในขณะท
ในขณะน
ในขณะเด
ในค
ในคด
ในคร
ในครอบคร
ในความด
ในความร
ในความเป
ในงาน
ในงานว
ในจ
ในจำนวนน
ในฉบ
ในช
ในชาร
ในซ
ในญ
ในฐานะ
ในฐานะท
ในฐานะน
ในฐานะผ
ในด
ในต
ในตระก
ในตอน
ในตอนท
ในตอนน
ในตำแหน
ในถ
ในท
ในทว
ในทางกล
ในทางคณ
ในทางตรงก
ในทางท
ในทางปฏ
ในทำนองเด
ในธรรมชาต
ในน
ในนาท
ในนาม
ในนามท
ในบ
ในบท
ในบทความ
ในบทบาท
ในบร
ในบางกรณ
ในบางคร
ในป
ในปฏ
ในปร
ในประว
ในประเทศ
ในประเทศจ
ในประเทศญ
ในประเทศท
ในประเทศฝร
ในประเทศสหร
ในประเทศอ
ในประเทศเยอรมน
ในประเทศไทย
ในปลายป
ในผ
ในฝ
ในฝร
ในพ
ในพร
ในพระบรมมหาราชว
ในพระบรมราช
ในพระบาทสมเด
ในพระราชบ
ในพระราชพ
ในพระราชว
ในพระอ
ในพระเจ
ในฟ
ในภ
ในภาค
ในภาคตะว
ในภาคน
ในภาพ
ในภาพยนตร
ในภายหล
ในภาษาจ
ในภาษาญ
ในภาษาอ
ในภาษาไทย
ในม
ในมน
ในมหาว
ในมหาสม
ในมาตรา
ในย
ในร
ในรอบ
ในรอบช
ในรอบน
ในรอบรองชนะเล
ในรอว
ในระด
ในระบบ
ในระหว
ในราชบ
ในราชวงศ
ในราชสำน
ในราชอาณาจ
ในรายการ
ในรายช
ในฤด
ในล
ในละครเร
ในลาล
ในลำด
ในว
ในวงศ
ในศ
ในศตวรรษท
ในส
ในสก
ในสงครามโลกคร
ในสถานการณ
ในสถานท
ในสภาพท
ในสม
ในสมเด
ในสหร
ในสหราชอาณาจ
ในสาขาว
ในสำน
ในห
ในหน
ในหม
ในหมวดหม
ในหล
ในอ
ในองค
ในอด
ในอน
ในอนาคต
ในออสเตรเล
ในอาณาจ
ในอำเภอเม
ในอเมร
ในฮ
ในเกม
ในเกมท
ในเกาหล
ในเขตจ
ในเขตพ
ในเคร
ในเจ
ในเช
ในเซลล
ในเด
ในเท
ในเน
ในเบ
ในเพลง
ในเม
ในเยอรมน
ในเร
ในเรสเซ
ในเล
ในเว
ในเวลา
ในเวลาต
ในเวลาท
ในเวลาน
ในเวลาเด
ในเวอร
ในเส
ในเหต
ในเอเช
ในแคว
ในแง
ในแต
ในแผ
ในแม
ในแมตช
ในแหล
ในแอฟร
ในโรงเร
ในโลก
ในโอล
ในไทยล
ในไม
ใบ
ใบม
ใบร
ใบหน
ใบอน
ใบเด
ใบเป
ใบเหล
ใบไม
ใฝ
ใส
ให
ใหญ
ใหม
ไ
ไก
ไกร
ไกรฤกษ
ไกล
ไข
ไขข
ไขคำว
ไขท
ไขป
ไขปร
ไขม
ไขร
ไขล
ไขว
ไขส
ไขสถานการณ
ไขหน
ไขหร
ไขเพ
ไขให
ไขได
ไค
ไคล
ไช
ไชน
ไชย
ไชยา
ไซ
ไซค
ไซด
ไซต
ไซน
ไซบ
ไซปร
ไซมอน
ไซย
ไซเค
ไซเนอร
ไซเบอร
ได
ไดก
ไดจ
ไดซ
ไดมอนด
ไดรฟ
ไดรเวอร
ไดส
ไดเม
ไดโนเสาร
ไต
ไท
ไทก
ไทท
ไททาน
ไทป
ไทม
ไทย
ไทยก
ไทยช
ไทยท
ไทยพ
ไทยพร
ไทยร
ไทยล
ไทยเป
ไทยแลนด
ไทยในย
ไทยได
ไทร
ไทรอ
ไทส
ไทเกอร
ไทเป
ไธย
ไธยย
ไน
ไนจ
ไนต
ไนท
ไนน
ไนเจล
ไนเต
ไบ
ไบจาน
ไบต
ไบรอ
ไบเบ
ไบเอ
ไบแซนไทน
ไป
ไปก
ไปข
ไปค
ไปจ
ไปจนถ
ไปช
ไปซ
ไปด
ไปต
ไปถ
ไปท
ไปทางตะว
ไปทางท
ไปน
ไปบ
ไปพ
ไปพร
ไปย
ไปร
ไปรษณ
ไปศ
ไปส
ไปอ
ไปอย
ไปเก
ไปเข
ไปเท
ไปเป
ไปเม
ไปเย
ไปเร
ไปเล
ไปแข
ไปแล
ไปใช
ไปในท
ไปให
ไปได
ไผ
ไพ
ไพบ
ไพร
ไพรม
ไพรว
ไพรส
ไพศาล
ไพโรจน
ไฟ
ไฟต
ไฟท
ไฟนอล
ไฟนอลแฟนตาซ
ไฟฟ
ไฟร
ไฟล
ไฟว
ไฟเตอร
ไฟเออร
ไฟไหม
ไม
ไมค
ไมน
ไมล
ไมเค
ไมโครซอฟท
ไมโอน
ไร
ไรช
ไรซ
ไรด
ไรต
ไรท
ไรน
ไรอ
ไรเดอร
ไล
ไลก
ไลต
ไลท
ไลน
ไลพ
ไลฟ
ไว
ไวซ
ไวด
ไวต
ไวท
ไวน
ไวยากรณ
ไวร
ไวลด
ไวส
ไวเวอร
ไส
ไห
ไหน
ไหนก
ไหม
ไหมคร
ไหมไทย
ไหล
ไหลผ
ไหว
ไอ
ไอจ
ไอซ
ไอด
ไอท
ไอน
ไอบ
ไอพ
ไอร
ไอเด
ไอเอ
ไฮ
ไฮด
ไฮน
ไฮบร
ไฮเปอร
ๆ
็
่
้
๊
๋
์
ํ
๎
๏
๐
๐๐
๐๐๐
๑
๑๐
๑๐๐
๑๐๐๐
๑๐๒
๑๐๓
๑๐๔
๑๐๕
๑๐๗
๑๐๘
๑๐๙
๑๑
๑๑๐
๑๑๑
๑๑๒
๑๑๓
๑๑๔
๑๑๕
๑๑๖
๑๑๗
๑๑๘
๑๑๙
๑๒
๑๒๐
๑๒๑
๑๒๒
๑๒๕
๑๒๖
๑๒๗
๑๒๘
๑๒๙
๑๓
๑๓๐
๑๓๑
๑๓๘
๑๔
๑๕
๑๖
๑๗
๑๘
๑๙
๒
๒๐
๒๐๐
๒๑
๒๒
๒๓
๒๔
๒๔๕๗
๒๕
๒๕๒๒
๒๕๒๘
๒๕๒๙
๒๕๓๐
๒๕๓๔
๒๕๓๕
๒๕๓๖
๒๕๓๗
๒๕๓๘
๒๕๓๙
๒๕๔๐
๒๕๔๑
๒๕๔๒
๒๕๔๓
๒๕๔๔
๒๕๔๕
๒๕๔๖
๒๕๔๗
๒๕๔๘
๒๕๔๙
๒๕๕๐
๒๕๕๑
๒๕๕๒
๒๕๕๓
๒๕๕๔
๒๕๕๕
๒๕๕๖
๒๕๕๗
๒๕๕๘
๒๕๕๙
๒๕๖๐
๒๕๖๒
๒๕๖๓
๒๕๖๔
๒๖
๒๗
๒๘
๒๙
๓
๓๐
๓๐๐
๓๑
๓๒
๓๓
๓๔
๓๕
๓๖
๓๗
๓๘
๓๙
๔
๔๐
๔๐๐
๔๑
๔๒
๔๓
๔๔
๔๕
๔๖
๔๗
๔๘
๔๙
๕
๕๐
๕๐๐
๕๑
๕๒
๕๓
๕๔
๕๕
๕๖
๕๗
๕๘
๕๙
๖
๖๐
๖๑
๖๓
๖๔
๖๕
๖๖
๖๗
๖๙
๗
๗๐
๗๑
๗๒
๗๔
๗๕
๗๖
๗๗
๗๘
๘
๘๐
๘๒
๘๓
๘๔
๘๕
๘๘
๙
๙๐
๙๕
๙๗
๙๘
๙๙
๚
ສ
ັ
ິ
ີ
ຸ
ູ
ົ
່
້
་
က
င
တ
န
ပ
မ
ရ
ာ
ိ
ီ
ု
ေ
ံ
့
း
္
်
ျ
ြ
ွ
ក
ជ
ត
ទ
ន
ប
ព
ម
រ
វ
ស
ា
ិ
ី
ុ
ូ
េ
ោ
ំ
ះ
់
័
្
ᨠ
ᨣ
ᨦ
ᨯ
ᨲ
ᨴ
ᨶ
ᨷ
ᨾ
ᨿ
ᩁ
ᩃ
ᩅ
ᩈ
ᩉ
ᩋ
᩠
ᩢ
ᩣ
ᩥ
ᩦ
ᩨ
ᩪ
ᩫ
ᩬ
ᩮ
ᩯ
ᩰ
ᩱ
ᩴ
᩵
᩶
᩼
​
‌
‍
‎
‐
‑
–
—
―
‘
’
“
”
„
†
‡
•
…
‬
′
″
‹
›
※
⁄
€
℃
№
™
←
↑
→
↔
↷
∈
−
∗
√
∞
∫
≈
≤
≥
⊕
⊙
③
④
⑦
─
█
►
○
●
★
☆
♂
♠
♡
♣
♥
♪
✝
⺀
⺄
⺆
⺈
⺊
⺌
⺕
⺝
⺸
⺼
⿰
⿱
⿲
⿳
⿴
⿵
⿶
⿷
⿸
⿹
⿺
⿻
、
。
々
〇
《
》
「
」
『
』
【
】
〜
〢
あ
い
う
え
お
か
き
く
け
こ
さ
し
す
せ
そ
た
ち
っ
つ
て
と
な
に
ぬ
ね
の
は
ひ
ふ
へ
ほ
ま
み
む
め
も
ゃ
や
ゅ
ゆ
ょ
よ
ら
り
る
れ
ろ
わ
を
ん
゙
゚
ァ
ア
ィ
イ
ゥ
ウ
ェ
エ
ォ
オ
カ
キ
ク
ケ
コ
サ
シ
ス
セ
ソ
タ
チ
ッ
ツ
テ
ト
ナ
ニ
ヌ
ネ
ノ
ハ
ヒ
フ
ヘ
ホ
マ
ミ
ム
メ
モ
ャ
ヤ
ュ
ユ
ョ
ヨ
ラ
リ
ル
レ
ロ
ワ
ン
・
ー
㇁
㇂
㇄
㇇
㇈
㇉
㇓
㐁
㐄
㐅
㐌
㐫
㐬
㐭
㐮
㐱
㑒
㒵
㒸
㒼
㓁
㓞
㔾
㕛
㕣
㖾
㘝
㚅
㚇
㚔
㚘
㝉
㝡
㝴
㝵
㞋
㞢
㞷
㠩
㠭
㠯
㡀
㡭
㡿
㢲
㢴
㣇
㣺
㥯
㪅
㫄
㫐
㫒
㫺
㬅
㬎
㬥
㬰
㲋
㳄
㷠
㸒
㸚
㸦
㼌
㼲
㽞
㿟
䀠
䂞
䍃
䏍
䒑
䖍
䖒
䖝
䖵
䙴
䚻
䜌
䝿
䡛
䧹
䪞
一
丁
丂
七
丄
丅
丆
万
丈
三
上
下
丌
不
与
丏
丐
丑
专
且
丕
世
丘
丙
业
东
丞
丢
丣
两
严
並
丨
丩
个
丫
丬
中
丮
丰
丱
串
丵
丶
丷
丸
丹
为
主
丽
丿
乀
乂
乃
久
乆
乇
么
义
之
乌
乍
乎
乏
乐
乑
乔
乖
乗
乘
乙
乚
乛
乜
九
乞
也
习
乡
乱
乳
乾
亀
亅
了
亇
予
争
事
二
亍
于
亏
亐
云
互
亓
五
井
亘
亚
亜
亞
亟
亠
亡
亢
交
亥
亦
产
亨
亩
享
京
亭
亮
亯
亰
亲
亳
亶
亷
人
亻
亼
亾
仁
今
介
仌
从
仐
仑
仒
仓
仕
他
付
仙
仝
代
令
以
仮
仲
任
企
伊
伏
伐
休
会
伝
传
伯
但
位
佐
体
何
佘
余
佛
作
你
佥
佳
使
來
侈
侌
侍
侖
侯
侵
便
俊
保
俞
俠
信
修
倉
倍
候
倠
健
備
傳
僉
像
僕
儀
優
儿
兀
允
兂
元
兄
充
兆
兇
先
光
兊
克
兌
免
兑
兒
兓
兔
党
兜
兟
入
內
全
兩
兪
八
公
六
兮
兰
共
关
兵
其
具
典
兹
兼
冀
冂
冃
冄
内
円
冈
冉
冊
冋
册
再
冎
冏
冐
冒
冓
冖
冗
冘
军
农
冝
冡
冥
冫
冬
冷
几
凡
凢
凵
凶
凷
凸
凹
出
函
凾
刀
刁
刂
刃
刄
刅
分
切
刊
刍
刑
刕
刖
列
刘
则
初
別
利
别
到
制
刺
刻
則
削
剌
前
剛
剡
剣
剧
創
剽
劇
劉
劍
力
功
加
劦
助
努
劫
劳
劵
勃
勇
勉
勒
動
務
勝
勞
勤
勹
勺
勻
勾
勿
匀
匂
包
匆
匈
匊
匋
匍
匕
化
北
匚
匝
匡
匪
匱
匸
匹
区
医
匽
匿
區
十
卂
千
卄
卅
卆
升
午
卉
半
卌
华
卑
卒
卓
協
单
卖
南
博
卜
卝
卞
占
卡
卢
卣
卤
卦
卩
卪
卬
卯
印
危
即
却
卵
卷
卸
卻
卿
厂
厃
厄
历
厈
厉
厌
厓
厘
厚
原
厤
厥
厨
厭
厲
厶
厷
厸
去
厼
厽
叀
参
參
叅
又
叉
及
友
双
反
叐
发
叒
叔
叕
取
受
叚
叜
叟
口
古
句
另
叩
只
召
可
台
叱
史
右
叵
号
司
叹
吂
各
吅
合
吉
吊
吋
同
名
后
吏
向
吕
君
吝
吞
否
含
启
吳
吴
吹
吾
呂
呆
呈
告
员
呙
周
味
呼
命
咅
和
咎
咠
咢
咨
咲
咸
咼
哀
品
哉
員
哥
哲
唐
商
啇
問
啚
啬
啻
善
喜
喬
單
喿
嗇
嗣
嘉
器
噩
嚴
囊
囗
囘
囙
囚
四
回
囟
因
団
囧
囬
园
困
囱
囷
固
国
圂
圅
國
圍
園
圓
土
圡
圣
圥
在
圭
地
圶
圼
坂
坐
坒
坚
坴
垂
型
垔
垚
埀
埋
城
埶
執
基
堂
堅
堆
堇
堯
報
場
塔
塚
塞
墨
壘
士
壬
壯
声
壳
壴
壹
壺
壽
夂
处
夅
夆
备
変
夊
夋
夌
复
夏
夒
夕
外
夗
夘
多
夜
夢
大
夨
天
太
夫
夬
夭
央
失
夲
头
夷
夸
夹
夻
夾
奂
奄
奇
奈
奉
奎
奏
奐
契
奓
奔
奚
奞
奠
奢
奥
奭
女
奴
奻
好
如
妃
妄
妖
妙
妟
妥
妹
妻
妾
始
姑
委
姜
姫
威
娄
娘
婁
婴
嬪
嬰
嬴
子
孑
孔
孕
孖
字
存
孚
孛
孝
孟
季
孤
学
孫
孱
學
宀
宁
宂
它
宅
宇
守
安
宋
完
宏
宓
宗
官
宙
定
宛
宜
宝
実
客
宣
室
宮
宰
害
家
容
宾
宿
寄
寅
密
富
寒
察
寧
審
寫
寬
寮
寶
寸
对
寺
寻
寽
対
寿
封
専
尃
射
将
將
專
尉
尊
尋
尌
對
小
少
尒
尓
尔
尖
尗
尚
尞
尢
尣
尤
尧
尨
尭
就
尸
尹
尺
尻
尼
尽
尾
尿
局
居
屈
屋
屎
屏
屑
展
屖
屚
属
屠
屡
屬
屮
屯
屰
山
屵
屾
岁
岂
岑
岡
岩
岳
岸
峯
島
崇
崎
崑
崔
崖
崙
崩
嵐
嵬
嶲
巂
巛
川
州
巟
巠
巢
巤
工
左
巧
巨
巩
巫
差
己
已
巳
巴
巷
巸
巻
巽
巾
巿
帀
市
布
希
帚
帛
帝
带
師
席
帶
常
干
平
年
幵
并
幷
幸
幺
幻
幼
幽
幾
广
広
庄
床
底
店
庚
府
度
座
庫
庭
庶
康
庸
廉
廌
廛
廣
廩
廴
延
廷
建
廾
廿
开
弁
弃
弄
弇
弋
式
弓
弔
引
弗
弘
弜
弟
张
弥
弦
弱
張
強
强
弾
彊
彌
彎
彐
彑
当
彔
录
彖
彗
彡
形
彥
彦
彧
彩
彭
影
彳
役
彼
往
征
待
律
後
徐
徒
得
徙
從
御
復
微
徳
徵
德
徹
心
忄
必
忌
忍
志
忝
忠
忩
快
念
忽
忿
思
怠
急
性
怪
怱
恆
恋
恐
恒
恩
恭
息
恵
悉
悟
患
悤
悪
悲
悶
情
惑
惠
惡
惢
想
愁
愈
意
愛
感
慈
慧
慮
慶
憂
憲
應
懿
戀
戈
戉
戊
戋
戌
戍
戎
成
我
戒
戔
或
战
戚
戠
戢
戦
截
戰
戲
戶
户
戸
戹
戼
戾
房
所
扁
扇
手
扌
才
打
托
执
承
技
折
抜
拉
拜
拳
拿
持
指
掌
探
推
提
摩
撃
操
支
攴
攵
收
攸
改
攻
放
政
敄
故
敏
敕
敖
敗
教
敝
敞
敢
散
敦
敫
敬
数
敷
數
斂
文
斉
斊
斗
斤
斥
斩
斬
斯
新
方
於
施
斿
旁
旅
旋
族
无
旡
既
旣
日
旦
旧
旨
早
旬
旱
旲
时
旾
昆
昇
昌
昍
明
昏
易
昔
昗
昜
星
映
春
昬
昭
是
昱
昴
昷
時
晃
晋
晏
普
景
晴
晶
智
暑
暗
暴
曇
曩
曰
曲
曳
更
曷
書
曹
曼
曾
替
最
朁
會
月
有
朋
服
朔
朕
朗
望
朝
期
木
朩
未
末
本
札
朮
术
朱
朵
朶
朿
杀
杉
李
杏
村
杜
束
条
来
東
杲
杳
松
析
林
枚
果
枝
枲
枼
某
柔
查
柬
柰
柳
柴
栗
校
株
根
格
桀
桃
案
桐
桑
桜
桼
梁
梅
條
梟
梨
棘
棠
棥
森
楊
楚
業
極
楽
榮
様
樂
樊
横
樹
橋
機
權
欠
次
欣
欮
欲
欶
欽
款
歆
歇
歌
歛
止
正
此
步
武
歨
歩
歪
歮
歯
歰
歲
歴
歷
歸
歹
歺
死
殳
段
殷
殸
殹
殺
殻
殿
毋
毌
母
每
毒
比
毕
毚
毛
毳
氏
氐
民
气
気
氣
水
氵
氶
氷
永
氺
氾
求
汉
汝
汞
江
池
決
沃
沓
沖
沙
沝
沢
河
治
泉
法
波
泣
泥
泰
洋
洛
洞
津
洪
洲
活
派
流
浅
浓
浦
浩
浪
浮
海
涼
淑
淡
淮
深
淳
清
渚
渠
渡
港
湖
湯
源
滅
滿
演
漢
漸
潮
澤
激
濟
瀬
火
灬
灭
灰
灵
灷
炅
炎
炏
炗
炙
炭
為
烈
烏
烝
焉
無
焦
焱
然
煞
照
熊
熏
熱
燕
營
燮
爆
爪
爫
爭
爯
爰
爱
爲
爵
父
爻
爽
爾
爿
片
版
牙
牚
牛
牜
牟
牢
牧
物
牪
特
牽
犀
犬
犭
犮
狂
狄
狊
独
狺
狼
猋
猒
猛
猪
献
猿
獄
獅
獣
獻
玄
率
玉
王
玟
玨
玲
珎
珠
班
球
理
琴
瑟
瑩
瓜
瓦
甘
甚
生
産
用
甫
甬
田
由
甲
申
电
甶
男
甸
甹
町
画
甾
畀
界
畏
畐
留
畜
畟
畢
略
畧
畨
番
畫
異
畱
當
畺
畾
疊
疋
疌
疑
疒
疾
癶
癸
癹
発
登
發
白
百
皀
皃
的
皆
皇
皋
皐
皕
皮
皷
皿
盃
盆
盇
盈
益
盍
盎
监
盒
盖
盛
盡
監
盤
盧
目
直
相
盾
省
眇
眉
看
眔
眞
真
眷
眼
眾
着
睘
督
睪
睿
瞏
瞢
瞿
矍
矛
矞
矢
矣
知
矦
短
石
砂
研
破
碎
磊
磨
示
礻
礼
社
祐
祖
神
祟
祥
票
祭
禀
禁
福
禮
禸
禹
禺
离
禽
禾
禿
秀
私
秃
秉
秋
科
秘
秝
秦
移
程
稟
種
稲
穀
穆
穌
穴
究
穹
空
穿
突
窄
窒
立
竒
站
竜
竝
竟
章
童
端
竹
笑
笠
第
筆
等
答
箕
算
箴
節
篤
篭
米
粉
粛
粟
粤
粦
粲
精
糞
糸
糹
系
紀
約
紅
紋
納
純
素
索
紫
累
細
紹
終
組
結
絜
絫
統
絲
經
維
綾
綿
総
線
編
縣
繇
織
纍
纟
线
经
缶
网
罒
罔
罕
罗
罙
罡
罢
罪
署
罷
羅
羊
羌
羍
美
羔
羕
羗
羞
羡
羣
群
義
羲
羸
羽
翁
翏
習
翔
翕
翟
翠
翼
老
耂
考
者
耆
而
耎
耑
耒
耳
耴
耶
耷
聂
聊
聖
聚
聞
聶
聿
肀
肃
肅
肉
肖
肙
肥
肩
肯
育
肴
胃
背
胡
胥
能
脊
脩
膚
臣
臤
臧
臨
自
臬
臭
臯
臱
至
致
臺
臼
臽
臾
臿
舀
舂
舄
與
興
舉
舌
舍
舛
舜
舞
舟
般
船
艮
良
色
艸
艹
艾
芒
芔
芬
芮
花
芳
芺
芻
苏
苔
苗
苟
若
苦
英
茂
茶
茸
荅
草
荒
荣
荼
莆
莊
莧
莫
莽
菆
菊
菐
菜
菩
華
萬
落
葉
著
葛
董
葵
蒙
蒦
蒼
蓋
蓬
蓮
蓺
蔑
蔡
蔵
蕉
蕭
薄
薛
薦
薩
薰
藍
藏
藤
藥
蘭
虍
虎
虐
虒
虔
處
虖
虗
虘
虚
虛
虜
虞
虫
虽
蚤
蚩
蛇
蜀
蜜
蟲
蠡
血
行
衍
術
街
衛
衣
衤
表
衮
衰
袁
袞
装
裏
裕
褭
褱
襄
襾
西
覀
要
覃
見
規
覓
視
覧
親
覽
觀
见
视
角
解
言
訁
訇
計
記
許
詩
話
詹
語
誠
誩
說
説
論
諸
警
議
護
變
讠
话
语
谷
豆
豈
豊
豐
豕
豖
豙
象
豦
豩
豪
豸
貇
貝
貞
貟
負
貢
貧
貪
貫
責
貳
貴
買
費
賀
賁
資
賈
賊
賏
賓
賔
賛
賞
賢
賣
質
賴
贊
贝
贡
责
贯
贲
贵
赖
赞
赤
赦
走
赵
起
超
越
趙
足
路
蹇
身
躬
車
軍
軎
軟
転
載
輔
輝
輦
輪
轟
车
辛
辜
辟
辥
辰
辱
農
辵
辶
边
达
过
近
连
迷
追
退
送
逆
逐
通
速
造
逢
連
逮
進
遀
遂
遊
運
過
道
達
遠
遣
適
遷
選
遺
還
邊
邑
邕
那
邦
邪
郎
郡
部
郭
郷
都
鄉
鄭
酉
酋
配
酓
釆
采
里
重
野
量
金
釒
鈴
鉄
銀
鋼
錢
鏡
钅
铁
長
镸
长
門
閃
閉
開
閏
閑
閒
間
閔
関
閵
閻
闇
闌
闘
關
门
间
闷
阑
阜
阝
阪
阮
阳
阿
陈
降
限
院
陳
陵
陸
陽
隆
隊
隋
隡
隨
隱
隶
隹
隺
隻
隼
隽
难
雀
雁
雄
雅
集
雈
雋
雍
雐
雔
雙
雚
雜
雝
離
難
雨
雩
雪
雲
零
雷
電
需
震
霊
霍
霜
霝
霞
霧
霸
靈
靑
青
靖
静
非
靡
面
靣
革
韋
韓
韦
韭
韯
韱
音
響
頁
頃
項
順
須
頗
領
頡
頭
頻
顛
顯
页
颜
風
风
飛
飞
食
飠
飯
飾
養
館
饣
首
香
馬
馮
駦
騎
马
骨
高
髟
鬥
鬯
鬲
鬼
魂
魏
魔
魚
魯
鮮
鱼
鲁
鳥
鳳
鳴
鸟
鹵
鹿
麃
麗
麥
麦
麻
黃
黄
黍
黎
黑
黒
黨
黹
黽
黾
鼎
鼓
鼠
鼻
齊
齋
齐
齒
齿
龍
龙
龜
龟
龠
龰
龱
龴
龵
龶
龷
龸
龹





者
艹
️
！
＆
（
）
，
－
．
／
：
；
＝
？
［
］
ａ
ｅ
ｒ
～
｢
｣
･
￼
𝙋
𝙔
𝙖
𝙜
𝙣
𝙤
𝙧
𝙨
𝙩
🇭
🇹
💬
𠀁
𠀃
𠀆
𠀉
𠀎
𠀐
𠁁
𠁣
𠂆
𠂇
𠂈
𠂉
𠂊
𠂋
𠂎
𠂒
𠂔
𠂛
𠂡
𠂢
𠂤
𠂬
𠂭
𠂹
𠃊
𠃋
𠃌
𠃍
𠃎
𠃑
𠃓
𠃔
𠃜
𠄌
𠄎
𠄠
𠄢
𠆢
𠆥
𠇍
𠈌
𠌵
𠓜
𠔉
𠔥
𠔼
𠔽
𠔿
𠕀
𠕁
𠕋
𠘧
𠘨
𠙻
𠙼
𠚏
𠚒
𠚤
𠚪
𠣏
𠤎
𠤕
𠥓
𠦄
𠦑
𠦝
𠧒
𠧗
𠧪
𠩺
𠪚
𠫓
𠫔
𠫤
𠬛
𠬝
𠬞
𠬢
𠬤
𠬶
𠮛
𠮦
𠮷
𠯑
𠱠
𠳮
𠷎
𡈼
𡉀
𡉵
𡌥
𡍮
𡏳
𡕒
𡕩
𡕰
𡖅
𡗗
𡗜
𡘆
𡘤
𡧱
𡨄
𡩧
𡬠
𡭽
𡰣
𡰥
𡰪
𡰯
𡰱
𡷈
𡸁
𡿨
𡿩
𡿪
𡿺
𢀖
𢀛
𢀩
𢁙
𢆉
𢆰
𢆶
𢇁
𢇇
𢉖
𢌬
𢌿
𢏚
𢑑
𢑚
𢖻
𢙣
𢛳
𢦏
𢦒
𢧵
𢼄
𢾕
𣁋
𣄼
𣅀
𣅽
𣍘
𣎳
𣎵
𣏋
𣏼
𣗥
𣥂
𣥖
𣦵
𣦼
𣧄
𣪊
𣪠
𣬉
𣳾
𣶒
𤇾
𤊽
𤐫
𤓰
𤔔
𤕨
𤣩
𤰇
𤰔
𤰞
𤴓
𤴔
𤽄
𥁑
𥁕
𥃦
𥃩
𥃭
𥇡
𥑟
𥘅
𥘈
𥝢
𥫗
𥱡
𦈢
𦉪
𦉬
𦉼
𦍌
𦍒
𦎧
𦐇
𦓔
𦔮
𦘒
𦙃
𦚏
𦣝
𦣞
𦣻
𦥑
𦥔
𦥯
𦨉
𦭝
𦰩
𧆞
𧈧
𧘇
𧰨
𧴪
𧴮
𧵩
𧾷
𨸏
𨾴
𩙿
𩠐
𩫏
𩵋
𪉷
𪜀
𪟽
𪠲
𪩲
𫇦
𫔭
𫜸
𫝀
𫠣
𫠩
𫢉
𫥞
𫩏
𫩠
𫪡
𫲽
𫶧
𬀷
𬐘
𬗌
𬙙
𬛸
𬜯
𬟩
𬯁
𬴘
𬺻
𬼉
𬼖
𭀰
𭁈
𭁨
𭅰
𭑈
𭕄
𭗼
𭤨
𭥫
𭻾
𮅕
𮊿
𮍌
𮍏
𮓗
𮥼
𮧮
廾
𰀁
𰀄
𰀈
𰀉
𰀕
𰀠
𰀡
𰀢
𰀪
𰁜
𰃮
𰆊
𰆘
𰋙
𰕎
𰢴
𰧭
𰯲
00--
01--
02--
03--
04--
05--
06--
07--
08--
09--
35--
36--
37--
40--
41--
42--
43--
44--
45--
46--
47--
48--
49--
50--
51--
53--
55--
56--
57--
58--
59--
60--
61--
63--
66--
70--
71--
73--
74--
75--
76--
78--
80--
81--
82--
83--
84--
85--
86--
87--
88--
89--
90--
91--
92--
93--
94--
95--
96--
97--
978--
98--
99--
a--
aa--
ab--
ac--
achieve--
acu--
ad--
adap--
add--
ae--
aero--
af--
ag--
ah--
ai--
air--
aka--
aki--
al--
all--
alt--
alu--
am--
an--
anarc--
anim--
ans--
anti--
any--
ap--
app--
ar--
arc--
arg--
arm--
as--
ash--
assi--
aste--
astr--
at--
ath--
ato--
au--
auto--
av--
ax--
az--
b--
ba--
bal--
bar--
base--
bau--
be--
bel--
ben--
ber--
bi--
biblio--
big--
bio--
bir--
bla--
bloo--
blu--
bo--
boo--
bor--
bos--
bou--
bour--
box--
br--
brac--
bre--
bro--
broad--
bu--
bun--
bur--
by--
c--
ca--
calc--
can--
cap--
car--
cat--
cau--
cc--
cd--
ce--
cele--
cen--
cere--
cert--
ch--
cha--
che--
chi--
chlo--
cho--
chrono--
cin--
cit--
citiz--
cla--
clau--
cle--
cli--
clo--
clu--
cm--
cn--
co--
cock--
col--
com--
con--
conc--
cond--
conne--
cons--
conti--
contri--
coordi--
copy--
cor--
cou--
cr--
crea--
crim--
crit--
cro--
cru--
cs--
cu--
cur--
cy--
cyclo--
cyp--
d--
da--
dar--
data--
date--
daugh--
dc--
de--
dec--
decla--
def--
den--
depe--
des--
dete--
deu--
di--
diag--
dio--
diplo--
disa--
disam--
disc--
disp--
dist--
do--
dr--
dra--
dru--
du--
dy--
e--
ea--
ear--
eb--
ec--
ed--
edit--
eff--
ein--
el--
ele--
elec--
elep--
em--
emer--
en--
end--
ep--
equ--
er--
eri--
es--
essen--
establi--
et--
eu--
ex--
exce--
exclu--
expand--
expe--
expl--
f--
fa--
fact--
fan--
fe--
fer--
ff--
fi--
file--
fin--
fire--
fish--
fla--
flo--
flu--
fo--
fol--
foot--
for--
fos--
fr--
frag--
fre--
free--
frie--
fru--
fu--
full--
g--
ga--
gad--
gala--
gang--
gar--
gaz--
ge--
gen--
gene--
geo--
ger--
get--
gi--
gl--
glo--
glu--
gly--
gm--
go--
god--
gon--
gr--
gram--
gre--
gro--
gu--
gy--
h--
ha--
har--
hard--
has--
hat--
hay--
he--
hel--
heli--
her--
hi--
high--
hiro--
ho--
hol--
holi--
holl--
home--
hor--
hot--
hr--
hu--
hur--
hy--
hydr--
hydro--
hyper--
hypo--
hyu--
i--
ia--
ic--
id--
iden--
if--
ign--
il--
illu--
im--
imp--
imple--
in--
indi--
indu--
infe--
infi--
influ--
inhi--
init--
inst--
int--
inter--
inva--
investi--
invi--
io--
ip--
ir--
is--
iso--
it--
iv--
j--
ja--
je--
jen--
jer--
jes--
ji--
jo--
js--
ju--
jud--
jul--
k--
ka--
kan--
kar--
ke--
ker--
key--
kh--
kha--
ki--
kla--
kle--
ko--
kr--
ku--
kyo--
l--
la--
lan--
lau--
lc--
le--
li--
libr--
life--
lin--
link--
ll--
lo--
lu--
lud--
ly--
m--
ma--
mac--
mad--
mag--
maha--
maj--
make--
mal--
mala--
man--
mar--
marga--
mati--
mau--
max--
may--
mb--
mc--
me--
mela--
men--
mer--
met--
meta--
mi--
micr--
micro--
mid--
mill--
min--
mira--
mit--
mo--
moha--
mon--
mono--
monu--
mor--
mos--
mou--
mr--
mu--
multi--
munic--
mur--
my--
n--
na--
naka--
nan--
nar--
nat--
nav--
navi--
nc--
nd--
ne--
nece--
neo--
neu--
neuro--
new--
news--
ng--
ni--
nin--
no--
non--
nor--
not--
ns--
nu--
nuc--
num--
ny--
o--
obser--
of--
oh--
ok--
ol--
on--
op--
open--
or--
ori--
os--
ou--
out--
over--
oxi--
p--
pa--
pac--
page--
pal--
pan--
par--
para--
pati--
patr--
pay--
pe--
pen--
per--
ph--
phi--
phila--
phos--
photo--
phy--
pi--
pitc--
pix--
pl--
play--
plo--
plu--
po--
post--
pp--
pr--
pra--
pre--
pri--
prim--
princ--
pro--
ps--
pseu--
pseudo--
psy--
psycho--
pt--
pu--
pul--
pur--
py--
pyra--
q--
qu--
quan--
r--
ra--
rac--
radi--
re--
rec--
reco--
recom--
red--
ref--
regi--
regu--
rei--
rela--
rele--
rend--
ret--
rho--
ri--
ro--
rou--
row--
rs--
rt--
ru--
run--
s--
sa--
sai--
sal--
salv--
sam--
san--
sar--
sau--
sc--
sch--
sche--
scho--
schu--
sco--
se--
sei--
sen--
sens--
ser--
set--
sh--
sha--
shi--
show--
shu--
si--
siam--
simp--
simu--
site--
sk--
sky--
sl--
slo--
sm--
sna--
sni--
so--
solu--
some--
sor--
sp--
spi--
spo--
sq--
ss--
st--
star--
ste--
sto--
str--
stu--
sty--
su--
sub--
sul--
sum--
sun--
super--
supp--
supple--
sur--
sv--
swa--
swe--
swi--
sy--
symp--
syn--
t--
ta--
tai--
taka--
tar--
tax--
tc--
te--
tea--
tele--
temp--
ten--
ter--
test--
text--
th--
thai--
the--
thi--
tho--
ti--
time--
to--
top--
tor--
tr--
trans--
tri--
tro--
tru--
ts--
tsu--
tu--
tur--
twen--
twi--
ty--
u--
uk--
ul--
un--
under--
univ--
up--
ur--
us--
user--
v--
va--
val--
van--
var--
ve--
ven--
ver--
vi--
view--
viol--
vla--
vo--
vol--
voya--
vu--
w--
wa--
war--
wat--
we--
weat--
web--
wel--
west--
whe--
white--
wi--
wiki--
wil--
wild--
wo--
work--
wu--
x--
xi--
y--
ya--
ye--
yi--
yo--
yu--
z--
za--
zen--
zh--
zoo--
zu--
đ--
α--
ا--
ก--
กก--
กกร--
กกล--
กกะ--
กกา--
กการ--
กกำหน--
กข--
กของ--
กขา--
กค--
กคณะ--
กคน--
กคร--
กคว--
กความ--
กคาม--
กง--
กงาน--
กจ--
กจะ--
กจะท--
กจาก--
กฉ--
กช--
กชน--
กชาย--
กซ--
กฎ--
กฎหมาย--
กฐาน--
กด--
กดะ--
กดา--
กต--
กตร--
กตา--
กถ--
กท--
กทร--
กทะ--
กทำ--
กธ--
กธรร--
กน--
กนก--
กนำ--
กนำม--
กบ--
กบฏ--
กบวช--
กบอล--
กป--
กปกคร--
กประ--
กปล--
กผ--
กผนว--
กฝ--
กพ--
กพระ--
กพวก--
กฟ--
กภ--
กภา--
กภาค--
กภาพ--
กม--
กมล--
กมวย--
กมวยสากล--
กมวยไทยช--
กย--
กยภาพ--
กยะ--
กร--
กรข--
กรด--
กรต--
กรท--
กรบ--
กรม--
กรมท--
กรมหลวง--
กรยาน--
กรร--
กรรม--
กรรมการ--
กรรมการในคณะ--
กรว--
กรส--
กรอ--
กรอบ--
กระ--
กระจ--
กระทำ--
กระบวนการ--
กระแ--
กราช--
กราน--
กฤต--
กฤษ--
กล--
กลง--
กละ--
กลาง--
กลไก--
กว--
กวง--
กวาง--
กวาด--
กศ--
กศร--
กษ--
กษณ--
กษณะ--
กษณะท--
กษร--
กษะ--
กษา--
กษาการ--
กษาข--
กษาท--
กษาพระ--
กษาราช--
กษาส--
กษาอ--
กษาและ--
กษาใน--
กส--
กสงคร--
กสภา--
กสห--
กสอน--
กสะ--
กสาว--
กสำรวจ--
กห--
กหม--
กหล--
กอ--
กอง--
กองท--
กอน--
กออก--
กออกแบบ--
กอะ--
กฮ--
กะ--
กา--
กาก--
กางเข--
กาม--
กาย--
การ--
การการ--
การกำหน--
การข--
การขยาย--
การคณะ--
การต--
การตรวจสอบ--
การท--
การทดล--
การทดสอบ--
การทางทหาร--
การนำ--
การนำข--
การปกครอง--
การพ--
การพระ--
การม--
การย--
การร--
การล--
การว--
การส--
การสำรวจ--
การอาหาร--
การแยก--
กาล--
กาและ--
กำ--
กำหนด--
กำแพ--
กำไร--
กเก--
กเข--
กเซ--
กเด--
กเตะ--
กเธอ--
กเนร--
กเบ--
กเผ--
กเร--
กเส--
กเสบ--
กเอ--
กแบ--
กแยก--
กแรก--
กและ--
กแสดง--
กโคร--
กโทร--
กโทษ--
กใจ--
กใน--
กไป--
กไว--
กๆ--
ข--
ขณ--
ขณะ--
ขน--
ขนาด--
ขนายก--
ขบวน--
ขภาพ--
ขม--
ขย--
ขว--
ขวา--
ขส--
ขอ--
ของ--
ของการ--
ของค--
ของคณะ--
ของช--
ของท--
ของพระ--
ของส--
ของอ--
ขอบ--
ขอบเข--
ขา--
ขาด--
ขาย--
ขาว--
ขโม--
ค--
คก--
คการ--
คค--
คคล--
คคลจาก--
คคลจากคณะ--
คง--
คช--
คณ--
คณะ--
คด--
คต--
คท--
คน--
คนข--
คนจาก--
คนจำน--
คนต--
คนบ--
คนม--
คนส--
คนแรก--
คนใน--
คนไทย--
คบ--
คป--
คพ--
คม--
คย--
คร--
ครบ--
ครองนคร--
ครอส--
คล--
คลอง--
คลากร--
คว--
ควร--
ความ--
ความพยายาม--
คส--
คห--
คอ--
คอน--
คอม--
คอย--
คอล--
คะ--
คะแนน--
คา--
คาถ--
คาน--
คาบ--
คาร--
คาล--
คำ--
คำต--
คำนวณ--
คำส--
คเอ--
ฅ--
ฆ--
ฆาต--
ง--
งก--
งกฎ--
งกฎหม--
งกร--
งกรรม--
งกระจ--
งกระบว--
งกระแ--
งกฤษ--
งกล--
งกะ--
งกา--
งกาย--
งการ--
งกำหน--
งข--
งขนาด--
งขบว--
งของ--
งขาด--
งค--
งคณ--
งคณะ--
งคน--
งคม--
งคร--
งคล--
งคว--
งความ--
งคา--
งคาร--
งคำถ--
งฆ--
งง--
งงะ--
งงาน--
งจ--
งจดหม--
งจะ--
งจะท--
งจะส--
งจาก--
งจากจ--
งฉ--
งช--
งชน--
งชนะ--
งชาว--
งซ--
งด--
งดาว--
งดำร--
งต--
งตร--
งตะ--
งตาม--
งถ--
งถนน--
งถว--
งท--
งทร--
งทหาร--
งทาง--
งทำ--
งทำน--
งทำล--
งธ--
งน--
งนคร--
งนายก--
งนำ--
งนำม--
งบ--
งบทค--
งบทควา--
งบวก--
งบวร--
งป--
งปกคร--
งประ--
งประธาน--
งประมวลกฎหม--
งปรากฏ--
งปล--
งปวง--
งผ--
งผล--
งฝ--
งพ--
งพน--
งพยาย--
งพระ--
งพล--
งพวก--
งพอ--
งฟ--
งภ--
งภา--
งภาค--
งภาษา--
งม--
งมรดกโลก--
งมวลชน--
งมหา--
งมอบ--
งมะ--
งมา--
งมาก--
งย--
งยาก--
งร--
งรถ--
งรอบ--
งระ--
งระบ--
งระบบร--
งราช--
งราย--
งล--
งลง--
งลบ--
งละ--
งว--
งวง--
งวล--
งศ--
งศพ--
งศาล--
งส--
งสน--
งสภา--
งสม--
งสห--
งสอง--
งสะ--
งสาม--
งสามารถ--
งสาร--
งสาว--
งห--
งหน--
งหม--
งหมด--
งหล--
งหลาย--
งหวะ--
งหาร--
งอ--
งออก--
งออฟ--
งอะ--
งอา--
งอาจ--
งอำน--
งอำนาจ--
งฮ--
งะ--
งาน--
งาม--
งเก--
งเกต--
งเกาะ--
งเขต--
งเขา--
งเค--
งเซ--
งเทพ--
งเธอ--
งเบ--
งเป--
งเพ--
งเพราะ--
งเพลง--
งเร--
งเล--
งเว--
งเวท--
งเศส--
งเส--
งเอ--
งเฮ--
งแก--
งแข--
งแค--
งแบบ--
งแผ--
งแย--
งแรก--
งแรกใน--
งแรง--
งแล--
งและ--
งแสง--
งแสดง--
งแสน--
งแอ--
งโ--
งโค--
งโคร--
งโดย--
งโต--
งโรง--
งโฮ--
งใจ--
งใด--
งใน--
งในการ--
งในประเทศ--
งในส--
งในสาม--
งใบ--
งไทย--
งไป--
งไฟ--
งไห--
งๆ--
จ--
จก--
จกรม--
จกรรม--
จการ--
จข--
จง--
จจ--
จจะ--
จจาก--
จฉา--
จช--
จด--
จดหม--
จดหมายม--
จต--
จท--
จน--
จนส--
จบ--
จประ--
จพ--
จพระ--
จพระบรม--
จพระบรมไตร--
จพระไชย--
จม--
จย--
จร--
จล--
จว--
จส--
จอ--
จอม--
จะ--
จะก--
จะข--
จะค--
จะงอย--
จะต--
จะถ--
จะท--
จะทร--
จะทำ--
จะทำการ--
จะทำล--
จะน--
จะนำ--
จะบ--
จะพ--
จะม--
จะย--
จะร--
จะล--
จะว--
จะส--
จะสามารถ--
จะห--
จะอ--
จะออก--
จะแสดง--
จา--
จาก--
จากการ--
จากคณะ--
จากประเทศ--
จาค--
จาง--
จาน--
จารณา--
จำ--
จำน--
จำนวน--
จำป--
จำพ--
จำเล--
จำแน--
จและ--
จโจ--
จใน--
จไป--
ฉ--
ฉล--
ฉลอง--
ฉาก--
ฉาย--
ช--
ชก--
ชกาล--
ชช--
ชชา--
ชฌ--
ชญา--
ชต--
ชน--
ชนะ--
ชนะแค--
ชบ--
ชป--
ชผ--
ชพ--
ชม--
ชมรม--
ชย--
ชร--
ชรา--
ชล--
ชว--
ชวล--
ชส--
ชอ--
ชอบ--
ชะ--
ชะต--
ชา--
ชาก--
ชาการ--
ชาญ--
ชาด--
ชาท--
ชาน--
ชาพ--
ชาภาษา--
ชาย--
ชาว--
ชาส--
ชาเอก--
ชำน--
ชำนาญ--
ชเช--
ซ--
ซง--
ซอ--
ซอน--
ซอย--
ซะ--
ซา--
ซาก--
ซาน--
ฌ--
ฌาป--
ญ--
ญก--
ญการ--
ญของ--
ญค--
ญจ--
ญจร--
ญจาก--
ญช--
ญชนะ--
ญชา--
ญชาการ--
ญญ--
ญญา--
ญญาณ--
ญญาโท--
ญต--
ญท--
ญธรรม--
ญน--
ญบ--
ญป--
ญประ--
ญพ--
ญพระ--
ญมา--
ญย--
ญร--
ญล--
ญว--
ญส--
ญหล--
ญหา--
ญหาข--
ญหาท--
ญหาย--
ญอ--
ญา--
ญาณ--
ญาต--
ญแจ--
ญและ--
ญใจ--
ญไป--
ฎ--
ฎก--
ฏ--
ฏฐ--
ฐ--
ฐก--
ฐค--
ฐจ--
ฐฉ--
ฐช--
ฐซ--
ฐต--
ฐท--
ฐบ--
ฐบาล--
ฐป--
ฐประช--
ฐพ--
ฐม--
ฐว--
ฐส--
ฐสภา--
ฐอ--
ฐฮา--
ฐาน--
ฐานะ--
ฐเก--
ฑ--
ฑา--
ฒ--
ฒน--
ฒนธรรม--
ฒนา--
ฒนาการ--
ฒนาข--
ฒนาระบบ--
ฒนาและ--
ณ--
ณก--
ณค--
ณจ--
ณจะ--
ณช--
ณฐ--
ณฐานใน--
ณฑ--
ณณ--
ณต--
ณท--
ณน--
ณป--
ณพ--
ณพระ--
ณภาพ--
ณม--
ณย--
ณราช--
ณว--
ณส--
ณห--
ณอ--
ณา--
ด--
ดก--
ดกร--
ดกระจ--
ดการ--
ดข--
ดขวาง--
ดของ--
ดขาด--
ดค--
ดคณะ--
ดคน--
ดครอง--
ดคล--
ดควา--
ดง--
ดงาน--
ดจ--
ดจะ--
ดจาก--
ดฉ--
ดฉาก--
ดช--
ดชอบ--
ดซ--
ดด--
ดดา--
ดต--
ดตร--
ดตะ--
ดตา--
ดตาม--
ดถ--
ดถนน--
ดท--
ดทร--
ดทอง--
ดทะ--
ดทำ--
ดธ--
ดธรร--
ดน--
ดบ--
ดป--
ดปร--
ดประ--
ดปรากฏ--
ดปล--
ดปาก--
ดผ--
ดผล--
ดฝ--
ดพ--
ดพระ--
ดพลาด--
ดภ--
ดภา--
ดภาวะ--
ดภาษา--
ดม--
ดมะ--
ดมา--
ดย--
ดยอด--
ดยา--
ดร--
ดรถ--
ดระ--
ดระบบ--
ดราช--
ดล--
ดลง--
ดว--
ดวง--
ดศ--
ดศาล--
ดส--
ดสงคร--
ดสถ--
ดสน--
ดสรร--
ดสว--
ดสอน--
ดสะ--
ดสำ--
ดห--
ดหน--
ดหม--
ดหมายป--
ดหล--
ดอ--
ดอก--
ดอน--
ดออก--
ดอะ--
ดอำน--
ดอำนาจ--
ดฮ--
ดะ--
ดา--
ดาของ--
ดาน--
ดาบ--
ดารา--
ดาว--
ดาส--
ดำ--
ดำร--
ดเกราะ--
ดเกาะ--
ดเข--
ดเจน--
ดเท--
ดเทศ--
ดเทศบาล--
ดเผย--
ดเย--
ดเอ--
ดแจ--
ดแบ--
ดแปลง--
ดแผ--
ดแรก--
ดและ--
ดแสดง--
ดโ--
ดโคก--
ดโดย--
ดโทร--
ดโน--
ดโพน--
ดโรค--
ดโส--
ดใจ--
ดใน--
ดในบรรด--
ดไต--
ดไป--
ดไฟ--
ต--
ตก--
ตกรรม--
ตกรอบ--
ตกล--
ตการ--
ตข--
ตของ--
ตค--
ตควา--
ตง--
ตจ--
ตจะ--
ตจาก--
ตจำน--
ตช--
ตซ--
ตซอล--
ตด--
ตต--
ตตา--
ตถ--
ตท--
ตน--
ตนา--
ตบ--
ตบอล--
ตบอลชาว--
ตประ--
ตประธาน--
ตผ--
ตพ--
ตพระ--
ตภ--
ตม--
ตย--
ตยกรรม--
ตยสาร--
ตยา--
ตร--
ตรกร--
ตรของ--
ตรค--
ตรง--
ตรชาย--
ตรท--
ตรน--
ตรพ--
ตรม--
ตรว--
ตรวจส--
ตรวจสอบ--
ตรส--
ตรสาวข--
ตรอ--
ตระ--
ตรา--
ตรายการ--
ตล--
ตลง--
ตลอด--
ตลอดจน--
ตลาด--
ตว--
ตส--
ตสาหกรรม--
ตหล--
ตอ--
ตอน--
ตอบ--
ตอบสน--
ตอล--
ตฮ--
ตะ--
ตะก--
ตา--
ตาม--
ตามควา--
ตามพระ--
ตามเวลา--
ตามแนว--
ตาย--
ตาร--
ตาราง--
ตำนาน--
ตำบล--
ตำบลโคก--
ตำบลโน--
ตำร--
ตำรวจ--
ตเพลง--
ตเวช--
ตและ--
ตโดย--
ตใจ--
ตใน--
ตไทย--
ตไป--
ถ--
ถนน--
ถนนส--
ถวาย--
ถอด--
ถาม--
ท--
ทก--
ทข--
ทค--
ทจ--
ทด--
ทดลอง--
ทดสอ--
ทท--
ทธ--
ทธการ--
ทธท--
ทธส--
ทธา--
ทธโฆษา--
ทธไส--
ทน--
ทบ--
ทบทว--
ทม--
ทย--
ทยา--
ทยาน--
ทยาเขต--
ทร--
ทรง--
ทรงดำร--
ทรงพระ--
ทรงล--
ทรงส--
ทรถ--
ทรอ--
ทรา--
ทราบ--
ทว--
ทส--
ทหาร--
ทอ--
ทอง--
ทอดพระ--
ทะ--
ทะเล--
ทา--
ทาคา--
ทาง--
ทางราช--
ทาน--
ทายาท--
ทำ--
ทำการ--
ทำควา--
ทำงาน--
ทำต--
ทำน--
ทำผลง--
ทำลาย--
ทำส--
ทำไม--
ทโ--
ธ--
ธง--
ธท--
ธน--
ธประ--
ธย--
ธยม--
ธยา--
ธร--
ธรรม--
ธส--
ธอ--
ธา--
ธาน--
ธำร--
น--
นก--
นกฎ--
นกฎหม--
นกร--
นกระ--
นกระบว--
นกล--
นกลาง--
นกว--
นกอ--
นกะ--
นการ--
นกำ--
นกำหน--
นข--
นขบว--
นของ--
นค--
นคง--
นคณะ--
นคน--
นคร--
นคล--
นคว--
นความ--
นคา--
นคำ--
นง--
นงบประ--
นงาน--
นจ--
นจะ--
นจะท--
นจะส--
นจา--
นจาก--
นจำนวน--
นฉ--
นช--
นชน--
นชม--
นชอบ--
นชา--
นชาย--
นชาว--
นซ--
นซา--
นฐาน--
นด--
นดร--
นดา--
นดาบ--
นดาลใจ--
นต--
นตก--
นตกของ--
นตน--
นตรง--
นตรา--
นตราย--
นตลอ--
นตอน--
นตะ--
นตา--
นตาม--
นตำน--
นตำบ--
นตำร--
นตำรวจ--
นถ--
นถนน--
นท--
นทด--
นทร--
นทหาร--
นทอง--
นทะเล--
นทา--
นทาง--
นทางการ--
นทางคม--
นทางไป--
นทำ--
นธ--
นธง--
นธน--
นธร--
นธะ--
นน--
นนคร--
นนอก--
นนา--
นนาง--
นนายท--
นนำ--
นนโย--
นนโยบาย--
นบ--
นบก--
นบท--
นบทควา--
นบน--
นบะ--
นบาท--
นป--
นปกคร--
นประ--
นประกาศ--
นประธาน--
นปล--
นผ--
นผล--
นผลงาน--
นผลมาจาก--
นฝ--
นพ--
นพบ--
นพย--
นพร--
นพระ--
นพระราชโอรส--
นพระโอรส--
นพล--
นพวก--
นฟ--
นฟร--
นภ--
นภรร--
นภรรยา--
นภาพ--
นภายใน--
นภาวะ--
นภาษ--
นม--
นมหา--
นมะ--
นมา--
นมาก--
นมาต--
นย--
นยอด--
นยอม--
นยา--
นยาว--
นยำ--
นร--
นรถ--
นรองประธาน--
นรอบ--
นระ--
นระบบ--
นราก--
นราช--
นรามค--
นราย--
นรำ--
นฤ--
นล--
นลง--
นลม--
นละ--
นว--
นวา--
นวาย--
นศ--
นศาล--
นศาสน--
นส--
นสงคร--
นสต--
นสน--
นสภาพ--
นสม--
นสว--
นสอง--
นสะ--
นสาข--
นสาธาร--
นสาม--
นสามารถ--
นสาร--
นสำร--
นสโมสร--
นห--
นหน--
นหม--
นหย--
นหล--
นหา--
นอ--
นอก--
นอกจาก--
นอกเขต--
นอน--
นออก--
นออกของ--
นออส--
นอะ--
นอากาศ--
นอาจ--
นอำน--
นอำนาจ--
นอำเภ--
นฮ--
นะ--
นา--
นาค--
นาง--
นางส--
นาถ--
นาน--
นาม--
นาย--
นายก--
นายท--
นาว--
นาวาอากาศ--
นาศ--
นาโน--
นำ--
นำข--
นำท--
นำมา--
นำเสนอ--
นำเอา--
นำโดย--
นเกม--
นเกาะ--
นเข--
นเขต--
นเขา--
นเค--
นเจ--
นเฉพาะ--
นเช--
นเซ--
นเด--
นเดอะ--
นเต--
นเท--
นเทศ--
นเทศบาล--
นเน--
นเบ--
นเป--
นเพ--
นเพราะ--
นเพลง--
นเม--
นเย--
นเร--
นเล--
นเว--
นเวลา--
นเส--
นเอ--
นเอก--
นเอง--
นเฮ--
นแ--
นแก--
นแข--
นแค--
นแดน--
นแทน--
นแน--
นแนล--
นแนวท--
นแบบ--
นแป--
นแผน--
นแฟน--
นแม--
นแรก--
นแรง--
นแล--
นและ--
นแสดง--
นแอ--
นโก--
นโค--
นโคร--
นโด--
นโดย--
นโต--
นโน--
นโยบาย--
นโร--
นโรค--
นโรง--
นโอ--
นโอรส--
นโฮ--
นใ--
นใจ--
นใด--
นใน--
นในการ--
นในประเทศ--
นใบ--
นไค--
นไซ--
นได--
นไทย--
นไป--
นไปตาม--
นไปตามพระ--
นไปท--
นไพร--
นไฟ--
นไว--
นไหว--
นไอ--
นๆ--
บ--
บก--
บกฎหม--
บกร--
บกระบว--
บกล--
บการ--
บข--
บขนาด--
บขบว--
บของ--
บค--
บคณะ--
บคน--
บคล--
บควา--
บคะ--
บคะแน--
บคำ--
บคำช--
บง--
บงบประ--
บจ--
บจดหม--
บจะ--
บจาก--
บจำน--
บฉ--
บช--
บชาว--
บซ--
บด--
บต--
บตน--
บตา--
บตำน--
บตำบ--
บถ--
บถนน--
บท--
บทความ--
บทบาท--
บทร--
บทอด--
บทะ--
บธ--
บน--
บนยอด--
บนโย--
บนโยบาย--
บบ--
บบท--
บบทบาท--
บป--
บประ--
บปล--
บปวด--
บผ--
บผล--
บฝ--
บพ--
บพร--
บพรรค--
บพระ--
บพระราช--
บพวก--
บฟ--
บภ--
บภรร--
บภาค--
บภาพ--
บม--
บมอบ--
บมอบหม--
บมะ--
บมา--
บย--
บร--
บรถ--
บรรด--
บรรพ--
บรรย--
บรรยากาศ--
บรวบร--
บรอง--
บรอด--
บระ--
บระบบ--
บรา--
บราชการ--
บราย--
บรายการ--
บล--
บละคร--
บว--
บวง--
บศ--
บส--
บสน--
บสภา--
บสม--
บสวน--
บสวนสอ--
บสอง--
บสะ--
บสาม--
บสาร--
บห--
บหม--
บหล--
บอ--
บอก--
บอน--
บอย--
บอล--
บออกจาก--
บออส--
บอาห--
บอาหาร--
บอำนาจ--
บอำเภ--
บฮ--
บะ--
บา--
บางคน--
บาดหล--
บาต--
บาท--
บาน--
บาย--
บาร--
บาล--
บเก--
บเข--
บเขา--
บเซ--
บเด--
บเท--
บเบ--
บเป--
บเอ--
บเอกราช--
บแข--
บแค--
บแนว--
บแผ--
บแรก--
บและ--
บโ--
บโดย--
บโต--
บโตข--
บโทษ--
บโรค--
บโลก--
บโอ--
บใจ--
บใน--
บใบ--
บไป--
บไอ--
ป--
ปก--
ปกครอง--
ปการ--
ปข--
ปค--
ปจ--
ปฐม--
ปด--
ปดา--
ปต--
ปท--
ปทร--
ปน--
ปบ--
ปป--
ปประ--
ปผา--
ปพ--
ปภาพ--
ปม--
ปร--
ประ--
ประกอบ--
ประกาศ--
ประจำ--
ประชาชน--
ประถ--
ประท--
ประธาน--
ประมวล--
ประส--
ประสบผล--
ประสานง--
ประเทศ--
ประเภท--
ปรากฏ--
ปรากฏใน--
ปราช--
ปราบ--
ปราย--
ปรารถน--
ปราศ--
ปล--
ปลา--
ปลาก--
ปลาฉล--
ปลาย--
ปว--
ปส--
ปสรรค--
ปห--
ปอ--
ปะ--
ปา--
ปาก--
ปาน--
ปเค--
ปเด--
ปแบบ--
ปและ--
ปโป--
ปไตย--
ผ--
ผน--
ผม--
ผล--
ผลก--
ผลกระท--
ผลการ--
ผลข--
ผลงาน--
ผลท--
ผลส--
ผสม--
ผสมผ--
ผา--
ฝ--
ฝน--
ฝาก--
พ--
พก--
พข--
พค--
พงศ--
พจ--
พช--
พชาว--
พญ--
พญา--
พต--
พท--
พน--
พนม--
พนายก--
พบ--
พบก--
พบใน--
พพ--
พภ--
พม--
พย--
พยากร--
พยาย--
พยายาม--
พร--
พรม--
พรมแดน--
พรรค--
พรหม--
พระ--
พระน--
พระนาม--
พระมหา--
พระยศ--
พระยา--
พระอ--
พระโอรส--
พฤกษ--
พล--
พลจาก--
พลท--
พลาด--
พว--
พวก--
พวกเขา--
พส--
พหล--
พอ--
พอส--
พออฟ--
พอากาศ--
พอใจ--
พะ--
พา--
พาก--
พากษา--
พาท--
พาน--
พาร--
ฟ--
ฟฟ--
ฟฟา--
ฟร--
ฟล--
ฟอ--
ฟา--
ภ--
ภพ--
ภมร--
ภร--
ภรรยา--
ภา--
ภาค--
ภาพ--
ภาพการ--
ภาพวา--
ภายใน--
ภาวะ--
ภาษา--
ม--
มก--
มกล--
มการ--
มข--
มขนาด--
มของ--
มค--
มคณะ--
มครอง--
มคล--
มคว--
มความ--
มความส--
มความสามารถ--
มง--
มงคล--
มงวด--
มงาน--
มจ--
มจะ--
มจาก--
มจำน--
มฉ--
มฉลอง--
มช--
มชน--
มซ--
มณฑล--
มด--
มดาว--
มต--
มตอน--
มถ--
มถนน--
มท--
มทะ--
มทำ--
มธ--
มน--
มบ--
มป--
มประ--
มประมวลกฎหม--
มประเทศ--
มผ--
มพ--
มพร--
มพระ--
มพล--
มพา--
มฟ--
มภ--
มภา--
มภาษา--
มม--
มมา--
มย--
มร--
มรดก--
มระ--
มราช--
มล--
มว--
มวยส--
มวลรวม--
มวาง--
มศ--
มส--
มสต--
มสถ--
มสภา--
มสม--
มสลาย--
มห--
มหล--
มหา--
มอ--
มอน--
มอนเตเน--
มออก--
มออกอากาศ--
มอำนาจ--
มฮ--
มะ--
มา--
มาก--
มาข--
มาจ--
มาจาก--
มาซา--
มาณ--
มาด--
มาต--
มาตร--
มาท--
มาน--
มาย--
มาร--
มารดา--
มาล--
มาศ--
มาส--
มาห--
มาอ--
มเค--
มเพลง--
มเม--
มเย--
มเยาวช--
มเหลว--
มเอ--
มแบ--
มแรก--
มและ--
มโ--
มโคร--
มโดย--
มโน--
มใน--
มไป--
มไฟ--
ย--
ยก--
ยกข--
ยกต--
ยกพ--
ยกร--
ยกล--
ยกอ--
ยกา--
ยการ--
ยข--
ยของ--
ยค--
ยควา--
ยง--
ยงก--
ยงการ--
ยงข--
ยงของ--
ยงค--
ยงควา--
ยงจ--
ยงจาก--
ยงช--
ยงด--
ยงต--
ยงท--
ยงน--
ยงบ--
ยงป--
ยงประ--
ยงประกาศ--
ยงพ--
ยงพอ--
ยงม--
ยงร--
ยงล--
ยงส--
ยงห--
ยงอ--
ยงเบน--
ยงและ--
ยจ--
ยจะ--
ยจาก--
ยจำน--
ยช--
ยชนะ--
ยซ--
ยญ--
ยญทอง--
ยด--
ยดท--
ยดนาม--
ยต--
ยท--
ยธ--
ยน--
ยนการ--
ยนข--
ยนของ--
ยนค--
ยนจ--
ยนจาก--
ยนช--
ยนด--
ยนต--
ยนท--
ยนบ--
ยนบท--
ยนภาพ--
ยนมา--
ยนร--
ยนล--
ยนส--
ยนอ--
ยนา--
ยนแบบ--
ยนแปลง--
ยนและ--
ยนใน--
ยนไป--
ยบ--
ยบการ--
ยบข--
ยบท--
ยบน--
ยบราช--
ยป--
ยประ--
ยพ--
ยพระ--
ยฟ--
ยภ--
ยภาพ--
ยม--
ยมการ--
ยมข--
ยมค--
ยมจาก--
ยมช--
ยมต--
ยมท--
ยมส--
ยมอ--
ยย--
ยยศ--
ยยะ--
ยร--
ยรภาพ--
ยระ--
ยราช--
ยล--
ยว--
ยวก--
ยวข--
ยวช--
ยวชาญ--
ยวต--
ยวท--
ยวน--
ยวป--
ยวย--
ยวส--
ยวห--
ยวอ--
ยวะ--
ยศ--
ยส--
ยสถ--
ยห--
ยหล--
ยหาย--
ยอ--
ยอด--
ยอม--
ยอา--
ยอำนาจ--
ยะ--
ยา--
ยาก--
ยาง--
ยาท--
ยาน--
ยาม--
ยามา--
ยาย--
ยาว--
ยเอ--
ยและ--
ยโค--
ยโน--
ยใจ--
ยใน--
ยไป--
ร--
รก--
รกรร--
รจ--
รช--
รณ--
รณะ--
รต--
รถ--
รถสอง--
รถไฟ--
รบ--
รบก--
รป--
รพ--
รพา--
รภ--
รม--
รย--
รร--
รว--
รวบร--
รวบรวม--
รวม--
รวมการ--
รศ--
รษะ--
รส--
รอ--
รอง--
รอด--
รอบ--
รอย--
ระ--
ระบ--
ระบบ--
ระบอบ--
ระบาด--
ระยะ--
ระว--
รา--
ราก--
ราคา--
ราช--
ราชการ--
ราบ--
ราม--
ราย--
รายการ--
รายงาน--
รายพระนาม--
ราศ--
รโทษ--
ฤ--
ฤๅ--
ล--
ลก--
ลการ--
ลข--
ลของ--
ลค--
ลคว--
ลง--
ลงนาม--
ลงม--
ลงร--
ลงไป--
ลจ--
ลจะ--
ลจาก--
ลช--
ลซ--
ลด--
ลดลง--
ลต--
ลตราไว--
ลถ--
ลท--
ลน--
ลบ--
ลบา--
ลป--
ลปะ--
ลพ--
ลฟ--
ลภ--
ลภา--
ลภาษา--
ลม--
ลย--
ลร--
ลล--
ลละ--
ลลา--
ลว--
ลวดล--
ลวา--
ลส--
ลห--
ลอ--
ลอง--
ลอย--
ลฮ--
ละ--
ละคน--
ละคร--
ละต--
ละร--
ละส--
ละอ--
ลา--
ลาก--
ลาคม--
ลาด--
ลาน--
ลาม--
ลาย--
ลาว--
ลาออก--
ลำ--
ลำเน--
ลเด--
ลเพลง--
ลเว--
ลเอ--
ลแบ--
ลแรก--
ลและ--
ลโด--
ว--
วก--
วกร--
วกล--
วการ--
วข--
วของ--
วค--
วคราว--
วง--
วงกล--
วงการ--
วงข--
วงท--
วงป--
วงปลาย--
วงระยะ--
วงล--
วงส--
วงอ--
วงเทศ--
วงเวลา--
วงแรก--
วงใ--
วจ--
วจะ--
วจาก--
วช--
วชน--
วซ--
วด--
วต--
วตน--
วตะ--
วตาย--
วถ--
วท--
วทร--
วทำละ--
วน--
วนก--
วนการ--
วนข--
วนของ--
วนค--
วนช--
วนต--
วนท--
วนน--
วนบ--
วนป--
วนผสม--
วนพ--
วนมาก--
วนร--
วนส--
วนห--
วนอ--
วนะ--
วนา--
วนำ--
วนใน--
วบ--
วบา--
วป--
วประ--
วผ--
วพ--
วพระ--
วฟ--
วภ--
วภาพ--
วม--
วมก--
วมการ--
วมการทด--
วมข--
วมงาน--
วมท--
วมร--
วมส--
วมห--
วมอ--
วมแสดง--
วย--
วยก--
วยการ--
วยข--
วยค--
วยควา--
วยงาน--
วยจ--
วยจำน--
วยช--
วยด--
วยต--
วยท--
วยน--
วยนม--
วยบ--
วยประ--
วยผล--
วยพ--
วยพระ--
วยม--
วยย--
วยยอด--
วยร--
วยระบบ--
วยราช--
วยล--
วยว--
วยส--
วยห--
วยอ--
วยอำเภ--
วยโรค--
วร--
วรถ--
วรร--
วรรณ--
วระ--
วล--
วลง--
วละคร--
วว--
วส--
วสถ--
วสะ--
วห--
วหม--
วหล--
วอ--
วอน--
วอล--
วออก--
วออกจาก--
วออกม--
วอำเภ--
วะ--
วา--
วาง--
วางแผ--
วาท--
วาน--
วาร--
วารสาร--
วาส--
วเก--
วเขา--
วเธอ--
วเร--
วเลข--
วเอ--
วเอง--
วแทน--
วแบบ--
วแปร--
วแรก--
วและ--
วโมง--
วโลก--
วใจ--
วใน--
วไป--
ศ--
ศจ--
ศจะ--
ศต--
ศทาง--
ศน--
ศนะ--
ศนา--
ศพ--
ศม--
ศร--
ศรา--
ศล--
ศว--
ศวกร--
ศวกรรม--
ศา--
ศาจ--
ศาล--
ศาสนา--
ษ--
ษจ--
ษฎ--
ษฐ--
ษฐา--
ษฐาน--
ษท--
ษย--
ษยชน--
ษา--
ส--
สก--
สกล--
สกา--
สกาย--
สการ--
สข--
สค--
สง--
สงคราม--
สงบ--
สจ--
สจะ--
สช--
สซา--
สด--
สต--
สตร--
สตา--
สถ--
สถาน--
สถานะ--
สถาปน--
สท--
สน--
สนาม--
สนใจ--
สบ--
สป--
สพ--
สภา--
สภาพ--
สม--
สมการ--
สมม--
สมรรถ--
สมรส--
สมอง--
สมาค--
สมโ--
สย--
สยาม--
สร--
สรภาพ--
สรร--
สระ--
สล--
สละ--
สลา--
สลาม--
สว--
สวด--
สวน--
สส--
สห--
สหภาพ--
สอ--
สอง--
สองข--
สอน--
สอย--
สะ--
สะพาน--
สา--
สาขา--
สาธารณช--
สาน--
สาม--
สามารถ--
สาย--
สาร--
สาว--
สำ--
สำน--
สำรวจ--
สเต--
สเป--
สเปน--
สเล--
สโต--
สโมสร--
สโล--
สไตร--
สไน--
สไป--
ห--
หก--
หง--
หน--
หนา--
หนาว--
หม--
หมด--
หมวก--
หมวด--
หย--
หร--
หรา--
หล--
หลง--
หลวง--
หลาน--
หลาย--
หว--
หอค--
หอพ--
หอม--
หา--
หาก--
หาง--
หาย--
หาร--
หารงาน--
หารราช--
หารราชการ--
ฬ--
ฬา--
ฬาข--
ฬาจาก--
ฬาท--
ฬาร--
ฬาส--
อ--
อก--
อกข--
อกจาก--
อกฎ--
อกฎหม--
อกต--
อกท--
อกร--
อกรรม--
อกระบว--
อกล--
อกวน--
อกส--
อกห--
อกอ--
อการ--
อกำหนด--
อกเข--
อกโดย--
อข--
อขยาย--
อขวา--
อของ--
อขาย--
อค--
อคณะ--
อคน--
อคร--
อคล--
อความ--
อง--
องก--
องกง--
องการ--
องข--
องขอ--
องของ--
องค--
องควา--
องง--
องจ--
องจะ--
องจาก--
องฉ--
องช--
องชาย--
องชาว--
องซ--
องด--
องต--
องตร--
องตะ--
องตาม--
องถ--
องท--
องทดล--
องทำ--
องน--
องนคร--
องนำ--
องบ--
องป--
องพ--
องพระ--
องภ--
องม--
องมาจาก--
องย--
องร--
องระ--
องราว--
องล--
องว--
องส--
องสาว--
องห--
องหมาย--
องหลวง--
องอ--
องอก--
องออก--
องอำนาจ--
องเพลง--
องเอ--
องแค--
องแรก--
องและ--
องโถ--
องใน--
องในประเทศ--
องในโอกาส--
องไป--
อจ--
อจะ--
อจาก--
อจำน--
อฉ--
อช--
อซ--
อด--
อดอ--
อต--
อตกลง--
อตร--
อตรวจ--
อตรวจสอ--
อตอน--
อตา--
อถ--
อถนน--
อท--
อทร--
อทะ--
อทาง--
อทำ--
อทำก--
อทำการ--
อทำล--
อธ--
อน--
อนก--
อนการ--
อนข--
อนของ--
อนค--
อนจ--
อนจะ--
อนจาก--
อนจำ--
อนช--
อนด--
อนต--
อนท--
อนน--
อนบ--
อนป--
อนประ--
อนพ--
อนม--
อนย--
อนร--
อนล--
อนว--
อนส--
อนห--
อนอ--
อนออก--
อนำ--
อนำม--
อนและ--
อนแอ--
อนไข--
อนไหว--
อนๆ--
อบ--
อบส--
อบอ--
อป--
อประ--
อประกอ--
อปล--
อผ--
อผล--
อพ--
อพยพ--
อพร--
อพระ--
อพระราช--
อพล--
อพวก--
อฟ--
อภ--
อภา--
อภาพ--
อภาษา--
อม--
อมข--
อมค--
อมด--
อมถ--
อมท--
อมป--
อมปราการ--
อมพ--
อมร--
อมล--
อมส--
อมห--
อมหลว--
อมอ--
อมา--
อมาใน--
อมและ--
อมโย--
อมใส--
อย--
อยก--
อยของ--
อยค--
อยจ--
อยด--
อยต--
อยท--
อยน--
อยป--
อยพ--
อยมา--
อยลง--
อยส--
อยอ--
อยออกม--
อยาก--
อยและ--
อยๆ--
อร--
อรถ--
อรบ--
อรรถ--
อรวบร--
อระบ--
อราช--
อรายการ--
อล--
อละ--
อว--
อวง--
อศ--
อศาล--
อศาสน--
อส--
อสงคร--
อสงคราม--
อสน--
อสม--
อสะ--
อสาธ--
อสาย--
อสาร--
อห--
อหม--
อหล--
อหา--
อหาข--
ออ--
ออก--
ออกจาก--
ออกฉาย--
ออกตามความใน--
ออกมา--
ออน--
ออฟ--
ออล--
ออส--
อออก--
ออาก--
ออาจ--
ออำน--
ออำเภ--
อฮ--
อะ--
อะไร--
อา--
อาการ--
อากาศ--
อาคาร--
อาจ--
อาชญา--
อาญา--
อาณ--
อาม--
อาย--
อาร--
อารย--
อาส--
อาหาร--
อาโอ--
อำ--
อำน--
อำนวยการ--
อำนาจ--
อำเภอ--
อเก--
อเข--
อเท--
อเน--
อเป--
อเม--
อเร--
อเล--
อเวลา--
อเส--
อเสนอ--
อเอ--
อแบ--
อแร--
อและ--
อแสดง--
อโ--
อโก--
อโคร--
อโดย--
อโรค--
อใจ--
อใน--
อในว--
อใบ--
อไทย--
อไป--
อไอ--
ฮ--
ฮย--
ฮว--
ฮอต--
ฮะ--
ฮา--
ฮายา--
ฯ--
ะ--
า--
าก--
ากร--
ากระ--
ากระบว--
ากล--
ากาก--
าการ--
าการกระทรว--
าข--
าของ--
าขาย--
าค--
าคณะ--
าคณะต--
าคน--
าคร--
าคว--
าความ--
าง--
างก--
างกฎหม--
างกล--
างกาย--
างการ--
างข--
างขวาง--
างของ--
างค--
างควา--
างจ--
างจะ--
างจาก--
างช--
างด--
างต--
างท--
างทาง--
างน--
างบ--
างบทควา--
างป--
างประเทศ--
างผล--
างพ--
างพระ--
างภ--
างม--
างมหา--
างมาก--
างมาร--
างย--
างร--
างราช--
างล--
างว--
างส--
างสวย--
างสะ--
างห--
างหลาก--
างอ--
างแปลง--
างและ--
างโดย--
างใน--
างไป--
างไร--
างๆ--
าจ--
าจอ--
าจะ--
าจะท--
าจะส--
าจาก--
าจำน--
าฉ--
าช--
าชม--
าชาย--
าซ--
าด--
าดำร--
าต--
าตอบ--
าตะ--
าตา--
าตาย--
าถ--
าท--
าทร--
าทะ--
าทาย--
าทำ--
าทำไม--
าธ--
าธรร--
าน--
านก--
านกฎหม--
านกระบว--
านการ--
านข--
านของ--
านค--
านคน--
านคร--
านควา--
านง--
านจ--
านจะ--
านจาก--
านช--
านด--
านต--
านท--
านทาง--
านนา--
านบ--
านบน--
านป--
านพระ--
านภาพ--
านภาษา--
านม--
านมา--
านย--
านร--
านระบบ--
านล--
านว--
านศ--
านส--
านห--
านหน--
านอ--
านาย--
านและ--
านโน--
านใน--
านไป--
าบ--
าบทค--
าป--
าประ--
าประสบ--
าประเทศ--
าปราสาท--
าปล--
าผ--
าผล--
าฝ--
าพ--
าพรรค--
าพระ--
าพระยา--
าพวก--
าฟ--
าภ--
าภาพ--
าม--
ามกลา--
ามค--
ามต--
ามท--
ามป--
ามส--
ามห--
ามะ--
ามา--
ามาจาก--
าย--
ายก--
ายการ--
ายข--
ายของ--
ายค--
ายจ--
ายจาก--
ายช--
ายชนะ--
ายด--
ายต--
ายท--
ายทอด--
ายทำ--
ายน--
ายบ--
ายป--
ายพ--
ายพระ--
ายภาพ--
ายม--
ายย--
ายร--
ายรถ--
ายราช--
ายล--
ายส--
ายสถ--
ายห--
ายอ--
ายและ--
ายโอน--
ายใน--
ายไป--
าร--
ารถ--
ารอบ--
าระ--
าระบบ--
าราช--
าล--
าลง--
าละ--
าว--
าวก--
าวกรอง--
าวข--
าวค--
าวง--
าวช--
าวต--
าวท--
าวน--
าวป--
าวพ--
าวม--
าวร--
าวล--
าวส--
าวสด--
าวหา--
าวอ--
าวและ--
าศ--
าส--
าสน--
าสม--
าสะ--
าห--
าหน--
าหม--
าหมาย--
าหล--
าหลวง--
าหาก--
าหาญ--
าอ--
าอก--
าออก--
าอาจ--
าฮ--
าฯ--
าเขา--
าเค--
าเซ--
าเธอ--
าเป--
าเพ--
าเพราะ--
าเร--
าเล--
าเว--
าเอ--
าแบบ--
าแผ--
าแล--
าและ--
าแสน--
าโ--
าโก--
าใจ--
าใน--
าไชย--
าไป--
าไปใน--
าไร--
ำ--
ำก--
ำข--
ำค--
ำจ--
ำจะ--
ำจาก--
ำช--
ำซ--
ำด--
ำตก--
ำตา--
ำตาล--
ำท--
ำน--
ำบ--
ำบาตร--
ำป--
ำฝน--
ำพ--
ำม--
ำย--
ำร--
ำระ--
ำล--
ำลง--
ำส--
ำห--
ำหล--
ำอ--
ำและ--
ำโขง--
ำใจ--
เ--
เก--
เกต--
เกม--
เกร--
เกราะ--
เกล--
เกษตร--
เกส--
เกะ--
เกาะ--
เข--
เขต--
เขตบา--
เขตหน--
เขา--
เขาจะ--
เขาส--
เค--
เคน--
เคย--
เคร--
เครน--
เคล--
เงา--
เจ--
เจน--
เจอ--
เจาะ--
เฉ--
เฉพาะ--
เฉพาะนอกเขต--
เช--
เชฟ--
เชโกส--
เซ--
เซต--
เซน--
เซล--
เซอ--
เฌ--
เด--
เดช--
เดน--
เดอ--
เดอะ--
เดะ--
เต--
เตชะ--
เตน--
เถ--
เท--
เทค--
เทน--
เทพ--
เทร--
เทล--
เทว--
เทศ--
เทา--
เธ--
เธอ--
เน--
เนม--
เบ--
เบญจ--
เบต--
เบน--
เบร--
เบล--
เบส--
เบา--
เป--
เปน--
เผ--
เพ--
เพชร--
เพราะ--
เพล--
เพลง--
เพศ--
เพาะ--
เฟ--
เฟร--
เฟล--
เม--
เมก--
เมกะ--
เมฆ--
เมตร--
เมท--
เมน--
เมล--
เมะ--
เย--
เร--
เรก--
เรงน--
เรด--
เรน--
เรา--
เราจะ--
เล--
เลก--
เลข--
เลน--
เลย--
เลส--
เลอ--
เว--
เวช--
เวณ--
เวณท--
เวท--
เวน--
เวล--
เวลา--
เวศ--
เศ--
เศษ--
เษก--
เส--
เสธ--
เสน--
เสนอ--
เสมอ--
เสว--
เสา--
เห--
เหม--
เอ--
เอก--
เอกสาร--
เอง--
เอช--
เอน--
เอฟ--
เอม--
เอล--
เอส--
เอะ--
เอา--
เฮ--
เฮล--
แ--
แก--
แกน--
แกล--
แกะ--
แข--
แขน--
แขวง--
แค--
แคน--
แคล--
แคโร--
แจ--
แช--
แซ--
แด--
แดง--
แดน--
แตก--
แถ--
แถบ--
แถล--
แถว--
แท--
แทน--
แทร--
แน--
แนว--
แบ--
แบน--
แบบ--
แบบจำล--
แป--
แปด--
แปร--
แปล--
แปลก--
แผ--
แผนก--
แฝ--
แพ--
แพร--
แฟ--
แฟน--
แม--
แมค--
แมน--
แมว--
แย--
แยก--
แยกออก--
แร--
แรก--
แรง--
แล--
แลของ--
แลน--
แลพ--
และ--
และก--
และการ--
และข--
และค--
และคณะ--
และจ--
และจะ--
และจาก--
และช--
และต--
และท--
และทำ--
และน--
และบ--
และพระ--
และพวก--
และภ--
และภาษา--
และย--
และร--
และระบบ--
และราช--
และล--
และว--
และส--
และสามารถ--
และอ--
และอาจ--
และอำเภ--
และใน--
แว--
แวน--
แสง--
แสดง--
แสน--
แสว--
แสวงห--
แห--
แหล--
แหวน--
แอ--
แอด--
แอน--
แอม--
แอล--
แฮ--
แฮม--
โ--
โก--
โกล--
โกะ--
โข--
โค--
โคก--
โคน--
โคร--
โครง--
โคล--
โคส--
โฆ--
โฆษ--
โจ--
โจม--
โจว--
โจโฉ--
โฉ--
โช--
โซ--
โซน--
โซล--
โฌ--
โด--
โดน--
โดม--
โดย--
โดยการ--
โดยคณะ--
โดยคำ--
โดยจะ--
โดยท--
โดยพวก--
โดยส--
โดยสาร--
โดเมน--
โต--
โตะ--
โถ--
โท--
โทร--
โทษ--
โทโม--
โธ--
โน--
โนม--
โนะ--
โบ--
โบสถ--
โบไฮ--
โป--
โปร--
โปรด--
โพ--
โพน--
โพร--
โฟ--
โภค--
โม--
โมน--
โมะ--
โมโน--
โมโม--
โย--
โยโก--
โร--
โรค--
โรง--
โรป--
โรม--
โรส--
โระ--
โล--
โลก--
โลม--
โลหะ--
โว--
โวล--
โส--
โห--
โหลด--
โอ--
โอก--
โอกาส--
โอค--
โอน--
โอรส--
โอล--
โอว--
โอส--
โอะ--
โอเกม--
โฮ--
ใ--
ใคร--
ใจ--
ใจกลา--
ใด--
ใน--
ในก--
ในกฎหม--
ในกระบว--
ในการ--
ในข--
ในค--
ในคณะ--
ในควา--
ในงาน--
ในจ--
ในจำน--
ในฐานะ--
ในต--
ในตำน--
ในท--
ในทะเล--
ในน--
ในนาม--
ในบ--
ในบท--
ในป--
ในพระ--
ในภาษา--
ในม--
ในย--
ในร--
ในระ--
ในระบบ--
ในระยะ--
ในราช--
ในล--
ในว--
ในวาร--
ในศ--
ในส--
ในห--
ในอ--
ในอำนาจ--
ในอำเภ--
ในเขต--
ในแถบ--
ในแนว--
ใบ--
ใส--
ไ--
ไก--
ไกร--
ไกล--
ไข--
ไขข--
ไค--
ไจ--
ไช--
ไชย--
ไซ--
ไซโคล--
ได--
ไต--
ไท--
ไทย--
ไทร--
ไธย--
ไน--
ไบ--
ไบร--
ไป--
ไปข--
ไปค--
ไปจ--
ไปต--
ไปท--
ไปร--
ไพ--
ไฟ--
ไม--
ไมโคร--
ไร--
ไล--
ไว--
ไส--
ไห--
ไหน--
ไหล--
ไอ--
ไอโซ--
ไฮ--
ไฮโดร--
ๆ--
๐--
๑๒--
๑๕--
๑๖--
๑๗--
๑๘--
๑๙--
๒๐--
๒๑--
๒๒--
๒๓--
๒๔--
๒๕--
๖--
๗--
๘--
๙--
--0
--00
--01
--1
--2
--3
--4
--5
--6
--7
--8
--9
--a
--able
--ac
--acy
--ad
--ada
--ade
--ado
--ae
--age
--ah
--ai
--ain
--ak
--aka
--aki
--al
--ala
--ald
--ale
--als
--am
--ama
--ami
--an
--ana
--ance
--ane
--ang
--ani
--ania
--ano
--ans
--ant
--ants
--ao
--ar
--ara
--ard
--args
--ari
--aria
--aries
--arrow
--aru
--ary
--as
--ase
--ashi
--ast
--at
--ata
--ate
--ated
--ates
--ath
--atic
--ating
--ation
--ations
--ative
--ator
--ature
--atus
--au
--ave
--aw
--awa
--ax
--ay
--b
--ba
--back
--bar
--bb
--be
--ber
--berg
--bert
--bes
--bi
--ble
--bo
--box
--bs
--burg
--by
--c
--ca
--cal
--cat
--ce
--ceae
--ced
--cent
--ces
--ch
--che
--cher
--cing
--ck
--cks
--cle
--co
--con
--craft
--cs
--ct
--ction
--cus
--cy
--d
--da
--dae
--dam
--data
--date
--day
--de
--ded
--dee
--di
--dia
--ding
--do
--dom
--dor
--dox
--dra
--ds
--dy
--e
--ea
--eam
--ect
--ed
--ee
--ees
--ef
--eg
--ei
--ein
--eira
--ek
--el
--ela
--ell
--ella
--em
--en
--ence
--end
--ene
--enia
--ens
--ensis
--ensive
--ent
--entine
--eo
--er
--era
--ered
--erg
--eri
--erly
--ern
--ero
--ers
--ersity
--ert
--ery
--es
--ese
--ess
--est
--et
--ete
--eth
--ets
--eur
--eus
--ev
--ew
--ex
--ey
--ez
--f
--fer
--ff
--fied
--form
--ft
--ful
--g
--ga
--gan
--gang
--ge
--ged
--ger
--ges
--gh
--ght
--gi
--gle
--go
--gon
--gs
--h
--ha
--hai
--ham
--hc
--he
--hed
--hen
--hes
--hi
--hia
--hin
--hip
--hn
--ho
--hon
--hood
--ht
--hu
--hy
--i
--ia
--iae
--ial
--ian
--iana
--iation
--ib
--ible
--ic
--ica
--ical
--ich
--ick
--ico
--ics
--icus
--id
--ida
--idae
--ide
--ides
--ie
--ied
--iel
--ient
--ier
--ies
--ification
--ified
--ify
--ig
--ight
--ii
--ik
--il
--ila
--ile
--illa
--im
--ima
--in
--ina
--inal
--ine
--ing
--ings
--ini
--ino
--ins
--inus
--io
--ion
--ional
--ions
--ious
--iple
--ir
--ire
--is
--ise
--ish
--ism
--ist
--ists
--it
--ita
--ite
--ities
--ition
--ity
--ium
--ius
--ive
--ivity
--ix
--iya
--iz
--ization
--ize
--ized
--j
--ja
--ji
--jo
--k
--ka
--ke
--ked
--ker
--ket
--key
--ki
--ko
--kon
--ks
--ku
--ky
--l
--la
--land
--lar
--ld
--le
--led
--lem
--ler
--les
--less
--ley
--lf
--li
--lia
--lic
--lin
--line
--ling
--link
--lis
--list
--lity
--lk
--ll
--lla
--lle
--lli
--lly
--lm
--lo
--lon
--ls
--lt
--lu
--lus
--ly
--m
--ma
--man
--me
--ment
--ments
--mer
--mes
--mi
--mia
--mic
--mir
--mo
--mon
--mp
--ms
--my
--n
--na
--nal
--name
--nan
--nard
--nary
--nce
--ncy
--nd
--nda
--ndo
--ne
--ned
--nel
--nent
--ner
--ners
--nes
--ness
--net
--news
--ney
--nf
--ng
--ngs
--ni
--nia
--nic
--nie
--nii
--nin
--ning
--nis
--nium
--nk
--nn
--nne
--no
--ns
--nsis
--nt
--nth
--nts
--num
--nus
--ny
--o
--oa
--obj
--ock
--od
--ode
--oe
--of
--og
--ogy
--oi
--oid
--ok
--oku
--ol
--ola
--ole
--ology
--om
--oma
--ome
--omy
--on
--onal
--one
--ong
--onia
--onna
--ons
--oo
--oon
--ops
--or
--ora
--ord
--ore
--ori
--orn
--ors
--ort
--ory
--os
--osa
--ose
--ot
--ott
--ou
--ous
--out
--ov
--ow
--ox
--oy
--p
--pa
--pact
--pe
--ped
--per
--pin
--ping
--ple
--ps
--pt
--pus
--q
--r
--ra
--ral
--ram
--ran
--rary
--rc
--rd
--re
--rea
--ref
--ren
--rey
--rg
--ri
--ria
--ric
--rie
--rier
--ries
--ris
--rix
--rk
--rl
--rm
--rn
--ro
--ron
--roved
--row
--rp
--rr
--rry
--rs
--rt
--rta
--rth
--ru
--rum
--rus
--ry
--s
--sa
--scape
--se
--sed
--sen
--ser
--ses
--set
--sh
--ship
--si
--sia
--sion
--sis
--sk
--slam
--sm
--snak
--so
--son
--sor
--ss
--st
--stein
--ster
--ston
--su
--sus
--sy
--t
--ta
--tain
--tal
--tation
--te
--tec
--ted
--ter
--tes
--tex
--text
--tf
--th
--thus
--ti
--tia
--tial
--tic
--tics
--tin
--tine
--ting
--tion
--tions
--tis
--title
--tive
--tle
--to
--ton
--tor
--tors
--tory
--tra
--tre
--trum
--ts
--tsu
--tt
--tte
--tum
--ture
--tus
--tv
--ty
--tyle
--type
--tz
--u
--ua
--ual
--uate
--uation
--ub
--uck
--ud
--ue
--uel
--ug
--ugh
--ui
--uit
--ul
--ula
--ular
--ult
--ulus
--um
--ume
--un
--une
--ung
--up
--ur
--ura
--ure
--uri
--url
--urs
--us
--ut
--ux
--v
--va
--ve
--ved
--ves
--vi
--ville
--vo
--w
--wa
--way
--west
--wood
--work
--x
--y
--ya
--year
--yl
--yn
--yo
--yon
--ys
--z
--za
--ze
--zer
--zi
--zo
--zord
--zy
--zz
--ς
--а
--и
--ก
--กก
--กกว
--กข
--กค
--กครอง
--กจ
--กช
--กชน
--กซ
--กด
--กดด
--กต
--กถ
--กถา
--กท
--กน
--กบ
--กป
--กผ
--กพ
--กม
--กย
--กร
--กรณ
--กระด
--กฤษฎ
--กล
--กลงก
--กลม
--กลาง
--กลางค
--กลางว
--กว
--กษ
--กส
--กห
--กหล
--กอ
--กองท
--กอท
--กอย
--กะ
--กา
--กาย
--การ
--การก
--การค
--การคล
--การจ
--การณ
--การต
--การถ
--การท
--การบ
--การผล
--การพ
--การย
--การร
--การว
--การศ
--การส
--การอ
--การเล
--การแข
--การใช
--กาล
--กำก
--กำล
--กำหนด
--กเป
--กเล
--กเว
--กแต
--ข
--ขท
--ขน
--ขนส
--ขย
--ขว
--ขวา
--ของ
--ของก
--ของกล
--ของข
--ของค
--ของจ
--ของช
--ของซ
--ของญ
--ของด
--ของต
--ของท
--ของน
--ของบ
--ของบร
--ของป
--ของผ
--ของฝ
--ของพ
--ของฟ
--ของม
--ของมน
--ของย
--ของร
--ของล
--ของว
--ของศ
--ของส
--ของสหภาพโซเว
--ของอ
--ของฮ
--ของเจ
--ของเม
--ของแคว
--ขา
--ขาคณ
--ขาธ
--ขาน
--ขาว
--ค
--คก
--คช
--คซ
--คณ
--คณะ
--คณะร
--คด
--คต
--คท
--คน
--คนท
--คนน
--คนส
--คนหน
--คนอ
--คนเด
--คนแรก
--คม
--คร
--ครช
--ครน
--ครบ
--ครราชส
--ครศร
--ครอบคล
--ครเร
--คล
--คว
--ควบค
--ความร
--คอมพ
--คอมม
--คอร
--คะ
--คาซ
--คาร
--คำ
--คำท
--คำน
--คำว
--คำส
--คำแหง
--คโนโลย
--ฆ
--ฆบ
--ง
--งก
--งกว
--งข
--งขลา
--งค
--งคราม
--งครามกลางเม
--งครามโลกคร
--งฆ
--งจ
--งช
--งซ
--งด
--งต
--งถ
--งท
--งธ
--งน
--งบ
--งบศ
--งบส
--งบเร
--งป
--งผ
--งพ
--งม
--งมต
--งย
--งร
--งล
--งว
--งศ
--งศาวดาร
--งษ
--งส
--งสม
--งห
--งอ
--งอย
--งา
--งาน
--งาม
--งเป
--งเล
--งให
--งได
--จ
--จง
--จญภ
--จด
--จต
--จท
--จน
--จนถ
--จนม
--จนส
--จนาน
--จบ
--จม
--จร
--จว
--จสอบ
--จอร
--จอห
--จะต
--จะถ
--จะม
--จะย
--จะร
--จะส
--จะเป
--จะใช
--จะได
--จะไม
--จา
--จาก
--จากค
--จากจ
--จากต
--จากท
--จากน
--จากผ
--จากร
--จากว
--จากส
--จากอ
--จาร
--จำก
--จำค
--จำนวน
--จำป
--ฉ
--ฉบ
--ฉว
--ช
--ชก
--ชช
--ชท
--ชน
--ชนก
--ชนช
--ชนน
--ชนบท
--ชนม
--ชนะ
--ชร
--ชล
--ชวนเช
--ชวา
--ชอาณาจ
--ชา
--ชาต
--ชาย
--ชาร
--ชาวจ
--ชาวญ
--ชาวอ
--ชาวไทย
--ซ
--ซอฟต
--ซา
--ซาอ
--ซาเน
--ฌ
--ญ
--ญา
--ญาต
--ญาไท
--ฎ
--ฎบ
--ฎหมาย
--ฎหมายว
--ฏ
--ฏต
--ฏศ
--ฐ
--ฐาน
--ฑ
--ณ
--ณฑ
--ณร
--ณรงค
--ณศ
--ณส
--ณะ
--ณะท
--ณะน
--ณะบร
--ณะปฏ
--ณะผ
--ณะม
--ณะร
--ณะว
--ณะศ
--ณะส
--ณะสงฆ
--ณะอ
--ด
--ดก
--ดข
--ดค
--ดง
--ดจ
--ดช
--ดด
--ดต
--ดท
--ดทะเบ
--ดน
--ดนตร
--ดบ
--ดป
--ดปล
--ดม
--ดย
--ดร
--ดล
--ดลอง
--ดลองท
--ดว
--ดส
--ดสอบ
--ดอ
--ดอะม
--ดอากาศต
--ดะ
--ดา
--ดาร
--ดาว
--ดำ
--ดำร
--ดำเน
--ดให
--ต
--ตก
--ตจ
--ตช
--ตต
--ตท
--ตทร
--ตน
--ตพ
--ตร
--ตรง
--ตรงก
--ตระก
--ตรา
--ตล
--ตลก
--ตว
--ตวรรษท
--ตส
--ตอ
--ตอน
--ตอนท
--ตะ
--ตะว
--ตา
--ตาม
--ตามท
--ตาร
--ตำรวจ
--ตำแหน
--ตเล
--ถ
--ถค
--ถคว
--ถจ
--ถช
--ถด
--ถต
--ถถ
--ถท
--ถน
--ถนน
--ถบ
--ถพ
--ถม
--ถย
--ถยนต
--ถร
--ถล
--ถว
--ถส
--ถสร
--ถอ
--ถา
--ถาน
--ถานการณ
--ถานท
--ถานศ
--ถาบ
--ถาป
--ถาปน
--ถาปนาข
--ถเก
--ถเข
--ถเป
--ถเร
--ถเล
--ถใช
--ถไฟ
--ถไฟฟ
--ท
--ทก
--ทกว
--ทความ
--ทความท
--ทช
--ทท
--ทน
--ทบ
--ทม
--ทมนตร
--ทย
--ทร
--ทว
--ทส
--ทอง
--ทา
--ทาง
--ทางช
--ทางด
--ทางท
--ทางว
--ทำให
--ธ
--ธง
--ธน
--ธนบ
--ธร
--ธรณ
--ธว
--ธาต
--ธาน
--ธาร
--น
--นก
--นกระท
--นกล
--นกว
--นข
--นค
--นคร
--นครศร
--นครเช
--นง
--นจ
--นช
--นซ
--นซอร
--นด
--นต
--นตร
--นถ
--นท
--นธ
--นน
--นนท
--นบ
--นบท
--นป
--นผ
--นพ
--นฟ
--นภ
--นม
--นมป
--นมาร
--นย
--นร
--นล
--นว
--นวน
--นส
--นสไตน
--นห
--นหน
--นอ
--นอข
--นองต
--นองไผ
--นอช
--นอต
--นอน
--นอย
--นอร
--นอว
--นอให
--นะ
--นะเล
--นา
--นาคต
--นาด
--นาถ
--นาธ
--นาน
--นาบด
--นาม
--นามก
--นามบ
--นามว
--นาร
--นาว
--นำ
--นเข
--นเจ
--นเด
--นเป
--นเผ
--นเพ
--นเยอร
--นเร
--นเอง
--นให
--นไข
--นไชส
--นไซม
--นได
--นไม
--บ
--บก
--บกระเท
--บการณ
--บข
--บค
--บคร
--บง
--บจ
--บช
--บซ
--บฏ
--บด
--บต
--บถ
--บท
--บน
--บบ
--บป
--บผ
--บพ
--บฟ
--บม
--บย
--บร
--บรอบ
--บราซ
--บฤด
--บล
--บว
--บส
--บห
--บหน
--บหล
--บอ
--บอย
--บอร
--บางซ
--บางส
--บาร
--บาล
--บำบ
--บำร
--บเป
--บเห
--บได
--ป
--ปกต
--ปกป
--ปซ
--ปฏ
--ปฐม
--ปฐมท
--ปต
--ปท
--ปน
--ปป
--ปร
--ปรมาภ
--ประช
--ประชาธ
--ประด
--ประต
--ประท
--ประมาณ
--ประย
--ประว
--ปรารถนา
--ปล
--ปส
--ปอร
--ปาก
--ปาร
--ผ
--ผน
--ผล
--ผสม
--ฝ
--ฝร
--ฝาง
--พ
--พงษ
--พต
--พท
--พธ
--พน
--พบ
--พบก
--พบว
--พม
--พย
--พร
--พรรษา
--พระพ
--พระส
--พระอ
--พระองค
--พระเจ
--พฤต
--พล
--พส
--พอ
--พอท
--พาณ
--พาย
--พาร
--พาหนะ
--พเจ
--ฟ
--ฟท
--ฟฟ
--ฟฟอร
--ฟร
--ฟล
--ฟอร
--ฟา
--ฟาร
--ภ
--ภค
--ภพ
--ภรณ
--ภา
--ภาค
--ภาคร
--ภาคว
--ภาน
--ภาผ
--ภาพ
--ภาพท
--ภาพยนตร
--ภาพเป
--ภาพแวดล
--ภายใต
--ภาษ
--ภาษาอ
--ภาส
--ภาแห
--ม
--มก
--มกล
--มการ
--มข
--มค
--มควร
--มงก
--มจ
--มจร
--มช
--มซ
--มณ
--มณศ
--มณเฑ
--มด
--มดล
--มดา
--มต
--มถ
--มท
--มน
--มนตร
--มบ
--มบล
--มป
--มผ
--มพ
--มฟ
--มภ
--มม
--มมต
--มย
--มร
--มรณะ
--มรส
--มรสก
--มล
--มว
--มศ
--มส
--มสก
--มสาม
--มห
--มหากษ
--มหาบ
--มหาว
--มอ
--มอก
--มอง
--มองส
--มอญ
--มอน
--มอร
--มะ
--มา
--มาก
--มากกว
--มากข
--มากท
--มากเป
--มาคม
--มาคมน
--มาคมผ
--มาคมฟ
--มาช
--มาด
--มาต
--มาถ
--มาท
--มาน
--มาพ
--มาภ
--มาย
--มายถ
--มาร
--มาล
--มาส
--มาเป
--มาเลเซ
--มาแล
--มาใช
--มเด
--มได
--ย
--ยก
--ยกท
--ยง
--ยงาม
--ยจ
--ยช
--ยด
--ยต
--ยถ
--ยท
--ยน
--ยนตร
--ยพ
--ยม
--ยร
--ยราชย
--ยว
--ยศ
--ยส
--ยอ
--ยอดน
--ยอดเย
--ยะ
--ยา
--ยาธ
--ยาน
--ยาบาล
--ยาพ
--ยาม
--ยายต
--ยายพ
--ยายามท
--ยาว
--ยาส
--ร
--รก
--รค
--รคการเม
--รคท
--รคพล
--รคร
--รคส
--รคเพ
--รง
--รงก
--รงข
--รงต
--รงท
--รงน
--รงม
--รงร
--รงว
--รงส
--รงเป
--รจ
--รช
--รซ
--รณ
--รณาธ
--รณไม
--รด
--รดาผ
--รดาศ
--รต
--รถ
--รถไฟฟ
--รท
--รน
--รนด
--รบ
--รป
--รผ
--รพ
--รพช
--รพบ
--รพส
--รฟ
--รภ
--รม
--รมณ
--รมท
--รมม
--รมย
--รมร
--รมราชาน
--รมวงศาน
--รมส
--รมอ
--รมาธ
--รย
--รยากาศ
--รร
--รรค
--รรคการเม
--รรคคอมม
--รรคประชาธ
--รรคหน
--รรจ
--รรจบก
--รรณ
--รรณกรรม
--รรณคด
--รรณศ
--รรท
--รรพ
--รรพส
--รรม
--รรมก
--รรมท
--รรมว
--รรล
--รรษ
--รรเสร
--รล
--รว
--รวง
--รวจค
--รวจจ
--รวจด
--รวจพ
--รวจร
--รวจว
--รวจสอบ
--รวจเง
--รวม
--รวมถ
--รวมท
--รศ
--รษ
--รษท
--รษา
--รส
--รสก
--รสล
--รห
--รหม
--รอ
--รอง
--รองราชย
--รอบ
--รอบคร
--รอบส
--ระ
--ระก
--ระการ
--ระค
--ระคร
--ระคล
--ระจ
--ระจายต
--ระจายเส
--ระช
--ระชากร
--ระด
--ระต
--ระท
--ระทำ
--ระทำความผ
--ระทำด
--ระทำท
--ระทำน
--ระทำอ
--ระธานาธ
--ระน
--ระนคร
--ระนครศร
--ระนามว
--ระบ
--ระบาง
--ระป
--ระพ
--ระภ
--ระมหากษ
--ระมาณ
--ระร
--ระราช
--ระราชพ
--ระราชว
--ระว
--ระส
--ระสงฆ
--ระห
--ระหน
--ระหว
--ระอ
--ระองค
--ระเจ
--ระเด
--ระเทศ
--ระเทศก
--ระเทศจ
--ระเทศญ
--ระเทศต
--ระเทศท
--ระเทศฝร
--ระเทศฟ
--ระเทศร
--ระเทศสหร
--ระเทศอ
--ระเทศไทย
--ระเบ
--ระเป
--ระเพณ
--ระเภท
--ระเยโฮวาห
--ระเสร
--ระแม
--รา
--รางว
--ราช
--ราชก
--ราชดำร
--ราชบ
--ราชวรมหาว
--ราชวรว
--ราซ
--ราน
--รานซ
--รานท
--ราบ
--ราบท
--ราบบ
--ราบว
--ราม
--รามาธ
--ราย
--รายจ
--รายช
--ราว
--ราส
--ราสาท
--ราหมณ
--ราะ
--ราะต
--ราะถ
--ราะท
--ราะม
--ราะว
--ราะส
--ราะเป
--ราะไม
--ราเมอ
--รเข
--รเป
--รเสร
--รได
--ฤกษ
--ฤด
--ฤต
--ฤท
--ฤทธ
--ฤษฎ
--ฤษณ
--ฤห
--ฤหาสน
--ล
--ลก
--ลกศ
--ลข
--ลค
--ลง
--ลงก
--ลงด
--ลงท
--ลงน
--ลงป
--ลงว
--ลงส
--ลงอ
--ลงเป
--ลงเล
--ลงไป
--ลซ
--ลด
--ลดปล
--ลต
--ลท
--ลน
--ลบ
--ลป
--ลพ
--ลฟ
--ลม
--ลมช
--ลย
--ลยศ
--ลร
--ลล
--ลว
--ลวง
--ลวงป
--ลวงพ
--ลศ
--ลส
--ลอ
--ลอด
--ลอดช
--ลอดท
--ลอดภ
--ลอดเล
--ละ
--ละคร
--ละราชสมบ
--ลา
--ลาง
--ลางค
--ลางว
--ลางเม
--ลาด
--ลาดหล
--ลาท
--ลาน
--ลาย
--ลายคร
--ลายต
--ลายป
--ลายพ
--ลายเป
--ลาร
--ลาว
--ลาสต
--ลาสส
--ลำ
--ลำด
--ลำต
--ลำพ
--ลเม
--ลเย
--ลเร
--ลไม
--ว
--วก
--วกก
--วกท
--วกน
--วกม
--วกาศ
--วกเขา
--วค
--วง
--วงจ
--วงท
--วงพ
--วงศ
--วงหมายเลข
--วงอาท
--วงแผ
--วงใจ
--วจ
--วจจ
--วจด
--วช
--วณ
--วด
--วดท
--วดม
--วดร
--วดว
--วดหม
--วดา
--วดเร
--วต
--วท
--วน
--วนการ
--วนท
--วนส
--วนอ
--วบ
--วบค
--วป
--วม
--วมก
--วมต
--วมถ
--วมท
--วมมงก
--วมร
--วมไว
--วย
--วร
--วรว
--วล
--วลจ
--วว
--วส
--วอ
--วะ
--วา
--วาด
--วาดล
--วาน
--วาม
--วามก
--วามข
--วามค
--วามจร
--วามจำ
--วามช
--วามซ
--วามด
--วามต
--วามถ
--วามท
--วามน
--วามบ
--วามปลอดภ
--วามผ
--วามฝ
--วามพ
--วามม
--วามย
--วามร
--วามล
--วามว
--วามส
--วามสำเร
--วามหว
--วามอ
--วามเข
--วามเช
--วามเป
--วามเร
--วามเส
--วามเห
--วามแตกต
--วามไม
--วาย
--วาร
--ศ
--ศก
--ศท
--ศน
--ศบาลเม
--ศผ
--ศพ
--ศร
--ศว
--ศวรรษ
--ศส
--ศหญ
--ศาลฎ
--ศาลย
--ศาลอ
--ศาสตร
--ศเม
--ษ
--ษตร
--ษตรกรรม
--ษท
--ษม
--ส
--สก
--สค
--สงฆ
--สชาต
--สซ
--สด
--สต
--สตร
--สถ
--สถาน
--สถาบ
--สถาป
--สท
--สน
--สบ
--สป
--สพ
--สภา
--สม
--สมบ
--สมพ
--สมาช
--สมเด
--สยาม
--สร
--สรท
--สรฟ
--สล
--สว
--สส
--สหพ
--สหร
--สากล
--สาน
--สาบ
--สาม
--สามก
--สาย
--สาร
--สำค
--สำน
--สำหร
--สเปน
--ห
--หก
--หกรณ
--หญ
--หน
--หพ
--หภาพย
--หภาพโซเว
--หม
--หมาย
--หย
--หร
--หราชอาณาจ
--หฤท
--หล
--หลพลพย
--หลวง
--หว
--หศ
--หอพ
--หะ
--หา
--หาข
--หาค
--หาช
--หาด
--หาดเล
--หาร
--หารท
--หารป
--หารราบท
--หารเร
--หาว
--หาสม
--หาอ
--ฬ
--อ
--อก
--อกกำล
--อกจำหน
--อกซ
--อกท
--อกฤทธ
--อกว
--อกส
--อกอ
--อกอากาศ
--อกเด
--อกเส
--อกแบบ
--อกไป
--อค
--อง
--องก
--องกำล
--องข
--องค
--องคณะปฏ
--องคำ
--องจ
--องช
--องชนะเล
--องซ
--องด
--องต
--องท
--องน
--องบ
--องป
--องผ
--องฝ
--องพ
--องม
--องย
--องร
--องราชย
--องล
--องว
--องส
--องห
--องอ
--องเห
--องแผ
--องโกเล
--อจ
--อช
--อซ
--อญ
--อด
--อดคล
--อดช
--อดบ
--อดผ
--อดภ
--อดเย
--อดเล
--อต
--อตส
--อท
--อธ
--อน
--อนด
--อนดอน
--อนต
--อนท
--อนน
--อนว
--อนส
--อนเส
--อนเหน
--อนโต
--อนใต
--อนไลน
--อบ
--อบก
--อบข
--อบค
--อบคร
--อบคล
--อบช
--อบด
--อบต
--อบท
--อบน
--อบป
--อบร
--อบว
--อบส
--อบสนองต
--อบสวน
--อบอ
--อบเข
--อบเป
--อบแบ
--อบโต
--อบให
--อบได
--อป
--อผ
--อพ
--อฟ
--อฟต
--อภ
--อม
--อมพ
--อมพล
--อมม
--อมร
--อมแพ
--อย
--อยด
--อยต
--อร
--อรม
--อรมน
--อล
--อลต
--อลล
--อลเลย
--อว
--อส
--อสซ
--อสเตร
--อสเตรเล
--อสเน
--อห
--ออ
--ออก
--ออกถ
--ออน
--ออร
--อะ
--อา
--อาช
--อาญา
--อาณาจ
--อาท
--อาย
--อาร
--อาว
--อาศ
--อาหาร
--อเมร
--อให
--ฮ
--ฮะ
--ฮาร
--ฯ
--ะ
--ะก
--ะกง
--ะกร
--ะกล
--ะกวด
--ะกวดม
--ะกอบ
--ะกอบก
--ะกอบด
--ะกอบธ
--ะกอบพ
--ะกอบอาช
--ะกะ
--ะกา
--ะการ
--ะการใด
--ะกาศ
--ะกาศช
--ะกาศต
--ะกาศน
--ะกาศว
--ะกาศเป
--ะกาศใช
--ะกาศในราชก
--ะกาศให
--ะข
--ะค
--ะคร
--ะครเร
--ะคล
--ะคะ
--ะฆ
--ะง
--ะจ
--ะจก
--ะจกส
--ะจาย
--ะจำ
--ะจำต
--ะจำป
--ะจำว
--ะจำสำน
--ะฉ
--ะช
--ะชาชน
--ะชาชนท
--ะชาธ
--ะชาส
--ะซ
--ะณ
--ะด
--ะดวก
--ะต
--ะตะบอง
--ะตะว
--ะตำหน
--ะถ
--ะถม
--ะถมศ
--ะท
--ะทร
--ะทรวง
--ะทรวงศ
--ะทะก
--ะทำความผ
--ะทำให
--ะธ
--ะธาต
--ะธาน
--ะธานาธ
--ะน
--ะนำให
--ะบ
--ะบบ
--ะบบท
--ะบบน
--ะบบบ
--ะบบปฏ
--ะบบส
--ะบบอ
--ะบร
--ะบรมราชาน
--ะบรมวงศาน
--ะบอบประชาธ
--ะป
--ะปฏ
--ะปร
--ะปล
--ะผ
--ะผล
--ะฝ
--ะพ
--ะพร
--ะพฤต
--ะพล
--ะฟ
--ะภ
--ะภา
--ะม
--ะมง
--ะมหากษ
--ะมาณ
--ะย
--ะยะ
--ะยะต
--ะยะส
--ะร
--ะราช
--ะราชบ
--ะราชพ
--ะราชไมตร
--ะล
--ะลา
--ะว
--ะศ
--ะศร
--ะษ
--ะส
--ะสงค
--ะสน
--ะสบก
--ะสบการณ
--ะสม
--ะสร
--ะสล
--ะสวาม
--ะสาท
--ะห
--ะหญ
--ะหน
--ะหม
--ะหย
--ะหร
--ะหล
--ะหว
--ะหารช
--ะอ
--ะองค
--ะอน
--ะอภ
--ะอย
--ะฮ
--ะเก
--ะเข
--ะเค
--ะเคร
--ะเง
--ะเจ
--ะเช
--ะเด
--ะเดา
--ะเต
--ะเท
--ะเทศ
--ะเทศอ
--ะเทศไทย
--ะเน
--ะเบ
--ะเป
--ะเปล
--ะเพ
--ะเพณ
--ะเภท
--ะเภทท
--ะเภทน
--ะเภทอ
--ะเม
--ะเมร
--ะเย
--ะเยซ
--ะเร
--ะเล
--ะเลท
--ะเลาะก
--ะเว
--ะเส
--ะเสร
--ะเห
--ะเหร
--ะเหล
--ะเอ
--ะแก
--ะแข
--ะแต
--ะแท
--ะแนน
--ะแบ
--ะแพ
--ะแพร
--ะแม
--ะแล
--ะแส
--ะแสเล
--ะแห
--ะโยชน
--ะโว
--ะใช
--ะใต
--ะใภ
--ะใส
--ะให
--ะได
--ะไตรป
--ะไม
--ะไร
--ะไรก
--า
--าก
--ากก
--ากกร
--ากกล
--ากกว
--ากข
--ากค
--ากจ
--ากจน
--ากช
--ากซ
--ากฏ
--ากฏข
--ากฏต
--ากฏว
--ากฏอย
--ากฏเป
--ากด
--ากต
--ากถ
--ากท
--ากน
--ากบ
--ากป
--ากผ
--ากฝ
--ากพ
--ากม
--ากย
--ากร
--ากล
--ากว
--ากศ
--ากส
--ากห
--ากหน
--ากอ
--ากอน
--ากะ
--ากาศ
--ากาศท
--ากเก
--ากเป
--ากเม
--ากเร
--ากแม
--ากให
--ากได
--าข
--าขา
--าขาน
--าขาว
--าค
--าคณะ
--าคต
--าคตะว
--าคพ
--าคม
--าคมฟ
--าคร
--าคา
--าคาท
--าคาร
--าคใต
--าฆ
--าง
--างก
--างการ
--างการศ
--างการเง
--างการเม
--างการแพทย
--างข
--างค
--างจ
--างจำหน
--างช
--างซ
--างด
--างต
--างตอนเหน
--างตอนใต
--างตะว
--างท
--างธ
--างน
--างบ
--างป
--างผ
--างฝ
--างพ
--างพล
--างภ
--างม
--างย
--างร
--างว
--างศ
--างศาสนา
--างส
--างอ
--างอย
--างเคม
--างเด
--างเพศ
--างเล
--างแก
--างใต
--างไข
--าจ
--าจก
--าจต
--าจถ
--าจท
--าจนถ
--าจม
--าจส
--าจา
--าจาก
--าจารย
--าจเป
--าช
--าชก
--าชการ
--าชท
--าชน
--าชบ
--าชย
--าชร
--าชว
--าชวงศ
--าชส
--าชสก
--าชสมบ
--าชสำน
--าชอาณาจ
--าชา
--าชาธ
--าซ
--าซา
--าซาก
--าญ
--าญข
--าญจนาภ
--าญา
--าฏ
--าฏศ
--าณ
--าณาจ
--าณาน
--าด
--าดกล
--าดการณ
--าดต
--าดท
--าดน
--าดร
--าดล
--าดว
--าดส
--าดหว
--าดะ
--าดา
--าดเจ
--าดใหญ
--าต
--าตย
--าตร
--าตรา
--าตะ
--าตาร
--าถ
--าท
--าทท
--าทร
--าทส
--าทอล
--าธ
--าธารณ
--าธารณร
--าธารณส
--าธารณะ
--าน
--านก
--านจ
--านช
--านต
--านท
--านน
--านนท
--านส
--านะ
--านา
--านาชาต
--านเพล
--าบ
--าบข
--าบด
--าบท
--าบน
--าบบ
--าบว
--าบส
--าบสม
--าบาล
--าบเร
--าป
--าผ
--าฝ
--าฝร
--าพ
--าพท
--าพย
--าพร
--าฟ
--าภ
--าภรณ
--าม
--ามก
--ามข
--ามค
--ามคร
--ามจ
--ามช
--ามซ
--ามด
--ามต
--ามถ
--ามท
--ามน
--ามบ
--ามป
--ามปลอดภ
--ามผ
--ามฝ
--ามพ
--ามฟ
--ามภ
--ามม
--ามมาตรา
--ามย
--ามร
--ามล
--ามลำด
--ามว
--ามวรรคหน
--ามศ
--ามส
--ามหน
--ามหล
--ามอ
--ามอย
--ามะ
--ามารถ
--ามารถท
--ามเก
--ามเข
--ามเจ
--ามเช
--ามเด
--ามเท
--ามเป
--ามเพ
--ามเม
--ามเย
--ามเร
--ามเว
--ามเส
--ามเห
--ามเหล
--ามแก
--ามแข
--ามแต
--ามแห
--ามโลกคร
--ามให
--ามได
--าย
--ายก
--ายกร
--ายการ
--ายการบ
--ายคน
--ายงานข
--ายจ
--ายฉบ
--ายช
--ายณ
--ายด
--ายต
--ายถ
--ายท
--ายทะเบ
--ายน
--ายบ
--ายป
--ายประเทศ
--ายฝ
--ายพ
--ายฟ
--ายม
--ายมาเป
--ายร
--ายล
--ายละเอ
--ายว
--ายส
--ายห
--ายหาด
--ายอ
--ายะ
--ายา
--ายเท
--ายเป
--ายเหต
--ายใจ
--ายได
--าร
--ารก
--ารกล
--ารกำก
--ารข
--ารขนส
--ารค
--ารคด
--ารฆ
--ารจ
--ารฉ
--ารช
--ารซ
--ารณ
--ารณะ
--ารด
--ารดา
--ารต
--ารถ
--ารถจ
--ารถถ
--ารถท
--ารถพ
--ารถย
--ารถร
--ารถส
--ารถสร
--ารถเก
--ารถเข
--ารถเป
--ารถเล
--ารถแบ
--ารท
--ารน
--ารบ
--ารบร
--ารป
--ารปฏ
--ารปร
--ารปล
--ารผ
--ารผล
--ารฝ
--ารพ
--ารฟ
--ารภ
--ารม
--ารมณ
--ารมย
--ารย
--ารร
--ารระบาดท
--ารล
--ารลงท
--ารว
--ารศ
--ารส
--ารสร
--ารหม
--ารอ
--ารอน
--ารอภ
--ารอย
--าระ
--าระท
--ารา
--าราง
--าราจ
--าราน
--าราม
--ารายณ
--ารายน
--าราล
--าราว
--าราศาสตร
--ารเก
--ารเข
--ารเคล
--ารเง
--ารเช
--ารเด
--ารเต
--ารเป
--ารเปล
--ารเพ
--ารเม
--ารเร
--ารเล
--ารเส
--ารเห
--ารแก
--ารแข
--ารแต
--ารแบ
--ารแห
--ารใช
--ารใส
--ารให
--ารได
--ารไม
--าล
--าลท
--าลย
--าลส
--าลา
--าลเจ
--าว
--าวก
--าวกร
--าวจ
--าวญ
--าวด
--าวต
--าวท
--าวน
--าวบ
--าวฝร
--าวพ
--าวม
--าวย
--าวร
--าวฤกษ
--าวส
--าวอ
--าวอเมร
--าวฮ
--าวะ
--าวา
--าวาส
--าศ
--าศท
--าศร
--าศว
--าษ
--าษฎร
--าษา
--าษาจ
--าษาต
--าษาท
--าษาฝร
--าษาส
--าษาอ
--าษาฮ
--าส
--าสค
--าสซ
--าสต
--าสตร
--าสตราจารย
--าสท
--าสน
--าสนว
--าสนา
--าสนาคร
--าสนาพ
--าสนาอ
--าสส
--าสาท
--าสาสม
--าห
--าหน
--าหมณ
--าหร
--าหล
--าหาร
--าหารท
--าฬ
--าอ
--าอย
--าฮ
--าะ
--าะก
--าะช
--าะต
--าะท
--าะน
--าะป
--าะปล
--าะพ
--าะร
--าะล
--าะส
--าะสม
--าะห
--าะอ
--าะฮ
--าะเล
--าะแก
--าเก
--าเข
--าเจ
--าเช
--าเซ
--าเซอร
--าเด
--าเต
--าเน
--าเป
--าเพ
--าเฟ
--าเม
--าเย
--าเร
--าเล
--าเลเซ
--าเส
--าแก
--าแต
--าแน
--าแล
--าแห
--าโก
--าโด
--าโต
--าโน
--าโร
--าโรห
--าโล
--าใช
--าให
--าได
--าไม
--าไว
--ำ
--ำก
--ำกล
--ำการค
--ำการต
--ำการบ
--ำการแข
--ำข
--ำค
--ำความร
--ำความเข
--ำงาน
--ำงานท
--ำงานร
--ำงานได
--ำจ
--ำช
--ำซ
--ำด
--ำต
--ำท
--ำธ
--ำน
--ำนวณ
--ำนวน
--ำนวนท
--ำนวนน
--ำนวนผ
--ำนวนสมาช
--ำนาจ
--ำนาจท
--ำนาจหน
--ำนาน
--ำบ
--ำบล
--ำบลท
--ำบลบ
--ำบลว
--ำบลห
--ำบาก
--ำป
--ำปฏ
--ำประต
--ำปาศ
--ำผ
--ำพ
--ำภ
--ำม
--ำมาตย
--ำมาใช
--ำย
--ำร
--ำรงช
--ำรงอย
--ำรวจ
--ำรวจท
--ำรวจภ
--ำราญ
--ำล
--ำลอง
--ำลาย
--ำลายล
--ำว
--ำศ
--ำส
--ำสงครามก
--ำสนธ
--ำห
--ำหน
--ำหนด
--ำหนดค
--ำหนดว
--ำหนดให
--ำหร
--ำอ
--ำอธ
--ำอย
--ำอาหาร
--ำเข
--ำเคร
--ำเง
--ำเช
--ำเน
--ำเป
--ำเพ
--ำเภอ
--ำเภอก
--ำเภอท
--ำเภอบ
--ำเภอว
--ำเภอศร
--ำเภอส
--ำเภอห
--ำเภอเม
--ำเภอแม
--ำเร
--ำเล
--ำเลยท
--ำเส
--ำเหม
--ำแท
--ำแหน
--ำให
--ำได
--ำไม
--ำไร
--ำไส
--เก
--เกม
--เกร
--เกล
--เกษตร
--เกาหล
--เข
--เขต
--เขา
--เขาค
--เขาม
--เค
--เคบ
--เคม
--เคร
--เคล
--เง
--เจ
--เจด
--เจน
--เจร
--เจล
--เจาะจง
--เฉ
--เฉล
--เช
--เซ
--เซนต
--เซลล
--เซอร
--เฑ
--เณร
--เด
--เดล
--เต
--เตย
--เตร
--เตะ
--เถ
--เถร
--เท
--เทพ
--เทว
--เธอ
--เธอท
--เธอร
--เน
--เนซ
--เนปาล
--เนเธอร
--เบ
--เบลเย
--เบอร
--เบะ
--เป
--เปน
--เปร
--เปล
--เผ
--เผช
--เผยแผ
--เฝ
--เพ
--เพย
--เพล
--เพลง
--เฟ
--เภณ
--เภส
--เม
--เมด
--เมร
--เมล
--เมอร
--เย
--เยซ
--เยอรม
--เยอรมน
--เยเมน
--เยโฮวาห
--เร
--เรย
--เรอ
--เรา
--เล
--เลข
--เลต
--เลย
--เลเซ
--เว
--เวท
--เวลา
--เวอร
--เศ
--เศร
--เส
--เสด
--เสน
--เสพต
--เสม
--เสร
--เห
--เหต
--เหน
--เหม
--เหย
--เหร
--เหล
--เอ
--เอก
--เอง
--เอธ
--เอเช
--เฮ
--แก
--แข
--แค
--แคนาดา
--แคร
--แคว
--แง
--แจ
--แช
--แชมป
--แซ
--แด
--แดง
--แดด
--แดน
--แต
--แตกต
--แตต
--แท
--แทน
--แทนท
--แน
--แนวค
--แบ
--แบบ
--แบบน
--แบบร
--แบบแบ
--แบล
--แป
--แปซ
--แปน
--แผ
--แผง
--แผน
--แพ
--แพง
--แพทย
--แพร
--แฟช
--แม
--แย
--แร
--แรก
--แรกท
--แล
--และ
--และก
--และข
--และค
--และจ
--และช
--และด
--และต
--และถ
--และท
--และน
--และบ
--และป
--และผ
--และพ
--และภ
--และม
--และย
--และร
--และล
--และว
--และศ
--และส
--และอ
--และเป
--และเม
--และเลขาน
--และได
--แว
--แวดล
--แสง
--แสดง
--แห
--แหล
--แอ
--แอน
--แอฟร
--แอร
--แฮร
--โก
--โขนง
--โค
--โคกส
--โคว
--โจ
--โจมต
--โจร
--โฉ
--โฉม
--โช
--โชว
--โชเน
--โซ
--โซน
--โซล
--โด
--โดย
--โดยท
--โดยม
--โดยรวม
--โดยส
--โดยใช
--โดยไม
--โต
--โตซ
--โท
--โทรท
--โน
--โนนศ
--โนนส
--โบ
--โบสถ
--โป
--โปร
--โปรต
--โปล
--โปเล
--โปแลนด
--โพ
--โพธ
--โพล
--โฟน
--โฟร
--โม
--โมท
--โมร
--โมสร
--โมสรท
--โมสรฟ
--โมเน
--โมโซม
--โย
--โร
--โรค
--โรงเร
--โรดม
--โรม
--โล
--โลก
--โลว
--โลวาเก
--โว
--โศก
--โอ
--โอล
--โฮ
--ใกล
--ใคร
--ใจ
--ใจก
--ใจต
--ใจท
--ใจใส
--ใช
--ใด
--ใดท
--ใดๆ
--ใต
--ใน
--ในก
--ในกร
--ในกล
--ในการต
--ในข
--ในขณะน
--ในค
--ในคร
--ในจ
--ในช
--ในซ
--ในญ
--ในด
--ในต
--ในท
--ในทว
--ในน
--ในบ
--ในบร
--ในป
--ในผ
--ในพ
--ในฟ
--ในภ
--ในม
--ในย
--ในร
--ในระด
--ในฤด
--ในล
--ในว
--ในศ
--ในส
--ในสม
--ในสมเด
--ในห
--ในหน
--ในหม
--ในอ
--ในอด
--ในเจ
--ในเด
--ในเม
--ในเร
--ในแง
--ในแต
--ใบ
--ใฝ
--ใย
--ใส
--ให
--ใหญ
--ใหม
--ไก
--ไกล
--ไข
--ไขม
--ไชย
--ไซ
--ได
--ไต
--ไตรป
--ไตล
--ไตเต
--ไถ
--ไท
--ไทน
--ไทม
--ไทย
--ไทยท
--ไทยพาณ
--ไทยร
--ไป
--ไปก
--ไปช
--ไปด
--ไปต
--ไปถ
--ไปท
--ไปย
--ไปร
--ไปว
--ไปศ
--ไปส
--ไปอ
--ไปอย
--ไปเป
--ไปแล
--ไปได
--ไผ
--ไพ
--ไพร
--ไฟ
--ไฟฟ
--ไฟล
--ไม
--ไมตร
--ไร
--ไล
--ไว
--ไวต
--ไวร
--ไส
--ไห
--ไหน
--ไหล
--ไหลเว
--ไอ
--ไอซ
--ไอน
--ไอพ
--ไอร
--ๆ
--๐
--๐๕
--๐๘
--๑
--๒
--๓
--๔
--๕
--๖
--๗
--๘
--๘๖
--๙
--๙๖
