!
"
#
##a
##aa
##ab
##ac
##ad
##ae
##af
##ag
##ah
##ai
##aj
##ak
##al
##am
##an
##ao
##ap
##aq
##ar
##as
##at
##au
##av
##aw
##ax
##ay
##az
##b
##ba
##bb
##bc
##bd
##be
##bf
##bg
##bh
##bi
##bj
##bk
##bl
##bm
##bn
##bo
##bp
##bq
##br
##bs
##bt
##bu
##bv
##bw
##bx
##by
##bz
##c
##ca
##cb
##cc
##cd
##ce
##cf
##cg
##ch
##ci
##cj
##ck
##cl
##cm
##cn
##co
##cp
##cq
##cr
##cs
##ct
##cu
##cv
##cw
##cx
##cy
##cz
##d
##da
##db
##dc
##dd
##de
##df
##dg
##dh
##di
##dj
##dk
##dl
##dm
##dn
##do
##dp
##dq
##dr
##ds
##dt
##du
##dv
##dw
##dx
##dy
##dz
##e
##ea
##eb
##ec
##ed
##ee
##ef
##eg
##eh
##ei
##ej
##ek
##el
##em
##en
##eo
##ep
##eq
##er
##es
##et
##eu
##ev
##ew
##ex
##ey
##ez
##f
##fa
##fb
##fc
##fd
##fe
##ff
##fg
##fh
##fi
##fj
##fk
##fl
##fm
##fn
##fo
##fp
##fq
##fr
##fs
##ft
##fu
##fv
##fw
##fx
##fy
##fz
##g
##ga
##gb
##gc
##gd
##ge
##gf
##gg
##gh
##gi
##gj
##gk
##gl
##gm
##gn
##go
##gp
##gq
##gr
##gs
##gt
##gu
##gv
##gw
##gx
##gy
##gz
##h
##ha
##hb
##hc
##hd
##he
##hf
##hg
##hh
##hi
##hj
##hk
##hl
##hm
##hn
##ho
##hp
##hq
##hr
##hs
##ht
##hu
##hv
##hw
##hx
##hy
##hz
##i
##ia
##ib
##ic
##id
##ie
##if
##ig
##ih
##ii
##ij
##ik
##il
##im
##in
##io
##ip
##iq
##ir
##is
##it
##iu
##iv
##iw
##ix
##iy
##iz
##j
##ja
##jb
##jc
##jd
##je
##jf
##jg
##jh
##ji
##jj
##jk
##jl
##jm
##jn
##jo
##jp
##jq
##jr
##js
##jt
##ju
##jv
##jw
##jx
##jy
##jz
##k
##ka
##kb
##kc
##kd
##ke
##kf
##kg
##kh
##ki
##kj
##kk
##kl
##km
##kn
##ko
##kp
##kq
##kr
##ks
##kt
##ku
##kv
##kw
##kx
##ky
##kz
##l
##la
##lb
##lc
##ld
##le
##lf
##lg
##lh
##li
##lj
##lk
##ll
##lm
##ln
##lo
##lp
##lq
##lr
##ls
##lt
##lu
##lv
##lw
##lx
##ly
##lz
##m
##ma
##mb
##mc
##md
##me
##mf
##mg
##mh
##mi
##mj
##mk
##ml
##mm
##mn
##mo
##mp
##mq
##mr
##ms
##mt
##mu
##mv
##mw
##mx
##my
##mz
##n
##na
##nb
##nc
##nd
##ne
##nf
##ng
##nh
##ni
##nj
##nk
##nl
##nm
##nn
##no
##np
##nq
##nr
##ns
##nt
##nu
##nv
##nw
##nx
##ny
##nz
##o
##oa
##ob
##oc
##od
##oe
##of
##og
##oh
##oi
##oj
##ok
##ol
##om
##on
##oo
##op
##oq
##or
##os
##ot
##ou
##ov
##ow
##ox
##oy
##oz
##p
##pa
##pb
##pc
##pd
##pe
##pf
##pg
##ph
##pi
##pj
##pk
##pl
##pm
##pn
##po
##pp
##pq
##pr
##ps
##pt
##pu
##pv
##pw
##px
##py
##pz
##q
##qa
##qb
##qc
##qd
##qe
##qf
##qg
##qh
##qi
##qj
##qk
##ql
##qm
##qn
##qo
##qp
##qq
##qr
##qs
##qt
##qu
##qv
##qw
##qx
##qy
##qz
##r
##ra
##rb
##rc
##rd
##re
##rf
##rg
##rh
##ri
##rj
##rk
##rl
##rm
##rn
##ro
##rp
##rq
##rr
##rs
##rt
##ru
##rv
##rw
##rx
##ry
##rz
##s
##sa
##sb
##sc
##sd
##se
##sf
##sg
##sh
##si
##sj
##sk
##sl
##sm
##sn
##so
##sp
##sq
##sr
##ss
##st
##su
##sv
##sw
##sx
##sy
##sz
##t
##ta
##tb
##tc
##td
##te
##tf
##tg
##th
##ti
##tj
##tk
##tl
##tm
##tn
##to
##tp
##tq
##tr
##ts
##tt
##tu
##tv
##tw
##tx
##ty
##tz
##u
##ua
##ub
##uc
##ud
##ue
##uf
##ug
##uh
##ui
##uj
##uk
##ul
##um
##un
##uo
##up
##uq
##ur
##us
##ut
##uu
##uv
##uw
##ux
##uy
##uz
##v
##va
##vb
##vc
##vd
##ve
##vf
##vg
##vh
##vi
##vj
##vk
##vl
##vm
##vn
##vo
##vp
##vq
##vr
##vs
##vt
##vu
##vv
##vw
##vx
##vy
##vz
##w
##wa
##wb
##wc
##wd
##we
##wf
##wg
##wh
##wi
##wj
##wk
##wl
##wm
##wn
##wo
##wp
##wq
##wr
##ws
##wt
##wu
##wv
##ww
##wx
##wy
##wz
##x
##xa
##xb
##xc
##xd
##xe
##xf
##xg
##xh
##xi
##xj
##xk
##xl
##xm
##xn
##xo
##xp
##xq
##xr
##xs
##xt
##xu
##xv
##xw
##xx
##xy
##xz
##y
##ya
##yb
##yc
##yd
##ye
##yf
##yg
##yh
##yi
##yj
##yk
##yl
##ym
##yn
##yo
##yp
##yq
##yr
##ys
##yt
##yu
##yv
##yw
##yx
##yy
##yz
##z
##za
##zb
##zc
##zd
##ze
##zf
##zg
##zh
##zi
##zj
##zk
##zl
##zm
##zn
##zo
##zp
##zq
##zr
##zs
##zt
##zu
##zv
##zw
##zx
##zy
##zz
$
%
&
'
(
)
*
+
,
-
.
/
0
00
000
0001
0004
001
002
0022
003
004
005
006
007
008
009
01
010
011
012
013
0140
016
017
02
020
024
03
04
05
050
06
07
08
09
0a
0b
0c
0d
0e
0f
0g
0h
0i
0j
0k
0l
0m
0n
0o
0p
0q
0r
0s
0t
0u
0v
0w
0x
0y
0z
1
10
100
1000
1001
1002
1006
1007
101
1016
1017
102
1021
1023
103
1037
1038
104
1042
1046
105
1051
1056
106
1066
107
1073
108
1080
1086
1088
109
1093
1095
1097
1098
11
110
1100
1101
1103
111
1111
112
1126
1128
113
1136
114
1146
115
116
1161
117
1177
118
1186
1188
119
12
120
1200
121
122
123
124
125
1250
126
127
128
1286
129
13
130
1300
131
132
1328
133
134
135
136
1365
1368
137
1371
138
1385
139
14
140
1400
141
142
143
144
145
1450
1453
146
14651858
1467
1469
147
1470
1471
148
1480
149
15
150
1500
1505
151
1515
152
1520
1521
153
154
155
156
157
158
159
16
160
1600
161
162
163
164
165
1650
166
1660
167
168
169
17
170
1700
171
172
173
174
175
1758
176
177
1776
178
1783
1789
179
1790
1791
1792
1793
1795
1798
1799
18
180
1800
1801
1802
1803
1804
1806
1807
1808
1809
181
1810
1812
1813
1814
1815
1816
1817
1818
1819
182
1820
1821
1822
1824
1825
1826
1828
1829
183
1830
1831
1832
1833
1834
1835
1836
1837
1838
1839
184
1840
1841
1842
1843
1844
1845
1846
1847
1848
1849
185
1850
1851
1852
1853
1854
1855
1856
1857
1858
1859
186
1860
1861
1862
1863
1864
1865
1866
1867
1868
1869
187
1870
1871
1872
1873
1874
1875
1876
1877
1878
1879
188
1880
1881
1882
1883
1884
1885
1886
1887
1888
1889
189
1890
1891
1892
1893
1894
1895
1896
1897
1898
1899
19
190
1900
1901
1902
1903
1904
1905
1906
1907
1908
1909
191
1910
1911
1912
1913
1914
1915
1916
1917
1918
1919
192
1920
1921
1922
1923
1924
1925
1926
1927
1928
1929
193
1930
1931
1932
1933
1934
1935
1936
1937
1938
1939
194
1940
1941
1942
1943
1944
1945
1946
1947
1948
1949
195
1950
1951
1952
1953
1954
1955
1956
1957
1958
1959
196
1960
1961
1962
1963
1964
1965
1966
1967
1968
1969
197
1970
1971
1972
1973
1974
1975
1976
1977
1978
1979
198
1980
1981
1982
1983
1984
1985
1986
1987
1988
1989
199
1990
1991
1992
1993
1994
1995
1996
1997
1998
1999
1a
1b
1c
1d
1e
1f
1g
1h
1i
1j
1k
1l
1m
1n
1o
1p
1q
1r
1s
1t
1u
1v
1w
1x
1y
1z
2
20
200
2000
2001
2002
2003
2004
2005
2006
2007
2008
2009
201
2010
2011
2012
2013
2014
2015
2016
2017
2018
2019
202
2020
2021
2022
2023
2024
203
2030
204
205
206
207
208
209
21
210
211
212
213
214
215
216
217
218
219
22
220
221
222
223
224
225
226
227
228
229
23
230
2307
231
2310
232
2325
233
234
235
2352
236
2367
2369
237
238
239
2394
2396
2399
24
240
2400
2401
2403
2404
2405
2406
2407
2408
2409
241
2410
2411
2412
2413
2414
2415
2416
2417
2418
2419
242
2420
2421
2422
2423
2424
2425
2426
2427
2428
2429
243
2430
2431
2432
2433
2434
2435
2436
2437
2438
2439
244
2440
2441
2442
2443
2444
2445
2446
2447
2448
2449
245
2450
2451
2452
2453
2454
2455
2456
2457
2458
2459
246
2460
2461
2462
2463
2464
2465
2466
2467
2468
2469
247
2470
2471
2472
2473
2474
2475
2476
2477
2478
2479
248
2480
2481
2482
2483
2484
2485
2486
2487
2488
2489
249
2490
2491
2492
2493
2494
2495
2496
2497
2498
2499
25
250
2500
2501
2502
2503
2504
2505
2506
2507
2508
2509
251
2510
2511
2512
2513
2514
2515
2516
2517
2518
2519
252
2520
2521
2522
2523
2524
2525
2526
2527
2528
2529
253
2530
2531
2532
2533
2534
2535
2536
2537
2538
2539
254
2540
2541
2542
2543
2544
2545
2546
2547
2548
2549
255
2550
2551
2552
2553
2554
2555
2556
2557
2558
2559
256
2560
2561
2562
2563
2564
2565
257
258
259
26
260
261
262
263
264
265
266
267
268
269
27
270
271
272
273
274
275
276
277
278
279
28
280
281
282
283
284
285
286
287
288
289
29
290
291
292
293
294
295
296
297
298
299
2a
2b
2c
2d
2e
2f
2g
2h
2i
2j
2k
2l
2m
2n
2o
2p
2q
2r
2s
2t
2u
2v
2w
2x
2y
2z
3
30
300
3000
301
302
303
304
305
306
307
308
309
31
310
311
312
313
314
315
316
3166
317
318
319
32
320
321
322
323
324
325
326
327
328
329
33
330
331
332
333
334
335
336
337
338
339
34
340
341
342
343
344
345
346
347
348
349
35
350
351
3512
352
353
354
355
356
357
358
359
36
360
361
362
363
364
365
366
367
368
369
37
370
371
372
373
374
375
376
377
378
379
38
380
381
382
383
384
385
386
387
388
389
39
390
391
392
393
394
395
396
397
398
399
3a
3b
3c
3d
3e
3f
3g
3h
3i
3j
3k
3l
3m
3n
3o
3p
3q
3r
3s
3t
3u
3v
3w
3x
3y
3z
4
40
400
4000
401
402
403
404
405
406
407
408
409
41
410
411
412
413
414
415
416
417
418
419
42
420
421
422
423
424
425
426
427
428
429
43
430
431
432
433
434
435
436
437
438
439
44
440
441
443
444
445
446
447
448
449
45
450
451
452
453
455
456
457
458
459
46
460
461
462
463
464
465
467
468
47
470
471
472
473
474
475
476
477
478
479
48
480
481
483
484
485
486
488
49
490
491
492
494
495
496
497
498
499
4a
4b
4c
4d
4e
4f
4g
4h
4i
4j
4k
4l
4m
4n
4o
4p
4q
4r
4s
4t
4u
4v
4w
4x
4y
4z
5
50
500
5000
501
502
503
504
505
506
507
508
509
51
510
511
512
513
514
515
517
518
52
520
521
522
523
525
526
527
528
529
53
530
531
533
534
535
536
537
54
540
541
542
543
544
545
546
547
549
55
550
551
553
554
555
556
557
558
559
56
560
561
562
563
564
565
567
57
570
571
572
575
576
58
580
581
582
583
59
592
593
594
595
599
5a
5b
5c
5d
5e
5f
5g
5h
5i
5j
5k
5l
5m
5n
5o
5p
5q
5r
5s
5t
5u
5v
5w
5x
5y
5z
6
60
600
601
61
610
612
616
617
618
619
62
620
623
625
627
63
630
631
632
633
637
639
64
640
641
642
643
648
65
650
652
655
657
66
660
663
666
667
668
669
67
670
671
673
6736
674
675
678
679
68
680
681
684
685
686
688
689
69
690
691
6a
6b
6c
6d
6e
6f
6g
6h
6i
6j
6k
6l
6m
6n
6o
6p
6q
6r
6s
6t
6u
6v
6w
6x
6y
6z
7
70
700
702
704
705
707
71
710
711
712
715
717
718
72
720
727
73
730
737
74
740
745
747
75
750
76
760
767
77
770
776
777
78
780
787
79
790
791
792
7a
7b
7c
7d
7e
7f
7g
7h
7i
7j
7k
7l
7m
7n
7o
7p
7q
7r
7s
7t
7u
7v
7w
7x
7y
7z
8
80
800
801
802
808
809
81
818
82
820
83
830
833
84
840
843
849
85
850
855
86
860
87
870
871
88
89
895
8a
8b
8c
8d
8e
8f
8g
8h
8i
8j
8k
8l
8m
8n
8o
8p
8q
8r
8s
8t
8u
8v
8w
8x
8y
8z
9
90
900
907
91
910
911
92
93
933
94
944
945
947
95
950
951
953
956
96
960
962
963
967
97
974
978
98
980
981
987
99
990
999
9a
9b
9c
9d
9e
9f
9g
9h
9i
9j
9k
9l
9m
9n
9o
9p
9q
9r
9s
9t
9u
9v
9w
9x
9y
9z
:
;
<
=
>
?
@
[
[CLS]
[MASK]
[PAD]
[SEP]
[UNK]
\
]
^
_
`
a
a0
a1
a2
a3
a4
a5
a6
a7
a8
a9
aa
aaa
aaron
ab
abc
abdul
abessive
about
above
abraham
abs
absolute
abstract
abu
abuse
ac
acacia
academia
academic
academy
accent
access
accessdate
accessed
accident
according
account
ace
achievement
acid
acids
acoustic
across
act
acta
acting
action
active
activities
activity
actor
actors
actress
acts
acute
ad
adam
adams
adaptation
add
added
additional
address
adds
adessive
administration
administrative
adobe
adrian
adult
adults
advance
advanced
advances
adventure
adventures
advisory
ae
aew
af
afc
aff
affairs
afghan
afghanistan
afp
africa
african
after
ag
again
against
age
agency
agent
agents
ages
ago
agree
agreement
agricultural
agriculture
ah
ahead
ahmad
ahmed
ai
aid
aids
air
airbus
aircraft
airline
airlines
airplay
airport
airways
ais
aj
ak
akb
akira
al
ala
alan
albert
alberto
album
albums
alcohol
alex
alexa
alexander
alexandra
alfred
algorithm
ali
alice
alien
aligned
alive
all
allan
allative
allen
alliance
allkpop
allmusic
almost
alone
along
alpha
alphabet
alpinia
already
also
alt
alternative
although
always
alzheimer
am
amateur
amazing
amazon
ambassador
ambrose
america
american
americans
americas
amid
among
ampas
amsterdam
amy
an
ana
analysis
anatomy
ancient
and
anderson
andre
andrea
andreas
andrew
andrews
android
andy
ang
angel
angeles
angels
angiosperm
angle
anglo
animal
animals
animated
animation
anime
ann
anna
annals
anne
anniversary
announce
announced
announcement
announces
annual
annurev
another
ant
anterior
anthem
anthony
anthropology
anti
antiquity
anton
antonio
anxiety
any
ao
ap
app
appear
appearance
appearances
appendix
apple
application
applications
applied
appointed
approach
apr
april
aq
aquarium
ar
ara
arab
arabia
arabic
arc
arcade
arch
archaeological
archaeology
architectural
architecture
archive
archived
archivedate
archives
are
area
areas
arena
argentina
aria
arizona
arm
armed
armenia
armenian
arms
armstrong
army
arnold
around
array
ars
arsenal
art
artery
arthur
article
articles
artificial
artist
artists
arts
arxiv
as
asahi
asean
asia
asian
asiatic
ask
asked
asp
aspects
aspx
assault
assembly
assessment
associated
associates
association
associations
asteroid
aston
astro
astronomical
astronomy
astrophysical
astrophysics
astv
at
ata
athens
athlete
athletes
athletic
athletics
atlantic
atlas
atletico
atmospheric
atomic
atp
attack
attacks
attempt
attention
au
audio
audition
auf
aug
august
aung
aus
austin
australia
australian
austria
austrian
austriancharts
author
authority
authors
auto
autocorrect
autofill
autofilter
autoformat
automatically
autonomous
autosum
autotext
autumn
av
available
avengers
average
aviation
aw
award
awarded
awards
away
ax
axis
ay
az
azerbaijan
aŋ
aɪ
aɰ
aʔ
b
b0
b1
b2
b3
b4
b5
b6
b7
b8
b9
ba
baan
baby
bachelor
back
background
bad
bag
bai
bailey
baker
balance
ball
baltimore
bamboo
ban
banarsidass
band
bang
bangkok
bangladesh
bank
banks
bao
bar
barbara
barcelona
barnes
barnett
baron
barrett
barry
base
based
basic
basin
basis
basketball
bass
bat
bataille
batman
battle
battles
bauhinia
bay
bayern
bb
bbc
bc
bd
bdfutbol
be
beach
bean
bear
bearers
beast
beat
beats
beautiful
beauty
became
because
beck
becky
become
becomes
bed
bee
been
before
begin
beginning
begins
behavior
behavioral
behaviour
behind
bei
beijing
being
belarus
belgian
belgium
believe
bell
belt
ben
benefits
beng
benigno
benjamin
bennett
benth
berg
berkeley
berlin
bernard
best
bet
beta
better
between
beyonce
beyond
bf
bg
bgn
bh
bi
bian
biao
bias
bibcode
bible
bibliography
bid
bie
big
biggest
bih
bill
billboard
billion
billy
bin
binary
bing
bio
biochemistry
biodiversity
biographical
biography
biol
biological
biology
biotechnology
bipolar
bird
birdlife
birds
birmingham
birth
birthday
bis
bishop
bit
bitcoin
biu
biz
bj
bk
bl
black
blackpink
blackwell
blade
blake
blast
bleach
bleeker
blind
block
blog
blogspot
blood
bloom
bloomberg
blu
blue
blues
bm
bmatrix
bmj
bn
bnk
bo
board
boat
bob
bobby
bodies
body
boeing
bok
bomb
bombay
bon
bond
bone
bong
bonus
book
bookmark
books
boom
bor
bora
border
born
borneo
borussia
boss
boston
bot
botanical
botany
both
bottom
bou
bound
bowl
box
boxing
boxrec
boy
boys
bp
bq
br
brad
bradley
brain
branch
brand
brasil
braun
brave
bray
brazil
brazilian
break
breaking
breaks
brian
bridge
brief
bright
brill
bring
brings
britain
britannica
british
broadcast
broadcasting
brock
broken
bronze
brooks
bros
brother
brothers
brown
browser
bruce
brunei
bruno
bryan
bs
bst
bt
bts
bu
budapest
buddha
buddhism
buddhist
budget
bug
bui
build
building
buildings
built
bulgaria
bull
bullet
bulletin
bun
bundesliga
burden
bureau
burke
burma
burmese
burn
burning
burns
burton
bus
bush
business
but
butler
butterfly
buy
bv
bw
bx
by
bye
bz
c
c0
c1
c2
c3
c4
c5
c6
c7
c8
c9
ca
cabinet
cable
caf
cafe
cage
cagematch
cai
cairo
calc
calculate
caldwell
calendar
california
call
called
calls
cam
cambodia
cambodian
cambridge
came
camera
cameron
camp
campaign
campbell
campus
can
canada
canadian
canal
cancer
candidate
candy
cang
cant
cantonese
cao
cap
capacity
capcom
cape
capital
captain
capture
car
carbon
card
cardiovascular
cards
care
career
carey
cargo
caribbean
carl
carlo
carlos
carnivorous
carol
carolina
caroline
carrier
carroll
carry
cars
carter
cartoon
cas
case
cases
cash
cast
castle
cat
catalog
catalogue
catch
category
cathedral
cathedrale
catherine
catholic
cau
cause
causes
cave
cb
cbc
cbs
cbt
cc
cctld
cd
cdc
cdot
cdots
cdp
ce
celebration
celebrity
celine
cell
cells
celtic
cen
cena
ceng
census
center
centers
central
centre
centuries
century
centurycomm
ceo
ceoi
cerebral
ceremony
certain
certification
certifications
cesaro
cest
cet
cf
cg
ch
cha
chai
chain
challenge
challenges
chamber
champ
champion
champions
championship
championships
chan
chance
chang
change
changed
changes
changing
changsha
channel
chao
chaos
chaozhou
chapman
chapter
character
characteristics
characters
charge
charity
charles
charlie
charlotte
chart
charter
charts
chase
chau
che
check
checklist
chef
chelsea
chem
chemical
chemistry
chen
cheng
chengdu
chess
chi
chia
chiang
chiao
chicago
chicken
chief
chieh
chien
chih
child
childhood
children
chile
chin
china
chinese
ching
chiu
cho
chocolate
choi
choice
chomsky
chong
chosun
chou
chris
christ
christian
christianity
christina
christine
christmas
christopher
chronic
chronicle
chronicles
chronology
chu
chuan
chuang
chui
chula
chun
chung
chuo
church
ci
cia
cian
cid
cin
cinema
cing
circle
circuit
citation
cite
cited
cities
citizen
city
civil
civilization
cj
ck
cl
claim
claims
claire
clarendon
clark
clarke
clash
class
classic
classical
classics
classification
claude
clayton
clean
clear
cleveland
click
climate
clin
clinic
clinical
clio
clip
clock
close
closed
cloud
club
clubs
clue
cluster
cm
cn
cnbc
cnn
cns
co
coach
coast
coauthors
cochrane
code
coffee
cognition
cognitive
cohen
cola
cold
cole
colin
collaboration
collapse
collection
college
collins
colloquial
colombia
colonial
color
colour
columbia
column
com
combat
combinations
combined
come
comeback
comedy
comes
comic
comics
coming
comingsoon
command
commander
commentary
commerce
commercial
commission
commissioner
committee
common
commonly
commonwealth
communication
communications
communism
communist
communities
community
companies
companion
company
comparative
comparison
compete
competition
competitions
complete
completed
completes
complex
component
composition
compound
compounds
comprehensive
computer
computing
con
conan
concacaf
concat
concept
concepts
concern
concerning
concert
concise
conditional
conditions
confederation
conference
confirm
confirmed
confirms
conflict
cong
congo
congress
conmebol
connection
connor
conquest
cons
consequences
conservation
considered
constitution
constitutional
construction
consumer
contact
contains
contemporary
content
contents
contest
context
continental
continue
continues
contract
contribution
control
controlled
convention
cook
cooking
cool
cooper
cooperation
copa
copy
core
cornell
corner
corona
coronavirus
corporate
corporation
corps
corpus
cortex
cos
cosmic
cost
costa
cou
could
council
count
countdown
counter
countries
country
county
coup
couple
course
court
cov
cover
coverage
covid
cox
cp
cq
cr
craig
crane
crash
crazy
crc
cream
create
created
creation
creative
credits
crew
crime
criminal
crisis
critical
critics
croatia
cross
crown
crowned
cruise
cruiserweight
cruz
cry
crystal
cs
ct
ctbuh
cu
cuba
cui
cultural
culture
cultures
cumulative
cung
cuo
cup
cure
curlie
current
currently
curtis
cut
cv
cw
cx
cy
cycle
cyclone
cyp
cyprinidae
cyprus
cyu
cyun
cz
czech
d
d0
d1
d2
d3
d4
d5
d6
d7
d8
d9
da
daai
daan
dad
dai
daibuun
daily
dailynews
dale
dallas
dam
damage
dame
dan
dana
dance
dancing
dang
dangerous
daniel
danish
danny
dans
dao
daradaily
dark
darwin
das
dash
data
database
date
dated
dates
dating
dau
daughter
dave
david
davidson
davies
davis
dawn
day
days
db
dc
dd
de
dead
deadline
deadly
deadurl
deal
dean
dear
death
deaths
debate
debut
debuts
dec
decade
december
decision
declaration
decline
decree
dee
deep
def
default
defeat
defence
defender
defense
definition
degree
dei
dek
del
delhi
delivery
dell
della
delta
dem
demand
dementia
democracy
democratic
demon
den
dendrobium
deng
denis
denmark
dennis
density
department
dependent
deprecated
depression
depressive
depth
der
derby
derived
des
description
desert
design
despite
destination
destiny
destruction
det
detail
detailed
details
detection
detective
deutsche
deutschen
developing
development
developmental
devil
df
dfb
dg
dh
di
diabetes
diagnosis
diagnostic
diagram
dialect
diamond
dian
diana
diao
diary
dick
dictionary
did
didn
die
died
diego
dies
diet
dietary
difference
differences
different
differential
digital
digitized
dim
din
ding
dion
direct
directed
direction
director
directory
dirty
dis
disaster
disc
discography
discogs
discovered
discovery
discussion
disease
diseases
disney
disorder
disorders
display
displaystyle
distance
distribution
district
districts
diu
divas
diversity
divine
division
dj
dk
dl
dm
dn
dna
do
doc
doctor
document
documentary
documentation
documents
dodson
does
dog
dogs
doi
doing
dojo
dolph
domain
domainfalsefalse
domainpublic
dome
domestic
don
donald
done
dong
doo
door
dopa
dorsal
dortmund
dos
dot
dou
double
douglas
dover
down
download
downloaded
dp
dq
dr
draft
dragon
drake
drama
draw
draws
dream
dreams
drew
drive
driver
drop
drug
drugs
dry
ds
dsm
dt
du
dual
duan
dubai
duchess
duden
due
dui
duk
duke
dun
duncan
dung
dungan
dungeon
duo
during
dust
dutch
dutchcharts
duty
dv
dvd
dw
dx
dy
dynamic
dynamics
dynasty
dz
dzi
e
e0
e1
e2
e3
e4
e5
e6
e7
e8
e9
ea
each
eagle
ear
earl
earliest
early
earth
earthquake
east
eastern
easy
eat
eb
ebola
ec
echo
eclipse
ecological
ecology
economic
economics
economist
economy
ecw
ed
eddie
edge
edinburgh
edit
edited
edition
editions
editor
editorial
editors
eds
edu
education
educational
edward
edwards
edwin
ee
eest
ef
effect
effective
effectiveness
effects
efficacy
efl
efm
eg
egg
egypt
egyptian
eh
ei
eight
ein
einstein
ej
ek
el
elative
elected
election
elections
electoral
electric
electrical
electronic
electronics
element
elements
elephant
eleven
elimination
elisabeth
elite
elizabeth
ellen
elliott
ellis
else
elsevier
em
embassy
emergency
emerging
emily
emirates
emma
emotional
emperor
empire
empires
emporis
empress
empty
en
encyclopaedia
encyclopedia
encyclopædia
end
ending
ends
enemy
energy
enewsworld
eng
engine
engineer
engineering
engineers
engl
england
english
enix
enough
enpr
ent
enter
enterprise
entertain
entertainment
entries
entry
environment
environmental
eo
ep
epa
epic
epidemiology
epidendrum
episode
episodes
eq
er
era
eric
erik
ernest
ernst
error
es
escape
espana
espanola
espn
essay
essays
essential
essive
est
estadio
estate
estimate
estimates
et
etc
ethics
ethiopia
ethnic
ethnologue
etymology
eu
eugene
eun
euro
europa
europe
european
ev
eva
evaluation
evans
eve
even
evening
event
events
ever
everton
every
everyone
everything
evidence
evil
evolution
evolutionary
ew
ex
exact
examination
example
excel
excellence
excerpt
exchange
exclusive
executive
exercise
exhibition
exile
exo
expand
expansion
experience
experiment
experimental
expert
explicit
exploration
explorer
explosion
expo
exposure
express
expression
extended
extension
external
extinction
extra
extreme
ey
eye
eyes
ez
f
f0
f1
f2
f3
f4
f5
f6
f7
f8
f9
fa
faan
face
facebook
faces
fact
factbook
factor
factors
factory
facts
faculty
fai
failure
fair
fairy
faith
falcon
fall
falls
false
fame
families
family
famine
famous
fan
fang
fans
fantastic
fantasy
fao
faq
far
farm
fashion
fast
fat
fatal
fate
father
fatty
favorite
fb
fbi
fc
fcw
fd
fda
fe
fear
feat
feature
features
featuring
feb
february
federal
federation
feed
feel
feet
fei
felix
fem
female
fen
feng
ferdinand
ferguson
fernandez
fernando
festival
feud
fever
few
ff
fg
fh
fi
fiber
fiction
field
fields
fifa
fifteenth
fifth
fight
fighter
fighters
fighting
figure
figures
file
files
film
films
final
finally
finals
finance
financial
find
finding
finds
fine
finland
finnish
fire
first
fis
fischer
fish
fishbase
fisher
fishes
fivb
five
fj
fk
fl
flag
flagbearers
flags
flair
flame
flash
flat
fleet
fleming
flight
flood
floor
flora
florence
florida
flow
flower
flowers
floyd
flu
fluid
fly
flying
fm
fn
fo
focus
follow
following
fong
food
foods
foot
football
footballers
for
forbes
force
forces
ford
foreign
forest
forever
forgotten
form
formal
format
formation
former
forms
formula
fort
fortune
forum
forward
fossil
foster
found
foundation
foundations
founder
four
fourth
fox
fp
fq
fr
frac
frame
framework
francais
francaise
france
francis
francisco
francois
frank
frankfurt
franklin
franz
fraser
fred
frederic
frederick
free
freedom
freeform
freeman
french
frequency
frequently
fresh
friday
friedrich
friend
friends
friendship
fritz
from
front
frontier
fruit
fs
ft
fu
fuel
fuji
fukushima
full
fun
function
functional
functions
fund
fung
fur
furious
further
futbol
futsal
future
fuzhou
fv
fw
fx
fy
fz
fɔ
g
g0
g1
g2
g3
g4
g5
g6
g7
g8
g9
ga
gaa
gaai
gaan
gaau
gabriel
gabrielle
gaga
gai
galaxy
gale
gallery
gam
game
gamer
games
gamespot
gaming
gamma
gan
gang
gao
gaon
gaonchart
gap
garcia
garden
gardens
gardner
gary
gas
gat
gate
gates
gau
gay
gazette
gazetteer
gb
gbif
gc
gd
gdp
ge
gear
gei
gen
gender
gene
genealogy
genera
general
generation
genes
genesis
genetic
genetics
geneva
geng
genius
genocide
genome
gentiana
genus
geo
geoffrey
geographic
geographical
geography
geological
geology
georg
george
georgia
ger
gerald
gerard
german
germany
germplasm
geschichte
get
gets
getting
gf
gfk
gg
gh
ghost
gi
gia
giant
gift
gilbert
gin
ging
giovanni
girl
girls
giu
give
given
gives
gj
gk
gl
gladiolus
glass
glenn
global
globe
glory
glossary
gm
gmbh
gmember
gmm
gmt
gn
go
goal
goals
god
gods
goes
goi
going
gold
goldberg
golden
gon
gone
gong
gonzalez
good
goodbye
google
gordon
got
gou
gov
governance
government
governor
gp
gq
gr
grace
graduate
graham
grammar
grammy
gran
grand
grande
grant
graph
grass
gravity
gray
great
greater
greatest
greece
greek
green
greenwood
greg
gregory
grey
grin
gross
ground
group
groups
growing
growth
gs
gt
gu
gua
guan
guang
guangdong
guard
guardian
guei
guest
gui
guide
guidelines
guides
guinea
guinness
guitar
guk
gulf
gun
gundam
gung
guns
gunther
guo
guru
guy
gv
gw
gwai
gwan
gwok
gx
gy
gz
h
h0
h1
h2
h3
h4
h5
h6
h7
h8
h9
ha
haau
haben
habsburg
had
hagfa
hagsater
hai
hair
haiti
hak
hakka
half
hall
ham
hamilton
hammer
han
hana
hand
handbook
hands
hang
hans
hansen
hao
hap
happened
happiness
happy
hard
hardcore
hardy
harmony
harold
harper
harpercollins
harris
harrison
harry
hart
harv
harvard
harvey
has
hassan
hat
hate
hau
have
haven
having
hawai
hawaii
hawk
hb
hbo
hc
hd
hdi
hdl
he
head
heads
headword
health
healthcare
healthy
hearing
heart
hearts
heat
heaven
heavy
heavyweight
hee
hei
height
held
helen
helicopter
hell
hello
help
hen
heng
henri
henry
her
herald
herbert
here
heritage
herman
hermann
hero
heroes
het
hey
hf
hg
hh
hi
hidden
high
higher
highest
highlights
highness
highway
hill
hills
him
himself
hin
hindi
hindu
hing
hip
his
histoire
historia
historic
historical
histories
history
hit
hitler
hits
hitz
hiu
hiv
hj
hk
hkt
hl
hm
hn
ho
hoa
hockey
hogan
hoi
hok
hold
hole
holiday
holland
hollywood
holmes
holocaust
holt
holy
home
homepage
homo
hon
honda
honey
hong
honolulu
honor
honorary
honour
hook
hop
hope
hopkins
horizon
horn
horror
horse
hospital
host
hot
hotel
hotspur
hou
houghton
hour
hours
house
household
housing
houston
how
howard
however
hp
hq
hr
hs
hsi
hsiao
hsieh
hsien
hsu
ht
htm
html
http
https
hu
hua
huai
huan
huang
hub
hudson
hue
huei
huffington
huge
hugh
hughes
hugo
hui
hulk
hull
human
humanities
humans
hun
hundred
hung
hungarian
hungary
hunger
hunt
hunter
huo
hurricane
hv
hw
hwa
hwang
hx
hy
hybrid
hydrogen
hye
hypothesis
hyun
hz
hɔ
hɔŋ
i
i0
i1
i2
i3
i4
i5
i6
i7
i8
i9
ia
iaaf
iam
ian
iang
iao
iata
iau
ib
ibf
ibn
ic
icao
icd
ice
iceland
ich
icon
id
idea
ideas
identification
identifiers
identity
idol
ie
ieee
ien
if
ifpi
ig
ign
ignored
ih
ii
iii
ij
ik
il
ilbo
illative
illinois
illusion
illustrated
im
image
images
imaging
imdb
imf
immigration
impact
imperative
imperfect
imperial
implications
important
impossible
impress
in
inaccurate
inan
inc
incl
include
included
includes
including
income
increase
independence
independent
index
india
indian
indiana
individual
indo
indonesia
indonesian
induced
industrial
industry
inessive
infection
infectious
infinite
influence
influenza
info
information
informatise
infty
ing
inhibitor
inhibitors
initial
initiative
injured
injury
inkigayo
inner
innovation
inquirer
insert
inside
insider
insight
instagram
instead
institut
institute
institution
institutions
instrumental
int
integrated
integration
intel
intelligence
inter
interactive
intercontinental
interest
interface
interior
internal
international
internationale
internet
intervention
interview
interviews
into
introduction
invalid
invasion
investigation
investment
io
ioc
ion
iong
ios
ip
ipa
iphone
iq
ir
iran
iranian
iraq
iraqi
ireland
irish
iron
is
isaac
isbn
isis
islam
islamic
island
islands
iso
israel
israeli
issn
issue
issues
ist
it
ita
italia
italian
italiana
italy
item
itemid
itis
ito
its
itunes
itv
iu
iucn
iupac
iv
ivan
iw
iwgp
ix
iy
iz
iŋ
iɔŋ
iɪŋ
j
j0
j1
j2
j3
j4
j5
j6
j7
j8
j9
ja
jaaroverzichten
jack
jackson
jacob
jacques
jade
jae
jakarta
jake
jam
jama
james
jamie
jan
jane
jang
january
japan
japanese
jason
jat
jau
java
jay
jazeera
jazz
jb
jc
jd
je
jean
jeff
jeffrey
jen
jenkins
jennifer
jeong
jeremy
jericho
jerry
jersey
jerusalem
jessica
jesus
jet
jewish
jews
jf
jg
jh
jhih
jhu
ji
jia
jian
jiang
jiao
jie
jih
jik
jim
jimmy
jin
jing
jiong
jiu
jj
jk
jl
jm
jma
jn
jo
joan
job
joe
joel
joeng
johann
john
johnny
johns
johnson
johnston
join
joins
joint
jon
jonathan
jones
jong
joo
joongang
jordan
jose
joseph
josh
joshua
journal
journey
joy
joyo
joʊ
jp
jpg
jq
jr
js
jstor
jt
jtwc
ju
juan
judge
judgment
judith
jue
juk
jul
julia
julian
julie
july
jump
jun
june
jung
jungle
junior
just
justice
justin
juventus
jv
jw
jx
jy
jyh
jyp
jyu
jyue
jyun
jz
jɑŋ
jɑʊ
jɛ
jɛn
jʊŋ
k
k0
k1
k2
k3
k4
k5
k6
k7
k8
k9
ka
kabupaten
kai
kam
kamen
kan
kane
kang
kansas
kao
kap
kapook
kara
karen
karl
kasetsart
kat
kate
katy
kau
kazakhstan
kb
kbs
kc
kcr
kd
ke
keep
kei
keith
keller
kelly
ken
keng
kennedy
kenneth
kenny
kent
kenya
kevin
kew
key
kf
kg
kh
khan
khaosod
khmer
ki
kia
kick
kicker
kid
kids
kienning
kill
killed
killer
killing
kills
kim
kimi
kin
kind
king
kingdom
kingdoms
kings
kingston
kinmen
kirby
kiss
kit
kiu
kj
kk
kl
km
kn
knight
knights
know
knowledge
known
ko
koch
kodansha
koi
kok
komchadluek
kon
kong
korea
korean
kota
kou
kp
kpn
kpop
kq
kr
kra
kreikenbohm
ks
kt
ku
kua
kuai
kuala
kuan
kuang
kuei
kui
kumar
kun
kung
kuo
kurt
kv
kw
kwai
kwan
kx
ky
kyiv
kyoto
kz
kɔ
kɤ
kʊŋ
l
l0
l1
l2
l3
l4
l5
l6
l7
l8
l9
la
lab
label
labor
laboratory
labour
ladies
ladinxua
lady
lai
lake
laliga
lam
lambda
lan
lancet
land
lands
landscape
lane
lang
language
languages
langue
lanka
lao
laos
lap
large
largest
larry
las
last
late
later
lateral
latest
latin
lau
launch
launches
laura
lausanne
law
lawrence
laws
lay
layer
laŋ
lb
lc
lccn
ld
le
lead
leader
leaders
leadership
leading
leads
leaf
league
learn
learning
least
leave
leaves
lebanon
lecture
led
lee
left
leg
legacy
legal
legend
legendary
legends
lei
leicester
leiden
leipzig
len
leng
length
leo
leoi
leon
leonard
leq
les
leslie
lesnar
less
lessons
let
letter
letters
leu
level
levels
levine
lewis
lexicography
lexicon
lexikon
lf
lfc
lg
lh
li
liam
lian
liang
liao
liau
liberal
liberation
liberia
liberty
libraries
library
libre
libya
license
lie
lieh
lien
lies
life
lifestyle
lift
liga
light
lightning
ligue
lih
lik
like
lim
limit
limited
limits
lin
lincoln
linda
line
linear
lines
ling
linguistic
linguistics
link
linked
linkin
links
linnaeus
linux
lion
liou
lippincott
liquid
lisa
list
lista
listed
listen
listing
lists
lit
literary
literature
little
littlefield
liu
live
liverpool
lives
living
liŋ
lj
lk
ll
llc
lloyd
lm
ln
lo
loan
local
location
log
logic
loi
lok
lon
london
lonely
long
longer
longman
loo
look
looking
looks
loop
lopez
lord
los
lose
loss
lost
lot
lotus
lou
louis
louise
love
lover
low
lower
lp
lq
lr
ls
lt
ltd
lu
lua
luan
lucas
lucha
lucky
ludwig
lui
luis
luk
lukang
luke
lun
lunar
lung
luo
luxembourg
lv
lw
lx
ly
lynch
lynn
lynx
lyrics
lz
lɔ
lʊŋ
m
m0
m1
m2
m3
m4
m5
m6
m7
m8
m9
ma
maa
maan
mac
macau
macdonald
macedonia
machine
macmillan
mad
madagascar
made
madonna
madrid
mag
magazine
magic
maglev
magnetic
magnitude
magnolia
magyar
maha
mahasz
mai
mail
main
mainland
mainstream
maint
maintenance
majesty
major
mak
make
makes
making
mal
malaria
malay
malaysia
malaysian
malcolm
male
malta
mama
mammal
mammals
man
management
manager
manchester
mang
manga
mania
manila
mann
manual
manuel
manutd
many
mao
map
mapping
maps
mar
marc
marca
march
marco
marcus
margaret
margin
maria
marie
marina
marine
mario
maritime
mark
market
marketing
marks
maroon
marriage
married
mars
marseul
marshall
martial
martin
martinez
marvel
mary
maryland
mas
masc
mask
mason
mass
massachusetts
massacre
massive
master
masters
mat
match
matches
material
materials
math
mathbb
mathbf
mathematical
mathematics
mathrm
matichon
matrix
matt
matter
matthew
mau
maurice
max
may
maya
mayo
mayor
mb
mbc
mbox
mc
mcfarland
mcgraw
mcintyre
mcmahon
mcnulty
mcot
mcu
md
me
mean
meaning
means
measurement
measures
meat
mechanics
mechanism
mechanisms
med
medal
medals
media
medial
medical
medicine
medicines
medien
medieval
mediterranean
medium
meet
meeting
mega
meghan
mei
meinong
meixian
melbourne
melody
melon
meltzer
member
members
membrane
memorial
memories
memory
men
meng
mental
menu
mercedes
mercury
merriam
message
messi
met
meta
metabolism
metacritic
metal
meteorological
method
methods
metro
metropolitan
mexican
mexico
meyer
mf
mg
mgronline
mh
mhz
mi
miami
mian
miao
miaoli
michael
michel
michelle
michigan
micro
microbiology
microsoft
mid
middle
midnight
mie
mifflin
might
migration
mike
mil
milan
miles
military
milk
millennium
miller
million
min
mind
mine
ming
mini
minister
ministry
minnesota
minor
minority
minute
minutes
miracle
mirror
miss
missile
missing
mission
missosology
missouri
mister
mit
mitchell
miu
mix
mixed
miz
mj
mk
ml
mlcts
mm
mma
mn
mnet
mo
mobile
mod
mode
model
models
modern
modified
module
mohamed
mohammad
mohammed
mojo
mol
molecular
moment
mon
monaco
monarchy
monday
monetary
money
mong
monitor
monitoring
monkey
mono
monster
monsters
month
monthly
months
montreal
monuments
mood
moon
moore
mor
more
morgan
morning
morocco
morris
morrison
mortality
moscow
mosque
most
mother
motilal
motion
motor
mou
mount
mountain
mountains
mouse
mouth
move
movement
moves
movie
movies
moving
mozilla
mp
mq
mr
mri
mrna
mrs
ms
msc
msn
mt
mthai
mtv
mu
muay
much
muhammad
mui
muller
multi
multiple
mumbai
mun
munchen
mundo
mung
munich
municipal
municipality
murder
murphy
murray
muscle
museum
music
musical
muslim
muslims
must
mv
mvp
mw
mx
my
myanmar
mysterious
mystery
myth
mythology
myths
mz
mɔ
n
n0
n1
n2
n3
n4
n5
n6
n7
n8
n9
na
nach
nacional
nai
nakamura
nam
name
named
names
nan
nana
nanchang
nancy
nang
nangdee
nanjing
nao
naomi
napoleon
nas
nasa
nash
nat
natalie
nathan
nation
national
nationalism
nations
native
nato
natur
natural
nature
nau
naval
naver
navigation
navy
nazi
nb
nba
nbc
nc
nct
nd
ne
near
nearly
need
needs
negative
nei
neil
nelson
nen
neo
nepal
nepenthes
nerve
nervous
net
netflix
netherlands
network
networks
neural
neurology
neuron
neuroscience
never
new
newcastle
news
newsen
newsid
newsletter
newspaper
newton
next
nexus
nf
nfl
ng
ngai
ngo
ngou
nguyen
nh
nhk
ni
nian
nice
nicholas
nick
nicolas
nicole
nie
nieh
nielsen
nigeria
night
nih
nihon
nil
nin
nine
ning
ninja
nintendo
nippon
nissan
niu
nj
njpw
nk
nl
nm
nn
no
noaa
noah
nobel
noble
noc
node
noi
noise
nomenclature
nominations
nominees
non
nong
nor
normal
norman
north
northern
northwest
norton
norway
norwegian
nos
not
note
notes
nothing
nou
nov
nova
novel
november
now
np
npr
nq
nr
ns
nt
nu
nuclear
nucleus
number
numbers
nuo
nursing
nutrition
nv
nw
nwa
nx
nxt
ny
nytimes
nz
nɔ
o
o0
o1
o2
o3
o4
o5
o6
o7
o8
o9
oa
ob
obama
obec
obituary
object
objects
observations
observatory
observer
oc
ocean
oceanic
och
oclc
oct
october
od
oe
oecd
of
off
office
officer
official
officially
officials
oficial
often
og
oh
ohio
oi
oil
oj
ok
okell
oknation
ol
old
oldest
olfactory
oliver
olympiad
olympic
olympics
om
oman
omar
omega
on
once
one
ong
ongoing
online
only
onto
oo
op
opbf
open
opening
openoffice
opens
opera
operation
operations
opinion
opposition
optical
option
options
opus
oq
or
oral
orange
orbital
orchestra
order
orders
org
organ
organic
organisation
organising
organization
organizing
oricon
oriental
origin
original
originally
origins
orlando
orleans
orton
os
osaka
oscar
osen
osprey
ost
ot
other
others
otto
ottoman
ou
our
out
outbreak
outline
outlook
output
outside
outstanding
ov
ova
over
overall
overseas
overview
ow
owen
owens
own
ox
oxford
oy
oz
oŋ
oʊ
p
p0
p1
p2
p3
p4
p5
p6
p7
p8
p9
pa
paba
pacific
pack
package
pagasa
page
pageant
pages
pai
pain
painting
pair
pak
pakistan
palace
palestine
palgrave
palm
palmer
pan
panama
panda
pandemic
panel
pang
panthera
pantip
pao
paper
paperback
papers
par
para
parade
paradise
paradox
paralympic
paralympics
parameter
params
paris
park
parker
parks
parliament
parliamentary
part
partial
particle
parties
partitive
partner
partnership
parts
party
pass
passes
passion
past
pat
patent
path
pathway
patient
patients
patricia
patrick
pattern
patterns
pau
paul
paulo
pay
pb
pbs
pc
pcgn
pd
pdf
pe
peace
peak
pearl
pearson
pedro
pei
pen
peng
penguin
pennsylvania
people
peoples
per
perception
perez
perfect
perform
performance
period
permanent
perry
persian
person
personal
personality
persons
perspective
perspectives
peru
pet
peter
peters
peterson
pf
pfa
pfs
pg
ph
pha
phantom
pharmaceutical
pharmacology
phase
phi
phil
philadelphia
philip
philippe
philippine
philippines
phillips
philosophical
philosophy
pho
phoenix
phofsit
phone
phonetic
phonographic
photo
photographs
photos
php
phu
phylogeny
physical
physics
physiology
pi
pian
piano
piao
pick
picture
pictures
pie
piece
pierre
pilot
pin
ping
pink
pinyim
pinyin
pit
pitch
pitcher
piu
pj
pk
pl
place
placed
places
plan
plane
planet
planetary
planets
planning
plans
plant
plants
plate
platform
platinum
play
played
player
players
playing
plays
playstation
plc
please
plos
plural
plus
pm
pmc
pmid
pn
pnas
po
pocket
point
points
pokemon
poland
police
policy
polish
political
politics
poll
polygon
pong
pool
poor
pop
pope
popular
population
populations
por
port
portal
porter
porto
portrait
portugal
portuguese
position
positions
positive
possible
post
posterior
posts
pot
potential
potter
pou
pour
poverty
powell
power
powerful
powers
pp
ppv
pq
pr
practical
practice
practices
pre
precure
prefecture
pregnancy
preliminary
premier
premiere
premium
prentice
present
presentation
presented
presents
president
presidential
press
presse
pressure
pretty
prevalence
prevention
preview
price
pride
primary
prime
prince
princess
princeton
principal
principle
principles
print
printing
prison
private
prix
prize
pro
problem
problems
proc
proceedings
process
processes
processing
produce
produced
producer
product
production
productions
products
professional
professor
profile
profiles
program
programme
programming
programs
progress
progressive
project
projects
prometheus
promise
promo
promotion
pronounced
pronunciation
properties
property
prophet
protection
protein
protest
protesters
protests
protocol
province
provinces
provincial
ps
psa
psi
psychiatric
psychiatry
psychological
psychology
psychosis
pt
pu
pub
public
publication
publications
published
publisher
publishers
publishing
puerto
pui
pun
punk
pure
purple
push
put
putin
pv
pw
pwg
pwi
pwinsider
pwɔ
px
py
python
pz
pɔ
q
q0
q1
q2
q3
q4
q5
q6
q7
q8
q9
qa
qatar
qb
qc
qd
qe
qf
qg
qh
qi
qian
qiang
qiao
qie
qin
qing
qiong
qiu
qj
qk
ql
qm
qn
qo
qp
qq
qr
qs
qt
qu
quad
quake
qualification
qualified
qualifiers
qualifying
quality
quan
quantum
quarter
quarterly
que
queen
queens
quest
question
questions
queue
quick
quota
quote
qv
qw
qx
qy
qz
r
r0
r1
r2
r3
r4
r5
r6
r7
r8
r9
ra
race
rachel
racing
radiation
radical
radio
rafael
rail
railway
rain
rainbow
ralph
ram
ran
random
randomized
randy
rang
range
ranger
rangers
rangle
rank
ranked
ranking
rankings
rao
rap
rape
rapid
rare
rat
ratchakitcha
rate
ratings
ratio
raw
ray
raymond
rb
rc
rd
re
reach
reaction
read
reader
reading
ready
real
reality
really
reason
reasoning
reasons
rebecca
rebels
receive
received
receives
recent
receptor
recognition
reconstruction
record
recorded
recording
records
recovery
red
redo
reduction
reed
ref
reference
references
reflex
reform
regime
region
regional
regions
register
regular
regulation
regulations
reich
reid
reign
reigns
reilly
related
relation
relations
relationship
relationships
release
released
releases
religion
religions
religious
remains
remember
remix
ren
renaissance
rene
replace
report
reported
reporter
reports
representation
representative
reprint
republic
republica
request
required
requirements
requires
res
rescue
research
reserve
resident
resistance
resolution
resource
resources
respiratory
response
responses
rest
restoration
result
results
retrieved
return
returns
reunion
reuters
rev
reveal
revealed
reveals
revenge
review
reviews
revised
revision
revolution
revolutionary
rex
rey
reynolds
rf
rg
rh
rho
rhodes
rhythm
ri
riaa
rica
rice
rich
richard
richardson
rick
rico
ride
rider
right
rights
rin
ring
rings
rio
rise
rises
rising
risk
river
rj
rk
rl
rm
rn
rna
ro
road
rob
robert
roberts
robertson
robin
robinson
robot
rock
rocket
rocks
rodriguez
roger
rogers
roh
roland
role
roll
rolling
rollins
roma
roman
romance
romania
romanization
romanized
romantic
rome
ron
ronald
ronaldo
rong
rookie
room
root
roots
rose
rosen
ross
rotten
rou
rouge
rough
round
route
routledge
row
rowling
rowman
roy
royal
rp
rpg
rpm
rq
rr
rs
rsssf
rt
ru
ruan
rudolf
rui
rule
rules
rumble
run
runner
running
rural
rush
russell
russia
russian
ruth
rv
rw
rwanda
rx
ry
ryan
ryt
rz
s
s0
s1
s2
s3
s4
s5
s6
s7
s8
s9
sa
saan
sacred
sad
safe
safety
saga
sage
sai
said
sailor
saint
saints
sakura
sal
sale
sales
salmon
salt
sam
same
samoa
sample
samsung
samuel
samurai
san
sanchez
sang
sanook
sanskrit
santa
santos
sao
sap
sapporo
sara
sarah
sars
sasha
sat
satellite
sato
saturday
saturn
sau
saudi
saunders
savage
save
saw
say
says
sb
sbs
sc
scale
scene
scenes
schedule
schizophrenia
schltr
schmidt
schneider
scholars
school
schools
schuster
schwartz
sci
science
sciences
scientific
scientist
scientists
score
scores
scotland
scott
scottish
screen
script
scuanxua
sd
se
sea
seal
sealang
sean
search
season
seasons
seat
seattle
sebastian
sec
second
secondary
secret
secretariat
secretary
secrets
section
security
see
seed
seen
sei
sein
sek
select
selected
selection
selective
self
selling
semi
sen
senate
seng
senior
sense
sensory
sentai
seo
seoi
seon
seoul
sep
september
sequel
sequence
ser
serbia
serie
series
serotonin
server
service
services
session
set
seth
sets
seu
seung
seven
seventeen
seventh
several
severe
sevilla
sex
sexual
sf
sg
sh
sha
shadow
shah
shall
shan
shane
shang
shanghai
shao
shape
share
shark
sharma
sharp
shaw
shawn
she
sheamus
sheeran
sheet
shell
shen
sheng
shi
shield
shift
shih
shimbun
shin
shine
ship
shirt
shock
shogakukan
shoot
shooting
shop
short
shot
shou
should
show
shows
shu
shuang
shun
shuo
si
sia
siam
siamese
siamsport
siamzone
sian
siang
siao
sichuanese
sid
side
sie
siege
sigma
sign
signal
signing
signs
sih
sik
sil
sila
silent
silk
silva
silver
sim
simon
simple
simpson
sims
sin
sina
since
sing
singapore
singer
singh
single
singles
sinological
siong
sip
sir
sister
sit
site
sites
situation
siu
six
sixian
sixth
size
sj
sk
skating
ske
ski
skiing
skin
sky
skyscraper
sl
slam
slammy
sleep
slow
sm
smackdown
small
smart
smash
smile
smith
smithsonian
smmsport
smooth
sn
snake
snooker
snow
snyder
so
soc
soccer
soccerbase
soccerway
sochi
social
socialism
socialist
societies
society
sodium
soeng
sofia
soft
software
soil
sok
sol
solar
sold
soldier
soldiers
solid
solie
solo
solomon
solution
somalia
some
something
son
song
songs
sons
sony
soo
soompi
soon
sorry
sort
sou
soul
sound
sounds
soundtrack
source
sources
south
southeast
southern
soviet
sp
space
spacex
spain
spanish
speak
speaking
special
species
specific
specified
specify
spectrum
speech
speed
spellcheck
spencer
spider
spike
spin
spinal
spirit
split
sport
sporting
sports
spot
spread
spring
springer
spy
sq
sqrt
squad
square
sr
sri
ss
st
stade
stadion
stadium
staff
stage
stalin
stand
standard
standards
standing
standings
stanford
stanley
star
stars
start
starting
starts
stat
state
statement
states
station
stations
statistical
statistics
statistik
statnew
statpop
stats
status
stay
steam
steel
stefan
stem
step
stephanie
stephen
steps
steve
steven
stevens
stewart
still
sting
stock
stockholm
stone
stop
storage
store
stories
storm
story
straight
straits
strange
strategic
strategies
strategy
stream
streaming
street
strength
stress
strike
striker
strikes
string
stroke
strong
structural
structure
structures
struggle
stuart
student
students
studies
studio
studios
study
stuff
stuttgart
style
styles
su
sua
suan
sub
subject
subjects
subscription
success
succession
such
sudan
sue
sugar
suggested
sui
suicide
suit
suite
suk
sullivan
sultan
sum
summary
summer
summerslam
summit
sun
sunday
sung
sunshine
suo
super
superior
superman
superstar
suppl
supplement
supply
support
supported
supporting
supreme
sur
surface
surgery
surname
surprise
survey
survival
survivor
susan
sustainable
suzuki
sv
sw
swan
sweden
swedish
sweet
swift
swimming
swiss
swisscharts
switch
switzerland
sword
sx
sy
sydney
symbol
symbols
symphony
symposium
symptoms
syndrome
synthesis
syria
syrian
system
systematic
systems
syu
syun
sz
sɐu
sɔ
sɛ
sɤ
sɨ
sɪŋ
sɯ
sʊŋ
t
t0
t1
t2
t3
t4
t5
t6
t7
t8
t9
ta
tab
table
tables
tactical
tae
tag
tai
taicheng
tail
taipei
taiwan
taj
tajn
takahashi
take
taken
takeover
takes
taking
tale
talent
tales
taliban
talk
talking
talks
tall
tam
tan
tang
tank
tao
target
task
taste
tau
tax
taxonomic
taxonomy
taylor
tb
tbs
tc
td
te
tea
teacher
teaching
team
teams
tears
teaser
tech
technical
technologies
technology
ted
teen
telegraph
telescope
television
tell
temperature
template
templates
temple
temporal
ten
tencent
teng
tennis
term
terminal
terms
territorial
territories
territory
terror
terrorism
terry
tesla
test
testing
tests
tex
texas
text
textbook
texts
tf
tg
th
tha
thai
thailand
thairath
thames
than
thanh
thank
that
the
theater
theatre
their
them
theme
then
theodore
theory
therapeutic
therapy
there
these
thesis
theta
they
thi
thin
thing
things
think
thinking
third
this
tho
thomas
thompson
thomson
thong
those
though
thought
thousand
threat
threatened
three
thriller
throne
through
thu
thunder
thus
ti
tian
tiao
tibet
tibetan
tie
tien
tiger
till
tim
timberlake
time
timeline
times
timor
timothy
tin
ting
tissue
titanic
title
titles
titsingh
tiu
tiəŋ
tj
tk
tl
tlc
tm
tmd
tn
tna
to
today
todd
together
toi
toj
tojn
tokyo
tokyograph
toll
tom
tomatoes
tomorrow
ton
tong
tonga
tongyong
tonight
tony
too
took
tool
tools
top
topic
tops
tor
torch
toronto
total
tottenham
tou
touch
tour
tourism
tourist
tournament
toward
towards
tower
town
towns
toy
toyota
tp
tq
tr
track
tracks
tract
trade
tradition
traditional
traditions
traffic
trailer
train
training
tran
trans
transactions
transfer
transformation
transformers
transit
transition
translated
translation
translative
transmission
transport
transportation
travel
treasure
treasury
treatment
treaty
tree
trees
trends
tresor
tri
trial
trials
triangle
tribe
tribune
tribute
trick
trinity
trip
triple
troops
trophy
tropical
trouble
true
trueid
trump
trust
truth
ts
tse
tsi
tsu
tsunami
tsung
tt
tu
tuan
tube
tucker
tuesday
tui
tun
tung
tuo
turkey
turkish
turn
turner
turns
tv
tvb
tw
twentieth
twenty
twice
twilight
twin
twitter
two
tx
ty
tyler
type
types
typhoon
tz
tzu
tɔ
tɔŋ
tʊŋ
u
u0
u1
u2
u3
u4
u5
u6
u7
u8
u9
ua
uae
uan
uang
ub
uber
uc
ud
ue
uefa
uf
ufc
ug
uh
ui
uj
uk
ukraine
ukrainian
ul
ultimate
ultra
ultraman
ultratop
um
un
una
und
under
underground
understanding
undertaker
undo
une
unesco
ung
unicef
unicode
union
unique
unit
united
units
unity
univ
universal
universe
universities
university
unknown
until
unveils
uo
up
update
updated
updates
upon
upper
upvalue
uq
ur
urban
url
us
usa
usda
use
used
user
users
uses
usgs
using
ussr
ut
utc
utd
uu
uv
uw
ux
uy
uz
uŋ
v
v0
v1
v2
v3
v4
v5
v6
v7
v8
v9
va
vaccine
vaccines
valencia
valentine
valid
valley
value
values
vampire
van
vancouver
var
variant
variants
variation
varieties
variety
various
vb
vc
vd
ve
vec
vector
vegas
vehicle
venezuela
venue
venus
ver
verb
verge
verlag
vernacular
version
versus
very
vf
vg
vh
vi
via
vice
victims
victor
victoria
victory
video
videos
vienna
viet
vietnam
vietnamese
view
viewnews
views
vii
viii
viking
villa
village
vincent
violence
viral
virgin
virginia
virtual
virus
vision
visit
visual
vitamin
vj
vk
vl
vladimir
vm
vn
vo
vocal
vogue
voice
voices
vol
volleyball
vols
volume
volumes
von
vote
voting
voyage
vp
vq
vr
vs
vt
vu
vv
vw
vx
vy
vz
w
w0
w1
w2
w3
w4
w5
w6
w7
w8
w9
wa
waa
waan
wade
wagner
wai
wait
waiting
wake
wales
walk
walker
walking
wall
wallace
walt
walter
wan
wang
wanna
want
wanted
wants
war
ward
warfare
warner
warning
warren
warrior
warriors
wars
warsaw
was
washington
wat
watch
water
waters
watson
wattle
wave
way
wayne
ways
wb
wba
wbc
wbo
wc
wcw
wd
we
weapons
weather
web
webcite
weber
website
webster
wedding
wednesday
week
weekend
weekly
weeks
wei
weight
welcome
well
wen
weng
went
wenz
were
werner
wesley
west
western
wet
weɪ
wf
wg
wh
what
wheel
when
where
which
while
white
whitney
who
whole
why
wi
wide
width
wife
wii
wiki
wikimedia
wikipedia
wild
wildlife
wiley
wilhelm
wilkins
will
william
williams
wilson
win
wind
window
windows
wine
wing
wings
winner
winners
winning
wins
winter
wire
wired
wish
witch
with
withdrawal
within
without
wj
wk
wl
wm
wn
wo
wolf
wolfgang
woman
women
won
wonder
wonderful
wong
woo
wood
woods
word
wordpress
words
work
workers
working
workpoint
works
world
worlds
worldwide
worst
worth
would
wp
wq
wr
wrestlemania
wrestler
wrestlers
wrestleview
wrestling
wright
write
writer
writers
writing
written
wrong
ws
wt
wu
wuhan
wui
wun
wv
ww
wwe
wwf
www
wx
wy
wyatt
wz
wɑŋ
wɔ
wən
x
x0
x1
x2
x3
x4
x5
x6
x7
x8
x9
xa
xan
xb
xbox
xc
xd
xe
xf
xg
xh
xi
xia
xian
xiang
xiao
xie
xii
xiii
xin
xing
xinhua
xiong
xiu
xiv
xj
xk
xl
xm
xml
xn
xo
xp
xq
xr
xs
xt
xu
xuan
xue
xun
xv
xw
xweɪ
xx
xxx
xy
xz
xɤ
y
y0
y1
y2
y3
y4
y5
y6
y7
y8
y9
ya
yahoo
yale
yan
yang
yangon
yao
yb
yc
yd
ye
year
yearbook
years
yeh
yellow
yemen
yen
yeo
yeon
yes
yet
yf
yg
yh
yi
yih
yim
yin
ying
yiu
yiw
yj
yk
yl
ym
yn
yo
yong
yonhap
yoo
yoon
york
you
young
your
yourself
youth
youtube
yp
yq
yr
ys
yt
yu
yuan
yue
yueh
yuh
yuki
yun
yung
yv
yw
yx
yy
yz
z
z0
z1
z2
z3
z4
z5
z6
z7
z8
z9
za
zack
zai
zan
zang
zao
zau
zb
zc
zd
ze
zealand
zen
zeng
zeoi
zeon
zero
zf
zg
zh
zha
zhai
zhan
zhang
zhao
zhe
zhen
zheng
zhi
zhong
zhou
zhu
zhuan
zhuang
zhuo
zi
ziggler
zik
zim
zin
zing
zip
zj
zk
zl
zm
zn
zo
zoeng
zone
zong
zoo
zoology
zou
zp
zq
zr
zs
zt
zu
zui
zung
zuo
zur
zv
zw
zx
zy
zyu
zyun
zz
{
|
}
~
¡
£
§
©
ª
«
¬
®
¯
°
±
²
²²
²³
²¹
²¹³
²¹¹
²¹⁴
²⁴
²⁴²
³
³²
³³
³¹
³⁴
³⁵
´
µ
·
¹
¹²¹
¹³
¹¹
º
»
½
¿
×
ß
æ
ð
÷
ø
þ
đ
ħ
ı
ł
ŋ
ŋa
ŋɔ
œ
ſ
ƅ
ƒ
ƨ
ƽ
ȵ
ɐ
ɐi
ɐn
ɐu
ɑ
ɑŋ
ɑʊ
ɒ
ɓ
ɔ
ɔŋ
ɕ
ɕa
ɕi
ɕia
ɕin
ɕiu
ɕiŋ
ɕiɪŋ
ɕja
ɕjoʊ
ɕjɑŋ
ɕjɑʊ
ɕjɛ
ɕjɛn
ɕy
ɕyn
ɕɥɛ
ɕɥɛn
ɖ
ɗ
ə
ən
ɚ
ɛ
ɜ
ɝ
ɟ
ɡ
ɢ
ɣ
ɤ
ɤŋ
ɥ
ɥɛ
ɥɛn
ɦ
ɨ
ɪ
ɪŋ
ɫ
ɬ
ɭ
ɯ
ɰ
ɲ
ɲa
ɳ
ɴ
ɵ
ɵy
ɸ
ɹ
ɻ
ɽ
ɾ
ʀ
ʁ
ʂ
ʂa
ʂan
ʂoʊ
ʂu
ʂən
ʂɤ
ʂɤŋ
ʂʐ
ʃ
ʃy
ʈ
ʉ
ʊ
ʊŋ
ʋ
ʌ
ʎ
ʏ
ʐ
ʑ
ʒ
ʔ
ʔa
ʝ
ʦ
ʰ
ʰˠ
ʱ
ʲ
ʷ
ʷʰ
ʹ
ʺ
ʻ
ʼ
ʾ
ʿ
ˀ
ˁ
ˇ
ˈ
ˊ
ˋ
ˌ
ː
ːᴬ
ˑ
˙
ˠ
ˡ
ˢ
ˣ
ˤ
˥
˦
˧
˨
˩
α
β
γ
δ
ε
ζ
η
θ
ι
κ
λ
μ
ν
ξ
ο
π
ρ
ς
σ
τ
υ
φ
χ
ψ
ω
ϕ
ϵ
а
б
в
всероссииская
г
года
д
е
ж
з
и
к
л
м
н
на
населения
о
п
перепись
по
р
россии
россиискои
с
т
ть
у
ф
федерации
х
ц
ч
ш
щ
ъ
ы
ь
э
ю
я
є
і
ј
љ
њ
ћ
ѣ
җ
қ
ң
ү
ә
ө
ա
բ
գ
դ
ե
զ
է
ը
թ
ի
լ
խ
ծ
կ
հ
ղ
մ
յ
ն
շ
ո
պ
ջ
ռ
ս
վ
տ
ր
ց
ւ
ք
־
א
ב
ג
ד
ה
ו
ז
ח
ט
י
כ
ל
ם
מ
ן
נ
ס
ע
פ
צ
ק
ר
ש
ת
،
ء
ا
ب
ة
ت
ث
ج
ح
خ
د
ذ
ر
ز
س
ش
ص
ض
ط
ظ
ع
غ
ـ
ف
ق
ك
ل
م
ن
ه
و
ى
ي
ٱ
ٹ
پ
چ
ژ
ڠ
ڤ
ک
گ
ڽ
ھ
ہ
ی
ە
۰
۱
۲
۳
۴
۵
۶
۷
۸
۹
ܐ
ܘ
ܝ
ܠ
ݢ
ނ
ރ
ކ
އ
މ
ދ
ތ
अ
आ
इ
ई
उ
ऋ
ए
ओ
क
ख
ग
घ
ङ
च
छ
ज
झ
ञ
ट
ठ
ड
ढ
ण
त
थ
द
ध
न
प
फ
ब
भ
म
य
र
ल
व
श
ष
स
ह
।
०
१
२
३
४
५
६
७
८
९
অ
আ
ই
উ
এ
ক
খ
গ
চ
ছ
জ
ট
ড
ণ
ত
থ
দ
ধ
ন
প
ব
ভ
ম
য
র
ল
শ
ষ
স
হ
ৰ
ਕ
ਜ
ਤ
ਦ
ਨ
ਰ
ਲ
ਸ
અ
ક
ત
મ
ર
સ
ର
அ
உ
க
ங
ச
ட
ண
த
ந
ன
ப
ம
ய
ர
ல
ள
ழ
வ
క
ట
న
మ
ర
ల
ರ
ക
ത
ന
പ
യ
ര
අ
ක
ඛ
ග
ච
ජ
ණ
ත
ද
ධ
න
ප
බ
භ
ම
ය
ර
ල
ව
ස
හ
ก
กก
กกฎหมาย
กกต
กกร
กกระต
กกระส
กกล
กกว
กกองท
กกอล
กกะ
กกะส
กกะฮ
กกา
กการ
กการท
กการบ
กการพ
กการศ
กการะ
กการเด
กการเม
กการแข
กการใช
กกำจ
กกำพร
กกำล
กกำหนดให
กข
กขภ
กขรว
กขระ
กขระต
กขว
กขวา
กของ
กของกล
กของค
กของจ
กของช
กของต
กของท
กของน
กของผ
กของพ
กของม
กของร
กของว
กของส
กของอ
กขององค
กขะเว
กขา
กค
กคณ
กคณะร
กคน
กคนก
กคนต
กคนท
กคนน
กคนม
กคนร
กคนหน
กคนอ
กคนเด
กคนได
กคร
กครอบคร
กคล
กคว
กควบค
กความในมาตรา
กคาม
กคาร
กคำ
กฆ
กง
กงส
กงาน
กงานก
กงานกองท
กงานข
กงานคณะกรรมการการศ
กงานคณะกรรมการการอ
กงานคณะกรรมการการเล
กงานคณะกรรมการป
กงานคณะกรรมการว
กงานจ
กงานต
กงานตำรวจแห
กงานท
กงานทร
กงานบร
กงานปล
กงานผ
กงานฝ
กงานพ
กงานพร
กงานพระพ
กงานร
กงานราชบ
กงานว
กงานส
กงานสถ
กงานอ
กงานเขตพ
กงานเจ
กงานเลขาธ
กงานเลขาน
กงานใหญ
กจ
กจร
กจะต
กจะถ
กจะม
กจะอย
กจะเก
กจะเป
กจะเร
กจะใช
กจะได
กจะไม
กจำก
กจำค
กจำนวน
กจำนวนหน
กฉ
กฉบ
กช
กชน
กชวนให
กชาต
กชาย
กชายท
กซ
กซานดรา
กซานเดร
กซานเดอร
กญ
กฎ
กฎกระทรวง
กฎการจ
กฎหมาย
กฎหมายท
กฎหมายบ
กฎหมายว
กฎอ
กฎเกณฑ
กฐาน
กฐานการทะเบ
กฐานท
กฐานทางประว
กฐานว
กฐานอ
กด
กดนตร
กดอตคอม
กดา
กดาราศาสตร
กดาหาร
กดำบรรพ
กดำเน
กต
กตร
กตรอน
กตระก
กตลอดช
กตอร
กตอเร
กตะกร
กตะว
กตา
กตาทอง
กตำหน
กตำแหน
กถ
กถอนส
กท
กทม
กทร
กทรอน
กทฤษฎ
กทอง
กทะเบ
กทางหน
กทำร
กทำลาย
กทำให
กธ
กธงช
กธน
กธรณ
กธรรมช
กธาต
กน
กนก
กนายกร
กนำต
กนำมาสร
กนำมาใช
กนำเข
กนำไปสร
กนำไปใช
กบ
กบร
กบรรจ
กบวช
กบาศก
กป
กปฏ
กปปส
กปร
กประก
กประกอบด
กประการ
กประการหน
กประด
กประพ
กประมาณ
กประว
กประหารช
กประเภท
กปราชญ
กปล
กปลงพระชนม
กผ
กผล
กฝ
กฝร
กพ
กพร
กพระราชว
กพระองค
กพระเจ
กพล
กพากย
กพาต
กฟ
กฟร
กภ
กภาค
กภาพ
กภาษาศาสตร
กม
กมน
กมล
กมวย
กมวยท
กมวยปล
กมวยสากลชาวฟ
กมวยสากลสม
กมองว
กมา
กมาก
กมากกว
กมากข
กมากท
กมากมาย
กมาร
กย
กยกเล
กยาว
กยาเธอ
กร
กรก
กรกฎาคม
กรกล
กรข
กรค
กรจ
กรช
กรชาวไทย
กรซ
กรณ
กรณการกพห
กรด
กรดไขม
กรต
กรท
กรน
กรบ
กรบท
กรบร
กรปกครองส
กรพ
กรพงษ
กรพรรด
กรภ
กรภพ
กรม
กรมการปกครอง
กรมการศาสนา
กรมการเม
กรมข
กรมค
กรมคำใหม
กรมฉบ
กรมตำรวจ
กรมท
กรมทร
กรมทหารราบท
กรมทางหลวง
กรมบร
กรมป
กรมประชาส
กรมพ
กรมพระยาดำรงราชาน
กรมพระยาวช
กรมพระราชว
กรมพระศร
กรมว
กรมศ
กรมส
กรมสมเด
กรมสาม
กรมสำเน
กรมหม
กรมหลวงนราธ
กรมหลวงพ
กรมอ
กรมฮ
กรมาลา
กรมาลาและเหร
กรมเพ
กรมแทจาวอน
กรมไดก
กรมไทยสำหร
กรย
กรยาน
กรยานยนต
กรร
กรรต
กรรม
กรรมการ
กรรมการก
กรรมการกของ
กรรมการกพห
กรรมการกเอกพจน
กรรมการบร
กรรมการผ
กรรมการร
กรรมด
กรรมต
กรรมท
กรรมน
กรรมว
กรรมส
กรรมาธ
กรรมเม
กรรายการ
กรล
กรว
กรวมเข
กรวรรด
กรวาล
กรวาลภาพยนตร
กรวาลว
กรส
กรหร
กรหล
กรอ
กรองข
กรอบ
กรอย
กรฮ
กระง
กระจ
กระจายพ
กระจายอย
กระจายเส
กระจายไปท
กระช
กระด
กระดาษ
กระต
กระท
กระทรวง
กระทรวงกลาโหม
กระทรวงการคล
กระทรวงการต
กระทรวงการท
กระทรวงคมนาคม
กระทรวงพาณ
กระทรวงมหาดไทย
กระทรวงมหาดไทยได
กระทรวงย
กระทรวงว
กระทรวงศ
กระทรวงสาธารณส
กระทรวงเกษตรและสหกรณ
กระทำ
กระทำความผ
กระทำต
กระทำผ
กระทำให
กระทำได
กระน
กระบ
กระบวนการน
กระบอก
กระป
กระฟ
กระส
กระหว
กระเท
กระเบ
กระเป
กระแสน
กระแสไฟฟ
กราก
กราช
กราชว
กราชวงศ
กราชได
กราน
กราบถวายบ
กราบท
กราบบ
กราฟ
กราฟก
กราว
กรเป
กรเพ
กรแห
กรโรม
กรได
กรไทย
กรไม
กรไอน
กฤด
กฤดากร
กฤต
กฤตการณ
กฤทธ
กฤษฎ
กฤษณ
กฤษณา
กล
กลง
กลงท
กลมกล
กลย
กลว
กลศาสตร
กลอง
กลอบส
กลาง
กลางค
กลางท
กลางป
กลางว
กลางอย
กลายมาเป
กลายเป
กลาส
กว
กวง
กวน
กวนอ
กวรรณกรรมและประว
กวอลเลย
กวาง
กวางต
กวางเจา
กวาด
กวาดการ
กศ
กศร
กษ
กษณ
กษณนาม
กษณะ
กษณะคล
กษณะด
กษณะต
กษณะท
กษณะน
กษณะบ
กษณะพ
กษณะภ
กษณะร
กษณะส
กษณะสถาป
กษณะสำค
กษณะอ
กษณะอย
กษณะเช
กษณะเด
กษณะเป
กษณะเหม
กษณะใกล
กษน
กษม
กษร
กษรกร
กษรค
กษรจ
กษรซ
กษรต
กษรท
กษรน
กษรพม
กษรพราหม
กษรย
กษรละต
กษรลาว
กษรว
กษรศ
กษรศาสตร
กษรส
กษรสากล
กษรหร
กษรอ
กษรอาหร
กษรฮ
กษรเขมร
กษรเทวนาคร
กษรเบงกอล
กษรเพ
กษรเฮ
กษรแบบพ
กษรแบบย
กษรแบบอ
กษรแบบโรมะจ
กษรและถ
กษรโรม
กษรในภาษาอ
กษรในเอกสาร
กษรให
กษรไทธรรม
กษรไทย
กษะ
กษา
กษาก
กษาการ
กษาการณ
กษาการตามพระราชบ
กษาข
กษาขนาดใหญ
กษาของร
กษาค
กษาความปลอดภ
กษาความม
กษาความสงบเร
กษาความสงบแห
กษาจ
กษาจาก
กษาจากมหาว
กษาจากโรงเร
กษาช
กษาด
กษาต
กษาตอนต
กษาตอนปลาย
กษาถ
กษาท
กษาทางด
กษาธ
กษาน
กษาบ
กษาป
กษาปร
กษาประต
กษาประถมศ
กษาผ
กษาพ
กษาพระปร
กษาพระองค
กษาม
กษามหาว
กษาย
กษาร
กษาระด
กษาล
กษาว
กษาศ
กษาศาสตร
กษาส
กษาสำหร
กษาหน
กษาหร
กษาหล
กษาหาร
กษาอ
กษาอย
กษาเก
กษาเขต
กษาเช
กษาเป
กษาเพ
กษาเม
กษาเร
กษาเล
กษาเอกชน
กษาแก
กษาแพทย
กษาแล
กษาแห
กษาโรค
กษาในป
กษาในระด
กษาในโรงเร
กษาให
กษาได
กษาไม
กษาไว
กส
กสก
กสงฆ
กสถ
กสถาน
กสท
กสทช
กสน
กสนาน
กสภากร
กสภาท
กสภาน
กสภาผ
กสภาร
กสม
กสยาม
กสร
กสล
กสองป
กสอน
กสอนท
กสอนให
กสากล
กสาม
กสาว
กสาวท
กสำค
กสำหร
กห
กหญ
กหน
กหนา
กหม
กหย
กหร
กหล
กหลายคน
กหลายคร
กหลายชน
กหลายเร
กหลายแห
กอ
กอง
กองกำก
กองกำล
กองค
กองท
กองบ
กองพ
กองร
กองหน
กองเร
กอญ
กอด
กอธ
กอน
กอนชาร
กอนซาเลซ
กอบรม
กอย
กอร
กอล
กอส
กออกแบบท
กอะวอดส
กอาช
กอาย
กอาศ
กฮ
กะ
กะท
กะป
กะร
กะเหร
กา
กาก
กากลาง
กาค
กาจ
กาช
กาซ
กาญจน
กาญจนบ
กาญจนา
กาญจนาภ
กาด
กาต
กาตะว
กาตาร
กาตาลา
กาท
กาน
กานต
กานา
กาบ
กาป
กาพย
กาม
กาย
กายน
กายว
กายส
กายอ
กายโปรเตสแตนต
กายโรม
การ
การก
การกพห
การกรอกข
การกระจายพ
การกระต
การกล
การกลายพ
การการศ
การกำก
การกำจ
การกำหนด
การกำหนดข
การกำหนดตำแหน
การกำหนดฟอนต
การข
การขนส
การขยายต
การค
การคณะร
การคร
การคล
การควบค
การคำนวณค
การคำนวณบนหน
การฆ
การจ
การจดทะเบ
การจำก
การจำหน
การฉ
การช
การชก
การซ
การณ
การด
การดำเน
การต
การตกแต
การตร
การถ
การถกเถ
การถอดอ
การท
การทหาร
การทหารบก
การทางการแพทย
การทางว
การทำด
การทำประต
การทำหน
การทำให
การน
การนายกร
การนำส
การนำเข
การนำเสนองาน
การนำเสนองานด
การบ
การบด
การบร
การบาดเจ
การบำบ
การป
การปกครอง
การปกครองออกเป
การปฏ
การปร
การประกอบ
การประกาศว
การประกาศใช
การประช
การประด
การประท
การประย
การประเม
การปล
การผ
การผล
การผสานช
การฝ
การพ
การพรรค
การฟ
การม
การมหาชน
การมอบรางว
การย
การยกเล
การยอมร
การร
การรณรงค
การรถไฟแห
การรวมกล
การรวมต
การระบ
การระบาดท
การระหว
การระเบ
การล
การลงท
การลงประชามต
การลงมต
การลงแข
การลบข
การลบช
การลบสไลด
การลบแถวหร
การละเม
การว
การวาดร
การวาดส
การวาดเส
การศ
การส
การสน
การสภาผ
การสร
การสล
การสหประชาชาต
การสะกดอ
การสะกดแบบไม
การสาธารณส
การสำน
การห
การหน
การหม
การหย
การหร
การหล
การอ
การอธ
การอน
การอนาม
การอภ
การอย
การออกกำล
การออกจากโปรแกรม
การออกเส
การออกแบบระบบฐานข
การาก
การาม
การเก
การเกษตร
การเข
การเคร
การเคล
การเง
การเจ
การเจร
การเฉล
การเช
การเด
การเต
การเตร
การเท
การเน
การเป
การเปร
การเปล
การเผยแพร
การเพ
การเม
การเร
การเล
การเส
การเสด
การเสร
การเห
การแก
การแข
การแจ
การแต
การแทรกข
การแทรกภาพลงบนเอกสาร
การแทรกภาพลงในสไลด
การแทรกสไลด
การแบ
การแผ
การแผลงเป
การแพทย
การแพร
การแลกเปล
การและผ
การแสดง
การแสดงงานพร
การแสดงรห
การแห
การโจมต
การโดย
การโต
การโทรศ
การใช
การในป
การใส
การให
การได
การไฟฟ
การไม
กาล
กาลก
กาลด
กาลต
กาลถ
กาลท
กาลน
กาว
กาวะ
กาส
กาฬส
กาอ
กาเจ
กาเซ
กาเบร
กาเป
กาเปล
กาเพ
กาเม
กาเร
กาเหน
กาแล
กาแลคซ
กาใต
กาในป
กาให
กาได
กำก
กำจ
กำน
กำป
กำล
กำหนด
กำหนดการใช
กำหนดข
กำหนดค
กำหนดจ
กำหนดช
กำหนดร
กำหนดรายละเอ
กำหนดว
กำหนดเป
กำหนดแข
กำหนดในกฎกระทรวง
กำหนดให
กำหนดไว
กำเน
กำแพงเพชร
กเก
กเกณฑ
กเกมส
กเกอร
กเข
กเขตท
กเค
กเคม
กเคร
กเคล
กเง
กเจ
กเฉ
กเช
กเซ
กเซมเบ
กเซล
กเด
กเต
กเตนสไตน
กเตอร
กเตะท
กเท
กเทนน
กเธอ
กเน
กเบ
กเป
กเปล
กเผยแพร
กเพ
กเม
กเมน
กเมาส
กเย
กเยาวชน
กเยาวชนฤด
กเร
กเล
กเลขาธ
กเลง
กเลย
กเว
กเศรษฐศาสตร
กเส
กเสนอช
กเสบ
กเสร
กเห
กเหต
กเหน
กเหม
กเหล
กเอ
กเอกสาร
กเอกสารเป
กแก
กแข
กแซ
กแต
กแตน
กแท
กแทนท
กแน
กแบ
กแบบหน
กแผ
กแม
กแมชช
กแมน
กแร
กแล
กและน
กและผ
กและม
กและว
กและส
กและเป
กแสดง
กแสดงช
กแสดงชายชาวไทย
กแสดงชาวอ
กแสดงชาวอเมร
กแสดงชาวเกาหล
กแสดงชาวไทย
กแสดงท
กแสดงนำชายยอดเย
กแสดงนำหญ
กแสดงภาพยนตร
กแสดงร
กแสดงส
กแสดงสมทบชายยอดเย
กแสดงสมทบหญ
กแสดงหญ
กแสดงหน
กแสดงอ
กแสดงและน
กแสดงในส
กแสวงบ
กแห
กแหล
กโก
กโค
กโจมต
กโชว
กโซ
กโต
กโทษ
กโทษท
กโบราณ
กโบราณคด
กโป
กโยธ
กโลก
กโลกทองคำ
กโลกเหน
กใคร
กใจ
กใช
กใต
กใน
กในกล
กในช
กในท
กในนาม
กในป
กในพ
กในย
กในร
กในว
กในส
กในอ
กในเร
กในโอล
กใฝ
กใส
กให
กใหญ
กใหม
กไก
กได
กไทมส
กไทย
กไป
กไปท
กไปย
กไฟฟ
กไฟล
กไม
กไล
กไว
กไหม
กๆ
ข
ขก
ขงจ
ขงเบ
ขจ
ขจร
ขณะกำล
ขณะท
ขณะน
ขณะม
ขณะอาย
ขณะเด
ขด
ขต
ขท
ขน
ขนท
ขนมป
ขนส
ขนาด
ขนาดกว
ขนาดต
ขนาดท
ขนาดประมาณ
ขนาดพ
ขนาดหน
ขนาดเท
ขนาดเล
ขนาดเส
ขนาดโตเต
ขนาดใหญ
ขนานก
ขบ
ขบวน
ขพ
ขภาพ
ขภาพจ
ขภาพด
ขภาพท
ขภาพแห
ขม
ขมนตร
ขย
ขยายต
ขยายพ
ขยายภาพ
ขยายม
ขยายเอกสารท
ขยายแผ
ขร
ขล
ขว
ขวบ
ขวา
ขศ
ขศาสตร
ขส
ขสว
ขอ
ขอความช
ของ
ของก
ของกร
ของกล
ของกษ
ของกองท
ของการแข
ของข
ของขว
ของค
ของคร
ของจ
ของฉ
ของช
ของชาต
ของชาร
ของซ
ของญ
ของด
ของต
ของตน
ของตนเอง
ของตระก
ของท
ของทว
ของน
ของบ
ของบร
ของป
ของประชากรท
ของประชาชน
ของประเทศ
ของประเทศจ
ของประเทศญ
ของประเทศอ
ของประเทศไทย
ของผ
ของฝ
ของฝร
ของพ
ของพระบาทสมเด
ของพระพ
ของพระราชบ
ของพระองค
ของพระเจ
ของพระเยซ
ของพวกเขา
ของฟ
ของภ
ของภาพยนตร
ของม
ของมน
ของมหาว
ของมหาสม
ของมาร
ของย
ของร
ของราชวงศ
ของรายการ
ของฤด
ของล
ของว
ของวง
ของศ
ของส
ของสก
ของสถาน
ของสถาบ
ของสมาช
ของสมเด
ของสหร
ของสหราชอาณาจ
ของสาธารณร
ของสำน
ของห
ของหน
ของหม
ของอ
ขององค
ของอน
ของอาณาจ
ของอาร
ของอเมร
ของฮ
ของเกาหล
ของเขา
ของเขาท
ของเคร
ของเจ
ของเซลล
ของเด
ของเธอ
ของเน
ของเม
ของเยอรมน
ของเร
ของเรา
ของเล
ของเว
ของเส
ของเหล
ของเอ
ของแต
ของแผ
ของแผนภ
ของแม
ของโรงเร
ของโลก
ของไทย
ขอด
ขอต
ขอท
ขอนแก
ขอบ
ขอบค
ขอพระองค
ขอย
ขอร
ขออน
ขอเช
ขอเป
ขอให
ขา
ขาด
ขาภ
ขาย
ขายด
ขายได
ขาล
ขาว
ขาวท
ขำ
ขแห
ฃ
ค
คก
คกลาง
คการเปล
คการแพทย
คค
คคร
คคล
คคลชาย
คคลซ
คคลด
คคลต
คคลท
คคลธรรมดา
คคลน
คคลผ
คคลม
คคลย
คคลสำค
คคลหญ
คคลหน
คคลหร
คคลอ
คคลเข
คคลเหล
คคลใด
คฆ
คง
คงท
คงม
คงย
คงอย
คงเป
คงเหล
คงไม
คจ
คช
คซ
คณ
คณบด
คณะ
คณะกรรมการ
คณะกรรมการการเล
คณะกรรมการจ
คณะกรรมการบร
คณะกรรมการพ
คณะกรรมการพาราล
คณะกรรมการโอล
คณะกรรมาธ
คณะคร
คณะท
คณะน
คณะบร
คณะปฏ
คณะผ
คณะพยาบาลศาสตร
คณะมน
คณะมนตร
คณะร
คณะว
คณะศ
คณะส
คณะสงฆ
คณะสถาป
คณะอ
คณะอน
คณะเทคโนโลย
คณะเภส
คณะเศรษฐศาสตร
คณะแพทย
คณะแพทยศาสตร
คณาจารย
คด
คต
คตส
คตอเร
คท
คน
คนก
คนกล
คนข
คนค
คนจ
คนช
คนซ
คนด
คนต
คนถ
คนท
คนธ
คนน
คนบ
คนป
คนผ
คนพ
คนม
คนย
คนร
คนล
คนละ
คนส
คนสำค
คนห
คนหน
คนอ
คนอย
คนเก
คนเข
คนเด
คนเท
คนเป
คนเร
คนเล
คนเส
คนเหล
คนแรก
คนแรกท
คนใช
คนใน
คนใหม
คนไข
คนได
คนไม
คบ
คป
คพ
คพอยท
คฟ
คม
คมช
คมอ
คย
คร
ครท
ครน
ครบ
ครบถ
ครบท
ครบรอบ
ครบในเซลล
ครม
ครมหาเสนาบด
ครมเหส
ครร
ครรภ
ครราชก
ครราชท
ครสมาช
ครองตำแหน
ครองนครน
ครองนครเช
ครองราชย
ครองราชสมบ
ครองเม
ครองแชมป
ครอบคร
ครอบครอง
ครอบคล
คราชวงศ
คราประย
คราฟต
คราม
คราวน
ครเข
ครเป
ครเล
คฤหาสน
คล
คลอง
คลากร
คลากรท
คลาร
คลาส
คลาสส
คว
ควง
ควบค
ควร
ควรจะเป
ควรท
ควรม
ควรเป
ควรใช
ควรให
ควรได
ควอนต
ความ
ความก
ความกล
ความกว
ความกำกวม
ความข
ความค
ความคล
ความจ
ความจร
ความจำเป
ความช
ความซ
ความด
ความต
ความตาย
ความถ
ความท
ความทรงจำ
ความน
ความบ
ความบกพร
ความบร
ความประพฤต
ความประสงค
ความปลอดภ
ความผ
ความฝ
ความพ
ความพยายามท
ความพร
ความม
ความย
ความยาว
ความยาวคล
ความยาวท
ความยาวประมาณ
ความร
ความล
ความละเอ
ความว
ความส
ความสน
ความสมบ
ความสว
ความสามารถ
ความสามารถด
ความสามารถท
ความสามารถพ
ความสำค
ความสำเร
ความห
ความหนาแน
ความหมาย
ความหมายของคำว
ความหมายถ
ความหมายท
ความหมายว
ความหมายเด
ความหว
ความอ
ความเก
ความเข
ความเคร
ความเคล
ความเจ
ความเจร
ความเช
ความเด
ความเท
ความเป
ความเปล
ความเพ
ความเย
ความเร
ความเส
ความเห
ความเอนเอ
ความแข
ความแตกต
ความแม
ความโดดเด
ความใกล
ความได
ความไม
ควาย
คส
คสช
คสถาน
คสม
คสามก
คห
คหล
คอ
คอน
คอนกร
คอนซต
คอนต
คอนสแตนต
คอนเส
คอปเตอร
คอฟ
คอม
คอมพ
คอมม
คอมเมด
คอย
คอยช
คอยด
คอยร
คอร
คอล
คอลล
คอสตาร
คอสม
คะ
คะแนน
คะแนนท
คะแนนส
คะแนนเส
คา
คาง
คาช
คาซ
คาดการณ
คาดค
คาดว
คาดหว
คาทอล
คาน
คานธ
คาบ
คาบสม
คาม
คามวาส
คาร
คาราบาว
คาราวาน
คาล
คาว
คาวะ
คาส
คาอ
คาเบร
คาเมนไรเดอร
คาเรสต
คาโก
คาโอร
คำ
คำกร
คำกล
คำขว
คำค
คำคม
คำจ
คำจำก
คำช
คำต
คำท
คำน
คำนาม
คำนำ
คำนำหน
คำปร
คำพ
คำภ
คำม
คำย
คำร
คำล
คำว
คำศ
คำส
คำอ
คำอธ
คำอาการนาม
คำอาการนามของ
คำเม
คำเร
คำแปลและการรวบรวมส
คำให
คเก
คเกอร
คเค
คเจอร
คเซ
คเด
คเตอร
คเป
คเร
คแรก
คแห
คใหม
คได
ฅ
ฆ
ฆวน
ฆาต
ง
งก
งกฎหมาย
งกร
งกรณ
งกรท
งกรรมการผ
งกรหยก
งกระด
งกระต
งกระท
งกระทรวง
งกระน
งกระส
งกระเบ
งกราบท
งกราฟ
งกฤษ
งกฤษก
งกฤษจ
งกฤษช
งกฤษซ
งกฤษต
งกฤษท
งกฤษน
งกฤษม
งกฤษย
งกฤษว
งกฤษอ
งกฤษอย
งกฤษเก
งกฤษเข
งกฤษเป
งกฤษเพ
งกฤษเร
งกฤษในป
งกฤษได
งกล
งกลาง
งกลางช
งกลางแถวเพ
งกลายมาเป
งกลายเป
งกลาเทศ
งกว
งกษ
งกองกลาง
งกองกำล
งกองท
งกองบ
งกองหน
งกองหล
งกอร
งกะส
งกา
งกาน
งกาย
งการ
งการก
งการค
งการจ
งการต
งการถ
งการท
งการบ
งการบร
งการปกครองออกเป
งการปฏ
งการผล
งการพ
งการม
งการย
งการร
งการล
งการว
งการศ
งการส
งการสร
งการหร
งการอ
งการเก
งการเข
งการเป
งการเปล
งการเร
งการเล
งการเส
งการแข
งการโจมต
งการใช
งการให
งกาฬ
งกำล
งกำหนดให
งกำเน
งข
งขณะน
งขนาดเล
งขนาดใหญ
งขร
งขรณ
งขว
งของ
งของก
งของกล
งของกองท
งของการเล
งของข
งของค
งของจ
งของช
งของซ
งของด
งของต
งของท
งของน
งของบ
งของบร
งของป
งของผ
งของพ
งของพระองค
งของพระเจ
งของภาพให
งของม
งของมหาว
งของย
งของร
งของล
งของว
งของศ
งของส
งของสำน
งของห
งของหน
งของอ
งของเขา
งของเคร
งของเจ
งของเม
งของแต
งของแถว
งของโรงเร
งของโลก
งขอให
งขะ
งขาร
งค
งคงดำเน
งคงต
งคงถ
งคงม
งคงย
งคงร
งคงอย
งคงเป
งคงเหล
งคงใช
งคงได
งคงไม
งคณบด
งคณะร
งคด
งคน
งคนท
งคนน
งคนหน
งคนอ
งคม
งคมด
งคมท
งคมน
งคมม
งคมว
งคมศ
งคมศาสตร
งคมสงเคราะห
งคมอ
งคมออนไลน
งคมและความม
งคมแห
งคมได
งคมไทย
งคร
งครรภ
งครอบคร
งครอบคล
งคราว
งคล
งคลาก
งคลาภ
งคว
งควบค
งความ
งความกระทรวงมหาดไทย
งความค
งความจร
งความด
งความต
งความตาย
งความผ
งความม
งความย
งความร
งความล
งความว
งความส
งความสำค
งความสำน
งความสำเร
งความเช
งความเป
งความเร
งความเส
งความแตกต
งความไม
งคอย
งคอร
งคอล
งคะ
งคา
งคาดว
งคาม
งคามส
งคาร
งคารท
งคาเร
งคำร
งคำว
งคำส
งคโปร
งฆ
งฆปร
งฆราช
งฆราชเจ
งฆาธ
งฆาราม
งง
งงะ
งงา
งงาน
งงานก
งงานความร
งงานจลน
งงานต
งงานท
งงานน
งงานส
งงานแล
งงานแสงอาท
งงานใหม
งงานไฟฟ
งจ
งจนถ
งจบการศ
งจร
งจอก
งจอร
งจะกล
งจะจ
งจะช
งจะต
งจะถ
งจะทำให
งจะพ
งจะม
งจะร
งจะส
งจะเก
งจะเข
งจะเป
งจะเร
งจะเห
งจะใช
งจะให
งจะได
งจะไม
งจาก
งจากกล
งจากการต
งจากการล
งจากการส
งจากการเส
งจากข
งจากจ
งจากช
งจากต
งจากถ
งจากท
งจากน
งจากบ
งจากป
งจากผ
งจากพ
งจากม
งจากย
งจากร
งจากระด
งจากว
งจากส
งจากสหพ
งจากอ
งจากเก
งจากเข
งจากเป
งจากเร
งจากเส
งจากเหต
งจากได
งจาง
งจำท
งจำนวน
งจำเป
งฉ
งฉบ
งฉากก
งช
งชน
งชนะเล
งชาต
งชาร
งชาวญ
งชาวอ
งชาวอเมร
งชาวไทย
งชเลสว
งซ
งญ
งด
งดงาม
งดนตร
งดำรงตำแหน
งดำเน
งต
งตกอย
งตกเป
งตน
งตนเป
งตร
งตรงก
งตรงข
งตระก
งตอนน
งตอบว
งตะล
งตะว
งตะเภา
งตามช
งตามท
งตามมาตรา
งตาย
งตารางข
งตารางด
งตารางโดยอ
งตำบล
งตำแหน
งถ
งถล
งถว
งถามว
งท
งทร
งทรงพระกร
งทรงพระเยาว
งทรงม
งทรงเป
งทราบว
งทฤษฎ
งทว
งทหาร
งทอ
งทอง
งทองหลาง
งทะเล
งทางการเม
งทางด
งทางตะว
งทางว
งทำหน
งทำเป
งทำให
งธ
งธน
งธนบ
งธรรม
งธรรมชาต
งธาต
งน
งนอร
งนา
งนามกรรต
งนามกรรมวาจกป
งนามกรรมวาจกอด
งนายกร
งนาวาร
งนำไปส
งบ
งบประมาณ
งบประมาณรายจ
งบร
งบรรจ
งบราซ
งบวก
งบวร
งบวรสถานมงคล
งบอกถ
งบอกว
งบอกให
งบางคร
งบางส
งบางอย
งบาร
งบาวาเร
งบำร
งป
งปกต
งปฏ
งปร
งประกอบด
งประกอบไปด
งประจ
งประช
งประชาชน
งประชาร
งประด
งประต
งประท
งประธานาธ
งประมาณ
งประว
งประส
งประสงค
งประสบความสำเร
งประเด
งประเทศ
งประเทศจ
งประเทศญ
งประเทศฝร
งประเทศอ
งประเทศไทย
งประโยชน
งปรากฏต
งปรากฏว
งปรากฏอย
งปล
งปวง
งปวงก
งปวงท
งปวงน
งปาร
งผ
งผล
งผลกระทบก
งผลกระทบต
งผลต
งผลให
งผา
งฝ
งฝร
งพ
งพน
งพบว
งพบได
งพม
งพยางค
งพร
งพรรคการเม
งพระ
งพระท
งพระนคร
งพระบาทสมเด
งพระพ
งพระมหากษ
งพระราชกำหนดการบร
งพระราชบ
งพระราชว
งพระราชวงศ
งพระศพ
งพระส
งพระอ
งพระองค
งพระเจ
งพฤต
งพล
งพาก
งพาณ
งพาน
งพาย
งฟ
งฟร
งภ
งภาพ
งภาพท
งภาพยนตร
งภายหล
งภายใต
งภายใน
งม
งมงก
งมน
งมรดกโลก
งมวล
งมหาว
งมหาสม
งมหาสมบ
งมองซ
งมอบให
งมอสโก
งมะราห
งมา
งมาก
งมากกว
งมากข
งมากท
งมาต
งมาตรฐาน
งมาตรา
งมาถ
งมาท
งมาย
งมาร
งมาเป
งมาเร
งมาให
งย
งยกท
งยอดน
งยอดเย
งยอมร
งยอร
งยางอนาม
งยาว
งร
งรถ
งรวมก
งรวมถ
งรวมท
งรวมไปถ
งรองชนะเล
งรอบช
งระด
งระบ
งระหว
งระเบ
งรางว
งราชท
งราชบ
งราชวงศ
งราชสมบ
งราชสำน
งราชอาณาจ
งราย
งรายช
งรายละเอ
งรายได
งราว
งฤด
งล
งลง
งลม
งลอนดอน
งละ
งลำไส
งว
งวง
งวงดนตร
งวร
งวล
งวลว
งวลเก
งวอช
งวอร
งวะ
งวะจ
งวาล
งวาลย
งศ
งศก
งศตวรรษท
งศพ
งศร
งศาสตราจารย
งษ
งส
งสก
งสกอตแลนด
งสง
งสงคราม
งสงครามโลกคร
งสต
งสถ
งสถาน
งสถานท
งสถาบ
งสน
งสม
งสมณศ
งสมบ
งสมาช
งสมาธ
งสมเด
งสยาม
งสยามได
งสร
งสรรค
งสฤษฎ
งสล
งสว
งสวน
งสวรรค
งสหประชาชาต
งสหพ
งสหภาพโซเว
งสหร
งสหราชอาณาจ
งสอง
งสองก
งสองกล
งสองข
งสองคน
งสองคร
งสองจ
งสองช
งสองด
งสองต
งสองท
งสองน
งสองฝ
งสองพระองค
งสองม
งสองร
งสองส
งสองอย
งสองเป
งสองได
งสะท
งสะพ
งสาธารณร
งสาม
งสามารถเข
งสามารถใช
งสายฟ
งสาว
งสาวท
งสาเหต
งสำค
งสำน
งสำหร
งสำเร
งสเปน
งสไลด
งห
งหงสาวด
งหญ
งหน
งหนาท
งหม
งหมด
งหมดก
งหมดจ
งหมดจำนวน
งหมดด
งหมดต
งหมดถ
งหมดท
งหมดน
งหมดประมาณ
งหมดม
งหมดส
งหมดหร
งหมดอย
งหมดเป
งหมดแล
งหมดให
งหมดได
งหมายความว
งหมายถ
งหมายเพ
งหย
งหร
งหล
งหลงเหล
งหลวง
งหลาย
งหลายก
งหลายจ
งหลายต
งหลายท
งหลายน
งหลายม
งหลายว
งหลายอ
งหลายอย
งหลายได
งหว
งหวะ
งหวะท
งหา
งหาคม
งหาร
งหารท
งหารหม
งหาได
งหเสน
งอ
งอง
งองค
งองคมนตร
งอด
งอธ
งอน
งอภ
งอย
งอร
งอรรถ
งอว
งอส
งออก
งออกเป
งออกได
งออร
งออสเตร
งออสเตรเล
งอาจจะเป
งอาจทำให
งอาจม
งอาจารย
งอาจเก
งอาจเป
งอาณาจ
งอาย
งอาร
งอารมณ
งอาว
งอาศ
งอาหาร
งอำเภอ
งอำเภอบ
งอเมร
งอเล
งฮ
งฯ
งะ
งะนะ
งะวะ
งา
งาช
งาน
งานก
งานคร
งานช
งานด
งานต
งานท
งานน
งานประกาศผลรางว
งานพร
งานร
งานว
งานศ
งานส
งานอ
งานอด
งานอย
งานเข
งานเป
งานเล
งานโปรแกรม
งานในแผนกวรรณคด
งานได
งาม
งาวะ
งเก
งเกณฑ
งเกต
งเกตการณ
งเกตด
งเกตว
งเกตเห
งเกตได
งเกล
งเกอร
งเกาหล
งเข
งเขต
งเขตการปกครองย
งเขตการปกครองออกเป
งเขตการเล
งเขตท
งเขตร
งเขตเล
งเขป
งเขา
งเขาก
งเขาเป
งเขาได
งเค
งเคนต
งเคยม
งเคยเป
งเคร
งเคราะห
งเคล
งเง
งเงอร
งเจ
งเจร
งเฉ
งเฉพาะพ
งเฉล
งเช
งเซ
งเซนต
งเซลล
งเซอร
งเด
งเดนมาร
งเต
งเตร
งเถ
งเท
งเทพ
งเทพคร
งเทพธ
งเทพธนบ
งเทพมหานคร
งเทพมหานครม
งเทพมหานครเป
งเทพมหานครและจ
งเทพมหานครและปร
งเทพฯ
งเทรา
งเทศบาลเม
งเธอได
งเน
งเนเธอร
งเบ
งเบลเย
งเบอร
งเป
งเปร
งเปล
งเผ
งเพ
งเพล
งเพลง
งเพลงชาวอเมร
งเพลงท
งเพลงน
งเฟ
งเม
งเย
งเยร
งเยอรม
งเยอรมน
งเร
งเล
งเลขาธ
งเลย
งเว
งเวท
งเวลส
งเวลา
งเวลาท
งเวลาในการบรรยายสไลด
งเศส
งเศสก
งเศสจ
งเศสซ
งเศสต
งเศสท
งเศสน
งเศสม
งเศสย
งเศสเก
งเศสเข
งเศสเป
งเศสเม
งเศสได
งเส
งเสด
งเสนาบด
งเสร
งเห
งเหต
งเหน
งเหม
งเหย
งเหร
งเหล
งเอ
งเอกพจน
งเอด
งเอล
งเอาไว
งเอเช
งเอเธนส
งเฮ
งแก
งแกร
งแข
งแค
งแคว
งแจ
งแชมป
งแซ
งแดง
งแต
งแตกต
งแถวหร
งแท
งแทน
งแน
งแนวค
งแบ
งแบบ
งแปลว
งแผ
งแพ
งแพร
งแม
งแมตช
งแย
งแยกด
งแร
งแรก
งแรกก
งแรกของประเทศไทย
งแรกต
งแรกท
งแรกน
งแรกว
งแรกเป
งแรกเม
งแรกใน
งแรกในช
งแรกในป
งแรกในประว
งแรกในประเทศไทย
งแรกในรอบ
งแรกในว
งแรกในเด
งแรง
งแรงข
งแล
งแลนด
งและกำหนดเขตตำบลในท
งและต
งและท
งและน
งและผ
งและพ
งและพาณ
งและม
งและร
งและส
งและอ
งและเป
งและเปล
งและแต
งและได
งแวดล
งแวร
งแสง
งแสดงว
งแสดงอย
งแสดงให
งแห
งแหล
งแอนด
งแอฟร
งแฮม
งโก
งโค
งโครงสร
งโฆ
งโจ
งโจมต
งโซล
งโดย
งโดยท
งโดยม
งโดยใช
งโดยไม
งโต
งโตเก
งโบราณคด
งโป
งโปรดเกล
งโปรดให
งโปรต
งโปแลนด
งโยง
งโยชน
งโรงเร
งโรจน
งโรม
งโรมาเน
งโลก
งโหมดกราฟ
งใกล
งใจ
งใจท
งใจว
งใจให
งใช
งใด
งใดก
งใดท
งใดส
งใต
งใน
งในก
งในกร
งในกรณ
งในกล
งในการต
งในการเล
งในการแข
งในข
งในขณะน
งในค
งในคร
งในจ
งในช
งในซ
งในด
งในต
งในท
งในน
งในบ
งในบร
งในป
งในประว
งในประเทศไทย
งในผ
งในพ
งในภาพยนตร
งในย
งในร
งในระด
งในระหว
งในฤด
งในล
งในว
งในศ
งในส
งในสม
งในสมาช
งในสหร
งในห
งในหน
งในหม
งในอ
งในอด
งในเจ
งในเด
งในเม
งในเร
งในแต
งในและต
งในโอล
งใส
งให
งใหญ
งใหม
งไข
งไคล
งไง
งได
งไต
งไท
งไทย
งไป
งไปกว
งไปด
งไปต
งไปถ
งไปท
งไปย
งไปส
งไปให
งไฟ
งไฟฟ
งไม
งไร
งไล
งไว
งไห
งไหม
งๆ
งๆท
งๆแล
จ
จก
จกรรม
จกรรมด
จกรรมต
จกรรมท
จกรรมน
จกรรมเม
จกล
จการ
จการก
จการกระจายเส
จการค
จการด
จการต
จการท
จการน
จการร
จการว
จการศ
จการอ
จการแห
จการโทรคมนาคมแห
จการโทรท
จข
จค
จคร
จง
จงม
จงร
จงอย
จงให
จงได
จจ
จจร
จจะ
จจาน
จจาระ
จฉ
จฉร
จฉา
จฉาท
จช
จซ
จญ
จด
จดทะเบ
จดหมายมองซ
จดหมายเหต
จต
จตกต
จถ
จท
จน
จนกระท
จนกลายเป
จนกว
จนต
จนถ
จนท
จนทำให
จนป
จนม
จนมาถ
จนร
จนว
จนส
จนสำเร
จนเก
จนเป
จนเม
จนในท
จนในป
จนได
จนไม
จบ
จบการศ
จบการใช
จบช
จบปร
จบร
จป
จปร
จประท
จผ
จพ
จพจน
จพระกน
จพระจ
จพระจอมเกล
จพระน
จพระนางเจ
จพระนารายณ
จพระนเรศวรมหาราช
จพระนโรดม
จพระบรมชนกาธ
จพระบรมราชาธ
จพระบรมโอรสาธ
จพระบวรราชเจ
จพระป
จพระปกเกล
จพระปรม
จพระปรเมนทรมหาอาน
จพระพ
จพระมงก
จพระมห
จพระมหาจ
จพระมหาภ
จพระมหาสมณเจ
จพระราช
จพระราชดำเน
จพระราชสมภพเม
จพระราชาธ
จพระรามาธ
จพระว
จพระวช
จพระศร
จพระส
จพระอ
จพระอน
จพระอร
จพระเจ
จพระเทพร
จพอเพ
จม
จมากท
จย
จร
จระหว
จระเข
จราชการ
จราชการเม
จราชการแทนพระองค
จราชการแผ
จล
จว
จศ
จส
จสมบ
จสวรรคต
จสวรรคตเม
จหน
จหร
จหล
จอ
จอง
จอน
จอมพล
จอย
จอร
จอห
จฯ
จะ
จะก
จะกล
จะกลายเป
จะข
จะค
จะฆ
จะจ
จะช
จะซ
จะด
จะดำเน
จะต
จะถ
จะท
จะทำหน
จะทำให
จะทำได
จะน
จะบ
จะป
จะปฏ
จะปร
จะปล
จะผ
จะผล
จะพ
จะฟ
จะม
จะย
จะร
จะล
จะลงเล
จะว
จะส
จะสน
จะสร
จะห
จะหน
จะหย
จะหล
จะอ
จะอย
จะอาศ
จะเก
จะเข
จะเช
จะเด
จะเท
จะเน
จะเป
จะเปล
จะเพ
จะเร
จะเล
จะเส
จะเสด
จะเห
จะแก
จะแข
จะแต
จะแตกต
จะแบ
จะใช
จะให
จะได
จะไม
จา
จาก
จากก
จากกร
จากกล
จากการค
จากการจ
จากการต
จากการท
จากการร
จากการศ
จากการส
จากการเป
จากการเล
จากการแข
จากข
จากค
จากคอมมอนส
จากจ
จากช
จากซ
จากด
จากต
จากท
จากน
จากบ
จากบร
จากป
จากผ
จากฝ
จากพ
จากภาพยนตร
จากภาษากร
จากภาษาจ
จากภาษาซ
จากภาษาบาล
จากภาษาฝร
จากภาษาพม
จากภาษามอญ
จากภาษามาเลย
จากภาษาละต
จากภาษาส
จากภาษาสลาว
จากภาษาอ
จากภาษาเขมร
จากภาษาเจอร
จากภาษาเยอรม
จากภาษาไทด
จากภาษาไทตะว
จากภาษาไทย
จากม
จากมหาว
จากย
จากร
จากรายการ
จากล
จากลองด
จากละคร
จากละครเร
จากว
จากศ
จากส
จากสก
จากสถาน
จากสถาบ
จากสมเด
จากสำน
จากสำมะโน
จากห
จากหน
จากหล
จากอ
จาการ
จากเด
จากเพลง
จากเม
จากเร
จากเว
จากเหต
จากแมทเว
จากแหล
จากโรงเร
จาค
จาคท
จาคเง
จาง
จางโจว
จาต
จาน
จาม
จาร
จารณ
จารณา
จารณาคด
จารณาความอาญา
จารณาด
จารณาต
จารณาถ
จารณาท
จารณาพ
จารณาร
จารณารวมเข
จารณาว
จารณาอ
จารณาเป
จารณาเห
จารณาแล
จารณาให
จำก
จำค
จำต
จำนวน
จำนวนคร
จำนวนท
จำนวนน
จำนวนบ
จำนวนประชากร
จำนวนประชากรและบ
จำนวนประต
จำนวนผ
จำนวนมาก
จำนวนมากท
จำนวนราษฎรท
จำนวนส
จำนวนสมาช
จำนวนหน
จำนวนไม
จำร
จำลอง
จำหน
จำเป
จำเร
จำเลยท
จำแนกไว
จำได
จเก
จเข
จเจ
จเจกบ
จเจกพ
จเช
จเด
จเท
จเป
จเพ
จเม
จเย
จเร
จเสร
จแล
จและส
จแห
จใน
จในช
จในป
จให
จใหม
จได
จไปประท
จไปย
ฉ
ฉน
ฉบ
ฉล
ฉลอง
ฉลาด
ฉะน
ฉะบ
ฉะเช
ฉาย
ฉายา
ฉายาว
ช
ชก
ชกรรม
ชกาล
ชกาลท
ชกาลป
ชกาลพระบาทสมเด
ชกาลสมเด
ชค
ชคณ
ชจ
ชช
ชชกาลท
ชชน
ชชา
ชชาแห
ชชาใหญ
ชซ
ชฌ
ชฌาย
ชญ
ชญา
ชญาด
ชญาท
ชด
ชดย
ชดอกท
ชดา
ชดาภ
ชต
ชตาด
ชท
ชทายาท
ชทายาทแห
ชน
ชนก
ชนกล
ชนช
ชนชาต
ชนท
ชนพ
ชนส
ชนออนไลน
ชนะ
ชนะการเล
ชนะการแข
ชนะคะแนน
ชนะจะได
ชนะท
ชนะน
ชนะรางว
ชนะเล
ชนาล
ชนเผ
ชบ
ชป
ชผ
ชพ
ชภ
ชม
ชมงคล
ชมท
ชมพ
ชมะน
ชย
ชยศาสตร
ชร
ชรบ
ชระ
ชรา
ชราต
ชล
ชลบ
ชว
ชวด
ชวน
ชวนช
ชวล
ชศาสตร
ชส
ชสม
ชอ
ชอบ
ชอบก
ชอบด
ชอปแห
ชอว
ชะน
ชะฮ
ชา
ชาก
ชาการ
ชาการจ
ชาการด
ชาการต
ชาการท
ชาการศ
ชาค
ชาคณ
ชาคร
ชาความร
ชาง
ชาจ
ชาช
ชาญ
ชาญช
ชาญว
ชาด
ชาต
ชาตร
ชาท
ชาธ
ชาน
ชาบ
ชาบร
ชาประว
ชาพ
ชาฟ
ชาภ
ชาภาษาอ
ชาม
ชาย
ชายคนหน
ชายช
ชายต
ชายท
ชายน
ชายผ
ชายฝ
ชายร
ชายหน
ชายอ
ชาร
ชาล
ชาลส
ชาว
ชาวก
ชาวกร
ชาวจ
ชาวซ
ชาวญ
ชาวด
ชาวต
ชาวบ
ชาวฝร
ชาวพ
ชาวม
ชาวย
ชาวร
ชาวสว
ชาวอ
ชาวอเมร
ชาวฮ
ชาวเกาหล
ชาวเม
ชาวเยอรม
ชาวไทย
ชาศ
ชาส
ชาห
ชาอ
ชาเคม
ชาเทคโนโลย
ชาเป
ชาเศรษฐศาสตร
ชาโดว
ชาได
ชำร
ชเชสแห
ชเชอร
ชเท
ชเป
ชเยนทร
ชเว
ชและส
ชแห
ชในวงศ
ชให
ชได
ซ
ซก
ซง
ซช
ซซ
ซซาร
ซท
ซน
ซบ
ซม
ซล
ซว
ซสถาน
ซอ
ซอง
ซองจดหมาย
ซอน
ซอฟต
ซอย
ซอร
ซะ
ซา
ซาก
ซากด
ซากะ
ซาการ
ซาค
ซาง
ซาช
ซาด
ซาน
ซานฟรานซ
ซาบ
ซาม
ซาย
ซาร
ซาราห
ซาล
ซาว
ซาวด
ซาวะ
ซาอ
ซาเบธ
ซาเบธท
ซาเบธแห
ซาเล
ซาเลม
ซาโต
ซาโตช
ซาโตะ
ซเบก
ซและเดนมาร
ซได
ฌ
ฌอง
ฌอน
ฌา
ญ
ญก
ญกร
ญกรณ
ญกรรม
ญกว
ญข
ญของ
ญของจ
ญของร
ญค
ญคร
ญจ
ญจร
ญจะ
ญจาบ
ญฉบ
ญช
ญชน
ญชนะ
ญชนะต
ญชนะท
ญชนะในอ
ญชร
ญชล
ญชา
ญชาการ
ญชาการกองท
ญชาการตำรวจแห
ญชาการทหารบก
ญชาการทหารส
ญชาการทหารเร
ญชาต
ญชาให
ญซ
ญญ
ญญะ
ญญา
ญญาก
ญญากาศ
ญญาจ
ญญาฉบ
ญญาซ
ญญาณ
ญญาณด
ญญาณต
ญญาณท
ญญาณว
ญญาณเต
ญญาด
ญญาต
ญญาตร
ญญาท
ญญาน
ญญาบ
ญญาประด
ญญาพ
ญญาย
ญญาร
ญญาระหว
ญญาว
ญญาศ
ญญาส
ญญาอ
ญญาอน
ญญาเช
ญญาเด
ญญาเป
ญญาเอก
ญญาแวร
ญญาโท
ญญาให
ญญาใหม
ญด
ญต
ญถ
ญท
ญทางประว
ญทางพระราชไมตร
ญธงชาต
ญธรรม
ญน
ญบ
ญบาน
ญป
ญประเทศ
ญผ
ญพ
ญพระบารม
ญพระพ
ญพระราชก
ญม
ญมณ
ญมา
ญมาก
ญย
ญยอห
ญร
ญรอด
ญล
ญว
ญศ
ญศร
ญส
ญสน
ญสำหร
ญหน
ญหร
ญหา
ญหาก
ญหากร
ญหาข
ญหาด
ญหาต
ญหาท
ญหาน
ญหาย
ญหาว
ญหาส
ญหาอ
ญหาเก
ญหาเร
ญอ
ญอย
ญา
ญาญ
ญาณ
ญาณว
ญาต
ญาตต
ญาตหร
ญาตให
ญาโตต
ญเก
ญเข
ญเจ
ญเช
ญเด
ญเต
ญเท
ญเป
ญเพ
ญเม
ญเร
ญเล
ญเส
ญเสด
ญเอกพจน
ญแก
ญแจ
ญแล
ญและอด
ญแห
ญโญ
ญในช
ญให
ญได
ญไม
ญๆ
ฎ
ฎก
ฎกฉบ
ฎราชก
ฎเกล
ฎไทย
ฏ
ฏกษ
ฏจ
ฏฐ
ฏฐาน
ฏราชว
ฏว
ฏสวนส
ฏอ
ฏาน
ฏเช
ฐ
ฐก
ฐกล
ฐค
ฐคว
ฐจ
ฐจอร
ฐฉ
ฐช
ฐซ
ฐด
ฐต
ฐถ
ฐท
ฐธรรมน
ฐน
ฐนอร
ฐบ
ฐบร
ฐบาล
ฐบาลก
ฐบาลกลาง
ฐบาลจ
ฐบาลช
ฐบาลซ
ฐบาลญ
ฐบาลต
ฐบาลท
ฐบาลฝร
ฐบาลม
ฐบาลย
ฐบาลร
ฐบาลสหร
ฐบาลอ
ฐบาลเป
ฐบาลแห
ฐบาลโชก
ฐบาลใหม
ฐบาลได
ฐบาลไทย
ฐป
ฐประชาชนจ
ฐประชาธ
ฐประศาสนศาสตร
ฐประหาร
ฐประหารในประเทศไทย
ฐผ
ฐฝร
ฐพ
ฐฟลอร
ฐภาค
ฐม
ฐมนตร
ฐย
ฐร
ฐล
ฐว
ฐวาต
ฐศก
ฐศาสตร
ฐส
ฐสภา
ฐสภาแห
ฐสภาไทย
ฐสมาช
ฐหน
ฐหร
ฐอ
ฐอย
ฐออนไลน
ฐอาหร
ฐอเมร
ฐฯ
ฐาน
ฐานข
ฐานท
ฐานบ
ฐานว
ฐานะเท
ฐานะเป
ฐเกาหล
ฐเช
ฐเท
ฐเนวาดา
ฐเป
ฐเพ
ฐเพนซ
ฐเม
ฐเยอรม
ฐเว
ฐเวอร
ฐแคล
ฐแมสซาช
ฐแห
ฐแอฟร
ฐโดม
ฐในป
ฐในอาร
ฐให
ฐได
ฐไอร
ฑ
ฑา
ฑาเทพ
ฑาในพาราล
ฑาในโอล
ฒ
ฒจ
ฒน
ฒนก
ฒนธรรม
ฒนธรรมจ
ฒนธรรมท
ฒนธรรมร
ฒนธรรมอ
ฒนธรรมแห
ฒนธรรมไทย
ฒนบร
ฒนศ
ฒนะ
ฒนา
ฒนาก
ฒนาการ
ฒนาการท
ฒนาการศ
ฒนาการเศรษฐก
ฒนาข
ฒนาค
ฒนาจ
ฒนาช
ฒนาด
ฒนาต
ฒนาท
ฒนาน
ฒนาบ
ฒนาผ
ฒนาพ
ฒนาร
ฒนาราม
ฒนาว
ฒนาศ
ฒนาส
ฒนาหล
ฒนาอ
ฒนาองค
ฒนาอย
ฒนาเคร
ฒนาเด
ฒนาเทคโนโลย
ฒนาเป
ฒนาเพ
ฒนาเม
ฒนาเศรษฐก
ฒนาแล
ฒนาโดย
ฒนาโดยบร
ฒนาให
ฒาจารย
ณ
ณก
ณกร
ณค
ณคร
ณงามความด
ณจ
ณช
ณฐ
ณฑ
ณฑบาต
ณฑร
ณฑสถานแห
ณฑะเลย
ณณ
ณณวด
ณด
ณต
ณท
ณทหารลาดกระบ
ณธรรม
ณน
ณบ
ณป
ณประโยชน
ณผ
ณพ
ณภ
ณภาพ
ณภาพการศ
ณภาพช
ณภาพด
ณภาพส
ณม
ณย
ณร
ณรงค
ณล
ณว
ณศ
ณส
ณสมบ
ณห
ณหญ
ณหน
ณหพลศาสตร
ณหภ
ณหะว
ณหา
ณหาน
ณอ
ณอย
ณา
ณาช
ณาธ
ณาน
ณาภรณ
ณาว
ณาเพ
ณาแจ
ณาโปรดเกล
ณเจ
ณเดชน
ณเป
ณเม
ณแม
ณได
ณไม
ด
ดก
ดกฎหมาย
ดกร
ดกระช
ดกระทรวง
ดกระทรวงกลาโหม
ดกระทรวงมหาดไทย
ดกระทรวงศ
ดกระทรวงสาธารณส
ดกระบ
ดกล
ดกลาง
ดกว
ดกองท
ดกาญจนบ
ดการ
ดการก
ดการกองท
ดการข
ดการค
ดการความร
ดการช
ดการด
ดการต
ดการท
ดการทร
ดการน
ดการบร
ดการป
ดการปฏ
ดการประช
ดการฝ
ดการพ
ดการร
ดการล
ดการว
ดการศ
ดการส
ดการอ
ดการออนไลน
ดการเคล
ดการเปล
ดการเร
ดการเล
ดการแข
ดการใช
ดการให
ดการใหญ
ดกาฬส
ดกำล
ดกำเน
ดกำแพงเพชร
ดข
ดขนาดเล
ดขนาดใหญ
ดขวา
ดขวาง
ดขวาในเอกสาร
ดของ
ดของค
ดของความส
ดของจ
ดของช
ดของต
ดของท
ดของน
ดของประเทศ
ดของผ
ดของภาพ
ดของม
ดของย
ดของร
ดของว
ดของส
ดของอ
ดของเขา
ดของเส
ดของโลก
ดขอนแก
ดขอบฟ
ดขาด
ดค
ดคณะสงฆ
ดคด
ดคน
ดคนหน
ดคร
ดครอง
ดคล
ดความข
ดความค
ดความต
ดความผ
ดความร
ดความว
ดความส
ดความเข
ดความเป
ดความเส
ดความไม
ดคอนเส
ดคอร
ดคำส
ดฆ
ดง
ดงค
ดงาน
ดงานบนหน
ดจ
ดจร
ดจะม
ดจะเป
ดจะได
ดจาก
ดจากการต
ดจากการท
ดจากการรวมร
ดจากการออกอากาศของคล
ดจากการเข
ดจากท
ดจากน
ดจากว
ดจากส
ดจำก
ดจำนวน
ดจำหน
ดฉ
ดฉะเช
ดช
ดชน
ดชลบ
ดชอบ
ดชอบด
ดชอบต
ดชอบโรงเร
ดชะง
ดชายแดนภาคใต
ดชาร
ดซ
ดด
ดดอกไม
ดดา
ดดาใน
ดดำเน
ดต
ดตร
ดตราด
ดตลอดกาล
ดตา
ดตาก
ดตาม
ดตามท
ดตามมาตรา
ดตามรห
ดตำแหน
ดถ
ดท
ดทร
ดทอง
ดทางโทรท
ดทางให
ดทำ
ดทำการเร
ดทำข
ดทำร
ดทำสารบ
ดทำให
ดธ
ดธนบ
ดธาต
ดน
ดนครนายก
ดนครปฐม
ดนครพนม
ดนครราชส
ดนครศร
ดนครสวรรค
ดนตร
ดนนทบ
ดนราธ
ดบ
ดบร
ดบวรน
ดป
ดปกต
ดปฏ
ดปท
ดปร
ดประจวบค
ดประช
ดประด
ดประต
ดประท
ดประมาณ
ดประว
ดประส
ดประสงค
ดประโยชน
ดปราจ
ดปล
ดปากน
ดผ
ดผน
ดผล
ดฝ
ดพ
ดพร
ดพรรคก
ดพรรคชาต
ดพรรคประชาธ
ดพรรคพล
ดพรรคเพ
ดพรรคไทยร
ดพระธาต
ดพระนคร
ดพระนครศร
ดพระพ
ดพระศร
ดพระองค
ดพระเก
ดพระเจ
ดพระเชต
ดพระแก
ดพล
ดพลาด
ดพลาดท
ดพะเยา
ดพาย
ดฟ
ดฟอร
ดภ
ดภาพให
ดภาษาน
ดภาษาอ
ดม
ดมก
ดมการณ
ดมคต
ดมศ
ดมสมบ
ดมหาธาต
ดมหาว
ดมหาสารคาม
ดมา
ดมาก
ดมากกว
ดมากท
ดมาจาก
ดมาเป
ดมไปด
ดย
ดยอด
ดยะลา
ดยโสธร
ดร
ดรธาน
ดระฆ
ดระด
ดระนอง
ดระยอง
ดระว
ดระหว
ดระเบ
ดราก
ดราชบ
ดราชบพ
ดราชโอรสาราม
ดราม
ดรายการว
ดรายช
ดราษฎร
ดฤด
ดล
ดลง
ดลงเม
ดลพบ
ดลม
ดลอก
ดลอกข
ดลอกว
ดลอกส
ดลอกสไลด
ดลำด
ดลำปาง
ดลำพ
ดว
ดวง
ดวงจ
ดวงอาท
ดวช
ดวางข
ดวาร
ดศ
ดศร
ดส
ดสกลนคร
ดสงขลา
ดสงครามโลกคร
ดสต
ดสถาน
ดสน
ดสนามแอนฟ
ดสม
ดสมาธ
ดสร
ดสระบ
ดสระเกศ
ดสระแก
ดสว
ดสอน
ดสอนระด
ดสอนหล
ดสอนในระด
ดสาม
ดสำค
ดสำน
ดสำหร
ดห
ดหง
ดหน
ดหนองคาย
ดหนองบ
ดหม
ดหมวดหม
ดหมาย
ดหย
ดหร
ดหล
ดหว
ดอ
ดอก
ดอกช
ดอกบ
ดอกม
ดอกย
ดอกส
ดอกหญ
ดอกเตอร
ดอกไม
ดองค
ดอตคอม
ดอน
ดอนเม
ดอภ
ดอม
ดอย
ดอร
ดอล
ดอลลาร
ดอว
ดออก
ดออกจากการแข
ดออฟเดอะร
ดอาย
ดอาร
ดอาว
ดอำนาจเจร
ดฮ
ดฮอต
ดฯ
ดะ
ดา
ดาก
ดาข
ดาของ
ดาของท
ดาของพระองค
ดาของพระเจ
ดาของเจ
ดาค
ดาจ
ดาช
ดาด
ดาต
ดาท
ดาน
ดาบ
ดาพระองค
ดาม
ดามารดา
ดาย
ดาร
ดารา
ดาราจ
ดาราศาสตร
ดาล
ดาว
ดาวน
ดาวร
ดาวฤกษ
ดาวอ
ดาวเคราะห
ดาวเท
ดาวเร
ดาส
ดาห
ดาอ
ดาองค
ดาฯ
ดาเจ
ดาเน
ดาเป
ดาเปสต
ดาแห
ดาใน
ดาในพระเจ
ดาในสมเด
ดาในเจ
ดาได
ดำ
ดำท
ดำร
ดำรงช
ดำรงตำแหน
ดำรงราชาน
ดำรงอย
ดำเน
ดเก
ดเกม
ดเกล
ดเข
ดเค
ดเคร
ดเง
ดเจ
ดเจด
ดเจน
ดเจนว
ดเจร
ดเฉล
ดเช
ดเซ
ดเด
ดเดอร
ดเต
ดเตร
ดเถ
ดเท
ดเทพศ
ดเน
ดเบ
ดเบญจมบพ
ดเป
ดเปล
ดเผย
ดเผยข
ดเผยต
ดเผยว
ดเพ
ดเพชร
ดเพชรบ
ดเพล
ดเม
ดเย
ดเร
ดเล
ดเลย
ดเว
ดเวย
ดเส
ดเสร
ดเห
ดเหต
ดเหน
ดเหม
ดเหล
ดเอ
ดเอกสาร
ดเอกสารท
ดเอฟเอ
ดแก
ดแข
ดแค
ดแจ
ดแชมป
ดแต
ดแน
ดแนวการวางของข
ดแบ
ดแปลง
ดแปลงว
ดแปลงเป
ดแผ
ดแพร
ดแม
ดแมน
ดแย
ดแรก
ดแรกท
ดแรกให
ดแล
ดและม
ดและร
ดและเป
ดแวร
ดแสดงท
ดแห
ดโดย
ดโดยอ
ดโต
ดโทษ
ดโบสถ
ดโปรแกรม
ดโพธ
ดโรค
ดโรงเร
ดโลก
ดโอกาสให
ดใกล
ดใจ
ดใช
ดใด
ดใต
ดใน
ดในกร
ดในกล
ดในการแข
ดในครอบคร
ดในจ
ดในช
ดในท
ดในทว
ดในบร
ดในป
ดในประว
ดในประเทศ
ดในประเทศไทย
ดในพ
ดในภ
ดในย
ดในร
ดในล
ดในว
ดในส
ดในสก
ดในสม
ดในสหร
ดในหม
ดในอ
ดในเด
ดในเม
ดในเร
ดในเอเช
ดในโลก
ดใบ
ดใบน
ดใส
ดให
ดใหญ
ดใหม
ดได
ดไทย
ดไป
ดไผ
ดไฟ
ดไฟฟ
ดไม
ดไร
ดไว
ดๆ
ต
ตก
ตกก
ตกช
ตกต
ตกรรม
ตกรอบ
ตกล
ตกลงก
ตกว
ตกหล
ตกอย
ตกาล
ตกาลของ
ตกาลพห
ตกาลสมบ
ตกาลสาม
ตกาลเอกพจน
ตกเป
ตกแต
ตข
ตของ
ตของผ
ตของเขา
ตค
ตคร
ตครอบคร
ตคอยน
ตง
ตจ
ตจร
ตช
ตซ
ตซอล
ตซอลช
ตด
ตต
ตตก
ตตน
ตตะ
ตตา
ตตาน
ตถ
ตถด
ตถะ
ตถเลขา
ตท
ตน
ตนก
ตนค
ตนจ
ตนช
ตนตร
ตนน
ตนบ
ตนม
ตนร
ตนราชก
ตนราชส
ตนศาสดาราม
ตนส
ตนะ
ตนา
ตนาคนห
ตนาธ
ตนาภรณ
ตนายกร
ตนาราม
ตนเป
ตนเศรษฐ
ตนเอง
ตนโกส
ตนได
ตนไม
ตบ
ตบร
ตบอล
ตบอลจ
ตบอลช
ตบอลชาวญ
ตบอลชาวบราซ
ตบอลชาวสเปน
ตบอลชาวอ
ตบอลชาวเยอรม
ตบอลชาวไทย
ตบอลต
ตบอลถ
ตบอลท
ตบอลน
ตบอลบ
ตบอลย
ตบอลระด
ตบอลระหว
ตบอลล
ตบอลส
ตบอลหญ
ตบอลอ
ตบอลอาช
ตบอลเอเช
ตบอลแห
ตบอลโลก
ตบอลโลกหญ
ตป
ตปร
ตประจำว
ตประธานาธ
ตประเพณ
ตปล
ตผ
ตฝ
ตฝร
ตพ
ตพร
ตพล
ตฟ
ตฟล
ตภ
ตภาพยนตร
ตม
ตมหาปราสาท
ตมหาว
ตมหาส
ตย
ตยกรรม
ตยกรรมท
ตยกรรมศาสตร
ตยสถาน
ตยสภา
ตยสาร
ตยา
ตยาบ
ตร
ตรก
ตรกร
ตรกรรม
ตรกรรมฝาผน
ตรการศ
ตรข
ตรของ
ตรค
ตรคนท
ตรคร
ตรคำนวณ
ตรคำนวณโดยใช
ตรง
ตรงก
ตรงกลาง
ตรงข
ตรงท
ตรงน
ตรจ
ตรช
ตรชาย
ตรชายของ
ตรชายคนท
ตรชายท
ตรซ
ตรด
ตรต
ตรถยนต
ตรท
ตรธ
ตรน
ตรนานาชาต
ตรบ
ตรบร
ตรป
ตรปร
ตรประกาศน
ตรประจำต
ตรประชาชนเพ
ตรผ
ตรผล
ตรพ
ตรภาพ
ตรม
ตรมงคล
ตรร
ตรระด
ตรลดา
ตรว
ตรวจการแผ
ตรวจจ
ตรวจสอบการสะกดคำด
ตรวจสอบงานก
ตรวจสอบเอกสารก
ตรวาทการ
ตรศ
ตรส
ตรสาว
ตรหญ
ตรหน
ตรอ
ตรองนายกร
ตรอย
ตรฯ
ตระก
ตระด
ตระหน
ตระหว
ตรา
ตราการส
ตราการเก
ตราการเต
ตราค
ตราด
ตราดอกเบ
ตราท
ตราพระราชบ
ตราภาษ
ตราร
ตราส
ตราอาร
ตราเง
ตราเร
ตราแผ
ตราแลกเปล
ตรเจ
ตรเป
ตรเพ
ตรเม
ตรเล
ตรแก
ตรและฟ
ตรแห
ตรให
ตรได
ตรไปใช
ตล
ตลก
ตลง
ตลอด
ตลอดช
ตลอดท
ตลอดเวลา
ตลาด
ตลาดน
ตลาดหล
ตว
ตวว
ตวา
ตวาศก
ตวแพทย
ตวแพทยศาสตร
ตศ
ตศร
ตศาสตร
ตส
ตสม
ตสมาช
ตสวรรค
ตสหร
ตสาหกรรม
ตสาหกรรมท
ตสำน
ตสำหร
ตห
ตหน
ตหร
ตหล
ตอ
ตอธ
ตอน
ตอนจบ
ตอนต
ตอนท
ตอนน
ตอนพ
ตอนล
ตอนส
ตอนหน
ตอนอาย
ตอนเด
ตอนเหน
ตอนใต
ตอบ
ตอบก
ตอบของกระทรวง
ตอบร
ตอบว
ตอบสนองต
ตอบโต
ตอย
ตอร
ตอล
ตอาจารย
ตะ
ตะก
ตะกร
ตะล
ตะว
ตะเก
ตะเค
ตา
ตาก
ตาท
ตาน
ตานนท
ตาภรณ
ตาม
ตามก
ตามกฎหมาย
ตามกฎหมายว
ตามข
ตามความเช
ตามคำส
ตามจ
ตามช
ตามด
ตามต
ตามท
ตามธรรมชาต
ตามธรรมเน
ตามน
ตามบ
ตามบทบ
ตามปกต
ตามปฏ
ตามประว
ตามพ
ตามพระราชบ
ตามม
ตามมต
ตามมา
ตามมาด
ตามมาตรา
ตามร
ตามระเบ
ตามล
ตามลำด
ตามว
ตามวรรคหน
ตามส
ตามสำเน
ตามหน
ตามหล
ตามอ
ตามเง
ตามเด
ตามเวลาท
ตามเสด
ตามแต
ตาย
ตายค
ตายท
ตายแล
ตาร
ตารางก
ตารางการผ
ตารางข
ตารางผ
ตารางวา
ตารางเมตร
ตารางไมล
ตาล
ตาว
ตาส
ตาห
ตาเล
ตำนานพ
ตำนานสมเด
ตำบล
ตำบลก
ตำบลข
ตำบลค
ตำบลจ
ตำบลช
ตำบลด
ตำบลต
ตำบลท
ตำบลน
ตำบลบ
ตำบลป
ตำบลพ
ตำบลม
ตำบลร
ตำบลว
ตำบลศร
ตำบลส
ตำบลห
ตำบลหนองบ
ตำบลอ
ตำบลเช
ตำบลเม
ตำบลเว
ตำบลแม
ตำบลโพธ
ตำบลในเม
ตำรวจ
ตำรวจภ
ตำรา
ตำล
ตำหน
ตำแหน
ตเก
ตเข
ตเคยเป
ตเคร
ตเจ
ตเช
ตเซ
ตเซอร
ตเด
ตเต
ตเตอร
ตเท
ตเน
ตเป
ตเพ
ตเม
ตเมนต
ตเร
ตเล
ตเลขาธ
ตเลต
ตเลอร
ตเว
ตเส
ตเสร
ตเหล
ตแชมป
ตแต
ตแพทย
ตแม
ตแล
ตแลนด
ตและจ
ตและจำหน
ตและส
ตแห
ตโดย
ตโดยบร
ตโต
ตโนม
ตใจ
ตใจด
ตใจท
ตใน
ตในช
ตในท
ตในป
ตในว
ตในอ
ตให
ตใหญ
ตใหม
ตได
ตไทย
ตไปแล
ตไฟฟ
ตไม
ตไว
ถ
ถกเถ
ถน
ถนน
ถนนพ
ถนนพระรามท
ถนนพหลโยธ
ถนนร
ถนนว
ถนนส
ถนนอ
ถนอม
ถล
ถว
ถวาย
ถวายต
ถวายท
ถวายบ
ถวายพระเพล
ถอดอ
ถอนต
ถาม
ถามว
ถาวร
ท
ทก
ทกภ
ทข
ทค
ทจ
ทจดทะเบ
ทช
ทซ
ทด
ทต
ทท
ททกน
ททท
ททบ
ทธ
ทธก
ทธการ
ทธการท
ทธการยาว
ทธกาล
ทธจ
ทธช
ทธท
ทธน
ทธนา
ทธนาว
ทธบ
ทธบร
ทธบาท
ทธปฏ
ทธประว
ทธภ
ทธมณฑล
ทธมนต
ทธยอดฟ
ทธยา
ทธร
ทธรณ
ทธล
ทธว
ทธวงศ
ทธศ
ทธศตวรรษท
ทธศาสตร
ทธศาสน
ทธศาสนา
ทธศาสนาน
ทธศาสนาแห
ทธส
ทธห
ทธองค
ทธะ
ทธา
ทธาท
ทธาน
ทธาราม
ทธาวาส
ทธเจ
ทธเล
ทธโฆษาจารย
ทน
ทนต
ทนา
ทบ
ทบวง
ทผ
ทผล
ทพ
ทม
ทย
ทยบร
ทยา
ทยาการ
ทยาการคอมพ
ทยาการจ
ทยาคม
ทยาคาร
ทยาญ
ทยาท
ทยาน
ทยานประว
ทยานแห
ทยาย
ทยาล
ทยาศาสตร
ทยาศาสตรบ
ทยาศาสตรมหาบ
ทยาส
ทยาหร
ทยาอ
ทยาเขต
ทยาเช
ทร
ทรก
ทรง
ทรงก
ทรงข
ทรงค
ทรงครองราชย
ทรงจ
ทรงช
ทรงดำรงตำแหน
ทรงต
ทรงถ
ทรงทราบว
ทรงน
ทรงบ
ทรงบำเพ
ทรงปฏ
ทรงประท
ทรงพ
ทรงพระกร
ทรงพระนามว
ทรงพระราชดำร
ทรงพล
ทรงฟ
ทรงม
ทรงย
ทรงร
ทรงล
ทรงศ
ทรงส
ทรงสร
ทรงอ
ทรงอภ
ทรงเข
ทรงเคร
ทรงเจร
ทรงเป
ทรงเร
ทรงเล
ทรงเสกสมรสก
ทรงเห
ทรงแต
ทรงใช
ทรงให
ทรงได
ทรงไว
ทรท
ทรปราการ
ทรมลาย
ทรรศการ
ทรรศน
ทรสงคราม
ทรสาคร
ทรอ
ทรอยต
ทรอาร
ทรา
ทรานส
ทราบ
ทราบก
ทราบข
ทราบช
ทราบถ
ทราบท
ทราบว
ทราบสาเหต
ทราบแน
ทราย
ทรเกาหล
ทรแปซ
ทรแอตแลนต
ทรใต
ทรไอบ
ทฤษฎ
ทล
ทว
ทวงศ
ทศท
ทศวรรษ
ทศวรรษท
ทส
ทสนมก
ทหาร
ทหารท
ทหารบก
ทหารเร
ทอ
ทอง
ทองคำ
ทองด
ทองส
ทองอ
ทองแดง
ทอด
ทอดพระเนตรเห
ทอดอกซ
ทอตน
ทอม
ทอมม
ทอย
ทอร
ทอล
ทฯ
ทะ
ทะล
ทะเบ
ทะเล
ทา
ทาก
ทากาฮาช
ทาค
ทาง
ทางการ
ทางการท
ทางการทะเบ
ทางการเม
ทางการแพทย
ทางข
ทางค
ทางจ
ทางช
ทางซ
ทางด
ทางตอนเหน
ทางตอนใต
ทางตะว
ทางท
ทางทร
ทางธรรมชาต
ทางน
ทางบ
ทางบร
ทางผ
ทางฝ
ทางพ
ทางภาคตะว
ทางร
ทางรถยนต
ทางราชการได
ทางว
ทางส
ทางสถาน
ทางหลวงหมายเลข
ทางหลวงแผ
ทางอ
ทางเข
ทางเคม
ทางเด
ทางเล
ทางเศรษฐก
ทางเหน
ทางแยกต
ทางโทรท
ทางใต
ทาจ
ทาทา
ทาน
ทานพ
ทานากะ
ทาม
ทายาท
ทาร
ทาวน
ทาวเวอร
ทาส
ทาห
ทาเคช
ทาโร
ทำ
ทำก
ทำการ
ทำการค
ทำการจ
ทำการต
ทำการบ
ทำการย
ทำการร
ทำการศ
ทำการส
ทำการเป
ทำการแข
ทำการไปรษณ
ทำข
ทำค
ทำความร
ทำงาน
ทำงานก
ทำงานด
ทำงานท
ทำงานร
ทำงานอย
ทำงานเป
ทำงานให
ทำงานได
ทำด
ทำต
ทำท
ทำน
ทำนอง
ทำบ
ทำประต
ทำผ
ทำพ
ทำม
ทำร
ทำรายได
ทำลาย
ทำลายสถ
ทำว
ทำส
ทำสถ
ทำหน
ทำอ
ทำอย
ทำออกมาได
ทำอะไรได
ทำเคร
ทำเง
ทำเช
ทำเน
ทำเป
ทำให
ทำได
ทำไม
ทำไมต
ทำไว
ทเท
ทเทอร
ทเป
ทแม
ทโธ
ทโธปกรณ
ทในเคร
ทได
ทไฟท
ธ
ธก
ธค
ธง
ธงช
ธงชาต
ธงน
ธงไชย
ธช
ธต
ธท
ธน
ธนบ
ธนะร
ธนา
ธนาคาร
ธนาคารกร
ธนาคารแห
ธนาเพรส
ธป
ธปท
ธประจำต
ธพ
ธภ
ธม
ธย
ธยม
ธยมต
ธยมท
ธยมป
ธยมปลาย
ธยมว
ธยมศ
ธยา
ธยาคร
ธยาตอนปลาย
ธยาศ
ธยาเป
ธร
ธรจ
ธรณ
ธรภาค
ธรรม
ธรรมชาต
ธรรมดา
ธรรมท
ธรรมน
ธรรมบท
ธรรมย
ธรรมร
ธรรมราช
ธรรมว
ธรรมศ
ธรรมศาสตร
ธรรมเน
ธว
ธส
ธหล
ธอ
ธอร
ธา
ธาดา
ธาต
ธาน
ธเป
ธได
น
นก
นกต
นกย
นกร
นกรณ
นกรรมการ
นกรรมการบร
นกรรมการผ
นกรรมส
นกระจ
นกระด
นกระบวนการท
นกระส
นกราด
นกล
นกลม
นกลาง
นกลายเป
นกว
นกวางต
นกษ
นกอ
นกองกำล
นกองท
นกองหน
นการ
นการก
นการกระทำท
นการกล
นการข
นการค
นการจ
นการช
นการด
นการดำเน
นการต
นการถ
นการท
นการน
นการบ
นการบร
นการป
นการปกครองก
นการปฏ
นการปร
นการประช
นการปล
นการผ
นการผล
นการฝ
นการพ
นการพน
นการพลศ
นการม
นการย
นการร
นการล
นการละเม
นการว
นการศ
นการส
นการสร
นการอ
นการอย
นการอาช
นการเก
นการเข
นการเคล
นการเง
นการเช
นการเด
นการเป
นการเปล
นการเพ
นการเม
นการเร
นการเล
นการเส
นการแก
นการแข
นการแต
นการแบ
นการโจมต
นการโดย
นการใช
นการให
นการได
นกาล
นกาลของ
นกาลพห
นกาลพาร
นกาลสมบ
นกาลสาม
นกาลเอกพจน
นกำล
นกำหนด
นกำเน
นข
นขนส
นขนาด
นขนาดเล
นขนาดใหญ
นขนานท
นขว
นของ
นของก
นของกร
นของกล
นของกองท
นของข
นของขว
นของค
นของจ
นของช
นของด
นของต
นของตน
นของตนเอง
นของท
นของน
นของบ
นของบร
นของป
นของผ
นของฝร
นของพ
นของพระองค
นของม
นของย
นของร
นของล
นของว
นของส
นของสหร
นของห
นของอ
นขององค
นของเขา
นของเจ
นของเม
นของเรา
นของแข
นของแผ
นขาด
นขาว
นค
นคง
นคงของมน
นคงแห
นคด
นคน
นคนข
นคนจ
นคนด
นคนต
นคนท
นคนน
นคนม
นคนร
นคนส
นคนหน
นคนอ
นคนเด
นคนแรก
นคนแรกท
นคร
นครน
นครนายก
นครปฐม
นครพนม
นครร
นครราชส
นครศร
นครสวรรค
นครองราชย
นครองราชสมบ
นครอบคร
นครโฮจ
นคล
นคว
นควบค
นควร
นความข
นความค
นความจร
นความต
นความถ
นความผ
นความร
นความล
นความส
นความสำค
นความเช
นความเป
นความเส
นคอนเส
นคอมม
นคอร
นคอล
นคา
นคาทอล
นคาร
นคำ
นคำกร
นคำท
นคำนาม
นคำพ
นคำร
นคำว
นคำส
นฆ
นง
นงาน
นงานข
นงานด
นงานตาม
นงานตามมาตรา
นงานท
นงานว
นงานศ
นงานอ
นงานเข
นงานเพ
นงานแบบเต
นงานและสม
นจ
นจง
นจดทะเบ
นจนกระท
นจนถ
นจร
นจอห
นจะต
นจะถ
นจะทำให
นจะพ
นจะม
นจะย
นจะร
นจะส
นจะอย
นจะเก
นจะเข
นจะเป
นจะเร
นจะใช
นจะให
นจะได
นจะไม
นจา
นจาก
นจากความเป
นจากต
นจากตำแหน
นจากท
นจากน
นจากผ
นจากพ
นจากร
นจากส
นจากอ
นจาร
นจำค
นจำนวน
นจำนวนมาก
นจำนวนเง
นจำนวนเต
นจำเป
นฉ
นฉบ
นช
นชน
นชม
นชอบ
นชอบก
นชอบด
นชอบให
นชา
นชาต
นชาย
นชาร
นชาวจ
นชาวญ
นชาวย
นชาวอ
นชาวอเมร
นชาวเม
นชาวไทย
นชไตน
นซ
นซอฟต
นซา
นซาก
นซาม
นญ
นญาต
นฐาน
นฐานท
นฐานอย
นณว
นด
นดนตร
นดย
นดร
นดรศ
นดอกไม
นดอน
นดอนสามเหล
นดอร
นดา
นดาด
นดาน
นดาม
นดาร
นดาล
นดาลใจให
นดาลให
นดาว
นดาวเคราะห
นดำ
นดำรงตำแหน
นดำเน
นต
นตก
นตกของกร
นตกของจ
นตกของเส
นตกของแม
นตกต
นตกท
นตกม
นตกอย
นตกเฉ
นตกเป
นตต
นตน
นตนา
นตนาการ
นตป
นตภ
นตภาพร
นตร
นตรก
นตรง
นตรงก
นตรงต
นตรงท
นตระก
นตรา
นตราย
นตรายต
นตรายท
นตรายแก
นตส
นตสมาคม
นตหรา
นตอน
นตอนต
นตอนท
นตอนว
นตอนใต
นตะ
นตะปาปา
นตะว
นตะอ
นตา
นตาม
นตามท
นตามพระราชบ
นตามมาตรา
นตามลำด
นตาย
นตาราง
นตาล
นตำบลหน
นตำรวจเอก
นตำรวจโท
นตำแหน
นตแพทย
นตแพทยศาสตร
นถ
นถนนท
นถล
นท
นทก
นทซ
นทด
นทน
นทนนท
นทนา
นทนาการ
นทบ
นทป
นทม
นทมห
นทร
นทรคต
นทรงค
นทรงเป
นทรท
นทรน
นทรพ
นทรพจน
นทรภ
นทรมหาภ
นทรล
นทรว
นทรศ
นทรศก
นทรส
นทรา
นทราช
นทราธ
นทราบรมราช
นทราบรมราชชนน
นทราภรณ
นทราย
นทราวาส
นทรเดชา
นทรเวช
นทฤษฎ
นทว
นทศวรรษ
นทส
นทหาร
นทหารม
นทหารราบท
นทอง
นทอช
นทะ
นทะเบ
นทะเล
นทา
นทาง
นทางกล
นทางการ
นทางการของ
นทางการค
นทางการท
นทางการว
นทางการเม
นทางการในป
นทางการในว
นทางข
นทางช
นทางด
นทางต
นทางตะว
นทางถ
นทางท
นทางน
นทางบ
นทางป
นทางผ
นทางมาถ
นทางมาย
นทางรถไฟฟ
นทางระหว
นทางว
นทางส
นทางหล
นทางหลวงแผ
นทางอ
นทางเข
นทางเด
นทางเพ
นทางเล
นทางได
นทางไปถ
นทางไปท
นทางไปย
นทามะ
นทาราม
นทาส
นทาโร
นทำหน
นทำให
นธ
นธก
นธการก
นธการกบ
นธการกพห
นธการกเอกพจน
นธง
นธงชาต
นธน
นธบ
นธม
นธร
นธรรม
นธรรมชาต
นธรรมดา
นธรรมเน
นธวงศ
นธส
นธะค
นธาต
นธไมตร
นน
นนกท
นนท
นนทบ
นนวน
นนอก
นนะ
นนา
นนาค
นนาง
นนางช
นนางท
นนางผ
นนางฝ
นนาน
นนานาชาต
นนาม
นนายกร
นนาร
นนำ
นนำร
นบ
นบก
นบน
นบนพ
นบร
นบรรณาธ
นบรรท
นบรรพบ
นบรรยากาศ
นบล
นบวร
นบอกแนว
นบะระ
นบางคนอาจถ
นบางคร
นบางส
นบาท
นบาทถ
นบำเหน
นป
นปกต
นปช
นปฏ
นปร
นประก
นประกอบด
นประกอบไปด
นประกาศในราชก
นประจ
นประจำ
นประจำท
นประจำป
นประชาธ
นประด
นประต
นประถมศ
นประท
นประธาน
นประธานกรรมการ
นประธานาธ
นประธานในพ
นประม
นประมาณ
นประว
นประส
นประเด
นประเทศ
นประเทศท
นประเพณ
นประเสร
นประโยชน
นปรากฏการณ
นปล
นปลาท
นปลาน
นปลาสวยงาม
นปานน
นปาล
นผ
นผล
นผลงานท
นผลสำเร
นผลให
นผลไม
นฝ
นฝร
นพ
นพน
นพบ
นพบก
นพบคร
นพบท
นพบน
นพบว
นพบได
นพย
นพร
นพรรคการเม
นพรหม
นพระ
นพระกรรมวาจาจารย
นพระคร
นพระจ
นพระชนม
นพระญาต
นพระท
นพระธ
นพระน
นพระบ
นพระบาทสมเด
นพระป
นพระปกเกล
นพระพ
นพระภ
นพระมหากษ
นพระมเหส
นพระราช
นพระราชธ
นพระราชน
นพระราชบ
นพระราชาคณะช
นพระราชโอรสพระองค
นพระราชโอรสองค
นพระส
นพระอ
นพระองค
นพระอน
นพระอรห
นพระอารามหลวงช
นพระเจ
นพราหมณ
นพฤต
นพฤห
นพล
นพลเม
นพลเร
นพห
นพากย
นพาณ
นพาย
นพาร
นฟ
นฟร
นฟลายเวท
นฟอร
นฟาโรห
นภ
นภาค
นภาคต
นภาพ
นภาพท
นภาพยนตร
นภาพเข
นภายหล
นภายใต
นภารก
นภาษ
นภาษาท
นภาษาอ
นภาษาแม
นภาษาไทย
นม
นมน
นมลท
นมหาดเล
นมหาราช
นมหาว
นมะเร
นมา
นมาก
นมากกว
นมากข
นมากท
นมากน
นมากมาย
นมาจ
นมาจนถ
นมาช
นมาด
นมาต
นมาตรฐาน
นมาตรา
นมาถ
นมาท
นมาน
นมาม
นมาย
นมาร
นมาว
นมาส
นมาอ
นมาอย
นมาเป
นมาเพ
นมาเร
นมาเล
นมาแต
นมาแล
นมาใช
นมาให
นมาใหม
นมาได
นย
นยง
นยนต
นยอดน
นยอดเย
นยอม
นยอมให
นยา
นยาท
นยายน
นยาร
นยารช
นยาว
นยำ
นร
นรก
นรถ
นรถถ
นรถท
นรถยนต
นรวม
นรวมถ
นรวมท
นรห
นรองนายกร
นรองผ
นรองห
นรอบค
นรอบต
นรอบส
นระด
นระบ
นระบบ
นระบบท
นระยะ
นระยะทาง
นระยะเวลา
นระหว
นระเบ
นรางว
นราช
นราชท
นราชธาน
นราชบ
นราชภ
นราชวงศ
นราชสก
นราชอาณาจ
นราธ
นรายการ
นรายการท
นรายการโทรท
นรายช
นรายใหญ
นรายได
นราว
นรำ
นฤด
นฤมล
นล
นลง
นลงท
นลงเล
นลงในตาราง
นลม
นลองจ
นละ
นละครท
นละครโทรท
นลายล
นลำด
นลำต
นว
นวง
นวงกลมใหญ
นวงกว
นวงดนตร
นวงศ
นวน
นวม
นวร
นวล
นวอนเดอเรอส
นวอลล
นวอลเลย
นวา
นวาคม
นวาคมป
นวางจำหน
นวาย
นศ
นศตวรรษท
นศร
นศาสตราจารย
นษา
นส
นสก
นสกฤต
นสค
นสง
นสด
นสต
นสตร
นสตาแกรม
นสถ
นสถาน
นสถานท
นสถานศ
นสถาบ
นสถาป
นสถาปน
นสท
นสน
นสนามก
นสนามเหย
นสป
นสม
นสมควร
นสมบ
นสมมต
นสมาช
นสมเด
นสร
นสล
นสลาย
นสว
นสวรรค
นสหร
นสอ
นสอง
นสองคนส
นสองช
นสองส
นสองเท
นสะดวก
นสะเท
นสากล
นสาขาว
นสาธารณร
นสาธารณสมบ
นสาม
นสามส
นสามารถเล
นสามเณร
นสายการบ
นสายพ
นสายล
นสารท
นสาเหต
นสำค
นสำน
นสำปะหล
นสำหร
นสำเน
นสำเร
นสเตอร
นสโมสรฟ
นสไลด
นห
นหญ
นหน
นหนา
นหม
นหมด
นหมายความว
นหมายถ
นหมายเลข
นหย
นหร
นหล
นหลง
นหลายคร
นหลายคอล
นหว
นหอม
นหา
นหาข
นหาท
นหาส
นหาและแทนท
นอ
นอก
นอกจากท
นอกจากน
นอกน
นอกเหน
นองค
นอด
นอต
นอธ
นอน
นอนว
นอย
นอยด
นอยส
นอร
นอล
นอว
นอส
นออก
นออกกลาง
นออกของจ
นออกของแม
นออกต
นออกท
นออกมา
นออกส
นออกเฉ
นออกเป
นออกไป
นออนไลน
นออร
นอะไร
นอาคาร
นอาคารคอนกร
นอาคารท
นอาคารเร
นอาคารไม
นอาจม
นอาจารย
นอาจเป
นอาช
นอาณาจ
นอาณาน
นอาท
นอาย
นอาร
นอารมณ
นอาว
นอาศ
นอาสนว
นอาหาร
นอาหารท
นอาหารได
นอำนาจหน
นอำเภอท
นอำเภอหน
นอเมร
นฮ
นฮาร
นฯ
นะ
นะม
นะฮ
นา
นาก
นาค
นาคม
นาง
นางก
นางงามจ
นางจ
นางน
นางพ
นางฟ
นางม
นางร
นางว
นางส
นางอ
นางเธอ
นางแบบ
นาจ
นาซ
นาด
นาต
นาตาล
นาถ
นาถว
นาถเอล
นาถแห
นาท
นาน
นานก
นานกว
นานด
นานถ
นานน
นานม
นานมาน
นานหล
นานะ
นานา
นานาชาต
นาบ
นาม
นามปากกา
นามว
นามสก
นามเด
นาย
นายก
นายกร
นายกเทศมนตร
นายจ
นายช
นายด
นายต
นายท
นายทหารร
นายทะเบ
นายน
นายบ
นายป
นายปร
นายพ
นายพล
นายม
นายร
นายว
นายศ
นายส
นายสว
นายอ
นายอน
นายอภ
นายเฉล
นายเร
นายแพทย
นาร
นารา
นารายณ
นาล
นาว
นาวาอากาศเอก
นาศ
นาส
นาฬ
นาอ
นาเป
นาเมนต
นาแห
นาโปล
นาได
นำ
นำกล
นำกองท
นำกำล
นำข
นำช
นำต
นำท
นำน
นำบทบ
นำป
นำผ
นำฝ
นำมาซ
นำมาใช
นำร
นำว
นำส
นำหน
นำอ
นำเข
นำเร
นำเสนอไว
นำแสดงโดย
นำโดย
นำไปส
นำไปใช
นเก
นเกณฑ
นเกม
นเกมท
นเกมส
นเกย
นเกรกอเร
นเกล
นเกาะท
นเข
นเขตท
นเขตร
นเขา
นเขาก
นเขาจ
นเขาย
นเขาได
นเค
นเคย
นเคยก
นเคร
นเคล
นเคโฟร
นเง
นเจ
นเจด
นเจร
นเฉ
นเฉล
นเช
นเชสเตอร
นเชอร
นเซ
นเซนต
นเซลล
นเซอ
นเซอร
นเด
นเดซ
นเดย
นเดร
นเดอร
นเต
นเตร
นเตอร
นเถ
นเถล
นเท
นเทคน
นเทคว
นเทคโนโลย
นเทนน
นเทนโด
นเทพ
นเทพเจ
นเทศบาล
นเทศบาลเม
นเทอร
นเธอก
นเธอได
นเน
นเนอร
นเบ
นเป
นเปร
นเปล
นเผ
นเผา
นเพ
นเพราะว
นเพลง
นเพลงชาต
นเพลงท
นเพลย
นเฟ
นเฟเธอร
นเม
นเมร
นเมล
นเย
นเร
นเล
นเลขาธ
นเลขาน
นเลย
นเลยก
นเว
นเวท
นเวย
นเวลา
นเวลากว
นเวลาท
นเวลานาน
นเวลามาตรฐานญ
นเวลาส
นเวลาหน
นเวลาหลายป
นเวลเตอร
นเวอร
นเศรษฐก
นเส
นเสด
นเสนาบด
นเสม
นเสมอ
นเสร
นเสาร
นเห
นเหต
นเหน
นเหม
นเหย
นเหร
นเหล
นเอ
นเอก
นเอกฉ
นเอกล
นเอง
นเองก
นเอชเค
นเอท
นเอเช
นแก
นแกรน
นแกล
นแข
นแขกร
นแค
นแคว
นแจ
นแชมป
นแดง
นแดน
นแดนต
นแดนท
นแดนน
นแดนส
นแดนอ
นแดนแห
นแต
นแตกต
นแท
นแทน
นแทนท
นแน
นแนล
นแนวค
นแบ
นแบนต
นแบบ
นแบบท
นแบบน
นแบบอย
นแบบเด
นแบร
นแป
นแปซ
นแปลว
นแผ
นแผน
นแพ
นแพทย
นแพร
นแม
นแมตช
นแย
นแร
นแรก
นแรกท
นแรกเป
นแรง
นแรงข
นแรงต
นแรงท
นแรงบ
นแรงส
นแรม
นแล
นแลนด
นแลฯ
นและ
นและก
นและข
นและค
นและจ
นและช
นและด
นและต
นและถ
นและท
นและน
นและบ
นและปราบปรามการท
นและผ
นและพ
นและม
นและย
นและร
นและล
นและว
นและส
นและหน
นและอ
นและเป
นและเร
นและได
นและไม
นแห
นแหล
นแหละ
นแอ
นแอน
นแอนด
นแอร
นโค
นโครงสร
นโคว
นโจ
นโจมต
นโชว
นโซ
นโซไดอาเซพ
นโด
นโดจ
นโดดเด
นโดท
นโดน
นโดย
นโดยท
นโดยน
นโดยผ
นโดยม
นโดยส
นโดยอ
นโดยเอ
นโดยใช
นโดยไม
นโดร
นโดวส
นโดเมนอ
นโต
นโตน
นโท
นโทก
นโทน
นโทย
นโทยน
นโน
นโนเฟอร
นโบราณ
นโบสถ
นโปรด
นโปรต
นโปเล
นโพธ
นโมฆะ
นโมบ
นโรค
นโรคต
นโรคท
นโรงเร
นโล
นโลก
นโลห
นโอ
นโอล
นโอเมกา
นใกล
นใคร
นใจ
นใจท
นใจย
นใจว
นใจเข
นใจเล
นใจให
นใช
นใด
นใดของร
นใดท
นใดน
นใต
นใน
นในก
นในกร
นในกรณ
นในกล
นในการนำเสนอในสไลด
นในการแข
นในขณะน
นในค
นในคร
นในจ
นในช
นในซ
นในด
นในต
นในตำแหน
นในท
นในน
นในนาม
นในบ
นในบร
นในป
นในประเทศไทย
นในพ
นในฟ
นในภายหล
นในย
นในร
นในระด
นในระหว
นในรายการ
นในฤด
นในล
นในว
นในส
นในสม
นในสหร
นในห
นในหน
นในหม
นในอ
นในอด
นในเด
นในเม
นในเร
นในเล
นในเวลากลางค
นในเอเช
นในแต
นในโอล
นในไต
นใส
นให
นใหญ
นใหม
นไก
นไกด
นไข
นไซ
นไซด
นได
นไดเส
นไต
นไตย
นไท
นไทย
นไทยแลนด
นไทเป
นไนน
นไป
นไปก
นไปข
นไปจนถ
นไปช
นไปด
นไปต
นไปตามข
นไปตามท
นไปตามหล
นไปถ
นไปท
นไปน
นไปย
นไปร
นไปส
นไปอ
นไปอย
นไปเป
นไปเพ
นไปเม
นไปเร
นไปเล
นไปแล
นไปใช
นไปในแต
นไปให
นไปได
นไปไม
นไพร
นไฟ
นไฟฟ
นไฟล
นไม
นไร
นไรเฟ
นไล
นไลท
นไว
นไวร
นไส
นไหม
นไหว
นไหวขนาด
นไหวคร
นไหวท
นไฮม
นๆ
นๆท
นๆอ
นๆได
บ
บก
บกร
บกรณ
บกระด
บกระผม
บกล
บกลายเป
บกว
บกษ
บกองกำล
บกองท
บการ
บการก
บการกล
บการข
บการขนานนามว
บการค
บการควบค
บการจ
บการช
บการซ
บการด
บการดำเน
บการต
บการตอบร
บการถ
บการท
บการน
บการนำเสนองาน
บการบ
บการบร
บการบรรจ
บการป
บการปฏ
บการปร
บการประช
บการประเม
บการปล
บการผ
บการผล
บการฝ
บการพ
บการฟ
บการม
บการย
บการยกฐานะเป
บการยกย
บการยกเว
บการยอมร
บการร
บการว
บการศ
บการส
บการสถาปนาเป
บการสน
บการสร
บการอ
บการอธ
บการอน
บการเก
บการเข
บการเคล
บการเช
บการเด
บการเป
บการเปล
บการเผยแพร
บการเพ
บการเม
บการเร
บการเล
บการเสนอช
บการแก
บการแข
บการแต
บการแสดง
บการแสดงโดย
บการใช
บการให
บกำล
บข
บขนาดของตาราง
บขนาดว
บขม
บของ
บของท
บของร
บค
บคด
บคน
บคนท
บคนร
บคนอ
บคนไข
บคร
บครอบคร
บคล
บความกว
บความค
บความจร
บความช
บความด
บความต
บความน
บความผ
บความพ
บความม
บความย
บความร
บความล
บความส
บความสว
บความสำค
บความสำเร
บความหมายอ
บความเข
บความเช
บความเด
บความเป
บความเร
บความเส
บความเห
บความไว
บคอมพ
บคะแนนเส
บคาร
บคำ
บคำร
บคำว
บคำส
บคำใบ
บง
บงกช
บงานน
บจ
บจอห
บจาก
บจากน
บจำนวนคำและต
บฉ
บฉายาว
บช
บชน
บชาต
บชาวบ
บซ
บญ
บญาต
บฐานข
บด
บดนตร
บดอกไม
บต
บตกแต
บตน
บตร
บตระก
บตะว
บตา
บตำแหน
บถ
บถาวร
บท
บทกว
บทความ
บทความน
บทความหล
บทความเก
บทท
บทน
บทบ
บทบาทท
บทบาททางการเม
บทบาทสำค
บทประพ
บทพ
บทภาพยนตร
บทร
บทฤษฎ
บทว
บทส
บทอดต
บทอดตำแหน
บทางหลวงแผ
บทำให
บทเร
บทโทรท
บธ
บธงชาต
บธรรมชาต
บน
บนช
บนชาร
บนต
บนท
บนบ
บนผ
บนฝ
บนพ
บนภ
บนส
บนห
บนหน
บนหล
บนอ
บนานาชาต
บนเคร
บนเน
บนเร
บนเวท
บนเส
บนแผ
บบ
บบท
บบทความอ
บบทเป
บบทโดย
บบนส
บบร
บบล
บบอร
บบาดเจ
บบาร
บป
บปฏ
บปร
บประก
บประกาศน
บประจ
บประชาชน
บประต
บประถมศ
บประทาน
บประทานก
บประทานได
บประว
บประสบการณ
บประเด
บประเทศ
บประเทศอ
บประเทศไทย
บประโยชน
บปล
บปวด
บผ
บผล
บผลประโยชน
บฝ
บฝร
บพ
บพน
บพม
บพย
บพร
บพรรคการเม
บพระบ
บพระพ
บพระมหากร
บพระมหากษ
บพระราชทาน
บพระราชทานบรรดาศ
บพระราชทานว
บพระราชทานส
บพระราชทานเคร
บพระราชบ
บพระราชห
บพระส
บพระอ
บพระองค
บพระเจ
บพฤต
บพล
บพลา
บพลาอ
บพาย
บฟ
บภ
บภาพ
บภาพยนตร
บภาพยอดเย
บภารก
บภาษ
บภาษาคำเม
บภาษาลาว
บภาษาอ
บภาษาไทย
บม
บมจ
บมน
บมหามก
บมหาว
บมองซ
บมอบหมายให
บมา
บมาก
บมาด
บมาต
บมาตรฐาน
บมาตรา
บมาถ
บมาท
บมาม
บมาย
บมาร
บมารวมต
บมาส
บมาอ
บมาอย
บมาเป
บมาเม
บมาเร
บมาเล
บมาใช
บมาได
บย
บยกย
บร
บรถ
บรถยนต
บรถไฟฟ
บรมนาถบพ
บรมราชวงศ
บรมราชาภ
บรรจ
บรรณ
บรรณก
บรรณาธ
บรรณาน
บรรดาบทเหล
บรรดาผ
บรรดาศ
บรรท
บรรพ
บรรพบ
บรรล
บรวมก
บรอง
บรองว
บรองให
บรอมม
บรอลตาร
บระด
บระหว
บระเบ
บรางว
บราชการ
บราชการท
บราชการอย
บราชการเป
บราชการในตำแหน
บราชท
บราชบ
บราชวงศ
บราชส
บราชสมบ
บราชอาณาจ
บราซ
บราวน
บราฮ
บราเธอร
บฤด
บล
บลร
บลราชธาน
บละ
บว
บวก
บวกก
บวง
บวงดนตร
บวร
บวรส
บศ
บส
บสก
บสต
บสตร
บสถ
บสถาน
บสถานการณ
บสถานท
บสถาบ
บสน
บสนก
บสนองพระบรมราชโองการ
บสภาผ
บสภาพแวดล
บสม
บสมบ
บสมาช
บสมเด
บสร
บสลาก
บสลากสำหร
บสว
บสวน
บสหภาพโซเว
บสหร
บสอง
บสองป
บสากล
บสาธารณร
บสาม
บสายพ
บสาห
บสำน
บสำหร
บสโมสร
บสโมสรฟ
บสไลด
บห
บหญ
บหน
บหม
บหย
บหร
บหล
บหลวงประเสร
บอ
บอก
บอกก
บอกซ
บอกว
บอกเล
บอกให
บองค
บอด
บอน
บอนด
บอนไดออกไซด
บอย
บอร
บอล
บอลชายช
บอลล
บอลหญ
บอลเว
บอส
บอสต
บอสเน
บอากาศ
บอาจารย
บอาช
บอาณาจ
บอาย
บอาร
บอารมณ
บอาว
บอำเภอบ
บอำเภอเม
บอเนต
บฮ
บฮาร
บะ
บา
บาก
บาค
บาง
บางกอก
บางกอกกล
บางข
บางคนก
บางคร
บางช
บางชน
บางต
บางท
บางร
บางระจ
บางส
บางอย
บางแห
บาซ
บาดเจ
บาต
บาท
บาทต
บาน
บานประต
บาบ
บาป
บาย
บายถ
บายท
บายว
บายให
บายได
บายไว
บาร
บารม
บาล
บาลท
บาลบ
บาลเป
บาส
บาสก
บาสเกตบอล
บาห
บาเลนเซ
บำบ
บำร
บำเพ
บเก
บเกล
บเข
บเขตการปกครองข
บเขา
บเค
บเคร
บเคล
บเง
บเจ
บเช
บเซ
บเซลล
บเด
บเต
บเท
บเทคโนโลย
บเธอ
บเน
บเบ
บเบราว
บเบอร
บเป
บเปล
บเพ
บเพล
บเพลง
บเม
บเย
บเยอรมน
บเยาวชน
บเร
บเรา
บเล
บเลขหน
บเว
บเวลา
บเส
บเสด
บเหต
บเหน
บเหย
บเหร
บเหล
บเอ
บเอกสาร
บเอม
บแก
บแข
บแค
บแคว
บแจ
บแชมป
บแต
บแท
บแนวค
บแผ
บแผนภ
บแม
บแรก
บแรงบ
บแล
บแสง
บแห
บแหล
บโครงสร
บโดย
บโดยอน
บโต
บโตข
บโตท
บโตทางเศรษฐก
บโตอย
บโตได
บโปรดเกล
บโปรต
บโมเลก
บโรงเร
บโล
บโลก
บใจ
บใช
บใน
บในช
บในป
บใบอน
บใส
บให
บใหญ
บใหม
บไข
บไซด
บไซต
บได
บไทย
บไป
บไปด
บไปถ
บไปท
บไปบ
บไปย
บไปส
บไปอย
บไปเป
บไปเม
บไปแล
บไปใช
บไพร
บไม
บไล
บไว
บๆ
ป
ปก
ปกครอง
ปกครองด
ปกครองท
ปกครองเม
ปกคล
ปกต
ปกป
ปกรณ
ปการ
ปการปกครองแผ
ปการปกครองในระบอบประชาธ
ปข
ปของ
ปค
ปคร
ปคล
ปจ
ปช
ปชป
ปซ
ปญ
ปฏ
ปฐมจ
ปณ
ปด
ปดา
ปดาห
ปต
ปตท
ปตศก
ปถ
ปท
ปทรงสามม
ปทรงอ
ปน
ปนาว
ปบ
ปป
ปประพ
ปประเทศ
ปปางมารว
ปผ
ปผา
ปพ
ปพห
ปภ
ปภาพ
ปภาพของ
ปภาพน
ปม
ปย
ปร
ปรกต
ปรม
ประก
ประกอบ
ประกอบก
ประกอบข
ประกอบด
ประกอบท
ประกอบธ
ประกอบพ
ประกอบภาพยนตร
ประกอบร
ประกอบละคร
ประกอบว
ประกอบอาช
ประกอบไปด
ประการ
ประการท
ประการหน
ประการใด
ประกาศ
ประกาศกระทรวงมหาดไทย
ประกาศกระทรวงศ
ประกาศข
ประกาศของคณะปฏ
ประกาศคณะกรรมการการเล
ประกาศคณะร
ประกาศจ
ประกาศต
ประกาศน
ประกาศนายทะเบ
ประกาศย
ประกาศว
ประกาศสำน
ประกาศเป
ประกาศเม
ประกาศแต
ประกาศใช
ประกาศใน
ประกาศในราชก
ประกาศให
ประจ
ประจวบ
ประจวบค
ประจำ
ประจำจ
ประจำชาต
ประจำต
ประจำท
ประจำป
ประจำภาคว
ประจำมหาว
ประจำว
ประจำส
ประจำสำน
ประจำอย
ประจำเด
ประจำโรงเร
ประช
ประชา
ประชากร
ประชากรท
ประชากรประมาณ
ประชากรมากท
ประชากรราว
ประชากรส
ประชาชน
ประชาชนท
ประชาชนม
ประชาชนได
ประชาชาต
ประชาธ
ประชาส
ประชาไท
ประด
ประต
ประถมศ
ประถมาภรณ
ประท
ประธาน
ประธานกรรมการ
ประธานกรรมการบร
ประธานบร
ประธานร
ประธานศาลฎ
ประธานสภาผ
ประธานอน
ประธานาธ
ประพ
ประพฤต
ประภ
ประม
ประมวลกฎหมายแพ
ประมาณ
ประมาณป
ประมาณร
ประย
ประว
ประส
ประสงค
ประสบก
ประสบการณ
ประสบความสำเร
ประสบป
ประสบภ
ประสบอ
ประสาท
ประสาทส
ประหย
ประหลาด
ประหารช
ประเด
ประเทศ
ประเทศก
ประเทศกร
ประเทศค
ประเทศจ
ประเทศชาต
ประเทศซ
ประเทศญ
ประเทศต
ประเทศท
ประเทศน
ประเทศบ
ประเทศบราซ
ประเทศฝร
ประเทศพม
ประเทศฟ
ประเทศมาเลเซ
ประเทศย
ประเทศร
ประเทศล
ประเทศลาว
ประเทศส
ประเทศสว
ประเทศสหร
ประเทศสเปน
ประเทศอ
ประเทศออสเตร
ประเทศออสเตรเล
ประเทศอาร
ประเทศฮ
ประเทศเกาหล
ประเทศเจ
ประเทศเดนมาร
ประเทศเนเธอร
ประเทศเบลเย
ประเทศเป
ประเทศเม
ประเทศเยอรมน
ประเทศเว
ประเทศแคนาดา
ประเทศแอฟร
ประเทศโปแลนด
ประเทศไทย
ประเทศไทยม
ประเทศไทยเป
ประเทศไทยได
ประเพณ
ประเภท
ประเภทของงานน
ประเภทท
ประเภทน
ประเภทว
ประเม
ประเสร
ประโยค
ประโยชน
ปรากฎ
ปรากฏ
ปรากฏการณ
ปรากฏข
ปรากฏช
ปรากฏต
ปรากฏบ
ปรากฏว
ปรากฏหล
ปรากฏอย
ปรากฏเป
ปรากฏใน
ปรากฏในหน
ปราคา
ปราคาบางส
ปราคาเต
ปรางค
ปราจ
ปราช
ปราชญ
ปราณ
ปราย
ปรายไม
ปราสาท
ปราโมช
ปราโมทย
ปล
ปลงในเอกสาร
ปลดปล
ปลอดภ
ปลอมต
ปลา
ปลาก
ปลาช
ปลาซ
ปลาด
ปลาต
ปลาตะเพ
ปลาท
ปลาน
ปลาบ
ปลาป
ปลาย
ปลายป
ปลาส
ปลาหม
ปว
ปวช
ปวยร
ปวส
ปศ
ปส
ปสงค
ปสมบท
ปสมบทเป
ปสรรค
ปสรรคต
ปสล
ปสามเหล
ปห
ปหน
ปหล
ปหลายเหล
ปอ
ปองค
ปอด
ปอนด
ปอย
ปอร
ปอล
ปอเมร
ปอเรช
ปฮอป
ปฮาด
ปะ
ปะการ
ปะชานาต
ปะฏ
ปะต
ปะท
ปะทะ
ปะทะก
ปะร
ปะส
ปะห
ปา
ปาก
ปากน
ปากาซา
ปางมารว
ปาฏ
ปาณ
ปาด
ปาท
ปาทาน
ปาน
ปานกลาง
ปานามา
ปาป
ปาร
ปารากว
ปาล
ปาห
ปาเลสไตน
ปเก
ปเด
ปเตอร
ปเท
ปเป
ปเปอร
ปเล
ปเหม
ปเหร
ปเอเช
ปแบบ
ปแบบการจ
ปแบบการเล
ปแบบการแสดงข
ปแบบการแสดงต
ปแบบการแสดงว
ปแบบของ
ปแบบซ
ปแบบด
ปแบบต
ปแบบท
ปแบบน
ปแบบพ
ปแบบว
ปแบบส
ปแบบหน
ปแบบอ
ปแบบเด
ปแบบเป
ปแบบเส
ปแบบแผนภ
ปแบบและขนาดต
ปแบบใหม
ปแผนภ
ปแล
ปและข
ปแห
ปแอนตาร
ปแอฟร
ปโป
ปโปแคมป
ปโภค
ปโภคบร
ปไข
ปได
ปไตย
ปไตยคองโก
ปไตยต
ปไตยท
ปไตยภายใต
ปไตยอ
ปไม
ผ
ผจญภ
ผด
ผน
ผบ
ผม
ผมก
ผมค
ผมร
ผมส
ผมไม
ผล
ผลก
ผลกระทบต
ผลการเล
ผลการแข
ผลข
ผลค
ผลงาน
ผลงานของ
ผลงานช
ผลงานด
ผลงานท
ผลงานภาพยนตร
ผลงานล
ผลงานว
ผลงานอ
ผลงานเด
ผลด
ผลต
ผลท
ผลทำให
ผลน
ผลบ
ผลประโยชน
ผลปรากฏว
ผลผล
ผลม
ผลร
ผลรางว
ผลล
ผลว
ผลส
ผลอ
ผลอย
ผลเป
ผลใช
ผลในการประกาศใช
ผลให
ผลไม
ผศ
ผสม
ผสมก
ผสมพ
ผอ
ผา
ผาส
ฝ
ฝน
ฝร
พ
พก
พกร
พกล
พข
พค
พคร
พงศ
พงศธร
พงศาวดารเม
พงษ
พจ
พจน
พจนาน
พช
พชาวอเมร
พซ
พญ
พณ
พด
พต
พท
พธ
พน
พนธ
พนม
พนมยงค
พนมเท
พนมเปญ
พนว
พบ
พบก
พบกช
พบกระจายพ
พบคร
พบท
พบน
พบบ
พบป
พบผ
พบมากท
พบร
พบว
พบหล
พบเห
พบได
พปลดปล
พผ
พฝ
พฝร
พพ
พพม
พพาน
พฟ
พภ
พภาคท
พม
พมาต
พย
พยากร
พยากรณ
พยากรท
พยากรธรณ
พยากรธรรมชาต
พยากรน
พยากรมน
พยางค
พยาธ
พยายามท
พร
พรช
พรพ
พรรค
พรรคก
พรรคการเม
พรรคคอมม
พรรคชาต
พรรคน
พรรคประชาธ
พรรคพล
พรรคร
พรรคส
พรรคเพ
พรรคเสร
พรรคไทยร
พรรฒธนากร
พรรณ
พรรณบ
พรรณหงส
พรรณไม
พรรษา
พรสวรรค
พรหม
พระ
พระก
พระกร
พระขน
พระค
พระคร
พระคล
พระจ
พระจอมเกล
พระช
พระชนม
พระชนมาย
พระชายา
พระญาต
พระตำหน
พระท
พระธ
พระธรรมก
พระธาต
พระน
พระนคร
พระนครศร
พระนางจ
พระนางเจ
พระนางได
พระนามว
พระนามเด
พระนารายณ
พระบ
พระบรมธาต
พระบรมมหาราชว
พระบรมราช
พระบรมราชชนน
พระบรมราชาน
พระบรมราชโองการ
พระบรมราชโองการโปรดเกล
พระบรมราชโองการให
พระบรมวงศาน
พระบรมสาร
พระบาท
พระบาทสมเด
พระป
พระปร
พระประส
พระประสงค
พระปรางค
พระปล
พระผ
พระพ
พระภ
พระภาคเจ
พระมงก
พระมหากษ
พระมหาอ
พระมเหส
พระยา
พระยาจ
พระยาน
พระยาพ
พระยาร
พระยาว
พระยาศร
พระยาส
พระยาอ
พระยาอน
พระยาอภ
พระร
พระราช
พระราชก
พระราชกรณ
พระราชกฤษฎ
พระราชดำร
พระราชทาน
พระราชทานนามว
พระราชทานปร
พระราชทานพระบรมราชาน
พระราชทานส
พระราชทานเคร
พระราชทานเพล
พระราชทานเหร
พระราชทานให
พระราชธ
พระราชน
พระราชบ
พระราชประสงค
พระราชพ
พระราชพงศาวดาร
พระราชพงศาวดารกร
พระราชพงษาวดาร
พระราชล
พระราชว
พระราชวงศ
พระราชส
พระราชสมภพ
พระราชสวาม
พระราชา
พระราชโองการให
พระราชโอรส
พระราชโอรสพระองค
พระราชโอรสองค
พระราม
พระล
พระว
พระวรราชเทว
พระวรวงศ
พระศ
พระศร
พระศาสดา
พระศาสดาตร
พระส
พระสงฆ
พระสม
พระสวาม
พระห
พระอ
พระองค
พระอธ
พระอน
พระอภ
พระอรห
พระอาจารย
พระอาท
พระอารามหลวง
พระอารามหลวงช
พระเก
พระเจ
พระเจด
พระเชษฐภค
พระเป
พระเมร
พระเยซ
พระเยโฮวาห
พระแก
พระแม
พระโพธ
พระโอรส
พระโอรสธ
พระโอรสองค
พระไตรป
พราหมณ
พฤต
พฤศจ
พฤษภาคม
พฤห
พล
พลต
พลตร
พลตำรวจตร
พลตำรวจเอก
พลตำรวจโท
พลท
พลว
พลศ
พลอด
พลอย
พลอากาศเอก
พละกำล
พลาสต
พลเม
พลเร
พลเอก
พลโท
พว
พวก
พวกก
พวกข
พวกจ
พวกท
พวกน
พวกพ
พวกม
พวกอ
พวกฮ
พวกฮอล
พวกเข
พวกเขา
พวกเขาก
พวกเขาจ
พวกเขาต
พวกเขาถ
พวกเขาม
พวกเขาย
พวกเขาเป
พวกเขาได
พวกเขาไม
พวกเจ
พศ
พส
พสหร
พห
พหน
พหล
พหลโยธ
พอ
พอก
พอด
พอตเตอร
พอถ
พอท
พอพระท
พอย
พอร
พอล
พอลล
พอส
พออฟเนช
พอากาศ
พอากาศสหร
พอากาศอ
พอใจ
พอใจท
พอใจในโลก
พอได
พะเยา
พา
พาก
พากย
พากษ
พากษา
พากษาคด
พากษาศาลฎ
พากษาห
พากษาให
พาณ
พาต
พาท
พาทย
พาน
พาย
พาร
พาล
พาวเวอร
พาเลซ
พำน
พเข
พเจ
พเป
พเพ
พเพส
พเม
พเยอรม
พเร
พแห
พโซเว
พในป
พให
พใหญ
พได
พไทย
พไปต
ฟ
ฟก
ฟกาน
ฟซ
ฟต
ฟท
ฟฟ
ฟฟาน
ฟย
ฟร
ฟรานซ
ฟล
ฟลอร
ฟลอเรนซ
ฟลายเวท
ฟว
ฟวร
ฟส
ฟอ
ฟอกซ
ฟอง
ฟอน
ฟอร
ฟะฮ
ฟา
ฟาง
ฟาน
ฟาร
ฟาโรห
ฟเบ
ฟเฟ
ฟเวอร
ฟได
ภ
ภก
ภช
ภชลาศ
ภพ
ภร
ภรรยา
ภว
ภะคะวา
ภา
ภาค
ภาคกลาง
ภาคค
ภาคต
ภาคตะว
ภาคท
ภาคน
ภาคผนวก
ภาคพ
ภาคม
ภาคย
ภาคร
ภาคว
ภาคศาสตร
ภาคอ
ภาคเหน
ภาคเอเช
ภาคใต
ภาณ
ภาน
ภาพ
ภาพก
ภาพกราฟ
ภาพจ
ภาพด
ภาพต
ภาพถ
ภาพท
ภาพน
ภาพบ
ภาพประกอบข
ภาพพ
ภาพยนตร
ภาพร
ภาพล
ภาพส
ภาพสตร
ภาพอ
ภาพเข
ภาพเหม
ภาพและส
ภาพแห
ภายนอก
ภายหล
ภายใต
ภายใน
ภายในจ
ภายในบร
ภายในป
ภายในประด
ภายในม
ภายในว
ภายในส
ภายในห
ภายในอ
ภารก
ภาว
ภาวด
ภาวะ
ภาวะน
ภาษ
ภาษา
ภาษากร
ภาษาคำเม
ภาษาจ
ภาษาซ
ภาษาญ
ภาษาด
ภาษาต
ภาษาถ
ภาษาท
ภาษาน
ภาษานอร
ภาษาบาล
ภาษาป
ภาษาปาก
ภาษาฝร
ภาษาพ
ภาษาพม
ภาษาฟ
ภาษาม
ภาษามลาย
ภาษาย
ภาษาร
ภาษาล
ภาษาละต
ภาษาลาว
ภาษาศาสตร
ภาษาส
ภาษาสว
ภาษาสเปน
ภาษาหน
ภาษาอ
ภาษาอาหม
ภาษาอาหร
ภาษาฮ
ภาษาเกาหล
ภาษาเข
ภาษาเขมร
ภาษาเดนมาร
ภาษาเปอร
ภาษาเยอรม
ภาษาเว
ภาษาแสก
ภาษาโปรต
ภาษาโปแลนด
ภาษาไทขาว
ภาษาไทดำ
ภาษาไทย
ภาษาไทล
ภาษาไทใต
ภาษาไทใหญ
ม
มก
มกร
มกราคม
มกล
มกว
มกองท
มการก
มการท
มการผล
มการลงท
มการศ
มการเม
มการแข
มการใช
มกำล
มกำเน
มข
มของ
มของต
มของน
มของผ
มของร
มของอ
มค
มคนท
มคร
มครอง
มครองผ
มครองส
มคล
มคว
มควบค
มความต
มความร
มความเร
มความเส
มความแข
มคำแปลของวล
มง
มงก
มงคล
มงวด
มงาน
มจ
มจอ
มจอภาพ
มจะต
มจะม
มจะได
มจาก
มจากข
มฉ
มช
มชน
มชนท
มชนบ
มชนว
มชนะเล
มชนเม
มชาต
มชาย
มซ
มณ
มณฑล
มด
มดนตร
มดวง
มดำเน
มต
มตะว
มถ
มท
มทร
มทอง
มทำงาน
มธ
มธาน
มน
มนต
มนตร
มนวล
มนาสต
มนาฬ
มบ
มบร
มบวร
มบาร
มป
มปช
มปฏ
มปทาน
มปร
มประต
มประมวลกฎหมายอาญา
มประส
มผ
มผล
มฝ
มพ
มพงศาวดาร
มพร
มพรพ
มพระชนมพรรษา
มพระเก
มพล
มพว
มพวง
มพวา
มพานต
มฟ
มภ
มภวาป
มภาพ
มภาษณ
มม
มมอง
มมองต
มมองท
มมองบ
มมองในโปรแกรม
มมะ
มมา
มมาก
มมากกว
มมากข
มมาท
มมาน
มมาร
มมาส
มย
มยอดเย
มร
มรณภาพ
มรรค
มรส
มรองชนะเล
มระด
มระหว
มฤทธ
มล
มลง
มลม
มละ
มละลาย
มลาย
มว
มวยปล
มวยไทย
มศ
มศร
มส
มสต
มสน
มสภาผ
มสม
มสมาช
มสร
มสลาย
มสว
มสาย
มสาระการเร
มสำหร
มสเตอร
มห
มหญ
มหน
มหม
มหร
มหล
มหา
มหาคณ
มหาจ
มหาชน
มหาดเล
มหาธาต
มหาน
มหาบ
มหาปรมาภรณ
มหาภ
มหามก
มหามงคลเฉล
มหาราช
มหาว
มหาวช
มหาศ
มหาส
มหาสม
มหาสารคาม
มหาอ
มหาอำมาตย
มหาโพธ
มอ
มอง
มองค
มองซ
มองด
มองว
มองเห
มองโกเล
มองไม
มอญ
มอด
มอน
มอนต
มอนท
มอนสเตอร
มอนเตเนโกร
มอบรางว
มอบหมาย
มอบหมายให
มอบให
มอย
มอร
มอลตา
มอลล
มอส
มอสโก
มอาคาร
มอาช
มอาย
มอาร
มอเตอร
มฮ
มฮอตสเปอร
มะ
มะน
มะพร
มะม
มะย
มะล
มะส
มะห
มะอ
มะฮ
มะเข
มะเม
มะเร
มะเส
มะแม
มะโรง
มา
มาก
มากกว
มากข
มากซ
มากถ
มากท
มากน
มากมาย
มากย
มากร
มากรรม
มากว
มากเก
มากเป
มากแล
มาข
มาของช
มาค
มาคร
มาจ
มาจนถ
มาจาก
มาจากการเล
มาจากคำว
มาจากช
มาจากท
มาจากภาษากร
มาจากภาษาละต
มาจากเม
มาช
มาซ
มาณ
มาณท
มาณน
มาณมาก
มาด
มาดร
มาดาก
มาต
มาตร
มาตรฐาน
มาตรฐานของ
มาตรา
มาถ
มาท
มาน
มานพ
มานะ
มาบ
มาประช
มาพ
มาพร
มาม
มาย
มายา
มาร
มารดา
มารดาช
มารน
มารวมก
มารแห
มาล
มาลา
มาลาก
มาว
มาศ
มาส
มาสค
มาสด
มาสร
มาสเตอร
มาห
มาอ
มาอย
มาเก
มาเข
มาเป
มาเพ
มาเม
มาเย
มาเร
มาเล
มาเลเซ
มาแต
มาแล
มาใช
มาให
มาได
มเก
มเกล
มเข
มเค
มเคร
มเคล
มเง
มเจ
มเจร
มเช
มเซ
มเซลล
มเด
มเต
มเท
มเน
มเนเซ
มเบ
มเบร
มเบอร
มเป
มเปล
มเปอร
มเพ
มเฟ
มเม
มเมอร
มเย
มเร
มเล
มเว
มเวท
มเวทเม
มเศร
มเส
มเห
มเหง
มเหน
มเหม
มเหย
มเหล
มเหลว
มเหส
มเอ
มเอส
มแก
มแข
มแจ
มแต
มแถวและคอล
มแบ
มแบร
มแพ
มแพร
มแม
มแรก
มแรกท
มแล
มและการจ
มและพ
มและม
มและลบแถว
มและแยกว
มแสง
มแห
มแอลกอฮอล
มโค
มโจมต
มโดย
มโดยพระราชบ
มโบ
มโพชฌงค
มโพธ
มโฟน
มโรงเร
มโลก
มใจ
มใช
มใต
มใน
มในช
มในป
มในว
มในเด
มใส
มให
มใหญ
มใหม
มได
มไทย
มไบ
มไป
มไปด
มไพร
มไม
มไว
มๆ
ย
ยก
ยกก
ยกกล
ยกกองท
ยกข
ยกค
ยกช
ยกฐานะข
ยกฐานะจากก
ยกฐานะจากส
ยกฐานะเป
ยกด
ยกต
ยกท
ยกน
ยกบ
ยกป
ยกประช
ยกผ
ยกพ
ยกม
ยกย
ยกร
ยกระด
ยกล
ยกลาง
ยกว
ยกส
ยกอ
ยกอย
ยกา
ยการ
ยการจ
ยการศ
ยการส
ยการอาช
ยกำล
ยกเก
ยกเข
ยกเป
ยกเล
ยกเว
ยกโดยย
ยกใช
ยกให
ยกได
ยข
ยของ
ยของจ
ยของผ
ยของพระบาทสมเด
ยของพระองค
ยของพระเจ
ยของร
ยของส
ยของสมเด
ยขอนแก
ยค
ยคต
ยคร
ยความร
ยคอมมอนส
ยง
ยงก
ยงกล
ยงการออกเส
ยงข
ยงของ
ยงค
ยงคนเด
ยงคร
ยงคำ
ยงจ
ยงช
ยงชน
ยงซ
ยงด
ยงดนตร
ยงดาว
ยงต
ยงตามลำด
ยงถ
ยงท
ยงทอง
ยงธรรม
ยงน
ยงบ
ยงป
ยงประชามต
ยงผ
ยงพ
ยงพย
ยงพระองค
ยงพอ
ยงพอต
ยงพอท
ยงพากย
ยงภาษาญ
ยงม
ยงมากท
ยงย
ยงยาง
ยงร
ยงระด
ยงราย
ยงล
ยงลำด
ยงลำพ
ยงว
ยงวรรณย
ยงศ
ยงส
ยงสน
ยงสป
ยงสระ
ยงสา
ยงห
ยงหน
ยงหร
ยงหล
ยงอ
ยงอย
ยงฮ
ยงเก
ยงเข
ยงเคร
ยงเจ
ยงเช
ยงเด
ยงเท
ยงเป
ยงเพ
ยงเพลง
ยงเม
ยงเร
ยงเล
ยงเส
ยงเหน
ยงเหม
ยงแก
ยงแค
ยงแต
ยงแล
ยงแสน
ยงแห
ยงโด
ยงโดย
ยงใจย
ยงใด
ยงใต
ยงให
ยงใหม
ยงไกร
ยงได
ยงไม
ยงไว
ยงไฮ
ยจ
ยจคร
ยจะม
ยฉ
ยช
ยชนะ
ยชนะท
ยชนะเหน
ยซ
ยญ
ยญกษาปณ
ยญจ
ยญช
ยญด
ยญท
ยญทอง
ยญทองแดง
ยญธรรม
ยญพ
ยญร
ยญรางว
ยญราชการชายแดน
ยญราชร
ยญล
ยญสหร
ยญเง
ยญโอล
ยณอาย
ยด
ยดก
ยดช
ยดด
ยดต
ยดท
ยดนาม
ยดนามท
ยดนามเหน
ยดนามใต
ยดม
ยดส
ยดอ
ยดาย
ยดเก
ยดเบ
ยดเป
ยดเพ
ยต
ยตต
ยตท
ยตะว
ยตได
ยถ
ยท
ยทร
ยธ
ยธรรม
ยธรรมชาต
ยธรรมศาสตร
ยธรรมาธ
ยธาน
ยน
ยนก
ยนกร
ยนกล
ยนกลาง
ยนการ
ยนการสอน
ยนการสอนท
ยนการสอนในระด
ยนข
ยนขนาด
ยนขนาดฟอนต
ยนค
ยนคร
ยนความค
ยนความร
ยนจ
ยนจาก
ยนช
ยนชน
ยนซ
ยนด
ยนต
ยนถ
ยนท
ยนทอง
ยนทางมาท
ยนน
ยนนวน
ยนนวม
ยนนา
ยนนานาชาต
ยนนายร
ยนนายเร
ยนบ
ยนบด
ยนบท
ยนบทภาพยนตร
ยนบทโดย
ยนป
ยนปร
ยนประถมศ
ยนประว
ยนผ
ยนฝ
ยนพ
ยนพรรคการเม
ยนพระปร
ยนฟ
ยนภาษาอ
ยนม
ยนมา
ยนมาร
ยนมาเป
ยนมาใช
ยนย
ยนร
ยนระด
ยนราช
ยนราชว
ยนราษฎร
ยนล
ยนลำด
ยนว
ยนศ
ยนศร
ยนส
ยนสตร
ยนสมการคณ
ยนสวนก
ยนสาธ
ยนสำหร
ยนห
ยนหญ
ยนหน
ยนหม
ยนหร
ยนหล
ยนอ
ยนอน
ยนอย
ยนอร
ยนอาช
ยนฮ
ยนา
ยนาท
ยนานาชาต
ยนาม
ยนเก
ยนเกมส
ยนเข
ยนเคร
ยนเจ
ยนเช
ยนเซนต
ยนเด
ยนเต
ยนเตร
ยนเท
ยนเทพศ
ยนเทศบาล
ยนเน
ยนเบ
ยนเป
ยนเพ
ยนเม
ยนเร
ยนเรศวร
ยนเล
ยนเส
ยนเสนาธ
ยนแต
ยนแถบเมน
ยนแบบ
ยนแปลง
ยนแปลงการปกครอง
ยนแปลงช
ยนแปลงฐานะของส
ยนแปลงท
ยนแปลงพ
ยนแปลงร
ยนแปลงสภาพภ
ยนแปลงอย
ยนแปลงเขตตำบลในท
ยนแปลงได
ยนแปลงไป
ยนแผ
ยนแพทย
ยนแล
ยนแห
ยนแอร
ยนโจว
ยนโดย
ยนโรงเร
ยนในจ
ยนในช
ยนในตลาดหล
ยนในบ
ยนในป
ยนในระด
ยนในส
ยนในโรงเร
ยนให
ยนใหญ
ยนใหม
ยนได
ยนไป
ยนไปเป
ยนไปใช
ยนไม
ยนไว
ยบ
ยบก
ยบข
ยบง
ยบด
ยบต
ยบท
ยบน
ยบบร
ยบพล
ยบภาษาจ
ยบภาษาบาล
ยบภาษาส
ยบภาษาเขมร
ยบร
ยบว
ยบส
ยบหร
ยบเค
ยบเท
ยบเป
ยบเร
ยบเสม
ยบเหม
ยบได
ยบไม
ยป
ยปร
ยประช
ยประมาณ
ยผ
ยฝ
ยพ
ยพงษ
ยพร
ยพระบาทสมเด
ยพระเจ
ยพฤกษ
ยพล
ยพะเยา
ยฟ
ยภ
ยภาษ
ยภาษาญ
ยภาษาอ
ยม
ยมก
ยมการนำเสนองานพร
ยมข
ยมค
ยมความพร
ยมงคล
ยมจ
ยมจากว
ยมช
ยมซ
ยมณ
ยมด
ยมต
ยมถ
ยมท
ยมทหาร
ยมน
ยมบ
ยมปฏ
ยมประจำเด
ยมประเพณ
ยมปล
ยมปากแม
ยมผ
ยมพ
ยมพร
ยมม
ยมมากท
ยมย
ยมร
ยมราฐ
ยมล
ยมว
ยมศ
ยมส
ยมสร
ยมสำหร
ยมห
ยมหร
ยมหาจ
ยมหาสารคาม
ยมอ
ยมอย
ยมาก
ยมากกว
ยมเข
ยมเช
ยมเป
ยมเพ
ยมเย
ยมเร
ยมเล
ยมและร
ยมแห
ยมโซเว
ยมใช
ยมในหม
ยมให
ยมได
ยมไม
ยมไว
ยย
ยยศ
ยยศเป
ยร
ยรต
ยรส
ยระด
ยระหว
ยราชนาร
ยราชภ
ยราชวงศ
ยราชอ
ยรามคำแหง
ยล
ยลก
ยลม
ยลล
ยว
ยวก
ยวข
ยวค
ยวงศ
ยวงษ
ยวจ
ยวจากว
ยวช
ยวชาญ
ยวชาญด
ยวซ
ยวด
ยวต
ยวถ
ยวท
ยวน
ยวบ
ยวป
ยวผ
ยวพ
ยวม
ยวย
ยวยาว
ยวร
ยวรม
ยวล
ยวว
ยวศร
ยวส
ยวห
ยวหน
ยวหร
ยวอ
ยวอย
ยวะ
ยวะท
ยวะส
ยวเข
ยวเช
ยวเด
ยวเท
ยวเน
ยวเป
ยวเพ
ยวเม
ยวเร
ยวเล
ยวเส
ยวเหล
ยวเอ
ยวแก
ยวแล
ยวและก
ยวแห
ยวโกะ
ยวโต
ยวให
ยวได
ยวไม
ยศ
ยศย
ยศร
ยศส
ยศาสตร
ยศเป
ยส
ยสก
ยสงขลานคร
ยสงคราม
ยสงครามโลกคร
ยสงฆ
ยสต
ยสท
ยสม
ยสมรภ
ยสมเด
ยสละ
ยสาม
ยสำค
ยสำหร
ยห
ยหน
ยหม
ยหร
ยหล
ยหว
ยหาย
ยหายต
ยหายท
ยหายอย
ยหายแก
ยหายให
ยอ
ยอง
ยอด
ยอดจำหน
ยอดน
ยอดผ
ยอดร
ยอดเย
ยอน
ยอม
ยอมร
ยอมแพ
ยอมให
ยอย
ยอร
ยอห
ยออกซฟอร
ยอา
ยอาคเนย
ยอาช
ยอำนาจตามความในมาตรา
ยฮ
ยฮาร
ยฯ
ยะ
ยะก
ยะดา
ยะท
ยะร
ยะลา
ยะส
ยะห
ยะฮ
ยา
ยาก
ยากท
ยากร
ยาค
ยาง
ยางค
ยาจ
ยาช
ยาซ
ยาซาก
ยาด
ยาต
ยาท
ยาน
ยานนท
ยาบ
ยาปฏ
ยาภรณ
ยาม
ยามช
ยามท
ยามว
ยามะ
ยามใน
ยาย
ยายช
ยายท
ยายว
ยายเร
ยาร
ยาราม
ยาล
ยาว
ยาวกว
ยาวท
ยาวนาน
ยาวประมาณ
ยาส
ยาห
ยาอ
ยาเคม
ยาเสพต
ยาแก
ยเก
ยเกษตรศาสตร
ยเข
ยเคมบร
ยเง
ยเจ
ยเจร
ยเฉล
ยเช
ยเซ
ยเด
ยเต
ยเตอร
ยเถ
ยเท
ยเทคน
ยเทคโนโลย
ยเน
ยเป
ยเปร
ยเพ
ยเม
ยเยาว
ยเร
ยเล
ยเส
ยเหต
ยเหน
ยเหม
ยเหล
ยเอ
ยเอง
ยแก
ยแคล
ยแชมป
ยแต
ยแปซ
ยแพทยศาสตร
ยแม
ยแรก
ยแล
ยและน
ยและนว
ยและพ
ยและม
ยและอ
ยและเฮอร
ยแห
ยแอร
ยโก
ยโน
ยโบราณ
ยโลก
ยโลกฤด
ยโสธร
ยใจ
ยใช
ยใต
ยใน
ยในช
ยในท
ยในป
ยในย
ยในว
ยในโอล
ยให
ยใหม
ยได
ยไป
ยไปย
ยไม
ยไว
ร
รก
รการ
รค
รงค
รจ
รฉ
รช
รญาณ
รญาณวโรรส
รณ
รณปฏ
รณรงค
รณะ
รณะว
รณาการ
รณาญาส
รด
รต
รตซ
รถ
รถจ
รถด
รถต
รถถ
รถท
รถบรรท
รถยนต
รถาภรณ
รถไฟ
รถไฟช
รถไฟท
รถไฟฟ
รถไฟใต
รท
รน
รนต
รนาร
รบ
รบก
รป
รพ
รพงษ
รพล
รพา
รฟม
รภ
รม
รมงก
รมย
รย
รร
รว
รวงศ
รวด
รวดเร
รวบรวม
รวม
รวมก
รวมต
รวมถ
รวมท
รวมผลสองน
รวมพ
รวมม
รวมร
รวมศ
รวมส
รวมอย
รวมอาย
รวมเข
รวมเป
รวมเร
รวมแล
รวมไปถ
รวรรณ
รศ
รษะ
รส
รสชาต
รสเปร
รห
รอ
รอง
รองชนะเล
รองนายกร
รองปล
รองผ
รองร
รองศาสตราจารย
รองห
รองอ
รองอธ
รองเจ
รองเท
รองเลขาธ
รองแชมป
รอด
รอดช
รอดพ
รอตเทนโทเมโทส
รอน
รอบ
รอบก
รอบค
รอบช
รอบต
รอบท
รอบรองชนะเล
รอบส
รอบเพลย
รอบแบ
รอบแพ
รอบแรก
รอย
รอว
รอสส
รอาน
รอานภาษาไทย
รอเบ
ระ
ระก
ระกา
ระฆ
ระง
ระงะนะ
ระช
ระด
ระท
ระน
ระนอง
ระบ
ระบบ
ระบบข
ระบบควบค
ระบบด
ระบบท
ระบบน
ระบบปฏ
ระบบภ
ระบบร
ระบบส
ระบบสถ
ระบบอ
ระพ
ระม
ระย
ระยอง
ระยะ
ระยะท
ระยะทาง
ระยะทางประมาณ
ระยะส
ระยะห
ระยะหน
ระยะเวลา
ระล
ระว
ระศ
ระส
ระหว
ระอ
ระเบ
รา
ราก
รากศ
รากอ
ราค
ราคา
ราคาถ
ราคาส
ราง
รางค
รางว
ราจ
ราช
ราชก
ราชการ
ราชดำเน
ราชท
ราชน
ราชนาว
ราชบ
ราชพยาบาล
ราชม
ราชมงคล
ราชมงคลล
ราชย
ราชร
ราชว
ราชวงศ
ราชส
ราชสก
ราชสมบ
ราชสำน
ราชอาณาจ
ราชฯ
ราชา
ราชาธ
ราชาภ
ราชเจ
ราซ
ราด
ราตร
ราธ
ราน
ราบ
ราบล
ราบส
ราพ
ราฟ
ราฟาเอล
ราม
รามางก
รามาธ
ราย
รายการ
รายการท
รายการน
รายการแข
รายการโทรท
รายงานข
รายงานทะเบ
รายงานว
รายงานสถ
รายจ
รายช
รายพระนามพระมหากษ
รายละเอ
รายว
รายส
รายได
ราร
ราล
ราลงกรณ
ราว
ราวก
ราวป
ราศ
ราษฎร
ราห
ราอ
ราเซ
รำล
รเกล
รเดช
รเตโช
ฤ
ฤกษ
ฤด
ฤทธ
ฤๅษ
ล
ลก
ลกร
ลกรรต
ลกรรมวาจกป
ลกรรมวาจกอด
ลกระหม
ลกล
ลกลางทางว
ลกอร
ลกากร
ลการ
ลการจำแนกพ
ลข
ลของ
ลของน
ลของพ
ลของส
ลค
ลคร
ลง
ลงช
ลงต
ลงท
ลงทะเบ
ลงพ
ลงม
ลงมต
ลงร
ลงว
ลงสม
ลงเขาในโอล
ลงเร
ลงเล
ลงแข
ลจ
ลจอมเกล
ลจาก
ลจากการแข
ลช
ลชนะเล
ลชมเชย
ลซ
ลด
ลดลง
ลดอร
ลดา
ลดาว
ลต
ลตร
ลตะ
ลตามเง
ลถ
ลท
ลทซ
ลทร
ลทรรศน
ลธรรม
ลธรรมอ
ลน
ลนาฏราช
ลบ
ลบร
ลบอทเท
ลบอร
ลบางเซลล
ลบาโอ
ลบแผ
ลป
ลปกรรม
ลปกรรมศาสตร
ลปมาลาของ
ลประชากร
ลปว
ลปศาสตร
ลปศาสตรบ
ลปศาสตรมหาบ
ลปอาชา
ลปะ
ลปะการต
ลปะการแสดง
ลปะท
ลปะร
ลปะล
ลปะสม
ลปะอ
ลปะและว
ลปากร
ลปากรได
ลปาคม
ลผ
ลพ
ลพบ
ลพระกร
ลพระเจ
ลพาท
ลพาราล
ลฟ
ลฟอนโซท
ลฟา
ลภ
ลภาพยนตร
ลภาษาถ
ลม
ลมพ
ลมาดร
ลมาร
ลย
ลยราชสมบ
ลยา
ลยาณ
ลยาณม
ลยเดช
ลยเดชมหาราช
ลยแพทย
ลร
ลรองชนะเล
ลระหว
ลล
ลลภ
ลลอห
ลลอฮ
ลละ
ลละอองธ
ลลา
ลลาร
ลลาห
ลลำด
ลว
ลวงศ
ลวา
ลวาดอร
ลศ
ลส
ลสงคราม
ลสตร
ลสถ
ลสมเด
ลสำหร
ลห
ลหน
ลหร
ลหล
ลอ
ลอง
ลอตต
ลอน
ลอนดอน
ลอย
ลอยด
ลอร
ลอว
ลอส
ลอสแอนเจล
ลออสการ
ลฮ
ลฮาร
ละ
ละกล
ละข
ละค
ละคน
ละคร
ละครช
ละครเร
ละครเวท
ละครโทรท
ละจ
ละช
ละชน
ละด
ละต
ละท
ละน
ละบ
ละป
ละประเทศ
ละฝ
ละม
ละร
ละว
ละส
ละหน
ละอ
ละอย
ละเขตเล
ละเซลล
ละเม
ละเอ
ละแห
ลา
ลาก
ลากจากข
ลากจากตะว
ลากผ
ลาการ
ลาการร
ลาการศาลร
ลาคม
ลาจาร
ลาซ
ลาด
ลาดพร
ลาต
ลาท
ลาน
ลานนท
ลาบ
ลาม
ลาย
ลาร
ลาฤกษ
ลาล
ลาว
ลาศ
ลาส
ลาสเวก
ลาอ
ลาออก
ลาออกจากตำแหน
ลาเดลเฟ
ลาเวซ
ลาแลง
ลำ
ลำด
ลำต
ลำน
ลำปาง
ลำพ
ลำห
ลำไส
ลเก
ลเกล
ลเข
ลเง
ลเจ
ลเช
ลเซ
ลเด
ลเดมาร
ลเดอร
ลเท
ลเทนน
ลเทอร
ลเบ
ลเบร
ลเบอร
ลเป
ลเพ
ลเฟรด
ลเม
ลเมขลา
ลเมเน
ลเร
ลเล
ลเลต
ลเลน
ลเลอร
ลเละ
ลเว
ลเวท
ลเวอร
ลเวเน
ลเส
ลเหต
ลเหร
ลเหล
ลเอ
ลเฮ
ลเฮล
ลแก
ลแกรมม
ลแกเร
ลแต
ลแบ
ลแบร
ลแผ
ลแมน
ลแมปส
ลแรก
ลแล
ลและการเล
ลแห
ลโด
ลโดยการใช
ลโทรท
ลโล
ลโอล
ลใน
ลในตาราง
ลในป
ลในเซลล
ลในแต
ลในแผ
ลในแผนภ
ลให
ลใหญ
ลใหม
ลไซเมอร
ลได
ลไทย
ลไม
ลไฮเนส
ฦ
ว
วก
วกร
วกระดาษ
วกระต
วกล
วกลาง
วกว
วการ
วข
วของ
วของด
วของต
วของท
วของน
วของผ
วของม
วของว
วของอ
วของเขา
วของโคว
วขาว
วค
วคร
วคราว
วคล
วควบค
วคอล
วคาสเซ
วง
วงก
วงกลางป
วงการบ
วงข
วงค
วงคร
วงจ
วงช
วงซ
วงด
วงดนตร
วงต
วงท
วงทศวรรษ
วงทศวรรษท
วงน
วงบ
วงป
วงปลายคร
วงปลายป
วงปลายเด
วงพ
วงม
วงมาตรฐาน
วงย
วงร
วงระหว
วงฤด
วงล
วงละเม
วงว
วงศ
วงศตวรรษท
วงษ
วงส
วงสงครามโลกคร
วงสม
วงห
วงหน
วงหล
วงอ
วงอาย
วงาม
วงเก
วงเข
วงเช
วงเด
วงเป
วงเร
วงเล
วงเว
วงเวลา
วงเวลาด
วงเวลาท
วงเวลาน
วงเวลาส
วงเวลาเด
วงแบบจ
วงแบบหนง
วงแรก
วงโซ
วงได
วงไม
วจ
วจร
วจะต
วจะม
วจะเป
วจะได
วจะไม
วฉ
วช
วชน
วซ
วณ
วด
วดำ
วดำเน
วต
วตน
วตนจร
วตนท
วตร
วตรอน
วตาย
วถ
วท
วทรงพระกร
วทอง
วทำให
วน
วนก
วนกล
วนกลาง
วนข
วนของ
วนของร
วนของหม
วนค
วนคำว
วนจ
วนช
วนซ
วนด
วนต
วนตำบล
วนตำบลท
วนตำบลบ
วนตำบลว
วนตำบลห
วนถ
วนท
วนทำให
วนน
วนบ
วนบร
วนป
วนประกอบ
วนประกอบของฟ
วนประกอบของหน
วนประกอบของแผนภ
วนประกอบของโปรแกรม
วนประกอบท
วนผ
วนพ
วนพระมหากษ
วนพระองค
วนภ
วนม
วนมาก
วนมากม
วนมากเป
วนย
วนร
วนรวม
วนราชการ
วนราชการท
วนล
วนว
วนส
วนสำค
วนห
วนหน
วนหร
วนหล
วนอ
วนอย
วนะ
วนา
วนาราม
วนำ
วนำยวดย
วนเก
วนเคร
วนเจ
วนเช
วนเด
วนเท
วนเน
วนเป
วนเพ
วนเม
วนเร
วนเส
วนแต
วนแทรก
วนแบ
วนแล
วนโค
วนให
วนใหญ
วนได
วนไม
วบ
วบร
วบา
วบาน
วป
วปร
วประก
วประมาณ
วประว
วประเทศ
วปล
วผ
วผล
วฝ
วพ
วพบว
วพร
วพระองค
วพระเจ
วฟ
วภ
วภาพ
วม
วมก
วมกล
วมการประกวดม
วมการแข
วมข
วมค
วมคนส
วมงาน
วมงานก
วมจ
วมช
วมณ
วมด
วมต
วมถ
วมท
วมน
วมบ
วมประช
วมประชาธ
วมผล
วมฝ
วมพ
วมม
วมร
วมรากก
วมส
วมสม
วมสร
วมห
วมอ
วมอย
วมาก
วมากกว
วมาเป
วมเข
วมเช
วมเด
วมเป
วมเพศ
วมเล
วมแข
วมแสดงก
วย
วยก
วยกฎหมาย
วยกระเบ
วยกล
วยกองท
วยการก
วยการค
วยการจ
วยการต
วยการถ
วยการท
วยการบร
วยการป
วยการพ
วยการย
วยการร
วยการส
วยการเข
วยการเป
วยการเล
วยการใช
วยการให
วยกำล
วยข
วยขวาง
วยค
วยคร
วยความช
วยความท
วยความม
วยความร
วยความส
วยความเป
วยความเร
วยคะแนน
วยคะแนนเส
วยคำว
วยงาน
วยงานของร
วยงานด
วยงานต
วยงานท
วยงานร
วยงานอ
วยจ
วยช
วยซ
วยด
วยต
วยตนเอง
วยตาเปล
วยถ
วยท
วยทำให
วยน
วยนม
วยบ
วยบร
วยป
วยปฏ
วยปร
วยประการใด
วยผ
วยฝ
วยพ
วยพระราชทาน
วยพระราชทานประเภท
วยพระองค
วยพระเจ
วยพล
วยฟ
วยภ
วยภาพ
วยม
วยย
วยร
วยระเบ
วยรางว
วยราชการ
วยราชการเขตภายใน
วยล
วยว
วยศ
วยศาสตราจารย
วยส
วยสมาช
วยสมเด
วยสร
วยห
วยหน
วยหม
วยหร
วยหล
วยอ
วยองค
วยอธ
วยอน
วยอย
วยอร
วยอาย
วยอาว
วยอำเภอเม
วยเก
วยเกล
วยเข
วยเคร
วยเง
วยเจ
วยเช
วยเด
วยเต
วยเท
วยเน
วยเป
วยเพ
วยเพลง
วยเม
วยเร
วยเล
วยเลขาน
วยเส
วยเหต
วยเหล
วยเอ
วยแก
วยแต
วยแปลข
วยแผ
วยแม
วยแล
วยโรคมะเร
วยในการวาดภาพ
วยให
วยไข
วยได
วยไม
วยไว
วร
วรข
วรณ
วรน
วรพ
วรรค
วรรคสอง
วรรคสาม
วรรคหน
วรรณ
วรรณกรรม
วรรณค
วรรณคด
วรรณภ
วรรณย
วรรณร
วรรณศ
วรรณส
วรว
วรวรรณ
วรส
วระหว
วราชอาณาจ
วราราม
วราว
วรเดช
วล
วลง
วละคร
วละครจากการ
วละครจากเร
วละครต
วละครท
วละครน
วละครหล
วละครอ
วละครในเร
วลาด
วลาล
วลำภ
วลำโพง
วว
วศ
วส
วสต
วสร
วสำหร
วห
วหน
วหนา
วหม
วหมาก
วหย
วหร
วหล
วอ
วอก
วอช
วอทช
วอน
วอย
วอยซ
วอร
วอล
วอลต
วอลล
วอลเตอร
วอลเลย
วออร
วอาย
วอเตอร
วฮ
วฯ
วะ
วะระ
วา
วาก
วาง
วางจำหน
วางต
วางศ
วางแนวข
วางใจ
วางไข
วางไว
วาจกป
วาจกอด
วาจกอนาคตกาลพห
วาจกอนาคตกาลเอกพจน
วาซ
วาณ
วาด
วาดร
วาต
วาตานาเบะ
วาท
วาทก
วาน
วานนท
วาย
วาร
วาระ
วาระการดำรงตำแหน
วาล
วาส
วาสนา
วาสราชนคร
วาห
วเก
วเข
วเขา
วเขาก
วเคม
วเคร
วเคล
วเง
วเจ
วเจอร
วเฉ
วเช
วเซ
วเซย
วเซลล
วเซอร
วเด
วเดล
วเต
วเตมาลา
วเตอร
วเท
วเน
วเบ
วเป
วเปล
วเผ
วเพ
วเม
วเร
วเรซ
วเราะ
วเราเอง
วเล
วเลข
วเลขท
วเลขอย
วเลขแสดงลำด
วเว
วเส
วเสด
วเสร
วเห
วเหน
วเหม
วเหล
วเอ
วเอกของเร
วเอง
วเองก
วเองด
วเองท
วเองว
วเองอย
วเองเป
วเองให
วเองได
วเอน
วเอนและข
วเอเช
วแก
วแดง
วแต
วแทน
วแทนท
วแน
วแปร
วแม
วแล
วและม
วแห
วโก
วโคน
วโต
วโน
วโนสไอเรส
วโปรดเกล
วโปรดให
วโมง
วโมงต
วโลก
วโลกท
วโลกเหน
วโลกใต
วใจ
วใจท
วใจร
วใจล
วใจส
วใจห
วใจเต
วใช
วใต
วใน
วในช
วในตอนท
วในท
วในป
วในภาพยนตร
วในร
วในว
วในอ
วในเด
วใส
วให
วใหญ
วใหม
วได
วไป
วไปก
วไปค
วไปด
วไปต
วไปท
วไปน
วไปม
วไปย
วไปร
วไปว
วไปส
วไปอย
วไปเป
วไปแล
วไปได
วไฟฟ
วไม
วไว
วไหล
วๆ
ศ
ศก
ศการแข
ศจ
ศจรรย
ศณ
ศด
ศดอตอ
ศต
ศตว
ศตวรรษ
ศตวรรษท
ศตะว
ศท
ศทาง
ศทางท
ศทางเด
ศน
ศนคต
ศนศ
ศนา
ศนาท
ศพ
ศฟ
ศม
ศย
ศร
ศรา
ศรางก
ศราน
ศรเสนา
ศล
ศลท
ศว
ศวกร
ศวกรรม
ศวกรรมศาสตร
ศวกรรมอ
ศวกรรมเคร
ศวกรรมโยธา
ศวกรรมไฟฟ
ศวง
ศวร
ศวาส
ศศ
ศส
ศหล
ศอ
ศอก
ศา
ศาจ
ศาจท
ศานต
ศาล
ศาลจ
ศาลฎ
ศาลม
ศาลร
ศาลส
ศาลอ
ศาลาการเปร
ศาลเจ
ศาสตร
ศาสตรบ
ศาสตราจารย
ศาสน
ศาสนา
ศาสนาคร
ศาสนาพ
ศาสนาอ
ศเป
ศเหน
ศแห
ศโมโจ
ศใต
ศให
ศได
ษ
ษจ
ษฎ
ษฎากร
ษฏ
ษฐ
ษฐา
ษฐาธ
ษฐาน
ษฐานท
ษฐานพระพ
ษฐานว
ษฐานอย
ษฐานไว
ษณ
ษต
ษท
ษน
ษบา
ษผ
ษย
ษยชน
ษยชนแห
ษยชาต
ษยว
ษยศาสตร
ษยา
ษร
ษส
ษา
ส
สก
สกร
สกรรม
สกล
สกลนคร
สกว
สกอตต
สกอตแลนด
สกอร
สกา
สกายวอล
สการ
สข
สค
สคร
สคอนซ
สง
สงกรานต
สงขลา
สงคราม
สงครามกลางเม
สงครามคร
สงครามอ
สงครามโลกคร
สงฆ
สงบ
สงวน
สงวนและค
สงส
สจ
สจาก
สช
สซ
สซา
สด
สดาร
สดใส
สต
สตกาล
สตจ
สตธรรมค
สตร
สตอร
สตา
สตางค
สตาด
สตาฟ
สตาร
สตาล
สถ
สถาน
สถานกงส
สถานการณ
สถานท
สถานศ
สถานะเป
สถานเอกอ
สถาบ
สถาป
สถาปน
สถาปนาข
สถามว
สท
สทร
สธรรมชาต
สน
สนธ
สนพ
สนาม
สนามก
สนามท
สนามบ
สนามฟ
สนามศ
สนามหลวง
สนามเหย
สนามแข
สนามแม
สนามแห
สนใจ
สบ
สบด
สบอน
สบาย
สป
สปร
สประเทศ
สปอร
สปาร
สผ
สพ
สพฐ
สพป
สพม
สพระธรรมเทศนาน
สฟ
สภา
สภากร
สภากาชาดไทย
สภาจ
สภาท
สภาน
สภาผ
สภาพท
สภาพพ
สภาพภ
สภาพเป
สภาพแวดล
สภามหาว
สภาร
สภาว
สภาส
สภาแห
สม
สมก
สมค
สมควร
สมควรแก
สมจร
สมชาย
สมด
สมบ
สมผล
สมพงษ
สมภพ
สมม
สมมต
สมร
สมรภ
สมรส
สมรสก
สมศ
สมหว
สมอง
สมอร
สมาคม
สมาคมก
สมาคมน
สมาคมผ
สมาคมฟ
สมาช
สมาธ
สมาน
สมาพ
สมาร
สมาอ
สมเก
สมเด
สมเหต
สมโภชน
สย
สยองขว
สยา
สยาม
สยามก
สยามบรมราชก
สยามมก
สยามร
สยามสปอร
สยามสแควร
สยามอ
สยามโซน
สร
สรณ
สรพงศ
สรภาพ
สรรพค
สรรพส
สรรพสาม
สรรเสร
สรอฟ
สระ
สระท
สระน
สระบ
สระแก
สรา
สราเอล
สราเอลท
สฤษด
สล
สละแชมป
สลาม
สลามอ
สลายต
สว
สวด
สวน
สวนก
สวนน
สวนส
สวมช
สวมเส
สวมใส
สวย
สวยงาม
สวร
สวรรค
สวรรคต
สวอนซ
สวางคว
สส
สสต
สสนา
สสร
สสะ
สสาวะ
สสาอ
สสำหร
สห
สหกรณ
สหประชาชาต
สหพ
สหภาพย
สหภาพโซเว
สหร
สหราชอาณาจ
สหว
สหส
สอ
สอง
สองก
สองข
สองของ
สองค
สองคร
สองช
สองต
สองท
สองน
สองป
สองพ
สองม
สองร
สองว
สองส
สองอย
สองเป
สองเม
สองเอกพจน
สองไม
สอด
สอดคล
สอน
สอนว
สอนให
สอบได
สอบไล
สอย
สอร
สะ
สะกดผ
สะด
สะดวก
สะต
สะท
สะบ
สะพาน
สะพานข
สะพานม
สะม
สะอาด
สะเกษ
สะเท
สะใภ
สา
สากล
สาขบ
สาขา
สาขาท
สาขาน
สาขาผ
สาขาภาพยนตร
สาขาย
สาขาร
สาขาว
สาขาศ
สาขาส
สาขาเคม
สาคร
สาธ
สาธารณร
สาธารณส
สาธารณะ
สาน
สานต
สานท
สาม
สามก
สามของ
สามช
สามต
สามท
สามป
สามม
สามว
สามส
สามารถ
สามารถก
สามารถกล
สามารถข
สามารถค
สามารถคว
สามารถควบค
สามารถจ
สามารถช
สามารถด
สามารถดำเน
สามารถต
สามารถถ
สามารถท
สามารถทำให
สามารถทำได
สามารถบ
สามารถป
สามารถปฏ
สามารถปร
สามารถปล
สามารถผ
สามารถผล
สามารถพ
สามารถพบได
สามารถม
สามารถมองเห
สามารถย
สามารถร
สามารถรองร
สามารถระบ
สามารถว
สามารถส
สามารถสร
สามารถหมายถ
สามารถอ
สามารถอธ
สามารถเก
สามารถเข
สามารถเคล
สามารถเช
สามารถเด
สามารถเป
สามารถเปล
สามารถเพ
สามารถเร
สามารถเล
สามารถเห
สามารถแก
สามารถแบ
สามารถใช
สามารถให
สามเณร
สามเหล
สามเอกพจน
สาย
สายการบ
สายท
สายน
สายพ
สายฟ
สายร
สายล
สายส
สายอ
สายเล
สาร
สารก
สารคด
สารต
สารท
สารน
สารบ
สารพ
สารว
สารส
สารสนเทศ
สารสนเทศและการส
สาระ
สาระน
สาระสำค
สาราน
สารเคม
สาล
สาว
สาวน
สาวร
สาวๆ
สาส
สาหก
สาหร
สาเหต
สำค
สำน
สำนวน
สำมะโนของสาธารณร
สำร
สำราญ
สำหร
สำเน
สำเนาท
สำเร
สเก
สเข
สเช
สเซ
สเซน
สเซล
สเซลล
สเซลส
สเซอร
สเซา
สเด
สเต
สเตช
สเตต
สเตฟาน
สเตร
สเตอร
สเตเด
สเท
สเบ
สเป
สเปน
สเปอร
สเปเช
สเพ
สเม
สเร
สเล
สเว
สเหน
สเอ
สแก
สแกรนด
สแควร
สแต
สแตนด
สแตนล
สแล
สแลม
สแห
สโก
สโคโรนา
สโซ
สโต
สโตน
สโตร
สโตเต
สโตเฟอร
สโนว
สโมสร
สโมสรก
สโมสรท
สโมสรน
สโมสรฟ
สโมสรวอลเลย
สโมสรเข
สโมสรโลก
สโมสรได
สโลว
สโลวาเก
สโสล
สในป
สให
สได
สไตน
สไตล
สไทยแลนด
สไปเดอร
สไม
สไว
ห
หก
หง
หงษ
หงส
หญ
หต
หท
หน
หนวด
หนองคาย
หนองบ
หนา
หนาน
หนาม
หนายก
หนาว
หนาแน
หม
หมด
หมดส
หมดอาย
หมวก
หมวด
หมวดท
หมวดหม
หมอ
หมอก
หมอช
หมอบร
หมา
หมากร
หมาป
หมาย
หมายความรวมถ
หมายความว
หมายถ
หมายเลข
หมายเลขหน
หมายเหต
หย
หยวน
หยาง
หร
หรา
หล
หลง
หลงร
หลงเหล
หลบหน
หลวง
หลวงจ
หลวงป
หลวงพ
หลวงพระบาง
หลวงว
หลวงส
หลอดเล
หลา
หลากหลาย
หลาน
หลาบ
หลาบว
หลาย
หลายคน
หลายคร
หลายช
หลายชน
หลายต
หลายท
หลายป
หลายร
หลายว
หลายส
หลายสม
หลายอย
หลายเร
หลายแบบ
หลายแห
หว
หวง
หวาน
หอ
หอด
หอประช
หอพ
หอม
หอระฆ
หอศ
หอสม
หอสวดมนต
หอเก
หะระต
หา
หาก
หากค
หากต
หากท
หากผ
หากพบป
หากม
หากว
หากเป
หากแต
หากไม
หาความหมาย
หาง
หาดใหญ
หาท
หาน
หาบ
หาม
หาย
หายต
หายสาบส
หายไป
หาร
หารก
หารการทะเบ
หารการศ
หารจ
หารด
หารท
หารธ
หารน
หารบร
หารพ
หารพรรค
หารม
หารร
หารระด
หารราชการแผ
หารราชการในสถานการณ
หารว
หารศาสตร
หารส
หารอ
หารเป
หารแห
หารโรงเร
หาว
หาได
หาไม
หเทศาภ
หเสนา
ฬ
ฬา
ฬากร
ฬากลางจ
ฬาข
ฬาจ
ฬาซ
ฬาต
ฬาท
ฬาน
ฬาพาราล
ฬาฟ
ฬาภรณ
ฬาภรณราชว
ฬาภรณวล
ฬาม
ฬามณ
ฬามหาว
ฬาย
ฬาร
ฬาล
ฬาลงกรณ
ฬาลงกรณราชว
ฬาว
ฬาวอลเลย
ฬาส
ฬาสก
ฬาสถาน
ฬาสม
ฬาอ
ฬาฮอกก
ฬาฯ
ฬาเข
ฬาเทคว
ฬาเยาวชนแห
ฬาเร
ฬาเวมบล
ฬาเอเช
ฬาแห
ฬาโลก
ฬาโลกมหาราช
ฬาโอล
ฬาในร
อ
อก
อกก
อกข
อกค
อกจ
อกช
อกซ
อกด
อกต
อกท
อกน
อกบ
อกปฏ
อกผ
อกพ
อกพาราล
อกฟอนต
อกม
อกร
อกรก
อกรณ
อกรรม
อกระด
อกระต
อกระหว
อกล
อกลอง
อกว
อกษ
อกส
อกสมาช
อกห
อกหน
อกอ
อกองท
อกอย
อการ
อการก
อการกำเร
อการค
อการจ
อการด
อการดำเน
อการต
อการถ
อการท
อการน
อการบ
อการบร
อการป
อการปฏ
อการผล
อการพ
อการฟ
อการม
อการย
อการร
อการว
อการศ
อการส
อการสร
อการอ
อการอน
อการเก
อการเข
อการเคล
อการเด
อการเป
อการเปล
อการเม
อการเร
อการเล
อการแข
อการแพทย
อการใช
อการให
อการได
อกำจ
อกำป
อกำล
อกำหนด
อกำเน
อกเก
อกเกอร
อกเข
อกเขาห
อกเขาแอลป
อกเซลล
อกเตอร
อกเป
อกเพ
อกเย
อกเร
อกเล
อกเส
อกแข
อกและเคร
อกแอนด
อกโก
อกโกแลต
อกโฮล
อกใช
อกให
อกได
อกไม
อข
อขนส
อขนาดใหญ
อของ
อของจ
อของช
อของต
อของท
อของน
อของบ
อของประเทศ
อของผ
อของม
อของย
อของร
อของล
อของว
อของส
อของอ
อของเขา
อของเจ
อของเม
อขอให
อขาย
อขายก
อขาว
อค
อคก
อคณะร
อคด
อคต
อคน
อคนท
อคนแรก
อคยกท
อคร
อครอบคร
อคล
อคว
อควบค
อความ
อความก
อความค
อความด
อความต
อความท
อความน
อความบางส
อความปลอดภ
อความผ
อความม
อความร
อความลงในสไลด
อความว
อความส
อความสำหร
อความอ
อความเข
อความเช
อความเบ
อความเป
อความเส
อความและการทำงานก
อความโดยการใช
อความโดยอ
อความในตาราง
อความในม
อความในย
อความในสไลด
อความในห
อความในเอกสาร
อความในเอกสารเป
อความให
อความไม
อคอล
อคำว
อคำส
อคแมน
อฆ
อง
องก
องกง
องกร
องกระส
องกล
องกลายเป
องกว
องกาญจนบ
องการ
องการค
องการคงไว
องการจ
องการด
องการต
องการถอดอ
องการท
องการน
องการปกครอง
องการพ
องการร
องการส
องการสร
องการอ
องการเข
องการเป
องการเพ
องการแปลเป
องการใช
องการให
องการได
องกาฬส
องกำเน
องกำแพงเพชร
องข
องขอ
องของ
องของท
องของผ
องของว
องของสไลด
องของอ
องของแถบเคร
องขอนแก
องขอให
องค
องคด
องคมนตร
องคร
องคล
องคลอด
องควบค
องความ
องความร
องคอมพ
องคำน
องฆ
องง
องจ
องจร
องจราจร
องจาก
องจากข
องจากค
องจากช
องจากต
องจากถ
องจากท
องจากน
องจากป
องจากผ
องจากพ
องจากม
องจากย
องจากร
องจากว
องจากส
องจากอ
องจากเก
องจากเป
องจากเหต
องจากได
องจากไม
องฉ
องฉะเช
องช
องชลบ
องชาย
องชาวอ
องชาวอเมร
องชาวเกาหล
องชาวไทย
องซ
องฌ
องด
องดนตร
องดำเน
องต
องตกเป
องตร
องตระก
องตราพระราชบ
องตะนาวศร
องตาก
องตามกฎหมาย
องตาราง
องตารางหร
องถ
องท
องทร
องทอง
องทองธาน
องทำให
องธ
องน
องนคร
องนครจำปาศ
องนครปฐม
องนครพนม
องนครราชส
องนครศร
องนครสวรรค
องนนทบ
องนางเธอ
องนำ
องบ
องบร
องป
องปกต
องปฏ
องปท
องปร
องประช
องประด
องประว
องประสาน
องประสานเส
องปราจ
องปล
องผ
องฝ
องฝร
องพ
องพบก
องพม
องพร
องพระพ
องพระโรง
องพล
องพะเยา
องฟ
องภ
องม
องมร
องมหาสารคาม
องมะร
องมาก
องมาจากพระราชดำร
องมาร
องย
องยนต
องยาเธอ
องยโสธร
องร
องระด
องระนอง
องระวางโทษจำค
องระวางโทษปร
องระหว
องราชบ
องราชอ
องราว
องราวของ
องราวต
องราวท
องราวเก
องล
องลพบ
องละ
องลำปาง
องลำพ
องว
องศ
องศร
องศา
องศาตะว
องศาฟาเรนไฮต
องศาเซลเซ
องศาเหน
องศาใต
องส
องสก
องสกลนคร
องสงขลา
องสงส
องสต
องสนามหลวง
องสม
องสร
องสระบ
องสว
องสอน
องสามก
องสาว
องสำค
องสำหร
องสำอาง
องห
องหงษาวด
องหงสาวด
องหญ
องหน
องหนองคาย
องหนานจ
องหม
องหมาย
องหมายการค
องหมายท
องหมายเลข
องหย
องหร
องหล
องหลวง
องหลวงของจ
องหลวงของร
องหลวงพระบาง
องอ
องอก
องอย
องอาศ
องอเมร
องฮ
องเก
องเข
องเค
องเคร
องเคล
องเง
องเจ
องเช
องเซ
องเซลล
องเด
องเต
องเถ
องเท
องเทศ
องเน
องเบ
องเป
องเปล
องเผช
องเพ
องเพชรบ
องเพลง
องเพลงล
องเพลย
องเม
องเร
องเล
องเลย
องเว
องเส
องเสด
องเสร
องเห
องเหน
องเหม
องเหล
องเอ
องแก
องแข
องแคล
องแจ
องแต
องแบ
องแบบน
องแพร
องแม
องแร
องแรก
องแรกค
องแรกท
องแล
องและน
องและม
องและส
องและแสดงโดยสมาช
องแสง
องแห
องโดย
องโตเก
องโทรท
องโทรทรรศน
องโบราณ
องโลก
องใช
องใด
องใต
องใน
องในจ
องในช
องในป
องในร
องในว
องในส
องในโอกาสพระราชพ
องใส
องให
องใหญ
องใหม
องไซ
องได
องไทย
องไทรบ
องไม
องไว
องไห
องๆ
อจ
อจร
อจะต
อจะม
อจะเป
อจะให
อจะได
อจาก
อจากท
อจากน
อจำก
อจำค
อจำหน
อฉ
อฉบ
อช
อชน
อชาต
อชาวบ
อซ
อญ
อญาต
อด
อดด
อดต
อดท
อดน
อดม
อดร
อดส
อดห
อดอ
อดอล
อดาว
อดำ
อดำน
อดำเน
อดเด
อดเน
อดเป
อดแดง
อต
อตกลงก
อตซ
อตต
อตร
อตระก
อตา
อตาม
อตามท
อตารางก
อตำแหน
อตแลนด
อถ
อถกเถ
อท
อทร
อทว
อทอง
อทางการค
อทางว
อทำหน
อทำให
อธ
อธรรมชาต
อน
อนก
อนกรกฎาคม
อนกล
อนกว
อนการปฏ
อนการแข
อนกำล
อนข
อนของ
อนค
อนคร
อนจ
อนจร
อนจะกล
อนจะถ
อนจะม
อนจะย
อนจะเข
อนจะเป
อนจะได
อนจำ
อนช
อนชางเจ
อนซ
อนด
อนต
อนตำแหน
อนถ
อนท
อนธ
อนน
อนบ
อนบอล
อนป
อนประว
อนผ
อนฝ
อนพ
อนพฤศจ
อนพฤษภาคม
อนภ
อนม
อนมกราคม
อนมน
อนมาก
อนย
อนร
อนรองชนะเล
อนระหว
อนล
อนละ
อนว
อนศ
อนส
อนสต
อนสน
อนสม
อนสมณศ
อนสาม
อนห
อนหน
อนหย
อนหร
อนหล
อนอ
อนอด
อนอย
อนาค
อนาคต
อนาคตกาลของ
อนาท
อนาม
อนายกร
อนายทะเบ
อนเก
อนเข
อนเคอร
อนเจ
อนเช
อนเด
อนเต
อนเท
อนเน
อนเบ
อนเป
อนเปะอ
อนเพ
อนเพล
อนเม
อนเมษายน
อนเร
อนเล
อนเส
อนเหล
อนแก
อนแต
อนแม
อนแรง
อนแล
อนแห
อนแอ
อนโยน
อนโยะม
อนใจ
อนใช
อนให
อนใหญ
อนไข
อนไขท
อนได
อนไต
อนไม
อนไว
อนไหว
อนไหวก
อนไหวท
อนไหวได
อนๆ
อบ
อบกพร
อบจ
อบด
อบต
อบถ
อบท
อบบ
อบร
อบรรท
อบรรล
อบล
อบส
อบอ
อบางคร
อบางส
อป
อปกป
อปฏ
อปท
อปป
อปร
อประจ
อประชาชน
อประชาธ
อประด
อประต
อประท
อประมาณ
อประว
อประเทศ
อประเม
อประโยคต
อประโยชน
อปล
อปลายป
อปาทานการกพห
อปาทานการกเอกพจน
อผ
อผล
อผลประโยชน
อฝ
อฝร
อพ
อพน
อพยพเข
อพร
อพระชนมาย
อพระท
อพระบาทสมเด
อพระพ
อพระมหากษ
อพระราชบ
อพระวงศ
อพระองค
อพระเจ
อพล
อพาย
อฟ
อภ
อภาพยนตร
อภายหล
อภาษาบาล
อภาษาอ
อภาษาไทยท
อม
อมก
อมกล
อมข
อมค
อมความกดอากาศต
อมจ
อมฉ
อมช
อมซ
อมด
อมต
อมถ
อมท
อมน
อมบ
อมบำร
อมป
อมปราบศ
อมผ
อมพ
อมภาพในเอกสาร
อมม
อมย
อมร
อมรอบ
อมรอบด
อมระหว
อมราชวงศ
อมล
อมว
อมวลชน
อมศ
อมส
อมสำหร
อมห
อมหญ
อมหน
อมหาว
อมอ
อมอย
อมะเร
อมา
อมาก
อมากกว
อมากลายเป
อมาค
อมาจ
อมาจนถ
อมาจาก
อมาช
อมาด
อมาต
อมาตยก
อมาตรา
อมาถ
อมาท
อมาน
อมาป
อมาพ
อมาภายหล
อมาม
อมาย
อมาร
อมาว
อมาหล
อมาอ
อมาเขาได
อมาเจ
อมาเป
อมาเปล
อมาเม
อมาเร
อมาใน
อมาในการเล
อมาในช
อมาในป
อมาในร
อมาในว
อมาในสม
อมาในเด
อมาได
อมาไม
อมเก
อมเกล
อมเข
อมเคร
อมเจ
อมเป
อมเพ
อมเพร
อมเม
อมเร
อมเส
อมแซม
อมแล
อมแห
อมโยงก
อมใจก
อมใช
อมใส
อมให
อมได
อมไทรอยด
อมไม
อมๆ
อมๆก
อย
อยก
อยกรอง
อยกล
อยกว
อยกเล
อยกเว
อยข
อยค
อยคน
อยคร
อยคลาน
อยคำ
อยคำท
อยจ
อยช
อยซ
อยด
อยต
อยตร
อยตำรวจเอก
อยถ
อยท
อยน
อยบ
อยป
อยผ
อยพ
อยพระจ
อยพล
อยม
อยมา
อยมาก
อยมาจนถ
อยย
อยร
อยล
อยลง
อยละ
อยว
อยส
อยห
อยหน
อยหร
อยอ
อยอย
อยออกเป
อยากร
อยากเป
อยากให
อยากได
อยเก
อยเข
อยเช
อยเท
อยเป
อยเพ
อยเม
อยเร
อยเส
อยเอ
อยเอก
อยแก
อยแต
อยแล
อยแห
อยโท
อยให
อยใหญ
อยได
อยไป
อยไม
อยๆ
อร
อรช
อรท
อรบ
อรรถ
อรรถกถา
อรวมก
อรห
อรองร
อระด
อระบ
อระล
อระหว
อระเบ
อรางว
อราชวงศ
อรายการเพย
อรายช
อราว
อราษฎร
อฤด
อล
อลชไตน
อลท
อลบคอล
อละคร
อลำน
อลำเล
อว
อวกาศ
อวง
อวงกลม
อวงศ
อวอร
อวางอ
อวาดร
อวาดส
อวาดเส
อศ
อศาสนาคร
อศาสนาพ
อศาสนาอ
อส
อสก
อสงส
อสด
อสต
อสตร
อสถาน
อสถานการณ
อสถานท
อสถาบ
อสน
อสม
อสมท
อสมาช
อสมเด
อสร
อสหร
อสองส
อสาม
อสาย
อสายก
อสายจ
อสายอ
อสาร
อสารก
อสารท
อสารมวลชน
อสำค
อสำน
อสำหร
อสำเร
อห
อหญ
อหน
อหม
อหมายถ
อหมายเลข
อหย
อหร
อหล
อหลายคร
อหว
อหา
อหาข
อหาต
อหาท
อหาผ
อหาร
อหาว
อหาหร
อหาเก
อหาเอกสารโดยการข
ออ
ออก
ออกกำล
ออกคำส
ออกจากตำแหน
ออกจากท
ออกจากบ
ออกจากเม
ออกจากโปรแกรม
ออกจำหน
ออกฉายคร
ออกฉายเม
ออกฉายในป
ออกซ
ออกซฟอร
ออกท
ออกมา
ออกมาเป
ออกมาได
ออกฤทธ
ออกล
ออกวางจำหน
ออกส
ออกอ
ออกอากาศ
ออกอากาศคร
ออกอากาศต
ออกอากาศท
ออกอากาศทาง
ออกอากาศทางช
ออกอากาศทางสถาน
ออกอากาศว
ออกอากาศเม
ออกเด
ออกเป
ออกเส
ออกแถลงการณ
ออกแบบ
ออกแบบมาเพ
ออกแบบโดย
ออกไซด
ออกไป
อองค
ออด
ออตโตม
ออธ
ออน
ออนไลน
ออฟ
ออฟฟ
ออภ
ออย
ออร
ออล
ออลม
ออว
ออส
ออสการ
ออสต
ออสเตร
ออสเตรเล
ออะไร
ออาจเป
ออาช
ออาณาจ
ออาย
ออาร
ออาว
ออำเภอหน
ออโต
อฮ
อะ
อะก
อะค
อะคาเดม
อะซ
อะตอม
อะน
อะบ
อะภ
อะม
อะย
อะร
อะล
อะห
อะฮ
อะเมซ
อะไร
อะไรก
อะไรท
อา
อาก
อากร
อาการ
อาการท
อากาศ
อากาศท
อากาศยาน
อาค
อาคาร
อาคารท
อาคารน
อาคารผ
อาคารเร
อาคารเสนาสนะท
อาจ
อาจก
อาจกล
อาจจะม
อาจจะเก
อาจจะเป
อาจจะไม
อาจช
อาจต
อาจถ
อาจทำให
อาจปฏ
อาจม
อาจร
อาจส
อาจหมายถ
อาจารย
อาจเก
อาจเป
อาจเพ
อาจเร
อาจใช
อาจได
อาจไม
อาช
อาซ
อาซาฮ
อาญา
อาญาของผ
อาณ
อาณาจ
อาณาน
อาณาเขตครอบคล
อาณาเขตต
อาด
อาดอร
อาต
อาท
อาน
อานนท
อาบ
อาป
อาม
อาย
อาร
อารมณ
อารย
อาระเบ
อาล
อาว
อาศ
อาส
อาสนว
อาสาสม
อาห
อาหร
อาหาร
อาหารท
อาอ
อาเจ
อาเซ
อาเซอร
อาเธอร
อาเรนา
อาเล
อาโออ
อำนวย
อำนวยการ
อำนวยการฝ
อำนวยการศ
อำนวยการสถาบ
อำนวยการสร
อำนวยการสำน
อำนวยการโรงเร
อำนาจ
อำนาจจ
อำนาจท
อำนาจน
อำนาจพ
อำนาจส
อำนาจหน
อำนาจอธ
อำนาจเหน
อำนาจแต
อำพ
อำมาตย
อำเภอ
อำเภอก
อำเภอข
อำเภอค
อำเภอจ
อำเภอช
อำเภอด
อำเภอท
อำเภอน
อำเภอบ
อำเภอบางบ
อำเภอป
อำเภอพ
อำเภอภ
อำเภอม
อำเภอร
อำเภอว
อำเภอศร
อำเภอส
อำเภอห
อำเภอหนองบ
อำเภออ
อำเภอเช
อำเภอเม
อำเภอเว
อำเภอแก
อำเภอแม
อำเภอโนนส
อเก
อเกล
อเข
อเขาได
อเค
อเคร
อเคล
อเง
อเจ
อเจร
อเฉพาะส
อเฉล
อเช
อเซ
อเซลล
อเด
อเต
อเตร
อเท
อเทศ
อเธอ
อเน
อเบ
อเบส
อเป
อเปร
อเปล
อเผ
อเผยแพร
อเพ
อเพล
อเพลง
อเพลงท
อเฟ
อเม
อเมร
อเมเจอร
อเย
อเร
อเรอร
อเล
อเว
อเวนเจอร
อเวลา
อเวลาผ
อเวลาพ
อเศรษฐก
อเส
อเสด
อเสร
อเห
อเหต
อเหน
อเหม
อเหย
อเหล
อเอ
อเอก
อเฮ
อแก
อแกงล
อแข
อแค
อแคน
อแจ
อแดง
อแต
อแตกต
อแท
อแบ
อแบคท
อแผ
อแผนกศ
อแพ
อแม
อแย
อแร
อแล
อแลกก
อแลกเปล
อและท
อและแม
อแห
อแหล
อโค
อโคร
อโครงสร
อโจมต
อโต
อโตเต
อโท
อโรค
อโรงเร
อโลก
อใกล
อใคร
อใช
อใด
อใดก
อใต
อใน
อในกรณ
อในช
อในท
อในน
อในป
อในร
อในระด
อในว
อในส
อในสไลด
อในอ
อในเร
อใส
อให
อใหญ
อใหม
อไก
อไข
อได
อไทย
อไป
อไปก
อไปด
อไปถ
อไปท
อไปน
อไปย
อไปว
อไปอ
อไปเป
อไปแล
อไปได
อไม
อไร
อไว
อไวร
อไหร
อๆ
ฮ
ฮกเก
ฮง
ฮย
ฮว
ฮอกก
ฮอตสเปอร
ฮอนด
ฮอร
ฮอล
ฮอลล
ฮอลแลนด
ฮอว
ฮะ
ฮา
ฮาค
ฮาจ
ฮาช
ฮาน
ฮานอย
ฮาพส
ฮาม
ฮาร
ฮาระ
ฮาล
ฮเย
ฯ
ฯพณฯ
ฯลฯ
ะ
ะก
ะจ
ะต
ะท
า
าก
ากร
ากรณ
ากรมข
ากรมพระยานร
ากระดาษ
ากระดาษก
ากล
ากว
ากษ
ากองท
ากาก
าการ
าการก
าการกระทรวงกลาโหม
าการกระทรวงการคล
าการกระทรวงการต
าการกระทรวงคมนาคม
าการกระทรวงพาณ
าการกระทรวงมหาดไทย
าการกระทรวงย
าการกระทรวงว
าการกระทรวงศ
าการกระทรวงสาธารณส
าการกระทรวงอ
าการกระทรวงเกษตรและสหกรณ
าการจ
าการต
าการท
าการร
าการส
าการเม
าการใช
ากาว
ากำล
าข
าขนส
าขนาดใหญ
าขว
าของ
าของก
าของข
าของค
าของฉายา
าของต
าของท
าของน
าของบ
าของบร
าของผ
าของม
าของร
าของล
าของว
าของส
าของห
าของหร
าของอ
าของเขา
าขาย
าขายก
าขาว
าค
าคงต
าคงท
าคณะ
าคณะจ
าคณะปฏ
าคณะภาค
าคณะร
าคณะใหญ
าคน
าคนท
าคนอ
าคร
าครอบคร
าคล
าคว
าควบค
าความจร
าความต
าความผ
าความร
าความส
าความเป
าคาร
าคำว
าง
างก
างกร
างกระด
างกราฟ
างกล
างกลาง
างกว
างกองท
างกะท
างกาย
างกายท
างกายมน
างกายส
างกายได
างการก
างการต
างการถ
างการปฏ
างการพ
างการส
างการเด
างการแข
างการใช
างข
างขวา
างขวาง
างของ
างของร
างของส
างของอ
างค
างคนต
างคร
างคล
างความประท
างความม
างความร
างความส
างความเข
างความเป
างความเส
างความไม
างคอล
างคาว
างง
างงาน
างงานพร
างจ
างจดหมาย
างจร
างจาก
างจากกร
างจากจ
างจากต
างจากท
างจากเม
างฉ
างช
างชน
างชาต
างซ
างด
างดาว
างต
างตาราง
างตารางข
างตารางและฟ
างถ
างถนน
างถาวร
างท
างทอง
างทาง
างน
างนอก
างบ
างบน
างบร
างป
างปฏ
างปร
างประต
างประมาณ
างประว
างประเทศ
างประเทศท
างประเทศอ
างประเทศเพ
างประเทศได
างปลอดภ
างผ
างฝ
างฝร
างพ
างพร
างพระท
างพระพ
างพระราชบ
างพระราชว
างพระองค
างพระเจ
างพล
างพาก
างฟ
างภ
างภาพ
างภาพยนตร
างม
างมน
างมหาว
างมาก
างมากก
างมากต
างมากท
างมากมาย
างย
างยอดเย
างยาวนาน
างร
างรวดเร
างระด
างระม
างระหว
างรายได
างฤด
างล
างลง
างละ
างละเอ
างลำต
างว
างวงศ
างศ
างส
างสงครามโลกคร
างสถ
างสถาน
างสน
างสม
างสมบ
างสร
างสรรค
างสรรพส
างสาม
างสำค
างสำหร
างห
างหน
างหนาแน
างหม
างหร
างหล
างหาก
างอ
างองค
างอน
างอย
างออกไป
างอาคาร
างอาคารเร
างอารมณ
างาม
างเก
างเข
างเค
างเคร
างเง
างเจ
างเจด
างเจาะจง
างเช
างเซลล
างเด
างเต
างเท
างเน
างเป
างเปล
างเผ
างเพ
างเพลง
างเม
างเย
างเร
างเล
างเว
างเส
างเสร
างเห
างเหต
างเหน
างเหม
างเหมาะสม
างเหล
างเอกสาร
างเอกสารประกอบการบรรยาย
างเอกสารใหม
างแก
างแข
างแค
างแดนด
างแต
างแท
างแน
างแผ
างแผนภ
างแพร
างแม
างแล
างและความคมช
างแห
างโจว
างโดดเด
างโดย
างโบสถ
างโรงเร
างโลก
างใกล
างใช
างใด
างใดอย
างใต
างใน
างในช
างในป
างในร
างในสม
างให
างใหญ
างใหม
างไกล
างได
างไทย
างไทยก
างไป
างไม
างไร
างไรก
างไว
างๆ
างๆท
างๆได
าจ
าจร
าจอ
าจอด
าจอร
าจอห
าจอในเวลาเด
าจะกล
าจะค
าจะจ
าจะช
าจะต
าจะถ
าจะทำให
าจะพ
าจะม
าจะย
าจะร
าจะส
าจะสร
าจะอย
าจะเก
าจะเข
าจะเป
าจะเร
าจะเล
าจะใช
าจะให
าจะได
าจะไม
าจำเป
าฉ
าช
าชน
าชนะ
าชม
าชาต
าชานเม
าชาย
าชายก
าชายคาร
าชายจอร
าชายท
าชายน
าชายฟ
าชายฟร
าชายม
าชายร
าชายว
าชายส
าชายหล
าชายอ
าชายเลน
าชายเอ
าชายแห
าชาร
าชาลส
าซ
าซธรรมชาต
าซาง
าซาร
าญ
าด
าดาราร
าดาว
าดำรงตำแหน
าต
าตนเป
าตร
าตอง
าตา
าตากส
าตาด
าตามความเหมาะสม
าตาย
าตารางจากฐานข
าตำแหน
าถ
าท
าทร
าทอง
าทาง
าทาย
าทำให
าธ
าธนบ
าธรรมเน
าน
านก
านกร
านกล
านกลาง
านกว
านการก
านการค
านการจ
านการต
านการท
านการบร
านการพ
านการร
านการว
านการศ
านการส
านการเง
านการเม
านการแพทย
านการใช
านข
านขวา
านค
านคน
านคนต
านคนท
านคร
านครจำปาศ
านความปลอดภ
านความม
านความร
านจ
านช
านซ
านด
านดนตร
านดอลลาร
านดาวเท
านต
านตรงข
านตะว
านถ
านท
านทาง
านทาน
านธ
านน
านนอก
านนา
านบ
านบน
านบร
านบาท
านป
านปร
านประว
านปอนด
านผ
านฝ
านพ
านพร
านพระคร
านพล
านฟ
านภ
านภาล
านภาษาอ
านภาษาไทย
านม
านมน
านมหาสม
านมา
านย
านร
านรอบค
านราชท
านล
านละ
านว
านวรรณกรรม
านศ
านส
านสถาน
านสมเด
านสร
านสาธารณส
านห
านหญ
านหน
านหนองบ
านหม
านหร
านหล
านอ
านอน
านอย
านอาจารย
านอาหาร
านฮ
านาน
านาย
านายท
านายฝ
านเก
านเกณฑ
านเข
านเคร
านเจ
านเช
านเด
านเท
านเทคน
านเทคโนโลย
านเน
านเป
านเผด
านเพ
านเม
านเยน
านเร
านเล
านเลขท
านเว
านเศรษฐก
านเส
านเสนาบด
านเห
านเหน
านเหร
านเหล
านแก
านแต
านแผ
านแพ
านแม
านแล
านแห
านแหลม
านโป
านโพธ
านใกล
านใต
านใน
านให
านใหญ
านใหม
านได
านไป
านไปย
านไผ
านไม
านไร
านไว
าบ
าบร
าบรมวงศ
าป
าปกต
าปฏ
าปร
าประกวด
าประช
าประด
าประต
าประท
าประมาณ
าประว
าประเวณ
าปล
าผ
าผล
าผา
าผาก
าฝ
าฝร
าพ
าพน
าพร
าพรรค
าพรรคประชาธ
าพรรษา
าพระ
าพระจ
าพระท
าพระนครเหน
าพระพ
าพระยา
าพระยาจ
าพระยาท
าพระยาบด
าพระยาบรมมหาศร
าพระยาพ
าพระยาพระคล
าพระยายมราช
าพระยาราชส
าพระยาว
าพระยาศร
าพระยาส
าพระยาอภ
าพระอ
าพระองค
าพระเจ
าพล
าพาย
าพเจ
าฟ
าฟร
าภ
าภค
าภาคว
าภาณ
าภาพ
าภาพจ
าภาพยนตร
าภาษ
าม
ามก
ามค
ามงก
ามจ
ามช
ามชาต
ามต
ามท
ามน
ามป
ามผ
ามพ
ามม
ามร
ามล
ามว
ามส
ามสม
ามห
ามหานคร
ามหาว
ามหาวช
ามหาส
ามองซ
ามา
ามาก
ามากกว
ามากท
ามาค
ามาจ
ามาช
ามาด
ามาต
ามาถ
ามาท
ามาน
ามาพ
ามาม
ามาย
ามาร
ามาส
ามาอ
ามาอย
ามาเก
ามาเป
ามาเฝ
ามาเพ
ามาเร
ามาแทนท
ามาแล
ามาใกล
ามาใช
ามาในราชอาณาจ
ามเน
ามแผ
ามแม
ามใช
ามไม
าย
ายก
ายกระดาษ
ายกล
ายกว
ายข
ายขวา
ายของ
ายของช
ายของเด
ายค
ายคร
ายคล
ายจ
ายจะถ
ายช
ายชนะ
ายซ
ายด
ายดาย
ายดาวเท
ายต
ายตน
ายตรงข
ายตะว
ายตำแหน
ายถ
ายท
ายทหาร
ายทอดสด
ายทางอากาศของ
ายทางอากาศจากเทอร
ายทำ
ายทำท
ายทำภาพยนตร
ายธรรมย
ายน
ายนรส
ายบ
ายบร
ายป
ายปฏ
ายประจำป
ายผ
ายผล
ายฝ
ายพ
ายพม
ายพระเจ
ายพลเร
ายฟ
ายภาพ
ายภาพยนตร
ายม
ายมน
ายมหาน
ายมาร
ายมาส
ายมาอย
ายย
ายร
ายระบ
ายล
ายว
ายศ
ายส
ายสำหร
ายสไลด
ายห
ายหญ
ายหน
ายหย
ายหร
ายหล
ายอ
ายอย
ายาง
ายาเสพต
ายเก
ายเข
ายเคร
ายเง
ายเจ
ายเช
ายเด
ายเต
ายเท
ายเป
ายเพ
ายเพลง
ายเม
ายเร
ายเล
ายเส
ายเหน
ายเหล
ายแก
ายแต
ายแบบ
ายแผ
ายแพ
ายแม
ายแรง
ายแรงท
ายแล
ายและค
ายแห
ายโดย
ายโรงเร
ายใต
ายใน
ายในช
ายในป
ายในร
ายในว
ายในเด
ายให
ายได
ายไป
ายไปท
ายไปย
ายไปร
ายไปส
ายไปอย
ายไปเป
ายไปเล
ายไม
ายๆ
าร
ารห
ารอบ
ารอบก
ารอบต
ารอบส
าระด
าระว
าระหว
ารางว
าราชการ
าราชการกร
าราชการการเม
าราชการจ
าราชการช
าราชการต
าราชการท
าราชการผ
าราชการฝ
าราชการพลเร
าราชการเม
าราชบ
าราชบร
าราชวงศ
าราชวรวงศ
าราชาธ
ารำไพพรรณ
าล
าลง
าลงไปทางใต
าละอองธ
าว
าวก
าวกล
าวข
าวค
าวง
าวจ
าวช
าวซ
าวด
าวต
าวถ
าวท
าวทำให
าวน
าวบ
าวป
าวประจำว
าวผ
าวฝ
าวพ
าวฟ
าวม
าวมาน
าวมาแล
าวย
าวร
าวรวงศ
าวล
าวว
าวศร
าวส
าวสด
าวสาร
าวสาล
าวห
าวหน
าวหม
าวหล
าวหา
าวหาท
าวหาว
าวอ
าวอน
าวอย
าวเก
าวเข
าวเจ
าวเช
าวเด
าวเท
าวเป
าวเปล
าวเปอร
าวเพ
าวเม
าวเร
าวเหน
าวแก
าวแล
าวแห
าวโดย
าวโพด
าวให
าวได
าวไทย
าวไพร
าวไม
าวไว
าศ
าศร
าศาลา
าส
าสงวนแห
าสงส
าสต
าสถ
าสถาน
าสน
าสนใจ
าสม
าสมาช
าสมเด
าสร
าสว
าสวรรค
าสหร
าสะพร
าสาม
าสายส
าสำค
าสำน
าสำหร
าห
าหงษาวด
าหงสาวด
าหญ
าหน
าหม
าหมาย
าหมายถ
าหมายท
าหมายหล
าหมายเพ
าหย
าหร
าหล
าหลวง
าหลวงใหญ
าหลานเธอ
าหว
าหาก
าหากว
าหาญ
าอ
าอก
าองค
าอธ
าอน
าอภ
าอย
าอส
าออก
าอากาศยาน
าอากาศยานดอนเม
าอากาศยานท
าอากาศยานนานาชาต
าอากาศยานส
าอาณาน
าอาย
าอาร
าอาวาส
าอาวาสร
าอาวาสว
าอเล
าฮ
าฯ
าฯให
าเก
าเกล
าเข
าเขา
าเขาม
าเขาเป
าเขาได
าเขาไม
าเค
าเคร
าเง
าเจ
าเจมส
าเฉ
าเฉล
าเช
าเซ
าเด
าเต
าเถ
าเท
าเธอเป
าเน
าเบ
าเป
าเปล
าเผ
าเฝ
าเพ
าเพชรร
าเฟร
าเฟรเดอร
าเม
าเย
าเร
าเล
าเว
าเส
าเสด
าเสร
าเสา
าเห
าเหต
าเหน
าเหม
าเหย
าเหร
าเหล
าเอ
าเฮ
าเฮนร
าแก
าแข
าแจ
าแชมป
าแชมเป
าแดง
าแดด
าแต
าแท
าแผ
าแพ
าแฟกซ
าแม
าแมน
าแล
าและก
าและด
าและบร
าและพ
าและม
าและส
าและอ
าแห
าแหน
าโจมต
าโดยบอต
าโปรดกระหม
าโพธ
าโรงเร
าโลก
าโสมสวล
าใกล
าใคร
าใครเป
าใจ
าใจก
าใจการใช
าใจง
าใจถ
าใจท
าใจผ
าใจร
าใจระบบฐานข
าใจว
าใจได
าใช
าใด
าใดน
าใต
าใน
าในช
าในตาราง
าในท
าในป
าในร
าในว
าในเม
าใบ
าใส
าให
าใหญ
าใหม
าได
าไทย
าไป
าไปก
าไปข
าไปช
าไปด
าไปต
าไปถ
าไปท
าไปทางท
าไปพ
าไปม
าไปย
าไปร
าไปส
าไปอ
าไปอย
าไปเป
าไปเฝ
าไปเล
าไปแล
าไปในห
าไปได
าไม
าไร
าไรน
าไว
าไหม
าไหร
าๆ
ำ
ำก
ำกร
ำกว
ำข
ำขนาดเล
ำขนาดใหญ
ำค
ำคร
ำจ
ำช
ำซ
ำด
ำต
ำตก
ำตกห
ำตา
ำตาล
ำตาลอ
ำตาลเข
ำตาลแดง
ำถ
ำท
ำทะเล
ำน
ำนม
ำบ
ำป
ำประก
ำปล
ำผ
ำผลไม
ำฝน
ำพ
ำพร
ำพระพ
ำพอง
ำฟ
ำม
ำมนต
ำมาก
ำย
ำร
ำรวย
ำรวยผ
ำล
ำลง
ำว
ำส
ำสม
ำสะเท
ำห
ำหน
ำหร
ำหล
ำอ
ำอย
ำอส
ำอาช
ำฮ
ำเก
ำเกล
ำเข
ำเค
ำเง
ำเจ
ำเช
ำเด
ำเต
ำเป
ำเพ
ำเม
ำเย
ำเร
ำเล
ำเส
ำเสมอ
ำเหล
ำแข
ำแม
ำแย
ำแยงซ
ำแล
ำแห
ำโขง
ำโสม
ำใจ
ำใต
ำในโอล
ำใส
ำให
ำใหญ
ำได
ำไทย
ำไนล
ำไม
ำไรน
ำไว
฿
เ
เก
เกค
เกจ
เกซ
เกณฑ
เกต
เกตส
เกน
เกม
เกมด
เกมท
เกมน
เกมล
เกมส
เกย
เกร
เกรงว
เกรซ
เกรด
เกรย
เกล
เกว
เกษ
เกษตร
เกษตรกรรม
เกษตรศาสตร
เกษม
เกษมศร
เกษมส
เกส
เกอ
เกอร
เกะ
เกา
เกาส
เกาหล
เกาะ
เกาะค
เกาะซ
เกาะต
เกาะท
เกาะน
เกาะม
เกาะร
เกาะล
เกาะส
เกาะอ
เข
เขต
เขตการเล
เขตด
เขตต
เขตท
เขตปท
เขตพ
เขตพระนคร
เขตม
เขตร
เขตละ
เขตว
เขตอ
เขตเล
เขมร
เขมรด
เขย
เขา
เขาก
เขากล
เขากลายเป
เขากำล
เขาข
เขาค
เขาจ
เขาช
เขาซ
เขาด
เขาดำรงตำแหน
เขาต
เขาถ
เขาท
เขาทำประต
เขาน
เขาพ
เขาม
เขาย
เขาร
เขาล
เขาลงเล
เขาว
เขาศ
เขาส
เขาสร
เขาห
เขาอ
เขาอย
เขาเก
เขาเข
เขาเช
เขาเด
เขาเป
เขาเร
เขาเล
เขาเส
เขาแต
เขาใช
เขาให
เขาใหญ
เขาได
เขาไฟ
เขาไม
เค
เคช
เคซ
เคด
เคท
เคน
เคนน
เคนยา
เคนเนด
เคม
เคมบร
เคย
เคยค
เคยช
เคยดำรงตำแหน
เคยต
เคยถ
เคยพ
เคยม
เคยร
เคยส
เคยอย
เคยเก
เคยเข
เคยเป
เคยเล
เคยเห
เคยโฆษณางานน
เคยใช
เคยได
เคร
เครด
เครน
เคราะห
เคล
เคลย
เคลล
เคว
เคอ
เคอร
เคาน
เคานต
เคานท
เคเบ
เคโอ
เง
เงา
เงาร
เจ
เจด
เจท
เจน
เจนต
เจนท
เจนน
เจฟฟ
เจฟฟร
เจม
เจมส
เจย
เจร
เจล
เจส
เจสซ
เจสส
เจอ
เจอก
เจอร
เจเนอเรช
เจเอ
เฉ
เฉพาะ
เฉพาะต
เฉพาะท
เฉย
เฉล
เฉว
เช
เชน
เชนจ
เชฟฟ
เชม
เชร
เชล
เชลซ
เชลล
เชษฐ
เชอร
เชาว
เซ
เซก
เซซ
เซต
เซตส
เซน
เซนต
เซนอล
เซนเตช
เซนเตอร
เซบ
เซฟ
เซฟไฟล
เซม
เซย
เซร
เซล
เซลล
เซอ
เซอร
เซาท
เซาแทมป
เซเดส
เซเนก
เซเร
เซเลอร
เซเว
เซโกว
เซโลนา
เฒ
เด
เดช
เดซ
เดตาเบส
เดน
เดนต
เดนท
เดนน
เดนมาร
เดบ
เดฟ
เดม
เดย
เดร
เดล
เดลต
เดว
เดส
เดอ
เดอน
เดอร
เดอลาล
เดอะ
เดอะค
เดอะซ
เดอะน
เดอะบ
เดอะม
เดอะมอลล
เดอะลอร
เดอะสตาร
เดะ
เดเอ
เดโยช
เต
เตน
เตนใหญ
เตม
เตร
เตส
เตสแห
เตอร
เถ
เถา
เถาะ
เท
เทกซ
เทค
เทคน
เทคว
เทคโนโลย
เทน
เทนน
เทนเม
เทนเมนต
เทนเมนท
เทพ
เทพธ
เทพบ
เทพพ
เทพห
เทพเจ
เทพแห
เทย
เทร
เทล
เทว
เทวก
เทวดา
เทศ
เทศกาลภาพยนตร
เทศน
เทศบาล
เทศบาลตำบลท
เทศบาลตำบลบ
เทศบาลเม
เทศมาลาของ
เทศศาสตร
เทอร
เทา
เทเกอร
เทเบ
เทเลว
เทโร
เทโรศาสน
เธ
เธอ
เธอก
เธอกล
เธอค
เธอจ
เธอต
เธอถ
เธอท
เธอน
เธอม
เธอย
เธอร
เธออย
เธอเก
เธอเข
เธอเป
เธอเร
เธอเล
เธอได
เธอไม
เน
เนก
เนช
เนซ
เนต
เนตร
เนท
เนนต
เนนท
เนบ
เนปาล
เนม
เนย
เนร
เนล
เนลส
เนว
เนส
เนสโก
เนอร
เนะ
เนเธอร
เนเว
เบ
เบก
เบกษา
เบกษาเป
เบต
เบน
เบนจาม
เบนซ
เบบ
เบย
เบร
เบรก
เบล
เบลด
เบลล
เบลาร
เบลเย
เบศร
เบส
เบอร
เบา
เบเกอร
เป
เปดร
เปน
เปนข
เปนต
เปนท
เปนผ
เปนส
เปนอ
เปนเจ
เปนแต
เปร
เปรม
เปรสช
เปล
เปอร
เปะอ
เปาบ
เปเรซ
เผ
เผช
เผด
เผย
เผยว
เผยแพร
เฝ
เพ
เพชร
เพชรบ
เพชรพระอ
เพท
เพนกว
เพนน
เพย
เพร
เพรส
เพรสล
เพราะ
เพราะข
เพราะค
เพราะฉน
เพราะฉะน
เพราะต
เพราะถ
เพราะท
เพราะน
เพราะผ
เพราะพ
เพราะพระองค
เพราะม
เพราะย
เพราะร
เพราะล
เพราะว
เพราะส
เพราะอ
เพราะเป
เพราะเม
เพราะเห
เพราะเหต
เพราะได
เพราะไม
เพล
เพลง
เพลงค
เพลงช
เพลงชาต
เพลงด
เพลงต
เพลงท
เพลงน
เพลงป
เพลงประกอบภาพยนตร
เพลงประกอบละคร
เพลงพ
เพลงร
เพลงล
เพลงอ
เพลงฮ
เพลงเป
เพลย
เพศ
เพศกลาง
เพศชาย
เพศผ
เพศส
เพศหญ
เพอร
เพาะปล
เพาเวอร
เฟ
เฟซบ
เฟน
เฟย
เฟร
เฟรนช
เฟรนด
เฟรม
เฟรเดอร
เฟล
เฟส
เฟอร
เฟเธอร
เภส
เม
เมก
เมฆ
เมจ
เมช
เมซ
เมด
เมต
เมตตา
เมตร
เมตรจากระด
เมตรต
เมท
เมทร
เมธ
เมน
เมนต
เมนท
เมนส
เมมโมร
เมย
เมร
เมล
เมษายน
เมส
เมสซ
เมอร
เมะ
เมะท
เมะเร
เมะโทรท
เมา
เมาส
เมเจอร
เมเน
เย
เยน
เยร
เยล
เยอ
เยอร
เยอรม
เยอรมน
เยาว
เยาวชน
เร
เรก
เรกค
เรคคอร
เรจ
เรช
เรซ
เรซา
เรด
เรดาร
เรต
เรตต
เรตส
เรน
เรนซ
เรนส
เรนเจอร
เรนโบว
เรย
เรล
เรลล
เรว
เรส
เรสต
เรสเซ
เรอ
เรอร
เระ
เรา
เราก
เราค
เราจ
เราจะต
เราจะได
เราต
เราท
เราพ
เราม
เราย
เราร
เราะฮ
เราเป
เราเร
เราเห
เราได
เราไม
เรเช
เรเน
เล
เลก
เลข
เลขท
เลขวรรณย
เลขาธ
เลขาน
เลด
เลน
เลนส
เลบานอน
เลย
เลยท
เลยว
เลว
เลวร
เลส
เลสเต
เลสเตอร
เลสเนอร
เลอ
เลอร
เลา
เลเซอร
เลเวล
เลโอ
เว
เวก
เวกเตอร
เวช
เวชชาช
เวชศาสตร
เวณ
เวณก
เวณกว
เวณข
เวณจ
เวณช
เวณชายฝ
เวณด
เวณต
เวณท
เวณน
เวณบ
เวณป
เวณพ
เวณร
เวณล
เวณว
เวณส
เวณห
เวณหน
เวณหล
เวณอ
เวณเด
เวณเม
เวณใกล
เวด
เวต
เวท
เวทมนตร
เวทเม
เวน
เวนต
เวนส
เวย
เวร
เวล
เวลคอม
เวลล
เวลส
เวลา
เวลาก
เวลาการแข
เวลาค
เวลาต
เวลาท
เวลาน
เวลาบ
เวลาประมาณ
เวลาว
เวลาส
เวลาเช
เวลาเด
เวลาเพ
เวลาไทย
เวศ
เวศน
เวศว
เวส
เวสต
เวอร
เวเดอร
เวเนซ
เศ
เศก
เศร
เศรษฐ
เศรษฐก
เศรษฐบ
เศรษฐศาสตร
เศษ
เศษก
เศษค
เศษช
เศษณ
เศษด
เศษต
เศษท
เศษน
เศษว
เศษส
เศษสำหร
เศษอ
เศษเพ
เศษแก
เศษให
เษก
เษกก
เษกสมรส
เษกสมรสก
เษกสมรสคร
เษกเป
เส
เสก
เสกสมรสก
เสด
เสถ
เสธ
เสธข
เสธท
เสธว
เสธไม
เสน
เสนอ
เสนอช
เสนอต
เสนอว
เสนอให
เสนาธ
เสนาบด
เสม
เสมอ
เสมอก
เสร
เสว
เสวยราชย
เสวยราชสมบ
เสา
เสาร
เห
เหง
เหงา
เหต
เหน
เหม
เหมาะก
เหมาะสม
เหมาะสมก
เหมาะสมท
เหมาะสำหร
เหมาะแก
เหย
เหร
เหล
เหว
เหอ
เอ
เอก
เอกช
เอกซ
เอกพจน
เอกล
เอกวาดอร
เอกส
เอกสาร
เอกสารกำก
เอกอ
เอง
เองก
เองท
เอจ
เอช
เอชด
เอชท
เอซ
เอด
เอดจ
เอต
เอตถะ
เอตเถสา
เอท
เอธ
เอน
เอนจ
เอนด
เอนเตอร
เอนไซม
เอบ
เอพ
เอฟ
เอฟซ
เอฟเวอร
เอฟเอ
เอฟเอค
เอฟแอลค
เอม
เอย
เอร
เอล
เอลซ
เอลฟ
เอลล
เอลา
เอว
เอส
เอสซ
เอสด
เอสตาด
เอสท
เอสพ
เอสเอ
เอสเอส
เอสโตเน
เออ
เออร
เอะ
เอา
เอาก
เอาช
เอาชนะ
เอาต
เอาท
เอาม
เอาแต
เอาใจใส
เอาไว
เอเคบ
เอเคอร
เอเช
เอเธนส
เอเล
เอเวอร
เอเอ
เอเอฟซ
เอโก
เฮ
เฮกตาร
เฮง
เฮด
เฮต
เฮนร
เฮบ
เฮฟว
เฮย
เฮล
เฮอร
เฮาส
เฮเลน
แ
แก
แกน
แกนด
แกร
แกรนด
แกรมม
แกล
แกว
แกะสล
แข
แขกร
แขน
แขวง
แขวงเม
แค
แคท
แคทเธอร
แคน
แคนาดา
แคมป
แคร
แคล
แคลร
แคลเซ
แคว
แคะ
แคเมอร
แง
แจ
แจง
แจงว
แฉก
แช
แชนแนล
แชมป
แชมเบอร
แชมเป
แชร
แชล
แชลล
แซ
แซนด
แซม
แซย
แซร
แซล
แฌร
แด
แดง
แดงท
แดงเข
แดดและโตเบโก
แดน
แดนซ
แดนน
แดร
แดเน
แต
แตก
แตกต
แตง
แตน
แตร
แถบ
แถบส
แถบเคร
แถมย
แถลงการณ
แถลงข
แถว
แท
แทน
แทนค
แทนซาเน
แทนด
แทนท
แทนน
แทนพระองค
แทนราษฎร
แทนราษฎรกร
แทนราษฎรคร
แทนราษฎรจ
แทนราษฎรท
แทนราษฎรมาแล
แทนราษฎรเป
แทนราษฎรแบบบ
แทนราษฎรแบบแบ
แทนราษฎรได
แทนราษฎรไทย
แทนราษฎรไทยเป
แทนเส
แทบท
แทร
แทรกสไลด
แทรกอ
แทรกแผ
แทรกไฟล
แน
แนว
แนวค
แนวความค
แนวทางเตร
แนวร
แนวหน
แนวเส
แนวโน
แนะนำ
แนะนำฟ
แนะนำส
แนะนำโปรแกรม
แนะนำให
แบ
แบกซ
แบคท
แบงก
แบงค
แบดม
แบตเตอร
แบทเท
แบทแมน
แบน
แบนด
แบนต
แบบ
แบบค
แบบด
แบบต
แบบท
แบบน
แบบบ
แบบผ
แบบส
แบบอ
แบบเกรกอเร
แบบเด
แบบไม
แบร
แบรด
แบรนด
แบล
แป
แปซ
แปด
แปร
แปรร
แปล
แปลก
แปลง
แปลงร
แปลช
แปลตรงต
แปลว
แปลเป
แปลโดย
แผ
แผนก
แผนกว
แผนการเร
แผนท
แผนผ
แผนภ
แผลงมาจาก
แพ
แพง
แพท
แพทย
แพทยศาสตร
แพทยศาสตรศ
แพทร
แพนด
แพร
แฟ
แฟช
แฟน
แฟนคล
แฟนตาซ
แฟนพ
แฟนเทเช
แฟม
แฟร
แฟรงก
แฟรงค
แม
แมกซ
แมกน
แมคอ
แมงม
แมชช
แมตช
แมน
แมนจ
แมนน
แมนเชสเตอร
แมป
แมร
แมลง
แมว
แมเป
แย
แยก
แยกก
แยกต
แยกพ
แยกย
แยกเป
แยร
แร
แรก
แรกท
แรกเร
แรกให
แรง
แรงข
แรงงาน
แรงจ
แรงด
แรงบ
แรงม
แรน
แรนด
แรม
แล
แลก
แลกเปล
แลข
แลของ
แลจ
แลด
แลต
แลท
แลน
แลนซ
แลนด
แลบ
แลผ
แลพ
แลม
แลร
แลล
แลว
แลส
แลอย
และ
และก
และกฎหมาย
และกร
และกล
และกลายเป
และกว
และกองท
และการก
และการค
และการจ
และการต
และการท
และการบ
และการบร
และการปฏ
และการพ
และการร
และการลบข
และการว
และการศ
และการส
และการสร
และการอ
และการเข
และการเม
และการเล
และการแข
และการแยกช
และการใช
และกำก
และกำล
และกำหนดให
และข
และขอให
และค
และคณ
และคณะ
และคณะร
และคนท
และคนอ
และคร
และครอบคร
และคล
และคว
และควบค
และความร
และความส
และความเป
และคาดว
และคำว
และจ
และจบการศ
และจะต
และจะม
และจะได
และจะไม
และจากน
และช
และซ
และญ
และด
และดำรงตำแหน
และดำเน
และต
และตะว
และตำบลบ
และตำแหน
และถ
และถนน
และท
และทร
และทรงเป
และทว
และทำหน
และทำให
และธ
และน
และนอกจากน
และนายกร
และนำมาใช
และนำไปส
และบ
และบร
และบางคร
และบางส
และป
และปฏ
และปร
และประว
และประสบความสำเร
และประเภทท
และประเม
และปล
และผ
และผล
และฝ
และฝร
และพ
และพบว
และพร
และพระบ
และพระพ
และพระราชบ
และพระองค
และพระเจ
และพล
และฟ
และภ
และภาพถ
และภาพยนตร
และภายหล
และภาษาอ
และม
และมน
และมหาว
และมาตรา
และมาร
และย
และร
และระด
และระหว
และรางว
และราชก
และรายงานของทางราชการ
และฤด
และล
และลบร
และละครโทรท
และว
และศ
และส
และสถาน
และสถานท
และสถาบ
และสน
และสม
และสมาช
และสมเด
และสร
และสว
และสหร
และสาขาว
และสำน
และสำหร
และสำเร
และห
และหญ
และหน
และหม
และหย
และหล
และอ
และองค
และอด
และอธ
และอน
และอย
และออสเตรเล
และอาจม
และอาจารย
และอาร
และอาศ
และอำเภอเม
และฮ
และเก
และเข
และเขาก
และเขาย
และเขาได
และเคยเป
และเคร
และเง
และเจ
และเช
และเซ
และเด
และเต
และเท
และเทคโนโลย
และเธอก
และเธอย
และเธอได
และเน
และเป
และเปล
และเผยแพร
และเพ
และเพลง
และเม
และเร
และเล
และเว
และเวลา
และเส
และเสด
และเสร
และเห
และเหต
และเหร
และเหล
และเอ
และเอเช
และแก
และแจ
และแชมป
และแต
และแบ
และแผ
และแพ
และแม
และแล
และแหล
และแอนตาร
และโทรท
และโปรด
และโรงเร
และใช
และใน
และในช
และในท
และในป
และในว
และในเด
และให
และได
และไม
และไอร
แลเม
แลเร
แลเห
แลให
แลได
แว
แวดล
แวน
แวมไพร
แวร
แส
แสง
แสงส
แสงสว
แสงอาท
แสดง
แสดงข
แสดงค
แสดงถ
แสดงท
แสดงบนจอภาพ
แสดงภาพยนตร
แสดงร
แสดงรายการทร
แสดงว
แสดงส
แสดงห
แสดงหร
แสดงเป
แสดงเอกสารเต
แสดงโดย
แสดงโดยใช
แสดงในตาราง
แสดงให
แสตมป
แสน
แห
แหม
แหล
แหละ
แหวน
แอ
แอคช
แองเจ
แอชล
แอด
แอตแลนต
แอน
แอนด
แอนดร
แอนต
แอนท
แอนน
แอนนา
แอนเดอร
แอนโทน
แอบบ
แอปพล
แอปเป
แอฟร
แอม
แอร
แอล
แอลกอฮอล
แอลจ
แอลล
แอลเบเน
แอสต
แฮ
แฮนด
แฮปป
แฮม
แฮมป
แฮมย
แฮร
โ
โก
โกก
โกค
โกซ
โกฏ
โกด
โกต
โกน
โกปปาอ
โกปาเดลเรย
โกม
โกร
โกรธ
โกล
โกลด
โกว
โกศล
โกส
โกสลาเว
โกะ
โกเซย
โกเดมาดร
โข
โขท
โค
โคก
โคค
โคจ
โคช
โคด
โคต
โคน
โคบ
โคบวร
โคบายาช
โคม
โคร
โครงการ
โครงการก
โครงการจ
โครงการน
โครงการพ
โครงการห
โครงข
โครงสร
โคราช
โครเอเช
โคล
โคลอมเบ
โคว
โคส
โคอ
โคเร
โฆษณา
โฆษณางานน
โฆเซ
โง
โจ
โจทก
โจทย
โจน
โจนส
โจนาธาน
โจม
โจมต
โจร
โจว
โจอ
โจเซฟ
โฉมน
โช
โชก
โชค
โชคช
โชคด
โชซ
โชต
โชว
โซ
โซด
โซน
โซนภาคตะว
โซนร
โซนา
โซฟ
โซมาเล
โซล
โซอ
โซเด
โซเฟ
โซเว
โซโล
โญ
โณ
โด
โดก
โดดเด
โดน
โดม
โดย
โดยก
โดยกล
โดยกองท
โดยการจ
โดยการส
โดยการแข
โดยการใช
โดยกำหนดให
โดยข
โดยค
โดยคร
โดยความเห
โดยคำว
โดยคำแนะนำและย
โดยง
โดยจ
โดยจะต
โดยจะม
โดยช
โดยซ
โดยด
โดยต
โดยตรง
โดยถ
โดยท
โดยทาง
โดยน
โดยบ
โดยบร
โดยป
โดยปกต
โดยปร
โดยผ
โดยฝ
โดยพ
โดยพระบาทสมเด
โดยพระองค
โดยพระเจ
โดยภาพยนตร
โดยม
โดยมาก
โดยย
โดยร
โดยรอบ
โดยระบ
โดยล
โดยว
โดยศ
โดยส
โดยสมาช
โดยสมเด
โดยสร
โดยสาร
โดยสารท
โดยสารได
โดยสำน
โดยห
โดยหน
โดยหล
โดยอ
โดยองค
โดยอน
โดยอย
โดยอาศ
โดยเก
โดยเข
โดยเขาได
โดยเคร
โดยเจ
โดยเฉพาะ
โดยเฉพาะก
โดยเฉพาะท
โดยเฉพาะอย
โดยเฉพาะเม
โดยเฉล
โดยเช
โดยเด
โดยเธอได
โดยเน
โดยเป
โดยเปล
โดยเพ
โดยเม
โดยเร
โดยเล
โดยเส
โดยเหต
โดยแต
โดยแบ
โดยแพ
โดยใช
โดยในช
โดยในป
โดยในว
โดยให
โดยได
โดยไม
โดร
โดราเอมอน
โดว
โดฮา
โดเน
โดเมนระด
โต
โตม
โตร
โตรเล
โตะ
โตเก
โตเต
โตโยต
โถ
โท
โทก
โทค
โทช
โทน
โทบ
โทม
โทร
โทรท
โทรศ
โทรเลข
โทลค
โทษ
โทเน
โธ
โธม
โน
โนก
โนซ
โนท
โนน
โนบ
โนม
โนร
โนลด
โนว
โนวา
โนอ
โนะ
โนเป
โบ
โบน
โบนาปาร
โบร
โบราณ
โบราณคด
โบราณว
โบราณสถาน
โบล
โบว
โบสถ
โบสถม
โบสถว
โบสถหล
โบอ
โบะ
โป
โปร
โปรด
โปรดด
โปรดระบ
โปรดฯ
โปรดเกล
โปรดเต
โปรดให
โปรต
โปรเจกต
โปรแกรม
โปรโมช
โปล
โปเกมอน
โปแลนด
โผล
โพ
โพธ
โพล
โพสต
โฟร
โฟล
โภค
โม
โมก
โมกข
โมง
โมงค
โมซ
โมท
โมธ
โมน
โมบ
โมร
โมล
โมฮ
โมะ
โมเด
โมเดล
โมเมนต
โมเลก
โมโตะ
โย
โยค
โยช
โยชน
โยท
โยธ
โยน
โยม
โยร
โยฮ
โยะ
โยะช
โยเซฟ
โยโกฮามะ
โร
โรก
โรค
โรคจ
โรคซ
โรคต
โรคท
โรคน
โรคห
โรคอ
โรง
โรงพ
โรงพยาบาล
โรงพยาบาลจ
โรงพยาบาลศ
โรงพยาบาลส
โรงพยาบาลสมเด
โรงภาพยนตร
โรงเร
โรงแรม
โรงไฟฟ
โรจน
โรช
โรซ
โรฒ
โรด
โรดร
โรต
โรธ
โรน
โรบ
โรป
โรปตะว
โรปท
โรปาล
โรปได
โรม
โรมะจ
โรมาจ
โรมาเน
โรย
โรล
โรลล
โรว
โรส
โรห
โระ
โรเจอร
โรเบ
โรเป
โรแบร
โรแมนต
โล
โลก
โลกก
โลกท
โลกน
โลกร
โลกอ
โลกเฮฟว
โลต
โลน
โลม
โลร
โลว
โลส
โลห
โลหะ
โลเก
โลเปซ
โลเมตร
โลเมตรต
โลเมตรท
โลโก
โว
โวล
โวลต
โส
โสตถ
โสภณ
โสภณพ
โสภาพ
โห
โหด
โหต
โหน
โหมด
โหลด
โอ
โอก
โอกะ
โอกาส
โอกาสท
โอกาสน
โอกาสร
โอกาสเข
โอกาสได
โอค
โอจ
โอช
โอชา
โอซ
โอซากะ
โอด
โอดอร
โอต
โอท
โอน
โอนพ
โอบ
โอป
โอพ
โอม
โอมาน
โอร
โอรส
โอล
โอลด
โอว
โอวานน
โอส
โออ
โอะ
โอเกม
โอเช
โอเดจาเนโร
โอเดอจาเนโร
โอเป
โอเพ
โอเพนออฟฟ
โอเพลง
โอเร
โอเวอร
โอได
โอไทด
โฮ
โฮจ
โฮช
โฮม
โฮมส
โฮร
โฮล
โฮลด
โฮะ
โฮเต
ใ
ใกล
ใคร
ใครท
ใครร
ใจ
ใจก
ใจด
ใจท
ใจร
ใจว
ใจส
ใจไทย
ใช
ใด
ใดก
ใดจ
ใดตามกฎของฟ
ใดท
ใดฝ
ใดม
ใดเป
ใดได
ใดไม
ใดๆ
ใต
ใน
ในก
ในกร
ในกรณ
ในกล
ในกองท
ในการ
ในการก
ในการข
ในการค
ในการควบค
ในการจ
ในการช
ในการด
ในการดำเน
ในการต
ในการถ
ในการท
ในการน
ในการบ
ในการบร
ในการป
ในการปฏ
ในการปร
ในการประช
ในการผล
ในการพ
ในการย
ในการร
ในการว
ในการศ
ในการส
ในการสร
ในการอ
ในการเข
ในการเด
ในการเป
ในการเร
ในการเล
ในการแก
ในการแข
ในการแปลงร
ในการใช
ในการให
ในข
ในขณะท
ในขณะน
ในขณะเด
ในค
ในคด
ในคร
ในครอบคร
ในความด
ในความร
ในความเป
ในงาน
ในงานพระราชทานเพล
ในงานว
ในงานเอกสาร
ในจ
ในจำนวนน
ในฉบ
ในช
ในชาร
ในซ
ในญ
ในฐานข
ในฐานะ
ในฐานะท
ในฐานะน
ในฐานะผ
ในด
ในต
ในตระก
ในตอน
ในตอนท
ในตอนน
ในตาราง
ในตำแหน
ในถ
ในท
ในทว
ในทางกล
ในทางตรงก
ในทางปฏ
ในทำนองเด
ในธรรมชาต
ในน
ในนาท
ในนาม
ในบ
ในบท
ในบทบาท
ในบร
ในบางกรณ
ในบางคร
ในป
ในปฏ
ในปร
ในประว
ในประเทศ
ในประเทศจ
ในประเทศญ
ในประเทศท
ในประเทศฝร
ในประเทศสหร
ในประเทศอ
ในประเทศไทย
ในประเทศไทยม
ในปลายป
ในผ
ในฝ
ในฝร
ในพ
ในพร
ในพระบรมมหาราชว
ในพระบรมราช
ในพระบาทสมเด
ในพระพ
ในพระราชบ
ในพระราชพ
ในพระราชว
ในพระอ
ในพระเจ
ในฟ
ในภ
ในภาค
ในภาคตะว
ในภาคน
ในภาพยนตร
ในภายหล
ในภาษาจ
ในภาษาญ
ในภาษาฝร
ในภาษาอ
ในภาษาเยอรม
ในภาษาไทย
ในม
ในมน
ในมหาว
ในมหาสม
ในมาตรา
ในย
ในร
ในรอบ
ในรอบช
ในรอบน
ในรอว
ในระด
ในระบบ
ในระหว
ในราชบ
ในราชวงศ
ในราชสำน
ในราชอาณาจ
ในรายการ
ในรายช
ในฤด
ในล
ในละครเร
ในลำด
ในว
ในวงศ
ในศ
ในศตวรรษท
ในส
ในสก
ในสงครามโลกคร
ในสถานการณ
ในสถานท
ในสภาพท
ในสม
ในสมเด
ในสหร
ในสหราชอาณาจ
ในสาขาว
ในสำน
ในห
ในหน
ในหม
ในหล
ในอ
ในองค
ในอด
ในอน
ในอนาคต
ในออสเตรเล
ในอาณาจ
ในอเมร
ในฮ
ในเกม
ในเกาหล
ในเขตกร
ในเขตจ
ในเขตพ
ในเคร
ในเจ
ในเช
ในเซลล
ในเด
ในเท
ในเน
ในเบ
ในเพลง
ในเม
ในเยอรมน
ในเร
ในเรสเซ
ในเล
ในเว
ในเวลา
ในเวลาต
ในเวลาท
ในเวลาน
ในเวลาเด
ในเวอร
ในเส
ในเหต
ในเอกสารด
ในเอเช
ในแคว
ในแง
ในแต
ในแผ
ในแม
ในแหล
ในแอฟร
ในโรงเร
ในโลก
ในโอล
ในไทยล
ในไม
ใบ
ใบปะหน
ใบม
ใบย
ใบร
ใบหน
ใบอน
ใบเด
ใบเป
ใบไม
ใฝ
ใส
ให
ใหญ
ใหม
ไ
ไก
ไกร
ไกรฤกษ
ไกล
ไข
ไขข
ไขคำท
ไขคำว
ไขป
ไขปร
ไขฟ
ไขม
ไขร
ไขล
ไขว
ไขส
ไขสถานการณ
ไขเปล
ไขเพ
ไขและปร
ไขให
ไขได
ไค
ไคล
ไจลส
ไช
ไชน
ไชย
ไชยา
ไซ
ไซค
ไซด
ไซต
ไซน
ไซบ
ไซปร
ไซมอน
ไซร
ไซเค
ไซเนอร
ไซเบอร
ได
ไดจ
ไดซ
ไดมอนด
ไดรฟ
ไดรเวอร
ไดส
ไดโนเสาร
ไต
ไตก
ไถ
ไถจง
ไถหน
ไท
ไทก
ไทท
ไททาน
ไทป
ไทม
ไทย
ไทยก
ไทยช
ไทยซ
ไทยท
ไทยพ
ไทยพร
ไทยร
ไทยล
ไทยเร
ไทยแลนด
ไทยโพสต
ไทยได
ไทร
ไทส
ไทเกอร
ไทเป
ไธย
ไธยย
ไน
ไนจ
ไนต
ไนท
ไนน
ไนเต
ไบ
ไบจาน
ไบต
ไบรอ
ไบเบ
ไบเอ
ไบแซนไทน
ไป
ไปก
ไปข
ไปค
ไปจ
ไปจนถ
ไปช
ไปซ
ไปด
ไปต
ไปถ
ไปท
ไปทางตะว
ไปทางท
ไปน
ไปบ
ไปพ
ไปพร
ไปย
ไปร
ไปรษณ
ไปศ
ไปส
ไปอ
ไปอย
ไปเก
ไปเข
ไปเท
ไปเป
ไปเม
ไปเย
ไปเร
ไปเล
ไปเส
ไปแข
ไปแล
ไปใช
ไปในตำแหน
ไปในท
ไปให
ไปได
ไผ
ไพ
ไพบ
ไพร
ไพรม
ไพรส
ไพศาล
ไพโรจน
ไฟ
ไฟท
ไฟน
ไฟนอลแฟนตาซ
ไฟฟ
ไฟร
ไฟล
ไฟว
ไฟไหม
ไม
ไมค
ไมตร
ไมน
ไมล
ไมเค
ไมโครซอฟท
ไมโอน
ไร
ไรช
ไรซ
ไรด
ไรต
ไรท
ไรน
ไรอ
ไรเดอร
ไล
ไลต
ไลท
ไลน
ไลพ
ไลฟ
ไลล
ไว
ไวซ
ไวด
ไวต
ไวท
ไวน
ไวยากรณ
ไวร
ไวล
ไวส
ไวเวอร
ไส
ไห
ไหน
ไหนก
ไหม
ไหล
ไหลผ
ไหว
ไอ
ไอจ
ไอซ
ไอด
ไอท
ไอน
ไอบ
ไอพ
ไอร
ไอเด
ไอเอ
ไอโอซ
ไฮ
ไฮด
ไฮน
ไฮเปอร
ๅ
ๆ
๏
๐
๐๐
๐๐๐
๑
๑๐
๑๐๐
๑๐๐๐
๑๐๑
๑๐๒
๑๐๓
๑๐๔
๑๐๕
๑๐๖
๑๐๗
๑๐๘
๑๐๙
๑๑
๑๑๐
๑๑๑
๑๑๒
๑๑๓
๑๑๔
๑๑๕
๑๑๖
๑๑๗
๑๑๘
๑๑๙
๑๒
๑๒๐
๑๒๑
๑๒๒
๑๒๓
๑๒๔
๑๒๕
๑๒๖
๑๒๗
๑๒๘
๑๒๙
๑๓
๑๓๐
๑๓๑
๑๓๒
๑๓๔
๑๓๘
๑๔
๑๕
๑๕๐
๑๖
๑๗
๑๘
๑๙
๒
๒๐
๒๐๐
๒๑
๒๒
๒๓
๒๔
๒๔๕๗
๒๔๖๔
๒๔๗๕
๒๔๘๑
๒๔๘๔
๒๔๘๕
๒๕
๒๕๐๐
๒๕๐๔
๒๕๐๕
๒๕๐๘
๒๕๑๕
๒๕๑๘
๒๕๑๙
๒๕๒๒
๒๕๒๖
๒๕๒๘
๒๕๒๙
๒๕๓๐
๒๕๓๑
๒๕๓๓
๒๕๓๔
๒๕๓๕
๒๕๓๖
๒๕๓๗
๒๕๓๘
๒๕๓๙
๒๕๔๐
๒๕๔๑
๒๕๔๒
๒๕๔๓
๒๕๔๔
๒๕๔๕
๒๕๔๖
๒๕๔๗
๒๕๔๘
๒๕๔๙
๒๕๕๐
๒๕๕๑
๒๕๕๒
๒๕๕๓
๒๕๕๔
๒๕๕๕
๒๕๕๖
๒๕๕๗
๒๕๕๘
๒๕๕๙
๒๕๖๐
๒๕๖๑
๒๕๖๒
๒๕๖๓
๒๕๖๔
๒๖
๒๗
๒๘
๒๙
๓
๓๐
๓๐๐
๓๑
๓๒
๓๓
๓๔
๓๕
๓๖
๓๗
๓๘
๓๙
๔
๔๐
๔๐๐
๔๑
๔๒
๔๓
๔๔
๔๕
๔๖
๔๗
๔๘
๔๙
๕
๕๐
๕๐๐
๕๑
๕๒
๕๓
๕๔
๕๕
๕๖
๕๗
๕๘
๕๙
๖
๖๐
๖๐๐
๖๑
๖๒
๖๓
๖๔
๖๕
๖๖
๖๗
๖๘
๖๙
๗
๗๐
๗๑
๗๒
๗๓
๗๔
๗๕
๗๖
๗๗
๗๘
๗๙
๘
๘๐
๘๑
๘๒
๘๓
๘๔
๘๕
๘๖
๘๗
๘๘
๘๙
๙
๙๐
๙๑
๙๒
๙๓
๙๔
๙๕
๙๖
๙๗
๙๘
๙๙
๚
ກ
ກະ
ການ
ຂ
ຄ
ຄວາມ
ງ
ງສ
ຈ
ຊ
ຍ
ຎ
ຓ
ດ
ຕ
ຖ
ທ
ຘ
ນ
ບ
ປ
ຜ
ຝ
ພ
ຟ
ຠ
ມ
ຢ
ຣ
ລ
ວ
ວງ
ສ
ຫ
ອ
ອງ
ອຍ
ອນ
ອມ
ຮ
ະ
າ
າງ
າຍ
ານ
າວ
ຳ
ຽ
ຽວ
ເ
ເຂ
ເຈ
ເຊ
ເປ
ເລ
ເສ
ເຫ
ແ
ໂ
ໂຕ
ໃ
ໃຈ
ໄ
ໆ
ໜ
ໝ
་
ཀ
ཁ
ག
ང
ཆ
ད
ན
པ
བ
མ
འ
ར
ལ
ས
က
ခ
ဂ
ဃ
င
စ
ဆ
ဇ
ဉ
ည
ဌ
ဍ
ဏ
တ
ထ
ဒ
ဓ
န
ပ
ဖ
ဗ
ဘ
မ
ယ
ရ
လ
ဝ
သ
ဟ
အ
ဢ
ဥ
၊
။
ၚ
ၜ
ၵ
ၶ
ၷ
ၸ
ၹ
ၺ
ၻ
ၼ
ၽ
ၾ
ၿ
ႁ
ა
ბ
გ
დ
ე
ვ
ზ
თ
ი
კ
ლ
მ
ნ
ო
პ
რ
ს
ტ
უ
ფ
ქ
ყ
შ
ც
ძ
ხ
ᄀ
가
감
강
개
걸
게
경
계
고
곡
공
과
관
교
구
국
군
그
기
김
ᄁ
까
ᄂ
나
남
내
너
녀
년
노
뉴
는
니
ᄃ
다
단
달
대
더
데
도
독
돌
동
드
들
디
ᄄ
ᄅ
라
랑
래
랙
러
레
로
룹
리
ᄆ
마
만
매
명
모
무
문
물
뮤
미
민
ᄇ
바
박
발
방
백
버
범
보
부
뷔
브
블
비
ᄈ
ᄉ
사
산
상
생
서
석
선
성
세
소
속
송
수
스
승
시
식
신
ᄊ
씨
ᄋ
아
안
양
어
에
여
역
연
영
예
오
온
와
왕
요
우
운
워
원
월
위
유
윤
으
은
을
음
의
이
인
일
임
입
ᄌ
자
작
장
재
저
전
정
제
조
종
주
준
중
즈
지
직
진
ᄍ
ᄎ
차
천
첫
최
출
치
ᄏ
카
컴
크
키
ᄐ
타
탄
태
터
투
트
티
ᄑ
파
포
표
프
피
핑
ᄒ
하
학
한
합
해
현
호
화
확
회
후
희
ᅡ
ᅢ
ᅣ
ᅥ
ᅦ
ᅧ
ᅨ
ᅩ
ᅪ
ᅫ
ᅬ
ᅭ
ᅮ
ᅯ
ᅰ
ᅱ
ᅲ
ᅳ
ᅴ
ᅵ
ᆨ
ᆩ
ᆫ
ᆭ
ᆮ
ᆯ
ᆰ
ᆷ
ᆸ
ᆹ
ᆺ
ᆻ
ᆼ
ᆽ
ᆾ
ᇀ
ᇁ
ᇂ
ል
ም
ሪ
ር
ስ
ብ
ት
ን
አ
የ
ይ
ፕ
ᖅ
ក
ខ
គ
ឃ
ង
ច
ឆ
ជ
ឈ
ញ
ដ
ឋ
ឌ
ណ
ត
ថ
ទ
ធ
ន
ប
ផ
ព
ភ
ម
យ
រ
ល
វ
ស
ហ
ឡ
អ
ឧ
១
ᠠ
ᥐ
ᥑ
ᥒ
ᥓ
ᥔ
ᥕ
ᥖ
ᥗ
ᥘ
ᥙ
ᥚ
ᥛ
ᥜ
ᥝ
ᥞ
ᥢ
ᥣ
ᥤ
ᥥ
ᥦ
ᥧ
ᥨ
ᥩ
ᥪ
ᥫ
ᥬ
ᥭ
ᥰ
ᥱ
ᥲ
ᥳ
ᥴ
ᦀ
ᦁ
ᦂ
ᦃ
ᦅ
ᦆ
ᦇ
ᦈ
ᦉ
ᦊ
ᦋ
ᦌ
ᦍ
ᦎ
ᦏ
ᦐ
ᦑ
ᦒ
ᦓ
ᦔ
ᦕ
ᦖ
ᦗ
ᦘ
ᦙ
ᦚ
ᦛ
ᦜ
ᦝ
ᦞ
ᦟ
ᦠ
ᦡ
ᦢ
ᦣ
ᦦ
ᦩ
ᦰ
ᦱ
ᦲ
ᦳ
ᦴ
ᦵ
ᦶ
ᦷ
ᦸ
ᦹ
ᦺ
ᦻ
ᦽ
ᦾ
ᧁ
ᧂ
ᧃ
ᧄ
ᧅ
ᧆ
ᧇ
ᧈ
ᧉ
᧑
ᨠ
ᨡ
ᨣ
ᨤ
ᨦ
ᨧ
ᨩ
ᨪ
ᨬ
ᨭ
ᨯ
ᨱ
ᨲ
ᨳ
ᨴ
ᨵ
ᨶ
ᨷ
ᨸ
ᨹ
ᨺ
ᨻ
ᨼ
ᨽ
ᨾ
ᨿ
ᩀ
ᩁ
ᩃ
ᩅ
ᩆ
ᩇ
ᩈ
ᩉ
ᩋ
ᩌ
ᴇ
ᴬ
ᴮ
ᴰ
ᴸ
ᵊ
ᵐ
ᵑ
ᵝ
‐
–
—
―
‖
‘
’
“
”
„
†
‡
•
…
‧
′
″
‹
›
※
⁄
⁴
⁴¹
⁴⁴
⁵
⁵²
⁵³
⁵¹
⁵⁵
⁵⁵⁴
⁻
⁽
⁾
ⁿ
₁
₂
₃
₊
€
℃
ℏ
ℓ
№
™
←
↑
→
↓
↔
↶
↷
∀
∂
∃
∅
∇
∈
∏
∑
−
∗
∘
√
∞
∧
∨
∩
∪
∫
≈
≡
≤
≥
⊆
⊕
⊙
⋅
⋮
⋯
⌈
⌉
⌊
⌋
③
④
⑦
─
│
█
△
○
◌
●
★
☆
♠
♡
♣
♥
♪
♯
⟨
⟩
ⴰ
⺀
⺄
⺆
⺈
⺊
⺌
⺕
⺝
⺸
⺼
⿰
⿱
⿲
⿳
⿴
⿵
⿶
⿷
⿸
⿹
⿺
⿻
、
。
々
〇
〈
〉
《
》
「
」
『
』
【
】
〜
〢
あ
ぃ
い
う
え
お
か
から
き
く
け
こ
さ
さん
し
す
する
せ
そ
た
ち
っ
つ
て
と
な
に
ぬ
ね
の
は
ひ
ふ
へ
ほ
ま
み
む
め
も
ゃ
や
ゅ
ゆ
ょ
よ
ら
り
る
れ
ろ
わ
を
ん
ァ
ア
アクセント
アニメ
アルハムランキンク
ィ
イ
ゥ
ウ
ェ
エ
ォ
オ
カ
キ
ク
ケ
コ
サ
サイト
シ
ション
ス
セ
ソ
タ
チ
ッ
ツ
テ
テレヒ
ト
ナ
ニ
ニュ
ヌ
ネ
ノ
ハ
ヒ
フ
ヘ
ホ
マ
ミ
ム
メ
モ
ャ
ヤ
ュ
ユ
ョ
ヨ
ラ
ライタ
ランキンク
リ
ル
レ
ロ
ワ
ヲ
ン
ヶ
・
ー
ㄅ
ㄆ
ㄇ
ㄈ
ㄉ
ㄊ
ㄋ
ㄌ
ㄍ
ㄎ
ㄏ
ㄐ
ㄑ
ㄒ
ㄓ
ㄔ
ㄕ
ㄖ
ㄗ
ㄘ
ㄙ
ㄚ
ㄛ
ㄜ
ㄝ
ㄞ
ㄟ
ㄠ
ㄡ
ㄢ
ㄣ
ㄤ
ㄥ
ㄦ
ㄧ
ㄨ
ㄩ
㇁
㇂
㇄
㇇
㇈
㇉
㇓
㐁
㐄
㐅
㐌
㐫
㐬
㐭
㐮
㐱
㑒
㒵
㒸
㒼
㓁
㓞
㔾
㕛
㕣
㖾
㘝
㚅
㚇
㚔
㚘
㝉
㝡
㝴
㝵
㞋
㞢
㞷
㠩
㠭
㠯
㡀
㡭
㡿
㢲
㢴
㣇
㣺
㥯
㪅
㫄
㫐
㫒
㫺
㬅
㬎
㬥
㬰
㲋
㳄
㷠
㸒
㸚
㸦
㼌
㼲
㽞
㿟
䀠
䂞
䍃
䏍
䒑
䖍
䖒
䖝
䖵
䙴
䚻
䜌
䝿
䡛
䧹
䪞
一
丁
丂
七
丄
丅
丆
万
丈
三
上
下
丌
不
与
丏
丐
丑
专
且
丕
世
丘
丙
业
东
丞
両
丢
丣
两
严
並
丨
丩
个
丫
丬
中
丮
丰
丱
串
丵
丶
丷
丸
丹
为
主
丽
丿
乀
乂
乃
久
乆
乇
么
义
之
乌
乍
乎
乏
乐
乑
乔
乖
乗
乘
乙
乚
乛
乜
九
乞
也
习
乡
书
乱
乳
乾
亀
亂
亅
了
亇
予
争
事
二
亍
于
亏
亐
云
互
亓
五
井
亘
亚
些
亜
亞
亟
亠
亡
亢
交
亥
亦
产
亨
亩
享
京
亭
亮
亯
亰
亲
亳
亶
亷
人
亻
亼
亾
亿
什
仁
今
介
仌
从
仐
仑
仒
仓
仔
仕
他
付
仙
仝
代
令
以
们
仮
仲
件
任
份
企
伊
伏
伐
休
众
会
伝
传
伦
伯
伸
但
位
低
住
佐
佑
体
何
佘
余
佛
作
你
佥
佳
使
來
侈
例
侌
侍
侖
供
依
侠
価
侯
侵
便
係
俊
俗
保
俞
俠
信
修
俳
俺
倉
個
倍
們
倒
候
借
倠
値
倩
倫
值
假
做
停
健
偵
偶
傅
傑
備
催
傳
傷
僉
働
像
僕
僧
儀
億
儒
優
儿
兀
允
兂
元
兄
充
兆
兇
先
光
兊
克
兌
免
児
兑
兒
兓
兔
党
兜
兟
入
內
全
兩
兪
八
公
六
兮
兰
共
关
兴
兵
其
具
典
兹
兼
冀
冂
冃
冄
内
円
冈
冉
冊
冋
册
再
冎
冏
冐
冒
冓
冖
冗
冘
写
军
农
冝
冠
冡
冥
冫
冬
冰
况
冷
准
几
凡
凢
凤
凰
凵
凶
凷
凸
凹
出
击
函
凾
刀
刁
刂
刃
刄
刅
分
切
刊
刍
刑
划
刕
刖
列
刘
则
创
初
判
別
利
别
到
制
刺
刻
則
削
剌
前
剑
剛
剡
剣
剧
副
割
創
剽
劇
劉
劍
力
办
功
加
务
劦
动
助
劫
劳
労
劵
勃
勇
勉
勒
動
務
勝
勞
勢
勤
勹
勺
勻
勾
勿
匀
匂
包
匆
匈
匊
匋
匍
匕
化
北
匚
匝
匡
匪
匱
匸
匹
区
医
匽
匿
區
十
卂
千
卄
卅
卆
升
午
卉
半
卌
华
卑
卒
卓
協
单
卖
南
単
博
卜
卝
卞
占
卡
卢
卣
卤
卦
卩
卪
卫
卬
卯
印
危
即
却
卵
卷
卸
卻
卿
厂
厃
厄
历
厈
厉
厌
厓
厘
厚
原
厤
厥
厨
厭
厲
厶
厷
厸
去
厼
厽
县
叀
参
參
叅
又
叉
及
友
双
反
収
叐
发
叒
叔
叕
取
受
变
叚
叜
叟
口
古
句
另
叩
只
召
可
台
叱
史
右
叵
叶
号
司
叹
吂
吃
各
吅
合
吉
吊
吋
同
名
后
吏
向
吕
吗
君
吝
吞
否
吧
含
听
启
吳
吴
吸
吹
吾
呂
呆
呈
告
员
呙
周
味
呼
命
咅
和
咎
咠
咢
咨
咲
咸
咼
哀
品
哈
哉
响
員
哥
哪
哲
唐
唯
唱
商
啇
問
啓
啚
啬
啻
善
喜
喬
單
営
喿
嗇
嗣
嘉
器
噩
嚴
囊
囗
囘
囙
囚
四
回
囟
因
团
団
囧
囬
园
困
囱
図
围
囷
固
国
图
圂
圅
國
圍
園
圓
圖
團
土
圡
圣
圥
在
圭
地
圶
场
圼
坂
均
坊
坐
坒
坚
坴
垂
型
垔
垚
垣
埀
埋
城
域
埶
執
基
堀
堂
堅
堆
堇
堯
報
場
塔
塚
塞
塩
境
増
增
墨
壁
壊
壘
士
壬
壯
声
売
壳
壴
壹
壺
壽
夂
处
夅
夆
备
変
夊
夋
夌
复
夏
夒
夕
外
夗
夘
多
夜
夢
大
夨
天
太
夫
夬
夭
央
失
夲
头
夷
夸
夹
夻
夾
奂
奄
奇
奈
奉
奎
奏
奐
契
奓
奔
奕
奖
奚
奞
奠
奢
奥
奧
奪
奭
女
奴
奶
她
奻
好
如
妃
妄
妖
妙
妟
妥
妹
妻
妾
姉
始
姐
姑
姓
委
姜
姫
姬
姿
威
娄
娘
娜
娱
婁
婆
婚
婦
婴
媽
嬪
嬰
嬴
子
孑
孔
孕
孖
字
存
孙
孚
孛
孝
孟
季
孤
学
孩
孫
孱
學
宀
宁
宂
它
宅
宇
守
安
宋
完
宏
宓
宗
官
宙
定
宛
宜
宝
实
実
客
宣
室
宫
宮
宰
害
家
容
宾
宿
寄
寅
密
富
寒
寛
寝
察
實
寧
審
寫
寬
寮
寶
寸
对
寺
寻
寽
対
寿
封
専
尃
射
将
將
專
尉
尊
尋
尌
對
導
小
少
尒
尓
尔
尖
尗
尚
尞
尢
尣
尤
尧
尨
尭
就
尸
尹
尺
尻
尼
尽
尾
尿
局
居
屈
届
屋
屎
屏
屑
展
屖
屚
属
屠
屡
屬
屮
屯
屰
山
屵
屾
岁
岂
岐
岑
岛
岡
岩
岳
岸
峯
峰
島
崇
崎
崑
崔
崖
崙
崩
嵐
嵬
嶋
嶲
巂
巛
川
州
巟
巠
巢
巤
工
左
巧
巨
巩
巫
差
己
已
巳
巴
巷
巸
巻
巽
巾
巿
帀
市
布
师
希
帚
帛
帝
带
師
席
帯
帰
帶
常
幕
干
平
年
幵
并
幷
幸
幹
幺
幻
幼
幽
幾
广
庁
広
庄
庆
床
应
底
店
庚
府
度
座
庫
庭
庶
康
庸
廉
廌
廛
廣
廩
廴
延
廷
建
廾
廿
开
弁
弃
弄
弇
弋
式
弓
弔
引
弗
弘
弜
弟
张
弥
弦
弱
張
強
强
弾
彊
彌
彎
彐
彑
当
彔
录
彖
彗
彡
形
彥
彦
彧
彩
彭
彰
影
彳
役
彼
往
征
待
很
律
後
徐
徒
得
徙
從
御
復
微
徳
徵
德
徹
徽
心
忄
必
忌
忍
志
忘
応
忝
忠
忩
快
念
忽
忿
怒
怖
思
怠
急
性
怪
怱
总
恆
恋
恐
恒
恩
恭
息
恵
悉
悟
悠
患
悤
悪
悲
悶
情
惑
惠
惡
惢
想
愁
愈
意
愛
感
慈
態
慎
慧
慮
慶
憂
憲
應
懿
戀
戈
戉
戊
戋
戌
戍
戎
戏
成
我
戒
戔
或
战
戚
戠
戢
戦
截
戯
戰
戲
戴
戶
户
戸
戹
戼
戾
房
所
扁
扇
手
扌
才
打
托
执
批
承
技
把
投
抗
折
抜
报
披
抱
押
担
拉
拍
拓
招
拜
拳
拼
拿
持
指
挑
挙
振
捕
据
授
掌
排
探
接
推
描
提
揚
揭
援
摩
撃
播
撮
擊
操
支
攴
攵
收
攸
改
攻
放
政
敄
故
敏
救
敕
敖
敗
教
敝
敞
敢
散
敦
敫
敬
数
整
敵
敷
數
斂
文
斉
斊
斎
斗
料
斤
斥
斩
斬
断
斯
新
方
於
施
斿
旁
旅
旋
族
旗
无
旡
既
旣
日
旦
旧
旨
早
旬
旭
旱
旲
时
旾
昆
昇
昌
昍
明
昏
易
昔
昗
昜
星
映
春
昬
昭
是
昱
昴
昷
時
晃
晉
晋
晏
晓
晚
晨
普
景
晴
晶
智
暑
暗
暮
暴
曇
曜
曝
曩
曰
曲
曳
更
曷
書
曹
曼
曾
替
最
朁
會
月
有
朋
服
朔
朕
朗
望
朝
期
木
朩
未
末
本
札
朮
术
朱
朴
朵
朶
机
朿
杀
杉
李
杏
材
村
杜
束
条
来
杨
杯
杰
東
杲
杳
松
板
析
林
枚
果
枝
枲
架
枼
柏
某
染
柔
查
柬
柰
柳
柴
査
栄
标
栗
校
株
样
根
格
桀
桂
桃
案
桐
桑
桜
档
桥
桼
梁
梅
條
梟
梦
梨
棋
棒
棘
棠
棥
森
植
検
楊
楚
業
極
楼
楽
概
榜
榮
構
槍
様
樂
樊
樓
標
模
権
横
樹
橋
橘
橙
機
權
欠
次
欢
欣
欮
欲
欶
欽
款
歆
歇
歌
歛
歡
止
正
此
步
武
歨
歩
歪
歮
歯
歰
歲
歳
歴
歷
歸
歹
歺
死
殊
残
殳
段
殷
殸
殹
殺
殻
殿
毅
毋
毌
母
毎
每
毒
比
毕
毚
毛
毳
氏
氐
民
气
気
氣
水
氵
氶
氷
永
氺
氾
求
汉
汝
汞
江
池
汤
決
汽
沃
沈
沒
沓
沖
沙
沝
没
沢
河
油
治
沼
況
泉
法
波
泣
泥
注
泰
洋
洗
洛
洞
津
洪
洲
活
派
流
浅
济
浜
浦
浩
浪
浮
海
消
涙
涛
涼
淑
淡
淮
深
淳
清
済
渋
渚
渠
渡
温
測
港
游
湖
湘
湯
湾
満
源
準
溪
溫
滅
滝
满
滿
演
漢
漫
漸
潘
潤
潮
澄
澤
澳
激
濟
瀬
灣
火
灬
灭
灯
灰
灵
灷
災
炅
炎
炏
炗
炙
炭
点
為
烈
烏
烝
热
焉
無
焦
焱
然
焼
煞
照
熊
熏
熙
熱
燃
燕
營
燮
爆
爪
爫
爭
爯
爰
爱
爲
爵
父
爻
爽
爾
爿
片
版
牌
牙
牚
牛
牜
牟
牢
牧
物
牪
特
牽
犀
犬
犭
犮
犯
状
狂
狄
狊
狐
狗
狩
独
狺
狼
猋
猒
猛
猪
猫
献
猿
獄
獅
獣
獨
獲
獻
玄
率
玉
王
玟
玨
玩
现
玲
珍
珎
珠
班
現
球
理
琴
瑞
瑟
瑩
璋
環
瓜
瓦
甘
甚
生
產
産
用
甫
甬
田
由
甲
申
电
甶
男
甸
甹
町
画
甾
畀
界
畏
畐
畑
留
畜
畟
畢
略
畧
畨
番
畫
異
畱
畳
當
畺
畾
疊
疋
疌
疑
疒
疫
疾
病
痛
癶
癸
癹
発
登
發
白
百
皀
皃
的
皆
皇
皋
皐
皕
皮
皷
皿
盃
盆
盇
盈
益
盍
盎
监
盒
盖
盗
盛
盟
盡
監
盤
盧
目
直
相
盾
省
眇
眉
看
県
眔
眞
真
眷
眼
眾
着
睘
督
睪
睿
瞏
瞢
瞿
矍
矛
矞
矢
矣
知
矦
短
矮
石
砂
研
破
确
碎
碧
確
磊
磨
示
礻
礼
社
祐
祖
祝
神
祟
祥
票
祭
禀
禁
福
禮
禸
禹
禺
离
禽
禾
禿
秀
私
秃
秉
秋
种
科
秘
秝
秦
称
移
程
稟
種
稱
稲
穀
穂
穆
穌
積
穴
究
穹
空
穿
突
窄
窒
立
竒
站
竜
竝
竟
章
童
端
競
竹
笑
笠
第
筆
等
筑
答
策
简
箕
算
管
箴
節
篇
篠
篤
篭
簡
籍
米
粉
粛
粟
粤
粦
粲
精
糖
糞
糸
糹
系
紀
約
紅
紋
納
純
紗
紙
級
素
索
紫
累
細
紹
終
組
経
結
絕
絜
絫
統
絲
絵
絶
經
続
維
綱
網
綾
綿
緊
総
緑
緒
線
編
練
縄
縣
總
繇
織
纍
纟
红
约
级
纪
线
组
绎
经
结
统
编
缶
网
罒
罔
罕
罗
罙
罡
罢
罪
置
署
罷
羅
羊
羌
羍
美
羔
羕
羗
羞
羡
羣
群
義
羲
羸
羽
翁
翏
習
翔
翕
翟
翠
翻
翼
耀
老
耂
考
者
耆
而
耎
耑
耒
耳
耴
耶
耷
聂
聊
联
聖
聚
聞
聯
聲
聴
聶
職
聿
肀
肃
肅
肉
肖
肙
股
肥
肩
肯
育
肴
肺
胃
背
胡
胥
能
脊
脚
脩
脱
腐
腾
膚
臣
臤
臧
臨
自
臬
臭
臯
臱
至
致
臺
臼
臽
臾
臿
舀
舂
舄
與
興
舉
舌
舍
舛
舜
舞
舟
航
般
船
艦
艮
良
色
艸
艹
艺
艾
节
芒
芔
芝
芬
芮
花
芳
芸
芺
芻
芽
苏
苔
苗
苟
若
苦
英
茂
范
茜
茶
茸
荅
草
荒
荣
药
荼
莆
莉
莊
莧
莫
获
莽
菅
菆
菊
菐
菜
菩
華
萌
营
萬
落
葉
著
葛
董
葵
蒙
蒦
蒼
蓋
蓬
蓮
蓺
蔑
蔡
蔵
蕉
蕭
薄
薇
薛
薦
薩
薬
薰
藍
藏
藝
藤
藥
藩
蘇
蘭
虍
虎
虐
虒
虔
處
虖
虗
虘
虚
虛
虜
虞
號
虫
虹
虽
蚤
蚩
蛇
蛋
蜀
蜜
蝶
融
蟲
蠡
血
衆
行
衍
術
街
衛
衝
衣
衤
表
衮
衰
袁
袞
被
裁
裂
装
裏
裕
補
製
褭
褱
襄
襲
襾
西
覀
要
覃
覇
見
規
覓
視
覚
覧
親
観
覺
覽
觀
见
观
规
视
角
解
言
訁
訇
計
訊
訓
記
訪
設
許
評
詞
試
詩
話
詹
誌
認
誕
語
誠
誩
說
説
読
誰
課
調
談
請
論
諸
謀
謎
謙
講
謝
識
警
譯
議
護
變
讓
讠
计
议
讯
记
论
设
词
试
话
语
说
请
谷
豆
豈
豊
豐
豕
豖
豙
象
豦
豩
豪
豸
貇
貝
貞
貟
負
財
貢
貧
貪
貫
責
貳
貴
買
費
賀
賁
資
賈
賊
賏
賓
賔
賛
賞
賢
賣
質
賴
贊
贝
贡
责
贯
贲
贵
资
赖
赛
赞
赤
赦
赫
走
赵
起
超
越
趙
足
跡
路
跳
蹇
身
躬
車
軌
軍
軎
軟
転
載
輔
輝
輦
輪
轉
轟
车
轨
辛
辜
辞
辟
辥
辦
辰
辱
農
辵
辶
边
辺
达
过
迎
运
近
返
还
这
进
远
连
迪
迫
迷
追
退
送
逃
逆
选
透
逐
這
通
速
造
逢
連
逮
週
進
逸
遀
遂
遇
遊
運
過
道
達
違
遠
遣
遥
適
遭
遷
選
遺
遼
還
邊
邑
邓
邕
那
邦
邪
郎
郑
郡
部
郭
郵
郷
都
鄉
鄭
酉
酋
配
酒
酓
醫
釆
采
里
重
野
量
金
釒
針
鈴
鉄
銀
銃
鋼
錄
錢
録
鍾
鎮
鏡
鐘
鐵
鑑
钅
钟
钱
铁
银
镇
長
镸
长
門
閃
閉
開
閏
閑
閒
間
閔
関
閣
閵
閻
闇
闌
闘
關
门
问
间
闷
闻
阑
阜
阝
队
阪
阮
防
阳
阿
陀
附
际
陆
陈
降
限
院
陣
除
陰
陳
陵
陸
険
陽
隆
隊
隋
際
隠
隡
隨
隱
隶
隹
隺
隻
隼
隽
难
雀
雁
雄
雅
集
雈
雋
雍
雐
雔
雙
雚
雜
雝
雞
離
難
雨
雩
雪
雲
零
雷
電
需
震
霊
霍
霜
霝
霞
霧
露
霸
靈
靑
青
靖
静
靜
非
靡
面
靣
革
鞘
韋
韓
韦
韩
韭
韯
韱
音
響
頁
頂
頃
項
順
須
頗
領
頡
頭
頻
頼
題
顏
顔
願
顛
類
顯
页
项
顺
领
频
题
颜
風
风
飛
飞
食
飠
飯
飲
飾
養
餘
館
饣
饭
饰
馆
首
香
馬
馮
駅
駆
駦
騎
験
驚
马
骨
體
高
髟
鬥
鬯
鬲
鬼
魂
魅
魏
魔
魚
魯
鮮
鱼
鲁
鳥
鳳
鳴
鴨
鶴
鷹
鸟
鹵
鹿
麃
麗
麥
麦
麵
麻
麼
黃
黄
黍
黎
黑
黒
點
黨
黹
黽
黾
鼎
鼓
鼠
鼻
齊
齋
齐
齒
齿
龍
龙
龜
龟
龠
龰
龱
龴
龵
龶
龷
龸
龹
ꜜ
ꤛ
ꤞ
ꤟ
ꤢ
ꤤ
ꧣ
ꧤ
ꩫ
ꩬ
ꩭ
ꪀ
ꪁ
ꪄ
ꪅ
ꪉ
ꪊ
ꪋ
ꪎ
ꪏ
ꪐ
ꪑ
ꪒ
ꪔ
ꪕ
ꪖ
ꪘ
ꪙ
ꪚ
ꪜ
ꪝ
ꪠ
ꪡ
ꪢ
ꪣ
ꪤ
ꪥ
ꪨ
ꪩ
ꪫ
ꪬ
ꪭ
ꪮ
ꪱ
ꪵ
ꪶ
ꪹ
ꪺ
ꪻ
ꪼ
ꪽ
ꫀ
ꫂ
者
艹
？
･
￼
�
𐌰
𐬀
𑀅
𑀓
𑀔
𑀕
𑀘
𑀚
𑀡
𑀢
𑀤
𑀥
𑀦
𑀧
𑀩
𑀪
𑀫
𑀬
𑀭
𑀮
𑀯
𑀲
𑀳
𑜀
𑜁
𑜂
𑜃
𑜄
𑜆
𑜇
𑜈
𑜉
𑜊
𑜋
𑜌
𑜍
𑜎
𑜏
𑜐
𑜑
𑜒
𑜓
𝪜
𠀁
𠀃
𠀆
𠀉
𠀎
𠀐
𠁁
𠁣
𠂆
𠂇
𠂈
𠂉
𠂊
𠂋
𠂎
𠂒
𠂔
𠂛
𠂡
𠂢
𠂤
𠂬
𠂭
𠂹
𠃊
𠃋
𠃌
𠃍
𠃎
𠃑
𠃓
𠃔
𠃜
𠄌
𠄎
𠄠
𠄢
𠆢
𠆥
𠇍
𠈌
𠌵
𠓜
𠔉
𠔥
𠔼
𠔽
𠔿
𠕀
𠕁
𠕋
𠘧
𠘨
𠙻
𠙼
𠚏
𠚒
𠚤
𠚪
𠣏
𠤎
𠤕
𠥓
𠦄
𠦑
𠦝
𠧒
𠧗
𠧪
𠩺
𠪚
𠫓
𠫔
𠫤
𠬛
𠬝
𠬞
𠬢
𠬤
𠬶
𠮛
𠮦
𠮷
𠯑
𠱠
𠳮
𠷎
𡈼
𡉀
𡉵
𡌥
𡍮
𡏳
𡕒
𡕩
𡕰
𡖅
𡗗
𡗜
𡘆
𡘤
𡧱
𡨄
𡩧
𡬠
𡭽
𡰣
𡰥
𡰪
𡰯
𡰱
𡷈
𡸁
𡿨
𡿩
𡿪
𡿺
𢀖
𢀛
𢀩
𢁙
𢆉
𢆰
𢆶
𢇁
𢇇
𢉖
𢌬
𢌿
𢏚
𢑑
𢑚
𢖻
𢙣
𢛳
𢦏
𢦒
𢧵
𢼄
𢾕
𣁋
𣄼
𣅀
𣅽
𣍘
𣎳
𣎵
𣏋
𣏼
𣗥
𣥂
𣥖
𣦵
𣦼
𣧄
𣪊
𣪠
𣬉
𣳾
𣶒
𤇾
𤊽
𤐫
𤓰
𤔔
𤕨
𤣩
𤰇
𤰔
𤰞
𤴓
𤴔
𤽄
𥁑
𥁕
𥃦
𥃩
𥃭
𥇡
𥑟
𥘅
𥘈
𥝢
𥫗
𥱡
𦈢
𦉪
𦉬
𦉼
𦍌
𦍒
𦎧
𦐇
𦓔
𦔮
𦘒
𦙃
𦚏
𦣝
𦣞
𦣻
𦥑
𦥔
𦥯
𦨉
𦭝
𦰩
𧆞
𧈧
𧘇
𧰨
𧴪
𧴮
𧵩
𧾷
𨸏
𨾴
𩙿
𩠐
𩫏
𩵋
𪉷
𪜀
𪟽
𪠲
𪩲
𫇦
𫔭
𫜸
𫝀
𫠣
𫠩
𫢉
𫥞
𫩏
𫩠
𫪡
𫲽
𫶧
𬀷
𬐘
𬗌
𬙙
𬛸
𬜯
𬟩
𬯁
𬴘
𬺻
𬼉
𬼖
𭀰
𭁈
𭁨
𭅰
𭑈
𭕄
𭗼
𭤨
𭥫
𭻾
𮅕
𮊿
𮍌
𮍏
𮓗
𮥼
𮧮
廾
𰀁
𰀄
𰀈
𰀉
𰀕
𰀠
𰀡
𰀢
𰀪
𰁜
𰃮
𰆊
𰆘
𰋙
𰕎
𰢴
𰧭
𰯲
0--
000--
001--
01--
02--
03--
04--
05--
06--
07--
08--
09--
1--
2--
3--
4--
44--
45--
46--
48--
5--
51--
53--
56--
57--
58--
59--
6--
60--
61--
62--
63--
64--
65--
66--
69--
7--
70--
71--
72--
73--
74--
75--
76--
77--
78--
79--
8--
80--
81--
82--
83--
84--
85--
86--
87--
88--
89--
9--
90--
91--
92--
93--
94--
95--
96--
97--
974--
978--
97805--
97808--
98--
99--
a--
aa--
ab--
abs--
ac--
acad--
acce--
accele--
accr--
accu--
acqu--
activ--
ad--
adap--
add--
adel--
adoles--
ae--
aero--
af--
aff--
ag--
ah--
ai--
air--
aj--
ak--
al--
alek--
ales--
ali--
all--
alt--
alter--
am--
amend--
amphi--
an--
ana--
anarc--
and--
ant--
anti--
antide--
any--
ao--
ap--
app--
aq--
aqua--
ar--
ara--
arch--
argu--
arm--
art--
as--
asp--
assa--
assi--
astr--
at--
ata--
attach--
atten--
au--
audi--
aus--
auto--
av--
aw--
ax--
ay--
az--
b--
ba--
back--
bact--
bad--
ban--
bapt--
bar--
base--
bat--
bb--
bc--
bd--
be--
beau--
bed--
belg--
ben--
bert--
bet--
bh--
bi--
big--
bin--
bio--
bis--
bj--
bl--
blan--
bo--
body--
boli--
bon--
bor--
bot--
bou--
box--
boy--
br--
brac--
bree--
brit--
broa--
broo--
brus--
bu--
bun--
bus--
but--
by--
byzan--
ca--
cam--
can--
cap--
car--
cas--
cat--
cau--
cc--
cd--
ce--
cele--
cen--
cere--
cert--
ch--
cha--
che--
chi--
chlo--
cho--
chu--
ci--
cin--
circ--
circum--
cl--
clem--
clim--
cm--
cn--
co--
cock--
coeffici--
coll--
collec--
com--
compo--
con--
confi--
conju--
cons--
contr--
conver--
coor--
coordinat--
copy--
corn--
corr--
cort--
cos--
cou--
cp--
cr--
cres--
crist--
crit--
croc--
cs--
ct--
cu--
cui--
curr--
cy--
cycl--
cyp--
cyto--
d--
da--
dai--
dam--
dan--
day--
db--
de--
dec--
decla--
def--
defic--
del--
democ--
demog--
den--
depen--
der--
des--
det--
deter--
deve--
develo--
dh--
di--
dial--
dict--
diff--
dios--
dipl--
dis--
disc--
dj--
dm--
do--
doc--
don--
dora--
dou--
down--
dr--
dres--
ds--
du--
dun--
dw--
dy--
dz--
e--
ea--
ear--
eat--
eb--
ec--
ed--
ee--
ef--
eg--
eh--
ei--
ek--
el--
elec--
em--
emer--
emis--
emot--
en--
end--
endoc--
eng--
ent--
eo--
ep--
epid--
epil--
eq--
equa--
equi--
equiva--
er--
es--
espe--
est--
establi--
et--
eu--
eura--
euro--
ev--
ever--
ew--
ex--
exo--
expe--
expl--
explor--
ey--
ez--
f--
fa--
faci--
fai--
fan--
far--
fc--
fe--
fen--
ferr--
fi--
fili--
fini--
fire--
fitz--
fl--
flor--
fm--
fo--
folk--
foot--
for--
four--
fr--
frag--
fran--
free--
frei--
frie--
fu--
fun--
ga--
gai--
gala--
gali--
gall--
game--
gan--
gas--
gat--
gau--
ge--
gen--
geo--
ger--
gh--
gi--
gl--
glut--
gm--
gn--
go--
god--
good--
got--
gr--
grac--
grad--
gram--
green--
grif--
gs--
gu--
guate--
guer--
gui--
gun--
gw--
gy--
gymn--
h--
ha--
hai--
ham--
han--
hand--
hap--
hard--
has--
hat--
hd--
he--
head--
hei--
heinr--
hels--
hen--
her--
hh--
hi--
high--
him--
hin--
hiro--
his--
hit--
hl--
hm--
ho--
hodg--
hoff--
home--
hon--
horm--
hot--
hou--
hr--
hs--
hsi--
ht--
hu--
hv--
hy--
hydr--
hyper--
hypo--
i--
ia--
ib--
ibra--
ic--
id--
ideo--
ie--
if--
ig--
ih--
ii--
ik--
il--
illust--
im--
in--
inc--
incid--
incor--
indi--
indo--
indu--
infe--
infi--
info--
ing--
insp--
inst--
instru--
instruct--
insu--
int--
inter--
inve--
invent--
invest--
invi--
io--
ip--
ir--
is--
iso--
it--
iu--
iv--
iw--
iz--
j--
ja--
jan--
jc--
je--
jen--
jh--
ji--
jin--
jj--
jn--
jo--
ju--
k--
ka--
kai--
kam--
kan--
kap--
kat--
ke--
kei--
ken--
key--
kh--
ki--
kin--
kit--
kl--
km--
kn--
ko--
kon--
konst--
kr--
kra--
ks--
ku--
kun--
kv--
kw--
ky--
l--
la--
lam--
lan--
land--
las--
lau--
law--
le--
leg--
lei--
len--
les--
lh--
li--
libe--
life--
lin--
lit--
lj--
ll--
lo--
lock--
long--
lu--
lw--
ly--
m--
ma--
mac--
macro--
mad--
mag--
mai--
mak--
mal--
man--
manda--
manif--
manuf--
mar--
mas--
mat--
max--
may--
mb--
mc--
me--
med--
mei--
men--
merc--
met--
meta--
meteoro--
mg--
mi--
micro--
mid--
mil--
min--
mira--
mit--
miya--
mm--
mn--
mo--
mol--
mon--
mono--
monum--
moon--
mor--
mou--
mp--
mr--
ms--
mt--
mu--
multi--
muta--
mw--
my--
myst--
n--
na--
nai--
naka--
nan--
narr--
nas--
nat--
nc--
nd--
ne--
neder--
neigh--
neo--
net--
neur--
neut--
new--
news--
nf--
ng--
nh--
ni--
nico--
niko--
nine--
nj--
nl--
nm--
no--
non--
nor--
not--
ns--
nt--
nu--
nume--
nutri--
ny--
oa--
ob--
obst--
oc--
occupat--
od--
oe--
of--
off--
og--
oh--
oi--
oj--
ok--
ol--
oliv--
olym--
om--
omni--
on--
one--
oo--
op--
open--
oppo--
opport--
or--
os--
oster--
ot--
ou--
out--
ov--
over--
ow--
ox--
oy--
oz--
p--
pa--
pala--
paleo--
pales--
pall--
pan--
par--
para--
pass--
pat--
pay--
pc--
pe--
pedi--
pen--
per--
pet--
pf--
ph--
pha--
phen--
phono--
phosp--
photo--
phu--
phylog--
phys--
physic--
pi--
pin--
pit--
pl--
plas--
plat--
play--
plea--
pm--
po--
poli--
poly--
pop--
poss--
post--
pp--
pr--
prae--
pre--
predict--
prim--
pro--
propo--
provi--
ps--
pseu--
pseudo--
psyc--
pt--
pu--
pub--
pulm--
put--
pw--
py--
qa--
qi--
qu--
r--
ra--
radio--
raff--
ram--
ran--
rap--
rat--
ray--
rc--
re--
reci--
reco--
recom--
red--
ref--
refer--
reflect--
regard--
regi--
regula--
rein--
rela--
reli--
ren--
repub--
res--
reti--
retr--
rf--
rh--
rhin--
ri--
rm--
ro--
road--
rob--
ron--
rou--
rs--
rt--
ru--
run--
ry--
s--
sa--
sai--
sal--
sam--
san--
santi--
sap--
sat--
sc--
scar--
scha--
schl--
scho--
schw--
sci--
scor--
scul--
se--
sea--
sec--
see--
segm--
sei--
sen--
sep--
ser--
set--
settlem--
sf--
sh--
sha--
she--
shi--
show--
shu--
si--
sil--
sim--
sin--
sj--
sk--
ske--
sky--
sl--
slip--
slov--
sm--
sn--
so--
socio--
sol--
some--
son--
song--
sp--
spar--
spec--
spon--
spot--
spra--
sq--
sr--
ss--
st--
stab--
stam--
star--
stat--
stein--
ster--
stereo--
stra--
strept--
stri--
stru--
su--
sub--
subst--
sum--
sun--
sunder--
super--
supp--
sur--
susp--
sv--
sw--
sy--
syll--
symp--
synt--
sz--
t--
ta--
tai--
taka--
tam--
tan--
tc--
te--
tele--
temp--
ten--
terr--
tetr--
tf--
th--
tha--
thai--
the--
thi--
thurs--
ti--
tie--
tim--
tin--
tj--
tn--
to--
toku--
tom--
ton--
top--
tor--
tou--
tr--
trad--
trans--
tri--
true--
ts--
tsu--
tu--
turk--
tv--
tw--
ty--
tz--
u--
ub--
uc--
ud--
ue--
ug--
ui--
uk--
ul--
um--
un--
under--
up--
ur--
us--
ut--
uz--
v--
va--
van--
var--
vasc--
ve--
vent--
ver--
vest--
vete--
vf--
vi--
view--
vint--
viol--
vl--
vm--
vo--
vol--
vr--
vt--
vu--
w--
wa--
wan--
war--
was--
wat--
water--
way--
we--
web--
wei--
wen--
west--
wh--
whit--
wi--
wiki--
win--
wo--
wood--
world--
wort--
wr--
wu--
ww--
wy--
x--
xa--
xc--
xe--
xi--
xin--
xl--
xt--
xv--
xw--
xx--
ya--
yama--
yaza--
ye--
yi--
yo--
yoko--
yr--
yu--
yugo--
yun--
yy--
z--
za--
ze--
zeit--
zi--
zo--
zoo--
zu--
zur--
zw--
æ--
đ--
ŋ--
ɐ--
ɑ--
ɔ--
ɕ--
ɕi--
ə--
ɛ--
ɡ--
ɣ--
ɦ--
ɨ--
ɪ--
ɯ--
ɲ--
ɹ--
ɾ--
ʁ--
ʂ--
ʃ--
ʊ--
ʋ--
ʌ--
ʐ--
ʑ--
ʒ--
ʔ--
ʰ--
ː--
τ--
б--
в--
г--
д--
з--
и--
к--
л--
м--
н--
о--
п--
р--
с--
т--
ч--
ا--
ال--
الم--
ب--
ع--
م--
و--
अ--
आ--
क--
ग--
ज--
त--
न--
प--
म--
य--
र--
व--
स--
०--
ก--
กก--
กกร--
กกล--
กกะ--
กกา--
กการ--
กกำหน--
กข--
กขระ--
กของ--
กขา--
กค--
กคน--
กคร--
กคว--
กความ--
กคาม--
กง--
กงาน--
กจ--
กจะ--
กจะท--
กจาก--
กฉ--
กช--
กชน--
กชาย--
กซ--
กฎ--
กฎหมาย--
กฐาน--
กฐานทาง--
กด--
กดา--
กต--
กตร--
กตา--
กถ--
กถอน--
กท--
กทร--
กทำ--
กธ--
กธรร--
กน--
กนก--
กนำ--
กนำม--
กบ--
กบฏ--
กบวช--
กป--
กปกคร--
กประ--
กปล--
กผ--
กผนว--
กฝ--
กพ--
กพรรค--
กพระ--
กฟ--
กภ--
กภา--
กภาพ--
กม--
กมล--
กมวย--
กมวยสากล--
กมา--
กย--
กยภาพ--
กยะ--
กร--
กรข--
กรด--
กรต--
กรท--
กรบ--
กรม--
กรมท--
กรมหลวง--
กรยาน--
กรร--
กรรม--
กรรมการ--
กรว--
กรส--
กรอ--
กรอบ--
กระ--
กระจ--
กระทำ--
กระบวนการ--
กระแส--
กราช--
กราน--
กฤต--
กล--
กลง--
กละ--
กลา--
กลาง--
กลไก--
กว--
กวง--
กวาง--
กศ--
กษ--
กษณ--
กษณะ--
กษณะท--
กษร--
กษะ--
กษา--
กษากฎ--
กษาการ--
กษาข--
กษาท--
กษาพระ--
กษาราช--
กษาส--
กษาอ--
กษาและ--
กษาใน--
กส--
กสงคร--
กสภา--
กสห--
กสอน--
กสะ--
กสาว--
กสำรวจ--
กห--
กหม--
กหล--
กอ--
กอง--
กองท--
กองพลท--
กอน--
กออก--
กออกแบบ--
กอะ--
กฮ--
กะ--
กา--
กาก--
กางเข--
กาน--
กาม--
กาย--
การ--
การการ--
การข--
การขยาย--
การคณะกรร--
การคาด--
การต--
การท--
การทดล--
การทดสอบ--
การทำ--
การทำงาน--
การนำ--
การนำข--
การปกครอง--
การประกาศ--
การพ--
การพระ--
การม--
การย--
การล--
การว--
การส--
การสำรวจ--
การออก--
การออกอากาศ--
การออกแบบ--
การอาหาร--
กาล--
กาส--
กาและ--
กำ--
กำหนด--
กำแพง--
กำไร--
กเก--
กเข--
กเซ--
กเด--
กเตะ--
กเธอ--
กเนร--
กเบ--
กเผ--
กเร--
กเส--
กเสบ--
กเอ--
กแบ--
กแยก--
กแร--
กและ--
กแสดง--
กโทร--
กโทษ--
กใจ--
กใน--
กไป--
กไว--
กๆ--
ข--
ขณ--
ขณะ--
ขต--
ขน--
ขนาด--
ขนายก--
ขบวน--
ขภาพ--
ขม--
ขย--
ขว--
ขวา--
ขส--
ขอ--
ของ--
ของกฎ--
ของการ--
ของค--
ของช--
ของท--
ของน--
ของพระ--
ของอ--
ขอบ--
ขอบเขต--
ขะ--
ขา--
ขากรร--
ขาด--
ขาย--
ขาว--
ขโม--
ฃ--
ค--
คก--
คการ--
คค--
คคล--
คง--
คช--
คณ--
คณะ--
คด--
คต--
คท--
คน--
คนข--
คนจำน--
คนต--
คนบ--
คนม--
คนส--
คนแรก--
คนใน--
คนไทย--
คบ--
คป--
คพ--
คม--
คย--
คร--
ครบ--
ครองนคร--
คล--
คลอง--
คลากร--
คว--
ควร--
ความ--
ความพยายาม--
ความหลาก--
คส--
คห--
คอ--
คอน--
คอม--
คอย--
คะ--
คะแนน--
คา--
คาถ--
คาน--
คาบ--
คาร--
คาล--
คำ--
คำต--
คำนวณ--
คำส--
ฅ--
ฆ--
ฆาต--
ง--
งก--
งกร--
งกรรม--
งกระจ--
งกระบว--
งกระแส--
งกฤษ--
งกล--
งกะ--
งกา--
งกาย--
งการ--
งกำ--
งกำหน--
งข--
งขนาด--
งขบว--
งขว--
งของ--
งขาด--
งค--
งคณ--
งคณะ--
งคณะก--
งคณะกรร--
งคณะกรรมการ--
งคน--
งคม--
งคร--
งคล--
งคว--
งความ--
งคา--
งคาร--
งคำถ--
งฆ--
งง--
งงะ--
งงาน--
งจ--
งจะ--
งจะท--
งจะส--
งจาก--
งจากจ--
งฉ--
งช--
งชน--
งชาว--
งซ--
งด--
งดำร--
งต--
งตน--
งตร--
งตะ--
งตาม--
งถ--
งถนน--
งถว--
งท--
งทร--
งทหาร--
งทาง--
งทำ--
งทำน--
งทำล--
งธ--
งน--
งนคร--
งนา--
งนามกรรม--
งนำ--
งนำม--
งบ--
งบวก--
งบวร--
งป--
งปกคร--
งประ--
งประกาศ--
งประธาน--
งประมวลกฎ--
งปรากฏ--
งปล--
งปวง--
งผ--
งผล--
งฝ--
งพ--
งพน--
งพยาย--
งพร--
งพรรค--
งพระ--
งพระราช--
งพล--
งพวก--
งพอ--
งฟ--
งภ--
งภา--
งภาค--
งภายใน--
งภาษา--
งม--
งมรดกโลก--
งมวลชน--
งมหา--
งมอบ--
งมา--
งมาก--
งย--
งยาก--
งร--
งรถ--
งระ--
งระบ--
งรา--
งราช--
งราย--
งล--
งลง--
งละ--
งละคร--
งว--
งวง--
งวล--
งวะ--
งศ--
งศพ--
งศาล--
งส--
งสน--
งสภา--
งสม--
งสห--
งสอง--
งสะ--
งสาม--
งสามารถ--
งสาร--
งสาว--
งห--
งหน--
งหม--
งหมด--
งหล--
งหลาย--
งหวะ--
งหา--
งหาร--
งอ--
งออก--
งออฟ--
งอะ--
งอา--
งอาจ--
งอำน--
งอำนาจ--
งฮ--
งา--
งาน--
งาม--
งเก--
งเกต--
งเกาะ--
งเขต--
งเขา--
งเค--
งเซ--
งเท--
งเทพ--
งเทศบาล--
งเธอ--
งเบ--
งเป--
งเพ--
งเพลง--
งเร--
งเล--
งเว--
งเศส--
งเส--
งเอ--
งแก--
งแข--
งแค--
งแบบ--
งแผ--
งแย--
งแยกอ--
งแรก--
งแรกใน--
งแรง--
งและ--
งและก--
งแสง--
งแสดง--
งแสน--
งแอ--
งโข--
งโค--
งโคร--
งโดย--
งโต--
งโรง--
งโฮ--
งใจ--
งใด--
งใน--
งในการ--
งในประเทศ--
งในส--
งในสาม--
งใบ--
งไทย--
งไป--
งไฟ--
งไห--
งๆ--
จ--
จก--
จกรม--
จกรรม--
จการ--
จข--
จง--
จจ--
จจาก--
จฉา--
จช--
จด--
จดหมาย--
จดหมายมองเซน--
จต--
จท--
จทร--
จน--
จนส--
จบ--
จประ--
จพ--
จพระ--
จพระบรม--
จพระบรมไตร--
จพระไชย--
จม--
จย--
จร--
จล--
จว--
จส--
จอ--
จอม--
จะ--
จะก--
จะข--
จะค--
จะงอย--
จะต--
จะถ--
จะท--
จะทร--
จะทำ--
จะทำการ--
จะทำล--
จะน--
จะนำ--
จะบ--
จะพ--
จะม--
จะย--
จะร--
จะล--
จะว--
จะส--
จะสามารถ--
จะห--
จะอ--
จะออก--
จะเป--
จา--
จาก--
จากการ--
จากบท--
จากประเทศ--
จากภาษา--
จาค--
จาง--
จารณา--
จำ--
จำน--
จำนวน--
จำป--
จำพ--
จำเล--
จำแน--
จและ--
จโจ--
จใน--
จไป--
ฉ--
ฉล--
ฉลอง--
ฉาก--
ฉาย--
ช--
ชก--
ชกาล--
ชช--
ชชะ--
ชชา--
ชฌ--
ชญา--
ชด--
ชต--
ชท--
ชน--
ชนะ--
ชบ--
ชป--
ชผ--
ชพ--
ชม--
ชมรม--
ชย--
ชร--
ชรา--
ชล--
ชว--
ชวน--
ชส--
ชอ--
ชอบ--
ชะ--
ชะต--
ชา--
ชาก--
ชาการ--
ชาค--
ชาญ--
ชาด--
ชาท--
ชาน--
ชาพ--
ชาภาษา--
ชาย--
ชาว--
ชาส--
ชาเอก--
ชำน--
ชำนาญ--
ชำระ--
ชเช--
ซ--
ซง--
ซซ--
ซอ--
ซอย--
ซะ--
ซา--
ซาก--
ซาน--
ฌ--
ฌา--
ญ--
ญก--
ญของ--
ญค--
ญจ--
ญจร--
ญจาก--
ญช--
ญชนะ--
ญชา--
ญชาการ--
ญญ--
ญญา--
ญญาณ--
ญญาโท--
ญต--
ญท--
ญธรรม--
ญน--
ญบ--
ญป--
ญประ--
ญพ--
ญพระ--
ญมา--
ญย--
ญร--
ญล--
ญว--
ญศ--
ญส--
ญหา--
ญหาท--
ญหาย--
ญอ--
ญา--
ญาณ--
ญาต--
ญเป--
ญแจ--
ญและ--
ญใจ--
ญไป--
ฎ--
ฎก--
ฏ--
ฏฐ--
ฐ--
ฐก--
ฐค--
ฐจ--
ฐฉ--
ฐช--
ฐซ--
ฐต--
ฐท--
ฐบ--
ฐบาล--
ฐป--
ฐประช--
ฐพ--
ฐม--
ฐว--
ฐส--
ฐสภา--
ฐอ--
ฐาน--
ฐานะ--
ฐเอก--
ฐโอ--
ฑ--
ฑา--
ฒ--
ฒน--
ฒนธรรม--
ฒนา--
ฒนาการ--
ฒนาระบบ--
ณ--
ณก--
ณค--
ณจ--
ณจะ--
ณช--
ณฐ--
ณฑ--
ณณ--
ณต--
ณท--
ณน--
ณป--
ณพ--
ณพระ--
ณภาพ--
ณม--
ณย--
ณส--
ณห--
ณอ--
ณา--
ด--
ดก--
ดกร--
ดกระจ--
ดการ--
ดข--
ดขวาง--
ดของ--
ดขาด--
ดค--
ดคณะ--
ดคน--
ดครอง--
ดคล--
ดควา--
ดความสามารถ--
ดคาน--
ดง--
ดงาน--
ดจ--
ดจะ--
ดจาก--
ดฉ--
ดฉาก--
ดช--
ดชอบ--
ดซ--
ดด--
ดดา--
ดต--
ดตร--
ดตะ--
ดตา--
ดตาม--
ดตำน--
ดถ--
ดถนน--
ดท--
ดทร--
ดทอง--
ดทะ--
ดทำ--
ดธ--
ดธรร--
ดน--
ดบ--
ดป--
ดปร--
ดประ--
ดประก--
ดปรากฏ--
ดปล--
ดปาก--
ดผ--
ดผล--
ดฝ--
ดพ--
ดพรรค--
ดพระ--
ดพลาด--
ดภ--
ดภา--
ดภาพ--
ดภาวะ--
ดภาษา--
ดม--
ดมะ--
ดมา--
ดย--
ดยอด--
ดร--
ดรถ--
ดระ--
ดระบบ--
ดราช--
ดรายการ--
ดล--
ดลง--
ดละ--
ดว--
ดวง--
ดศ--
ดส--
ดสงคร--
ดสถ--
ดสน--
ดสรร--
ดสว--
ดสอน--
ดสะ--
ดสำ--
ดห--
ดหน--
ดหล--
ดอ--
ดอก--
ดอน--
ดออก--
ดอะ--
ดอำน--
ดอำนาจ--
ดฮ--
ดะ--
ดา--
ดาของ--
ดาค--
ดาน--
ดาบ--
ดารา--
ดาว--
ดาส--
ดาใน--
ดำ--
ดำร--
ดเกาะ--
ดเข--
ดเจน--
ดเท--
ดเทศ--
ดเป--
ดเผย--
ดเอ--
ดแจ--
ดแบ--
ดแปลง--
ดแผ--
ดแรก--
ดและ--
ดแสดง--
ดโ--
ดโคก--
ดโดย--
ดโทร--
ดโนน--
ดโพ--
ดโรค--
ดโส--
ดใจ--
ดใน--
ดไต--
ดไป--
ดไฟ--
ต--
ตก--
ตกรรม--
ตกล--
ตการ--
ตข--
ตของ--
ตค--
ตควา--
ตง--
ตจ--
ตจะ--
ตจาก--
ตจำน--
ตช--
ตซ--
ตซอล--
ตด--
ตต--
ตตะ--
ตตา--
ตถ--
ตท--
ตน--
ตนา--
ตบ--
ตบอล--
ตบอลชาว--
ตประ--
ตประธาน--
ตผ--
ตพ--
ตพระ--
ตฟ--
ตภ--
ตม--
ตย--
ตยกรรม--
ตยสาร--
ตยา--
ตร--
ตรกร--
ตรการ--
ตรของ--
ตรค--
ตรง--
ตรท--
ตรน--
ตรพ--
ตรม--
ตรว--
ตรวจส--
ตรวจสอบ--
ตรส--
ตรอ--
ตระ--
ตรา--
ตรายการ--
ตล--
ตลง--
ตลอด--
ตลอดจน--
ตลาด--
ตว--
ตส--
ตสาหกรรม--
ตห--
ตหล--
ตอ--
ตอน--
ตอนกลาง--
ตอบ--
ตอบสน--
ตอล--
ตะ--
ตะก--
ตะเ--
ตา--
ตาม--
ตามคำ--
ตามพระ--
ตามเวลา--
ตามแนว--
ตาย--
ตาร--
ตำน--
ตำบล--
ตำรวจ--
ตเพลง--
ตและ--
ตโดย--
ตใจ--
ตใน--
ตไทย--
ตไป--
ถ--
ถนน--
ถนนส--
ถวาย--
ถอด--
ถาม--
ท--
ทก--
ทข--
ทค--
ทจ--
ทด--
ทดลอง--
ทดสอ--
ทท--
ทธ--
ทธส--
ทธา--
ทธไส--
ทน--
ทบ--
ทบวง--
ทม--
ทย--
ทยา--
ทยาน--
ทยาเขต--
ทร--
ทรง--
ทรงดำร--
ทรงพระ--
ทรงล--
ทรงส--
ทรถ--
ทรอ--
ทรา--
ทราบ--
ทว--
ทส--
ทหาร--
ทอ--
ทอง--
ทอด--
ทอดพระ--
ทะ--
ทะเล--
ทา--
ทาง--
ทางราช--
ทาน--
ทำ--
ทำการ--
ทำควา--
ทำงาน--
ทำต--
ทำน--
ทำผลง--
ทำลาย--
ทำส--
ทเอ--
ธ--
ธง--
ธท--
ธน--
ธม--
ธยม--
ธยา--
ธร--
ธรรม--
ธส--
ธอ--
ธา--
ธาน--
ธำร--
น--
นก--
นกฎ--
นกร--
นกระ--
นกระบว--
นกระแส--
นกล--
นกลาง--
นกว--
นกอ--
นกะ--
นการ--
นกำ--
นข--
นขบว--
นของ--
นค--
นคง--
นคณะ--
นคณะกรรมการ--
นคน--
นคร--
นคล--
นคว--
นความ--
นคา--
นคำ--
นง--
นงบประ--
นงาน--
นจ--
นจะ--
นจะท--
นจะส--
นจา--
นจาก--
นจำนวน--
นฉ--
นช--
นชกมวย--
นชน--
นชม--
นชอบ--
นชา--
นชาย--
นชาว--
นซ--
นซา--
นฐาน--
นด--
นดร--
นดา--
นดาลใจ--
นต--
นตก--
นตกของ--
นตน--
นตรง--
นตรา--
นตราย--
นตลอ--
นตอน--
นตะ--
นตา--
นตาม--
นตำน--
นตำบ--
นตำร--
นถ--
นถนน--
นท--
นทด--
นทร--
นทหาร--
นทอง--
นทะ--
นทะเล--
นทา--
นทาง--
นทางคม--
นทางไป--
นทายาท--
นทำ--
นทำน--
นธ--
นธง--
นธน--
นธร--
นธะ--
นน--
นนคร--
นนอก--
นนา--
นนาง--
นนาม--
นนาย--
นนายท--
นนำ--
นนโย--
นนโยบาย--
นบ--
นบก--
นบท--
นบน--
นบะ--
นบาท--
นป--
นปกคร--
นประ--
นประธาน--
นปล--
นผ--
นผล--
นผลงาน--
นผลมาจาก--
นฝ--
นพ--
นพบ--
นพย--
นพรรค--
นพระ--
นพระราชโอรส--
นพระโอรส--
นพล--
นพวก--
นฟ--
นฟร--
นภ--
นภรร--
นภรรยา--
นภาพ--
นภายใน--
นภาษ--
นม--
นมรด--
นมรดกโลก--
นมหา--
นมะ--
นมา--
นมาก--
นมาจาก--
นมาต--
นมาร--
นย--
นยอด--
นยอม--
นยา--
นยาว--
นยำ--
นร--
นรถ--
นรองประธาน--
นรอบ--
นระ--
นระบบ--
นราก--
นราช--
นรามค--
นราย--
นรำ--
นฤ--
นล--
นลง--
นลม--
นลวด--
นละ--
นละคร--
นว--
นวง--
นวร--
นวล--
นวา--
นวาย--
นศ--
นศาล--
นศาสน--
นส--
นสง--
นสงคราม--
นสน--
นสม--
นสว--
นสอ--
นสอง--
นสะ--
นสาข--
นสาม--
นสามารถ--
นสาร--
นสำร--
นสโมสร--
นห--
นหน--
นหม--
นหล--
นหา--
นอ--
นอก--
นอกจาก--
นอกเขต--
นอน--
นออก--
นออกของ--
นออส--
นอะ--
นอากาศ--
นอาจ--
นอำนาจ--
นอำเภ--
นฮ--
นะ--
นา--
นาค--
นาง--
นางส--
นาถ--
นาน--
นาม--
นาย--
นายก--
นายท--
นาว--
นาศ--
นาโน--
นำ--
นำข--
นำท--
นำประ--
นำมา--
นำเสนอ--
นำเอา--
นำโดย--
นเก--
นเกม--
นเกาะ--
นเข--
นเขต--
นเขา--
นเค--
นเจ--
นเฉพาะ--
นเช--
นเซ--
นเด--
นเดอะ--
นเต--
นเท--
นเน--
นเบ--
นเป--
นเพ--
นเพราะ--
นเพลง--
นเม--
นเย--
นเร--
นเล--
นเว--
นเวลา--
นเส--
นเอ--
นเอก--
นเอง--
นเฮ--
นแก--
นแข--
นแดน--
นแทน--
นแน--
นแนล--
นแนวท--
นแบบ--
นแผน--
นแม--
นแรก--
นแรง--
นแล--
นและ--
นแอ--
นโค--
นโคร--
นโด--
นโดย--
นโต--
นโน--
นโย--
นโยบาย--
นโรค--
นโรง--
นโอ--
นโอรส--
นโฮ--
นใ--
นใจ--
นใด--
นใน--
นในการ--
นในประเทศ--
นใบ--
นไ--
นไซ--
นได--
นไทย--
นไป--
นไปตาม--
นไปตามกฎ--
นไปตามพระ--
นไปท--
นไพร--
นไฟ--
นไว--
นไหว--
นไอ--
นๆ--
บ--
บก--
บกฎ--
บกร--
บกระบว--
บกระแส--
บกล--
บการ--
บข--
บขนาด--
บขบว--
บของ--
บค--
บคณะ--
บคน--
บคล--
บควา--
บคะ--
บคะแน--
บคำ--
บง--
บงบประ--
บงาน--
บจ--
บจะ--
บจาก--
บจำน--
บฉ--
บช--
บชาว--
บซ--
บด--
บดาว--
บต--
บตน--
บตร--
บตา--
บตำน--
บตำบ--
บถ--
บถนน--
บท--
บทบาท--
บทร--
บทอด--
บทะ--
บธ--
บน--
บนยอด--
บบ--
บบท--
บบทบาท--
บบาด--
บป--
บประ--
บปล--
บปวด--
บปะ--
บผ--
บผล--
บผลกระท--
บฝ--
บพ--
บพย--
บพรรค--
บพระ--
บพระราช--
บพล--
บพวก--
บฟ--
บภ--
บภรร--
บภาค--
บม--
บมอบ--
บมอบหมาย--
บมะ--
บมา--
บย--
บร--
บรถ--
บรร--
บรรด--
บรรย--
บรรยากาศ--
บรรยาย--
บรรเล--
บรวบร--
บรอง--
บรอด--
บระ--
บระบบ--
บรา--
บล--
บละคร--
บว--
บวง--
บวช--
บศ--
บส--
บสน--
บสภา--
บสม--
บสวน--
บสวนสอ--
บสห--
บสอง--
บสะ--
บสาม--
บสาร--
บห--
บหม--
บหล--
บอ--
บอก--
บอน--
บอย--
บอล--
บออกจาก--
บอาห--
บอาหาร--
บอำนาจ--
บอำเภ--
บฮ--
บะ--
บา--
บาง--
บาดหล--
บาต--
บาท--
บาน--
บาย--
บาร--
บาล--
บเก--
บเข--
บเขา--
บเซ--
บเด--
บเท--
บเทศ--
บเทศบาล--
บเบ--
บเป--
บเส--
บเอ--
บเอกราช--
บแข--
บแค--
บแนว--
บแบบ--
บแผ--
บแม--
บแรก--
บและ--
บโดย--
บโต--
บโตข--
บโทษ--
บโรค--
บโลก--
บใจ--
บใน--
บใบ--
บไป--
ป--
ปก--
ปกครอง--
ปการ--
ปข--
ปของ--
ปค--
ปจ--
ปฐม--
ปด--
ปต--
ปท--
ปทร--
ปน--
ปบ--
ปป--
ปผ--
ปผา--
ปพ--
ปม--
ปร--
ประ--
ประกอบ--
ประกาศ--
ประจำ--
ประชาชน--
ประท--
ประธาน--
ประมวล--
ประส--
ประสบผล--
ประสาน--
ประเทศ--
ประเภท--
ปรากฏ--
ปรากฏใน--
ปราช--
ปราบ--
ปราย--
ปรารถน--
ปราศ--
ปล--
ปลา--
ปลาก--
ปลาฉล--
ปลาย--
ปว--
ปส--
ปสรรค--
ปห--
ปอ--
ปะ--
ปา--
ปาก--
ปาน--
ปเค--
ปเด--
ปแบบ--
ปและ--
ปโป--
ปไตย--
ผ--
ผน--
ผม--
ผล--
ผลก--
ผลการ--
ผลข--
ผลงาน--
ผลต--
ผลท--
ผลส--
ผสม--
ผสมผ--
ผา--
ฝ--
ฝน--
ฝาก--
พ--
พก--
พข--
พค--
พงศ--
พงษ--
พจ--
พช--
พชาว--
พญ--
พญา--
พต--
พท--
พน--
พนม--
พนายก--
พบ--
พบก--
พบใน--
พพ--
พภ--
พม--
พย--
พยากร--
พยาย--
พยายาม--
พร--
พรม--
พรรค--
พรหม--
พระ--
พระน--
พระนาม--
พระมหา--
พระยา--
พระอ--
พระเถ--
พระโอรส--
พฤกษ--
พล--
พลจาก--
พลท--
พว--
พวก--
พวกเขา--
พส--
พหล--
พอ--
พอส--
พอากาศ--
พอใจ--
พะ--
พา--
พาก--
พากษา--
พาท--
พาน--
พาร--
ฟ--
ฟฟ--
ฟย--
ฟร--
ฟล--
ฟอ--
ฟา--
ภ--
ภพ--
ภร--
ภรรยา--
ภะคะ--
ภา--
ภาค--
ภาพ--
ภายใน--
ภาวะ--
ภาษา--
ม--
มก--
มกฎ--
มกล--
มการ--
มข--
มขนาด--
มของ--
มค--
มครอง--
มคล--
มคว--
มความ--
มคอต--
มง--
มงคล--
มงวด--
มงาน--
มจ--
มจะ--
มจาก--
มจำน--
มฉ--
มฉลอง--
มช--
มชน--
มซ--
มณฑล--
มด--
มต--
มตอน--
มถ--
มถนน--
มท--
มทะ--
มธ--
มน--
มบ--
มป--
มปทาน--
มประ--
มประก--
มผ--
มพ--
มพร--
มพระ--
มพล--
มฟ--
มภ--
มภา--
มภาษา--
มม--
มมอง--
มมะ--
มมา--
มย--
มร--
มรดก--
มรวม--
มระ--
มราช--
มล--
มลง--
มว--
มวยส--
มวลรวม--
มศ--
มส--
มสต--
มสถ--
มสภา--
มสม--
มสลาย--
มห--
มหล--
มหา--
มหาเถรส--
มอ--
มอง--
มอน--
มออก--
มออกอากาศ--
มอำนาจ--
มฮ--
มะ--
มา--
มาก--
มาข--
มาจ--
มาจาก--
มาซา--
มาณ--
มาด--
มาต--
มาตร--
มาท--
มาน--
มาบ--
มาย--
มาร--
มารดา--
มาล--
มาส--
มาห--
มาอ--
มเค--
มเท--
มเพ--
มเพลง--
มเม--
มเย--
มเยาวช--
มเหลว--
มเอ--
มแบ--
มแรก--
มและ--
มโคร--
มโดย--
มโน--
มโพ--
มใจ--
มใน--
มไทย--
มไป--
ย--
ยก--
ยกก--
ยกข--
ยกต--
ยกน--
ยกพ--
ยกม--
ยกร--
ยกล--
ยกอ--
ยกา--
ยการ--
ยข--
ยของ--
ยค--
ยควา--
ยง--
ยงก--
ยงการ--
ยงข--
ยงของ--
ยงค--
ยงควา--
ยงจ--
ยงจาก--
ยงช--
ยงด--
ยงต--
ยงท--
ยงน--
ยงบ--
ยงป--
ยงประ--
ยงพ--
ยงพอ--
ยงม--
ยงร--
ยงล--
ยงส--
ยงห--
ยงอ--
ยงอาหาร--
ยงเบน--
ยงและ--
ยจ--
ยจะ--
ยจาก--
ยช--
ยชนะ--
ยซ--
ยญ--
ยญทอง--
ยด--
ยดท--
ยดนาม--
ยต--
ยถ--
ยท--
ยธ--
ยน--
ยนการ--
ยนข--
ยนของ--
ยนค--
ยนจ--
ยนจาก--
ยนช--
ยนด--
ยนต--
ยนท--
ยนบ--
ยนบท--
ยนพ--
ยนพระ--
ยนภาพ--
ยนม--
ยนมา--
ยนร--
ยนล--
ยนส--
ยนอ--
ยนา--
ยนแบบ--
ยนแปลง--
ยนและ--
ยนใน--
ยนไป--
ยบ--
ยบการ--
ยบข--
ยบท--
ยบน--
ยป--
ยประ--
ยผ--
ยพ--
ยพระ--
ยฟ--
ยภ--
ยภาพ--
ยม--
ยมการ--
ยมข--
ยมค--
ยมจาก--
ยมช--
ยมต--
ยมท--
ยมม--
ยมมาก--
ยมส--
ยมห--
ยมอ--
ยย--
ยยศ--
ยยะ--
ยร--
ยรภาพ--
ยระ--
ยราช--
ยล--
ยว--
ยวก--
ยวข--
ยวช--
ยวชาญ--
ยวต--
ยวท--
ยวน--
ยวป--
ยวย--
ยวส--
ยวห--
ยวอ--
ยวะ--
ยวและ--
ยศ--
ยส--
ยสถ--
ยห--
ยหล--
ยหาย--
ยอ--
ยอด--
ยอดขาย--
ยอม--
ยอา--
ยอำนาจ--
ยะ--
ยา--
ยาก--
ยาง--
ยาท--
ยาน--
ยาม--
ยามา--
ยาย--
ยาว--
ยเอ--
ยและ--
ยโน--
ยใจ--
ยใน--
ยไป--
ร--
รก--
รกรร--
รจ--
รช--
รณ--
รณะ--
รต--
รถ--
รถโดยสาร--
รถไฟ--
รน--
รบ--
รป--
รพ--
รพา--
รภ--
รม--
รย--
รร--
รว--
รวม--
รวมการ--
รศ--
รษะ--
รส--
รอ--
รอง--
รอด--
รอบ--
รอย--
ระ--
ระบ--
ระบบ--
ระบบสารสนเทศ--
ระบอบ--
ระบาด--
ระบาดของ--
ระยะ--
ระว--
รา--
ราก--
ราคา--
ราช--
ราชการ--
ราบ--
ราม--
ราย--
รายการ--
รายงาน--
รายงานการ--
รายนาม--
ราว--
ราศ--
รโทษ--
ฤ--
ฤๅ--
ล--
ลก--
ลกรรม--
ลการ--
ลข--
ลของ--
ลค--
ลง--
ลงนาม--
ลงม--
ลงร--
ลงโทษ--
ลงไป--
ลจ--
ลจะ--
ลจาก--
ลช--
ลซ--
ลด--
ลดลง--
ลต--
ลตร--
ลถ--
ลท--
ลน--
ลบ--
ลป--
ลปะ--
ลพ--
ลพระ--
ลพระราชท--
ลฟ--
ลภ--
ลภา--
ลม--
ลย--
ลร--
ลล--
ลลา--
ลว--
ลวดล--
ลส--
ลห--
ลอ--
ลอง--
ลอย--
ลฮ--
ละ--
ละคน--
ละคร--
ละต--
ละร--
ละส--
ละอ--
ลา--
ลาคม--
ลาด--
ลาน--
ลาม--
ลาย--
ลาว--
ลาออก--
ลำ--
ลำเน--
ลเด--
ลเว--
ลเอ--
ลแรก--
ลและ--
ลโด--
ลโน--
ลโนเบล--
ลใน--
ว--
วก--
วกล--
วการ--
วข--
วของ--
วค--
วคราว--
วง--
วงกลา--
วงการ--
วงข--
วงท--
วงป--
วงปลาย--
วงระยะ--
วงส--
วงอ--
วงเทศ--
วงเวลา--
วงแรก--
วจ--
วจะ--
วจาก--
วช--
วชน--
วซ--
วด--
วต--
วตน--
วตะ--
วตาย--
วถ--
วท--
วทร--
วทำละ--
วน--
วนก--
วนการ--
วนข--
วนของ--
วนค--
วนช--
วนต--
วนท--
วนน--
วนบ--
วนป--
วนผสม--
วนพ--
วนพระ--
วนมาก--
วนร--
วนส--
วนห--
วนอ--
วนะ--
วนา--
วนำ--
วบ--
วบา--
วป--
วประ--
วผ--
วพ--
วพระ--
วฟ--
วภ--
วภาพ--
วม--
วมก--
วมการ--
วมการทด--
วมข--
วมงาน--
วมท--
วมพ--
วมร--
วมส--
วมห--
วมแสดง--
วย--
วยก--
วยการ--
วยข--
วยค--
วยควา--
วยความ--
วยงาน--
วยจ--
วยจำน--
วยช--
วยด--
วยต--
วยท--
วยน--
วยนม--
วยบ--
วยผ--
วยพ--
วยพระ--
วยม--
วยย--
วยยอด--
วยร--
วยระบบ--
วยล--
วยว--
วยส--
วยห--
วยอ--
วยโรค--
วร--
วรถ--
วรร--
วรรณ--
วระ--
วล--
วลง--
วละคร--
วว--
วส--
วสำร--
วห--
วหล--
วอ--
วอน--
วอล--
วออก--
วออกจาก--
วออกม--
วอำเภ--
วะ--
วา--
วาง--
วางแผ--
วาด--
วาท--
วาน--
วาร--
วารสาร--
วาส--
วเก--
วเขา--
วเธอ--
วเร--
วเลข--
วเส--
วเอ--
วเอง--
วแทน--
วแบบ--
วแปร--
วแรก--
วและ--
วโมง--
วโลก--
วใจ--
วใน--
วไป--
ศ--
ศจ--
ศจะ--
ศต--
ศทาง--
ศน--
ศนะ--
ศนา--
ศพ--
ศม--
ศร--
ศรา--
ศล--
ศว--
ศวกร--
ศวกรรม--
ศา--
ศาจ--
ศาล--
ศาลาบ--
ศาสน--
ศาสนา--
ษ--
ษฎ--
ษฐ--
ษฐา--
ษฐาน--
ษท--
ษย--
ษยชน--
ษา--
ส--
สก--
สกล--
สกา--
สการ--
สข--
สค--
สง--
สงคราม--
สงบ--
สจ--
สจะ--
สช--
สซา--
สด--
สต--
สตร--
สตา--
สถ--
สถาน--
สถานะ--
สถาปน--
สท--
สน--
สนาม--
สนใจ--
สบ--
สป--
สพ--
สฟ--
สภา--
สภาพ--
สม--
สมการ--
สมม--
สมรรถ--
สมรส--
สมาคม--
สมโ--
สย--
สยาม--
สร--
สรภาพ--
สรร--
สรรพ--
สระ--
สล--
สละ--
สลาม--
สว--
สวด--
สวน--
สส--
สสนา--
สห--
สหภาพ--
สอ--
สอง--
สองของ--
สอน--
สอย--
สะ--
สะพาน--
สา--
สาขา--
สาธารณช--
สาน--
สาม--
สามารถ--
สาย--
สาร--
สาว--
สำ--
สำรวจ--
สเต--
สเป--
สเปน--
สเล--
สและ--
สโต--
สโมสร--
สโล--
สไต--
ห--
หก--
หง--
หน--
หนาว--
หม--
หมด--
หมอ--
หมา--
หมาย--
หย--
หร--
หรา--
หล--
หลง--
หลวง--
หลาน--
หลาย--
หว--
หอ--
หอพ--
หอม--
หา--
หาก--
หาง--
หาท--
หาย--
หาร--
หารงาน--
หารราช--
ฬ--
ฬา--
ฬาข--
ฬาจาก--
ฬาท--
ฬาม--
ฬาร--
ฬาส--
อ--
อก--
อกข--
อกจาก--
อกฎ--
อกต--
อกท--
อกน--
อกร--
อกระบว--
อกล--
อกว--
อกส--
อกห--
อกอ--
อการ--
อกเข--
อกโดย--
อข--
อขยาย--
อขวา--
อของ--
อขาย--
อค--
อคณะ--
อคณะก--
อคณะกรร--
อคน--
อคร--
อคล--
อความ--
อง--
องก--
องกง--
องการ--
องข--
องขอ--
องของ--
องค--
องง--
องจ--
องจะ--
องจาก--
องฉ--
องช--
องชาย--
องชาว--
องซ--
องด--
องต--
องตาม--
องถ--
องท--
องทดล--
องทำ--
องน--
องนคร--
องนำ--
องบ--
องบร--
องป--
องพ--
องพระ--
องภ--
องม--
องมาจาก--
องย--
องร--
องระ--
องราว--
องล--
องว--
องส--
องสาว--
องห--
องหมาย--
องหลวง--
องอ--
องอก--
องออก--
องออกจาก--
องอำนาจ--
องเพลง--
องเอ--
องแค--
องแรก--
องและ--
องโล--
องใน--
องไป--
อจ--
อจะ--
อจาก--
อจำน--
อฉ--
อช--
อซ--
อด--
อดส--
อดอ--
อดาว--
อต--
อตกลง--
อตร--
อตอน--
อตา--
อตาม--
อตำบ--
อถ--
อถนน--
อท--
อทร--
อทะ--
อทาง--
อทำ--
อทำก--
อทำการ--
อทำล--
อธ--
อน--
อนก--
อนการ--
อนข--
อนของ--
อนค--
อนคร--
อนจ--
อนจะ--
อนจาก--
อนจำ--
อนช--
อนด--
อนต--
อนท--
อนน--
อนบ--
อนป--
อนประ--
อนพ--
อนม--
อนย--
อนร--
อนล--
อนว--
อนส--
อนห--
อนอ--
อนออก--
อนำ--
อนำม--
อนและ--
อนแอ--
อนไข--
อนไปท--
อนไหว--
อบ--
อบท--
อบส--
อบอ--
อป--
อประ--
อประก--
อประกอบ--
อปล--
อผ--
อผล--
อผลงาน--
อพ--
อพยพ--
อพร--
อพรรค--
อพระ--
อพระราช--
อพล--
อพวก--
อฟ--
อภ--
อภา--
อภาพ--
อภาษา--
อม--
อมก--
อมข--
อมค--
อมด--
อมถ--
อมท--
อมป--
อมปราการ--
อมพ--
อมม--
อมร--
อมล--
อมส--
อมห--
อมหลว--
อมอ--
อมา--
อมาใน--
อมโย--
อมใส--
อย--
อยก--
อยข--
อยคำ--
อยจ--
อยด--
อยต--
อยท--
อยป--
อยประ--
อยพ--
อยมา--
อยลง--
อยส--
อยห--
อยอ--
อยาก--
อยและ--
อยๆ--
อร--
อรถ--
อรบ--
อระบ--
อราช--
อล--
อละ--
อว--
อวกาศ--
อวง--
อศ--
อศาล--
อศาสน--
อส--
อสงคร--
อสงคราม--
อสน--
อสม--
อสะ--
อสาธ--
อสาย--
อสาร--
อสำเ--
อห--
อหน--
อหม--
อหล--
อหา--
อหาข--
ออ--
ออก--
ออกจาก--
ออกฉาย--
ออกตามความ--
ออกมา--
ออน--
ออฟ--
ออล--
ออส--
อออก--
ออากาศ--
ออาจ--
ออำน--
ออำเภ--
อฮ--
อะ--
อะไร--
อา--
อาการ--
อากาศ--
อาคาร--
อาจ--
อาชญา--
อาณ--
อาน--
อาย--
อาร--
อารย--
อาส--
อาหาร--
อาโอ--
อำ--
อำนวย--
อำนวยการ--
อำนาจ--
อำเภอ--
อเก--
อเข--
อเท--
อเป--
อเร--
อเล--
อเวลา--
อเส--
อเสนอ--
อเอ--
อแบ--
อแร--
อและ--
อแสดง--
อโ--
อโก--
อโคร--
อโรค--
อใจ--
อใน--
อในว--
อใบ--
อไป--
อไอ--
ฮ--
ฮย--
ฮว--
ฮะ--
ฮา--
ฯ--
ะ--
า--
าก--
ากฎ--
ากร--
ากระ--
ากล--
ากาก--
าการ--
าการกระทรว--
าข--
าของ--
าขาย--
าค--
าคณะ--
าคน--
าคร--
าคว--
าความ--
าง--
างก--
างกฎ--
างกาย--
างการ--
างกำ--
างข--
างขวาง--
างของ--
างค--
างควา--
างจ--
างจะ--
างจาก--
างช--
างด--
างต--
างท--
างทาง--
างน--
างบ--
างป--
างประเทศ--
างผลง--
างพ--
างพระ--
างภ--
างม--
างมหา--
างมาก--
างมาร--
างย--
างร--
างระบบ--
างราช--
างล--
างว--
างส--
างสวย--
างสะ--
างห--
างหลาก--
างอ--
างแบบ--
างและ--
างโดย--
างใน--
างไกล--
างไป--
างไร--
างๆ--
าจ--
าจอ--
าจะ--
าจะท--
าจะส--
าจาก--
าจำน--
าฉ--
าช--
าชม--
าชาย--
าซ--
าด--
าต--
าตอบ--
าตอบแทน--
าตะ--
าตา--
าตาย--
าถ--
าท--
าทร--
าทะ--
าทาง--
าทาย--
าทำ--
าธ--
าธรร--
าน--
านก--
านกฎ--
านกระบว--
านการ--
านข--
านของ--
านค--
านคน--
านคร--
านควา--
านจ--
านจะ--
านจาก--
านช--
านด--
านต--
านท--
านทาง--
านนา--
านบ--
านบน--
านป--
านพระ--
านภาษา--
านม--
านมา--
านย--
านร--
านระบบ--
านล--
านว--
านศ--
านส--
านห--
านหน--
านอ--
านาย--
านและ--
านโนน--
านใน--
านไป--
าบ--
าป--
าประ--
าประสบ--
าประเทศ--
าปราสาท--
าปล--
าผ--
าผล--
าฝ--
าพ--
าพรรค--
าพระ--
าพระบาท--
าพระยา--
าพวก--
าฟ--
าภ--
าภาพ--
าม--
ามกลา--
ามค--
ามต--
ามท--
ามป--
ามห--
ามะ--
ามา--
ามาจาก--
าย--
ายก--
ายการ--
ายข--
ายของ--
ายค--
ายจ--
ายจาก--
ายช--
ายชนะ--
ายด--
ายต--
ายท--
ายทอด--
ายทำ--
ายน--
ายบ--
ายป--
ายพ--
ายพระ--
ายภาพ--
ายม--
ายร--
ายรถ--
ายราช--
ายล--
ายส--
ายสถ--
ายห--
ายอ--
ายและ--
ายโอน--
ายใน--
ายไป--
าร--
ารถ--
ารอบ--
าระ--
าราช--
าล--
าลง--
าละ--
าว--
าวก--
าวกรอง--
าวข--
าวค--
าวง--
าวช--
าวต--
าวท--
าวน--
าวป--
าวพ--
าวม--
าวร--
าวส--
าวสด--
าวหา--
าวอ--
าศ--
าส--
าสน--
าสม--
าสะ--
าห--
าหน--
าหม--
าหมาย--
าหล--
าหลวง--
าหาก--
าหาญ--
าอ--
าอก--
าออก--
าอะ--
าอาจ--
าอโศก--
าฮ--
าฯ--
าเขา--
าเค--
าเซ--
าเท--
าเธอ--
าเป--
าเพ--
าเร--
าเล--
าเว--
าเส--
าเอ--
าแบบ--
าแผ--
าแล--
าและ--
าแสน--
าโ--
าโคร--
าโพ--
าโศก--
าใจ--
าใน--
าใบ--
าไชย--
าไป--
าไปใน--
ำ--
ำก--
ำข--
ำค--
ำจ--
ำจะ--
ำจาก--
ำช--
ำซ--
ำด--
ำตก--
ำตา--
ำตาล--
ำท--
ำทะเล--
ำน--
ำนม--
ำบ--
ำป--
ำฝน--
ำพ--
ำม--
ำย--
ำร--
ำระ--
ำล--
ำลง--
ำส--
ำห--
ำหล--
ำอ--
ำและ--
ำโขง--
ำใจ--
ำไหล--
เ--
เก--
เกต--
เกม--
เกร--
เกราะ--
เกล--
เกส--
เกะ--
เกาะ--
เข--
เขต--
เขา--
เขาส--
เค--
เคน--
เคย--
เคร--
เครน--
เคล--
เคโร--
เงา--
เจ--
เจน--
เจอ--
เจา--
เจาะ--
เฉ--
เฉพาะ--
เฉพาะนอกเขต--
เช--
เชฟ--
เชโกส--
เซ--
เซต--
เซน--
เซล--
เซอ--
เฌ--
เด--
เดช--
เดน--
เดอ--
เดอะ--
เต--
เตชะ--
เตน--
เถ--
เท--
เทค--
เทน--
เทพ--
เทร--
เทล--
เทว--
เทศ--
เทศบาล--
เทา--
เธ--
เธอ--
เน--
เบ--
เบญจ--
เบต--
เบน--
เบร--
เบล--
เบส--
เบา--
เป--
เปน--
เปา--
เผ--
เผย--
เพ--
เพชร--
เพราะ--
เพล--
เพลง--
เพลงไทย--
เฟ--
เฟร--
เฟล--
เม--
เมก--
เมฆ--
เมตร--
เมท--
เมน--
เมล--
เมะ--
เย--
เร--
เรก--
เรงน--
เรด--
เรน--
เรา--
เราจะ--
เล--
เลก--
เลข--
เลน--
เลฟ--
เลย--
เลส--
เลอ--
เว--
เวช--
เวณ--
เวณท--
เวท--
เวน--
เวล--
เวลา--
เวศ--
เศ--
เศษ--
เศาะ--
เษก--
เส--
เสก--
เสธ--
เสน--
เสนอ--
เสมอ--
เสว--
เสา--
เหม--
เอ--
เอก--
เอกสาร--
เอง--
เอช--
เอน--
เอฟ--
เอม--
เอล--
เอส--
เอะ--
เอา--
เฮ--
เฮด--
เฮล--
แ--
แก--
แกน--
แกล--
แกะ--
แข--
แขน--
แขวง--
แค--
แคน--
แคล--
แคโร--
แจ--
แจง--
แช--
แซ--
แด--
แดง--
แดน--
แตก--
แถ--
แถบ--
แถล--
แถว--
แท--
แทน--
แทร--
แน--
แนว--
แบ--
แบน--
แบบ--
แป--
แปด--
แปร--
แปล--
แปลก--
แผ--
แผนก--
แฝ--
แพ--
แพร--
แฟ--
แฟน--
แม--
แมค--
แมน--
แมว--
แย--
แยก--
แยกออก--
แร--
แรก--
แรง--
แล--
แลของ--
แลน--
แลพ--
และ--
และก--
และการ--
และข--
และค--
และคณะ--
และจะ--
และจาก--
และช--
และต--
และท--
และทร--
และทำ--
และน--
และบ--
และผล--
และพระ--
และพวก--
และภ--
และภาษา--
และย--
และร--
และระบบ--
และล--
และว--
และส--
และสามารถ--
และอ--
และอาจ--
และอำเภ--
และใน--
แว--
แวน--
แส--
แสง--
แสดง--
แสน--
แสวงห--
แห--
แหล--
แอ--
แอด--
แอท--
แอน--
แอม--
แอล--
แฮ--
แฮม--
โ--
โก--
โกล--
โกะ--
โข--
โค--
โคก--
โคน--
โคม--
โคร--
โคล--
โคส--
โคะ--
โฆ--
โฆษ--
โจ--
โจม--
โจว--
โจโฉ--
โฉ--
โช--
โซ--
โซน--
โซล--
โฌ--
โด--
โดน--
โดย--
โดยกรม--
โดยการ--
โดยจะ--
โดยพระ--
โดยพวก--
โดยส--
โดยสาร--
โดยอ--
โต--
โตะ--
โถ--
โท--
โทร--
โทรคม--
โทษ--
โทโม--
โธ--
โน--
โนม--
โนะ--
โบ--
โบสถ--
โบไฮ--
โป--
โปร--
โปรด--
โพ--
โพร--
โฟ--
โภค--
โม--
โมง--
โมท--
โมน--
โมะ--
โย--
โยไค--
โร--
โรค--
โรง--
โรป--
โรม--
โรส--
โระ--
โล--
โลก--
โลม--
โว--
โวล--
โส--
โห--
โหลด--
โอ--
โอก--
โอกาส--
โอค--
โอน--
โอบ--
โอรส--
โอล--
โอส--
โอะ--
โฮ--
ใ--
ใคร--
ใจ--
ใจกลา--
ใด--
ใน--
ในก--
ในกฎ--
ในกระบว--
ในการ--
ในข--
ในค--
ในควา--
ในงาน--
ในจ--
ในจำน--
ในฉ--
ในฐานะ--
ในด--
ในต--
ในตำน--
ในตำบ--
ในท--
ในทะเล--
ในน--
ในนาม--
ในบ--
ในบท--
ในป--
ในพระ--
ในภ--
ในภาษา--
ในม--
ในย--
ในร--
ในรอบ--
ในระ--
ในระบบ--
ในระยะ--
ในราช--
ในล--
ในละคร--
ในว--
ในวาร--
ในศ--
ในส--
ในสภาพ--
ในสาข--
ในห--
ในอ--
ในอำนาจ--
ในอำเภ--
ในเขต--
ในแถบ--
ในแนว--
ในใจ--
ใบ--
ใส--
ไ--
ไก--
ไกร--
ไกล--
ไข--
ไค--
ไจ--
ไช--
ไชย--
ไซ--
ไซโคล--
ได--
ไต--
ไท--
ไทย--
ไทร--
ไธย--
ไน--
ไบ--
ไป--
ไปข--
ไปค--
ไปจ--
ไปต--
ไปท--
ไปร--
ไพ--
ไฟ--
ไม--
ไมโคร--
ไร--
ไล--
ไว--
ไส--
ไห--
ไหน--
ไหล--
ไอ--
ไอโซ--
ไฮ--
ไฮโดร--
ๆ--
๐--
๑๔--
๑๕--
๑๖--
๑๗--
๑๘--
๑๙--
๒๐--
๒๑--
๒๒--
๒๓--
๒๔--
๒๕--
ກ--
ຂ--
ຄ--
ງ--
ຈ--
ຊ--
ຍ--
ດ--
ຕ--
ທ--
ນ--
ບ--
ປ--
ພ--
ມ--
ຣ--
ລ--
ວ--
ສ--
ສະ--
ຫ--
ອ--
ຮ--
າ--
ຽ--
ເ--
ແ--
ໂ--
ໃ--
ໄ--
က--
စ--
တ--
န--
ပ--
မ--
ရ--
လ--
သ--
အ--
ဢ--
ၵ--
ၶ--
ၼ--
ᄀ--
ᄁ--
ᄂ--
ᄃ--
ᄄ--
ᄅ--
ᄆ--
ᄇ--
ᄈ--
ᄉ--
ᄊ--
ᄋ--
ᄍ--
ᄎ--
ᄏ--
ᄐ--
ᄑ--
ᄒ--
ក--
ន--
ប--
ម--
រ--
វ--
ស--
អ--
ᦂ--
ᦂᦱᧃ--
ᦃ--
ᦅ--
ᦉ--
ᦓ--
ᦔ--
ᦙ--
ᦟ--
ᦠ--
ᦵ--
ᦶ--
ᦷ--
ᦺ--
ᨶ--
ᨾ--
ᨿ--
ᩁ--
ᩅ--
⁴--
あ--
い--
う--
え--
お--
か--
き--
く--
け--
こ--
さ--
し--
す--
せ--
そ--
た--
ち--
つ--
て--
と--
な--
に--
の--
は--
ひ--
ふ--
ほ--
ま--
み--
よ--
ら--
り--
わ--
ア--
イ--
ウ--
エ--
オ--
カ--
カン--
キ--
キャ--
ク--
ケ--
コ--
サ--
シ--
シャ--
シン--
ス--
セ--
ソ--
タ--
チ--
テ--
ティ--
ト--
トラ--
ナ--
ニ--
ハ--
ヒ--
フ--
ファ--
フラ--
フレ--
フロ--
ヘ--
ホ--
マ--
ミ--
メ--
モ--
ラ--
リ--
ル--
レ--
ロ--
ꪱ--
ꪵ--
ꪶ--
ꪹ--
--0
--0
--00
--01
--02
--03
--04
--05
--06
--07
--08
--09
--1
--1
--10
--11
--12
--13
--14
--15
--16
--17
--18
--19
--2
--2
--20
--21
--22
--23
--24
--25
--26
--27
--28
--29
--3
--3
--30
--31
--32
--33
--34
--35
--36
--37
--38
--39
--4
--4
--40
--41
--42
--43
--44
--45
--46
--47
--48
--49
--5
--5
--50
--51
--52
--53
--54
--55
--56
--57
--58
--59
--6
--6
--60
--61
--62
--63
--64
--65
--66
--67
--68
--69
--7
--7
--70
--71
--72
--73
--74
--75
--76
--77
--78
--79
--8
--8
--80
--81
--82
--83
--84
--85
--86
--87
--88
--89
--9
--9
--90
--91
--92
--93
--94
--95
--96
--97
--98
--99
--a
--ab
--ability
--able
--ac
--ach
--ack
--acy
--ad
--ada
--ade
--ado
--ador
--ads
--ae
--af
--ag
--aga
--age
--ah
--ai
--aic
--ail
--ain
--aire
--aj
--ajn
--ak
--aka
--ake
--aki
--ako
--aku
--al
--ale
--ally
--alo
--als
--am
--ama
--ame
--ami
--ampton
--an
--ana
--ance
--and
--ane
--ani
--ano
--ans
--ant
--ants
--ao
--ap
--apy
--ar
--ara
--ard
--ari
--aries
--ario
--aro
--aru
--ary
--as
--ase
--ashi
--ast
--at
--ata
--ate
--ated
--ates
--ath
--ati
--atic
--ation
--ations
--ative
--ato
--ator
--ators
--ats
--atum
--ature
--atus
--au
--av
--avia
--aw
--awa
--ax
--ay
--aya
--ayed
--az
--b
--ba
--bal
--be
--ber
--berg
--berry
--bert
--bi
--bia
--ble
--bo
--bolic
--book
--box
--boy
--bra
--bs
--bt
--bu
--buch
--burg
--bury
--by
--c
--ca
--cal
--ce
--ceae
--ced
--cer
--ces
--ch
--charts
--cht
--ci
--cious
--ck
--cle
--co
--craft
--cript
--cs
--ct
--ctive
--cts
--cular
--cus
--cy
--d
--da
--dae
--dall
--dar
--data
--day
--db
--de
--ded
--den
--der
--dez
--di
--dia
--dial
--dic
--dition
--dium
--dle
--dler
--do
--dol
--dom
--dor
--dox
--dra
--dro
--dron
--ds
--dt
--du
--dus
--dy
--e
--ea
--eal
--ean
--eau
--eb
--ec
--ect
--ed
--eda
--edia
--ee
--een
--ees
--ef
--egro
--eh
--ei
--eira
--ek
--el
--ela
--ell
--ella
--elle
--elli
--els
--ely
--em
--ema
--ement
--en
--ena
--ence
--ene
--eno
--ens
--ense
--ensis
--ensive
--ent
--eo
--eon
--eous
--ep
--eption
--er
--era
--ere
--ered
--erg
--eri
--ern
--ero
--ers
--erson
--ert
--ery
--es
--ese
--esh
--ess
--est
--et
--eta
--ete
--etic
--ets
--ett
--eu
--eur
--eus
--ev
--ew
--ews
--ex
--ey
--ez
--eɪ
--f
--fa
--fc
--fe
--feld
--fer
--ff
--ffe
--field
--fin
--fit
--fold
--fs
--ft
--fu
--ful
--fulness
--g
--ga
--ge
--ged
--gel
--gen
--ges
--gh
--ght
--gi
--gie
--gio
--gn
--go
--gs
--h
--ha
--hal
--ham
--han
--haw
--he
--head
--hed
--her
--hes
--hi
--hia
--hic
--hip
--hn
--ho
--hood
--hop
--hs
--ht
--hu
--hus
--hy
--i
--ia
--iable
--iac
--iae
--ial
--ian
--iana
--ians
--ias
--iate
--iation
--ible
--ic
--ica
--ical
--icate
--ici
--ick
--ico
--ics
--icular
--icus
--id
--ida
--idae
--ide
--idence
--ides
--ido
--ids
--ie
--ied
--iel
--ier
--ies
--iff
--ificant
--ification
--ified
--iflora
--ify
--ig
--ige
--igi
--igo
--ih
--ii
--iidae
--ija
--ik
--ika
--iki
--iko
--il
--ila
--ile
--ility
--ill
--illa
--ille
--im
--ima
--in
--ina
--inal
--ine
--ined
--ing
--ings
--ington
--ini
--ino
--ins
--inus
--io
--iol
--ion
--ional
--ions
--ious
--ip
--ique
--ir
--ira
--ire
--iro
--irs
--iry
--is
--isation
--ische
--ise
--ised
--ish
--ishi
--ism
--ist
--istic
--ists
--it
--itarian
--ite
--ites
--ith
--ities
--itive
--ity
--itz
--ium
--ius
--iva
--ival
--ive
--ives
--ivity
--ivo
--ix
--iya
--ization
--ize
--ized
--j
--ja
--je
--ji
--jn
--jo
--ju
--k
--ka
--kar
--ke
--ked
--kel
--ker
--ket
--ki
--kle
--ko
--kov
--ks
--ku
--ky
--l
--la
--lah
--land
--lar
--ld
--le
--ler
--les
--less
--let
--ley
--li
--lia
--lic
--lin
--line
--ling
--lis
--list
--ll
--lla
--lle
--lli
--llo
--lls
--llus
--lly
--lo
--logy
--ls
--lt
--lton
--lty
--lu
--lus
--ly
--lyn
--lz
--m
--ma
--man
--me
--men
--ment
--ments
--mer
--mes
--mi
--mia
--mir
--mo
--mos
--ms
--mu
--mum
--mus
--my
--n
--na
--nah
--nai
--nal
--nar
--nberg
--nce
--ncy
--nd
--nda
--ne
--ned
--nel
--nell
--ner
--nes
--ness
--net
--news
--ney
--ng
--ni
--nia
--nic
--nica
--nik
--nis
--nn
--no
--ns
--nsis
--nt
--nte
--nts
--nus
--ny
--o
--oa
--ock
--od
--oda
--oe
--of
--off
--og
--ogy
--oi
--oid
--oids
--oj
--ojn
--ok
--oke
--oku
--ol
--ola
--ole
--oli
--olia
--ological
--ology
--om
--oma
--ome
--on
--ona
--onal
--one
--oni
--onia
--ons
--ont
--oo
--ood
--oon
--op
--or
--ora
--ord
--ore
--ores
--ori
--ories
--orm
--orn
--oro
--ors
--ort
--ory
--os
--osa
--ose
--osis
--ot
--oto
--ou
--ough
--ous
--out
--ov
--ovic
--ow
--ows
--oy
--p
--pa
--pact
--page
--pe
--pect
--ped
--pel
--pes
--pi
--pia
--po
--polis
--posed
--post
--pretation
--ps
--pt
--pton
--pus
--py
--q
--que
--r
--ra
--rad
--rade
--rage
--ral
--ras
--rce
--rchy
--rd
--rdo
--rds
--re
--rel
--rer
--rg
--ri
--ria
--rian
--ric
--rics
--ridae
--rie
--rier
--ries
--ris
--rix
--rm
--rmal
--rman
--rn
--rne
--rno
--ro
--ros
--roves
--rra
--rry
--rs
--rt
--ru
--rum
--rus
--ry
--s
--sa
--sburg
--sch
--sco
--se
--sed
--sel
--selves
--sen
--ses
--sey
--sh
--shi
--ship
--shire
--sho
--si
--sia
--sion
--sis
--sive
--sk
--ska
--sley
--sm
--so
--som
--son
--sor
--ss
--ssa
--sse
--sson
--st
--sta
--stan
--stein
--ster
--ston
--stone
--sts
--su
--sus
--sy
--t
--ta
--tal
--tan
--tar
--tas
--tation
--tative
--tch
--te
--ted
--tel
--ten
--ter
--ters
--tery
--tes
--th
--thy
--ti
--tia
--tic
--time
--ting
--tion
--tional
--tions
--tis
--tive
--tle
--to
--ton
--tone
--tor
--tos
--town
--tra
--tre
--tro
--try
--ts
--tt
--tta
--tte
--tto
--tu
--tum
--ture
--tus
--tv
--ty
--tz
--u
--ua
--ual
--ually
--uchi
--ud
--ue
--ues
--ui
--uit
--uk
--uki
--ul
--ula
--ular
--ulate
--uli
--ult
--ulus
--um
--uma
--ume
--umi
--un
--ung
--up
--ur
--ura
--ure
--ures
--uri
--us
--uss
--ut
--ute
--ution
--ux
--v
--va
--val
--vation
--ve
--ved
--ven
--vent
--ves
--vi
--vic
--ville
--vin
--ving
--vo
--w
--wa
--ware
--way
--wich
--wise
--x
--xi
--y
--ya
--yan
--ye
--yer
--yi
--yl
--ylus
--yn
--yo
--yon
--ys
--yu
--z
--za
--ze
--zer
--zhou
--zi
--zilla
--zo
--zu
--æ
--ŋ
--ɐ
--ɑ
--ɔ
--ə
--ɛ
--ɛn
--ɡ
--ɪ
--ɪk
--ɪt
--ɯ
--ɰ
--ɲ
--ɾ
--ʁ
--ʊ
--ʔ
--ος
--а
--в
--д
--е
--и
--ии
--к
--ка
--м
--н
--о
--р
--с
--т
--у
--ы
--я
--ا
--ان
--ة
--ت
--د
--ر
--س
--ل
--م
--ن
--ه
--و
--ي
--ی
--ก
--กก
--กข
--กค
--กครอง
--กจ
--กช
--กชน
--กซ
--กฐ
--กด
--กดด
--กต
--กถ
--กท
--กน
--กบ
--กป
--กผ
--กพ
--กม
--กย
--กร
--กรณ
--กระด
--กฤษฎ
--กล
--กลงก
--กลม
--กลาง
--กลางค
--กลางว
--กว
--กษ
--กส
--กห
--กอ
--กองท
--กอท
--กอย
--กะ
--กา
--กาย
--การ
--การก
--การค
--การคล
--การจ
--การณ
--การต
--การถ
--การท
--การบ
--การผ
--การพ
--การย
--การร
--การว
--การศ
--การส
--การอ
--การเม
--การเล
--การแข
--กาล
--กาศ
--กำก
--กำล
--กำหนด
--กำไรท
--กเก
--กเป
--กเล
--กเว
--กแต
--ข
--ขท
--ขน
--ขนส
--ขย
--ขล
--ขว
--ขวา
--ของ
--ของก
--ของข
--ของค
--ของจ
--ของช
--ของซ
--ของญ
--ของด
--ของต
--ของท
--ของน
--ของบ
--ของบร
--ของป
--ของผ
--ของฝ
--ของพ
--ของม
--ของมน
--ของย
--ของร
--ของล
--ของว
--ของศ
--ของส
--ของสหภาพโซเว
--ของอ
--ของเจ
--ของเม
--ของแคว
--ขา
--ขาคณ
--ขาธ
--ขาน
--ขาว
--ค
--คซ
--คณ
--คณะ
--คณะปฏ
--คด
--คต
--คท
--คน
--คนท
--คนน
--คนส
--คนหน
--คนอ
--คนเด
--คนเล
--คนแรก
--คนโต
--คม
--คร
--ครช
--ครน
--ครบ
--ครราชส
--ครศร
--ครเร
--คฤห
--คล
--คว
--ควบค
--ควร
--ความร
--คอมพ
--คอมม
--คอร
--คา
--คาซ
--คาร
--คำ
--คำน
--คำว
--คำส
--คโนโลย
--ฆ
--ฆบ
--ง
--งก
--งกว
--งข
--งขลา
--งค
--งคราม
--งครามโลกคร
--งฆ
--งจ
--งช
--งซ
--งด
--งต
--งถ
--งท
--งธ
--งน
--งบ
--งบศ
--งบส
--งบเร
--งป
--งผ
--งพ
--งฟ
--งม
--งย
--งร
--งล
--งว
--งศ
--งษ
--งส
--งสม
--งห
--งอ
--งอย
--งา
--งาน
--งาม
--งเป
--งเล
--งให
--งได
--จ
--จง
--จญภ
--จด
--จต
--จท
--จน
--จนถ
--จนม
--จนส
--จนาน
--จบ
--จม
--จร
--จสอบ
--จอร
--จอห
--จะต
--จะถ
--จะม
--จะย
--จะร
--จะส
--จะเป
--จะใช
--จะได
--จะไม
--จา
--จาก
--จากต
--จากท
--จากน
--จากผ
--จากร
--จากส
--จากอ
--จาร
--จำก
--จำค
--จำนวน
--จำป
--จำเป
--ฉ
--ฉบ
--ฉว
--ฉะ
--ช
--ชก
--ชช
--ชท
--ชน
--ชนก
--ชนช
--ชนน
--ชนบท
--ชนม
--ชร
--ชล
--ชวนเช
--ชวา
--ชอาณาจ
--ชา
--ชาต
--ชาย
--ชาร
--ชาวญ
--ชาวอ
--ชไอว
--ซ
--ซอฟต
--ซา
--ซาร
--ซาอ
--ฌ
--ญ
--ญา
--ญาต
--ญาไท
--ฎ
--ฎบ
--ฏ
--ฏต
--ฏศ
--ฐ
--ฐาน
--ฑ
--ณ
--ณฑ
--ณร
--ณรงค
--ณส
--ณะ
--ณะกรรมการ
--ณะกรรมการบร
--ณะกรรมาธ
--ณะท
--ณะน
--ณะปฏ
--ณะผ
--ณะม
--ณะร
--ณะว
--ณะศ
--ณะส
--ณะสงฆ
--ณะอ
--ณเฑ
--ด
--ดก
--ดข
--ดค
--ดง
--ดจ
--ดช
--ดด
--ดต
--ดท
--ดทะเบ
--ดน
--ดนตร
--ดบ
--ดป
--ดปล
--ดม
--ดย
--ดร
--ดล
--ดลอง
--ดลองท
--ดว
--ดส
--ดสอบ
--ดอ
--ดอะม
--ดะ
--ดะกะ
--ดา
--ดาน
--ดาร
--ดาว
--ดำ
--ดำร
--ดำเน
--ดให
--ต
--ตก
--ตจ
--ตช
--ตต
--ตท
--ตน
--ตพ
--ตม
--ตย
--ตร
--ตรง
--ตรงก
--ตระก
--ตล
--ตลก
--ตว
--ตวรรษท
--ตส
--ตอ
--ตอน
--ตอนท
--ตะ
--ตะว
--ตา
--ตาม
--ตามท
--ตาร
--ตำบล
--ตำแหน
--ถ
--ถคว
--ถจ
--ถช
--ถด
--ถต
--ถถ
--ถท
--ถน
--ถนน
--ถนา
--ถบ
--ถพ
--ถม
--ถย
--ถยนต
--ถร
--ถล
--ถว
--ถส
--ถสร
--ถา
--ถาน
--ถานการณ
--ถานท
--ถานศ
--ถาบ
--ถาป
--ถาปน
--ถาปนาข
--ถเข
--ถเป
--ถเล
--ถใช
--ถไฟ
--ถไฟฟ
--ท
--ทก
--ทกว
--ทช
--ทซ
--ทท
--ทน
--ทบ
--ทม
--ทมนตร
--ทย
--ทร
--ทว
--ทส
--ทอง
--ทา
--ทาง
--ทางด
--ทางท
--ทางว
--ทำให
--ธ
--ธง
--ธน
--ธนบ
--ธร
--ธรณ
--ธรรมการ
--ธว
--ธาต
--ธาร
--น
--นก
--นกระท
--นกล
--นกว
--นข
--นค
--นคร
--นครศร
--นครเช
--นง
--นจ
--นช
--นซ
--นซอร
--นด
--นต
--นตร
--นถ
--นท
--นธ
--นน
--นนท
--นบ
--นบท
--นป
--นผ
--นพ
--นฟ
--นภ
--นม
--นมป
--นมาร
--นย
--นร
--นล
--นว
--นวน
--นส
--นห
--นหน
--นอ
--นองก
--นองต
--นอช
--นอน
--นอย
--นอร
--นอว
--นอให
--นะ
--นะเล
--นา
--นาคต
--นาด
--นาถ
--นาธ
--นาน
--นาบด
--นาม
--นามบ
--นามสก
--นาร
--นาว
--นำ
--นเข
--นเจ
--นเจอร
--นเด
--นเป
--นเผ
--นเอง
--นให
--นไข
--นไชส
--นไซม
--นได
--นไม
--บ
--บก
--บกระเท
--บการณ
--บข
--บค
--บคร
--บจ
--บช
--บซ
--บฏ
--บด
--บต
--บถ
--บท
--บน
--บบ
--บป
--บผ
--บพ
--บม
--บย
--บร
--บรอบ
--บราซ
--บล
--บว
--บศ
--บส
--บหน
--บหล
--บอ
--บอย
--บอร
--บางส
--บาร
--บาล
--บำบ
--บำร
--บเป
--บเห
--บได
--ป
--ปกต
--ปกป
--ปซ
--ปฏ
--ปฐมท
--ปต
--ปท
--ปน
--ปป
--ปร
--ปรมาภ
--ประจำป
--ประช
--ประชาธ
--ประด
--ประต
--ประท
--ประมาณ
--ประย
--ประว
--ปรารถนา
--ปล
--ปส
--ปอร
--ปา
--ปาก
--ปาร
--ผ
--ผน
--ผล
--ผสม
--ฝ
--ฝร
--ฝาง
--พ
--พงษ
--พต
--พท
--พธ
--พน
--พบ
--พบก
--พบว
--พม
--พย
--พร
--พรรษา
--พระพ
--พระอ
--พระองค
--พระเจ
--พราน
--พฤต
--พล
--พส
--พห
--พอ
--พอท
--พาณ
--พาย
--พาร
--พเจ
--ฟ
--ฟฟ
--ฟฟอร
--ฟร
--ฟล
--ฟอร
--ฟา
--ภ
--ภค
--ภพ
--ภรณ
--ภา
--ภาค
--ภาคร
--ภาน
--ภาผ
--ภาพ
--ภาพยนตร
--ภาพเป
--ภายใต
--ภาว
--ภาษ
--ภาส
--ภาแห
--ม
--มก
--มกล
--มการ
--มข
--มค
--มควร
--มควรแก
--มงก
--มจ
--มจร
--มช
--มซ
--มณ
--มณศ
--มด
--มดล
--มดา
--มต
--มถ
--มท
--มน
--มนตร
--มบ
--มป
--มผ
--มพ
--มฟ
--มภ
--มม
--มมต
--มย
--มร
--มรส
--มรสก
--มล
--มว
--มศ
--มส
--มสก
--มสาม
--มห
--มหากร
--มหากษ
--มหาบ
--มหาว
--มอ
--มอก
--มอง
--มอน
--มอร
--มะ
--มะเร
--มา
--มาก
--มากกว
--มากข
--มากท
--มากเป
--มาคม
--มาคมน
--มาคมฟ
--มาช
--มาด
--มาต
--มาถ
--มาท
--มาธ
--มาน
--มาพ
--มาภ
--มาย
--มายถ
--มาร
--มาล
--มาส
--มาะสม
--มาเป
--มาเลเซ
--มาแล
--มาใช
--มเด
--ย
--ยก
--ยกเว
--ยง
--ยงาม
--ยจ
--ยช
--ยด
--ยต
--ยถ
--ยท
--ยน
--ยนตร
--ยพ
--ยม
--ยร
--ยว
--ยศ
--ยส
--ยอ
--ยอดน
--ยอดเย
--ยะ
--ยา
--ยากรณ
--ยาธ
--ยาน
--ยาบาล
--ยาพ
--ยาม
--ยายต
--ยายพ
--ยายามท
--ยาว
--ยาส
--ร
--รก
--รค
--รคท
--รคพล
--รคร
--รคส
--รคอ
--รคเพ
--รง
--รงก
--รงข
--รงช
--รงต
--รงท
--รงม
--รงร
--รงว
--รงส
--รงเป
--รจ
--รช
--รซ
--รณ
--รณาธ
--รณไม
--รด
--รดาผ
--รดาศ
--รต
--รถ
--รถไฟฟ
--รท
--รน
--รนด
--รบ
--รป
--รผ
--รพ
--รพช
--รพบ
--รพส
--รฟ
--รภ
--รม
--รมณ
--รมท
--รมม
--รมย
--รมร
--รมราชาน
--รมว
--รมวงศาน
--รมส
--รมอ
--รมาธ
--รย
--รยากาศ
--รร
--รรค
--รรคการเม
--รรคคอมม
--รรคประชาธ
--รรคหน
--รรจ
--รรจบก
--รรณ
--รรณกรรม
--รรณคด
--รรณศ
--รรดาศ
--รรท
--รรพ
--รรพส
--รรม
--รรมน
--รรมว
--รรล
--รรษ
--รล
--รว
--รวง
--รวจจ
--รวจด
--รวจเง
--รวม
--รวมถ
--รวมท
--รศ
--รษ
--รษณ
--รษท
--รษา
--รษาอย
--รส
--รสก
--รสต
--รห
--รหน
--รหม
--รอ
--รอง
--รอบ
--รอบคร
--ระ
--ระก
--ระการ
--ระค
--ระคร
--ระคล
--ระจ
--ระจายต
--ระจายเส
--ระช
--ระชากร
--ระด
--ระต
--ระท
--ระทำ
--ระทำความผ
--ระทำด
--ระทำท
--ระทำน
--ระทำอ
--ระธาต
--ระธานาธ
--ระน
--ระนคร
--ระนครศร
--ระบ
--ระป
--ระปร
--ระผ
--ระพ
--ระภ
--ระม
--ระมหากร
--ระมหากษ
--ระมาณ
--ระร
--ระราช
--ระราชพ
--ระราม
--ระว
--ระส
--ระสงฆ
--ระสวาม
--ระห
--ระหน
--ระหว
--ระอ
--ระองค
--ระเจ
--ระเด
--ระเทศ
--ระเทศจ
--ระเทศญ
--ระเทศต
--ระเทศท
--ระเทศฝร
--ระเทศสหร
--ระเทศอ
--ระเทศไทย
--ระเบ
--ระเป
--ระเพณ
--ระเภท
--ระเยซ
--ระเยโฮวาห
--ระแก
--ระแม
--รา
--รางว
--ราช
--ราชดำร
--ราชวรมหาว
--ราซ
--ราน
--รานซ
--รานท
--ราบ
--ราบท
--ราบบ
--ราบว
--ราม
--ราย
--รายช
--ราว
--ราส
--ราสาท
--ราหมณ
--ราะ
--ราะต
--ราะถ
--ราะท
--ราะม
--ราะว
--ราะส
--ราะเป
--ราะไม
--ราเมอ
--รเป
--รเสร
--รให
--รได
--ฤกษ
--ฤด
--ฤต
--ฤท
--ฤทธ
--ฤษฎ
--ฤษณ
--ฤห
--ฤหาสน
--ล
--ลก
--ลข
--ลค
--ลง
--ลงก
--ลงด
--ลงท
--ลงน
--ลงป
--ลงว
--ลงส
--ลงอ
--ลงเป
--ลงเล
--ลงไป
--ลซ
--ลด
--ลดปล
--ลต
--ลท
--ลน
--ลบ
--ลบหน
--ลป
--ลพ
--ลฟ
--ลม
--ลมช
--ลย
--ลยศ
--ลร
--ลล
--ลว
--ลวง
--ลวงป
--ลวงพ
--ลศ
--ลส
--ลอ
--ลอด
--ลอดช
--ลอดท
--ลอดภ
--ลอดเล
--ละ
--ละต
--ลา
--ลาง
--ลางค
--ลางว
--ลางเม
--ลาด
--ลาดหล
--ลาท
--ลาน
--ลาย
--ลายคร
--ลายต
--ลายป
--ลายพ
--ลายเป
--ลาร
--ลาว
--ลำ
--ลำด
--ลำต
--ลำพ
--ลเม
--ลเย
--ลเร
--ลไม
--ว
--วก
--วกก
--วกท
--วกน
--วกม
--วกาศ
--วกเขา
--วค
--วง
--วงจ
--วงท
--วงพ
--วงศ
--วงหมายเลข
--วงอาท
--วงเม
--วงแผ
--วงใจ
--วจ
--วจค
--วจจ
--วจด
--วจท
--วจว
--วช
--วญ
--วณ
--วด
--วดท
--วดม
--วดร
--วดว
--วดหม
--วดา
--วดเร
--วต
--วท
--วน
--วนท
--วนส
--วนอ
--วบ
--วบค
--วป
--วม
--วมก
--วมต
--วมถ
--วมท
--วมมงก
--วมร
--วมแล
--วย
--วร
--วรด
--วรว
--วล
--วว
--วส
--วอ
--วะ
--วา
--วาดล
--วาน
--วาม
--วามก
--วามข
--วามค
--วามจร
--วามจำ
--วามช
--วามซ
--วามด
--วามต
--วามถ
--วามท
--วามน
--วามบ
--วามปลอดภ
--วามผ
--วามฝ
--วามพ
--วามม
--วามย
--วามร
--วามล
--วามว
--วามส
--วามสำเร
--วามหว
--วามอ
--วามเข
--วามเช
--วามเป
--วามเร
--วามเส
--วามเห
--วามแตกต
--วามไม
--วาย
--วาร
--ศ
--ศก
--ศท
--ศน
--ศบาลเม
--ศผ
--ศพ
--ศร
--ศวรรษ
--ศส
--ศหญ
--ศาลย
--ศาลอ
--ศาสตร
--ศเม
--ษ
[...]
