!
"
#
##0
##1
##10
##11
##12
##13
##14
##15
##16
##17
##18
##19
##2
##20
##21
##22
##23
##24
##25
##26
##27
##28
##29
##3
##30
##31
##32
##33
##34
##35
##36
##37
##38
##39
##4
##40
##41
##42
##43
##44
##45
##46
##47
##48
##49
##5
##50
##51
##52
##53
##54
##55
##56
##57
##58
##59
##6
##60
##61
##62
##63
##64
##65
##66
##67
##68
##69
##7
##70
##71
##72
##73
##74
##75
##76
##77
##78
##79
##8
##80
##81
##82
##83
##84
##85
##86
##87
##88
##89
##9
##90
##91
##92
##93
##94
##95
##96
##97
##98
##99
$
%
&
'
(
)
*
+
,
-
.
/
0
00
000
0004
001
002
0022
003
004
005
006
007
008
009
01
010
011
012
013
0140
016
02
03
0362
04
05
06
07
08
09
1
10
100
1000
1001
1002
1006
1007
101
1016
1017
102
1021
103
1037
1038
104
105
1056
106
1066
107
1073
108
1080
1083
1086
1088
109
1093
1097
1098
11
110
1100
111
1111
112
1126
1128
113
1136
114
1146
115
116
117
1177
118
1186
119
12
120
1200
121
122
123
124
125
1250
126
127
128
129
13
130
1300
131
132
1328
133
134
135
136
1365
137
1371
138
1385
139
14
140
1400
141
142
143
144
145
1450
146
14651858
1467
147
1471
148
1480
149
15
150
1500
151
152
1520
153
154
155
156
157
158
159
16
160
1600
161
162
163
164
165
166
167
168
169
17
170
1700
171
172
173
174
175
1758
176
177
178
1789
179
1790
1792
1793
1795
18
180
1800
1801
1803
1804
1806
181
1812
1814
1815
182
1820
1821
1822
1824
1825
1828
1829
183
1830
1831
1832
1834
1835
1837
1838
1839
184
1840
1841
1842
1843
1844
1845
1846
1847
1848
1849
185
1850
1851
1852
1853
1854
1855
1856
1857
1858
1859
186
1860
1861
1862
1863
1864
1865
1866
1867
1868
1869
187
1870
1871
1872
1873
1874
1875
1876
1877
1878
1879
188
1880
1881
1882
1883
1884
1885
1886
1887
1888
1889
189
1890
1891
1892
1893
1894
1895
1896
1897
1898
1899
19
190
1900
1901
1902
1903
1904
1905
1906
1907
1908
1909
191
1910
1911
1912
1913
1914
1915
1916
1917
1918
1919
192
1920
1921
1922
1923
1924
1925
1926
1927
1928
1929
193
1930
1931
1932
1933
1934
1935
1936
1937
1938
1939
194
1940
1941
1942
1943
1944
1945
1946
1947
1948
1949
195
1950
1951
1952
1953
1954
1955
1956
1957
1958
1959
196
1960
1961
1962
1963
1964
1965
1966
1967
1968
1969
197
1970
1971
1972
1973
1974
1975
1976
1977
1978
1979
198
1980
1981
1982
1983
1984
1985
1986
1987
1988
1989
199
1990
1991
1992
1993
1994
1995
1996
1997
1998
1999
2
20
200
2000
2001
2002
2003
2004
2005
2006
2007
2008
2009
201
2010
2011
2012
2013
2014
2015
2016
2017
2018
2019
202
2020
2021
2022
2023
2024
203
204
205
206
207
208
209
21
210
211
212
213
2136
214
215
216
217
218
219
22
220
221
222
223
224
225
226
227
228
229
23
230
2305
2307
231
2310
232
2325
233
234
235
2352
236
2367
237
238
239
2394
2399
24
240
2400
2404
241
2410
2411
2416
2417
2418
2419
242
2420
2421
2423
2424
2425
2426
2427
2428
2429
243
2430
2431
2432
2433
2434
2435
2436
2437
2438
2439
244
2440
2441
2442
2443
2444
2445
2446
2447
2448
2449
245
2450
2451
2452
2453
2454
2455
2456
2457
2458
2459
246
2460
2461
2462
2463
2464
2465
2466
2467
2468
2469
247
2470
2471
2472
2473
2474
2475
2476
2477
2478
2479
248
2480
2481
2482
2483
2484
2485
2486
2487
2488
2489
249
2490
2491
2492
2493
2494
2495
2496
2497
2498
2499
25
250
2500
2501
2502
2503
2504
2505
2506
2507
2508
2509
251
2510
2511
2512
2513
2514
2515
2516
2517
2518
2519
252
2520
2521
2522
2523
2524
2525
2526
2527
2528
2529
253
2530
2531
2532
2533
2534
2535
2536
2537
2538
2539
254
2540
2541
2542
2543
2544
2545
2546
2547
2548
2549
255
2550
2551
2552
2553
2554
2555
2556
2557
2558
2559
256
2560
2561
2562
2563
2564
2565
2566
257
258
259
26
260
261
262
263
264
265
266
267
268
269
27
270
271
272
273
274
275
276
277
278
279
28
280
281
282
283
284
285
286
287
288
289
29
290
291
292
293
294
295
296
297
298
299
3
30
300
3000
301
302
303
304
305
306
307
308
309
31
310
311
312
313
314
315
316
3166
317
318
319
32
320
321
322
323
324
325
326
327
328
329
33
330
331
332
333
334
335
336
337
338
339
34
340
341
342
343
344
345
346
347
348
349
35
350
351
352
353
354
355
356
357
358
359
36
360
361
362
363
364
365
366
367
368
369
37
370
371
372
373
374
375
376
377
378
379
38
380
381
382
383
384
385
386
387
388
389
39
390
391
392
393
394
395
396
397
398
399
4
40
400
4000
401
402
403
404
405
406
407
408
409
41
410
411
412
413
414
415
416
417
418
419
42
420
421
422
423
424
425
427
428
429
43
430
431
432
433
4331
434
435
437
438
44
440
441
443
444
445
447
449
45
450
451
453
457
458
459
46
460
461
462
463
465
467
47
470
471
472
474
475
476
477
479
48
480
484
485
486
49
490
491
495
497
498
499
5
50
500
501
505
506
508
509
51
510
511
514
517
52
520
521
525
53
530
531
534
537
54
540
542
543
544
546
55
550
551
555
556
559
56
560
57
570
576
58
580
582
583
59
594
595
599
6
60
600
601
61
610
616
618
62
620
623
625
627
63
630
631
633
639
64
640
643
648
65
650
652
655
66
660
67
670
671
6736
674
68
680
684
69
690
691
7
70
700
71
72
720
73
737
74
745
747
75
750
757
76
760
767
77
777
78
780
787
79
8
80
800
802
808
81
818
82
83
84
85
850
86
87
870
88
89
9
90
900
91
911
92
93
94
944
95
950
956
96
960
962
97
974
978
98
981
99
999
:
;
<
=
>
?
@
[
\
]
^
_
`
a
aa
aaa
aaron
ab
abc
abdul
abe
abessive
about
above
abraham
abs
abstract
abu
abuse
ac
acacia
academia
academic
academy
accent
access
accessdate
accessed
accident
according
account
ace
achievement
acid
acids
acoustic
across
act
acta
acting
action
active
activities
activity
actor
actors
actress
acute
ad
adam
adams
adaptation
add
additional
address
adds
adessive
administration
administrative
adrian
adult
adults
advance
advanced
advances
adventure
adventures
advisory
ae
aew
af
afc
affairs
afghan
afghanistan
afp
africa
african
after
ag
again
against
age
agency
agent
agents
ages
ago
agreement
agricultural
agriculture
ah
ahead
ahmad
ahmed
ahn
ai
aid
aids
air
airbus
aircraft
airlines
airplay
airport
airways
ais
aise
aj
ak
akb
al
ala
alan
albert
alberto
album
albums
alcohol
alex
alexander
alexandra
alfred
algorithm
ali
alice
alien
aligned
alive
all
allan
allative
allen
alliance
allkpop
allmusic
almost
alone
along
alpha
alphabet
alpinia
also
alternative
always
alzheimer
am
amazing
amazon
ambassador
ame
america
american
americans
amid
among
amsterdam
amy
an
ana
analysis
anatomy
ancient
and
anderson
andre
andrea
andreas
andrew
andrews
android
andy
ang
angel
angeles
angels
angle
anglo
animal
animals
animated
animation
anime
ann
anna
annals
anne
anniversary
announce
announced
announcement
announces
annual
another
ant
anterior
anthem
anthony
anthropology
anti
anto
anton
antonio
anxiety
any
ao
ap
app
appear
appearance
appearances
apple
application
applications
applied
appointed
approach
apr
april
aquarium
ar
ara
arab
arabia
arabic
arc
arch
archaeological
archaeology
architecture
archive
archived
archives
are
area
areas
arena
argentina
aria
arm
armed
armenia
armenian
arms
army
arnold
around
array
ars
arsenal
art
artery
arthur
article
articles
artist
artists
arts
arxiv
as
asahi
asean
asia
asian
asiatic
ask
asked
asp
aspects
aspx
assembly
assessment
associated
associates
association
associations
asteroid
aston
astro
astronomical
astronomy
astrophysical
astrophysics
astv
at
athens
athletes
athletic
athletics
atlantic
atlas
atmospheric
atomic
atp
attack
attacks
attendance
attention
au
audio
audition
auf
aug
august
aung
aus
austin
australia
australian
austria
austrian
author
authority
authors
auto
autoformat
automatically
autonomous
autumn
av
available
avengers
average
aviation
aw
award
awarded
awards
away
ax
az
azerbaijan
aŋ
aɪ
aɰ
aʔ
b
ba
baby
back
background
bad
bai
baker
balance
ball
baltimore
bamboo
ban
banarsidass
band
bang
bangkok
bangkokbiznews
bangladesh
bank
banks
bao
bar
barbara
barcelona
barnes
baron
barry
base
based
basic
basis
basketball
bass
bat
bataille
batman
battle
bauhinia
bay
bayern
bb
bbc
bc
bd
bdfutbol
be
beach
bear
bearers
beast
beat
beats
beautiful
beauty
became
because
become
becomes
been
before
begin
beginning
begins
behavior
behavioral
behaviour
behind
bei
beijing
being
belarus
belgian
belgium
believe
bell
belt
ben
benigno
benjamin
bennett
benth
ber
berg
berkeley
berlin
bernard
best
bet
beta
better
between
beyonce
beyond
bf
bgn
bi
bia
bian
bias
bibcode
bible
bibliography
bid
bie
big
biggest
bih
bill
billboard
billion
billy
bin
bing
bio
biochemistry
biographical
biography
biol
biological
biology
biotechnology
bipolar
bird
birdlife
birds
birmingham
birth
birthday
bis
bishop
bit
biu
biz
black
blackpink
blackwell
blade
blake
blind
block
blog
blogspot
blood
bloom
bloomberg
blu
blue
blues
bmatrix
bmj
bnk
bo
board
boat
bob
bobby
body
boeing
bok
bomb
bond
bone
bong
bonus
book
books
boom
bor
bora
border
born
borneo
borussia
boss
boston
bot
botanical
both
bottom
bou
bowl
box
boxing
boxrec
boy
boys
br
bradley
brain
branch
brand
brasil
braun
brave
brazil
brazilian
break
breaking
breaks
brian
bridge
brief
bright
brill
bring
britain
britannica
british
bro
broadcast
broadcasting
brock
broken
bronze
bros
brother
brothers
brown
bruce
brunei
bruno
bryan
bst
bts
bu
budapest
buddha
buddhism
buddhist
budget
build
building
built
bulgaria
bull
bullet
bulletin
bun
bundesliga
bureau
burke
burma
burmese
burn
bus
bush
business
but
butler
butterfly
by
bye
c
ca
cabinet
cable
caf
cafe
cage
cagematch
cai
cairo
calamus
calc
calculate
caldwell
calendar
california
call
called
calls
cam
cambodia
cambridge
came
cameron
camp
campaign
campbell
campus
can
canada
canadian
canal
cancer
cant
cantonese
cao
cap
capcom
cape
capital
captain
capture
car
carbon
card
cardiovascular
care
career
carey
caribbean
carl
carlos
carol
carolina
carrier
carry
cars
carter
cartoon
case
cases
cash
cast
castle
cat
catalog
catalogue
category
cathedral
catherine
catholic
cause
causes
cave
cb
cbc
cbs
cc
cd
cdc
cdot
cdp
ce
celebration
cell
cells
celtic
cena
census
center
centers
central
centre
centuries
century
centurycomm
ceo
ceremony
certification
certifications
cest
cet
cf
ch
cha
chain
challenge
challenges
chamber
champion
champions
championship
championships
chan
chance
chang
change
changed
changes
changing
changsha
channel
chao
chapman
chapter
character
characteristics
characters
charge
charity
charles
charlie
charlotte
chart
charter
charts
che
check
checklist
chef
chelsea
chem
chemical
chemistry
chen
cheng
chengdu
chess
chi
chia
chiang
chicago
chicken
chief
chieh
chien
chih
child
childhood
children
chile
chin
china
chinese
ching
chisholm
chiu
cho
choi
choice
chong
chosun
chou
chris
christ
christian
christine
christmas
christopher
chronic
chronicle
chronicles
chronology
chu
chua
chula
chun
chung
church
ci
cia
cid
cie
cinema
circle
circuit
citation
cite
cited
citeref
cities
city
civil
civilization
cj
cl
claim
claims
clarendon
clark
clarke
clash
class
classic
classical
classification
claude
clean
clear
click
climate
clin
clinic
clinical
clio
clip
clock
close
closed
cloud
club
clubs
clue
cm
cn
cnn
co
coach
coast
coauthors
cochrane
code
coffee
cognitive
cohen
cold
cole
colin
collaboration
collapse
collection
college
collins
colloquial
colombia
colonial
color
columbia
column
com
combat
combinations
combined
come
comeback
comedy
comes
comic
comics
coming
command
commander
commentary
commerce
commercial
commission
commissioner
committee
common
commonly
commonwealth
communication
communications
communism
communist
communities
community
companies
companion
company
comparative
comparison
compete
competition
competitions
complete
completed
completes
complex
composition
comprehensive
computer
computing
con
conan
concacaf
concept
concepts
concert
concise
conditional
conditions
confederation
conference
confirmed
confirms
conflict
cong
congo
congress
conmebol
connection
connor
conquest
cons
conservation
constitution
constitutional
construction
consumer
contact
contemporary
content
contest
context
continental
continues
contract
control
controlled
convention
cook
cooking
cool
cooper
cooperation
copa
copy
core
cornell
coronavirus
corporate
corporation
corps
corpus
cortex
cos
cost
costa
could
council
count
countdown
counter
countries
country
county
coup
couple
course
court
cov
cover
coverage
covid
cox
cp
cr
craig
crash
crazy
crc
created
creation
creative
credits
crew
crime
criminal
crisis
critical
critics
croatia
cross
crown
crowned
cruise
cruiserweight
crunchyroll
cry
crystal
crystalyn
cs
ct
cu
cuba
cui
cultural
culture
cultures
cumulative
cung
cuo
cup
cure
curlie
current
currently
cut
cv
cycle
cyclone
cyp
cyprus
cyu
cz
czech
d
da
dai
daibuun
daily
dailynews
dale
dallas
dam
damage
dame
dan
dance
dancing
dang
dangerous
daniel
danish
danny
dans
dao
daradaily
dark
darwin
das
data
database
date
dates
daughter
dave
david
davidson
davies
davis
dawn
day
days
db
dc
dd
de
dead
deadline
deadly
deadurl
deal
dean
dear
death
deaths
debate
debut
debuts
dec
decade
december
decision
declaration
decline
deep
def
default
defeat
defence
defense
definition
degree
dei
dek
del
delhi
della
delta
dem
demand
dementia
democracy
democratic
demon
den
dendrobium
deng
denis
denmark
dennis
density
department
dependent
depression
der
des
description
desert
design
despite
destiny
destruction
det
detail
detailed
details
detective
deutsche
deutschen
development
devil
dex
df
dfb
di
dia
diabetes
diagnosis
diagnostic
dialect
diamond
diana
diary
dictionary
did
die
died
diego
dies
diet
difference
differences
different
digital
digitized
din
ding
dio
dion
direct
director
directory
dis
disaster
disc
discography
discogs
discovery
discussion
disease
diseases
disney
disorder
disorders
display
displaystyle
distance
distribution
district
districts
diu
diversity
division
dj
dk
dl
dna
do
doc
doctor
document
documentary
documents
dodson
does
dog
dogs
doi
domain
domainfalsefalse
domainpublic
dome
domestic
don
donald
dong
door
dopa
dortmund
dos
dot
dou
double
douglas
dover
down
download
downloaded
dr
draft
dragon
drama
draw
dream
dreams
drew
drive
driver
drop
drug
drugs
ds
dsm
dt
du
dual
duchess
duden
due
dui
duke
duncan
dung
dungan
duo
during
dutch
dvd
dw
dx
dynamic
dynamics
dynasty
dzi
e
ea
each
eagle
earl
earliest
early
earth
earthquake
east
eastern
easy
eat
eb
ec
echo
eclipse
ecology
economic
economics
economist
economy
ecw
ed
eddie
edge
edinburgh
edit
edited
edition
editions
editor
editors
eds
edu
education
educational
edward
edwards
edwin
ee
eest
ef
effect
effective
effects
efficacy
efl
egypt
egyptian
eh
ei
eight
ein
ek
el
elative
election
elections
electoral
electric
electronic
element
elements
elephant
eleven
elimination
elite
elizabeth
ellis
else
elsevier
em
embassy
emergency
emerging
emily
emirates
emma
emperor
empire
empires
empress
en
encyclopaedia
encyclopedia
encyclopædia
end
ending
ends
energy
enewsworld
eng
engine
engineering
engl
england
english
enix
enough
enpr
enter
entertain
entertainment
entries
entry
environment
environmental
ep
epic
epidemiology
epidendrum
episode
episodes
er
era
eric
erik
ernest
ernst
error
es
espan
espn
essay
essays
essential
essive
est
estimates
et
etc
ethics
ethiopia
ethnic
ethnologue
etymology
eu
eun
euro
europa
europe
european
evaluation
evans
eve
even
evening
event
events
ever
everton
every
everything
evidence
evil
evolution
evolutionary
ex
example
excel
excellence
excerpt
exchange
exclusive
executive
exercise
exhibition
exile
exo
expand
expansion
experience
experimental
expert
explained
exploration
explorer
expo
express
expression
extended
extension
external
extra
extreme
eye
eyes
f
fa
faan
face
facebook
faces
fact
factbook
factor
factors
factory
facts
faculty
fai
failure
fair
faith
fall
falls
false
fame
families
family
famine
famous
fan
fang
fans
fantastic
fantasy
fao
faq
far
farm
fashion
fast
fat
fate
father
fatty
favorite
fb
fc
fcw
fd
fda
fe
fear
feat
feature
features
featuring
feb
february
federal
federation
feel
fei
fem
female
fen
feng
fernando
festival
feud
fever
few
ff
fi
fiber
fiction
field
fields
fifa
fifteenth
fifth
fight
fighter
fighters
fighting
figure
figures
file
files
film
films
final
finally
finals
finance
financial
find
finding
finds
fine
finland
finnish
fire
first
fis
fischer
fish
fishbase
fisher
fishes
fivb
five
fl
flag
flagbearers
flags
flair
flash
fleet
fleming
flight
flood
flora
florida
flow
flower
flowers
flu
fly
flying
fm
fo
focus
follow
following
fong
food
foods
foot
football
for
forbes
force
forces
ford
foreign
forest
forever
form
format
formation
former
forms
formula
fort
fortune
forum
forward
fossil
found
foundation
four
fourth
fox
fr
frac
framework
franc
france
francis
francisco
frank
frankfurt
franklin
franz
fraser
fre
fred
frederick
free
freedom
freeman
french
frequency
fresh
friday
friedrich
friend
friends
friendship
fritz
from
front
frontier
fruit
ft
fu
fuel
fuji
fukushima
full
fun
function
functional
functions
fund
fung
furious
further
futsal
future
fuzhou
g
ga
gaa
gabriel
gaga
gai
galaxy
gallery
gam
game
gamer
games
gamespot
gaming
gamma
gan
gang
gao
gaon
gap
garden
gardens
gardner
gary
gas
gate
gates
gau
gay
gazette
gazetteer
gb
gbif
gdp
ge
gei
gen
gender
gene
genealogy
genera
general
generation
genes
genetic
genetics
geneva
genocide
genome
genus
geo
geoffrey
geographic
geographical
geography
geological
george
georgia
ger
gerald
german
germany
germplasm
get
gets
getting
gfk
ghost
gi
gia
giant
gilbert
gin
ging
girl
girls
giu
give
given
gives
gl
glass
glenn
global
globe
glory
glossary
gm
gmember
gmm
gn
go
goal
goals
god
gods
goes
going
gold
goldberg
golden
gon
gone
gong
good
goodbye
google
gordon
got
gou
gov
governance
government
governor
gr
grace
graham
grammar
grammy
gran
grand
grande
grant
grass
gray
great
greater
greatest
greece
greek
green
greenwood
greg
gregory
grey
grin
gross
ground
group
groups
growing
growth
gs
gsater
gt
gu
gua
guan
guangdong
guard
guardian
gue
guest
gui
guide
guidelines
guides
guinea
guinness
guitar
guk
gulf
gun
gundam
gung
guns
guo
guy
gwai
h
ha
haben
had
hagfa
hai
hair
hak
hakka
half
hall
ham
hamilton
han
hand
handbook
hands
hang
hans
hansen
hao
hap
happened
happiness
happy
hard
hardy
harold
harper
harpercollins
harris
harrison
harry
hart
harv
harvard
harvey
harvnb
has
hat
hau
have
haven
having
hawaii
hd
hdi
hdl
he
head
heads
headword
health
heart
hearts
heat
heaven
heavy
heavyweight
hee
hei
held
helen
hell
hello
help
hen
henri
henry
her
herald
herbert
here
heritage
herman
hero
heroes
het
hey
hi
hia
hidden
high
higher
highest
highlights
highness
highway
hill
him
himself
hin
hindi
hindu
hinduism
hip
his
histoire
historia
historic
historical
histories
history
hit
hitler
hits
hiu
hiv
hk
hm
hn
hng
ho
hoa
hockey
hodgkins
hoi
hok
hold
hole
holiday
holland
hollywood
holmes
holocaust
holy
home
homepage
homo
hon
honda
hong
honolulu
honor
honour
hook
hop
hope
hopkins
horizon
horn
horror
horse
hospital
host
hot
hotel
hotspur
hou
houghton
hour
hours
house
household
housing
houston
how
howard
however
hp
hr
hs
hsi
hsiao
hsieh
hsien
hsu
htm
html
http
https
hu
hua
huan
huang
hudson
hue
hugh
hughes
hugo
hui
human
humans
hun
hundred
hung
hungarian
hungary
hunger
hunt
hunter
huo
hurricane
hwang
hybrid
hye
hyun
hɔ
hɔŋ
i
ia
iaaf
ian
iao
iata
iau
ibf
ibn
ic
ice
iceland
ich
icon
id
idea
ideas
identification
identity
idol
ie
ieee
ien
if
ifpi
ig
ign
ih
ii
iii
ik
il
ilbo
illative
illinois
illustrated
im
image
images
imaging
imdb
imf
impact
imperial
implications
important
impress
in
inaccurate
inan
inc
incl
include
included
includes
including
income
independence
independent
index
india
indian
indiana
individual
indo
indonesia
indonesian
induced
industrial
industry
inessive
infection
infectious
influence
influenza
info
information
informatise
infty
ing
inhibitor
initial
initiative
injured
injury
inkigayo
inner
innovation
inquirer
insee
insert
inside
insider
insight
instagram
instead
institut
institute
institution
institutions
instrumental
int
integrated
integration
intel
intelligence
inter
interactive
intercontinental
interest
interior
internal
international
internationale
internet
interview
into
introduction
invasion
investigation
investment
io
ioc
ion
ip
ipa
iphone
ir
iran
iranian
iraq
ireland
irish
iron
is
isaac
isbn
isis
islam
islamic
island
islands
iso
israel
israeli
issn
issue
issues
ist
it
ita
italia
italian
italiana
italy
item
itis
ito
its
itunes
iu
iucn
iupac
iv
ivan
iw
iwgp
ix
iz
iŋ
iɪŋ
j
ja
jack
jackson
jacob
jacques
jade
jae
jakarta
jam
jama
james
jan
jane
jang
january
japan
japanese
jason
jau
java
jay
jazeera
jazz
jc
je
jean
jeff
jeffrey
jen
jennifer
jeong
jeremy
jericho
jerry
jersey
jerusalem
jessica
jesus
jet
jewish
jews
jha
jhe
jhi
jhu
ji
jia
jian
jiang
jiao
jie
jih
jik
jim
jimmy
jin
jing
jio
jiu
jk
jm
jma
jo
joan
job
joe
joel
joeng
johann
john
johnny
johns
johnson
join
joins
joint
jon
jonathan
jones
jong
joo
joongang
jordan
jose
joseph
josh
joshua
journal
journey
joy
joʊ
jp
jpg
jr
json
jstor
jtwc
ju
jua
juan
judge
judgment
jue
jul
julia
julian
july
jump
jun
june
jung
junior
just
justice
justin
juventus
jy
jyp
jyu
jyue
jyun
jɑŋ
jɑʊ
jɛ
jɛn
jʊŋ
k
ka
kabupaten
kai
kam
kamen
kan
kane
kang
kansas
kao
kapook
kara
karen
karl
kasetsart
kat
kate
katy
kau
kbs
kcr
ke
keep
kei
keith
keller
kelly
ken
kennedy
kenneth
kent
kevin
kew
key
kg
kha
khan
khaosod
khi
khmer
kho
ki
kia
kick
kicker
kid
kids
kienning
kill
killed
killer
killing
kills
kim
kimi
kin
kind
king
kingdom
kingdoms
kings
kingston
kinmen
kirby
kiss
kit
kiu
km
knight
know
knowledge
known
ko
koi
kok
kon
kong
korea
korean
kota
kou
kpop
kr
kra
kreikenbohm
ks
ku
kua
kuan
kue
kuei
kui
kumar
kun
kung
kuo
kurt
kv
kwa
kwan
ky
kyiv
kyo
kyoto
kyu
kyung
kɔ
kʊŋ
l
la
lab
label
labor
laboratory
labour
ladies
ladinxua
lady
lai
lake
lam
lambda
lan
lancet
land
lands
landscape
lane
lang
language
languages
langue
lanka
lao
laos
large
largest
larry
las
last
late
later
lateral
latest
latin
lau
launch
launches
laura
law
lawrence
laws
lay
layer
lb
lc
lccn
le
lead
leader
leaders
leadership
leading
leaf
league
learn
learning
least
leave
leaves
lecture
led
lee
left
leg
legacy
legal
legend
legends
lei
leicester
leiden
leipzig
length
leo
leoi
leon
leonard
les
leslie
lesnar
less
lessons
let
letter
letters
level
levels
lewis
lexicography
lexikon
lfc
li
lia
lian
liang
liao
liberation
liberty
libraries
library
license
lie
life
liga
light
lightning
lih
lik
like
lim
limited
lin
lincoln
linda
line
lines
ling
linguistic
linguistics
link
linked
linkin
links
linnaeus
lio
lion
lippincott
lisa
list
lista
listed
listen
lists
lit
literary
literature
little
liu
live
liverpool
lives
living
ll
llc
ller
lloyd
ln
lo
loan
local
location
log
logic
loi
lok
london
lonely
long
longer
longman
look
looking
looks
loop
lord
los
lose
loss
lost
lot
lotus
lou
louis
louise
love
lover
low
lower
lp
ls
lt
ltd
lu
lua
lucas
lucha
lucky
ludwig
lui
luis
luk
luke
lunar
lung
luo
luxembourg
ly
lynch
lyrics
lɔ
m
ma
maa
maan
mac
machine
macmillan
mad
made
madrid
mag
magazine
magic
magnetic
magnolia
magyar
maha
mahasz
mai
mail
main
mainland
maint
majesty
major
mak
make
makes
making
mal
malay
malaysia
malaysian
male
mama
man
management
manager
manchester
mang
manga
mania
manila
manual
manuel
manutd
many
mao
map
maps
mar
marc
marca
march
marco
marcus
margaret
margin
mari
maria
marie
marine
mario
mark
market
marketing
maroon
marriage
mars
marshall
marti
martin
marvel
mary
maryland
masc
mask
mass
massachusetts
massacre
massive
master
masters
mat
match
matches
material
materials
math
mathbf
mathematical
mathematics
mathrm
matichon
matrix
matt
matter
matthew
mau
maurice
max
may
maya
mayor
mb
mbc
mbox
mc
mcfarland
mcgraw
mcmahon
mcnulty
mcot
md
me
mean
meaning
means
meat
mechanics
mechanisms
med
medal
media
medial
medical
medicine
medicines
medien
medieval
medium
meet
meeting
mega
mei
meinong
meixian
melbourne
melody
melon
meltzer
member
members
membrane
memorial
memories
memory
men
meng
mental
menu
mercedes
mercury
merriam
message
messi
met
meta
metabolism
metacritic
metal
meteorological
method
methods
metro
metropolitan
mexican
mexico
meyer
mg
mgronline
mhz
mi
mia
miami
miaoli
michael
michel
michelle
michigan
microbiology
microsoft
mid
middle
midnight
mie
mifflin
might
migration
mike
mil
milan
miles
military
milk
millennium
miller
million
min
mind
mine
ming
mini
minister
ministry
minor
minority
minute
minutes
miracle
mirror
miss
missing
mission
mister
mit
mitchell
mix
mixed
miz
mj
mk
ml
mlcts
mm
mma
mn
mnet
mo
mobile
mod
mode
model
models
modern
modified
module
mohamed
mohammad
mohammed
mojo
mol
molecular
moment
mon
monaco
monarchy
monday
monetary
money
mong
monitor
monkey
monster
monsters
month
monthly
months
monuments
mood
moon
moore
more
morgan
morning
morris
mortality
moscow
mosque
most
mother
motilal
motion
motor
mou
mount
mountain
mountains
mouse
move
movement
moves
movie
movies
moving
mozilla
mp
mr
mri
mrs
ms
msc
msn
mt
mthai
mtv
mu
much
muhammad
mui
multi
multiple
mumbai
mun
munich
municipal
municipality
murder
murphy
murray
muscle
museum
music
musical
muslim
muslims
must
mv
my
myanmar
mystery
myth
mythology
mɔ
n
na
nach
nacional
nai
nakamura
nam
name
named
names
nan
nanchang
nancy
nanjing
nao
nas
nasa
nat
natalie
natasha
nathan
nation
national
nationalism
nations
native
nato
natur
natural
nature
naval
naver
navigation
navy
nazi
nbc
nchen
nct
nd
ndez
ne
near
need
negative
nei
neil
nelson
nen
neo
nepal
nepenthes
nerve
net
netflix
netherlands
network
networks
neural
neurology
neuron
neuroscience
never
new
newcastle
news
newsen
newsid
newsletter
newspaper
newton
next
nexus
nez
nfl
ng
nga
ngai
ngi
ngo
ngu
nguye
nh
nha
nhk
ni
nia
nice
nicholas
nick
nicolas
nicole
nie
nielsen
nigeria
night
nih
nil
nin
nine
ning
nintendo
nippon
nissan
niu
nj
njpw
nl
nm
nme
nn
no
noaa
nobel
noble
noc
node
noise
nominations
nominees
non
normal
norman
north
northern
norton
norway
norwegian
nos
not
note
notes
nothing
nou
noun
nov
nova
novel
november
now
npr
nr
ns
nt
nu
nuclear
nucleus
number
numbers
nutrition
nwa
nxt
ny
nz
nɑ
nɔ
o
obama
obituary
object
objects
observatory
observer
oc
ocean
oceanic
och
oclc
oct
october
oecd
of
off
office
officer
official
officially
officials
oficial
often
og
oh
ohio
oi
oil
ois
ok
okell
ol
ola
old
olfactory
oliver
olympiad
olympic
olympics
om
omega
on
once
one
ongoing
online
only
op
opbf
open
opening
openoffice
opens
opera
operation
operations
opinion
option
opus
or
oral
orange
orchestra
order
orders
org
organic
organisation
organising
organization
oricon
oriental
origin
original
originally
origins
orton
os
osaka
oscar
osen
osprey
ost
other
others
otto
ottoman
ou
our
out
outbreak
outline
outlook
output
outside
over
overall
overseas
overview
owen
owens
own
oxford
oŋ
oʊ
p
pa
paba
pacific
package
pagasa
page
pageant
pages
pai
pain
painting
pak
pakistan
palace
palestine
palgrave
palm
pan
panama
pandemic
panel
pang
pantip
pao
paper
paperback
papers
par
para
paradise
paralympic
paralympics
parameter
paris
park
parker
parks
parliament
part
partial
particle
parties
partitive
partner
partnership
parts
party
pas
pass
passes
past
pat
patent
path
patient
patients
patricia
patrick
pattaya
pattern
patterns
paul
paulo
pay
pbs
pc
pcgn
pdf
pe
peace
peak
pearl
pearson
pedro
pei
pen
peng
penguin
pennsylvania
people
peoples
per
perception
perfect
perform
performance
period
permanent
perry
persian
person
personal
personality
perspective
perspectives
peru
pet
peter
peters
pfa
pfs
pg
ph
pha
phantom
pharmacology
phase
phi
phil
philadelphia
philip
philippe
philippine
philippines
phillips
philosophical
philosophy
pho
phoenix
phofsit
phone
phonetic
phonographic
photo
photos
php
phu
phylogeny
physical
physics
physiology
pi
pia
piano
picture
pictures
pie
piece
pierre
pilot
pin
pineda
ping
pink
pinyim
pinyin
pit
piu
pk
pl
place
places
plan
plane
planet
planetary
planets
planning
plans
plant
plants
plate
platform
platinum
play
played
player
players
playing
playstation
please
plos
plus
pm
pmc
pmid
pnas
po
pocket
point
points
poke
pokemon
poland
police
policy
polish
political
politics
poll
polygon
poor
pop
pope
popular
population
populations
por
port
portal
portrait
portugal
portuguese
position
positions
positive
possible
post
posts
potential
potter
pou
pour
powell
power
powers
pp
ppv
pr
practical
practice
practices
pre
precure
pregnancy
preliminary
premier
premiere
prentice
present
presented
presents
president
presidential
press
pressure
pretty
prevention
preview
price
pride
primary
prime
prince
princess
princeton
principle
principles
print
printing
prison
private
prix
prize
pro
problem
problems
proceedings
process
processing
produce
produced
producer
product
production
productions
products
professional
professor
profile
profiles
program
programme
programming
programs
progress
project
projects
prometheus
promo
promotion
pronounced
pronunciation
properties
property
protection
protein
protest
protesters
protests
protocol
province
provinces
ps
psi
psychiatric
psychiatry
psychological
psychology
pt
pu
pub
public
publication
publications
published
publisher
publishers
publishing
puerto
pui
pun
punk
pure
purple
push
put
putin
pwi
pwinsider
pɔ
q
qatar
qi
qia
qian
qie
qin
qing
qiu
qs
qu
qua
quake
qualification
qualifiers
qualifying
quality
quantum
quarter
quarterly
que
queen
queens
quest
question
questions
queue
quick
quota
r
ra
race
rachel
racing
radiation
radical
radio
rafael
rail
railway
rain
rainbow
ralph
ram
rameshe
ran
random
randy
range
ranger
rangle
rank
ranked
ranking
rankings
rapid
rare
rat
ratchakitcha
rate
ratings
ration
raw
ray
raymond
rb
rc
rd
re
reach
reaction
read
reader
reading
ready
real
reality
really
reason
reasoning
rebecca
rebels
receive
received
recent
receptor
recognition
reconstruction
record
recorded
recording
records
red
reduction
reed
ref
reference
references
reform
region
regional
regions
register
regular
regulation
regulations
reich
reign
reigns
related
relations
relationship
relationships
release
released
releases
religion
religions
religious
remains
remember
remix
ren
renaissance
replace
report
reported
reporter
reports
reprint
republic
required
res
rescue
research
reserve
resident
resistance
resolution
resource
resources
respiratory
response
rest
result
results
retrieved
return
returns
reuters
rev
reveal
revealed
reveals
review
reviews
revised
revolution
revolutionary
rey
reynolds
rez
rh
rho
rhodes
rhythm
ri
ria
riaa
ric
rica
rice
rich
richard
rick
rico
ride
rider
right
rights
rin
ring
rings
rio
rise
rising
risk
river
rk
rm
rna
ro
road
rob
robert
roberts
robin
robinson
robot
rock
rocket
roger
rogers
roh
role
roll
rolling
rollins
roma
roman
romance
romania
romanization
romanized
rome
ron
ronald
rookie
room
root
roots
rose
ross
rotten
rough
round
route
routledge
row
rowman
roy
royal
rpm
rs
rsssf
rt
ru
rule
rules
rumble
run
running
rural
rush
russell
russia
russian
ruth
rwanda
rx
ryan
ryo
ryt
ryu
s
sa
saan
sacred
sad
safe
safety
saga
sage
sai
said
saint
sakura
sale
sales
salmon
salt
sam
same
samoa
samsung
samuel
samurai
san
sang
sanook
sanskrit
santa
sao
sap
sara
sarah
sars
sasha
sat
satellite
saturday
saturn
sau
saudi
saunders
savage
save
saw
say
says
sbs
sc
scale
scene
schedule
schizophrenia
schmidt
schneider
scholars
school
schools
schuster
sci
science
sciences
scientific
scientist
scientists
score
scores
scotland
scott
scottish
screen
script
scuanxua
sd
se
sea
seal
sealang
sean
search
season
seasons
seattle
sebastian
sec
second
secondary
secret
secretariat
secretary
secrets
section
security
see
seed
seen
sei
select
selected
selection
self
selling
semi
sen
senate
senior
sense
sensory
sentai
seo
seoi
seon
seoul
sep
september
sequel
sequence
serbia
serie
series
serotonin
server
service
services
session
set
seth
sets
seung
seven
several
severe
sex
sexual
sfn
sg
sh
sha
shadow
shah
shall
shan
shane
shang
shanghai
shape
share
shark
sharma
shaw
shawn
she
sheeran
sheet
shell
shen
sheng
shi
shield
shift
shih
shimbun
shin
shine
ship
shirt
sho
shock
shogakukan
shoot
shooting
shop
short
shot
should
show
shows
shu
shua
shui
shuo
si
sia
siam
siamsport
sichuanese
side
sie
siege
sigma
sign
signal
signing
signs
sik
sil
sila
silent
silk
silva
silver
sim
simon
simple
simpson
sims
sin
sina
since
sing
singapore
singer
singh
single
singles
sinological
sio
sir
sister
sit
site
sites
situation
siu
six
sixian
sixth
size
sj
sk
skating
ske
ski
skin
sky
skyscraper
sl
sla
slam
sleep
slow
sm
smackdown
small
smart
smile
smith
smithsonian
smmsport
snake
snow
so
soc
soccer
soccerbase
soccerway
sochi
social
socialism
socialist
society
sodium
soeng
soft
software
solar
sold
soldier
soldiers
solid
solo
solomon
solution
some
something
son
song
songs
sons
sony
soo
soompi
soon
sor
sou
soul
sound
sounds
soundtrack
source
sources
south
southeast
southern
soviet
sp
space
spacex
spain
spanish
speak
special
species
specific
specify
spectrum
speech
speed
spencer
spider
spin
spirit
split
sport
sporting
sports
spot
spread
spring
springer
spy
sqrt
squad
square
sr
sri
ss
st
sta
stade
stadion
stadium
staff
stage
stalin
stand
standard
standards
standing
stanford
stanley
star
stars
start
stat
state
statement
states
station
statistical
statistics
statnew
statpop
stats
status
stay
steam
steel
stefan
stem
step
stephanie
stephen
steve
steven
stevens
stewart
still
stock
stockholm
stone
stop
store
stories
storm
story
straight
straits
strange
strategic
strategies
strategy
stream
streaming
street
strength
stress
strike
strikes
string
strong
structure
struggle
stuart
student
students
studies
studio
studios
study
stuttgart
style
styles
su
sua
sub
subject
subjects
success
such
sudan
sue
sugar
sui
suicide
suite
suk
sullivan
sultan
sum
summary
summer
summerslam
summit
sun
sunday
sung
suo
super
superior
superman
superstar
suppl
supplement
supply
support
supported
supreme
sur
surface
surgery
surname
surprise
survey
survival
survivor
susan
sustainable
suzuki
sweden
swedish
sweet
swift
swimming
swiss
switch
switzerland
sword
sy
sydney
symbol
symbols
symphony
symptoms
syndrome
synthesis
syria
system
systematic
systems
syu
sz
sɔ
sɛ
sɤ
sɯ
sʊŋ
t
ta
table
tables
tactical
tae
tag
tai
taicheng
taipei
taiwan
taj
tajn
take
taken
takeover
takes
taking
tale
talent
tales
taliban
talk
talks
tall
tam
tan
tang
tank
tao
target
targets
task
taste
tau
tax
taxonomic
taxonomy
taylor
tb
tbs
tc
te
tea
teacher
team
teams
tears
teaser
tech
technical
technology
ted
teen
tel
telegraph
television
tell
temperature
template
temple
temporal
ten
tennis
term
terminal
terms
territories
territory
terror
terrorism
terry
tesla
test
testing
tests
texas
text
textbook
texts
th
tha
thai
thailand
thairath
thames
than
thank
that
the
theater
theatre
their
them
theme
then
theory
therapy
there
these
thesis
theta
they
thi
thing
things
think
thinking
third
this
tho
thomas
thompson
thomson
those
thought
thousand
threat
threatened
three
through
thu
thunder
ti
tia
tian
tibetan
tie
tiger
tim
timberlake
time
timeline
times
timothy
tin
ting
tissue
title
titles
titsingh
tiu
tmd
tna
to
today
todd
together
toi
toj
tojn
tokyo
toll
tom
tomatoes
tomorrow
ton
tong
tonga
tongyong
tonight
tony
too
took
tool
top
topic
tops
tor
torch
toronto
total
tottenham
tou
touch
tour
tourism
tourist
tournament
toward
towards
tower
town
towns
toyota
tr
tra
track
tracks
tract
trade
tradition
traditional
traditions
traffic
trailer
train
training
trans
transactions
transfer
transformation
transit
transition
translated
translation
translative
transmission
transport
transportation
travel
tre
treasure
treasury
treatment
treaty
tree
trees
trends
tri
trial
trials
tribe
tribune
tribute
trip
triple
troops
trophy
tropical
tru
true
trueid
trump
trust
truth
ts
tsa
tse
tsi
tsu
tsunami
tt
tu
tua
tui
tun
tung
tuo
turkey
turkish
turn
turner
turns
tv
tvb
twentieth
twenty
twice
twin
twitter
two
tyler
type
types
typhoon
tɔ
u
ua
uan
ue
uefa
ufc
uh
ui
uk
ukraine
ukrainian
ultimate
ultra
ultraman
ultratop
um
un
und
under
underground
understanding
undo
une
unesco
ung
unicode
union
unit
united
units
unity
universal
universe
universities
university
unknown
unrecognized
until
unveils
up
update
updated
updates
upon
upper
urban
url
us
usa
usda
use
used
user
users
uses
usgs
using
ut
utc
uŋ
v
va
vaccine
vaccines
valencia
valid
valley
value
values
van
var
variant
varieties
variety
various
ve
vec
vegas
vehicle
venezuela
venus
ver
verb
verge
verlag
vernacular
version
versus
very
vi
via
vice
victims
victor
victoria
victory
video
videos
vie
vienna
vietnam
vietnamese
view
views
vii
viii
villa
village
vincent
violence
viral
virgin
virginia
virtual
virus
vision
visit
visual
vitamin
vladimir
vo
vocal
vogue
voice
vol
volleyball
vols
volume
volumes
von
vote
voting
vs
vu
w
wa
wade
wagner
wai
wake
wales
walk
walker
wall
wallace
walter
wan
wang
wanna
want
wants
war
ward
warfare
warner
warning
warren
warrior
warriors
wars
was
washington
wat
watch
water
watson
wattle
wave
way
wayne
ways
wba
wbc
wbo
wcw
we
weapons
weather
web
website
webster
wedding
wednesday
week
weekend
weekly
weeks
wei
weight
welcome
well
wen
wenz
were
werner
west
western
weɪ
what
when
where
which
while
white
who
whole
why
wi
wide
width
wife
wii
wiki
wikimedia
wikipedia
wiktionary
wild
wildlife
wiley
wilhelm
wilkins
will
william
williams
wilson
win
wind
window
windows
wine
wing
winner
winners
winning
wins
winter
wire
wired
wish
witch
with
withdrawal
within
without
wo
wolf
wolfgang
woman
women
won
wonder
wong
woo
wood
woods
word
wordpress
words
work
workers
working
works
world
worlds
worldwide
worst
worth
would
wrestlemania
wrestler
wrestlers
wrestleview
wrestling
wright
write
writer
writers
writing
written
wrong
wu
wun
wwe
wwf
www
wyatt
wɔ
wən
x
xa
xbox
xi
xia
xian
xiao
xico
xie
xii
xiii
xin
xing
xinhua
xiu
xiv
xu
xua
xue
xun
xwa
xweɪ
xx
xxx
y
ya
yahoo
yale
yan
yang
yao
ye
year
yearbook
years
yeh
yellow
yemen
yen
yeon
yes
yet
yg
yi
yih
yin
ying
yn
yo
yong
yonhap
yoo
yoon
york
you
young
your
youth
youtube
yu
yua
yuan
yue
yun
yung
z
za
zai
zan
ze
zealand
zen
zero
zha
zhang
zhao
zhe
zheng
zhi
zho
zhou
zhu
zhua
zhuo
zi
ziggler
zin
zing
zo
zone
zong
zoo
zu
zui
zung
zuo
zur
zyu
{
|
}
~

¡
£
§
©
ª
«
¬
­
®
¯
°
±
²
²²
²³
²¹
²¹³
²¹¹
²¹⁴
²⁴
²⁴²
³
³²
³³
³¹
³⁴
³⁵
´
µ
·
¹
¹²¹
¹³
¹¹
º
»
½
¿
×
æ
ð
÷
ø
đa
đo
ı
ŋ
ŋa
ŋɔ
œ
ɐ
ɐi
ɐn
ɑ
ɑŋ
ɑʊ
ɔ
ɔŋ
ɕ
ɕa
ɕi
ɕin
ɕiŋ
ɕiɪŋ
ɕja
ɕjɑʊ
ɕjɛ
ɕjɛn
ɕy
ɕɥɛ
ɕɥɛn
ɖ
ə
ən
ɛ
ɜ
ɡ
ɢ
ɣ
ɤ
ɤŋ
ɥɛn
ɦ
ɨ
ɪ
ɪŋ
ɯ
ɰ
ɲ
ɲa
ɳ
ɴ
ɹ
ɻ
ɾ
ʂ
ʂa
ʂu
ʂən
ʂɤŋ
ʂʐ
ʃ
ʃy
ʈ
ʊ
ʊŋ
ʌ
ʐ
ʑ
ʒ
ʔ
ʔa
ʰ
ʰˠ
ʱ
ʲ
ʷ
ʷʰ
ʹ
ʻ
ʼ
ʾ
ʿ
ˀ
ˇ
ˈ
ˊ
ˋ
ˌ
ː
ːᴬ
ˑ
˙
ˠ
ˡ
ˤ
˥
˦
˧
˨
˩
̀
́
̂
̃
̄
̆
̇
̈
̉
̊
̋
̌
̍
̎
̏
̐
̑
̓
̔
̚
̛
̞
̟
̠
̣
̤
̥
̦
̧
̨
̩
̪
̬
̯
̰
̱
̲
̸
̹
̻
̽
̿
͂
͇
͈
͓
͘
͜
͡
͢
α
β
γ
δ
ε
ζ
η
θ
ι
κ
λ
μ
ν
ο
π
ρ
ς
σ
τ
υ
φ
χ
ψ
ω
ϕ
ϵ
а
в
всероссии
г
года
д
е
з
и
к
л
м
н
на
населения
о
перепись
по
р
россии
с
ская
скои
т
ть
у
украі
федерации
ц
ч
ъ
ь
я
і
ְ
ִ
ֵ
ֶ
ַ
ָ
ֹ
ּ
־
ׁ
א
ב
ד
ה
ו
ח
י
ל
ם
מ
ן
נ
ע
פ
ק
ר
ש
ת
،
ء
ا
الا
ب
ة
ت
ج
ح
خ
د
ذ
ر
ز
س
ش
ص
ض
ط
ع
ف
ق
ك
ل
م
ن
ه
و
ى
ي
ً
ٌ
ٍ
َ
ُ
ِ
ّ
ْ
ٓ
ٔ
ٕ
ٰ
ی
۝
ۡ
۲
ނ
އ
ތ
ަ
ާ
ި
ު
ް
ँ
ं
ः
अ
ई
क
ख
ग
घ
च
छ
ज
ञ
ट
ठ
ड
ण
त
थ
द
ध
न
प
फ
ब
भ
म
य
र
ल
व
श
ष
स
ह
़
ा
ि
ी
ु
ू
ृ
े
ै
ो
ौ
्
।
१
ং
ক
খ
গ
চ
জ
ট
ড
ত
থ
দ
ধ
ন
প
ব
ভ
ম
য
র
ল
শ
স
হ
়
া
ি
ী
ু
ে
্
ৰ
ਾ
ਿ
ੀ
ੁ
ં
ા
ી
્
ର
ା
୍
க
ச
ட
த
ன
ப
ம
ய
ர
ல
வ
ா
ி
ு
ெ
ே
ை
்
ి
ు
్
ಿ
ೆ
್
ം
ാ
ി
്
ං
ක
ජ
ත
ද
න
ප
බ
ම
ය
ර
ල
ව
ස
හ
්
ා
ි
ී
ු
ෙ
ก
กก
กกฎหมาย
กกต
กกร
กกระต
กกล
กกว
กกองท
กกอล
กกะ
กกะส
กกะฮ
กกา
กการ
กการท
กการบ
กการศ
กการะ
กการเม
กการแข
กการใช
กกำจ
กกำพร
กกำล
กกำหนดให
กข
กขภ
กขรว
กขระต
กขว
กของ
กของกล
กของจ
กของต
กของท
กของน
กของผ
กของพ
กของม
กของร
กของว
กของส
กของอ
กขององค
กขะเว
กขา
กค
กคณ
กคณะร
กคน
กคนก
กคนต
กคนท
กคนน
กคนม
กคนหน
กคนอ
กคนได
กคร
กคล
กคว
กควบค
กความในมาตรา
กคาร
กคำ
กฆ
กง
กงส
กงาน
กงานกองท
กงานข
กงานคณะกรรมการการศ
กงานคณะกรรมการการเล
กงานคณะกรรมการว
กงานจ
กงานต
กงานตำรวจแห
กงานท
กงานทร
กงานบร
กงานปล
กงานผ
กงานฝ
กงานพ
กงานพระพ
กงานร
กงานราชบ
กงานว
กงานส
กงานสถ
กงานอ
กงานเขตพ
กงานเจ
กงานเลขาธ
กงานเลขาน
กงานใหญ
กจ
กจร
กจะต
กจะถ
กจะม
กจะเก
กจะเป
กจะเร
กจะใช
กจะได
กจะไม
กจำก
กจำค
กจำนวน
กจำนวนหน
กฉ
กฉบ
กช
กชน
กชวนให
กชาต
กชาย
กชายท
กซ
กซานดรา
กซานเดร
กซานเดอร
กฎ
กฎการจ
กฎหมาย
กฎหมายท
กฎหมายบ
กฎหมายว
กฎอ
กฐาน
กฐานการทะเบ
กฐานท
กฐานว
กฐานอ
กด
กดนตร
กดอตคอม
กดา
กดาราศาสตร
กดาหาร
กดำบรรพ
กดำเน
กต
กตร
กตรอน
กตลอดช
กตอร
กตอเร
กตะกร
กตะว
กตา
กตำแหน
กถ
กถอนส
กท
กทม
กทร
กทรอน
กทฤษฎ
กทอง
กทะเบ
กทางหน
กทำร
กทำลาย
กทำให
กธ
กธงช
กธน
กธรรมช
กธาต
กน
กนก
กนายกร
กนำต
กนำมาใช
กนำเข
กนำไปใช
กบ
กบร
กบรรจ
กบวช
กบาศก
กป
กปฏ
กปปส
กปร
กประก
กประกอบด
กประการ
กประการหน
กประด
กประพ
กประมาณ
กประว
กประหารช
กประเภท
กปราชญ
กปล
กผ
กผล
กฝ
กฝร
กพ
กพร
กพระราชว
กพระองค
กพระเจ
กพล
กพากย
กพาต
กพาราม
กฟ
กฟร
กภ
กภาพ
กภาษาศาสตร
กม
กมน
กมล
กมวยท
กมวยปล
กมวยสากลสม
กมองว
กมาก
กมากกว
กมากข
กมากท
กมากมาย
กมาร
กย
กยกเล
กยาว
กยาเธอ
กร
กรก
กรกฎาคม
กรจ
กรช
กรชาวไทย
กรซ
กรณ
กรด
กรดไขม
กรต
กรท
กรน
กรบ
กรบร
กรปกครองส
กรพ
กรพงษ
กรพรรด
กรภพ
กรม
กรมการปกครอง
กรมการศาสนา
กรมการเม
กรมข
กรมค
กรมคำใหม
กรมฉบ
กรมตำรวจ
กรมท
กรมทร
กรมทหารราบท
กรมบร
กรมป
กรมประชาส
กรมพ
กรมพระยาดำรงราชาน
กรมพระราชว
กรมว
กรมศ
กรมส
กรมสมเด
กรมสาม
กรมสำเน
กรมหม
กรมหลวงนราธ
กรมอ
กรมฮ
กรมาลา
กรมาลาและเหร
กรมแทจาวอน
กรมไดก
กรย
กรยาน
กรยานยนต
กรร
กรรต
กรรม
กรรมการ
กรรมการก
กรรมการกของ
กรรมการกพห
กรรมการกเอกพจน
กรรมการบร
กรรมการผ
กรรมการร
กรรมด
กรรมต
กรรมท
กรรมน
กรรมส
กรรมาธ
กรรมเม
กรรายการ
กรล
กรว
กรวมเข
กรวรรด
กรวาล
กรวาลภาพยนตร
กรส
กรอ
กรอย
กรฮ
กระง
กระจ
กระจายพ
กระจายเส
กระด
กระต
กระท
กระทรวง
กระทรวงกลาโหม
กระทรวงการคล
กระทรวงการต
กระทรวงการท
กระทรวงคมนาคม
กระทรวงมหาดไทย
กระทรวงย
กระทรวงว
กระทรวงศ
กระทรวงสาธารณส
กระทำความผ
กระทำต
กระทำผ
กระทำให
กระน
กระบ
กระบอก
กระป
กระส
กระหว
กระเท
กระเบ
กระเป
กระแสไฟฟ
กราช
กราชได
กราน
กราบถวายบ
กราบท
กราบบ
กราฟ
กราว
กรเป
กรแห
กรโรม
กรได
กรไทย
กรไม
กรไอน
กฤด
กฤดากร
กฤต
กฤตการณ
กฤทธ
กฤษฎ
กฤษณ
กล
กลง
กลงท
กลย
กลว
กลอง
กลอบส
กละเว
กลาง
กลางค
กลางท
กลางว
กลางอย
กลายมาเป
กลายเป
กลาส
กว
กวง
กวน
กวนอ
กวรรณกรรมและประว
กวอลเลย
กวาง
กวางต
กวางเจา
กศ
กศร
กษ
กษณ
กษณนาม
กษณะ
กษณะคล
กษณะด
กษณะต
กษณะท
กษณะน
กษณะพ
กษณะภ
กษณะร
กษณะส
กษณะสำค
กษณะอ
กษณะเช
กษณะเด
กษณะเป
กษณะเหม
กษน
กษม
กษร
กษรกร
กษรค
กษรจ
กษรซ
กษรต
กษรท
กษรน
กษรพม
กษรพราหม
กษรย
กษรละต
กษรลาว
กษรว
กษรศาสตร
กษรส
กษรสากล
กษรหร
กษรอ
กษรอาหร
กษรฮ
กษรเขมร
กษรเทวนาคร
กษรเบงกอล
กษรเพ
กษรแบบพ
กษรแบบย
กษรแบบอ
กษรแบบโรมะจ
กษรและถ
กษรโรม
กษรในภาษาอ
กษรให
กษรไทธรรม
กษรไทย
กษะ
กษา
กษาก
กษาการณ
กษาการตามพระราชบ
กษาข
กษาขนาดใหญ
กษาค
กษาความปลอดภ
กษาความม
กษาความสงบเร
กษาความสงบแห
กษาจ
กษาจาก
กษาจากมหาว
กษาจากโรงเร
กษาช
กษาด
กษาต
กษาตอนต
กษาตอนปลาย
กษาถ
กษาท
กษาธ
กษาน
กษาบ
กษาป
กษาปร
กษาประต
กษาประถมศ
กษาผ
กษาพ
กษาพระองค
กษาม
กษามหาว
กษาร
กษาระด
กษาว
กษาศ
กษาศาสตร
กษาส
กษาสำหร
กษาหน
กษาหร
กษาหล
กษาหาร
กษาอ
กษาอย
กษาเก
กษาเขต
กษาเช
กษาเป
กษาเพ
กษาเม
กษาเร
กษาเล
กษาเอกชน
กษาแก
กษาแพทย
กษาแล
กษาแห
กษาในป
กษาในระด
กษาให
กษาได
กษาไว
กส
กสก
กสงฆ
กสถ
กสท
กสทช
กสน
กสนาน
กสภากร
กสภาท
กสภาน
กสภาผ
กสภาร
กสม
กสยาม
กสร
กสอน
กสากล
กสาว
กสาวท
กสำหร
กห
กหญ
กหน
กหนา
กหม
กหย
กหร
กหล
กหลายคน
กหลายคร
กหลายเร
กหลายแห
กอ
กอง
กองกำก
กองกำล
กองค
กองท
กองบ
กองพ
กองร
กองหน
กองเร
กอญ
กอธ
กอน
กอนชาร
กอนซาเลซ
กอย
กอร
กอล
กออนไลน
กอาช
กอาย
กอาศ
กฮ
กะ
กะท
กะร
กะเหร
กา
กาก
กากลาง
กาค
กาจ
กาซ
กาญจน
กาญจนบ
กาญจนาภ
กาด
กาต
กาตะว
กาตาร
กาตาลา
กาท
กาน
กานต
กานา
กาบ
กาพย
กาม
กาย
กายน
กายว
กายส
กายโปรเตสแตนต
กายโรม
การ
การก
การกพห
การกรอกข
การกล
การการศ
การกำก
การกำหนด
การกำหนดข
การข
การขนส
การขยายต
การค
การคณะร
การคร
การคล
การควบค
การฆ
การจ
การจดทะเบ
การจำก
การจำหน
การฉ
การช
การชก
การซ
การณ
การด
การดำเน
การต
การตกแต
การตร
การถ
การถอดอ
การท
การทหารบก
การทำประต
การทำหน
การทำให
การน
การนายกร
การนำส
การนำเข
การบ
การบด
การบร
การบาดเจ
การบำบ
การป
การปกครองออกเป
การปฏ
การปร
การประกอบ
การประกาศว
การประกาศใช
การประช
การประด
การประท
การประย
การประเม
การปล
การผ
การผล
การฝ
การพ
การพรรค
การฟ
การม
การมหาชน
การมอบรางว
การย
การยกเล
การยอมร
การร
การรถไฟแห
การรวมกล
การระบ
การระบาดท
การระหว
การระเบ
การล
การลงท
การลงแข
การลบข
การลบช
การลบสไลด
การว
การวาดร
การวาดเส
การศ
การศาสนา
การส
การสน
การสร
การสล
การสหประชาชาต
การสะกดอ
การสะกดแบบไม
การสาธารณส
การสำน
การห
การหน
การหม
การหย
การหร
การหล
การอ
การอธ
การอน
การอนาม
การอภ
การอย
การออกกำล
การออกเส
การาก
การาม
การเก
การเกษตร
การเข
การเคล
การเง
การเจ
การเจร
การเฉล
การเช
การเด
การเต
การเตร
การเท
การเป
การเปร
การเปล
การเผยแพร
การเพ
การเม
การเร
การเล
การเส
การเสด
การเสร
การเห
การแก
การแข
การแจ
การแต
การแทรกข
การแบ
การแผลงเป
การแพทย
การแพร
การแลกเปล
การแสดง
การแห
การโจมต
การโดย
การโต
การโทรศ
การใช
การใส
การให
การได
การไฟฟ
การไม
กาล
กาลก
กาลด
กาลต
กาลถ
กาลท
กาลน
กาว
กาวะ
กาส
กาฬส
กาอ
กาเจ
กาเซ
กาเป
กาเปล
กาเม
กาเร
กาเหน
กาแล
กาใต
กาให
กาได
กำก
กำจ
กำน
กำป
กำล
กำหนด
กำหนดข
กำหนดค
กำหนดจ
กำหนดช
กำหนดร
กำหนดว
กำหนดเป
กำหนดแข
กำหนดในกฎกระทรวง
กำหนดให
กำหนดไว
กำเน
กำแพงเพชร
กเก
กเกณฑ
กเกอร
กเข
กเขตท
กเค
กเคม
กเคร
กเคล
กเง
กเจ
กเฉ
กเช
กเซ
กเซมเบ
กเซล
กเด
กเต
กเตอร
กเตะท
กเท
กเทนน
กเธอ
กเน
กเบ
กเป
กเปล
กเผยแพร
กเพ
กเม
กเมน
กเมาส
กเย
กเยาวชน
กเยาวชนฤด
กเร
กเล
กเลขาธ
กเลง
กเลย
กเว
กเศรษฐศาสตร
กเส
กเสนอช
กเสบ
กเสร
กเห
กเหต
กเหน
กเหม
กเหล
กเอ
กแก
กแข
กแซ
กแต
กแตน
กแท
กแทนท
กแน
กแบ
กแผ
กแม
กแมชช
กแมน
กแล
กและผ
กและม
กและว
กแสดง
กแสดงช
กแสดงชายชาวไทย
กแสดงชาวอ
กแสดงชาวอเมร
กแสดงชาวเกาหล
กแสดงชาวไทย
กแสดงท
กแสดงนำชายยอดเย
กแสดงนำหญ
กแสดงภาพยนตร
กแสดงร
กแสดงสมทบชายยอดเย
กแสดงสมทบหญ
กแสดงหญ
กแสดงหน
กแสดงอ
กแสดงและน
กแสดงในส
กแห
กแหล
กโก
กโค
กโจมต
กโชว
กโซ
กโทษ
กโบราณ
กโบราณคด
กโยธ
กโลกทองคำ
กใคร
กใจ
กใช
กใต
กใน
กในช
กในท
กในนาม
กในป
กในย
กในร
กในว
กในส
กในอ
กในโอล
กใฝ
กใส
กให
กใหญ
กใหม
กไก
กได
กไทมส
กไทย
กไป
กไฟฟ
กไฟล
กไม
กไล
กไว
กไหม
กๆ
ข
ขก
ขงจ
ขงเบ
ขจ
ขจร
ขณะท
ขณะน
ขณะม
ขณะอาย
ขณะเด
ขด
ขต
ขท
ขน
ขนมป
ขนส
ขนาด
ขนาดกว
ขนาดต
ขนาดท
ขนาดพ
ขนาดหน
ขนาดเท
ขนาดเล
ขนาดใหญ
ขบ
ขบวน
ขพ
ขภาพ
ขภาพจ
ขภาพด
ขภาพท
ขม
ขมนตร
ขย
ขยายต
ขยายพ
ขร
ขล
ขว
ขวบ
ขวา
ขศาสตร
ขส
ขสมก
ขสว
ขอ
ขอความช
ของ
ของก
ของกร
ของกล
ของกษ
ของกองท
ของการแข
ของข
ของขว
ของค
ของคร
ของจ
ของช
ของชาต
ของชาร
ของซ
ของญ
ของด
ของต
ของตน
ของตนเอง
ของตระก
ของท
ของทว
ของน
ของบ
ของบร
ของป
ของประชาชน
ของประเทศ
ของประเทศญ
ของประเทศอ
ของประเทศไทย
ของผ
ของฝ
ของฝร
ของพ
ของพระบาทสมเด
ของพระพ
ของพระราชบ
ของพระองค
ของพระเจ
ของพวกเขา
ของฟ
ของภ
ของภาพยนตร
ของม
ของมน
ของมหาว
ของมหาสม
ของย
ของร
ของราชวงศ
ของรายการ
ของฤด
ของล
ของว
ของวง
ของศ
ของส
ของสก
ของสถาน
ของสถาบ
ของสมาช
ของสมเด
ของสหร
ของสหราชอาณาจ
ของสาธารณร
ของสำน
ของห
ของหน
ของหม
ของอ
ขององค
ของอน
ของอเมร
ของฮ
ของเกาหล
ของเขา
ของเคร
ของเจ
ของเซลล
ของเด
ของเธอ
ของเม
ของเยอรมน
ของเร
ของเรา
ของเล
ของเว
ของเส
ของเหล
ของเอ
ของแต
ของแผ
ของแม
ของโรงเร
ของโลก
ของไทย
ขอด
ขอท
ขอนแก
ขอบค
ขอย
ขอร
ขออน
ขอให
ขา
ขาด
ขาภ
ขาย
ขายด
ขายได
ขาล
ขาว
ขำ
ขแห
ฃ
ค
คก
คกลาง
คการแพทย
คค
คคร
คคล
คคลชาย
คคลซ
คคลด
คคลต
คคลท
คคลธรรมดา
คคลน
คคลผ
คคลม
คคลสำค
คคลหญ
คคลหน
คคลหร
คคลอ
คคลเหล
คฆ
คง
คงท
คงม
คงอย
คงเป
คงเหล
คงไม
คจ
คช
คซ
คณ
คณบด
คณะ
คณะกรรมการ
คณะกรรมการก
คณะกรรมการการเล
คณะกรรมการบร
คณะกรรมการพาราล
คณะกรรมการโอล
คณะกรรมาธ
คณะคร
คณะท
คณะน
คณะบร
คณะปฏ
คณะผ
คณะมน
คณะมนตร
คณะร
คณะว
คณะศ
คณะส
คณะสงฆ
คณะสถาป
คณะอ
คณะอน
คณะเทคโนโลย
คณะเภส
คณะแพทย
คณะแพทยศาสตร
คณาจารย
คด
คต
คตส
คตอเร
คท
คน
คนก
คนกล
คนข
คนค
คนจ
คนช
คนซ
คนด
คนต
คนถ
คนท
คนธ
คนน
คนบ
คนป
คนผ
คนพ
คนม
คนย
คนร
คนล
คนส
คนสำค
คนหน
คนอ
คนอย
คนเก
คนเข
คนเด
คนเท
คนเป
คนเร
คนเล
คนเส
คนเหล
คนแรก
คนแรกท
คนใช
คนใน
คนใหม
คนไข
คนได
คนไม
คบ
คป
คพ
คพอยท
คฟ
คม
คมช
คมอ
คย
คร
ครท
ครบ
ครบถ
ครบท
ครบรอบ
ครม
ครมหาเสนาบด
ครมเหส
ครร
ครรภ
ครราชก
ครราชท
ครสมาช
ครองตำแหน
ครองนครน
ครองนครเช
ครองราชย
ครองราชสมบ
ครองเม
ครองแชมป
ครอบคร
ครอบคล
คราชวงศ
คราฟต
คราวน
ครเข
ครเป
ครเล
คฤหาสน
คล
คลอง
คลากร
คลากรท
คลาร
คลาส
คลาสส
คว
ควง
ควบค
ควร
ควรจะเป
ควรม
ควรลบหน
ควรใช
ควอนต
ความ
ความก
ความกล
ความกว
ความกำกวม
ความข
ความค
ความคล
ความจ
ความจร
ความจำเป
ความช
ความซ
ความด
ความต
ความตาย
ความถ
ความท
ความทรงจำ
ความน
ความบ
ความบกพร
ความประพฤต
ความประสงค
ความปลอดภ
ความผ
ความฝ
ความพ
ความพยายามท
ความพร
ความม
ความย
ความยาว
ความยาวคล
ความยาวท
ความยาวประมาณ
ความร
ความล
ความละเอ
ความว
ความส
ความสน
ความสว
ความสามารถ
ความสามารถท
ความสามารถพ
ความสำค
ความสำเร
ความหนาแน
ความหมาย
ความหมายถ
ความหมายว
ความหมายเด
ความหว
ความอ
ความเก
ความเข
ความเคร
ความเคล
ความเจ
ความเจร
ความเช
ความเด
ความเท
ความเป
ความเปล
ความเร
ความเส
ความเห
ความเอนเอ
ความแข
ความแตกต
ความโดดเด
ความใกล
ความไม
ควาย
คส
คสช
คสถาน
คสม
คสามก
คห
คหล
คอ
คอน
คอนกร
คอนซต
คอนต
คอนสแตนต
คอนเส
คอปเตอร
คอม
คอมพ
คอมม
คอย
คอยช
คอยด
คอร
คอล
คอลล
คอสตาร
คะแนน
คะแนนท
คะแนนส
คะแนนเส
คา
คาง
คาช
คาซ
คาดการณ
คาดว
คาดหว
คาน
คานธ
คาบ
คาบสม
คาม
คามวาส
คาร
คาราบาว
คาล
คาว
คาวะ
คาส
คาอ
คาเบร
คาเมนไรเดอร
คาโก
คาโอร
คำ
คำกร
คำกล
คำขว
คำค
คำคม
คำจ
คำช
คำต
คำท
คำน
คำนำ
คำนำหน
คำปร
คำพ
คำภ
คำม
คำย
คำร
คำล
คำว
คำศ
คำส
คำอ
คำอธ
คำอาการนาม
คำอาการนามของ
คำเม
คำเร
คำแปลและการรวบรวมส
คำให
คเก
คเกอร
คเค
คเจอร
คเซ
คเตอร
คเป
คเร
คแรก
คแห
คใหม
คได
ฅ
ฆ
ฆาต
ง
งก
งกร
งกรณ
งกรหยก
งกระด
งกระต
งกระทรวง
งกระน
งกระส
งกระเบ
งกราบท
งกฤษ
งกฤษก
งกฤษต
งกฤษท
งกฤษม
งกฤษว
งกฤษเก
งกฤษเข
งกฤษเป
งกฤษเร
งกฤษแบบบร
งกฤษแบบอเมร
งกฤษได
งกล
งกลาง
งกลายเป
งกลาเทศ
งกว
งกษ
งกองกลาง
งกองกำล
งกองท
งกองหน
งกองหล
งกอร
งกะส
งกา
งกาน
งกาย
งการ
งการก
งการค
งการจ
งการต
งการถ
งการท
งการบ
งการปกครองออกเป
งการปฏ
งการผล
งการพ
งการม
งการย
งการร
งการล
งการว
งการศ
งการส
งการสร
งการเก
งการเข
งการเป
งการเปล
งการเร
งการเล
งการเส
งการแข
งการใช
งการให
งกาฬ
งกำล
งกำหนดให
งกำเน
งข
งขณะน
งขนาดเล
งขนาดใหญ
งขรณ
งขว
งของ
งของกล
งของข
งของค
งของจ
งของช
งของซ
งของต
งของท
งของน
งของบ
งของบร
งของป
งของผ
งของพ
งของพระองค
งของม
งของมหาว
งของย
งของร
งของล
งของว
งของศ
งของส
งของสำน
งของห
งของหน
งของอ
งของเขา
งของเคร
งของเจ
งของเม
งของแต
งของโรงเร
งของโลก
งขอให
งขะ
งค
งคงดำเน
งคงต
งคงถ
งคงม
งคงร
งคงอย
งคงเป
งคงใช
งคงได
งคงไม
งคณบด
งคณะร
งคด
งคน
งคนท
งคนน
งคนหน
งคนอ
งคม
งคมท
งคมน
งคมว
งคมศ
งคมศาสตร
งคมสงเคราะห
งคมอ
งคมออนไลน
งคมและความม
งคมแห
งคมไทย
งคร
งครรภ
งครอบคร
งครอบคล
งคราว
งคล
งคลาภ
งคว
งควบค
งความกระทรวงมหาดไทย
งความค
งความจร
งความต
งความม
งความร
งความล
งความส
งความสำค
งความสำน
งความสำเร
งความเป
งความเร
งความเส
งคอย
งคอร
งคา
งคาดว
งคาม
งคามส
งคาร
งคารท
งคาเร
งคำร
งคำว
งคำส
งคโปร
งฆ
งฆปร
งฆราช
งฆราชเจ
งฆาธ
งฆาราม
งง
งงะ
งงา
งงาน
งงานก
งงานท
งงานน
งงานส
งงานไฟฟ
งจ
งจนถ
งจร
งจอร
งจะจ
งจะช
งจะต
งจะถ
งจะทำให
งจะม
งจะร
งจะส
งจะเก
งจะเข
งจะเป
งจะเร
งจะเห
งจะใช
งจะให
งจะได
งจะไม
งจาก
งจากกล
งจากการต
งจากการส
งจากจ
งจากช
งจากต
งจากถ
งจากท
งจากน
งจากป
งจากผ
งจากพ
งจากม
งจากย
งจากร
งจากระด
งจากว
งจากส
งจากสหพ
งจากอ
งจากเก
งจากเป
งจากเร
งจากเหต
งจากได
งจาง
งจำท
งจำนวน
งจำเป
งฉ
งฉบ
งฉากก
งช
งชน
งชนะเล
งชาต
งชาร
งชาวญ
งชาวอ
งชาวอเมร
งชาวไทย
งซ
งญ
งด
งดนตร
งดำรงตำแหน
งดำเน
งต
งตนเป
งตร
งตรงก
งตรงข
งตระก
งตอนน
งตอบว
งตะว
งตะเภา
งตามช
งตามท
งตามมาตรา
งตาย
งตำบล
งตำแหน
งถ
งถว
งถามว
งท
งทร
งทรงพระกร
งทรงพระเยาว
งทรงม
งทรงเป
งทฤษฎ
งทว
งทอง
งทองหลาง
งทะเล
งทางการเม
งทางด
งทางว
งทำหน
งทำเป
งทำให
งธ
งธน
งธนบ
งธรรม
งธรรมชาต
งธาต
งน
งนอร
งนามกรรต
งนามกรรมวาจกป
งนามกรรมวาจกอด
งนายกร
งนำไปส
งบ
งบประมาณ
งบประมาณรายจ
งบร
งบรรจ
งบวก
งบวร
งบวรสถานมงคล
งบอกถ
งบอกว
งบอกให
งบางคร
งบางส
งบาร
งบาวาเร
งป
งปกต
งปฏ
งปร
งประกอบด
งประกอบไปด
งประจ
งประชาชน
งประชาร
งประด
งประต
งประท
งประธานาธ
งประมาณ
งประว
งประส
งประสงค
งประสบความสำเร
งประเทศ
งประเทศจ
งประเทศญ
งประเทศอ
งประเทศไทย
งประโยชน
งปรากฏต
งปรากฏว
งปล
งปวง
งปวงก
งปวงท
งปวงน
งปาร
งผ
งผล
งผลกระทบต
งผลต
งผลให
งฝ
งฝร
งพ
งพน
งพบว
งพบได
งพม
งพยางค
งพร
งพรรคการเม
งพระ
งพระท
งพระบาทสมเด
งพระพ
งพระราชบ
งพระราชว
งพระศพ
งพระส
งพระอ
งพระองค
งพระเจ
งพล
งพาก
งพาณ
งพาน
งฟ
งภ
งภาพ
งภาพยนตร
งภายหล
งภายใต
งภายใน
งม
งมงก
งมน
งมวล
งมหาว
งมหาสม
งมหาสมบ
งมอบให
งมอสโก
งมา
งมาก
งมากกว
งมากข
งมากท
งมาต
งมาตรฐาน
งมาตรา
งมาถ
งมาย
งมาร
งมาเป
งมาเร
งมาให
งย
งยกท
งยอดน
งยอดเย
งยอร
งยาว
งร
งรวมถ
งรวมท
งรวมไปถ
งระด
งระบ
งระหว
งระเบ
งรางว
งราชท
งราชบ
งราชวงศ
งราชสำน
งราชอาณาจ
งราย
งรายละเอ
งรายได
งราว
งฤด
งล
งลง
งลอนดอน
งละ
งว
งวง
งวงดนตร
งวร
งวล
งวลว
งวอช
งวอร
งวะ
งวะจ
งวาลย
งศ
งศก
งศพ
งศร
งศาสตราจารย
งษ
งส
งสก
งสกอตแลนด
งสง
งสงคราม
งสงครามโลกคร
งสต
งสถ
งสถาน
งสถานท
งสถาบ
งสน
งสม
งสมควรรวมคำคมไปก
งสมณศ
งสมบ
งสมาช
งสมเด
งสยาม
งสยามได
งสร
งสรรค
งสฤษฎ
งสล
งสว
งสวรรค
งสหประชาชาต
งสหพ
งสหภาพโซเว
งสหร
งสหราชอาณาจ
งสอง
งสองก
งสองข
งสองคน
งสองคร
งสองจ
งสองช
งสองด
งสองต
งสองท
งสองน
งสองฝ
งสองพระองค
งสองม
งสองร
งสองส
งสองอย
งสองเป
งสองได
งสะท
งสาธารณร
งสาม
งสามารถใช
งสาว
งสาวท
งสาเหต
งสำค
งสำน
งสำหร
งสำเร
งสเปน
งสไลด
งห
งหญ
งหน
งหม
งหมด
งหมดก
งหมดจ
งหมดจำนวน
งหมดด
งหมดต
งหมดถ
งหมดท
งหมดน
งหมดม
งหมดส
งหมดอย
งหมดเป
งหมดให
งหมดได
งหมายความว
งหมายถ
งหมายเพ
งหย
งหร
งหล
งหลงเหล
งหลวง
งหลาย
งหลายก
งหลายจ
งหลายท
งหลายว
งหลายได
งหว
งหวะ
งหาคม
งหาร
งหารหม
งหาได
งหเสน
งอ
งองค
งอด
งอธ
งอน
งอภ
งอย
งอร
งอรรถ
งอว
งออก
งออกเป
งออกได
งออร
งออสเตร
งออสเตรเล
งอาจจะเป
งอาจทำให
งอาจม
งอาจารย
งอาจเก
งอาจเป
งอาณาจ
งอาย
งอาร
งอารมณ
งอาว
งอาศ
งอาหาร
งอำเภอ
งอำเภอบ
งอเมร
งอเล
งฮ
งฯ
งะ
งาช
งาน
งานก
งานช
งานด
งานต
งานท
งานน
งานร
งานว
งานศ
งานส
งานอ
งานอด
งานอย
งานเข
งานเป
งานในแผนกวรรณคด
งานได
งาม
งาวะ
งเก
งเกต
งเกตการณ
งเกตว
งเกตเห
งเกตได
งเกล
งเกอร
งเกาหล
งเข
งเขต
งเขตการปกครองย
งเขตการปกครองออกเป
งเขตท
งเขตร
งเขตเล
งเขป
งเขา
งเขาก
งเขาเป
งเขาได
งเค
งเคยเป
งเคร
งเคราะห
งเคล
งเง
งเงอร
งเจ
งเจร
งเฉ
งเฉล
งเช
งเซ
งเซนต
งเซลล
งเด
งเดนมาร
งเต
งเตร
งเถ
งเท
งเทพ
งเทพคร
งเทพธ
งเทพธนบ
งเทพมหานคร
งเทพมหานครและจ
งเทพมหานครและปร
งเทพฯ
งเทรา
งเธอได
งเน
งเนเธอร
งเบ
งเบลเย
งเบอร
งเป
งเปร
งเปล
งเผ
งเพ
งเพลง
งเพลงชาวอเมร
งเฟ
งเม
งเย
งเยร
งเยอรม
งเยอรมน
งเร
งเล
งเลขาธ
งเลย
งเว
งเวท
งเวลส
งเวลา
งเวลาท
งเศส
งเศสก
งเศสต
งเศสท
งเศสน
งเศสม
งเศสเก
งเศสเป
งเศสได
งเส
งเสด
งเสนาบด
งเสร
งเห
งเหต
งเหน
งเหม
งเหย
งเหร
งเหล
งเอ
งเอกพจน
งเอด
งเอล
งเอเช
งเอเธนส
งเฮ
งแก
งแกร
งแข
งแค
งแคว
งแจ
งแชมป
งแดง
งแต
งแตกต
งแท
งแทน
งแนวค
งแบ
งแบบ
งแปลว
งแผ
งแพ
งแม
งแย
งแยกด
งแร
งแรก
งแรกก
งแรกของประเทศไทย
งแรกท
งแรกน
งแรกว
งแรกเม
งแรกใน
งแรกในช
งแรกในป
งแรกในประว
งแรกในประเทศไทย
งแรกในรอบ
งแรกในว
งแรกในเด
งแรง
งแรงข
งแล
งและต
งและผ
งและพ
งและพาณ
งและม
งและร
งและส
งและเป
งและเปล
งและได
งแวดล
งแวร
งแสง
งแสดงว
งแสดงให
งแห
งแหล
งแอนด
งแอฟร
งแฮม
งโก
งโค
งโครงสร
งโจ
งโจมต
งโซล
งโดย
งโดยท
งโดยม
งโดยไม
งโต
งโตเก
งโบราณคด
งโป
งโปรดเกล
งโปรดให
งโปรต
งโรงเร
งโรจน
งโรม
งโรมาเน
งโลก
งใกล
งใจ
งใจท
งใจว
งใจให
งใช
งใด
งใดท
งใดส
งใต
งใน
งในกร
งในกล
งในการเล
งในขณะน
งในค
งในคร
งในจ
งในช
งในซ
งในด
งในต
งในท
งในน
งในบ
งในบร
งในป
งในประว
งในประเทศไทย
งในผ
งในพ
งในภาพยนตร
งในย
งในร
งในระด
งในระหว
งในฤด
งในล
งในว
งในศ
งในส
งในสม
งในสมาช
งในห
งในหน
งในหม
งในอ
งในอด
งในเด
งในเม
งในเร
งในและต
งในโอล
งใส
งให
งใหญ
งใหม
งไข
งไง
งได
งไต
งไท
งไทย
งไป
งไปกว
งไปถ
งไปท
งไปย
งไปส
งไปให
งไฟ
งไฟฟ
งไม
งไร
งไล
งไว
งไห
งไหม
งๆ
งๆแล
จ
จก
จกรรม
จกรรมด
จกรรมต
จกรรมท
จกรรมน
จกล
จการ
จการกระจายเส
จการค
จการต
จการท
จการน
จการร
จการศ
จการอ
จการแห
จการโทรท
จข
จค
จง
จงร
จงได
จจ
จจร
จจาน
จฉ
จฉร
จฉา
จช
จญ
จด
จดทะเบ
จดหมายเหต
จต
จตกต
จถ
จท
จน
จนกระท
จนกลายเป
จนกว
จนต
จนถ
จนท
จนทำให
จนป
จนม
จนว
จนส
จนสำเร
จนเก
จนเป
จนเม
จนในท
จนในป
จนได
จบ
จบการศ
จบช
จปร
จประท
จผ
จพ
จพระกน
จพระจ
จพระจอมเกล
จพระน
จพระนางเจ
จพระนารายณ
จพระนเรศวรมหาราช
จพระนโรดม
จพระบรมชนกาธ
จพระบรมราชาธ
จพระบรมโอรสาธ
จพระบวรราชเจ
จพระป
จพระปกเกล
จพระปรม
จพระปรเมนทรมหาอาน
จพระพ
จพระมงก
จพระมห
จพระมหาจ
จพระมหาภ
จพระมหาสมณเจ
จพระราช
จพระราชดำเน
จพระราชาธ
จพระรามาธ
จพระว
จพระวช
จพระศร
จพระส
จพระอ
จพระอน
จพระอร
จพระเจ
จพระเทพร
จพอเพ
จม
จมากท
จย
จร
จระเข
จราชการ
จราชการเม
จราชการแทนพระองค
จราชการแผ
จล
จว
จศ
จส
จสมบ
จสวรรคต
จสวรรคตเม
จหน
จหร
จหล
จอ
จอง
จอน
จอมพล
จอย
จอร
จอห
จฯ
จะ
จะก
จะกล
จะกลายเป
จะข
จะค
จะฆ
จะจ
จะช
จะซ
จะด
จะดำเน
จะต
จะถ
จะท
จะทำหน
จะทำให
จะทำได
จะน
จะบ
จะป
จะปฏ
จะปร
จะปล
จะผ
จะผล
จะพ
จะฟ
จะม
จะย
จะร
จะล
จะลงเล
จะว
จะส
จะสร
จะห
จะหย
จะหล
จะอ
จะอย
จะเก
จะเข
จะเช
จะเด
จะเท
จะเน
จะเป
จะเปล
จะเพ
จะเร
จะเล
จะเส
จะเสด
จะเห
จะแก
จะแข
จะแต
จะแตกต
จะแบ
จะใช
จะให
จะได
จะไม
จา
จาก
จากก
จากกร
จากกล
จากการจ
จากการท
จากการร
จากการศ
จากการส
จากการเล
จากการแข
จากข
จากค
จากคอมมอนส
จากจ
จากช
จากซ
จากด
จากต
จากท
จากน
จากบ
จากบร
จากป
จากผ
จากพ
จากภาพยนตร
จากภาษากร
จากภาษาจ
จากภาษาบาล
จากภาษาฝร
จากภาษาพม
จากภาษามอญ
จากภาษาละต
จากภาษาส
จากภาษาสลาว
จากภาษาอ
จากภาษาเขมร
จากภาษาเจอร
จากภาษาเยอรม
จากภาษาไทด
จากภาษาไทตะว
จากภาษาไทย
จากม
จากมหาว
จากย
จากร
จากรายการ
จากล
จากลองด
จากละคร
จากละครเร
จากว
จากศ
จากส
จากสถาน
จากสถาบ
จากสำน
จากสำมะโน
จากหน
จากหล
จากอ
จาการ
จากเด
จากเพลง
จากเม
จากเร
จากเว
จากเหต
จากแหล
จากโรงเร
จาค
จาคท
จาคเง
จาง
จางโจว
จาต
จาน
จาม
จาร
จารณ
จารณา
จารณาคด
จารณาด
จารณาถ
จารณาพ
จารณาร
จารณารวมเข
จารณาว
จารณาเป
จารณาเห
จารณาแล
จารณาให
จำก
จำค
จำต
จำนวน
จำนวนท
จำนวนน
จำนวนบ
จำนวนประชากร
จำนวนประชากรและบ
จำนวนประต
จำนวนผ
จำนวนมาก
จำนวนราษฎรท
จำนวนสมาช
จำนวนหน
จำนวนไม
จำร
จำลอง
จำหน
จำเป
จำเร
จำเลยท
จำแนกไว
จเก
จเข
จเจ
จเจกบ
จเด
จเป
จเพ
จเม
จเย
จเร
จแล
จและส
จแห
จในป
จให
จได
จไปประท
จไปย
ฉ
ฉน
ฉบ
ฉล
ฉลอง
ฉลาด
ฉะน
ฉะบ
ฉะเช
ฉายา
ฉายาว
ช
ชก
ชกรรม
ชกาล
ชกาลท
ชกาลป
ชกาลพระบาทสมเด
ชกาลสมเด
ชค
ชคณ
ชช
ชชกาลท
ชชน
ชชา
ชชาแห
ชชาใหญ
ชซ
ชฌ
ชฌาย
ชญ
ชญา
ชญาด
ชด
ชดย
ชดอกท
ชดาภ
ชต
ชตาด
ชท
ชทายาท
ชทายาทแห
ชน
ชนก
ชนช
ชนชาต
ชนส
ชนออนไลน
ชนะ
ชนะการเล
ชนะการแข
ชนะคะแนน
ชนะจะได
ชนะท
ชนะน
ชนะรางว
ชนะเล
ชนาล
ชนเผ
ชบ
ชผ
ชพ
ชภ
ชม
ชมงคล
ชมท
ชมพ
ชย
ชยศาสตร
ชร
ชรบ
ชระ
ชรา
ชราต
ชล
ชลบ
ชว
ชวด
ชวน
ชวนช
ชวล
ชศาสตร
ชส
ชสม
ชอ
ชอบ
ชอบด
ชอปแห
ชอว
ชะน
ชา
ชาก
ชาการ
ชาการจ
ชาการด
ชาการท
ชาการศ
ชาค
ชาคณ
ชาคร
ชาง
ชาจ
ชาช
ชาญว
ชาด
ชาต
ชาตร
ชาท
ชาธ
ชาน
ชาบ
ชาประว
ชาพ
ชาฟ
ชาภ
ชาม
ชาย
ชายต
ชายท
ชายน
ชายผ
ชายฝ
ชายร
ชายหน
ชาร
ชาล
ชาลส
ชาว
ชาวกร
ชาวจ
ชาวซ
ชาวญ
ชาวด
ชาวต
ชาวบ
ชาวฝร
ชาวพ
ชาวม
ชาวย
ชาวร
ชาวอ
ชาวอเมร
ชาวฮ
ชาวเกาหล
ชาวเม
ชาวเยอรม
ชาวไทย
ชาศ
ชาส
ชาห
ชาอ
ชาเคม
ชาเทคโนโลย
ชาเป
ชาโดว
ชาได
ชำร
ชเชสแห
ชเชอร
ชเท
ชเป
ชเว
ชและส
ชแห
ชในวงศ
ชได
ซ
ซง
ซช
ซซ
ซซาร
ซท
ซน
ซม
ซล
ซสถาน
ซอ
ซอง
ซอน
ซอฟต
ซอย
ซอร
ซะ
ซา
ซาก
ซาการ
ซาค
ซาง
ซาช
ซาน
ซาบ
ซาม
ซาย
ซาร
ซาราห
ซาล
ซาว
ซาวด
ซาวะ
ซาอ
ซาเบธ
ซาเบธท
ซาเล
ซาเลม
ซาโต
ซเบก
ฌ
ฌอน
ญ
ญก
ญกร
ญกรณ
ญกรรม
ญกว
ญข
ญของ
ญของจ
ญค
ญคร
ญจ
ญจะ
ญจาบ
ญฉบ
ญช
ญชน
ญชนะ
ญชนะต
ญชนะท
ญชนะในอ
ญชร
ญชล
ญชา
ญชาการ
ญชาการกองท
ญชาการตำรวจแห
ญชาการทหารบก
ญชาการทหารส
ญชาการทหารเร
ญชาต
ญชาให
ญซ
ญญ
ญญา
ญญาก
ญญาจ
ญญาฉบ
ญญาซ
ญญาณ
ญญาณท
ญญาณว
ญญาด
ญญาต
ญญาตร
ญญาท
ญญาน
ญญาบ
ญญาประด
ญญาย
ญญาร
ญญาว
ญญาส
ญญาอ
ญญาอน
ญญาเช
ญญาเด
ญญาเป
ญญาเอก
ญญาโท
ญญาให
ญญาใหม
ญด
ญต
ญถ
ญท
ญทางประว
ญธงชาต
ญธรรม
ญน
ญบ
ญบาน
ญป
ญประเทศ
ญผ
ญพ
ญพระพ
ญพระราชก
ญม
ญมณ
ญมา
ญมาก
ญย
ญร
ญรอด
ญล
ญว
ญศ
ญศร
ญส
ญสำหร
ญหน
ญหร
ญหา
ญหาก
ญหาข
ญหาด
ญหาต
ญหาท
ญหาน
ญหาย
ญหาว
ญหาส
ญหาเก
ญหาเร
ญอ
ญอย
ญา
ญาณ
ญาต
ญาตต
ญาตหร
ญาตให
ญาโตต
ญเก
ญเข
ญเช
ญเต
ญเท
ญเป
ญเพ
ญเม
ญเร
ญเล
ญเส
ญเสด
ญเอกพจน
ญแก
ญแจ
ญแล
ญและอด
ญแห
ญโญ
ญให
ญได
ฎ
ฎก
ฎกฉบ
ฎราชก
ฎเกล
ฎไทย
ฏ
ฏจ
ฏฐ
ฏราชว
ฏสวนส
ฏอ
ฏาน
ฏเช
ฐ
ฐก
ฐค
ฐจ
ฐจอร
ฐฉ
ฐช
ฐซ
ฐด
ฐต
ฐถ
ฐท
ฐธรรมน
ฐน
ฐบ
ฐบร
ฐบาล
ฐบาลก
ฐบาลกลาง
ฐบาลจ
ฐบาลช
ฐบาลญ
ฐบาลต
ฐบาลท
ฐบาลฝร
ฐบาลม
ฐบาลย
ฐบาลร
ฐบาลสหร
ฐบาลอ
ฐบาลแห
ฐบาลโชก
ฐบาลใหม
ฐบาลได
ฐบาลไทย
ฐป
ฐประชาชนจ
ฐประชาธ
ฐประศาสนศาสตร
ฐประหาร
ฐประหารในประเทศไทย
ฐผ
ฐฝร
ฐพ
ฐฟลอร
ฐภาค
ฐม
ฐมนตร
ฐย
ฐร
ฐล
ฐว
ฐศก
ฐศาสตร
ฐส
ฐสภา
ฐสภาแห
ฐสภาไทย
ฐสมาช
ฐหร
ฐอ
ฐอย
ฐออนไลน
ฐอาหร
ฐอเมร
ฐฯ
ฐาน
ฐานข
ฐานท
ฐานว
ฐานะเท
ฐานะเป
ฐเกาหล
ฐเช
ฐเท
ฐเป
ฐเพ
ฐเม
ฐเวอร
ฐแคล
ฐแมสซาช
ฐแห
ฐโดม
ฐได
ฐไอร
ฑ
ฑา
ฑาในโอล
ฒ
ฒจ
ฒน
ฒนก
ฒนธรรม
ฒนธรรมจ
ฒนธรรมท
ฒนธรรมอ
ฒนธรรมแห
ฒนธรรมไทย
ฒนบร
ฒนศ
ฒนะ
ฒนา
ฒนาก
ฒนาการ
ฒนาการท
ฒนาข
ฒนาค
ฒนาช
ฒนาด
ฒนาต
ฒนาท
ฒนาน
ฒนาบ
ฒนาพ
ฒนาร
ฒนาราม
ฒนาว
ฒนาศ
ฒนาส
ฒนาอ
ฒนาองค
ฒนาอย
ฒนาเคร
ฒนาเด
ฒนาเทคโนโลย
ฒนาเป
ฒนาเพ
ฒนาเศรษฐก
ฒนาแล
ฒนาโดย
ฒนาให
ฒาจารย
ณ
ณก
ณค
ณคร
ณฐ
ณฑ
ณฑร
ณฑสถานแห
ณฑะเลย
ณณ
ณณวด
ณด
ณต
ณท
ณทหารลาดกระบ
ณธรรม
ณน
ณบ
ณป
ณประโยชน
ณผ
ณพ
ณภ
ณภาพ
ณภาพการศ
ณภาพช
ณภาพด
ณภาพส
ณม
ณย
ณร
ณรงค
ณล
ณว
ณศ
ณส
ณสมบ
ณห
ณหญ
ณหน
ณหพลศาสตร
ณหภ
ณหะว
ณหา
ณหาน
ณอ
ณา
ณาช
ณาธ
ณาน
ณาภรณ
ณาว
ณาเพ
ณาแจ
ณาโปรดเกล
ณเจ
ณเดชน
ณเป
ณเม
ณเห
ณแม
ณได
ณไม
ด
ดก
ดกฎหมาย
ดกร
ดกระช
ดกระทรวงกลาโหม
ดกระทรวงมหาดไทย
ดกระทรวงศ
ดกระทรวงสาธารณส
ดกระบ
ดกล
ดกลาง
ดกว
ดกองท
ดกาญจนบ
ดการ
ดการก
ดการกองท
ดการข
ดการค
ดการด
ดการต
ดการท
ดการทร
ดการป
ดการปฏ
ดการประช
ดการพ
ดการร
ดการศ
ดการส
ดการอ
ดการออนไลน
ดการเปล
ดการเร
ดการเล
ดการแข
ดการใช
ดการให
ดการใหญ
ดกาฬส
ดกำล
ดกำเน
ดกำแพงเพชร
ดข
ดขนาดเล
ดขนาดใหญ
ดขวา
ดขวาง
ดของ
ดของค
ดของจ
ดของต
ดของท
ดของน
ดของประเทศ
ดของผ
ดของม
ดของร
ดของว
ดของส
ดของอ
ดของเขา
ดของโลก
ดขอนแก
ดขอบฟ
ดขาด
ดค
ดคณะสงฆ
ดคน
ดคนหน
ดคร
ดครอง
ดคล
ดความข
ดความผ
ดความร
ดความว
ดความส
ดความเส
ดความไม
ดคอนเส
ดคอร
ดคำส
ดฆ
ดง
ดงค
ดงาน
ดจ
ดจร
ดจะม
ดจาก
ดจากการต
ดจากการท
ดจากการรวมร
ดจากท
ดจากว
ดจำก
ดจำนวน
ดจำหน
ดฉ
ดฉะเช
ดช
ดชน
ดชลบ
ดชอบ
ดชอบด
ดชอบต
ดชะง
ดชายแดนภาคใต
ดชาร
ดซ
ดด
ดดา
ดดาใน
ดดำเน
ดต
ดตร
ดตราด
ดตลอดกาล
ดตา
ดตาก
ดตาม
ดตามรห
ดตำแหน
ดถ
ดท
ดทร
ดทอง
ดทางโทรท
ดทำการเร
ดทำข
ดทำให
ดธ
ดธนบ
ดธาต
ดน
ดนครนายก
ดนครปฐม
ดนครพนม
ดนครราชส
ดนครศร
ดนครสวรรค
ดนตร
ดนนทบ
ดนราธ
ดบ
ดบร
ดบวรน
ดป
ดปกต
ดปฏ
ดปท
ดปร
ดประจวบค
ดประช
ดประด
ดประต
ดประท
ดประมาณ
ดประว
ดประสงค
ดประโยชน
ดปราจ
ดปล
ดปากน
ดผ
ดผน
ดผล
ดฝ
ดพ
ดพร
ดพรรคชาต
ดพรรคประชาธ
ดพรรคพล
ดพรรคเพ
ดพรรคไทยร
ดพระธาต
ดพระนคร
ดพระนครศร
ดพระพ
ดพระศร
ดพระองค
ดพระเก
ดพระเจ
ดพระเชต
ดพล
ดพลาด
ดพลาดท
ดพลาดสคร
ดพะเยา
ดพาย
ดฟ
ดฟอร
ดภ
ดภาษาอ
ดม
ดมก
ดมการณ
ดมคต
ดมศ
ดมสมบ
ดมหาธาต
ดมหาว
ดมหาสารคาม
ดมา
ดมาก
ดมากท
ดมาจาก
ดมาเป
ดย
ดยอด
ดยะลา
ดยโสธร
ดร
ดรธาน
ดระด
ดระนอง
ดระยอง
ดระว
ดระหว
ดระเบ
ดราก
ดราชบ
ดราชบพ
ดราม
ดรายการว
ดรายช
ดราษฎร
ดฤด
ดล
ดลง
ดลงเม
ดลพบ
ดลม
ดลอก
ดลอกข
ดลอกส
ดลำด
ดลำปาง
ดลำพ
ดว
ดวง
ดวงจ
ดวงอาท
ดวช
ดวางข
ดวาร
ดศ
ดศร
ดส
ดสกลนคร
ดสงขลา
ดสงครามโลกคร
ดสต
ดสถาน
ดสน
ดสนามแอนฟ
ดสม
ดสร
ดสระบ
ดสระแก
ดสว
ดสอน
ดสอนระด
ดสอนหล
ดสอนในระด
ดสาม
ดสำค
ดสำน
ดสำหร
ดห
ดหน
ดหนองคาย
ดหนองบ
ดหม
ดหย
ดหร
ดหล
ดหว
ดอ
ดอก
ดอกช
ดอกบ
ดอกส
ดอกหญ
ดอกเตอร
ดอกไม
ดองค
ดอตคอม
ดอน
ดอนเม
ดอม
ดอย
ดอร
ดอล
ดอลลาร
ดอว
ดออก
ดออกจากการแข
ดออฟเดอะร
ดอาย
ดอาร
ดอาว
ดอำนาจเจร
ดฮ
ดฮอต
ดะ
ดา
ดาก
ดาของ
ดาของท
ดาของพระองค
ดาของพระเจ
ดาของเจ
ดาค
ดาจ
ดาช
ดาด
ดาท
ดาน
ดาบ
ดาพระองค
ดาม
ดามารดา
ดาย
ดาร
ดารา
ดาราจ
ดาราศาสตร
ดาล
ดาว
ดาวน
ดาวร
ดาวฤกษ
ดาวอ
ดาวเคราะห
ดาวเท
ดาส
ดาห
ดาอ
ดาองค
ดาฯ
ดาเน
ดาเป
ดาเปสต
ดาแห
ดาในพระเจ
ดาในสมเด
ดาในเจ
ดาได
ดำ
ดำท
ดำร
ดำรงตำแหน
ดำรงอย
ดำเน
ดเก
ดเกล
ดเข
ดเค
ดเคร
ดเง
ดเจ
ดเจด
ดเจน
ดเจนว
ดเช
ดเซ
ดเด
ดเดอร
ดเต
ดเตร
ดเถ
ดเท
ดเทพศ
ดเน
ดเบ
ดเบญจมบพ
ดเป
ดเปล
ดเผย
ดเผยข
ดเผยต
ดเผยว
ดเพ
ดเพชรบ
ดเพล
ดเม
ดเย
ดเร
ดเล
ดเลย
ดเว
ดเส
ดเสร
ดเห
ดเหต
ดเหน
ดเหม
ดเหล
ดเอ
ดเอฟเอ
ดแก
ดแข
ดแค
ดแจ
ดแชมป
ดแต
ดแน
ดแบ
ดแปลง
ดแปลงเป
ดแผ
ดแพร
ดแม
ดแมน
ดแย
ดแรก
ดแรกท
ดแรกให
ดแล
ดและม
ดและร
ดและเป
ดแวร
ดแห
ดโดย
ดโดยอ
ดโต
ดโทษ
ดโบสถ
ดโพธ
ดโรงเร
ดโอกาสให
ดใกล
ดใจ
ดใช
ดใต
ดใน
ดในกล
ดในครอบคร
ดในจ
ดในช
ดในท
ดในทว
ดในป
ดในประว
ดในประเทศไทย
ดในย
ดในร
ดในว
ดในส
ดในสม
ดในสหร
ดในอ
ดในเด
ดในเม
ดในเร
ดในเอเช
ดในโลก
ดใบ
ดใส
ดให
ดใหญ
ดใหม
ดได
ดไทย
ดไป
ดไผ
ดไฟ
ดไฟฟ
ดไม
ดไว
ดๆ
ต
ตก
ตกก
ตกช
ตกรรม
ตกรอบ
ตกล
ตกลงก
ตกว
ตกหล
ตกอย
ตกาล
ตกาลของ
ตกาลพห
ตกาลสมบ
ตกาลสาม
ตกาลเอกพจน
ตกเป
ตกแต
ตข
ตของ
ตของผ
ตค
ตคร
ตครอบคร
ตง
ตจ
ตจร
ตช
ตซ
ตซอลช
ตด
ตต
ตตะ
ตตา
ตตาน
ตถ
ตถด
ตถเลขา
ตท
ตน
ตนก
ตนจ
ตนตร
ตนบ
ตนม
ตนร
ตนราชก
ตนราชส
ตนศาสดาราม
ตนส
ตนะ
ตนา
ตนาคนห
ตนาภรณ
ตนายกร
ตนาราม
ตนเป
ตนโกส
ตนได
ตบ
ตบอล
ตบอลจ
ตบอลช
ตบอลชาวสเปน
ตบอลชาวอ
ตบอลชาวไทย
ตบอลต
ตบอลถ
ตบอลท
ตบอลย
ตบอลระด
ตบอลระหว
ตบอลล
ตบอลหญ
ตบอลอ
ตบอลอาช
ตบอลเอเช
ตบอลแห
ตบอลโลก
ตป
ตปร
ตประจำว
ตประธานาธ
ตประเพณ
ตปล
ตผ
ตฝร
ตพ
ตพล
ตฟล
ตภ
ตภาพยนตร
ตม
ตมหาว
ตมหาส
ตย
ตยกรรม
ตยกรรมท
ตยกรรมศาสตร
ตยสถาน
ตยสภา
ตยสาร
ตยา
ตยาบ
ตร
ตรก
ตรกร
ตรกรรม
ตรกรรมฝาผน
ตรการศ
ตรข
ตรของ
ตรค
ตรคนท
ตรคร
ตรคำนวณ
ตรง
ตรงก
ตรงกลาง
ตรงข
ตรงท
ตรงน
ตรจ
ตรช
ตรชาย
ตรชายท
ตรด
ตรต
ตรถยนต
ตรท
ตรธ
ตรน
ตรนานาชาต
ตรบ
ตรบร
ตรป
ตรปร
ตรประกาศน
ตรประจำต
ตรประชาชนเพ
ตรผ
ตรผล
ตรพ
ตรภาพ
ตรม
ตรร
ตรระด
ตรลดา
ตรว
ตรวจการแผ
ตรวจสอบค
ตรวาทการ
ตรศ
ตรส
ตรอ
ตรองนายกร
ตรอย
ตรฯ
ตระก
ตระด
ตระหน
ตระหว
ตรา
ตราค
ตราด
ตราท
ตราพระราชบ
ตราร
ตราส
ตราเง
ตราเร
ตราแผ
ตรเจ
ตรเป
ตรเม
ตรเล
ตรแห
ตรให
ตรได
ตล
ตลก
ตลง
ตลอด
ตลอดช
ตลอดท
ตลอดเวลา
ตลาด
ตลาดน
ตลาดหล
ตว
ตวว
ตวา
ตวาศก
ตวแพทย
ตวแพทยศาสตร
ตศ
ตศร
ตศาสตร
ตส
ตสม
ตสมาช
ตสวรรค
ตสาหกรรม
ตสาหกรรมท
ตสำน
ตห
ตหน
ตหร
ตหล
ตอ
ตอธ
ตอน
ตอนต
ตอนท
ตอนน
ตอนพ
ตอนล
ตอนส
ตอนเด
ตอนเหน
ตอนใต
ตอบ
ตอบก
ตอบของกระทรวง
ตอบร
ตอบว
ตอบสนองต
ตอบโต
ตอย
ตอร
ตอล
ตะ
ตะก
ตะกร
ตะล
ตะว
ตะเค
ตา
ตาก
ตาท
ตาน
ตานนท
ตาภรณ
ตาม
ตามกฎหมาย
ตามกฎหมายว
ตามข
ตามความเช
ตามคำส
ตามช
ตามด
ตามต
ตามท
ตามธรรมชาต
ตามธรรมเน
ตามน
ตามบ
ตามปกต
ตามปฏ
ตามพ
ตามพระราชบ
ตามม
ตามมต
ตามมา
ตามมาด
ตามมาตรา
ตามร
ตามระเบ
ตามล
ตามลำด
ตามว
ตามวรรคหน
ตามส
ตามหน
ตามหล
ตามอ
ตามเด
ตามเวลาท
ตามเสด
ตามแต
ตาย
ตายค
ตายท
ตายแล
ตาร
ตารางก
ตารางการผ
ตารางวา
ตารางเมตร
ตารางไมล
ตาล
ตาว
ตาส
ตาเล
ตำนานพ
ตำนานสมเด
ตำบล
ตำบลก
ตำบลค
ตำบลช
ตำบลด
ตำบลท
ตำบลน
ตำบลบ
ตำบลป
ตำบลพ
ตำบลม
ตำบลร
ตำบลว
ตำบลศร
ตำบลส
ตำบลห
ตำบลหนองบ
ตำบลอ
ตำบลเช
ตำบลเม
ตำบลเว
ตำบลแม
ตำบลโพธ
ตำบลในเม
ตำรวจ
ตำรวจภ
ตำรา
ตำล
ตำหน
ตำแหน
ตเก
ตเข
ตเคยเป
ตเคร
ตเจ
ตเช
ตเซ
ตเซอร
ตเด
ตเต
ตเตอร
ตเท
ตเน
ตเป
ตเพ
ตเม
ตเมนต
ตเร
ตเลขาธ
ตเลต
ตเลอร
ตเว
ตเส
ตเสร
ตเหล
ตแชมป
ตแต
ตแพทย
ตแล
ตแลนด
ตและจำหน
ตแห
ตโดย
ตโดยบร
ตโต
ตโนม
ตใจ
ตใจท
ตใน
ตในช
ตในป
ตในว
ตให
ตใหม
ตได
ตไทย
ตไปแล
ตไฟฟ
ตไม
ตไว
ถ
ถกเถ
ถน
ถนน
ถนนพหลโยธ
ถนนร
ถนนว
ถนนส
ถนนอ
ถนอม
ถล
ถว
ถวาย
ถวายต
ถวายพระเพล
ถอดอ
ถอนต
ถาม
ถามว
ถาวร
ท
ทก
ทกภ
ทข
ทค
ทจ
ทช
ทซ
ทด
ทต
ทท
ททกน
ททท
ททบ
ทธ
ทธการ
ทธการท
ทธกาล
ทธจ
ทธช
ทธท
ทธน
ทธนา
ทธนาว
ทธบ
ทธบาท
ทธปฏ
ทธประว
ทธภ
ทธมณฑล
ทธมนต
ทธยอดฟ
ทธยา
ทธร
ทธรณ
ทธว
ทธศ
ทธศตวรรษท
ทธศาสตร
ทธศาสน
ทธศาสนา
ทธศาสนาแห
ทธส
ทธห
ทธองค
ทธะ
ทธา
ทธาท
ทธาน
ทธาราม
ทธาวาส
ทธเจ
ทธเล
ทน
ทนา
ทบ
ทบวง
ทผ
ทผล
ทพ
ทม
ทย
ทยบร
ทยา
ทยาการ
ทยาการคอมพ
ทยาการจ
ทยาคม
ทยาคาร
ทยาญ
ทยาท
ทยาน
ทยานประว
ทยานแห
ทยาล
ทยาศาสตร
ทยาศาสตรบ
ทยาศาสตรมหาบ
ทยาส
ทยาหร
ทยาอ
ทยาเขต
ทร
ทรก
ทรง
ทรงก
ทรงข
ทรงค
ทรงครองราชย
ทรงจ
ทรงช
ทรงดำรงตำแหน
ทรงต
ทรงถ
ทรงน
ทรงบ
ทรงปฏ
ทรงพ
ทรงพระกร
ทรงพระราชดำร
ทรงพล
ทรงฟ
ทรงม
ทรงย
ทรงร
ทรงล
ทรงศ
ทรงส
ทรงสร
ทรงอ
ทรงอภ
ทรงเข
ทรงเป
ทรงเร
ทรงเล
ทรงเสกสมรสก
ทรงเห
ทรงแต
ทรงใช
ทรงให
ทรงได
ทรท
ทรปราการ
ทรมลาย
ทรรศการ
ทรรศน
ทรสงคราม
ทรสาคร
ทรอ
ทรอาร
ทรา
ทรานส
ทราบ
ทราบก
ทราบข
ทราบถ
ทราบท
ทราบว
ทราบสาเหต
ทราบแน
ทราย
ทรแปซ
ทรแอตแลนต
ทรใต
ทฤษฎ
ทล
ทว
ทวงศ
ทศท
ทศวรรษ
ทศวรรษท
ทส
ทสนมก
ทหาร
ทหารท
ทหารบก
ทหารเร
ทอ
ทอง
ทองคำ
ทองด
ทองส
ทองอ
ทองแดง
ทอดอกซ
ทอตน
ทอม
ทอย
ทอร
ทอล
ทฯ
ทะล
ทะเบ
ทะเล
ทา
ทาก
ทากาฮาช
ทาค
ทาง
ทางการ
ทางการท
ทางการทะเบ
ทางการเม
ทางการแพทย
ทางข
ทางจ
ทางช
ทางด
ทางตอนเหน
ทางตอนใต
ทางตะว
ทางท
ทางน
ทางบ
ทางผ
ทางฝ
ทางพ
ทางร
ทางราชการได
ทางว
ทางส
ทางสถาน
ทางหลวงหมายเลข
ทางหลวงแผ
ทางอ
ทางเข
ทางเคม
ทางเด
ทางเล
ทางเศรษฐก
ทางเหน
ทางโทรท
ทางใต
ทาจ
ทาน
ทานพ
ทานากะ
ทาร
ทาวน
ทาวเวอร
ทาส
ทาเคช
ทาโร
ทำ
ทำก
ทำการค
ทำการต
ทำการบ
ทำการย
ทำการร
ทำการส
ทำการแข
ทำการไปรษณ
ทำข
ทำค
ทำงาน
ทำงานท
ทำงานร
ทำงานอย
ทำงานเป
ทำงานได
ทำด
ทำต
ทำท
ทำน
ทำนอง
ทำบ
ทำประต
ทำผ
ทำพ
ทำม
ทำร
ทำรายได
ทำลายสถ
ทำส
ทำสถ
ทำหน
ทำอ
ทำอย
ทำออกมาได
ทำอะไรได
ทำเง
ทำเน
ทำเป
ทำให
ทำได
ทำไม
ทำไมต
ทำไว
ทเท
ทเทอร
ทเป
ทโธปกรณ
ทในเคร
ทได
ธ
ธก
ธค
ธง
ธงช
ธงชาต
ธงน
ธงไชย
ธต
ธท
ธน
ธนบ
ธนะร
ธนา
ธนาคารกร
ธนาคารแห
ธนาเพรส
ธป
ธปท
ธประจำต
ธภ
ธม
ธย
ธยม
ธยมต
ธยมปลาย
ธยมว
ธยมศ
ธยา
ธยาคร
ธยาตอนปลาย
ธยาศ
ธร
ธรณ
ธรภาค
ธรรม
ธรรมชาต
ธรรมดา
ธรรมท
ธรรมน
ธรรมย
ธรรมราช
ธรรมว
ธรรมศ
ธรรมศาสตร
ธรรมเน
ธว
ธส
ธหล
ธอร
ธา
ธาดา
ธาต
ธาน
ธเป
ธได
น
นก
นกย
นกร
นกรณ
นกรรมการ
นกรรมการบร
นกระจ
นกระด
นกระบวนการท
นกราด
นกล
นกลาง
นกลายเป
นกว
นกวางต
นกษ
นกอ
นกองกำล
นกองท
นการ
นการก
นการกระทำท
นการกล
นการข
นการค
นการจ
นการช
นการด
นการดำเน
นการต
นการถ
นการท
นการน
นการบ
นการป
นการปกครองก
นการปฏ
นการปร
นการผ
นการผล
นการฝ
นการพ
นการพน
นการม
นการย
นการร
นการล
นการละเม
นการว
นการศ
นการส
นการสร
นการอ
นการอย
นการอาช
นการเก
นการเข
นการเคล
นการเง
นการเช
นการเด
นการเป
นการเปล
นการเพ
นการเม
นการเร
นการเล
นการแก
นการแข
นการโจมต
นการโดย
นการใช
นการให
นการได
นกาล
นกาลของ
นกาลพห
นกาลพาร
นกาลสมบ
นกาลสาม
นกาลเอกพจน
นกำล
นกำเน
นข
นขนส
นขนาด
นขนาดเล
นขนาดใหญ
นขนานท
นขว
นของ
นของก
นของกร
นของกล
นของกองท
นของข
นของขว
นของค
นของจ
นของช
นของต
นของตน
นของตนเอง
นของท
นของน
นของบ
นของบร
นของผ
นของพ
นของพระองค
นของม
นของย
นของร
นของล
นของว
นของส
นของสหร
นของห
นของอ
นของเขา
นของเจ
นของแข
นขาด
นขาว
นค
นคง
นคงของมน
นคงแห
นคด
นคน
นคนข
นคนด
นคนต
นคนท
นคนน
นคนม
นคนร
นคนส
นคนหน
นคนอ
นคนเด
นคนแรก
นคนแรกท
นคร
นครน
นครนายก
นครปฐม
นครพนม
นครร
นครราชส
นครศร
นครสวรรค
นครองราชย
นครองราชสมบ
นครอบคร
นครโฮจ
นคล
นคว
นควบค
นความค
นความจร
นความต
นความถ
นความผ
นความร
นความล
นความส
นความสำค
นความเช
นความเป
นความเส
นคอนเส
นคอมม
นคอร
นคอล
นคาทอล
นคาร
นคำ
นคำกร
นคำท
นคำนาม
นคำร
นคำว
นคำส
นฆ
นง
นงาน
นงานตาม
นงานตามมาตรา
นงานท
นงานอ
นงานเข
นงานเพ
นจ
นจง
นจดทะเบ
นจนกระท
นจนถ
นจร
นจะต
นจะถ
นจะทำให
นจะม
นจะย
นจะร
นจะส
นจะอย
นจะเก
นจะเป
นจะเร
นจะใช
นจะได
นจะไม
นจา
นจาก
นจากความเป
นจากต
นจากตำแหน
นจากท
นจากน
นจากผ
นจากร
นจากส
นจากอ
นจาร
นจำนวน
นจำนวนมาก
นจำนวนเง
นจำนวนเต
นจำเป
นฉ
นฉบ
นช
นชน
นชม
นชอบ
นชอบด
นชอบให
นชาต
นชาย
นชาร
นชาวจ
นชาวญ
นชาวอ
นชาวอเมร
นชไตน
นซ
นซา
นซาก
นซาม
นญ
นญาต
นฐาน
นฐานท
นฐานอย
นณว
นด
นดนตร
นดย
นดร
นดรศ
นดอกไม
นดอน
นดอนสามเหล
นดอร
นดา
นดาด
นดาน
นดาม
นดาร
นดาล
นดาลใจให
นดาลให
นดาว
นดาวเคราะห
นดำ
นดำรงตำแหน
นดำเน
นต
นตก
นตกของแม
นตกต
นตกท
นตกเฉ
นตกเป
นตต
นตน
นตนา
นตนาการ
นตป
นตภาพร
นตร
นตรก
นตรง
นตรงก
นตรงต
นตรงท
นตระก
นตรา
นตราย
นตรายต
นตรายท
นตรายแก
นตสมาคม
นตหรา
นตอน
นตอนท
นตอนว
นตะ
นตะปาปา
นตะว
นตา
นตามท
นตามมาตรา
นตามลำด
นตาย
นตำบลหน
นตำรวจโท
นตำแหน
นตแพทย
นตแพทยศาสตร
นถ
นถล
นท
นทก
นทซ
นทด
นทน
นทนนท
นทนา
นทบ
นทป
นทมห
นทร
นทรคต
นทรงค
นทรน
นทรพ
นทรพจน
นทรภ
นทรมหาภ
นทรล
นทรว
นทรศ
นทรศก
นทรส
นทรา
นทราช
นทราธ
นทราบรมราช
นทราบรมราชชนน
นทราภรณ
นทราย
นทราวาส
นทรเดชา
นทรเวช
นทฤษฎ
นทว
นทหารราบท
นทอง
นทอช
นทะ
นทะเบ
นทะเล
นทา
นทาง
นทางกล
นทางการ
นทางการของ
นทางการค
นทางการท
นทางการว
นทางการเม
นทางการในว
นทางข
นทางช
นทางด
นทางต
นทางถ
นทางท
นทางน
นทางบ
นทางป
นทางผ
นทางมาถ
นทางมาย
นทางรถไฟฟ
นทางว
นทางส
นทางหลวงแผ
นทางอ
นทางเข
นทางเด
นทางเพ
นทางเล
นทางได
นทางไปท
นทางไปย
นทามะ
นทาราม
นทาส
นทำให
นธ
นธก
นธการก
นธการกบ
นธการกพห
นธการกเอกพจน
นธง
นธน
นธม
นธร
นธรรม
นธรรมชาต
นธรรมดา
นธวงศ
นธส
นธาต
นธไมตร
นน
นนกท
นนท
นนทบ
นนวน
นนอก
นนะ
นนา
นนาค
นนาง
นนางช
นนางท
นนางผ
นนาน
นนานาชาต
นนายกร
นนาร
นนำ
นบ
นบก
นบน
นบนพ
นบร
นบรรณาธ
นบรรพบ
นบล
นบวร
นบะระ
นบางคนอาจถ
นบางคร
นบางส
นบาท
นบาทถ
นบำเหน
นป
นปกต
นปช
นปฏ
นปร
นประกอบด
นประกาศในราชก
นประจ
นประจำ
นประจำท
นประจำป
นประชาธ
นประด
นประต
นประถมศ
นประท
นประธาน
นประธานาธ
นประธานในพ
นประม
นประมาณ
นประว
นประส
นประเด
นประเทศ
นประเทศท
นประเพณ
นประเสร
นประโยชน
นปรากฏการณ
นปล
นปลาท
นปลาน
นปลาสวยงาม
นปาล
นผ
นผล
นผลงานท
นผลสำเร
นผลให
นผลไม
นฝ
นฝร
นพ
นพน
นพบ
นพบท
นพบว
นพย
นพร
นพรรคการเม
นพรหม
นพระคร
นพระชนม
นพระญาต
นพระท
นพระธ
นพระน
นพระบ
นพระบาทสมเด
นพระปกเกล
นพระพ
นพระภ
นพระมหากษ
นพระมเหส
นพระราช
นพระราชธ
นพระราชน
นพระราชบ
นพระราชาคณะช
นพระราชโอรสพระองค
นพระราชโอรสองค
นพระส
นพระอ
นพระองค
นพระอน
นพระอารามหลวงช
นพระเจ
นพฤห
นพล
นพลเม
นพลเร
นพากย
นพาย
นพาร
นฟ
นฟร
นฟลายเวท
นฟอร
นฟาโรห
นภ
นภาค
นภาคต
นภาพท
นภาพยนตร
นภาพเข
นภายหล
นภายใต
นภารก
นภาษ
นภาษา
นภาษาท
นภาษาอ
นภาษาไทย
นม
นมน
นมหาราช
นมหาว
นมะเร
นมา
นมาก
นมากกว
นมากข
นมากท
นมากน
นมากมาย
นมาจนถ
นมาช
นมาด
นมาต
นมาตรฐาน
นมาตรา
นมาถ
นมาท
นมาน
นมาม
นมาย
นมาร
นมาว
นมาส
นมาอ
นมาอย
นมาเป
นมาเพ
นมาเร
นมาเล
นมาแต
นมาแล
นมาใช
นมาให
นมาใหม
นมาได
นย
นยง
นยนต
นยอดเย
นยอม
นยอมให
นยา
นยาท
นยายน
นยาร
นยาว
นยำ
นร
นรก
นรถ
นรถท
นรถยนต
นรวม
นรวมถ
นรวมท
นรห
นรอบค
นรอบต
นรอบส
นระด
นระบบ
นระบบท
นระยะ
นระยะทาง
นระยะเวลา
นระหว
นระเบ
นรางว
นราช
นราชท
นราชธาน
นราชบ
นราชภ
นราชวงศ
นราชสก
นราชอาณาจ
นราธ
นรายการ
นรายการท
นรายการโทรท
นรายช
นรายใหญ
นรายได
นราว
นฤด
นล
นลง
นลงท
นลงเล
นลม
นลองจ
นละ
นละครโทรท
นลายล
นลำด
นว
นวงกลมใหญ
นวงดนตร
นวงศ
นวน
นวล
นวอลล
นวอลเลย
นวา
นวาคม
นวาย
นศ
นศตวรรษท
นศร
นศาสตราจารย
นษา
นส
นสก
นสกฤต
นสค
นสด
นสต
นสตร
นสตาแกรม
นสถ
นสถาน
นสถานท
นสถานศ
นสถาบ
นสถาป
นสถาปน
นสท
นสน
นสนามก
นสนามเหย
นสป
นสม
นสมควร
นสมบ
นสมมต
นสมาช
นสมเด
นสร
นสล
นสว
นสวรรค
นสหร
นสองคนส
นสองส
นสองเท
นสะเท
นสาธารณร
นสาธารณสมบ
นสาม
นสามารถเล
นสายการบ
นสายพ
นสารท
นสาเหต
นสำค
นสำน
นสำปะหล
นสำหร
นสำเน
นสำเร
นสเตอร
นสโมสรฟ
นห
นหญ
นหน
นหม
นหมด
นหมายความว
นหมายถ
นหมายเลข
นหย
นหร
นหล
นหลง
นหลายคร
นหว
นหอม
นหา
นหาข
นหาท
นหาส
นอ
นอก
นอกจากน
นอกน
นอกเหน
นองค
นอด
นอธ
นอน
นอนว
นอย
นอร
นอล
นอว
นอส
นออก
นออกกลาง
นออกของแม
นออกต
นออกท
นออกมา
นออกเฉ
นออกเป
นออกไป
นออนไลน
นออร
นอาคาร
นอาคารคอนกร
นอาคารท
นอาคารเร
นอาคารไม
นอาจารย
นอาจเป
นอาช
นอาณาจ
นอาณาน
นอาท
นอาย
นอาร
นอารมณ
นอาว
นอาศ
นอาสนว
นอาหาร
นอาหารท
นอาหารได
นอำเภอหน
นอเมร
นฮ
นฮาร
นฯ
นะ
นะฮ
นา
นาก
นาค
นาคม
นาง
นางก
นางงามจ
นางจ
นางพ
นางฟ
นางร
นางส
นางอ
นางเธอ
นางแบบ
นาจ
นาซ
นาด
นาต
นาตาล
นาถ
นาถว
นาถเอล
นาท
นาน
นานก
นานด
นานถ
นานน
นานมาน
นานหล
นานา
นานาชาต
นาบ
นาม
นามปากกา
นามว
นามสก
นามเด
นาย
นายก
นายกร
นายกเทศมนตร
นายจ
นายช
นายต
นายท
นายทหารร
นายทะเบ
นายน
นายบ
นายปร
นายพ
นายม
นายร
นายว
นายศ
นายส
นายอ
นายอภ
นายเร
นายแพทย
นาร
นารายณ
นาล
นาว
นาศ
นาส
นาฬ
นาอ
นาเมนต
นาแห
นาโปล
นาได
นำ
นำกล
นำกองท
นำข
นำช
นำต
นำท
นำน
นำบทบ
นำป
นำฝ
นำมาซ
นำมาใช
นำร
นำส
นำหน
นำเข
นำเร
นำเสนอไว
นำแสดงโดย
นำโดย
นำไปส
นำไปใช
นเก
นเกณฑ
นเกม
นเกมท
นเกมส
นเกรกอเร
นเกล
นเกาะท
นเข
นเขตร
นเขา
นเขาก
นเขาจ
นเขาได
นเค
นเคย
นเคยก
นเคร
นเคล
นเคโฟร
นเง
นเจ
นเจด
นเจร
นเฉ
นเฉล
นเช
นเซ
นเซนต
นเซลล
นเซอ
นเซอร
นเด
นเดซ
นเดย
นเดร
นเดอร
นเต
นเตร
นเตอร
นเถ
นเถล
นเท
นเทคน
นเทคว
นเทคโนโลย
นเทนโด
นเทพ
นเทพเจ
นเทศบาล
นเทศบาลเม
นเทอร
นเธอก
นเธอได
นเน
นเนอร
นเบ
นเป
นเปร
นเปล
นเผ
นเผา
นเพ
นเพลง
นเพลงชาต
นเพลงท
นเฟ
นเฟเธอร
นเม
นเมร
นเย
นเร
นเล
นเลขาธ
นเลขาน
นเลย
นเว
นเวท
นเวย
นเวลา
นเวลากว
นเวลาท
นเวลานาน
นเวลามาตรฐานญ
นเวลาส
นเวลาหลายป
นเวอร
นเส
นเสด
นเสนาบด
นเสม
นเสมอ
นเสร
นเสาร
นเห
นเหต
นเหน
นเหม
นเหย
นเหร
นเหล
นเอ
นเอก
นเอกฉ
นเอกล
นเอง
นเองก
นเอชเค
นเอท
นเอเช
นแก
นแกรน
นแกล
นแข
นแขกร
นแค
นแคว
นแจ
นแชมป
นแดง
นแดน
นแดนต
นแดนท
นแดนน
นแดนส
นแดนอ
นแดนแห
นแต
นแตกต
นแท
นแทน
นแทนท
นแน
นแนล
นแนวค
นแบ
นแบนต
นแบบ
นแบบท
นแบบน
นแบบอย
นแบร
นแปซ
นแปลว
นแผ
นแผน
นแพ
นแพทย
นแพร
นแม
นแมตช
นแร
นแรก
นแรกท
นแรกเป
นแรง
นแรงข
นแรงต
นแรงท
นแรงบ
นแรม
นแล
นแลนด
นและ
นและก
นและค
นและจ
นและช
นและด
นและต
นและท
นและน
นและปราบปรามการท
นและผ
นและพ
นและม
นและย
นและร
นและล
นและว
นและส
นและหน
นและอ
นและเป
นและได
นและไม
นแห
นแหล
นแอน
นแอนด
นแอร
นโค
นโครงสร
นโคว
นโจ
นโจมต
นโชว
นโซ
นโซไดอาเซพ
นโด
นโดจ
นโดดเด
นโดท
นโดน
นโดย
นโดยท
นโดยน
นโดยม
นโดยส
นโดยเอ
นโดยใช
นโดยไม
นโดร
นโดวส
นโต
นโตน
นโท
นโทก
นโทน
นโทย
นโทยน
นโน
นโนเฟอร
นโบราณ
นโบสถ
นโปรด
นโปรต
นโปเล
นโพธ
นโมฆะ
นโมบ
นโรค
นโรคต
นโรคท
นโรงเร
นโลก
นโลห
นโอล
นใกล
นใคร
นใจ
นใจท
นใจย
นใจว
นใจเล
นใช
นใด
นใดของร
นใดท
นใดน
นใต
นใน
นในก
นในกร
นในกรณ
นในกล
นในการแข
นในค
นในคร
นในจ
นในช
นในซ
นในด
นในต
นในตำแหน
นในท
นในน
นในนาม
นในบ
นในบร
นในป
นในประเทศไทย
นในพ
นในฟ
นในย
นในร
นในระด
นในระหว
นในฤด
นในล
นในว
นในส
นในสม
นในสหร
นในห
นในหน
นในหม
นในอ
นในอด
นในเด
นในเม
นในเร
นในเล
นในเวลากลางค
นในแต
นในโอล
นในไต
นใส
นให
นใหญ
นใหม
นไก
นไกด
นไข
นไซ
นได
นไดเส
นไต
นไตย
นไท
นไทย
นไทยแลนด
นไนน
นไป
นไปก
นไปข
นไปจนถ
นไปช
นไปด
นไปต
นไปตามข
นไปตามท
นไปตามหล
นไปถ
นไปท
นไปน
นไปย
นไปร
นไปส
นไปอ
นไปอย
นไปเป
นไปเพ
นไปเม
นไปเร
นไปเล
นไปแล
นไปให
นไปได
นไปไม
นไพร
นไฟ
นไฟฟ
นไฟล
นไม
นไร
นไรเฟ
นไลท
นไว
นไวร
นไส
นไหม
นไหว
นไหวขนาด
นไหวคร
นๆ
นๆท
นๆอ
บ
บก
บกร
บกรณ
บกระด
บกระผม
บกล
บกลายเป
บกว
บกษ
บกองกำล
บกองท
บการ
บการก
บการกล
บการข
บการขนานนามว
บการค
บการจ
บการช
บการซ
บการด
บการดำเน
บการต
บการตอบร
บการถ
บการท
บการน
บการบ
บการบร
บการบรรจ
บการป
บการปฏ
บการปร
บการประช
บการประเม
บการปล
บการผ
บการผล
บการฝ
บการพ
บการฟ
บการม
บการย
บการยกฐานะเป
บการยกย
บการยอมร
บการร
บการว
บการศ
บการส
บการสถาปนาเป
บการสน
บการสร
บการอ
บการอน
บการเก
บการเข
บการเคล
บการเช
บการเด
บการเป
บการเปล
บการเผยแพร
บการเม
บการเร
บการเล
บการเสนอช
บการแก
บการแข
บการแต
บการแสดง
บการแสดงโดย
บการใช
บการให
บกำล
บข
บของ
บของร
บค
บคด
บคน
บคนท
บคนอ
บคนไข
บคร
บครอบคร
บคล
บความค
บความช
บความต
บความน
บความผ
บความย
บความร
บความล
บความส
บความสว
บความสำค
บความสำเร
บความหมายอ
บความเข
บความเช
บความเด
บความเป
บความเร
บความเส
บความเห
บความไว
บคอมพ
บคะแนนเส
บคาร
บคำว
บคำส
บคำใบ
บง
บงานน
บจ
บจาก
บจากน
บจากแหล
บฉ
บฉายาว
บช
บชน
บชาต
บซ
บญ
บฐานข
บด
บดนตร
บต
บตกแต
บตระก
บตา
บตำแหน
บถ
บถาวร
บท
บทกว
บทความ
บทความน
บทความหล
บทความเก
บทท
บทน
บทบ
บทบาทสำค
บทประพ
บทภาพยนตร
บทร
บทฤษฎ
บทว
บทส
บทอดตำแหน
บทางหลวงแผ
บทำให
บทเร
บทโทรท
บธ
บธรรมชาต
บน
บนชาร
บนต
บนท
บนบ
บนฝ
บนพ
บนห
บนหน
บนหล
บนานาชาต
บนเคร
บนเน
บนเร
บนเวท
บนเส
บบ
บบท
บบทความอ
บบทเป
บบทโดย
บบนส
บบร
บบล
บบอร
บบาดเจ
บบาร
บป
บปฏ
บปร
บประก
บประกาศน
บประจ
บประชาชน
บประต
บประถมศ
บประทาน
บประทานได
บประว
บประเทศ
บประเทศอ
บประเทศไทย
บประโยชน
บปล
บปวด
บผ
บผล
บผลประโยชน
บฝ
บฝร
บพ
บพม
บพย
บพร
บพรรคการเม
บพระพ
บพระมหากร
บพระราชทาน
บพระราชทานบรรดาศ
บพระราชทานว
บพระราชทานส
บพระราชทานเคร
บพระราชบ
บพระราชห
บพระอ
บพระองค
บพระเจ
บพล
บพลา
บพลาอ
บพาย
บฟ
บภ
บภาพ
บภาพยนตร
บภารก
บภาษ
บภาษาคำเม
บภาษาลาว
บภาษาอ
บภาษาไทย
บม
บมจ
บมน
บมหาว
บมองซ
บมอบหมายให
บมา
บมาก
บมาต
บมาตรฐาน
บมาตรา
บมาถ
บมาท
บมาม
บมาย
บมาร
บมาส
บมาอ
บมาอย
บมาเป
บมาเล
บมาใช
บมาได
บย
บยกย
บร
บรถ
บรถยนต
บรมนาถบพ
บรมราชาภ
บรรจ
บรรณ
บรรณาธ
บรรณาน
บรรดาผ
บรรดาศ
บรรท
บรรพบ
บรรล
บรอง
บรองว
บรอลตาร
บรอฮ
บระด
บระหว
บรางว
บราชการ
บราชการท
บราชการอย
บราชการเป
บราชท
บราชบ
บราชวงศ
บราชส
บราชสมบ
บราซ
บราวน
บราฮ
บราเธอร
บฤด
บล
บลร
บลราชธาน
บละ
บว
บวกก
บวง
บวงดนตร
บวร
บวรส
บศ
บส
บสก
บสตร
บสถาน
บสถานการณ
บสถานท
บสถาบ
บสน
บสนก
บสนองพระบรมราชโองการ
บสภาผ
บสม
บสมบ
บสมาช
บสมเด
บสร
บสลาก
บสลากสำหร
บสวน
บสหร
บสอง
บสองป
บสาธารณร
บสาม
บสาห
บสำน
บสำหร
บสโมสร
บสโมสรฟ
บห
บหญ
บหน
บหม
บหย
บหร
บหล
บอ
บอก
บอกก
บอกซ
บอกว
บอกเล
บอกให
บองค
บอด
บอน
บอนด
บอนไดออกไซด
บอย
บอร
บอล
บอลชายช
บอลล
บอลหญ
บอลเว
บอส
บอสเน
บอากาศ
บอาจารย
บอาช
บอาณาจ
บอาย
บอาร
บอาว
บอำเภอเม
บฮ
บะ
บา
บาก
บาค
บาง
บางกอก
บางกอกกล
บางข
บางคร
บางช
บางชน
บางต
บางท
บางร
บางส
บางอย
บางแห
บาซ
บาดเจ
บาต
บาท
บาน
บาบ
บาป
บาย
บายถ
บายท
บายว
บายให
บายได
บายไว
บาร
บารม
บาล
บาลท
บาลบ
บาลเป
บาส
บาสเกตบอล
บาห
บาเลนเซ
บำบ
บำร
บำเพ
บเก
บเข
บเขตการปกครองข
บเขา
บเค
บเคร
บเคล
บเง
บเจ
บเช
บเซ
บเซลล
บเด
บเต
บเท
บเทคโนโลย
บเธอ
บเน
บเบ
บเบอร
บเป
บเปล
บเพ
บเพล
บเพลง
บเม
บเย
บเยอรมน
บเยาวชน
บเร
บเรา
บเล
บเว
บเวลา
บเส
บเสด
บเหต
บเหร
บเหล
บเอ
บเอม
บแก
บแข
บแค
บแคว
บแจ
บแชมป
บแต
บแนวค
บแผ
บแม
บแรก
บแรงบ
บแล
บแสง
บแห
บโครงสร
บโดย
บโดยอน
บโต
บโตข
บโตท
บโตอย
บโตได
บโปรดเกล
บโปรต
บโมเลก
บโรงเร
บโลก
บใจ
บใช
บใน
บในป
บใบอน
บใส
บให
บใหญ
บใหม
บไข
บไซด
บไซต
บได
บไทย
บไป
บไปท
บไปย
บไปส
บไปอย
บไปเป
บไปเม
บไปแล
บไปใช
บไม
บไล
บไว
บๆ
ป
ปก
ปกครอง
ปกครองด
ปกครองท
ปกคล
ปกต
ปกป
ปกรณ
ปการปกครองแผ
ปการปกครองในระบอบประชาธ
ปข
ปของ
ปค
ปคร
ปคล
ปจ
ปช
ปซ
ปญ
ปฏ
ปฐมจ
ปณ
ปด
ปดาห
ปต
ปตท
ปตศก
ปถ
ปท
ปน
ปนาว
ปบ
ปป
ปปางมารว
ปผ
ปพ
ปพห
ปภาพ
ปภาพของ
ปม
ปย
ปร
ปรกต
ปรม
ประก
ประกอบ
ประกอบก
ประกอบข
ประกอบด
ประกอบท
ประกอบธ
ประกอบพ
ประกอบภาพยนตร
ประกอบร
ประกอบละคร
ประกอบว
ประกอบอาช
ประกอบไปด
ประการ
ประการท
ประการหน
ประการใด
ประกาศ
ประกาศกระทรวงมหาดไทย
ประกาศกระทรวงศ
ประกาศข
ประกาศของคณะปฏ
ประกาศคณะกรรมการการเล
ประกาศคณะร
ประกาศจ
ประกาศต
ประกาศน
ประกาศนายทะเบ
ประกาศย
ประกาศว
ประกาศสำน
ประกาศเป
ประกาศเม
ประกาศแต
ประกาศใช
ประกาศใน
ประกาศในราชก
ประกาศให
ประจ
ประจวบ
ประจำ
ประจำจ
ประจำต
ประจำท
ประจำป
ประจำมหาว
ประจำว
ประจำสำน
ประจำอย
ประจำเด
ประจำโรงเร
ประช
ประชากร
ประชากรท
ประชากรประมาณ
ประชากรมากท
ประชากรส
ประชาชน
ประชาชนท
ประชาชนได
ประชาชาต
ประชาธ
ประชาส
ประชาไท
ประด
ประต
ประถมศ
ประถมาภรณ
ประท
ประธาน
ประธานกรรมการ
ประธานร
ประธานสภาผ
ประธานาธ
ประพ
ประพฤต
ประม
ประมาณ
ประมาณป
ประมาณร
ประย
ประว
ประส
ประสงค
ประสบการณ
ประสบความสำเร
ประสบป
ประสบภ
ประสบอ
ประสาท
ประสาทส
ประหย
ประหลาด
ประหารช
ประเด
ประเทศ
ประเทศก
ประเทศกร
ประเทศค
ประเทศจ
ประเทศชาต
ประเทศซ
ประเทศญ
ประเทศต
ประเทศท
ประเทศน
ประเทศบ
ประเทศบราซ
ประเทศฝร
ประเทศพม
ประเทศฟ
ประเทศมาเลเซ
ประเทศย
ประเทศร
ประเทศล
ประเทศลาว
ประเทศส
ประเทศสว
ประเทศสหร
ประเทศสเปน
ประเทศอ
ประเทศออสเตร
ประเทศออสเตรเล
ประเทศอาร
ประเทศฮ
ประเทศเกาหล
ประเทศเจ
ประเทศเนเธอร
ประเทศเบลเย
ประเทศเม
ประเทศเยอรมน
ประเทศเว
ประเทศแคนาดา
ประเทศโปแลนด
ประเทศไทย
ประเทศไทยม
ประเพณ
ประเภท
ประเภทของงานน
ประเภทท
ประเภทน
ประเม
ประเสร
ประโยค
ประโยชน
ปรากฏ
ปรากฏการณ
ปรากฏข
ปรากฏช
ปรากฏต
ปรากฏบ
ปรากฏว
ปรากฏหล
ปรากฏอย
ปรากฏเป
ปรากฏในหน
ปราคา
ปราคาบางส
ปราคาเต
ปราจ
ปราช
ปราชญ
ปราย
ปราสาท
ปราโมช
ปราโมทย
ปล
ปลดปล
ปลอดภ
ปลอมต
ปลา
ปลาก
ปลาซ
ปลาต
ปลาตะเพ
ปลาท
ปลาน
ปลาป
ปลาย
ปลายป
ปลาส
ปว
ปวช
ปวยร
ปวส
ปศ
ปส
ปสมบท
ปสมบทเป
ปสรรค
ปสรรคต
ปสล
ปสามเหล
ปห
ปหน
ปหล
ปอ
ปองค
ปอด
ปอนด
ปอย
ปอร
ปอล
ปอเมร
ปอเรช
ปฮอป
ปฮาด
ปะการ
ปะชานาต
ปะทะ
ปะทะก
ปะห
ปา
ปาก
ปากน
ปากาซา
ปางมารว
ปาฏ
ปาณ
ปาน
ปานามา
ปาป
ปาร
ปารากว
ปาล
ปาห
ปาเลสไตน
ปเก
ปเด
ปเตอร
ปเท
ปเป
ปเปอร
ปเล
ปเหร
ปเอเช
ปแบบ
ปแบบการจ
ปแบบการเล
ปแบบการแสดงข
ปแบบการแสดงต
ปแบบด
ปแบบต
ปแบบท
ปแบบน
ปแบบพ
ปแบบว
ปแบบหน
ปแบบอ
ปแบบเด
ปแบบเส
ปแบบและขนาดต
ปแบบใหม
ปและข
ปแห
ปแอฟร
ปโภค
ปโภคบร
ปไข
ปได
ปไตย
ปไตยต
ปไตยท
ปไตยอ
ปไม
ผ
ผจญภ
ผด
ผน
ผบ
ผม
ผมก
ผมร
ผมส
ผมไม
ผล
ผลก
ผลกระทบต
ผลการเล
ผลการแข
ผลข
ผลค
ผลงาน
ผลงานช
ผลงานด
ผลงานท
ผลงานภาพยนตร
ผลงานล
ผลงานว
ผลงานอ
ผลด
ผลต
ผลท
ผลทำให
ผลน
ผลบ
ผลประโยชน
ผลปรากฏว
ผลผล
ผลรางว
ผลล
ผลว
ผลส
ผลอ
ผลอย
ผลเป
ผลใช
ผลในการประกาศใช
ผลให
ผลไม
ผศ
ผสม
ผสมก
ผสมพ
ผอ
ผา
ผาส
ฝ
ฝน
ฝร
พ
พก
พกร
พกล
พข
พค
พคร
พงศ
พงศธร
พงศาวดารเม
พงษ
พจ
พจน
พจนาน
พช
พชาวอเมร
พซ
พญ
พด
พต
พท
พธ
พน
พนธ
พนม
พนมยงค
พนมเท
พบ
พบก
พบกช
พบกระจายพ
พบคร
พบท
พบบ
พบป
พบร
พบว
พบหล
พบเห
พบได
พผ
พฝ
พฝร
พพ
พพม
พพาน
พภ
พภาคท
พม
พมาต
พย
พยากร
พยากรณ
พยากรท
พยากรธรรมชาต
พยากรน
พยากรมน
พยางค
พยาธ
พยายามท
พร
พรช
พรพ
พรรค
พรรคก
พรรคการเม
พรรคคอมม
พรรคชาต
พรรคน
พรรคประชาธ
พรรคพล
พรรคส
พรรคเพ
พรรคเสร
พรรคไทยร
พรรณ
พรรณบ
พรรณหงส
พรรณไม
พรรษา
พรสวรรค
พรหม
พระ
พระก
พระกร
พระขน
พระค
พระคร
พระจ
พระจอมเกล
พระช
พระชนม
พระชนมาย
พระชายา
พระญาต
พระตำหน
พระท
พระธ
พระธรรมก
พระธาต
พระน
พระนคร
พระนครศร
พระนามว
พระนามเด
พระบ
พระบรมธาต
พระบรมมหาราชว
พระบรมราช
พระบรมราชชนน
พระบรมราชาน
พระบรมราชโองการ
พระบรมราชโองการโปรดเกล
พระบรมวงศาน
พระบรมสาร
พระบาท
พระบาทสมเด
พระป
พระปร
พระปล
พระผ
พระพ
พระภ
พระภาคเจ
พระมหากษ
พระมหาอ
พระมเหส
พระยา
พระยาจ
พระยาน
พระยาพ
พระยาว
พระยาศร
พระยาส
พระยาอ
พระร
พระราช
พระราชก
พระราชกรณ
พระราชกฤษฎ
พระราชดำร
พระราชทาน
พระราชทานพระบรมราชาน
พระราชทานส
พระราชทานเคร
พระราชทานเพล
พระราชทานเหร
พระราชธ
พระราชน
พระราชบ
พระราชประสงค
พระราชพ
พระราชพงศาวดาร
พระราชพงศาวดารกร
พระราชพงษาวดาร
พระราชล
พระราชว
พระราชวงศ
พระราชสมภพ
พระราชโองการให
พระราชโอรส
พระราชโอรสองค
พระราม
พระว
พระวรวงศ
พระศ
พระศร
พระส
พระสงฆ
พระสม
พระสวาม
พระห
พระอ
พระองค
พระอธ
พระอน
พระอภ
พระอาจารย
พระอาท
พระอารามหลวง
พระเก
พระเจ
พระเจด
พระเมร
พระเยซ
พระเยโฮวาห
พระแก
พระแม
พระโพธ
พระโอรส
พระโอรสธ
พระไตรป
พราหมณ
พฤต
พฤศจ
พฤษภาคม
พฤห
พล
พลต
พลตร
พลตำรวจเอก
พลท
พลว
พลอด
พลอย
พลอากาศเอก
พละกำล
พลาสต
พลเม
พลเร
พลเอก
พลโท
พว
พวก
พวกก
พวกข
พวกท
พวกน
พวกพ
พวกม
พวกอ
พวกเข
พวกเขา
พวกเขาก
พวกเขาจ
พวกเขาต
พวกเขาม
พวกเขาย
พวกเขาเป
พวกเขาได
พวกเขาไม
พวกเจ
พศ
พส
พสหร
พห
พหน
พหล
พอ
พอด
พอตเตอร
พอถ
พอท
พอพระท
พอย
พอร
พอล
พอากาศ
พอากาศสหร
พอใจ
พอใจท
พอใจในโลก
พะเยา
พา
พาก
พากย
พากษ
พากษา
พากษาคด
พากษาให
พาณ
พาท
พาทย
พาน
พาย
พาร
พาล
พาวเวอร
พำน
พเข
พเจ
พเป
พเพ
พเพส
พเม
พเยอรม
พเร
พแห
พโซเว
พให
พใหญ
พได
พไทย
พไปต
ฟ
ฟก
ฟกาน
ฟซ
ฟต
ฟท
ฟฟ
ฟร
ฟรานซ
ฟล
ฟลอร
ฟลอเรนซ
ฟลายเวท
ฟว
ฟวร
ฟส
ฟอ
ฟอกซ
ฟอง
ฟอน
ฟอร
ฟะฮ
ฟา
ฟาง
ฟาน
ฟาร
ฟาโรห
ฟเบ
ฟเฟ
ฟเวอร
ภ
ภก
ภช
ภชลาศ
ภพ
ภร
ภรรยา
ภว
ภา
ภาค
ภาคกลาง
ภาคต
ภาคตะว
ภาคท
ภาคน
ภาคผนวก
ภาคพ
ภาคย
ภาคว
ภาคศาสตร
ภาคอ
ภาคเหน
ภาคเอเช
ภาคใต
ภาณ
ภาพ
ภาพจ
ภาพด
ภาพต
ภาพถ
ภาพท
ภาพน
ภาพบ
ภาพยนตร
ภาพร
ภาพล
ภาพส
ภาพสตร
ภาพเข
ภาพเหม
ภาพและส
ภายนอก
ภายหล
ภายใต
ภายใน
ภายในป
ภายในประด
ภายในม
ภายในว
ภายในอ
ภารก
ภาว
ภาวด
ภาษ
ภาษา
ภาษากร
ภาษาคำเม
ภาษาจ
ภาษาซ
ภาษาญ
ภาษาด
ภาษาต
ภาษาถ
ภาษาท
ภาษาน
ภาษานอร
ภาษาบาล
ภาษาป
ภาษาปาก
ภาษาฝร
ภาษาพ
ภาษาพม
ภาษาฟ
ภาษาย
ภาษาร
ภาษาล
ภาษาละต
ภาษาลาว
ภาษาส
ภาษาสว
ภาษาสเปน
ภาษาหน
ภาษาอ
ภาษาอาหม
ภาษาอาหร
ภาษาฮ
ภาษาเกาหล
ภาษาเข
ภาษาเขมร
ภาษาเดนมาร
ภาษาเปอร
ภาษาเยอรม
ภาษาเว
ภาษาแสก
ภาษาโปรต
ภาษาโปแลนด
ภาษาไทขาว
ภาษาไทดำ
ภาษาไทย
ภาษาไทล
ภาษาไทใต
ภาษาไทใหญ
ม
มก
มกร
มกราคม
มกล
มกว
มกองท
มการก
มการผล
มการศ
มการเม
มการแข
มการใช
มกำล
มกำเน
มข
มของ
มของร
มค
มคนท
มคร
มครอง
มครองผ
มครองส
มคล
มคว
มควบค
มความต
มความร
มความเส
มคำแปลของวล
มง
มงก
มงคล
มงวด
มงาน
มจ
มจะต
มจะม
มจะได
มจาก
มจากข
มฉ
มช
มชน
มชนท
มชนบ
มชนว
มชนะเล
มชนเม
มชาต
มชาย
มซ
มณ
มณฑล
มด
มดนตร
มดวง
มดำเน
มต
มตะว
มถ
มท
มทร
มทอง
มทำงาน
มธ
มธาน
มน
มนต
มนตร
มนาสต
มนาฬ
มบ
มบร
มบวร
มป
มปฏ
มปทาน
มปร
มประต
มประมวลกฎหมายอาญา
มประส
มผ
มผล
มฝ
มพ
มพงศาวดาร
มพร
มพระชนมพรรษา
มพระเก
มพล
มพว
มพวง
มพานต
มฟ
มภ
มภวาป
มภาพ
มภาษณ
มม
มมอง
มมองต
มมองท
มมา
มมาก
มมากข
มมาน
มมาร
มมาส
มย
มยอดเย
มร
มรส
มระด
มระหว
มฤทธ
มล
มลม
มละ
มละลาย
มลาย
มว
มวยปล
มวยไทย
มศ
มส
มสต
มสม
มสมาช
มสร
มสลาย
มสาระการเร
มสำหร
มสเตอร
มห
มหญ
มหน
มหม
มหร
มหล
มหา
มหาจ
มหาชน
มหาดเล
มหาน
มหาบ
มหาปรมาภรณ
มหาภ
มหามก
มหามงคลเฉล
มหาราช
มหาว
มหาวช
มหาศ
มหาสม
มหาสารคาม
มหาอ
มหาอำมาตย
มหาโพธ
มอ
มอง
มองค
มองซ
มองว
มองเห
มองโกเล
มองไม
มอญ
มอด
มอน
มอนต
มอนสเตอร
มอนเตเนโกร
มอบรางว
มอบหมาย
มอบหมายให
มอบให
มอย
มอร
มอลตา
มอลล
มอส
มอสโก
มอาคาร
มอาช
มอาย
มอาร
มอเตอร
มฮ
มฮอตสเปอร
มะ
มะน
มะพร
มะม
มะล
มะอ
มะเข
มะเม
มะเร
มะเส
มะแม
มะโรง
มา
มาก
มากกว
มากข
มากซ
มากถ
มากท
มากน
มากมาย
มากร
มากรรม
มากว
มากเก
มาข
มาของช
มาค
มาคร
มาจ
มาจนถ
มาจาก
มาจากการเล
มาจากคำว
มาจากช
มาจากภาษากร
มาช
มาซ
มาณ
มาณท
มาณน
มาณมาก
มาด
มาดร
มาดาก
มาต
มาตร
มาตรฐาน
มาตรฐานของ
มาตรา
มาถ
มาท
มาน
มานพ
มาบ
มาประช
มาพ
มาพร
มาม
มาย
มาร
มารดา
มารดาช
มารวมก
มารแห
มาล
มาลา
มาลาก
มาว
มาศ
มาส
มาสค
มาสด
มาสร
มาสเตอร
มาห
มาอ
มาอย
มาเก
มาเข
มาเป
มาเพ
มาเม
มาเย
มาเร
มาเล
มาเลเซ
มาแต
มาแล
มาใช
มาให
มาได
มเก
มเกล
มเข
มเค
มเคร
มเง
มเจ
มเจร
มเช
มเซ
มเซลล
มเด
มเต
มเท
มเน
มเบ
มเบอร
มเป
มเปล
มเปอร
มเพ
มเฟ
มเม
มเมอร
มเย
มเร
มเล
มเว
มเวท
มเศร
มเส
มเห
มเหม
มเหย
มเหล
มเหลว
มเหส
มเอ
มเอส
มแก
มแข
มแจ
มแต
มแบ
มแบร
มแพ
มแม
มแรก
มแรกท
มแล
มและพ
มและม
มแสง
มแห
มแอลกอฮอล
มโค
มโจมต
มโดย
มโดยพระราชบ
มโบ
มโฟน
มโรงเร
มใจ
มใช
มใน
มในช
มในป
มในว
มใส
มให
มใหญ
มใหม
มได
มไทย
มไบ
มไปด
มไพร
มไม
มไว
มๆ
ย
ยก
ยกก
ยกกล
ยกกองท
ยกข
ยกค
ยกช
ยกฐานะเป
ยกด
ยกต
ยกท
ยกน
ยกบ
ยกประช
ยกผ
ยกพ
ยกม
ยกย
ยกร
ยกระด
ยกล
ยกลาง
ยกว
ยกส
ยกอ
ยกอย
ยกา
ยการ
ยการศ
ยการส
ยการอาช
ยกเก
ยกเข
ยกเป
ยกเล
ยกเว
ยกโดยย
ยกใช
ยกให
ยกได
ยข
ยของ
ยของจ
ยของผ
ยของพระบาทสมเด
ยของพระองค
ยของพระเจ
ยของร
ยของสมเด
ยขอนแก
ยค
ยคต
ยคร
ยคอมมอนส
ยง
ยงก
ยงกล
ยงการออกเส
ยงข
ยงของ
ยงค
ยงคนเด
ยงคร
ยงคำ
ยงคำคมเด
ยงจ
ยงช
ยงชน
ยงซ
ยงด
ยงดนตร
ยงดาว
ยงต
ยงตามลำด
ยงถ
ยงท
ยงทอง
ยงธรรม
ยงน
ยงบ
ยงป
ยงประชามต
ยงผ
ยงพ
ยงพย
ยงพระองค
ยงพอ
ยงพอท
ยงพากย
ยงภาษาญ
ยงม
ยงมากท
ยงย
ยงร
ยงระด
ยงราย
ยงล
ยงลำด
ยงลำพ
ยงว
ยงศ
ยงส
ยงสป
ยงสระ
ยงสา
ยงห
ยงหน
ยงหร
ยงหล
ยงอ
ยงอย
ยงฮ
ยงเก
ยงเข
ยงเจ
ยงเช
ยงเด
ยงเท
ยงเป
ยงเพ
ยงเม
ยงเร
ยงเล
ยงเส
ยงเหน
ยงแก
ยงแค
ยงแต
ยงแสน
ยงแห
ยงโด
ยงโดย
ยงใจย
ยงใด
ยงใต
ยงให
ยงใหม
ยงไกร
ยงได
ยงไม
ยงไว
ยงไฮ
ยจ
ยจะม
ยช
ยชนะ
ยชนะเหน
ยซ
ยญ
ยญกษาปณ
ยญจ
ยญช
ยญด
ยญท
ยญทอง
ยญทองแดง
ยญธรรม
ยญบรมราชาภ
ยญพ
ยญร
ยญรางว
ยญราชการชายแดน
ยญล
ยญสหร
ยญเง
ยญโอล
ยณอาย
ยด
ยดก
ยดช
ยดด
ยดต
ยดท
ยดนาม
ยดนามเหน
ยดนามใต
ยดม
ยดส
ยดอ
ยดาย
ยดเก
ยดเบ
ยดเป
ยต
ยตท
ยตะว
ยตได
ยถ
ยท
ยทร
ยธ
ยธรรม
ยธรรมศาสตร
ยธรรมาธ
ยธาน
ยน
ยนก
ยนกร
ยนกล
ยนกลาง
ยนการ
ยนการสอน
ยนข
ยนค
ยนคร
ยนจ
ยนจาก
ยนช
ยนชน
ยนซ
ยนด
ยนต
ยนถ
ยนท
ยนทอง
ยนทางมาท
ยนน
ยนนวน
ยนนวม
ยนนา
ยนนานาชาต
ยนนายร
ยนนายเร
ยนบ
ยนบท
ยนบทภาพยนตร
ยนบทโดย
ยนป
ยนปร
ยนประถมศ
ยนผ
ยนฝ
ยนพ
ยนพรรคการเม
ยนพระปร
ยนฟ
ยนภาษาอ
ยนม
ยนมา
ยนมาร
ยนมาเป
ยนมาใช
ยนย
ยนร
ยนระด
ยนราชว
ยนราษฎร
ยนล
ยนลำด
ยนว
ยนศ
ยนศร
ยนส
ยนสตร
ยนสวนก
ยนสาธ
ยนสำหร
ยนห
ยนหญ
ยนหน
ยนหร
ยนหล
ยนอ
ยนอน
ยนอย
ยนอร
ยนฮ
ยนา
ยนาท
ยนานาชาต
ยนเก
ยนเกมส
ยนเข
ยนเคร
ยนเจ
ยนเช
ยนเซนต
ยนเด
ยนเต
ยนเตร
ยนเท
ยนเทพศ
ยนเน
ยนเป
ยนเพ
ยนเม
ยนเร
ยนเรศวร
ยนเล
ยนเส
ยนแบบ
ยนแปลง
ยนแปลงการปกครอง
ยนแปลงช
ยนแปลงฐานะของส
ยนแปลงท
ยนแปลงร
ยนแปลงอย
ยนแปลงเขตตำบลในท
ยนแผ
ยนแพทย
ยนแล
ยนแห
ยนแอร
ยนโจว
ยนโดย
ยนโรงเร
ยนในจ
ยนในป
ยนในส
ยนในโรงเร
ยนให
ยนใหญ
ยนใหม
ยนได
ยนไป
ยนไปเป
ยนไปใช
ยนไม
ยนไว
ยบ
ยบก
ยบข
ยบง
ยบด
ยบท
ยบน
ยบบร
ยบพล
ยบภาษาจ
ยบภาษาบาล
ยบภาษาส
ยบภาษาเขมร
ยบร
ยบว
ยบเค
ยบเท
ยบเป
ยบเร
ยบเสม
ยบเหม
ยบได
ยบไม
ยป
ยประช
ยประมาณ
ยผ
ยฝ
ยพ
ยพงษ
ยพร
ยพระบาทสมเด
ยพระเจ
ยพล
ยพะเยา
ยฟ
ยภ
ยภาษ
ยภาษาอ
ยม
ยมก
ยมข
ยมค
ยมความพร
ยมงคล
ยมจ
ยมจากว
ยมช
ยมซ
ยมณ
ยมด
ยมต
ยมถ
ยมท
ยมน
ยมบ
ยมประเพณ
ยมปล
ยมปากแม
ยมผ
ยมพ
ยมพร
ยมม
ยมมากท
ยมย
ยมร
ยมล
ยมว
ยมส
ยมสำหร
ยมห
ยมหร
ยมหาจ
ยมหาสารคาม
ยมอ
ยมอย
ยมาก
ยมากกว
ยมเข
ยมเช
ยมเป
ยมเพ
ยมเย
ยมเร
ยมเล
ยมแห
ยมโซเว
ยมใช
ยมในหม
ยมให
ยมได
ยมไว
ยย
ยยศ
ยยศเป
ยร
ยรต
ยรส
ยระหว
ยราชภ
ยราชวงศ
ยรามคำแหง
ยล
ยลล
ยว
ยวก
ยวข
ยวค
ยวงศ
ยวงษ
ยวจ
ยวจากว
ยวช
ยวชาญ
ยวชาญด
ยวซ
ยวด
ยวต
ยวถ
ยวท
ยวน
ยวบ
ยวป
ยวผ
ยวพ
ยวม
ยวย
ยวร
ยวรม
ยวล
ยวว
ยวส
ยวห
ยวหน
ยวหร
ยวอ
ยวอย
ยวะ
ยวะท
ยวะส
ยวเข
ยวเช
ยวเท
ยวเน
ยวเป
ยวเพ
ยวเม
ยวเล
ยวเส
ยวเหล
ยวเอ
ยวแก
ยวและก
ยวแห
ยวโต
ยวให
ยวได
ยวไม
ยศ
ยศย
ยศร
ยศาสตร
ยส
ยสงขลานคร
ยสงคราม
ยสงฆ
ยสต
ยสท
ยสม
ยสมรภ
ยสมเด
ยสำค
ยสำหร
ยห
ยหน
ยหร
ยหล
ยหว
ยหาย
ยหายต
ยหายท
ยหายอย
ยหายแก
ยอ
ยอง
ยอด
ยอดจำหน
ยอดน
ยอดผ
ยอดร
ยอดเย
ยอน
ยอม
ยอมร
ยอมแพ
ยอมให
ยอย
ยอร
ยออกซฟอร
ยอา
ยอาคเนย
ยอำนาจตามความในมาตรา
ยฮ
ยฮาร
ยฯ
ยะ
ยะก
ยะร
ยะลา
ยะห
ยะฮ
ยา
ยาก
ยากท
ยากร
ยาค
ยาง
ยางค
ยาช
ยาซ
ยาซาก
ยาด
ยาต
ยาท
ยาน
ยาบ
ยาปฏ
ยาภรณ
ยาม
ยามช
ยามท
ยามว
ยามะ
ยามใน
ยาย
ยายช
ยายท
ยายว
ยายเร
ยาร
ยาราม
ยาล
ยาว
ยาวท
ยาวประมาณ
ยาส
ยาห
ยาอ
ยาเคม
ยาเสพต
ยเก
ยเกษตรศาสตร
ยเข
ยเคมบร
ยเง
ยเจ
ยเจร
ยเฉล
ยเช
ยเซ
ยเด
ยเต
ยเตอร
ยเท
ยเทคน
ยเทคโนโลย
ยเน
ยเป
ยเปร
ยเพ
ยเม
ยเยาว
ยเร
ยเล
ยเส
ยเหน
ยเหม
ยเหล
ยเอ
ยแก
ยแคล
ยแชมป
ยแต
ยแปซ
ยแพทยศาสตร
ยแม
ยแรก
ยแล
ยและนว
ยและพ
ยและอ
ยและเฮอร
ยแห
ยแอร
ยโก
ยโน
ยโบราณ
ยโลก
ยใจ
ยใช
ยใต
ยใน
ยในช
ยในป
ยในว
ยในโอล
ยให
ยใหม
ยได
ยไป
ยไปย
ยไม
ยไว
ร
รก
รงค
รจ
รช
รญาณ
รญาณวโรรส
รณ
รณปฏ
รณรงค
รณะ
รณะว
รณาการ
รณาญาส
รด
รต
รตซ
รถ
รถจ
รถด
รถต
รถถ
รถท
รถบรรท
รถยนต
รถไฟ
รถไฟช
รถไฟท
รถไฟฟ
รถไฟใต
รท
รน
รนต
รนาร
รบ
รบก
รพ
รพงษ
รพล
รพา
รฟม
รภ
รม
รมงก
รมย
รย
รร
รว
รวงศ
รวด
รวดเร
รวม
รวมก
รวมต
รวมถ
รวมท
รวมผลสองน
รวมร
รวมศ
รวมอย
รวมอาย
รวมเข
รวมเป
รวมเร
รวมไปถ
รศ
รษะ
รส
รสชาต
รห
รอ
รอง
รองชนะเล
รองนายกร
รองผ
รองร
รองศาสตราจารย
รองห
รองอ
รองอธ
รองเจ
รองเท
รองเลขาธ
รองแชมป
รอด
รอดช
รอดพ
รอตเทนโทเมโทส
รอน
รอบ
รอบก
รอบค
รอบช
รอบต
รอบท
รอบรองชนะเล
รอบส
รอบเพลย
รอบแบ
รอบแพ
รอบแรก
รอย
รอว
รอาน
รอานภาษาไทย
รอเบ
ระ
ระก
ระกา
ระฆ
ระง
ระงะนะ
ระช
ระด
ระท
ระน
ระนอง
ระบ
ระบบ
ระบบข
ระบบควบค
ระบบท
ระบบน
ระบบปฏ
ระบบส
ระบบสถ
ระพ
ระม
ระย
ระยอง
ระยะ
ระยะท
ระยะทาง
ระยะทางประมาณ
ระยะห
ระยะหน
ระล
ระว
ระศ
ระส
ระหว
ระเบ
รา
ราก
รากศ
รากอ
ราค
ราคา
ราคาถ
ราคาส
ราง
รางว
ราช
ราชก
ราชการ
ราชดำเน
ราชท
ราชน
ราชนาว
ราชบ
ราชพยาบาล
ราชมงคล
ราชย
ราชร
ราชว
ราชวงศ
ราชส
ราชสก
ราชสมบ
ราชสำน
ราชอาณาจ
ราชฯ
ราชา
ราชาธ
ราชาภ
ราชเจ
ราซ
ราด
ราตร
ราน
ราบ
ราบล
ราบส
ราฟาเอล
ราม
รามาธ
ราย
รายการ
รายการท
รายการน
รายการแข
รายการโทรท
รายงานข
รายงานว
รายงานสถ
รายช
รายละเอ
รายว
รายส
รายได
ราร
ราล
ราลงกรณ
ราว
ราวก
ราวป
ราศ
ราษฎร
ราห
ราอ
ราเซ
รำล
รเกล
รเดช
ฤ
ฤกษ
ฤด
ฤทธ
ฤๅษ
ล
ลก
ลกร
ลกรรต
ลกรรมวาจกป
ลกรรมวาจกอด
ลกระหม
ลกล
ลกลางทางว
ลกอร
ลกากร
ลการ
ลการจำแนกพ
ลข
ลของ
ลของน
ลของพ
ลของส
ลค
ลคร
ลง
ลงช
ลงต
ลงท
ลงทะเบ
ลงม
ลงมต
ลงร
ลงว
ลงสม
ลงเขาในโอล
ลงเร
ลงเล
ลงแข
ลจ
ลจอมเกล
ลจาก
ลช
ลชนะเล
ลชมเชย
ลซ
ลด
ลดลง
ลดอร
ลดา
ลต
ลตร
ลถ
ลท
ลทร
ลทรรศน
ลธรรม
ลน
ลนาฏราช
ลนาม
ลบ
ลบอร
ลป
ลปกรรม
ลปกรรมศาสตร
ลประชากร
ลปว
ลปศาสตร
ลปศาสตรบ
ลปอาชา
ลปะ
ลปะการต
ลปะการแสดง
ลปะท
ลปะสม
ลปะอ
ลปะและว
ลปากร
ลปาคม
ลผ
ลพ
ลพบ
ลพระกร
ลพระเจ
ลพาท
ลพาราล
ลฟ
ลฟอนโซท
ลภ
ลภาพยนตร
ลภาษาถ
ลม
ลมาดร
ลมาร
ลย
ลยา
ลยาณ
ลยาณม
ลยเดช
ลยเดชมหาราช
ลยแพทย
ลร
ลรองชนะเล
ลระหว
ลล
ลลภ
ลลอห
ลลอฮ
ลละอองธ
ลลา
ลลาร
ลลำด
ลว
ลวงศ
ลวา
ลวาดอร
ลศ
ลส
ลสงคราม
ลสำหร
ลห
ลหน
ลหร
ลหล
ลอ
ลอง
ลอตต
ลอน
ลอนดอน
ลอย
ลอยด
ลอร
ลอว
ลอส
ลอสแอนเจล
ลออสการ
ลฮ
ละ
ละกล
ละข
ละค
ละคน
ละคร
ละครช
ละครเร
ละครเวท
ละครโทรท
ละจ
ละช
ละชน
ละด
ละต
ละท
ละน
ละบ
ละป
ละประเทศ
ละฝ
ละม
ละร
ละว
ละส
ละหน
ละเขตเล
ละเซลล
ละเม
ละเอ
ละแห
ลา
ลาก
ลากจากข
ลากจากตะว
ลาการ
ลาการศาลร
ลาคม
ลาจาร
ลาซ
ลาด
ลาต
ลาท
ลาน
ลานนท
ลาม
ลาย
ลาร
ลาฤกษ
ลาล
ลาว
ลาศ
ลาส
ลาสเวก
ลาออก
ลาออกจากตำแหน
ลาเดลเฟ
ลำ
ลำด
ลำต
ลำน
ลำปาง
ลำพ
ลำไส
ลเก
ลเกล
ลเข
ลเง
ลเจ
ลเช
ลเซ
ลเด
ลเดมาร
ลเดอร
ลเท
ลเทนน
ลเทอร
ลเบ
ลเบร
ลเบอร
ลเป
ลเพ
ลเฟรด
ลเม
ลเมเน
ลเร
ลเล
ลเลน
ลเลอร
ลเว
ลเวอร
ลเวเน
ลเส
ลเหต
ลเหร
ลเหล
ลเอ
ลเฮ
ลเฮล
ลแก
ลแกรมม
ลแกเร
ลแบ
ลแบร
ลแมปส
ลแรก
ลแห
ลโด
ลโทรท
ลโล
ลโอล
ลใน
ลในตาราง
ลในป
ลในเซลล
ลในแต
ลให
ลใหญ
ลใหม
ลไซเมอร
ลได
ลไทย
ลไม
ฦ
ว
วก
วกร
วกระต
วกล
วกว
วการ
วข
วของ
วของด
วของต
วของท
วของน
วของผ
วของม
วของเขา
วของโคว
วขาว
วค
วคร
วคราว
วคล
วคาสเซ
วง
วงก
วงการบ
วงข
วงค
วงคร
วงจ
วงช
วงซ
วงด
วงดนตร
วงต
วงท
วงทศวรรษ
วงทศวรรษท
วงน
วงบ
วงป
วงปลายคร
วงปลายป
วงปลายเด
วงพ
วงม
วงมาตรฐาน
วงย
วงร
วงระหว
วงฤด
วงล
วงละเม
วงว
วงศ
วงศตวรรษท
วงษ
วงส
วงสงครามโลกคร
วงสม
วงห
วงหน
วงหล
วงอ
วงอาย
วงาม
วงเข
วงเช
วงเด
วงเป
วงเร
วงเว
วงเวลา
วงเวลาด
วงเวลาท
วงเวลาน
วงเวลาส
วงเวลาเด
วงแบบจ
วงแบบหนง
วงแรก
วงได
วจ
วจร
วจะม
วจะเป
วจะได
วฉ
วช
วซ
วณ
วด
วดำ
วดำเน
วต
วตน
วตร
วตรอน
วตาย
วถ
วท
วทรงพระกร
วทอง
วทำให
วน
วนก
วนกล
วนกลาง
วนข
วนของ
วนของร
วนของหม
วนค
วนคำว
วนจ
วนช
วนซ
วนด
วนต
วนตำบล
วนตำบลท
วนตำบลบ
วนถ
วนท
วนน
วนบ
วนบร
วนป
วนประกอบท
วนผ
วนพ
วนพระมหากษ
วนพระองค
วนภ
วนม
วนมาก
วนมากม
วนมากเป
วนย
วนร
วนรวม
วนราชการ
วนราชการท
วนล
วนว
วนส
วนสำค
วนห
วนหน
วนหร
วนหล
วนอ
วนอย
วนะ
วนำยวดย
วนเก
วนเจ
วนเป
วนเพ
วนเม
วนเร
วนเส
วนแต
วนแทรก
วนแบ
วนแล
วนให
วนใหญ
วนได
วบ
วบร
วบา
วบาน
วป
วปร
วประก
วประมาณ
วประว
วประเทศ
วปล
วผ
วผล
วฝ
วพ
วพร
วพระองค
วพระเจ
วฟ
วภ
วภาพ
วม
วมก
วมกล
วมการแข
วมข
วมค
วมคนส
วมงาน
วมงานก
วมจ
วมช
วมด
วมต
วมถ
วมท
วมน
วมบ
วมประช
วมประชาธ
วมผล
วมพ
วมม
วมร
วมรากก
วมส
วมสม
วมห
วมอ
วมอย
วมาก
วมากกว
วมเข
วมเช
วมเด
วมเป
วมเพศ
วมเล
วมแข
วย
วยก
วยกฎหมาย
วยกล
วยการค
วยการจ
วยการต
วยการท
วยการบร
วยการป
วยการพ
วยการย
วยการร
วยการส
วยการเข
วยการเป
วยการเล
วยการใช
วยการให
วยกำล
วยข
วยค
วยความช
วยความท
วยความม
วยความร
วยความส
วยความเป
วยความเร
วยคะแนน
วยคะแนนเส
วยงาน
วยงานของร
วยงานต
วยงานท
วยงานอ
วยจ
วยช
วยซ
วยด
วยต
วยตนเอง
วยตาเปล
วยถ
วยท
วยทำให
วยน
วยนม
วยบ
วยบร
วยป
วยปฏ
วยปร
วยผ
วยฝ
วยพ
วยพระราชทาน
วยพระราชทานประเภท
วยพระองค
วยพระเจ
วยพล
วยฟ
วยภ
วยม
วยย
วยร
วยระเบ
วยรางว
วยล
วยว
วยศ
วยศาสตราจารย
วยส
วยสมาช
วยสร
วยห
วยหน
วยหม
วยหร
วยหล
วยอ
วยองค
วยอน
วยอย
วยอร
วยอาย
วยอาว
วยอำเภอเม
วยเก
วยเข
วยเคร
วยเง
วยเจ
วยเช
วยเด
วยเต
วยเท
วยเน
วยเป
วยเพ
วยเพลง
วยเม
วยเร
วยเล
วยเลขาน
วยเส
วยเหต
วยเหล
วยแก
วยแต
วยแปลข
วยแม
วยแล
วยโรคมะเร
วยให
วยไข
วยได
วยไม
วยไว
วร
วรน
วรพ
วรรค
วรรคสอง
วรรคสาม
วรรคหน
วรรณ
วรรณค
วรรณคด
วรรณภ
วรว
วราชอาณาจ
วล
วลง
วละคร
วละครจากการ
วละครจากเร
วละครต
วละครท
วละครน
วละครหล
วลาด
วลาล
วลำภ
วลำโพง
วว
วศ
วส
วสต
วสร
วสำหร
วห
วหน
วหนา
วหม
วหมาก
วหร
วหล
วอ
วอก
วอช
วอน
วอย
วอยซ
วอร
วอล
วอลล
วอลเตอร
วอลเลย
วอาย
วฮ
วะ
วะระ
วา
วาก
วาง
วางจำหน
วางใจ
วางไข
วางไว
วาจกป
วาจกอด
วาจกอนาคตกาลพห
วาจกอนาคตกาลเอกพจน
วาซ
วาด
วาดร
วาต
วาท
วาทก
วาน
วาย
วาร
วาระ
วาล
วาส
วาสราชนคร
วาห
วเก
วเข
วเขา
วเขาก
วเคม
วเคร
วเคล
วเง
วเจ
วเจอร
วเฉ
วเช
วเซ
วเซอร
วเด
วเดล
วเต
วเตมาลา
วเตอร
วเท
วเน
วเบ
วเป
วเปล
วเพ
วเม
วเร
วเรซ
วเราะ
วเล
วเลข
วเลขท
วเว
วเส
วเสด
วเสร
วเห
วเหน
วเหม
วเหล
วเอ
วเอกของเร
วเอง
วเองก
วเองท
วเองว
วเองอย
วเองเป
วเองให
วเองได
วเอน
วเอเช
วแก
วแดง
วแต
วแทน
วแทนท
วแน
วแปร
วแม
วแล
วและม
วแห
วโก
วโคน
วโนสไอเรส
วโปรดเกล
วโมง
วโมงต
วโลก
วโลกท
วโลกเหน
วโลกใต
วใจ
วใจท
วใจล
วใจเต
วใช
วใน
วในช
วในตอนท
วในท
วในป
วในภาพยนตร
วในว
วใส
วให
วใหญ
วใหม
วได
วไป
วไปก
วไปค
วไปด
วไปท
วไปน
วไปม
วไปย
วไปว
วไปอย
วไปเป
วไปแล
วไปได
วไม
วไว
วไหล
วๆ
ศ
ศก
ศการแข
ศจ
ศจรรย
ศณ
ศด
ศดอตอ
ศต
ศตวรรษ
ศตวรรษท
ศตะว
ศท
ศทาง
ศทางท
ศทางเด
ศน
ศนคต
ศนศ
ศนา
ศพ
ศฟ
ศม
ศย
ศร
ศรา
ศรางก
ศราน
ศล
ศลท
ศว
ศวกร
ศวกรรม
ศวกรรมศาสตร
ศวกรรมเคร
ศวกรรมไฟฟ
ศวร
ศวาส
ศศ
ศส
ศหล
ศอ
ศอก
ศา
ศาจ
ศาจท
ศาล
ศาลจ
ศาลฎ
ศาลม
ศาลร
ศาลส
ศาลอ
ศาลาการเปร
ศาลเจ
ศาสตร
ศาสตรบ
ศาสตราจารย
ศาสน
ศาสนา
ศาสนาคร
ศาสนาพ
ศาสนาอ
ศเหน
ศโมโจ
ศใต
ศให
ศได
ษ
ษจ
ษฎ
ษฎากร
ษฏ
ษฐ
ษฐา
ษฐาธ
ษฐาน
ษฐานท
ษฐานพระพ
ษฐานว
ษฐานอย
ษฐานไว
ษณ
ษต
ษท
ษน
ษผ
ษย
ษยชน
ษยชาต
ษยว
ษยศาสตร
ษยา
ษร
ษส
ษา
ส
สก
สกร
สกรรม
สกล
สกลนคร
สกว
สกอตต
สกอตแลนด
สกอร
สกายวอล
สการ
สข
สค
สคร
สง
สงกรานต
สงขลา
สงคราม
สงครามกลางเม
สงครามคร
สงครามอ
สงครามโลกคร
สงฆ
สงบ
สงส
สจ
สจาก
สช
สซ
สซา
สด
สดาร
สต
สตกาล
สตจ
สตธรรมค
สตร
สตอร
สตา
สตางค
สตาด
สตาฟ
สตาร
สตาล
สถ
สถาน
สถานกงส
สถานการณ
สถานท
สถานศ
สถานะเป
สถานเอกอ
สถาบ
สถาป
สถาปน
สท
สทร
สน
สนธ
สนาม
สนามก
สนามท
สนามบ
สนามฟ
สนามหลวง
สนามเหย
สนามแข
สนามแม
สนามแห
สนใจ
สบ
สบด
สบอน
สบาย
สป
สปร
สประเทศ
สปอร
สปาร
สผ
สพ
สพฐ
สพป
สฟ
สภา
สภาจ
สภาท
สภาน
สภาผ
สภาพท
สภาพภ
สภาพเป
สภาพแวดล
สภามหาว
สภาว
สม
สมก
สมค
สมควร
สมชาย
สมด
สมบ
สมผล
สมพงษ
สมม
สมมต
สมร
สมรภ
สมรส
สมรสก
สมศ
สมอง
สมอร
สมาคมก
สมาคมน
สมาคมฟ
สมาช
สมาธ
สมาน
สมาพ
สมาร
สมาอ
สมเก
สมเด
สมเหต
สย
สยองขว
สยา
สยาม
สยามก
สยามบรมราชก
สยามมก
สยามร
สยามสปอร
สยามอ
สยามโซน
สร
สรณ
สรภาพ
สรรพค
สรรเสร
สรอฟ
สระ
สระท
สระน
สระบ
สระแก
สรา
สราเอล
สราเอลท
สฤษด
สล
สละแชมป
สลาม
สลามอ
สว
สวด
สวน
สวนส
สวมเส
สวมใส
สวย
สวยงาม
สวรรค
สวรรคต
สส
สสร
สสะ
สสาวะ
สสำหร
สห
สหประชาชาต
สหพ
สหภาพย
สหภาพโซเว
สหร
สหราชอาณาจ
สหว
สอ
สอง
สองก
สองข
สองค
สองคร
สองช
สองต
สองท
สองน
สองป
สองพ
สองม
สองร
สองว
สองส
สองเป
สองไม
สอด
สอดคล
สอน
สอนว
สอบได
สอบไล
สอย
สอร
สะ
สะกดผ
สะด
สะดวก
สะต
สะท
สะพาน
สะพานข
สะพานม
สะอาด
สะเกษ
สะเท
สะใภ
สา
สากล
สาขบ
สาขา
สาขาท
สาขาน
สาขาภาพยนตร
สาขาย
สาขาร
สาขาว
สาขาศ
สาขาส
สาคร
สาธ
สาธารณร
สาธารณส
สาธารณะ
สาน
สาม
สามก
สามของ
สามช
สามต
สามท
สามป
สามม
สามส
สามารถ
สามารถก
สามารถข
สามารถค
สามารถคว
สามารถควบค
สามารถจ
สามารถช
สามารถด
สามารถดำเน
สามารถต
สามารถถ
สามารถท
สามารถทำให
สามารถทำได
สามารถบ
สามารถป
สามารถปฏ
สามารถปร
สามารถผ
สามารถผล
สามารถพ
สามารถพบได
สามารถม
สามารถมองเห
สามารถย
สามารถร
สามารถรองร
สามารถระบ
สามารถว
สามารถส
สามารถสร
สามารถหมายถ
สามารถอ
สามารถอธ
สามารถเก
สามารถเข
สามารถเคล
สามารถเด
สามารถเป
สามารถเปล
สามารถเร
สามารถเล
สามารถแก
สามารถแบ
สามารถใช
สามารถให
สามเณร
สามเหล
สามเอกพจน
สาย
สายการบ
สายท
สายน
สายพ
สายฟ
สายล
สายส
สาร
สารคด
สารต
สารท
สารบ
สารพ
สารว
สารส
สารสนเทศ
สารสนเทศและการส
สาระน
สาราน
สารเคม
สาล
สาว
สาวน
สาวร
สาวๆ
สาหก
สาหร
สาเหต
สำค
สำน
สำนวน
สำมะโนของสาธารณร
สำร
สำราญ
สำหร
สำเน
สำเนาท
สำเร
สเก
สเข
สเช
สเซ
สเซลล
สเซลส
สเซอร
สเซา
สเต
สเตช
สเตต
สเตฟาน
สเตร
สเตอร
สเตเด
สเท
สเบ
สเป
สเปน
สเปเช
สเพ
สเม
สเร
สเล
สเว
สเอ
สแก
สแกรนด
สแควร
สแต
สแลม
สแห
สโก
สโคโรนา
สโตน
สโตร
สโตเฟอร
สโมสร
สโมสรก
สโมสรท
สโมสรฟ
สโมสรโลก
สโมสรได
สโลว
สโลวาเก
สโสล
สให
สได
สไตน
สไตล
สไทยแลนด
สไปเดอร
สไม
ห
หก
หง
หงษ
หงส
หญ
หน
หนองคาย
หนองบ
หนา
หนาน
หนาม
หนาว
หนาแน
หม
หมด
หมดส
หมดอาย
หมวด
หมวดท
หมวดหม
หมอช
หมอบร
หมา
หมากร
หมาป
หมายความว
หมายถ
หมายเลข
หมายเหต
หย
หยวน
หยาง
หร
หล
หลง
หลงร
หลงเหล
หลบหน
หลวง
หลวงจ
หลวงป
หลวงพ
หลวงพระบาง
หลวงว
หลวงส
หลอดเล
หลา
หลากหลาย
หลาน
หลาบ
หลาบว
หลาย
หลายคน
หลายคร
หลายช
หลายชน
หลายต
หลายท
หลายป
หลายร
หลายว
หลายส
หลายสม
หลายอย
หลายเร
หลายแห
หว
หวง
หวาน
หอ
หอประช
หอพ
หอม
หอระฆ
หอศ
หอสม
หอสวดมนต
หอเก
หะระต
หา
หาก
หากค
หากต
หากผ
หากม
หากว
หากเป
หากแต
หากไม
หาความหมาย
หาง
หาดใหญ
หาน
หาบ
หาม
หาย
หายต
หายไป
หาร
หารก
หารการทะเบ
หารการศ
หารจ
หารด
หารท
หารธ
หารน
หารพ
หารพรรค
หารม
หารร
หารระด
หารราชการแผ
หารราชการในสถานการณ
หารว
หารศาสตร
หารส
หารอ
หารเป
หารแห
หาได
ฬ
ฬา
ฬากร
ฬาข
ฬาจ
ฬาซ
ฬาต
ฬาท
ฬาน
ฬาพาราล
ฬาฟ
ฬาภรณ
ฬาภรณราชว
ฬาภรณวล
ฬามหาว
ฬาย
ฬาร
ฬาล
ฬาลงกรณ
ฬาลงกรณราชว
ฬาว
ฬาวอลเลย
ฬาสก
ฬาสม
ฬาอ
ฬาฮอกก
ฬาฯ
ฬาเข
ฬาเทคว
ฬาเร
ฬาเวมบล
ฬาเอเช
ฬาแห
ฬาโลก
ฬาโลกมหาราช
ฬาโอล
ฬาในร
อ
อก
อกก
อกข
อกค
อกช
อกซ
อกด
อกต
อกท
อกน
อกบ
อกปฏ
อกผ
อกพ
อกพาราล
อกม
อกร
อกรก
อกรรม
อกระด
อกระต
อกระหว
อกล
อกว
อกษ
อกส
อกห
อกหน
อกอ
อกองท
อกอย
อการ
อการก
อการกำเร
อการค
อการจ
อการดำเน
อการต
อการถ
อการท
อการน
อการบ
อการบร
อการป
อการปฏ
อการพ
อการย
อการร
อการว
อการศ
อการส
อการสร
อการอ
อการเก
อการเข
อการเป
อการเปล
อการเร
อการเล
อการแข
อการใช
อการให
อกำจ
อกำป
อกำล
อกำเน
อกเก
อกเกอร
อกเข
อกเขาห
อกเขาแอลป
อกเซลล
อกเตอร
อกเป
อกเพ
อกเร
อกแข
อกและเคร
อกโก
อกโฮล
อกใช
อกให
อกได
อกไม
อข
อขนาดใหญ
อของ
อของจ
อของต
อของท
อของน
อของบ
อของผ
อของม
อของร
อของล
อของว
อของส
อของอ
อของเขา
อของเม
อขอให
อขาย
อค
อคก
อคณะร
อคด
อคต
อคนท
อคนแรก
อคร
อครอบคร
อคล
อควบค
อความ
อความก
อความด
อความต
อความท
อความน
อความปลอดภ
อความผ
อความม
อความร
อความว
อความส
อความสำหร
อความอ
อความเข
อความเช
อความเป
อความเส
อความในย
อความให
อความไม
อคอล
อคำว
อคำส
อคแมน
อฆ
อง
องก
องกง
องกร
องกระส
องกล
องกว
องกาญจนบ
องการ
องการค
องการจ
องการต
องการถอดอ
องการท
องการพ
องการร
องการส
องการสร
องการอ
องการเป
องการเพ
องการแปลเป
องการใช
องการให
องการได
องกาฬส
องกำเน
องข
องขอ
องของ
องของว
องขอนแก
องขอให
องค
องคด
องคมนตร
องคร
องคล
องควบค
องความ
องคอมพ
องคำน
องจ
องจร
องจราจร
องจาก
องจากข
องจากค
องจากช
องจากต
องจากถ
องจากท
องจากน
องจากป
องจากผ
องจากพ
องจากม
องจากย
องจากร
องจากว
องจากส
องจากอ
องจากเก
องจากเน
องจากเป
องจากเหต
องจากได
องจากไม
องช
องชลบ
องชาย
องชาวอ
องชาวอเมร
องชาวเกาหล
องชาวไทย
องซ
องฌ
องด
องดนตร
องดำเน
องต
องตร
องตระก
องตะนาวศร
องตาก
องถ
องท
องทร
องทอง
องทองธาน
องทำให
องธ
องน
องนคร
องนครจำปาศ
องนครพนม
องนครราชส
องนครศร
องนนทบ
องนางเธอ
องนำ
องบ
องบร
องป
องปกต
องปฏ
องปร
องประช
องประด
องประสาน
องประสานเส
องปล
องผ
องฝ
องฝร
องพ
องพบก
องพร
องพระพ
องพล
องพะเยา
องฟ
องภ
องม
องมร
องมะร
องมาก
องย
องยนต
องยาเธอ
องยโสธร
องร
องระด
องระนอง
องระวางโทษจำค
องระวางโทษปร
องระหว
องราชบ
องราชอ
องราว
องราวของ
องราวต
องราวท
องราวเก
องล
องลพบ
องลำปาง
องลำพ
องว
องศ
องศร
องศา
องศาตะว
องศาเซลเซ
องศาเหน
องศาใต
องส
องสกลนคร
องสงขลา
องสงส
องสต
องสนามหลวง
องสม
องสร
องสว
องสอน
องสามก
องสาว
องสำค
องสำหร
องสำอาง
องห
องหญ
องหน
องหนองคาย
องหม
องหมาย
องหมายการค
องหย
องหร
องหล
องหลวง
องหลวงของจ
องหลวงของร
องหลวงพระบาง
องอ
องอย
องอาศ
องอเมร
องฮ
องเก
องเข
องเคร
องเคล
องเง
องเจ
องเช
องเซ
องเซลล
องเด
องเต
องเถ
องเท
องเน
องเป
องเปล
องเผช
องเพ
องเพชรบ
องเพลง
องเพลงล
องเม
องเร
องเล
องเลย
องเว
องเส
องเสร
องเหน
องเหม
องเหล
องเอ
องแก
องแข
องแคล
องแจ
องแต
องแบ
องแพร
องแม
องแร
องแรก
องแรกค
องแรกท
องแล
องและน
องและส
องแสง
องแห
องโดย
องโทรท
องโทรทรรศน
องโบราณ
องใช
องใด
องใต
องใน
องในจ
องในช
องในป
องในร
องในว
องในโอกาสพระราชพ
องใส
องให
องใหญ
องใหม
องไซ
องได
องไทย
องไทรบ
องไม
องไว
องไห
อจ
อจร
อจะต
อจะม
อจะให
อจะได
อจาก
อจากท
อจากน
อจำก
อจำหน
อฉ
อฉบ
อช
อชน
อชาต
อซ
อญ
อญาต
อด
อดด
อดต
อดท
อดน
อดม
อดร
อดส
อดอล
อดาว
อดำ
อดำน
อดำเน
อดแดง
อต
อตกลงก
อตต
อตร
อตระก
อตามท
อตารางก
อตำแหน
อตแลนด
อถ
อถกเถ
อท
อทร
อทอง
อทางว
อทำหน
อทำให
อธ
อธรรมชาต
อน
อนก
อนกรกฎาคม
อนกล
อนกว
อนการปฏ
อนการแข
อนกำล
อนข
อนค
อนคร
อนจ
อนจร
อนจะกล
อนจะถ
อนจะม
อนจะย
อนจะเป
อนจะได
อนช
อนชางเจ
อนซ
อนด
อนต
อนตำแหน
อนถ
อนท
อนธ
อนน
อนบ
อนบอล
อนป
อนประว
อนผ
อนฝ
อนพ
อนพฤศจ
อนพฤษภาคม
อนภ
อนม
อนมกราคม
อนมน
อนย
อนร
อนรองชนะเล
อนล
อนละ
อนว
อนส
อนสต
อนสน
อนสม
อนห
อนหน
อนหย
อนหร
อนหล
อนอ
อนอย
อนาค
อนาท
อนาม
อนเก
อนเข
อนเจ
อนเช
อนเด
อนเท
อนเน
อนเบ
อนเป
อนเปะอ
อนเพ
อนเพล
อนเม
อนเมษายน
อนเร
อนเล
อนเส
อนแก
อนแต
อนแล
อนแห
อนแอ
อนโยน
อนใจ
อนให
อนไข
อนไขท
อนได
อนไต
อนไม
อนไว
อนไหว
อนไหวท
อนไหวได
อนๆ
อบ
อบกพร
อบจ
อบต
อบถ
อบท
อบบ
อบร
อบรรท
อบส
อบอ
อบางคร
อบางส
อป
อปกป
อปฏ
อปท
อปป
อปร
อประจ
อประชาชน
อประชาธ
อประต
อประท
อประมาณ
อประว
อประเทศ
อประโยคต
อประโยชน
อปล
อปลายป
อผ
อผล
อผลประโยชน
อฝ
อฝร
อพ
อพน
อพยพเข
อพร
อพระท
อพระบาทสมเด
อพระพ
อพระมหากษ
อพระราชบ
อพระวงศ
อพระองค
อพระเจ
อพล
อพาย
อฟ
อภ
อภาพยนตร
อภาษาบาล
อภาษาอ
อภาษาไทยท
อม
อมก
อมข
อมค
อมความกดอากาศต
อมจ
อมฉ
อมช
อมซ
อมด
อมต
อมถ
อมท
อมน
อมบ
อมบำร
อมป
อมผ
อมพ
อมม
อมย
อมร
อมรอบ
อมรอบด
อมระหว
อมราชวงศ
อมล
อมว
อมวลชน
อมศ
อมส
อมสำหร
อมห
อมหญ
อมหน
อมหาว
อมอ
อมอย
อมะเร
อมา
อมาก
อมากกว
อมากลายเป
อมาค
อมาจ
อมาจนถ
อมาจาก
อมาช
อมาต
อมาตยก
อมาตรา
อมาถ
อมาท
อมาน
อมาป
อมาภายหล
อมาม
อมาย
อมาร
อมาว
อมาหล
อมาอ
อมาเขาได
อมาเป
อมาเปล
อมาเม
อมาเร
อมาใน
อมาในการเล
อมาในช
อมาในป
อมาในร
อมาในว
อมาในสม
อมาในเด
อมาได
อมาไม
อมเก
อมเกล
อมเข
อมเจ
อมเป
อมเพ
อมเม
อมเส
อมแล
อมแห
อมโยงก
อมใจก
อมให
อมได
อมไทรอยด
อมไม
อมๆ
อย
อยก
อยกรอง
อยกว
อยกเล
อยกเว
อยข
อยค
อยคน
อยคร
อยคลาน
อยจ
อยช
อยซ
อยด
อยต
อยตร
อยถ
อยท
อยน
อยบ
อยป
อยผ
อยพ
อยพระจ
อยพล
อยม
อยมา
อยมาก
อยย
อยร
อยล
อยลง
อยละ
อยว
อยส
อยห
อยหน
อยหร
อยอ
อยอย
อยออกเป
อยากเป
อยากให
อยเก
อยเช
อยเท
อยเป
อยเพ
อยเม
อยเร
อยเอ
อยเอก
อยแก
อยแล
อยแห
อยโท
อยให
อยใหญ
อยได
อยไป
อยไม
อยๆ
อร
อรท
อรบ
อรวมก
อรห
อรองร
อระด
อระบ
อระล
อระหว
อระเบ
อรางว
อราชวงศ
อราว
อราษฎร
อฤด
อล
อลชไตน
อละคร
อลำน
อว
อวกาศ
อวงศ
อวอร
อวาดร
อศ
อศาสนาคร
อศาสนาพ
อศาสนาอ
อส
อสก
อสงส
อสด
อสถาน
อสถานการณ
อสถานท
อสถาบ
อสน
อสม
อสมท
อสมาช
อสมเด
อสร
อสหร
อสองส
อสาม
อสายก
อสายจ
อสายอ
อสาร
อสารก
อสารท
อสารมวลชน
อสำค
อสำน
อสำหร
อสำเร
อห
อหญ
อหน
อหม
อหมายเลข
อหย
อหร
อหล
อหลายคร
อหว
อหา
อหาข
อหาต
อหาท
อหาว
อหาหร
อหาเก
ออ
ออก
ออกคำส
ออกจากตำแหน
ออกจากบ
ออกจากเม
ออกจากโปรแกรม
ออกจำหน
ออกฉายคร
ออกฉายเม
ออกฉายในป
ออกซ
ออกท
ออกมา
ออกมาเป
ออกมาได
ออกฤทธ
ออกล
ออกวางจำหน
ออกส
ออกอ
ออกอากาศ
ออกอากาศคร
ออกอากาศต
ออกอากาศท
ออกอากาศทาง
ออกอากาศทางช
ออกอากาศทางสถาน
ออกอากาศว
ออกอากาศเม
ออกเด
ออกเป
ออกเส
ออกแบบ
ออกแบบโดย
ออกไซด
ออกไป
อองค
ออด
ออตโตม
ออธ
ออน
ออนไลน
ออฟ
ออฟฟ
ออย
ออร
ออล
ออลม
ออส
ออสการ
ออสต
ออสเตร
ออสเตรเล
ออะไร
ออาช
ออาณาจ
ออาย
ออาร
ออาว
ออำเภอหน
ออโต
อฮ
อะ
อะก
อะค
อะคาเดม
อะตอม
อะน
อะบ
อะม
อะล
อะห
อะฮ
อะไร
อะไรก
อา
อาก
อากร
อาการ
อาการท
อากาศ
อากาศท
อากาศยาน
อาค
อาคาร
อาคารท
อาคารผ
อาคารเร
อาคารเสนาสนะท
อาจ
อาจก
อาจจะม
อาจจะเป
อาจจะไม
อาจต
อาจถ
อาจทำให
อาจปฏ
อาจม
อาจร
อาจส
อาจหมายถ
อาจารย
อาจเก
อาจเป
อาจเร
อาจใช
อาจได
อาจไม
อาช
อาซ
อาซาฮ
อาญา
อาณ
อาณาจ
อาณาน
อาณาเขตต
อาด
อาดอร
อาต
อาท
อาน
อานนท
อาบ
อาม
อาย
อาร
อารมณ
อาระเบ
อาล
อาว
อาศ
อาส
อาสนว
อาสาสม
อาห
อาหร
อาหาร
อาหารท
อาเจ
อาเซ
อาเซอร
อาเธอร
อาเรนา
อำนวยการ
อำนวยการฝ
อำนวยการศ
อำนวยการสถาบ
อำนวยการสร
อำนวยการสำน
อำนวยการโรงเร
อำนาจ
อำนาจท
อำนาจพ
อำนาจส
อำนาจหน
อำนาจเหน
อำมาตย
อำเภอ
อำเภอก
อำเภอข
อำเภอค
อำเภอจ
อำเภอช
อำเภอด
อำเภอท
อำเภอน
อำเภอบ
อำเภอป
อำเภอพ
อำเภอภ
อำเภอร
อำเภอว
อำเภอศร
อำเภอส
อำเภอห
อำเภอหนองบ
อำเภออ
อำเภอเช
อำเภอเม
อำเภอเว
อำเภอแก
อำเภอแม
อเก
อเกล
อเข
อเขาได
อเคร
อเคล
อเง
อเจ
อเจร
อเฉล
อเช
อเซ
อเซลล
อเด
อเต
อเตร
อเท
อเทศ
อเธอ
อเน
อเบ
อเป
อเปร
อเปล
อเผยแพร
อเพ
อเพล
อเพลง
อเพลงท
อเฟ
อเม
อเมร
อเมเจอร
อเย
อเร
อเล
อเว
อเวนเจอร
อเวลา
อเวลาผ
อเวลาพ
อเศรษฐก
อเส
อเสด
อเสร
อเห
อเหต
อเหน
อเหม
อเหล
อเอ
อเอก
อเฮ
อแก
อแกงล
อแข
อแค
อแคน
อแจ
อแดง
อแต
อแตกต
อแท
อแบ
อแบคท
อแผ
อแผนกศ
อแพ
อแม
อแย
อแร
อแล
อแลกก
อและแม
อแห
อแหล
อโคร
อโจมต
อโต
อโตเต
อโท
อโรค
อโรงเร
อใกล
อใคร
อใช
อใด
อใต
อใน
อในกรณ
อในช
อในท
อในน
อในป
อในร
อในระด
อในว
อในส
อใส
อให
อใหญ
อใหม
อไข
อได
อไทย
อไป
อไปก
อไปด
อไปถ
อไปท
อไปน
อไปย
อไปว
อไปอ
อไปได
อไม
อไร
อไว
อไวร
อไหร
อๆ
ฮ
ฮกเก
ฮย
ฮว
ฮอตสเปอร
ฮอนด
ฮอร
ฮอล
ฮอลล
ฮอว
ฮา
ฮาค
ฮาจ
ฮาช
ฮาน
ฮานอย
ฮาพส
ฮาม
ฮาร
ฮาระ
ฮาล
ฮเย
ฯ
ฯพณฯ
ฯลฯ
ะ
ะต
ั
า
าก
ากร
ากรมข
ากระดาษ
ากล
ากว
ากษ
ากองท
ากาก
าการ
าการก
าการกระทรวงกลาโหม
าการกระทรวงการคล
าการกระทรวงการต
าการกระทรวงคมนาคม
าการกระทรวงพาณ
าการกระทรวงมหาดไทย
าการกระทรวงย
าการกระทรวงว
าการกระทรวงศ
าการกระทรวงสาธารณส
าการกระทรวงอ
าการกระทรวงเกษตรและสหกรณ
าการต
าการท
าการร
าการส
าการใช
ากาว
ากำล
าข
าขนส
าขนาดใหญ
าขว
าของ
าของก
าของข
าของค
าของต
าของท
าของบ
าของบร
าของผ
าของร
าของล
าของว
าของส
าของหร
าของอ
าขาย
าขายก
าขาว
าค
าคงต
าคงท
าคณะจ
าคณะปฏ
าคณะภาค
าคณะร
าคณะใหญ
าคน
าคนท
าคนอ
าคร
าคล
าคว
าควบค
าความร
าความส
าความเป
าคาร
าง
างก
างกร
างกล
างกว
างกองท
างกะท
างกาย
างกายท
างกายมน
างกายได
างการก
างการต
างการพ
างการเด
างการแข
างข
างขวาง
างของ
างของส
างค
างคนต
างคร
างคล
างความร
างความส
างความเส
างคาว
างง
างงาน
างจ
างจร
างจาก
างจากกร
างจากต
างจากท
างจากเม
างฉ
างช
างชน
างชาต
างซ
างด
างดาว
างต
างถ
างถาวร
างท
างทอง
างทาง
างน
างบ
างบน
างบร
างป
างประต
างประมาณ
างประว
างประเทศ
างประเทศท
างประเทศอ
างประเทศเพ
างประเทศได
างปลอดภ
างผ
างฝ
างฝร
างพ
างพร
างพระท
างพระพ
างพระราชบ
างพระราชว
างพระองค
างพล
างฟ
างภ
างภาพ
างภาพยนตร
างม
างมน
างมหาว
างมาก
างมากต
างมากท
างมากมาย
างย
างยอดเย
างยาวนาน
างร
างรวดเร
างระด
างระหว
างรายได
างฤด
างล
างละ
างละเอ
างลำต
างว
างวงศ
างศ
างส
างสงครามโลกคร
างสถ
างสถาน
างสม
างสมบ
างสร
างสรรค
างสรรพส
างสำค
างสำหร
างห
างหน
างหม
างหร
างหล
างหาก
างอ
างองค
างอน
างอย
างออกไป
างอาคาร
างอาคารเร
างอารมณ
างาม
างเก
างเข
างเค
างเคร
างเง
างเจ
างเจด
างเช
างเซลล
างเด
างเต
างเท
างเน
างเป
างเปล
างเผ
างเพ
างเม
างเร
างเล
างเว
างเส
างเสร
างเห
างเหต
างเหน
างเหม
างเหล
างแก
างแข
างแค
างแต
างแท
างแน
างแผ
างแผนภ
างแพร
างแม
างแล
างแห
างโจว
างโดย
างโบสถ
างโรงเร
างโลก
างใกล
างใช
างใด
างใดอย
างใต
างใน
างในช
างในป
างในร
างในสม
างให
างใหญ
างใหม
างไกล
างได
างไทย
างไป
างไม
างไร
างไรก
างไว
างๆ
างๆท
าจ
าจร
าจอ
าจอร
าจะกล
าจะจ
าจะต
าจะถ
าจะทำให
าจะพ
าจะม
าจะย
าจะร
าจะส
าจะสร
าจะอย
าจะเก
าจะเข
าจะเป
าจะเร
าจะใช
าจะให
าจะได
าจะไม
าฉ
าช
าชน
าชม
าชาย
าชายท
าชายน
าชายฟ
าชายม
าชายร
าชายว
าชายส
าชายหล
าชายอ
าชายแห
าชาร
าชาลส
าซ
าซธรรมชาต
าซาร
าด
าดาว
าต
าตร
าตอง
าตา
าตากส
าตามความเหมาะสม
าตาย
าตำแหน
าถ
าท
าทร
าทอง
าทำให
าธ
าธนบ
าธรรมเน
าน
านก
านกร
านกล
านการก
านการค
านการจ
านการต
านการท
านการบร
านการพ
านการร
านการว
านการศ
านการส
านการเง
านการเม
านการแพทย
านการใช
านข
านขวา
านค
านคน
านคนต
านคนท
านคร
านครจำปาศ
านความปลอดภ
านจ
านช
านซ
านด
านดนตร
านดอลลาร
านดาวเท
านต
านตะว
านถ
านท
านทาง
านทาน
านธ
านน
านนอก
านนา
านบ
านบน
านบร
านบาท
านป
านปอนด
านผ
านฝ
านพ
านพร
านพล
านฟ
านภ
านภาล
านภาษาไทย
านม
านมหาสม
านมา
านย
านร
านรอบค
านราชท
านล
านละ
านว
านวรรณกรรม
านศ
านส
านสมเด
านสร
านห
านหญ
านหน
านหม
านหร
านหล
านอ
านอน
านอย
านอาหาร
านฮ
านาน
านาย
านายท
านายฝ
านเก
านเข
านเคร
านเจ
านเช
านเด
านเท
านเทคโนโลย
านเน
านเป
านเผด
านเพ
านเม
านเร
านเล
านเลขท
านเว
านเศรษฐก
านเส
านเห
านเหน
านเหร
านเหล
านแก
านแต
านแผ
านแพ
านแม
านแล
านแห
านแหลม
านโป
านใกล
านใต
านใน
านให
านใหญ
านใหม
านได
านไป
านไปย
านไผ
านไม
านไร
านไว
าบ
าบร
าบรมวงศ
าป
าปกต
าปฏ
าปร
าประกวด
าประช
าประต
าประท
าประมาณ
าประเวณ
าปล
าผ
าผาก
าฝ
าฝร
าพ
าพน
าพร
าพรรค
าพรรคประชาธ
าพระ
าพระจ
าพระท
าพระพ
าพระยา
าพระยาจ
าพระยาท
าพระยาบด
าพระยาบรมมหาศร
าพระยาพ
าพระยาพระคล
าพระยาศร
าพระยาส
าพระยาอภ
าพระองค
าพระเจ
าพล
าพาย
าพเจ
าฟ
าฟร
าภ
าภค
าภาคว
าภาณ
าภาพ
าภาพจ
าภาพยนตร
าภาษ
าม
ามก
ามค
ามจ
ามชาต
ามต
ามท
ามน
ามป
ามผ
ามพ
ามม
ามร
ามส
ามสม
ามห
ามหานคร
ามหาว
ามหาวช
ามา
ามาก
ามากกว
ามาค
ามาช
ามาด
ามาต
ามาถ
ามาท
ามาน
ามาพ
ามาม
ามาย
ามาร
ามาส
ามาอย
ามาเก
ามาเป
ามาแทนท
ามาใกล
ามาใช
ามเน
ามแม
ามใช
ามไม
าย
ายก
ายกล
ายกว
ายข
ายขวา
ายของ
ายค
ายคร
ายคล
ายจ
ายช
ายชนะ
ายซ
ายด
ายดาย
ายดาวเท
ายต
ายตน
ายตรงข
ายตะว
ายตำแหน
ายถ
ายท
ายทหาร
ายทางอากาศของ
ายทางอากาศจากเทอร
ายทำ
ายทำท
ายทำภาพยนตร
ายน
ายนรส
ายบ
ายบร
ายป
ายปฏ
ายประจำป
ายผ
ายผล
ายพ
ายพม
ายพระเจ
ายพลเร
ายภาพ
ายภาพยนตร
ายม
ายมหาน
ายมาร
ายมาส
ายมาอย
ายย
ายร
ายระบ
ายล
ายว
ายศ
ายส
ายสำหร
ายห
ายหญ
ายหน
ายหร
ายหล
ายอ
ายอย
ายาง
ายเก
ายเข
ายเง
ายเจ
ายเช
ายเด
ายเต
ายเป
ายเพ
ายเพลง
ายเม
ายเร
ายเล
ายเส
ายเหน
ายแก
ายแต
ายแผ
ายแพ
ายแม
ายแรง
ายแรงท
ายแล
ายแห
ายโดย
ายใต
ายใน
ายในช
ายในป
ายในร
ายในว
ายในเด
ายให
ายได
ายไป
ายไปท
ายไปย
ายไปร
ายไปส
ายไปอย
ายไปเป
ายไปเล
ายไม
ายๆ
าร
ารห
ารอบ
ารอบต
ารอบส
าระด
าระว
าระหว
ารางว
าราชการ
าราชการกร
าราชการการเม
าราชการจ
าราชการท
าราชการผ
าราชการฝ
าราชการพลเร
าราชการเม
าราชบ
าราชบร
าราชวงศ
าราชวรวงศ
าราชาธ
ารำไพพรรณ
าล
าว
าวก
าวข
าวค
าวง
าวจ
าวช
าวซ
าวด
าวต
าวถ
าวท
าวทำให
าวน
าวบ
าวป
าวประจำว
าวผ
าวพ
าวฟ
าวม
าวมาน
าวมาแล
าวย
าวร
าวรวงศ
าวล
าวว
าวศร
าวส
าวสด
าวสาร
าวสาล
าวหน
าวหม
าวหล
าวหา
าวหาว
าวอ
าวอน
าวอย
าวเก
าวเข
าวเจ
าวเช
าวเป
าวเปล
าวเปอร
าวเพ
าวเม
าวเร
าวเหน
าวแก
าวแล
าวแห
าวโพด
าวให
าวได
าวไทย
าวไพร
าวไม
าวไว
าศ
าศร
าส
าสงวนแห
าสงส
าสถ
าสถาน
าสน
าสนใจ
าสม
าสมาช
าสมเด
าสร
าสว
าสวรรค
าสายส
าสำค
าสำน
าสำหร
าห
าหงษาวด
าหงสาวด
าหญ
าหน
าหม
าหมาย
าหมายถ
าหมายท
าหมายเพ
าหย
าหร
าหล
าหลวง
าหลวงใหญ
าหลานเธอ
าหาก
าหากว
าหาญ
าอ
าอก
าองค
าอธ
าอน
าอภ
าอย
าออก
าอากาศยาน
าอากาศยานดอนเม
าอากาศยานท
าอากาศยานนานาชาต
าอากาศยานส
าอาณาน
าอาย
าอาร
าอาวาส
าอาวาสร
าอาวาสว
าอเล
าฮ
าฯ
าเก
าเกล
าเข
าเขา
าเขาม
าเขาเป
าเขาได
าเขาไม
าเคร
าเง
าเจ
าเจมส
าเฉ
าเฉล
าเช
าเซ
าเด
าเต
าเถ
าเท
าเธอเป
าเน
าเบ
าเป
าเปล
าเผ
าเฝ
าเพ
าเพชรร
าเฟร
าเม
าเย
าเร
าเล
าเว
าเส
าเสด
าเสร
าเห
าเหต
าเหน
าเหม
าเหย
าเหร
าเหล
าเอ
าเฮ
าเฮนร
าแก
าแข
าแชมป
าแชมเป
าแดง
าแต
าแท
าแผ
าแพ
าแม
าแมน
าแล
าและก
าและด
าและบร
าและพ
าและม
าและส
าแห
าแหน
าโจมต
าโดยบอต
าโปรดกระหม
าโรงเร
าโลก
าโสมสวล
าใกล
าใจ
าใจก
าใจง
าใจถ
าใจผ
าใจร
าใจว
าใจได
าใช
าใด
าใดน
าใต
าใน
าในช
าในท
าในป
าในร
าในว
าในเม
าใส
าให
าใหญ
าใหม
าได
าไทย
าไป
าไปก
าไปช
าไปด
าไปต
าไปถ
าไปท
าไปทางท
าไปม
าไปย
าไปร
าไปส
าไปอย
าไปเป
าไปเฝ
าไปเล
าไปในห
าไปได
าไม
าไร
าไว
าไหร
าๆ
ำ
ำก
ำกร
ำกว
ำข
ำขนาดใหญ
ำค
ำคร
ำจ
ำช
ำซ
ำด
ำต
ำตก
ำตา
ำตาล
ำตาลอ
ำตาลเข
ำถ
ำท
ำทะเล
ำน
ำนม
ำบ
ำป
ำผ
ำฝน
ำพ
ำพร
ำพระพ
ำฟ
ำม
ำมาก
ำย
ำร
ำรวย
ำล
ำลง
ำว
ำส
ำสะเท
ำห
ำหน
ำหร
ำหล
ำอ
ำอย
ำอส
ำอาช
ำเก
ำเกล
ำเข
ำเค
ำเง
ำเจ
ำเช
ำเด
ำเต
ำเป
ำเพ
ำเม
ำเย
ำเร
ำเล
ำเส
ำเสมอ
ำเหล
ำแข
ำแม
ำแย
ำแยงซ
ำแล
ำแห
ำโขง
ำโสม
ำใจ
ำใต
ำในโอล
ำใส
ำให
ำใหญ
ำได
ำไทย
ำไนล
ำไม
ำไรน
ิ
ี
ึ
ื
ุ
ู
ฺ
฿
เ
เก
เกค
เกซ
เกณฑ
เกต
เกน
เกม
เกมด
เกมท
เกมน
เกมส
เกย
เกร
เกรซ
เกรด
เกรย
เกล
เกว
เกษ
เกษตร
เกษตรศาสตร
เกษม
เกษมศร
เกส
เกอร
เกะ
เกา
เกาส
เกาหล
เกาะ
เกาะค
เกาะต
เกาะท
เกาะน
เกาะม
เกาะร
เกาะส
เกาะอ
เข
เขต
เขตการเล
เขตด
เขตต
เขตท
เขตพ
เขตพระนคร
เขตม
เขตร
เขตว
เขตเล
เขมร
เขา
เขาก
เขากล
เขากลายเป
เขากำล
เขาข
เขาค
เขาจ
เขาช
เขาด
เขาดำรงตำแหน
เขาต
เขาถ
เขาท
เขาทำประต
เขาน
เขาพ
เขาม
เขาย
เขาร
เขาล
เขาลงเล
เขาว
เขาส
เขาห
เขาอ
เขาอย
เขาเก
เขาเข
เขาเด
เขาเป
เขาเร
เขาเล
เขาเส
เขาแต
เขาใช
เขาใหญ
เขาได
เขาไฟ
เขาไม
เค
เคช
เคซ
เคด
เคท
เคน
เคนเนด
เคม
เคย
เคยค
เคยช
เคยดำรงตำแหน
เคยต
เคยถ
เคยม
เคยร
เคยส
เคยอย
เคยเก
เคยเข
เคยเป
เคยเล
เคยเห
เคยใช
เคยได
เคร
เครด
เครน
เคราะห
เคล
เคลล
เคว
เคอ
เคอร
เคาน
เคานต
เคานท
เคโอ
เง
เงา
เงาร
เจ
เจด
เจท
เจน
เจนต
เจนน
เจฟฟ
เจฟฟร
เจม
เจมส
เจย
เจร
เจล
เจส
เจสซ
เจสส
เจอ
เจอก
เจอร
เจเนอเรช
เจเอ
เฉ
เฉพาะ
เฉพาะต
เฉพาะท
เฉล
เฉว
เช
เชน
เชฟฟ
เชร
เชล
เชลซ
เชลล
เชษฐ
เชอร
เชาว
เซ
เซก
เซซ
เซต
เซตส
เซน
เซนต
เซนอล
เซนเตช
เซนเตอร
เซบ
เซฟ
เซม
เซย
เซร
เซล
เซลล
เซอ
เซอร
เซาท
เซาแทมป
เซเร
เซเลอร
เซเว
เซโกว
เซโลนา
เฒ
เด
เดช
เดซ
เดตาเบส
เดน
เดนต
เดนท
เดนน
เดนมาร
เดบ
เดฟ
เดย
เดร
เดล
เดว
เดส
เดอ
เดอร
เดอลาล
เดอะ
เดอะค
เดอะซ
เดอะน
เดอะม
เดอะมอลล
เดอะสตาร
เดะ
เดเอ
เดโยช
เต
เตน
เตนใหญ
เตม
เตร
เตสแห
เตอร
เตอส
เถ
เถา
เถาะ
เท
เทกซ
เทค
เทคน
เทคว
เทคโนโลย
เทน
เทนน
เทนเม
เทนเมนต
เทนเมนท
เทพ
เทพธ
เทพบ
เทพพ
เทพห
เทพเจ
เทพแห
เทย
เทร
เทล
เทว
เทวก
เทวดา
เทศ
เทศน
เทศบาล
เทศบาลตำบลท
เทศบาลตำบลบ
เทศบาลเม
เทศมาลาของ
เทศศาสตร
เทอร
เทา
เทเกอร
เทเบ
เทเลว
เทโร
เทโรศาสน
เธ
เธอ
เธอก
เธอกล
เธอค
เธอจ
เธอต
เธอถ
เธอม
เธอย
เธอร
เธออย
เธอเข
เธอเป
เธอเร
เธอได
เธอไม
เน
เนก
เนช
เนซ
เนต
เนตร
เนท
เนนต
เนบ
เนปาล
เนม
เนย
เนร
เนล
เนลส
เนว
เนส
เนสโก
เนอร
เนะ
เนเธอร
เนเว
เบ
เบก
เบกษา
เบกษาเป
เบต
เบน
เบนจาม
เบนซ
เบบ
เบย
เบร
เบล
เบลด
เบลล
เบลาร
เบลเย
เบศร
เบส
เบอร
เบา
เบเกอร
เป
เปน
เปนข
เปนต
เปนท
เปนผ
เปนส
เปนอ
เปนเจ
เปร
เปรม
เปรสช
เปล
เปอร
เปะอ
เผ
เผช
เผด
เผยแพร
เฝ
เพ
เพชร
เพชรบ
เพชรพระอ
เพนกว
เพย
เพร
เพรส
เพราะ
เพราะข
เพราะค
เพราะฉน
เพราะฉะน
เพราะต
เพราะถ
เพราะท
เพราะน
เพราะผ
เพราะม
เพราะร
เพราะล
เพราะว
เพราะส
เพราะเป
เพราะเม
เพราะเห
เพราะเหต
เพราะได
เพราะไม
เพล
เพลง
เพลงชาต
เพลงด
เพลงท
เพลงน
เพลงป
เพลงประกอบภาพยนตร
เพลงประกอบละคร
เพลงร
เพลงล
เพลงฮ
เพลงเป
เพลย
เพศ
เพศกลาง
เพศชาย
เพศส
เพศหญ
เพอร
เพาเวอร
เฟ
เฟซบ
เฟน
เฟย
เฟร
เฟรนช
เฟรเดอร
เฟล
เฟอร
เฟเธอร
เภส
เม
เมก
เมฆ
เมจ
เมช
เมด
เมต
เมตร
เมตรต
เมท
เมทร
เมธ
เมน
เมนต
เมนท
เมนส
เมย
เมร
เมล
เมษายน
เมส
เมสซ
เมอร
เมะ
เมะเร
เมะโทรท
เมา
เมาส
เมเจอร
เมเน
เย
เยน
เยร
เยล
เยอร
เยอรม
เยอรมน
เยาว
เยาวชน
เร
เรก
เรกค
เรคคอร
เรจ
เรช
เรซ
เรด
เรดาร
เรตต
เรตส
เรน
เรนซ
เรนเจอร
เรย
เรล
เรว
เรส
เรสต
เรสเซ
เรอ
เรอร
เระ
เรา
เราก
เราค
เราจ
เราจะต
เราต
เราท
เราม
เราย
เราร
เราะฮ
เราเป
เราเร
เราเห
เราได
เราไม
เรเช
เรเน
เล
เลก
เลข
เลขท
เลขวรรณย
เลขาธ
เลขาน
เลด
เลน
เลนส
เลบานอน
เลย
เลยท
เลว
เลวร
เลส
เลสเต
เลสเตอร
เลสเนอร
เลอ
เลอร
เลเซอร
เลเวล
เลโอ
เว
เวก
เวกเตอร
เวช
เวชชาช
เวชศาสตร
เวณ
เวณข
เวณจ
เวณช
เวณชายฝ
เวณด
เวณต
เวณท
เวณน
เวณบ
เวณพ
เวณร
เวณว
เวณส
เวณห
เวณหน
เวณอ
เวณเม
เวณใกล
เวด
เวต
เวท
เวทมนตร
เวน
เวนต
เวนส
เวย
เวร
เวล
เวลคอม
เวลล
เวลส
เวลา
เวลาการแข
เวลาท
เวลาน
เวลาบ
เวลาประมาณ
เวลาว
เวลาส
เวลาเช
เวลาเด
เวลาไทย
เวศ
เวศน
เวศว
เวสต
เวอร
เวเดอร
เวเนซ
เศ
เศก
เศร
เศรษฐ
เศรษฐก
เศรษฐบ
เศรษฐศาสตร
เศษ
เศษก
เศษค
เศษช
เศษณ
เศษด
เศษต
เศษท
เศษน
เศษว
เศษส
เศษสำหร
เศษอ
เศษเพ
เศษให
เษก
เษกก
เษกสมรส
เษกสมรสก
เส
เสก
เสกสมรสก
เสด
เสถ
เสธ
เสธข
เสธท
เสธว
เสน
เสนอ
เสนอช
เสนอต
เสนอว
เสนอให
เสนาธ
เสนาบด
เสม
เสมอ
เสมอก
เสร
เสวยราชสมบ
เสา
เสาร
เห
เหง
เหต
เหน
เหม
เหมาะก
เหมาะสม
เหมาะสมก
เหมาะสมท
เหมาะสำหร
เหมาะแก
เหย
เหร
เหล
เหว
เอ
เอก
เอกช
เอกซ
เอกพจน
เอกล
เอกวาดอร
เอกสาร
เอกสารกำก
เอกอ
เอง
เองก
เองท
เอจ
เอช
เอชด
เอซ
เอด
เอดจ
เอต
เอตถะ
เอตเถสา
เอท
เอธ
เอน
เอนจ
เอนด
เอนเตอร
เอนไซม
เอบ
เอพ
เอฟ
เอฟซ
เอฟเวอร
เอฟเอ
เอฟเอค
เอฟแอลค
เอม
เอย
เอร
เอล
เอลซ
เอลฟ
เอลล
เอลา
เอว
เอส
เอสซ
เอสตาด
เอสท
เอสพ
เอสเอ
เอสเอส
เอสโตเน
เออ
เออร
เอะ
เอา
เอาก
เอาช
เอาชนะ
เอาต
เอาท
เอาแต
เอาไว
เอเคบ
เอเคอร
เอเช
เอเล
เอเวอร
เอเอ
เอเอฟซ
เอโก
เฮ
เฮง
เฮด
เฮนร
เฮบ
เฮฟว
เฮย
เฮล
เฮอร
เฮาส
เฮเลน
แ
แก
แกน
แกนด
แกร
แกรนด
แกรมม
แกล
แกะสล
แข
แขกร
แขน
แขวง
แขวงเม
แค
แคท
แคทเธอร
แคน
แคนาดา
แคมป
แคร
แคล
แคลร
แคลเซ
แคว
แคะ
แคเมอร
แง
แจ
แจง
แฉก
แช
แชนแนล
แชมป
แชมเบอร
แชมเป
แชร
แชล
แชลล
แซ
แซนด
แซม
แซย
แซร
แฌร
แด
แดง
แดงท
แดงเข
แดน
แดนซ
แดนน
แดร
แดเน
แต
แตก
แตกต
แตง
แตน
แถบ
แถบส
แถบเคร
แถมย
แถลงการณ
แถลงข
แถว
แท
แทน
แทนค
แทนท
แทนน
แทนพระองค
แทนราษฎร
แทนราษฎรคร
แทนราษฎรจ
แทนราษฎรท
แทนราษฎรมาแล
แทนราษฎรเป
แทนราษฎรแบบบ
แทนราษฎรแบบแบ
แทนราษฎรได
แทนราษฎรไทย
แทนราษฎรไทยเป
แทนเส
แทบท
แทร
แน
แนว
แนวค
แนวความค
แนวร
แนวหน
แนวโน
แนะนำ
แนะนำให
แบ
แบกซ
แบคท
แบงก
แบงค
แบดม
แบตเตอร
แบทเท
แบทแมน
แบน
แบนด
แบนต
แบบ
แบบด
แบบต
แบบท
แบบน
แบบบ
แบบผ
แบบส
แบบอ
แบบเกรกอเร
แบบเด
แบบไม
แบร
แบรนด
แบล
แป
แปซ
แปด
แปร
แปล
แปลก
แปลง
แปลงร
แปลช
แปลตรงต
แปลว
แปลเป
แปลโดย
แผ
แผนกว
แผนการเร
แผนท
แผนผ
แผนภ
แผลงมาจาก
แพ
แพทย
แพทร
แพนด
แพร
แฟ
แฟช
แฟน
แฟนคล
แฟนตาซ
แฟนเทเช
แฟม
แฟร
แฟรงก
แฟรงค
แม
แมกซ
แมกน
แมคอ
แมงม
แมชช
แมตช
แมน
แมนจ
แมนน
แมนเชสเตอร
แมป
แมร
แมลง
แมว
แมเป
แย
แยก
แยกก
แยกต
แยกพ
แยกเป
แยร
แร
แรก
แรกท
แรกเร
แรง
แรงงาน
แรงจ
แรงด
แรงบ
แรงม
แรน
แรนด
แรม
แล
แลก
แลกเปล
แลข
แลด
แลต
แลท
แลน
แลนซ
แลนด
แลบ
แลผ
แลพ
แลม
แลร
แลว
แลส
และ
และก
และกฎหมาย
และกร
และกล
และกลายเป
และกว
และกองท
และการก
และการค
และการจ
และการต
และการท
และการบ
และการปฏ
และการพ
และการร
และการว
และการศ
และการส
และการอ
และการเม
และการเล
และการใช
และกำก
และกำล
และกำหนดให
และข
และขอให
และค
และคณ
และคณะ
และคนอ
และคร
และครอบคร
และคล
และคว
และควบค
และความร
และความส
และความเป
และคำว
และจ
และจะต
และจะม
และจะได
และจากน
และช
และซ
และญ
และด
และดำรงตำแหน
และดำเน
และต
และตะว
และตำแหน
และถ
และท
และทร
และทรงเป
และทว
และทำหน
และทำให
และธ
และน
และนอกจากน
และนำมาใช
และบ
และบร
และบางคร
และบางส
และป
และปฏ
และปร
และประว
และประสบความสำเร
และประเภทท
และปล
และผ
และผล
และฝ
และฝร
และพ
และพบว
และพร
และพระพ
และพระองค
และพระเจ
และพล
และฟ
และภ
และภาพถ
และภาพยนตร
และภายหล
และภาษาอ
และม
และมน
และมหาว
และมาตรา
และมาร
และย
และร
และระด
และระหว
และรางว
และรายงานของทางราชการ
และล
และว
และศ
และส
และสถาน
และสถานท
และสถาบ
และสน
และสม
และสมาช
และสมเด
และสร
และสว
และสหร
และสำน
และสำหร
และสำเร
และห
และหน
และหม
และหล
และอ
และองค
และอด
และอธ
และอน
และอย
และอาจม
และอาจารย
และอาร
และฮ
และเก
และเข
และเขาก
และเขาย
และเขาได
และเคยเป
และเคร
และเง
และเจ
และเช
และเซ
และเด
และเต
และเท
และเทคโนโลย
และเน
และเป
และเปล
และเผยแพร
และเพ
และเพลง
และเม
และเร
และเล
และเว
และเวลา
และเส
และเสด
และเสร
และเห
และเหต
และเหร
และเหล
และเอ
และเอเช
และแก
และแจ
และแชมป
และแต
และแบ
และแผ
และแพ
และแม
และแล
และแหล
และแอนตาร
และโทรท
และโรงเร
และใช
และใน
และในช
และในท
และในป
และในว
และในเด
และให
และได
และไม
และไอร
แลเม
แลเห
แลให
แลได
แว
แวน
แวร
แสง
แสงส
แสงสว
แสงอาท
แสดง
แสดงข
แสดงค
แสดงถ
แสดงท
แสดงภาพยนตร
แสดงร
แสดงว
แสดงส
แสดงเป
แสดงโดย
แสดงให
แสตมป
แสน
แห
แหม
แหล
แอ
แอด
แอน
แอนด
แอนดร
แอนต
แอนท
แอนน
แอนนา
แอนเดอร
แอนโทน
แอบบ
แอปเป
แอฟร
แอม
แอร
แอล
แอลกอฮอล
แอลจ
แอลล
แอลเบเน
แอสต
แฮ
แฮนด
แฮปป
แฮม
แฮมป
แฮมย
แฮร
โ
โก
โกก
โกค
โกซ
โกปปาอ
โกร
โกรธ
โกล
โกลด
โกว
โกศล
โกส
โกสลาเว
โกะ
โกเดมาดร
โข
โขท
โค
โคก
โคค
โคจ
โคด
โคน
โคบ
โคบวร
โคม
โคร
โครงการ
โครงการก
โครงการจ
โครงการน
โครงการพ
โครงสร
โครเอเช
โคล
โคลอมเบ
โคว
โคส
โคอ
โคเร
โฆษณา
โฆษณางานน
โง
โจ
โจทก
โจทย
โจนส
โจนาธาน
โจม
โจมต
โจว
โจอ
โจเซฟ
โช
โชก
โชค
โชคด
โชซ
โชต
โชว
โซ
โซด
โซน
โซนร
โซนา
โซฟ
โซล
โซอ
โซเด
โซเฟ
โซเว
โญ
โณ
โด
โดดเด
โดน
โดม
โดย
โดยก
โดยกล
โดยกองท
โดยการจ
โดยการแข
โดยการใช
โดยกำหนดให
โดยข
โดยค
โดยคร
โดยคำว
โดยคำแนะนำและย
โดยง
โดยจ
โดยจะต
โดยจะม
โดยช
โดยซ
โดยด
โดยต
โดยตรง
โดยถ
โดยท
โดยทาง
โดยน
โดยบ
โดยบร
โดยป
โดยปกต
โดยปร
โดยผ
โดยฝ
โดยพ
โดยพระบาทสมเด
โดยพระองค
โดยม
โดยย
โดยร
โดยระบ
โดยล
โดยว
โดยศ
โดยส
โดยสมาช
โดยสมเด
โดยสร
โดยสาร
โดยสารท
โดยสารได
โดยสำน
โดยห
โดยหน
โดยหล
โดยอ
โดยองค
โดยอน
โดยอย
โดยอาศ
โดยเก
โดยเข
โดยเขาได
โดยเคร
โดยเจ
โดยเฉพาะ
โดยเฉพาะก
โดยเฉพาะท
โดยเฉพาะอย
โดยเฉล
โดยเช
โดยเด
โดยเน
โดยเป
โดยเปล
โดยเพ
โดยเม
โดยเร
โดยเล
โดยเส
โดยเหต
โดยแต
โดยแบ
โดยใช
โดยในช
โดยในป
โดยในว
โดยให
โดยได
โดยไม
โดร
โดราเอมอน
โดว
โดฮา
โดเน
โต
โตช
โตม
โตร
โตรเล
โตะ
โตเก
โตเต
โตโยต
โท
โทก
โทค
โทช
โทน
โทบ
โทม
โทร
โทรท
โทรศ
โทลค
โทษ
โธม
โน
โนซ
โนท
โนบ
โนม
โนร
โนลด
โนอ
โนะ
โนเป
โบ
โบน
โบร
โบราณ
โบราณว
โบราณสถาน
โบล
โบว
โบสถ
โบสถม
โบสถว
โบสถหล
โบอ
โบะ
โป
โปร
โปรด
โปรดด
โปรดระบ
โปรดเกล
โปรดเต
โปรดให
โปรต
โปรเจกต
โปรแกรม
โปรโมช
โปล
โปเกมอน
โปแลนด
โผล
โพธ
โพล
โพสต
โฟร
โฟล
โภค
โม
โมก
โมกข
โมง
โมงค
โมท
โมน
โมบ
โมร
โมล
โมฮ
โมะ
โมเด
โมเดล
โมเลก
โมโตะ
โย
โยช
โยชน
โยน
โยม
โยร
โยฮ
โยะ
โยะช
โร
โรก
โรค
โรคต
โรคท
โรคน
โรคห
โรคอ
โรง
โรงพ
โรงพยาบาล
โรงพยาบาลจ
โรงพยาบาลศ
โรงพยาบาลส
โรงภาพยนตร
โรงเร
โรงแรม
โรงไฟฟ
โรจน
โรช
โรซ
โรฒ
โรด
โรดร
โรต
โรธ
โรน
โรบ
โรป
โรปตะว
โรปท
โรปาล
โรปได
โรม
โรมะจ
โรมาจ
โรมาเน
โรย
โรล
โรลล
โรว
โรส
โรห
โระ
โรเจอร
โรเบ
โรเป
โรแบร
โรแมนต
โล
โลก
โลกก
โลกท
โลกน
โลกร
โลกเฮฟว
โลต
โลน
โลม
โลว
โลส
โลห
โลเก
โลเปซ
โลเมตร
โลเมตรต
โลเมตรท
โว
โวล
โส
โสภณ
โสภณพ
โสภาพ
โห
โหต
โหน
โหมด
โหลด
โอ
โอก
โอกะ
โอกาส
โอกาสท
โอกาสได
โอค
โอจ
โอช
โอชา
โอซ
โอซากะ
โอด
โอดอร
โอต
โอท
โอน
โอนพ
โอบ
โอพ
โอม
โอมาน
โอร
โอรส
โอล
โอลด
โอว
โอส
โออ
โอะ
โอเกม
โอเช
โอเดจาเนโร
โอเป
โอเพ
โอเพนออฟฟ
โอเพลง
โอเร
โอเวอร
โอได
โอไทด
โฮ
โฮจ
โฮช
โฮม
โฮร
โฮล
โฮลด
โฮะ
ใกล
ใคร
ใครร
ใจ
ใจก
ใจด
ใจท
ใจร
ใจว
ใจไทย
ใช
ใด
ใดก
ใดตามกฎของฟ
ใดท
ใดฝ
ใดม
ใดเป
ใดได
ใดไม
ใดๆ
ใต
ใน
ในก
ในกร
ในกรณ
ในกล
ในกองท
ในการ
ในการก
ในการค
ในการควบค
ในการจ
ในการช
ในการด
ในการดำเน
ในการต
ในการถ
ในการท
ในการน
ในการบ
ในการบร
ในการป
ในการปฏ
ในการประช
ในการผล
ในการพ
ในการย
ในการร
ในการว
ในการศ
ในการส
ในการสร
ในการเข
ในการเด
ในการเป
ในการเร
ในการเล
ในการแก
ในการแข
ในการแปลงร
ในการใช
ในการให
ในข
ในขณะท
ในขณะน
ในขณะเด
ในค
ในคด
ในคร
ในครอบคร
ในความด
ในความร
ในความเป
ในงาน
ในงานพระราชทานเพล
ในจ
ในจำนวนน
ในฉบ
ในช
ในชาร
ในซ
ในญ
ในฐานข
ในฐานะ
ในฐานะท
ในฐานะน
ในฐานะผ
ในด
ในต
ในตระก
ในตอนท
ในตอนน
ในตาราง
ในตำแหน
ในถ
ในท
ในทว
ในทางกล
ในทางตรงก
ในทางปฏ
ในทำนองเด
ในธรรมชาต
ในน
ในนาท
ในนาม
ในบ
ในบท
ในบทบาท
ในบร
ในบางกรณ
ในบางคร
ในป
ในปฏ
ในปร
ในประว
ในประเทศ
ในประเทศจ
ในประเทศญ
ในประเทศฝร
ในประเทศอ
ในประเทศไทย
ในปลายป
ในผ
ในฝ
ในฝร
ในพ
ในพร
ในพระบรมมหาราชว
ในพระบรมราช
ในพระบาทสมเด
ในพระราชบ
ในพระราชพ
ในพระราชว
ในพระอ
ในพระเจ
ในฟ
ในภ
ในภาค
ในภาคตะว
ในภาพยนตร
ในภายหล
ในภาษาจ
ในภาษาญ
ในภาษาฝร
ในภาษาอ
ในภาษาเยอรม
ในภาษาไทย
ในม
ในมน
ในมหาว
ในมหาสม
ในมาตรา
ในย
ในร
ในรอบ
ในรอบช
ในรอบน
ในรอว
ในระด
ในระหว
ในราชบ
ในราชวงศ
ในราชสำน
ในราชอาณาจ
ในรายการ
ในรายช
ในฤด
ในล
ในลำด
ในว
ในวงศ
ในศ
ในศตวรรษท
ในส
ในสก
ในสงครามโลกคร
ในสถานการณ
ในสถานท
ในสภาพท
ในสม
ในสมเด
ในสหร
ในสหราชอาณาจ
ในสาขาว
ในสำน
ในห
ในหน
ในหม
ในหล
ในอ
ในองค
ในอด
ในอน
ในอนาคต
ในอเมร
ในฮ
ในเกม
ในเขตจ
ในเขตพ
ในเคร
ในเจ
ในเช
ในเด
ในเน
ในเพลง
ในเม
ในเยอรมน
ในเร
ในเรสเซ
ในเล
ในเว
ในเวลา
ในเวลาต
ในเวลาท
ในเวลาน
ในเวลาเด
ในเวอร
ในเส
ในเหต
ในเอเช
ในแคว
ในแง
ในแต
ในแผ
ในแม
ในแหล
ในแอฟร
ในโรงเร
ในโอล
ในไทยล
ในไม
ใบ
ใบม
ใบร
ใบหน
ใบอน
ใบเด
ใบเป
ใบไม
ใฝ
ใส
ให
ใหญ
ใหม
ไ
ไก
ไกรฤกษ
ไกล
ไข
ไขข
ไขคำว
ไขป
ไขฟ
ไขม
ไขร
ไขล
ไขว
ไขส
ไขสถานการณ
ไขเปล
ไขเพ
ไขให
ไค
ไคล
ไจลส
ไช
ไชน
ไชย
ไชยา
ไซ
ไซค
ไซด
ไซต
ไซน
ไซบ
ไซปร
ไซมอน
ไซเนอร
ได
ไดจ
ไดซ
ไดรฟ
ไดรเวอร
ไดโนเสาร
ไต
ไตก
ไถ
ไท
ไทท
ไทป
ไทม
ไทย
ไทยก
ไทยท
ไทยพ
ไทยพร
ไทยร
ไทยล
ไทยแลนด
ไทยโพสต
ไทยได
ไทร
ไทเกอร
ไทเป
ไธย
ไน
ไนจ
ไนต
ไนท
ไนน
ไนเต
ไบ
ไบจาน
ไบรอ
ไบเบ
ไบเอ
ไบแซนไทน
ไป
ไปก
ไปข
ไปจ
ไปจนถ
ไปช
ไปซ
ไปด
ไปต
ไปถ
ไปท
ไปทางตะว
ไปทางท
ไปน
ไปพ
ไปพร
ไปย
ไปร
ไปรษณ
ไปศ
ไปส
ไปอ
ไปอย
ไปเก
ไปเข
ไปเท
ไปเป
ไปเม
ไปเย
ไปเร
ไปเล
ไปแล
ไปใช
ไปให
ไปได
ไผ
ไพ
ไพบ
ไพร
ไพรส
ไพศาล
ไพโรจน
ไฟ
ไฟท
ไฟน
ไฟนอลแฟนตาซ
ไฟฟ
ไฟร
ไฟล
ไฟว
ไฟไหม
ไม
ไมค
ไมน
ไมล
ไมเค
ไมโครซอฟท
ไมโอน
ไร
ไรซ
ไรด
ไรต
ไรท
ไรน
ไรอ
ไรเดอร
ไล
ไลต
ไลท
ไลน
ไลพ
ไลฟ
ไว
ไวซ
ไวต
ไวท
ไวน
ไวยากรณ
ไวร
ไวล
ไวส
ไวเวอร
ไส
ไห
ไหน
ไหม
ไหล
ไหลผ
ไหว
ไอ
ไอจ
ไอซ
ไอด
ไอท
ไอน
ไอบ
ไอพ
ไอร
ไอเด
ไอเอ
ไฮ
ไฮด
ไฮน
ไฮเปอร
ๆ
็
่
้
๊
๋
์
ํ
๎
๏
๐
๐๐
๐๐๐
๑
๑๐
๑๐๐
๑๐๐๐
๑๐๑
๑๐๒
๑๐๓
๑๐๔
๑๐๕
๑๐๖
๑๐๗
๑๐๘
๑๐๙
๑๑
๑๑๐
๑๑๑
๑๑๒
๑๑๓
๑๑๔
๑๑๕
๑๑๖
๑๑๗
๑๑๘
๑๑๙
๑๒
๑๒๐
๑๒๑
๑๒๒
๑๒๓
๑๒๔
๑๒๕
๑๒๖
๑๒๗
๑๒๘
๑๒๙
๑๓
๑๓๐
๑๓๑
๑๓๒
๑๓๔
๑๓๘
๑๔
๑๕
๑๕๐
๑๖
๑๗
๑๘
๑๙
๒
๒๐
๒๐๐
๒๑
๒๒
๒๓
๒๔
๒๔๖๔
๒๔๗๕
๒๔๘๔
๒๔๘๕
๒๕
๒๕๑๕
๒๕๑๘
๒๕๒๒
๒๕๒๘
๒๕๒๙
๒๕๓๐
๒๕๓๓
๒๕๓๔
๒๕๓๕
๒๕๓๖
๒๕๓๗
๒๕๓๘
๒๕๓๙
๒๕๔๐
๒๕๔๑
๒๕๔๒
๒๕๔๓
๒๕๔๔
๒๕๔๕
๒๕๔๖
๒๕๔๗
๒๕๔๘
๒๕๔๙
๒๕๕๐
๒๕๕๑
๒๕๕๒
๒๕๕๓
๒๕๕๔
๒๕๕๕
๒๕๕๖
๒๕๕๗
๒๕๕๘
๒๕๕๙
๒๕๖๐
๒๕๖๑
๒๕๖๒
๒๕๖๓
๒๕๖๔
๒๖
๒๗
๒๘
๒๙
๓
๓๐
๓๐๐
๓๑
๓๒
๓๓
๓๔
๓๕
๓๖
๓๗
๓๘
๓๙
๔
๔๐
๔๐๐
๔๑
๔๒
๔๓
๔๔
๔๕
๔๖
๔๗
๔๘
๔๙
๕
๕๐
๕๐๐
๕๑
๕๒
๕๓
๕๔
๕๕
๕๖
๕๗
๕๘
๕๙
๖
๖๐
๖๑
๖๒
๖๓
๖๔
๖๕
๖๖
๖๗
๖๘
๖๙
๗
๗๐
๗๑
๗๒
๗๓
๗๔
๗๕
๗๖
๗๗
๗๘
๗๙
๘
๘๐
๘๑
๘๒
๘๓
๘๔
๘๕
๘๖
๘๗
๘๘
๘๙
๙
๙๐
๙๑
๙๒
๙๕
๙๖
๙๗
๙๘
๙๙
๚
ກ
ກະ
ການ
ຂ
ຄ
ຄວາມ
ງ
ຈ
ຊ
ຍ
ດ
ຕ
ຖ
ທ
ນ
ບ
ປ
ຜ
ຝ
ພ
ຟ
ມ
ຢ
ຣ
ລ
ວ
ສ
ຫ
ອ
ອງ
ອຍ
ອນ
ອມ
ຮ
ັ
າ
າງ
າຍ
ານ
າວ
ຳ
ິ
ີ
ຶ
ື
ຸ
ູ
຺
ົ
ຼ
ຽ
ເຈ
ເລ
ເສ
ເຫ
ໂຕ
ໃຈ
່
້
໌
ໍ
ໜ
ໝ
་
ག
ང
ད
ན
བ
མ
ར
ལ
ས
ི
ུ
ེ
ོ
ྱ
ྲ
က
ခ
ဂ
င
စ
ဆ
ဇ
ည
ဍ
ဏ
တ
ထ
ဒ
ဓ
န
ပ
ဖ
ဗ
ဘ
မ
ယ
ရ
လ
ဝ
သ
ဟ
အ
ဢ
ဥ
ါ
ာ
ိ
ီ
ု
ူ
ေ
ဲ
ဳ
ဴ
ဵ
ံ
့
း
္
်
ျ
ြ
ွ
ှ
၊
။
ၚ
ၞ
ၠ
ၢ
ၣ
ၪ
ၵ
ၶ
ၸ
ၹ
ၺ
ၻ
ၼ
ၽ
ၾ
ၿ
ႁ
ႂ
ႃ
ႄ
ႅ
ႆ
ႇ
ႈ
ႉ
ႝ
공개
공식
관왕
년
단독
데뷔
월
위
인기가요
일
종합
주
주차
차트
첫
출연
컴백
트와이스
확정
ក
ខ
គ
ឃ
ង
ច
ឆ
ជ
ឈ
ញ
ដ
ឋ
ណ
ត
ថ
ទ
ធ
ន
ប
ផ
ព
ភ
ម
យ
រ
ល
វ
ស
ហ
ឡ
អ
ា
ិ
ី
ឹ
ុ
ូ
ួ
ើ
ៀ
េ
ែ
ៃ
ោ
ៅ
ំ
ះ
៉
៊
់
៍
័
៑
្
ᨠ
ᨡ
ᨣ
ᨤ
ᨦ
ᨧ
ᨩ
ᨪ
ᨯ
ᨱ
ᨲ
ᨳ
ᨴ
ᨵ
ᨶ
ᨷ
ᨸ
ᨹ
ᨺ
ᨻ
ᨼ
ᨽ
ᨾ
ᨿ
ᩀ
ᩁ
ᩃ
ᩅ
ᩇ
ᩈ
ᩉ
ᩋ
ᩕ
ᩖ
ᩛ
᩠
ᩡ
ᩢ
ᩣ
ᩤ
ᩥ
ᩦ
ᩧ
ᩨ
ᩩ
ᩪ
ᩫ
ᩬ
ᩭ
ᩮ
ᩯ
ᩰ
ᩱ
ᩲ
ᩳ
ᩴ
᩵
᩶
᩺
ᴬ
ᴮ
ᴰ
ᵊ
ᵝ
​
‌
‍
‎
‏
‐
–
—
―
‖
‘
’
“
”
„
†
‡
•
…
‧
‬
′
″
‹
›
⁄
⁡
⁴
⁴¹
⁴⁴
⁵
⁵²
⁵³
⁵¹
⁵⁵
⁵⁵⁴
⁻
⁽
⁾
ⁿ
₁
₂
₃
₊
€
℃
ℏ
ℓ
№
™
←
↑
→
↔
↷
∀
∂
∃
∅
∈
∑
−
∗
∘
√
∞
∨
∩
∪
∫
≈
≡
≤
≥
⊕
⊙
⋅
⋯
⌈
⌉
⌊
⌋
③
④
⑦
─
│
█
△
○
◌
●
★
☆
♠
♡
♣
♥
♪
⟨
⟩
⺀
⺄
⺆
⺈
⺊
⺌
⺕
⺝
⺸
⺼
⿰
⿱
⿲
⿳
⿴
⿵
⿶
⿷
⿸
⿹
⿺
⿻
、
。
々
〇
〈
〉
《
》
「
」
『
』
【
】
〜
〢
あ
い
う
え
お
か
き
く
け
こ
さ
し
す
せ
そ
た
ち
っ
つ
て
と
な
に
ぬ
ね
の
は
ひ
ふ
へ
ほ
ま
み
む
め
も
ゃ
や
ゅ
ゆ
ょ
よ
ら
り
る
れ
ろ
わ
を
ん
゙
゚
ァ
ア
ィ
イ
ゥ
ウ
ェ
エ
ォ
オ
カ
キ
ク
ケ
コ
サ
シ
ス
セ
ソ
タ
チ
ッ
ツ
テ
ト
ナ
ニ
ヌ
ネ
ノ
ハ
ヒ
フ
ヘ
ホ
マ
ミ
ム
メ
モ
ャ
ヤ
ュ
ユ
ョ
ヨ
ラ
リ
ル
レ
ロ
ワ
ン
ヶ
・
ー
ㄅ
ㄆ
ㄇ
ㄈ
ㄉ
ㄊ
ㄋ
ㄌ
ㄍ
ㄎ
ㄏ
ㄐ
ㄑ
ㄒ
ㄓ
ㄔ
ㄕ
ㄖ
ㄗ
ㄘ
ㄙ
ㄚ
ㄛ
ㄜ
ㄝ
ㄞ
ㄟ
ㄠ
ㄡ
ㄢ
ㄣ
ㄤ
ㄥ
ㄦ
ㄧ
ㄨ
ㄩ
㇁
㇂
㇄
㇇
㇈
㇉
㇓
㐁
㐄
㐅
㐌
㐫
㐬
㐭
㐮
㐱
㑒
㒵
㒸
㒼
㓁
㓞
㔾
㕛
㕣
㖾
㘝
㚅
㚇
㚔
㚘
㝉
㝡
㝴
㝵
㞋
㞢
㞷
㠩
㠭
㠯
㡀
㡭
㡿
㢲
㢴
㣇
㣺
㥯
㪅
㫄
㫐
㫒
㫺
㬅
㬎
㬥
㬰
㲋
㳄
㷠
㸒
㸚
㸦
㼌
㼲
㽞
㿟
䀠
䂞
䍃
䏍
䒑
䖍
䖒
䖝
䖵
䙴
䚻
䜌
䝿
䡛
䧹
䪞
一
丁
丂
七
丄
丅
丆
万
丈
三
上
下
丌
不
与
丏
丐
丑
专
且
丕
世
丘
丙
业
东
丞
両
丢
丣
两
严
並
丨
丩
个
丫
丬
中
丮
丰
丱
串
丵
丶
丷
丸
丹
为
主
丽
丿
乀
乂
乃
久
乆
乇
么
义
之
乌
乍
乎
乏
乐
乑
乔
乖
乗
乘
乙
乚
乛
乜
九
乞
也
习
乡
书
乱
乳
乾
亀
亂
亅
了
亇
予
争
事
二
亍
于
亏
亐
云
互
亓
五
井
亘
亚
亜
亞
亟
亠
亡
亢
交
亥
亦
产
亨
亩
享
京
亭
亮
亯
亰
亲
亳
亶
亷
人
亻
亼
亾
什
仁
今
介
仌
从
仐
仑
仒
仓
仔
仕
他
付
仙
仝
代
令
以
们
仮
仲
件
任
份
企
伊
伏
伐
休
会
伝
传
伯
但
位
住
佐
佑
体
何
佘
余
佛
作
你
佥
佳
使
來
侈
例
侌
侍
侖
供
依
侠
侯
侵
便
係
俊
俗
保
俞
信
修
俳
俺
倉
個
倍
們
倒
候
借
倠
値
倫
值
做
停
健
偵
偶
傑
備
催
傳
傷
僉
働
像
僕
儀
億
優
儿
兀
允
兂
元
兄
充
兆
兇
先
光
兊
克
兌
免
児
兑
兒
兓
兔
党
兜
兟
入
內
全
兩
兪
八
公
六
兮
兰
共
关
兴
兵
其
具
典
兹
兼
冀
冂
冃
冄
内
円
冈
冉
冊
冋
册
再
冎
冏
冐
冒
冓
冖
冗
冘
写
军
农
冝
冠
冡
冥
冫
冬
冰
况
冷
准
几
凡
凢
凤
凰
凵
凶
凷
凸
凹
出
函
凾
刀
刁
刂
刃
刄
刅
分
切
刊
刍
刑
划
刕
刖
列
刘
则
创
初
判
別
利
别
到
制
刺
刻
則
削
剌
前
剑
剛
剡
剣
剧
副
割
創
剽
劇
劉
劍
力
功
加
务
劦
动
助
劫
劳
労
劵
勃
勇
勉
勒
動
務
勝
勞
勢
勤
勹
勺
勻
勾
勿
匀
匂
包
匆
匈
匊
匋
匍
匕
化
北
匚
匝
匡
匪
匱
匸
匹
区
医
匽
匿
區
十
卂
千
卄
卅
卆
升
午
卉
半
卌
华
卑
卒
卓
協
单
卖
南
単
博
卜
卝
卞
占
卡
卢
卣
卤
卦
卩
卪
卫
卬
卯
印
危
即
却
卵
卷
卸
卻
卿
厂
厃
厄
历
厈
厉
厌
厓
厘
厚
原
厤
厥
厨
厭
厲
厶
厷
厸
去
厼
厽
县
叀
参
參
叅
又
叉
及
友
双
反
収
叐
发
叒
叔
叕
取
受
变
叚
叜
叟
口
古
句
另
叩
只
召
可
台
叱
史
右
叵
叶
号
司
叹
吂
吃
各
吅
合
吉
吊
吋
同
名
后
吏
向
吕
吗
君
吝
吞
否
含
启
吳
吴
吸
吹
吾
呂
呆
呈
告
员
呙
周
味
呼
命
咅
和
咎
咠
咢
咨
咲
咸
咼
哀
品
哈
哉
員
哥
哪
哲
唐
唯
唱
商
啇
問
啚
啬
啻
善
喜
喬
單
営
喿
嗇
嗣
嘉
器
噩
嚴
囊
囗
囘
囙
囚
四
回
囟
因
团
団
囧
囬
园
困
囱
図
囷
固
国
图
圂
圅
國
圍
園
圓
圖
團
土
圡
圣
圥
在
圭
地
圶
场
圼
坂
均
坊
坐
坒
坚
坴
垂
型
垔
垚
垣
埀
埋
城
域
埶
執
基
堀
堂
堅
堆
堇
堯
報
場
塔
塚
塞
塩
境
增
墨
壁
壘
士
壬
壯
声
売
壳
壴
壹
壺
壽
夂
处
夅
夆
备
変
夊
夋
夌
复
夏
夒
夕
外
夗
夘
多
夜
夢
大
夨
天
太
夫
夬
夭
央
失
夲
头
夷
夸
夹
夻
夾
奂
奄
奇
奈
奉
奎
奏
奐
契
奓
奔
奖
奚
奞
奠
奢
奥
奧
奭
女
奴
奶
奻
好
如
妃
妄
妖
妙
妟
妥
妹
妻
妾
姉
始
姐
姑
姓
委
姜
姫
姬
姿
威
娄
娘
娱
婁
婆
婚
婦
婴
嬪
嬰
嬴
子
孑
孔
孕
孖
字
存
孙
孚
孛
孝
孟
季
孤
学
孩
孫
孱
學
宀
宁
宂
它
宅
宇
守
安
宋
完
宏
宓
宗
官
宙
定
宛
宜
宝
实
実
客
宣
室
宫
宮
宰
害
家
容
宾
宿
寄
寅
密
富
寒
寛
寝
察
實
寧
審
寫
寬
寮
寶
寸
对
寺
寻
寽
対
寿
封
専
尃
射
将
將
專
尉
尊
尋
尌
對
導
小
少
尒
尓
尔
尖
尗
尚
尞
尢
尣
尤
尧
尨
尭
就
尸
尹
尺
尻
尼
尽
尾
尿
局
居
屈
届
屋
屎
屏
屑
展
屖
屚
属
屠
屡
屬
屮
屯
屰
山
屵
屾
岁
岂
岐
岑
岛
岡
岩
岳
岸
峯
峰
島
崇
崎
崑
崔
崖
崙
崩
嵐
嵬
嶋
嶲
巂
巛
川
州
巟
巠
巢
巤
工
左
巧
巨
巩
巫
差
己
已
巳
巴
巷
巸
巻
巽
巾
巿
帀
市
布
师
希
帚
帛
帝
带
師
席
帯
帰
帶
常
幕
干
平
年
幵
并
幷
幸
幹
幺
幻
幼
幽
幾
广
庁
広
庄
庆
床
应
底
店
庚
府
度
座
庫
庭
庶
康
庸
廉
廌
廛
廣
廩
廴
延
廷
建
廾
廿
开
弁
弃
弄
弇
弋
式
弓
弔
引
弗
弘
弜
弟
张
弥
弦
弱
張
強
强
弾
彊
彌
彎
彐
彑
当
彔
录
彖
彗
彡
形
彥
彦
彧
彩
彭
彰
影
彳
役
彼
往
征
待
很
律
後
徐
徒
得
徙
從
御
復
微
徳
徵
德
徹
徽
心
忄
必
忌
忍
志
忘
応
忝
忠
忩
快
念
忽
忿
怒
怖
思
怠
急
性
怪
怱
总
恆
恋
恐
恒
恩
恭
息
恵
悉
悟
悠
患
悤
悪
悲
悶
情
惑
惠
惡
惢
想
愁
愈
意
愛
感
慈
態
慎
慧
慮
慶
憂
憲
應
懿
戀
戈
戉
戊
戋
戌
戍
戎
戏
成
我
戒
戔
或
战
戚
戠
戢
戦
截
戰
戲
戶
户
戸
戹
戼
戾
房
所
扁
扇
手
扌
才
打
托
执
批
承
技
把
投
抗
折
抜
报
披
抱
押
担
拉
拍
拓
拜
拳
拿
持
指
挑
挙
振
据
授
掌
排
探
接
推
描
提
揭
援
摩
撃
播
撮
擊
操
支
攴
攵
收
攸
改
攻
放
政
敄
故
敏
救
敕
敖
敗
教
敝
敞
敢
散
敦
敫
敬
数
整
敵
敷
數
斂
文
斉
斊
斎
斗
料
斤
斥
斩
斬
断
斯
新
方
於
施
斿
旁
旅
旋
族
旗
无
旡
既
旣
日
旦
旧
旨
早
旬
旱
旲
时
旾
昆
昇
昌
昍
明
昏
易
昔
昗
昜
星
映
春
昬
昭
是
昱
昴
昷
時
晃
晉
晋
晏
晓
晚
晨
普
景
晴
晶
智
暑
暗
暮
暴
曇
曜
曝
曩
曰
曲
曳
更
曷
書
曹
曼
曾
替
最
朁
會
月
有
朋
服
朔
朕
朗
望
朝
期
木
朩
未
末
本
札
朮
术
朱
朴
朵
朶
机
朿
杀
杉
李
杏
村
杜
束
条
来
杨
杯
杰
東
杲
杳
松
板
析
林
枚
果
枝
枲
架
枼
柏
某
染
柔
查
柬
柰
柳
柴
査
栄
标
栗
校
株
根
格
桀
桂
桃
案
桐
桑
桜
档
桥
桼
梁
梅
條
梟
梦
梨
棋
棘
棠
棥
森
植
検
楊
楚
業
極
楼
楽
概
榜
榮
構
様
樂
樊
樓
標
模
権
横
樹
橋
橘
機
權
欠
次
欢
欣
欮
欲
欶
欽
款
歆
歇
歌
歛
止
正
此
步
武
歨
歩
歪
歮
歯
歰
歲
歳
歴
歷
歸
歹
歺
死
殊
残
殳
段
殷
殸
殹
殺
殻
殿
毅
毋
毌
母
每
毒
比
毕
毚
毛
毳
氏
氐
民
气
気
氣
水
氵
氶
氷
永
氺
氾
求
汉
汝
汞
江
池
汤
決
沃
沈
沒
沓
沖
沙
沝
没
沢
河
油
治
沼
況
泉
法
波
泣
泥
注
泰
洋
洛
洞
津
洪
洲
活
派
流
浅
济
浜
浦
浩
浪
浮
海
消
涙
涛
涼
淑
淡
淮
深
淳
清
済
渚
渠
渡
温
測
港
游
湖
湯
湾
満
源
準
溪
滅
滝
满
滿
演
漢
漫
漸
潘
潤
潮
澄
澤
澳
激
濟
瀬
灣
火
灬
灭
灯
灰
灵
灷
災
炅
炎
炏
炗
炙
炭
点
為
烈
烏
烝
热
焉
無
焦
焱
然
焼
煞
照
熊
熏
熙
熱
燕
營
燮
爆
爪
爫
爭
爯
爰
爱
爲
爵
父
爻
爽
爾
爿
片
版
牌
牙
牚
牛
牜
牟
牢
牧
物
牪
特
牽
犀
犬
犭
犮
犯
状
狂
狄
狊
狐
狗
狩
独
狺
狼
猋
猒
猛
猪
猫
献
猿
獄
獅
獣
獨
獲
獻
玄
率
玉
王
玟
玨
玩
现
玲
珍
珎
珠
班
現
球
理
琴
瑞
瑟
瑩
璋
環
瓜
瓦
甘
甚
生
產
産
用
甫
甬
田
由
甲
申
电
甶
男
甸
甹
町
画
甾
畀
界
畏
畐
畑
留
畜
畟
畢
略
畧
畨
番
畫
異
畱
畳
當
畺
畾
疊
疋
疌
疑
疒
疫
疾
病
痛
癶
癸
癹
発
登
發
白
百
皀
皃
的
皆
皇
皋
皐
皕
皮
皷
皿
盃
盆
盇
盈
益
盍
盎
监
盒
盖
盗
盛
盟
盡
監
盤
盧
目
直
相
盾
省
眇
眉
看
県
眔
眞
真
眷
眼
眾
着
睘
督
睪
睿
瞏
瞢
瞿
矍
矛
矞
矢
矣
知
矦
短
矮
石
砂
研
破
确
碎
碧
確
磊
磨
示
礻
礼
社
祐
祖
祝
神
祟
祥
票
祭
禀
禁
福
禮
禸
禹
禺
离
禽
禾
禿
秀
私
秃
秉
秋
科
秘
秝
秦
称
移
程
稟
種
稲
穀
穂
穆
穌
積
穴
究
穹
空
穿
突
窄
窒
立
竒
站
竜
竝
竟
章
童
端
竹
笑
笠
第
筆
等
答
策
箕
算
管
箴
節
篇
篤
篭
簡
籍
米
粉
粛
粟
粤
粦
粲
精
糖
糞
糸
糹
系
紀
約
紅
納
純
紗
紙
級
素
索
紫
累
細
紹
終
組
経
結
絜
絫
統
絲
絵
絶
經
続
維
網
綾
綿
緊
総
緒
線
編
縄
縣
總
繇
織
纍
纟
红
约
级
纪
线
组
经
结
统
编
缶
网
罒
罔
罕
罗
罙
罡
罢
罪
置
署
罷
羅
羊
羌
羍
美
羔
羕
羗
羞
羡
羣
群
義
羲
羸
羽
翁
翏
習
翔
翕
翟
翠
翼
耀
老
耂
考
者
耆
而
耎
耑
耒
耳
耴
耶
耷
聂
聊
联
聖
聚
聞
聯
聲
聴
聶
職
聿
肀
肃
肅
肉
肖
肙
肥
肩
肯
育
肴
肺
胃
背
胡
胥
能
脊
脚
脩
脱
腐
腾
膚
臣
臤
臧
臨
自
臬
臭
臯
臱
至
致
臺
臼
臽
臾
臿
舀
舂
舄
與
興
舉
舌
舍
舛
舜
舞
舟
航
般
船
艦
艮
良
色
艸
艹
艺
艾
节
芒
芔
芝
芬
芮
花
芳
芸
芺
芻
芽
苏
苔
苗
苟
若
苦
英
茂
范
茜
茶
茸
荅
草
荊
荒
荣
药
荼
莆
莉
莊
莧
莫
获
莽
菆
菊
菐
菜
菩
華
萌
营
萬
落
葉
著
葛
董
葵
蒙
蒦
蒼
蓋
蓬
蓮
蓺
蔑
蔡
蔵
蕉
蕭
薄
薛
薦
薩
薬
薰
藍
藏
藝
藤
藥
蘇
蘭
虍
虎
虐
虒
虔
處
虖
虗
虘
虚
虛
虜
虞
號
虫
虹
虽
蚤
蚩
蛇
蛋
蜀
蜜
蝶
融
蟲
蠡
血
衆
行
衍
術
街
衛
衝
衣
衤
表
衮
衰
袁
袞
被
装
裏
裕
補
製
褭
褱
襄
襲
襾
西
覀
要
覃
覇
見
規
覓
視
覚
覧
親
観
覺
覽
觀
见
观
视
角
解
言
訁
訇
計
訊
訓
記
訪
設
許
評
詞
試
詩
話
詹
誌
認
誕
語
誠
誩
說
説
読
誰
課
調
談
請
論
諸
謀
謎
講
謝
識
警
譯
議
護
變
讠
计
讯
记
论
设
词
试
话
语
说
请
谷
豆
豈
豊
豐
豕
豖
豙
象
豦
豩
豪
豸
貇
貝
貞
貟
負
財
貢
貧
貪
貫
責
貳
貴
買
費
賀
賁
資
賈
賊
賏
賓
賔
賛
賞
賢
賣
質
賴
贊
贝
贡
责
贯
贲
贵
资
赖
赛
赞
赤
赦
走
赵
起
超
越
趙
足
跡
路
蹇
身
躬
車
軍
軎
軟
転
載
輔
輝
輦
輪
轟
车
辛
辜
辞
辟
辥
辰
辱
農
辵
辶
边
辺
达
过
迎
运
近
返
还
这
进
远
连
迪
迷
追
退
送
逃
逆
选
透
逐
這
通
速
造
逢
連
逮
週
進
遀
遂
遇
遊
運
過
道
達
遠
遣
遥
適
遷
選
遺
還
邊
邑
邓
邕
那
邦
邪
郎
郑
郡
部
郭
郵
郷
都
鄉
鄭
酉
酋
配
酒
酓
醫
釆
采
里
重
野
量
金
釒
針
鈴
鉄
銀
銃
鋼
錄
錢
録
鎮
鏡
鐘
鐵
鑑
钅
钱
铁
镇
長
镸
长
門
閃
閉
開
閏
閑
閒
間
閔
関
閣
閵
閻
闇
闌
闘
關
门
问
间
闷
闻
阑
阜
阝
队
阪
阮
防
阳
阿
际
陆
陈
降
限
院
陣
除
陰
陳
陵
陸
険
陽
隆
隊
隋
際
隠
隡
隨
隱
隶
隹
隺
隻
隼
隽
难
雀
雁
雄
雅
集
雈
雋
雍
雐
雔
雙
雚
雜
雝
雞
離
難
雨
雩
雪
雲
零
雷
電
需
震
霊
霍
霜
霝
霞
霧
露
霸
靈
靑
青
靖
静
靜
非
靡
面
靣
革
韋
韓
韦
韩
韭
韯
韱
音
響
頁
頂
頃
項
順
須
頗
領
頡
頭
頻
頼
題
顔
願
顛
類
顯
页
项
顺
频
题
颜
風
风
飛
飞
食
飠
飯
飲
飾
養
餘
館
饣
馆
首
香
馬
馮
駅
駦
騎
験
马
骨
體
高
髟
鬥
鬯
鬲
鬼
魂
魏
魔
魚
魯
鮮
鱼
鲁
鳥
鳳
鳴
鶴
鷹
鸟
鹵
鹿
麃
麗
麥
麦
麵
麻
麼
黃
黄
黍
黎
黑
黒
點
黨
黹
黽
黾
鼎
鼓
鼠
鼻
齊
齋
齐
齒
齿
龍
龙
龜
龟
龠
龰
龱
龴
龵
龶
龷
龸
龹
ꜜ
ꟲ
ꤟ
ꤢ
ꤤ
ꤧ
꤬
꤭
ꧡ
ꧣ
ꧤ
ꩪ
ꩫ
ꩬ
ꩭ
ꪀ
ꪁ
ꪄ
ꪅ
ꪉ
ꪊ
ꪋ
ꪎ
ꪏ
ꪑ
ꪒ
ꪔ
ꪕ
ꪖ
ꪘ
ꪙ
ꪚ
ꪜ
ꪝ
ꪠ
ꪡ
ꪢ
ꪣ
ꪤ
ꪥ
ꪨ
ꪩ
ꪫ
ꪬ
ꪭ
ꪮ
ꪰ
ꪱ
ꪲ
ꪳ
ꪴ
ꪵ
ꪶ
ꪷ
ꪸ
ꪹ
ꪺ
ꪻ
ꪼ
ꪽ
ꪾ
꪿
ꫀ
꫁
ꫂ






者
艹
︀
️
﻿
！
％
＆
（
）
，
－
．
／
０
１
２
３
４
５
６
７
８
９
：
；
＜
＝
＞
？
［
］
ａ
ｂ
ｃ
ｄ
ｅ
ｇ
ｈ
ｉ
ｋ
ｌ
ｍ
ｎ
ｏ
ｐ
ｒ
ｓ
ｔ
ｕ
ｖ
ｘ
ｙ
｜
～
･
￼
𐌰
𐬀
𑀁
𑀅
𑀓
𑀔
𑀕
𑀘
𑀚
𑀝
𑀡
𑀢
𑀤
𑀥
𑀦
𑀧
𑀩
𑀪
𑀫
𑀬
𑀭
𑀮
𑀯
𑀲
𑀳
𑀸
𑀺
𑀻
𑀼
𑁂
𑁆
𑜀
𑜁
𑜂
𑜃
𑜄
𑜆
𑜇
𑜈
𑜉
𑜊
𑜋
𑜌
𑜍
𑜎
𑜏
𑜐
𑜑
𑜒
𑜓
𑜞
𑜠
𑜡
𑜢
𑜣
𑜤
𑜥
𑜦
𑜧
𑜨
𑜩
𑜪
𑜫
𝪜
𠀁
𠀃
𠀆
𠀉
𠀎
𠀐
𠁁
𠁣
𠂆
𠂇
𠂈
𠂉
𠂊
𠂋
𠂎
𠂒
𠂔
𠂛
𠂡
𠂢
𠂤
𠂬
𠂭
𠂹
𠃊
𠃋
𠃌
𠃍
𠃎
𠃑
𠃓
𠃔
𠃜
𠄌
𠄎
𠄠
𠄢
𠆢
𠆥
𠇍
𠈌
𠌵
𠓜
𠔉
𠔥
𠔼
𠔽
𠔿
𠕀
𠕁
𠕋
𠘧
𠘨
𠙻
𠙼
𠚏
𠚒
𠚤
𠚪
𠣏
𠤎
𠤕
𠥓
𠦄
𠦑
𠦝
𠧒
𠧗
𠧪
𠩺
𠪚
𠫓
𠫔
𠫤
𠬛
𠬝
𠬞
𠬢
𠬤
𠬶
𠮛
𠮦
𠮷
𠯑
𠱠
𠳮
𠷎
𡈼
𡉀
𡉵
𡌥
𡍮
𡏳
𡕒
𡕩
𡕰
𡖅
𡗗
𡗜
𡘆
𡘤
𡧱
𡨄
𡩧
𡬠
𡭽
𡰣
𡰥
𡰪
𡰯
𡰱
𡷈
𡸁
𡿨
𡿩
𡿪
𡿺
𢀖
𢀛
𢀩
𢁙
𢆉
𢆰
𢆶
𢇁
𢇇
𢉖
𢌬
𢌿
𢏚
𢑑
𢑚
𢖻
𢙣
𢛳
𢦏
𢦒
𢧵
𢼄
𢾕
𣁋
𣄼
𣅀
𣅽
𣍘
𣎳
𣎵
𣏋
𣏼
𣗥
𣥂
𣥖
𣦵
𣦼
𣧄
𣪊
𣪠
𣬉
𣳾
𣶒
𤇾
𤊽
𤐫
𤓰
𤔔
𤕨
𤣩
𤰇
𤰔
𤰞
𤴓
𤴔
𤽄
𥁑
𥁕
𥃦
𥃩
𥃭
𥇡
𥑟
𥘅
𥘈
𥝢
𥫗
𥱡
𦈢
𦉪
𦉬
𦉼
𦍌
𦍒
𦎧
𦐇
𦓔
𦔮
𦘒
𦙃
𦚏
𦣝
𦣞
𦣻
𦥑
𦥔
𦥯
𦨉
𦭝
𦰩
𧆞
𧈧
𧘇
𧰨
𧴪
𧴮
𧵩
𧾷
𨸏
𨾴
𩙿
𩠐
𩫏
𩵋
𪉷
𪜀
𪟽
𪠲
𪩲
𫇦
𫔭
𫜸
𫝀
𫠣
𫠩
𫢉
𫥞
𫩏
𫩠
𫪡
𫲽
𫶧
𬀷
𬐘
𬗌
𬙙
𬛸
𬜯
𬟩
𬯁
𬴘
𬺻
𬼉
𬼖
𭀰
𭁈
𭁨
𭅰
𭑈
𭕄
𭗼
𭤨
𭥫
𭻾
𮅕
𮊿
𮍌
𮍏
𮓗
𮥼
𮧮
廾
𰀁
𰀄
𰀈
𰀉
𰀕
𰀠
𰀡
𰀢
𰀪
𰁜
𰃮
𰆊
𰆘
𰋙
𰕎
𰢴
𰧭
𰯲
01--
02--
03--
04--
05--
06--
07--
08--
09--
43--
44--
45--
46--
47--
48--
49--
50--
51--
52--
53--
54--
55--
56--
57--
58--
59--
60--
61--
62--
63--
64--
65--
66--
67--
68--
69--
70--
71--
72--
73--
74--
75--
76--
77--
78--
79--
80--
81--
82--
83--
84--
85--
86--
87--
88--
89--
90--
91--
92--
93--
94--
95--
96--
97--
978--
98--
99--
a--
aa--
ab--
ac--
acce--
ad--
adap--
add--
adol--
ae--
aero--
af--
affe--
ag--
ah--
ai--
air--
aj--
ak--
al--
ales--
ali--
all--
alte--
am--
amphi--
an--
ana--
anarc--
and--
ang--
ans--
ant--
anti--
any--
ao--
ap--
app--
aqua--
ar--
ara--
argu--
arm--
as--
ash--
assi--
at--
ath--
attach--
au--
audi--
aus--
auto--
av--
aw--
ax--
aya--
az--
b--
ba--
back--
bact--
bad--
bag--
bal--
ban--
bar--
base--
bat--
be--
beau--
bec--
bel--
ben--
benef--
ber--
bet--
bha--
bhu--
bi--
bib--
big--
bin--
bio--
bis--
bla--
ble--
bli--
blo--
bo--
boo--
book--
bor--
bos--
bot--
bou--
bow--
box--
boy--
br--
bre--
bro--
broad--
bru--
bu--
buc--
bun--
bur--
but--
by--
byzan--
c--
ca--
cal--
cam--
can--
cap--
car--
cat--
cau--
cc--
cd--
ce--
cele--
cent--
cer--
cere--
cert--
ch--
cha--
che--
chi--
chlo--
cho--
ci--
citeref--
citi--
cl--
clay--
clo--
cm--
cn--
co--
coll--
collec--
com--
compo--
con--
concent--
confu--
contr--
contri--
conver--
cor--
corre--
cos--
cou--
cr--
cres--
crit--
cro--
cs--
ct--
cu--
cur--
cy--
cycl--
cyp--
d--
da--
dai--
dam--
dan--
dar--
daw--
day--
de--
dec--
decla--
def--
defic--
del--
demogra--
den--
depen--
der--
des--
deter--
develo--
dha--
di--
dia--
dic--
dict--
diff--
dimen--
dio--
dipl--
dis--
disc--
dj--
do--
doc--
don--
down--
dr--
du--
dw--
dy--
dyn--
dza--
dzo--
e--
ea--
ear--
eb--
ec--
ed--
ef--
eh--
ei--
ek--
el--
ele--
elec--
eleva--
elis--
em--
emer--
emo--
en--
end--
eng--
ep--
epid--
equ--
equiv--
er--
es--
est--
establi--
et--
eu--
euro--
ex--
expe--
expl--
extinct--
f--
fa--
faci--
fan--
far--
fau--
fe--
feed--
fer--
fi--
fili--
fire--
fix--
fl--
flo--
flor--
fo--
fol--
foot--
for--
fr--
frag--
fre--
free--
fro--
fu--
fun--
g--
ga--
gala--
gar--
gas--
ge--
gen--
geo--
ger--
gesc--
gi--
gio--
giu--
gl--
glad--
glo--
gm--
gn--
go--
god--
gr--
grad--
grap--
grif--
gro--
gs--
gu--
gui--
gun--
gwa--
gy--
h--
ha--
habs--
hac--
hai--
ham--
han--
hap--
har--
hard--
has--
hat--
haw--
hay--
he--
head--
hear--
hei--
heinr--
hel--
heli--
hen--
her--
hi--
high--
him--
hiro--
his--
hit--
hm--
ho--
hoff--
home--
horm--
hot--
hr--
hu--
hy--
hydr--
hyper--
hypo--
i--
ia--
ic--
id--
iden--
if--
ig--
ik--
il--
illu--
illust--
im--
in--
inc--
incor--
indi--
indu--
infe--
infi--
info--
ing--
insp--
instru--
int--
inter--
inve--
invent--
invest--
invi--
io--
ip--
ir--
is--
iso--
it--
iu--
iv--
iw--
iz--
iᴇ--
j--
ja--
jaar--
jan--
jar--
je--
jen--
ji--
jin--
jo--
ju--
k--
ka--
kai--
kam--
kan--
kat--
kazakhs--
ke--
ken--
ker--
key--
kha--
ki--
kit--
km--
ko--
kon--
kr--
kra--
ku--
kun--
ky--
l--
la--
lam--
lan--
land--
lau--
lay--
le--
leg--
les--
li--
life--
lim--
lin--
lit--
ll--
lo--
loc--
lu--
ly--
m--
ma--
mac--
macro--
mad--
madagas--
mag--
mai--
main--
mal--
mamma--
man--
manda--
manif--
map--
mar--
mari--
mat--
mb--
mc--
me--
measu--
measure--
med--
mediter--
meg--
memo--
men--
mer--
merc--
met--
mi--
micr--
micro--
mid--
mil--
min--
mit--
miya--
mo--
mon--
moon--
mor--
mora--
morpho--
mou--
mp--
mr--
mu--
multi--
mun--
my--
myst--
n--
na--
naka--
nan--
napo--
nar--
nas--
nat--
nd--
ne--
neder--
neigh--
neo--
ner--
net--
neu--
neuro--
new--
news--
ng--
nh--
ni--
nico--
nie--
nik--
niko--
nine--
nj--
no--
non--
nor--
not--
ns--
nt--
nu--
nue--
nume--
ny--
nz--
o--
ob--
obser--
observa--
oc--
occupat--
of--
off--
og--
oh--
oi--
ok--
ol--
old--
om--
on--
one--
op--
oppo--
opport--
or--
os--
ou--
out--
over--
oxi--
p--
pa--
pac--
pales--
pan--
par--
para--
pat--
pay--
pe--
pedia--
pen--
per--
pet--
ph--
pharm--
phen--
phy--
physi--
pi--
pic--
pin--
pit--
pl--
play--
pneum--
po--
poli--
poly--
pop--
post--
pp--
pr--
pra--
pre--
predict--
prim--
princ--
pro--
provi--
provin--
ps--
psy--
psycho--
pt--
pu--
publi--
pul--
pur--
py--
q--
qu--
qua--
quo--
r--
ra--
radio--
ram--
ran--
rat--
rc--
re--
reco--
recom--
red--
ref--
refer--
reflect--
regard--
regi--
rela--
ren--
res--
reti--
rev--
revis--
rh--
ri--
ro--
rob--
rodr--
ron--
rou--
row--
rs--
rt--
ru--
run--
ry--
s--
sa--
sai--
sal--
sam--
san--
sap--
sar--
sc--
scar--
sch--
scho--
sco--
se--
sea--
sec--
see--
sei--
sen--
sep--
ser--
set--
settle--
sh--
sha--
she--
shi--
sho--
show--
si--
siam--
sil--
sim--
sin--
sk--
sku--
sky--
sl--
sla--
slo--
slove--
sm--
smoo--
sno--
so--
socio--
sol--
some--
son--
sor--
sp--
spec--
spel--
spon--
spra--
squ--
sr--
ss--
st--
sta--
star--
stat--
ster--
stor--
stru--
stu--
su--
sub--
sul--
sum--
sun--
super--
sur--
susp--
sve--
swa--
swe--
sy--
syll--
symp--
sz--
sɵ--
t--
ta--
tai--
taka--
tam--
tan--
tar--
tb--
tc--
te--
tea--
temp--
ten--
ter--
terri--
th--
tha--
thai--
the--
thri--
ti--
tic--
tim--
to--
ton--
top--
tor--
tr--
tra--
trans--
tri--
tro--
ts--
tsu--
tt--
tu--
tv--
twel--
twi--
ty--
u--
ue--
uk--
um--
un--
unce--
under--
uni--
univ--
univer--
up--
ur--
uru--
us--
ut--
v--
va--
val--
vale--
van--
var--
ve--
vec--
vel--
ver--
vete--
vi--
view--
vin--
vo--
vol--
vu--
w--
wa--
wai--
wal--
wan--
war--
wat--
way--
we--
web--
wei--
wel--
wen--
west--
whit--
wi--
wiki--
wil--
win--
wo--
wol--
wood--
work--
wu--
wy--
x--
xa--
xi--
xx--
y--
ya--
yama--
ye--
yi--
yo--
yu--
z--
za--
ze--
zi--
zo--
zoo--
zu--
æ--
đ--
ŋ--
ɐ--
ɑ--
ɔ--
ɕ--
ɕi--
ə--
ɛ--
ɡ--
ɦ--
ɨ--
ɪ--
ɯ--
ɲ--
ɵ--
ɹ--
ɾ--
ʂ--
ʃ--
ʊ--
ʋ--
ʌ--
ʐ--
ʑ--
ʒ--
ʔ--
ʔɓ--
ʰ--
ː--
δ--
κ--
ν--
τ--
в--
г--
д--
з--
к--
л--
м--
н--
о--
р--
с--
т--
ч--
ا--
ال--
ب--
ع--
م--
و--
अ--
क--
त--
न--
प--
म--
य--
र--
व--
स--
ก--
กก--
กกล--
กกา--
กการ--
กกำหน--
กข--
กของ--
กขา--
กค--
กคน--
กคร--
กคว--
กง--
กงาน--
กจ--
กจะ--
กจาก--
กช--
กชน--
กชาย--
กซ--
กฎ--
กฎหมาย--
กฐาน--
กด--
กดา--
กต--
กตา--
กถ--
กท--
กทร--
กทำ--
กธ--
กน--
กนำ--
กนำม--
กบ--
กป--
กประ--
กปล--
กผ--
กผนว--
กฝ--
กพ--
กพระ--
กฟ--
กภ--
กภาพ--
กม--
กมล--
กมวย--
กมวยช--
กมวยส--
กมวยสากล--
กมวยไทย--
กย--
กยภาพ--
กร--
กรณ--
กรด--
กรท--
กรบ--
กรม--
กรมท--
กรมหลวง--
กรยาน--
กรรม--
กรรมการ--
กรรมการในคณะ--
กรว--
กรส--
กรอ--
กระ--
กระจ--
กระทำ--
กระแ--
กราช--
กราน--
กฤต--
กล--
กลง--
กละ--
กลาง--
กลไก--
กว--
กวง--
กวาด--
กศ--
กษณ--
กษณะ--
กษร--
กษะ--
กษา--
กษาการ--
กษาข--
กษาท--
กษาพระ--
กษาราช--
กษาส--
กษาอ--
กษาและ--
กษาโรค--
กส--
กสภา--
กสอน--
กสะ--
กสาว--
กห--
กหม--
กหล--
กอ--
กอง--
กองท--
กอบร--
กออก--
กออกแบบ--
กอะ--
กฮ--
กะ--
กา--
กาก--
กาม--
กาย--
การ--
การข--
การคณะ--
การคำนวณ--
การท--
การทำ--
การทำงาน--
การนำ--
การปกคร--
การปกครองของ--
การร--
การว--
การส--
การออก--
การออกแบบ--
กาล--
กาและ--
กำ--
กำหนด--
กำแพ--
กเตะ--
กเธอ--
กเนร--
กเสบ--
กเอ--
กแบ--
กและ--
กแสดง--
กโทษ--
กโลก--
กใน--
กไป--
กๆ--
ข--
ขณ--
ขณะ--
ขน--
ขนาด--
ขบวน--
ขภาพ--
ขม--
ขย--
ขยาย--
ขว--
ขส--
ขอ--
ของ--
ของการ--
ของคณะ--
ขอบ--
ขะ--
ขา--
ขาด--
ขาย--
ขาว--
ค--
คก--
คการ--
คค--
คคล--
คคะ--
คง--
คช--
คณ--
คณะ--
คต--
คท--
คน--
คนข--
คนแรก--
คนใน--
คบ--
คป--
คพ--
คม--
คย--
คร--
ครบ--
คล--
คลอง--
คว--
ควร--
ความ--
คส--
คอ--
คอน--
คอม--
คอย--
คะ--
คะแนน--
คา--
คาถ--
คาร--
คำ--
คำต--
ฅ--
ฆ--
ฆาต--
ง--
งก--
งกฎ--
งกร--
งกรรม--
งกระ--
งกระบว--
งกฤษ--
งกล--
งกะ--
งกา--
งกาย--
งการ--
งกำหน--
งข--
งขว--
งของ--
งค--
งคณะ--
งคน--
งคม--
งคร--
งคล--
งคว--
งความ--
งคะ--
งคา--
งฆ--
งง--
งงะ--
งงาน--
งจ--
งจะ--
งจะส--
งจาก--
งจากจ--
งฉ--
งช--
งชาว--
งซ--
งด--
งดำร--
งต--
งตร--
งตะ--
งตาม--
งตาร--
งถ--
งท--
งทร--
งทหาร--
งทาง--
งทำ--
งทำน--
งทำล--
งธ--
งน--
งนามกรรมวาจกอนาค--
งนายก--
งนำ--
งบ--
งป--
งประ--
งประธาน--
งประมวลกฎ--
งปรากฏ--
งปล--
งปวง--
งผ--
งผล--
งพ--
งพยาย--
งพระ--
งพล--
งพวก--
งพอ--
งฟ--
งภ--
งภา--
งภาค--
งม--
งมรดก--
งมรดกโลก--
งมหา--
งมอบ--
งมะ--
งมา--
งย--
งร--
งรถ--
งระ--
งระบ--
งราช--
งราย--
งล--
งลง--
งลำ--
งว--
งวง--
งวล--
งศ--
งศตว--
งศพ--
งศาล--
งส--
งสน--
งสภา--
งสม--
งสห--
งสอง--
งสะ--
งสาม--
งสามารถ--
งห--
งหม--
งหมด--
งหล--
งหลาย--
งหวะ--
งหาร--
งอ--
งออก--
งออฟ--
งอะ--
งอาจ--
งอำน--
งอำนาจ--
งฮ--
งะ--
งาน--
งาม--
งเกต--
งเขต--
งเขา--
งเค--
งเทพ--
งเทศ--
งเบ--
งเป--
งเพลง--
งเร--
งเล--
งเว--
งเวลา--
งเศส--
งเส--
งเอ--
งแค--
งแย--
งแรก--
งแรกใน--
งแรง--
งและ--
งแสน--
งแอ--
งโ--
งโค--
งโคร--
งโดย--
งโต--
งโป--
งโรง--
งใจ--
งใด--
งใน--
งในประเทศ--
งไทย--
งไป--
จ--
จกรม--
จกรรม--
จการ--
จการโทรคม--
จข--
จง--
จจ--
จจะ--
จช--
จด--
จดหมา--
จต--
จท--
จน--
จนส--
จบ--
จประ--
จพ--
จพระ--
จพระบรม--
จพระบรมไตร--
จม--
จย--
จร--
จล--
จว--
จส--
จอ--
จอม--
จออก--
จะ--
จะก--
จะข--
จะค--
จะงอย--
จะต--
จะท--
จะทร--
จะทำ--
จะนำ--
จะพ--
จะม--
จะย--
จะร--
จะล--
จะส--
จะห--
จะอ--
จา--
จาก--
จากการ--
จากประเทศ--
จากภาษา--
จาค--
จาง--
จารณา--
จำ--
จำน--
จำนวน--
จำป--
จำพ--
จำเล--
จำแน--
จและ--
จไป--
ฉ--
ฉล--
ฉลอง--
ฉาก--
ช--
ชก--
ชกาล--
ชช--
ชชา--
ชฌ--
ชญา--
ชด--
ชต--
ชน--
ชนะ--
ชบ--
ชพ--
ชม--
ชมรม--
ชย--
ชร--
ชล--
ชว--
ชส--
ชอ--
ชอบ--
ชะ--
ชา--
ชาการ--
ชาท--
ชาน--
ชาพ--
ชาภาษา--
ชาย--
ชาว--
ชำนา--
ชเช--
ซ--
ซง--
ซอ--
ซอย--
ซะ--
ซา--
ซาน--
ฌ--
ฌาป--
ญ--
ญก--
ญของ--
ญค--
ญจ--
ญช--
ญชา--
ญชาการ--
ญญ--
ญญา--
ญญาณ--
ญต--
ญท--
ญน--
ญบ--
ญป--
ญประ--
ญพ--
ญพระ--
ญมา--
ญย--
ญร--
ญล--
ญว--
ญส--
ญหา--
ญอ--
ญา--
ญาต--
ญแจ--
ญและ--
ญใจ--
ญไป--
ฎ--
ฎก--
ฏ--
ฏฐ--
ฐ--
ฐก--
ฐค--
ฐฉ--
ฐช--
ฐซ--
ฐน--
ฐบ--
ฐบาล--
ฐประช--
ฐพ--
ฐม--
ฐว--
ฐส--
ฐสภา--
ฐอ--
ฐาน--
ฐานะ--
ฐเอก--
ฑ--
ฑา--
ฒ--
ฒน--
ฒนธรรม--
ฒนา--
ฒนาการ--
ฒนาระบบ--
ณ--
ณก--
ณค--
ณฐ--
ณฑ--
ณณ--
ณท--
ณน--
ณป--
ณพ--
ณภาพ--
ณย--
ณส--
ณห--
ณอ--
ณา--
ด--
ดก--
ดกร--
ดกระจา--
ดกระทร--
ดกระทรวง--
ดการ--
ดข--
ดขวาง--
ดของ--
ดขาด--
ดค--
ดครอง--
ดคล--
ดควา--
ดง--
ดงาน--
ดจ--
ดจะ--
ดจาก--
ดฉ--
ดช--
ดชอบ--
ดซ--
ดด--
ดดา--
ดต--
ดตะ--
ดตาม--
ดถ--
ดท--
ดทร--
ดทะ--
ดทำ--
ดทำการ--
ดธ--
ดธรร--
ดน--
ดบ--
ดป--
ดประ--
ดผ--
ดผล--
ดฝ--
ดพ--
ดพระ--
ดภ--
ดภา--
ดภาพ--
ดภาษา--
ดม--
ดมะ--
ดมา--
ดย--
ดยอด--
ดร--
ดรถ--
ดระ--
ดราช--
ดล--
ดลง--
ดละ--
ดว--
ดวง--
ดส--
ดสงคร--
ดสน--
ดสรร--
ดสอน--
ดสะ--
ดสำ--
ดห--
ดหน--
ดหม--
ดหล--
ดอ--
ดอก--
ดอน--
ดออก--
ดอะ--
ดอา--
ดอำนาจ--
ดฮ--
ดะ--
ดา--
ดาของ--
ดาบ--
ดาว--
ดาส--
ดำ--
ดำร--
ดเกาะ--
ดเข--
ดเจน--
ดเท--
ดเผย--
ดเอ--
ดแจ--
ดแบ--
ดแปลง--
ดแรก--
ดและ--
ดแสดง--
ดโ--
ดโคก--
ดโดย--
ดโน--
ดโรค--
ดใน--
ดไป--
ต--
ตก--
ตกรรม--
ตกล--
ตของ--
ตค--
ตควา--
ตง--
ตจ--
ตจะ--
ตจาก--
ตจำน--
ตช--
ตซ--
ตซอล--
ตด--
ตต--
ตตร--
ตตา--
ตถ--
ตท--
ตน--
ตนา--
ตบ--
ตบอล--
ตบอลชาว--
ตประ--
ตประธาน--
ตพ--
ตภ--
ตม--
ตย--
ตยกรรม--
ตยสาร--
ตยา--
ตร--
ตรกร--
ตรของ--
ตรค--
ตรง--
ตรชาย--
ตรท--
ตรพ--
ตรม--
ตรว--
ตรวจสอบ--
ตรส--
ตรอ--
ตระ--
ตรา--
ตล--
ตลอด--
ตลอดจน--
ตลาด--
ตว--
ตส--
ตอ--
ตอน--
ตอบ--
ตอล--
ตะ--
ตะเ--
ตา--
ตาม--
ตามพระ--
ตามเวลา--
ตาย--
ตาร--
ตำน--
ตำบล--
ตำรวจ--
ตและ--
ตโดย--
ตใจ--
ตใน--
ตไป--
ถ--
ถนน--
ถวาย--
ถอด--
ท--
ทก--
ทข--
ทค--
ทจ--
ทด--
ทท--
ทธ--
ทธส--
ทธา--
ทน--
ทบ--
ทม--
ทย--
ทยา--
ทยาน--
ทยาเขต--
ทร--
ทรง--
ทรงพระ--
ทรงล--
ทรถ--
ทรอ--
ทรา--
ทราบ--
ทว--
ทส--
ทหาร--
ทอ--
ทอง--
ทอดพระ--
ทะ--
ทะเล--
ทา--
ทาง--
ทางราช--
ทาน--
ทายาท--
ทำ--
ทำการ--
ทำงาน--
ทำต--
ทำน--
ทำลาย--
ทำส--
ทเอ--
ธ--
ธง--
ธน--
ธนา--
ธนาคาร--
ธยม--
ธยา--
ธร--
ธรรม--
ธส--
ธา--
ธำร--
น--
นก--
นกฎ--
นกร--
นกระ--
นกระบว--
นกล--
นกอ--
นการ--
นกำ--
นกำหน--
นข--
นขบว--
นของ--
นค--
นคง--
นคณะ--
นคน--
นคร--
นคล--
นคว--
นความ--
นคำ--
นง--
นงบประ--
นงาน--
นจ--
นจะ--
นจา--
นจาก--
นฉ--
นช--
นชน--
นชม--
นชอบ--
นชาว--
นซ--
นฐาน--
นด--
นดร--
นดา--
นดาลใจ--
นต--
นตก--
นตน--
นตรา--
นตลอ--
นตอน--
นตะ--
นตา--
นตามพระ--
นตำบ--
นตำรวจ--
นถ--
นถนน--
นท--
นทร--
นทหาร--
นทา--
นทาง--
นทำ--
นธ--
นธง--
นธน--
นธะ--
นน--
นนคร--
นนอก--
นนา--
นนาง--
นนายท--
นนำ--
นนโย--
นบ--
นบท--
นบน--
นป--
นปกคร--
นประ--
นประกอ--
นประธาน--
นปล--
นผ--
นผล--
นผลงาน--
นฝ--
นพ--
นพบ--
นพย--
นพระ--
นพระราชโอรส--
นพระโอรส--
นพล--
นพวก--
นฟ--
นฟร--
นภ--
นภาพ--
นภายใน--
นภาษา--
นม--
นมรดก--
นมรดกโลก--
นมหา--
นมะ--
นมา--
นมาก--
นย--
นยอม--
นยา--
นร--
นรถ--
นรอบ--
นระ--
นระบบ--
นราช--
นรามค--
นฤ--
นล--
นลง--
นละ--
นละคร--
นว--
นวา--
นวาย--
นศ--
นศาสน--
นส--
นสงคร--
นสน--
นสม--
นสว--
นสะ--
นสาข--
นสามารถ--
นสาร--
นสำร--
นห--
นหน--
นหม--
นหล--
นหา--
นอ--
นอก--
นอกเขต--
นอน--
นออก--
นออกของ--
นอะ--
นอาจ--
นอำน--
นอำเภ--
นฮ--
นะ--
นา--
นาค--
นาง--
นางส--
นาถ--
นาน--
นาม--
นาย--
นายก--
นายท--
นาว--
นาโน--
นำ--
นำข--
นำท--
นำประ--
นำเสนอ--
นเก--
นเกม--
นเข--
นเขา--
นเค--
นเช--
นเซ--
นเด--
นเดอะ--
นเท--
นเน--
นเป--
นเพราะ--
นเพลง--
นเร--
นเว--
นเวลา--
นเส--
นเอ--
นเอก--
นเอง--
นแ--
นแก--
นแข--
นแดน--
นแทน--
นแน--
นแนล--
นแบบ--
นแม--
นแรก--
นแรง--
นแล--
นและ--
นแอ--
นโคร--
นโด--
นโดย--
นโต--
นโน--
นโย--
นโยบาย--
นโรค--
นโอ--
นใ--
นใจ--
นใด--
นใน--
นในการ--
นใบ--
นได--
นไป--
นไว--
นไหว--
นไอ--
นๆ--
บ--
บก--
บกฎ--
บกร--
บการ--
บข--
บขนาด--
บของ--
บค--
บคณะ--
บคน--
บคล--
บควา--
บคะ--
บคะแน--
บง--
บงบประ--
บจ--
บจะ--
บจาก--
บจำน--
บฉ--
บช--
บซ--
บญ--
บด--
บต--
บตา--
บตำบ--
บถ--
บถนน--
บท--
บทบาท--
บทอด--
บทะ--
บธ--
บน--
บบ--
บบท--
บป--
บประ--
บประสบ--
บปล--
บปะ--
บผ--
บผล--
บผลกระท--
บพ--
บพระ--
บพวก--
บฟ--
บภ--
บภาพ--
บม--
บมอบ--
บมา--
บย--
บร--
บรถ--
บรมราช--
บรร--
บรรด--
บรรพ--
บรรย--
บรรเล--
บรอง--
บรอด--
บระ--
บระบบ--
บรา--
บราช--
บราชการ--
บล--
บละคร--
บว--
บวง--
บศ--
บส--
บสน--
บสอง--
บสะ--
บสาม--
บสาร--
บห--
บหม--
บหล--
บอ--
บอก--
บอน--
บอย--
บอล--
บออก--
บอำเภ--
บฮ--
บะ--
บา--
บาง--
บาดหล--
บาต--
บาท--
บาน--
บาย--
บาร--
บาล--
บเก--
บเขา--
บเทศ--
บเบ--
บเอ--
บแข--
บแรก--
บและ--
บโดย--
บโต--
บโตข--
บโทษ--
บโลก--
บใจ--
บใน--
บไป--
ป--
ปก--
ปกครอง--
ปของ--
ปค--
ปฐม--
ปด--
ปต--
ปท--
ปทร--
ปน--
ปป--
ปประ--
ปผ--
ปพ--
ปม--
ปร--
ประ--
ประกาศ--
ประจำ--
ประท--
ประธาน--
ประมวล--
ประส--
ประสาน--
ประเทศ--
ปรากฏ--
ปราศ--
ปล--
ปลา--
ปลาก--
ปลาย--
ปว--
ปส--
ปห--
ปอ--
ปะ--
ปา--
ปาก--
ปาน--
ปเค--
ปแบบ--
ปโป--
ปไตย--
ผ--
ผน--
ผม--
ผล--
ผลก--
ผลการ--
ผลข--
ผลงาน--
ผลท--
ผสมผ--
ผา--
ฝ--
ฝน--
ฝาก--
พ--
พก--
พข--
พงศ--
พจ--
พช--
พญ--
พท--
พน--
พนายก--
พบ--
พบก--
พพ--
พม--
พย--
พยาย--
พร--
พรม--
พรรค--
พระ--
พระน--
พระนาม--
พระมหา--
พระยา--
พระอ--
พระโอรส--
พล--
พลท--
พว--
พวก--
พส--
พหล--
พอ--
พอใจ--
พะ--
พา--
พาก--
พาท--
พาน--
พาร--
ฟ--
ฟฟ--
ฟร--
ฟล--
ฟอ--
ฟา--
ภ--
ภพ--
ภร--
ภรรยา--
ภา--
ภาค--
ภาพ--
ภายใน--
ภาวะ--
ภาษา--
ม--
มก--
มกฎ--
มการ--
มข--
มของ--
มค--
มคณะ--
มครอง--
มคล--
มคว--
มง--
มงคล--
มงาน--
มจ--
มจะ--
มจาก--
มจำน--
มฉ--
มฉลอง--
มช--
มชน--
มซ--
มณฑล--
มด--
มต--
มถ--
มท--
มทะ--
มธ--
มน--
มบ--
มป--
มปทาน--
มประ--
มผ--
มพ--
มพร--
มพระ--
มภ--
มภา--
มภาษา--
มม--
มมอง--
มมา--
มย--
มร--
มรดก--
มรวม--
มระ--
มราช--
มล--
มว--
มวยส--
มส--
มสถ--
มสม--
มห--
มหล--
มหา--
มอ--
มอง--
มอน--
มออก--
มออกอากาศ--
มะ--
มา--
มาก--
มาข--
มาจ--
มาจาก--
มาซา--
มาณ--
มาต--
มาตร--
มาท--
มาน--
มาย--
มาร--
มาส--
มาห--
มเค--
มเพลง--
มเม--
มเหลว--
มเอ--
มแรก--
มและ--
มโ--
มโคร--
มโดย--
มโน--
มใน--
มไป--
ย--
ยก--
ยกข--
ยกฐานะ--
ยกต--
ยกพ--
ยกร--
ยการ--
ยข--
ยของ--
ยค--
ยควา--
ยง--
ยงก--
ยงข--
ยงของ--
ยงค--
ยงจาก--
ยงต--
ยงท--
ยงบ--
ยงป--
ยงพ--
ยงพอ--
ยงร--
ยงส--
ยงห--
ยจ--
ยจะ--
ยจาก--
ยช--
ยชนะ--
ยญ--
ยญทอง--
ยด--
ยดนาม--
ยต--
ยท--
ยน--
ยนข--
ยนของ--
ยนค--
ยนจ--
ยนช--
ยนด--
ยนต--
ยนท--
ยนบ--
ยนบท--
ยนพ--
ยนพระ--
ยนภาพ--
ยนร--
ยนส--
ยนอ--
ยนเบ--
ยนแปลง--
ยนและ--
ยนไป--
ยบ--
ยบข--
ยป--
ยประ--
ยพ--
ยพระ--
ยฟ--
ยภ--
ยม--
ยมข--
ยมค--
ยมจาก--
ยมท--
ยมส--
ยมห--
ยย--
ยยศ--
ยร--
ยราช--
ยล--
ยว--
ยวข--
ยวชาญ--
ยวย--
ยวส--
ยวห--
ยวะ--
ยศ--
ยส--
ยสถ--
ยห--
ยหล--
ยหาย--
ยอ--
ยอด--
ยอดขาย--
ยอม--
ยอา--
ยอำนาจ--
ยะ--
ยา--
ยาก--
ยาง--
ยาน--
ยาม--
ยามา--
ยาย--
ยาว--
ยเอ--
ยและ--
ยใจ--
ยใน--
ยไป--
ร--
รก--
รจ--
รช--
รณ--
รณะ--
รถ--
รถโดยสาร--
รถไฟ--
รน--
รบ--
รพ--
รพา--
รม--
รย--
รว--
รวบร--
รวบรวม--
รวม--
รษะ--
รส--
รอ--
รอง--
รอด--
รอบ--
รอย--
ระ--
ระบ--
ระบบ--
ระบอบ--
ระบาด--
ระยะ--
รา--
ราก--
ราคา--
ราช--
ราบ--
ราม--
ราย--
รายงาน--
รายนาม--
รโทษ--
ฤ--
ฤๅ--
ล--
ลก--
ลกรรม--
ลข--
ลของ--
ลค--
ลง--
ลงนาม--
ลงม--
ลจ--
ลจะ--
ลจาก--
ลช--
ลซ--
ลด--
ลต--
ลตร--
ลถ--
ลท--
ลน--
ลบ--
ลบา--
ลป--
ลปะ--
ลพ--
ลพระ--
ลฟ--
ลภ--
ลภา--
ลม--
ลย--
ลร--
ลล--
ลละ--
ลลา--
ลว--
ลวดล--
ลส--
ลอ--
ลอง--
ลฮ--
ละ--
ละคร--
ละส--
ลา--
ลาน--
ลาย--
ลำ--
ลำเน--
ลแรก--
ลโด--
ลโน--
ลโนเบล--
ลใน--
ลไฮ--
ว--
วก--
วกล--
วข--
วของ--
วค--
วง--
วงกลา--
วงการ--
วงข--
วงป--
วงปลาย--
วงระยะ--
วงส--
วจ--
วจะ--
วจาก--
วช--
วซ--
วด--
วต--
วตน--
วถ--
วท--
วทร--
วน--
วนก--
วนการ--
วนของ--
วนต--
วนท--
วนบ--
วนป--
วนประกอบ--
วนผสม--
วนพ--
วนส--
วนำ--
วบ--
วป--
วประ--
วพ--
วพระ--
วภ--
วภาพ--
วม--
วมก--
วมการ--
วมการทด--
วมข--
วมท--
วมร--
วมส--
วมแสดง--
วย--
วยก--
วยการ--
วยข--
วยค--
วยควา--
วยงาน--
วยจำน--
วยช--
วยด--
วยต--
วยท--
วยน--
วยนม--
วยประ--
วยพ--
วยพระ--
วยม--
วยย--
วยยอด--
วยร--
วยราช--
วยล--
วยส--
วยอ--
วยโรค--
วร--
วรร--
วรรณ--
วระ--
วล--
วลง--
วละคร--
วว--
วส--
วสะ--
วห--
วหล--
วอ--
วอล--
วออก--
วะ--
วา--
วาง--
วางแผ--
วาด--
วาตาน--
วาร--
วารสาร--
วาส--
วเก--
วเร--
วเลข--
วเอ--
วเอง--
วแทน--
วและ--
วโลก--
วใจ--
วใน--
วไป--
ศ--
ศจ--
ศจะ--
ศต--
ศทาง--
ศนา--
ศพ--
ศม--
ศร--
ศล--
ศว--
ศวกร--
ศา--
ศาจ--
ศาล--
ศาสน--
ษ--
ษฎ--
ษฐา--
ษฐาน--
ษย--
ษยชน--
ษา--
ส--
สก--
สกล--
สการ--
สข--
สค--
สง--
สงบ--
สจ--
สช--
สด--
สต--
สถ--
สถาน--
สถานะ--
สถาปน--
สท--
สน--
สนาม--
สนใจ--
สบ--
สป--
สพ--
สภา--
สภากา--
สม--
สมม--
สมาค--
สมโ--
สย--
สยาม--
สร--
สรรพ--
สระ--
สล--
สละ--
สลาม--
สว--
สวด--
สวน--
สส--
สห--
สอ--
สอง--
สองข--
สอน--
สะ--
สา--
สาขา--
สาน--
สาม--
สามารถ--
สาย--
สาร--
สาระ--
สาว--
สำ--
สเต--
สเป--
สเปน--
สโต--
สโมสร--
ห--
หก--
หง--
หน--
หนาว--
หม--
หมด--
หมา--
หย--
หร--
หล--
หลวง--
หลาย--
หว--
หอ--
หอพ--
หา--
หาก--
หาง--
หาย--
หาร--
หารงาน--
หารราช--
ฬ--
ฬา--
ฬาข--
ฬาร--
อ--
อก--
อกข--
อกฎ--
อกน--
อกร--
อกระ--
อกล--
อกส--
อกอ--
อการ--
อกำหน--
อกโดย--
อข--
อขยาย--
อของ--
อขาย--
อค--
อคณะ--
อคร--
อความ--
อความใน--
อง--
องก--
องกง--
องกล--
องการ--
องกำแพ--
องข--
องขอ--
องของ--
องค--
องจ--
องจาก--
องฉ--
องช--
องชาย--
องชาว--
องซ--
องด--
องต--
องตร--
องถ--
องท--
องทำ--
องน--
องนคร--
องนำ--
องบ--
องป--
องพ--
องพระ--
องภ--
องม--
องมหา--
องมาจาก--
องย--
องร--
องระ--
องราว--
องล--
องว--
องส--
องสาว--
องห--
องหลวง--
องอ--
องออก--
องเพลง--
องเอ--
องแค--
องแรก--
องและ--
องใน--
อจ--
อจะ--
อจาก--
อจำน--
อฉ--
อช--
อซ--
อด--
อดส--
อต--
อตกลง--
อตาม--
อถ--
อท--
อทร--
อทะ--
อทาง--
อทำ--
อทำก--
อทำล--
อธ--
อน--
อนก--
อนการ--
อนข--
อนค--
อนจ--
อนจะ--
อนจาก--
อนช--
อนต--
อนท--
อนป--
อนพ--
อนพระ--
อนม--
อนร--
อนล--
อนว--
อนส--
อนห--
อนอ--
อนออก--
อนาค--
อนำ--
อนำม--
อนและ--
อนไข--
อนไหว--
อบ--
อบอ--
อป--
อประ--
อประกอ--
อปล--
อปาท--
อปาทานการก--
อผ--
อผล--
อพ--
อพยพ--
อพระ--
อพระชน--
อพระราช--
อพวก--
อฟ--
อภ--
อภา--
อภาษา--
อม--
อมก--
อมข--
อมถ--
อมท--
อมป--
อมพ--
อมร--
อมส--
อมห--
อมหลว--
อมอ--
อมา--
อมแซม--
อมโย--
อย--
อยก--
อยข--
อยค--
อยตำรวจ--
อยท--
อยป--
อยส--
อยอ--
อยาก--
อร--
อรถ--
อรบ--
อรรถ--
อราช--
อรายการ--
อล--
อละ--
อว--
อศ--
อส--
อสงคร--
อสน--
อสะ--
อสาธ--
อสาย--
อสาร--
อห--
อหม--
อหล--
อหา--
อหาข--
ออ--
ออก--
ออกฉ--
ออกตามความ--
ออกมา--
ออน--
ออฟ--
ออล--
ออส--
อออก--
ออาจ--
ออำน--
ออำเภ--
อฮ--
อะ--
อา--
อาการ--
อาคาร--
อาจ--
อาชญา--
อาญา--
อาณ--
อาย--
อาร--
อาหาร--
อาโอ--
อำน--
อำนาจ--
อำเภอ--
อเก--
อเข--
อเม--
อเร--
อเส--
อเสนอ--
อเอ--
อแบ--
อแร--
อแล--
อและ--
อโ--
อโคร--
อใน--
อใบ--
อไป--
ฮ--
ฮย--
ฮว--
ฮอล--
ฮะ--
ฮา--
ฯ--
ะ--
า--
าก--
ากร--
ากระ--
ากล--
ากาก--
าการ--
าการกระทรว--
าข--
าของ--
าขาย--
าค--
าคณะ--
าคน--
าคร--
าคว--
าความ--
าง--
างก--
างกฎ--
างกาย--
างการ--
างข--
างของ--
างค--
างควา--
างจ--
างจาก--
างช--
างด--
างต--
างตาร--
างท--
างทาง--
างน--
างบ--
างป--
างผลง--
างพ--
างพระ--
างภ--
างม--
างมาก--
างมาร--
างย--
างร--
างราช--
างล--
างส--
างสะ--
างห--
างอ--
างและ--
างใน--
างไป--
างๆ--
าจ--
าจอ--
าจะ--
าจาก--
าจำน--
าฉ--
าช--
าชม--
าชาย--
าซ--
าด--
าต--
าตอบ--
าตะ--
าตา--
าถ--
าท--
าทร--
าทะ--
าทำ--
าธ--
าน--
านก--
านกฎ--
านกระบว--
านการ--
านข--
านค--
านคร--
านควา--
านจ--
านช--
านด--
านต--
านท--
านทาง--
านนา--
านบ--
านบน--
านป--
านประ--
านภาษา--
านมา--
านย--
านร--
านล--
านว--
านส--
านห--
านหน--
านอ--
านาย--
านโน--
านใน--
าบ--
าป--
าประ--
าประสบ--
าปล--
าผ--
าพ--
าพรรค--
าพระ--
าพวก--
าฟ--
าภ--
าภาพ--
าม--
ามกลา--
ามค--
ามต--
ามห--
ามะ--
ามา--
าย--
ายก--
ายของ--
ายค--
ายจ--
ายจาก--
ายช--
ายชนะ--
ายต--
ายท--
ายทอด--
ายทำ--
ายน--
ายบ--
ายป--
ายพ--
ายพระ--
ายภาพ--
ายม--
ายร--
ายล--
ายส--
ายอ--
ายออก--
ายและ--
ายโอน--
ายใน--
ายไป--
าร--
ารอบ--
าระ--
าราช--
าล--
าละ--
าว--
าวก--
าวข--
าวค--
าวง--
าวท--
าวป--
าวพ--
าวม--
าวร--
าวส--
าวหา--
าศ--
าส--
าสะ--
าห--
าหน--
าหมาย--
าหล--
าอ--
าออก--
าอะ--
าอาจ--
าฮ--
าฯ--
าเขา--
าเป--
าเร--
าเล--
าเว--
าเส--
าเอ--
าและ--
าโ--
าโคร--
าใจ--
าใน--
าไชย--
าไป--
าไปใน--
ำ--
ำก--
ำข--
ำค--
ำจ--
ำจะ--
ำช--
ำด--
ำตก--
ำตา--
ำตาล--
ำท--
ำน--
ำบ--
ำป--
ำผ--
ำฝน--
ำพ--
ำม--
ำย--
ำร--
ำระ--
ำล--
ำส--
ำห--
ำหล--
ำอ--
ำและ--
เ--
เก--
เกม--
เกร--
เกส--
เกาะ--
เข--
เขต--
เขา--
เขาส--
เค--
เคน--
เคย--
เคร--
เครน--
เจ--
เจน--
เจาะ--
เฉ--
เฉพาะ--
เฉพาะนอกเขต--
เช--
เชฟ--
เซ--
เซน--
เซฟ--
เซล--
เซอ--
เฌ--
เด--
เดน--
เดอ--
เดอะ--
เต--
เตชะ--
เถ--
เท--
เทค--
เทน--
เทพ--
เทร--
เทว--
เทศ--
เทศกาล--
เทศบาล--
เธอ--
เน--
เบ--
เบญจ--
เบต--
เบร--
เบล--
เบส--
เบา--
เป--
เปน--
เปา--
เผ--
เพ--
เพชร--
เพราะ--
เพล--
เพลง--
เพาะ--
เฟ--
เฟร--
เม--
เมต--
เมตร--
เมท--
เมน--
เมล--
เมะ--
เย--
เร--
เรก--
เรด--
เรน--
เรา--
เล--
เลก--
เลข--
เลฟ--
เลย--
เลอ--
เว--
เวณ--
เวท--
เวน--
เวล--
เวลา--
เวศ--
เศ--
เศษ--
เษก--
เส--
เสธ--
เสน--
เสนอ--
เสา--
เห--
เอ--
เอก--
เอง--
เอช--
เอน--
เอฟ--
เอม--
เอล--
เอส--
เอา--
เฮ--
แ--
แก--
แกน--
แกะ--
แข--
แขน--
แขวง--
แค--
แคน--
แจ--
แจง--
แช--
แซ--
แด--
แดง--
แดน--
แตก--
แถ--
แถบ--
แถล--
แท--
แทน--
แทร--
แน--
แนว--
แนะนำ--
แบ--
แบบ--
แปด--
แปร--
แปล--
แผ--
แผนก--
แฝ--
แพ--
แพทย--
แพร--
แฟ--
แฟน--
แม--
แมค--
แมน--
แมว--
แย--
แยก--
แยกออก--
แร--
แรก--
แรง--
แล--
แลข--
แลน--
แลพ--
และ--
และการ--
และข--
และค--
และคณะ--
และจ--
และจะ--
และจาก--
และท--
และน--
และบ--
และพระ--
และพวก--
และย--
และร--
และละคร--
และส--
และอ--
และอาจ--
และอำเภ--
และใน--
แว--
แสง--
แสดง--
แสน--
แสว--
แห--
แอ--
แอด--
แอน--
แอม--
แอล--
แฮ--
แฮม--
โ--
โก--
โกล--
โข--
โค--
โคน--
โคร--
โคล--
โฆ--
โจ--
โจว--
โจโฉ--
โฉ--
โช--
โซ--
โซน--
โด--
โดน--
โดย--
โดยการ--
โดยจะ--
โดยส--
โต--
โตะ--
โท--
โทร--
โทษ--
โน--
โนะ--
โบ--
โบสถ--
โบไฮ--
โป--
โปร--
โปรด--
โพน--
โพร--
โฟ--
โภค--
โม--
โมท--
โมน--
โย--
โยโก--
โร--
โรค--
โรง--
โรป--
โรม--
โรส--
โล--
โลก--
โว--
โส--
โห--
โอ--
โอกาส--
โอน--
โอบ--
โอรส--
โอส--
โฮ--
ใ--
ใคร--
ใจ--
ใจกลา--
ใด--
ใน--
ในก--
ในกฎ--
ในกระบว--
ในการ--
ในค--
ในคณะ--
ในควา--
ในงาน--
ในจ--
ในฐานะ--
ในต--
ในตอน--
ในตำน--
ในท--
ในบ--
ในบท--
ในป--
ในพระ--
ในภาษา--
ในม--
ในร--
ในระ--
ในระบบ--
ในระยะ--
ในราช--
ในล--
ในว--
ในศ--
ในส--
ในห--
ในอ--
ในออส--
ในอำเภ--
ในเขต--
ในแนว--
ใบ--
ใส--
ไ--
ไก--
ไกร--
ไกล--
ไข--
ไค--
ไจ--
ไช--
ไชย--
ไซ--
ได--
ไต--
ไถ--
ไท--
ไทย--
ไทร--
ไธย--
ไน--
ไบ--
ไป--
ไปต--
ไปท--
ไพ--
ไฟ--
ไม--
ไมโคร--
ไร--
ไล--
ไว--
ไห--
ไหล--
ไอ--
ไฮ--
ไฮโดร--
ๆ--
๐--
๑๖--
๑๗--
๑๘--
๑๙--
๒๐--
๒๑--
๒๒--
๒๓--
๒๔--
๒๕--
๙--
ກ--
ຂ--
ຄ--
ງ--
ຈ--
ຊ--
ຍ--
ດ--
ຕ--
ທ--
ນ--
ບ--
ປ--
ພ--
ມ--
ລ--
ວ--
ສ--
ສະ--
ຫ--
ອ--
າ--
ຽ--
ເ--
ແ--
ໂ--
ໃ--
ໄ--
က--
တ--
ပ--
မ--
လ--
သ--
အ--
ၵ--
ၼ--
ក--
ន--
រ--
ស--
ᨠ--
ᨾ--
ᨿ--
ᩁ--
⁴--
--0
--00
--01
--02
--03
--04
--05
--06
--07
--08
--09
--1
--10
--11
--12
--13
--14
--15
--16
--17
--18
--19
--2
--20
--21
--22
--23
--24
--25
--26
--27
--28
--29
--3
--30
--31
--32
--33
--34
--35
--36
--37
--38
--39
--4
--40
--41
--42
--43
--44
--45
--46
--47
--48
--49
--5
--50
--51
--52
--53
--54
--55
--56
--57
--58
--6
--60
--61
--62
--64
--65
--66
--67
--68
--69
--7
--70
--71
--72
--73
--74
--77
--78
--8
--80
--81
--82
--83
--84
--85
--86
--87
--88
--89
--9
--90
--91
--93
--94
--96
--99
--a
--ability
--able
--ac
--ach
--acio
--ack
--acy
--ad
--ada
--ade
--ado
--ae
--ag
--age
--ah
--ai
--ain
--aj
--ajn
--ak
--aka
--aki
--al
--ale
--ally
--am
--ama
--ami
--an
--ance
--ane
--ani
--ano
--ans
--ant
--ants
--ao
--ap
--ar
--ard
--ari
--aries
--ario
--aru
--ary
--as
--ase
--ashi
--at
--ata
--ate
--ated
--ates
--ath
--ati
--atic
--ation
--ations
--ative
--ato
--ator
--atus
--au
--aw
--awa
--ax
--ay
--b
--ba
--bal
--bb
--be
--bh
--bi
--ble
--bo
--bolic
--book
--box
--bs
--bt
--bu
--burg
--by
--c
--ca
--cal
--cco
--ce
--ceae
--ced
--cent
--ces
--ch
--charts
--cht
--chte
--ci
--cing
--cio
--cious
--ck
--cle
--co
--craft
--cript
--cs
--ct
--ctive
--cts
--cus
--cy
--d
--da
--dae
--dall
--day
--db
--de
--ded
--den
--der
--di
--dition
--dium
--dle
--dler
--do
--dom
--dor
--dox
--dra
--dro
--ds
--dt
--du
--dus
--dy
--e
--ea
--eal
--ean
--eb
--eca
--ect
--ection
--ed
--ee
--een
--eg
--egro
--eh
--ei
--eira
--ek
--el
--ell
--ella
--els
--ely
--em
--ement
--en
--ena
--ence
--end
--ene
--ens
--ensis
--ensive
--ent
--ents
--eo
--eon
--ep
--er
--era
--ered
--erg
--eri
--ern
--ero
--ers
--ert
--ery
--es
--ese
--esh
--ess
--est
--et
--ett
--eur
--eus
--ev
--ew
--ews
--ex
--ey
--ez
--f
--fa
--face
--fc
--fe
--feld
--fer
--ff
--field
--fin
--fs
--ft
--ful
--g
--ga
--gal
--ge
--gel
--ges
--gh
--ght
--gi
--gn
--go
--gram
--graph
--graphs
--graphy
--gs
--gus
--h
--ha
--hal
--ham
--hc
--he
--her
--hes
--hi
--hic
--hip
--hl
--ho
--hood
--hop
--hs
--ht
--hus
--hy
--i
--ia
--iac
--ial
--ian
--iana
--ians
--ias
--iation
--ible
--ic
--ica
--ical
--icate
--ick
--ico
--ics
--icus
--id
--ida
--idae
--ide
--idence
--idered
--ides
--ido
--ids
--ie
--ied
--ier
--ies
--iff
--iflora
--ify
--ig
--ii
--ik
--ika
--il
--ile
--ill
--illa
--im
--ima
--imate
--in
--ina
--inal
--ine
--ined
--ing
--ings
--ington
--ini
--ino
--ins
--inus
--io
--ion
--ional
--ions
--ious
--ique
--ir
--ira
--ire
--iro
--irs
--is
--isation
--ise
--ised
--ish
--ishi
--ism
--ist
--istic
--istik
--ists
--it
--ite
--ith
--ities
--itive
--ity
--ium
--ius
--ival
--ive
--ived
--ivity
--ix
--iya
--ization
--ize
--ized
--j
--ja
--je
--ji
--jn
--jo
--k
--ka
--ke
--kel
--ker
--ket
--kh
--ki
--ko
--ks
--ku
--ky
--l
--la
--lah
--land
--lar
--lary
--ld
--le
--len
--ler
--les
--less
--let
--lev
--lex
--ley
--lf
--li
--lified
--line
--ling
--lis
--list
--lk
--ll
--lla
--lle
--lles
--lli
--llo
--lls
--llus
--lly
--lm
--lo
--logy
--lon
--lor
--ls
--lt
--lty
--lus
--ly
--lyn
--m
--ma
--man
--mann
--me
--men
--ment
--mer
--mes
--mi
--mic
--mise
--mo
--mos
--mp
--mpt
--ms
--mu
--mus
--my
--n
--na
--nah
--nal
--nc
--nce
--nces
--ncy
--nd
--nda
--nds
--ne
--ned
--nel
--nell
--ner
--ners
--nes
--ness
--net
--news
--ney
--ng
--ni
--nic
--nik
--nis
--nity
--nk
--nn
--nne
--no
--ns
--nsis
--nt
--ntly
--nto
--nts
--nus
--nx
--ny
--o
--oa
--ock
--od
--oe
--of
--off
--ography
--ogy
--oi
--oid
--oj
--ojn
--ok
--oke
--ol
--oli
--olia
--ological
--ology
--om
--oma
--ome
--on
--ona
--onal
--one
--ong
--onia
--ons
--ony
--oo
--oon
--or
--ord
--ore
--ored
--ori
--ories
--ors
--ort
--ory
--os
--osa
--ose
--ot
--oto
--ou
--ough
--ous
--out
--ov
--ova
--ovic
--ow
--ows
--ox
--oy
--p
--pa
--page
--pe
--ped
--pel
--pes
--pf
--pi
--ple
--po
--polis
--posal
--posed
--prise
--ps
--pt
--pter
--py
--q
--r
--ra
--rad
--ral
--rapeutic
--ras
--rce
--rd
--rdo
--rds
--re
--rease
--ree
--rel
--rer
--rett
--rg
--ri
--rie
--ried
--rier
--ries
--ris
--rl
--rm
--rmal
--rn
--rne
--rno
--ro
--ros
--rp
--rpe
--rr
--rra
--rry
--rs
--rt
--ru
--rum
--rus
--ry
--s
--sa
--sburg
--sbury
--sch
--se
--sed
--sel
--sen
--ser
--ses
--sey
--sh
--ship
--si
--sion
--sis
--sive
--sk
--ska
--sm
--so
--son
--ss
--ssa
--sse
--sson
--st
--ste
--stein
--ster
--ston
--sts
--su
--sum
--sus
--sy
--t
--ta
--tal
--tan
--tar
--tation
--tch
--te
--ted
--ten
--ter
--ters
--tes
--th
--thy
--ti
--tic
--ting
--tion
--tional
--tions
--tis
--tive
--tle
--to
--ton
--tor
--tos
--town
--tro
--ts
--tt
--tta
--tte
--tto
--tu
--tum
--ture
--tus
--tv
--ty
--tz
--u
--ua
--ual
--ually
--ud
--ue
--ues
--ugh
--ught
--uit
--uk
--uki
--ul
--ula
--ular
--ulation
--ult
--ulus
--um
--uma
--ume
--un
--uo
--up
--ur
--ura
--ural
--ure
--uri
--us
--uss
--ut
--ution
--ux
--uz
--v
--va
--val
--valence
--ve
--ved
--ven
--ves
--vi
--vic
--ville
--ving
--vo
--vy
--w
--wa
--way
--west
--wk
--ws
--x
--y
--ya
--ye
--yer
--yh
--yn
--yo
--yre
--ys
--yu
--z
--za
--ze
--zer
--zi
--zo
--zy
--zz
--æ
--ŋ
--ɑ
--ə
--əŋ
--ɛ
--ɛn
--ɡ
--ɪ
--ɪk
--ɰ
--ɾ
--ʁ
--ʊ
--ʔ
--α
--ι
--ς
--а
--в
--д
--е
--и
--к
--н
--о
--р
--т
--у
--ы
--я
--ا
--ان
--د
--ر
--ل
--م
--ن
--ه
--ي
--ی
--ก
--กก
--กข
--กค
--กครอง
--กครองท
--กครองส
--กจ
--กช
--กชน
--กซ
--กด
--กดด
--กต
--กท
--กน
--กบ
--กป
--กผ
--กพ
--กม
--กย
--กร
--กรณ
--กรรม
--กระด
--กล
--กลงก
--กลม
--กลาง
--กลางค
--กว
--กษ
--กส
--กสาร
--กสารท
--กสไลด
--กห
--กอ
--กองท
--กอท
--กะ
--กะป
--กา
--กาย
--การ
--การก
--การค
--การจ
--การณ
--การต
--การท
--การบ
--การพ
--การร
--การว
--การศ
--การส
--การเล
--การแข
--กาล
--กาศ
--กำก
--กำล
--กำหนด
--กเถ
--กเป
--กเล
--กเว
--กแต
--ข
--ขท
--ขนส
--ขลา
--ขว
--ของ
--ของข
--ของค
--ของจ
--ของช
--ของต
--ของท
--ของน
--ของบ
--ของป
--ของผ
--ของพ
--ของม
--ของย
--ของร
--ของล
--ของว
--ของส
--ของอ
--ขาคณ
--ขาธ
--ขาน
--ค
--คซ
--คณ
--คณะปฏ
--คด
--คต
--คท
--คน
--คนท
--คนน
--คนส
--คนหน
--คนอ
--คม
--คร
--ครช
--ครน
--ครบ
--ครศร
--ครเร
--คล
--คว
--ควบค
--คอมพ
--คาม
--คาร
--คำ
--คำว
--คำส
--คโนโลย
--ฆ
--ง
--งก
--งข
--งขลา
--งค
--งคราม
--งครามโลกคร
--งฆ
--งจ
--งช
--งซ
--งด
--งต
--งถ
--งท
--งธ
--งน
--งบ
--งบศ
--งบส
--งบเร
--งป
--งประชามต
--งผ
--งพ
--งม
--งมต
--งย
--งร
--งล
--งว
--งศ
--งษ
--งส
--งสม
--งสร
--งห
--งอ
--งา
--งาน
--งานพร
--งาม
--งเล
--งได
--งไว
--จ
--จง
--จจ
--จญภ
--จต
--จน
--จนถ
--จนาน
--จบ
--จร
--จอร
--จอห
--จะต
--จะถ
--จะม
--จะเป
--จะได
--จา
--จาก
--จากท
--จากส
--จาร
--จำก
--จำป
--ฉ
--ฉบ
--ฉะ
--ฉาย
--ช
--ชท
--ชน
--ชนน
--ชนบท
--ชนม
--ชร
--ชวนเช
--ชวา
--ชา
--ชาต
--ชาย
--ชาร
--ชาวฟ
--ชาวอ
--ชไอว
--ซ
--ซา
--ซาเน
--ฌ
--ญ
--ฎ
--ฎหมาย
--ฏ
--ฏต
--ฏศ
--ฐ
--ฐาน
--ฐานข
--ฑ
--ณ
--ณฑ
--ณร
--ณรงค
--ณศ
--ณส
--ณะ
--ณะท
--ณะน
--ณะปฏ
--ณะผ
--ณะร
--ณะว
--ณะศ
--ณะส
--ด
--ดก
--ดข
--ดค
--ดจ
--ดช
--ดด
--ดต
--ดท
--ดทะเบ
--ดน
--ดนตร
--ดป
--ดปล
--ดม
--ดย
--ดร
--ดล
--ดลอง
--ดว
--ดส
--ดอ
--ดะ
--ดะกะ
--ดา
--ดาร
--ดาว
--ดำ
--ดำร
--ดำเน
--ดให
--ต
--ตก
--ตช
--ตต
--ตท
--ตน
--ตนเอง
--ตพ
--ตร
--ตรง
--ตระก
--ตล
--ตลก
--ตว
--ตวรรษท
--ตส
--ตอ
--ตอนท
--ตะว
--ตา
--ตามท
--ตำบล
--ตำรวจ
--ตำแหน
--ตเล
--ถ
--ถจ
--ถด
--ถต
--ถถ
--ถท
--ถบ
--ถพ
--ถม
--ถย
--ถยนต
--ถร
--ถล
--ถว
--ถส
--ถสร
--ถา
--ถาน
--ถานการณ
--ถานท
--ถาบ
--ถาป
--ถาปน
--ถาปนาข
--ถเข
--ถเล
--ถใช
--ถไฟ
--ถไฟฟ
--ท
--ทช
--ทท
--ทบ
--ทมนตร
--ทย
--ทร
--ทว
--ทส
--ทอง
--ทาง
--ทางช
--ทางด
--ทำให
--ธ
--ธง
--ธน
--ธนบ
--ธร
--ธรณ
--ธาต
--น
--นก
--นข
--นค
--นคร
--นครศร
--นง
--นจ
--นช
--นซ
--นด
--นต
--นตร
--นถ
--นท
--นธ
--นน
--นนท
--นบ
--นบท
--นป
--นผ
--นพ
--นภ
--นม
--นมาร
--นย
--นร
--นล
--นว
--นวน
--นส
--นสไตน
--นห
--นอ
--นองต
--นอช
--นอต
--นอร
--นอว
--นอให
--นะ
--นะเล
--นา
--นาคต
--นาธ
--นาน
--นาบด
--นาม
--นามว
--นาร
--นำ
--นเป
--นเยอร
--นเอง
--นไข
--นไชส
--นได
--บ
--บก
--บการณ
--บข
--บค
--บช
--บซ
--บฏ
--บด
--บต
--บถ
--บท
--บน
--บบ
--บป
--บพ
--บม
--บย
--บร
--บรอบ
--บล
--บว
--บส
--บหน
--บอ
--บอย
--บอร
--บางส
--บาร
--บำบ
--บเห
--บได
--ป
--ปกต
--ปฏ
--ปฐม
--ปท
--ปน
--ปร
--ประมาณ
--ประย
--ประว
--ปรารถนา
--ปล
--ปส
--ปาก
--ปาร
--ผ
--ผน
--ผล
--ฝ
--ฝร
--พ
--พต
--พน
--พบ
--พบก
--พบว
--พพ
--พม
--พย
--พร
--พรรษา
--พระพ
--พระอ
--พระองค
--พฤต
--พล
--พส
--พห
--พอ
--พาณ
--พาย
--พาร
--ฟ
--ฟท
--ฟฟ
--ฟร
--ฟอนต
--ฟอร
--ฟา
--ฟาเรนไฮต
--ภ
--ภค
--ภพ
--ภรณ
--ภา
--ภาค
--ภาคร
--ภาคว
--ภาน
--ภาผ
--ภาพ
--ภาพยนตร
--ภาพแวดล
--ภาษ
--ภาส
--ม
--มก
--มข
--มค
--มจ
--มจร
--มช
--มซ
--มณ
--มณศ
--มด
--มต
--มถ
--มท
--มน
--มนาคม
--มบ
--มป
--มผ
--มพ
--มฟ
--มม
--มย
--มร
--มรสก
--มราช
--มล
--มว
--มศ
--มส
--มสก
--มสาม
--มห
--มหากร
--มหากษ
--มหาบ
--มหาว
--มอ
--มอก
--มอญ
--มอร
--มา
--มาก
--มากกว
--มากข
--มากท
--มากเป
--มาช
--มาด
--มาต
--มาท
--มาพ
--มาภ
--มาย
--มาร
--มาล
--มาเป
--มาเลเซ
--มเด
--ย
--ยก
--ยงาม
--ยจ
--ยช
--ยด
--ยต
--ยท
--ยน
--ยนตร
--ยพ
--ยม
--ยมราช
--ยร
--ยล
--ยว
--ยศ
--ยศเป
--ยส
--ยอ
--ยอดเย
--ยะ
--ยา
--ยาน
--ยาบาล
--ยาพ
--ยาม
--ยายต
--ยาว
--ร
--รก
--รค
--รคก
--รคการเม
--รคพล
--รคร
--รคเพ
--รง
--รงก
--รงข
--รงต
--รงม
--รงร
--รงว
--รงเป
--รจ
--รช
--รซ
--รณ
--รณาธ
--รณไม
--รด
--รดาผ
--รดาศ
--รต
--รถ
--รท
--รน
--รนด
--รบ
--รป
--รผ
--รพ
--รพช
--รพบ
--รพส
--รฟ
--รภ
--รม
--รมณ
--รมม
--รมย
--รมร
--รมส
--รมอ
--รย
--รยากาศ
--รร
--รรค
--รรคการเม
--รรคประชาธ
--รรจ
--รรณ
--รรณกรรม
--รรณคด
--รรณย
--รรม
--รรมว
--รรล
--รรษ
--รล
--รว
--รวจจ
--รวจเง
--รวม
--รวมท
--รศ
--รษ
--รษท
--รษา
--รส
--รสก
--รห
--รหม
--รอ
--รอบ
--รอบคร
--ระ
--ระก
--ระการ
--ระคร
--ระคล
--ระจ
--ระจายพ
--ระชากรท
--ระด
--ระต
--ระท
--ระทำ
--ระทำความผ
--ระทำท
--ระธานาธ
--ระน
--ระนามว
--ระบ
--ระปร
--ระพ
--ระมหากษ
--ระมาณ
--ระราชพ
--ระว
--ระศร
--ระส
--ระหน
--ระหว
--ระอ
--ระองค
--ระเจ
--ระเด
--ระเทศ
--ระเทศจ
--ระเทศญ
--ระเทศท
--ระเทศฝร
--ระเทศสหร
--ระเทศอ
--ระเทศไทย
--ระเพณ
--ระเภท
--ระเยซ
--ระเยโฮวาห
--ระเสร
--ระแก
--รา
--รางว
--ราช
--ราชดำร
--ราชบ
--ราชส
--ราซ
--รานท
--ราบท
--ราฟ
--ราม
--ราย
--รายช
--ราว
--ราส
--ราสาท
--ราหมณ
--ราะ
--ราะท
--ราะม
--ราะว
--ราะเป
--รเช
--รเสร
--รให
--ฤกษ
--ฤด
--ฤต
--ฤท
--ฤทธ
--ฤษฎ
--ฤห
--ล
--ลก
--ลข
--ลง
--ลงก
--ลงท
--ลงน
--ลงส
--ลงในสไลด
--ลซ
--ลด
--ลดปล
--ลต
--ลท
--ลน
--ลบ
--ลพ
--ลฟ
--ลม
--ลมช
--ลย
--ลร
--ลล
--ลว
--ลวง
--ลศ
--ลส
--ลอ
--ลอด
--ลอดช
--ลอดท
--ลอดภ
--ลอดเล
--ลอร
--ละ
--ลา
--ลาง
--ลางค
--ลางป
--ลางเม
--ลาด
--ลาดหล
--ลาท
--ลาย
--ลายป
--ลายเป
--ลาว
--ลำด
--ลำต
--ลำพ
--ลเร
--ว
--วก
--วกท
--วกน
--วกม
--วกาศ
--วกเขา
--วค
--วง
--วงจ
--วงพ
--วงศ
--วงอาท
--วงแผ
--วจ
--วจจ
--วจด
--วจว
--วช
--วณ
--วด
--วดม
--วดหม
--วดา
--วดเร
--วต
--วท
--วน
--วนการน
--วนท
--วบ
--วบค
--วม
--วมก
--วมต
--วมถ
--วมท
--วมแล
--วย
--วร
--วล
--วว
--วส
--วอ
--วะ
--วา
--วาจาจารย
--วาม
--วามก
--วามข
--วามค
--วามจร
--วามช
--วามซ
--วามด
--วามต
--วามถ
--วามท
--วามน
--วามผ
--วามพ
--วามม
--วามย
--วามร
--วามล
--วามว
--วามส
--วามสำเร
--วามอ
--วามเช
--วามเป
--วามเร
--วามเส
--วามเห
--วามไม
--วาย
--ศ
--ศก
--ศท
--ศน
--ศบาล
--ศผ
--ศร
--ศส
--ศหญ
--ศาลฎ
--ศเป
--ศเม
--ษ
--ษตร
--ษตรกรรม
--ษท
--ษม
--ส
--สก
--สค
--สซ
--สด
--สต
--สตร
--สถ
--สถาน
--สถาบ
--สท
--สน
--สบ
--สป
--สภา
--สม
--สมบ
--สมพ
--สมาช
--สมเด
--สร
--สรท
--สรฟ
--สล
--สว
--สวาม
--สส
--สหพ
--สหร
--สากล
--สาบ
--สาบส
--สาม
--สามส
--สาย
--สาร
--สาส
--สำค
--สำน
--สำหร
--สเปน
--ห
--หญ
--หน
--หพ
--หภาพย
--หภาพโซเว
--หม
--หมาย
--หย
--หร
--หฤท
--หล
--หว
--หอพ
--หะ
--หา
--หาด
--หาร
--หารเร
--หาว
--หาสม
--หาอ
--ฬ
--อ
--อก
--อกซ
--อกว
--อกส
--อกอ
--อกเด
--อกเบ
--อกเล
--อกเส
--อกแบบ
--อกไป
--อง
--องก
--องกำล
--องข
--องค
--องจ
--องช
--องซ
--องด
--องต
--องท
--องน
--องบ
--องป
--องผ
--องพ
--องม
--องร
--องล
--องว
--องส
--องห
--องอ
--องเห
--อช
--อซ
--อญ
--อด
--อดคล
--อดช
--อดภ
--อดเย
--อดเล
--อต
--อตส
--อท
--อธ
--อน
--อนต
--อนท
--อนน
--อนส
--อนเส
--อนเหน
--อนโต
--อนใต
--อนไลน
--อบ
--อบก
--อบข
--อบค
--อบคร
--อบคล
--อบช
--อบด
--อบต
--อบท
--อบน
--อบปฐมท
--อบร
--อบว
--อบส
--อบสนองต
--อบหมายให
--อบอ
--อบโต
--อบให
--อบได
--อผ
--อพ
--อฟ
--อฟต
--อภ
--อม
--อมพ
--อมพล
--อมม
--อมร
--อย
--อยด
--อร
--อรม
--อรมน
--อล
--อลต
--อลล
--อว
--อส
--อสเตร
--อสเตรเล
--อห
--ออก
--ออกถ
--อะ
--อา
--อาช
--อาญา
--อาย
--อาร
--อาว
--อาศ
--อาหาร
--อเมร
--อให
--ฮ
--ฮาร
--ฯ
--ะ
--ะก
--ะกร
--ะกล
--ะกวด
--ะกวดม
--ะกอบ
--ะกอบก
--ะกอบด
--ะกอบพ
--ะกอบไปด
--ะกา
--ะการใด
--ะกาศ
--ะกาศน
--ะกาศว
--ะกาศเป
--ะกาศใช
--ะกาศในราชก
--ะกาศให
--ะข
--ะขน
--ะค
--ะคร
--ะครเร
--ะคล
--ะฆ
--ะง
--ะจ
--ะจก
--ะจำจ
--ะจำชาต
--ะจำป
--ะจำสำน
--ะฉ
--ะช
--ะชาธ
--ะซ
--ะณ
--ะด
--ะดวก
--ะดาษ
--ะต
--ะตะบอง
--ะตะว
--ะถ
--ะถม
--ะท
--ะทร
--ะทรวง
--ะทรวงศ
--ะทะก
--ะธ
--ะธาน
--ะธานาธ
--ะน
--ะบ
--ะบบ
--ะบบน
--ะบบบ
--ะบบส
--ะบบอ
--ะบร
--ะบรมราชาน
--ะบรมวงศาน
--ะป
--ะปฏ
--ะปร
--ะปล
--ะผ
--ะผล
--ะฝ
--ะพ
--ะพร
--ะพฤต
--ะฟ
--ะภ
--ะภา
--ะม
--ะมง
--ะมหากษ
--ะมาณ
--ะย
--ะยะ
--ะยะท
--ะยะส
--ะร
--ะราช
--ะราชไมตร
--ะล
--ะว
--ะศ
--ะศร
--ะษ
--ะส
--ะสงค
--ะสน
--ะสม
--ะสร
--ะสล
--ะสวาม
--ะสาท
--ะห
--ะหญ
--ะหน
--ะหม
--ะหย
--ะหร
--ะหล
--ะหว
--ะหารช
--ะอ
--ะองค
--ะอน
--ะอย
--ะฮ
--ะเก
--ะเข
--ะเง
--ะเจ
--ะเช
--ะเด
--ะเต
--ะเท
--ะเทศ
--ะเทศอ
--ะเน
--ะเบ
--ะเป
--ะเพ
--ะเพณ
--ะเภท
--ะเภทท
--ะเภทน
--ะเม
--ะเย
--ะเยซ
--ะเร
--ะเล
--ะเว
--ะเส
--ะเห
--ะเอ
--ะแก
--ะแข
--ะแต
--ะแม
--ะแส
--ะใช
--ะให
--ะได
--ะไตรป
--ะไม
--ะไร
--ะไรก
--า
--าก
--ากก
--ากกว
--ากข
--ากจ
--ากช
--ากฏข
--ากฏต
--ากฏว
--ากฏอย
--ากด
--ากต
--ากท
--ากน
--ากผ
--ากม
--ากย
--ากร
--ากล
--ากส
--ากอ
--ากอน
--ากะ
--ากาศ
--ากาศท
--ากเป
--ากเม
--าข
--าขา
--าขาน
--าค
--าคต
--าคตะว
--าคม
--าคร
--าคา
--าคใต
--าง
--างก
--างการศ
--างการเง
--างการเม
--างข
--างค
--างจ
--างจำหน
--างช
--างซ
--างด
--างต
--างตอนเหน
--างตะว
--างท
--างธ
--างน
--างบ
--างป
--างพ
--างภ
--างม
--างมาร
--างย
--างร
--างว
--างศ
--างส
--างอ
--างเด
--าจ
--าจนถ
--าจม
--าจาก
--าจารย
--าจเป
--าช
--าชก
--าชการ
--าชท
--าชน
--าชบ
--าชย
--าชร
--าชว
--าชวงศ
--าชวรว
--าชส
--าชสก
--าชสมบ
--าชสำน
--าชอาณาจ
--าชา
--าชาต
--าชาธ
--าซ
--าซา
--าซาก
--าญ
--าญา
--าฏ
--าฐ
--าณ
--าณาจ
--าณาน
--าด
--าดต
--าดท
--าดว
--าดส
--าดหว
--าดะ
--าดา
--าดเจ
--าต
--าตย
--าตรา
--าตะ
--าตาร
--าถ
--าท
--าทท
--าทส
--าทอล
--าธ
--าธารณร
--าธารณส
--าธารณะ
--าน
--านจ
--านท
--านนท
--านม
--านส
--านะ
--านา
--านาชาต
--าบ
--าบข
--าบท
--าบน
--าบบ
--าบว
--าบสม
--าป
--าปาร
--าผ
--าพ
--าพท
--าฟ
--าภ
--าม
--ามก
--ามข
--ามค
--ามคร
--ามจ
--ามช
--ามซ
--ามด
--ามต
--ามถ
--ามท
--ามน
--ามบ
--ามผ
--ามฝ
--ามฟ
--ามม
--ามมาตรา
--ามย
--ามร
--ามล
--ามว
--ามส
--ามหล
--ามอ
--ามอย
--ามะ
--ามเก
--ามเข
--ามเจ
--ามเช
--ามเด
--ามเป
--ามเย
--ามเร
--ามเส
--ามเห
--ามแข
--ามโลกคร
--ามได
--าย
--ายก
--ายกร
--ายการ
--ายการบ
--ายจ
--ายฉบ
--ายช
--ายต
--ายถ
--ายท
--ายน
--ายบ
--ายป
--ายฝ
--ายพ
--ายมาเป
--ายร
--ายละเอ
--ายว
--ายส
--ายอ
--ายา
--ายาช
--ายเป
--ายเหต
--าร
--ารก
--ารกล
--ารข
--ารค
--ารคล
--ารจ
--ารช
--ารซ
--ารณ
--ารณะ
--ารด
--ารดา
--ารต
--ารถ
--ารถต
--ารถย
--ารถร
--ารถส
--ารถสร
--ารถเข
--ารถใช
--ารท
--ารน
--ารบ
--ารบร
--ารป
--ารปฏ
--ารปร
--ารปล
--ารผ
--ารผล
--ารฝ
--ารพ
--ารฟ
--ารม
--ารมณ
--ารย
--ารร
--ารล
--ารว
--ารศ
--ารส
--ารสร
--ารอ
--ารอน
--ารอย
--าระ
--ารา
--าราง
--าราจ
--าราม
--ารายณ
--ารายน
--าราล
--าราศาสตร
--ารเก
--ารเข
--ารเคล
--ารเง
--ารเช
--ารเด
--ารเต
--ารเป
--ารเปล
--ารเพ
--ารเม
--ารเร
--ารเล
--ารเส
--ารแก
--ารแข
--ารแต
--ารแบ
--ารใช
--ารให
--ารได
--ารไม
--าล
--าลา
--าว
--าวจ
--าวญ
--าวด
--าวท
--าวน
--าวบ
--าวบราซ
--าวฝร
--าวพ
--าวย
--าวร
--าวอ
--าวฮ
--าวะ
--าวเท
--าศ
--าศท
--าษ
--าษฎร
--าษา
--าษาต
--าษาร
--าษาอ
--าษาฮ
--าส
--าสต
--าสตร
--าสน
--าสนา
--าสนาอ
--าสส
--าสาท
--าห
--าหร
--าหล
--าหาร
--าหารท
--าฬ
--าอ
--าอย
--าฮ
--าะ
--าะก
--าะช
--าะต
--าะท
--าะน
--าะปล
--าะพ
--าะล
--าะส
--าะสม
--าะห
--าะฮ
--าะเล
--าะแก
--าเก
--าเข
--าเจ
--าเซ
--าเซอร
--าเป
--าเม
--าเยอรม
--าเร
--าเล
--าเลเซ
--าแน
--าแห
--าโก
--าโน
--าโร
--าโรห
--าให
--าได
--าไม
--ำ
--ำก
--ำกล
--ำการแข
--ำข
--ำค
--ำความร
--ำงาน
--ำงานก
--ำงานท
--ำจ
--ำช
--ำซ
--ำด
--ำต
--ำท
--ำธ
--ำน
--ำนวณค
--ำนวน
--ำนาจ
--ำนาน
--ำบ
--ำบล
--ำบลท
--ำบลบ
--ำบลห
--ำบาก
--ำป
--ำปฏ
--ำประต
--ำปาศ
--ำผ
--ำพ
--ำม
--ำมาตย
--ำร
--ำรงช
--ำรวจ
--ำรวจตร
--ำรวจโท
--ำล
--ำลายล
--ำว
--ำศ
--ำส
--ำหน
--ำหนด
--ำหนดการบร
--ำหร
--ำอ
--ำเข
--ำเช
--ำเน
--ำเป
--ำเพ
--ำเภอ
--ำเภอท
--ำเภอบ
--ำเภอส
--ำเภอเม
--ำเร
--ำเลยท
--ำเสนองาน
--ำเหม
--ำแหน
--ำให
--ำได
--ำไปส
--ำไส
--เก
--เกม
--เกร
--เกล
--เกษตร
--เกษตรและสหกรณ
--เกาหล
--เข
--เขต
--เขตตำบลในท
--เขน
--เขา
--เค
--เคม
--เคร
--เคล
--เง
--เจ
--เจด
--เจร
--เจล
--เฉ
--เฉล
--เช
--เซ
--เซลล
--เซอร
--เฑ
--เด
--เดล
--เต
--เตย
--เตร
--เถ
--เท
--เทพ
--เทว
--เธอ
--เน
--เบ
--เป
--เปญ
--เปน
--เปร
--เปล
--เผ
--เผยแผ
--เฝ
--เพ
--เพล
--เพลง
--เฟ
--เภณ
--เม
--เมด
--เมร
--เย
--เยซ
--เยอรมน
--เร
--เรา
--เล
--เลข
--เลต
--เลน
--เลย
--เลเซ
--เว
--เวท
--เวลา
--เส
--เสด
--เสน
--เสร
--เห
--เหต
--เหน
--เหม
--เหย
--เหร
--เหล
--เอ
--เอก
--เอง
--เอเช
--เฮ
--แก
--แข
--แค
--แคว
--แง
--แจ
--แช
--แซ
--แด
--แดง
--แดด
--แดน
--แต
--แตกต
--แตร
--แท
--แทน
--แน
--แบ
--แบบ
--แบบเต
--แป
--แผ
--แผน
--แพ
--แพทย
--แพร
--แฟช
--แฟร
--แม
--แย
--แร
--แรก
--แรกท
--แล
--และ
--และจ
--และต
--และท
--และน
--และบ
--และผ
--และพ
--และม
--และย
--และร
--และล
--และว
--และส
--และอ
--และเป
--และเม
--แว
--แวดล
--แห
--แหล
--แหลม
--แอ
--แอฟร
--แอร
--แฮร
--โก
--โขนง
--โค
--โจ
--โจมต
--โจร
--โฉ
--โชว
--โซ
--โด
--โดย
--โดยท
--โดยม
--โดยอ
--โดยใช
--โต
--โท
--โทรท
--โน
--โนนส
--โบ
--โป
--โปรต
--โพ
--โพธ
--โฟน
--โม
--โมสร
--โมสรฟ
--โมเน
--โย
--โยธ
--โยธา
--โยธาธ
--โร
--โรงเร
--โรม
--โล
--โลก
--โลว
--โว
--โอ
--โอล
--ใกล
--ใจ
--ใจใส
--ใช
--ใด
--ใต
--ใน
--ในก
--ในกร
--ในกล
--ในข
--ในค
--ในคร
--ในจ
--ในช
--ในซ
--ในด
--ในต
--ในท
--ในทว
--ในน
--ในบ
--ในป
--ในพ
--ในภ
--ในม
--ในย
--ในร
--ในระด
--ในล
--ในว
--ในส
--ในสม
--ในสไลด
--ในห
--ในหน
--ในอ
--ในอด
--ในเด
--ในเม
--ในเร
--ในแต
--ใบ
--ใฝ
--ใส
--ให
--ใหญ
--ใหม
--ไก
--ไกล
--ไข
--ได
--ไต
--ไตล
--ไถ
--ไท
--ไทน
--ไทย
--ไทยร
--ไป
--ไปก
--ไปด
--ไปต
--ไปถ
--ไปท
--ไปย
--ไปร
--ไปส
--ไปอ
--ไปได
--ไผ
--ไฟ
--ไฟฟ
--ไฟล
--ไม
--ไมตร
--ไร
--ไล
--ไลด
--ไว
--ไวร
--ไส
--ไห
--ไหน
--ไอ
--ไอซ
--ไอร
--ๆ
--๐
--๐๑
--๐๔
--๐๕
--๐๗
--๐๘
--๑
--๒
--๓
--๔
--๕
--๖
--๗
--๘
--๙
--ກ
--ງ
--ຈ
--ຊ
--ຍ
--ດ
--ຕ
--ທ
--ນ
--ບ
--ມ
--ລ
--ວ
--ສ
--ຫ
--ຮ
--ະ
--າ
