!
"
#
##0
##1
##10
##11
##12
##13
##14
##15
##16
##17
##18
##19
##2
##20
##21
##22
##23
##24
##25
##26
##27
##28
##29
##3
##30
##31
##32
##33
##34
##35
##36
##37
##38
##39
##4
##40
##41
##42
##43
##44
##45
##46
##47
##48
##49
##5
##50
##51
##52
##53
##54
##55
##56
##57
##58
##59
##6
##60
##61
##62
##63
##64
##65
##66
##67
##68
##69
##7
##70
##71
##72
##73
##74
##75
##76
##77
##78
##79
##8
##80
##81
##82
##83
##84
##85
##86
##87
##88
##89
##9
##90
##91
##92
##93
##94
##95
##96
##97
##98
##99
$
%
&
'
(
)
*
+
,
-
.
/
0
00
000
0000
000000
001
002
003
005
006
007
01
012
02
020
03
04
05
06
07
08
09
1
10
100
1000
10000
1001
1002
1007
101
1010
1012
1014
1015
1016
1018
1019
102
1020
1024
1025
103
1030
1038
104
1040
1042
105
1050
1054
106
1060
1066
107
1071
1077
108
1080
1081
109
1093
11
110
1100
1101
111
1111
1118
112
1120
1129
113
1130
114
115
1150
116
1160
117
1170
118
1180
1183
1185
1186
1189
119
1190
1196
1198
12
120
1200
1201
1202
1203
1204
1205
1206
1207
121
1210
1212
1215
1216
1217
1219
122
1220
1225
1227
123
1230
1234
1235
124
1240
1241
1244
1246
1248
125
1250
1254
1257
1258
1259
126
1260
1261
1268
127
1270
1271
1272
1276
1277
1279
128
1280
1281
1282
1284
129
1290
1291
1292
1296
1299
13
130
1300
1301
1302
1303
1304
1305
1307
1308
131
1310
1314
1316
1317
1318
132
1320
1321
1322
1323
1324
1325
1326
1328
133
1330
1331
1333
1334
1335
1336
1337
134
1340
1341
1342
1345
1346
1347
1348
1349
135
1350
1352
1353
1354
1355
1356
1358
1359
136
1360
1362
1364
1365
1368
137
1370
1371
1376
1377
1378
1379
138
1380
1381
1383
1385
1386
1387
1388
1389
139
1390
1391
1392
1393
1394
1395
1396
1398
1399
14
140
1400
1402
1403
1404
1405
1406
1408
1409
141
1410
1411
1412
1413
1414
1415
1416
1417
1418
142
1420
1421
1422
1425
1427
1428
1429
143
1430
1431
1433
1435
1436
1437
1438
1439
144
1440
1441
1443
1444
1445
1448
145
1450
1451
1452
1453
1454
1455
1456
1457
1458
1459
146
1460
1461
1462
1463
1464
1465
1466
1467
1468
1469
147
1470
1471
1472
1474
1475
1476
1477
1478
1479
148
1480
1481
1482
1483
1484
1485
1486
1488
1489
149
1490
1492
1493
1494
1495
1496
1497
1498
1499
15
150
1500
1501
1502
1503
1504
1505
1506
1507
1508
1509
151
1510
1511
1512
1513
1514
1515
1516
1517
1518
1519
152
1520
1521
1522
1523
1524
1525
1526
1527
1528
1529
153
1530
1531
1532
1533
1534
1535
1536
1537
1538
1539
154
1540
1541
1542
1543
1544
1545
1546
1547
1548
1549
155
1550
1551
1552
1553
1554
1555
1556
1557
1558
1559
156
1560
1561
1562
1563
1564
1565
1566
1567
1568
1569
157
1570
1571
1572
1573
1574
1575
1576
1577
1578
1579
158
1580
1581
1582
1583
1584
1585
1586
1587
1588
1589
159
1590
1591
1592
1593
1594
1595
1596
1597
1598
1599
16
160
1600
1601
1602
1603
1604
1605
1606
1607
1608
1609
161
1610
1611
1612
1613
1614
1615
1616
1617
1618
1619
162
1620
1621
1622
1623
1624
1625
1626
1627
1628
1629
163
1630
1631
1632
1633
1634
1635
1636
1637
1638
1639
164
1640
1641
1642
1643
1644
1645
1646
1647
1648
1649
165
1650
1651
1652
1653
1654
1655
1656
1657
1658
1659
166
1660
1661
1662
1663
1664
1665
1666
1667
1668
1669
167
1670
1671
1672
1673
1674
1675
1676
1677
1678
1679
168
1680
1681
1682
1683
1684
1685
1686
1687
1688
1689
169
1690
1691
1692
1693
1694
1695
1696
1697
1698
1699
17
170
1700
1701
1702
1703
1704
1705
1706
1707
1708
1709
171
1710
1711
1712
1713
1714
1715
1716
1717
1718
1719
172
1720
1721
1722
1723
1724
1725
1726
1727
1728
1729
173
1730
1731
1732
1733
1734
1735
1736
1737
1738
1739
174
1740
1741
1742
1743
1744
1745
1746
1747
1748
1749
175
1750
1751
1752
1753
1754
1755
1756
1757
1758
1759
176
1760
1761
1762
1763
1764
1765
1766
1767
1768
1769
177
1770
1771
1772
1773
1774
1775
1776
1777
1778
1779
178
1780
1781
1782
1783
1784
1785
1786
1787
1788
1789
179
1790
1791
1792
1793
1794
1795
1796
1797
1798
1799
18
180
1800
1801
1802
1803
1804
1805
1806
1807
1808
1809
181
1810
1811
1812
1813
1814
1815
1816
1817
1818
1819
182
1820
1821
1822
1823
1824
1825
1826
1827
1828
1829
183
1830
1831
1832
1833
1834
1835
1836
1837
1838
1839
184
1840
1841
1842
1843
1844
1845
1846
1847
1848
1849
185
1850
1851
1852
1853
1854
1855
1856
1857
1858
1859
186
1860
1861
1862
1863
1864
1865
1866
1867
1868
1869
187
1870
1871
1872
1873
1874
1875
1876
1877
1878
1879
188
1880
1881
1882
1883
1884
1885
1886
1887
1888
1889
189
1890
1891
1892
1893
1894
1895
1896
1897
1898
1899
19
190
1900
1901
1902
1903
1904
1905
1906
1907
1908
1909
191
1910
1911
1912
1913
1914
1915
1916
1917
1918
1919
192
1920
1921
1922
1923
1924
1925
1926
1927
1928
1929
193
1930
1931
1932
1933
1934
1935
1936
1937
1938
1939
194
1940
1941
1942
1943
1944
1945
1946
1947
1948
1949
195
1950
1951
1952
1953
1954
1955
1956
1957
1958
1959
196
1960
1961
1962
1963
1964
1965
1966
1967
1968
1969
197
1970
1971
1972
1973
1974
1975
1976
1977
1978
1979
198
1980
1981
1982
1983
1984
1985
1986
1987
1988
1989
199
1990
1991
1992
1993
1994
1995
1996
1997
1998
1999
2
20
200
2000
2001
2002
2003
2004
2005
2006
2007
2008
2009
201
2010
2011
2012
2013
2014
2015
2016
2017
2018
2019
202
2020
2021
2022
2023
2024
2025
203
2030
204
205
2050
206
207
208
209
21
210
2100
211
212
213
214
215
2157
216
217
218
219
22
220
2200
221
222
223
224
225
226
227
228
229
23
230
231
232
233
234
235
236
237
238
239
24
240
241
242
243
244
245
246
247
248
249
25
250
2500
2501
251
252
253
254
255
256
257
258
259
26
260
261
262
263
2637
264
265
266
267
268
269
2697
27
270
271
272
273
274
275
276
277
278
279
28
280
281
282
283
284
285
286
287
288
289
29
290
291
292
293
294
295
296
297
298
299
3
30
300
3000
3001
301
302
303
304
305
306
307
308
309
3098
31
310
311
312
313
314
315
316
3166
317
318
319
32
320
321
322
323
324
325
326
327
328
329
33
330
331
332
333
334
335
336
337
338
339
34
340
341
342
343
344
345
346
347
348
349
35
350
3500
3501
351
352
353
354
355
356
357
358
359
36
360
361
362
363
364
365
366
367
368
369
37
370
371
372
373
374
375
376
3760
377
378
379
38
380
381
382
383
384
385
386
387
388
389
39
390
391
392
393
394
395
396
397
398
399
4
40
400
4000
4001
401
4016
402
403
404
405
406
407
408
409
41
410
411
412
413
414
415
416
417
418
419
42
420
421
422
423
424
425
426
427
428
429
43
430
431
432
433
434
435
436
437
438
439
44
440
441
442
443
444
445
446
447
448
449
45
450
4500
4501
451
452
453
454
455
456
457
458
459
46
460
461
462
463
464
465
466
467
468
469
47
470
471
472
473
4730
474
475
4750
476
477
478
479
48
480
481
482
483
484
485
486
487
488
489
49
490
491
492
493
494
495
496
497
498
499
5
50
500
5000
5001
501
502
503
504
505
506
507
508
509
51
510
511
512
513
514
515
516
517
518
519
52
520
521
522
523
524
525
526
527
528
529
53
530
531
532
533
534
535
536
537
538
539
54
540
541
542
543
544
545
546
547
548
549
55
550
5500
5501
5509
551
552
553
554
555
556
557
558
559
56
560
561
562
563
564
565
566
567
568
569
57
570
571
572
573
574
575
576
577
578
579
58
580
581
582
583
584
585
586
587
588
589
59
590
591
592
593
594
595
596
597
598
599
6
60
600
6000
6001
601
602
603
604
605
606
607
608
609
61
610
611
612
613
614
615
616
617
618
619
62
620
621
622
623
624
625
626
627
628
629
63
630
6300
631
632
633
634
635
636
637
638
639
64
640
641
642
643
644
645
646
647
648
649
65
650
6500
6501
651
652
653
654
655
656
657
658
659
66
660
661
662
663
664
665
666
667
668
669
67
670
6700
671
672
673
674
675
676
677
678
679
68
680
681
683
684
685
686
687
688
689
69
690
691
692
693
694
695
696
697
698
699
7
70
700
7000
7001
701
704
705
706
707
708
709
71
710
711
712
713
714
715
716
717
718
72
720
721
722
723
725
726
727
729
73
730
731
732
733
736
737
738
739
74
740
741
743
745
746
747
748
75
750
7500
7501
751
752
753
754
755
756
757
759
76
760
7610
764
765
766
767
768
77
770
771
772
773
774
775
776
777
778
779
78
780
781
782
784
7840
785
786
787
788
789
79
790
792
793
794
795
796
797
8
80
800
8000
801
802
803
804
805
806
808
809
81
810
811
812
813
814
815
816
817
818
819
82
820
821
822
823
824
825
827
828
829
83
830
831
832
833
834
835
836
838
839
84
840
841
842
843
844
845
846
847
848
85
850
851
852
853
854
855
856
857
858
859
86
860
861
862
863
864
865
866
867
868
869
87
870
871
872
873
874
875
876
877
878
879
88
880
881
882
883
884
885
886
887
888
889
89
890
891
892
893
894
895
896
897
898
899
9
90
900
9000
901
902
904
905
906
907
908
909
91
910
911
912
913
914
915
917
918
919
92
920
921
922
923
924
925
927
928
929
93
930
933
934
935
936
939
94
940
944
945
95
950
951
952
953
954
955
956
959
96
960
961
962
963
964
965
966
967
968
969
97
970
971
972
973
974
975
976
978
9789989101069
98
980
981
983
985
986
987
988
99
990
991
995
996
997
998
9989
999
:
;
<
=
>
?
@
\
^
_
`
a
aa
aaa
aad
aap
ab
abbr
abbrev
abc
abgerufen
abies
able
about
above
abs
abstract
ac
academic
academy
access
accessed
according
account
accounts
across
act
acta
action
active
actual
ad
adam
add
addclass
added
adding
additional
address
administration
adobe
adp
adult
advanced
adventure
ae
aero
af
affairs
afghanistan
africa
african
after
ag
again
against
agaricus
age
agency
ages
ah
ai
aid
ain
air
airlines
airport
airways
ais
aise
aj
ajax
ak
al
alan
alba
albania
albert
album
aleksandar
alex
alexander
alfred
ali
alias
aliases
alice
align
all
alla
allen
alliance
allmusic
allow
along
alpha
already
als
also
alt
alternative
although
always
am
amazon
ame
americ
america
american
among
amor
amour
amsterdam
an
ana
analysis
anchor
ancient
and
anderson
andre
andreas
andrew
android
angel
angeles
angels
angle
animal
animals
animation
ann
anna
anne
annual
another
antarctic
antarctica
anthology
anthony
anti
antonio
any
anything
ap
api
appear
appendchild
appendix
apple
application
applications
applied
approach
appropriate
approx
apr
april
aq
ar
arab
arabia
arabic
arak
arc
archaeological
archaeology
architecture
archive
archived
archives
arcsin
are
area
areas
arena
arg
argentina
args
argument
arguments
arhipova
aria
arizona
armenia
armenian
arms
army
arnold
aron
around
arp
array
ars
arsenal
art
arte
arthur
article
articles
artist
artists
arts
arxiv
as
ascii
asia
asian
ask
asp
aspects
aspx
assembly
assess
assessment
associated
association
ast
astronomical
astronomy
at
athens
atlantic
atlas
atm
atomic
atp
attack
attempt
attr
au
audio
auf
aug
august
aureus
aus
austin
australia
australian
austria
austrian
author
authority
authors
auto
automatic
automatically
aux
av
available
avec
award
awards
away
ax
az
azerbaijan
b
ba
baby
back
background
bad
baker
balkan
balkans
ball
band
bank
banking
bar
barbara
barcelona
bas
base
based
basel
basic
basketball
bass
battle
bay
bb
bbc
bc
bd
be
beach
bear
beat
beatles
beautiful
because
beck
become
been
before
begin
beginning
behind
bei
being
beles
belgrade
bell
below
ben
benjamin
benz
beograd
ber
berg
berkeley
berlin
bernard
beslan
best
beta
better
between
beyond
bez
bf
bg
bgp
bh
bi
bibcode
bible
bibliography
big
bigz
bill
billboard
bin
bio
biografiskt
biographical
biography
biology
bird
birds
birth
birthday
bis
bit
bitola
bl
black
blackwell
blank
blasco
blind
block
blog
blood
blu
blue
blues
bmatrix
bn
bo
board
bob
body
bold
boldsymbol
book
books
boolean
border
born
bosnia
boston
bot
both
bottom
box
boy
boyan
boys
bp
br
brainmachine
brainmachinewtf
brancoff
brazil
break
brest
brian
bridge
brief
bright
brill
britain
britannica
british
broadcast
broken
bros
brothers
brown
bruce
bs
bu
budapest
bug
build
builder
building
bulgaria
bulgarian
bulletin
bureau
bus
bush
business
but
butterflies
button
buxwv
bw
bx
by
byzantine
byzantium
c
ca
cafe
calcio
calendar
calif
california
call
called
cambridge
camp
campaign
campbell
can
canada
canadian
cannot
canterbury
cap
cape
capital
captain
caption
car
caravaggio
care
carl
carlos
carshalton
carter
cas
casa
case
cases
cash
cass
castle
cat
catalog
catalogue
categoria
categories
category
cathedral
catherine
catholic
cats
cave
cb
cbs
cc
cd
cdot
cdots
cdu
ce
cell
cells
ceneral
census
center
central
centre
centuries
century
cern
certain
cest
cet
cf
cfg
cgcg
cgi
ch
cha
chain
challenge
championship
championships
change
changed
changes
changing
channel
chapter
character
characters
charles
charlotte
chart
charts
che
check
chembox
chemical
chemistry
chess
chi
chicago
child
children
chile
china
chinese
choice
choose
chre
chris
christ
christian
christmas
christopher
chronicle
chronology
church
ci
cia
cid
cinema
circ
circle
cisco
cit
citation
cite
cited
cites
cities
city
civil
civilization
ck
cl
claim
claims
clapton
clark
clash
class
classes
classic
classical
classics
classification
claude
cle
clean
clear
click
climate
close
cloud
club
clusters
cm
cn
cnn
co
coast
coat
code
codes
cohen
coins
col
cola
cold
cole
coli
collapse
collection
college
collins
color
colors
colour
colspan
columbia
columbus
column
com
combination
come
comes
comics
coming
comma
command
comment
commentary
comments
commission
committee
common
commons
communication
communications
communities
community
companion
company
comparative
comparison
competition
complete
complex
computer
computing
con
concat
condita
conf
conference
config
configuration
conflict
congo
congress
conquest
conservation
constantinople
constitution
constitutional
construction
contact
containing
contains
contemporary
content
contest
context
contribution
contributions
control
convention
convert
cook
cool
cooper
coordinates
copy
copyright
core
cornell
corona
corp
corporate
corporation
corpus
correct
corvin
corwin
cos
cosh
cost
costa
costello
cotoneaster
could
council
count
counter
countries
country
county
course
court
cover
covid
cp
cr
crassula
crazy
crc
cream
create
created
creation
creative
credit
crime
crisis
critical
crkva
croatia
cropped
cross
crown
cry
crystal
cs
css
csstext
ct
cu
cult
cultural
culture
cup
current
currently
cut
cv
cx
cy
cycling
cyclingnews
cyprus
cz
czech
d
da
daily
dame
dan
dance
dancing
daniel
dans
dark
das
data
database
datavalue
date
dated
dates
davcev
david
davis
dawn
day
days
db
dc
dd
de
dead
deal
dear
death
dec
december
deep
def
default
defaults
defined
definition
dei
del
delivery
dell
della
delta
dem
democracy
democratic
den
department
deprecated
der
dereta
des
description
descriptions
design
destiny
destruction
det
detail
details
deutsche
deutschen
deux
development
devil
dezember
df
dfrac
di
dia
diary
dictionary
did
die
diego
dies
diff
different
digital
digits
din
dinosaur
dinosaurs
dir
direct
direction
director
directory
dirty
discogs
discovery
discussion
disease
disney
display
displayed
displaystyle
distance
distributed
distribution
district
ditions
div
diversity
division
dixon
dj
djokovic
dk
dl
dm
dna
dns
do
doc
doctor
document
documentary
documentation
documents
does
doesn
dog
doi
doine
dom
domain
don
donald
done
door
doors
dos
dostojevski
dot
dots
double
douglas
dover
down
download
dp
dr
draft
drama
drcg
dream
dreams
dreyer
drive
drug
drz
ds
dst
dt
du
due
dur
during
dutch
duty
dv
dvd
dx
dy
dynamics
dynasty
dz
e
ea
each
early
earth
east
eastern
easy
eb
ec
ecce
echo
ecology
economic
economics
economy
ed
edge
edinburgh
edit
editathon
edited
editing
edition
editions
editor
editors
eds
edu
education
educational
edward
edwards
ee
effect
effects
eg
egypt
egyptian
ehrlich
ei
ein
eine
einstein
either
ek
ekipa
el
election
elections
electric
electronic
element
elements
eliade
eliot
elisabeth
elizabeth
ell
ellen
else
elseif
elsevier
elvis
em
emperor
empire
empty
ems
en
enciklopedija
encyclopaedia
encyclopedia
encyclopædia
end
ends
endyear
enemy
energy
eng
engine
engineering
england
english
enough
enter
enterprise
entertainment
entity
entityid
entry
environment
environmental
eo
ep
epic
episode
epsilon
equivalent
er
era
erebia
eric
err
errata
error
errors
es
escape
eso
espan
espn
essay
essays
est
estonia
et
eta
etc
ethernet
ethnic
ethnologue
eu
euphorbia
euro
eurobasket
europa
europe
european
eurovision
ev
eva
evanescence
evans
even
event
events
ever
every
everything
evic
evidence
evo
evolution
ex
example
examples
excerpt
exchange
exhibition
exist
existing
exists
expandtemplate
expedition
experience
experiment
exploration
explorer
express
extended
extension
external
extra
extract
eye
eyes
f
fa
faber
face
facebook
fact
factor
factory
facts
faculty
fair
faith
fall
fallen
false
fame
family
famous
fantasy
far
fashion
fast
father
fb
fc
fe
fear
feat
feature
features
feb
february
federal
federation
feedback
feel
female
femme
fender
ferdinand
festival
few
ff
ffffff
fi
fiba
fiction
field
fields
fifa
fifth
fighting
figure
figures
file
files
filip
film
films
final
finance
financial
find
fine
fire
first
fischer
fish
five
fix
fixed
fjodor
fl
flag
flags
flash
flavrsavr
flensburg
flight
float
floor
flora
florence
florida
flow
floyd
fly
fm
fmt
fn
fo
focus
folk
folklore
follow
following
font
fontsize
food
foot
football
footer
for
force
forces
ford
foreign
forest
forever
form
format
formatdate
formation
formatting
former
forms
formula
forum
forward
foto
found
foundation
foundations
four
fourth
fox
fr
fra
frac
frame
framework
franc
france
francis
francisco
frank
frankfurt
franklin
fraser
free
freedom
french
fresco
friedrich
friends
from
front
fryer
ft
fu
full
function
functions
fund
further
future
g
ga
gabriel
galaxies
galaxy
gallery
gallimard
gam
game
games
gamma
gap
garden
gary
gas
gate
gb
ge
gen
gender
gene
general
generation
genocide
geo
geographic
geographical
geography
geological
geonames
georg
george
georges
georgia
gerd
german
germany
geschichte
gesellschaft
get
getargs
getelementbyid
getparent
gev
ghz
gi
giant
gif
girl
girls
give
given
gives
gl
glass
global
globe
gm
gmail
gmbh
gnu
go
goal
god
godina
godine
goes
gogh
going
gold
golden
gone
good
goodbye
google
goran
gordon
got
gov
government
goya
gps
gr
grace
grafic
grafos
graham
grammar
grand
grande
grant
gray
gre
great
greater
greatest
greece
greek
green
greenwood
gregory
grey
ground
group
groups
grove
growth
grp
gsc
gsub
gt
gu
guardian
guide
guinea
guitar
gun
gurevic
gustav
guy
h
ha
had
half
hall
hamburg
han
hand
handball
handbook
handler
hans
happy
hard
harold
harper
harris
harry
harvard
has
hat
hate
haus
have
haven
hbar
hbo
hc
hcards
hcg
hd
he
head
header
heading
headings
heads
health
heart
heat
heaven
heavy
hebrew
height
heinze
hell
hello
help
hendrix
henri
henry
her
herald
herbert
here
heritage
hero
herodotus
heroes
herzegovina
herzog
het
hg
hi
hibbert
hidden
hiddencat
hide
high
higher
highway
hill
him
hip
hirshfeld
his
histoire
historia
historical
histories
history
hit
hitler
hits
hle
ho
hoboken
hold
hole
holland
hollywood
holocaust
holy
home
homme
homo
hong
honor
hop
hope
hopkins
horse
hospital
host
hot
hotel
hour
house
how
howard
however
hp
hpv
hr
hrsg
hrt
hrvatska
htm
html
http
https
hu
hudson
hugh
human
hungarian
hungary
hylmo
hz
i
ia
iaaf
ian
iana
ib
ibid
ibm
ibn
ic
ice
ich
icon
id
idea
ideas
identification
identifier
identity
ie
iec
ieee
ietf
if
iftr
igoja
ii
iii
ij
ik
il
ilija
illustrated
im
image
images
imagesize
imap
imborska
imdb
img
impact
imperial
important
in
ina
inc
include
includes
including
increment
independent
index
indexof
india
indian
indiana
individual
indonesia
industrial
industry
ine
inflation
info
infobox
information
infty
initial
initiative
inkubusse
inline
inner
input
insert
inside
instead
institut
institute
institution
institutions
int
intel
intelligence
inter
interactive
interface
interior
internal
international
internet
interview
interwiki
into
introduction
invalid
io
ios
ip
ipad
ipairs
iphone
ipod
ipv
ir
iran
iraq
iras
ireland
irish
iron
irwin
is
isbn
islam
islamic
island
islands
iso
israel
issn
issue
issues
ist
istanbul
it
italia
italian
italic
italo
italy
item
itemid
items
its
itself
itt
itu
itunes
iucn
iv
ivan
ivo
ivota
ix
iz
izabrane
izdanje
izdavac
j
ja
jack
jackson
jacques
jam
james
jan
jane
january
japan
japanese
java
javascript
javier
jay
jazz
jbo
je
jean
jeff
jena
jersey
jerusalem
jesus
jewish
jews
jim
jo
joe
johann
johannes
john
johnson
join
jonathan
jones
jose
joseph
journal
journey
joy
jp
jpeg
jpg
jpl
jr
js
jstor
ju
juan
jul
julian
july
jun
june
junior
jupiter
juss
just
justice
k
ka
kaarangay
kalvino
kanji
kappa
kara
karen
karin
karl
kategori
kazakhstan
kazna
kb
kcpg
ke
keep
ken
kenneth
key
kg
khan
khz
ki
kids
kill
kim
kin
kind
king
kingdom
kings
kirche
kiril
kiss
kiste
kj
klein
klotz
km
knight
knjiga
knjiz
know
knowledge
known
ko
kong
korea
korean
kosovo
kr
krlez
ku
kug
kula
kulture
kv
kvinnobiografiskt
kw
l
la
label
labor
laboratory
labour
lactarius
ladies
lady
laguna
lake
lambda
lan
land
lang
langcode
language
languages
large
las
last
lat
late
later
latin
law
lawrence
laws
layer
layla
lb
lc
lcd
ld
le
lead
leader
leading
league
learn
learning
least
leave
leben
lecture
led
lee
left
legacy
legal
legend
legends
leiden
leipzig
len
length
leo
leonard
les
less
let
letter
letters
lettres
level
lewis
lexikon
lg
li
liberty
library
license
lie
life
light
lightning
like
lim
limited
limits
line
linear
lines
linguistic
linguistics
link
linked
links
linux
lion
lirika
list
listed
lists
literary
literature
little
live
lives
living
livre
ljubav
ljubljana
ll
ller
lloyd
lm
lmc
ln
lo
load
loc
local
location
log
logic
logo
london
lonely
long
look
looking
loop
lord
los
lost
lot
louis
love
low
lower
lp
lr
lt
ltd
lu
lua
ludwig
lufthansa
luis
lv
ly
m
ma
mac
mace
macedonia
macedonian
macedonianboy
macedonianfootball
machine
macmillan
mad
made
madrid
mag
magazine
magic
magnetic
mai
mail
main
mainsnak
major
make
makedonija
makes
making
maksimovic
male
mali
man
management
manastir
manchester
mann
manual
manuel
many
map
maps
mar
marc
march
marco
margaret
margin
mari
maria
marie
marine
mark
market
marko
marks
markup
mars
marsh
marshall
martin
mary
mas
mask
mass
massachusetts
master
match
matches
material
materials
math
mathbb
mathbf
mathcal
mathematical
mathematics
mathrm
matica
matrix
matter
matthew
maurice
max
may
mb
mbit
mbox
mc
mcg
mcgraw
md
me
meaning
means
mechanics
med
medal
media
mediawiki
medical
medicine
medieval
medium
meeting
megadeth
mem
member
members
memorial
memory
men
mer
mercedes
mes
message
messages
met
meta
metal
metallica
method
methods
metropolitan
mev
mexico
meyer
mf
mg
mga
mhnt
mhz
mi
michael
michel
michigan
microsoft
mid
middle
midnight
mie
might
mike
milan
mile
miles
military
miller
million
milos
min
mind
mini
minister
ministry
minor
minute
minutes
mir
miroslav
mirror
miss
missing
mission
mit
mitchell
mix
mixtec
mj
mk
mkd
ml
mm
mn
mo
mobile
mod
mode
model
models
modern
module
mol
molecular
mon
monastery
monde
monetary
money
monographs
monster
montenegro
month
months
monument
monuments
moon
moore
more
morgan
morning
morphological
morrison
moscow
mosque
most
mother
motion
motor
mount
mountain
mountains
move
movement
movie
movies
mp
mpls
mr
ms
msg
mt
mtad
mtv
mu
much
multi
multiple
munich
municipality
murder
murray
muse
museo
museum
music
musical
muslim
must
mv
mw
my
mystery
myth
mythology
n
na
nabla
nach
nacional
nad
namatay
name
named
names
namespace
narodne
nas
nasa
nat
natawo
nation
national
nations
native
natural
nature
naval
navbox
nb
nba
nbc
nc
nchen
nd
ndc
ne
near
neat
nebulae
need
needed
needs
negative
neil
neq
net
netherlands
network
networks
neue
neutrino
neutrinos
never
new
news
newton
next
nf
ng
ngc
nh
ni
nice
nicholas
nick
nie
night
nikola
nil
nilson
nine
nj
njc
nl
nm
nn
no
nobel
noc
node
nolit
non
none
nonstellar
nord
normal
norman
north
northern
norton
norway
norwegian
nos
not
note
notes
nothing
notice
notoc
nov
nova
novak
novaka
novel
november
novi
novo
now
np
npm
nr
ns
nt
nu
nuclear
nucleus
null
num
number
numbered
numberol
numbers
numeric
nuxx
nv
ny
nz
nzy
o
ob
obj
object
objects
oblast
observations
observatory
oc
ocean
och
ocl
oclc
oct
october
od
oecd
of
off
office
official
offset
often
og
oh
ohio
ohrid
oil
ois
oj
ok
ol
old
oliver
olympic
olympics
om
omega
on
once
one
online
only
op
opel
open
opera
operation
operatorname
oprah
opt
optical
option
optional
options
or
oral
orange
order
org
organization
orientation
origin
original
origins
orpheus
orthodox
os
oscar
osi
osmanlı
ot
other
others
otherwise
otto
ottoman
ou
our
out
output
outside
over
overline
override
overrightarrow
overview
own
owq
oxford
oz
p
pa
pacific
padding
page
pagename
pages
paidea
painting
pairs
pakistan
palace
palgrave
pan
panthera
paolo
paper
papers
papua
par
para
paradise
param
parameter
parameters
params
pardus
parent
paris
park
parker
parliament
parms
pars
part
partial
particle
particular
parts
party
pas
pasadena
pass
passed
past
path
patrick
pattern
patterns
paul
pays
pbs
pc
pd
pdf
pe
peace
pearl
pearson
pedro
peer
penguin
pennsylvania
people
per
perfect
performance
period
persian
person
personal
perspective
perspectives
peru
pesme
peter
petit
petrovic
pframe
pg
pgc
ph
phcap
phi
phil
philadelphia
philip
philippe
phillips
philosophical
philosophy
photo
photos
php
physical
physics
pi
picture
pictures
pierre
pink
pinus
piscu
pk
pl
place
places
plain
plan
planet
planetary
planets
plant
plants
plate
play
player
players
plays
playstation
please
plotdata
plus
pm
pmatrix
pmid
pn
png
po
poe
poems
poetry
poezija
pogovor
point
points
poland
police
policy
polish
political
politics
poljska
poly
pop
popular
population
por
port
portal
portrait
portugal
portuguese
pos
position
possible
post
pour
power
pp
ppm
pr
practice
prado
pre
precision
prefix
prefixes
premier
prentice
present
presentation
presented
president
press
pressure
pretty
preview
pri
pric
price
primary
prime
prince
princeton
principles
print
printed
pristupljeno
private
prize
pro
problem
problemi
problems
proc
proceedings
process
production
productions
prof
professional
professor
profile
program
programming
progress
project
projects
prop
properties
property
proposal
props
prosveta
protected
protection
protein
protocol
protour
provide
provided
province
prunus
ps
psi
psychology
pt
pub
public
publication
publications
published
publisher
publishers
publishing
purple
pus
push
put
px
python
q
qa
qid
qj
qquad
qt
qu
quad
qualifier
qualifiers
quality
quantum
quarterly
que
queen
query
question
questions
qui
quote
quoted
r
ra
race
rad
radio
raid
rain
random
range
rank
rate
rathaus
rather
rating
ratio
raw
ray
raymond
rc
rca
rcw
rd
re
read
reader
reading
ready
real
reality
reason
rec
recent
record
recording
recordings
records
rect
red
redirect
ref
reference
references
reform
regexp
region
regional
reich
related
relations
relative
relativity
relay
release
released
relief
religion
religious
remix
remove
renaissance
replace
report
reports
reprinted
republic
republican
republika
request
require
required
res
research
reserve
resolution
resource
resources
response
rest
result
results
ret
retrieved
return
returns
reuters
rev
review
reviews
revised
revolution
revolutionary
revue
rex
rez
rf
rfc
rgb
rho
ri
ria
rica
rich
richard
right
rightarrow
rights
ring
rio
rip
rise
risk
river
rk
rlag
rm
rn
rngc
ro
road
rob
robert
robin
robinson
rock
roger
roland
role
roll
rolling
rom
roma
roman
romance
romania
romanian
rome
ronald
room
root
rosa
rose
ross
rotten
round
route
routledge
row
rows
royal
rp
rr
rs
rse
rsssf
rt
ru
rule
rules
run
running
russell
russia
russian
russula
ruz
rv
ry
rz
s
sa
sab
sacred
sad
safety
said
saint
salix
sam
same
sample
samuel
san
sandbox
sans
santa
sao
sarajevo
saros
sata
satellite
satellites
saturday
saturn
saudi
save
savremena
say
says
sb
sba
sbab
sbb
sbbc
sbc
sbcd
sbd
sbl
sc
scale
schloss
scho
school
schools
sci
science
sciences
scientific
scientist
score
scotland
scott
screen
script
scripts
scriptstyle
sd
se
sea
seal
search
season
sec
second
secret
section
sections
security
see
seen
select
selected
selection
self
sep
separator
september
sequence
serbia
serbian
series
server
service
services
set
settlement
seven
several
sex
sf
sh
shadow
share
shaw
she
sheet
shift
short
shortname
should
show
showing
shown
shows
si
side
sie
sigma
sign
silver
simbad
simeonovski
similar
simon
simple
simply
sin
since
singapore
single
singles
sinh
sinnott
sio
sir
sister
site
sitelink
sites
six
size
sk
ska
ski
skin
skopje
sky
sl
slavic
slippy
slott
slovenia
sm
small
smart
smith
smiths
smithsonian
smrt
sn
snake
snaktype
snow
so
soccerway
social
society
sofia
software
sol
solar
solid
solidago
some
something
son
song
songs
sonic
sons
sony
sort
soul
sound
sounds
source
sources
south
southern
soviet
sp
spa
space
spaces
spain
span
spanish
spd
special
species
specific
specified
speech
speed
spirit
split
sport
sportmedia
sports
spring
springer
sq
sql
sqrt
square
sr
srbija
srednjem
sri
ss
st
sta
stadt
staff
stage
stanbul
stand
standard
standards
standing
stanford
stanley
star
stars
start
startyear
state
statement
statements
states
station
statistical
statistics
stats
status
stefan
stefanovski
step
stephen
steve
steven
stewart
still
sto
stockholm
stone
stones
stop
store
stories
story
str
strange
strategy
street
string
strings
strip
structure
structures
struggle
stuart
stub
students
studies
studio
studios
study
stuttgart
style
styles
su
sub
subdivisions
subject
subsp
success
successive
such
suffix
suicide
suite
sulentic
sum
summary
summer
sun
sunday
super
support
supported
sur
surface
surname
survey
sv
svenska
svenskt
sveriges
sveti
svg
svjetlost
sw
sweden
swedish
sweet
swiss
switch
switzerland
sydney
symbol
syndrome
syria
system
systems
t
ta
tab
table
tables
tag
tags
tai
tail
take
taken
takes
tale
tales
talk
talking
tampa
tan
target
tau
taxon
taylor
tc
tcp
td
te
team
teams
tears
teatro
technical
techniques
technology
tekken
tel
telegraph
telephone
television
tell
temp
template
templates
temple
ten
tennis
term
terms
terra
tes
test
testament
testing
texas
text
textcolor
texts
tfrac
tg
th
tha
than
thank
that
the
theater
theatre
theft
their
them
then
theory
there
these
thessaloniki
theta
they
thing
things
think
third
this
thomas
thompson
those
thought
thousand
three
through
thumb
thumbnail
ti
tie
tienne
tifft
tig
tiger
tigris
till
tim
time
timeline
timeofrace
times
tipb
tipe
titb
tite
title
tl
tmp
to
toc
today
together
tokyo
tom
tomatoes
tomb
tonight
tonumber
too
tool
tools
top
topic
toronto
tostring
total
touch
tour
tourism
tournament
towards
tower
town
tp
tr
tra
track
tracking
trade
tradition
traditional
train
trans
transfermarkt
transition
translate
translated
translation
translations
translator
transport
travel
tre
treatment
treaty
trec
tree
trg
trial
tribune
trifolium
trim
true
trust
truth
try
ts
tt
tu
tucson
turkey
turkish
turn
tv
twentieth
twitter
two
txt
ty
type
typeof
types
tz
u
ua
uc
uci
ucode
udp
uefa
ugc
ugca
uk
ukraine
ukrainian
ul
um
un
una
und
undefined
under
underground
understanding
underworld
une
unesco
unicode
union
unit
united
units
univ
universal
universe
universita
university
unix
unknown
until
up
update
updated
upload
upon
upper
uppsala
upright
ur
urban
urbe
uri
url
urn
ursus
us
usa
usage
usb
use
used
useful
user
users
uses
usgs
using
ustring
usually
ut
utc
utf
utype
v
va
val
valid
valley
value
values
van
var
varepsilon
variable
variant
variety
various
varphi
vaucouleurs
vcc
ve
vec
vector
veku
velyaminov
venus
ver
verlag
version
versions
vertical
very
vesti
vh
vi
via
victor
victoria
victory
video
videos
vie
vienna
view
vii
viii
viljem
villa
village
vincent
violence
virgin
virginia
virtual
visible
vision
vislava
vista
visual
visualeditor
vita
vizier
vladimir
vo
vogue
voice
vol
volcano
vols
volume
volumes
vom
von
vorontsov
voyage
vs
vuata
vuate
vuati
vulpes
vv
w
wa
wales
walk
walker
wall
walter
want
war
warfare
warner
warning
wars
warszawa
was
washington
watch
water
watson
wave
way
wayback
wb
wc
wd
we
web
website
webster
week
weekly
weight
welcome
well
went
were
werner
west
western
what
when
where
whether
which
while
white
who
whole
whoscored
why
wi
wid
wide
width
wie
wien
wiked
wikedtext
wiki
wikibase
wikidata
wikilink
wikimedia
wikimk
wikipedia
wikis
wikisource
wikitext
wild
wildlife
wiley
wilhelm
will
william
williams
wilson
win
wind
window
windows
wine
winner
wins
winter
wireless
with
within
without
wmf
wo
wolf
wolfgang
woman
women
won
wood
word
words
work
working
works
world
worlds
worldwide
would
wp
wr
wright
write
writers
writing
written
wrong
ws
wu
www
x
xa
xbox
xc
xi
xii
xiii
xiv
xix
xml
xp
xs
xv
xvi
xvii
xviii
xx
xxi
xxx
xy
y
ya
yahoo
yale
yardbirds
year
yearbc
years
yellow
yes
yesno
yet
yi
yo
york
you
young
your
youth
youtube
yu
yugoslavia
yyyy
z
za
zagreb
zapotec
zavod
ze
zealand
zeitung
zero
zeta
zh
zloc
zone
zoo
zu
zum
zumeta
zur
zw
zwicky
zyyy
{
|
}
~
¡
¢
£
§
©
ª
«
¬
­
®
°
±
²
³
´
µ
·
¹
º
»
¼
½
¾
¿
×
ß
æ
ð
÷
ø
đ
ħ
ı
ł
ŋ
ƒ
ɑ
ə
ɛ
ɡ
ɪ
ʒ
ʰ
ʹ
ʻ
ʼ
ʾ
ʿ
ˈ
ː
˚
˝
ˮ
̀
́
̂
̃
̄
̆
̇
̈
̉
̊
̋
̌
̏
̑
̓
̔
̛
̣
̥
̦
̧
̨
̭
̮
̯
̱
̸
͂
ͅ
΄
α
αγι
ας
β
γ
γιος
δ
δας
δη
ε
ελλα
ες
ζ
η
θ
θεσσαλονι
ι
κ
κα
και
κη
λ
μ
μα
μετονομασι
μος
ν
να
νε
νη
νος
ξ
ο
οικισμω
ου
π
ρ
ρι
ς
σ
τ
της
το
του
των
υ
φ
χ
ψ
ω
ων
а
аа
аат
аба
абас
абасидите
абба
абд
абдицира
абдицирал
абдоменот
абдул
абдула
абел
абердин
аби
абидос
абнормалности
абортус
абортуси
абортусот
абрахам
абу
абхазија
ав
ава
аваат
авала
авам
аваме
авангарда
авантура
авантури
авантуристички
авантурите
аварите
авато
авања
авањата
авање
авањето
авганистан
авганистанската
авганистански
август
августа
августин
авелино
авенир
авенија
авенијата
авермат
авив
авила
авиокомпании
авиокомпанија
авиокомпанијата
авион
авиони
авионите
авионот
авионска
авионски
авијација
авињон
авној
авол
аволи
аволот
авраам
аврам
аврамовска
аврелиј
аврил
австразија
австралиска
австралиската
австралиски
австралискиот
австралиските
австралија
австриска
австриската
австриски
австрискиот
австриските
австриско
австриското
австрија
австријците
австро
австронезиски
австроунгарија
австроунгарската
австроунгарските
автентични
автентичноста
авто
автобиографија
автобиографијата
автобиографски
автобус
автобуси
автобуска
автобуски
автобусот
автоматска
автоматски
автоматско
автомобил
автомобили
автомобилите
автомобилот
автомобилска
автомобилската
автомобилски
автономен
автономија
автономијата
автономна
автономната
автономни
автономниот
автопат
автопати
автопатот
автопортрет
автор
автори
авторите
авторитет
авторитетот
авторка
авторката
авторот
авторски
авторските
авторско
авторското
авторство
автохтони
аг
ага
агамемнон
агата
агенда
агенс
агенси
агент
агенти
агентите
агентот
агенции
агенциите
агенција
агенцијата
агиос
агитација
агларци
агли
аглите
аглутинативни
агнес
агол
аголен
аголна
аголната
аголниот
аголот
агрегати
агрегатна
агрегатната
агресивен
агресивна
агресивни
агресивно
агресија
агресијата
ад
ада
адам
адамс
адана
адаптации
адаптација
адаптацијата
адаптиран
адаптирана
адаптирани
адар
адвокат
адвокати
адвокатите
адвокатот
адел
аделаида
адидас
адисон
адлер
административен
административна
административната
административни
административниот
административните
административно
администратор
администратори
администраторите
администраторот
администраторски
администрација
администрацијата
адмирал
адмиралот
адолф
адорно
адреса
адресата
адреси
адресите
адријан
адријанопол
адријатико
ае
аек
аен
аеродром
аеродроми
аеродромите
аеродромот
ажурирана
ажурирање
аз
азар
азбука
азбуката
азбуки
азбучен
азербејџан
азербејџанската
азербејџански
азербејџанскиот
азербејџанските
азил
азиска
азиската
азиски
азискиот
азиските
азиско
азија
азот
азотни
азотот
аи
аирес
ак
акад
академии
академик
академици
академија
академијата
академска
академската
академски
академскиот
академските
академско
акварел
аквариум
аквински
аквитанија
акита
ако
аковица
аково
акон
акп
акри
аксел
акт
актер
акти
актива
активата
активен
активизам
активира
активираат
активирање
активист
активисти
активистите
активистка
активна
активната
активни
активниот
активните
активно
активност
активноста
активности
активностите
активното
актин
актинот
актите
актот
актуелен
актуелна
актуелната
актуелни
актуелниот
актуелните
акузатив
акумулација
акумулацијата
акумулира
акумулираат
акупунктурата
акустична
акустични
акутен
акутна
акцент
акцентот
акции
акциите
акционен
акционери
акционерите
акционерско
акциони
акциониот
акција
акцијата
акчиња
ал
ала
алабама
алан
алат
алати
алатка
алатката
алатки
алатките
алафилип
алах
алба
албанец
албанија
албанска
албанската
албански
албанскиот
албанските
албанско
албанското
албанци
албанците
албедо
албер
алберт
алберта
алберти
албертина
алберто
албион
албрехт
албум
албуми
албумите
албумот
алва
алгарве
алгебарски
алгебра
алги
алгоритам
алгоритми
алгоритмот
але
алегорија
алегро
алек
алеко
алекс
алекса
александар
александер
александра
александриски
александрија
александров
александрович
алексеј
алексик
алексис
алексиј
алексо
ален
алеп
алер
алесандро
алехандро
алехин
алжир
алзас
али
алин
алис
алиса
алисон
алишта
алиштакоцо
алиштата
алиште
алиштето
алија
алијанса
алијансата
алкални
алкалоиди
алкохол
алкохолни
алкохолот
алма
алманах
алмати
алмерија
ало
алонсо
алп
алпи
алпите
алпска
алпски
алпско
алсвенскан
алстер
алт
алтај
алтенбург
алтернатива
алтернативен
алтернативи
алтернативна
алтернативната
алтернативни
алтернативниот
алтернативните
алтернативно
алто
алтона
алуминиум
алуминиумски
алфа
алфонс
алфонсо
алфред
алјаска
ам
ама
амадеус
амазон
амалија
амам
амамот
аман
аманда
амандман
амандмани
амандманите
амандманот
амасија
аматер
аматери
аматерска
аматерски
амбасада
амбасадата
амбасади
амбасадор
амбасадори
амбасадорот
амбиент
амбиции
амбиција
амблем
амбуланта
амд
аме
америка
американец
американецот
американска
американската
американски
американскиот
американските
американско
американското
американци
американците
ами
амин
амино
аминокиселина
аминокиселини
аминокиселините
аминокиселински
аминта
амнести
амнестија
амон
амониум
амонијак
амплитуда
амплитудата
амрум
амстел
амстердам
амт
амундсен
амур
амфитеатар
ан
ана
анадолија
анализа
анализата
анализи
анализира
анализираат
анализирани
анализирање
анализите
аналитичар
аналитичари
аналитичка
аналитички
аналоген
аналогија
аналогни
аналогно
ананд
анархизам
анархизмот
анархист
анархисти
анархија
анастас
анастасиј
анастасија
анатолиј
анатомија
анатомијата
анатомски
анг
ангажира
ангажираат
ангажирал
ангажиран
ангажирана
ангажирани
ангажирање
ангажман
ангажмани
ангел
ангела
ангели
ангелина
ангелите
ангелов
ангеловски
ангелот
ангина
англ
англиканската
англикански
англиска
англиската
англиски
англискиот
англиските
англиско
англиското
англичани
англичаните
англија
англо
ангола
андалузија
андалусија
андартски
андер
андерграунд
андерлехт
андерс
андерсен
андерсон
анджеј
андите
андон
андонов
андоновски
андора
андре
андреа
андреас
андреев
андреевски
андрес
андреј
андреја
андрик
андрија
андроид
андромеда
андроник
анекс
анексија
анексијата
анемија
анестезија
анец
анецот
анжујски
ани
анимации
анимација
аниме
анимиран
анимирана
анимираната
анимирани
анимираниот
анин
анинот
анита
аните
анка
анкара
анкета
анкетата
анкети
анксиозност
ано
анови
анодата
аномалии
аномалија
анонимен
анонимни
анонимно
анот
анри
ансамбл
ансамбли
ансамблот
анска
анската
ански
анскиот
анските
анско
анското
анство
анталија
антантата
антарктик
антарктикот
антарктичка
антарктичката
антарктички
антарктичкиот
антверпен
анте
антена
антени
анти
антибиотици
антигва
антигон
антик
антика
антиката
антиквитети
антили
антимон
антиох
антиохија
антисемитизам
антитела
античка
античката
антички
античкиот
античките
античко
античкото
антоан
антоанета
антологии
антологија
антологијата
антон
антони
антонио
антониј
антропогеографска
антрополог
антропологија
антропологијата
антун
анхалт
анхел
анци
анџелес
анџело
ао
ап
апарат
апарати
апаратот
апартман
апартмани
апачи
апел
апенинскиот
апертура
апетит
апликации
апликациите
апликација
апликацијата
аполо
аполон
апостол
апостоли
апостолите
апостолов
апостолот
апостолска
апостолски
април
апсења
апсење
апсењето
апсида
апсидата
апсолвенти
апсолутен
апсолутна
апсолутната
апсолутно
апсорбира
апсорбираат
апсорпција
апсорпцијата
апстракт
апстрактни
апстракција
аптека
аптеки
апулија
ар
ара
арабија
аравали
арагон
арагонски
арад
арамејски
арамејскиот
аранг
арангел
аранжман
аранжмани
арапи
арапина
арапите
арапска
арапската
арапски
арапскиот
арапските
арапско
арапското
арачиново
арбитража
арбих
аргентина
аргентинската
аргентински
аргентинскиот
аргир
аргон
аргумент
аргументи
аргументите
аргументот
ардеш
арена
арената
ари
ариел
аризона
аристарх
аристократи
аристократија
аристократијата
аристократски
аристотел
аритметика
аритметичката
арка
аркадиј
арканзас
арктикот
арктичкиот
арл
арм
армани
армии
армиите
армиски
армија
армијата
армстронг
арнаути
арно
арнолд
арома
ароматични
арон
арпови
арс
арсен
арсенал
арсениј
арсенот
арсо
арсов
арсовски
арт
артаксеркс
артемида
артерии
артерија
артефакти
артилериски
артилерија
артилеријата
артист
артисти
артритис
артур
ару
архангел
архангели
археи
археите
археолог
археологија
археологијата
археологот
археолози
археолозите
археолошка
археолошки
археолошкиот
археолошките
археолошко
археолошкото
архив
архива
архивата
архиви
архивирање
архивите
архивот
архивски
архивскиот
архиепископ
архиепископи
архиепископија
архиепископијата
архиепископот
архимандрит
архимед
архипелаг
архипелагот
архипелази
архитект
архитекти
архитектите
архитектонска
архитектонската
архитектонски
архитектонскиот
архитектонските
архитектонско
архитектот
архитектура
архитектурата
архијерејски
архијерејско
арџеш
ас
асад
асам
асан
асанж
асеан
асен
асимилација
асирија
асирскиот
асирците
асистент
асистенти
асистенции
асистенција
асистирал
аскер
аскерот
асном
асоцијации
асоцијација
асоцијацијата
аспект
аспекти
аспирации
астана
астероид
астероиден
астероиди
астероидите
астероидниот
астероидот
астма
астон
астра
астрид
астрологија
астрологијата
астроном
астрономи
астрономите
астрономија
астрономијата
астрономот
астрономска
астрономски
астрономските
астрономско
астрофизика
астурија
асур
асфалтен
асфалтиран
асфалтниот
ат
ата
аталанта
атанас
атанасиј
атанасов
атанасовски
атар
атари
атарот
ататурк
ате
атеисти
ателје
атена
атентат
атентати
атентатори
атентатот
атика
атила
атина
атинскиот
атињаните
атланта
атлантик
атлантикот
атлантски
атлантскиот
атлас
атласот
атлетик
атлетика
атлетико
атлетичар
атлетичари
атлетски
атли
атм
атмосфера
атмосферата
атмосферска
атмосферски
атмосферскиот
атмосферските
атол
атоли
атолот
атом
атоми
атомите
атомот
атомска
атомската
атомски
атомскиот
атомските
атомско
атомското
атп
атракции
атракција
атрибути
аугсбург
аугуст
аудио
аудиција
ауе
аукција
аурих
аурора
аут
аутизам
аушвиц
афанасии
афанасиј
афера
аферата
афинитет
афион
афионите
афирмација
афонсо
африка
африканска
африканската
африкански
африканскиот
африканските
африканско
африканското
африканци
афро
афродита
ах
ахен
ахил
ахмад
ахмед
ахмет
аце
ацев
ацо
ацтеките
ацтечки
ач
ачи
ачите
ачки
ачот
аш
ашана
аше
ашо
ај
аја
ајакс
ајдахо
ајде
ајк
ајкула
ајкули
ајленд
ајна
ајндховен
ајни
ајните
ајнтрахт
ајнштајн
ајова
ајот
ајти
ајхсфелд
аљоша
ања
ањата
ање
ањето
аџилак
б
ба
баба
бабата
бабик
бабино
бабо
бабуна
баварија
баварската
баварски
бавен
бавна
бавни
бавно
багдад
бад
бадахос
бадеми
баден
бадник
баер
баерн
база
базалт
базата
базел
базелскиот
базен
базени
базенот
бази
базилика
базиликата
базилики
базирана
базирани
базите
базни
бак
бакар
бакарна
бакарни
бакарно
бакарот
бакау
бакнеж
бакр
бакс
бактерии
бактериите
бактериска
бактериски
бактерија
бактеријата
баку
бал
балада
баладата
балади
баланс
балван
балдуин
балерина
балет
балети
балетот
балетски
балзак
бали
балистите
балистички
балистичките
балкан
балканот
балканска
балканската
балкански
балканскиот
балканските
балконот
балон
балони
балтимор
балтички
балтичките
балтичко
балтичкото
бамбус
бан
банат
бангкок
бангладеш
банда
бандата
банди
баница
банк
банка
банкарска
банкарски
банкарскиот
банкарските
банкарство
банкарството
банката
банки
банките
банкнота
банкноти
банкнотите
банкрот
бановина
банско
банту
бар
бара
бараа
бараат
бараж
баражот
барак
барал
барала
барале
барало
барам
бараме
барани
бараните
бараше
барајк
барања
барањата
барање
барањето
барбадос
барбара
барбарево
барбароса
барбуда
барде
бардо
барели
барем
бари
бариера
бариери
баритон
бариум
барнаба
барнард
барнет
барнли
барнс
барови
барово
барок
барокен
барокна
барокната
барокни
барокниот
барокот
барон
баронот
барот
барселона
барт
бартали
бартоломео
бартон
барут
бас
басен
басени
басенот
басист
басистот
баскет
баскиски
баскија
басна
басне
басни
бастон
бастоњ
бат
бата
баталјон
баталјони
баталјонот
батерии
батериите
батерија
батеријата
батист
батиста
батлер
батор
бауер
бауман
баухаус
бауцен
бафало
бафи
бафта
бах
бахамите
бахреин
бахтин
бач
бачка
баш
башкортостан
баја
бајазит
бајден
бајер
бајерн
бајка
бајката
бајке
бајки
бајките
бајконур
бајрам
бајрон
бајројт
бајт
бајти
бања
бањата
бањи
бањите
бањица
бањски
баџо
бдп
бе
беа
беав
бебе
бебето
бебиња
бев
беверли
бевме
бевте
бег
бега
бегаат
бегалец
бегалски
бегалско
бегалци
бегалците
бегај
бегајк
бегемот
бегниште
бегови
бегот
бегство
бегството
беда
бедем
бедеми
бедемот
без
безбеден
безбедна
безбедни
безбедно
безбедносен
безбедносна
безбедносни
безбедносните
безбедност
безбедноста
безброј
безжичен
безжична
безжични
безжичните
безрбетници
безусловно
безуспешно
бек
бекам
бекер
бекет
бекови
бел
бела
беласица
белата
белгиска
белгиската
белгиски
белгискиот
белгија
белград
белградска
белградската
белградски
белградскиот
белграно
белев
белег
бележат
бележи
белези
белетристика
белешка
белешки
белешките
бели
белиз
белингсхаузен
белиот
белите
белица
беличица
белковина
белковината
белковини
белковините
белковинска
белковински
бело
белодробен
белорусија
белоруска
белоруската
белоруски
белорускиот
белото
белфаст
белци
белците
белчишта
бен
бенг
бенгал
бенгалски
бенд
бендови
бендовите
бендот
беневенто
бенедикт
бенет
бенефиции
бензин
бензински
бени
бенин
бенито
бенкс
бенфика
бенц
бенјамин
бенџамин
београд
бер
беранци
берат
берба
берберски
берг
бергамо
берген
бергер
бергман
берд
берде
бердих
березовски
береникина
берза
берзата
бери
бериша
беркли
берлин
берлинската
берлинскиот
берн
бернал
бернар
бернард
бернардо
бернули
бернхард
берово
берско
берт
берта
бес
бесарабија
беседа
бесен
бесконечен
бесконечна
бесконечно
бесконечност
бескрајно
бесплатен
бесплатна
бесплатни
бесплатно
бест
бет
бета
бете
бети
бетис
бетмен
бетовен
бетон
бетонски
бечеј
беше
бешик
бешикташ
беј
бејби
бејзбол
бејкер
бејкон
бејл
бејли
бејрут
бзас
би
биатлон
бибер
бибиси
библиографија
библиографски
библиотека
библиотекар
библиотеката
библиотеки
библиотеките
библиски
библиските
библија
библијата
биг
бигла
бигор
бигорски
бидам
бидат
биде
бидеме
бидете
бидеш
бидејк
биди
бие
биенале
бизмарк
бизнис
бизниси
бизнисите
бизнисот
бик
бикови
бикот
бил
била
биланс
билансот
билапс
билатерални
билбао
билборд
биле
билети
били
билиони
билка
билки
било
билтен
билјана
бин
бинарни
бинше
био
биограф
биографии
биографично
биографија
биографијата
биографот
биографски
биолог
биологија
биологијата
биолози
биолошка
биолошката
биолошки
биолошките
биолошко
биомаса
биопсија
биоразновидност
биоразновидноста
биосферен
биосферни
биохемија
бира
бираат
бирмингем
биро
бирократија
бирото
бирс
бис
бисао
бисер
бисери
бискуп
бискупот
биста
бисти
бистра
бистрица
бит
бита
битен
битерфелд
бити
битие
битието
битка
битката
битки
битките
битлси
битна
битни
битно
битови
битола
битолска
битолската
битолски
битолскиот
битолско
битолското
битољско
бих
бихак
бич
бијонсе
бкп
благ
блага
благајник
благи
благо
благовештение
благодарам
благодарение
благодарејк
благодариме
благодарност
благодарноста
благоевград
благоевградската
благонаклонет
благонаклоност
благороден
благородни
благородник
благородните
благородници
благородниците
благородничка
благороднички
благородничко
благородништво
благородништвото
благослов
благослови
благосостојба
благосостојбата
благотворително
благој
благоја
блаже
блажевски
блажената
бланко
блато
блаце
блед
бледа
бледи
бледо
блек
блекбурн
блер
блесок
блејк
близина
близината
близнак
близнаци
близнаците
близок
близу
блиска
блиската
блиски
блискиот
блиските
блиско
блискост
блиското
блиску
блиц
блог
блогови
блок
блокада
блокадата
блокади
блокатори
блокира
блокираат
блокиран
блокирани
блокирање
блокови
блоковите
блокот
блу
блуз
блум
бо
боасон
боб
бобан
боби
бобинки
бог
бога
богат
богата
богатата
богати
богатиот
богатите
богато
богатства
богатство
богатството
богдан
богдановик
богдановци
богданоска
богданци
богови
боговите
боговиње
богоевски
богомила
богородица
богослов
богословец
богословија
богослужба
богот
богота
богољубов
бод
бода
боде
боден
бодлер
бодовен
бодови
бодовите
бодовна
бодовниот
бодување
боење
боже
божества
божествата
божествена
божествената
божество
божеството
божидар
божик
божин
божинов
божиновски
божица
божицата
божици
божја
божјата
божји
божјиот
божјите
божјо
божјото
бозон
бозони
бои
боинг
боите
боиште
бока
бокс
боксер
бол
болгарское
болдвин
боледување
болен
болеслав
болест
болеста
болести
болестите
болејн
боливар
боливија
болка
болката
болки
болна
болни
болниот
болните
болница
болницата
болници
болниците
болнички
болно
болоња
болтон
болшевиците
бом
бомба
бомбардери
бомбардирања
бомбардирање
бомбардирањето
бомбата
бомбашки
бомби
бон
бонапарт
бонапарта
бонд
боне
бонен
бони
бонифациј
боно
бонус
бонуси
бор
бора
борат
борац
борач
борба
борбата
борбен
борбена
борбени
борбените
борбеност
борби
борбите
бордо
борел
борела
бореле
борец
боречки
бореше
борејк
борење
бори
боривое
борис
борислав
борисов
борка
борн
борнео
боро
борови
борово
борусија
борхгревинк
борхес
борци
борците
борче
бос
босанска
босанската
босански
босанскиот
босанските
босанско
босилово
босна
бостон
босфор
босфорот
бот
ботаника
ботаничар
ботаничка
ботаничката
ботанички
ботев
ботови
ботот
ботун
боуви
бохемија
бохум
боцвана
боцки
бош
бошава
бошко
бошковски
бошковци
бошњаци
бошњаците
бој
боја
бојан
бојана
бојата
бојкот
бојл
бојмија
бојното
бојс
бр
брабант
браво
брада
брадавици
брадата
бразда
бразил
бразилија
бразилска
бразилската
бразилски
бразилскиот
брак
бракови
бракот
бран
брана
бранат
браната
бранденбург
брандо
бранел
бранеле
бранејк
брани
бранислав
бранител
бранители
бранителите
бранителот
бранко
бранковик
бранов
бранова
брановата
бранови
брановиот
брановите
бранот
брат
брата
брате
братислава
братот
братства
братство
братството
братучед
братучетка
браун
брауншвајг
брахе
брачен
брачна
брачни
брачниот
брачните
брашно
брајан
брајант
брајтон
брајчино
брвеница
бргу
брда
брдо
бре
брег
брега
брегалница
брегалничка
брегалничката
брегови
бреговите
брегот
бред
бредли
брежани
брежице
бреза
брезница
бремен
бремена
бремени
бременост
бременоста
бремерхафен
бренд
брендови
брендон
брендот
брест
бретања
бретон
брехт
бреша
брејк
брз
брза
брзата
брзи
брзина
брзината
брзини
брзините
брзиот
брзите
брзо
брзото
бригада
бригадата
бригади
бриж
брин
брисел
бристол
британика
британија
британска
британската
британски
британскиот
британските
британско
британското
британци
британците
бритни
бришат
брише
бришење
бриџ
брка
бркаат
брно
брод
брода
бродвеј
бродец
бродови
бродовите
бродот
бродски
броеви
броевите
броел
броела
броеле
броело
броена
броење
броењето
броз
брои
бром
бромвич
бромид
бронза
бронзата
бронзен
бронзена
бронзени
бронзениот
бронзено
бронзеното
бронте
брос
број
броја
бројат
бројгел
бројдраган
бројка
бројката
бројки
бројките
бројна
бројни
бројните
бројно
бројност
бројноста
бројот
бројчена
бројчени
брук
бруклин
брукс
брунелески
брунеј
бруно
брус
брут
бруто
брухе
бу
буба
бубамара
бубачки
бубрег
бубрежна
бубрезите
був
буг
бугари
бугарин
бугарите
бугарија
бугарска
бугарската
бугарски
бугарскиот
бугарските
бугарско
бугарското
буда
будва
будење
буди
будизам
будизмот
будим
будимпешта
будистичката
будистички
будистичкиот
будистичките
будук
буенос
бук
бука
букв
буква
буквален
буквално
буквата
букви
буквите
буковик
буково
букурешкиот
букурешт
бул
була
булгаков
булевар
булеварот
булс
бум
буна
бунар
бунари
бунарот
бундеслига
бундеслигата
бунт
бунтеска
бунтови
бунтовник
бунтовници
бунтовниците
бунтот
бура
бурата
бург
бургас
бургенланд
бургос
бургундија
буре
бурен
бурж
бури
бурите
буриња
бурк
буркина
бурма
бурса
бурунди
бут
бутан
бутел
бучава
бучим
бучин
буш
буџет
буџетот
буџетски
българите
българия
българската
български
българското
бјанке
бјанконерите
бјорк
бјорн
в
ва
вавилон
вавринка
вага
вагината
вагнер
вагони
ваденско
вадење
вади
важат
важел
важен
важи
важна
важната
важни
важните
важно
важност
важноста
вазал
вазали
вака
ваква
ваквата
вакви
ваквиот
ваквите
вакво
ваквото
ваков
вакуум
вакцина
вакцини
вал
валандово
валас
валверде
валдемар
вале
валенсија
валентин
валентина
валентино
валери
валериј
валжан
вали
валиде
валиден
валидни
валоа
валон
валони
валонија
валтер
валута
валутата
валути
валцер
вам
вампир
вампири
вампирите
вампирот
ван
ванадиум
ванг
вангел
вандализам
вандалите
ванила
ванкувер
вануату
ванчо
вапцаров
вар
варвара
вард
вардар
вардарска
вардарската
вардарски
вардарскиот
варен
варење
вари
варира
варираат
варијабилност
варијанса
варијансата
варијанта
варијантата
варијанти
варијации
варијациите
варијација
варна
варов
варовник
варовници
варовнички
варош
вартбург
вартоломеј
варуна
варшава
варшавскиот
вас
васа
васе
васил
василев
василево
василевски
василица
василиј
васиљевич
васко
васкуларни
ват
вата
ваташа
ватерполо
вати
ватикан
вацлав
ваш
ваша
вашата
вашето
ваши
вашингтон
вашиот
вашите
вајар
вајари
вајарот
вајарство
вајат
вајда
вајлд
вајмар
вајмарската
вајнхаус
вајоминг
вајс
вајт
ваљадолид
ваљево
вања
вб
вбројува
вбројуваат
вграден
вградена
вградени
вдишување
вдлабнатина
вдлабнатини
вдовица
вдовицата
вдовици
ве
веа
веб
вебер
вевелгем
вевчани
вег
вега
вегас
вегетација
веднаш
вежба
вежбање
вежби
вез
везер
везир
везири
век
века
векови
вековите
векот
вектор
вектори
векторите
векторот
векторски
велам
велат
велгошти
веле
велел
велемајстор
велес
велеслалом
велестово
велешката
велешки
велешкиот
велешко
велешкото
велејк
вели
велигден
велигденски
велика
велики
великиот
велико
велиме
велимир
велингтон
велит
величествениот
величина
величината
величини
велко
велковци
велмеј
велодромски
велодромско
велокрос
велосипед
велосипеди
велосипедизам
велосипедизмот
велосипедист
велосипедисти
велосипедистите
велосипедот
велосипедска
велосипедската
велосипедски
велосипедските
велс
велшки
велшкиот
вембли
вена
венгер
венера
венето
венец
венеција
венецијанска
венецијанската
венецијански
венецијанскиот
венецијанските
венецијанците
венецот
венецуела
вени
венизелос
вените
венко
вентилација
венци
венча
венчаат
венчавка
венчавката
венчале
вепрчани
вера
верата
верба
вербата
вергилиј
верден
вердер
верди
верен
верзии
верзиите
верзија
верзијата
вери
верига
верижна
верификација
верковик
верлен
вермонт
верн
верна
вернер
верни
верници
верниците
верно
верност
веродостојни
веродостојноста
вероисповед
верона
вероника
веројатно
веројатност
веројатноста
версај
версајскиот
верска
верската
верски
верскиот
верските
верско
вертикален
вертикална
вертикалната
вертикални
вертикално
верува
веруваат
верувал
верувала
верувале
верувало
верувам
веруваше
верувајк
верувања
верувањата
верување
верувањето
вес
весекс
весел
весели
веселин
весла
веслачи
веслање
весли
весна
весник
весникот
весници
весниците
веспрем
вест
веста
вестерн
вести
вестите
вестминстер
вестминстерската
вестфалија
ветар
ветер
ветеран
ветерани
ветерница
ветерот
вети
ветил
вето
ветришта
ветрови
ветровите
ветрот
ветува
ветувајк
ветувања
ветување
ветувањето
вечен
вечер
вечера
вечерата
вечери
вечерни
вечерните
вечерта
вечерње
вечна
вечната
вечни
вечниот
вечно
вешт
вештачка
вештачката
вештачки
вештачките
вештачко
вештачкото
вештерка
вештерката
вештерки
вештерките
вештерот
вештерство
вешти
вештина
вештината
вештини
вештините
вешто
вејд
вејн
вејце
вељко
ви
виа
вибрации
вивалди
виган
вигинс
виго
вид
вида
видам
видат
виде
видеа
видел
видела
виделе
виделина
видело
виден
видена
видени
видено
видео
видеоигри
видеото
видете
види
видиме
видин
видите
видиш
видлив
видлива
видливата
видливи
видливиот
видливо
видливост
видни
видно
видоа
видов
видови
видовите
видое
видот
видување
вие
виена
виенската
виенскиот
виетнам
виетнамската
виетнамски
виза
византион
византиска
византиската
византиски
византискиот
византиските
византиско
византиското
византија
византијци
византијците
визардс
визба
визи
визиготите
визии
визија
визијата
визуелен
визуелна
визуелната
визуелни
визуелниот
визуелните
визуелно
вик
вика
викаат
викал
викала
викале
викенд
викендот
вики
викиекспедиција
викиизвор
викиликс
викимедија
викинзите
википедии
википедија
википедијанци
википодатоците
википроект
виктор
викторија
вил
вила
вилает
вилаети
вилаетите
вилаетот
вилата
вилем
вили
вилис
вилица
вилицата
вилици
вилијам
вилијамс
вилкс
вилнус
вилсон
вилхелм
вимблдон
вин
вина
вината
виндзор
виндоус
винер
вини
виница
виничка
виничко
вино
винова
виновен
виновни
виножито
виното
винсент
вински
винстон
винфри
винцент
винченцо
винчестер
винчи
виола
виолета
виолетова
виолетови
виолина
виолинист
виолончело
виорот
вип
вир
вирово
виртемберг
виртуелен
виртуелна
виртуелната
виртуелни
вирус
вируси
вирусите
вирусни
вирусот
вирџинија
вис
висенте
висечки
виси
висина
висината
висини
виски
висконсин
висконти
висла
вислава
висок
висока
високата
високи
високиот
високите
високо
висококвалитетни
високото
висорамнина
висорамнината
висорамнини
висорамнините
височество
височина
височината
височини
височинка
вистина
вистината
вистини
вистинита
вистинити
вистинито
вистинитост
вистинска
вистинската
вистински
вистинскиот
вистинските
вистинско
вистинското
вита
витално
витамин
витамини
витаминот
витез
витези
витезите
витезот
витенберг
витешки
витешкиот
витлеем
витни
вито
витолиште
виторио
виторија
вице
вицепрвак
вицешампион
вицешампиони
виченца
виш
виша
вишата
вишеград
виши
вишни
вишок
вишокот
вија
виљареал
вк
вклопува
вклучат
вклучен
вклучена
вклучени
вклучено
вклученост
вклучи
вклучил
вклучила
вклучиле
вклучително
вклучува
вклучуваа
вклучуваат
вклучувал
вклучувала
вклучувале
вклучувало
вклучуваше
вклучувајк
вклучување
вклучувањето
вкрстени
вкрстуваат
вкрстување
вкупен
вкупна
вкупната
вкупни
вкупниот
вкупните
вкупно
вкупното
вкус
вкусови
вкусот
влага
влад
влада
владан
владата
владеат
владее
владеел
владеела
владееле
владеење
владеењето
владение
владетел
владетели
владетелите
владетелот
владејачката
влади
владика
владиката
владимир
владин
владина
владината
владини
владиниот
владините
владислав
владите
владо
влажен
влажна
влажната
влажни
влажност
влажноста
влакна
влакната
влакнести
влакно
вландерен
власи
власите
власт
власта
власти
властимир
властите
влатко
влахов
влашка
влашки
влашко
влева
влеваат
влегла
влегле
влегло
влегоа
влегол
влегува
влегуваат
влегувале
влегувало
влегувајк
влегување
влегувањето
влез
влеза
влезат
влезе
влезен
влезна
влезната
влезни
влезниот
влезните
влезови
влезовите
влезот
влекачи
влечат
влече
влечење
вливот
влијаат
влијае
влијаел
влијаела
влијаеле
влијаело
влијаеше
влијание
влијанието
влијанија
влијанијата
влијателен
влијателна
влијателни
вложувања
вложување
влоши
влошила
влошиле
влошува
влошување
вметнат
вметнати
вметнато
вметне
вметнува
вметнување
вмешан
вмешани
вмешаност
вмк
вмок
вморо
вмрежување
вмро
внатре
внатрешен
внатрешна
внатрешната
внатрешни
внатрешниот
внатрешните
внатрешно
внатрешност
внатрешноста
внатрешното
внба
внел
внес
внесе
внесени
внесете
внесува
внесуваат
внесување
внесувањето
внимава
внимание
вниманието
внимателен
внимателни
внимателно
внук
внука
внуката
внукот
внуци
во
вовед
воведат
воведе
воведен
воведена
воведени
воведение
воведено
воведната
воведниот
воведот
воведува
воведуваат
воведување
воведувањето
вовел
вовела
вовеле
вовлечен
вог
воглавно
вод
вода
водат
водата
водач
водачи
водачите
водачот
водел
водела
воделе
водело
воден
водена
водената
водени
водениот
водените
воденица
воденици
водено
воденско
водечка
водечката
водечки
водечкиот
водечките
водеше
водејк
водење
водењето
води
водите
водител
водителка
водици
водич
водичи
водна
водната
водни
водниот
водните
водно
водовод
водоземци
водолија
водопад
водопади
водопадите
водопадот
водород
водороден
водородни
водородните
водородот
водоснабдување
водостој
водотеци
водоча
водство
водството
воедно
воен
воена
воената
воени
воениот
воените
воено
военото
вождовац
воз
возат
возач
возачи
возачите
возачот
возбуда
возвишение
возврат
воздржан
воздржани
воздух
воздухоплови
воздухопловна
воздухопловната
воздухопловни
воздухопловните
воздухопловство
воздухопловството
воздухот
воздушен
воздушна
воздушната
воздушни
воздушниот
воздушните
воздушно
возел
возејк
возење
возењето
вози
возила
возилата
возило
возилото
возможно
вознемирен
вознемирени
вознемиреност
вознемирување
вознесение
возобновување
возови
возовите
возот
возрасен
возрасна
возрасната
возрасни
возрасните
возраст
возраста
возрасти
вои
воин
воини
воислав
вокал
вокален
вокали
вокалист
вокална
вокални
вокер
воксхал
вол
волво
волга
волгоград
волдеморт
волеј
волк
волкашин
волковија
волково
волкот
волна
волнени
воловар
волови
волонтери
волонтерски
волт
волта
волтер
волти
волумен
волуменот
волф
волфганг
волфенбител
волфрам
волфсбург
волци
волците
волш
волшебни
волшебник
волшебникот
волшебниот
волја
волјата
вон
вонгалактичка
вондерерс
вонземјани
вонреден
вонредна
вонредни
вонсончеви
вообичаен
вообичаена
вообичаената
вообичаени
вообичаениот
вообичаените
вообичаено
вообичаеното
воодушевен
воодушевување
воопшто
вооружен
вооружена
вооружената
вооружени
вооружените
вооружување
вордсворт
ворен
ворнер
воскресение
воскресението
воскресна
восок
воспаление
воспалението
воспитание
воспитно
воспитување
воспитувањето
воспостават
воспоставен
воспоставена
воспоставени
воспоставено
воспостави
воспоставил
воспоставила
воспоставиле
воспоставува
воспоставуваат
воспоставување
воспоставувањето
востание
востанието
востаници
востаниците
востаничка
востанички
востаничките
востанија
восток
восхит
вотсон
вотфорд
воч
војаџер
војвода
војводата
војводи
војводина
војводите
војводства
војводство
војводството
војвотка
војвотката
војдан
војислав
војна
војната
војни
војник
војникот
војните
војници
војниците
војнички
војска
војската
војски
војските
војсководец
војсководци
војувал
војувале
војување
војувањето
вп
впечатлива
впечатливи
впечаток
впечатоци
впива
впрочем
вработен
вработена
вработени
вработените
вработеност
вработеноста
вработи
вработил
вработува
вработување
вработувањето
врак
врана
вранештица
врановци
врапчиште
врат
врата
вратам
вратат
вратата
вратен
вратена
вратени
вратено
врати
вратил
вратила
вратиле
вратило
вратите
вратија
вратница
вратот
враца
врач
врање
врба
врбас
врбица
врбјани
врв
врвен
врвна
врвни
врвниот
врвните
врвно
врвови
врвовите
врвот
вргањ
врева
вреден
вреди
вредна
вредни
вредно
вредносен
вредносни
вредност
вредноста
вредности
вредностите
вреднување
врежани
врек
врела
врело
време
временска
временската
временски
временскиот
временските
временско
временското
времето
времетраење
времетраењето
времиња
времињата
врз
врзан
врзана
врзани
врзува
врзуваат
врзување
врзувањето
вриење
врне
врнежи
врнежите
вродена
вродени
вроцлав
врска
врската
врски
врските
врсници
вртат
вртежен
вртежи
вртежна
вртежниот
вртење
вртењето
врти
вртикоп
вртоглавица
вруток
врх
врховен
врховенството
врховистите
врховна
врховната
врховниот
вршат
вршац
вршел
вршела
вршеле
вршело
вршени
вршено
вршење
вршењето
врши
вршител
врњачка
вселена
вселената
вселенска
вселенската
вселенски
вселенскиот
вселенските
вселенско
вселенското
всушност
вта
втор
втора
втората
втори
вториот
вторите
вторник
второ
второпласиран
второпласирани
второпласираниот
второстепени
второто
вторпат
ву
вуд
вуди
вудс
вуелта
вук
вукан
вукова
вулверхемптон
вулкан
вулкани
вулканизам
вулканите
вулканот
вулканска
вулканската
вулкански
вулканскиот
вулканските
вулканско
вулф
вучик
вујко
вчера
въ
вътрешна
вјачеслав
вљубен
вљубена
вљубил
вљубува
г
га
габа
габата
габер
габи
габите
габон
габриел
габриела
габрово
гавран
гаврил
гаврило
гага
гадафи
гадење
газа
газета
гази
гак
гал
гала
галаксии
галаксиите
галаксија
галаксијата
галактички
галактичко
галата
галатасарај
галеб
галеби
гален
галерии
галерија
галеријата
гали
галии
галиите
галилео
галилеј
галилеја
галиполе
галиција
галичица
галичник
галија
гама
гамбит
гамбија
ган
гана
ганг
ганди
гане
ганимед
ганс
гар
гарантира
гарантираат
гаранции
гаранција
гарбо
гарванов
гарда
гардата
гарден
гардерен
гардијан
гарднер
гарет
гари
гарнизон
гарнизони
гарнизонот
гарос
гарсија
гас
гасна
гасни
гасови
гасовите
гасот
гаспар
гаус
гашик
гај
гваделуп
гватемала
гвајана
гвидо
гвинеја
гдањск
гдр
ге
гевара
гевгелиско
гевгелиското
гевгелија
геза
гел
гелевски
ген
генадиј
генерал
генерален
генерали
генерална
генерални
генералниот
генералните
генерално
генералното
генералот
генералштабот
генератор
генератори
генерации
генерација
генерацијата
генерира
генерираат
генерирани
генерирање
генерички
генетика
генетиката
генетска
генетската
генетски
генетскиот
генетските
генетско
генетското
гени
гените
генитив
гениј
геном
геномот
генот
геноцид
геноцидот
гент
географ
географи
географија
географијата
географска
географската
географски
географскиот
географските
географско
геодетски
геолог
геологија
геологијата
геолошка
геолошката
геолошки
геолошкиот
геолошките
геометриска
геометриски
геометрија
геометријата
георг
георги
георгиев
георгиевски
георгиос
георгиј
гер
гера
гералт
герасим
гереро
гери
герлиц
герм
герман
германецот
германиум
германија
германска
германската
германски
германскиот
германските
германско
германското
германци
германците
гертруда
герхард
герџиков
гест
гестапо
гете
гетеборг
гетинген
геј
геја
гејл
гејтс
ги
гибли
гибралтар
гибсон
гигант
гигс
гида
гиза
гил
гилберт
гилмор
гимназии
гимназиско
гимназија
гимназијата
гимнастика
гинсберг
гинтер
гипс
гистав
гитара
гитарата
гитари
гитарист
гитаристи
гитаристот
гифхорн
гијом
гл
глава
главата
главен
глави
главите
главна
главната
главни
главниот
главните
главно
главното
главоболка
главоболки
глагол
глаголи
глаголите
глаголица
глаголот
глаголска
глаголската
глаголски
глад
гладот
глазгов
глам
глас
гласа
гласаат
гласал
гласале
гласам
гласат
гласач
гласачи
гласачите
гласање
гласањето
гласи
гласини
гласините
гласни
гласник
гласници
гласно
гласови
гласовите
гласот
глауком
гледа
гледаа
гледаат
гледал
гледала
гледале
гледало
гледам
гледаме
гледан
гледана
гледани
гледано
гледаност
гледате
гледачи
гледачите
гледачот
гледаш
гледаше
гледај
гледајк
гледање
гледишта
гледиште
гледиштето
гледна
глен
глетка
глигор
глигоров
глина
глинени
глифот
глишик
глобален
глобализација
глобализацијата
глобална
глобалната
глобални
глобалниот
глобалните
глобално
глобалното
глобочица
глобус
глог
глоговац
глодари
глорија
глуви
глувите
глувци
глуждот
глукоза
глума
глумат
глумата
глумел
глумела
глумец
глумецот
глумечка
глумечката
глумечки
глумеше
глумејк
глуми
глумица
глумицата
глумици
глумци
глумците
глушец
гнев
гневот
гнезда
гнездат
гнездата
гнездење
гнездо
гнездото
гнилане
гну
го
гоа
говеда
говедско
говор
говорат
говорел
говорен
говори
говорни
говорник
говорниот
говорници
говорниците
говорно
говорот
гог
гоген
гогољ
год
годивје
година
годината
године
години
годините
годишен
годишна
годишната
годишни
годишник
годишнина
годишнината
годишниот
годишните
годишно
годишното
гозба
гол
гола
голгота
голд
голдберг
голден
голдман
голем
голема
големата
големи
големина
големината
големини
големиот
големите
големо
големото
голи
голман
голмани
голманот
голо
голови
головите
голот
голф
гомез
гомес
гомељ
гондвана
гонење
гонзалез
гонзалес
гони
гор
гора
горан
гората
горбачов
горд
гордана
гордон
гордост
гордоста
горе
горен
горенаведениот
горенаведените
горенци
гореспоменатите
горење
горењска
горењскиот
гори
горива
гориво
горивото
горица
горичкиот
горки
горна
горната
горни
горниот
горните
горно
горното
горноџумајско
горски
горуша
горчлив
горња
горњи
гослар
госпог
господ
господа
господар
господари
господарот
господи
господин
господине
господинот
господов
господово
гости
гостивар
гостиварски
гостиварско
гостиварското
гостин
гостинската
гостински
гостите
гостувал
гостувањето
гота
готвач
готвачи
готвење
готвењето
готви
готите
готланд
готлиб
готов
готови
готовина
готово
готорп
готска
готската
готски
готскиот
готфрид
готје
гоце
гочева
гоја
гп
гр
грабеж
грабежи
грабежот
грабливец
грабливци
грабливците
грав
гравитационата
гравитациони
гравитационите
гравитационо
гравитационото
гравитациски
гравитација
гравитацијата
гравури
граг
град
града
градат
градба
градбата
градби
градбите
градежен
градежна
градежната
градежни
градежниот
градежните
градежништво
градежништвото
градел
граделе
граден
градена
градени
градец
градешница
градење
градењето
гради
градиент
градина
градинарски
градинарство
градинарството
градината
градини
градините
градинка
градите
градител
градители
градиште
градната
градниот
градно
градови
градовите
градоначалник
градоначалникот
градоначалници
градот
градска
градската
градски
градскиот
градските
градско
градското
грам
грама
грамаг
грамада
грамади
граматика
граматиката
граматички
гран
гранада
граната
гранати
гранд
гранде
гранит
граница
границата
граници
границите
граничат
граничен
граничи
гранична
граничната
гранични
граничник
граничниот
граничните
гранка
гранки
гранките
грант
гранчиња
гранџ
граот
гратче
гратчето
граф
графика
графики
графит
графити
графитите
графичка
графички
графичкиот
графичко
графичкото
грац
грашок
грајпел
грајфсвалд
грајц
грб
грбно
грбови
грбот
греам
гребен
гребени
гребенот
грев
гревови
гревовите
гревот
грег
грегори
грегоријанскиот
греда
греди
греење
греко
греми
грен
гренада
гренадини
гренд
гренланд
гренобл
грета
грешка
грешката
грешки
грешките
греј
грејс
грива
григор
григориј
григорович
грижа
грижат
грижата
грижел
грижи
грим
грин
гринич
грип
грипот
грифин
грифит
грк
грло
грлото
грмушка
грмушки
грмушките
гроб
гроба
гробишен
гробишта
гробиштата
гробни
гробница
гробницата
гробници
гробови
гробовите
гробот
грозданов
грозни
грозје
грозјето
гром
гронинген
грос
гросо
гроф
грофица
грофицата
грофови
грофовии
грофовите
грофовија
грофовијата
грофот
груб
груба
груби
грубо
груев
груевски
грузиска
грузиската
грузиски
грузискиот
грузија
груп
група
групата
групации
групација
групацијата
групен
групи
групираат
групиран
групирани
групирање
групите
групна
групната
групни
групно
грујик
грци
грците
грција
грч
грчеви
грчка
грчката
грчки
грчкиот
грчките
грчко
грчкото
губат
губејк
губење
губењето
губи
губиток
гувернер
гувернери
гувернерот
гугл
гудачки
гулаб
гулаби
гулаг
гулапка
гулапки
гулбис
гули
гума
гуми
гунар
гуру
гуска
гуски
густ
густа
густав
густата
густаф
густи
густина
густината
густите
густо
гутенберг
гуштер
гуштери
гуџарат
гш
д
да
даб
даби
дабл
даблин
дабова
дабови
дабот
дава
даваат
давал
давала
давале
давало
давам
давачки
даваше
давајк
давање
давањето
давид
давиденко
давидов
даг
дагестан
даглас
дагоберт
дадам
дадат
даде
дадеме
даден
дадена
дадената
дадени
дадениот
дадените
дадено
дадете
дадоа
дадов
дакота
дал
дала
далас
далај
дале
далеку
далечен
далечина
далечинско
далечна
далечната
далечни
далечниот
далечните
далечното
дали
далмација
дало
дам
дама
дамаск
дамата
дамблдор
даме
дами
дамка
дамки
дамјан
дамјанов
дан
дана
дани
даниел
даниела
даниеле
данил
данило
даница
данкан
данлоп
данок
данокот
даноци
даноците
даночен
даночна
даночни
даночните
данска
данската
дански
данскиот
данските
данско
данското
данте
данците
дар
дарба
дарби
дарвин
дарданелите
даре
дарител
дарители
дарителот
дариј
дарко
дарови
дарја
даска
даскалов
дата
датив
датира
датираат
датиран
датирани
датирање
датум
датуми
датумите
датумот
даун
даф
дачо
дај
дајана
два
дваесет
дваесетина
дваесеттиот
дваесеттите
дванаесет
дванаесеттата
дванаесетте
дванаесеттиот
двапати
дварс
двата
двајт
двајца
двајцата
двд
две
двегодишен
двегодишна
двери
двесте
двете
двигател
движат
движел
движела
движеле
движение
движечка
движејк
движења
движењата
движење
движењето
движи
двобои
двобој
двобојот
двоен
двои
двор
дворец
дворецот
дворови
дворот
дворски
дворскиот
дворци
двотретинско
двојазично
двојка
двојката
двојки
двојна
двојната
двојни
двојник
двојниот
двојните
двојно
де
дебар
дебарската
дебарски
дебарско
дебарското
дебарца
дебата
дебатата
дебати
дебел
дебела
дебели
дебелина
дебелината
дебелото
деби
дебитант
дебитантска
дебитантски
дебитира
дебитирал
дебитирала
дебитираше
дебито
дебреште
дебрца
дева
деведесет
деведесеттите
девет
деветнаесет
деветнаесеттиот
деветта
деветтата
деветте
деветти
деветтиот
деветто
деветтото
девизен
девизи
девизни
девизниот
девизните
девица
девон
девојка
девојката
девојки
девојките
девојче
девојчето
девојчиња
девојчињата
девствени
дега
дегенколб
деградација
дед
дедо
дедото
деец
деи
дек
дека
декада
декадата
декади
декан
декарт
декември
декларација
декларацијата
деклинација
декоративна
декоративни
декорации
декорација
декрет
декрети
дел
дела
делавер
делакроа
делат
делата
делајл
делба
деле
делегат
делегати
делегатите
делегации
делегација
делегацијата
делел
делеле
делење
дели
делииванов
делкан
делница
делници
дело
деловен
делови
деловите
деловна
деловната
деловни
деловниот
деловните
деловно
делот
делотворен
делотворна
делотворната
делотворно
делотворност
делотворноста
делото
делта
делтата
делува
делуваат
делувал
делување
делувањето
делумен
делумна
делумни
делумно
делфи
делфин
делхи
делчев
делчево
делчевско
деменција
деметра
деметриј
демир
демиркаписко
демирхисарско
демирхисарското
демо
демографија
демографска
демографски
демократи
демократите
демократија
демократијата
демократска
демократската
демократски
демократскиот
демократските
демократско
демон
демони
демоните
демонот
демонстранти
демонстрантите
демонстрации
демонстрациите
демонстрација
демонстрира
демпси
ден
дена
денари
денарска
денвер
денес
денеска
денешен
денешна
денешната
денешни
денешниот
денешните
денешно
денешното
дени
денис
денови
деновите
деноминации
денонок
денот
денс
деп
департман
департмани
департманите
департманот
департментот
депо
депозит
депозити
депозитите
депортација
депортиво
депортирани
депресија
депресијата
дер
дерби
дербито
дервиш
дере
дерек
дериват
деривати
дерида
десанка
десау
десен
десерт
десерти
десет
десетина
десетици
десетта
десеттата
десетте
десетти
десеттиот
десеттото
десна
десната
десни
десниот
десница
десно
десното
деспот
деспотот
деспотство
дестилација
дестинација
дет
детал
детален
детали
деталите
детална
детални
детално
детаљ
дете
детектив
детектира
детектираат
детектори
детекција
детелина
детето
детроит
детска
детската
детски
детскиот
детските
детско
детство
детството
дефанзивен
дефанзивец
дефанзивци
дефект
дефекти
дефинира
дефинираат
дефинирал
дефиниран
дефинирана
дефинирани
дефинирано
дефинирање
дефинирањето
дефинитивно
дефиниции
дефинициите
дефиниција
дефиницијата
дефицит
дефицитот
деформација
дефтер
дефтери
деца
децата
децении
деценија
деценијата
децентрализација
дешат
деј
дејан
дејв
дејви
дејвид
дејвидсон
дејвис
дејли
дејмон
дејност
дејноста
дејности
дејства
дејствата
дејствие
дејствието
дејствија
дејствијата
дејство
дејството
дејствува
дејствуваат
дејствувал
дејствувала
дејствувале
дејствување
дејствувањето
дејци
дејците
дење
ди
диалектологические
дибиров
див
дива
диван
дивата
дивац
дивеч
диви
дивизии
дивизион
дивизија
дивизијата
дивина
дивината
дивиот
дивисион
дивите
диво
дивјаци
дивље
дигестивниот
дигитален
дигитализирани
дигитална
дигиталната
дигитални
дигиталниот
дигиталните
дигитално
дида
диего
диета
дизајн
дизајнер
дизајнери
дизајнерите
дизајнерот
дизајни
дизајнира
дизајнирал
дизајниран
дизајнирана
дизајнирани
дизајнирано
дизајнирање
дизајнот
дизел
дизни
дизниленд
дик
дикенс
диксон
диктатор
диктатура
диктатурата
дилан
дилатација
дилема
диме
димензии
димензиите
димензионален
димензија
димески
димитар
димитри
димитрие
димитриос
димитриј
димитрија
димитрије
димитријевик
димитров
димитрова
димитровски
димитър
димо
димов
димовска
димовски
димовци
диморфизам
димоски
димулен
димче
дин
дина
динамика
динамиката
динамичен
динамички
динамична
динамични
динамо
динан
динари
династии
династиите
династички
династија
династијата
дини
динкерк
дино
диносаурус
диносауруси
диносаурусите
диоген
диода
диоди
диоклецијан
диоксид
диоксидот
дион
дионис
дионисиј
диор
дип
диплома
дипломат
дипломата
дипломати
дипломатија
дипломатијата
дипломатска
дипломатската
дипломатски
дипломатските
дипломатско
дипломи
дипломира
дипломирал
дипломирала
дипломиран
дипломирани
дипломираните
дипломирањето
дирак
дирекно
директен
директива
директивата
директна
директната
директни
директниот
директните
директно
директното
директор
директоратот
директори
директорите
директорот
дирекција
дирекцијата
дирер
диригент
диригенти
дирк
диркем
дис
дисан
диселдорф
дисертација
диск
дискавери
дисквалификуван
диско
дискови
дисковите
дискографија
дискот
дискретни
дискриминација
дискриминацијата
дискурс
дискусии
дискусиите
дискусија
дискусијата
дискутира
дискутираат
дисперзија
дистрибуира
дистрибуиран
дистрибуирани
дистрибуција
дистрибуцијата
дистрикт
дисфункција
дисциплина
дисциплината
дисциплини
дисциплините
дитмаршен
дитрих
диуретици
диференцијална
диференцијални
диференцијација
дифракција
дифтонзи
дифузија
дихово
дичо
дишење
дишењето
дишните
дијабетес
дијагноза
дијагнозата
дијагностика
дијагностицира
дијагностицирана
дијагностицирање
дијагностички
дијаграм
дијаграми
дијаграмот
дијалект
дијалекти
дијалектите
дијалектот
дијалог
дијалогот
дијалози
дијамант
дијаманти
дијана
дијареа
дијаспора
дијаспората
диџеј
длабок
длабока
длабоката
длабоки
длабокиот
длабоките
длабоко
длабоконебесни
длабокото
длабочина
длабочината
длабочини
длабочините
дланка
дланката
длето
дмитриј
дневен
дневна
дневната
дневни
дневник
дневникот
дневниот
дневните
дневници
дневно
днепар
днестар
дни
днк
дно
дното
до
доаг
доба
добар
доби
добива
добиваат
добивал
добивала
добивале
добиваме
добивајк
добивање
добивањето
добивка
добивката
добие
добиеме
добиен
добиена
добиената
добиени
добиениот
добиените
добиено
добиете
добил
добила
добиле
добило
добитник
добитникот
добитници
добиток
добитокот
добија
добијат
доблести
доближи
добра
добрата
добре
добредојде
добри
добрина
добриот
добрите
добро
доброволец
доброволна
доброволни
доброволно
доброволци
доброволците
добротворна
добротворни
доброто
добрушево
добруџа
доведат
доведе
доведен
доведена
доведени
доведоа
доведува
доведуваат
доведувајк
довел
довела
довеле
довело
доверба
довербата
доверена
довери
доверил
доверители
доверлив
доверливи
доверливост
доволен
доволна
доволни
доволно
дог
договараат
договор
договорат
договорен
договорени
договорено
договори
договорил
договориле
договорите
договорот
доградена
додава
додаваат
додавајк
додавања
додавање
додавањето
додадат
додаде
додаден
додадена
додадени
додадено
додадете
додал
додале
додатен
додатни
додатно
додаток
додатоци
додајте
додека
доделат
доделен
доделена
доделени
доделено
додели
доделил
доделила
доделува
доделуваат
доделување
доделувањето
додипломски
доенчиња
дожд
дождови
дождовна
дождовната
дождовни
дождовните
дождот
доживеа
доживеал
доживеала
доживеале
доживеало
доживеат
доживее
доживотен
доживотна
доживотно
доживува
доживуваат
доживување
доза
дозата
дозвола
дозволат
дозволата
дозволен
дозволена
дозволени
дозволено
дозволи
дозволил
дозволила
дозволиле
дозволува
дозволуваат
дозволувал
дозволувале
дозволувајк
дози
дознаат
дознава
дознаваат
дознаваме
дознае
дознал
дознала
дознале
дознајте
док
докажа
докажал
докажале
докажана
докажани
докажано
докажат
докаже
докажува
докажуваат
докажување
доказ
докази
доказите
доказот
доколку
доктор
докторат
доктори
докторирал
докторирала
докторите
докторот
докторска
докторската
докторски
доктрина
доктрината
доктрини
документ
документарен
документарец
документарецот
документарни
документарниот
документација
документацијата
документи
документира
документиран
документирана
документирани
документирано
документите
документот
дол
долар
долари
доларот
долг
долга
долгата
долги
долгиот
долгите
долго
долгови
долговите
долгогодишен
долгогодишна
долгогодишниот
долгометражен
долгорочен
долгорочна
долгорочната
долгорочни
долгорочните
долгорочно
долгот
долгото
долготрајна
долготрајни
долен
доленци
долењска
долж
должат
должело
должен
должи
должина
должината
должини
должините
должна
должни
должникот
должност
должноста
должности
должностите
долина
долината
долини
долините
долна
долната
долнени
долни
долниот
долните
долно
долногермански
долното
долови
долот
долу
дом
дома
домазет
домак
домат
домати
домашен
домашна
домашната
домашни
домашниот
домашните
домашно
домашното
домен
домени
доменико
домените
доменот
доминантен
доминантна
доминантната
доминантни
доминантниот
доминантните
доминантно
доминација
доминацијата
доминго
доминик
доминика
доминиканската
доминира
доминираат
доминирал
доминирала
доминирале
домови
домовите
домородни
домородните
домородно
домородното
домородци
домородците
домот
домување
дон
дона
доналд
донации
донација
доне
доневски
донекаде
донел
донела
донеле
донело
донесат
донесе
донесен
донесена
донесени
донесено
донесоа
донесува
донесуваат
донесување
донесувањето
донецк
донирал
донски
дончо
доо
допаг
допинг
допир
допира
допираат
дописен
дописник
дополнителен
дополнителна
дополнителни
дополнителниот
дополнителните
дополнително
дополнувања
дополнување
допрва
допре
дор
дора
доријан
доротеја
дороти
дортмунд
дос
досега
досегашни
досегашните
доселен
доселени
доселеници
доселениците
доселенички
доселил
доселиле
доселување
доселувањето
досие
доситеј
доситеју
доследно
доследност
доста
доставени
достави
доставува
доставуваат
доставување
достапен
достапна
достапни
достапните
достапно
достапност
достапноста
достасување
достигна
достигнаа
достигнал
достигнала
достигнале
достигнало
достигнат
достигне
достигнува
достигнуваат
достигнувајк
достигнувања
достигнувањата
достигнување
достоевски
достоен
достоинство
достоинството
дострел
дотогаш
дотогашната
дотогашниот
дотогашните
дофине
доха
доход
доходот
доцен
доцент
доцна
доцната
доцнење
доцни
доцниот
доцните
доцноантичка
доцноантичко
доцноантичкото
доцното
дошла
дошле
дошло
дошол
дојдам
дојдат
дојде
дојден
дојдени
дојденци
дојди
дојдоа
дојка
дојл
дојран
дојранско
дојранското
дојче
дојчин
дпм
дпмне
др
драва
драг
драга
драган
драгана
драги
драго
драгомир
драгутин
дракула
драма
драмата
драматичен
драматична
драматични
драматично
драматург
драматурзи
драми
драмите
драмска
драмската
драмски
драмскиот
драмско
драмското
драстично
драфтот
драч
драчевица
драчево
драјв
дрва
дрвата
дрвен
дрвена
дрвени
дрвените
дрво
дрвото
дрвја
дрвјата
древен
древна
древната
древни
древниот
древните
дрееров
дрезден
дрен
дреново
дрес
дресови
дресот
дрејк
држава
државата
државен
држави
државите
државна
државната
државни
државник
државниот
државните
државници
државно
државност
државното
државјани
државјанин
државјанство
држат
држел
држела
држеле
држејк
држење
држи
држик
дрим
дримкол
дрина
дроб
дробови
дрога
дрогата
дрогба
дроги
друг
друга
другар
другари
другарите
другата
други
другиот
другите
друго
другово
другото
дружење
дружина
дружината
друмска
друмската
друмски
друмскиот
друмско
друштва
друштвата
друштвени
друштвените
друштвено
друштво
друштвото
дршка
дршката
дтс
ду
дуализам
дубаи
дубровник
дува
дуваат
дувачки
дует
дуи
дук
дука
дукати
дукља
дума
дунав
дуо
дуото
дупени
дупка
дупката
дупки
дупките
дупчење
дур
дуран
дури
дух
духовен
духови
духовите
духовна
духовната
духовни
духовниот
духовните
духовно
духовното
духот
дучик
дучић
душа
душан
душата
души
душите
душко
дуња
дјук
е
еа
еберт
ебро
ебу
ев
ева
евакуација
евакуирани
евалуација
еван
евангелие
евангелието
евангелија
евангелско
еванс
евгениката
евгениј
евгенија
евдокија
еве
евентуално
еверест
евертон
евидентирани
евиденција
евиденцијата
евик
евла
евлија
евнуси
евнух
ево
еволуирале
еволутивна
еволуција
еволуцијата
евра
евреи
евреин
евреите
еврејска
еврејската
еврејски
еврејскиот
еврејските
еврејско
еврејското
евридика
еврипид
евро
евроазија
евробаскет
евробаскетот
евровизија
еврозоната
евролига
евролигата
европа
европеи
европејци
европејците
европска
европската
европски
европскиот
европските
европско
европското
еврото
евтин
евтина
евтини
евци
ег
егејска
егејски
егејскиот
егејско
егејското
егзархиска
егзархиски
егзархискиот
егзархиско
егзархија
егзархијата
егзил
егзистенција
егзотични
егиди
египет
египетска
египетската
египетски
египетскиот
египетските
египетското
египк
его
егодишно
егото
ед
еда
едвард
едвардс
едвај
едвин
едгар
едем
еден
еди
едикт
един
единаесет
единаесеттата
единбург
единечен
единечна
единечни
единица
единицата
единици
единиците
единка
единката
единки
единките
единствен
единствена
единствената
единствени
единствениот
единствените
единствено
единственото
единство
единството
едип
едисон
едит
едиција
едицијата
едмунд
една
еднаква
еднакви
еднакво
еднаквост
еднаквоста
еднаков
едната
еднаш
едни
еднина
едниот
едно
едновремено
едногласно
едногодишен
едногодишна
еднодневна
еднокорабна
еднонасочна
едноподруго
еднорог
едноставен
едноставна
едноставни
едноставните
едноставно
едноставност
едното
едо
едра
едрене
едрење
едро
едуар
едуард
едуардо
едукација
еез
ежен
ез
езера
езерата
езеро
езерото
езерска
езерски
езерца
езерце
езоп
езра
ек
екатерина
екатеринбург
еквадор
екватор
екваторот
екваторска
еквивалент
еквивалентен
еквиваленти
еквивалентна
еквивалентни
еквивалентно
екернферде
екипа
екипаж
екипажот
екипата
екипен
екипи
екипите
екипна
екипниот
еклиптиката
еко
екологија
екологијата
еколошка
еколошката
еколошки
еколошките
еколошко
економии
економиите
економист
економисти
економистите
економија
економијата
економска
економската
економски
економскиот
економските
економско
економското
екосистем
екосистеми
екосистемите
екосистемот
екот
екран
екрани
екраните
екранот
екратна
екратни
екратно
екс
ексклузивни
ексклузивно
експанзија
експедиции
експедиција
експедицијата
експеримент
експериментален
експериментална
експериментални
експерименталните
експериментално
експерименти
експериментирање
експериментите
експериментот
експерт
експерти
експертиза
експертите
експлицитно
експлоатација
експлоатацијата
експлодира
експлозив
експлозиви
експлозивни
експлозии
експлозија
експлозијата
експонати
експрес
експресија
екстра
екстракција
екстремадура
екстремен
екстремитет
екстремитети
екстремитетите
екстремна
екстремната
екстремни
екстремните
екстремно
ексцентричност
ел
ела
елас
еластична
еластичност
еластичноста
елба
елбасан
елвира
елвис
еле
елевци
електрана
електрани
електрицитет
електричен
електрична
електричната
електрични
електричниот
електричните
електрично
електричното
електро
електрода
електроди
електродинамика
електромагнетизмот
електромагнетната
електромагнетни
електромагнетниот
електромагнетните
електромагнетно
електромагнетното
електрон
електрони
електроника
електрониката
електроните
електронот
електронска
електронската
електронски
електронскиот
електронските
електронско
електротехника
елемент
елементарна
елементарни
елементарните
елементи
елементите
елементот
елен
елена
елени
елеонора
ели
елиза
елизабет
елизабета
елии
елиите
елиминација
елиминира
елиминираат
елиминиран
елиминирана
елиминирани
елиминирање
елин
елиот
елипса
елиптична
елиптични
елис
елисавета
елита
елитата
елитната
елија
елијаде
елијата
елка
елковик
елм
елстер
елтон
елцин
елшани
ем
ема
емануел
еманципација
емброуз
емден
емерсон
еми
емигранти
емиграција
емигрирал
емигрирале
емил
емили
емилио
емилија
емин
еминем
емир
емирати
емисии
емисиите
емисија
емисијата
емитува
емитуваат
емитувала
емитуван
емитувана
емитувани
емитуваше
емитување
емитувањето
емотивно
емоции
емоциите
емоционална
емоционални
емоционално
емпириски
емполи
емс
емсланд
ен
ена
енвер
енгелс
енд
ендемски
енди
ендру
ендрју
енеко
енергетика
енергетска
енергетската
енергетски
енергетскиот
енергетските
енергетско
енергии
енергија
енергијата
ензим
ензими
ензимите
ензимот
ени
ениџевардарско
ено
енрике
енрико
ентериер
ентериерот
ентитет
ентитети
ентони
ентузијазам
енфилд
енциклопедии
енциклопедиски
енциклопедия
енциклопедија
енциклопедијата
еп
епархии
епархија
епархијата
епати
епидемии
епидемиологија
епидемија
епидемијата
епизода
епизодата
епизоди
епизодите
епилепсија
епилог
епир
епископ
епископи
епископите
епископија
епископот
епитет
епитетот
епл
епот
епоха
епохата
епохи
епска
епската
епски
ер
ера
еразмо
ераковик
ерамиди
ерата
ербас
ервин
ерг
ердоган
ереван
еремија
ерес
ерзурум
ери
ерида
еридан
ерик
ерика
ериксон
ерите
еритреја
еритроцитите
ерих
ерка
ерката
ерки
ерките
ерл
ерменија
ерменска
ерменската
ерменски
ерменскиот
ерменските
ерменско
ерменското
ерменци
ерменците
ермитаж
ерна
ернани
ернест
ернст
еров
ерозија
ерозијата
ерос
ерот
еротски
ерп
ерт
ерупции
ерупциите
ерупција
ерупцијата
ерусалим
ерусалимски
ерфурт
ес
еса
есеи
есеист
есекс
есен
есенин
есенска
есенски
есента
есеј
есејот
ескадрила
ески
еспања
еспањол
есперанто
еста
естер
естетика
естетиката
естетска
естетски
ести
естонија
естонската
естонски
естонскиот
естроген
есхил
ет
ета
етанол
етапа
етапата
етапи
етапите
етапна
етапни
ете
етер
етернет
етерот
етика
етиката
етикета
етикетата
етимологија
етиопија
етички
етичките
етна
етничка
етничката
етнички
етничкиот
етничките
етничко
етничкото
етно
етнограф
етнография
етнографија
етнографски
етнолог
етнологија
етнолошки
ето
етрурците
етјен
еу
еукариотите
еуро
еуфрат
еф
ефект
ефекти
ефективни
ефектите
ефектот
ефенди
ефес
ефикасен
ефикасна
ефикасни
ефикасно
ефикасност
ефикасноста
ефрем
ефтим
ехо
ехф
ецб
ешли
еј
ејми
ж
жаба
жаби
жабри
жабрите
жавел
жак
жал
жалат
жалба
жалбата
жалби
жалење
жали
жалост
жан
жана
жанеиро
жанр
жанрови
жанрот
жар
жариште
жарко
жван
ждреб
ждрепка
ждрепката
жед
жеден
желба
желбата
желби
желбите
железен
железна
железната
железни
железник
железниот
железница
железницата
железници
железничка
железничката
железнички
железничкиот
железничките
железно
железното
железо
железото
желино
желка
желки
желудникот
жена
жената
женева
жени
жените
женка
женката
женки
женките
женска
женската
женски
женскиот
женските
женско
женското
жерав
жерар
жерлаш
жермен
жесток
жестока
жестоки
жестоко
жетва
жетвата
жешка
жешки
жешко
жељко
жив
жива
живата
живеалишта
живеалиштата
живеалиште
живеалиштето
живеам
живеат
живее
живеел
живеела
живееле
живеело
живееме
живееше
живееја
живеејк
живеење
живец
живи
живина
живиот
живите
живко
живковик
живо
живопис
живописана
живописот
живот
животен
животи
животинска
животински
животинскиот
животинските
животинско
животите
животна
животната
животни
животниот
животните
животно
животното
животопис
животот
живојно
жигик
жид
жил
жилбер
жирафа
жири
жирито
жировница
жит
житарици
житарки
жител
жители
жителите
житие
житието
житни
жито
житото
житоше
жица
жицата
жици
жиците
жичени
жлезда
жлезди
жоао
жозе
жозеф
жолт
жолта
жолтата
жолтеникава
жолти
жолтиот
жолто
жолчката
жорж
жрк
жртва
жртвата
жртвеникот
жртви
жртвите
жртвува
жртвување
жуан
жупа
жупан
жупанија
журнал
з
за
заб
забава
забавата
забавен
забави
забавна
забавни
забавува
забавуваат
забавување
забележа
забележал
забележала
забележале
забележан
забележана
забележани
забележано
забележат
забележете
забележи
забележителен
забележителна
забележителни
забележително
забележлив
забележлива
забележливи
забележливо
забележува
забележуваат
забележувајк
забележување
забелешка
забелешки
заби
забите
заблуда
заболени
заболувања
заболување
заборавени
заборави
забот
забрана
забраната
забранет
забранета
забранети
забрането
забрани
забранил
забранила
забранува
забрануваат
забрза
забрзан
забрзана
забрзано
забрзува
забрзуваат
забрзувачи
забрзување
забрзувањето
забуна
заварување
завахири
заведе
заведен
заведена
заведени
заведено
завел
завера
завеса
завет
зависат
зависен
зависи
зависна
зависни
зависно
зависност
зависноста
завод
заводот
завој
завојница
завојницата
завојници
завршат
завршен
завршена
завршени
завршено
завршеток
завршетокот
завршетоци
заврши
завршивме
завршил
завршила
завршиле
завршило
завршија
завршна
завршната
завршни
завршниот
завршните
завршница
завршницата
завршници
завршното
завршува
завршуваат
завршувала
завршувале
завршувајк
завршување
завршувањето
загадувачи
загадување
загадувањето
загатки
загина
загинаа
загинал
загинале
загинат
загинати
загинатите
загинува
заговор
заговори
заговорниците
заговорот
загора
загоричани
загорје
заграда
загради
загреб
загрева
загревање
загрижен
загрижена
загрижени
загриженост
загриженоста
загрозен
загрозена
загрозени
загрози
загуба
загубата
загубен
загубени
загуби
загубил
загубила
загубиле
загубите
загубија
зад
задар
задача
задачата
задачи
задачите
задграничните
задграничното
задгробниот
задебелени
заден
задна
задната
задни
заднина
задниот
задните
задното
задоволат
задоволен
задоволи
задоволни
задоволства
задоволство
задоволството
задоволува
задоволуваат
задоволување
задолжен
задолжена
задолжени
задолжителен
задолжителна
задолжителната
задолжителни
задолжително
задоцнување
задржа
задржал
задржала
задржале
задржан
задржани
задржат
задржи
задржува
задржуваат
задржувајк
задржување
задруга
задужбина
задушено
задуши
задушување
задушувањето
заев
заедница
заедницата
заедници
заедниците
заедничка
заедничката
заеднички
заедничкиот
заедничките
заедничко
заедничкото
заедно
заем
заеми
заемна
заемно
заемодејства
заемодејство
заемот
заживување
зазеде
зазел
зазела
зазеле
зазема
заземаат
заземал
заземале
заземат
заземајк
заземање
заземањето
заземе
заземен
заземена
заземени
заиграл
заинтересирал
заинтересиран
заинтересирана
заинтересирани
закажан
закажани
закажано
закамен
закана
заканата
закани
заканил
заканите
заканува
заклетва
заклетвата
заклучено
заклучи
заклучил
заклучила
заклучиле
заклучно
заклучок
заклучокот
заклучоци
заклучоците
заклучува
заклучување
закон
закони
законик
законите
законитоста
законодавна
законодавната
законодавни
законодавниот
законодавно
законодавство
законодавството
законот
законска
законската
законски
законските
законско
закопан
закопана
закопани
закосени
закрепнување
залага
залагаат
залагал
залагала
залагале
зале
залив
заливи
заливот
залихи
залихите
залог
заложник
заложници
заложниците
залудно
залфелд
залцгитер
залцланд
замав
замбија
замена
заменат
замената
заменет
заменета
заменети
заменето
замени
заменик
заменил
заменила
замениле
заменици
заменка
заменки
заменува
заменуваат
заменувајк
замина
заминал
заминала
заминале
заминат
замине
заминува
заминуваат
заминување
заминувањето
замисла
замислата
замислен
замислена
замисли
замок
замокот
замоли
замолил
замолува
замор
замоци
замоците
замрзнат
замрзнати
замрзнување
занает
занаети
занаетчии
занаетчиите
занаетчиски
занаетчиство
занаетчиството
занимава
занимаваат
занимавал
занимавала
занимавале
занимавало
занимања
занимање
занимливости
заоблена
заоблени
заокружена
запаг
запад
западен
западна
западната
западни
западниот
западните
западно
западноевропските
западнои
западното
западот
запазување
запалат
запален
запалена
запалени
запалено
запали
запалил
запалиле
запаметен
запира
запирање
запирка
запис
записи
записите
записот
запишал
запишала
запишан
запишана
запишани
запишано
запишат
запише
запишува
запишуваат
запишување
заплашување
заплет
заплетот
заповед
заповеда
заповеди
заповедник
заповедници
запозна
запознаат
запознава
запознаваат
запознавање
запознае
запознаен
запознаени
запознал
запознала
запознале
започна
започнаа
започнал
започнала
започнале
започнало
започнат
започната
започнати
започнато
започне
започнува
започнуваат
започнувајк
започнување
започнувањето
запрат
запре
запрел
запрен
зар
заработи
заработил
заработка
заработува
заработуваат
заработувачка
заработувајк
заради
заразени
заразни
зарамнето
заратустра
зарем
заробен
заробена
заробени
заробеник
заробените
заробеници
заробеништво
зароби
заробил
заробиле
заробува
заробување
засавскиот
засадени
засебни
засега
засегнати
заседа
заседание
засекогаш
засилен
засилена
засилени
засили
засилил
засилува
засилувачи
засилувања
засилување
заслуга
заслуги
заслужен
заслужни
заслужува
заслужуваат
засниц
заснова
засноваат
засновал
засновала
заснован
заснована
засновани
засновано
засолнил
засолниле
засолништа
засолниште
заспаната
застава
застана
застанал
застанала
застанале
застане
застанува
застапен
застапена
застапени
застапено
застапеност
застапеноста
застапник
застапници
застапува
застапување
застарен
застарена
застарени
застој
застрашувачки
застрелан
затвор
затвора
затвораат
затворат
затворање
затворањето
затворен
затворена
затворени
затвореник
затворениот
затворените
затвореници
затворениците
затворено
затвори
затворил
затворила
затвориле
затворите
затворот
затворска
затворски
затемнување
затемнувањето
затоа
затоплување
зафак
зафат
зафатен
зафатена
зафатени
зафати
зафатил
зафатнина
захарија
зацврсти
зацврстил
зацврстување
зачин
зачини
зачува
зачуваат
зачувал
зачуван
зачувана
зачувани
зачуваните
зачувано
зачувува
зачувување
зачувувањето
заштеда
заштеди
заштита
заштитат
заштитата
заштитен
заштитена
заштитени
заштитените
заштитено
заштити
заштитна
заштитни
заштитник
заштитниот
заштитните
заштитно
заштитува
заштитуваат
зашто
зајак
зајакнат
зајакне
зајакнува
зајакнување
зајакнувањето
зајакот
зајас
зајдисонце
зајко
зајци
заљубува
збигњев
збиен
збиени
збиено
збир
збирка
збирката
збирки
збирките
збирот
зближување
збогатување
збогум
збор
збора
зборник
зборникот
зборници
зборови
зборовите
зборот
зборува
зборуваат
зборувал
зборувала
зборувале
зборувало
зборувам
зборуваме
зборуван
зборуваше
зборувајк
зборување
збратимен
збратимени
звање
звањето
звезда
звезди
звук
звукот
звуци
звуците
звучен
звучи
звучна
звучни
звучните
зглоб
зглобови
зглобовите
зглобот
зголемат
зголемен
зголемена
зголемената
зголемени
зголемениот
зголемените
зголемено
зголеменото
зголеми
зголемил
зголемила
зголемиле
зголемило
зголемија
зголемува
зголемуваат
зголемувал
зголемувала
зголемувајк
зголемување
зголемувањето
згора
зграда
зградата
згради
зградите
згура
зданија
здив
здоби
здобива
здобие
здобил
здобила
здобиле
здобијат
здогледува
здрав
здрава
здрави
здравко
здраво
здравствен
здравствена
здравствената
здравствени
здравствениот
здравствените
здравствено
здравство
здравството
здравје
здравјето
здружени
здружение
здружението
здружениот
здружените
здруженија
здруженијата
здружил
здружиле
здружуваат
здружување
здуње
зевс
зегеберг
зеде
зек
зел
зела
зеланд
зеле
зелен
зелена
зелената
зелени
зелениково
зеленило
зелениот
зелените
зелено
зеленчук
зеленчукот
зелка
зема
земаат
земал
земала
земале
земам
земат
земајк
земање
земањето
земе
земеме
земен
земена
земени
земено
земерда
земете
земи
земун
земја
земјава
земјата
земјен
земјена
земјени
земји
земјина
земјината
земјини
земјиното
земјите
земјишни
земјишта
земјиште
земјиштето
земјоделец
земјоделието
земјоделска
земјоделската
земјоделски
земјоделскиот
земјоделските
земјоделско
земјоделското
земјоделство
земјоделството
земјоделци
земјоделците
земјопоседници
земјотрес
земјотреси
земјотресите
земјотресот
зен
зенит
зенон
зет
зета
зетот
зи
зидан
зидхарц
зилт
зима
зимата
зимбабве
зиме
зимзелени
зими
зимите
зимно
зимска
зимската
зимски
зимскиот
зимските
зимско
зла
злата
златан
златари
златен
златко
златна
златната
златни
златниот
златните
златно
златното
злато
златото
златоуст
злетово
злетовска
зли
злм
зло
злобни
злок
злосторства
злосторствата
злосторство
злосторството
злото
злоупотреба
злоупотребата
злоупотреби
змај
змеј
змејови
змејот
змии
змиите
змија
змијата
змијоносец
знаат
знае
знаев
знаел
знаела
знаеле
знаело
знаеме
знаете
знаеш
знаеше
знаејк
знаења
знаење
знаењето
знак
знаковен
знакот
знам
знаме
знаменитост
знаменитости
знамето
знамиња
знамињата
знаци
знаците
значаен
значат
значајна
значајни
значајните
значајно
значајност
значел
значела
значело
значеше
значења
значење
значењето
значи
значителен
значителна
значителни
значително
зовик
зограф
зографи
зографот
зографски
зои
зола
зомби
зона
зоната
зони
зоните
зоо
зоолог
зоологија
зоолошка
зоолошката
зора
зоран
зората
зори
зошто
зоја
зрак
зракот
зраци
зраците
зрачење
зрачењето
зрачи
зрели
зрелите
зрелост
зрелоста
зрењанин
зрзе
зрна
зрната
зрно
зрновци
зрното
зрнца
зулу
и
иако
иан
иберија
ибица
ибн
ибрахим
ибрахимовик
ив
ива
иван
ивана
иванов
иванова
ивановик
иванович
ивановски
ивановци
ивањевци
ивањица
ивица
иво
игд
игла
игли
иглолисни
игнасио
игнатиј
игнорира
иго
игор
игра
играа
играат
играл
играла
играле
игралишта
игралиште
игралиштето
играло
играм
игран
играна
играни
играно
играта
играч
играчи
играчите
играчка
играчката
играчки
играчките
играчот
играше
играјк
играње
играњето
игри
игрите
игуаин
игумен
игуменот
ид
ида
иде
идеал
идеален
идеали
идеалите
идеална
идеални
идеалниот
идеално
идеи
идеите
иден
идентитет
идентитети
идентитетот
идентификација
идентификацијата
идентификува
идентификуваат
идентификувал
идентификувале
идентификуван
идентификувана
идентификувани
идентификување
идентичен
идентична
идентични
идентично
идеологии
идеологија
идеологијата
идеолошки
идеја
идејата
иди
идна
идната
идни
иднина
иднината
идниот
идните
идно
идното
идол
идоли
идризово
иев
из
изабел
изабела
изабране
избега
избегаат
избегал
избегале
избегнал
избегнат
избегне
избегнува
избегнуваат
избегнувајк
избегнување
изберат
избере
избива
избил
избила
избира
избираат
избиран
избирачи
избирачите
избирачки
избирачките
избирачко
избирачкото
избирање
избор
изборен
избори
изборил
избориле
изборите
изборна
изборната
изборни
изборниот
изборните
изборно
изборното
изборот
избра
избрал
избрала
избрале
избран
избрана
избраната
избрани
избраниот
избраните
избрано
избришани
избрише
избркан
избројана
избуви
избувна
избувнал
избувнала
избувнале
избувнало
избувнувањето
извади
извадок
извадоци
изведат
изведба
изведбата
изведби
изведбите
изведе
изведен
изведена
изведени
изведено
изведува
изведуваат
изведувал
изведувала
изведувале
изведувани
изведувач
изведувачи
изведувачите
изведувачот
изведувајк
изведување
изведувањето
извезува
извел
извела
извеле
извесен
извесна
извесни
извесно
известен
извести
известил
известиле
известува
известуваат
известувања
известување
известувањето
извештаи
извештаите
извештај
извештајот
извидување
извини
извира
извираат
извлекува
извлекување
извлечат
извлече
извлечени
извод
изводи
изводот
извоз
извозник
извозници
извозот
извонреден
извонредна
извонредни
извонредно
извор
изворен
извори
изворите
изворна
изворната
изворни
изворниот
изворно
изворот
извршат
извршен
извршена
извршената
извршени
извршените
извршено
изврши
извршил
извршила
извршиле
извршна
извршната
извршни
извршниот
извршните
извршува
извршуваат
извршувал
извршувале
извршувајк
извршување
извршувањето
изгласан
изгласана
изглед
изгледа
изгледаат
изгледал
изгледала
изгледало
изгледаше
изгледи
изгледот
изговара
изговараат
изговор
изговори
изговорот
изгорел
изгорела
изгореле
изгорени
изгореници
изготвување
изградат
изградба
изградбата
изграден
изградена
изградени
изградено
изгради
изградил
изградила
изградиле
изгрејсонце
изгубат
изгубен
изгубена
изгубената
изгубени
изгубениот
изгубените
изгубено
изгуби
изгубил
изгубила
изгубиле
изгубија
изд
издава
издаваат
издавач
издавачи
издавачите
издавачка
издавачката
издавачки
издавачот
издаваштво
издавање
издавањето
издаде
издаден
издадена
издадени
издадено
издадоа
издал
издала
издале
издание
изданието
изданија
изданијата
издателство
издање
издвоени
издвои
издвојува
издвојуваат
издвојување
издеглавје
издига
издигаат
издигнал
издигнат
издигне
издигнува
издигнуваат
издигнување
издигнувањето
издолжен
издолжена
издолжени
издолжување
издржат
издржи
издржливост
издржува
издржување
издршка
изеде
изедначен
изедначени
изедначи
изедначил
изедначување
изи
изида
излегла
излегле
излегло
излегоа
излегол
излегува
излегуваат
излегувал
излегување
излегувањето
излез
излезат
излезе
излези
излезна
излезни
излезот
излечи
изложба
изложбата
изложбен
изложби
изложен
изложена
изложени
изложено
изложеност
изложеноста
изложи
изложил
изложува
изложуваат
изложување
измама
измамата
измами
измег
измена
изменет
изменета
изменети
изменето
измени
измените
изменување
измерат
измерен
измерена
измерени
измери
измет
измешани
изминатите
измир
измислен
измислена
измислени
измисли
измислил
изнаог
изнајмување
изнел
изненаден
изненадени
изненадувачки
изненадување
изнесе
изнесени
изнесува
изнесуваат
изнесувал
изнесувала
изнесувале
изнесувало
изнесуваше
износ
износи
износот
изобилство
изобилството
изобилува
изолација
изолиран
изолирана
изолирани
изолирано
изотоп
изотопи
изотопите
изработен
изработена
изработени
изработено
изработи
изработил
изработка
изработката
изработува
изработуваат
изработувале
израел
израелевите
израелска
израелската
израелски
израелскиот
израелските
израелско
израелци
израелците
израз
изразат
изразен
изразена
изразени
изразено
изрази
изразил
изразиле
изразите
изразито
изразот
изразува
изразуваат
изразувајк
изразување
изразувањето
израмни
израмнување
израснал
израснат
израсната
израстоци
изречена
изум
изумирање
изумреле
изумрен
изумрени
изучува
изучуваат
изучувал
изучување
изучувањето
изјава
изјавата
изјавено
изјави
изјавил
изјавила
изјавиле
изјавите
изјавија
изјавува
изјавувајк
изјаснил
изјасниле
изјаснувањето
ик
икона
иконата
икони
иконите
икономов
иконостас
иконостасот
икс
икт
ил
иларион
илегални
илегално
или
илиев
илиевски
илик
илинден
илинденска
илинденската
илинденско
илинденското
илино
илиноис
илинска
илирите
илирска
илич
илија
илијада
илм
илменау
илузии
илузија
илустратор
илустрации
илустрациите
илустрација
илустрира
илустрирана
илцен
илјада
илјади
илјадници
им
има
имаа
имаат
имав
имавме
имагинација
имал
имала
имале
имало
имам
имаме
имат
имате
иматија
имаш
имаше
имајк
имајте
имбрекси
име
именик
именка
именката
именки
именките
имено
именски
именува
именуваат
именувал
именувале
именуван
именувана
именувани
именувано
именување
именувањето
името
имигранти
имигрантите
имиграција
имиграцијата
имитатор
имитација
имитира
имитираат
имиња
имињата
имиџ
имот
имоти
имотите
имотот
император
императори
императорот
империи
империја
империјализам
империјална
империјата
имплементација
имплементацијата
имплементира
имплементираат
импликации
имплицира
импресивни
импресиониран
импулс
импулси
импулсот
имунитет
имунолошки
имунолошкиот
ин
ина
инаку
инвазивни
инвазии
инвазија
инвазијата
инвентар
инверзија
инверзна
инвестира
инвестираат
инвестирање
инвеститор
инвеститори
инвеститорите
инвестиции
инвестициите
инвестициски
инвестиција
инг
ингеборг
ингмар
ингрид
инд
индекс
индекси
индексот
индепендиенте
инди
индивидуални
индикатор
индикатори
индикации
индиректен
индиректни
индиректно
индиска
индиската
индиски
индискиот
индиските
индиско
индиското
индија
индијан
индијана
индијанец
индијански
индијанци
индијанците
индоевропски
индонезиски
индонезија
индукција
индустри
индустрии
индустриска
индустриската
индустриски
индустрискиот
индустриските
индустриско
индустриското
индустрија
индустријализација
индустријализацијата
индустријата
инерција
инженер
инженери
инженеринг
инженерите
инженерот
инженерски
инженерство
инженерството
ини
ините
иницира
иницијатива
иницијативата
иницијативи
иницијатор
инка
инки
инките
инкубацијата
ино
иновативни
иновации
иновација
инокентиј
инот
инсбрук
инсекти
инсектите
инсистира
инсистирал
инсистирање
инспектор
инспекција
инспирација
инспирацијата
инспирирал
инспириран
инспирирана
инспирирани
инспирирано
инстаграм
инсталации
инсталација
инсталиран
инсталирана
инсталирани
инстант
инства
инствата
инство
инството
институт
институти
институтот
институции
институциите
институција
институцијата
инструктор
инструкции
инструмент
инструментална
инструментални
инструменти
инструментите
инструментот
инсулин
инсулинот
инсуфициенција
интеграл
интегрален
интеграли
интегрални
интеграција
интеграцијата
интегрира
интегрираат
интегриран
интегрирана
интегрирани
интегрирање
интегритет
интегритетот
интел
интелектуален
интелектуална
интелектуалната
интелектуални
интелектуално
интелектуалци
интелигенција
интелигенцијата
интензивен
интензивна
интензивни
интензивно
интензитет
интензитетот
интер
интерактивен
интерактивна
интерактивни
интеракции
интеракциите
интеракција
интеракцијата
интервал
интервали
интервалот
интервенира
интервенции
интервенција
интервенцијата
интервју
интервјуа
интервјуто
интерес
интересен
интереси
интересира
интересите
интересна
интересни
интересно
интересот
интерконтинентален
интерконтиненталниот
интерна
интернасионал
интернат
интернационал
интернационале
интернационален
интернационална
интернационалната
интернационални
интернационално
интернет
интернетот
интернешнл
интерпретации
интерпретација
интертото
интерференција
интерфејс
интерфејси
интерфејсот
интриги
инфаркт
инфекции
инфекција
инфекцијата
инфлација
инфлацијата
инфо
инфокутии
инфокутија
информативен
информативна
информативни
информатика
информатиката
информатичка
информатичката
информатички
информатор
информации
информациите
информациски
информација
информацијата
информира
информирал
информиран
информирање
инфраструктура
инфраструктурата
инфраструктурни
инфрацрвена
инфрацрвени
инфрацрвено
инхибира
инхибитор
инхибитори
инцидент
инциденти
инцидентот
инчи
иот
ипсвич
ипф
ир
ира
ирак
ираклиј
иран
иранска
иранската
ирански
иранскиот
иранските
ирачката
ирачки
ирачките
ирвин
ирвинг
ирена
ири
иридиум
ирина
ирнк
ирод
иронично
иронија
ирска
ирската
ирски
ирскиот
ирско
иса
исаија
исак
иселени
иселеници
иселениците
иселеништво
иселено
иселил
иселиле
иселило
иселувања
иселување
иселувањето
исечени
исидор
искажал
искаже
искажува
искажување
исказ
искази
искачи
искачил
искачила
искачува
искачувајк
искачувања
искачување
искачувањето
исклучен
исклучена
исклучени
исклучи
исклучиво
исклучителен
исклучителна
исклучителни
исклучително
исклучок
исклучоци
исклучува
исклучуваат
исклучување
ископан
ископани
ископувања
ископувањата
ископување
ископувањето
искористат
искористен
искористена
искористени
искористено
искористи
искористил
искористила
искористиле
искористува
искористувајк
искористување
искористувањето
искра
искрен
искрена
искрено
искреност
искривување
искусен
искусни
искуства
искуствата
искуство
искуството
искушение
ислам
исламот
исламска
исламската
исламски
исламскиот
исламските
исламското
исланд
исландски
исмаил
испаг
испадна
испаднал
испаднале
испарливи
испарување
испарувањето
испеана
испечатена
испит
испита
испитаниците
испити
испитува
испитуваат
испитувања
испитувањата
испитување
испитувањето
испишани
испишано
исплак
исплата
исплатени
исплати
исповед
исполнат
исполнет
исполнета
исполнети
исполнето
исполни
исполнил
исполнува
исполнуваат
исполнување
исполнувањето
испорака
исправен
исправена
исправени
исправено
исправи
исправка
исправки
испрак
испратат
испратен
испратена
испратени
испратено
испрати
испратил
испратила
испратиле
испреплетени
испробување
испушта
испуштаат
испуштање
ист
иста
истакна
истакнал
истакнала
истакнале
истакнат
истакната
истакнати
истакнатиот
истакнатите
истакнато
истакне
истакнува
истакнуваат
истакнувал
истакнувајк
истакнување
истанбул
истата
иствуд
истегнување
истекол
истекот
истекува
истекување
истече
исти
истиот
истите
исто
истовремено
истоимен
истоимена
истоимената
истоимени
истоимениот
истоименото
исток
истокот
истории
историографија
историска
историската
историски
историскиот
историските
историско
историското
историчар
историчари
историчарите
историчарот
исторические
история
историја
историјат
историјата
истото
источен
источна
источната
источни
источниот
источните
источно
источноиндиска
источното
истра
истрага
истрагата
истраги
истражат
истражен
истражени
истражи
истражува
истражуваат
истражувал
истражувале
истражувач
истражувачи
истражувачите
истражувачка
истражувачката
истражувачки
истражувачкиот
истражувачките
истражувачот
истражувања
истражувањата
истражување
истражувањето
истребување
истрел
истрели
исус
исфрла
исфрлаат
исфрлање
исфрлен
исфрлена
исфрлени
исфрли
исфрлувањето
исход
исходи
исходот
исхрана
исхраната
исчезнал
исчезнала
исчезнале
исчезнат
исчезнати
исчезне
исчезнува
исчезнуваат
исчезнување
исчезнувањето
исчисти
ит
итал
италија
италијанецот
италијанска
италијанската
италијански
италијанскиот
италијанските
италијанско
италијанското
италијанци
италијанците
итало
итар
ите
итн
итна
итни
итно
итриум
итф
иф
ица
ички
иштван
иште
ија
ијан
иљо
иљја
иња
ињата
ињево
к
ка
кабаре
кабел
кабелот
кабелски
кабина
кабинет
кабинети
кабинетот
кабли
кабул
кавадаречко
кавадаречкото
кавадарци
кавала
кавалирс
кавга
кавказ
кавкаски
кад
кадар
каде
кадет
кадешто
кади
кадина
кадис
кадри
каеда
кажа
кажал
кажала
кажале
кажам
кажани
кажано
кажат
каже
кажеме
кажете
кажи
кажува
кажуваат
кажувајк
кажувањата
кажување
кажувањето
каза
казабланка
казан
казахстан
казимир
казино
казна
казната
казнена
казнени
казнет
казнети
казни
казните
казнува
казнување
каиро
как
какаду
какао
каква
какви
какво
како
каков
кал
кала
калабрија
калаузлија
калај
калвино
калдерон
калдрма
кале
каледонија
калем
калемегдан
календар
календари
календарите
календарот
калето
калеш
кали
калибар
калиграфија
калиманци
калиник
калиопи
калиста
калистрат
калиум
калиф
калифат
калифатот
калифорнискиот
калифорнија
калифот
калкута
калливи
калмар
калории
калојан
калта
калуг
калциум
калчо
кам
кама
камата
каматата
каматна
каматната
каматни
каматниот
каматните
камбанарија
камбанаријата
камбоџа
камен
камена
камени
камениот
камените
каменица
камено
каменот
камера
камерата
камерен
камери
камерна
камерон
камерун
камења
камењата
ками
камил
камила
камили
камион
камиони
камиј
камп
кампанија
кампања
кампањата
кампањи
кампеонато
кампови
кампот
кампување
кампус
кампусот
камчатка
кан
кана
канаг
канада
канадска
канадската
канадски
канадскиот
канадските
канал
канали
канализација
каналите
каналот
канарските
кандид
кандидат
кандидати
кандидатите
кандидатот
кандидатура
кандидатурата
кандидира
канзас
кани
канон
канонски
канскиот
кант
кантакузин
кантербери
канто
кантон
кантона
кантони
кантонот
кантри
кану
канцелар
канцеларии
канцелариите
канцелариски
канцеларија
канцеларијата
канцеларот
канчелара
канџи
канџите
као
капа
капабланка
кападокија
капак
капата
капаци
капацитет
капацитети
капацитетот
капела
капелата
капело
капетан
капетанот
капење
капи
капитал
капитализам
капитализмот
капитални
капиталот
капитен
капитенот
капитенската
капитол
капитулација
капитулацијата
капија
капка
капки
капсула
кар
кара
карабах
караван
каравангелис
караваџо
караг
каракалпакстан
карактер
карактери
карактеризира
карактеризираат
карактеристика
карактеристики
карактеристиките
карактеристичен
карактеристична
карактеристичната
карактеристични
карактеристичните
карактеристично
карактерот
карантин
караорман
карате
караџик
караџица
караџић
карбинци
карбонат
карбуница
карго
кардинал
кардиналот
кардиф
карев
карел
карен
кари
карибите
кариера
кариерата
кариери
карик
карин
карипски
карипското
карл
карлајл
карлицата
карло
карловац
карловци
карлос
карлсен
карлсон
кармен
кармила
карневал
карневалот
карнеги
карол
каролина
карпа
карпата
карпатите
карпентер
карпест
карпеста
карпести
карпестите
карпи
карпите
карпов
карпош
карс
карстен
карстни
карта
картагина
картата
картер
карти
картите
картичка
картичката
картички
картографија
картон
картони
карцином
каса
касандар
касандра
касарна
касарната
касел
касети
касини
касиопеја
каспар
каспаров
каспиското
кастел
кастиља
кастро
кат
ката
катализатор
катализатори
каталог
каталогизирана
каталогот
каталози
каталонија
каталонски
каталонскиот
каталуња
катанија
катар
катарина
катастар
катастрофа
катастрофален
катастрофални
катастрофалниот
катастрофално
катастрофата
катастрофи
категоризација
категоризираат
категоризирани
категории
категориите
категорија
категоријата
катедра
катедрала
катедралата
катедрали
катедрата
катерина
катланово
като
катови
катодата
католик
католици
католицизам
католицизмот
католиците
католичка
католичката
католички
католичкиот
католичките
католичко
католичкото
катот
катрин
катјони
кауза
каунти
каф
кафе
кафеав
кафеава
кафеави
кафеаво
кафеана
кафеаната
кафез
кафена
кафени
кафето
кафка
кафуле
кафулиња
качаник
качи
качил
качува
качување
каша
кашлица
кашмир
кај
кајак
кајзер
кајзерслаутерн
кајл
кајли
кајмакчалан
кајперовиот
кајшто
каљари
кање
кањон
кањонот
кб
квавар
квадрат
квадратен
квадрати
квадратна
квадратни
квадратот
квалитет
квалитетен
квалитети
квалитетна
квалитетни
квалитетно
квалитетот
квалификации
квалификациите
квалификациска
квалификациската
квалификациски
квалификацискиот
квалификациско
квалификација
квалификува
квалификуваат
квалификувал
квалификувала
квалификувале
квалификуван
квалификувани
квантен
квантитативни
квантна
квантната
квантни
квантните
квантно
кварк
кваркови
кварковите
кварт
квартал
квартет
квартови
квартот
кварц
квасец
квебек
квентин
квин
квинс
квинсленд
квинтет
кво
квјатковски
кг
кгб
ке
кевендиш
кевин
кедел
келвин
келер
кели
келн
келтите
келтски
келтските
кемал
кембел
кембер
кембричкиот
кембриџ
кемниц
кемпбел
кен
кенеди
кенет
кени
кенија
кент
кентаки
кентаур
кепески
кеплер
кер
керамика
керамички
кери
керол
кети
кетрин
кефеј
кечуански
кеш
кеј
кејв
кејн
кејот
кејп
кејптаун
кејси
кејт
ки
кид
кидман
киднапирање
киев
киевска
киевскиот
кикинда
кил
килибар
киликија
килограм
килограми
километар
километри
ким
кимоно
кин
кина
киназа
кината
кинг
кингс
кинези
кинезите
кинематографија
кинематографијата
кинеска
кинеската
кинески
кинескиот
кинеските
кинеско
кинеското
кинетичка
кинетичката
кино
кинотека
киното
кинтана
кипар
кипарски
кипарските
кипур
кир
кира
киргистан
кире
кири
кирибати
кирил
кирилица
кирилицата
кириличната
кирк
киро
киров
кис
кисел
кисела
кисели
киселина
киселини
кислород
кислородот
кит
китанов
китанчев
кител
китка
кито
китови
китовите
китон
китс
кифхојзер
кихот
кичево
кичевска
кичевската
кичевски
кичевскиот
кичевско
кичевското
кк
клавдиј
клавир
клавијатура
клавијатури
клад
клада
кладенец
клан
кланови
кланот
клара
кларенс
кларинет
кларк
клас
класа
класата
класи
класик
класика
класите
класификации
класификација
класификацијата
класифицира
класифицираат
класифициран
класифицирана
класифицирани
класици
класицизмот
класиците
класичен
класична
класичната
класични
класичниот
класичните
класично
класичното
кластери
клаудио
клаудија
клаузула
клаус
клајд
клајн
клајстерс
клевета
клемент
клеопатра
клепа
клептон
клер
клетва
клетвата
клетка
клетката
клетки
клетките
клеточен
клеточна
клеточната
клеточни
клеточниот
клеточните
кливленд
клиент
клиенти
клиентите
клиентот
клима
климата
климатска
климатската
климатски
климатските
климент
клими
климт
клин
клиника
клиниката
клиничка
клиничката
клинички
клиничките
клинт
клинтон
клип
клиперс
клипови
клисура
клисурата
клисури
клиф
клод
клодовик
клотар
клуб
клуба
клубови
клубовите
клубот
клуж
клукајдрвец
клун
клунот
клупа
клупата
клупи
клупска
клупската
клупски
клупско
клуч
клучеви
клучен
клучна
клучната
клучни
клучниот
клучните
клучно
клучот
км
кн
кнежевства
кнежевство
кнежевството
кнез
кнезови
кнезовите
кнезот
книга
книгата
книги
книгите
книжевен
книжевна
книжевната
книжевни
книжевник
книжевниот
книжевните
книжевно
книжевност
книжевноста
книжевното
кнут
ко
коалиција
коалицијата
кобалт
кобејн
кобилица
ков
ковани
ковач
ковачев
ковачевик
ковачи
ковентри
ковид
ковчег
ковчегот
кога
когнитивни
кого
код
кодекс
кодексот
кодира
кодираат
кодирање
кодови
кодовите
кодот
кое
коен
коефициент
коефициенти
коефициентот
коешто
кожа
кожани
кожата
кожи
кожни
кожув
кожуф
коза
козаци
козаците
козета
кози
козимо
козма
козметика
козметички
козјак
козјачија
кои
коишто
кока
кокаин
кокино
коко
кокошка
кокошки
кокс
коктел
кол
кола
колапс
колапсот
колата
колачи
колачиња
колбаси
коле
колега
колегата
колеги
колегите
колектив
колективна
колективни
колективно
колекции
колекционерски
колекција
колекцијата
колена
колената
колено
коленото
колера
колење
колеџ
колеџи
колеџот
коли
колиба
колибата
колиби
колин
колинс
количества
количество
количеството
количина
количината
количини
количка
колишевски
колкав
колковите
колкот
колку
коло
колона
колоната
колони
колонизација
колонизацијата
колонии
колониите
колонисти
колонија
колонијален
колонијална
колонијалната
колонијални
колонијата
колорадо
колосек
колото
колубара
колумбиски
колумбискиот
колумбија
колумбо
колумна
колумни
ком
кома
команда
командант
команданти
командантот
командата
команди
командир
командувал
комаров
комбинат
комбинации
комбинација
комбинацијата
комбинира
комбинираат
комбиниран
комбинирана
комбинирани
комбинирано
комбинирајк
комбинирање
комедии
комедија
комедијата
коментар
коментари
коментарите
коментатор
коментатори
коментира
коментирал
комерцијален
комерцијална
комерцијалната
комерцијални
комерцијалниот
комерцијалните
комерцијално
комесар
комесари
комесарот
комета
кометата
комети
кометите
коминтерната
комисии
комисија
комисијата
комита
комитет
комитети
комитетите
комитетот
комити
комитите
комичар
комични
комнин
комо
комонвелт
комонвелтот
комонс
комора
комората
комори
коморите
компакт
компани
компании
компаниите
компанија
компанијата
компаративна
компас
компензација
компилации
компилација
компир
компири
комплекс
комплексен
комплекси
комплексна
комплексни
комплексните
комплексност
комплексноста
комплексот
комплементарни
комплет
комплетен
комплети
комплетна
комплетно
компликации
композитор
композитори
композиторите
композиторот
композиции
композициите
композиција
композицијата
компонента
компоненти
компонентите
компонира
компонирал
компонирана
компонирање
компресија
компромис
комптон
компјутер
компјутери
компјутерите
компјутерот
компјутерска
компјутерската
компјутерски
компјутерските
компјутерско
кому
комуна
комунални
комуната
комунизам
комунизмот
комуникации
комуникациите
комуникациска
комуникациски
комуникација
комуникацијата
комунист
комунисти
комунистите
комунистичка
комунистичката
комунистички
комунистичкиот
комунистичките
комунистичкото
комуницира
комуницираат
комјунити
кон
конак
конакот
конан
конаци
конаците
конвенции
конвенционални
конвенционалните
конвенција
конвенцијата
конвергенција
конго
конгрес
конгреси
конгресот
кондензатор
кондензација
конектикат
конески
конец
конечен
конечна
конечната
конечни
конечниот
конечните
конечно
конечното
конзервативен
конзервативна
конзервативната
конзервативни
конзервативните
конзервативците
конзерваториум
конзервација
конзоли
конзул
конзулат
конзули
конија
конкакаф
конкретен
конкретна
конкретни
конкретниот
конкретно
конкурент
конкуренти
конкурентни
конкурентност
конкуренција
конкуренцијата
конкурс
конкурсот
конмебол
коноп
конопиште
конор
конрад
консензус
консолидација
константа
константата
константен
константи
константин
константинов
константинопол
константна
константно
констанца
констанциј
констатира
конструира
конструирал
конструиран
конструирани
конструктивни
конструкции
конструкција
конструкцијата
консултант
консултации
консултација
консумира
консумираат
консумирање
контадор
контакт
контакти
контактите
контактот
контаминација
конте
контекст
контексти
контекстот
контејнери
континент
континентален
континентална
континенталната
континентални
континенталниот
континенталните
континенти
континентите
континентот
континуиран
континуирана
континуирани
континуирано
континуитет
континуитетот
контра
контракција
контраст
контрастот
контроверзен
контроверзии
контроверзна
контроверзни
контроверзно
контроверзност
контрола
контролата
контролен
контроли
контролира
контролираат
контролирал
контролирала
контролирале
контролиран
контролирана
контролирани
контролирано
контролирање
контролна
контролната
контролни
конус
конуси
конфедерации
конфедерација
конфедерацијата
конференции
конференција
конференцијата
конфигурации
конфигурација
конфигурацијата
конфликт
конфликти
конфликтите
конфликтот
конфузија
концентрации
концентрациите
концентрационен
концентрациони
концентрациониот
концентрација
концентрацијата
концентрира
концентрирана
концентрирани
концепт
концепти
концептите
концептот
концепција
концерт
концерти
концертите
концертна
концертни
концертот
конци
конче
координатен
координати
координатите
координатни
координатор
координација
координира
коп
копа
копачка
копање
копенхаген
коперник
копи
копии
копирање
копија
копнеж
копнен
копнена
копнената
копнени
копнениот
копнените
копно
копното
копче
копчето
копчиња
копја
копје
кор
кора
кораб
корален
корали
корални
кората
кордоба
корелација
корен
корени
корените
коренот
кореограф
кореографија
коресподенција
кореспонденција
кореја
корејската
корејски
корејскиот
корења
корењата
корзика
кори
коридор
коринт
корисен
корисна
корисни
корисник
корисникот
корисници
корисниците
корисничка
кориснички
корисничкиот
корисничките
корисничко
корисно
корисност
корисноста
корист
користа
користат
користеа
користел
користела
користеле
користело
користен
користена
користени
користените
користено
користете
користеше
користејк
користење
користењето
користи
користиме
користите
корита
корито
коритото
корица
корицата
корија
корнвол
корнел
корнер
корнеј
корозија
корона
корпоративни
корпоративно
корпоративното
корпорации
корпорациите
корпорација
корпорацијата
корпус
корпусот
корса
кортекс
кортикостероиди
корупција
корупцијата
корушка
коруња
корча
кос
коса
косата
косел
косем
коси
коска
коската
коскена
коскената
коскени
коски
коските
космички
космичките
космодромот
космологија
космонаутиката
космос
косово
косоврасти
косовска
косовската
косовски
косовскиот
косовските
коста
костадин
костадинов
костадиновска
костарика
костен
костик
костими
костов
костовски
костум
костуми
костур
костурската
костурскиот
костурско
костурското
кот
кота
котар
коте
котел
котески
котлина
котлината
котлини
кото
котор
кофи
кох
коце
коцев
коцка
коцкање
коцки
коцо
кочани
кочанската
кочански
кочанско
кочанското
кочии
кочија
кочијаш
кочо
кош
кошарка
кошаркар
кошаркари
кошаркарска
кошаркарската
кошаркарски
кошаркарскиот
кошарката
коши
кошта
кошула
кошули
кој
која
којашто
који
којшто
кољо
коњ
коња
коњаница
коњаницата
коњаници
коњари
коњи
коњите
коњица
коњички
коњот
коњска
коњски
коњско
коњух
коџа
кпг
кпм
кпј
крава
крави
кравиц
крагуевац
краде
крадец
крадци
краеви
краевите
краен
кражба
кражби
краи
краина
краишта
краиштата
крак
краков
крал
крале
кралеви
кралевите
кралица
кралицата
кралици
кралот
кралска
кралската
кралски
кралскиот
кралските
кралско
кралското
кралства
кралство
кралството
крамер
крамник
крап
крапа
крас
краставици
кратенка
кратенката
кратенки
кратер
кратери
кратерите
кратерот
кратка
кратката
кратки
краткиот
кратките
кратко
краткорочни
краткото
краткотрајна
краткотрајни
кратово
кратовски
кратовско
краток
краул
крафорд
краци
краците
крај
краја
крајбрежен
крајбрежна
крајбрежната
крајбрежни
крајбрежниот
крајбрежните
крајбрежје
крајбрежјето
крајна
крајната
крајни
крајниот
крајните
крајно
крајова
крајот
краљ
краљево
крањска
крв
крвава
крвавење
крвави
крварење
крвен
крвна
крвната
крвни
крвниот
крвните
крвотокот
крвта
креативен
креативна
креативни
креативно
креативност
креативноста
креатин
крева
кревање
кревет
кревети
креветот
крег
креда
кредит
кредитен
кредити
кредитирање
кредитите
кредитна
кредитната
кредитни
кредитниот
кредитните
кредитот
крем
кремен
кремљ
кренал
кренале
кренат
крене
креолски
кресна
крзно
крзното
крива
кривата
криви
кривина
кривичен
кривична
кривични
кривичниот
кривично
кривичното
кривогаштани
криволак
кривопаланечко
крие
криел
криеле
криејтив
криза
кризата
кризи
крик
крикет
крила
крилата
крилен
крило
крилото
крилја
крилјата
крим
криминал
криминалец
криминалистички
криминални
криминалот
криминалци
криминалците
кримската
кримските
крис
кристал
кристален
кристали
кристалите
кристална
кристалната
кристални
кристалографија
кристалот
кристенсен
кристи
кристин
кристина
кристијан
кристијано
кристоф
кристофер
крит
критериум
критериуми
критериумите
критика
критиката
критики
критиките
критикува
критикуваат
критикувал
критикувале
критикуван
критикувана
критикувани
критикуваше
критичар
критичари
критичарите
критичарот
критичен
критичка
критички
критичко
критична
критичната
критични
критично
кришна
кријат
крка
крлежа
крма
кров
крокодил
крокодили
кромвел
кромид
крон
крос
кротоне
кроули
кроја
крст
крстарење
крсте
крстев
крстевски
крстен
крстик
крстител
крсто
крстови
крстоносен
крстоносна
крстоносната
крстоносни
крстоносните
крстоносци
крстоносците
крстот
круг
круга
кругер
кругови
круговите
кругот
кружат
кружен
кружи
кружна
кружни
кружниот
кружница
кружницата
кружно
кружок
круз
крум
круме
круна
круната
круни
крунисан
крунисана
крунисување
крунисувањето
крупен
крупни
крус
круша
крушевац
крушевица
крушево
крушевската
крушевско
круши
крушица
крушје
крф
крчовски
кршат
кршен
кршење
крши
кршко
крштевање
крштевањето
кс
ксенија
ксеркс
ктитор
куала
куан
куба
кубанската
кубански
кубен
кублај
кубни
кувајт
куд
кузман
кузмановик
кузнецов
кук
кука
кукла
кукли
куксхафен
кукуш
кукушкиот
кукушко
кул
кула
кулата
куле
кули
кулите
кулминација
култ
култен
култни
култови
култот
култура
културата
културен
култури
културите
културна
културната
културни
културниот
културните
културно
културното
културолошки
кум
куманово
кумановската
кумановски
кумановскиот
кумановско
кумановското
кун
куноски
куп
купа
купат
купата
купен
купена
купени
купер
купи
купил
купила
купиле
купови
куповите
куповната
купола
куполата
куполи
купон
купони
купот
купува
купуваат
купувач
купувачи
купувачите
купувачот
купување
купувањето
куран
куранот
куратица
курди
курдистан
курдите
курдски
курир
курија
курне
курс
курсеви
курсот
курт
куртис
куршум
куршуми
кус
куса
куси
куско
кусо
кутии
кутија
кутијата
кутлеш
куче
кучевиште
кучето
кучешки
кучиња
кучињата
кучково
кујна
кујната
кујни
кујнски
кънчов
кјево
кјелини
кјото
кју
кјубрик
кљашев
књига
књижевна
л
ла
лабаво
лаборатории
лабораториите
лабораториски
лабораторија
лабораторијата
лабрадор
лабуништа
лав
лава
лавал
лавата
лавини
лавињ
лавов
лавови
лавовите
лавот
лавра
лавци
лаг
лага
лагадина
лагадинско
лаги
лагуна
лагуната
ладен
ладење
лади
ладислав
ладна
ладни
ладно
лаже
лажен
лажна
лажни
лажните
лажно
лазар
лазарев
лазаревик
лазаров
лазарополе
лазо
лак
лакавица
лаки
лакови
лакот
лакочереј
лакрос
лактиње
лама
ламанш
ламберт
ламина
лана
ланг
ланд
ланда
ланец
ланецот
ланка
ланкастер
лансира
лансиран
лансирана
лансирани
лансирање
лансирањето
ланци
лаос
лаплас
лапонија
лара
ларви
ларвите
лари
лариса
ларс
ларсен
ларсон
лас
ласер
ласери
ласерски
ласкарис
ласкер
ласло
лат
латвиски
латвија
латините
латиница
латиницата
латинични
латино
латинска
латинската
латински
латинскиот
латинските
латинско
латинското
лауе
лауенбург
лаура
лауреат
лацио
лачат
лачење
лачи
лачни
лајбниц
лајден
лајн
лајош
лајпциг
лајф
лгбт
ле
леб
лебди
лебед
лебеди
лебот
леброн
лев
лева
левант
левата
леверкузен
леви
левин
левиот
левитите
левица
левицата
левичарски
лево
левото
левски
легален
легална
легални
легално
легенда
легендарен
легендарната
легендарниот
легендата
легенди
легендите
легии
легитимен
легија
легијата
легла
легло
легура
легури
лед
леден
ледена
ледената
ледени
ледениот
ледените
ледено
леди
ледник
ледникот
ледници
ледниците
леднички
лежат
лежел
лежи
лезии
лек
лекар
лекари
лекарите
лекарот
лекарства
лекови
лековита
лековите
лековити
лекоинт
лекот
лексикон
лектор
лекува
лекуваат
лекување
лекувањето
лекции
лекција
леле
леман
лен
лена
лени
ленин
ленинград
ленон
ленс
лента
лентата
ленти
ленче
лео
леон
леонард
леонардо
леоне
леонид
леопард
леопарди
леопардот
леополд
лер
лери
лерин
леринскиот
леринско
лермонтов
лесен
леска
лесковац
лескоец
лесли
лесна
лесната
лесни
лесно
леснотија
лесото
лестер
лет
лета
летаат
летала
летало
леталото
летата
летачки
летање
лете
летен
летечки
летна
летната
летни
летниот
летните
летно
лето
летови
летонија
летопис
летот
летото
летоци
леукемија
леукоцити
лех
лече
лечење
лешани
лешница
лешок
лејди
лејк
лејкерс
лејн
лејтон
леџер
ли
либан
либе
либек
либерален
либерализам
либерализација
либералите
либерална
либералната
либерални
либералните
либерално
либерехт
либерија
либертадорес
либија
либрето
либрис
ливада
ливади
ливадите
ливенворт
ливерпул
ливингстон
ливиј
ливорно
ливче
ливчиња
лига
лиганди
лигата
лигашки
лигашкиот
лиги
лидер
лидери
лидерот
лидија
лидс
лиеж
лиза
лизгање
лизинг
лик
лика
ликвидација
ликвидносниот
ликвидност
ликвидноста
ликовен
ликови
ликовите
ликовна
ликовната
ликовни
ликовните
ликовно
ликот
лил
лили
лилит
лилијан
лилјак
лилјана
лилјаци
лим
лима
лимбург
лимит
лимон
лимфни
лин
лингва
лингвистика
лингвистиката
лингвистички
линда
линдзи
лине
линеарен
линеарна
линеарната
линеарни
линеарно
линебург
линебуршкото
линеј
линии
линиите
линиски
линија
линијата
линк
линкови
линколн
линукс
линч
лион
липа
липе
липи
липиди
липково
липовик
лир
лира
лири
лирика
лирике
лирска
лирски
лиса
лисабон
лисец
лисица
лисицата
лисици
лисиците
лисичани
лисиче
лист
листа
листата
листи
листите
листови
листовите
листопадни
листот
лисја
лисјата
литар
литванија
литванската
литвански
литванскиот
литература
литературата
литературен
литературна
литературната
литературни
литературниот
литературните
литературно
литиум
литија
литл
литосфера
литри
литургиски
литургија
лифт
лихов
лихтенштајн
лица
лицата
лице
лиценца
лиценцата
лиценци
лиценцирани
лиценцирање
лицето
личат
личен
личи
лична
личната
лични
личниот
личните
лично
личност
личноста
личности
личностите
личното
лишаи
лк
лм
ло
лоа
лоара
лов
ловат
ловел
ловец
ловецот
ловечки
ловење
лови
ловот
ловци
ловците
лог
логаритам
логика
логиката
логистика
логичка
логички
логично
лого
логор
логори
логорите
логорот
логото
ложа
лоза
лозана
лозанскиот
лозанчев
лозата
лози
лозинка
лозинки
лозница
лозово
лозја
лозјата
лозје
лои
лок
локален
локалитет
локалитети
локалитетот
локална
локалната
локални
локалниот
локалните
локално
локалното
локации
локациите
локација
локацијата
локов
локомотив
локомотива
локомотиви
лола
лолита
лом
ломбардија
ломоносов
лонг
лондон
лондонската
лондонски
лондонскиот
лондонското
лопез
лопес
лора
лоран
лорд
лордот
лорен
лорена
лоренс
лоренц
лоренцо
лоренцовата
лори
лорка
лос
лот
лотар
лох
лохан
лоцира
лош
лоша
лошата
лоши
лошиот
лошите
лошо
лошото
лојални
лојалност
лојалноста
лојд
лп
лу
лувр
луг
лугано
луд
луда
лудвиг
лудвигслуст
луди
лудило
лудо
лужица
лузни
луиз
луиза
луизијана
луис
лук
лука
лукас
лукаш
луке
луковица
луково
луксембург
луксузни
луле
лумпур
луна
лунд
луси
лут
лута
лутер
лутеранска
лутеранската
лути
лутина
луфтвафе
луфтханза
луцерн
луциј
луција
лушпи
луј
лујџи
лш
м
ма
маала
маалата
маало
маалото
маверикс
мавзолеј
мавзолејот
мавританија
маврите
маврициус
маврово
мавровско
маг
магазин
магазинот
магаре
магацин
магдалена
магдебург
магеланов
магии
магистер
магистерска
магистерски
магистрала
магистралниот
магистрирал
магистрирала
магичен
магични
магија
магијата
магла
маглата
маглина
маглината
маглини
магма
магмата
магматски
магнезиум
магнет
магнетен
магнети
магнетизам
магнетна
магнетната
магнетни
магнетниот
магнетните
магнетно
магнетното
магнетосферата
магнитуда
магнус
магор
мадагаскар
мадам
мадеира
мадона
мадрид
маер
маж
мажена
мажи
мажите
мажот
мажјак
мажјакот
мажјаци
мажјаците
мазна
мазни
мазовското
маи
маите
маичка
маичката
мак
мака
макао
макар
макариј
македон
македонец
македонии
македонисти
македония
македонија
македонка
македоно
македонска
македонската
македонски
македонскиот
македонските
македонско
македонското
македонци
македонцикънчов
македонцимакедония
македонците
маки
макијавели
макро
макроекономија
макроекономски
макс
максвел
максвеловите
максим
максимален
максимална
максималната
максимални
максималниот
максимално
максимилијан
максимовик
максимум
макстат
макфест
мал
мала
малави
малага
малака
маларија
маларме
малата
малајски
малајскиот
малајско
мале
малезија
малесија
малешевски
мали
малик
малина
малиот
малите
малколм
малку
малкумина
малкуте
малме
мало
малолетен
малолетни
малолетници
малопродажба
малото
малта
малтер
малтретирање
малтретирањето
малтус
малцински
малцинските
малцинства
малцинствата
малцинство
мама
мамење
мамо
ман
манаки
манасиев
манастир
манастирец
манастири
манастирите
манастириште
манастирот
манастирска
манастирската
манастирски
манастирскиот
манастирските
манга
манган
мандарински
мандат
мандати
мандатот
мане
манекенка
мани
манила
манипулација
маниса
манифест
манифестации
манифестација
манифестацијата
манифестира
манифестираат
манифестот
манова
мансфелд
мантова
ману
мануел
мануил
манфред
манчевски
манчестер
манџукик
манџурија
мао
мапа
мапата
мапи
мапирање
мар
мара
марадона
маратон
маратонот
марвин
маргарет
маргарета
маргарита
маргина
маргините
маре
мареј
мари
марибор
марин
марина
маринер
маринковик
марино
марио
мариово
марион
мариус
марица
марија
маријана
марк
марка
марката
маркес
маркет
маркетинг
маркетингот
марки
маркиз
марко
марков
маркова
маркови
марковик
марковски
марковци
маркос
маркоски
маркс
марксизмот
маркус
марли
марна
мароко
марс
марсел
марсело
марсеј
март
марта
мартел
марти
мартин
мартина
мартинез
мартиник
мартиновски
мартиноски
марфи
марчело
марш
маршал
маршалот
маршалски
маршалските
маршот
марјан
мас
маса
масажа
масакр
масакри
масакрот
масата
масачусетс
маси
масив
масивен
масиви
масивна
масивни
масивните
масивно
масивот
масите
маска
маската
маски
маските
масла
маслинки
маслиново
масло
маслото
масни
масовен
масовна
масовната
масовни
масовниот
масовните
масовно
масовното
масон
маст
мастер
мастерс
мастерсот
мастејн
масти
мастило
мастите
мастрихт
мат
мата
математика
математиката
математичар
математичари
математичарите
математичарот
математичка
математичката
математички
математичкиот
математичките
математичко
матео
материи
материја
материјал
материјали
материјалите
материјална
материјалната
материјални
материјалните
материјално
материјалот
материјата
матеј
матејче
матик
матилда
матис
матица
матичен
матична
матичната
матични
матичните
матија
матијас
матка
матката
мато
матов
матрица
матрицата
матрици
мауна
маунт
махатир
махмуд
мачва
маченик
маченици
мачење
мачи
мачка
мачката
мачки
мачките
мачор
мачорот
маша
машина
машината
машинерија
машини
машините
машинска
машински
машинско
машка
машката
машки
машкиот
машките
машко
машкото
мај
маја
мајаковски
мајами
мајански
мајер
мајк
мајка
мајката
мајкелсон
мајки
мајките
мајкл
мајко
мајкрософт
мајлс
мајмун
мајмуни
мајна
мајнинген
мајнц
мајор
мајорка
мајорот
мајсен
мајстор
мајстори
мајсторите
мајсторот
мајчин
мајчиниот
мајчинство
маџунков
мбени
мвп
мвр
мг
мгм
ме
мебел
мег
мега
мегавати
мегадет
меги
меглен
мед
медал
медали
медалисти
медалите
медалот
медведев
медеја
медиа
медина
медисон
медитација
медитеран
медитеранот
медиум
медиуми
медиумите
медиумот
медиумска
медиумски
медицина
медицината
медицинска
медицинската
медицински
медицинскиот
медицинските
медицинско
медичи
медија
медот
мезони
меиџи
мек
мека
мекартни
мекдоналд
мекдоналдс
мекензи
меки
мекиненза
мекларен
мекленбург
мекленбуршка
мекмердо
меко
мекотели
мексиканска
мексиканската
мексикански
мексиканскиот
мексиканските
мексико
мел
мелани
мелас
мелбурн
мелвил
мелено
мелење
мелник
мелница
мелничко
мелодии
мелодија
мелодијата
мембрана
мембраната
мембрани
мембрански
мемоари
мемоарите
меморандум
меморандумот
мемориски
меморија
меморијал
меморијален
меморијалниот
меморијата
мемфис
мен
менаџер
менаџери
менаџерите
менаџерот
менаџмент
менаџментот
мене
менез
мени
ментална
ментални
менталните
ментално
менталното
ментор
менторство
менува
менуваат
менувал
менувала
менувале
менувач
менувајк
менувајте
менување
менувањето
менхенгладбах
менхетен
менхетн
мер
мера
мерат
мередит
мерен
мерено
мерења
мерењата
мерење
мерењето
мери
мерида
меридијан
мерил
мериленд
мерилин
мериме
мерка
мерката
меркел
мерки
мерките
меркс
меркур
меркјури
мерлин
мермер
мермерна
мермерни
мерни
мерсија
мерцедес
меса
месен
месец
месеца
месеци
месеците
месецот
месечев
месечева
месечевата
месечеви
месечевиот
месечевите
месечен
месечина
месечината
месечини
месечините
месечна
месечни
месечно
меси
месина
месија
месна
месната
месни
месниот
месните
месно
месност
месноста
месностите
месното
месо
месопотамија
месото
места
местата
место
местоположба
местоположбата
местото
месје
мет
мета
метаболизам
метаболизмот
метал
металац
метален
метали
металика
металите
метална
метални
металните
метално
металот
металург
метамфетамин
метан
метанот
метар
метафизика
метафизиката
метафора
метеж
метеорити
метеорологија
метеоролошка
метеоролошки
метерних
метод
метода
методи
методите
методиј
методија
методологија
методологијата
методот
метохија
метра
метри
метрика
метрички
метро
метропола
метрополитен
метрополитенска
метрополитенската
метрото
метју
метјус
меур
механизам
механизми
механизмите
механизмот
механика
механиката
механичка
механички
механичките
механичко
мехмед
мехмет
мец
меч
меча
мечеви
мечка
мечката
мечки
мечките
мечот
мечување
меша
мешаат
мешавина
мешавината
мешавини
мешан
мешана
мешани
мешаните
мешано
мешање
мешањето
мешеишта
мешков
мешовита
мештани
мештаните
меј
мејер
мејл
мејн
мејнстрим
мејсон
меџик
мзт
ми
миа
миг
мигел
мигот
мигранти
миграции
миграција
миграцијата
мигрираат
мигрирале
мидлендс
мидлсбро
мие
миење
мик
микаел
микел
микеланџело
микеле
микена
мики
микро
микробиологија
микрометри
микронезија
микроорганизми
микроорганизмите
микропластика
микроскоп
микроскопски
микрософт
микроформати
микс
мил
мила
миладинов
миладиновци
милан
милано
милановац
милвоки
миле
милевци
милена
миленик
милениум
милениуми
миленици
миленичиња
миленко
милер
милет
милетик
мили
милик
милиметри
милион
милиони
милица
милиција
милијарда
милијарди
мило
милован
миловановик
милоевик
милорад
милост
милош
милошевик
милтон
милутин
милутиновик
милчин
милчо
милја
милји
мин
мина
минал
минале
минаре
минарето
минат
минатата
минати
минатиот
минатите
минато
минатото
минг
мине
минерал
минерали
минералите
минерална
минерални
минералните
минесота
мини
минимален
минимална
минималната
минимални
минималниот
минимално
минимизира
минимум
министер
министерка
министерот
министерства
министерствата
министерство
министерството
министри
министрите
минијатура
минијатури
миног
минск
минстер
минува
минуваат
минувал
минувајк
минување
минус
минута
минутажа
минути
минхен
миодраг
мир
мира
миравци
мираз
мираковски
миранда
мирен
мирис
мириси
мирисот
мирко
мирна
мирни
мирно
миро
мировен
мировна
мировни
мировниот
мировните
мирослав
мирот
мирување
мирче
мирјана
мис
миса
мисии
мисиите
мисионер
мисионери
мисионерите
мисирков
мисисипи
мисија
мисијата
мисла
мислам
мислат
мислата
мислев
мислел
мислеле
мислело
мислеше
мислејк
мислења
мислењата
мислење
мислењето
мисли
мислите
мислител
мислители
мистерии
мистериите
мистериозно
мистерија
мистеријата
мистик
мисури
мит
мите
митевски
митинг
митингот
митко
мито
митови
митовите
митологија
митологијата
митолошки
митот
митра
митралези
митре
митрев
митревски
митревци
митровден
митровик
митровица
митрополит
митрополитот
митрополија
митски
михаел
михаи
михаил
михаило
михаиловик
михал
михајло
михајлов
михајловик
михајлович
михајловски
мицко
мичел
мичиген
миша
мишев
мишел
мишо
мијазаки
мијатовик
миљковик
мк
мкд
мкцк
мл
млад
млада
младата
младен
младенов
младеновик
младеновски
младенче
младенчиња
младенчињата
млади
младина
младината
младинец
младинска
младинската
младински
младинскиот
младинските
младинско
младинци
младиот
младите
младо
младост
младоста
младото
младотурската
младотурците
млеко
млекото
млечен
млечка
млечки
млечна
млечни
млечниот
млечните
млс
мм
ммф
мн
многу
многуаголник
многубројни
многубројните
многумина
многупати
многуте
множества
множествата
множество
множеството
множење
множина
мнозинство
мнозинството
мноштво
мнт
мо
моби
мобилен
мобилизација
мобилизирани
мобилна
мобилни
мобилните
мов
могила
могили
мод
мода
модата
модел
модели
моделирање
моделите
моделот
модем
моден
модена
модерен
модерна
модерната
модерни
модернизам
модернизација
модернизмот
модерниот
модернистички
модерните
модерно
модерното
модификации
модификација
модна
модната
модни
модните
модул
модулација
модули
мое
моето
можам
можат
може
можеа
можеби
можев
можел
можела
можеле
можело
можеме
можен
можете
можеш
можеше
можејк
можна
можната
можни
можниот
можните
можно
можност
можноста
можности
можностите
можното
мозаик
мозаикот
мозаици
мозамбик
мозок
мозокот
мозочен
мозочни
мозочното
мои
моите
мок
мокра
мол
молам
молат
молба
молдавија
молде
молекула
молекуларен
молекуларна
молекуларната
молекуларни
молекуларните
молекулата
молекули
молекулите
молел
молема
моли
молибден
молиер
молиме
молитва
молитвата
молитви
молитвите
молци
молња
молњата
молњи
молњите
мома
моме
момент
моментален
моментална
моменталната
моментални
моменталниот
моменталните
моментално
моменти
моментно
моментов
моментот
моментум
моми
моминско
момци
момче
момчето
момчило
момчиња
момчињата
мон
мона
монако
монарси
монарх
монархии
монархија
монархијата
монархот
монаси
монасите
монастир
монах
монахот
монашки
монголија
монголска
монголската
монголски
монголскиот
монголските
монголското
монголците
моне
монета
монетарен
монетарна
монетарната
монетарни
монетарниот
монетарните
монетата
монети
монетите
моника
мониторинг
монк
моно
монографии
монографија
моноксид
монопол
монополи
монпелје
монро
монт
монтажа
монтана
монтгомери
монте
монтевидео
монтела
монтереј
монти
монтреал
монца
мопасан
мор
мора
мораа
мораат
морава
моравија
моравската
морал
морала
морале
морален
морална
моралната
морални
моралниот
моралните
морално
морало
моралот
морам
мораме
мораше
морган
мордахај
море
морено
морепловец
морепловци
морето
мори
морис
морисон
мориц
мориња
морињата
морков
морнар
морнари
морнарите
морнарица
морнарицата
моро
морска
морската
морски
морскиот
морските
морско
морското
мортон
морфи
морфологија
морфологијата
морфолошката
морфолошки
москва
московска
московската
московски
московскиот
московското
мосон
мост
мостар
мостови
мостовите
мостот
мот
мотив
мотивација
мотиви
мотивирани
мотивите
мотивот
мото
мотор
мотори
моторите
моторна
моторни
моторните
моторот
моторс
мотото
мотоцикли
мохамед
моцарт
мочниот
мочуришта
мочуриштата
мочуриште
мочуриштето
моша
мошне
мошти
моштите
мој
моја
мојата
мојот
мојсеевиот
мојсеј
мојсеја
мпц
мравки
мраз
мрази
мразот
мрак
мраморец
мрачен
мрежа
мрежата
мрежен
мрежи
мрежите
мрежна
мрежната
мрежни
мрежниот
мрежните
мрежницата
мрежно
мрежното
мри
мро
мрт
мртва
мртвата
мртви
мртвиот
мртвите
мртво
мртвото
мртов
мс
мсзп
мтв
мтф
му
мува
муви
мугри
мудар
муди
мудриот
мудрост
мудроста
музеи
музеите
музеј
музејот
музејската
музејски
музика
музиката
музичар
музичари
музичарите
музичарка
музичарот
музичка
музичката
музички
музичкиот
музичките
музичко
музичкото
мулти
мултимедијални
мун
муниција
мунк
мур
мурад
мурат
мурињо
мурсија
муса
мускул
мускули
мускулите
мускулна
мускулната
мускулни
муслиман
муслимани
муслиманите
муслиманска
муслиманската
муслимански
муслиманскиот
муслиманските
муслиманско
муслиманското
мусолини
мустак
мустафа
мутации
мутација
муфтиство
мухамед
мфа
мјанмар
мјузик
мјузикл
мјузиклот
н
на
набави
набавка
набавки
набоков
набори
набргу
набрзина
набрзо
набљудува
набљудуваат
набљудувал
набљудувани
набљудуваните
набљудувано
набљудувач
набљудувачи
набљудувачите
набљудувачот
набљудувања
набљудувањата
набљудување
набљудувањето
наваму
навара
навахо
наведат
наведе
наведен
наведена
наведената
наведени
наведените
наведено
наведете
наведува
наведуваат
наведувајк
наведување
навел
навеле
навело
навечер
навивач
навивачи
навивачите
навигациски
навигација
навидум
навика
навики
навистина
навлегла
навлегле
навлегол
навлегува
навлегуваат
навлегување
навлегувањето
навлезат
навлезе
навнатре
навод
наводи
наводите
наводна
наводната
наводни
наводниот
наводно
наводнување
навој
наврак
наврати
навреда
навреди
навреме
навремено
наг
нагасаки
нагетс
нагласена
нагласени
нагласено
нагласи
нагласок
нагласува
нагласуваат
нагласувајк
нагласување
нагло
нагоре
нагоричане
нагорнина
нагорно
награда
наградата
награден
наградена
наградени
награди
наградите
над
нада
надал
надалеку
надарен
надвор
надворешен
надворешна
надворешната
надворешни
надворешниот
надворешните
надворешно
надворешноста
надворешното
надвојводата
надгледува
надгледувал
надгледувачки
надгледување
надградба
надгробна
надгробни
надева
надевал
надевале
надевам
надевајк
надеж
надежда
надежи
надежта
надесно
надзор
надзорник
надзорниот
надзорот
надлежен
надлежниот
надлежните
надлежност
надлежноста
надлежности
надлежностите
надмина
надминал
надминала
надминат
надмината
надмине
надминува
надминуваат
надминувајк
надминување
надмок
надморска
надморската
надоврзува
надолжни
надолу
надомест
надомести
надоместок
надоместоци
надополнува
надополнување
надреализмот
надја
наеднаш
наелектризирани
наелектризираните
назад
назарет
назив
називи
називот
назнака
назначен
назначена
назначени
назначи
назначил
назначува
назначување
назначувањето
наиде
наидува
наизменична
наизменични
наизменично
наиро
наишла
наишле
наишол
накај
накит
накитот
наклон
наклонета
наклонетост
наклонот
накратко
налага
налик
наликува
наликуваат
налог
наложува
нам
намалат
намален
намалена
намалената
намалени
намалено
намали
намалил
намалила
намалиле
намалило
намалува
намалуваат
намалувајк
намалување
намалувањето
намена
намената
наменет
наменета
наменети
наменето
намени
наменски
намера
намерата
намери
намерите
намерно
намесник
намесништво
наместо
наметка
наметнал
наметнат
наметнати
наметне
наметнува
наметнување
намибија
намирници
намотки
нанадвор
наназад
нанапред
нане
нанесе
нанесува
нанесување
нанос
наноси
нансен
нанси
нант
наог
наод
наоди
наодите
наоколу
наоми
наопаку
наосот
напаг
напад
напади
нападите
нападна
нападнал
нападнала
нападнале
нападнат
нападната
нападнати
нападне
нападот
напатствија
напис
написи
написот
напиша
напишав
напишал
напишала
напишале
напишан
напишана
напишани
напишано
напишат
напише
напишете
наплак
наплата
напнатост
напока
наполеон
наполеоновите
наполи
наполни
наполнил
наполно
напомена
напомене
напон
напони
напонот
напор
напоредник
напоредно
напори
напорите
напорно
напојува
напојување
направа
направам
направат
направен
направена
направени
направено
направете
направи
направив
направивме
направил
направила
направиле
направило
направиме
направите
направија
напред
напреден
напредна
напредни
напредните
напредно
напредок
напредокот
напредува
напредуваат
напредувал
напредувала
напредувале
напредување
напредувањето
напротив
напушта
напуштаат
напуштат
напуштање
напуштањето
напуштен
напуштена
напуштени
напуштено
напушти
напуштил
напуштила
напуштиле
напуштило
напуштија
нарачка
нарачки
наредба
наредбата
наредби
наредбите
нареден
наредени
наредено
нареди
наредил
наредила
наредната
наредниот
наредните
наредува
нарекла
нарекле
нарекол
нарекува
нарекуваат
нарекувал
нарекувала
нарекувале
нарекуваме
нарекуван
нарекувана
нарекувани
нарекувајк
наречат
нарече
наречен
наречена
наречени
наречено
наречје
народ
народа
народен
народи
народите
народна
народната
народне
народни
народниот
народните
народних
народно
народноослободителна
народноослободителната
народноослободителното
народносната
народност
народности
народностите
народното
народот
нартекс
нартексот
нарушен
нарушена
наруши
нарушува
нарушуваат
нарушувања
нарушување
нарушувањето
нас
наса
насади
насау
насекаде
населат
населба
населбата
населби
населбите
населен
населена
населени
население
населението
населениетопопис
населените
населено
населеност
насели
населил
населиле
населува
населуваат
населувале
населување
населувањето
насеља
насила
насилен
насилна
насилни
насилно
насилство
насилството
насионал
насип
насипи
наскоро
наслаги
наследен
наследени
наследи
наследил
наследила
наследна
наследни
наследник
наследникот
наследници
наследниците
наследничка
наследство
наследството
наследува
наследување
наследувањето
насликал
насликан
насликана
насликани
насликано
наслов
насловен
насловена
насловено
наслови
насловите
насловна
насловната
насловот
насока
насоката
насоки
насоките
насочен
насочена
насочени
насочено
насоченост
насочи
насочил
насочиле
насочува
насочуваат
насочувач
насочувачи
насочувачите
насочувачки
насочувачот
насочување
наспроти
настава
наставата
наставен
наставка
наставката
наставки
наставките
наставна
наставната
наставни
наставник
наставникот
наставниот
наставните
наставници
наставниците
наставно
настан
настана
настанал
настанала
настанале
настанало
настанат
настанати
настане
настани
настаните
настанокот
настанот
настанува
настануваат
настанување
настанувањето
настап
настапат
настапи
настапил
настапила
настапиле
настапите
настапија
настапот
настапува
настапуваат
настапувал
настапувала
настапувале
настапувано
настапуваше
настапувајк
настојува
настојуваат
настојувал
настрадал
настрадале
настрадало
настрана
настроен
настроени
нат
ната
натали
наталитет
наталија
натамошниот
натамошно
натаму
наташа
натера
натерал
натерале
натерало
нато
натпис
натписи
натписите
натписот
натпревар
натпревари
натпреварите
натпреварот
натпреварува
натпреваруваат
натпреварувал
натпреварувала
натпреварувале
натпреварувач
натпреварувачи
натпреварувачите
натпреварувачка
натпреварувачки
натпреваруваше
натпреварувања
натпреварувањата
натпреварување
натпреварувањето
натприродни
натриум
наука
науката
науки
науките
наум
наумов
наумовски
наумоски
науру
наутро
науч
научат
научен
научи
научил
научила
научиле
научна
научната
научни
научник
научникот
научниот
научните
научници
научниците
научно
научното
нафта
нафтата
нафтена
нафтената
нафтени
нафтените
нахија
нацизмот
нации
нациите
национал
национален
национализам
национализмот
националисти
националистичка
националистички
национална
националната
национални
националниот
националните
национално
националноослободително
националност
националности
националното
нацистите
нацистичка
нацистичката
нацистички
нацистичкиот
нацистичките
нација
нацијата
нацрт
нацртот
началник
началникот
началници
начела
начелата
начело
начелото
начин
начина
начини
начините
начинот
наш
наша
нашата
наше
нашето
наши
нашиот
нашироко
нашите
нашла
нашле
нашло
нашол
наштети
нај
најава
најавен
најавена
најавено
најави
најавил
најавила
најавиле
најавува
најактивните
најблизок
најблиската
најблиски
најблискиот
најблиските
најблиску
најбогатите
најбрз
најбрзо
најбројни
најважен
најважна
најважната
најважни
најважниот
најважните
најважно
најважното
највек
најверојатно
највисок
највисока
највисоката
највисоки
највисокиот
највисоките
највисоко
највисокото
највлијателни
највлијателните
најголем
најголема
најголемата
најголеми
најголемиот
најголемите
најголемо
најголемото
најдат
најде
најдеме
најден
најдена
најдени
најдено
најдете
најдоа
најдобар
најдобра
најдобрата
најдобри
најдобриот
најдобрите
најдобро
најдоброто
најдов
најдолг
најдолга
најдолгата
најдолгиот
најдолгите
најдолго
најдоцна
најефикасен
најефикасни
најзастапен
најзастапени
најзначаен
најзначајна
најзначајната
најзначајни
најзначајниот
најзначајните
најзначајно
најистакнат
најистакнати
најистакнатите
најк
најкорисен
најлесно
најлош
најлошите
најмал
најмала
најмалата
најмали
најмалиот
најмалите
најмалку
најмало
најмалото
најмлад
најмладата
најмладиот
најмладите
најмногу
најмок
најнапред
најнаселен
најниска
најниската
најниските
најниско
најнова
најновата
најновиот
најновите
најпознат
најпозната
најпознатата
најпознати
најпознатиот
најпознатите
најпознато
најпознатото
најпопуларен
најпопуларна
најпопуларни
најпопуларниот
најпопуларните
најпосле
најпрвин
најпрво
најпродаван
најпродавани
најразлични
најраната
најраниот
најраните
најрано
најроби
најсеверната
најсеверниот
најсилен
најсилната
најсилниот
најсилните
најсиромашните
најстар
најстара
најстарата
најстари
најстариот
најстарите
најстаро
најстарото
најт
најтешкиот
најтешките
најтингел
најубавите
најуспешен
најуспешна
најуспешни
најуспешниот
најуспешните
најчест
најчеста
најчестата
најчести
најчестиот
најчестите
најчесто
најшироко
најјужната
најјужниот
најџел
нба
нбрм
нво
ндх
не
неа
неактивен
неактивни
неапол
небесата
небесен
небесна
небесната
небесни
небесниот
небесните
небесно
небо
небото
небојша
невада
неважечки
неверна
неверојатен
неверојатна
неверојатни
неверојатно
невеста
невестата
невидлив
невидливи
невил
невин
невини
невиност
невиноста
невис
невладина
невладини
невладините
невозможна
невозможно
неволја
невообичаен
невообичаена
невообичаени
невообичаено
невработени
невработеност
невработеноста
невреме
неврокоп
неврокопската
невролошки
неврони
невроните
невски
нега
негативен
негативна
негативната
негативни
негативниот
негативните
негативно
негација
негира
негирал
негирање
него
негов
негова
неговата
негови
неговиот
неговите
негово
неговот
неговото
неготин
неготино
негува
негуваат
негуш
негушко
неда
недалеку
недвижен
недвижнини
недвижности
недела
неделата
неделен
недели
неделковски
неделни
неделно
недик
недоверба
недоволна
недоволно
недоразбирања
недоразбирање
недостасува
недостасуваат
недостаток
недостатокот
недостатоци
недостатоците
недостиг
недостигот
нееднаквост
нееднаквоста
нежен
неженети
нежилово
нежна
нежни
нежно
независен
независна
независната
независни
независниот
независните
независно
независност
независноста
незагрозени
незадоволен
незадоволни
незадоволство
незадоволството
незаконски
незначително
неизбежна
неизбежно
неизвесна
неизвесност
неискористена
нек
нека
некаде
некаква
некакви
некакво
некако
некаков
некар
неко
некогаш
некогашен
некогашната
некогашниот
некогашните
некогашното
некого
некое
некои
неколку
неколкумина
неколкупати
неколкуте
некому
некој
некоја
некропола
некрополата
некрополи
нектар
нелегален
нелегална
нелегални
нелегално
нели
нелсон
нем
нема
немаа
немаат
немал
немала
немале
немало
немам
немаме
немаше
немајк
немања
немање
немањето
немањик
немањици
неми
немилост
немир
немири
немирите
неможат
неможност
неможноста
немок
немој
немојте
нему
ненад
ненадеен
ненадејна
ненадејно
ненадовик
ненамерно
ненаселен
ненаселени
ненси
нео
необичен
необична
необични
необично
необјавена
необјавени
неограничен
неограничена
неограничено
неодамна
неодамнешна
неодамнешни
неодамнешните
неодредено
неокласичен
неолит
неолитот
неолитско
неолитското
неопределена
неопределени
неопределено
неопходен
неопходна
неопходни
неопходно
неоргански
неофит
неофицијален
неофицијална
неофицијални
неофицијално
неочекуван
неочекувана
неочекувано
непал
неповолни
неповрзани
непогоди
неподвижен
неподвижни
непознат
непозната
непознати
непознатиот
непознато
непосреден
непосредна
непосредната
непосредни
непосредно
непотребни
непотребно
непочитување
неправда
неправедно
неправилен
неправилна
неправилни
неправилно
неправилности
непрегледан
непрекината
непрекинато
непречено
непречкести
непријател
непријатели
непријателите
непријателот
непријателска
непријателски
непријателските
непријателствата
непријателство
непријатен
непријатни
непријатно
непроменет
непроменета
непроменети
непроменлива
непрофитна
непрофитни
нептун
нерв
нервен
нерви
нервите
нервни
нервниот
нервните
неред
нереди
нерези
неретва
неретко
нерешен
нерешени
нерешениот
нерешено
нерон
нес
несакани
несат
несвесно
несе
несигурност
несовпаг
несогласувања
несогласувањата
несогласување
несомнено
несоница
несоодветна
несоодветни
несоодветно
неспособен
неспособни
неспособност
несрек
нестабилен
нестабилна
нестабилни
нестабилност
нестабилноста
нестор
нестрам
нет
нето
неточни
неточно
нетрпеливост
нетс
нетфликс
неуспеси
неуспех
неуспехот
неуспешен
неуспешна
неуспешната
неуспешни
неуспешниот
неуспешните
неуспешно
неустрија
неутрален
неутрална
неутрални
неутралност
неутрино
неутрон
неутрони
неутроните
неутронски
неформална
неформални
неформално
нецелосен
нецелосна
нечистотии
нечија
неш
нешта
нештата
нешто
неја
нејасен
нејасна
нејасни
нејасно
нејзе
нејзин
нејзина
нејзината
нејзини
нејзиниот
нејзините
нејзино
нејзиното
неџати
ни
нибали
нив
нива
нивата
нивен
ниви
нивите
нивна
нивната
нивни
нивниот
нивните
нивно
нивното
ниво
нивоа
нивоата
нивото
нигер
нигерија
нигритска
нигритската
ние
ниеден
ниедна
ниедно
нижни
низ
низа
низата
низводно
низи
низина
низини
низините
низите
низок
ник
ника
никаде
никаква
никакви
никакво
никако
никаков
никарагва
никел
никелодеон
никеја
ники
никита
никифор
нико
никогаш
никого
никодим
никозија
никол
никола
николаев
николаевич
николаос
николас
николај
николе
николески
николик
николо
николов
николова
николовски
николовци
николоски
николс
николсон
никому
никос
никој
никс
никсон
никта
никулец
никулци
никшик
нил
нилс
нилсен
нилски
нилсон
ним
нимаер
нимфа
нин
нина
нино
ниобиум
ниот
нип
нирвана
нирнберг
ниро
ниса
нисан
ниска
ниската
ниски
нискиот
ниските
ниско
ните
нити
нитрат
ниту
ниусблад
ница
ници
ниче
ниш
ниша
нишата
ниши
нишикори
нишка
нишката
нишки
нишките
ништо
нијанса
нијанси
ниџе
нло
но
ноа
ноб
нобел
нобелова
нобеловата
нобеловци
нов
нова
новак
новаковик
новата
новаци
новгород
новела
новелата
новели
нови
новинар
новинари
новинарите
новинарка
новинарот
новинарски
новинарство
новинарството
новини
новиот
новите
ново
новогодишната
новозеландски
новороденчиња
новороденчињата
новосоздадена
новосоздадената
новости
новото
новоформираната
новоформираниот
новј
нога
ногата
ное
ноември
нож
ножеви
нозе
нозете
нок
нокаут
нокиа
нокти
ноктите
нолан
нолит
номади
номадски
номенклатура
номинална
номиналната
номиналниот
номинално
номинатив
номинации
номинација
номинацијата
номиниран
номинирана
номинирани
номинираниот
нора
норвежаните
норвешка
норвешката
норвешки
норвешкиот
норвешките
норд
нордиска
нордиската
нордиски
нордиските
нордхаузен
норис
норич
норма
нормален
нормална
нормалната
нормални
нормалниот
нормалните
нормално
нормалното
норман
нормандија
норманите
норми
нормите
норт
нос
носат
носач
носачи
носеа
носел
носела
носеле
носело
носен
носени
носечка
носеше
носејк
носење
носењето
носи
носии
носител
носители
носителите
носителка
носителот
носија
носорог
носорози
носот
ност
носта
нота
нотација
ноти
нотингем
нотите
ното
нотрањска
нотрањскиот
ноу
ноулс
ноф
ношпал
ној
нојман
нојхаус
нојштат
нр
нрм
ну
нуб
нудат
нудејк
нуди
нужно
нуклеарен
нуклеарна
нуклеарната
нуклеарни
нуклеарните
нуклеарно
нуклеарното
нуклеони
нуклеотиди
нула
нулата
нулта
нултата
нумери
нур
нуркач
нуркање
нфл
нчов
о
оа
оае
оаза
об
обама
обата
обајцата
обвивка
обвивката
обвивки
обвинение
обвинението
обвиненија
обвиненијата
обвинет
обвинета
обвинети
обвинетиот
обвинетите
обвини
обвинил
обвиниле
обвинител
обвинители
обвинителство
обвинителството
обвинува
обвинуваат
обвинувајк
обвинувања
обвинувањата
обврзан
обврзани
обврзници
обврзниците
обврзува
обврзувачки
обврска
обврската
обврски
обврските
обединат
обединет
обединета
обединетата
обединети
обединетите
обединето
обединетото
обедини
обединил
обединиле
обединува
обединување
обединувањето
обезбедат
обезбеден
обезбедена
обезбедени
обезбедено
обезбеди
обезбедил
обезбедила
обезбедиле
обезбедува
обезбедуваат
обезбедувале
обезбедувајк
обезбедување
обезбедувањето
обележан
обележана
обележани
обележува
обележување
обележја
обележје
обелиск
обем
обемна
обемни
обемот
обесен
обесени
обете
обетки
обид
обидат
обиде
обидел
обидела
обиделе
обиди
обидите
обидоа
обидот
обидува
обидуваат
обидувал
обидувала
обидувале
обидувајк
обиколка
обиколување
обилни
обилно
обичаи
обичаите
обичај
обичајот
обичен
обична
обичната
обични
обичниот
обичните
обично
облак
облакодер
облакодери
облакот
област
областа
области
областите
облаци
облаците
облека
облеката
облеки
облекол
облекување
облечен
облечена
облечени
облешево
облик
обликот
обликува
обликувани
обликување
облици
облиците
обложена
обложени
обложување
обнова
обноват
обновата
обновен
обновена
обновената
обновени
обновено
обнови
обновил
обновиле
обновлива
обновливи
обновува
обновување
обновувањето
обоен
обоена
обоени
обожавател
обожаватели
обожавателите
обожување
обработена
обработени
обработка
обработката
обработливи
обработливо
обработливото
обработува
обработуваат
обработувале
обработувач
обработувачи
обработувачот
обработувањето
обрадовик
обрадовићу
образец
образложение
образован
образовани
образование
образованието
образовен
образовна
образовната
образовни
образовниот
образовните
образува
образуваат
образувал
образувајк
образување
образувањето
обрак
обрасци
обратен
обрати
обратил
обратна
обратно
обрачот
обред
обреди
обрежување
обреновик
обрнува
оброк
оброци
обсе
обувки
обука
обуката
обуки
обучени
објава
објават
објавен
објавена
објавени
објавените
објавено
објави
објавил
објавила
објавиле
објавило
објавија
објавува
објавуваат
објавувал
објавувани
објавувајк
објавување
објавувањето
објаснат
објаснети
објаснето
објасни
објаснил
објаснува
објаснуваат
објаснувајк
објаснувања
објаснување
објаснувањето
објект
објекти
објективна
објективно
објектите
објектот
ов
ова
оваа
овата
овај
овде
овден
овен
оверњ
овес
ови
овидиј
овие
овк
овластен
овластени
овластувања
овластувањата
овластување
ово
овозможат
овозможено
овозможи
овозможил
овозможила
овозможиле
овозможило
овозможува
овозможуваат
овозможувајк
овозможување
овошни
овоштарството
овошја
овошје
овошјето
овој
овојпат
овца
овци
овците
овчар
овчари
овче
оган
огист
оглед
огледала
огледало
огледалото
огнен
огнена
огнени
огнено
огненовски
огниште
огномет
огнот
ограбен
ограбени
ограбиле
ограда
оградата
ограден
огради
огражден
ограничат
ограничен
ограничена
ограничената
ограничени
ограничените
ограничено
ограничи
ограничува
ограничуваат
ограничувања
ограничувањата
ограничување
ограничувањето
огранок
ограноци
огромен
огромна
огромната
огромни
огромниот
огромните
огромно
огромното
од
ода
одам
одамна
оданочување
одат
одаја
одајата
одбележал
одбележан
одбележи
одбележува
одбележување
одбележувањето
одбере
одби
одбива
одбиваат
одбивал
одбивајк
одбивање
одбивањето
одбие
одбиен
одбиена
одбиени
одбиено
одбил
одбила
одбиле
одбира
одбор
одбори
одборот
одбојка
одбојкарска
одбра
одбрал
одбран
одбрана
одбранат
одбраната
одбранбен
одбранбена
одбранбената
одбранбени
одбранбениот
одбранбените
одбрани
одбранил
одвај
одведе
одведен
одвел
одвива
одвиваат
одвивал
одвивала
одвивале
одвивало
одвила
одвнатре
одвоен
одвоена
одвоени
одвоено
одвои
одвоил
одвоиле
одвојува
одвојуваат
одвојување
одврак
одврати
одвреме
одгледува
одгледуваат
одгледувале
одгледувани
одгледување
одгледувањето
одговара
одговараат
одговор
одговорат
одговорен
одговори
одговорил
одговорила
одговориле
одговорите
одговорија
одговорна
одговорни
одговорните
одговорно
одговорност
одговорноста
одговорности
одговорностите
одговорот
оддава
оддаваат
оддавни
оддаде
оддалечен
оддалечена
оддалечени
оддалечените
оддалечено
оддалеченост
оддалеченоста
оддалечи
оддалечува
оддел
одделен
одделена
одделени
одделение
одделението
одделенија
оддели
одделна
одделни
одделните
одделно
одделот
одделува
одделуваат
одделување
одеднаш
одел
одела
оделе
одело
одеса
одеше
одејк
одење
одењето
одзема
одземање
одземе
одземен
одземена
одземени
одземено
оди
одигра
одиграл
одиграла
одиграле
одигран
одиграна
одиграни
одиграно
одиме
одисеј
одисеја
одиш
одлив
одлика
одлики
одликува
одликуваат
одликувал
одликуван
одликувања
одличен
одлична
одличната
одлични
одличните
одлично
одложен
одложена
одложено
одложи
одложување
одлука
одлуката
одлуки
одлуките
одлучат
одлучен
одлучено
одлучи
одлучил
одлучила
одлучиле
одлучија
одлучува
одлучуваат
одлучувачка
одлучувачки
одлучувачкиот
одлучување
одлучувањето
одмазда
одмаздата
одмазди
одмор
одморалишта
одморалиште
одморалиштето
одмори
однадвор
однапред
однекаде
однел
однела
однеле
однесат
однесе
однесен
однесена
однесени
однесува
однесуваат
однесувал
однесувала
однесувале
однесувало
однесувања
однесување
однесувањето
одново
однос
односи
односите
односно
односот
одобрен
одобрена
одобрени
одобрение
одобрено
одобри
одобрил
одобрила
одобрува
одобруваат
одобрување
одобрувањето
одозгора
одоздола
одошто
одра
одраз
одрази
одразува
одразуваат
одред
одредат
одредба
одредбата
одредби
одредбите
одреден
одредена
одредени
одредено
одреди
одредил
одредишта
одредиште
одредот
одредува
одредуваат
одредување
одредувањето
одржа
одржаа
одржал
одржала
одржале
одржало
одржан
одржана
одржани
одржано
одржат
одржи
одржлив
одржлива
одржливи
одржливост
одржливоста
одржува
одржуваат
одржувал
одржувала
одржувале
одржувани
одржувајк
одржување
одржувањето
одри
одрин
одринска
одрински
одринските
одринско
одринското
оецд
оженет
ожени
оженил
оживување
оз
озборн
озирис
ознака
ознаката
ознаки
ознаките
означат
означен
означена
означени
означено
означи
означил
означило
означува
означуваат
означувал
означувајк
означување
озон
озонот
ои
ок
ока
океан
океани
океаните
океанија
океанографија
океанот
океанска
океанската
океански
океанските
окер
окинава
оклахома
окленд
оклоп
оклопни
оклопот
око
оковик
околии
околиите
околина
околината
околиски
околискиот
околиските
околија
околијата
околната
околни
околниот
околните
околности
околностите
околното
околу
окото
округ
округот
окружен
окружни
окружниот
окружните
окрузи
окрузите
оксид
оксидација
оксиди
оксидира
оксфорд
оксфордскиот
октава
октавијан
октомври
октомвриската
окупатор
окупатори
окупаторот
окупаторски
окупаторските
окупациска
окупација
окупацијата
окупира
окупираат
окупирал
окупирала
окупирале
окупиран
окупирана
окупирани
окупираните
окупирано
ол
оланд
олаф
олбрајт
олга
олд
олденбург
оле
олег
олесни
олеснува
олеснување
оливер
оливера
оливие
оливија
олимп
олимпик
олимпико
олимписка
олимписката
олимписки
олимпискиот
олимписките
олимпиското
олимпија
олимпијада
олимпијадата
олимпијади
олимпијакос
олицетворение
олово
олтар
олтарниот
олтарот
ом
омажена
омажи
омажила
оман
омар
омега
омер
омилен
омилена
омилени
омилените
омилено
омлоп
омниум
омо
омотот
омраза
омразата
он
она
онаа
онака
онаму
оневозможи
оневозможува
онегин
они
оние
онлајн
оно
онолку
оноре
оној
онтарио
оон
ооу
оп
опаг
опаднал
опаднала
опаднало
опасен
опасна
опасни
опасно
опасност
опасноста
опасности
опасностите
опатија
опатијата
опачината
опашка
опашката
опашки
опел
опен
опера
операта
оперативен
оперативна
оперативната
оперативни
оперативниот
оперативните
оператор
оператори
операторот
операции
операциите
операција
операцијата
опери
оперира
оперирано
оперска
оперската
оперски
опис
описи
описите
описот
опит
опити
опиум
опиша
опишал
опишала
опишале
опишан
опишана
опишани
опишано
опишат
опише
опишува
опишуваат
опишувајк
опишување
опколен
опколена
опколени
опкружен
опкружена
опкружени
опкружено
опкружува
опкружуваат
опкружување
оплодување
опозиција
опозицијата
ополчение
опорави
опоравил
опоравување
опра
оправда
оправдани
оправдано
оправдува
оправдување
определат
определба
определен
определена
определени
определено
определи
определил
определува
определуваат
определување
определувањето
опрема
опремата
опремен
опремена
опремени
опсада
опсадата
опсади
опсег
опсегот
опседнат
опсези
опсерватории
опсерваторија
опсерваторијата
опслужува
опслужувач
опслужувачи
опслужувачите
опслужувачот
опстанок
опстанокот
опстојува
опстојуваат
оптек
оптика
оптиката
оптимална
оптимално
оптимизам
оптимизација
оптичка
оптичката
оптички
оптичкиот
оптичките
оптичко
оптоварување
опус
опфак
опфат
опфатен
опфатена
опфатени
опфатено
опфати
опции
опциите
опција
опцијата
опширно
општ
општа
општата
општества
општествата
општествен
општествена
општествената
општествени
општествениот
општествените
општествено
општественото
општество
општеството
општење
општи
општина
општината
општини
општините
општинска
општинската
општински
општинскиот
општинските
општинско
општинското
општиот
општите
општо
општото
опълчение
ор
ора
орална
орање
орбита
орбитален
орбитали
орбитална
орбиталната
орбитални
орбиталниот
орбиталните
орбитата
орбити
орбитира
орбитираат
орбитите
орвел
орг
орган
органели
органи
организам
организатор
организатори
организаторите
организаторот
организации
организациите
организациона
организациска
организациската
организациски
организациските
организация
организација
организацијата
организира
организираат
организирал
организирала
организирале
организиран
организирана
организирани
организираниот
организирано
организирање
организирањето
организми
организмите
организмот
органист
органите
органот
органска
органската
органски
органските
органско
орге
орги
оргија
оргули
орда
ордан
орден
ордени
орденот
оре
орев
ореви
орегон
орел
орелот
ореше
оригинал
оригинален
оригинална
оригиналната
оригинални
оригиналниот
оригиналните
оригинално
оригиналното
оригиналот
ориент
ориентални
ориентација
ориентацијата
ориентиран
ориентирана
ориентирани
ориз
оризари
оризот
оринџ
орион
орк
оркестар
оркестарот
оркестри
орла
орландо
орланци
орлеан
орлеанс
орли
орман
орнаменти
оро
оровник
ортовиот
орудија
оружја
оружје
оружјето
орфеј
орхан
орце
орче
ос
оса
осака
осамен
осамени
осаменост
осамостојување
осамостојувањето
освежување
освен
осветен
осветена
осветлена
осветлување
осветлувањето
осветување
осветувањето
освободителните
освоен
освоена
освоени
освоените
освоено
освои
освоил
освоила
освоиле
освоија
освојат
освојува
освојуваат
освојувач
освојувачи
освојувачот
освојувајк
освојувања
освојувањата
освојување
освојувањето
осврнува
осврт
осеката
осетија
осетливи
осетливост
оси
осигура
осигурување
осигурувањето
осиек
осип
оска
оскар
оскари
оската
оски
оските
осло
ослободат
ослободен
ослободена
ослободени
ослободено
ослободи
ослободил
ослободила
ослободиле
ослободителна
ослободителната
ослободително
ослободителното
ослободува
ослободуваат
ослободувајк
ослободување
ослободувањето
осломеј
осма
осман
османлиите
османлиска
османлиската
османлиски
османлискиот
османлиските
османлиско
османлиското
осмата
осми
осмина
осминафинале
осминафиналето
осмиот
осмо
осмото
оснабрик
основ
основа
основаат
основал
основала
основале
основан
основана
основани
основано
основата
основач
основачи
основачите
основачки
основачот
основање
основањето
основен
основи
основите
основна
основната
основни
основниот
основните
основно
основното
основоположник
особен
особена
особени
особено
особеност
особености
особина
особини
особините
осогово
осоговски
осоговските
осомничен
осомничени
осој
оспорува
оспорување
остава
оставаат
остават
оставајк
оставање
оставен
оставена
оставени
оставено
остави
оставил
оставила
оставиле
оставило
оставка
оставката
остана
останаа
останал
останала
останале
останало
останат
останатата
останати
останатиот
останатите
останато
останатото
остане
останки
останува
остануваат
останувајк
остар
остаток
остатокот
остатоци
остатоците
остварат
остварен
остварена
остварени
остварено
оствари
остварил
остварила
оствариле
остварува
остваруваат
остварувајк
остварувања
остварување
остварувањето
остен
остин
остра
остри
остро
остров
острови
островите
острово
островот
островска
островската
островски
островче
островчиња
острогорски
осуда
осуден
осудена
осудени
осуди
осудил
осудиле
осудува
осум
осумаголна
осумгодишно
осумдесет
осумдесеттите
осумнаесет
осумте
осцилации
от
отава
отвор
отвора
отвораат
отворат
отворајк
отворања
отворање
отворањето
отворен
отворена
отворената
отворени
отворениот
отворените
отворено
отвореност
отвореното
отвори
отворил
отворила
отвориле
отворило
отворите
отворија
отворот
отежнато
отежнува
отело
отец
отецот
оти
отиде
отидоа
отишла
отишле
отишол
откажа
откажал
откажала
откажале
откажан
откажана
откажани
откажат
откаже
откажува
откажување
откажувањето
отказ
откако
откога
отколку
откопани
откри
открива
откриваат
откривач
откривајк
откривање
откривањето
открие
откриен
откриена
откриени
откриените
откриено
открил
открила
откриле
открило
откритие
откритието
откритија
откритијата
открија
откријат
откровение
откуп
откупи
откупил
ото
оток
отоманска
отоманската
отомански
отоманскиот
отоманските
отоманско
отоманското
отоманци
отоманците
отон
отпаг
отпад
отпаднал
отпадни
отпадот
отпадоци
отпатува
отпатувал
отпечатена
отпечаток
отпечатоци
отплата
отпор
отпорен
отпорни
отпорност
отпорноста
отпорот
отпрвин
отприлика
отпуштање
отпуштен
отпушти
отров
отровен
отрови
отровни
отровот
отруен
отсек
отсекогаш
отсекот
отсликува
отсликуваат
отстапи
отстапил
отстапки
отстапува
отстапувања
отстапување
отсто
отстранат
отстранет
отстранета
отстранети
отстрани
отстранил
отстранува
отстрануваат
отстранување
отстранувањето
отсуство
отсуството
отсуствува
отсутен
оттаму
оттогаш
оттука
отуг
отука
отфрла
отфрлаат
отфрлање
отфрлен
отфрлена
отфрлени
отфрли
отфрлил
отфрлиле
отцепување
отци
оу
оф
офанзива
офанзивата
офанзивен
офицер
офицери
офицерите
офицерот
официјален
официјална
официјалната
официјални
официјалниот
официјалните
официјално
официјалното
офк
офл
оформен
оформи
оформил
оформување
офот
ох
охајо
охрабри
охрабрува
охрабрување
охрид
охридска
охридската
охридски
охридскиот
охридско
охридското
оцена
оценет
оценети
оцени
оценил
оценка
оценката
оценки
оценува
оценуваат
оценување
оценувањето
очај
очекува
очекуваат
очекувал
очекувале
очекувало
очекувана
очекуваната
очекуваниот
очекуваните
очекувано
очекуваното
очекуваше
очекувајк
очекувања
очекувањата
очекување
очерки
очеркъ
очи
очигледен
очигледна
очигледни
очигледно
очила
очите
ошо
оштетен
оштетена
оштетени
оштети
оштетувања
оштетување
оштетувањето
ој
ојлер
оџаци
п
па
пабло
павел
павик
павилјон
павилјонот
павле
павлов
павловик
павловски
паг
пагански
паганските
пад
падеж
падежи
падина
падината
падини
падините
падна
паднал
паднала
паднале
паднало
паднат
паднатите
падне
падова
падови
падот
пазар
пазарен
пазари
пазарите
пазарна
пазарната
пазарни
пазарниот
пазарните
пазарно
пазарот
пазувите
пак
пакет
пакети
пакетите
пакетот
пакистан
пакт
пактот
пакување
пал
палада
паладиум
паланка
палас
палат
палата
палатата
палати
палау
палацо
палеолит
палеолог
палеонтолог
палеонтологија
палермо
палестина
палестинската
палестински
палестинскиот
палестинските
палета
палец
палецот
палење
палењето
пали
палка
палма
палмер
палми
паломар
паломарската
палубата
паметен
паметни
памук
памукот
пан
панаг
панама
панатинаикос
панда
пандан
панде
пандев
пандемијата
пандо
пане
панел
панели
паника
паница
панк
панкот
панкреасот
панов
панонија
панонската
панорама
панорамски
панталони
пантелејмон
пантеон
панче
панчево
панчо
паок
паоло
папа
папагал
папагали
папандреу
папата
папи
папирус
папрадиште
папска
папската
папски
папскиот
папството
папуа
пар
пара
парабола
парагвај
парада
парадата
парадигма
парадокс
паразити
паразитски
параклис
параклисот
паралакса
паралела
паралелен
паралелки
паралелна
паралелни
паралелно
парализа
параметар
параметарот
параметри
параметрите
парана
парат
парајанов
пареа
пареата
парен
парење
парењето
пари
париз
парис
париската
париски
парискиот
парите
паричен
паричка
парична
паричната
парични
паричните
парк
паркер
паркинг
паркови
парковите
паркот
парламент
парламентарна
парламентарната
парламентарни
парламентарните
парламентот
парма
парна
парни
парови
паровите
пародија
парот
парохии
парохиска
парохиски
парохија
парохијата
парсеци
парсонс
партениј
партизан
партизани
партизаните
партизанска
партизански
партизанскиот
партизанските
партии
партиите
партиска
партиската
партиски
партиските
партицип
партија
партијата
партнер
партнери
партнерите
партнерот
партнерства
партнерство
партнерството
парфем
парфеми
парфемот
пархим
парцели
парче
парчиња
пас
пасење
пасивен
пасивна
пасивни
пасивно
пасишта
пасиштата
паскал
пасош
пасоши
паста
пастернак
пастрмка
пасус
пасуси
пасха
пат
патека
патеката
патеки
патеките
патем
патен
патент
патенти
пати
патики
патишта
патиштата
патка
патки
патлиџан
патна
патната
патни
патник
патникот
патниот
патници
патниците
патнички
патогени
патоказ
патологија
патот
патрик
патриоти
патриотизам
патриотска
патриотски
патријарси
патријарх
патријархот
патријаршисти
патријаршија
патријаршијата
патрола
патрон
патува
патуваат
патувал
патувала
патувале
патувачки
патувајк
патувања
патувањата
патување
патувањето
пауел
пауза
паузата
паузи
паул
паула
паули
пауло
паун
паунд
пациент
пациенти
пациентите
пациентот
пацифик
пацификот
пачино
паша
пашалак
пашата
паши
пашик
пајажина
пајак
пајаци
пајонија
пајтон
пгп
пе
пеат
пегаз
пеги
педагог
педагогија
педагози
педагошка
педагошки
педесет
педесеттите
педро
пее
пеел
пеела
пееле
пееше
пеејк
пеење
пеењето
пек
пекинг
пекол
пеколот
пела
пелагониска
пелагониската
пелагонија
пеле
пеликан
пелистер
пелопонез
пен
пена
пенал
пенали
пензионира
пензионирал
пензиониран
пензионирање
пензионирањето
пензиски
пензиско
пензија
пени
пенис
пенисот
пеницилин
пенсилванија
пенџаб
пепел
пепелашка
пепелиште
пепелта
пеперуга
пеперугата
пеперуги
пеперутка
пеперутката
пеперутки
пепи
пер
пердика
пердуви
пердувите
пере
перез
перење
пери
периметарот
период
периода
периоди
периодите
периодична
периодични
периодично
периодниот
периодот
периферија
периферијата
перихел
перки
перл
перм
перо
перон
персефона
персеј
перси
персиска
персиската
персиски
персискиот
персиските
персиско
персија
персијците
персон
персонал
персоналот
перспектива
перспективата
перспективи
перт
перу
перун
перуџа
перформанс
перформанси
перформансите
перцепција
перцепцијата
перје
песама
пескара
песме
песна
песната
песни
песните
песок
песокот
песочен
песочна
песочни
песочник
пестициди
пет
петар
петгодишен
петел
петер
петербург
петербуршката
петефи
пети
петиција
петка
петко
петков
петковик
петковски
петковци
петмина
петнаесет
петнаесеттиот
петок
петорка
петра
петрарка
петре
петревски
петревци
петрески
петрич
петричко
петров
петрова
петровац
петровец
петровик
петрович
петрово
петровски
петроград
петрушевски
петта
петтата
петте
петти
петтина
петтиот
петто
петтото
пехар
пехчево
пеце
печалба
печалбари
печат
печатен
печатена
печатени
печатење
печатењето
печати
печатница
печатницата
печатот
пече
печени
печење
печка
печки
печурка
печурката
печурки
пеш
пешадиска
пешадиски
пешадија
пешадијата
пешак
пешакот
пешаци
пешаците
пешачење
пешачка
пешачки
пешкопеја
пешта
пештани
пештера
пештерата
пештери
пештерите
пештерски
пејач
пејачи
пејачите
пејачка
пејачката
пејачки
пејачот
пејзаж
пејзажи
пејзажот
пејл
пејо
пејсерс
пејчиновик
пејџ
пи
пива
пиварница
пиво
пивото
пигмент
пигменти
пие
пиемонт
пиење
пиењето
пиза
пизаро
пик
пикасо
пиксели
пилат
пиле
пилешко
пилиња
пилињата
пилот
пилоти
пилотот
пинг
пингвин
пингвини
пинеберг
пинк
пино
пиноче
пинјин
пинџур
пионер
пионери
пионерите
пионерски
пипер
пиперка
пиперки
пипин
пир
пирамида
пирамидата
пирамиди
пирамидите
пирати
пиратите
пиратски
пирес
пирин
пиринеите
пиринејскиот
пиринска
пирински
пиринскиот
пирокластични
пирот
пирс
пирсон
писаро
писател
писатели
писателите
писателка
писателката
писателот
писма
писмата
писмен
писмена
писмени
писмено
писменост
писменоста
писмо
писмото
писта
пистата
пистолс
пистонс
пит
пита
питер
питерс
пити
питон
питоси
питсбург
питу
пица
пишал
пишан
пишана
пишани
пишаниот
пишаните
пиштол
пиштоли
пиштолот
пишува
пишуваат
пишувал
пишувала
пишувале
пишувало
пишувам
пишуван
пишувани
пишуваше
пишувајк
пишување
пишувањето
пиј
пијаже
пијалак
пијалаци
пијалоци
пијан
пијана
пијанец
пијанист
пијанистот
пијано
пијаното
пијат
пкс
пладне
плажа
плажата
плажи
плажите
плаза
плазма
плазмата
плак
плакета
пламен
пламенот
план
планета
планетарен
планетарна
планетарни
планетарните
планетата
планети
планетите
планина
планинарење
планинарски
планинарскиот
планината
планини
планините
планинска
планинската
планински
планинскиот
планинските
планинско
планира
планираат
планирал
планирала
планирале
планиран
планирана
планираната
планирани
планираниот
планираните
планирано
планираното
планирање
планирањето
планк
планковата
планови
плановите
планот
плант
плантажи
пласира
пласираат
пласирал
пласирала
пласирале
пласиран
пласираше
пласман
пласмани
пласманот
пласница
пластика
пластична
пластични
плат
плата
платат
платата
платен
платена
платени
платеници
плати
платил
платина
платите
платна
платниот
платно
платното
плато
платон
платото
платформа
платформата
платформи
плацебо
плаче
плачковица
плачот
плашат
плашел
плашеле
плашејк
плаши
плашт
плаштот
племе
племенски
племето
племиња
племињата
плен
пленот
плесецк
плетвар
плетење
плеј
плејмејкер
плејоф
плејофот
плејстејшн
пли
плива
пливаат
пливач
пливачи
пливачка
пливачки
пливање
плима
плимата
плими
плимни
плимните
плиниј
плитка
плитки
пловат
пловдив
пловел
пловеле
плови
пловидба
пловила
пловна
пловни
плод
плоден
плодна
плодната
плодни
плодните
плодно
плодност
плодноста
плодови
плодовите
плодот
плоча
плочата
плочи
плочите
плочка
плочки
плоштад
плоштади
плоштадот
плоштина
плоштината
плус
плутарх
плутон
плутониум
пмф
пневмонија
по
поаг
поаро
поату
поатје
побавно
побара
побараат
побарал
побарала
побарале
побарано
побарува
побарувачка
побарувачката
побарувања
побарувањата
побарување
побегнал
побегнала
побегнале
побегнат
побегне
победа
победат
победата
победи
победил
победила
победиле
победите
победија
победник
победникот
победници
победниците
победничка
победничката
победнички
победничкиот
победоносец
победува
победувајк
поблизок
поблизу
поблиски
поблиску
побогатите
побожен
поборник
побрз
побрза
побрзи
побрзо
побројни
побуна
побунил
побуниле
поважна
поважни
поважните
поважно
повардарската
поведе
поведение
повез
повек
повел
повелба
повелбата
поверојатно
повик
повика
повикал
повикала
повикале
повикан
повикана
повикани
повикот
повикува
повикуваат
повикувајк
повикување
повисок
повисока
повисоката
повисоки
повисокиот
повисоките
повисоко
повици
повлекла
повлекле
повлекол
повлекува
повлекуваат
повлекување
повлекувањето
повлечат
повлече
повлечен
повлечена
повлечени
повод
повоена
повоената
повоениот
поволен
поволна
поволни
поволно
поворка
поворката
поврак
повратен
поврати
повратил
повратна
повратни
повреда
повредата
повреден
повредени
повредениот
повреди
повредил
повредите
повремени
повремено
поврзал
поврзан
поврзана
поврзани
поврзаните
поврзано
поврзаност
поврзаноста
поврзат
поврзе
поврзува
поврзуваат
поврзувал
поврзувале
поврзуван
поврзувајк
поврзување
поврзувањето
површина
површината
површини
површините
површинска
површинската
површински
површинскиот
површинските
повторен
повтори
повторил
повторливи
повторна
повторно
повторното
повторува
повторуваат
повторувања
повторување
погба
погл
поглавар
поглаварот
поглавја
поглавје
поглавјето
поглед
погледајте
погледи
погледите
погледне
погледнете
погледни
погледот
поговор
поговорки
погоден
погодена
погодени
погоди
погодил
погодила
погодна
погодни
погодно
погодок
погодоци
погодува
поголем
поголема
поголемата
поголеми
поголемиот
поголемите
поголемо
поголемото
погон
погони
погоре
погранични
пограничните
погреб
погребан
погребана
погребани
погреби
погребни
погребот
погребување
погрешен
погрешна
погрешни
погрешно
погубен
погубени
погубувања
погубување
погубувањето
под
подалеку
подалечно
поданици
подареш
подари
подарил
подарок
подароци
податок
податокот
податотека
податотеката
податотеки
податотеките
податоци
податоците
податочна
податочни
подвиг
подвид
подвида
подвидови
подвидот
подвижен
подвижна
подвижни
подвижност
подвижноста
подвизи
подвис
подводни
подгорица
подготват
подготвен
подготвена
подготвени
подготвено
подготвеност
подготви
подготвил
подготвува
подготвуваат
подготвувал
подготвувале
подготвување
подготовка
подготовката
подготовки
подготовките
подгрупа
подгрупата
подгрупи
поддржа
поддржал
поддржала
поддржале
поддржан
поддржана
поддржани
поддржано
поддржат
поддржи
поддржува
поддржуваат
поддржувал
поддржувала
поддржувале
поддржувач
поддржувачи
поддржувачите
поддржувајк
поддршка
поддршката
подединица
подединици
подеднакво
поделат
поделба
поделбата
поделби
поделен
поделена
поделени
поделено
подели
поделил
поделила
поделиле
подем
подемот
подетално
подземен
подземна
подземната
подземни
подземниот
подземните
подземјето
подигање
подигањето
подигнал
подигнале
подигнат
подигната
подигнати
подигнато
подигне
подигнување
подиум
подиумот
подлабоко
подлежат
подлежи
подлога
подлогата
подлоги
подложен
подложени
подложни
подмет
подмножество
подморница
подморници
подмочани
поднел
поднела
поднеле
поднесат
поднесе
поднесени
поднесува
поднесуваат
поднесување
подножје
подножјето
подобар
подобра
подобрат
подобрен
подобрена
подобрени
подобри
подобрил
подобрила
подобриле
подобро
подобрува
подобруваат
подобрувања
подобрување
подобрувањето
подови
подолг
подолга
подолги
подолго
подолу
подот
подоцна
подоцнежен
подоцнежна
подоцнежната
подоцнежни
подоцнежниот
подоцнежните
подоцнежното
подразбира
подразбираат
подрачни
подрачно
подрачното
подрачја
подрачјата
подрачје
подрачјето
подреден
подредена
подредени
подржи
подружница
подрум
подрумот
поевтини
поединец
поединецот
поединечен
поединечна
поединечната
поединечни
поединечниот
поединечните
поединечно
поедини
поединци
поединците
поедноставен
поезија
поезијата
поема
поемата
поеми
поен
поени
поет
поетеса
поети
поетика
поетите
поетот
поетска
поетската
поетски
поетскиот
поетските
поетско
поефикасно
пожар
пожаране
пожаревац
пожари
пожарите
пожарот
пожега
пожелно
позади
позадина
позадината
позајмен
позајмени
позајми
позајмил
позајмица
позајмува
позајмуваат
позајмување
поздрав
поздрави
позитивен
позитивна
позитивната
позитивни
позитивниот
позитивните
позитивно
позиции
позициите
позиционирање
позиција
позицијата
познава
познаваат
познавал
познавале
познавате
познавања
познавање
познавањето
познат
позната
познатата
познати
познатиот
познатите
познато
познатото
позначаен
позначајни
позначајните
познањ
поим
поими
поимите
поимот
поинаква
поинакви
поинакво
поинаков
поинаку
поинт
поистоветува
покажа
покажаа
покажал
покажала
покажале
покажало
покажано
покажат
покаже
покажува
покажуваат
покажувал
покажувале
покажувајк
покажување
показател
показатели
показателот
покана
поканата
поканет
поканета
поканети
покани
поканил
покачување
покајание
поклонение
поклопува
поколение
поконкретно
покори
покојникот
покојниот
покраина
покраината
покраини
покраините
покраински
покраинскиот
пократка
пократки
пократко
пократок
покрај
покренал
покрив
покрива
покриваат
покривајк
покривање
покриви
покривка
покривни
покривот
покрие
покриен
покриена
покриени
покриено
покриеност
покријат
покровител
покровителство
пол
пола
полагаат
поларен
поларизација
поларизацијата
поларис
поларна
поларната
поларни
поларните
поле
полека
полен
полесен
полесна
полесни
полесно
полето
полжави
полза
поли
полимери
полинезиски
полинезија
полиси
политбирото
политика
политиката
политики
политиките
политичар
политичари
политичарите
политичарка
политичка
политичката
политички
политичкиот
политичките
политичко
политичкото
полицаец
полицаецот
полицајци
полицајците
полициска
полициската
полициски
полицискиот
полициските
полиција
полицијата
полиња
полињата
полк
полковник
полковникот
полкот
полн
полна
полнат
полнеж
полнежи
полнежите
полнежот
полнети
полнење
полни
полно
полнок
поло
полов
полова
половата
полови
половина
половината
половиот
половите
полово
полог
положба
положбата
положбениот
положби
положи
положил
полот
полошката
полошко
полошо
полска
полската
полски
полскиот
полските
полско
полското
полу
полубрат
полувреме
полувремето
полуживот
полукружна
полукружни
полумесечина
полуоска
полуостров
полуострови
полуостровот
полупречник
полупречникот
полупречници
полусезона
полусестра
полутопка
полуфинале
полуфиналето
полуфиналиња
полјана
полјаци
полјаците
полјоделска
полјоделско
пом
помага
помагаат
помагал
помагала
помагале
помагајк
помагање
помал
помала
помалата
помали
помалиот
помалите
помалку
помало
помаци
помбо
помег
померанија
поместени
помести
поместува
поместувања
поместување
поместувањето
помина
поминаа
поминал
поминала
поминале
поминало
поминат
поминати
поминато
помине
поминува
поминуваат
поминувал
поминувала
поминувале
поминувајк
поминување
помири
помирување
помлад
помлада
помладата
помлади
помладиот
помладите
помогна
помогнаа
помогнал
помогнала
помогнале
помогнало
помогнат
помогне
помогнете
помок
поморска
поморската
поморски
поморскиот
поморските
поморско
поморското
помош
помошен
помошна
помошни
помошник
помошникот
помошниот
помошници
помошта
помпеј
помпеја
помурскиот
понапред
понатака
понатамошен
понатамошна
понатамошната
понатамошни
понатамошниот
понатамошните
понатамошно
понатамошното
понатаму
понг
понд
пондер
понеделник
понекогаш
понизок
пониска
пониската
пониски
пониските
пониско
поништен
поништи
поништување
понов
понова
поновата
понови
поновите
поново
понт
понуда
понудат
понудата
понуден
понудена
понудени
понудено
понуди
понудил
понудила
понудиле
поп
попа
попис
пописи
пописите
пописни
пописот
попишани
попишано
поплава
поплавата
поплави
поплавите
попладне
поплаки
попов
попова
поповик
поповска
поповски
поповци
попознат
попозната
попознати
попознатите
пополни
пополнување
попоски
попот
поправат
поправени
поправи
поправка
поправки
попрецизно
попречен
попреченост
попречува
популарен
популарна
популарната
популарни
популарниот
популарните
популарно
популарност
популарноста
популарното
популации
популациите
популација
популацијата
пор
пораг
поради
пораз
поразен
поразена
поразени
порази
поразил
поразила
поразиле
поразот
поразува
поразуваат
поразувајк
порака
пораката
пораки
пораките
порамнување
поранешен
поранешна
поранешната
поранешни
поранешниот
поранешните
поранешно
поранешното
порано
порасна
пораснал
пораснала
пораснале
пораснало
пораснат
порасне
пораст
порастот
поредок
пореметувања
пореметување
поретки
поретко
порече
поречието
поречки
поречкото
пори
порнографија
породување
породувањето
порој
порт
порта
портал
портали
порталот
портата
портер
порти
портите
портланд
порто
портокал
портокали
портокалов
портокалова
портокалови
портокалово
порторико
портпарол
портпаролот
портрет
портрети
портретите
портретот
портсмут
португалија
португалска
португалската
португалски
португалскиот
португалските
португалците
портфолио
портфолиото
поручник
поручникот
порфирогенит
порцелан
посавскиот
посака
посакал
посакува
посакуваниот
посветен
посветена
посветени
посветено
посветеност
посветеноста
посвети
посветил
посветила
посветла
посветли
посветува
посвојување
посвојувањето
посебен
посебна
посебната
посебни
посебниот
посебните
посебно
посед
поседи
поседува
поседуваат
поседувал
поседувала
поседувале
поседување
посета
посетат
посетата
посетен
посетена
посетени
посетено
посетеност
посети
посетивме
посетил
посетила
посетиле
посетите
посетител
посетители
посетителите
посетува
посетуваат
посетувал
посетувала
посетувале
посетувајк
посејдон
посилен
посилна
посилни
посилно
поскоро
послаб
послаба
послаби
послабо
послание
посланието
посланија
после
последен
последица
последици
последиците
последна
последната
последни
последниве
последниот
последните
последно
последното
последователен
последователна
последователната
последователни
последователните
последователно
посложена
посложени
послужат
послужи
послушност
посмртни
посмртните
посмртно
посочи
посочил
посочува
посочуваат
посредник
посредници
посредство
посредување
пост
постава
постават
поставање
поставен
поставена
поставени
поставените
поставено
поставеност
постави
поставил
поставила
поставиле
поставија
поставка
поставки
поставува
поставуваат
поставувани
поставувајк
поставување
поставувањето
постапка
постапката
постапки
постапките
постапува
постапување
постар
постара
постарата
постари
постариот
постарите
постаро
постдипломски
постдипломските
постела
постепено
постепеното
постер
постери
пости
постигна
постигнаа
постигнал
постигнала
постигнале
постигнат
постигната
постигнати
постигнато
постигне
постигнува
постигнуваат
постигнувал
постигнувајк
постигнувања
постигнување
постигнувањето
постмодернизам
постмодернизмот
постоел
постоела
постоеле
постоело
постоечка
постоечката
постоечки
постоечкиот
постоечките
постоеше
постоење
постоењето
постои
постол
постот
постојан
постојана
постојаната
постојани
постојаниот
постојаните
постојано
постојаното
постојат
постојната
постојниот
постојните
постројки
пот
потврда
потврдат
потврден
потврдена
потврдени
потврдено
потврди
потврдил
потврдила
потврдиле
потврдија
потврдува
потврдуваат
потврдување
потег
потегот
потежок
потези
потезите
потекло
потеклото
потекнува
потекнуваат
потекнувал
потекнувала
потекнувале
потемкин
потемна
потемни
потенцира
потенцијал
потенцијален
потенцијали
потенцијална
потенцијалната
потенцијални
потенцијалниот
потенцијалните
потенцијално
потенцијалот
потер
потера
потесна
потешка
потешки
потешките
потешко
потешкотии
потиснат
потиснати
потиснување
поткласа
потковица
потконтинент
поткрепа
потоа
поток
потокот
потомок
потомство
потомството
потомци
потомците
потопени
потопла
потопување
потоци
потоците
поточно
потпаг
потпаднал
потпаднала
потпаднале
потпаднало
потпира
потпираат
потпирал
потпирајк
потпис
потписи
потписник
потписот
потпиша
потпишаа
потпишал
потпишала
потпишале
потпишан
потпишана
потпишани
потпишано
потпишат
потпише
потпишува
потпишуваат
потпишувајк
потпишување
потпишувањето
потполковник
потполна
потполно
потполност
потпомогнати
потпора
потпретседател
потпретседатели
потпретседателот
потрага
потрагата
потреба
потребата
потребен
потреби
потребите
потребна
потребната
потребни
потребниот
потребните
потребно
потребното
потреси
потрошени
потроши
потрошил
потрошувачи
потрошувачите
потрошувачка
потрошувачката
потрошувачки
потрошувачот
потсахарска
потсдам
потсемејство
потсетува
потсетуваат
поттик
поттикна
поттикнал
поттикнале
поттикнало
поттикнат
поттикната
поттикнати
поттикне
поттикнува
поттикнуваат
поттикнување
потфат
потфати
потфатот
потчинети
потчини
поуп
пофалба
пофалби
пофален
пофали
пофалил
поход
походи
походот
поч
почва
почвата
почви
почвите
почека
почесен
почесна
почесни
почесно
почест
почеста
почести
почесто
почетен
почетна
почетната
почетни
почетниот
почетните
почетно
почетното
почеток
почетокот
почетоци
почетоците
почина
починал
починала
починале
починат
починати
починатиот
починатите
почит
почитува
почитуваат
почитувал
почитувале
почитуван
почитувана
почитувани
почитување
почитувањето
почна
почнаа
почнал
почнала
почнале
почнало
почнат
почне
почнува
почнуваат
почнувајк
почувствува
почувствувал
поширок
поширока
пошироката
пошироки
поширокиот
пошироко
поширокото
пошта
поштата
поштенска
поштенски
појава
појават
појавата
појавено
појави
појавил
појавила
појавиле
појавило
појавите
појавија
појавува
појавуваат
појавувал
појавувале
појавувајк
појавувања
појавување
појавувањето
појадок
појас
појаси
појаснување
појасот
појде
појдовен
појдовна
поље
пр
пра
прав
права
правам
прават
правата
правда
правдата
правеа
праведен
праведна
праведниот
праведно
праведност
праведноста
правел
правела
правеле
правело
правен
правени
правец
правецот
правеше
правејк
правење
правењето
прави
правила
правилата
правилен
правилна
правилната
правилни
правилник
правилникот
правилно
правилното
правило
правилото
правиме
правите
правиш
правна
правната
правни
правник
правниот
правните
правници
правно
правното
право
правоаголен
правоаголна
правоаголни
правоаголник
правобранител
правопис
правописни
правописот
православен
православие
православието
православна
православната
православни
православниот
православните
православно
православното
правото
правци
праг
прага
прагот
прада
прадедо
прадеш
праз
празен
празна
празнење
празни
празник
празникот
празнина
празнината
празнини
празници
празниците
празно
празнува
праисториска
праисториски
праисторија
праисторијата
прак
пракса
праксата
практика
практиката
практики
практиките
практикува
практикуваат
практикувале
практичен
практична
практичната
практични
практично
пратен
пратени
пратеник
пратеникот
пратеници
пратениците
пратенички
прати
пратил
прачка
прачки
праша
прашал
прашале
прашалник
прашања
прашањата
прашање
прашањето
прашина
прашината
прашува
прајс
прв
прва
првак
првата
прваци
првенец
првенства
првенствата
првенствен
првенствени
првенствено
првенство
првенството
првенци
први
првин
првиот
првите
првичен
првична
првичната
првични
првичниот
првичните
првично
првичното
прво
првобитна
првобитната
првобитниот
првобитните
првобитно
прволигаш
првостепени
првотимец
првото
првпат
пре
пребарувач
пребарувачи
пребарување
пребарувањето
пребегнувањето
преведе
преведен
преведена
преведени
преведено
преведува
преведуваат
преведувач
преведувачи
преведувачка
преведување
превез
превел
превенција
превирања
превласт
превод
преводи
преводот
превоз
превозот
превои
превој
превојот
преврат
преглед
прегледи
прегледот
прегледувач
преговара
преговарал
преговори
преговорите
преголема
преграда
пред
предава
предаваат
предавал
предавала
предавале
предавач
предавања
предавањата
предавање
предавањето
предавник
предавство
предавството
предадат
предаде
предаден
предадена
предадени
предал
предала
предале
предание
преданието
преданија
преданијата
предвесник
предвид
предвидат
предвидел
предвиден
предвидена
предвидени
предвидениот
предвидените
предвидено
предвиденото
предвиди
предвидува
предвидуваат
предвидувал
предвидувања
предвидувањата
предвидување
предвидувањето
предводел
предводен
предводена
предводени
предводено
предводеше
предводи
предводник
предводникот
предвреме
предвремено
предговор
предговорот
предградие
предградието
предградија
предградијата
предел
предели
пределите
пределот
преден
предизвик
предизвика
предизвикаа
предизвикаат
предизвикал
предизвикала
предизвикале
предизвикало
предизвикан
предизвикана
предизвикани
предизвикано
предизвикот
предизвикува
предизвикуваат
предизвикувајк
предизвикување
предизвици
предизвиците
предлага
предлагаат
предлагам
предлог
предлогот
предложен
предложена
предложената
предложени
предложениот
предложените
предложено
предложи
предложил
предложила
предложиле
предложува
предлози
предлозите
предлошка
предлошкава
предлошката
предлошки
предлошките
предмет
предмети
предметите
предметот
предна
предната
предни
предниот
предните
предност
предноста
предности
предностите
предок
предокот
предраг
предрасуди
предупреди
предупредил
предупредува
предупредувања
предупредување
предуслов
предци
предците
преживеал
преживеала
преживеале
преживеан
преживеани
преживеаните
преживеат
преживее
преживува
преживуваат
преживување
през
презеде
презел
презела
презеле
презема
преземаат
преземал
преземале
преземат
преземајк
преземање
преземањето
преземе
преземен
преземена
преземени
преземено
презентации
презентација
презентацијата
презентира
презентираат
презентирал
презентирани
презентирање
президиум
президиумот
презиме
презимето
презимиња
презир
преименува
преименувал
преименуван
преименувана
преименувани
преименувано
прекар
прекарот
прекин
прекина
прекинал
прекинала
прекинале
прекинат
прекината
прекинати
прекинато
прекине
прекини
прекинот
прекинува
прекинување
преклопуваат
преклопување
прекмурје
прекрасен
прекрасна
прекрасната
прекрасни
прекрасно
прекриени
прекршок
прекршоци
прекршува
прекршување
прекршувањето
преку
прекумерна
прекумерно
прекуморски
прекуокеанските
прелиминарна
прелиминарните
прелистувач
прелистувачот
према
преместен
преместена
преместени
преместено
премести
преместил
преместување
преместувањето
премиер
премиера
премиерата
премиери
премиерно
премиерот
премин
премина
преминал
преминала
преминале
преминало
преминат
премине
премини
преминот
преминува
преминуваат
преминување
преминувањето
премио
премија
премногу
пренасочувања
пренасочување
пренел
пренеле
пренесат
пренесе
пренесен
пренесена
пренесени
пренесено
пренесува
пренесуваат
пренесувале
пренесување
пренесувањето
пренок
пренос
преноси
преносливи
преносни
преносот
преображение
преобразба
преобразби
преобрак
преовладува
преовладуваат
преог
преод
преоден
преодна
преодни
преокупација
преостаната
преостанати
преостанатиот
преостанатите
препарати
препев
преписка
препишува
препишуваат
препознаат
препознава
препознаваат
препознавање
препознае
препознал
препознатлив
препознатлива
препознатливи
препорака
препораката
препораки
препораките
препорача
препорачал
препорачано
препорачливо
препорачува
препорачуваат
преправа
препрак
препреки
преработена
преработени
преработка
преработката
преработки
прераснал
прераснала
прераснува
преродба
преродбата
прес
пресадување
пресв
пресвета
пресврт
пресвртница
преседан
пресек
пресека
пресекот
пресекува
преселат
преселба
преселбата
преселби
преселени
пресели
преселил
преселила
преселиле
преселило
преселници
преселува
преселување
преселувањето
пресеци
пресече
пресли
пресмета
пресметаат
пресметал
пресметан
пресметана
пресметани
пресметано
пресметка
пресметката
пресметки
пресметките
пресметува
пресметуваат
пресметување
преспа
преспанскиот
преспанско
преспанското
пресрет
престана
престанал
престанала
престанале
престанало
престанат
престане
престанок
престаноци
престанува
престануваат
престапна
престиж
престижната
престол
престолнина
престолнината
престолонаследник
престолонаследникот
престолот
престон
престој
престојот
престојува
престојуваат
престојувал
престојувала
престојувале
престрелка
престрелката
пресуда
пресудата
пресуди
претвора
претвораат
претворат
претворајк
претворање
претворањето
претворен
претворена
претворени
претвори
претворил
претворила
претвориле
претежно
претензии
претерано
претеча
претор
претпазливост
претплатници
претпоследната
претпоставен
претпоставени
претпостави
претпоставил
претпоставиме
претпоставка
претпоставката
претпоставки
претпоставките
претпоставува
претпоставуваат
претпоставувало
претпоставувајк
претпочита
претпочитаат
претпочитал
претпочитале
претприемач
претприемачи
претприемништво
претпријатие
претпријатието
претпријатија
претпријатијата
претрес
претрпе
претрпел
претрпела
претрпеле
претседава
претседавал
претседавач
претседател
претседатели
претседателите
претседателот
претседателска
претседателската
претседателски
претседателскиот
претседателските
претседателство
претседателството
претстава
претстават
претставата
претставен
претставена
претставени
претставено
претстави
претставил
претставила
претставиле
претставите
претставка
претставката
претставки
претставник
претставникот
претставници
претставниците
претставничкиот
претставништва
претставништво
претставува
претставуваат
претставувал
претставувала
претставувале
претставувало
[...]
