!
"
#
##0
##1
##10
##11
##12
##13
##14
##15
##16
##17
##18
##19
##2
##20
##21
##22
##23
##24
##25
##26
##27
##28
##29
##3
##30
##31
##32
##33
##34
##35
##36
##37
##38
##39
##4
##40
##41
##42
##43
##44
##45
##46
##47
##48
##49
##5
##50
##51
##52
##53
##54
##55
##56
##57
##58
##59
##6
##60
##61
##62
##63
##64
##65
##66
##67
##68
##69
##7
##70
##71
##72
##73
##74
##75
##76
##77
##78
##79
##8
##80
##81
##82
##83
##84
##85
##86
##87
##88
##89
##9
##90
##91
##92
##93
##94
##95
##96
##97
##98
##99
$
%
&
'
(
)
*
+
,
-
.
/
0
00
000
0001
0003
0004
0006
001
0019
002
0021
0022
0027
0028
003
0031
0036
004
005
006
007
008
009
01
010
011
012
013
014
0140
015
016
017
018
019
02
020
021
022
023
024
025
026
0261
03
030
033
0362
04
05
050
06
067
07
08
083
09
1
10
100
1000
1001
1002
1003
1004
1006
1007
1008
1009
101
1010
1011
1012
1014
1015
1016
1017
1018
1019
102
1020
1021
1023
1024
1025
1028
1029
103
1030
1031
1035
1036
1037
1038
1039
104
1040
1041
1042
1043
1046
1047
1048
1049
105
1050
1051
1054
1055
1056
1057
1059
106
1060
1061
1063
1066
1067
1069
107
1070
1071
1073
1074
1077
1078
108
1080
1081
1083
1086
1088
1089
109
1090
1091
1093
1095
1096
1097
1098
1099
11
110
1100
1101
1102
1103
1104
1105
1106
1107
1108
1109
111
1110
1111
1112
1117
1118
1119
112
1120
1125
1126
1127
1128
1129
113
1130
1134
1135
1136
1137
1139
114
1140
1141
1142
1143
1144
1145
1146
1147
115
1150
1152
1154
1155
1156
1157
1158
1159
116
1160
1161
1162
1163
1165
1167
117
1170
1172
1175
1177
1179
118
1180
1182
1183
1185
1186
1187
1189
119
1190
1191
1192
1194
1195
1196
1197
1198
1199
12
120
1200
1201
1202
1203
1204
1205
1206
1207
1208
1209
121
1210
1211
1212
1214
1215
1216
1217
1218
1219
122
1220
1221
1222
1225
1227
1228
1229
123
1230
1232
1234
1235
1236
1238
124
1240
1241
1242
1244
1246
1247
1248
125
1250
1252
1253
1254
1256
1257
1258
1259
126
1260
1261
1264
1265
1266
1267
1268
127
1270
1271
1272
1274
1275
1276
1277
1278
1279
128
1280
1281
1282
1283
1284
1285
1287
1288
1289
129
1290
1291
1292
1295
1296
1298
1299
13
130
1300
1301
1302
1303
1304
1305
1306
1307
1308
1309
131
1310
1311
1312
1314
1315
1316
1317
1318
1319
132
1320
1321
1322
1323
1324
1325
1326
1327
1328
1329
133
1330
1331
1332
1333
1334
1335
1336
1337
1338
1339
134
1340
1341
1342
1343
1345
1346
1347
1348
1349
135
1350
1351
1352
1353
1354
1355
1356
1357
1358
1359
136
1360
1361
1362
1364
1365
1366
1367
1368
1369
137
1370
1371
1372
1373
1374
1375
1376
1377
1378
1379
138
1380
1381
1382
1383
1385
1386
1387
1388
1389
139
1390
1391
1392
1393
1394
1395
1396
1397
1398
1399
14
140
1400
1401
1402
1403
1404
1405
1406
1407
1408
1409
141
1410
1411
1412
1413
1414
1415
1416
1417
1418
142
1420
1421
1422
1423
1424
1425
1427
1428
1429
143
1430
1431
1432
1433
1434
1435
1436
1437
1438
1439
144
1440
1441
1442
1443
1444
1445
1448
1449
145
1450
1451
1452
1453
1454
1455
1456
1457
1458
1459
146
1460
1461
1462
1463
1464
1465
1466
1467
1468
1469
147
1470
1471
1472
1473
1474
1475
1476
1477
1478
1479
148
1480
1481
1482
1483
1484
1485
1486
1487
1488
1489
149
1490
1491
1492
1493
1494
1495
1496
1497
1498
1499
15
150
1500
1501
1502
1503
1504
1505
1506
1507
1508
1509
151
1510
1511
1512
1513
1514
1515
1516
1517
1518
1519
152
1520
1521
1522
1523
1524
1525
1526
1527
1528
1529
153
1530
1531
1532
1533
1534
1535
1536
1537
1538
1539
154
1540
1541
1542
1543
1544
1545
1546
1547
1548
1549
155
1550
1551
1552
1553
1554
1555
1556
1557
1558
1559
156
1560
1561
1562
1563
1564
1565
1566
1567
1568
1569
157
1570
1571
1572
1573
1574
1575
1576
1577
1578
1579
158
1580
1581
1582
1583
1584
1585
1586
1587
1588
1589
159
1590
1591
1592
1593
1594
1595
1596
1597
1598
1599
16
160
1600
1601
1602
1603
1604
1605
1606
1607
1608
1609
161
1610
1611
1612
1613
1614
1615
1616
1617
1618
1619
162
1620
1621
1622
1623
1624
1625
1626
1627
1628
1629
163
1630
1631
1632
1633
1634
1635
1636
1637
1638
1639
164
1640
1641
1642
1643
1644
1645
1646
1647
1648
1649
165
1650
1651
1652
1653
1654
1655
1656
1657
1658
1659
166
1660
1661
1662
1663
1664
1665
1666
1667
1668
1669
167
1670
1671
1672
1673
1674
1675
1676
1677
1678
1679
168
1680
1681
1682
1683
1684
1685
1686
1687
1688
1689
169
1690
1691
1692
1693
1694
1695
1696
1697
1698
1699
17
170
1700
1701
1702
1703
1704
1705
1706
1707
1708
1709
171
1710
1711
1712
1713
1714
1715
1716
1717
1718
1719
172
1720
1721
1722
1723
1724
1725
1726
1727
1728
1729
173
1730
1731
1732
1733
1734
1735
1736
1737
1738
1739
174
1740
1741
1742
1743
1744
1745
1746
1747
1748
1749
175
1750
1751
1752
1753
1754
1755
1756
1757
1758
1759
176
1760
1761
1762
1763
1764
1765
1766
1767
1768
1769
177
1770
1771
1772
1773
1774
1775
1776
1777
1778
1779
178
1780
1781
1782
1783
1784
1785
1786
1787
1788
1789
179
1790
1791
1792
1793
1794
1795
1796
1797
1798
1799
18
180
1800
1801
1802
1803
1804
1805
1806
1807
1808
1809
181
1810
1811
1812
1813
1814
1815
1816
1817
1818
1819
182
1820
1821
1822
1823
1824
1825
1826
1827
1828
1829
183
1830
1831
1832
1833
1834
1835
1836
1837
1838
1839
184
1840
1841
1842
1843
1844
1845
1846
1847
1848
1849
185
1850
1851
1852
1853
1854
1855
1856
1857
1858
1859
186
1860
1861
1862
1863
1864
1865
1866
1867
1868
1869
187
1870
1871
1872
1873
1874
1875
1876
1877
1878
1879
188
1880
1881
1882
1883
1884
1885
1886
1887
1888
1889
189
1890
1891
1892
1893
1894
1895
1896
1897
1898
1899
19
190
1900
1901
1902
1903
1904
1905
1906
1907
1908
1909
191
1910
1911
1912
1913
1914
1915
1916
1917
1918
1919
192
1920
1921
1922
1923
1924
1925
1926
1927
1928
1929
193
1930
1931
1932
1933
1934
1935
1936
1937
1938
1939
194
1940
1941
1942
1943
1944
1945
1946
1947
1948
1949
195
1950
1951
1952
1953
1954
1955
1956
1957
1958
1959
196
1960
1961
1962
1963
1964
1965
1966
1967
1968
1969
197
1970
1971
1972
1973
1974
1975
1976
1977
1978
1979
198
1980
1981
1982
1983
1984
1985
1986
1987
1988
1989
199
1990
1991
1992
1993
1994
1995
1996
1997
1998
1999
2
20
200
2000
2001
2002
2003
2004
2005
2006
2007
2008
2009
201
2010
2011
2012
2013
2014
2015
2016
2017
2018
2019
202
2020
2021
2022
2023
2024
2025
203
2030
204
2041
205
2050
206
207
208
209
21
210
2100
211
2117
212
213
214
215
2157
216
217
218
219
22
220
2200
221
222
223
224
225
226
227
228
229
23
230
2305
2307
231
232
233
234
235
236
237
238
239
24
240
241
242
243
244
245
246
247
248
249
25
250
2500
2501
251
252
253
254
255
256
257
258
259
26
260
261
262
263
2637
264
265
266
267
268
269
2697
27
270
271
272
273
274
275
276
277
278
279
28
280
281
282
283
284
285
286
287
288
289
29
290
291
292
293
294
295
296
2966
297
298
299
3
30
300
3000
3001
301
302
303
304
305
306
307
3077
308
309
3098
31
310
311
312
313
314
315
316
3166
317
318
319
32
320
321
322
323
324
325
326
327
328
329
33
330
331
332
333
334
335
336
337
338
339
34
340
341
342
343
344
345
346
347
348
349
35
350
3500
3501
351
352
353
354
355
356
357
358
359
36
360
361
362
363
364
365
366
367
368
369
37
370
371
372
373
374
375
376
3760
377
378
379
38
380
381
382
383
384
3847
385
386
387
388
389
39
390
391
392
393
394
395
396
397
398
399
4
40
400
4000
4001
401
4016
402
4020
403
404
405
406
407
408
409
41
410
411
412
413
414
415
416
417
418
419
41961345
42
420
421
422
423
424
425
426
427
428
429
43
430
431
432
433
4331
434
435
436
437
438
439
44
440
441
442
443
444
445
446
447
448
449
45
450
4500
4501
451
452
453
454
455
456
457
458
459
46
460
461
462
463
464
465
466
467
468
4687
469
47
470
471
472
473
4730
474
475
4750
476
477
478
479
48
480
481
482
483
484
485
486
487
488
489
49
490
491
492
493
494
495
496
497
498
499
5
50
500
5000
5001
501
502
503
504
505
506
507
508
509
51
510
511
512
513
514
515
516
517
518
519
52
520
521
522
523
524
525
526
527
528
529
53
530
531
532
533
534
535
536
537
538
539
54
540
541
542
543
544
545
546
547
548
549
55
550
5500
5501
5509
551
552
553
554
555
556
557
558
559
56
560
561
562
563
564
565
566
567
568
569
57
570
571
572
573
574
575
576
577
578
579
58
580
581
582
583
584
585
586
587
588
589
59
590
591
592
593
594
595
596
597
598
599
6
60
600
6000
6001
601
602
603
604
605
606
607
608
609
61
610
611
612
613
614
615
616
617
618
619
62
620
621
622
623
624
625
6256
626
627
628
629
63
630
6300
631
632
633
634
635
636
6361
637
638
639
64
640
641
642
643
644
645
646
647
648
649
65
650
6500
6501
651
65143
652
653
654
655
656
657
658
659
66
660
661
662
663
664
665
666
667
668
669
67
670
671
672
673
6736
674
675
676
677
678
679
68
680
681
682
683
684
685
686
687
688
689
69
690
691
692
693
694
695
696
697
698
699
7
70
700
7000
7001
701
702
703
704
705
706
707
708
709
71
710
711
712
713
714
715
716
7167
717
718
719
72
720
721
722
723
724
725
726
727
728
729
73
730
731
732
733
735
736
737
738
739
74
740
741
742
743
744
745
746
747
748
749
75
750
7500
7501
751
752
753
754
755
756
757
758
759
76
760
761
762
763
764
765
766
767
768
769
77
770
771
772
773
774
775
776
777
778
779
78
780
781
782
783
784
7840
785
786
787
788
789
79
790
791
792
793
794
795
796
797
798
799
8
80
800
8000
801
8018
802
803
804
8047
805
806
807
8075
808
809
81
810
811
812
813
814
815
816
817
818
819
82
820
8205
821
822
823
824
825
826
827
828
829
83
830
831
832
833
834
835
836
837
838
839
84
840
841
842
8424
843
844
845
846
847
848
849
8493
85
850
851
852
853
854
855
856
857
858
859
86
860
861
862
863
864
865
866
867
8670252678
868
869
87
870
871
872
873
874
875
876
877
878
879
88
880
881
882
883
884
885
886
887
888
889
89
890
891
892
893
894
895
896
897
898
899
9
90
900
901
902
903
904
905
906
907
908
909
91
910
911
912
913
914
915
916
917
918
919
92
920
921
922
923
924
925
926
927
928
929
93
930
931
932
933
934
935
936
937
938
939
94
940
941
943
944
945
946
947
948
949
95
950
951
952
953
954
954430424
955
956
957
958
959
96
960
961
962
963
964
965
966
967
968
969
97
970
971
972
973
974
975
976
977
978
9789989101069
979
98
980
981
982
983
984
985
986
987
988
989
99
990
991
992
993
994
995
996
997
998
9989
9989649286
999
:
;
<
=
>
?
@
[
\
]
^
_
`
a
aa
aaron
aavso
ab
abc
abgerufen
abies
about
above
abraham
abrams
abs
absolute
abstract
abu
abundances
abuse
ac
acade
academia
academic
academy
access
accessdate
accessed
according
account
accounts
ace
acid
acids
acm
acmilan
acrocephalus
across
act
acta
actin
action
active
activist
activities
activity
actor
actors
acts
ad
ada
adam
adams
adaptation
add
added
addison
address
adds
adele
administration
administrative
adobe
adolf
adrian
adult
adults
advanced
advances
adventure
ae
af
affairs
afghan
afghanistan
afp
africa
african
after
aftonbladet
ag
again
against
agaricus
age
ageing
agence
agency
agent
ages
ago
agree
agreement
agricultural
agriculture
ah
ahead
ahmed
ai
aid
aids
air
aires
airlines
airport
airways
ais
aise
aj
ajax
ak
akademie
ako
al
ala
alabama
alan
alba
albania
albanian
albert
alberto
album
albums
aleksandar
alessandro
alex
alexander
alexandra
alexandre
alfred
ali
alice
align
aligned
alison
alive
aliyev
all
alla
allan
allen
allgemeine
alliance
allmovie
allmusic
almanac
almeri
almost
alone
along
alpha
alphabet
alpine
already
als
also
alt
alternative
although
alvarez
always
am
amanda
amanita
amaury
amazing
amazon
ambassador
ame
americ
america
american
americans
americas
amnesty
among
amor
amour
amp
amsterdam
amy
an
ana
analysis
anatolia
anatomy
ancestry
ancient
and
anders
anderson
andersson
andre
andrea
andreas
andrew
andrews
android
andy
angel
angela
angeles
angelo
angels
anglo
ani
animal
animals
animation
anime
ankara
ann
anna
annalen
annales
annals
anne
anniversary
anno
annotated
announce
announced
announcement
announces
annual
annurev
another
answers
anta
antarctic
antarctica
ante
anthem
anthology
anthony
anthropology
anti
antiquity
anton
antonio
antropogeografska
any
ao
aol
ap
apg
api
apj
apollo
app
appendix
apple
application
applications
applied
approach
approaches
approx
apr
april
aq
ar
ara
arab
arabia
arabic
arak
arc
arccos
arch
archaeological
archaeology
architectural
architecture
archive
archived
archives
arcsin
arctan
arctic
are
area
areas
arena
argentina
arhipova
aria
arizona
armed
armenia
armenian
armenians
arms
armstrong
army
arnold
aron
around
arp
array
ars
arsenal
arsenic
art
arte
arthur
article
articles
artificial
artist
artists
arts
arxiv
as
asean
ashgate
ashley
asia
asian
asin
ask
asked
asp
aspects
aspx
assembly
assessment
associated
associates
association
associations
asteroid
asteroids
aston
astro
astronomers
astronomical
astronomiques
astronomy
astrophysical
astrophysics
at
ata
atc
atcvet
athens
athletes
athletic
athletics
atlantic
atlas
atle
atm
atmosphere
atmospheric
atomic
atp
att
attack
attacks
au
audio
auf
aug
august
aureus
aus
austin
australia
australian
austria
austrian
aut
author
authority
authors
auto
autobiography
autumn
aux
av
available
avanja
avec
average
aviation
avril
award
awarded
awards
away
ax
az
azerbaijan
azerbaijani
b
ba
baby
back
background
bacteria
bacterial
bad
baggio
baha
bailey
baker
baku
balance
balkan
balkans
ball
baltic
baltimore
ban
band
bang
bangladesh
bank
banking
banks
bar
barbara
barcelona
barnes
baron
barrett
barry
bartlett
bas
base
based
basel
basic
basil
basin
basis
basketball
bat
battle
bauer
bay
bayer
bayern
bb
bbc
bc
bd
be
beach
bear
beat
beatles
beats
beautiful
beauty
became
because
beck
becker
become
becomes
been
beer
before
begin
beginning
begins
behavior
behavioral
behaviour
behind
bei
beijing
being
belarus
beles
belgian
belgium
belgrade
believe
bell
below
belt
ben
benjamin
bennett
benson
benz
beograd
ber
berg
berkeley
berlin
bernard
bernhard
best
bet
beta
better
between
beyonce
beyond
bez
bf
bg
bgp
bi
bibcode
bible
biblical
bibliography
bid
big
biggest
bigz
bih
bill
billboard
billion
billy
bin
binary
binding
bio
biochemistry
biodiversity
biografiskt
biographical
biographie
biography
biol
biological
biology
biotechnology
bird
birdlife
birds
birmingham
birth
birthday
bis
bishop
bit
bitola
biz
bjo
black
blackwell
blake
blasco
blast
blic
blind
block
blocks
blog
blogs
blogspot
blood
bloomberg
bloomington
bloomsbury
blu
blue
blues
bmatrix
bmc
bmj
bo
board
bob
bobby
boca
bodies
body
bohr
boldsymbol
boletus
bolivia
bologna
bomb
bon
bond
bone
bonn
book
books
boom
bor
border
borders
boris
born
bos
bosnia
bosnian
boss
boston
botanic
botanical
botany
both
bottom
boulder
boundary
bowie
box
boy
boys
bp
br
bra
bradley
brain
branch
brancoff
brand
brasil
bratislava
brazil
brazilian
break
breaking
breaks
breeding
bremen
brent
brett
brian
bridge
brief
brien
bright
brill
bring
britain
britannica
british
britney
broadcast
broadcasting
broadway
broken
bronze
brooklyn
brooks
bros
brother
brothers
brown
browser
bru
bruce
bruno
brussels
bryan
bryant
bu
buckley
bucures
budapest
budget
buenos
buffalo
build
building
buildings
built
bulgaria
bulgarian
bulgarians
bull
bulletin
bundesliga
bureau
burke
burning
burns
burton
bury
bus
bush
business
but
butler
butterflies
butterfly
buxwv
bv
bx
by
byzantine
byzantium
c
ca
cable
cafe
cairo
calcio
caldwell
calendar
calif
california
call
called
calls
calvin
cambridge
came
camera
cameron
cameroon
camp
campaign
campbell
camps
can
canada
canadian
cancellara
cancer
candidate
cannes
cap
cape
capital
captain
capture
car
caravaggio
carbon
card
care
career
caribbean
carl
carlo
carlos
carmen
carnegie
carol
carolina
caroline
carpenter
carroll
cars
carter
cas
casa
case
cases
cash
cass
cassini
cast
castle
cat
catalog
catalogue
catalogues
category
cathedral
catherine
catholic
cats
caucasus
cause
causes
cave
cavendish
cb
cbc
cbs
cc
cd
cdc
cdot
cdots
cdu
ce
cecilia
cell
cells
celtic
ceneral
census
center
centers
central
centre
centro
centuries
century
cerebral
ceremony
cern
certain
certification
cf
cgcg
ch
cha
chain
challenge
challenges
chamber
chambers
champion
champions
championship
championships
chan
chance
chang
change
changed
changes
changing
channel
chaos
chapman
chapter
character
characteristics
characterization
characters
charge
charles
charlie
charlottas
charlotte
chart
charter
charts
che
check
chelsea
chem
chemical
chemie
chemistry
chen
chess
chi
chicago
chief
child
childhood
children
chile
china
chinese
chisholm
chocolate
choice
chre
chris
christ
christian
christianity
christians
christie
christina
christine
christmas
christoph
christopher
chronic
chronicle
chronicles
chronology
chu
church
churches
ci
cia
cid
cie
cinema
cinnamomum
circ
circle
circuit
circular
circulation
circumstances
circus
cisco
cit
citation
cite
cited
citeref
citerefognenovski
cites
citeseerx
cities
citizen
citizens
citizenship
city
civil
civilization
ck
cl
claim
claims
claire
clapton
clarendon
clark
clarke
clash
class
classes
classic
classical
classics
classification
claude
claudio
cle
clear
cleveland
climate
clin
clinical
clio
clock
close
closer
cloud
clouds
club
cluj
cluster
clusters
cm
cms
cn
cnn
co
coach
coast
coastal
cobiss
cochrane
code
coffee
cognitive
cohen
col
cola
cold
cole
coli
colin
collaboration
collapse
collected
collection
collections
college
collins
colombia
colonial
color
colorado
colour
columbia
columbus
com
combat
combined
come
comedy
comes
comet
comets
comic
comics
coming
command
comment
commentary
comments
commerce
commercial
commission
committee
common
commons
commonwealth
communication
communications
communist
communities
community
companies
companion
company
comparative
comparison
competition
competitor
complete
completed
completes
complex
composition
compounds
comprehensive
computer
computing
con
concept
concepts
concerning
concert
concise
condita
conditions
conference
confirmed
confirms
conflict
congo
congress
conmebol
connecticut
connection
connor
conquest
conrad
consciousness
consequences
conservation
considered
constant
constantine
constantinople
constellation
constellations
constitution
constitutional
construction
consumer
consumption
contact
contador
containing
contains
conte
contemporary
content
contents
contest
context
continental
continues
continuum
contra
contract
contribution
contributions
control
controversy
convention
conversation
conversion
cook
cooking
cool
cooper
cooperation
copa
copenhagen
coppa
copper
copy
copyright
core
cornell
corona
coronavirus
corp
corporate
corporation
corps
corpus
corriere
corruption
corvin
corwin
cos
cosh
cosmic
cosmology
cost
costa
cotoneaster
could
council
count
counter
countries
country
county
courier
course
court
courtney
cover
covid
cox
cp
cr
craig
crash
crassula
crazy
crc
cre
cream
create
created
creating
creation
creative
credit
cretaceous
crew
crime
crimes
criminal
crisis
critical
critics
critique
croatia
croatian
crocodile
cross
crossfit
crowley
crown
crusades
cruz
cry
crystal
cs
css
ct
ctg
cu
cult
cultura
cultural
culture
cultures
cum
cup
curlie
currency
current
curtis
customs
cut
cv
cx
cycle
cycling
cyclingnews
cyg
cygni
cygnus
cyprus
cyril
cz
czech
d
da
dagbladet
dagens
daily
dal
dale
dali
dallas
dame
dan
dana
danas
dance
dancing
dangerous
daniel
danilo
danish
dans
dark
darkness
darren
darwin
das
data
database
date
dated
dates
daughter
davcev
dave
david
davidson
davies
davis
dawn
day
days
db
dc
dd
de
dead
deadline
deal
dean
death
deaths
debate
deborah
debt
debut
dec
decade
decades
decay
december
decision
declaration
decline
deep
default
defeat
defence
defender
defense
definition
definitions
definitive
degli
dei
dejan
deka
del
delhi
delivery
dell
della
delle
dello
delta
dem
demand
democracy
democratic
demographic
demography
den
denis
denmark
dennis
density
department
deprecated
der
derby
derek
dereta
derived
des
description
desert
design
despite
destiny
destruction
det
detail
detailed
details
detection
determination
detroit
deutsch
deutsche
deutschen
deutscher
deutschland
deux
developed
developing
development
devices
devil
dezember
dfrac
di
dia
diabetes
diagnosis
dialect
diamond
diana
diane
diario
diary
dictionary
dictionnaire
did
didn
die
died
diego
dies
diet
dieter
difference
differences
different
digest
digital
din
dinosaur
dinosauria
dinosaurs
dio
diplomacy
diplomatic
dir
direct
direction
director
directory
dirty
disc
discography
discogs
discover
discovered
discoveries
discovery
discussion
disease
diseases
disk
disney
disorder
disorders
display
displaystyle
distance
distant
distributed
distribution
district
ditions
diversity
division
dixon
dj
djokovic
dk
dl
dm
dna
dnevnik
dns
do
doc
doctor
document
documentary
documentation
documents
dodson
does
dog
dogs
doi
doine
doing
dom
domain
domestic
dominic
don
donald
done
donna
donne
door
doors
dortmund
dos
dot
dots
double
doubleday
douglas
dover
down
download
dp
dr
draft
dragan
dragon
drake
drama
draw
drcg
dream
dreams
dresden
dress
dreyer
drive
drop
drug
drugs
drus
dry
drz
ds
dt
du
dubai
due
duke
dumbarton
duncan
duo
during
dus
dust
dutch
duty
dvd
dw
dwarf
dx
dy
dylan
dynamic
dynamical
dynamics
dynasty
dz
e
ea
each
eagle
earlier
earliest
early
earth
earthquake
east
eastern
easy
eat
eating
eb
ec
ecce
echo
eclipse
ecological
ecology
economic
economics
economist
economy
ecumenical
ed
eden
edgar
edge
edinburgh
edit
edited
edition
editions
editor
editorial
editors
edmund
eds
edu
education
educational
edward
edwards
edwin
ee
ef
effect
effective
effects
efficiency
eg
egg
eggs
egypt
egyptian
ehf
ei
eight
eighteenth
ein
eine
einer
einstein
ej
ek
ekipa
el
election
elections
electric
electrical
electricity
electron
electronic
electronics
element
elementary
elements
elena
elephant
eliot
elisabeth
elite
elizabeth
ell
ellen
elliott
ellis
else
elsevier
em
email
embassy
emergency
emerging
emil
emily
emirates
emission
emma
emperor
empire
empires
employment
en
ena
encarta
enciklopedija
encyclopaedia
encyclopedia
encyclopædia
end
endangered
ending
ends
enemy
energy
eng
engine
engineering
engineers
england
english
enim
enough
enter
enterprise
entertainment
entre
entry
environment
environmental
eo
ep
ephemeris
epic
epidemiology
episode
epsilon
equations
er
era
erazmo
erebia
eric
erik
ernest
ernst
errata
error
eruption
es
esa
escape
esctoday
eso
espan
espn
essay
essays
esse
essential
est
established
establishment
estado
estimate
estimates
estonia
estonian
et
eta
etc
ethernet
ethics
ethiopia
ethnic
ethnicity
ethnologue
etiam
eto
ett
etymology
eu
eugene
euphorbia
euro
eurobasket
eurohandball
europa
europe
european
eurosport
eurostat
eurovision
ev
eva
evaluation
evanescence
evans
even
evening
event
events
ever
everton
every
everything
evic
evidence
evolution
evolutionary
ex
example
exchange
exclusive
executive
exhibition
exist
existence
exoplanet
exp
expanded
expansion
expedition
experience
experiment
experimental
experiments
expert
exploration
explorer
exploring
express
expressen
expression
extended
extension
external
extinction
extra
extreme
eye
eyes
f
fa
faber
faberge
fabio
face
facebook
faces
fact
factbook
factor
factors
factory
facts
faculty
failed
failure
fair
fairy
faith
fall
fallen
falling
falls
false
fame
families
family
famous
fan
fans
fantasy
fao
faq
far
farm
fashion
fast
fat
fate
father
fauna
fc
fe
fear
feat
feature
features
feb
february
federal
federation
feed
feel
felix
fellows
female
feminism
feminist
femme
ferdinand
ferguson
ferna
fernando
fest
festival
fever
few
ff
fi
fiba
fibalivestats
fiction
field
fields
fierce
fifa
fifth
fight
fighting
figure
figures
file
files
filip
film
films
fina
final
finale
finally
finals
finance
financial
find
finding
finds
fine
finish
finland
fiorentina
fire
first
fis
fischer
fish
fisher
fit
five
fk
fl
flag
flags
flanders
flash
fleming
flensburg
fletcher
flight
flora
florence
florida
flow
flower
flowers
floyd
fluid
fly
flying
fm
fo
focus
folk
folketeljing
folklore
follow
following
food
foot
football
for
forbes
force
forced
forces
ford
foreign
forest
forests
forever
forgotten
form
format
formation
former
forms
fort
fortune
forum
forward
fossil
foster
foto
found
foundation
foundations
four
fourth
fowler
fox
fr
fra
frac
frame
framework
franc
france
frances
francesco
francis
francisco
franco
frank
frankfurt
franklin
franz
fraser
fre
fred
frederick
free
freedom
freeman
french
frequency
fresh
friday
friedman
friedrich
friend
friends
fritz
from
front
frontier
frontiers
froome
fryer
ft
fu
full
fun
function
functional
functions
fund
fundamental
fundamentals
fungi
fungorum
further
future
g
ga
gabriel
gaga
gaia
galactic
galaxies
galaxy
gale
galileo
gallery
game
games
gamma
gang
gap
garci
garcia
garden
gardens
gardner
garland
gary
gas
gate
gates
gateway
gavin
gay
gazeta
gazette
gazetteer
gazzetta
gb
gc
gcl
gcvs
gdp
ge
gen
gender
gene
genealogy
genera
general
generation
genes
genesis
genetic
genetics
geneva
genius
genoa
genocide
genome
genus
geo
geoffrey
geographic
geographical
geography
geological
geology
geometry
geonames
geophysical
georg
george
georges
georgia
georgian
georl
ger
geraint
gerald
gerard
gerd
gerhard
german
germany
geschichte
gesellschaft
get
gets
getting
gev
gezi
ghost
ghz
gi
giant
giants
gibson
gil
gilbert
gill
gini
giovanni
girl
girls
giro
giuseppe
give
given
gives
gl
glas
glass
glenn
gli
global
globalization
globe
globo
gloria
glory
glossary
gm
gmail
gmbh
go
goal
goals
god
godina
godine
gods
goes
going
gol
gold
goldberg
golden
goldenrod
goldman
gone
good
goodbye
google
goran
gordon
got
gould
gov
governance
government
gp
gps
gr
gra
grace
grad
grafic
grafos
graham
grammar
grammy
gran
grand
grande
grant
grave
gravitational
gravity
gray
gre
great
greater
greatest
greece
greek
greeks
green
greene
greenwood
greg
gregory
greta
grey
griffin
griffiths
grin
gross
ground
group
groups
grove
growing
growth
grp
gru
gruyter
gsc
gt
gu
guardian
guez
guide
guidelines
guides
guillaume
guinea
guinness
guitar
gulf
gun
guns
gupta
gurevic
gustav
gutenberg
guy
gypsy
h
ha
habitat
had
hahn
half
hall
halo
ham
hamburg
hamburger
hamilton
hammer
hammond
han
hand
handball
handbook
handbuch
hands
hannah
hannover
hans
hansen
happened
happy
har
harcourt
hard
harold
harper
harpercollins
harris
harrison
harry
hart
harv
harvard
harvcoltxt
harvey
harvnb
has
hat
hate
have
haven
having
hawaii
hawaiian
hayes
hbar
hbo
hc
hcg
hd
hdi
hdl
he
head
heads
health
heart
heat
heath
heaven
heavy
hebrew
hedvig
heidelberg
heinemann
heinrich
heinze
heisenberg
held
helen
helena
helium
hell
hellenic
hello
helm
helmut
help
helsinki
henderson
hendrix
henri
henry
hep
her
herald
herbert
here
heritage
herman
hermann
hero
herodotus
heroes
herzegovina
herzog
het
hg
hi
hibbert
hidden
high
higher
highest
highlights
highly
highway
hill
hills
him
himself
hindu
hip
hipparcos
hiroshima
hirshfeld
his
histo
histoire
historia
historic
historical
histories
history
hit
hitler
hits
hl
ho
hoboken
hoc
hold
holding
hole
holiday
holland
hollywood
holmes
holocaust
holstein
holt
holy
home
homepage
homer
homme
homo
honey
hong
honor
honour
hop
hope
hopes
hopkins
horizons
horror
horse
hospital
host
hot
hotel
houghton
hour
hours
house
housing
houston
how
howard
however
hp
hpv
hr
hrsg
hrt
hrvatska
hrvatske
hrvatski
htm
html
http
https
hu
huang
huawei
hub
hubble
hudson
huffington
huge
hugh
hughes
hugo
hull
human
hundred
hung
hungarian
hungary
hunt
hunter
hurst
hydrogen
hylmo
hypothesis
hz
i
ia
iaaf
ian
iana
iata
iau
iauc
ibid
ibm
ibn
ic
icao
icar
icarus
ice
iceland
icf
ich
icon
id
idea
ideas
identification
identities
identity
idol
ie
iec
ieee
ietf
if
ifpi
ign
ignored
igoja
igor
igrac
ihf
ii
iii
ij
ik
il
ili
illinois
illustrated
illustrations
im
ima
image
images
imaging
imap
imborska
imdb
ime
imf
img
immediate
immigration
impact
impacts
imperial
implementation
implications
importance
important
in
ina
inc
include
includes
including
income
incorporated
increase
independence
independent
index
india
indian
indiana
indians
indicators
indigenous
indija
individual
indo
indonesia
induced
industrial
industries
industry
ine
inequality
infection
infectious
inflation
influence
info
informacio
information
infrared
infty
initial
initiative
injury
inner
innovation
inorganic
insee
inside
insider
insight
insights
instagram
institut
institute
institution
institutions
instituto
int
inte
integrated
integration
intel
intellectual
intelligence
inter
interaction
interactions
interactive
interest
interface
interior
internal
international
internationale
internet
interpretation
interstellar
interview
into
introduction
invalid
invasion
invasive
invention
investigation
investment
io
ioc
ion
ios
ip
ipc
ipcc
iphone
ipv
ir
iran
iranian
iraq
iras
ireland
iris
irish
irkovic
iron
irwin
is
isaac
isbn
isis
islam
islamic
island
islands
isles
iso
isotopic
israel
israeli
issn
issue
issues
ist
istanbul
istat
istorija
it
ita
italia
italian
italiana
italo
italy
ite
item
itemid
its
itt
itu
itunes
iucn
iupac
iv
ivan
ivo
ivory
ivot
ivota
ix
iz
izabrane
izdanje
izdavac
j
ja
jack
jackson
jacob
jacobson
jacques
jag
jam
jama
jamaica
james
jamie
jan
jane
janet
januar
january
japan
japanese
jas
jason
java
javascript
javier
jay
jazeera
jazz
jb
jc
je
jean
jeff
jeffrey
jeffreys
jena
jennifer
jens
jensen
jeremy
jerry
jersey
jerusalem
jessica
jesus
jet
jewish
jewitt
jews
ji
jim
jimmy
jm
jo
joachim
joan
job
joe
joel
johan
johann
johannes
john
johnny
johns
johnson
johnston
join
joins
joint
jon
jonathan
jones
jordan
jorge
jos
jose
josef
joseph
josh
joshua
journal
journey
jovan
jovanovic
joy
jp
jpg
jpl
jr
jstor
ju
juan
judith
jugoslavije
juice
jul
julia
julian
julie
julius
july
jump
jun
june
junior
jupiter
jurassic
just
justice
justin
juve
juventus
k
ka
kai
kaiser
kako
kalvino
kan
kansas
kanye
kao
kappa
kara
karabakh
karen
karin
karl
kate
katherine
kaufman
kay
kaz
kazakhstan
kazhdan
kb
kcpg
ke
keep
keith
kelly
ken
kennedy
kenneth
kent
kentucky
kenya
kepler
kevin
kew
key
kg
khan
ki
kicker
kids
kill
killed
killing
kim
kin
kind
king
kingdom
kings
kirk
kis
kiss
kit
kj
kk
klaus
klein
klotz
km
knight
knjiga
knjiz
knopf
know
knowledge
known
ko
koi
koj
kong
korea
korean
kos
kosovo
kotlina
kr
krlez
ku
kug
kuiper
kultur
kultura
kulture
kumar
kunst
kurdish
kurt
kv
kvinnobiografiskt
kw
kyiv
kyle
kylie
kz
l
la
lab
label
labor
laboratory
labour
lactarius
ladies
lady
laguna
lake
lakes
lambda
lan
lancet
land
lands
landscape
lane
lang
language
languages
lanka
large
largest
larry
lars
larson
larsson
las
laser
last
late
later
latest
latin
latvia
launch
launches
laura
laurence
laurent
lavigne
law
lawrence
laws
layer
layla
lazio
lb
lc
lccn
lcd
ld
le
lead
leader
leaders
leadership
leading
leads
league
learn
learning
least
leave
leaves
lebanon
leben
lecture
lectures
led
lee
leeds
left
legacy
legal
legend
legends
leicester
leiden
leipzig
leksikon
lena
length
leo
leon
leonard
leonardo
leone
leopard
lepidoptera
leq
les
leslie
less
lessons
let
letter
letters
lettres
level
levels
levy
lewis
lexicon
lexikon
lexington
lez
lg
li
liber
liberation
liberty
libraries
library
libris
libya
license
lie
life
liga
light
lightning
lights
ligue
like
likely
lil
lim
limited
limits
lin
lincoln
linda
line
linear
lines
linguistic
linguistics
link
linked
links
linnaeus
linnean
linux
lion
liquid
lirika
lisa
list
lista
listen
lists
literacy
literary
literature
lithuania
little
littlefield
liu
live
lived
liverpool
lives
living
livre
ljubav
ljubljana
ll
llc
ller
lloyd
lm
lmc
ln
lo
loan
local
location
log
logic
logo
london
lonely
long
longman
lonicera
look
looking
looks
lord
lorentz
los
lose
loss
lost
lot
louis
louise
love
low
lower
lp
lr
lt
ltd
lu
lua
lucas
ludosti
ludwig
lufthansa
lui
luis
luka
luke
lunar
lund
lung
lv
ly
lynch
lynn
lynx
lyon
lyrics
m
ma
mac
macdonald
mace
macedonia
macedonian
macedonianfootball
macedonians
machine
machines
macmillan
mad
made
madison
madonna
madrid
mag
magazine
magic
magnetic
magnus
magyar
mai
mail
main
mainz
major
make
makedonija
makedonska
makedonski
makes
making
malaysia
malcolm
male
mali
malta
mama
mammals
man
management
manager
manchester
mann
manual
manuel
many
map
mapping
maps
mar
marc
marca
marcel
march
marco
marcos
marcus
mare
margaret
mari
maria
marie
marina
marine
mario
maritime
mark
market
marketing
markets
marko
marks
marriage
mars
marsden
marsh
marshall
martha
marti
martian
martin
mary
maryland
mas
mason
mass
massachusetts
masses
massive
master
masters
match
matches
material
materials
math
mathbb
mathbf
mathcal
mathematical
mathematics
mathrm
mathworld
matica
matlab
matrix
matt
matter
matters
matthew
matthews
maurice
max
maxwell
may
maya
mayor
mb
mbit
mbox
mc
mccarthy
mcdonald
mcfarland
mcg
mcgraw
mcnulty
md
me
mean
meaning
means
measurement
measurements
mechanics
mechanism
mechanisms
med
medal
medalists
media
medical
medicine
medien
medieval
mediterranean
medium
meet
meeting
megadeth
melbourne
member
members
membership
memoir
memoirs
memorial
memory
men
mental
mer
mercedes
mercury
merriam
mes
message
met
meta
metabolism
metacritic
metal
metallica
metals
meteorological
methane
method
methods
metro
metropolitan
mev
mexican
mexico
meyer
mfa
mg
mhz
mi
mia
miami
michael
michel
michelle
michigan
microbiology
microsoft
mid
middle
midnight
mie
mifflin
might
migration
miguel
mike
mil
milan
milano
mile
miles
military
milk
milky
millennium
miller
million
mills
milos
milton
min
mind
mine
mineral
minerals
mining
minister
ministry
minnesota
minogue
minor
minorities
minority
minutes
mir
miroslav
mirror
miss
missing
mission
missouri
mit
mitchell
mix
mixed
mj
mk
mkd
ml
mm
mn
mnras
mo
mobile
mode
model
modeling
models
modern
module
mojo
mol
moldova
molecular
molecules
moment
mon
monaco
monde
mondo
monetary
money
monica
monitor
monitoring
monographs
monster
monte
montenegro
month
monthly
months
monument
monuments
moon
moons
moore
mora
more
morgan
morning
morocco
morphological
morphology
morris
morrison
mortality
morton
moscow
mosque
most
mother
motion
motor
mount
mountain
mountains
move
movement
movements
moves
movie
movies
moving
mozzartsport
mp
mpec
mpls
mr
mrs
ms
msn
mt
mtv
mu
much
muhammad
multi
multimedia
multiple
mundo
munich
municipal
municipality
murder
murphy
murray
muse
museum
museums
mushrooms
music
musical
musicians
musik
muslim
muslims
must
mustafa
mv
mvp
mw
mx
my
myspace
mysteries
mystery
myth
mythology
myths
n
na
nabla
nach
nacional
nad
nadal
nagorno
nam
name
named
names
naming
nancy
naomi
napoleon
napoli
narodna
narodne
narrative
nas
nasa
nat
nathan
nation
national
nationale
nationalism
nations
native
nato
natur
naturae
natural
nature
naval
navy
nazi
nazionale
nb
nba
nbc
nc
ncbi
nchen
nd
nde
nder
ndez
ne
near
nearby
nebula
nebulae
nec
nederland
need
needs
negative
neil
nel
nelson
nema
neo
neptune
neq
neque
nes
net
netflix
netherlands
network
networks
neue
neurology
neutrino
neutrinos
neutron
never
new
newcastle
newman
news
newsletter
newspaper
newspapers
newton
next
nez
nf
ng
nga
ngc
nh
ni
nia
nic
nica
nice
nicholas
nicholson
nick
nickel
nicola
nicolas
nicole
nie
niels
nielsen
nietzsche
nigel
niger
nigeria
night
nih
nik
nikola
nikolic
nilson
nin
nina
nine
nineteenth
ninth
nis
nist
nj
njegova
nl
nm
nme
no
noaa
nobel
nobelprize
noble
noc
noel
nolan
nolit
nomenclature
nominations
nominees
non
nonstellar
nor
nord
nordic
norman
north
northern
northwest
norton
norway
norwegian
norwich
nos
not
note
notes
nothing
notice
notices
nouvelle
nov
nova
novads
novak
nove
novel
november
novi
novine
novo
novosti
now
npm
npr
nr
ns
nt
nu
nuclear
nucleus
number
numbered
numbers
nuovo
nutrition
ny
nya
nyheter
nz
o
oaks
ob
obama
obc
obcina
obesity
obituary
objas
object
objects
obs
observation
observations
observatory
observed
observer
observers
oc
occupation
ocean
oceanic
oceanography
oceans
och
ocl
oclc
oct
october
od
odyssey
oecd
of
off
office
official
officially
officials
officinalis
often
og
ognenovski
oh
ohio
ohrid
oil
ois
oj
ok
oklahoma
ol
ola
old
oldest
oldprilep
ole
olga
oliver
olivia
olivier
olympiad
olympic
olympics
om
oman
omega
on
once
one
online
only
ontario
op
opel
open
opening
opens
opera
operation
operations
operatorname
opinion
opposition
oprah
ops
optical
optics
option
opus
or
ora
oral
orange
orbit
orbital
orbits
order
orders
oregon
org
organic
organisation
organization
organizations
orient
oriental
origin
original
originally
origins
orpheus
orthodox
orwell
os
osaka
oscar
osi
oslo
osman
osmanlı
osprey
ot
other
others
otto
ottoman
ou
our
out
outer
outline
outlook
outside
ova
over
overall
overline
overrightarrow
overview
owen
own
oxford
oz
p
pa
pacific
page
pages
pai
paidea
pain
painting
paintings
pais
pakistan
palace
palaearktischen
paleontology
palermo
palestine
palestinian
palgrave
palmer
palsy
pamela
pan
panel
panthera
paolo
paper
paperback
papers
par
para
parade
paradise
paraguay
parallel
parameters
parent
paris
park
parker
parks
parliament
part
partial
participation
particle
particles
parties
partizan
partner
partners
partnership
parts
party
pas
pasadena
pascal
pass
past
pat
patent
path
patients
patriarchate
patricia
patrick
patterns
paul
paulo
pavlovic
pay
pays
pb
pbs
pc
pdf
pe
peace
peak
pearl
pearson
pedro
peer
pen
penguin
peninsula
pennsylvania
penrose
people
peoples
per
percent
perfect
performance
period
periodic
permanent
perry
perseus
persian
person
personal
personality
persons
perspective
perspectives
peru
pesme
pet
petar
peter
peters
petersburg
peterson
petit
petrovic
pew
pg
pgc
ph
pharmacology
phase
phd
phelps
phi
phil
philadelphia
philip
philippe
philippine
philippines
phillip
phillips
philosophical
philosophy
phoenix
phone
phonetic
phonology
photo
photographs
photography
photometry
photos
photoshop
php
phrv
phrvl
phylogenetic
phylogeny
phys
physical
physics
physik
physiology
physrev
physrevlett
pi
piano
picture
pictures
pie
piero
pierre
pink
pinus
pioneer
pirates
piscu
pittsburgh
piu
pk
pl
place
places
plan
planck
plane
planet
planetary
planets
planning
plans
plant
plants
plastic
plate
platform
platinum
plato
play
played
player
players
playing
plays
playstation
plc
please
plos
plus
pluto
pm
pmatrix
pmc
pmid
pn
pnas
png
po
poc
pocket
pod
poe
poems
poet
poetry
poezija
pogovor
pohvala
point
points
poland
polar
pole
police
policies
policy
polish
political
politics
politika
poljska
poll
pollution
polyxena
pone
poor
pop
pope
popular
population
populations
por
port
portal
porter
portland
porto
portrait
portraits
portugal
portuguese
position
positive
possible
post
postal
potential
potter
pour
poverty
powell
power
powers
pp
ppm
pr
pra
practical
practice
practices
prague
pre
preliminary
premier
premiere
prentice
presence
present
presentation
presented
president
presidential
presidents
press
presse
pressure
pretty
prevalence
prevention
preview
pri
pric
price
pride
prima
primary
prime
primer
prince
princess
princeton
principal
principle
principles
print
printing
prison
pristupljeno
private
prix
prize
pro
problem
problemi
problems
proc
proceedings
process
processes
processing
procycling
procyclingstats
produced
product
production
productions
products
prof
professional
professor
profile
profiles
program
programme
programming
programs
progress
project
projects
prometheus
promotion
pronunciation
propaganda
properties
property
proposal
proposed
propulsion
prospects
prosveta
protected
protection
protein
proteins
protest
protests
protiv
protocol
protour
prouc
province
provinces
provincial
prunus
pryor
ps
psg
psi
psychiatry
psychological
psychology
pt
pu
pub
public
publication
publications
publique
published
publisher
publishers
publishing
pulsating
punk
pure
purple
pus
push
put
putin
puts
px
pyramid
python
q
qa
qatar
qquad
qt
qu
quad
quae
qualification
quality
quam
quantum
quarter
quarterly
que
queen
quercus
quest
question
questions
qui
quick
quo
quod
quot
quoted
quotient
r
ra
race
races
rachel
racing
rad
radar
radiation
radical
radio
rafael
raid
rain
rainbow
ralph
ram
ramsey
random
range
rangle
ranking
rankings
rap
rape
rapid
rare
ras
rat
rate
rates
rather
ratings
ratio
ration
raton
ray
raymond
rc
rca
rcs
rcw
rd
re
reach
reaction
read
reader
reading
ready
real
reality
really
reason
rebecca
rec
received
recent
recognition
reconstruction
record
recorded
recording
recordings
records
recovery
red
reduction
reed
ref
reference
references
reflections
reform
refugee
refugees
regarding
regime
region
regional
regions
register
registration
regulation
regulations
reich
reid
reign
related
relation
relations
relationship
relationships
relative
relativistic
relativity
relay
release
released
releases
religion
religions
religious
remains
remix
remote
ren
renaissance
rene
report
reported
reporter
reports
reprint
reprinted
reptiles
repubblica
republic
republika
republike
request
required
requirements
requires
res
research
reserve
resistance
resolution
resource
resources
response
responses
rest
restoration
result
results
retrieved
return
returns
reuters
rev
reveal
revealed
reveals
revidert
review
reviews
revised
revision
revisited
revista
revival
revolution
revolutionary
revue
rex
reyes
reynolds
rez
rf
rfc
rg
rgen
rh
rho
rhs
ri
ria
riaa
ric
rica
rice
rich
richard
richardson
rick
rico
ride
rider
riders
ridpath
rie
riga
right
rightarrow
rights
rihanna
ring
rings
rio
rip
rise
rising
risk
river
rivers
rj
rk
rkiye
rlag
rlts
rm
rn
rna
rngc
ro
road
roads
rob
robert
roberto
roberts
robertson
robin
robinson
rock
rocks
rocky
rodri
rodriguez
roger
rogers
roland
role
roll
rolling
rom
roma
roman
romance
romani
romania
romanian
rome
romney
ron
ronald
ronaldo
room
roosevelt
root
roots
rosa
rose
rosen
roses
ross
roster
rotation
roterdamski
rotten
rough
round
route
routing
routledge
rovi
row
rowman
roy
royal
royale
rr
rriyet
rs
rspb
rsssf
rsta
rt
rte
rts
ru
rudolf
ruiz
rule
rules
run
runciman
running
rural
rush
russell
russia
russian
russula
ruth
rv
ry
ryan
s
sa
sab
sabah
sacred
sad
safety
sagan
sage
said
saint
saints
sale
sales
salix
salt
sam
same
samo
sample
samuel
samurai
samus
san
sand
sandra
sans
santa
santos
sao
sara
sarah
sarajevo
sas
sasha
sata
satellite
satellites
saturday
saturn
saudi
saunders
sauropod
sauropoda
savage
save
savremena
say
says
sb
sba
sbab
sbb
sbbc
sbc
sc
scale
scandinavian
scarecrow
scene
schedule
schleswig
schmidt
schmitt
schneider
scho
scholar
scholars
school
schools
schuster
sci
science
sciences
scientific
scientist
scientists
score
scores
scotland
scott
scottish
screen
scribner
script
scriptstyle
sculpture
sd
se
sea
seal
seals
sean
search
seas
season
seattle
sebastian
sec
second
secondary
secret
secretary
secrets
section
sector
secure
security
sed
see
seen
seitz
selected
selection
self
selling
semi
sen
senate
send
sense
sent
sep
september
sequence
sequences
ser
sera
serbia
serbian
serbs
sergio
serie
series
server
service
services
ses
session
set
sets
settlement
settlements
seven
seventeenth
seventh
several
sevilla
sevnica
sex
sexual
sf
sfn
sfnm
sfnp
sg
sh
shadow
shadows
shakespeare
shall
shape
share
sharp
sharpe
shaw
she
sheet
shelf
shell
shenzhen
sheppard
shift
shock
shop
short
shot
should
show
shows
si
sic
sid
side
sie
siege
sierra
sigma
sign
signal
signed
significance
significant
signing
signs
sil
silent
silva
silver
sim
simbad
similar
simon
simone
simple
simpson
sin
since
singapore
singer
singh
single
singles
sinh
sinnott
sint
sio
sir
sistema
sister
sisters
sit
site
sites
situation
six
sixteenth
sixth
size
sj
sjo
sk
ska
skbl
ski
skin
skopje
sky
sl
sla
slave
slavery
slavic
sleep
slippy
slobodan
slovakia
slovenia
slovenija
slovenije
slow
sm
small
smart
smith
smithsonian
smrt
sn
snake
snow
so
soc
soccer
soccerbase
soccernet
soccerway
social
socie
societies
society
sociology
sofia
software
soil
sol
solar
sold
soldier
soldiers
solid
solidago
solo
solomon
solution
solutions
som
some
something
son
song
songs
sonic
sonneborn
sons
sony
soon
sophie
soul
sound
sounds
soundtrack
source
sources
sous
south
southampton
southeast
southeastern
southern
soviet
sp
spa
space
spacecraft
spain
span
spanish
sparks
spatial
spd
speak
speaking
spears
special
specialist
species
specific
specified
spectral
spectroscopy
spectrum
speech
speed
spencer
spiegel
spin
spirit
split
spoken
sport
sporting
sportmedia
sports
spot
spread
spring
springer
sprint
spy
sql
sqrt
squad
square
sr
srbija
srbijasport
srbije
srednjem
sri
srpska
srpske
ss
st
sta
stability
stable
stadium
stadt
staff
stage
stalin
stanbul
stand
standard
standards
standing
stanford
stanley
stanovnis
staphylococcus
star
stars
start
startlist
stat
state
statement
states
station
statistic
statistical
statistics
statistik
statistiku
statistisches
statoids
stats
status
stay
ste
steel
stefan
stefano
stefanovski
stein
stellar
step
stephanie
stephen
steps
sterling
stern
stevan
steve
steven
stevens
stevenson
stewart
still
sto
stock
stockholm
stone
stones
stop
storage
store
storia
stories
storm
story
str
straight
strange
stranger
strasbourg
strategic
strategies
strategy
stream
street
stress
strike
striker
strong
structural
structure
structures
struggle
stuart
student
students
studien
studies
studio
studios
study
stuttgart
style
su
sub
subdivisions
subject
subjects
subsp
success
successive
such
sudan
sue
sugar
suicide
suisse
suite
sul
sulentic
sullivan
sultan
sum
summary
summer
summit
sun
sunday
sunderland
sunt
suny
sup
super
superman
supernova
suppl
supplement
supply
support
sur
surface
surgery
survey
survival
susan
sustainability
sustainable
suzanne
sv
sve
sven
svensk
svenska
svenskt
sverige
sveriges
svg
svjetlost
svt
sweden
swedish
sweet
swift
swimming
swiss
switch
switzerland
sydney
sylvia
symbols
symphony
symposium
syndrome
synthesis
syria
syrian
system
systema
systematic
systematics
systems
sz
t
ta
table
tables
tag
take
taken
takes
taking
tale
talent
tales
talk
talking
talks
tampa
tan
tanh
target
targets
tarihi
task
tate
tau
tauris
tax
taxonomic
taxonomy
taylor
tb
tc
tcp
te
tea
teaching
team
teams
tears
teatro
tech
technical
techniques
technologies
technology
ted
teen
tekken
tel
telegraph
telephone
telescope
television
tell
temperature
temple
temps
ten
tenerife
tennis
ter
term
terms
terra
terrestrial
territorial
territories
territory
terror
terrorism
terry
tes
test
testament
testing
texas
text
textbook
texts
tf
tfrac
tg
th
thailand
thames
than
that
the
theater
theatre
theft
theguardian
their
them
themselves
then
theodore
theoretical
theories
theory
therapy
there
thermal
these
thesis
thessaloniki
theta
they
thiem
thing
things
think
thinking
third
this
thomas
thompson
thomson
those
thought
thousand
threat
threatened
three
through
thu
thus
ti
tica
tico
tidal
tie
tienne
tifft
tiger
tigris
til
till
tim
time
timeline
times
timing
timothy
tin
tina
titan
title
to
toa
today
todd
together
toj
tokyo
told
tolkien
tom
tomatoes
tomb
tome
tonight
tony
too
took
tool
tools
top
topic
topics
tops
torino
toronto
torres
total
tottenham
touch
tour
tourism
tourist
tournament
tours
toward
towards
tower
town
towns
toxicology
tr
tra
track
tracks
trade
tradition
traditional
traditions
traffic
tragedy
trail
train
training
trans
transactions
transcript
transfer
transfermarkt
transformation
transition
translated
translation
translator
transmission
transport
trap
travel
tre
treadgold
treatment
treaty
treba
trec
tree
trees
trek
trends
tres
trg
tri
trial
trials
tribune
tribute
trick
trifolium
trip
triple
triumph
troops
tropical
true
trump
trust
truth
try
ts
tt
tu
tucker
tucson
tudes
turkey
turkish
turks
turn
turnbull
turner
turns
tuttomercatoweb
tv
tva
tvo
twentieth
twenty
twilight
twin
twitter
two
tx
tycho
tyler
type
types
tz
u
ua
uae
ubi
uc
uci
ucla
udp
uefa
ufficiale
uganda
ugc
ugca
uk
ukraine
ukrainian
ul
ulrich
ultimate
ultra
ultratop
um
un
una
uncharted
und
under
underground
understanding
underworld
une
unemployment
unesco
uni
unicef
unicode
union
unique
unit
united
units
unity
univ
universal
universe
universidad
universita
university
unix
unknown
unpublished
until
up
update
updated
updates
upon
upper
uppsala
ups
ur
uranus
urban
urbe
url
ursus
uruguay
us
usa
usage
usb
usda
use
used
user
users
uses
usgs
using
ut
utah
utc
utd
uz
v
va
val
vale
valencia
valle
valley
value
values
van
vancouver
vanuatu
var
varepsilon
variability
variable
variation
variations
variety
various
varphi
vas
vatican
vaucouleurs
vcc
ve
vec
vecer
vector
veku
velo
velocities
velocity
velonation
velonews
velyaminov
venice
venus
ver
vera
verbascum
verlag
version
versus
vert
vertebrate
vertical
very
vespa
vest
vesti
vg
vh
vhs
vi
via
vice
victims
victor
victoria
victory
vid
vida
video
videos
vie
vienna
vietnam
view
views
vii
viii
viking
vila
villa
village
villages
vincent
vintage
violence
virgin
virginia
virtual
virus
vis
vision
visit
vislava
vista
visual
vita
vizier
vladimir
vo
vogue
voice
voices
vol
volcanic
volcanism
volcano
volcanoes
vols
volta
volume
volumes
vom
von
voor
vorontsov
vote
voyage
voyager
vreme
vs
vuelta
vulgaris
vulpes
vv
w
wa
wagner
wales
walk
walker
wall
wallace
walsh
walter
wan
wang
want
wanted
wants
war
ward
warfare
warming
warner
warren
wars
warszawa
was
washington
waste
watch
water
waters
watford
watson
wave
waves
way
wayback
wayne
ways
wc
we
wealth
weapons
weather
web
weber
website
webster
wedding
week
weekend
weekly
weeks
wei
weights
welcome
well
welle
wells
welt
went
were
werner
wesley
west
western
westport
what
wheeler
when
where
which
while
white
who
whole
whoscored
whose
why
wi
wide
wie
wien
wiener
wiesbaden
wife
wiki
wikilink
wikimedia
wikipedia
wild
wildlife
wiley
wilhelm
wilkinson
will
william
williams
wilson
win
wind
window
windows
wine
wing
wings
winner
winners
winning
wins
winter
wire
wired
wireless
wisconsin
wise
wissenschaften
witcher
with
within
without
wm
wo
wolf
wolfgang
wolfram
woman
women
won
wonder
wood
woods
word
wordpress
words
work
workers
working
works
workshop
world
worldbank
worldcat
worldfootball
worlds
worldtour
worldwide
worth
would
wp
wr
wright
writer
writers
writing
writings
written
wrong
wu
wwf
www
x
xbox
xi
xico
xii
xiii
xiv
xix
xml
xsd
xv
xvi
xvii
xviii
xx
xxi
xxii
xxiii
xxx
xy
y
ya
yahoo
yale
yang
yardbirds
yates
yayınları
ycat
ye
year
yearbook
years
yellow
yes
yet
yi
yo
york
yorker
you
young
your
yourself
youth
youtube
yu
yugoslav
yugoslavia
yves
z
za
zagreb
zavod
ze
zealand
zeit
zeitschrift
zeitung
zeppelin
zero
zeta
zhang
zn
zone
zoo
zoological
zoology
zu
zum
zumeta
zur
zvezda
zw
zwicky
{
|
}
~

¡
¢
£
§
¨
©
ª
«
¬
­
®
¯
°
±
²
³
´
µ
·
¹
º
»
¼
½
¾
¿
×
ß
æ
ð
÷
ø
đ
ħ
ı
ł
ŋ
ɐ
ɑ
ɔ
ə
ɛ
ɡ
ɣ
ɤ
ɪ
ɲ
ʁ
ʃ
ʒ
ʔ
ʰ
ʲ
ʷ
ʹ
ʻ
ʼ
ʾ
ʿ
ˇ
ˈ
ˌ
ː
˙
˚
˝
ˮ
̀
́
̂
̃
̄
̆
̇
̈
̉
̊
̋
̌
̓
̔
̛
̝
̞
̠
̣
̥
̦
̧
̨
̪
̭
̮
̯
̱
̸
͂
ͅ
͡
΄
α
αγι
αγω
αθανα
αθανασι
αθη
απο
αποκαταστα
αρχ
αρχαιολογικω
ας
β
βε
γ
γεφυ
γεω
γεωργι
για
γιος
γων
δ
δα
δας
δε
δη
δημη
δης
διαρκη
δος
δρα
ε
εαπ
ει
εκκλησι
ελλα
ελληνικη
επιτροπη
ες
ζ
η
θ
θεοτο
θεσσαλονι
ι
ιερα
ιερο
ιστορι
ιωα
κ
κα
και
καστορια
κατα
κη
κηρυγμε
κης
κι
κος
κου
κωνσταντι
λ
λα
λαος
λεως
λη
λι
λιθοξο
λογος
λου
μ
μα
μακεδονι
μας
με
μετονομασι
μητρο
μνημει
μονη
μος
μου
μφωνα
ν
να
ναι
ναο
ναου
νας
νε
νη
νης
νι
νια
νιγρι
νικο
ννης
νος
νω
νων
ξ
ο
οι
οικισμοι
οικισμω
ος
ου
π
πε
περι
περιοχη
πληθυσμο
πο
πολη
που
πουλος
προ
προσφυ
προσφυγικω
πων
ρ
ρα
ργιος
ρι
ρια
ρος
ρου
ς
σ
σε
σεις
σερρω
σεως
ση
σης
σιος
στη
στην
στο
στοιχει
συ
συνοικισμω
τ
τα
τη
την
της
τι
το
τον
τος
του
τους
τρης
τω
των
υ
υα
υππο
φ
φεκ
χ
ψ
ω
ων
ϕ
ϵ
а
аа
аат
аба
абас
абба
абд
абдицирал
абдоменот
абдул
абдула
абел
абердин
аби
абидос
абнормалности
абортус
абортусот
абрахам
абу
абхазија
ав
ава
аваат
авала
аваме
авангарда
авантура
авантури
авантуристички
авантурите
аварите
авато
авања
авањата
авање
авањето
авганистан
август
августа
августин
авелино
авенир
авенија
авенијата
авермат
авив
авила
авиокомпании
авиокомпанија
авиокомпанијата
авион
авиони
авионите
авионот
авионска
авионски
авијација
авињон
авној
авол
аволи
аволот
авраам
аврам
аврелиј
аврил
австразија
австралиска
австралиската
австралиски
австралискиот
австралиските
австралија
австриска
австриската
австриски
австрискиот
австриските
австриско
австриското
австрија
австријците
австро
австронезиски
австроунгарија
австроунгарската
австроунгарските
автентични
автентичноста
авто
автобиографија
автобиографски
автобус
автобуси
автобуска
автобуски
автобусот
автоматска
автоматски
автоматско
автомобил
автомобили
автомобилите
автомобилот
автомобилска
автомобилската
автомобилски
автономен
автономија
автономијата
автономна
автономната
автономни
автономниот
автономных
автопат
автопати
автопатот
автопортрет
автор
автори
авторите
авторитет
авторитетот
авторка
авторката
авторот
авторски
авторските
авторско
авторското
автотаксономија
автохтони
аг
ага
агамемнон
агапит
агата
агатон
агенда
агенс
агенси
агент
агенти
агентите
агентот
агенции
агенција
агенцијата
агиос
агитација
агларци
агли
аглите
агнес
агол
аголен
аголна
аголната
аголниот
аголот
аграрни
агрегати
агрегатна
агрегатната
агресивен
агресивни
агресивно
агресија
агресијата
ад
ада
адам
адамс
адана
адаптации
адаптација
адаптацијата
адаптиран
адаптирана
адвокат
адвокати
адвокатите
адвокатот
адел
аделаида
адеодат
адидас
адисон
адлер
административен
административна
административната
административни
административниот
административните
административно
администратор
администратори
администрација
администрацијата
адмирал
адмиралот
адолф
адорно
адреса
адресата
адреси
адресите
адријан
адријанопол
адријатико
ае
аек
аен
аеродром
аеродроми
аеродромите
аеродромот
ажурирана
ажурирање
аз
азар
азбука
азбуката
азбуки
азбучен
азербејџан
азербејџанската
азербејџански
азербејџанските
азик
азил
азиска
азиската
азиски
азискиот
азиските
азија
азот
азотни
аи
аирес
ак
акад
академи
академии
академик
академици
академија
академијата
академска
академската
академски
академскиот
академските
академско
акварел
аквитанија
ако
аковица
аково
акон
акп
аксел
акт
актер
акти
актива
активата
активен
активизам
активира
активираат
активирање
активист
активисти
активистите
активистка
активна
активната
активни
активниот
активните
активно
активност
активноста
активности
активностите
активното
актин
актинот
актите
актот
актуелен
актуелната
актуелни
актуелниот
актуелните
акузатив
акумулација
акумулацијата
акумулира
акумулираат
акупунктурата
акустична
акустични
акутна
акцент
акцентот
акции
акциите
акционен
акционери
акционерите
акционерско
акциониот
акција
акцијата
акчиња
ал
ала
алабама
алан
алат
алати
алатка
алатки
алатките
алафилип
алах
алба
албанец
албанија
албанска
албанската
албански
албанскиот
албанските
албанско
албанското
албанци
албанците
албедо
албер
алберт
алберта
албертина
алберто
албион
албрехт
албум
албуми
албумите
албумот
алва
алгарве
алгебарски
алгебра
алги
алгоритам
алгоритми
алгоритмот
але
алегорија
алегро
алек
алекс
алекса
александар
александер
александр
александра
александриски
александрија
александров
александрович
алексеј
алексик
алексис
алексиј
алексо
ален
алеп
алер
алесандро
алехандро
алжир
алзас
али
алин
алинци
алис
алиса
алисон
алишта
алиштата
алиште
алиштето
алија
алијанса
алијансата
алка
алкохол
алкохолни
алкохолот
алма
алманах
алмати
алмерија
ало
алонсо
алп
алпи
алпите
алпска
алпски
алпско
алстер
алт
алтај
алтенбург
алтернатива
алтернативен
алтернативи
алтернативна
алтернативната
алтернативни
алтернативните
алтернативно
алто
алтона
алуминиум
алфа
алфонс
алфонсо
алфред
алјаска
ам
ама
амадеус
амазон
амам
амамот
аман
аманда
амандман
амандмани
амандманот
амасија
аматер
аматери
аматерски
амбасада
амбасадата
амбасади
амбасадор
амбасадори
амбасадорот
амбиент
амбиции
амбиција
амблем
амбуланта
аме
америка
американец
американецот
американска
американската
американски
американскиот
американските
американско
американското
американци
американците
ами
амин
амино
аминокиселина
аминокиселини
аминокиселините
аминокиселински
амнестија
амон
амониум
амонијак
амплитуда
амплитудата
амрум
амстел
амстердам
амт
амундсен
амур
амфитеатар
ан
ана
анадолија
анаклет
анализа
анализата
анализи
анализира
анализираат
анализирани
анализирање
анализите
аналитичар
аналитичари
аналитичка
аналитички
аналоген
аналогија
аналогни
аналогно
ананд
анархизам
анархизмот
анархист
анархија
анастас
анастасиј
анастасија
анатолиј
анатомија
анатомијата
анатомски
анг
ангажира
ангажираат
ангажирал
ангажиран
ангажирана
ангажирани
ангажирање
ангажман
ангел
ангела
ангели
ангелина
ангелите
ангелов
ангеловски
ангелот
ангина
англ
англиканската
англиска
англиската
англиски
англискиот
англиските
англиско
англиското
англичаните
англија
англо
ангола
андалузија
андалусија
андартски
андер
андерграунд
андерлехт
андерс
андерсен
андерсон
анджеј
андите
андон
андонов
андоновски
андора
андре
андреа
андреас
андреев
андреевски
андрес
андреј
андреја
андрик
андрија
андромеда
андроник
ане
анекс
анексија
анексијата
анемија
анета
анец
анецот
ани
анимација
аниме
анимиран
анимирана
анимирани
анимираниот
анин
анинот
анита
аните
аницет
анка
анкара
анкета
анкетата
анкети
анксиозност
ано
анови
аномалии
аномалија
анонимен
анонимни
анонимно
анот
анри
ансамбл
ансамбли
ансамблот
анска
анската
ански
анскиот
анските
анско
анското
анство
анталија
антантата
антарктик
антарктикот
антарктичка
антарктичката
антарктички
антарктичкиот
антверпен
анте
антена
антени
антените
антер
анти
антибиотици
антигва
антигон
антигона
антик
антика
антиката
антиквитети
антили
антимон
антиох
антиохија
антитела
античка
античката
антички
античкиот
античките
античко
античкото
антоан
антологии
антологија
антологијата
антон
антони
антонин
антонио
антониј
антонов
антропогеографска
антрополог
антропологија
антропологијата
анхалт
анхел
анци
анџелес
анџело
ао
ап
апарат
апарати
апаратот
апартман
апартмани
апел
апетит
апликации
апликациите
апликација
апликацијата
аполо
аполон
апостол
апостоли
апостолите
апостолов
апостолот
апостолска
апостолски
април
апсења
апсење
апсењето
апсида
апсидата
апсолутен
апсолутна
апсолутната
апсолутно
апсорбира
апсорбираат
апсорпција
апсорпцијата
апстрактни
апстракција
аптека
ар
ара
арабија
арагон
арад
арамејски
арамејскиот
аранг
арангел
аранжман
аранжмани
арап
арапи
арапина
арапите
арапска
арапската
арапски
арапскиот
арапските
арапско
арапското
арачиново
арбитража
аргентина
аргентинската
аргентински
аргентинскиот
аргир
аргон
аргос
аргумент
аргументи
аргументите
аргументот
ардеш
арена
арената
ари
ариел
аризона
аристократи
аристократија
аристократијата
аристотел
аритметичката
арка
аркадиј
арктикот
арктичка
арл
арм
армии
армиски
армија
армијата
армстронг
арнаути
арно
арнолд
арома
ароматични
арон
арона
арс
арсен
арсенал
арсениј
арсо
арсов
арсовски
арт
артемида
артерии
артерија
артефакти
артилериски
артилерија
артилеријата
артист
артисти
артритис
артур
ару
архангел
архангели
археи
археите
археолог
археологија
археологијата
археологот
археолози
археолозите
археолошка
археолошки
археолошкиот
археолошките
археолошко
археолошкото
архив
архива
архивата
архиви
архивиран
архивирано
архивите
архивот
архивска
архивски
архивскиот
архиепископ
архиепископија
архиепископијата
архиепископот
архиерејско
архимандрит
архимед
архипелаг
архипелагот
архитект
архитекти
архитектите
архитектонска
архитектонската
архитектонски
архитектонскиот
архитектонските
архитектонско
архитектот
архитектура
архитектурата
архијерејско
арџеш
ас
асеан
асен
асимилација
асирија
асирскиот
асирците
асистент
асистенти
асистенции
асистенција
асистирал
аскер
аскерот
асном
асоцијации
асоцијација
асоцијацијата
аспект
аспекти
аспирации
астана
астеризам
астероид
астероиден
астероиди
астероидите
астероидниот
астероидот
астма
астон
астра
астрид
астрологија
астрологијата
астроном
астрономи
астрономите
астрономија
астрономијата
астрономот
астрономска
астрономски
астрономските
астрономско
астрофизика
астурија
асур
асфалтен
асфалтиран
ат
ата
аталанта
атанас
атанасиј
атанасов
атанасовски
атар
атарот
ататурк
ате
ателје
атена
атентат
атентати
атентатори
атентатот
атика
атила
атина
атинскиот
атињаните
аткинс
атланта
атлантик
атлантикот
атлантски
атлантскиот
атлас
атласот
атлетик
атлетика
атлетико
атлетичар
атлетски
атм
атмосфера
атмосферата
атмосферска
атмосферски
атмосферскиот
атмосферските
атол
атолот
атом
атоми
атомите
атомот
атомска
атомската
атомски
атомскиот
атомските
атомското
атп
атракции
атракција
атрибут
атрибути
аугсбург
аугуст
ауданы
аудио
аудиција
ауе
аукција
аурих
аурора
аут
аутизам
аушвиц
аф
афанасии
афанасиј
афера
аферата
афинитет
афион
афионите
афирмација
афонсо
африка
африканска
африканската
африкански
африканскиот
африканските
африканско
африканското
афро
афродита
ах
ахен
ахил
ахмад
ахмед
ахмет
аце
ацев
ацо
ацтеките
ацтечки
ач
ачи
ачите
ачки
ачот
аш
ашана
аше
ај
аја
ајакс
ајдахо
ајде
ајети
ајк
ајкула
ајкули
ајланд
ајленд
ајна
ајндховен
ајни
ајните
ајнштајн
ајова
ајот
ајти
ајхсфелд
аљ
аљоша
ања
ањата
ање
ањето
аџи
аџилак
б
ба
баба
бабата
бабик
бабино
бабо
бабуна
баварија
бавен
бавна
бавни
бавно
багдад
бад
бадахос
бадеми
баден
бадник
баер
баерн
база
базалт
базата
базел
базелскиот
базен
базени
базенот
бази
базилика
базиликата
базирани
базите
базни
баир
бак
бакар
бакарна
бакарни
бакарно
бакарот
бакнеж
бактерии
бактериите
бактериски
бактерија
бактеријата
баку
бал
балада
баладата
балади
баланс
балдуин
балерина
балет
балетот
балетски
балзак
бали
балистите
балистички
балистичките
балкан
балканот
балканска
балканската
балкански
балканскиот
балканските
балон
балтимор
балтички
балтичките
балтичко
балтичкото
бан
банат
бангкок
бангладеш
банда
бандата
банди
баница
банк
банка
банкар
банкарска
банкарски
банкарскиот
банкарските
банкарство
банкарството
банката
банки
банките
банкноти
банкнотите
банкрот
бановина
банско
банту
бар
бара
бараа
бараат
бараж
барак
барал
барала
барале
барало
барам
бараме
бараше
барајк
барања
барањата
барање
барањето
барбадос
барбара
барбарево
барбароса
барбуда
барели
барем
бари
бариера
бариери
баритон
бариум
барнард
барнс
барови
барово
барок
барокен
барокна
барокната
барокни
барокниот
барокот
барон
баронот
барот
барселона
барт
бартали
бартон
барут
бас
басен
басени
басенот
басист
басистот
баскет
баскиски
баскија
басна
басни
бастон
бастоњ
бат
бата
баталјон
баталјони
баталјонот
батерии
батерија
батеријата
батист
батиста
батлер
батор
бауер
бауман
баухаус
бауцен
бафало
бафи
бафта
бах
бахамите
бахреин
бахтин
бач
бачка
баш
башкортостан
баја
бајазид
бајазит
бајер
бајерн
бајка
бајката
бајки
бајките
бајконур
бајрам
бајрон
бајројт
бајти
бања
бањата
бањи
бањите
бањица
бањски
баџо
бдп
бе
беа
бебе
бебето
бебиња
бев
беверли
бевме
бег
бега
бегаат
бегалец
бегалски
бегалско
бегалци
бегалците
бегај
бегајк
бегемот
бегови
бегот
бегство
бегството
беда
бедем
бедеми
бедемот
без
безбеден
безбедна
безбедни
безбедно
безбедносна
безбедносни
безбедносните
безбедност
безбедноста
безброј
безжичен
безжична
безжични
безжичните
безрбетници
безуспешно
бек
бекам
бекер
бекет
беки
бел
бела
беласица
белата
белгиската
белгиски
белгискиот
белгија
белград
белградска
белградската
белградски
белградскиот
белграно
белев
белег
бележат
бележи
белези
белешка
белешки
белешките
бели
белиз
белингсхаузен
белиот
белите
белица
беличица
белковина
белковината
белковини
белковините
белковински
бело
беловиште
белорусија
белоруска
белоруската
белоруски
белорускиот
белото
белфаст
белци
белците
белчишта
бен
бенгал
бенгалски
бенд
бендови
бендовите
бендот
беневенто
бенедикт
бенет
бенефиции
бензин
бензински
бени
бенин
бенито
бенкс
бенсон
бенфика
бенц
бенџамин
београд
београда
београду
бер
берат
берба
берг
бергамо
берген
бергер
бергман
берд
берде
березовски
береникина
берза
берзата
бери
беркли
берлин
берлинската
берлинскиот
берн
бернар
бернард
бернардо
бернули
бернхард
берово
берски
берско
берт
берта
бес
бесарабија
беседа
бесконечен
бесконечна
бесконечно
бесконечност
бескрајно
бесплатен
бесплатна
бесплатни
бесплатно
бест
бет
бета
бете
бети
бетис
бетмен
бетовен
бетон
бетонски
бечеј
беше
бешикташ
беј
бејби
бејзбол
бејкер
бејкон
бејл
бејли
бејрут
би
биатлон
бибер
бибиси
библиографија
библиографски
библиотека
библиотекар
библиотеката
библиотеки
библиотеките
библиски
библија
библијата
биг
бигла
бигор
бигорски
бигурдан
бидам
бидат
биде
бидеме
бидете
бидеш
бидејк
биди
бидит
бие
биенале
бизмарк
бизнис
бизниси
бизнисите
бизнисот
бик
бикови
бикот
бил
била
биланс
билансот
билатерални
билбао
билборд
биле
билети
били
билиони
билка
билки
било
билото
билтен
билјана
бин
бинарни
бинше
био
биограф
биографии
биографично
биографија
биографијата
биографска
биографски
биолог
биологија
биологијата
биолошка
биолошката
биолошки
биолошките
биолошко
биопсија
биоразновидност
биоразновидноста
биосферен
бира
бираат
бирмингем
биро
бирократија
бирото
бирс
бисао
бисер
бисери
бискуп
бискупот
биста
бисти
бистра
бистрица
бит
бита
битен
битерфелд
бити
битие
битието
битка
битката
битки
битките
битлси
битна
битни
битно
битови
битола
битолска
битолската
битолски
битолскиот
битолско
битолското
битољско
бих
бич
бијонсе
бкп
благ
блага
благајник
благи
благо
благовештение
благодарение
благодарејк
благодарност
благодарноста
благоевград
благоевградската
благороден
благородни
благородник
благородници
благородниците
благородничка
благородничко
благородништво
благородништвото
благослов
благослови
благосостојба
благосостојбата
благотворително
благој
благоја
блаже
блажевски
блажената
бланко
блато
блаце
блед
бледа
бледи
бледо
блек
блекбурн
блер
блесок
блејк
близина
близината
близнак
близнаци
близнаците
близок
близу
блиска
блиската
блиски
блискиот
блиските
блиско
блискост
блиското
блиску
блиц
блог
блогови
блогот
блок
блокада
блокадата
блокира
блокираат
блокирани
блокирање
блокови
блокот
блокотехна
блу
блуз
блум
бмц
бо
боб
бобан
боби
бобинки
бог
бога
богат
богата
богатата
богати
богатиот
богатите
богато
богатства
богатство
богатството
богдан
богданов
богдановик
богданци
богови
боговите
боговиње
богоевски
богомила
богородица
богослов
богословија
богослужба
богот
бод
бода
боде
боден
бодлер
бодовен
бодови
бодовите
бодовна
бодовниот
бодување
боење
боже
божества
божествена
божествената
божество
божеството
божидар
божик
божин
божинов
божиновска
божиновски
божица
божицата
божја
божјата
божји
божјиот
божјите
божјото
бозон
бозони
бои
боинг
боите
боиште
бока
бокс
боксер
бол
болгарское
болдвин
боледување
болен
болеслав
болест
болеста
болести
болестите
болејн
боли
боливар
боливија
болка
болката
болки
болна
болни
болниот
болните
болница
болницата
болници
болниците
болнички
болно
болоња
болтон
болшевиците
бом
бомба
бомбардери
бомбардирање
бомбардирањето
бомбата
бомбашки
бомби
бон
бонапарт
бонапарта
бонд
боне
бонен
бони
бонифациј
боно
бонус
бонуси
бор
бора
борат
борац
борач
борба
борбата
борбен
борбена
борбени
борбените
борбеност
борби
борбите
бордо
борел
борела
бореле
борец
боречки
бореше
борејк
борење
бори
боривое
борис
борислав
борисов
борка
борн
борнео
боро
борова
борови
борово
борусија
борхгревинк
борхес
борци
борците
борче
бос
босанска
босанската
босански
босанскиот
босанските
босанско
босилово
босна
бостон
босфорот
бот
ботаника
ботаничар
ботаничка
ботаничката
ботанички
ботев
ботун
боуви
бохемија
боцвана
боцки
бош
бошава
бошко
бошковски
бошкоски
бошњаци
бошњаците
бошњачки
бој
боја
бојан
бојана
бојата
бојкот
бојл
бојмија
бојното
бојс
бр
брабант
браво
брада
брадавици
брадата
бразда
бразил
бразилска
бразилската
бразилски
бразилскиот
брак
бракови
бракот
бран
брана
бранат
браната
бранденбург
брандо
бранел
бранејк
брани
бранислав
бранител
бранители
бранителите
бранителот
бранко
бранковик
бранова
брановата
бранови
брановите
бранот
брат
брата
брате
братислава
братот
братства
братство
братството
братучед
братучетка
браун
брауншвајг
брачен
брачна
брачни
брачниот
брачните
брашно
брајан
брајант
брајтон
брајчино
брвеница
бргу
брда
брдо
бре
брег
брега
брегалница
брегалничка
брегалничката
брегови
бреговите
брегот
бред
бредли
брежани
брежице
бреза
брезница
бремен
бремена
бременост
бременоста
бремерхафен
бренд
брендови
брендон
брендот
брест
бретања
бретон
брехт
бреша
брз
брза
брзата
брзи
брзина
брзината
брзини
брзините
брзиот
брзите
брзо
брзото
бригада
бригадата
бригади
брин
брисел
бристол
британика
британија
британска
британската
британски
британскиот
британските
британско
британското
британците
бритни
бришење
бриџ
брка
бркаат
брно
бро
брод
брода
бродвеј
бродец
бродови
бродовите
бродот
бродски
броеви
броевите
броел
броела
броеле
броело
броена
броење
броењето
броз
брои
бром
бромвич
бронза
бронзен
бронзена
бронзени
бронзениот
бронзено
бронзеното
бронте
брос
брошура
број
броја
бројат
бројгел
бројка
бројката
бројки
бројките
бројна
бројната
бројни
бројните
бројно
бројност
бројноста
бројот
бројчени
брук
бруклин
брукс
брунелески
брунеј
бруно
брус
брут
бруто
брњарци
бу
буба
бубамара
бубачки
бубрег
бубрежна
бубрезите
був
буг
бугари
бугарин
бугарите
бугарија
бугарска
бугарската
бугарски
бугарскиот
бугарските
бугарско
бугарското
буда
будва
будење
буди
будизам
будизмот
будим
будимпешта
будистички
будистичкиот
будук
буенос
бук
бука
букв
буква
буквален
буквално
буквата
букви
буквите
букова
буковик
буково
букурешкиот
букурешт
бул
була
булгаков
булевар
булеварот
булс
бум
буна
бунар
бунари
бунарот
бундеслига
бундеслигата
бунт
бунтеска
бунтови
бунтовник
бунтовници
бунтовниците
бунтот
бура
бурата
бург
бургас
бургенланд
бургос
бургундија
буре
бурен
бурж
бури
бурите
буриња
буркина
бурма
бурса
бурунди
бут
бутан
бутел
бучава
бучим
буш
бујна
буџет
буџетот
буџетски
българите
българия
българска
българската
български
българско
българското
бјанке
бјанконерите
бјорн
в
ва
вавилон
вавринка
вага
вагината
вагнер
вагони
ваденско
вадење
вади
важат
важел
важен
важи
важна
важната
важни
важните
важно
важност
важноста
вазал
вазали
вака
ваква
ваквата
вакви
ваквиот
ваквите
вакво
ваквото
ваков
вакуум
вакцини
вал
валандово
валас
валверде
валдемар
вале
валенс
валенсија
валентин
валентина
валентинијан
валентино
валери
валериј
валжан
вали
валиде
валиден
валидни
валоа
валон
валони
валтер
валута
валутата
валути
валцер
вам
вампир
вампири
вампирите
ван
ванадиум
ванг
вангел
вандалите
ванила
ванкувер
вануату
ванчо
вапцаров
вар
варвара
вард
вардар
вардарска
вардарската
вардарски
вардарскиот
варен
варење
вари
варира
варираат
варијанса
варијансата
варијанта
варијантата
варијанти
варијации
варијациите
варијација
варна
варов
варовник
варовници
варовнички
варош
вартоломеј
варуна
варшава
варшавскиот
вас
васа
васе
васил
василев
василево
василевски
василиск
василица
василиј
василије
василъ
васиљевич
васко
ват
вата
ваташа
ватенфал
ватерполо
ватикан
вацлав
ваш
ваша
вашата
вашето
ваши
вашингтон
вашиот
вашите
вајар
вајари
вајарот
вајат
вајлд
вајмар
вајнхаус
вајоминг
вајс
вајт
ваљадолид
ваљево
вања
вбројува
вбројуваат
вграден
вградена
вградени
вдлабнатина
вдлабнатини
вдовица
вдовицата
вдовици
ве
веа
веб
вебер
вевелгем
вевчани
вег
вега
вегас
вегетација
веднаш
вежба
вежбање
вежби
вез
везер
везир
везири
век
века
векови
вековите
векот
вектор
вектори
векторот
векторски
велам
велат
велгошти
веле
велел
велемајстор
велес
велеслалом
велестово
велеше
велешката
велешки
велешкиот
велешко
велешкото
велејк
вели
велигден
велигденски
велика
велики
великиот
велико
велиме
велимир
велингтон
велит
величествениот
величина
величината
величини
величковски
велко
велмеј
велодромски
велодромско
велокрос
велосипед
велосипеди
велосипедизам
велосипедизмот
велосипедист
велосипедисти
велосипедистите
велосипедистички
велосипедистот
велосипедот
велосипедска
велосипедската
велосипедски
велс
велшки
велшкиот
вембли
вена
венгер
венера
венето
венец
венеција
венецијанската
венецијански
венецијанскиот
венецијанските
венецијанците
венецот
венецуела
вени
венизелос
вените
венко
венци
венча
венчаат
венчавка
венчавката
венчале
вер
вера
верата
верба
вербата
вергилиј
вердер
верди
верен
верзии
верзиите
верзија
верзијата
вери
верига
верификација
верковик
верлен
вермонт
верн
верна
вернер
верни
верници
верниците
верно
верност
веродостојни
вероисповед
верона
вероника
веројатно
веројатност
веројатноста
версај
версајскиот
верска
верската
верски
верскиот
верските
верско
вертикален
вертикална
вертикалната
вертикални
вертикално
верува
веруваат
верувал
верувале
верувало
верувам
верувајк
верувања
верувањата
верување
верувањето
весел
весела
весели
веселин
веслање
весна
весник
весникот
весници
весниците
веспазијан
веспрем
вест
веста
вестерн
вести
вестите
вестминстер
вестминстерската
вестфалија
ветар
ветер
ветеран
ветерани
ветеринарна
ветерница
ветерот
вети
ветил
вето
ветришта
ветрови
ветровите
ветрот
ветува
ветувајк
ветувања
ветување
ветувањето
вечен
вечер
вечера
вечерата
вечери
вечерни
вечерните
вечерта
вечерње
вечна
вечната
вечни
вечниот
вечно
вечноста
вешт
вештачка
вештачката
вештачки
вештачките
вештачко
вештачкото
вештерка
вештерката
вештерки
вештерките
вештерот
вешти
вештина
вештината
вештини
вештините
вешто
вејд
вејн
вејце
вељко
ви
виа
вибрации
вивалди
виган
вигилиј
вигинс
вид
вида
видам
видат
виде
видеа
видел
видела
виделе
виделина
видело
виден
видена
видени
видено
видео
видеоигри
видеото
видете
види
видиме
видин
видите
видиш
видлив
видлива
видливата
видливи
видливиот
видливо
видливост
видни
видно
видоа
видов
видови
видовите
видое
видоески
видот
видување
вие
виена
виенската
виенскиот
виетнам
виетнамската
виетнамски
виза
византион
византиска
византиската
византиски
византискиот
византиските
византиско
византиското
византија
византијците
визба
визи
визиготите
визии
визија
визијата
визуелен
визуелна
визуелната
визуелни
визуелните
визуелно
вик
вика
викаат
викал
викала
викале
викаше
викенд
викендот
вики
викивидовите
викиизвор
викикниги
викиликс
викимедија
викинзите
википедија
викицитат
виктор
викторија
вил
вила
вилает
вилаетите
вилаетот
вилата
вилем
вили
вилис
вилица
вилицата
вилици
вилијам
вилијамс
вилкс
вилнус
вилсон
вилхелм
вимблдон
вин
вина
вината
виндзор
виндоус
винер
вини
винил
виница
виничка
вино
винова
виновен
виновни
виножито
виното
винсент
вински
винстон
винтур
винфри
винцент
винченцо
винчи
виола
виолета
виолетова
виолетови
виолина
виолинист
виолончело
виорот
вип
вир
виртемберг
виртуелен
виртуелна
виртуелни
вирус
вируси
вирусите
вирусот
вирџинија
вис
висенте
висечки
виси
висина
висината
висини
виски
висконсин
висконти
висла
вислава
висок
висока
високата
високи
високиот
високите
високо
висококвалитетни
високото
висорамнина
висорамнината
висорамнини
висорамнините
височество
височина
височината
височини
височинка
вистина
вистината
вистини
вистинита
вистинити
вистинска
вистинската
вистински
вистинскиот
вистинските
вистинско
вистинското
виталијан
витално
витамин
витамини
витаминот
витез
витези
витезите
витезот
витенберг
витешки
витешкиот
витлеем
витни
витолиште
вице
вицепрвак
вицешампион
виченца
виш
виша
вишата
вишеград
виши
вишок
вишокот
вија
вклопува
вклучат
вклучен
вклучена
вклучени
вклучено
вклучи
вклучил
вклучила
вклучиле
вклучително
вклучува
вклучуваа
вклучуваат
вклучувал
вклучувала
вклучувале
вклучувало
вклучуват
вклучуваше
вклучувајк
вклучување
вклучувањето
вкрстени
вкрстуваат
вкрстување
вкупен
вкупна
вкупната
вкупни
вкупниот
вкупните
вкупно
вкупното
вкус
вкусови
вкусот
влага
влад
влада
владан
владата
владеат
владее
владеел
владеела
владееле
владеење
владеењето
владение
владетел
владетели
владетелите
владетелот
владејачката
влади
владика
владиката
владимир
владин
владина
владината
владини
владиниот
владините
владислав
владите
владици
владо
влажен
влажна
влажни
влажност
влажноста
влакна
влакната
влакнести
влакно
вландерен
власи
власите
власт
власта
власти
властимир
властите
влатко
влахов
влашка
влашки
влашко
влева
влеваат
влегла
влегле
влегло
влегоа
влегол
влегува
влегуваат
влегувале
влегувало
влегувајк
влегување
влегувањето
влез
влеза
влезат
влезе
влезен
влезна
влезната
влезни
влезниот
влезните
влезови
влезовите
влезот
влекачи
влечат
влече
влечење
вливот
влијаат
влијае
влијаел
влијаела
влијаеле
влијаело
влијание
влијанието
влијанија
влијанијата
влијателен
влијателна
влијателни
вложувања
вложување
влошила
влошиле
влошува
влошување
вметнат
вметнати
вметнување
вмешан
вмешаност
вмок
вморо
вмрежување
вмро
внатре
внатрешен
внатрешна
внатрешната
внатрешни
внатрешниот
внатрешните
внатрешно
внатрешност
внатрешноста
внатрешното
внба
внел
внес
внесе
внесени
внесува
внесуваат
внесување
внесувањето
внимава
внимание
вниманието
внимателен
внимателно
внук
внука
внуката
внукот
внуци
во
вовед
воведат
воведе
воведен
воведена
воведени
воведение
воведено
воведната
воведниот
воведот
воведува
воведуваат
воведување
воведувањето
вовел
вовела
вовеле
вог
воглавно
вод
вода
водат
водата
водач
водачи
водачите
водачот
водел
водела
воделе
водело
воден
водена
водената
водени
водениот
водените
воденица
воденици
водено
воденско
водечка
водечката
водечки
водечкиот
водечките
водеше
водејк
водење
водењето
води
водите
водител
водителка
водици
водич
водичи
водна
водната
водни
водниот
водните
водно
водовод
водоземци
водолија
водопад
водопади
водопадите
водопадот
водород
водороден
водородни
водородот
водоснабдување
водостопанство
водостој
водотеци
водство
водството
воедно
воен
воена
воената
воени
воениот
воените
воено
военото
вождовац
воз
возат
возач
возачи
возачите
возачот
возбуда
возвишение
возврат
воздух
воздухопловна
воздухопловната
воздухопловни
воздухопловните
воздухопловство
воздухопловството
воздухот
воздушен
воздушна
воздушната
воздушни
воздушниот
воздушните
воздушно
возел
возен
возејк
возење
возењето
вози
возила
возилата
возило
возилото
возможно
вознемирен
вознемиреност
вознемирување
вознесение
возови
возовите
возот
возрасен
возрасна
возрасната
возрасни
возрасните
возраст
возраста
возрасти
вои
воин
воини
воислав
вокал
вокален
вокали
вокалист
вокална
вокални
вокер
воксхал
вол
волга
волгоград
волдеморт
волк
волкашин
волковија
волково
волкот
волна
волнени
воловар
волови
волонтери
волонтерски
волт
волта
волтер
волти
волумен
волуменот
волф
волфганг
волфенбител
волфрам
волфсбург
волци
волците
волш
волшебни
волшебник
волшебникот
волшебниот
волја
волјата
вон
вонгалактичка
вондерерс
вонземјани
вонреден
вонредна
вонредни
вообичаен
вообичаена
вообичаената
вообичаени
вообичаениот
вообичаените
вообичаено
вообичаеното
воодушевен
воодушевување
воопшто
вооружен
вооружена
вооружената
вооружени
вооружените
вооружување
ворен
ворнер
воскресение
воскресението
восок
воспаление
воспитание
воспитно
воспитување
воспитувањето
воспостават
воспоставен
воспоставена
воспоставени
воспоставено
воспостави
воспоставил
воспоставила
воспоставиле
воспоставува
воспоставуваат
воспоставување
воспоставувањето
востание
востанието
востаници
востаниците
востанички
востаничките
востанија
восток
восхит
вотсон
вотфорд
воч
војаџер
војвода
војводата
војводи
војводина
војводите
војводство
војводството
војвотка
војвотката
војдан
војислав
војна
војната
војни
војник
војникот
војните
војници
војниците
војнички
војска
војската
војски
војските
војсководец
војувал
војувале
војување
војувањето
впечатлива
впечатливи
впечаток
впечатоци
впрочем
вр
вработен
вработена
вработени
вработените
вработеност
вработеноста
вработи
вработил
вработила
вработува
вработување
вработувањето
врак
врана
вранештица
врановци
врапчиште
врат
врата
вратам
вратат
вратата
вратен
вратена
вратени
вратено
врати
вратил
вратила
вратиле
вратило
вратите
вратија
вратница
вратот
враца
врач
врачи
врање
врба
врбас
врбица
врбјани
врв
врвен
врвна
врвни
врвниот
врвните
врвови
врвовите
врвот
вргањ
врева
вреден
вреди
вредна
вредни
вредно
вредност
вредноста
вредности
вредностите
врежани
врек
врела
врело
време
временска
временската
временски
временскиот
временските
временско
времето
времетраење
времетраењето
времиња
времињата
врз
врзан
врзана
врзани
врзува
врзуваат
врзување
врзувањето
вриење
врне
врнежи
врнежите
вродена
вродени
вроцлав
врпоље
врска
врската
врски
врските
врсници
вртат
вртежен
вртежи
вртежна
вртежниот
вртење
вртењето
врти
вруток
врх
врховен
врховенството
врховистите
врховна
врховната
врховниот
вршат
вршац
вршел
вршела
вршеле
вршени
вршено
вршење
вршењето
врши
вршител
вршник
все
вселена
вселената
вселенска
вселенската
вселенски
вселенскиот
вселенските
вселенско
вселенското
всероссии
всесоюзная
всушност
вта
втор
втора
втората
втори
вториот
вторите
вторник
второ
второпласиран
второпласираниот
второто
вторпат
ву
вуд
вуди
вудс
вуелта
вук
вукан
вулверхемптон
вулкан
вулкани
вулканите
вулканот
вулканска
вулканската
вулкански
вулканскиот
вулканските
вулканско
вулф
вучик
вујко
вчера
въ
вътрешна
вјачеслав
вљубен
вљубена
вљубува
г
га
габа
габата
габер
габи
габите
габон
габриел
габриела
габрово
гавран
гаврил
гаврило
гага
гадафи
гадење
газа
газета
гази
гак
гал
гала
галаксии
галаксиите
галаксија
галаксијата
галактички
галата
галатасарај
галеб
галеби
гален
галерии
галериј
галерија
галеријата
гали
галии
галилео
галилеј
галина
галиполе
галиција
галичица
галичник
галија
гама
гамбит
гамбија
ган
гана
ганг
ганди
гане
ганимед
гар
гарантира
гарантираат
гаранции
гаранција
гарванов
гарда
гардата
гарден
гардијан
гарднер
гари
гармин
гарнизон
гарнизонот
гарос
гарсија
гас
гасна
гасни
гасови
гасовите
гасот
гаспар
гаус
гај
гваделуп
гватемала
гвајана
гвидо
гвинеја
гдањск
гдр
ге
гевара
гевгелиско
гевгелиското
гевгелија
геза
гел
геласиј
гелевски
ген
генадиј
генерал
генерален
генерали
генерална
генералниот
генерално
генералното
генералот
генералштабот
генератор
генератори
генерации
генерација
генерацијата
генерира
генерираат
генерирана
генерирани
генерирање
генерички
генетика
генетиката
генетска
генетската
генетски
генетскиот
генетските
генетско
гени
гените
генитив
гениј
геном
геномот
генот
геноцид
геноцидот
гент
географ
географија
географијата
географска
географската
географски
географскиот
географските
географско
геолог
геологија
геологијата
геолошка
геолошката
геолошки
геолошкиот
геолошките
геомап
геометриска
геометриски
геометрија
геометријата
георг
георги
георгиев
георгиева
георгиевски
георгиос
георгиј
гер
гера
гералт
геранс
герасим
гери
герлиц
герм
герман
германецот
германиум
германија
германска
германската
германски
германскиот
германските
германско
германското
германци
германците
гертруда
герхард
герџиков
гест
гестапо
гете
гетеборг
гетинген
геј
геја
гејл
ги
гибли
гибралтар
гибсон
гигант
гигс
гида
гиза
гил
гилберт
гилмор
гимназии
гимназиско
гимназија
гимназијата
гимнастика
гинсберг
гинтер
гипс
гитара
гитарата
гитари
гитарист
гитаристи
гитаристот
гифхорн
гијом
гл
глава
главата
главен
глави
главите
главна
главната
главни
главнината
главниот
главните
главно
главното
главоболка
главоболки
глагол
глаголи
глаголите
глаголица
глаголот
глаголска
глаголски
глад
гладот
глазгов
глас
гласа
гласаат
гласале
гласат
гласач
гласачи
гласачите
гласање
гласањето
гласи
гласини
гласините
гласник
гласно
гласови
гласовите
гласот
глауком
гледа
гледаа
гледаат
гледал
гледала
гледале
гледало
гледам
гледаме
гледан
гледана
гледано
гледаност
гледачи
гледачите
гледачот
гледаш
гледаше
гледај
гледајк
гледање
гледишта
гледиште
гледиштето
гледна
глен
глетка
глигор
глигоров
глина
глинени
глифот
глишик
глобален
глобализација
глобализацијата
глобална
глобалната
глобални
глобалниот
глобалните
глобално
глобалното
глобус
глог
глоговац
глодари
глорија
глуви
глувци
глукоза
глума
глумат
глумата
глумел
глумела
глумец
глумецот
глумечка
глумечката
глумечки
глумечко
глумеше
глуми
глумица
глумицата
глумици
глумци
глумците
глушец
гнев
гневот
гнезда
гнездат
гнездата
гнездење
гнездо
гнездото
гнилане
гну
го
гоа
говеда
говедо
говедско
говор
говорат
говорел
говорен
говори
говорите
говорни
говорник
говорниот
говорници
говорниците
говорно
говорот
гог
гоген
гогољ
год
года
годивје
година
годината
године
години
годините
годишен
годишна
годишната
годишни
годишник
годишнина
годишнината
годишниот
годишните
годишно
годишното
гозба
гол
гола
голгота
голд
голдберг
голден
голдман
голем
голема
големата
големи
големина
големината
големини
големиот
големите
големо
големото
голи
голман
голманот
голо
голови
головите
голот
голф
гомез
гомељ
гондвана
гонење
гонзалез
гонзалес
гони
гор
гора
горан
гората
горбачов
горд
гордана
гордијан
гордон
гордост
горе
горен
горенаведените
горенци
горење
горењска
горењскиот
гори
горива
гориво
горивото
горица
горичкиот
горки
горна
горната
горни
горниот
горните
горно
горнолужички
горното
горноџумајско
городских
горски
горчлив
горњи
гос
гослар
госпог
господ
господа
господар
господари
господарот
господи
господин
господине
господинот
господов
господовиот
господово
гости
гостивар
гостиварско
гостиварското
гостин
гостински
гостите
гостувањето
гота
готвач
готвење
готвењето
готви
готите
готланд
готлиб
готов
готови
готовина
готово
готорп
готска
готската
готски
готскиот
готфрид
готје
гоце
гочева
гоја
гп
гр
грабеж
грабежи
грабливец
грабливци
грабливците
грав
гравитационата
гравитациони
гравитационите
гравитационо
гравитационото
гравитациски
гравитација
гравитацијата
граг
град
града
градат
градба
градбата
градби
градбите
градежен
градежна
градежната
градежни
градежниот
градежните
градежништво
градежништвото
градел
граделе
граден
градена
градени
градец
градешница
градење
градењето
гради
градиент
градина
градинарски
градинарство
градинарството
градината
градини
градините
градинка
градите
градител
градители
градиште
градниот
градно
градови
градовите
градоначалник
градоначалникот
градоначалници
градот
градска
градската
градски
градскиот
градските
градско
градското
грам
грама
грамаг
грамада
грамади
граматика
граматиката
граматички
гран
гранада
граната
гранати
гранд
гранде
гранит
граница
границата
граници
границите
граничат
граничен
граничи
гранична
граничната
гранични
граничниот
граничните
гранка
гранки
гранките
грант
гранчиња
гранџ
граот
гратче
гратчето
граф
графика
графики
графит
графити
графичар
графичка
графички
графичкиот
графичко
графичкото
грац
грацијан
грашок
грајпел
грајфсвалд
грајц
грб
грбно
грбови
грбовите
грбот
греам
гребен
гребени
гребенот
гребенско
грев
гревови
гревовите
гревот
грег
грегор
грегори
грегоријанскиот
греда
греди
греење
греко
греми
гренада
гренадини
гренд
гренланд
гренобл
грета
грешка
грешката
грешки
грешките
греј
грејс
грива
григор
григориј
григорович
грижа
грижат
грижата
грижел
грижи
грим
грин
гринеџ
гринич
грип
грипот
грифин
грифит
грк
грла
грло
грлото
грмушка
грмушки
грмушките
грнчари
гроб
гроба
гробишен
гробишта
гробиштата
гробни
гробница
гробницата
гробници
гробови
гробовите
гробот
гробјанска
грозданов
грозданоски
грозни
грозје
грозјето
гром
гронинген
грос
гросо
гроф
грофица
грофицата
грофовите
грофовија
грофовијата
грофот
груб
груба
груби
грубо
груев
груевски
грузиската
грузиски
грузија
груп
група
групата
групации
групација
групацијата
групен
групи
групираат
групиран
групирани
групирање
групите
групна
групната
групни
грујик
грци
грците
грција
грч
грчеви
грчка
грчката
грчки
грчкиот
грчките
грчко
грчкото
гу
губат
губејк
губење
губењето
губи
губиток
гувернер
гувернери
гувернерот
гугл
гудачки
гулаб
гулаби
гулаг
гулапка
гулбис
гули
гума
гуми
гумно
гунар
гуру
гуска
гуски
густ
густа
густав
густата
густаф
густи
густина
густината
густите
густо
гутенберг
гучи
гуштер
гуштери
гш
д
да
даб
даби
дабл
даблин
дабова
дабови
дабот
дава
даваат
давал
давала
давале
давало
давам
давачки
даваше
давајк
давање
давањето
давид
давиде
давиденко
давидов
даг
дагестан
даглас
дагоберт
дадам
дадат
даде
даден
дадена
дадената
дадени
дадениот
дадените
дадено
дадоа
дакота
дал
дала
далас
далај
дале
далеку
далечен
далечина
далечинско
далечна
далечната
далечни
далечниот
далечните
далечното
дали
далмација
дало
дам
дама
дамас
дамаск
дамата
даме
дами
дамка
дамки
дамјан
дамјанов
дамјановска
дан
дана
дане
дани
даниел
даниела
даниеле
данил
данило
даница
данкан
данлоп
данок
данокот
даноци
даноците
даночен
даночна
даночни
даночните
данска
данската
дански
данскиот
данските
данско
данското
данте
данците
дар
дарба
дарби
дарвин
дарданелите
даре
дарител
дарители
дариј
дарко
дарови
дарја
даска
даскалов
дата
датира
датираат
датиран
датирани
датирање
датум
датуми
датумите
датумот
датумските
даун
даутица
даф
дачо
дај
дајана
дв
два
дваесет
дваесетина
дваесеттиот
дваесеттите
дванаесет
дванаесеттата
дванаесетте
дванаесеттиот
двапати
дварс
двата
двајца
двајцата
двд
две
двегодишен
двегодишна
двери
двесте
двете
двигател
движат
движел
движела
движеле
движение
движејк
движења
движењата
движење
движењето
движи
двобои
двобој
двобојот
двоен
двои
двократен
двор
дворец
дворецот
дворови
дворот
дворски
дворскиот
дворци
двотретинско
двојазично
двојка
двојката
двојки
двојна
двојната
двојни
двојниот
двојните
двојно
де
дебар
дебарската
дебарски
дебарско
дебарското
дебата
дебатата
дебати
дебел
дебела
дебели
дебелина
дебелината
дебелото
деби
дебитант
дебитантска
дебитира
дебитирал
дебитирала
дебитираше
дебито
дебреште
дебрца
дева
деведесет
деведесеттите
девет
деветнаесет
деветнаесеттиот
деветта
деветтата
деветте
деветти
деветтиот
деветто
деветтото
девизен
девизи
девизни
девизниот
девизните
девица
девон
девојка
девојката
девојки
девојките
девојче
девојчето
девојчиња
девојчињата
девствени
дегенколб
деградација
дед
дедо
дедото
деец
деи
дека
декада
декади
декан
декарт
декември
декларација
декларацијата
деклинација
декоративна
декоративни
декорација
декрет
дел
дела
делавер
делакроа
делат
делата
делајл
делба
деле
делегат
делегати
делегатите
делегации
делегација
делегацијата
делегирање
делел
делеле
делење
дели
делииванов
делкан
делница
делницата
делници
дело
деловен
делови
деловите
деловна
деловната
деловни
деловниот
деловните
деловно
делот
делотворен
делотворна
делотворно
делотворност
делотворноста
делото
делта
делтата
делува
делуваат
делувал
делување
делумен
делумна
делумно
делфи
делфин
делхи
делчев
делчево
делчевско
деменција
деметра
деметриј
демир
демирхисарско
демирхисарското
демо
демографија
демографски
демократи
демократите
демократија
демократијата
демократска
демократската
демократски
демократскиот
демократските
демократско
демон
демони
демоните
демонот
демонстранти
демонстрантите
демонстрации
демонстрациите
демонстрација
демонстрира
ден
дена
денари
денвер
денес
денеска
денешен
денешна
денешната
денешни
денешниот
денешните
денешно
денешното
дени
денис
денови
деновите
деноминации
денот
денс
деп
департман
департмани
департманот
департментот
депо
депозит
депозити
депозитите
депортација
депортиво
депортирани
депресија
депресијата
дер
дерби
дербито
дервиш
дере
дерек
деривати
дерида
десанка
десау
десен
десерт
десерти
десет
десетина
десетици
десетта
десеттата
десетте
десетти
десеттиот
десеттото
десна
десната
десни
десниот
десница
десно
десното
деспот
деспотот
деспотство
дестилација
дестинација
дет
детал
детален
детали
деталите
детална
детални
детално
детаљ
дете
детектив
детектира
детектори
детекција
детелина
детето
детроит
детска
детската
детски
детскиот
детските
детско
детство
детството
дефанзивен
дефанзивец
дефект
дефекти
дефинира
дефинираат
дефинирал
дефиниран
дефинирана
дефинирани
дефинирано
дефинирање
дефинирањето
дефинитивно
дефиниции
дефинициите
дефиниција
дефиницијата
дефицит
дефицитот
деформација
дефтер
дефтери
деца
децата
децении
деценија
деценијата
децентрализација
дешат
деј
дејан
дејв
дејвид
дејвидсон
дејвис
дејли
дејмон
дејност
дејноста
дејности
дејства
дејствата
дејствие
дејствието
дејствија
дејствијата
дејство
дејството
дејствува
дејствуваат
дејствувал
дејствувала
дејствувале
дејствување
дејствувањето
дејци
дење
ди
диалектологические
див
дива
диван
дивата
дивеч
диви
дивизии
дивизион
дивизија
дивизијата
дивина
дивината
дивиот
дивисион
дивите
диво
дивјаци
дигестивниот
дигитален
дигитална
дигиталната
дигитални
дигиталниот
дигиталните
дигитално
диего
диета
дизајн
дизајнер
дизајнери
дизајнерите
дизајнерот
дизајни
дизајнира
дизајнирал
дизајниран
дизајнирана
дизајнирани
дизајнирано
дизајнирање
дизајнот
дизел
дизни
дизниленд
дик
дикенс
диксон
диктатор
диктатура
диктатурата
дилан
дилема
диме
димензии
димензиите
димензионален
димензија
димески
димитар
димитри
димитрие
димитриј
димитрија
димитрије
димитријевик
димитријевски
димитров
димитрова
димитровски
димитър
димко
димо
димов
димовска
димовски
димовци
диморфизам
димоски
димулен
димче
дин
дина
динамика
динамиката
динамичен
динамички
динамична
динамо
динари
династии
династија
династијата
дини
динкерк
дино
диносаурус
диносауруси
диносаурусите
диоген
диода
диоди
диоклецијан
диоксид
диоксидот
дион
дионис
дионисиј
диор
дип
диплома
дипломат
дипломата
дипломати
дипломатија
дипломатијата
дипломатска
дипломатски
дипломатските
дипломатско
дипломи
дипломира
дипломирал
дипломирала
дипломиран
дипломирани
дипломирањето
дирак
дирекно
директен
директива
директивата
директна
директната
директни
директниот
директните
директно
директор
директорат
директори
директорите
директорка
директорот
дирекција
дирекцијата
дирер
диригент
диркем
дис
дисан
диселдорф
дисертација
диск
дискавери
дисквалификуван
диско
дискови
дисковите
дискографија
дискот
дискретни
дискриминација
дискриминацијата
дискурс
дискусии
дискусиите
дискусија
дискусијата
дискутира
дискутираат
дисперзија
дистрибуира
дистрибуиран
дистрибуирани
дистрибуција
дистрибуцијата
дистрикт
дисциплина
дисциплината
дисциплини
дисциплините
дитмаршен
дитрих
диференцијална
диференцијални
диференцијација
дифракција
дифузија
дичо
дишење
дишењето
дишните
дијабетес
дијагноза
дијагнозата
дијагностицира
дијагностицирани
дијагностицирање
дијагностички
дијаграм
дијаграми
дијаграмот
дијалект
дијалекти
дијалектите
дијалектот
дијалог
дијалогот
дијалози
дијамант
дијаманти
дијана
дијареа
дијаспора
дијаспората
диџеј
длабок
длабока
длабоката
длабоки
длабокиот
длабоките
длабоко
длабоконебесни
длабокото
длабочина
длабочината
длабочини
длабочините
дланка
длето
длум
для
дмитриј
дневен
дневна
дневната
дневни
дневник
дневникот
дневниот
дневните
дневници
дневно
днепар
дни
днк
дно
дното
до
доаг
доба
добар
доби
добива
добиваат
добивал
добивала
добивале
добиваме
добивајк
добивање
добивањето
добивка
добивката
добие
добиеме
добиен
добиена
добиената
добиени
добиениот
добиените
добиено
добил
добила
добиле
добило
добитник
добитници
добитниците
добитничка
добиток
добитокот
добија
добијат
доблести
доближи
добра
добрата
добре
добри
добрина
добриот
добрите
добро
доброволец
доброволна
доброволни
доброволно
доброволци
доброволците
добротворна
добротворни
доброто
добрушево
добруџа
доведат
доведе
доведен
доведена
доведени
доведоа
доведува
доведуваат
доведувајк
довел
довела
довеле
довело
доверба
довербата
доверена
доверил
доверители
доверлив
доверливи
доволен
доволна
доволни
доволно
дог
договараат
договор
договорат
договорен
договорени
договорено
договори
договорил
договориле
договорите
договорот
доградена
додава
додаваат
додавајк
додавања
додавање
додавањето
додадат
додаде
додаден
додадена
додадени
додадено
додал
додале
додатни
додатно
додаток
додатоци
додека
доделен
доделена
доделени
доделено
додели
доделил
доделила
доделува
доделуваат
доделување
доделувањето
додипломски
дожд
дождови
дождовна
дождовната
дождовни
дождовните
дождот
доживеа
доживеал
доживеала
доживеале
доживеало
доживеат
доживее
доживотен
доживотна
доживотно
доживува
доживуваат
доживувања
доживување
доза
дозвола
дозволат
дозволата
дозволен
дозволена
дозволени
дозволено
дозволи
дозволил
дозволила
дозволиле
дозволува
дозволуваат
дозволувал
дозволувајк
дози
дознаат
дознава
дознаваат
дознаваме
дознае
дознал
дознала
дознале
док
докажал
докажале
докажана
докажани
докажано
докажат
докаже
докажува
докажуваат
докажување
доказ
докази
доказите
доказот
доколку
доктор
докторат
доктори
докторирал
докторирала
докторите
докторот
докторска
докторската
докторски
доктрина
доктрината
документ
документарен
документарец
документарецот
документарни
документарниот
документација
документацијата
документи
документиран
документирана
документирани
документирано
документите
документот
дол
долар
долари
доларот
долг
долга
долгата
долги
долгиот
долгите
долго
долгови
долговите
долгогодишен
долгогодишна
долгогодишниот
долгометражен
долгорочен
долгорочна
долгорочни
долгорочните
долгорочно
долгот
долгото
долготрајна
долготрајни
долен
доленци
долењска
долж
должат
должело
должен
должи
должина
должината
должини
должините
должна
должни
должникот
должност
должноста
должности
должностите
долина
долината
долини
долините
долна
долната
долнени
долни
долниот
долните
долно
долногермански
долното
долови
долот
долу
дом
дома
домазет
домак
домат
домати
домашен
домашна
домашната
домашни
домашниот
домашните
домашно
домашното
домен
домени
доменико
домените
доменот
доминантен
доминантна
доминантната
доминантни
доминантните
доминантно
доминација
доминацијата
доминго
доминик
доминика
доминиканската
доминира
доминираат
доминирал
доминирале
домицијан
домови
домовите
домородни
домородните
домородното
домородци
домородците
домот
домување
дон
дона
доналд
донации
донација
доне
доневски
донекаде
донел
донела
донеле
донело
донесат
донесе
донесен
донесена
донесени
донесено
донесоа
донесува
донесуваат
донесување
донесувањето
донецк
дони
донирал
донски
дончо
доо
допаг
допинг
допир
допира
допираат
дописен
дописник
дополни
дополнителен
дополнителна
дополнителни
дополнителниот
дополнителните
дополнително
дополнувања
дополнување
допрва
допре
допушта
дор
дора
доријан
доротеја
дороти
дортмунд
дос
досега
досегашните
доселен
доселени
доселеници
доселениците
доселенички
доселил
доселиле
доселување
доселувањето
досие
доситеј
доследен
доследно
доста
доставени
достави
доставува
доставуваат
доставување
достапен
достапна
достапни
достапните
достапно
достапност
достапноста
достасување
достигна
достигнаа
достигнал
достигнала
достигнале
достигнало
достигнат
достигне
достигнува
достигнуваат
достигнувајк
достигнувања
достигнувањата
достигнување
достоевски
достоен
достоинство
достоинството
дострел
дотогаш
дотогашниот
дотогашните
дофине
доха
доход
доходот
доцен
доцент
доцна
доцната
доцнење
доцни
доцниот
доцните
доцноантичка
доцноантичко
доцноантичкото
доцното
дошла
дошле
дошло
дошол
дојдам
дојдат
дојде
дојден
дојдени
дојденци
дојди
дојдоа
дојдов
дојка
дојл
дојран
дојранското
дојче
дојчин
дпа
дпм
дпмне
др
драва
драг
драга
драган
драгана
драгаш
драги
драго
драгослав
драгољуб
драгутин
дракула
драма
драмата
драматичен
драматична
драматични
драматично
драматург
драми
драмите
драмска
драмската
драмски
драмскиот
драмско
драстично
драфтот
драч
драчевица
драчево
дрва
дрвата
дрвен
дрвена
дрвени
дрвените
дрво
дрвото
дрвја
дрвјата
древен
древна
древната
древни
древниот
древните
дрееров
дрезден
дрен
дреново
дрес
дресови
дресот
дрејк
држава
државата
државен
држави
државите
државна
државната
државни
државник
државниот
државните
државници
државно
државност
државното
државјани
државјанин
државјанство
држат
држел
држела
држеле
држеше
држејк
држење
држи
дрим
дримкол
дрина
дринов
дроб
дробови
дрога
дрогата
дрогба
дроги
дру
друг
друга
другар
другари
другарите
другата
други
другиот
другите
друго
другово
другото
дружество
дружина
дружината
друмска
друмската
друмски
друмско
друштва
друштвени
друштвените
друштво
друштвото
дршка
дршката
дтс
ду
дубаи
дубровник
дува
дуваат
дувачки
дует
дуи
дук
дука
дукати
дукља
дума
дунав
дуо
дуото
дупени
дупка
дупката
дупки
дупките
дур
дуран
дури
дух
духовен
духови
духовите
духовна
духовната
духовни
духовниот
духовните
духовно
духовното
духот
дучик
дучић
душа
душан
душата
души
душите
душко
душо
дуња
държавен
дјук
е
еа
еберт
ебу
ев
ева
евакуација
евакуирани
евалуација
еван
евангелие
евангелието
евангелија
евангелско
еванс
еварист
евгениј
евгенија
евдокија
еве
евентуално
еверест
евертон
евидентирани
евиденција
евиденцијата
евик
евла
евлија
ево
еволуирале
еволуција
еволуцијата
евра
евреи
евреин
евреите
еврејска
еврејската
еврејски
еврејскиот
еврејските
еврејско
еврејското
евридика
еврипид
евро
евроазија
евробаскет
евробаскетот
евровизија
еврозоната
евролигата
европа
европеец
европеи
европејци
европејците
европска
европската
европски
европскиот
европските
европско
европското
еврото
евсевиј
евтини
евтихиј
евци
ег
егејска
егејскиот
егејско
егејското
егзархиска
егзархиски
егзархискиот
егзархиско
егзархија
егзархијата
егзил
егзистенција
егзотични
егиди
египет
египетска
египетската
египетски
египетскиот
египетските
египк
его
егодишни
егодишно
егото
ед
еда
едвард
едвардс
едвај
едвин
едгар
еден
еди
един
единаесет
единаесеттата
единбург
единечен
единечна
единечни
единица
единицата
единици
единиците
единка
единката
единки
единките
единствен
единствена
единствената
единствени
единствениот
единствените
единствено
единственото
единство
единството
едип
едисон
едит
едиција
едицијата
едмунд
една
еднаква
еднакви
еднакво
еднаквост
еднаквоста
еднаков
едната
еднаш
едни
еднина
едниот
едните
едно
едновремено
едногласно
едногодишен
едногодишна
едногодишни
еднодневна
еднокорабна
еднонасочна
едноподруго
еднорог
едноставен
едноставна
едноставни
едноставните
едноставно
едноставност
едното
едо
едрене
едрење
едро
едуар
едуард
едуардо
едукација
еез
ежен
ез
езера
езерата
езеро
езерото
езерска
езерски
езерца
езерце
езоп
езра
ек
екатерина
екатеринбург
еквадор
екватор
екваторот
екваторска
еквивалент
еквиваленти
еквивалентна
еквивалентни
еквивалентно
екернферде
екипа
екипаж
екипажот
екипата
екипен
екипи
екипите
екипна
екипниот
еклиптиката
еко
екологија
екологијата
еколошка
еколошката
еколошки
еколошките
економии
економист
економисти
економистите
економија
економијата
економска
економската
економски
економскиот
економските
економско
економското
екосистем
екосистеми
екосистемите
екосистемот
екот
екран
екрани
екраните
екранот
екратна
екратни
екс
ексклузивни
ексклузивно
експанзија
експедиции
експедиција
експедицијата
експеримент
експериментален
експериментална
експериментални
експериментално
експерименти
експериментирање
експериментите
експериментот
експерт
експерти
експертиза
експертите
експлицитно
експлоатација
експлоатацијата
експлодира
експлозив
експлозивни
експлозии
експлозија
експлозијата
експонати
експрес
експресија
екстра
екстракција
екстремадура
екстремен
екстремитет
екстремитети
екстремитетите
екстремна
екстремни
екстремните
екстремно
ексцентричност
ел
ела
елас
еластичност
еластичноста
елба
елбасан
елвис
еле
елевтериј
елевци
електрана
електрани
електрицитет
електричен
електрична
електричната
електрични
електричниот
електричните
електрично
електричното
електро
електрода
електроди
електромагнетни
електромагнетниот
електромагнетните
електромагнетно
електромагнетното
електрон
електрони
електроника
електрониката
електроните
електронот
електронска
електронската
електронски
електронскиот
електронските
електронско
електротехника
електротехничкиот
елемент
елементарна
елементарни
елементарните
елементи
елементите
елементот
елен
елена
елени
елеонора
ели
елиза
елизабет
елизабета
елии
елиминација
елиминира
елиминираат
елиминиран
елиминирана
елиминирани
елиминирање
елин
елиот
елипса
елиптична
елиптични
елис
елисавета
елита
елитата
елитната
елија
елијата
елка
елковик
елм
елса
елстер
елтон
елцин
елшани
ем
ема
емануел
еманципација
емброуз
емерсон
еми
емигранти
емиграција
емигрирал
емигрирале
емил
емили
емилио
емилија
емилијан
емин
емина
еминем
емир
емирати
емисии
емисиите
емисија
емисијата
емитува
емитуваат
емитувала
емитувана
емитувани
емитуваше
емитување
емитувањето
емоции
емоциите
емоционална
емоционални
емоционално
емпириски
емполи
емс
емсланд
ен
ена
енвер
енгелс
енд
ендемски
енди
ендру
ендрју
енеко
енергетика
енергетска
енергетската
енергетски
енергетскиот
енергетските
енергии
енергија
енергијата
ензим
ензими
ензимите
ензимот
ени
ениџе
ениџевардарско
енрике
енрико
ентериер
ентериерот
ентитет
ентитети
ентони
ентузијазам
енциклопедиски
енциклопедия
енциклопедија
енциклопедијата
еп
епархии
епархија
епархијата
епати
епидемии
епидемија
епидемијата
епизода
епизодата
епизоди
епизодите
епилепсија
епир
епископ
епископи
епископите
епископија
епископијата
епископот
епитет
епитетот
епл
епот
епоха
епохата
епохи
епска
епски
ер
ера
еразмо
ераковик
ерамиди
ерамидница
ерата
ербас
ервин
ерг
ердоган
ереван
еремија
ерес
ерзурум
ери
ерида
еридан
ерик
ерика
ериксон
ерите
еритреја
еритроцитите
ерих
ерка
ерката
ерки
ерките
ерко
ерл
ерменија
ерменска
ерменската
ерменски
ерменскиот
ерменските
ерменско
ерменското
ерменци
ерменците
ермитаж
ерна
ернест
ернст
ерозија
ерозијата
ерос
ерот
еротски
ерп
ерупции
ерупциите
ерупција
ерупцијата
ерусалим
ерусалимски
ерфурт
ес
есеи
есеист
есекс
есен
есенин
есенски
есента
есеј
есејот
ески
еспања
еспањол
еста
естер
естетика
естетиката
естетска
естетски
естонија
естонски
естонскиот
естроген
есхил
ет
ета
етанол
етапа
етапата
етапи
етапите
етапна
етапни
ете
етер
етернет
етерот
етика
етиката
етикета
етикетата
етикс
етимологија
етиопија
етички
етичките
етна
етничка
етничката
етнички
етничкиот
етничките
етничко
етно
етнограф
етнография
етнографија
етнографски
етнолог
етнологија
етнолошки
ето
етоал
етјен
еу
еукариотите
еуро
еуфрат
еф
ефект
ефекти
ефективни
ефектите
ефектот
ефенди
ефес
ефикасен
ефикасна
ефикасни
ефикасно
ефикасност
ефикасноста
ефрем
ефтим
ехо
ехф
ецб
ешли
еј
ејми
ејуп
ж
жаба
жаби
жабри
жабрите
жавел
жак
жал
жалат
жалба
жалбата
жалби
жалење
жали
жалост
жан
жанеиро
жанр
жанрови
жанрот
жар
жариште
жарко
жван
ждрепката
же
жед
жеден
желба
желбата
желби
желбите
железен
железна
железната
железни
железник
железниот
железница
железницата
железници
железничка
железничката
железнички
железничкиот
железничките
железно
железното
железо
железото
желино
желка
желки
желудникот
жена
жената
женева
женет
жени
жените
женка
женката
женки
женките
женска
женската
женски
женскиот
женските
женско
женското
жерав
жерар
жерлаш
жермен
жесток
жестока
жестоки
жестоко
жетва
жетвата
жешка
жешки
жељко
жив
жива
живата
живеалишта
живеалиштата
живеалиште
живеалиштето
живеам
живеат
живее
живеел
живеела
живееле
живеело
живееме
живееше
живееја
живеејк
живеење
живец
живи
живина
живиот
живите
живко
живковик
живо
живопис
живописана
живописот
живот
живота
животен
животи
животинска
животински
животинскиот
животинските
животинско
животите
животна
животната
животни
животниот
животните
животно
животното
животот
жид
жил
жила
жилбер
жинзифов
жирафа
жири
жирито
жировница
жит
житарици
житарки
жител
жители
жителите
житие
житието
житни
жито
житото
житоше
жица
жицата
жици
жиците
жлезда
жлезди
жоао
жозе
жозеф
жолт
жолта
жолтата
жолтеникава
жолтеникаво
жолти
жолтиот
жолто
жолчката
жорж
жрк
жртва
жртвата
жртвеник
жртвеникот
жртви
жртвите
жртвува
жртвување
жуан
жупа
жупан
жупанија
журнал
з
за
заб
забава
забавата
забавен
забави
забавна
забавни
забавува
забавуваат
забавување
забележа
забележал
забележала
забележале
забележан
забележана
забележани
забележано
забележат
забележи
забележителен
забележителна
забележителни
забележително
забележлив
забележлива
забележливи
забележливо
забележува
забележуваат
забележувајк
забелешка
забелешки
заби
забите
заблуда
заболени
заболените
заболувања
заболување
заборавени
заборави
забот
забрана
забраната
забранет
забранета
забранети
забрането
забрани
забранил
забранила
забранува
забрануваат
забрза
забрзан
забрзано
забрзува
забрзување
забрзувањето
забуна
заварување
завахири
заведен
заведена
заведени
заведено
завера
завеса
завет
заветот
зависат
зависен
зависи
зависна
зависни
зависно
зависност
зависноста
завод
заводот
завој
завојница
завојницата
завојници
завршат
завршен
завршена
завршени
завршено
завршеток
завршетокот
завршетоци
заврши
завршил
завршила
завршиле
завршило
завршија
завршна
завршната
завршниот
завршните
завршница
завршницата
завршници
завршното
завршува
завршуваат
завршувала
завршувајк
завршување
завршувањето
загадувачи
загадување
загадувањето
загина
загинаа
загинал
загинале
загинат
загинати
загинатите
загинува
заглавие
заговор
заговори
заговорот
загора
загоричани
загорје
заграда
загради
загреб
загрева
загревање
загрижен
загрижена
загрижени
загриженост
загриженоста
загрозен
загрозена
загрозени
загуба
загубата
загубен
загуби
загубил
загубила
загубиле
загубите
загубија
зад
зададен
зададено
задар
задача
задачата
задачи
задачите
задграничното
задгробниот
задебелени
задебелување
заден
задна
задната
задни
заднина
задниот
задните
задното
задоволат
задоволен
задоволи
задоволни
задоволство
задоволството
задоволува
задоволуваат
задоволување
задолжбина
задолжен
задолжена
задолжени
задолжителен
задолжителна
задолжителната
задолжителни
задолжително
задоцнување
задржа
задржал
задржала
задржале
задржан
задржани
задржат
задржи
задржува
задржуваат
задржувајк
задржување
задруга
задруги
задужбина
задуши
задушување
задушувањето
заев
заедница
заедницата
заедници
заедниците
заедничка
заедничката
заеднички
заедничкиот
заедничките
заедничко
заедничкото
заедно
заем
заеми
заемна
заемно
заемодејства
заемодејство
заживување
зазеде
зазел
зазела
зазеле
зазема
заземаат
заземал
заземале
заземат
заземајк
заземање
заземањето
заземе
заземен
заземена
заземени
заиграл
заинтересирал
заинтересиран
заинтересирана
заинтересирани
закажан
закамен
закана
заканата
закани
заканил
заканите
заканува
заклетва
заклетвата
заклучи
заклучил
заклучила
заклучиле
заклучно
заклучок
заклучокот
заклучоци
заклучува
заклучување
закон
закони
законик
законите
законитоста
законодавна
законодавната
законодавни
законодавниот
законодавно
законодавство
законодавството
законот
законска
законски
законските
законско
закопан
закопана
закопани
закосување
закрепнување
закуп
залага
залагаат
залагал
залагала
залагале
зале
залив
заливи
заливот
залихи
залихите
залог
заложник
заложници
заложниците
залудно
залфелд
залцгитер
замав
замбија
замена
заменат
замената
заменет
заменета
заменети
заменето
замени
заменик
заменил
заменила
замениле
заменици
заменка
заменки
заменува
заменуваат
заменувајк
замина
заминал
заминала
заминале
заминат
замине
заминува
заминуваат
заминување
заминувањето
замисла
замислата
замислен
замислена
замисли
замок
замокот
замолил
замолува
замор
замоци
замоците
замрзнат
замрзнати
замрзнување
занает
занаети
занаетчии
занаетчиите
занаетчиски
занаетчиство
занаетчиството
занемарен
занесување
занимава
занимаваат
занимавал
занимавала
занимавале
занимавало
занимања
занимање
заоблен
заоблена
заоблени
заокружена
запаг
запад
западен
западна
западната
западни
западниот
западните
западно
западноевропските
западнои
западното
западот
запазување
запален
запалена
запалени
запалено
запали
запалил
запалиле
запаметен
запира
запирање
запирка
запис
записи
записите
записник
записот
запишал
запишала
запишан
запишана
запишани
запишано
запишат
запише
запишува
запишуваат
запишување
заплет
заплетот
заповед
заповеда
заповеди
заповедник
запозна
запознаат
запознава
запознаваат
запознавање
запознае
запознаен
запознаени
запознал
запознала
запознале
започна
започнаа
започнал
започнала
започнале
започнало
започнат
започната
започнати
започнато
започне
започнува
започнуваат
започнувајк
започнување
започнувањето
запрат
запре
зар
заработи
заработил
заработка
заработува
заработувачка
заработувајк
заради
заразени
заразни
зарамнето
заратустра
зарем
заробен
заробена
заробени
заробеник
заробените
заробеници
заробеништво
зароби
заробил
заробиле
заробување
засавскиот
засадени
засебни
засега
засегнати
заседа
заседание
засекогаш
засилена
засили
засилува
засилувања
засилување
заслуга
заслуги
заслужен
заслужува
заснова
засноваат
засновал
засновала
заснован
заснована
засновани
засновано
засолништа
засолниште
заспаната
застава
застана
застанал
застанала
застанале
застане
застанува
застапен
застапена
застапени
застапено
застапеност
застапеноста
застапник
застапува
застапување
застој
застрашувачки
застрелан
затвор
затвора
затвораат
затворат
затворање
затворањето
затворен
затворена
затворени
затвореник
затворениот
затворените
затвореници
затворениците
затворено
затвори
затворил
затвориле
затворите
затворот
затворска
затворски
затемнување
затоа
затоплување
зафак
зафат
зафатен
зафатена
зафатени
зафати
зафатил
зафатнина
захариј
захарија
зацврсти
зацврстил
зацврстување
зачин
зачини
зачува
зачуваат
зачуван
зачувана
зачувани
зачуваните
зачувано
зачувува
зачувување
зачувувањето
заштеда
заштеди
заштита
заштитат
заштитата
заштитен
заштитена
заштитени
заштитените
заштитено
заштити
заштитна
заштитни
заштитник
заштитниот
заштитничка
заштитно
заштиту
заштитува
зашто
зашчо
зајак
зајакнат
зајакне
зајакнува
зајакнување
зајакот
зајас
зајдисонце
зајко
зајци
заљубува
збигњев
збиен
збиени
збиено
збир
збирка
збирката
збирки
збирките
збирот
збогатување
збогум
збор
збора
зборник
зборникот
зборници
зборови
зборовите
зборот
зборува
зборуваат
зборувал
зборувала
зборувале
зборувало
зборувам
зборуваме
зборуван
зборуваше
зборувајк
зборување
збратимен
збратимени
званична
звање
звањето
звезда
звезди
звонко
звук
звукот
звуци
звуците
звучен
звучи
звучна
звучни
звучните
згд
зглоб
зглобови
зглобовите
зглобот
зголемат
зголемен
зголемена
зголемената
зголемени
зголемениот
зголемените
зголемено
зголеменото
зголеми
зголемил
зголемила
зголемиле
зголемило
зголемија
зголемува
зголемуваат
зголемувал
зголемувајк
зголемување
зголемувањето
згора
зграда
зградата
згради
зградите
згура
здив
здоби
здобива
здобие
здобил
здобила
здобиле
здобијат
здогледува
здрав
здрава
здрави
здравко
здраво
здравствен
здравствена
здравствената
здравствени
здравствениот
здравствените
здравствено
здравство
здравството
здравје
здравјето
здружени
здружение
здружението
здружениот
здружените
здруженија
здруженијата
здружиле
здружуваат
здружување
здуње
зе
зевс
зегеберг
зеде
зедоа
зек
зел
зела
зеланд
зеле
зелен
зелена
зелената
зелени
зелениково
зеленило
зелениот
зелените
зелено
зеленчук
зелка
зема
земаат
земал
земала
земале
земам
земат
земајк
земање
земе
земеме
земен
земена
земени
земено
земете
земи
земун
земја
земјава
земјата
земјен
земјена
земјени
земји
земјина
земјината
земјини
земјиното
земјите
земјишта
земјиште
земјиштето
земјоделец
земјоделието
земјоделска
земјоделската
земјоделски
земјоделскиот
земјоделските
земјоделско
земјоделското
земјоделство
земјоделството
земјоделци
земјоделците
земјотрес
земјотреси
земјотресите
земјотресот
зен
зенит
зенон
зепелин
зет
зета
зетот
зефирин
зи
зидан
зидхарц
зик
зилт
зима
зимата
зимбабве
зиме
зимзелени
зими
зимите
зимно
зимска
зимската
зимски
зимскиот
зимските
зимува
зихненско
зла
злата
златан
златен
златко
златна
златната
златни
златниот
златните
златно
златното
злато
златото
златоуст
злетово
злетовска
зли
злм
зло
злок
злосторства
злосторствата
злосторство
злосторството
злото
злоупотреба
злоупотребата
змај
змеј
змејови
змејот
змии
змиите
змија
змијата
знаат
знае
знаев
знаел
знаела
знаеле
знаело
знаеме
знаете
знаеш
знаеше
знаејк
знаења
знаење
знаењето
знак
знаковен
знакот
знам
знаме
знаменитост
знаменитости
знамето
знамиња
знамињата
знаци
знаците
значаен
значат
значајна
значајни
значајните
значајно
значајност
значел
значела
значело
значеше
значења
значење
значењето
значи
значителен
значителна
значителни
значително
зограф
зографи
зографот
зографски
зои
зола
зомби
зона
зоната
зони
зоните
зоолог
зоолошка
зоолошката
зора
зоран
зората
зори
зосим
зошто
зоја
зрак
зракот
зраци
зраците
зрачење
зрачењето
зрачи
зрели
зрелост
зрелоста
зрењанин
зрзе
зрна
зрната
зрно
зрновци
зрнца
зулу
и
иааф
иако
иам
иберија
ибица
ибн
ибрахим
ив
ива
иван
ивана
иванов
иванова
ивановик
иванович
ивановски
ивањица
ивица
иво
игд
игла
игли
иглолисни
игнасио
игнатиј
игнорира
иго
игор
игра
играа
играат
играл
играла
играле
игралишта
игралиште
игралиштето
играло
игран
играни
играно
играта
играч
играчи
играчите
играчка
играчката
играчки
играчките
играчот
играше
играјк
играње
играњето
игри
игрите
игумен
игуменот
ид
ида
иде
идеал
идеален
идеали
идеалите
идеална
идеални
идеалниот
идеално
идеалот
идеи
идеите
иден
идентитет
идентитети
идентитетот
идентификација
идентификува
идентификуваат
идентификувал
идентификувале
идентификуван
идентификувана
идентификувани
идентификување
идентичен
идентична
идентични
идеологии
идеологија
идеологијата
идеолошки
идеја
идејата
иди
идна
идната
идни
иднина
иднината
идниот
идните
идно
идното
идол
идоли
идризово
ие
иев
из
изабел
изабела
избега
избегаат
избегал
избегале
избегнал
избегнат
избегне
избегнува
избегнуваат
избегнување
изберат
избере
избива
избил
избила
избира
избираат
избирачки
избирачките
избирачко
избирачкото
избирање
избор
изборен
избори
изборил
изборите
изборна
изборната
изборни
изборниот
изборните
изборното
изборот
избра
избрал
избрала
избрале
избран
избрана
избрани
избраниот
избраните
избрано
избркан
избројана
избувна
избувнал
избувнала
избувнале
избувнало
избувнувањето
извади
извадок
извадоци
изведат
изведба
изведбата
изведби
изведбите
изведе
изведен
изведена
изведени
изведено
изведува
изведуваат
изведувал
изведувала
изведувале
изведувани
изведувач
изведувачи
изведувачите
изведувачот
изведувајк
изведување
изведувањето
извезува
извел
извела
извеле
извесен
извесна
извесни
извесно
известен
извести
известил
известува
известуваат
известувања
известување
известувањето
извештаи
извештаите
извештај
извештајот
извидување
извини
извира
извираат
извлекување
извлечат
извлече
извлечени
извод
изводи
изводот
извоз
извозник
извозот
извонреден
извонредна
извонредни
извонредно
извонредност
извор
изворен
извори
изворите
изворна
изворната
изворни
изворникот
изворниот
изворно
изворот
извршат
извршен
извршена
извршената
извршени
извршените
извршено
изврши
извршил
извршила
извршиле
извршна
извршната
извршни
извршниот
извршните
извршува
извршуваат
извршувал
извршувале
извршувајк
извршување
извршувањето
изгласан
изглед
изгледа
изгледаат
изгледал
изгледала
изгледало
изгледаше
изгледи
изгледот
изговара
изговараат
изговор
изговори
изговорот
изгорел
изгорела
изгореле
изгорени
изгореници
изготвување
изградат
изградба
изградбата
изграден
изградена
изградени
изградено
изгради
изградил
изградила
изградиле
изгрејсонце
изгубат
изгубен
изгубена
изгубената
изгубени
изгубениот
изгубените
изгубено
изгуби
изгубил
изгубила
изгубиле
изд
издава
издаваат
издавал
издавател
издавач
издавачи
издавачите
издавачка
издавачката
издавачки
издавачот
издаваштво
издавање
издавањето
издаде
издаден
издадена
издадени
издадено
издадоа
издал
издала
издале
издание
изданието
изданија
изданијата
издателство
издательство
издање
издвоени
издвојува
издвојуваат
издвојување
издеглавје
издига
издигаат
издигнал
издигнат
издигне
издигнува
издигнуваат
издигнување
издолжен
издолжена
издолжени
издолжување
издржат
издржи
издржливост
издржува
издржување
изеде
изедначи
изедначил
изедначување
изи
изида
изкуство
излегла
излегле
излегло
излегоа
излегол
излегува
излегуваат
излегувал
излегување
излегувањето
излез
излезат
излезе
излези
излезот
излечи
излишен
изложба
изложбата
изложбен
изложби
изложен
изложена
изложени
изложено
изложеност
изложеноста
изложи
изложил
изложува
изложување
измама
измамата
измами
измег
измена
изменет
изменета
изменети
изменето
измени
измените
изменување
измерат
измерен
измерена
измерени
измери
измет
измешани
изминатите
измир
измислен
измислена
измислени
измисли
измислил
изнаог
изнајмување
изненаден
изненадени
изненадувачки
изненадување
изнесе
изнесени
изнесува
изнесуваат
изнесувал
изнесувала
изнесувале
изнесувало
изнесуваше
износ
износи
износот
изобилство
изобилството
изобилува
изолација
изолиран
изолирана
изолирани
изотоп
изотопи
изработен
изработена
изработени
изработено
изработи
изработил
изработка
изработката
изработува
изработуваат
изработувале
израел
израелевите
израелска
израелската
израелски
израелскиот
израелските
израелците
израз
изразат
изразен
изразена
изразени
изразено
изрази
изразил
изразиле
изразите
изразито
изразот
изразува
изразуваат
изразување
изразувањето
израснал
израснат
израсната
израстоци
изум
изумирање
изумреле
изумрен
изумрени
изучил
изучува
изучуваат
изучувал
изучување
изучувањето
изјава
изјавата
изјавено
изјави
изјавил
изјавила
изјавиле
изјавите
изјавија
изјавува
изјавувајк
изјаснил
изјасниле
изјаснувале
изјаснувањето
иису
ик
икона
иконата
икони
иконите
икономов
иконостас
иконостасот
икс
ил
иларион
илегални
илегално
или
илиев
илиевски
илик
илинден
илинденска
илинденската
илинденски
илинденското
илино
илиноис
илирите
илич
илија
илијада
илм
илменау
илузии
илузија
илустратор
илустрации
илустрациите
илустрација
илустрира
илустрирана
илюстрация
илјада
илјади
илјадници
им
има
имаа
имаат
имав
имавме
имагинација
имал
имала
имале
имало
имам
имаме
имат
имате
иматија
имаш
имаше
имајк
имајте
имбрекси
име
имена
именик
именка
именката
именки
именките
имено
именски
именува
именуваат
именувал
именувале
именуван
именувана
именувани
именувано
именување
именувањето
името
имигранти
имигрантите
имиграција
имиграцијата
имитација
имитира
имитираат
имиња
имињата
имиџ
имот
имоти
имотите
имотот
император
императори
императорот
империи
империја
империјална
империјата
имплементација
имплементацијата
имплементира
импликации
имплицира
импресивни
импресиониран
импулс
импулси
импулсот
имунитет
имунолошки
имунолошкиот
ин
ина
инаку
инвазивни
инвазии
инвазија
инвазијата
инверзна
инвестира
инвестираат
инвестирање
инвеститор
инвеститори
инвеститорите
инвестиции
инвестициите
инвестициски
инвестиција
инг
ингеборг
ингмар
ингрид
инд
индекс
индекси
индексот
инди
индивидуални
индикатор
индикатори
индикации
индиректен
индиректни
индиректно
индиска
индиската
индиски
индискиот
индиските
индиско
индија
индијана
индијанец
индијанци
индијанците
индоевропски
индонезиски
индонезија
индукција
индустри
индустрии
индустриска
индустриската
индустриски
индустрискиот
индустриските
индустриско
индустриското
индустрија
индустријализација
индустријализацијата
индустријата
инерција
инженер
инженери
инженеринг
инженерите
инженерот
инженерски
инженерство
инженерството
ини
ините
иницира
иницијатива
иницијативата
иницијативи
иницијатор
инка
инки
инките
ино
иновативни
иновации
иновација
инокентиј
инот
инсбрук
инсекти
инсектите
инсистира
инсистирал
инсистирање
инспектор
инспекција
инспирација
инспирирал
инспириран
инспирирана
инспирирани
инспирирано
инстаграм
инсталации
инсталација
инсталиран
инсталирана
инства
инствата
инство
инството
институт
институти
институтот
институции
институциите
институционални
институција
институцијата
инструктор
инструкции
инструмент
инструментална
инструментални
инструменти
инструментите
инструментот
инсулин
инсулинот
интеграл
интегрален
интеграција
интеграцијата
интегрира
интегриран
интегрирана
интегрирани
интегрирање
интегритет
интегритетот
интел
интелектуален
интелектуална
интелектуалната
интелектуални
интелектуално
интелектуалци
интелигенција
интелигенцијата
интензивен
интензивна
интензивни
интензивно
интензитет
интензитетот
интер
интерактивен
интерактивна
интерактивни
интеракции
интеракција
интеракцијата
интервал
интервали
интервалот
интервенира
интервенции
интервенција
интервенцијата
интервју
интервјуа
интервјуто
интерес
интересен
интереси
интересира
интересите
интересна
интересни
интересно
интересот
интерна
интернасионал
интернат
интернационал
интернационале
интернационален
интернационална
интернационалната
интернационални
интернет
интернетот
интернешнл
интерпретации
интерпретација
интертото
интерфејс
интерфејси
интерфејсот
интриги
инфекции
инфекција
инфекцијата
инфлација
инфлацијата
инфо
информативен
информативна
информативни
информатика
информатиката
информатичка
информатичката
информатички
информатор
информации
информациите
информациски
информација
информацијата
информбирото
информира
информирал
информиран
информирање
инфраструктура
инфраструктурата
инфраструктурни
инфрацрвена
инфрацрвени
инхибитори
инцидент
инциденти
инцидентот
инчи
иот
ир
ира
ирак
ираклиј
иран
иранската
ирански
ирачката
ирвин
ирвинг
ирена
ири
иридиум
ирина
ирнк
ирод
иронично
иронија
ирска
ирската
ирски
ирскиот
ирско
ис
иса
исаија
исак
иселени
иселеници
иселениците
иселено
иселил
иселиле
иселило
иселувања
иселување
иселувањето
исечени
исидор
искажал
искаже
искажува
искажуваат
искажување
исказ
искази
искачи
искачил
искачила
искачува
искачуваат
искачувајк
искачувања
искачувањата
искачување
искачувањето
исклучен
исклучена
исклучени
исклучи
исклучиво
исклучителен
исклучителна
исклучителни
исклучително
исклучок
исклучоци
исклучува
исклучување
ископани
ископувања
ископувањата
ископување
ископувањето
искористат
искористен
искористена
искористени
искористено
искористи
искористил
искористила
искористиле
искористува
искористувајк
искористување
искра
искрен
искрена
искрено
искривување
искусен
искусни
искуства
искуствата
искуство
искуството
искушение
ислам
исламот
исламска
исламската
исламски
исламскиот
исламските
исланд
исландски
исмаил
испаг
испаднал
испаднале
испарливи
испарување
испеана
испечатена
испит
испита
испитаниците
испити
испитува
испитуваат
испитувања
испитувањата
испитување
испитувањето
испишани
испишано
исплак
исплата
исплати
исповед
исполнат
исполнет
исполнета
исполнети
исполнето
исполни
исполнил
исполнува
исполнуваат
исполнување
исполнувањето
испорака
исправен
исправена
исправени
исправено
исправи
исправка
испрак
испратат
испратен
испратена
испратени
испратено
испрати
испратил
испратила
испратиле
испреплетени
испробување
испушта
испуштаат
испуштање
ист
иста
истакна
истакнал
истакнала
истакнале
истакнат
истакната
истакнати
истакнатиот
истакнатите
истакнато
истакне
истакнува
истакнуваат
истакнувал
истакнувајк
истакнување
истанбул
истата
иствуд
истегнување
истекот
истекува
истекување
исти
истиот
истите
исто
истовремено
истоимен
истоимена
истоимената
истоимени
истоимениот
истоименото
исток
истокот
истори
истории
историографија
историска
историската
историски
историскиот
историските
историско
историското
историчар
историчари
историчарите
историчарот
исторически
исторические
история
историја
историјат
историјата
историјски
истото
источен
источна
источната
источни
источниот
источните
источно
источното
истра
истрага
истрагата
истраги
истражен
истражени
истражи
истражува
истражуваат
истражувал
истражувале
истражувач
истражувачи
истражувачите
истражувачка
истражувачката
истражувачки
истражувачкиот
истражувачките
истражувачот
истражувања
истражувањата
истражување
истражувањето
истребување
истрел
истрели
исус
исфрла
исфрлаат
исфрлање
исфрлен
исфрлена
исфрлени
исфрли
исфрлувањето
исход
исходи
исходот
исхрана
исхраната
исчезнал
исчезнала
исчезнале
исчезнат
исчезнати
исчезне
исчезнува
исчезнуваат
исчезнување
исчезнувањето
исчисти
ит
итал
италија
италијанецот
италијанска
италијанската
италијански
италијанскиот
италијанските
италијанско
италијанското
италијанци
италијанците
итало
итар
ите
итн
итна
итни
итно
итф
ифоровик
ихф
ица
иштван
иште
ија
ијан
иљо
иљја
иња
ињата
к
ка
кабаре
кабел
кабелот
кабелски
кабинет
кабинетот
кабли
кабул
кавадаречко
кавадаречкото
кавадарци
кавала
кавга
кавказ
кавкаски
кад
кадар
каде
кадет
кадешто
кади
кадина
кадри
каеда
кажа
кажал
кажала
кажале
кажам
кажани
кажано
кажат
каже
кажеме
кажи
кажува
кажуваат
кажувајк
кажувањата
кажување
кажувањето
каза
казабланка
казан
казахстан
казашки
казерта
казимир
казино
казна
казната
казнет
казнети
казни
казните
казнува
казнување
каиро
как
какаду
какао
каква
какви
какво
како
каков
кактус
кал
кала
калабрија
калај
калвино
калдрма
кале
каледонија
калемегдан
календар
календари
календарите
календарот
калеш
кали
калибар
калиграфија
калигула
каликст
калина
калиник
калиопи
калиста
калиум
калиф
калифат
калифатот
калифорнискиот
калифорнија
калифот
калишта
калмар
калории
калојан
калуг
калциум
кам
кама
камата
каматата
каматна
каматната
каматни
каматниот
каматните
камбанарија
камбанаријата
камбоџа
камен
камена
камени
камениот
камените
каменица
камено
каменот
камера
камерата
камерен
камери
камерна
камерон
камерун
камења
камењата
ками
камил
камила
камили
камион
камиони
камп
кампанија
кампања
кампањата
кампањи
кампови
кампот
кампус
кампусот
камчатка
кан
кана
канаг
канада
канадска
канадската
канадски
канадскиот
канадските
канал
канали
канализација
каналите
каналот
канарските
кандид
кандидат
кандидати
кандидатите
кандидатот
кандидатура
кандидатурата
кандидира
канзас
кани
канон
канондејл
канскиот
кант
кантакузин
кантербери
кантон
кантона
кантони
кантонот
кантри
кану
канцелар
канцеларии
канцелариите
канцелариски
канцеларија
канцеларијата
канцеларот
канчелара
канџи
канџите
као
капа
капабланка
капак
капата
капаци
капацитет
капацитети
капацитетот
капела
капелата
капело
капетан
капетанот
капење
капи
капитал
капитализам
капитализмот
капитални
капиталот
капитен
капитенот
капитенската
капитол
капитулацијата
капија
капка
капки
капсула
кар
кара
карабах
караван
каравангелис
караваџо
караг
карактер
карактери
карактеризира
карактеризираат
карактеристика
карактеристики
карактеристиките
карактеристичен
карактеристична
карактеристичната
карактеристични
карактеристично
карактерот
караорман
карате
караула
караџик
караџица
карбинци
карбонат
карбуница
кардинал
кардиналот
кардиф
карев
карел
карен
кари
карибите
кариера
кариерата
кариери
карикатури
карин
карипското
карл
карлајл
карлицата
карло
карловац
карловци
карлос
карлсен
карлсон
кармен
карневал
карневалот
карнеги
карол
каролин
каролина
карпа
карпата
карпатите
карпест
карпеста
карпести
карпестите
карпи
карпите
карпош
карс
карстен
карстни
карта
картагина
картата
картер
карти
картите
картичка
картичката
картички
картмен
картографија
картон
карцином
каса
касандар
касандра
касарна
касарната
касел
касини
касиопеја
каспаров
каспиското
кастел
кастиља
кастро
кат
ката
катализатор
каталог
каталогизирана
каталогот
каталози
каталонија
каталонски
каталонскиот
каталуња
катанија
катар
катарина
катастар
катастрофа
катастрофален
катастрофални
катастрофалниот
катастрофата
катастрофи
категоризирани
категории
категориите
категорија
категоријата
катедра
катедрала
катедралата
катедрата
катерина
катица
катланово
като
катови
катодата
католик
католици
католицизмот
католиците
католичка
католичката
католички
католичкиот
католичките
католичко
катот
катрин
катјони
катјуша
кауза
каунти
кафе
кафеав
кафеава
кафеави
кафеаво
кафеана
кафеаната
кафез
кафена
кафени
кафето
кафка
кафулиња
качаник
качи
качил
качува
качување
каша
кашлица
кашмир
кај
кајак
кајгана
кајзер
кајл
кајли
кајмакчалан
кајперовиот
кајшто
каљари
кањон
кањонот
квадрат
квадратен
квадрати
квадратна
квадратни
квадратот
квалитет
квалитетен
квалитети
квалитетна
квалитетни
квалитетно
квалитетот
квалификации
квалификациите
квалификациска
квалификациски
квалификацискиот
квалификациските
квалификациско
квалификација
квалификува
квалификуваат
квалификувал
квалификувала
квалификувале
квалификуван
квалификувани
квантен
квантна
квантната
квантни
квантните
квантно
кварк
кваркови
кварковите
кварт
квартал
квартет
квартови
квартот
кварц
квасец
квебек
квик
квин
квинс
квинсленд
кво
квјатковски
кг
кгб
ке
кева
кевендиш
кевин
кедел
келвин
келер
кели
келн
келтите
келтски
кемал
кембел
кембер
кембриџ
кемниц
кемпбел
кен
кенеди
кенет
кени
кенија
кент
кентаки
кентаур
кепески
кеплер
кер
керамика
керамички
кери
керол
кети
кетрин
кефеј
кечуански
кеш
кеј
кејв
кејн
кејп
кејптаун
кејси
кејт
ки
кид
кидман
киднапирање
киев
киевска
киевскиот
кил
килибар
киликија
килограм
килограми
километар
километри
ким
кин
кина
кинг
кингс
кинези
кинезите
кинематографија
кинеска
кинеската
кинески
кинескиот
кинеските
кинеско
кинеското
кинетичка
кинетичката
кино
кинотека
киното
кинтана
кипар
кипарски
кипарските
кипур
кир
кира
киргистан
кире
кири
кирибати
кирил
кирилица
кирилицата
кириличната
кирк
киро
киров
кис
кисел
кисела
кисели
киселина
киселини
киселиновски
кислород
кислородот
кит
китанов
китанчев
кител
китка
кито
китови
китовите
китон
китс
кихот
кичевија
кичево
кичевска
кичевската
кичевски
кичевскиот
кичевско
кичевското
киш
киі
кк
клавдиј
клавир
клавијатура
клавијатури
клад
кладенец
клан
кланови
кланот
клара
кларенс
кларинет
кларк
клас
класа
класата
класи
класик
класика
класите
класификации
класификација
класификацијата
класифицира
класифицираат
класифициран
класифицирана
класифицирани
класици
класицизмот
класиците
класичен
класична
класичната
класични
класичниот
класичните
класично
класичното
клаудио
клаудија
клаузула
клаус
клајд
клајн
клајстерс
клевета
клемент
клеопатра
клепа
клептон
клер
клетва
клетвата
клетка
клетката
клетки
клетките
клеточна
клеточната
клеточни
клеточниот
клеточните
кливленд
клиент
клиенти
клиентите
клиентот
клима
климата
климатска
климатската
климатски
климатските
климент
клими
климт
клин
клиника
клиниката
клиничка
клиничката
клинички
клиничките
клинт
клинтон
клипови
клисура
клисурата
клисури
клиф
клод
клодовик
клотар
клуб
клуба
клубови
клубовите
клубот
клуж
клукајдрвец
клун
клунот
клупа
клупата
клупи
клупската
клупски
клупско
клуч
клучеви
клучен
клучна
клучната
клучни
клучниот
клучните
клучно
клучот
км
кмет
кн
кнежевства
кнежевство
кнежевството
кнез
кнезови
кнезовите
кнезот
книга
книгата
книги
книгите
книжевен
книжевна
книжевната
книжевни
книжевник
книжевниот
книжевните
книжевно
книжевност
книжевноста
книжевното
книжовно
кнут
ко
коа
коавторство
коалиција
коалицијата
кобалт
кобејн
кобилица
ков
кована
ковани
кованица
ковач
ковачев
ковачевик
ковид
ковчег
ковчегот
кога
когнитивни
кого
код
кодекс
кодексот
кодира
кодирање
кодови
кодовите
кодот
кое
коен
коефициент
коефициенти
коефициентот
коешто
кожа
кожани
кожата
кожи
кожни
кожув
кожуф
коза
козаци
козаците
кози
козимо
козма
козметика
козметички
козјак
кои
коишто
кока
кокаин
коко
кокошка
кокошки
кокс
коктел
кол
кола
колаборативен
колапс
колапсот
колата
колач
колачи
колбаси
коле
колега
колегата
колеги
колегите
колектив
колективна
колективни
колективно
колекции
колекционерски
колекција
колекцијата
колена
колената
колено
коленото
колера
колеџ
колеџи
колеџот
коли
колиба
колибата
колиби
колин
колинс
количества
количество
количеството
количина
количината
количини
количка
колишевски
колковите
колкот
колку
коло
колона
колоната
колони
колонизација
колонизацијата
колонии
колониите
колонисти
колонија
колонијална
колонијалната
колонијални
колонијата
колорадо
колосек
колото
колубара
колумбиски
колумбискиот
колумбија
колумбо
колумна
колумни
ком
кома
команда
командант
команданти
командантот
командата
команди
командир
командувал
комаров
комбинат
комбинации
комбинација
комбинацијата
комбинира
комбинираат
комбиниран
комбинирана
комбинирани
комбинирано
комбинирајк
комбинирање
комедии
комедија
комедијата
коментар
коментари
коментарите
коментатор
коментира
коментирал
комерцијален
комерцијална
комерцијалната
комерцијални
комерцијалниот
комерцијалните
комерцијално
комесар
комесари
комесарот
комета
кометата
комети
кометите
коминтерната
комисии
комисија
комисијата
комита
комитет
комитети
комитетите
комитетот
комити
комитите
комичар
комични
комнин
комо
комонвелт
комонвелтот
комора
комората
комори
коморите
компакт
компани
компании
компаниите
компанија
компанијата
компаративна
компас
компензација
компилација
компир
компири
комплекс
комплексен
комплекси
комплексна
комплексни
комплексните
комплексноста
комплексот
комплементарни
комплет
комплетен
комплетна
комплетно
компликации
композитор
композитори
композиторите
композиторот
композиции
композициите
композиција
композицијата
компонента
компоненти
компонентите
компонира
компонирал
компонирана
компресија
компромис
комптон
компјутер
компјутери
компјутерите
компјутерот
компјутерска
компјутерската
компјутерски
компјутерските
компјутерско
кому
комуна
комунални
комуната
комунизам
комунизмот
комуникации
комуникациите
комуникациска
комуникациски
комуникација
комуникацијата
комунист
комунисти
комунистите
комунистичка
комунистичката
комунистички
комунистичкиот
комунистичките
комунистичкото
комуницира
комуницираат
комјунити
кон
конак
конакот
конан
конаци
конаците
конвенции
конвенционалните
конвенција
конвенцијата
конвергенција
конго
конгрес
конгреси
конгресот
кондензација
конектикат
конески
конец
конечен
конечна
конечната
конечни
конечниот
конечните
конечно
конечното
конзервативен
конзервативна
конзервативната
конзервативни
конзервативните
конзервативците
конзерваториум
конзерваториумот
конзервација
конзул
конзулат
конзули
конија
конкакаф
конкретен
конкретна
конкретни
конкретно
конкурент
конкуренти
конкурентност
конкуренција
конкуренцијата
конкурс
конкурсот
конмебол
конон
коноп
конопиште
конор
конрад
консензус
констанс
константа
константен
константи
константин
константинов
константинопол
константна
константно
констанца
констанциј
констатира
конструира
конструирал
конструиран
конструкции
конструкција
конструкцијата
консултант
консултации
консумира
консумираат
консумирање
контадор
контакт
контакти
контактите
контактот
конте
контекст
контексти
контекстот
контејнери
континент
континентален
континентална
континенталната
континентални
континенталниот
континенталните
континенти
континентите
континентот
континуиран
континуирана
континуирани
континуирано
континуитет
континуитетот
контра
контракција
контраст
контроверзен
контроверзии
контроверзна
контроверзни
контроверзно
контрола
контролата
контролен
контроли
контролира
контролираат
контролирал
контролирала
контролирале
контролиран
контролирана
контролирани
контролирано
контролирање
контролна
контролни
конус
конуси
конфедерации
конфедерација
конфедерацијата
конференции
конференција
конференцијата
конфигурација
конфигурацијата
конфликт
конфликти
конфликтите
конфликтот
конфузија
концентрации
концентрационен
концентрациони
концентрациониот
концентрација
концентрацијата
концентрира
концентрирана
концентрирани
концепт
концепти
концептите
концептот
концепција
концерт
концерти
концертите
концертна
концертни
концертот
конци
конче
координатен
координати
координатите
координатор
координација
координира
копа
копачка
копање
копенхаген
коперник
копи
копии
копирање
копија
копнеж
копнен
копнена
копнената
копнени
копнените
копно
копното
копче
копчиња
копја
копје
кор
кора
кораб
корален
корали
корални
кората
кордоба
корелација
корен
корени
корените
коренот
кореограф
кореографија
коресподенција
кореспонденција
кореја
корејската
корејски
корејскиот
корења
корењата
корзика
кори
коридор
коринт
корисен
корисна
корисни
корисник
корисникот
корисници
корисниците
кориснички
корисно
корисност
корист
користа
користат
користеа
користел
користела
користеле
користело
користен
користена
користени
користените
користено
користеше
користејк
користење
користењето
користи
користиме
корита
корито
коритото
корица
корицата
корија
корнвол
корнел
корнелиј
корнер
корнеј
корозија
корона
коронавирус
корпоративни
корпоративно
корпорации
корпорациите
корпорација
корпорацијата
корпус
корпусот
корса
корупција
корупцијата
корушка
коруња
корча
кос
коса
косата
косел
косем
коси
коска
коската
коскена
коскената
коскени
коски
коските
космички
космичките
космодромот
космологија
космос
косово
косовска
косовската
косовски
косовскиот
косовските
коста
костадин
костадинов
костадиновска
костарика
костен
костик
костими
костов
костовски
костум
костуми
костур
костурска
костурската
костурскиот
костурско
костурското
кот
кота
коте
котел
котески
котлина
котлината
котлини
кото
котор
кофидис
кох
коце
коцев
коцевски
коцка
коцкање
коцки
коцо
кочани
кочанска
кочанската
кочанско
кочанското
кочии
кочија
кочо
кош
кошарка
кошаркар
кошаркари
кошаркарска
кошаркарската
кошаркарски
кошаркарскиот
кошарката
коши
кошта
кошула
кошули
кој
која
којашто
који
којшто
кољо
коњ
коња
коњаница
коњаницата
коњаници
коњари
коњи
коњите
коњот
коњска
коњски
коњско
коџа
кп
кпг
кпм
кпј
крава
крави
кравиц
крагуевац
краде
крадец
крадци
краеви
краевите
краен
кражба
краи
краина
краишта
краиштата
крак
краков
крал
крале
кралеви
кралевите
кралица
кралицата
кралот
кралска
кралската
кралски
кралскиот
кралските
кралско
кралското
кралства
кралство
кралството
крамер
крамник
крап
крапа
крас
краста
краставици
кратенка
кратенката
кратер
кратери
кратерот
кратка
кратката
кратки
краткиот
кратките
кратко
краткорочни
краткото
краткотрајна
кратово
кратовската
кратовско
краток
краул
крафорд
краци
краците
крај
краја
крајбрежен
крајбрежна
крајбрежната
крајбрежни
крајбрежниот
крајбрежните
крајбрежје
крајбрежјето
крајна
крајната
крајни
крајниот
крајните
крајно
крајова
крајот
краљ
краља
краљево
крањска
крв
крвава
крвавење
крвави
крварење
крвен
крвна
крвната
крвни
крвниот
крвните
крвотокот
крвта
креативен
креативна
креативни
креативно
креативност
креативноста
крева
кревање
кревет
кревети
креветот
крег
креда
кредит
кредитен
кредити
кредитирање
кредитите
кредитна
кредитната
кредитни
кредитниот
кредитните
кредитот
крем
кремен
кремљ
кренал
кренале
кренат
крене
креолски
крзно
крзното
крива
кривата
криви
кривина
кривичен
кривична
кривични
кривичниот
кривично
кривичното
кривогаштани
криволак
кривопаланечко
кривопаланечкото
крие
криел
криеле
криза
кризата
кризи
крик
крикет
крила
крилата
крилен
крило
крилото
крилја
крилјата
крим
криминал
криминалец
криминални
криминалот
криминалци
криминалците
кримската
кримските
крис
кристал
кристален
кристали
кристалите
кристална
кристалната
кристални
кристалот
кристенсен
кристи
кристин
кристина
кристијан
кристијано
кристоф
кристофер
крит
критериум
критериуми
критериумите
критериумот
критика
критиката
критики
критиките
критикува
критикуваат
критикувал
критикувале
критикуван
критикувана
критикувани
критикуваше
критичар
критичари
критичарите
критичарот
критичен
критичка
критички
критичко
критична
критичната
критични
критично
кришна
кријат
крлежа
крма
кров
крокодил
крокодили
кромвел
кромид
крон
крос
кроули
крст
крсте
крстев
крстевски
крстен
крсти
крстик
крстител
крсто
крстови
крстоносна
крстоносните
крстоносците
крстот
круг
круга
кругер
кругови
кругот
кружат
кружен
кружи
кружна
кружни
кружниот
кружница
кружницата
кружно
кружок
круз
крум
круме
круна
круната
круни
крунисан
крунисана
крунисување
крунисувањето
крупен
крупни
крус
круша
крушевац
крушевица
крушево
крушевската
крушевско
круши
крушица
крушје
крф
крчовски
кршат
кршен
кршење
крши
кршко
крштевање
крштевањето
кс
ксенија
ктитор
ку
куала
куан
куба
кубни
кувајт
куд
кузман
кузмановски
кук
кука
кукла
кукли
куксхафен
кукуш
кукушкиот
кукушко
кул
кула
кулата
куле
кули
кулите
кулминација
култ
култен
култови
култот
култура
културата
културе
културен
култури
културите
културна
културната
културни
културниот
културните
културно
културното
културолошки
кум
куманово
кумановска
кумановската
кумановски
кумановскиот
кумановско
кумановското
кун
куноски
куп
купа
купат
купата
купе
купен
купена
купени
купер
купи
купил
купила
купиле
купови
куповите
куповната
купола
куполата
куполи
купот
купува
купуваат
купувачи
купувачите
купувачот
купување
купувањето
куранот
куратица
курбиново
курдите
курдски
курир
курне
курс
курсеви
курсот
курт
куртис
куршум
куршуми
кус
куса
куси
куско
кусо
кутии
кутија
кутијата
куче
кучевиште
кучето
кучиња
кучињата
кујна
кујната
кујни
към
кънчов
кјево
кјото
кју
кјубрик
кљашев
књига
књижевна
кѫнчовъ
л
ла
лабаво
лаборатории
лабораториски
лабораторија
лабораторијата
лабрадор
лабуништа
лав
лава
лавата
лавини
лавињ
лавов
лавови
лавовите
лавот
лавра
лавци
лаг
лага
лагадина
лагадинско
лаги
лагуна
лагуната
ладен
ладење
лади
ладислав
ладна
ладни
ладно
лаже
лажен
лажица
лажна
лажни
лажно
лазар
лазарев
лазаревик
лазаров
лазарополе
лазо
лак
лакавица
лаки
лакови
лакот
лакочереј
лакрос
лактиње
лама
ламберт
ламина
лампре
лана
ланг
ланд
ланда
ландон
ланец
ланецот
ланка
ланкастер
лансиран
лансирана
лансирани
лансирање
лансирањето
ланци
лаос
лаплас
лапонија
лара
ларви
ларвите
лари
лариса
ларс
ларсен
ларсон
лас
ласер
ласери
ласерски
ласкарис
ласкер
ласло
лат
латвиски
латвија
латините
латиница
латиницата
латино
латинска
латинската
латински
латинскиот
латинските
латинско
латинското
латитуда
лауенбург
лаура
лауреат
лацио
лачат
лачни
лајбниц
лајден
лајн
лајош
лајпциг
лгбт
ле
леб
лебед
лебеди
лебот
лев
лева
левант
левата
леверкузен
леви
левин
левиот
левитите
левица
левицата
лево
левото
левски
легален
легална
легални
легално
легенда
легендарен
легендарниот
легендата
легенди
легендите
легии
легитимен
легија
легијата
легла
легло
легура
легури
лед
леден
ледена
ледената
ледени
ледениот
ледените
ледено
леди
ледник
ледникот
ледници
ледниците
леднички
ледничко
лежат
лежел
лежи
лек
лекар
лекари
лекарите
лекарот
лекови
лековита
лековите
лековити
лекот
лексикон
лектор
лекува
лекуваат
лекување
лекувањето
лекции
лекција
леле
лен
лена
лени
ленин
ленина
ленинград
ленон
ленс
лента
лентата
ленти
ленче
лео
леон
леонард
леонардо
леоне
леонид
леонтиј
леопард
леопарди
леопардот
леополд
лепа
лер
лери
лерин
леринскиот
леринско
лермонтов
лесен
леска
лесковац
лескоец
лесли
лесна
лесната
лесни
лесно
леснотија
лесото
лестер
лет
лета
летаат
летала
летало
леталото
летата
летање
лете
летен
летечки
летна
летната
летни
летниот
летните
летно
лето
летови
летонија
летопис
летот
летото
летоци
леукемија
лех
лече
лечење
лешани
лешница
лешок
лејди
лејк
лејкерс
лејн
леџер
ли
либан
либе
либек
либерализација
либералите
либерална
либералната
либерални
либералните
либерехт
либериј
либерија
либертадорес
либија
либрето
либрис
ливаг
ливада
ливади
ливадите
ливенворт
ливерпул
ливингстон
ливиј
ливорно
ливче
ливчиња
лига
лигата
лигашки
лиги
лидер
лидери
лидија
лидс
лиеж
лиза
лизгање
лизинг
лик
лика
ликвигас
ликвидација
ликвидност
ликвидноста
ликовен
ликови
ликовите
ликовна
ликовната
ликовни
ликовните
ликовно
ликот
лил
лила
лили
лилит
лилјак
лилјана
лилјаци
лим
лима
лимбург
лимон
лимузен
лимфни
лин
лингва
лингвистика
лингвистиката
лингвистички
линда
линдзи
лине
линеарен
линеарна
линеарната
линеарни
линеарно
линебург
линии
линиите
линиски
линија
линијата
линк
линколн
линукс
линч
лион
липа
липе
липи
липиди
липково
липовик
лир
лира
лири
лирика
лирике
лирска
лирски
лиса
лисабон
лисец
лисица
лисицата
лисици
лисиче
лист
листа
листата
листи
листите
листови
листовите
листопадни
листот
лисја
лисјата
литар
литванија
литванската
литвански
литванскиот
литература
литературата
литературен
литературна
литературната
литературни
литературниот
литературните
литературно
литиум
литија
литл
литри
литургиски
литургија
лифт
лихтенштајн
лица
лицата
лице
лиценца
лиценцата
лиценци
лиценцирани
лицето
лициниј
личат
личен
личи
лична
личната
лични
личниот
личните
лично
личност
личноста
личности
личностите
личното
лишаи
лм
ло
лоа
лоар
лоара
лов
ловат
ловец
ловецот
ловечки
ловење
лови
ловот
ловци
ловците
лог
логаритам
логика
логиката
логистика
логичка
логички
логично
лого
логор
логори
логорите
логорот
логос
логото
ложа
лоза
лозана
лозанскиот
лозанчев
лозарството
лозата
лози
лозница
лозја
лозјата
лозје
лозјето
лои
лок
локален
локалитет
локалитети
локалитетот
локална
локалната
локални
локалниот
локалните
локално
локалното
локации
локација
локацијата
локомотив
локомотива
лола
лолита
лом
ломбардија
ломоносов
лонг
лондон
лондонската
лондонски
лондонскиот
лопез
лопес
лора
лоран
лорд
лордот
лорен
лорена
лоренс
лоренц
лоренцо
лоренцовата
лори
лорка
лос
лосос
лот
лотар
лото
лох
лохан
лоцира
лош
лоша
лошата
лоши
лошиот
лошите
лошо
лошото
лојални
лојалност
лојалноста
лојд
лп
лу
лувр
луг
лугано
луд
луда
лудвиг
лудвигслуст
луди
лудило
лудо
лужица
луиз
луиза
луизијана
луис
лук
лука
лукас
лукашенко
луке
луковица
луково
луксембург
луксузен
луксузни
луле
лумпур
луна
лунд
луси
лут
лута
лутер
лутеранска
лутеранската
лути
лутина
луфтвафе
луфтханза
луцерн
луциј
луција
лушпи
луј
лујџи
м
ма
маала
маалата
маало
маалото
маверикс
мавзолеј
мавзолејот
маврикиј
мавританија
маврите
маврициус
маврово
маг
магазин
магазинот
магаре
магарето
магдалена
магдебург
магии
магистер
магистерски
магистрала
магистралниот
магистрирал
магистрирала
магичен
магични
магија
магијата
магла
маглата
маглина
маглината
маглини
магма
магмата
магнезиум
магнет
магнетен
магнети
магнетна
магнетната
магнетни
магнетниот
магнетните
магнетно
магнетното
магнетосферата
магнитуда
магнус
магор
мадагаскар
мадам
мадеира
мадона
мадрид
маер
маж
мажена
мажи
мажите
мажот
мажјак
мажјакот
мажјаци
мажјаците
мазна
мазни
мазовското
маи
маите
маичка
маичката
маички
мак
мака
макао
макар
макариј
македон
македонец
македонецот
македони
македонии
македония
македонија
македонка
македоно
македонска
македонската
македонски
македонскиот
македонските
македонско
македонското
македонци
македонците
македонцките
маки
макијавели
макро
макроекономски
макс
максвел
максвеловите
максим
максимален
максимална
максималната
максимални
максималниот
максимално
максимилијан
максимин
максимијан
максимовик
максимум
макстат
макфест
мал
мала
малави
малага
маларија
маларме
малата
малајски
малајскиот
малајско
мале
малезија
малесија
малешевски
мали
малик
малина
малиот
малите
малколм
малку
малкумина
малкуте
малме
мало
малолетен
малолетни
малото
малта
малтер
малтретирање
малу
малцински
малцинските
малцинства
малцинствата
малцинство
мама
мамо
ман
мана
манаки
манастир
манастирец
манастири
манастирите
манастириште
манастирот
манастирска
манастирската
манастирски
манастирскиот
манастирските
манга
манган
мандарински
мандат
мандати
мандатот
мане
манекенка
мани
манила
манипулација
маниса
манифест
манифестации
манифестација
манифестацијата
манифестира
манифестираат
манифестот
манова
манол
мансфелд
ману
мануел
мануил
манфред
манчевски
манчестер
манџурија
мао
маорски
мапа
мапата
мапи
мапирање
мар
мара
марадона
маратон
марвин
маргарет
маргарета
маргарита
маргина
маре
мареј
мари
марибор
марин
марина
маринер
маринковик
марино
марио
мариово
мариус
марица
марија
маријана
марк
марка
марката
маркес
маркет
маркетинг
маркетингот
марки
маркиз
маркијан
марко
марков
маркова
маркови
марковик
марковић
марковски
марковци
маркос
маркоски
маркс
марксизмот
маркус
марли
марна
мароко
марс
марсел
марсело
марсеј
март
марта
мартел
марти
мартин
мартина
мартинез
мартиник
мартиновски
мартиноски
марфи
марцел
марцелин
марчело
марш
маршал
маршалот
маршалски
маршалските
маршот
марјан
мас
маса
масажа
масакр
масакрот
масата
масачусетс
маси
масив
масивен
масиви
масивна
масивни
масивните
масивот
масите
маска
маската
маски
масла
маслинки
маслиново
масло
маслото
масни
масовен
масовна
масовната
масовни
масовниот
масовните
масовно
масовното
масон
маст
мастер
мастерс
мастерсот
мастејн
масти
мастило
мастрихт
мат
мата
матевски
математика
математиката
математичар
математичари
математичка
математичката
математички
математичкиот
математичките
математичко
матео
материали
материи
материја
материјал
материјали
материјалите
материјална
материјалната
материјални
материјалните
материјално
материјалот
материјата
матеј
матеја
матилда
матис
матица
матичен
матична
матичната
матични
матичните
матија
матијас
матка
матката
матов
матрица
матрицата
матрици
мауна
маунт
махатир
махмуд
маченик
маченици
мачење
мачи
мачка
мачката
мачки
мачките
мачорот
маша
машина
машината
машинерија
машини
машините
машински
машинско
машка
машката
машки
машкиот
машките
машко
машкото
мај
маја
мајаковски
мајами
мајански
мајер
мајк
мајка
мајката
мајки
мајките
мајкл
мајко
мајкрософт
мајлс
мајмун
мајмуни
мајна
мајнинген
мајнц
мајор
мајорка
мајорот
мајсен
мајстор
мајстори
мајсторите
мајсторот
мајчин
мајчина
мајчиниот
маџари
маџунков
мб
мвп
мвр
мг
ме
мебел
мег
мега
мегавати
мегадет
меги
меглен
мед
медал
медали
медалот
медведев
медеја
медина
медисон
медитација
медитеранот
медиум
медиуми
медиумите
медиумот
медиумска
медиумски
медицина
медицината
медицинска
медицинската
медицински
медицинскиот
медицинските
медицинско
медичи
медија
медот
мек
мека
мекарти
мекартни
мекдоналд
мекдоналдс
меки
мекларен
мекленбург
мекленбуршка
мекмердо
меко
мекотели
мексиканска
мексиканската
мексикански
мексиканскиот
мексиканските
мексико
мел
мелани
мелас
мелбурн
мелвил
мелено
мелење
мелник
мелница
мелодии
мелодија
мелодијата
мембрана
мембраната
мембрани
мемоари
мемоарите
меморандум
меморандумот
меморија
меморијал
меморијален
меморијалниот
меморијата
мемфис
мен
менаџер
менаџери
менаџерите
менаџерот
менаџмент
менаџментот
мене
менез
мени
менора
ментална
ментални
менталните
ментално
менталното
ментор
менторство
менува
менуваат
менувал
менувала
менувале
менувач
менувајк
менување
менувањето
менхенгладбах
менхетен
менхетн
мер
мера
мерат
мередит
мерен
мерено
мерења
мерењата
мерење
мерењето
мери
мерида
меридијан
мериленд
мерилин
мериме
мерка
мерката
меркел
мерки
мерките
меркур
меркјури
мерлин
мермер
мермерен
мермерна
мермерни
мерни
мерцедес
меса
месен
месец
месеца
месеци
месеците
месецот
месечев
месечева
месечеви
месечевиот
месечен
месечина
месечината
месечини
месечините
месечна
месечни
месечно
меси
месина
месија
месна
месната
месни
месниот
месните
месно
месност
месноста
месностите
месното
месо
месопотамија
месото
места
местата
место
местоположба
местоположбата
местото
месје
мет
мета
метаболизам
метаболизмот
метал
метален
метали
металика
металите
метална
метални
металните
металот
металург
метан
метанот
метар
метафизиката
метафора
метеорити
метеорологија
метеоролошка
метеоролошки
метерних
метод
метода
методи
методите
методиј
методија
методологија
методологијата
методот
метохија
метра
метри
метрика
метрички
метро
метропола
метрополитен
метрополитенска
метрополитенската
метрото
метју
метјус
меур
механизам
механизми
механизмите
механизмот
механика
механиката
механичка
механички
механичките
мехмед
мехмет
мец
меч
меча
мечеви
мечка
мечката
мечки
мечките
мечот
мечување
меша
мешаат
мешавина
мешавината
мешан
мешана
мешани
мешано
мешање
мешањето
мешеишта
мешовита
мештани
мештаните
меј
мејн
мејнстрим
мејсон
меџик
мзт
ми
миа
миг
мигел
мигот
мигранти
миграции
миграција
миграцијата
мигрираат
мигрирале
мие
миење
мик
микаел
микел
микеланџело
микеле
микена
мики
микро
микронезија
микроорганизми
микроскоп
микроскопски
микрософт
микс
мил
мила
миладинов
миладиновци
милан
милано
милановац
милвоки
миле
милена
миленик
милениум
миленици
миленичиња
миленко
миленковски
милер
милет
милетик
мили
милик
милиметри
милион
милиони
милица
милиција
милијарда
милијарди
мило
милован
миловановик
милоевик
милорад
милост
милош
милошевик
милтијад
милтон
милутин
милчин
милчо
милја
милји
мин
мина
минал
минале
минаре
минарето
минат
минатата
минати
минатиот
минатите
минато
минатото
минг
мине
минерал
минерали
минералите
минерална
минерални
минералните
минесота
мини
минимален
минимална
минималната
минимални
минимално
минимизира
минимум
министер
министерка
министерот
министерства
министерство
министерството
министри
министрите
миног
минск
минстер
минува
минуваат
минувал
минувајк
минус
минута
минутажа
минути
минхен
миодраг
мир
мира
миравци
мираковски
миранда
мирен
мирис
мириси
мирисот
мирко
мирна
мирни
мирно
миро
мировен
мировна
мировни
мировниот
мировните
мирослав
мирот
мирување
мирче
мирјана
мис
миса
мисии
мисиите
мисионер
мисионери
мисирков
мисисипи
мисија
мисијата
мисла
мислам
мислат
мислата
мислев
мислел
мислеле
мислело
мислеше
мислејк
мислења
мислењата
мислење
мислењето
мисли
мислите
мислител
мислители
мистерии
мистериозно
мистерија
мистеријата
мисури
мит
мите
митевски
митинг
митингот
митко
мито
митови
митовите
митологија
митологијата
митолошки
митот
митра
митралези
митре
митрев
митревски
митревци
митровден
митровик
митровица
митрополит
митрополитот
митрополија
митски
михаел
михаи
михаил
михаило
михаиловик
михал
михајло
михајлов
михајловик
михајлович
михајловски
мицко
мичев
мичел
мичиген
миша
мишев
мишел
мишо
мијазаки
мијатовик
миљковик
мк
мкд
мкф
мкцк
мл
млад
млада
младата
младен
младенов
младеновик
младеновски
младенчиња
младенчињата
млади
младина
младината
младинец
младинска
младинската
младински
младинскиот
младинските
младинско
младинци
младиот
младите
младо
младост
младоста
младото
младотурската
младотурците
млеко
млекото
млечен
млечка
млечки
млечна
млечни
млечниот
млечните
млс
мм
ммф
мн
много
многу
многуаголник
многубројни
многубројните
многумина
многупати
многуте
множества
множествата
множество
множеството
множење
множина
мнозина
мнозинство
мнозинството
мноштво
мнт
мо
мобилен
мобилизација
мобилизирани
мобилна
мобилни
мобилните
мов
мовистар
могила
могили
мод
мода
модата
модел
модели
моделирање
моделите
моделот
модем
моден
модерен
модерна
модерната
модерни
модернизам
модернизација
модернизмот
модерниот
модерните
модерно
модерното
модификации
модификација
модиљани
модна
модната
модни
модните
модул
модулација
модули
мое
моето
можам
можат
може
можеа
можеби
можев
можел
можела
можеле
можело
можеме
можен
можете
можеш
можеше
можејк
можит
можна
можната
можни
можните
можно
можност
можноста
можности
можностите
можното
мозаик
мозаици
мозамбик
мозок
мозокот
мозочен
мозочното
мои
моите
мок
мокра
мол
молам
молат
молба
молдавија
молекула
молекуларен
молекуларна
молекуларната
молекуларни
молекуларните
молекулата
молекули
молекулите
молел
моли
молибден
молиер
молиме
молитва
молитвата
молитви
молци
молња
молњи
мома
моме
момент
моментален
моментална
моменталната
моменталниот
моменталните
моментално
моменти
моментов
моментот
моментум
моми
моминско
момци
момче
момчето
момчило
момчиња
момчињата
мон
мона
монако
монарси
монарх
монархии
монархија
монархијата
монархот
монаси
монасите
монастир
монах
монахот
монашки
монголија
монголска
монголската
монголски
монголскиот
монголските
монголското
монголците
мондијал
моне
монета
монетарен
монетарна
монетарната
монетарниот
монетарните
монетата
монети
монетите
моника
мониторинг
монк
моно
монографии
монографија
моноксид
монопол
монополи
монпелје
монро
монт
монтажа
монтана
монтгомери
монте
монтевидео
монти
монтреал
мопасан
мор
мора
мораа
мораат
морава
моравија
моравската
морал
морала
морале
морален
морална
моралната
морални
моралниот
моралните
морално
морало
моралот
морам
мораше
морган
мордахај
море
морено
морепловец
морето
мори
морис
морисон
мориц
мориња
морињата
морков
морнар
морнари
морнарите
морнарица
морнарицата
моро
морска
морската
морски
морскиот
морските
морско
морското
мортон
морфи
морфологија
морфологијата
морфолошката
морфолошки
москва
московската
московски
московскиот
московското
мосон
мост
мостар
мостови
мостовите
мостот
мот
мотив
мотивација
мотиви
мотивите
мотивот
мото
мотор
мотори
моторите
моторни
моторните
моторот
моторс
мотото
мотоцикли
мохамед
моцарт
мочниот
мочуришта
мочуриштата
мочуриште
мочуриштето
мошне
мошти
моштите
мој
моја
мојата
мојот
мојсеј
мојсеја
мпм
мпц
мравки
мраз
мрази
мразот
мрак
мракот
мрачен
мрежа
мрежата
мрежен
мрежи
мрежите
мрежна
мрежната
мрежни
мрежниот
мрежните
мрежно
мрежното
мри
мро
мрт
мртва
мртвата
мртви
мртвиот
мртвите
мртво
мртвото
мртов
мс
мсзп
мтв
мтф
му
мува
муви
мугри
мудар
муди
мудриот
мудрост
мудроста
музеи
музеите
музеј
музејот
музејската
музејски
музика
музиката
музичар
музичари
музичарите
музичарка
музичарот
музичка
музичката
музички
музичкиот
музичките
музичко
музичкото
мулти
мун
муниција
мунк
мур
мура
мурад
мурат
мурињо
мурсија
муса
мускул
мускули
мускулите
мускулна
мускулни
муслиман
муслимани
муслиманите
муслиманска
муслиманската
муслимански
муслиманскиот
муслиманските
муслиманско
муслиманското
мусолини
мустак
мустафа
мутации
мутација
муфтиство
мухамед
мфа
мјанмар
мјузик
мјузикл
мјузиклот
н
на
набави
набавка
набавки
набоков
набргу
набрзина
набрзо
набљудува
набљудуваат
набљудувал
набљудувани
набљудуваните
набљудувач
набљудувачи
набљудувачите
набљудувачки
набљудувачот
набљудувања
набљудувањата
набљудување
набљудувањето
наваму
навара
навахо
наведе
наведен
наведена
наведени
наведените
наведено
наведува
наведуваат
наведувајк
наведување
навел
навеле
навечер
навивачи
навивачите
навигациски
навигација
навидум
навика
навики
навистина
навлегла
навлегле
навлегол
навлегува
навлегуваат
навлегување
навлегувањето
навлезат
навлезе
навнатре
навод
наводи
наводите
наводна
наводната
наводно
наводнување
наводот
навој
наврак
наврати
навреда
навреди
навреме
навремено
наг
нагасаки
нагласена
нагласени
нагласено
нагласи
нагласок
нагласува
нагласуваат
нагласувајк
нагло
нагоре
нагоричане
нагорнина
нагорно
награда
наградата
награден
наградена
наградени
награди
наградите
наградуван
над
нада
надал
надалеку
надарен
надвор
надворешен
надворешна
надворешната
надворешни
надворешниот
надворешните
надворешно
надворешноста
надворешното
надгледува
надгледувал
надгледувачки
надгледување
надградба
надгробна
надгробни
надева
надевал
надевам
надевајк
надеж
надежда
надежи
надежта
надесно
надзор
надзорник
надзорниот
надлежен
надлежни
надлежниот
надлежните
надлежност
надлежноста
надлежности
надлежностите
надмина
надминал
надминат
надмине
надминува
надминуваат
надминувајк
надминување
надмок
надморска
надморската
надоврзува
надолжни
надолу
надомест
надомести
надоместок
надоместоци
надополнува
надреализмот
надја
наеднаш
наелектризирани
наелектризираните
назад
назарет
назив
називи
називот
назначен
назначена
назначени
назначи
назначил
назначува
назначување
назначувањето
наи
наиде
наидува
наизменична
наизменични
наизменично
наишле
наишол
накај
накит
накитот
наклон
наклонета
наклонетост
наклонот
накратко
налик
наликува
наликуваат
налог
нам
намалат
намален
намалена
намалената
намалени
намалено
намали
намалил
намалила
намалиле
намалило
намалува
намалуваат
намалувајк
намалување
намалувањето
намена
намената
наменет
наменета
наменети
наменето
намени
наменски
намера
намерата
намери
намерите
намерно
намесник
намесништво
наместо
наметка
наметнал
наметнат
наметнати
наметне
наметнува
намибија
намирници
намотки
нанадвор
наназад
нанапред
нане
нанесе
нанесува
наноси
нанси
нант
наог
наод
наоди
наодите
наоколу
наоми
наопаку
наосот
напаг
напад
напади
нападите
нападна
нападнал
нападнала
нападнале
нападнат
нападната
нападнати
нападне
нападот
напис
написи
написот
напиша
напишал
напишала
напишале
напишан
напишана
напишани
напишано
напише
наплак
наплата
напнатост
наполеон
наполеоновите
наполи
наполни
наполнил
наполно
напомена
напомене
напон
напонот
напор
напоредник
напоредно
напори
напорите
напорно
напојува
напојување
направа
направам
направат
направен
направена
направени
направено
направи
направив
направил
направила
направиле
направило
направиме
направите
направија
напред
напреден
напредна
напредни
напредните
напредно
напредок
напредокот
напредува
напредуваат
напредувал
напредувала
напредувале
напредување
напредувањето
напротив
напушта
напуштаат
напуштат
напуштање
напуштањето
напуштен
напуштена
напуштени
напуштено
напушти
напуштил
напуштила
напуштиле
напуштило
напуштија
нарачка
нарачки
наредба
наредбата
наредби
наредбите
наредени
наредено
нареди
наредил
наредила
наредната
наредниот
наредните
наредува
нарекла
нарекле
нарекол
нарекува
нарекуваат
нарекувал
нарекувала
нарекувале
нарекувало
нарекуваме
нарекуван
нарекувана
нарекувани
нарекувајк
нарече
наречен
наречена
наречени
наречено
наречја
наречје
народ
народа
народен
народи
народите
народна
народната
народне
народни
народниот
народните
народних
народно
народноослободителен
народноослободителна
народноослободителната
народноослободителното
народност
народноста
народности
народностите
народното
народот
нартекс
нартексот
нарушен
нарушена
наруши
нарушува
нарушуваат
нарушувања
нарушување
нарушувањето
нас
наса
насади
насау
насекаде
населат
населба
населбата
населби
населбите
населе
населен
населена
населени
население
населението
населените
населения
населено
населеност
населеното
насели
населил
населиле
населува
населуваат
населувале
населување
населувањето
насеља
насила
насилен
насилна
насилни
насилно
насилство
насилството
насионал
насип
насипи
наскоро
наслаги
наследен
наследи
наследил
наследила
наследна
наследни
наследник
наследникот
наследници
наследниците
наследничка
наследство
наследството
наследува
наследување
наследувањето
насликал
насликан
насликана
насликани
насликано
наслов
насловен
насловена
насловено
наслови
насловите
насловна
насловната
насловот
насока
насоката
насоки
насоките
насочен
насочена
насочени
насочено
насоченост
насочи
насочил
насочува
насочуваат
насочувач
насочувачи
насочувачите
насочувачки
насочувачот
насочување
наспроти
настава
наставата
наставен
наставка
наставката
наставки
наставките
наставна
наставната
наставни
наставник
наставникот
наставниот
наставните
наставници
наставниците
наставно
настан
настана
настанал
настанала
настанале
настанало
настанат
настаната
настанати
настане
настани
настаните
настанокот
настанот
настанува
настануваат
настанување
настанувањето
настап
настапат
настапи
настапил
настапила
настапиле
настапите
настапија
настапот
настапува
настапуваат
настапувал
настапувала
настапувале
настапувано
настапуваше
настапувајк
настојува
настојуваат
настојувал
настрадал
настрадале
настрадало
настрана
настроен
настроени
ната
натали
наталитет
наталија
натамошниот
натамошно
натаму
наташа
натера
натерал
натерале
натерало
нато
натпис
натписи
натписите
натписот
натпревар
натпревари
натпреварите
натпреварот
натпреварува
натпреваруваат
натпреварувал
натпреварувала
натпреварувале
натпреварувач
натпреварувачи
натпреварувачите
натпреварувачка
натпреварувачки
натпреваруваше
натпреварувања
натпреварувањата
натпреварување
натпреварувањето
натприродни
натриум
наука
науката
науки
науките
наум
наумов
наумовски
наумоски
науру
наутро
науч
научат
научен
научи
научил
научила
научиле
научна
научната
научни
научник
научникот
научниот
научните
научници
научниците
научно
научното
нафта
нафтата
нафтената
нафтени
нафтените
нахија
нацизмот
нации
нациите
национал
национален
национализам
национализмот
националисти
националистичка
националистички
национална
националната
национални
националниот
националните
национално
националноослободително
националност
националности
националното
нацистите
нацистичка
нацистичката
нацистички
нацистичкиот
нацистичките
нација
нацијата
нацрт
нацртот
началник
началникот
начела
начелата
начело
начелото
начин
начина
начини
начините
начинот
наш
наша
нашата
наше
нашето
наши
нашиот
нашироко
нашите
нашла
нашле
нашло
нашол
наштети
нај
најава
најавен
најавена
најавено
најави
најавил
најавила
најавува
најблизок
најблиската
најблиски
најблискиот
најблиските
најблиску
најбогатите
најбрз
најбрзо
најбројни
најважен
најважна
најважната
најважни
најважниот
најважните
најважно
најважното
највек
најверојатно
највисок
највисока
највисоката
највисоки
највисокиот
највисоките
највисоко
највисокото
највлијателни
највлијателните
најголем
најголема
најголемата
најголеми
најголемиот
најголемите
најголемо
најголемото
најдат
најде
најден
најдена
најдени
најдено
најдете
најдоа
најдобар
најдобра
најдобрата
најдобри
најдобриот
најдобрите
најдобро
најдоброто
најдов
најдолг
најдолга
најдолгата
најдолгиот
најдолгите
најдолго
најдоцна
најефикасен
најзастапен
најзастапени
најзначаен
најзначајна
најзначајни
најзначајниот
најзначајните
најзначајно
најистакнати
најистакнатите
најк
најкорисен
најмал
најмала
најмалата
најмали
најмалиот
најмалите
најмалку
најмало
најмалото
најмлад
најмладата
најмладиот
најмладите
најмногу
најмок
најнапред
најнаселен
најниска
најниската
најниските
најниско
најновата
најновиот
најновите
најпознат
најпозната
најпознатата
најпознати
најпознатиот
најпознатите
најпознато
најпопуларен
најпопуларна
најпопуларни
најпопуларниот
најпопуларните
најпосле
најпрвин
најпрво
најпродавани
најразлични
најраната
најраниот
најраните
најрано
најроби
најсеверната
најсеверниот
најсилен
најсилната
најсилниот
најсилните
најсилното
најсиромашните
најстар
најстара
најстарата
најстари
најстариот
најстарите
најстаро
најстарото
најт
најтешките
најтингел
најубавите
најуспешен
најуспешна
најуспешни
најуспешниот
најуспешните
најчест
најчеста
најчестата
најчести
најчестиот
најчестите
најчесто
најјужната
најјужниот
најџел
нба
нбрм
нво
не
неа
неапол
небесата
небесен
небесна
небесната
небесни
небесниот
небесните
небесно
небо
небото
небојша
невада
неважечка
неважечки
неверна
неверојатен
неверојатна
неверојатни
неверојатно
невеста
невестата
невести
невесто
невидливи
невил
невин
невини
невиност
невис
невладина
невладини
невладините
невозможна
невозможно
неволја
невообичаена
невообичаени
невообичаено
невработени
невработеност
невработеноста
невреме
неврокоп
неврокопската
невролошки
неврони
невроните
невски
нега
негативен
негативна
негативната
негативни
негативниот
негативните
негативно
негација
негира
негирал
негирање
него
негов
негова
неговата
негови
неговиот
неговите
негово
неговот
неговото
неготин
неготино
негува
негуваат
негуш
негушко
неда
недалеку
недвижен
недвижнини
недвижности
недела
неделата
неделен
недели
неделковски
неделно
недик
недоверба
недоволно
недоразбирања
недоразбирање
недостасува
недостасуваат
недостаток
недостатокот
недостатоци
недостатоците
недостиг
недостигот
нееднаквост
нееднаквоста
нееста
нежен
неженети
нежилово
нежна
нежни
нежно
независен
независна
независната
независни
независниот
независните
независно
независност
независноста
незадоволен
незадоволни
незадоволство
незадоволството
незаконски
незначително
неизбежно
неизвесност
нек
нека
некаде
некаква
некакви
некакво
некако
некаков
некар
неко
некогаш
некогашен
некогашна
некогашната
некогашниот
некогашните
некогашното
некого
некое
некои
неколку
неколкумина
неколкупати
неколкуте
некој
некоја
некропола
некрополата
некрополи
нектар
нелегален
нелегална
нелегални
нелегално
нели
нелсон
нем
нема
немаа
немаат
немал
немала
немале
немало
немам
немаме
немат
немаше
немајк
немања
немање
немањик
немилост
немир
немири
немирите
неможат
неможност
неможноста
немок
немој
немојте
нему
ненад
ненадејна
ненадејно
ненадовик
ненамерно
ненаселен
ненаселени
ненси
нео
необичен
необична
необични
необично
необјавена
неограничен
неограничена
неодамна
неодамнешни
неодамнешните
неодредено
неокласичен
неолит
неолитот
неолитска
неолитско
неолитското
неопределено
неопходен
неопходна
неопходни
неопходно
неоргански
неофит
неофицијален
неофицијална
неофицијални
неофицијално
неочекувано
непал
неповолни
неповрзани
непогоди
неподвижни
непознат
непозната
непознати
непознатиот
непознато
непосреден
непосредна
непосредната
непосредни
непосредно
непотребни
непотребно
непочитување
неправда
неправедно
неправилен
неправилна
неправилни
неправилно
неправилности
непрекината
непрекинато
непрепознаен
непречено
непријател
непријатели
непријателите
непријателот
непријателска
непријателски
непријателските
непријателствата
непријателство
непријатен
непријатно
непроменет
непроменета
непроменети
непрофитна
непрофитни
нептун
нерв
нервен
нерви
нервите
нервни
нервниот
нервните
неред
нерези
неретва
неретко
нерешен
нерешени
нерешениот
нерешено
нерон
нес
несакани
несат
несвесно
несе
несигурност
несогласувања
несогласувањата
несогласување
несомнено
несоница
несоодветна
несоодветни
несоодветно
неспособен
неспособност
несрек
нестабилен
нестабилна
нестабилни
нестабилност
нестабилноста
нестле
нестор
нет
нето
неточни
неточно
нетрпеливост
нетфликс
неуспеси
неуспех
неуспехот
неуспешен
неуспешна
неуспешната
неуспешни
неуспешниот
неуспешно
неустрија
неутрален
неутрална
неутрални
неутралност
неутрино
неутрони
неутроните
неформален
неформална
неформални
неформално
нецелосен
неш
нешта
нештата
нешто
неја
нејасен
нејасна
нејасни
нејасно
нејзе
нејзин
нејзина
нејзината
нејзини
нејзиниот
нејзините
нејзино
нејзиното
ни
нибали
нив
нива
нивата
нивен
ниви
нивите
нивна
нивната
нивни
нивниот
нивните
нивно
нивното
ниво
нивоа
нивоата
нивото
нигер
нигерија
нигритска
нигритската
ние
ниеден
ниедна
ниедно
нижни
низ
низа
низата
низводно
низи
низина
низини
низините
низински
низите
низок
ник
никаде
никаква
никакви
никакво
никако
никаков
никарагва
никел
никелодеон
никеја
ники
никита
никифор
нико
никогаш
никого
никодим
никозија
никол
никола
николаев
николаевич
николаи
николаос
николас
николај
николе
николески
николик
николо
николов
николова
николовски
николовци
николоски
николсон
никому
никос
никој
никс
никсон
никта
никулец
никулци
нил
нилс
нилсен
нилски
нилсон
ним
нимфа
нин
нина
нино
ниобиум
ниот
нип
нирвана
нирнберг
ниро
ниса
нисан
ниска
ниската
ниски
нискиот
ниските
ниско
ните
нити
нитрат
ниту
ниусблад
ниф
ница
ниче
ниш
ниша
нишата
ниши
нишка
нишки
ништо
нијанса
нијанси
није
ниџе
нло
нных
но
ноа
ноб
нобел
нобелова
нобеловата
нов
нова
новак
новаковик
новата
новаци
новгород
нове
новела
новелата
новели
нови
новинар
новинари
новинарите
новинарка
новинарот
новинарски
новинарство
новинарството
новине
новини
новиот
новите
ново
новозеландски
новороденчиња
новороденчињата
новосоздадената
новосоздадено
новости
новото
новоформираната
новоформираниот
новј
нога
ногата
ное
ноември
нож
ножеви
ножот
нозе
нозете
нок
нокаут
нокиа
нокти
ноктите
нолан
нолит
номадски
номенклатура
номинална
номиналната
номиналниот
номинално
номинатив
номинации
номинација
номинацијата
номиниран
номинирана
номинирани
нора
норвежаните
норвешка
норвешката
норвешки
норвешкиот
норвешките
норд
нордиската
нордиските
нордхаузен
норис
норич
норма
нормален
нормална
нормалната
нормални
нормалниот
нормалните
нормално
нормалното
норман
нормандија
норманите
норми
нормите
норт
нос
носат
носач
носачи
носеа
носел
носела
носеле
носело
носен
носени
носечка
носеше
носејк
носење
носењето
носи
носии
носител
носители
носителите
носителка
носителот
носија
носорог
носорози
носот
ност
носта
нота
нотација
ноти
нотингем
ното
нотрањска
нотрањскиот
ноу
ноулс
ноф
ној
нојман
нојхаус
нојштат
нп
нр
нрм
ну
нуб
нудат
нудејк
нуди
нужно
нуклеарен
нуклеарна
нуклеарната
нуклеарни
нуклеарните
нуклеарно
нуклеарното
нуклеотиди
нула
нулата
нулта
нултата
нумери
нур
нуркач
нуркање
нушик
нчов
о
оа
оае
оаза
об
обама
обата
обајцата
обвивка
обвивката
обвивки
обвинение
обвинението
обвиненија
обвиненијата
обвинет
обвинета
обвинети
обвинетиот
обвинетите
обвини
обвинил
обвиниле
обвинител
обвинители
обвинителство
обвинува
обвинуваат
обвинувајк
обвинувања
обвинувањата
обврзани
обврзници
обврзниците
обврзува
обврзувачки
обврска
обврската
обврски
обврските
обединат
обединет
обединета
обединетата
обединети
обединетите
обединето
обединетото
обедини
обединил
обединиле
обединува
обединување
обединувањето
обезбедат
обезбеден
обезбедена
обезбедени
обезбедено
обезбеди
обезбедил
обезбедила
обезбедиле
обезбедува
обезбедуваат
обезбедувајк
обезбедување
обезбедувањето
обележан
обележана
обележани
обележува
обележување
обележја
обележје
обелиск
обем
обемна
обемни
обемот
обесен
обете
обетки
обид
обидат
обиде
обидел
обидела
обиделе
обиди
обидите
обидоа
обидот
обидува
обидуваат
обидувал
обидувала
обидувале
обидувајк
обиколка
обиколување
обилни
обилно
обичаи
обичаите
обичај
обичајот
обичен
обична
обичната
обични
обичниот
обичните
обично
облак
облакодер
облакодери
облакот
област
областа
областеи
области
областите
облаци
облаците
облека
облеката
облеки
облекување
облечен
облечена
облечени
облешево
облик
обликот
обликува
обликуваат
обликувани
обликување
облици
облиците
обложени
обнова
обноват
обновата
обновен
обновена
обновената
обновени
обновено
обнови
обновил
обновиле
обновлива
обновливи
обновува
обновување
обновувањето
обоен
обоена
обоени
обожавател
обожаватели
обожавателите
обожување
обработен
обработена
обработени
обработка
обработката
обработлива
обработливи
обработливо
обработливото
обработува
обработуваат
обработувале
обработувач
обработувачи
обработувачот
обработувањето
обрадовик
образец
образложение
образован
образовани
образование
образованието
образовен
образовна
образовната
образовни
образовниот
образовните
образува
образуваат
образувал
образувајк
образување
образувањето
обрак
обрасци
обратен
обрати
обратил
обратна
обратно
обред
обреди
обреновик
оброк
оброци
обсе
обувки
обука
обуката
обуки
обучени
общ
общини
објава
објават
објавен
објавена
објавени
објавените
објавено
објави
објавил
објавила
објавиле
објавило
објавија
објавува
објавуваат
објавувал
објавувани
објавувајк
објавување
објавувањето
објаснат
објаснети
објаснето
објасни
објаснил
објаснува
објаснуваат
објаснувајк
објаснувања
објаснување
објаснувањето
објект
објекти
објективно
објектите
објектот
ов
ова
оваа
овата
овај
овде
овден
овен
овес
ови
овидиј
овие
овк
овластен
овластени
овластувања
овластувањата
овластување
ово
овозможат
овозможено
овозможи
овозможил
овозможила
овозможиле
овозможило
овозможува
овозможуваат
овозможувајк
овозможување
овошни
овоштарството
овошја
овошје
овошјето
овој
овојпат
овца
овци
овците
овчар
овчари
овче
оган
огист
оглед
огледала
огледало
огледалото
огнен
огнена
огнени
огнено
огненовски
огниште
огнот
ограбен
ограбена
ограбени
ограбиле
ограда
оградата
ограден
огради
огражден
ограничат
ограничен
ограничена
ограничени
ограничено
ограничи
ограничува
ограничуваат
ограничувања
ограничувањата
ограничување
ограничувањето
огранок
ограноци
огромен
огромна
огромната
огромни
огромниот
огромните
огромно
огромното
од
ода
одам
одамна
оданочување
одат
одаја
одајата
одбележан
одбележи
одбележува
одбележување
одбележувањето
одбере
одби
одбива
одбиваат
одбивал
одбивање
одбивањето
одбие
одбиен
одбиена
одбиени
одбиено
одбил
одбила
одбиле
одбира
одбор
одбори
одборот
одбојка
одбра
одбрал
одбран
одбрана
одбранат
одбраната
одбранбен
одбранбена
одбранбената
одбранбени
одбранбениот
одбранбените
одбрани
одбранил
одвај
одведе
одведен
одвел
одвива
одвиваат
одвивал
одвивала
одвивале
одвивало
одвила
одвнатре
одвоен
одвоена
одвоени
одвоено
одвои
одвоил
одвоиле
одвојува
одвојуваат
одвојување
одвреме
одгледува
одгледуваат
одгледувале
одгледувани
одгледување
одгледувањето
одговара
одговараат
одговор
одговорат
одговорен
одговори
одговорил
одговорила
одговориле
одговорите
одговорија
одговорна
одговорни
одговорно
одговорност
одговорноста
одговорности
одговорот
оддава
оддаваат
оддавна
оддаде
оддалечен
оддалечена
оддалечени
оддалечените
оддалечено
оддалеченост
оддалеченоста
оддалечи
оддалечува
оддел
одделен
одделена
одделени
одделение
одделението
одделенија
оддели
одделна
одделни
одделните
одделно
одделот
одделува
одделуваат
одделување
одеднаш
одел
одела
оделе
одело
одеса
одеше
одејк
одење
одењето
одзема
одземање
одземе
одземен
одземена
одземени
одземено
оди
одигра
одиграл
одиграла
одиграле
одигран
одиграна
одиграни
одиграно
одиме
одисеј
одисеја
одиш
одлив
одлика
одлики
одликува
одликуваат
одликувал
одликуван
одликувања
одликување
одличен
одлична
одличната
одлични
одличните
одлично
одложен
одложена
одложено
одложи
одложување
одлука
одлуката
одлуки
одлуките
одлучат
одлучено
одлучи
одлучил
одлучила
одлучиле
одлучува
одлучуваат
одлучувачки
одлучувачкиот
одлучување
одлучувањето
одмазда
одмаздата
одмазди
одмор
одморалишта
одморалиште
одморалиштето
одмори
однадвор
однапред
однекаде
однел
однела
однеле
однесат
однесе
однесен
однесени
однесува
однесуваат
однесувал
однесувала
однесувале
однесувало
однесувања
однесување
однесувањето
одново
однос
односи
односите
односно
односот
одобрен
одобрена
одобрени
одобрение
одобрено
одобри
одобрил
одобрила
одобрува
одобруваат
одобрување
одобрувањето
одозгора
одоздола
одошто
одра
одраз
одрази
одразува
одразуваат
одред
одредат
одредба
одредби
одредбите
одреден
одредена
одредени
одредено
одреди
одредил
одредишта
одредиште
одредот
одредува
одредуваат
одредување
одредувањето
одржа
одржаа
одржал
одржала
одржале
одржало
одржан
одржана
одржани
одржано
одржат
одржи
одржлив
одржлива
одржливи
одржливост
одржува
одржуваат
одржувал
одржувала
одржувале
одржувани
одржувајк
одржување
одржувањето
одри
одрин
одринска
одрински
одринските
одринско
одринското
оецд
оженет
ожени
оженил
оживување
оз
озборн
озирис
ознака
ознаката
ознаки
ознаките
означат
означен
означена
означени
означено
означи
означил
означува
означуваат
означувал
означувајк
означување
озон
озонот
ои
ок
ока
океан
океани
океаните
океанија
океанографија
океанот
океанска
океанската
океански
океанските
окер
оклахома
окленд
оклоп
оклопни
оклопот
око
оковик
околии
околиите
околина
околината
околиски
околискиот
околија
околијата
околната
околни
околниот
околните
околности
околностите
околното
околу
окото
округ
округов
округот
окружен
окружниот
окружните
окрузи
окрузите
оксид
оксидација
оксиди
оксидира
оксфорд
оксфордскиот
октавијан
октомври
октомвриската
окупатор
окупатори
окупаторот
окупаторски
окупациска
окупација
окупацијата
окупираат
окупирала
окупирале
окупиран
окупирана
окупирани
окупирано
ол
оланд
олга
олд
олденбург
оле
олег
олесни
олеснува
олеснување
оливер
оливера
оливие
оливија
олимп
олимпик
олимписка
олимписката
олимписки
олимпискиот
олимписките
олимпиското
олимпија
олимпијада
олимпијадата
олимпијади
олимпијакос
олицетворение
олово
олоф
олсон
олтар
олтарниот
олтарот
ом
омажена
омажи
омажила
оман
омар
омега
омер
омилен
омилена
омилени
омилено
омлоп
омниум
омо
омраза
омразата
он
она
онаа
онака
онаму
онегин
они
оние
онлајн
оно
онов
онолку
оноре
оној
онтарио
оон
ооу
оп
опаг
опаднал
опасен
опасна
опасни
опасно
опасност
опасноста
опасности
опасностите
опатија
опатијата
опашка
опашката
опашки
опел
опен
опенхајмер
опера
операта
оперативен
оперативна
оперативни
оперативниот
оперативните
оператор
оператори
операторот
операции
операциите
операција
операцијата
опери
оперира
оперирано
оперска
оперски
опис
описи
описите
описот
опит
опити
опиша
опишал
опишала
опишале
опишан
опишана
опишани
опишано
опишат
опише
опишува
опишуваат
опишувајк
опишување
опколен
опколена
опколени
опкружен
опкружена
опкружени
опкружено
опкружува
опкружуваат
опкружување
оплодување
опозиција
опозицијата
ополчение
опорави
опра
оправда
оправдано
оправдување
определат
определба
определен
определена
определени
определено
определи
определил
определува
определуваат
определување
опрема
опремата
опремен
опремена
опремени
опсада
опсадата
опсег
опсегот
опседнат
опсерваторија
опсерваторијата
опслужува
опслужувач
опслужувачи
опслужувачите
опслужувачот
опстанок
опстанокот
опстојува
опстојуваат
оптек
оптика
оптиката
оптимална
оптимизам
оптимизација
оптичка
оптичката
оптички
оптичкиот
оптичките
оптичко
оптоварување
опус
опфак
опфатен
опфатени
опфатено
опфати
опции
опциите
опција
опцијата
опширно
општ
општа
општата
општества
општествата
општествен
општествена
општествената
општествени
општественик
општествениот
општествените
општествено
општественото
општество
општеството
општење
општи
општина
општината
општини
општините
општинска
општинската
општински
општинскиот
општинските
општинско
општинското
општиот
општите
општо
општопознато
општото
опълчение
ор
ора
орална
орашје
орање
орбита
орбитален
орбитали
орбитална
орбиталната
орбитални
орбиталниот
орбиталните
орбитата
орбити
орбитира
орбитите
орвел
орг
орган
органи
организам
организатор
организатори
организаторите
организаторот
организации
организациите
организациска
организациската
организациски
организация
организација
организацијата
организира
организираат
организирал
организирала
организирале
организиран
организирана
организирани
организираниот
организирано
организирање
организирањето
организми
организмите
организмот
органист
органите
органот
органска
органската
органски
органските
органско
орге
орги
оргули
орда
ордан
орден
ордени
орденот
оре
орев
ореви
орегон
орел
орелот
ореше
оригинал
оригинален
оригинална
оригиналната
оригинални
оригиналниот
оригиналните
оригинално
оригиналното
оригиналот
ориент
ориентација
ориентацијата
ориентиран
ориентирана
ориентирани
ориз
оризари
оризот
орика
оринџ
орион
орк
оркестар
оркестарот
оркестри
орла
орландо
орланци
орлеан
орлеанс
орли
орлов
орман
ормонд
орнаменти
оро
оровник
орото
ортовиот
орудија
оружја
оружје
оружјето
орфеј
орхан
орце
орче
ос
оса
осака
осамен
осамени
осаменост
осамостојување
осамостојувањето
освен
осветен
осветена
осветлена
осветлување
осветлувањето
осветување
осветувањето
освободителните
освоен
освоена
освоени
освоените
освоено
освои
освоил
освоила
освоиле
освоија
освојат
освојува
освојуваат
освојувач
освојувачи
освојувачот
освојувајк
освојувања
освојување
освојувањето
осврнува
осврт
осеката
осетија
осетливи
оси
осигура
осигурување
осигурувањето
осиек
осип
оска
оскар
оскари
оската
оски
осло
ослободат
ослободен
ослободена
ослободени
ослободи
ослободил
ослободила
ослободиле
ослободителна
ослободителната
ослободително
ослободителното
ослободува
ослободуваат
ослободувајк
ослободување
ослободувањето
осломеј
осма
осман
османли
османлиите
османлиска
османлиската
османлиски
османлискиот
османлиските
османлиско
османлиското
осмата
осми
осминафиналето
осмиот
осмо
осмото
оснабрик
основ
основа
основаат
основал
основала
основале
основан
основана
основани
основано
основата
основач
основачи
основачите
основачки
основачот
основање
основањето
основен
основи
основите
основна
основната
основни
основниот
основните
основно
основното
основоположник
особен
особена
особени
особено
особеност
особености
особина
особини
особините
осогово
осоговски
осоговските
осомничен
осомничени
осој
оспорува
остава
оставаат
остават
оставајк
оставен
оставена
оставени
оставено
остави
оставил
оставила
оставиле
оставило
оставка
оставката
остана
останаа
останал
останала
останале
останало
останат
останати
останатиот
останатите
останато
останатото
остане
останки
останува
остануваат
останувајк
остар
остаток
остатокот
остатоци
остатоците
остварат
остварен
остварени
остварено
оствари
остварил
остварила
оствариле
остварува
остваруваат
остварувајк
остварувања
остварување
остварувањето
остен
остин
остра
остри
остро
остров
острови
островите
острово
островот
островска
островската
островски
островче
островчиња
острогорски
осуда
осуден
осудена
осудени
осуди
осудил
осудува
осум
осумаголна
осумгодишно
осумдесет
осумдесеттите
осумнаесет
осумте
осцилации
от
отава
отвор
отвора
отвораат
отворат
отворајк
отворања
отворање
отворањето
отворен
отворена
отворената
отворени
отворениот
отворените
отворено
отвореното
отвори
отворил
отворила
отвориле
отворите
отворот
отежнато
отежнува
отело
отец
отецот
оти
отиде
отидоа
отишла
отишле
отишол
откажа
откажал
откажала
откажале
откажан
откажана
откажани
откажат
откаже
откажува
откажување
откажувањето
отказ
откако
откога
отколку
откопани
откри
открива
откриваат
откривач
откривајк
откривање
откривањето
открие
откриен
откриена
откриени
откриените
откриено
открил
открила
откриле
открило
откритие
откритието
откритија
откритијата
открија
откријат
откровение
откуп
откупи
ото
оток
отоманска
отоманската
отомански
отоманскиот
отоманските
отоманско
отоманското
отоманците
отон
отпаг
отпад
отпаднал
отпадни
отпадник
отпадот
отпадоци
отпатува
отпатувал
отпечатена
отпечаток
отпечатоци
отплата
отпор
отпорен
отпорни
отпорност
отпорноста
отпорот
отпрвин
отприлика
отпуштен
отров
отровен
отрови
отровни
отровот
отруен
отсек
отсекогаш
отсекот
отсликува
отсликуваат
отстапи
отстапил
отстапки
отстапува
отстапувања
отстапување
отсто
отстранат
отстранет
отстранета
отстранети
отстрани
отстранил
отстранува
отстрануваат
отстранување
отстранувањето
отсуство
отсуството
отсуствува
отсутен
отсутно
оттаму
оттогаш
оттука
отуг
отука
отфрла
отфрлаат
отфрлање
отфрлен
отфрлена
отфрлени
отфрли
отфрлил
отфрлиле
отцепување
отци
отъ
оу
оф
офанзива
офанзивата
офанзивен
офелија
офис
офицер
офицери
офицерите
офицерот
официјален
официјална
официјалната
официјални
официјалниот
официјалните
официјално
официјалното
офк
оформен
оформи
оформување
офот
офф
ох
охајо
охрабри
охрабрува
охрабрување
охрид
охридска
охридската
охридски
охридскиот
охридско
охридското
оцена
оценет
оцени
оценил
оценка
оценки
оценува
оценуваат
оценување
очај
очекува
очекуваат
очекувал
очекувале
очекувало
очекувана
очекуваната
очекуваниот
очекуваните
очекуваното
очекувајк
очекувања
очекувањата
очекување
очерки
очеркъ
очи
очигледен
очигледна
очигледни
очигледно
очила
очите
ошо
оштетен
оштетена
оштетени
оштети
оштетувања
оштетување
оштетувањето
ој
ојлер
оџаци
п
па
пабло
павел
павик
павилјон
павле
павлов
павловик
павловска
павловски
паг
пагански
паганските
пад
падеж
падежи
падина
падината
падини
падините
падна
паднаа
паднал
паднала
паднале
паднало
паднат
паднатите
падне
падова
падови
падот
пазар
пазарен
пазари
пазарите
пазарна
пазарната
пазарни
пазарниот
пазарните
пазарно
пазарот
пазувите
пак
пакет
пакети
пакетите
пакетот
пакистан
пакт
пактот
пакување
пал
палада
паланка
палас
палат
палата
палатата
палати
палау
палацо
паленица
палеолит
палеолог
палеонтолог
палермо
палестина
палестинската
палестинските
палета
палецот
палење
палењето
пали
палка
палма
палмер
палми
паломарската
палубата
палчиште
паметен
паметни
памук
памукот
пан
панаг
панама
панда
пандан
панде
пандев
пандемијата
пандо
пане
панел
панели
паника
паница
панк
панкот
панкреасот
панов
панонија
панонската
панорама
панорамски
панталони
пантелејмон
пантеон
панче
панчево
панчо
паоло
папа
папагал
папагали
папандреу
папата
папи
папирус
папрадиште
папрат
папската
папството
папуа
пар
пара
парабола
парагвај
парада
парадата
паради
парадигма
парадокс
паразити
паразитски
параклис
параклисот
паралакса
паралела
паралелен
паралелки
паралелна
паралелни
паралелно
парализа
параметар
параметарот
параметри
параметрите
парана
парат
пареа
пареата
парен
парење
парењето
пари
париз
парис
париската
париски
парискиот
парите
паричен
паричка
парична
паричната
парични
паричните
парк
паркер
паркинг
паркови
парковите
паркот
парламент
парламентарна
парламентарни
парламентарните
парламентот
парма
парна
парни
парови
паровите
пародија
парот
парохии
парохиска
парохиски
парохија
парохијата
парсонс
партениј
партизан
партизани
партизаните
партизанска
партизански
партизанскиот
партизанските
партии
партиите
партиска
партиската
партиски
партиските
партитури
партија
партијата
партнер
партнери
партнерите
партнерот
партнерства
партнерство
парфем
парфеми
парфемот
пархим
парцели
парче
парчиња
пас
пасење
пасивен
пасивна
пасивни
пасивно
пасишта
пасиштата
паскал
пасош
пасоши
паста
пастернак
пастрмка
пасус
пасха
пат
патека
патеката
патеки
патеките
патем
патен
патент
патенти
патентот
пати
патишта
патиштата
патка
патки
патна
патни
патник
патниот
патници
патниците
патнички
патогени
патоказ
патологија
патот
патрик
патриот
патриоти
патриотизам
патриотска
патриотски
патрија
патријарх
патријархот
патријаршисти
патријаршија
патријаршијата
патрола
патрон
патува
патуваат
патувал
патувала
патувале
патувачки
патувајк
патувања
патувањата
патување
патувањето
пауел
пауза
паузата
паул
паули
пауло
паун
паунд
пациент
пациенти
пациентите
пациентот
пацифик
пацификот
пачино
паша
пашалак
пашата
пашик
пајажина
пајак
пајаци
пајонија
пајтон
пе
пеат
пегаз
пеги
педагог
педагогија
педагошка
педагошки
педагошкиот
педесет
педесеттите
педро
пее
пеел
пеела
пееле
пееше
пеејк
пеење
пеењето
пек
пекинг
пекол
пеколот
пела
пелагиј
пелагониска
пелагониската
пелагонија
пеле
пеликан
пелистер
пелопонез
пен
пена
пенал
пенали
пендаровски
пензионира
пензионирал
пензиониран
пензионирање
пензионирањето
пензиски
пензија
пени
пенис
пенисот
пенсилванија
пепел
пепелашка
пепелиште
пепелта
пеперуга
пеперугата
пеперуги
пеперутка
пеперутката
пеперутки
пепи
пер
пердика
пердуви
пердувите
пере
перез
перепись
перење
пери
период
периода
периоди
периодите
периодична
периодични
периодично
периодниот
периодот
периферија
периферијата
перихел
перка
перки
перл
перм
перо
перон
персеј
перси
персиска
персиската
персиски
персискиот
персиските
персија
персијците
персон
персонал
персоналот
перспектива
перспективата
перспективи
перт
перу
перуџа
перформанс
перформанси
перформансите
перцепција
перцепцијата
перје
пес
песама
пескара
песме
песна
песната
песни
песните
песок
песокот
песочна
песочни
песочник
пестициди
пет
петар
петгодишен
петгодишно
петел
петер
петербург
петефи
пети
петиција
петка
петко
петков
петковик
петковски
петковци
петмина
петнаесет
петнаесеттиот
петок
петорка
петра
петрарка
петре
петревски
петревци
петрески
петрич
петричко
петров
петрова
петровац
петровец
петровик
петрович
петровић
петрово
петровски
петроград
петрониј
петрушевски
петта
петтата
петте
петти
петтина
петтиот
петто
петтото
петър
пехар
пехчево
пеце
печалба
печалбари
печат
печатен
печатена
печатени
печатење
печатењето
печати
печатница
печатницата
печатот
пече
печени
печење
печка
печки
печурка
печурката
печурки
пеш
пешадиска
пешадиски
пешадија
пешадијата
пешак
пешакот
пешаци
пешачење
пешачка
пешачки
пешкопеја
пешта
пештани
пештера
пештерата
пештери
пештерите
пештерски
пејач
пејачи
пејачите
пејачка
пејачката
пејачот
пејзаж
пејзажи
пејзажот
пејл
пејо
пејчиновик
пејџ
пи
пива
пиварница
пиво
пивото
пигмент
пигменти
пие
пиемонт
пиење
пиењето
пиза
пизаро
пик
пикасо
пиле
пилешко
пилињата
пилот
пилоти
пилотот
пинг
пингвин
пингвини
пинеберг
пинк
пино
пинокио
пинјин
пинџур
пионер
пионери
пионерите
пионерски
пипер
пиперка
пиперки
пипин
пир
пирамида
пирамидата
пирамиди
пирамидите
пирати
пиратите
пирин
пиринеите
пиринејскиот
пиринска
пирински
пиринскиот
пирот
пирс
пирсон
писаро
писател
писатели
писателите
писателка
писателката
писателот
писма
писмата
писмен
писмена
писмени
писмено
писменост
писменоста
писмо
писмото
писта
пистата
пистолс
пистонс
пит
пита
питер
пити
питон
питоси
питсбург
питу
пица
пишал
пишан
пишана
пишани
пишаниот
пишаните
пиштол
пиштоли
пиштолот
пишува
пишуваат
пишувал
пишувала
пишувале
пишувало
пишувам
пишуван
пишувани
пишуваше
пишувајк
пишување
пишувањето
пиј
пијалак
пијалакот
пијалаци
пијалоци
пијан
пијана
пијанец
пијанист
пијано
пијаното
пијат
пк
пладне
плажа
плажата
плажи
плажите
плаза
плазма
плазмата
плак
плакета
пламен
пламенот
план
планета
планетарен
планетарна
планетарни
планетарните
планетата
планети
планетите
планина
планинарење
планинарски
планинарскиот
планината
планини
планините
планинска
планинската
планински
планинскиот
планинските
планинско
планира
планираат
планирал
планирала
планирале
планиран
планирана
планираната
планирани
планираниот
планирано
планирање
планирањето
планк
планковата
планови
плановите
планот
плански
плант
плантажи
пласира
пласираат
пласирал
пласирала
пласирале
пласиран
пласман
пласмани
пласманот
пласница
пластика
пластична
пластични
плат
плата
платат
платата
платен
платена
платени
платеници
плати
платил
платина
платите
платниот
платно
платното
плато
платон
платото
платформа
платформата
платформи
плаче
плачковица
плачот
плашат
плашел
плашеле
плашејк
плаши
плашт
племе
племенски
племето
племиња
племињата
плен
пленот
плесецк
плетвар
плетење
плеј
плејмејкер
плејоф
плејофот
плејстејшн
пли
плива
пливаат
пливач
пливачи
пливачка
пливачки
пливање
плима
плимата
плими
плимни
плимните
плиниј
плитка
плитки
плитко
плиток
пловат
пловдив
пловел
плови
пловидба
пловна
пловни
плод
плоден
плодна
плодната
плодни
плодните
плодно
плодност
плодноста
плодови
плодовите
плодот
плоча
плочата
плочи
плочите
плочка
плочки
плоштад
плоштади
плоштадот
плоштина
плоштината
плус
плутарх
плутон
пмф
пневмонија
по
поаг
поаро
поату
поатје
побавно
побара
побараат
побарал
побарала
побарале
побарано
побарува
побарувачка
побарувачката
побарувања
побарувањата
побегнал
побегнале
побегнат
побегне
победа
победат
победата
победи
победил
победила
победиле
победите
победија
победник
победникот
победници
победниците
победничка
победничката
победнички
победничкиот
победоносец
победува
победувајк
поблиски
поблиску
поборник
побрз
побрза
побрзи
побрзо
побројни
побуна
побуниле
поважна
поважни
поважните
поважно
повардарска
поведе
поведение
повез
повек
повел
повелба
повелбата
поверојатно
повик
повика
повикал
повикала
повикале
повикан
повикана
повикани
повикот
повикува
повикуваат
повикувајк
повикување
повисок
повисока
повисоката
повисоки
повисокиот
повисоките
повисоко
повици
повлекла
повлекле
повлекол
повлекува
повлекуваат
повлекување
повлекувањето
повлечат
повлече
повлечен
повлечена
повлечени
повод
повоената
повоениот
поволна
поволни
поворка
поворката
поврак
повратен
поврати
повратна
повратни
повреда
повредата
повреден
повредени
повредениот
повреди
повредил
повредите
повремени
повремено
поврзал
поврзан
поврзана
поврзани
поврзаните
поврзано
поврзаност
поврзаноста
поврзат
поврзе
поврзува
поврзуваат
поврзувал
поврзувајк
поврзување
поврзувањето
површина
површината
површини
површините
површинска
површинската
површински
површинскиот
површинските
повторен
повтори
повторил
повторна
повторно
повторното
повторува
повторуваат
повторувања
повторување
погл
поглавар
поглавја
поглавје
поглавјето
поглед
погледајте
погледи
погледите
погледне
погледнете
погледот
поговор
погоден
погодена
погодени
погоди
погодил
погодила
погодна
погодни
погодно
погодок
погодоци
погодува
поголем
поголема
поголемата
поголеми
поголемиот
поголемите
поголемо
поголемото
погон
погони
погоре
пограничните
погреб
погребан
погребана
погребани
погребни
погребот
погребување
погрешен
погрешна
погрешни
погрешно
погубен
погубени
погубувања
погубување
погубувањето
под
подалеку
подалечно
поданици
подари
подарил
подарок
подароци
податок
податокот
податотека
податотеки
податотеките
податоци
податоците
податочна
податочни
подвиг
подвид
подвида
подвидови
подвидот
подвижен
подвижна
подвижни
подвижност
подвижноста
подвизи
подвис
подводни
подгорица
подготват
подготвен
подготвена
подготвени
подготвено
подготвеност
подготви
подготвил
подготвува
подготвуваат
подготвувал
подготвувале
подготвување
подготовка
подготовката
подготовки
подготовките
подгрупа
подгрупата
подгрупи
поддржа
поддржал
поддржала
поддржале
поддржан
поддржана
поддржани
поддржано
поддржат
поддржи
поддржува
поддржуваат
поддржувал
поддржувала
поддржувале
поддржувач
поддржувачи
поддржувачите
поддржувајк
поддршка
поддршката
подединици
подеднакво
поделат
поделба
поделбата
поделби
поделен
поделена
поделени
поделено
подели
поделил
поделила
поделиле
подем
подемот
подетално
подземен
подземна
подземната
подземни
подземниот
подземните
подземјето
подигање
подигнал
подигнале
подигнат
подигната
подигнати
подигнато
подигне
подигнување
подиум
подиумот
подлабоко
подлежат
подлежи
подлога
подлогата
подлоги
подложен
подложени
подложни
подмет
подмножество
подморница
подморници
подмочани
поднел
поднела
поднеле
поднесат
поднесе
поднесени
поднесува
поднесуваат
поднесување
подножје
подножјето
подобар
подобра
подобрат
подобрен
подобрена
подобрени
подобри
подобрил
подобрила
подобро
подобрува
подобруваат
подобрувања
подобрување
подобрувањето
подолг
подолга
подолги
подолго
подолу
подот
подоцна
подоцнежен
подоцнежна
подоцнежната
подоцнежни
подоцнежниот
подоцнежните
подоцнежното
подразбира
подразбираат
подрачни
подрачно
подрачја
подрачјата
подрачје
подрачјето
подреден
подредена
подредени
подржи
подробности
подружница
подрум
подрумот
поевтини
поединец
поединецот
поединечен
поединечна
поединечната
поединечни
поединечниот
поединечните
поединечно
поедини
поединци
поединците
поедноставен
поезија
поезијата
поема
поемата
поеми
поени
поет
поетеса
поети
поетика
поетите
поетот
поетска
поетската
поетски
поетскиот
поетските
поетско
поефикасно
пожар
пожаревац
пожари
пожарот
пожега
пожелно
позади
позадина
позадината
позајмен
позајмени
позајми
позајмил
позајмица
позајмува
позајмуваат
позајмување
поздрав
поздрави
позитивен
позитивна
позитивната
позитивни
позитивниот
позитивните
позитивно
позиции
позициите
позиција
позицијата
познава
познаваат
познавал
познавале
познавања
познавање
познавањето
познат
позната
познатата
познати
познатиот
познатите
познато
познатото
позначајни
позначајните
познањ
позориште
поим
поими
поимите
поимот
поинаква
поинакви
поинакво
поинаков
поинаку
поинт
поистоветува
покажа
покажаа
покажал
покажала
покажале
покажало
покажано
покажат
покаже
покажува
покажуваат
покажувал
покажувале
покажувајк
покажување
показател
показатели
показателот
покана
поканата
поканет
поканета
поканети
покани
поканил
поканува
покачување
покајание
поклонение
поклопува
поколение
поконкретно
покори
покојникот
покојниот
покраина
покраината
покраини
покраините
покраински
покраинскиот
пократка
пократки
пократко
пократок
покрај
покренал
покрив
покрива
покриваат
покривајк
покривање
покриви
покривка
покривни
покривот
покрие
покриен
покриена
покриени
покриено
покриеност
покријат
покровител
покровителство
пол
пола
полага
полагаат
поларен
поларизација
поларизацијата
поларна
поларната
поларни
поларник
поларните
поле
полека
полен
полесен
полесна
полесни
полесно
полето
полжави
полза
поли
полимери
полинезиски
полинезија
полиси
политбирото
политика
политиката
политики
политиките
политичар
политичари
политичарите
политичарка
политичка
политичката
политички
политичкиот
политичките
политичко
политичкото
полицаец
полицаецот
полицајци
полицајците
полициска
полициската
полициски
полицискиот
полициските
полиција
полицијата
полиња
полињата
полк
полковник
полковникот
полкот
полн
полна
полнат
полнеж
полнежи
полнежите
полнежот
полнење
полни
полно
полнок
поло
полов
полова
половата
полови
половина
половината
половите
полово
полог
положба
положбата
положбениот
положби
положи
положил
полот
полошко
полошо
полска
полската
полски
полскиот
полските
полско
полското
полу
полубрат
полувреме
полувремето
полуживот
полукружен
полукружна
полукружни
полумесечина
полуоска
полуостров
полуостровот
полупречник
полупречникот
полупречници
полусезона
полусестра
полутопка
полуфинале
полуфиналето
полјана
полјански
полјаци
полјаците
полјоделска
полјоделско
пом
помага
помагаат
помагал
помагала
помагале
помагајк
помагање
помал
помала
помалата
помали
помалиот
помалите
помалку
помало
помег
померанија
поместени
помести
поместува
поместување
поместувањето
помина
поминаа
поминал
поминала
поминале
поминало
поминат
поминати
поминато
помине
поминува
поминуваат
поминувал
поминувала
поминувале
поминувајк
поминување
помири
помирување
помлад
помлада
помладата
помлади
помладиот
помладите
помогна
помогнаа
помогнал
помогнала
помогнале
помогнало
помогнат
помогне
помогнете
помок
поморска
поморската
поморски
поморскиот
поморските
помош
помошен
помошна
помошни
помошник
помошниот
помошници
помошта
помпеј
помурскиот
понапред
понатака
понатамошен
понатамошна
понатамошната
понатамошни
понатамошниот
понатамошните
понатамошно
понатамошното
понатаму
понг
понд
понеделник
понекогаш
понизок
пониска
пониски
пониските
пониско
поништи
поништување
понов
понова
поновата
понови
поновите
поново
понт
понтијан
понуда
понудат
понудата
понуден
понудена
понудени
понудено
понуди
понудил
понудила
понудиле
поп
попа
попис
пописи
пописите
пописни
пописот
попишани
попишано
поплава
поплавата
поплави
поплавите
попладне
попов
попова
поповик
поповска
поповски
поповци
попознат
попозната
попознати
попознатите
пополни
пополнување
попоски
попот
поправат
поправени
поправи
поправка
поправки
попрецизно
попреченост
попречува
популарен
популарна
популарната
популарни
популарниот
популарните
популарно
популарност
популарноста
популарното
популации
популациите
популација
популацијата
пор
пораг
поради
пораз
поразен
поразена
поразени
порази
поразил
поразила
поразиле
поразот
поразува
поразувајк
порака
пораката
пораки
пораките
порамнување
поранешен
поранешна
поранешната
поранешни
поранешниот
поранешните
поранешно
поранешното
порано
порасна
пораснал
пораснала
пораснале
пораснат
порасне
пораст
порастот
поредок
порекло
пореметувања
пореметување
поретки
поретко
порече
поречието
поречкото
пори
порнографија
породување
породувањето
порој
порт
порта
портал
портали
порталот
портата
порти
портите
портланд
порто
портокал
портокалов
портокалова
портокалови
портокалово
порторико
портпарол
портпаролот
портрет
портрети
портретите
портретот
портсмут
португалија
португалска
португалската
португалски
португалскиот
португалските
португалците
портфолио
портфолиото
поручник
поручникот
порфирогенит
порцелан
посавскиот
посака
посакал
посакува
посветен
посветена
посветени
посветено
посветеност
посветеноста
посвети
посветил
посветила
посветла
посветли
посветува
посвојување
посвојувањето
посебен
посебна
посебната
посебни
посебниот
посебните
посебно
посед
поседи
поседува
поседуваат
поседувал
поседувала
поседувале
поседување
поселении
посет
посета
посетат
посетата
посетен
посетена
посетено
посетеност
посети
посетил
посетила
посетиле
посетител
посетители
посетителите
посетува
посетуваат
посетувал
посетувала
посетувале
посејдон
посилен
посилна
посилни
посилно
поскоро
послаб
послаба
послаби
послабо
послание
посланието
после
последен
последица
последици
последиците
последна
последната
последни
последниве
последниот
последните
последно
последното
последователен
последователна
последователни
последователните
последователно
посложени
послужат
послужи
послуша
послушност
посмртни
посмртните
посмртно
посочи
посочил
посочува
посочуваат
посредник
посредници
посредство
посредување
пост
постава
постават
поставен
поставена
поставени
поставените
поставено
поставеност
постави
поставил
поставила
поставиле
поставија
поставка
поставки
поставува
поставуваат
поставувајк
поставување
поставувањето
постапка
постапката
постапки
постапките
постапува
постар
постара
постарата
постари
постариот
постарите
постаро
постдипломски
постдипломските
постела
постепено
пости
постигна
постигнаа
постигнал
постигнала
постигнале
постигнат
постигната
постигнати
постигнато
постигне
постигнува
постигнуваат
постигнувајк
постигнувања
постигнување
постигнувањето
постмодернизам
постмодернизмот
постоел
постоела
постоеле
постоело
постоечка
постоечката
постоечки
постоечкиот
постоечките
постоеше
постоење
постоењето
постои
постол
постот
постојан
постојана
постојаната
постојани
постојаниот
постојаните
постојано
постојаното
постојат
постојната
постојниот
постојните
постројки
пот
потврда
потврдат
потврден
потврдена
потврдени
потврдено
потврди
потврдил
потврдила
потврдиле
потврдија
потврдува
потврдуваат
потврдување
потег
потегот
потежок
потези
потезите
потекло
потеклото
потекнува
потекнуваат
потекнувал
потекнувала
потекнувале
потемна
потемни
потенцира
потенцијал
потенцијален
потенцијали
потенцијална
потенцијалната
потенцијални
потенцијалните
потенцијално
потенцијалот
потер
потера
потесен
потесна
потешка
потешки
потешко
потешкотии
потиснати
поткласа
потковица
потконтинент
поткрепа
потоа
поток
потокот
потомок
потомство
потомството
потомци
потомците
потопла
потоци
потоците
поточно
потпаг
потпаднал
потпаднала
потпаднале
потпаднало
потпира
потпираат
потпирајк
потпис
потписи
[...]
