!
"
#
##a
##aa
##ab
##ac
##ad
##ae
##af
##ag
##ah
##ai
##aj
##ak
##al
##am
##an
##ao
##ap
##aq
##ar
##as
##at
##au
##av
##aw
##ax
##ay
##az
##b
##ba
##bb
##bc
##bd
##be
##bf
##bg
##bh
##bi
##bj
##bk
##bl
##bm
##bn
##bo
##bp
##bq
##br
##bs
##bt
##bu
##bv
##bw
##bx
##by
##bz
##c
##ca
##cb
##cc
##cd
##ce
##cf
##cg
##ch
##ci
##cj
##ck
##cl
##cm
##cn
##co
##cp
##cq
##cr
##cs
##ct
##cu
##cv
##cw
##cx
##cy
##cz
##d
##da
##db
##dc
##dd
##de
##df
##dg
##dh
##di
##dj
##dk
##dl
##dm
##dn
##do
##dp
##dq
##dr
##ds
##dt
##du
##dv
##dw
##dx
##dy
##dz
##e
##ea
##eb
##ec
##ed
##ee
##ef
##eg
##eh
##ei
##ej
##ek
##el
##em
##en
##eo
##ep
##eq
##er
##es
##et
##eu
##ev
##ew
##ex
##ey
##ez
##f
##fa
##fb
##fc
##fd
##fe
##ff
##fg
##fh
##fi
##fj
##fk
##fl
##fm
##fn
##fo
##fp
##fq
##fr
##fs
##ft
##fu
##fv
##fw
##fx
##fy
##fz
##g
##ga
##gb
##gc
##gd
##ge
##gf
##gg
##gh
##gi
##gj
##gk
##gl
##gm
##gn
##go
##gp
##gq
##gr
##gs
##gt
##gu
##gv
##gw
##gx
##gy
##gz
##h
##ha
##hb
##hc
##hd
##he
##hf
##hg
##hh
##hi
##hj
##hk
##hl
##hm
##hn
##ho
##hp
##hq
##hr
##hs
##ht
##hu
##hv
##hw
##hx
##hy
##hz
##i
##ia
##ib
##ic
##id
##ie
##if
##ig
##ih
##ii
##ij
##ik
##il
##im
##in
##io
##ip
##iq
##ir
##is
##it
##iu
##iv
##iw
##ix
##iy
##iz
##j
##ja
##jb
##jc
##jd
##je
##jf
##jg
##jh
##ji
##jj
##jk
##jl
##jm
##jn
##jo
##jp
##jq
##jr
##js
##jt
##ju
##jv
##jw
##jx
##jy
##jz
##k
##ka
##kb
##kc
##kd
##ke
##kf
##kg
##kh
##ki
##kj
##kk
##kl
##km
##kn
##ko
##kp
##kq
##kr
##ks
##kt
##ku
##kv
##kw
##kx
##ky
##kz
##l
##la
##lb
##lc
##ld
##le
##lf
##lg
##lh
##li
##lj
##lk
##ll
##lm
##ln
##lo
##lp
##lq
##lr
##ls
##lt
##lu
##lv
##lw
##lx
##ly
##lz
##m
##ma
##mb
##mc
##md
##me
##mf
##mg
##mh
##mi
##mj
##mk
##ml
##mm
##mn
##mo
##mp
##mq
##mr
##ms
##mt
##mu
##mv
##mw
##mx
##my
##mz
##n
##na
##nb
##nc
##nd
##ne
##nf
##ng
##nh
##ni
##nj
##nk
##nl
##nm
##nn
##no
##np
##nq
##nr
##ns
##nt
##nu
##nv
##nw
##nx
##ny
##nz
##o
##oa
##ob
##oc
##od
##oe
##of
##og
##oh
##oi
##oj
##ok
##ol
##om
##on
##oo
##op
##oq
##or
##os
##ot
##ou
##ov
##ow
##ox
##oy
##oz
##p
##pa
##pb
##pc
##pd
##pe
##pf
##pg
##ph
##pi
##pj
##pk
##pl
##pm
##pn
##po
##pp
##pq
##pr
##ps
##pt
##pu
##pv
##pw
##px
##py
##pz
##q
##qa
##qb
##qc
##qd
##qe
##qf
##qg
##qh
##qi
##qj
##qk
##ql
##qm
##qn
##qo
##qp
##qq
##qr
##qs
##qt
##qu
##qv
##qw
##qx
##qy
##qz
##r
##ra
##rb
##rc
##rd
##re
##rf
##rg
##rh
##ri
##rj
##rk
##rl
##rm
##rn
##ro
##rp
##rq
##rr
##rs
##rt
##ru
##rv
##rw
##rx
##ry
##rz
##s
##sa
##sb
##sc
##sd
##se
##sf
##sg
##sh
##si
##sj
##sk
##sl
##sm
##sn
##so
##sp
##sq
##sr
##ss
##st
##su
##sv
##sw
##sx
##sy
##sz
##t
##ta
##tb
##tc
##td
##te
##tf
##tg
##th
##ti
##tj
##tk
##tl
##tm
##tn
##to
##tp
##tq
##tr
##ts
##tt
##tu
##tv
##tw
##tx
##ty
##tz
##u
##ua
##ub
##uc
##ud
##ue
##uf
##ug
##uh
##ui
##uj
##uk
##ul
##um
##un
##uo
##up
##uq
##ur
##us
##ut
##uu
##uv
##uw
##ux
##uy
##uz
##v
##va
##vb
##vc
##vd
##ve
##vf
##vg
##vh
##vi
##vj
##vk
##vl
##vm
##vn
##vo
##vp
##vq
##vr
##vs
##vt
##vu
##vv
##vw
##vx
##vy
##vz
##w
##wa
##wb
##wc
##wd
##we
##wf
##wg
##wh
##wi
##wj
##wk
##wl
##wm
##wn
##wo
##wp
##wq
##wr
##ws
##wt
##wu
##wv
##ww
##wx
##wy
##wz
##x
##xa
##xb
##xc
##xd
##xe
##xf
##xg
##xh
##xi
##xj
##xk
##xl
##xm
##xn
##xo
##xp
##xq
##xr
##xs
##xt
##xu
##xv
##xw
##xx
##xy
##xz
##y
##ya
##yb
##yc
##yd
##ye
##yf
##yg
##yh
##yi
##yj
##yk
##yl
##ym
##yn
##yo
##yp
##yq
##yr
##ys
##yt
##yu
##yv
##yw
##yx
##yy
##yz
##z
##za
##zb
##zc
##zd
##ze
##zf
##zg
##zh
##zi
##zj
##zk
##zl
##zm
##zn
##zo
##zp
##zq
##zr
##zs
##zt
##zu
##zv
##zw
##zx
##zy
##zz
$
%
&
'
(
)
*
+
,
-
.
/
0
00
000
004
005
009051
01
010
012
0140
015
02
022
025
03
030
031
04
05
052
06
069
07
076
08
086
09
0a
0b
0c
0d
0e
0f
0g
0h
0i
0j
0k
0l
0m
0n
0o
0p
0q
0r
0s
0t
0u
0v
0w
0x
0y
0z
1
10
100
1000
10000
1001
1001162
1002
101
1010
1016
102
103
104
105
106
107
108
109
1093
11
110
1100
111
112
114
115
116
117
12
120
1200
121
123
125
126
127
128
13
131
133
134
135
1357
1371
138
139
14
143
1456
14656566
1469
147
148
1485
149026
1497
1498
15
150
1500
1504
1505
1507
1517
1519
152
1530
1536
1538
1545
1546
1554
156
1562
1564
1570
1578
1586
1594
16
160
1600
1602
1632
1640
1642
1648
165
166
1663
1665
1667
169
17
170
174
17448941
175
176
1776
1777
1778
178
1788
1791
18
180
1800
1806
1809
181
1813
182
1820
1827
1830
1832
1834
1835
1840
1844
1845
1847
1848
1849
185
1850
1851
1853
1854
1855
1856
1858
1859
1860
1861
1862
1863
1864
1865
1866
1867
1869
187
1870
1871
1872
1873
1874
1875
1876
1877
1879
1880
1881
1882
1883
1884
1885
1886
1887
1888
1889
189
1890
1891
1892
1893
1894
1895
1896
1897
1898
1899
19
190
1900
1901
1902
1903
1904
1905
1906
1907
1909
1910
1911
1912
1913
1914
1915
1916
1917
1918
1919
192
1920
1921
1923
1924
1925
1926
1927
1928
1929
1930
1931
1932
1933
1934
1935
1936
1937
1938
1939
1940
1941
1942
1943
1944
1945
1946
1947
1948
1949
195
1950
1951
1952
1953
1954
1955
1956
1957
1958
1959
1960
1961
1962
1963
1964
1965
1966
1967
1968
1969
197
1970
1971
1972
1973
1974
1975
1976
1977
1978
1979
1980
1981
1982
1983
1984
1985
1986
1987
1988
1989
1990
1991
1992
1993
1994
1995
1996
1997
1998
1999
1a
1b
1c
1d
1e
1f
1g
1h
1i
1j
1k
1l
1m
1n
1o
1p
1q
1r
1s
1t
1u
1v
1w
1x
1y
1z
2
20
200
2000
2001
2002
2003
2004
2005
2006
2007
2008
2009
2010
2011
2012
2013
20130415060815
2014
2015
2016
2017
2018
2019
2020
2021
2022
203
2095
21
2100
211
216
2171
22
2200
221
22325616
225
22833634
229
23
23137768
232
23245604
23256501
233
234
23428104
235
2353
237
238
24
246
247
25
250
2500
251
256
257
2576
258
26
27
273
275
277
28
2800
283
29
2950
296
298
2991
2a
2b
2c
2d
2e
2f
2g
2h
2i
2j
2k
2l
2m
2n
2o
2p
2q
2r
2s
2t
2u
2v
2w
2x
2y
2z
3
30
300
3000
3000000000000
309
31
32
320
323
329
33
331
34
340
347
348
35
351
352
353
3530408
354
356
36
360
364
367
37
370
372
375
377
38
380
381
386
39
391
393
3a
3b
3c
3d
3e
3f
3g
3h
3i
3j
3k
3l
3m
3n
3o
3p
3q
3r
3s
3t
3u
3v
3w
3x
3y
3z
4
40
400
4000
4004
4050
406
409
41
416
42
423
424
425
428
43
430
44
440
441
447
45
450
46
460
467
47
48
480
49
490
495
4a
4b
4c
4d
4e
4f
4g
4h
4i
4j
4k
4l
4m
4n
4o
4p
4q
4r
4s
4t
4u
4v
4w
4x
4y
4z
5
50
500
5000
509
51
510
513
52
526
53
530
533
54
540
541
545
55
551
552
555
56
57
570
577
58
587
59
592
594
595
5a
5b
5c
5d
5e
5f
5g
5h
5i
5j
5k
5l
5m
5n
5o
5p
5q
5r
5s
5t
5u
5v
5w
5x
5y
5z
6
60
600
6000
601
608
61
610
61728
62
63
632
635
64
640
643
65
66
669
67
672
6736
68
689
69
6a
6b
6c
6d
6e
6f
6g
6h
6i
6j
6k
6l
6m
6n
6o
6p
6q
6r
6s
6t
6u
6v
6w
6x
6y
6z
7
70
700
702
71
710
716
717
72
724
73
74
743
7432
747
75
750
755515
75884
76
7607
77
78
788
79
790
7a
7b
7c
7d
7e
7f
7g
7h
7i
7j
7k
7l
7m
7n
7o
7p
7q
7r
7s
7t
7u
7v
7w
7x
7y
7z
8
80
800
81
82
83
830
84
849
85
855
86
87
872
8750
88
89
8a
8b
8c
8d
8e
8f
8g
8h
8i
8j
8k
8l
8m
8n
8o
8p
8q
8r
8s
8t
8u
8v
8w
8x
8y
8z
9
90
900
905
91
92
93
94
945
95
96
97
972
974
978
9780702053061
98
981
984
985
9859
99
9a
9b
9c
9d
9e
9f
9g
9h
9i
9j
9k
9l
9m
9n
9o
9p
9q
9r
9s
9t
9u
9v
9w
9x
9y
9z
:
;
<
=
>
?
@
[
[CLS]
[MASK]
[PAD]
[SEP]
[UNK]
\
]
^
_
`
a
a0
a1
a2
a3
a4
a5
a6
a7
a8
a9
aa
aaa
aab
aabba
aabbaa
aabbaaf
aabbaafaa
aabbaafis
aabbaan
aabbaanfaas
aabbaanis
aabbaas
aabbaatiin
aabbaatti
aabbaatu
aabban
aabbee
aabbo
aabboo
aabbu
aabo
aaboo
aaboon
aabotaa
aabuu
aachifte
aachiftuu
aachisan
aachise
aachisuu
aachuu
aad
aada
aadaa
aadaadhaan
aadaaf
aadaafi
aadaafkalaa
aadaalee
aadaamaa
aadaan
aadaas
aadaasaa
aadaatiin
aadaatti
aadaawwan
aadam
aadama
aadan
aadanii
aadaniif
aadanitti
aadannoo
aadbuura
aadda
aaddaa
aaddanee
aaddaneessa
aaddanoomuu
aaddanuu
aaddatanii
aadde
aaddee
aaddeewwaan
aaddeewwan
aaddilee
aaddiyyee
aaddoo
aadduu
aade
aadee
aadeffachiifamne
aadeffachiifne
aadeffachiiftan
aadeffachiifte
aadeffachiise
aadeffachiisiste
aadeffachiisisuu
aadeffachiisuu
aadeffachiisuun
aadeffachisiifne
aadeffachisiiftan
aadeffachisiisan
aadeffachisiise
aadeffachuu
aadeffadhe
aadeffadheera
aadeffamaa
aadeffannaa
aadeffanne
aadeffannoo
aadeffata
aadeffatamaa
aadeffatameen
aadeffatamne
aadeffatamuu
aadeffatan
aadeffate
aadeffattan
aadeffatte
aadessuu
aadha
aadhaa
aadhaaf
aadhaan
aadhati
aadi
aadigaa
aadiin
aadimaa
aadnaa
aadnaadhaan
aadnaan
aadomsuu
aadomuu
aadu
aaduu
aaduuf
aaduufis
aaduuti
aaduutti
aaf
aafa
aafi
aafii
aafrikaa
aaga
aagaa
aageen
aaggate
aagii
aagimuu
aagituu
aagomaa
aagomuu
aagoo
aaiun
aajaa
aajaasaa
aajifata
aajjaa
aak
aakaan
aakaaniin
aaken
aakira
aakka
aakkifachuu
aakkifata
aakkii
aakoo
aakor
aakoritti
aakshinii
aakshiniin
aaksum
aaksuum
aakterii
aaktiivii
aala
aalacha
aalachuu
aalama
aalamaa
aalboo
aalboorgi
aalborg
aalee
aalfaa
aalgee
aalii
aalima
aallee
aaloo
aalot
aaluu
aam
aama
aammoo
aamoq
aamoqitti
aamor
aan
aana
aanaa
aanaadhaan
aanaadhaatii
aanaaf
aanaafaa
aanaafi
aanaalee
aanaaleef
aanaaleen
aanaan
aanaanis
aanaaq
aanaaqota
aanaaqotaa
aanaaqotaas
aanaarra
aanaarraa
aanaas
aanaatii
aanaatiif
aanaatot
aanaatti
aanaawwan
aanafii
aanalee
aanaleen
aanaman
aanamuu
aanan
aananfachuu
aananii
aananiif
aananittis
aanannoo
aancibraala
aandhibbaala
aane
aanee
aanees
aaneffachuu
aanessa
aanfachuu
aanga
aangaatuu
aangawaa
aangawoonni
aangawoota
aangawootaa
aangawootni
aangawuu
aangessaa
aangessuu
aangii
aango
aangoftuu
aangoma
aangomsa
aangomsuu
aangoo
aangoodhaaf
aangoodhaan
aangoodhaanis
aangoof
aangoon
aangoonii
aangoonisaa
aangoonkoo
aangoonsaa
aangoorra
aangoorrajalaa
aangoos
aangoosaa
aangoosaaniitti
aangoosiyaasaa
aangootiin
aangootti
aangorraa
aanguu
aani
aanichaa
aanii
aanja
aanjeffachuu
aanjeles
aanjoo
aankii
aankumaala
aankumaalaa
aankurnaala
aanna
aannaa
aannaan
aannan
aannani
aannanicha
aannanicharraa
aannanichi
aannanii
aannaniin
aannaniinis
aannaniitti
aannaniitu
aannanitittuu
aannannaawaa
aannannaawaatti
aannannaawan
aannannaawuu
aannannee
aannannoo
aannannooftuu
aannantu
aannanummaa
aanni
aannisaa
aannolee
aannoo
aanolee
aanoleen
aanolii
aanoo
aanoolee
aanoon
aanoota
aanota
aanquu
aansa
aansaa
aansaaf
aansaatii
aansada
aansanii
aansaniis
aanse
aansee
aansees
aanshantamaala
aansi
aansii
aansiin
aansin
aansinee
aansoo
aansoon
aanssaatti
aansudhaan
aansun
aansunis
aansuu
aansuun
aansuunis
aantan
aante
aantee
aanteedhaan
aanteef
aanteen
aanteti
aantii
aantiin
aantima
aantimaa
aantimni
aantu
aantummaa
aantummaafi
aantummaan
aantutti
aantuu
aanu
aanudhaan
aanummaa
aanus
aanuti
aanutti
aanuttii
aanuttis
aanuu
aanuuf
aanuummaadhaan
aanuummaan
aanuun
aanuutti
aanxaa
aanxessuu
aaqila
aar
aara
aaraa
aaraam
aaraan
aaraanis
aaraas
aaraatti
aaragalfachuu
aaragalfataa
aaram
aaramii
aaramiif
aaramiin
aaramin
aaramis
aaramitti
aaran
aaranii
aaraniitu
aarbaa
aarbaastuu
aarbataahicha
aardii
aardiin
aardotaa
aardvark
aare
aaree
aareef
aareen
aareera
aareeras
aarees
aarfamu
aarfamus
aarfamuu
aarfamuuf
aarfamuutti
aargalfii
aari
aaridhaan
aarii
aariidhaa
aariidhaan
aariidhaanis
aariifi
aariin
aariinis
aariisaa
aariisaaniis
aariitiin
aariitti
aariitu
aarin
aarinaa
aariyaadhaaf
aariyaan
aariyaanotaa
aariyasillaasee
aariyophaagos
aarki
aarnon
aarnonii
aarnonis
aarnonitti
aarod
aarodootaa
aarodotaati
aaron
aaronii
aaroniif
aaroniifis
aaronin
aaronis
aaronitti
aaroo
aaroon
aaroota
aarota
aarraa
aarre
aarreef
aarres
aarri
aarris
aarsa
aarsaa
aarsaadhaaf
aarsaadhaan
aarsaadhaanis
aarsaaf
aarsaan
aarsaanii
aarsaas
aarsaatii
aarsaatiif
aarsaatiin
aarsaatti
aarsaattis
aarsaatu
aarsaawof
aarsagatuu
aarsan
aarsanii
aarsaniif
aarsanitti
aarse
aarsee
aarseef
aarsi
aarsichaa
aarsichaafis
aarsichaas
aarsichaatii
aarsichaatti
aarsichaattis
aarsii
aarsiifi
aarsiin
aarsin
aarsinaa
aarsinaan
aarsinaanan
aarsineef
aarsineefan
aarsineetti
aarsita
aarsitan
aarsitanii
aarsitaniittu
aarsite
aarsitee
aarsiteef
aarsitii
aarsituu
aarsituuf
aarsu
aarsuu
aarsuudhaaf
aarsuudhaafis
aarsuudhaan
aarsuuf
aarsuun
aarsuunii
aarsuuniirra
aarta
aartan
aartanii
aarte
aartee
aarteetti
aarti
aartii
aartiidhaan
aartiin
aartistii
aartu
aartuu
aaru
aarudhaan
aarummaa
aarus
aaruttis
aaruu
aaruuf
aaruun
aaruunuu
aaruus
aaruutti
aarzaa
aasaa
aasaan
aasaanis
aashii
aasxaa
aate
aatee
aati
aatifii
aatii
aatiin
aatilaayi
aatimaalaa
aatin
aatoo
aatti
aatu
aatuu
aau
aawaa
aawiititti
aawonni
aawoo
aawortaa
aawota
aawummaan
aawurooppaa
aawurooppaatti
aawurooraa
aawuu
aawwan
aayerlaandi
aayi
aayii
aayin
aayina
aayiranii
aayireenii
aayis
aayislaandi
aayitti
aayyaa
aayyee
aayyii
aayyo
aayyolee
aayyoo
aayyoon
aazaan
aazeliyaa
aazeqaa
aaznot
ab
abaa
abaabilee
abaabilii
abaaboo
abaaboodhaan
abaaboon
abaada
abaadir
abaan
abaaramaa
abaaramaan
abaarree
abaarsa
abaarsi
abaaruu
abaasuu
ababa
abaca
abaci
aback
abacus
abadan
abaft
abai
abakaas
abarraa
abarraan
abase
abasement
abashaa
abasuuda
abate
abattoir
abba
abbaa
abbaabooraa
abbaaf
abbaan
abbaana
abbaanaa
abbaansaa
abbaanshii
abbaas
abbaasaa
abbaatiin
abbaatu
abbaay
abbaayi
abbaayitti
abbabaa
abbabaaf
abbabaan
abbabbaa
abbabora
abbarraa
abbas
abbay
abbayi
abbayyaa
abbee
abbeentaa
abbess
abbicha
abbichi
abbichuu
abbii
abboo
abboomaan
abboomamaa
abboomamne
abboomamtuu
abboomamu
abboomamuu
abbooman
abboommachuu
abboommii
abboomuu
abboonni
abboota
abbootii
abbootiin
abbootin
abbooy
abbr
abbreviate
abbummaa
abbush
abbuudduu
abbuuquu
abdachiisaa
abdachiisuu
abdachuu
abdadha
abdadhu
abdallaa
abdallaahi
abdallaan
abdatamu
abdatee
abdi
abdii
abdiidhaan
abdiin
abdiinis
abdiisaa
abdiisaan
abdiisan
abdiisanis
abdomen
abdominal
abduct
abdul
abdullaahi
abdullaahii
abdullaahirraa
abdullaxiif
abdullee
abdulqaadir
abdulrahmaan
abdurrahmaan
abebe
abee
abeetni
abera
abet
abeyance
abeylegesse
abhor
abidda
abiddaa
abiddee
abide
abiding
abidjan
abii
abiidhoo
abiishee
abiisheen
abiishen
abika
ability
abishee
abisheen
abisiiniyaa
abisiniyaa
abiy
abiyi
abiyyi
abjaataa
abject
abjoochuu
abjure
abjuu
abjuun
ablaze
able
ablutions
abnegate
abnormal
abo
aboard
abominable
abomination
abon
abonis
aboo
abootee
aboottee
abootteedhaan
aboriginal
abortive
abotiin
abotti
about
above
aboyans
abraam
abraangoo
abrade
abrahaam
abraham
abrasa
abrasive
abreast
abridge
abridgment
abril
abroad
abrogate
abrogation
abrupt
abruptly
abruptness
abscess
abscond
absd
abseentism
absence
absent
absentee
abshaala
abshaalummaa
abshaalummaan
abshiir
abshir
absolute
absolutely
absolution
absolutism
absolve
absorb
absorbed
absorbent
absorbing
absorption
abstain
abstemious
abstention
abstinence
abstract
abstractnoun
abstruse
absurd
absurdism
absuuda
abu
abubakar
abuduroo
abuja
abukaadoo
abukaattoo
abuna
abundance
abundant
abune
abuse
abusive
abut
abute
abuturoo
abuu
abuuna
abuunaa
abuuraa
abuurraa
abuurraan
abuurtonni
abuuruu
abuyyaa
abysinia
abysmal
abyss
abyssinia
abyssinian
abyssinica
ac
academic
academie
academies
academy
accede
accelerate
acceleration
accelerator
accent
accentiin
accept
acceptability
acceptable
access
accessed
accessible
accession
accessory
accident
accidental
accidentally
acclaim
acclamation
acclimatize
accolade
accommodate
accommodation
accompaniment
accompanist
accompany
accomplice
accomplish
accomplished
accomplishment
accord
accordingly
accordion
accost
account
accountable
accountant
accredit
accreditation
accrue
accumulate
accumulator
accuracy
accurate
accurately
accursed
accusation
accusative
accuse
accused
accuser
accustom
accustomed
ace
acerbity
acetic
acetylene
achaa
ache
achi
achieve
achievement
achii
achiimmoo
achiin
achiis
achiisaa
achiisu
achiisuuf
achirraa
achirraan
achirratti
achirrattis
achis
achittan
achitti
achittii
achittiis
achittis
achu
achudhaan
achuf
achuma
achumaa
achumaan
achumaanis
achumarraan
achumatti
achuu
achuudhaan
achuuf
achuun
achuutti
acid
acidic
acidiin
acidity
acknowledge
acknowledgement
acme
acne
acorn
acoustic
acoustics
acquaint
acquaintance
acquiesce
acquiescence
acquire
acquisition
acquit
acquittal
acre
acrid
acrimonious
acrimony
acronym
act
acting
action
activate
activated
active
activist
activity
actor
actors
actress
actual
actually
actuate
acu
acuity
acumen
acupuncture
acute
ad
ada
adaa
adaabbaa
adaabbaatti
adaadaa
adaadaasaa
adaal
adaalessii
adaamaa
adaamaatti
adaamii
adaba
adabaa
adabaatti
adabaman
adabamu
adabbii
adabbiin
adaboon
adabsiisu
adabuu
adada
adaduma
adafii
adafiin
adage
adair
adal
adala
adam
adamant
adamoo
adamoon
adamsaa
adamsamanii
adamsan
adamsee
adamsituu
adamsu
adamsuu
adansonia
adanyoo
adapt
adaptability
adapter
adara
adaraa
adare
adaree
adareen
adawaa
adawwii
adbaarii
add
adda
addaa
addaaf
addaan
addaarra
addaarraa
addaarratti
addaati
addaatif
addaatiif
addaatiin
addaatin
addaatti
addaatu
addabaabaayii
addababa
addaddaa
addaggee
addaggummaa
addan
addarratti
addatti
addayaa
addee
addeellee
addeenya
addeessa
addeessaa
addeessi
addeessuu
addendum
addi
addict
addiction
addictive
addigiraat
addii
addis
addisababacity
addisuu
addition
additional
additive
addled
addoo
addooyyee
addooyyeen
address
addressed
adduce
addummaa
addummaan
adduniyaa
addunya
addunyaa
addunyaaf
addunyaalessaa
addunyaalessaatin
addunyaan
addunyaarra
addunyaarraa
addunyaarratti
addunyaatti
addunyarratti
adduunyaa
adeema
adeemaa
adeeman
adeemanii
adeeme
adeemee
adeemsa
adeemsaa
adeemsi
adeemsifamaa
adeemsifame
adeemsifamee
adeemsifamu
adeemsifamutti
adeemsifamuu
adeemsisaa
adeemsisamu
adeemsisuuf
adeemsuma
adeemtotaatin
adeemu
adeemuu
adeemuun
adeera
ademaa
ademani
ademma
ademmu
ademsaa
ademsifame
ademsii
ademuu
adept
adequate
adere
adha
adhaaf
adhaan
adhe
adhee
adhere
adherence
adherent
adhesion
adhesive
adhoc
adhu
adi
adidaas
adii
adiif
adiin
adireenaalii
adireenaaliin
adireenaaliinii
adiyyoo
adj
adjacent
adjective
adjoining
adjourn
adjournment
adjudge
adjudicate
adjunct
adjure
adjust
adjustable
adjusted
adjutant
adlib
admaasun
admaasuu
administer
administration
administrative
administrator
admirable
admiral
admiration
admire
admirer
admissible
admission
admit
admittance
admixture
admonish
admonishment
admonition
admonitory
ado
adobe
adolescence
adolescent
adoo
adoochu
adoochuu
adoodaa
adoodani
adoodanii
adooduu
adoola
adoolaa
adooleessa
adoolessa
adoolessaa
adoolfi
adopt
adoption
adorable
adoration
adore
adorn
adornment
adrenal
adrenalin
adrift
adroit
adsorption
adulate
adulation
adult
adulterate
adulterer
adulteress
adulterous
adultery
adunya
adunyaa
adurree
adurreedhaaf
aduu
aduudhaan
aduulaa
aduun
aduunyaa
aduutti
adv
advance
advancement
advantage
advantageous
advent
adventitious
adventure
adventurer
adventures
adventurous
adverb
adversary
adverse
adversity
advertise
advertisement
advertiser
advice
advisable
advise
advised
advisor
advisory
advocacy
advocate
advocates
adwaa
adwui
adwuin
adze
ae
aerate
aerial
aerie
aerobic
aerobics
aerodrome
aeronautics
aeroplane
aesthetic
aethiopica
af
afaa
afaala
afaan
afaanessuu
afaani
afaanii
afaaniikuu
afaaniin
afaaniitiif
afaaniitti
afaanin
afaanirra
afaanitti
afaanni
afaannii
afaanonni
afaanoromoo
afaanota
afaanotaa
afaansaanii
afaanuma
afamu
afan
afanii
afanoromo
afar
afarsu
afarsuu
afata
afdaneessa
afee
afeeramiin
afeerraa
afeeruu
affaa
affaar
affaari
affaarii
affable
affair
affairs
affect
affectation
affected
affection
affectionate
affeelamaa
affeelame
affeelamee
affeelamu
affeelamuutti
affeellii
affeeluu
affeeraman
affeeramee
affeerraa
affeerte
affeeruu
affidavit
affiliate
affinity
affirm
affirmation
affirmative
affix
affixes
afflict
affliction
affluence
affluent
afford
afforest
affray
affront
afgaaffii
afgaanistaan
afghanistan
afield
afii
afire
afiriikaatti
afirikaa
afiroo
afkalaa
aflame
afloat
afnaqii
afoo
afooga
afoola
afoolaa
afoolaan
afoolaas
afoolessituu
afoollessaa
afoollessituu
afoollessu
afoollessuu
afoolota
afoot
aforesaid
afraffa
afraffaa
afraffaan
afraid
afran
afresh
africa
african
afriikaa
afrika
afrikaa
afrikaan
afrikaanonni
afrikaanota
afrikaarraa
afrikaarratti
afrikaati
afrikaatti
afrikkaa
afro
afroo
aft
after
afterbirth
aftermath
afternoon
afterwards
afur
afuraa
afuri
afurii
afuriif
afuriin
afurirraa
afuritti
afurrafa
afurtama
afurtami
afurtamii
afurtammaffaa
afurtu
afuu
afuufamaa
afuufamu
afuufamuu
afuufan
afuufu
afuufuu
afuura
afuuraa
afuuraan
afuuraatiin
afuuran
afuurenni
afuurfannaa
afuurfata
afuurri
afuutu
ag
aga
agaarsiisa
agabuu
agadaa
again
against
agamsa
agana
aganuu
agape
agarfa
agaric
agarii
agariidhaf
agariin
agarre
agarree
agarsiifachuu
agarsiifaman
agarsiifamu
agarsiifne
agarsiifte
agarsiiftu
agarsiiftuu
agarsiisa
agarsiisaa
agarsiisaaf
agarsiisan
agarsiise
agarsiisee
agarsiisu
agarsiisun
agarsiisus
agarsiisutti
agarsiisuu
agarsiisuuf
agarsiisuufi
agarsiisuun
agarsisa
agarsisaa
agarsissa
agarsisu
agarsisuu
agarsiusu
agarteettaaree
agartii
agartuu
age
aged
ageless
agency
agenda
agenesis
agent
aggaamame
aggaammatanii
aggaammate
aggaaroo
agglomerate
agglomeration
agglutinate
aggrandize
aggravate
aggregate
aggression
aggressive
aggressor
aggrieved
aghast
agiboo
agiboodhaan
agile
agility
agitate
agitation
agitator
aglow
agnes
agnostic
ago
agog
agony
agosto
agrarian
agree
agreeable
agreement
agricultural
agriculture
aground
agua
agulhas
aguraa
agust
aguugamaa
aguuguu
aguurtoo
ah
ahadii
ahead
ahimad
ahimadiin
ahmad
ahmar
ahmed
ai
aibo
aid
aide
aids
ail
ailment
aim
aims
ainta
air
airborne
aircraft
airfield
airforce
airline
airmail
airman
airplane
airport
airpump
airstrip
airtight
airy
aisle
aj
aja
ajaa
ajaagaarii
ajaaniba
ajaja
ajajaa
ajajaan
ajajamaa
ajajaman
ajajame
ajajamne
ajajamuu
ajaje
ajajee
ajaji
ajajichaa
ajajichi
ajajjuu
ajajni
ajajoonni
ajajoota
ajajootaa
ajajuu
ajajuuf
ajandaa
ajar
ajeessaa
ajeesu
ajeesuu
ajeesuuf
ajessa
ajjechaa
ajjeechaa
ajjeechaan
ajjeefaman
ajjeefamanii
ajjeefame
ajjeefamu
ajjeefamuu
ajjeefamuuf
ajjeeffamaniiru
ajjeefne
ajjeeftee
ajjeeftu
ajjeeran
ajjeeru
ajjeesa
ajjeesaa
ajjeesan
ajjeesanii
ajjeese
ajjeesee
ajjeeseen
ajjeesi
ajjeessa
ajjeessan
ajjeesse
ajjeessee
ajjeessi
ajjeessu
ajjeessuu
ajjeessuun
ajjeesu
ajjeesun
ajjeesuu
ajjeesuudhaan
ajjeesuuf
ajjeesuun
ajjefame
ajjesani
ajjesse
ajma
ajoo
ajooftuu
ajuuz
ak
aka
akaa
akaafaa
akaakayyuu
akaakayyuun
akaakayyuusaa
akaakilii
akaakoo
akaakun
akaakuu
akaakuun
akaawwii
akan
akankarreettii
akcent
akeeka
akeekaa
akeekan
akeekkachiisa
akeekkachiisaa
akeekkachiisan
akeekkachiisuu
akeekni
akeekuu
akhaakhiyyee
akimbo
akin
akiroobaatii
akk
akka
akkaa
akkaadaamii
akkaadaamiin
akkaadamii
akkaan
akkaata
akkaataa
akkaataan
akkaatadhuma
akkaatee
akkam
akkami
akkamii
akkamiin
akkamiinan
akkamiitti
akkamitti
akkamittii
akkamittiin
akkan
akkana
akkanaa
akkanatti
akkanattin
akkanni
akkanuma
akkanumatti
akkas
akkasaa
akkasi
akkasii
akkasiin
akkasiis
akkasis
akkasittan
akkasitti
akkasittin
akkasum
akkasuma
akkasumaan
akkasumaanii
akkasumaaniiti
akkasumaaniitti
akkasumaas
akkasumallee
akkasumas
akkasumatti
akkasums
akkasuumas
akkata
akkataa
akkataan
akkatan
akkatta
akkattan
akkatti
akkawoo
akkawoon
akkee
akkeekkachiisa
akkeessituu
akkeessuu
akki
akkina
akkitti
akkiyyaa
akkon
akkoo
akkoordiyoonii
akkoosaa
akkuma
akkumaa
akkuman
akkumma
akliluu
akliluun
aksiyoonii
aktasaa
aktiivii
aktiiviitii
aktiviitii
akuma
akurii
al
ala
alaa
alaabaa
alaabaan
alaamaa
alaan
alaarraa
alaarratti
alaaskaa
alaatii
alaatiin
alaatin
alaatti
alabaasuu
alacrity
alaga
alagaa
alagaan
alala
alalaasaa
alalaasi
alalaasuu
alaltuu
alam
alamaayyoo
alamuu
alamuun
alamxeenaa
alan
alana
alanfachuu
alanfadhu
alanfannaa
alangaa
alangaadhaan
alangee
alaqaa
alarm
alarming
alaska
alatti
alattis
alayhim
alayka
alaykum
albaadhessa
albaanin
albaatii
albama
albamii
albamiin
albania
albatross
albeit
alberti
albinism
albinismiin
albino
albiyumiin
albudda
albudii
album
albumin
albus
albuu
albuuda
albuudaa
albuudi
albuudni
albuudonni
albuudoota
albuudota
albuudotaa
alcohoiic
alcohol
alcoholic
alcove
aldebaran
ale
alec
alee
aleeksaander
alen
alenquer
alert
alesaandiroo
alessandro
alex
alexandra
alfaabeetii
alfabeetii
alfireed
algae
algajima
algajimaa
algala
algebra
algee
algeria
alh
ali
alias
alibi
alien
alienate
alight
align
aligned
alii
aliin
aliinis
alike
alimentary
alimony
alive
aliyyii
aliyyiin
aljebraa
aljeebraa
aljeeriyaa
alkaalaayinii
alkaalayinii
alkali
alkaline
alkan
alkanii
alkoo
alkoolii
alkooliidhaan
alkooliin
all
alla
allaah
allaatti
allaattii
allaattiilee
allaattiin
allaattilee
allaayidii
allafe
allah
allay
alle
allee
allegation
allege
allegiance
allegory
alleluia
allergy
alleviate
alley
alliance
allied
alligator
allocate
alloo
allot
allotment
allow
allowance
alloy
allude
allure
alluring
allusion
alluvial
alluvialsoil
ally
almaaz
almanac
almighty
almond
alms
aloe
aloft
alone
along
alongside
aloo
aloof
alooluu
alot
aloud
alpaayin
alpha
alphabet
alphabetical
already
alseerii
alsirrima
also
altar
alter
alteration
altercate
altercation
alternate
alternating
alternatingcurrent
alternative
although
altimeter
altitude
alto
altogether
altokko
altruism
aluminiyamii
aluminum
alumnus
aluuminiyeemii
alvaro
alveolar
alvise
alwaadaa
alwaaha
always
am
ama
amaa
amaagaaguraa
amaan
amaanaa
amaanu
amaara
amaaraa
amaaraatiin
amaaradhaan
amaariffa
amaariffaa
amaariffaan
amaaroota
amaarotaa
amaarri
amaatti
amaazoon
amajaajii
amajaajummaa
amajji
amajjii
amajjiin
amala
amalaa
amalaaf
amalaan
amalashee
amalgam
amalgamate
amalla
amalli
amaloota
amaluma
aman
amana
amanaa
amanama
amanamaa
amanamne
amanamoo
amanamtummaa
amanamtuu
amanamu
amanamummaa
amanamummaadhaan
amanamummaan
amanamuu
amanan
amananii
amanda
amane
amanee
amaneef
amaneera
amanfachuu
amani
amanii
amanne
amansiifne
amansiisaa
amansiise
amansiisne
amansiisoo
amansiisummaa
amansiisuu
amansiisuudhaan
amansiisuuf
amansisaa
amansisuuf
amantaa
amante
amantee
amantes
amanti
amantii
amantiif
amantiilee
amantiin
amantiiti
amantiitiin
amantiitti
amantoota
amantu
amantummaa
amantuu
amanu
amanutti
amanuu
amanuudhaan
amanuuf
amanuun
amaraa
amartii
amas
amass
amata
amateur
amaze
amazed
amazement
amazing
amazon
amba
ambaa
ambaan
ambaasaaddara
ambaasaaddarii
ambassador
ambatiitoo
amber
ambidextrous
ambiguity
ambiguous
ambiiroo
ambition
ambitious
ambivalence
ambivalent
amble
ambo
amboo
ambootti
ambotti
ambulance
ambullaa
ambush
ame
amee
ameebaa
ameebaafis
ameef
ameen
ameentaa
ameera
ameeriikaa
ameerikaa
ameerikaan
ameerikaanota
ameerikaas
ameerikaati
ameerikaatti
ameerikkaa
ameessa
ameliorate
amelioration
amenable
amend
amendment
amends
amenity
america
american
americas
ameriikaa
amerikaa
amerikaan
amerikaatti
ametti
amfibiyaanota
amh
amhara
amiable
amicable
amidst
amiinoo
amiir
amine
amino
aminoo
amir
amiss
amisterdaam
amity
amma
ammaa
ammaaf
ammaan
ammaanii
ammaanitti
ammaannee
ammaas
ammaatiin
ammaatti
ammachiisa
ammajjii
ammalaa
ammalla
ammallee
ammam
ammammoo
ammamtaa
amman
ammas
ammata
ammatti
ammayya
ammayyaa
ammayyaan
ammayyoomsuu
ammayyummaa
ammayyuu
ammi
ammo
ammoo
ammooniyeem
ammuma
ammumarraa
ammunition
amna
amne
amnesia
amnesty
amnioticfluid
amnistii
amoeba
amok
among
amoolee
amoorotaa
amoral
amorous
amorphous
amortize
amount
amour
ampasiin
ampere
amphibian
amphibious
amphiphilic
amphitheater
amphora
ampiirii
ampilifaayerii
ample
amplifier
amplifiers
amplify
amplitude
ampule
amputate
amputated
ampuulii
amsterdam
amte
amtu
amtutti
amtuu
amu
amulet
amun
amuruu
amuruun
amuse
amusement
amusing
amutti
amuu
amuuf
amuummachuuf
amuun
amy
an
ana
anaa
anaadhufu
anaaf
anaafii
anaafis
anaalaayizeriin
anaalitikaal
anaaloogii
anaan
anaanis
anaatoomii
anaatoomin
anaatu
anaaxii
anaaxummaa
anachronism
anaconda
anaemia
anaerobic
anaesthesia
anal
analogue
analogy
analysis
analyze
anarchism
anarchist
anarchy
anarratti
anas
anathema
anathematize
anatomy
anatti
anatu
anbulaansi
ancaa
ancestor
anchillestendon
anchor
anchote
ancient
ancootee
ancooteen
ancooten
and
andaaqittiin
andaaqqoo
andaaqqoon
andooraa
andorra
andre
andrea
andrew
andy
anecdote
anemia
anemometer
anesthesia
anesthetic
anesthetize
anew
anfilloo
anga
angaasa
angaasuu
angaawonni
angaawota
angafa
angafaa
angaficha
angafni
angafoo
angafoota
angawoota
angeetuu
angel
angeles
anger
angle
angler
angling
anglo
angola
angoo
angoolaa
angoon
angoorra
angoorraa
angora
angry
anguish
angular
ani
anidha
anif
anifi
anii
aniidha
aniif
aniifi
aniin
aniiru
aniis
aniiti
aniitti
anil
aniline
animal
animalia
animalism
animals
animate
animated
animation
animism
animmoo
animosity
anin
anirra
anirratti
anirru
anis
anise
anistaayiin
anistaayin
anitti
anka
ankara
ankle
anklet
anna
annaa
annaadhaa
annaatti
annaka
annals
annan
annanii
anne
annee
anneef
annetti
annex
annexe
anni
annihilate
annihilation
anniisa
anniisaa
anniisaan
annisaa
anniversary
anniyyaa
anno
annoo
annoodhaaf
annoon
annootti
annotate
announce
announcement
announcer
annoy
annoyance
annu
annual
annually
annuity
annul
annular
annum
annunciation
ano
anoint
anomalous
anomaly
anonymity
anonymous
anoo
anoodii
anoolee
another
anqaaquun
anquu
ansaada
ansaadaa
ansee
ansoolaa
ansoosillaa
answer
ant
antaarkitiikaa
antagonism
antagonist
antananarivo
antarii
anteater
antecedent
antecedents
antechamber
anteenaa
anteenaan
antelope
antenna
antenucci
anterior
anthem
anther
anthill
anthology
anthracis
anthrax
anthropological
anthropology
anti
antibiotic
antibodies
antibody
antic
anticipate
anticlimax
antics
antidote
antigen
antigua
antihealth
antiibaayootikii
antiibaayotiiksiin
antiibayotiiksii
antiibodii
antiiliis
antiiseptiksii
antima
antimeridian
antimicrobial
antimonydust
antipathy
antipeople
antipersonnel
antiquary
antiquated
antique
antiquity
antiraaksi
antiraaksii
antiraaksiin
antiraaksin
antiraasis
antiraasisiin
antiroppooloojii
antiroppooloojistii
antiseptic
antisocial
antithesis
antitoxin
antler
antonio
antu
antweed
anuma
anumaa
anumee
anummaa
anumti
anus
anuu
anuun
anvil
anxiety
anxious
any
anybody
anyhow
anymore
anyone
anyoo
anything
anyway
anywhere
ao
aorta
ap
apace
apart
apartheid
apartment
apathetic
apathy
ape
aperient
aperitif
aperture
apex
aphorism
aphrodisiac
apia
apiary
apiece
aplomb
apologetic
apologize
apology
apoplexy
apostate
apostle
apostrophe
apostrophic
apotheosis
appaartaamaa
appaartaayidii
appall
appalling
apparatus
apparel
apparent
apparition
appeal
appealant
appear
appearance
appease
append
appendage
appendicitis
appendix
appertain
appetite
appetizer
applaud
applause
apple
appliance
applicable
applicant
application
applications
applied
apply
appoint
appointed
appointee
appointment
apportion
apposite
appraisal
appraise
appreciable
appreciate
appreciation
apprehend
apprehension
apprentice
apprise
approach
approaches
approbation
appropriate
approve
approximate
approximation
appurtenance
apricot
april
apropos
apt
aptitude
aq
aqaabaa
aqaaqii
aqualung
aquarium
aquatic
aqueduct
aqueous
aquiline
ar
araachisaa
araada
araajii
araara
araaraa
araaraaf
araaraatti
araaramuu
araarri
araarsaa
araarsoo
araarsu
araarsuu
araaxaa
arab
araba
arabaa
arabaan
arabaatifii
arabaatii
arabaatin
arabaatti
arabia
arabic
arabiffa
arabiffaa
arabiffi
arabiyaa
arabiyaatti
arable
arabni
araboonni
araboota
araddaa
arafa
arafaa
aragaay
aragama
aramaa
aramuu
arangamaa
araqee
arba
arbaa
arbi
arbiter
arbitrary
arbitrate
arbitration
arbitrator
arbooyyee
arbour
arcaatuu
arcade
arcane
arch
archaea
archaeology
archaic
archangel
archbishop
archeo
archer
archery
archetype
archipelago
architect
architecture
archive
archived
archives
arco
ardaa
ardaan
ardent
ardii
ardiilee
ardiin
ardour
arduous
are
area
areas
aree
areeda
areera
areeri
areerii
areeroo
areeroon
aren
arena
arfaaksaad
arfaasa
arfaasaa
arfaasee
arfaffaa
arfaffaan
arfan
arfee
arfii
arga
argaa
argaati
argachaa
argachu
argachuf
argachuu
argachuudhaaf
argachuudhaan
argachuuf
argachuun
argachuutti
argadhe
argadhee
argadheera
argadhu
argadhutti
argama
argamaa
argaman
argamani
argamanif
argamanii
argamaniidha
argamaniin
argamaniiru
argamanitti
argame
argamee
argameen
argameera
argames
argamiin
argamma
argammu
argamne
argamnee
argamni
argamsiisu
argamsiisuuf
argamtan
argamte
argamtee
argamti
argamtii
argamtu
argamtudha
argamturratti
argamtutti
argamtuu
argamtuudha
argamu
argamun
argamurraa
argamus
argamussi
argamut
argamutti
argamuu
argamuudha
argamuun
argamuuti
argan
arganii
arganiif
arganiiru
arganna
argannaan
arganne
argannee
argannoo
argannoolee
argannoon
argannoosaa
argannu
argansuu
argansuun
arganuu
argata
argataa
argatan
argatani
argatanii
argataniin
argataniiru
argate
argatedha
argatee
argateef
argateen
argateera
argates
argatetti
argatiin
argatin
argatta
argattan
argattanii
argatte
argattee
argatteetti
argattera
argatti
argattu
argatu
argatutti
argatuu
argatuuf
arge
argee
argeef
argeen
argeera
argeessa
argentina
argetti
argii
argiin
argin
argina
arginaan
argine
arginee
argineen
argineetti
arginu
arginutti
argisiifne
argisiisa
argisiisan
argisiisu
argisiisuu
argisiisuuf
argita
argite
argitee
argitu
argu
argue
arguffaa
argument
argutti
arguu
arguudha
arguudhaan
arguuf
arguun
ari
arid
arii
ariifachiisaa
ariifachiisuu
ariifachuu
ariifachuun
ariifadheera
ariifannaa
ariifataa
ariifattuu
ariifatu
ariitidhaan
ariitii
ariitiidhaan
ariitiin
arise
aristocracy
aristootil
arithmetic
arizona
arjaa
arjentiinaa
arjoo
arjoomu
arjootti
arjummaa
ark
arkarruu
arkimeedis
arkiteckcharii
arkiteekcharii
arkiteektii
arkitektii
arkitekture
arkitiik
arkitiikiin
arm
armaa
armaan
armada
armadillo
armageddon
armament
armchair
armeeniyaa
armeesaa
armenia
armistice
armor
armour
armoury
armpit
arms
army
aroma
aromatic
around
arouse
arpanet
arra
arraa
arraabbii
arraabduu
arraabuu
arraageessaa
arraba
arrabaa
arrabaan
arrablafaa
arrabni
arrabsa
arrabsaa
arrabsan
arrabse
arrabsoo
arrabsu
arrabsuu
arrack
arrahiim
arrahmaan
arraign
arrange
arrant
arratti
arrawaa
array
arrears
arreedaa
arreeduu
arrest
arrhythmian
arrigoo
arrii
arrival
arrive
arrogance
arrogant
arroolee
arrow
arsadii
arse
arsenal
arsenic
arsi
arsii
arsiin
arsiirraa
arsiitti
arson
arssi
art
artchive
arterial
artery
artful
artfully
arthritis
arthur
article
articles
articulate
artifact
artificial
artifishaalii
artii
artiifiishaalii
artiistii
artiistoota
artillery
artimeetikii
artisan
artist
artiste
artisti
artistic
artistii
artistiin
artistoonni
artistoota
artistry
artistti
artless
arts
artti
arty
aruusi
aruuza
aruuzittii
arxiv
as
asaa
asaab
asaabaa
asafa
asafaa
asaffaa
asaffaan
asakoo
asallaa
asallaan
asan
asandaaboo
asasa
asattoo
asattoon
ascaris
ascend
ascendancy
ascendant
ascension
ascent
ascertain
ascetic
ascribe
aseeboo
aseelloo
aseenshinii
asella
aseptic
asfaaltii
ash
ashaabi
ashaangulliitii
ashaara
ashaayaa
ashaboo
ashaboodhaan
ashaboon
ashamed
ashangee
ashawaa
asheeta
ashen
ashhadu
ashilee
ashkara
ashkarri
ashkhabad
ashore
ashtray
ashuur
ashuuraa
ashy
asia
asian
asid
asidaawaa
aside
asidii
asidoni
asidonii
asif
asii
asiidawaa
asiidii
asiidummaa
asiif
asiin
asiis
asinine
asirraa
asirraan
asirratti
asitti
asiyaa
ask
askance
asked
askew
asleep
aslii
asmaa
asmaraatti
asmerom
asooga
asoosa
asoosaa
asoosama
asoosamaa
asoosamaafi
asoosamaatiin
asoosamni
asoosamoota
asp
asparagus
aspect
aspects
asperity
aspersion
asphalt
asphyxia
aspiirinii
aspirant
aspiration
aspire
aspirin
asri
asrii
ass
assail
assailant
assalaamu
assassin
assassinate
assassination
assault
assay
assembilii
assemblage
assemble
assembly
assent
assert
assertion
assertive
assess
assessor
asset
assiduous
assign
assignation
assignment
assimilate
assis
assist
assistance
assistant
associate
associated
association
associations
assorted
assuage
assume
assumption
assurance
assure
assured
astana
astawallii
asteer
asteeris
aster
asterisk
astern
asteroid
asteroyidii
asthenosphere
asthma
astironoomii
astiroonoomii
astm
astonish
astonishing
astonishment
astound
astoundingly
astray
astride
astrologer
astrology
astronaut
astronomer
astronomic
astronomical
astronomy
astute
asuma
asumaa
asuncion
asunder
asxaa
asylum
at
ata
ataa
ataatti
atakaaroo
atakaroo
atama
atamaa
ataman
atame
atamii
atamiin
atamiirraa
atamne
atamoota
atamu
atamuu
atan
atanasof
atani
atanii
ataniin
ataniiru
atara
ataraa
atarii
atattamaan
ate
atee
ateensi
ateera
ateetee
ateeteen
atheism
atheist
athlete
athletics
ati
atii
atiiluu
atiin
atilaantaa
atilaantiik
atilaantiikiin
atilaantiikitti
atilaantik
atilaantikii
atileet
atileetii
atileetikisii
atileetiksii
atileetoa
atileetonni
atileetota
atiletiksii
atimosfeerii
atimosferii
atin
atis
atiyyuu
atlantic
atlas
atm
atmosferra
atmosphere
atmospheric
atoll
atom
atomaatikii
atomic
atomii
atone
atoomii
atoomikii
atoomsa
atoomsaa
atoomsuu
atoota
atrocious
atrocity
atrophy
atta
attaachee
attach
attache
attachment
attack
attacking
attain
atte
attee
attempt
attend
attendance
attendant
attention
attentive
attenuate
attenuated
attest
atti
attic
attire
attitude
attoota
attorney
attract
attractive
attractiveness
attribute
attrition
attu
attune
attuu
atu
atumti
atutti
atuu
atuuf
atuun
atuus
au
auburn
auction
auctioneer
audacious
audacity
audible
audience
audio
audiovisual
audit
audition
auditor
auditorium
auditory
auf
aug
augument
augur
august
augustus
aura
aural
auricle
aurora
auspices
auspicious
austere
australia
australian
austria
authentic
author
authoritarian
authoritative
authority
authorize
auto
autobiography
autocracy
autocrat
autograph
autography
autohorn
automatic
automobile
autonomous
autonomy
autopsy
autumn
auxiliary
av
avail
available
avalanche
avant
avarice
avaricious
avenge
avenue
average
averegii
aversion
avert
aviary
aviation
avid
avireejjii
avireejjiin
avirejjii
avirejjiin
aviv
aviyashanii
avocado
avoid
avoidance
avow
avregii
avregiin
avuncular
aw
awaaldiigessa
awaas
awaash
awaashi
awaashitti
awadaay
awaday
await
awake
awal
award
awarded
awards
aware
awareness
away
awayaata
awe
awesome
awful
awfully
awhile
awkward
awl
awning
awry
awuraajjaa
awuroopaa
awurooppaa
awurooppaatti
awusaa
awustiraaliiyaa
awustiraaliyaa
awustireeliyaa
awustireliyaa
awustireliyaan
awuurooppaa
awwaala
awwaalaa
awwaalaaf
awwaalaas
awwaalaatti
awwaalaman
awwaalamanii
awwaalame
awwaalamee
awwaalamu
awwaalan
awwaalcha
awwaalchaa
awwaallame
awwaalli
awwaaluu
awwaara
awwaaraa
awwaaroo
awwala
awwalcha
awwaluu
ax
axaa
axareeraa
axarroo
axe
axiom
axis
axle
axoolaa
ay
ayaa
ayaataan
ayarlaandi
ayidan
ayiduu
ayirenii
ayisaa
ayiskiriimii
ayissotooppota
ayivoorii
ayizenawerii
ayizenewari
aylii
ayonii
ayoonii
ayoonota
ayub
ayuub
ayyaana
ayyaanaa
ayyaanaatiif
ayyaanaatti
ayyaanarratti
ayyaanatti
ayyaaneeffachuu
ayyaaneeffannaa
ayyaaneeffatan
ayyaaneffachuu
ayyaaneffannaa
ayyaaneffata
ayyaaneffatamu
ayyaani
ayyaanni
ayyaanota
ayyaanotaa
ayyaanoti
ayyaantuu
ayyaantuun
ayyana
ayyuub
az
azalea
azarbaajan
azerbaijan
azhar
azhara
azhariin
azharirraa
azharitti
azure
azza
azzaa
b
b0
b1
b2
b3
b4
b5
b6
b7
b8
b9
ba
baa
baabbichaa
baabbilee
baabbuu
baabeeji
baabil
baabiloon
baabilooni
baabsaa
baabsii
baabsituu
baabura
baaburaa
baaburaaf
baaburbaallee
baaburri
baacaa
baaccuu
baachuu
baachuuf
baachuun
baacoo
baacuu
baadanaa
baadantuu
baadhaa
baadhe
baadhee
baadhes
baadiya
baadiyaa
baadiyya
baadiyyaa
baadiyyaatti
baadudhaan
baadun
baaduu
baafachuu
baafachuuf
baafachuun
baafame
baafamee
baafannaa
baafatan
baafatanii
baafate
baafatee
baafattee
baafatu
baafne
baafnee
baafneef
baafte
baaftee
baafti
baaftu
baahir
baahire
baahiree
baakireel
baakister
baakkoo
baakteeriiyaa
baakteeriiyaadhaan
baakteeriyaa
baakteeriyaan
baala
baalaa
baalaan
baalbaasee
baalchaa
baalcii
baaldii
baale
baalee
baaleefi
baaleen
baaleeti
baaleetii
baaleetti
baalerratti
baaletti
baalii
baallama
baallamii
baallammii
baallee
baalli
baallii
baana
baanaan
baandaa
baandaan
baandee
baandii
baandin
baandiraa
baandonni
baane
baanee
baaneef
baangaa
baangaloor
baangilaadish
baankii
baannaan
baanne
baannee
baanu
baanuu
baaqelaa
baaqqee
baaraguu
baarbaraa
baardiin
baarentummaa
baarentuu
baarentuun
baargamoo
baariyeem
baarneexaa
baaron
baaroo
baaroon
baarree
baarreen
baartelsi
baaruda
baasa
baasaa
baasaan
baasaboortii
baasamuu
baasan
baasani
baasanii
baasaniif
baase
baasee
baaseen
baaseera
baasef
baasen
baasha
baashaa
baasi
baasii
baasiin
baasiles
baasin
baasne
baasnee
baastu
baastuu
baasu
baasuf
baasun
baasuu
baasuudhaa
baasuudhaan
baasuuf
baasuun
baasuus
baatamu
baatan
baatanii
baatanis
baate
baatee
baateen
baates
baateyyuu
baati
baatii
baatiin
baatin
baatirii
baatiriin
baatiroonni
baatistaa
baattame
baattee
baattes
baattoo
baattu
baattuu
baatu
baatus
baatuu
baatuus
baaxii
baaxiitti
baaxiiwwan
baay
baayee
baayi
baayiden
baayina
baayinaan
baayinni
baayipoolaar
baayitii
baayitiin
baayogaaziin
baayoloojii
baayoloojikaawaa
baayoogaazii
baayoogaaziin
baayoogaaziitti
baayoogaazin
baayooloojii
baayyachaa
baayyachuu
baayyate
baayyatee
baayyatu
baayye
baayyedhaaf
baayyedhaan
baayyee
baayyeef
baayyeen
baayyeensaa
baayyeesaa
baayyeetti
baayyeetu
baayyen
baayyensaa
baayyensaanii
baayyetti
baayyetu
baayyina
baayyinaa
baayyinaan
baayyinaanoromiyaa
baayyinan
baayyinni
baayyisuu
babaasaa
babaasetti
babaasuu
babal
baballachaa
baballachuu
baballanne
baballiinsa
baballina
baballinni
baballisuu
baballisuuf
baballisuun
babba
babbage
babbareedaa
babbareedaadhaan
babbareedduu
babbaroodi
babble
babe
babille
baboon
babtism
baburi
baby
babyhood
babyish
bacchanalian
bachelor
bachelorhood
bacho
bachoo
bacillus
back
backache
backbencher
backbite
backbiter
backbiting
backbone
backdate
backdrop
backer
backfire
background
backhanded
backing
backlash
backlog
backpack
backside
backslide
backsliding
backstage
backstreet
backup
backward
backwards
backwater
backwoods
backyard
bacon
bacoo
bactercide
bacteria
bacteriology
bacterium
bad
bada
badaa
badada
badaduu
badan
badanii
badaniiru
badda
baddaa
baddaan
baddallee
baddalleen
baddanii
badde
baddee
baddeessaa
baddetti
baddiya
badduu
bade
badee
badeera
badge
badger
badgering
badhaadha
badhaadhaa
badhaadhummaa
badhaadhuu
badhaafame
badhaasa
badhaasaa
badhaasi
badhaasni
badhaasuu
badhaate
badhaatedha
badhaatuu
badhate
badhee
badi
badii
badiin
badiisa
badiisaatti
badin
badinage
badiyya
badly
badminton
badne
badness
badoo
badruddiin
badruu
badu
badutti
baduu
baduuf
baduutti
bafame
baffle
bag
baga
bagatelle
bageemidir
bagel
baggage
baggy
baghdad
bagudaa
baha
bahaa
bahaaf
bahaan
bahaarraa
bahaati
bahaatii
bahaatiin
bahaatti
bahachaa
bahachuu
bahamas
bahan
bahani
bahanii
bahar
bahara
baharirraa
bahatii
bahatti
bahe
bahedha
bahee
baheen
bahes
bahi
bahii
bahiin
bahiisaa
bahisa
bahrain
bahu
bahuu
bahuudha
bahuuf
bahuun
bail
bailiff
bairn
bait
baize
bajalbajaa
bajataa
bajiga
bajigaa
bajigee
bajjii
bak
baka
bakakkaa
bakakkaan
bakar
bakara
bakaree
bake
baker
bakery
bakka
bakkaa
bakkaafi
bakkaan
bakkalcha
bakkalchi
bakkan
bakkanniisa
bakkasaa
bakkashee
bakkatti
bakkayyuu
bakkayyuutti
bakkee
bakkeedhaan
bakkeen
bakkeetii
bakkeetiin
bakkeetti
bakkeewwan
bakki
bakkii
bakkin
bakkonni
bakkoota
bakkotni
bakkuma
bakri
bakrii
bakriin
baksheesh
bal
balaa
balaachoo
balaadhaan
balaafamaa
balaaleeffachuu
balaaleeffannaa
balaaleffachuun
balaaleffatan
balaaleffatuuf
balaan
balaatiin
balaccuu
balali
balalii
balalli
balance
balanced
balaq
balaqqama
balaqqamsiisu
balaqqamsiisuu
balaqqamuu
balaqqee
balaqqeessa
balaqqisu
balaqqisuu
balasegaram
balasiin
balay
balbala
balbalaa
balbalaatti
balbalichaatti
balbalichi
balbalii
balballaa
balballeetti
balballeettii
balballi
balballoomsuu
balcony
bald
balderdash
baldhina
baldhinaan
baldness
bale
baleen
baleful
balfaa
balfaan
balfamaa
balfeessuu
balfu
balfuu
balinaan
ball
balla
ballaa
ballaan
ballad
ballast
ballee
balleeffamuu
balleesee
balleessa
balleessaa
balleessaan
balleessan
balleessanii
balleesse
balleessee
balleessineef
balleessite
balleessituu
balleessu
balleessuu
balleessuuf
ballerina
ballessu
ballesu
ballet
ballifamee
ballina
ballinaa
ballinaan
ballinan
ballini
ballinni
ballistic
ballon
balloodhaan
balloon
balloonist
ballot
ballpoint
ballyhoo
balm
balmy
baloney
baloo
baluster
balustrade
bamaqaa
bamaqaatti
bamboo
bamboozle
ban
bana
banaa
banahuk
banal
banaman
baname
banamee
banamu
banamuu
banan
banana
banani
bananii
banbana
band
bandage
bandanna
bandbox
bandeau
bandit
banditry
bandmaster
bandoleer
bandolier
bandsman
bandstand
bandy
bane
banee
baneef
baneful
bang
banger
bangkok
bangladesh
bangle
bani
banii
banish
banishment
banister
banjo
banjoo
bank
banker
bankroll
bankrupt
bankruptcy
bankrupting
banne
bannee
banner
banns
banquet
banshee
bantaa
bantam
banter
bantii
bantu
bantuu
banu
banuu
banuuf
banuun
baobab
baptism
baptist
baptize
baqaa
baqachuu
baqachuuf
baqachuun
baqaqaa
baqaqaan
baqaqisanii
baqaqqee
baqaqsanii
baqaqsee
baqaqsuu
baqataa
baqatan
baqatanii
baqate
baqatee
baqatte
baqattoonni
baqattoota
baqattootaa
baqattummaan
baqee
baqfamee
baqqala
baqqalaa
baqqalaan
baqsanii
baqsu
baqsuu
baqu
baquu
bar
bara
baraa
baraan
baraanis
baraaraamaa
baraaruu
baraataa
baraaxxuu
barabaraa
barabaraaf
barabaraan
barachaa
barachu
barachuu
barachuuf
barachuun
baradhaa
baradhe
baradherraa
baradhu
barakataa
barakatuufimoo
baramaa
baramaadha
baramaan
barame
baramee
barammaa
baramne
baramu
baran
barana
baranee
baranii
baranne
barata
barataa
barataadhaaf
barataan
baratamaa
barataman
baratame
baratameen
baratamne
baratamu
baratan
baratanii
barataniif
barataniiru
barate
baratee
barateef
barateera
baratoonni
baratte
barattee
baratti
barattoonni
barattoota
barattootaa
barattootaaf
barattooti
barattootni
barattu
barattuu
baratu
baratuu
baratuuf
barb
barbaacha
barbaachifne
barbaachiisuu
barbaachisa
barbaachisaa
barbaachisaadha
barbaachisaan
barbaachisaatti
barbaachisan
barbaachise
barbaachiseef
barbaachisetti
barbaachisne
barbaachisoo
barbaachisu
barbaachisummaa
barbaachisummaan
barbaachisuu
barbaachisuun
barbaachisuyyuu
barbaada
barbaadaa
barbaadaan
barbaadaf
barbaadama
barbaadamaa
barbaadame
barbaadamne
barbaadamu
barbaadamuu
barbaadan
barbaadanii
barbaadaniif
barbaadanitti
barbaaddaa
barbaaddachaa
barbaaddame
barbaaddamu
barbaaddan
barbaadde
barbaaddee
barbaaddeetu
barbaaddi
barbaaddu
barbaade
barbaadee
barbaadeef
barbaadeeni
barbaades
barbaadetti
barbaadiin
barbaadin
barbaadne
barbaadu
barbaadudha
barbaadun
barbaadutti
barbaaduu
barbaaduuf
barbaaduun
barbaaduutti
barbaanna
barbaanne
barbaanneef
barbaannu
barbachiisu
barbachisa
barbachisaa
barbachisan
barbachisanni
barbachissa
barbadaa
barbadaan
barbadamu
barbade
barbadeessa
barbadeessaa
barbadeessan
barbadeesse
barbadeessituu
barbadeessu
barbadeessuu
barbadeessuuf
barbadeessuun
barbados
barbadu
barbaduu
barbara
barbaraa
barbaree
barbareen
barbarian
barbaric
barbarism
barbarity
barbarous
barbecue
barber
barbiturate
barcelona
barcuma
barcumaa
bard
bardeen
bardhagitee
bardiin
bare
bareback
baree
bareechan
bareechanii
bareechee
bareechu
bareechuu
bareechuuf
bareeda
bareedaa
bareedaadhaan
bareedaan
bareedduu
bareede
bareedina
bareedinaa
bareedinaan
bareedinni
bareedne
bareedoo
bareedu
bareeduuf
bareef
bareefame
bareeffama
bareeffamu
bareera
barefaced
barefooted
bareheaded
barely
barfachuu
barfataa
bargaa
bargaanfatanii
bargaatin
bargain
bargaining
barge
bari
barihe
barihuudhaan
barii
bariin
bariisaa
bariisaan
bariitu
barium
bark
barkaan
barkapellas
barkeessaa
barker
barkumee
barley
barliin
barmaata
barmaatarraa
barmaatilee
barmaid
barman
barmeela
barmeelii
barmoota
barmootaa
barmootatti
barmy
barn
barnaamija
barnacle
barneexaa
barnes
barnoonni
barnoota
barnootaa
barnootaaf
barnootaan
barnootaatti
barnootaf
barnootarraa
barnootarratti
barnootasaa
barnootasaas
barnootatti
barnooti
barnootni
barnotaa
barnotta
barnstorm
baro
barometer
baron
baronet
baroo
barooduu
baroota
barootaaf
barootuma
baroque
barra
barraa
barraaq
barraaqa
barraaqaa
barraawe
barrack
barracks
barracuda
barrage
barre
barree
barreef
barreeffama
barreeffamaa
barreeffamaafi
barreeffamaan
barreeffamaatiin
barreeffaman
barreeffame
barreeffamee
barreeffameen
barreeffameera
barreeffamne
barreeffamni
barreeffamoonni
barreeffamoota
barreeffamte
barreeffamu
barreeffamuu
barreeffamuuf
barreeftama
barreerra
barreessa
barreessaa
barreessaan
barreessame
barreessan
barreessaniif
barreesse
barreessee
barreesseef
barreesseen
barreesseera
barreesseeru
barreessef
barreesserratti
barreessi
barreessichaa
barreessichi
barreessine
barreessinu
barreessinuuf
barreessite
barreessitoonni
barreessitoota
barreessituu
barreessituun
barreessu
barreessuf
barreessun
barreessuu
barreessuuf
barreessuun
barreessuus
barreesuf
barreesuuf
barrefama
barrefaman
barrefame
barrefami
barrefamotta
barreffama
barreffame
barrel
barren
barrenness
barrese
barresite
barresu
barrett
barri
barricade
barrier
barring
barris
barrisan
barrisee
barrisi
barrister
barrisu
barrisuu
barrow
barruu
barruudha
barruulee
barruuleewwan
barruun
barsee
barsii
barsiifata
barsiifataan
barsiifni
barsiisa
barsiisaa
barsiisaatti
barsiisan
barsiise
barsiisee
barsiisonni
barsiisota
barsiisotaa
barsiistuu
barsiisu
barsiisummaaf
barsiisummaan
barsiisun
barsiisuu
barsiisuuf
barsiisuun
barsisaa
barsisu
bartaa
bartee
bartender
barter
bartu
bartuu
baru
baruma
barumsa
barumsaa
barumsaaf
barumsaan
barumsaasaa
barumsarra
barumsasaa
baruu
baruuf
baruumsa
baruumsaa
baruumsaan
baruumsaatii
baruumsaatti
baruun
basa
basaa
basaasa
basaasaa
basaastuu
basaasuu
basallaqaa
basallaquu
basalt
basani
basanii
base
based
basel
baseless
baseline
basement
baseness
bash
basha
bashaadaa
bashaadduu
bashaannanaa
bashannana
bashannanaa
bashannanaaf
bashannanan
bashannansiisaa
bashannansiisan
bashannansiisu
bashannansiisuu
bashannanu
bashannanuu
bashful
bashoo
basic
basically
basii
basil
basilica
basin
basis
bask
basket
basketball
baskin
bass
basset
bassi
bassist
bassoo
bassu
bastard
bastardize
baste
bastion
basu
basuu
basuuf
bat
bataskaana
bataskaanaa
bataskaanni
batattisuu
batch
bated
batee
bates
bath
bathe
bather
bathing
bathos
bathrobe
bathroom
bathtub
batman
baton
batoo
bator
battala
battalaan
battalatti
battalion
battaluma
battalumaan
battalumatti
battee
battelle
batten
batter
battered
batteries
battery
batti
battle
battleaxe
battledress
battlefield
battlements
battleship
batty
bauble
baulk
bawdy
bawl
bawuu
baxter
baxxee
bay
baya
bayaa
bayan
bayanii
baye
bayee
bayeef
bayeen
bayeessa
bayeessi
bayeet
bayima
bayin
bayinaan
bayinna
bayna
bayonet
bayu
bayuu
bayuun
bayyanaa
bayyanachuu
bayye
bayyee
bayyef
bayyen
bayyetti
bayyina
bayyinaa
bayyinaan
bayyinan
bayyinni
bazaar
bazooka
bb
bbc
bc
bd
bdbv
be
beach
beacon
bead
beading
beak
beaker
beam
bean
beanpole
beans
bear
bearable
beard
bearded
bearer
bearing
bearskin
beast
beastly
beat
beater
beatific
beatify
beating
beatitude
beatnick
beau
beaut
beautician
beautiful
beautify
beauty
beaver
bebbeekamoo
bebbeekamoon
bebbeekkamoo
becalmed
because
beck
beckon
become
becoming
becquerel
bed
bedbug
bedclothes
bedcover
beddellee
bedding
bedeck
bedele
bedevil
bedfellow
bedlam
bedpan
bedraggled
bedridden
bedrock
bedroom
bedsore
bedspread
bedtime
bee
beeddee
beeddeerratti
beedee
beef
beefy
beegitti
beehive
beejiingi
beejiingirratti
beeka
beekaa
beekaan
beekadhuma
beekama
beekamaa
beekamaadha
beekamaadhaan
beekamaan
beekaman
beekamaniin
beekame
beekamee
beekameera
beekamiin
beekamne
beekamoo
beekamti
beekamtii
beekamtu
beekamtummaa
beekamtuu
beekamtuudha
beekamtuuni
beekamu
beekamudha
beekamummaa
beekamuu
beekamuudha
beekamuun
beekamuuti
beekan
beekanii
beekaniif
beekaniiti
beekee
beekha
beekhaa
beekhi
beekhu
beekhuu
beekiin
beekin
beekkachiisuu
beekkama
beekkamaa
beekkamaadha
beekkamaan
beekkaman
beekkamaniin
beekkame
beekkamee
beekkamne
beekkamneen
beekkamoo
beekkamoon
beekkamti
beekkamtii
beekkamtiin
beekkamtu
beekkamtudha
beekkamtummaa
beekkamtummaan
beekkamtuu
beekkamtuudha
beekkamu
beekkamudha
beekkamus
beekkamuu
beekkan
beekkomsa
beekkomsaa
beekkomsi
beekkumsa
beekkumsaa
beekkumsi
beekna
beekne
beeknee
beekneef
beekneen
beekneetti
beeknu
beeksiisuu
beeksiisuuf
beeksisa
beeksisaa
beeksisan
beeksise
beeksistuu
beeksisu
beeksisuu
beekta
beektaa
beektan
beektee
beektonni
beektota
beektotaa
beektu
beektuu
beeku
beekuf
beekumsa
beekumsaa
beekumsaan
beekun
beekutti
beekuu
beekuuf
beekuun
beel
beela
beelaa
beelaan
beelaarus
beelan
beelbaa
beeline
beeljiyeem
beeljiyem
beellada
beellama
beellamaa
beelli
beelofte
beelsen
been
beeniin
beenishaangul
beenjamin
beenyaa
beenzila
beenzina
beep
beer
beera
beeraa
beergen
beerii
beerren
beeswax
beet
beetle
beetroot
beettaa
beeylada
beeyladaa
beeyladoonni
beeyladoota
beeyladootaa
beezaantaayin
beezantaayin
beezii
befit
before
beforehand
befriend
beg
beget
beggar
begging
begin
beginner
beginning
begrudge
beguile
behalf
behave
behaved
behavior
behead
behind
behold
beholden
beijing
beijnen
being
beings
beirut
bekamaan
bekamin
bekamoo
bekele
bekkama
bekkaman
bekkamani
bekkame
bekkamicha
bekkamo
bekkamoo
bekkamti
bekkamu
bekkamuni
bekkin
bekku
belabor
belarus
belated
belay
belch
belching
beleaguered
belel
beleshee
belfry
belgium
belgrade
belie
belief
believe
believed
believer
beliiz
belittle
belittled
belize
bell
bellatrix
belle
bellicose
belligerent
bellis
bellow
bellows
belly
bellyful
belong
belongings
beloved
below
belt
bemoan
bemused
bench
bend
bender
beneath
benediction
benefaction
benefactor
beneficence
beneficent
beneficial
beneficiary
benefit
benevolence
benevolent
beni
benighted
benign
benin
benishangul
bent
benz
benzene
benznidazole
bequeath
bequest
berate
berating
berbere
bereave
bereaved
bereavement
beret
bergen
berlin
bern
bernaar
berry
berserk
berth
beseech
beset
beside
besides
besiege
besmirch
besom
besotted
best
bestial
bestiality
bestir
bestow
bet
beta
bethencourt
betoken
betray
betrayal
betroth
betrothal
betrothed
better
betterment
betty
between
bevel
beverage
bevy
bewail
beware
bewilder
bewitch
beyene
beyne
beynu
beyond
beytanii
bf
bg
bh
bhutan
bi
biannual
bias
bib
bible
biblical
bibliography
bibliophile
bibulous
bicentenary
bicentennial
biceps
bicker
bickering
bicuu
bicycle
bid
bidaalee
biddable
biddeen
biddeena
bide
biden
bidet
bidiree
bidiruu
bidiruuf
bidiruulee
bidiruun
bidiruutti
bidiruuwwan
bidoollee
biduu
bieachers
biennial
bier
bif
bifa
bifaa
bifaafi
bifaan
biff
bifi
bifida
bifocal
bifti
bifuma
bifunka
bifurcate
big
bigamy
bight
bigot
bigoted
bigotry
bigwig
biheeraawwii
biifaa
biifamu
biiflee
biifolee
biiftuu
biiftuun
biiftuutiin
biiftuutti
biifuu
biikkoo
biilaa
biiliyoona
biinkoo
biiraa
biirichaa
biirii
biiron
biiroo
biirootti
biisaawu
biismaarki
bijaamaa
bijigaa
bike
bikila
bikini
bikkeessuuf
bikkooma
bikkuu
bilaa
bilaanbillee
bilaasha
bilaashatti
bilateral
bilberry
bilbila
bilbilaa
bilbilaan
bilbilame
bilbile
bilbilee
bilbilli
bilbiloo
bilbiloonni
bilbiluu
bilchaachaa
bilchaachuu
bilchaanne
bilchaataa
bilchaate
bilchaatee
bilchaatin
bilchaatoo
bilchaatu
bilcheessan
bilcheessuu
bilcheessuuf
bilchina
bildimaa
bile
bilge
bilii
bilillee
bililleen
bilingual
bilious
bilisa
bilisaa
bilisaan
bilisee
bilisoomsuu
bilisumma
bilisummaa
bilisummaadhaan
bilisummaaf
bilisummaan
biliyoona
biliyoonatti
bill
billaacha
billaachaa
billboordi
billboordii
billeettoo
billet
billhook
billiards
billion
billiona
billisumma
billow
billy
biloo
bilqaaxxii
biluu
bimbo
bimonthly
bin
binary
bind
binder
binding
bineelda
bineeldaa
bineeldaaf
bineeldonni
bineeldonnii
bineeldoonni
bineeldoota
bineeldootaa
bineeldota
bineeldotaa
bineeniyyii
bineensa
bineensaa
bineensi
bineensonni
bineensoota
bineensootaa
bineensota
bineensotaa
bineensummaa
bineenti
bineentii
bineeyyii
bineeyyiin
binensonni
binensotii
binensotta
binensotti
binge
binneensoota
binnensotta
binoculars
bio
biochemistry
biodegradable
biogas
biography
bioinformatics
biological
biologist
biology
biomass
bionic
biopsy
bios
biosecurity
biped
biplane
biqila
biqilaa
biqilanii
biqilchiteetti
biqilchuu
biqile
biqillu
biqiloota
biqiltoonni
biqiltoota
biqiltootaa
biqiltuu
biqiltuuf
biqiltuulee
biqiltuun
biqiltuuti
biqilu
biqiluu
biqılu
bir
bira
biraa
biraadhaan
biraaf
biraammoo
biraan
biraana
biraanee
biraanuu
biraarraa
biraas
biraaselsitti
biraashoo
biraati
biraatii
biraatiif
biraatiin
biraatiinis
biraatin
biraatis
biraatti
biraattis
biraatu
biraawun
biraaziil
biraazil
biraazilitti
biras
birateeyin
biratti
birattii
birbirsa
birbirsaa
birciqqoo
bird
birds
birgaader
birgeedii
birgeedin
birhaanuu
biriiteen
biriiten
biriiteniin
biriitish
birkii
birmachuu
birmadummaa
birmaduu
birmajii
birmannaan
biro
biroo
biroof
biroon
biroos
birootiif
birootiin
birootis
birootti
birqii
birr
birra
birraa
birraan
birraas
birrachiisaa
birrachiistuu
birratti
birrii
birro
birron
birruu
birsaga
birsagni
birsagootaa
birth
birthday
birthmark
birthplace
birthright
birtukaanii
biruus
biruushii
birzii
bisaa
biscuit
bisect
bisexual
bishaa
bishaachaa
bishaan
bishaani
bishaanicha
bishaanii
bishaaniif
bishaaniin
bishaaniirraa
bishaaniitiin
bishaaniitti
bishaanin
bishaanirra
bishaanirraa
bishaanis
bishaanitti
bishaanni
bishan
bishanii
bishkek
bishooftuu
bishooftuutti
bishop
bishops
bisil
bisingaa
bisinqillee
biskileeta
biskileetii
biskiliitii
biskiliittii
biskutii
bismaarki
bismarck
bismazii
bismi
bison
bispinatus
bissii
bistro
bit
bita
bitaa
bitaalessa
bitaan
bitaas
bitadhee
bitaguulaa
bitamanii
bitame
bitamee
bitamu
bitamuu
bitan
bitanii
bitate
bitatee
bitawoo
bitch
bite
bitee
biteef
biter
biti
biting
bitintiruu
bitooteessa
bitootessa
bitootessaa
bitootessaatti
bitta
bittaa
bittaan
bitter
bitterly
bittern
bitterness
bitti
bittimsuu
bittinaa
bittinna
bittinnaa
bittinneessuu
bittoota
bittuu
bitu
bitumen
bituu
bituuf
bituutin
bivouac
biya
biyaa
biyya
biyyaa
biyyaaf
biyyaafii
biyyaaleessaa
biyyaalessa
biyyaalessaa
biyyaalessaatti
biyyaan
biyyaati
biyyaatin
biyyaatti
biyyaffi
biyyan
biyyasaa
biyyasii
biyyatti
biyyattii
biyyattiin
biyyattiitti
biyyee
biyyeen
biyyi
biyyii
biyyittii
biyyittiin
biyyonni
biyyoo
biyyoolee
biyyooleessa
biyyoolessa
biyyoolessaa
biyyooma
biyyoomaa
biyyoon
biyyoonni
biyyoonnii
biyyoota
biyyootaa
biyyootaaf
biyyooti
biyyootni
biyyota
biyyotni
biyyotta
biyyummaa
bizarre
bizinesii
bj
bk
bl
blab
blabber
black
blackberry
blackboard
blacken
blackened
blackhead
blackish
blacklist
blackmail
blackmailer
blackout
blacksmith
blackthorn
bladder
blade
blame
blameworthy
blanc
blanch
blanco
bland
blandishment
blank
blanket
blare
blarney
blase
blaspheme
blasphemous
blasphemy
blast
blatant
blather
blaze
blazer
bleach
bleak
bleary
bleat
bleed
bleep
blemish
blench
blend
blender
bless
blessed
blessing
bletchley
blether
blight
blind
blinder
blindfold
blindness
blink
blip
bliss
blissful
blister
blisummaa
blithe
blitz
blizzard
bloated
bloater
blob
bloc
block
blockade
blockbuster
blocked
blockhead
blogspot
bloke
blond
blonde
blood
bloodhound
bloodless
bloodshed
bloodshot
bloodstain
bloodstock
bloodstream
bloodthirsty
bloody
bloom
bloomberg
bloomer
blossom
blot
blotch
blouse
blow
blower
blowing
blowsy
blowy
blowzy
blubber
blubbery
bludgeon
blue
bluebell
bluebottle
bluestocking
bluff
bluish
blundell
blunder
blunt
blur
blurb
blurred
blurt
blush
blushere
bluster
blusterer
blustery
bm
bmb
bn
bo
boa
boar
board
boarder
boarding
boardroom
boast
boaster
boastful
boasting
boat
boater
boatman
bob
boba
bobaa
bobba
bobbaa
bobbaan
bobbaasanii
bobbaase
bobbaasee
bobbaasuu
bobbaatii
bobbaatiin
bobbed
bobbin
bobble
bobbocaafi
bobby
bobeessa
bobeessuu
boca
bocaa
bocaman
bocamanidha
bocame
bocamee
bocan
boce
boci
bocni
bocoloo
bocuu
bocuudhaan
boda
bodaa
bodda
bode
bodee
bodice
bodily
bodkin
body
bodyguard
bofa
bofaa
boffee
boffin
bofnis
bog
bogey
boggle
boggy
bogota
bogoted
bogus
bohaarsa
bohaarsu
bohaarsuu
bohaartii
bohemian
boil
boiled
boisterous
bokka
bokkaa
bokkaan
bokkoo
bokkuu
bokkuun
bokokaa
bokokuu
bol
bold
boldly
boldness
bole
bolee
bolero
boliiviyaa
bolivia
boll
bolla
bollard
bolol
bololi
boloney
boloonii
bolshie
bolster
bolt
bomb
bombard
bombardment
bombast
bombastic
bomber
bombi
bombii
bombiin
bombs
bombshell
bona
bonaa
bonanza
bond
bondage
bondee
bondogee
bone
boned
bonehead
bonez
bonfire
bonhomie
bonk
bonkers
bonnet
bonni
bonny
bonsai
bonus
bony
boo
boob
boobee
booby
booda
boodaa
boodaan
boodaarra
boodaas
boodadha
boodallee
boodammoo
boodara
boodarra
boodarraa
boodarraas
boodarrammoo
boodarras
boodas
boodatti
booddee
booddees
boogganaa
booggantuu
booharsuu
boohartii
booji
boojjii
boojuu
book
booka
bookaa
bookable
bookbinder
bookcase
bookee
bookeen
bookhe
booking
bookish
bookka
bookkeeping
booklet
bookmaker
bookmark
books
bookshop
bookworm
boolallee
boolee
boolla
boollaa
boollatti
boolloo
boolluma
boom
boombaa
boombaan
boombii
boombiin
boombin
boombiwwan
boomerang
boon
boona
boonaa
boonaan
boonan
boondii
boonee
boongaa
boongoo
booni
boonsa
boonsaa
boonsaan
boontuu
boontuun
boonuu
boor
boora
booraa
booraan
boorana
booranaa
booranaati
booranaatti
booranni
booranticha
boordii
booree
booreedhaan
booressu
booressuu
boorkitti
boorsaa
boortee
booruu
booruun
boosacha
boosaroo
boosat
boosettii
boossisu
boossuu
boost
booster
boosxa
boot
booth
bootiswaanaa
booty
booxuu
booye
booyee
booyi
booyicha
booyinaa
booyuu
booyyee
booze
bopper
boqochiisuu
boqochuu
boqojjii
boqojjiin
boqonnaa
boqonnaawwan
boqonne
boqoo
boqota
boqotan
boqote
boqotte
boqotu
boqotutti
boqotuu
boqqojii
boqqojjii
boqqolloo
boquu
bor
boraatii
boraatiin
boran
borana
borax
borcii
borcuu
bordaa
bordello
border
bordering
borderline
bore
borecole
boredom
borer
borgi
borii
borillee
boring
bormoota
born
boroborii
borofa
boronqii
boroo
borough
borrow
borrower
borrowing
borsaa
borstal
boru
borummaa
boruu
borxoxxee
bos
bosh
bosom
bosomy
bosona
bosonaa
bosonaan
bosonatti
bosonni
bosonuu
bosoonaa
boss
boston
botanist
botany
botch
both
bother
bothersome
botor
botoroo
bottii
bottle
bottleneck
bottom
bottomless
botulism
boudoir
bough
bouillon
boulder
boulevard
bounce
bouncer
bouncing
bouncy
bound
boundaries
boundary
bounden
boundless
bounteous
bountiful
bounty
bouquet
bourgeois
bout
boutique
bovine
bow
bowdlerize
bowed
bowel
bower
bowi
bowl
bowler
bowling
bowwaa
bowwoo
bowwuu
box
boxer
boxing
boxtemplate
boy
boycott
boyhood
boyish
bp
bq
br
bra
brace
bracelet
braces
bracing
bracket
brackish
brag
braggart
bragger
bragging
braid
braille
brain
brainchild
brained
brainteaser
brainwash
brainy
braise
brake
bramble
bran
branch
brand
branding
brandish
brandy
brash
brass
brasserie
brassiere
brat
bratislava
brattain
bravado
brave
bravely
bravery
bravo
brawl
brawn
brawny
bray
brazen
brazier
brazil
brazza
breach
bread
breaderumbs
breadline
breadth
break
breakable
breakage
breakaway
breakdown
breaker
breakfast
breakneck
breakwater
bream
breast
breastbone
breath
breathe
breather
breathing
breathless
brecder
brecding
bred
breech
breeches
breed
breeze
breezy
brethren
breviary
brevity
brew
brewery
briar
bribe
briber
bribery
brick
bride
bridegroon
bridesmaid
bridge
bridle
brief
briefcase
brier
brig
brigade
brigadier
brigand
bright
brighten
brilliance
brilliant
brim
brimful
brimstone
brindled
brine
bring
brink
brinkmanship
briny
briquet
brisk
brisket
bristle
britain
britannica
british
briton
brittle
broach
broad
broadcast
broadcaster
broadcasting
broaden
broadly
broadside
brocade
broccoli
brochure
brogue
broil
broiler
broken
brokenhearted
broker
brokerage
brolly
bromide
bronchial
bronchitis
bronco
bronisława
bronisławan
bronze
brooch
brood
broody
brook
broom
broomstick
broth
brothel
brother
brotherhood
brow
browbeat
brown
browse
browser
bruise
bruised
brunch
brunette
brush
brushwood
brusque
brussels
brutal
brutality
brute
bs
bt
bu
bubbe
bubbee
bubbisa
bubbisu
bubbisuu
bubble
bubbutamaa
bubbutamuu
bubeen
bubonie
bubu
buburrataa
bubuutuu
buccaneer
bucharest
buck
bucked
bucket
buckle
buckshee
buckthorn
bucolic
bud
budaa
budaappesti
budapest
buddeen
buddeena
buddeenaa
buddeenii
buddeenni
buddena
buddenaa
budduqfachuu
budduqqoo
buddy
buden
budge
budget
budizim
buduni
budunin
bufa
buff
buffalo
buffer
buffet
buffoon
buffoonery
bug
bugbear
bugger
buggery
bugle
bugler
build
builder
building
builds
built
bukaa
bukee
bukeeffame
bukeeffamee
bukeessanii
bukkayyuu
bukkee
bukkeetti
bukoo
bula
bulaa
bulaahawootti
bulaatti
bulan
bulanii
bulb
bulbing
bulbula
bulbulaa
bulbulame
bulbulamee
bulbulamne
bulbulamu
bulbulan
bulbuluu
bulcha
bulchaa
bulchaan
bulchan
bulche
bulcheedha
bulchi
bulchiinsa
bulchiinsaa
bulchiinsaaf
bulchiinsi
bulchiinsotaa
bulchina
bulchinsa
bulchinsaa
bulchite
bulchitee
bulchitoonni
bulchitoota
bulchituu
bulchu
bulchuu
bulchuuf
bule
bulee
bulees
buleeyyi
bulfamtu
bulgaatii
bulge
bulgeeriyaa
bulguu
buli
bulii
bulimia
bulk
bulkhend
bulky
bull
bullaa
bullaallaa
bulldog
bulldoze
bulldozer
bulle
bullee
bulleessuu
bullet
bulleted
bulletin
bulletproof
bullfight
bullion
bulloak
bullock
bulloo
bulls
bullshit
bullu
bulluq
bulluqa
bulluqaa
bully
bulmaata
bulmaataa
bulrush
bultee
bulti
bultii
bultiif
bultoo
bultoota
bultootaa
bultu
bultum
bultuu
bulu
buluu
buluun
bulwark
bum
bumble
bumf
bump
bumper
bumph
bumpkin
bumptious
bumpy
bun
buna
bunaa
bunch
bundle
bunee
bung
bungalow
bungle
bungul
bunion
bunk
bunker
bunkum
bunni
bunnii
bunny
bunting
buntu
buoy
buoyant
buqa
buqqa
buqqee
buqqifamee
buqqifatanii
buqqisaa
buqqisan
buqqisanii
buqqisi
buqqisuu
buqqisuuf
buqushaa
bur
bura
burble
burcuqqoo
burden
bureau
bureaucracy
bureaucrat
buree
burgeon
burger
burglar
burglary
burgle
burial
burjaaja
burjaajessitoonni
burjaajoftuu
burkaanni
burkiinaafaasoo
burkutaa
burlesque
burly
burn
burner
burning
burnish
burns
burnt
buro
burp
burqaa
burqaan
burqisiise
burqituu
burqu
burquu
burraaqa
burraaqaa
burraaqqii
burraaqsisuu
burraaquu
burrayyuu
burree
burro
burrow
burruusa
burruusee
bursar
bursary
burst
burt
burtukaana
buruundii
buruurii
bury
bus
busaa
busaaf
busaan
busaawaa
busan
busby
bush
bushaa
bushaayes
bushbuck
bushcrow
bushed
busheessu
busheessuu
bushel
bushoo
bushraa
bushula
bushy
business
businessman
businesswoman
busk
busker
bust
buster
bustle
bustler
busulaa
busundee
busy
busybody
but
buta
butaa
butaantaa
butaantii
butamee
butane
butanii
butch
butcher
butchery
butee
butii
butler
butt
buttaa
butter
butterfly
butterly
buttermilk
butterscotch
butting
buttock
button
buttonhole
buttress
buttujjii
butu
butuchuu
bututaa
butute
bututtuu
bututuu
butuu
butuudhaan
butuuf
buu
buubbee
buubbeen
buufaa
buufachuu
buufama
buufaman
buufame
buufamee
buufameedha
buufamu
buufamuu
buufanni
buufata
buufataa
buufataalee
buufatan
buufatawwan
buufate
buufatee
buufatoota
buufatu
buuftee
buugii
buukayya
buukii
buuliyaanii
buulsi
buune
buunnoo
buunyaa
buuphaa
buuqii
buusa
buusaa
buusaan
buusan
buusanii
buuse
buusee
buuseera
buushii
buusii
buusu
buusuf
buusun
buusuu
buusuuf
buusuun
buute
buutee
buuteen
buutota
buutuu
buxom
buxtoni
buxunxula
buxunxulaa
buy
buzunaan
buzunaash
buzunash
buzuunash
buzz
buzzard
bv
bw
bx
by
bye
bygone
byre
byroad
bystander
byway
bz
c
c0
c1
c2
c3
c4
c5
c6
c7
c8
c9
ca
caabota
caabotuu
caaccun
caaccuu
caakkaa
caala
caalaa
caalaan
caalaatti
caalan
caalanii
caalansaa
caalatti
caalbaasii
caalchifnee
caalchisee
caalinsaa
caalle
caalmaa
caaltu
caaltuu
caaltuun
caalu
caalutti
caaluu
caaluuf
caama
caamee
caamsa
caamsaa
caamsaan
caancoo
caaqa
caaquu
caarraa
caasaa
caasaalee
caaseffama
caasessuu
caasluga
caasluuga
caatoo
caattoo
cab
caba
cabaa
cabaala
cabal
caballus
cabaqa
cabaret
cabbage
cabbeessaa
cabbi
cabbii
cabbiidhaan
cabbiifi
cabbiin
cabbin
cabbu
cabdee
cabduu
cabe
cabee
cabeessa
cabiin
cabin
cabinet
cable
cabne
caboo
caboose
cabsaa
cabsan
cabsanii
cabse
cabsee
cabsu
cabsuu
cabsuun
cabu
cabuu
caccaba
caccabaa
caccabaadhan
caccaban
caccabe
caccabsaa
caccabsaan
caccabsee
caccabsuu
caccabu
caccabuu
cache
cachet
cackle
cackler
caco
cactus
cad
cadamosto
cadaver
cadaverous
cadence
cadet
cadge
cadre
caesar
cafaqame
cafaqamee
cafaqamu
cafe
cafeteria
caffee
caffeen
caffeine
cafii
caftan
cagaduu
cage
cagey
cahoots
cajole
cajolery
cake
cakes
cal
calabash
calalamaa
calaltuu
calaluu
calamitous
calamity
calanqeettii
calanqoo
calanqootti
calaqqee
calaqqisaa
calaqqisiisuuf
calaqqistuu
calaqqisu
calaqqisuu
calcium
calculate
calculation
calculator
caldron
calendar
calf
caliber
calibrate
calibre
calico
california
calii
caliper
calisthenics
call
calla
callaa
callaan
called
callee
calleensa
calleessituu
calleessuu
caller
calligraphy
calliinsa
calliinsaan
calliinsi
calling
callisa
callisaa
callisanii
callisee
callisiisuu
callisnee
callistee
callisthenics
callisu
callisuu
calliyaa
calliyaan
calliyaatin
callous
callously
callow
callu
calluma
callus
calm
calmness
calorie
calqii
calu
calumny
camadaa
camaraderie
camarrii
camber
cambium
cambridge
camcorder
came
camel
camellia
cameo
camera
cameroon
camii
cammee
camomile
camouflage
camp
campaign
campaigner
campanile
campanology
camping
campus
camshaft
can
canada
canadian
canal
canard
canary
cancala
cancalli
cancel
cancellation
cancer
candid
candidate
candle
candlelight
candlelit
candlestick
candlewood
candour
candy
cane
canine
canister
canker
cannabis
canned
cannery
cannibal
cannon
canoe
canon
canonise
canopy
cant
cantankerous
canteen
canter
cantor
canuu
canvas
canyon
cao
cap
capable
capacious
capacitor
capacity
caparison
cape
caper
capillary
capita
capital
capitalism
capitulate
caprice
capricious
capsize
capstan
capsule
captain
caption
captivate
captive
captivity
captor
capturer
caqasuu
car
caraanuu
caracas
carafe
carallaa
carallaan
caramel
carapace
carat
caravan
carawaa
caraway
carbine
carbohydrate
carbohydrates
carbon
carbonate
carboxyl
carbuncle
carburetor
carcar
carcarirra
carcass
carcharhinus
card
cardamom
cardboard
cardiac
cardigan
cardinal
cardiologist
cardiology
care
career
carefree
careful
carefully
carefulness
careless
carelessness
caress
caretaker
carey
cargo
caribbean
caricature
caries
carisaedulis
carissa
carlos
carmine
carnage
carnal
carnival
carnivore
carnivorous
carol
carouse
carp
carpenter
carpentry
carpet
carport
carra
carraa
carraadhaan
carraan
carraaqa
carraaqaa
carraaqqii
carraaquu
carreessa
carriage
carrier
carrion
carroomuu
carrot
carry
carrying
carsick
cart
cartel
carter
carthage
cartilage
cartilagiin
cartographer
cartography
carton
cartoon
cartridge
carve
casa
cascade
case
casebook
casement
cash
cashew
cashier
cashmere
casing
casino
cask
casket
cassette
cassock
cast
caste
castigate
casting
castle
castor
castrate
castrated
casual
casualties
casualty
cat
cataclysm
catalogue
catalyst
catapult
cataract
catarrh
catastrophe
catcall
catch
catching
catechism
catee
categorical
category
cater
caterpillar
catgut
catharsis
cathedral
catholic
catnap
cattle
caucasian
caucus
cauldron
cauliflower
cause
caused
causes
caustic
cauterize
caution
cautionary
cautious
cavalier
cavalry
cave
caveat
cavern
caviar
caviare
cavil
cavity
cavort
caw
cawwaaqaa
cawwee
cb
cc
cd
cdc
cdot
ce
cease
cedar
cede
cedheedha
ceepha
ceephoo
ceesisuu
cehee
ceiling
celebrate
celebration
celebrity
celestial
celibacy
celibate
cell
cellar
celli
celliin
cello
cells
cellular
cellulose
celsius
celtics
cement
cements
cemetery
cenotaph
censor
censorship
censure
census
cent
centenarian
centenary
center
centered
centers
centigrade
centimeter
centimetre
centimetres
centipede
central
centralize
centre
centrifugal
centrifugation
centripetal
century
ceramic
cereal
cerebral
cerebrum
ceremonial
ceremonies
ceremony
cert
certain
certainly
certificate
certify
cessation
cesspit
cesspool
cetera
ceyu
cf
cg
ch
chaad
chaaphaa
chaappaa
chaappiliin
chaarjeffaman
chaarjeffamu
chaarjeffamuu
chaarjii
chaarjin
chaarlemaangi
chaarles
chaartera
chaarterii
chaartii
chaayinaa
chaayinaan
chaayiniffa
chaaynaa
chaco
chafe
chaff
chagas
chagrin
chain
chair
chairman
chairperson
chairwoman
chakravarty
chalcolite
chalet
chalice
chalk
challenge
challenges
chamber
chamberlain
chambermaid
chameleon
chamois
champ
champagne
champion
champions
championships
chance
chancellery
chancellor
chandelier
change
changed
changes
channel
chant
chaos
chap
chapel
chaperon
chaplain
chapter
char
character
characterization
charade
charcoal
charge
chariot
chariots
charisma
charitable
charity
charlatan
charles
charlie
charlotte
charm
charming
chart
charter
charwoman
chary
chase
chasm
chassis
chaste
chastise
chastisement
chastity
chat
chatter
chatterbox
chaudhry
chauffeur
chauvinism
chauvinist
cheap
cheat
cheater
cheating
check
checkers
chee
cheeckwoman
cheek
cheekbone
cheekii
cheeky
cheer
cheerbergi
cheerful
cheese
cheezii
chef
chemical
chemist
chemistry
chemotherapy
chen
cheney
cheque
cherish
cheroot
cherry
cherub
chess
chest
chevron
chew
chewing
chicago
chicanery
chick
chicken
chide
chief
chiefdom
chieftain
chiffon
chigger
chignon
chiilii
chiippii
chiippiin
chikaagoo
chikaala
chikvaidze
child
childhood
childish
children
chile
chili
chill
chilly
chime
chimney
chimpaanzii
chimpanzee
chin
china
chinese
chink
chintz
chip
chipmunk
chipped
chiro
chirp
chisel
chisinau
chit
chivalrous
chivalry
chloride
chlorine
chlorocebus
chloroform
cho
chocho
chock
chocolate
choice
choir
choke
choked
choker
chokolaataa
cholera
chondrichthyes
choose
chop
chopper
chopstick
choral
chord
chore
chorus
chow
chp
christ
christadelphians
christen
christian
christianity
christmas
chromatic
chromosome
chronic
chronicle
chronicles
chronological
chronometer
chrysler
chubby
chuck
chuckle
chuel
chuffed
chum
chunk
church
churchiin
churchill
churchyard
churlish
churlishness
churn
churner
chute
chuukkoo
chyel
ci
cia
cibra
cibraa
cicada
ciccimaa
ciccimmoo
ciccimoo
cicciree
cicciruu
ciccitaa
ciccite
ciccittuu
ciccitu
ciccituu
cichaa
cichee
cichu
cichuu
cid
cider
cidha
cidhaa
cidhaan
ciga
cigaadaa
cigaassisaa
cigar
cigarettes
cigoo
ciibsuu
ciicannoo
ciicoo
ciigga
ciigoo
ciigoon
ciimaa
ciincha
ciiree
ciisaa
ciisan
ciisanii
ciisanyaa
ciise
ciisee
ciiseen
ciisicha
ciisichaa
ciistu
ciisu
ciisuu
cikawa
cilaattoftuu
cilalluu
cilee
cillimoo
cimaa
cimaan
cimanii
cimdaa
cimdaan
cimdii
cimee
cimina
ciminaa
ciminaan
ciminni
cimma
cimmiiguu
cimoo
cimsa
cimsan
cimsanii
cimse
cimsee
cimsitanii
cimsu
cimsuu
cimtuu
cimu
cina
cinaa
cinaacha
cinaadhaan
cinaan
cinaatti
cinatti
cinch
cinder
cinema
cinii
ciniinaa
ciniinnaa
ciniinnachuu
ciniinne
ciniintuu
ciniinuu
ciniinuuf
cinkaara
cinnamon
cinne
cinnee
cinqaa
cinqamaa
cinqamtuu
cinqamuu
cinqi
cinqii
cinqu
cinqursaa
cinqursituu
cinquu
cipher
ciprofloxacin
ciqilee
ciraanfoo
cirachaa
cirachuu
ciramee
ciratanii
ciratte
cirayyuu
circle
circlet
circuit
circuitous
circuits
circular
circulate
circulation
circulatory
circumcise
circumcision
circumference
circumscribe
circumspect
circumstance
circumstantial
circus
ciree
cireen
cirmalee
ciroo
cirracha
cirrachaa
cirrachaan
cirrachoomaa
cirreessa
cirrii
cirriin
cirriinis
ciruu
cistern
cita
citaa
citadel
citanii
citation
cite
citee
citii
citiin
citin
citizen
citizens
citizenship
cittee
cittoo
cittuu
citu
cituu
cituun
city
civet
civic
civil
civilian
civilization
civilized
cj
ck
cl
clad
claim
claimant
clam
clamber
clammy
clamor
clamp
clampdown
clan
clandestine
clang
clap
clapper
clarification
clarify
clarinet
clarion
clarity
clash
clasp
class
classification
classify
classroom
clatter
claus
clause
clavicle
claw
clay
clcthes
clean
cleanliness
cleanse
cleanser
clear
clearance
cleared
clearing
clearly
cleat
cleavage
cleave
cleft
clemency
clench
clergy
clergyman
clerical
clerk
clever
cleverness
cliche
click
client
clientele
cliff
clifford
climate
climax
climb
climber
clinch
cling
clinic
clinical
clinics
clink
clip
clippers
clipping
clique
clitoris
cloak
cloakroom
clobber
clock
clod
clodhopper
clog
cloister
close
closed
closedown
closeness
closet
closing
clot
cloth
clothe
clothes
clotting
cloud
cloudy
clove
cloven
clover
clown
cloy
clst
club
clubfooted
cluck
clucking
clue
clump
clumsy
cluster
clut
clutch
clutter
cm
cn
co
coach
coagulate
coagulated
coagulation
coagulationiin
coal
coalesce
coalition
coarse
coast
coat
coating
coax
cob
coba
cobalt
cobber
cobble
cobbler
cobblestone
cobra
cobsituu
cobuu
cocaine
coccinia
coccobsuu
coccobuu
cock
cockcrow
cocker
cockerel
cockle
cockpit
cockroach
cockscomb
cocksure
cockta
cocktail
cocky
cocoa
coconut
cocoon
cocorree
cocos
coddle
code
codicil
coerce
coexist
coffee
coffeepot
coffer
coffin
cog
cogent
cogitate
cogn
cognac
cognition
cohabit
coherent
cohesion
coil
coin
coinage
coincide
coincidence
coitus
coke
cokuu
colander
cold
cole
colic
collaborate
collagen
collagenous
collapse
collapsed
collar
collate
collateral
collation
colleague
collect
collection
collective
collectively
collector
college
collide
collier
collision
colloquial
colloquialism
collusion
colobus
colombo
colon
colonel
colonial
colonies
colonization
colonizer
colonizing
colonnade
colony
color
colorado
colored
colossal
colostrum
colour
coloured
colouring
colt
columbia
columbian
column
columnist
com
coma
comb
combat
combatant
combination
combine
combined
combustion
come
comedian
comedy
comely
comer
comes
comet
comfort
comfortable
comic
comical
coming
comma
command
commandant
commander
commanding
commandment
commando
commee
commemorate
commemoration
commence
commend
commensurate
comment
commentary
commentator
commerce
commercial
commiserate
commission
commissionaire
commissioned
commissioner
commit
committee
commodity
common
commoner
commonplace
commons
commonscat
commonwealth
commotion
communal
commune
communicate
communication
communicative
communion
communique
communism
community
commute
comp
compact
compagnie
companion
company
comparative
compare
comparison
compartment
compass
compasseth
compassion
compassionate
compatible
compatriot
compel
compelling
compendium
compensate
compensation
compere
compete
competence
competent
competition
competitor
compile
compiler
complacent
complain
complaint
complaisance
complement
complete
complex
complexion
compliance
compliant
complicate
complicated
complication
complicity
compliment
complimentary
comply
component
components
compose
composer
composite
composition
compost
composure
compound
compounds
comprehend
comprehension
comprehensive
compress
comprise
compromise
compulsion
compulsory
compunction
compute
computer
computers
computing
comrade
comradeship
con
concatenation
concave
conceal
concealed
concealment
concede
conceit
conceited
conceive
conceived
concentrate
concentration
concentric
concepcion
concept
conception
concern
concerned
concert
concerted
concession
conch
conciliate
concise
conclave
conclude
conclusion
conclusions
concoct
concomitant
concord
concourse
concrete
concubine
concur
concussion
condemn
condensation
condense
condescend
condition
conditions
condole
condolence
condom
condone
condor
conducive
conduct
conductor
conduit
cone
confection
confectioner
confectionery
confederacy
confederate
confederation
confer
conference
confess
confessed
confession
confetti
confidant
confide
confidence
confident
confidential
configuration
confine
confinement
confirm
confirmation
confiscate
conflagration
conflate
conflict
confluence
conform
conformation
confound
confront
confrontation
confuse
confused
confusing
confusion
confute
congeal
congenial
congenital
congested
congestion
conglomerate
congo
congratulate
congratulation
congregate
congress
congruent
conj
conjecture
conjoin
conjugal
conjugate
conjugation
conjunction
conjunctiva
conjunctivitis
conjure
conjurer
connect
connection
connections
connective
connive
connoisseur
connote
connubial
conquer
conqueror
conquest
conrad
cons
consanguinity
conscience
conscientious
conscious
consciousness
conscript
conscription
consecrate
consecutive
consensus
consent
consequence
consequences
consequent
consequently
conservation
conservative
conserve
consider
considerable
considerate
consideration
considered
consign
consignment
consist
consistent
consolation
console
consolidate
consolidation
consonant
consort
consortium
conspicuous
conspiracy
conspirator
conspire
constable
constant
constellation
consternation
constipation
constituency
constituent
constitute
constitution
constrain
constraint
constrict
constrictor
construct
construction
constructive
construe
consul
consulate
consult
consultant
consumables
consume
consumer
consuming
consummate
consumption
contact
contagion
contagious
contain
contained
container
contaminate
contemplate
contemplation
contemporary
contempt
contend
content
contention
contest
context
contextual
contiguous
continent
continental
contingency
contingent
continual
continuation
continue
continuity
continuous
continuum
contort
contortion
contour
contraband
contraception
contraceptive
contract
contractor
contradict
contradictory
contrary
contrast
contravene
contribute
contribution
contributions
contrite
contrivance
contrive
control
controversial
controversy
controvert
contusion
conundrum
conurbation
convalesce
convalescent
convection
convene
convenience
convenient
convent
convention
conventional
converge
convergent
conversant
conversation
converse
conversion
convert
converters
convertible
convex
convey
convict
conviction
convince
convincing
convivial
convocation
convoluted
convoy
convulse
convulsion
coodle
cook
cooker
cookery
cookie
cooky
cool
coolagee
cooler
coolie
cooligaa
coolligaa
coolliguu
cooma
coomaa
coomman
coona
coop
cooperate
cooperation
cooraa
coordinate
coordinated
coordination
coordinator
cooree
cop
copa
cope
copha
copious
copper
copulate
copulation
copy
copyright
coqorsa
coqorsaa
coquette
cora
coraa
coral
corals
cord
cordial
cordite
cordon
cords
core
coree
corgoggee
coriander
cork
corkscrew
corm
cormorant
corn
cornaaqqee
corned
corner
cornet
cornice
corofee
corollary
corona
coronary
coronation
coroner
coronet
cororsaa
cororsaan
cororsu
corporal
corporation
corporeal
corps
corpse
corpulence
corpulent
corpus
corpuscle
corqaa
corral
correct
correction
correctly
correctness
corree
correlate
correspond
correspondent
corridor
corrisuu
corroborate
corrode
corrosion
corrugated
corrupt
corruption
corsage
corset
cortex
cos
cosine
cosmetic
cosmic
cosmos
cosset
cost
costa
costly
costume
cosy
cot
cotran
cottage
cotter
cotton
couch
cough
coughing
could
council
councilor
counsel
counselor
count
countdown
countenance
counter
counterblast
counterfeit
counterfoil
countermand
countless
countries
country
countryball
countryman
countryside
coup
coupe
couple
couplet
coupling
coupon
courage
courageous
courgette
courier
course
court
courteous
courtesan
courtesy
courtier
courtly
courtroom
courtship
courtyard
cousin
cove
covel
covenant
cover
coverage
covered
covering
coverlet
covert
cow
coward
cowardice
cower
cowman
cowry
coy
coyoacan
cp
cpu
cq
cr
crab
crack
cracked
cracker
crackerjack
crackers
crackle
crackpot
cradle
craft
craftsman
craftswoman
crafty
crag
cram
crammed
cramp
crane
crank
cranny
crap
crape
crash
crass
crate
crater
cravat
crave
craven
craving
crawl
crawling
crayon
craze
crazy
creak
cream
crease
creased
create
creation
creative
creator
creature
credence
credentials
credible
credit
creditor
credo
credulity
credulous
creech
creed
creek
creel
creep
creepy
cremate
cremation
crematorium
crescendo
crescent
cress
cresson
crest
crestfallen
cretin
crevasse
crevice
crew
crib
crick
cricket
crier
crime
criminal
crimp
crimson
cringe
crinkle
cripple
crippled
crisis
crisisi
crisp
criterion
critic
critical
criticism
criticize
critique
croak
crock
crockery
crocodile
croft
crone
crony
crook
crooked
croon
crooner
crop
crops
cross
crossbar
crossing
crossroads
crotia
crouch
crow
crowbar
crowd
crowe
crowing
crown
crucial
crucible
crucifix
crucifixion
crucify
crude
cruel
cruelty
cruet
cruise
cruiser
crumb
crumble
crummy
crumple
crunch
crusade
crush
crust
crustiin
crusty
crutch
crux
cruzi
cry
crying
crypt
cryptic
crystal
cs
csa
csan
ct
cu
cub
cubbamaa
cubbamtuu
cubbuu
cubbuun
cube
cubic
cubicle
cubit
cuckold
cuckoo
cucumber
cucurree
cud
cuddle
cudgel
cue
cufa
cufaa
cufaaf
cufachuu
cufamaa
cufame
cufamu
cufamuu
cufan
cufanii
cufantaa
cufe
cufee
cuff
cuffa
cufti
cuftuu
cufuu
cuggee
culinary
cull
cullunfoo
culminate
culmination
culpable
culprit
cult
cultivate
cultivation
cultural
culture
cultured
culullee
cululuqaa
cumaa
cumbersome
cumboo
cumboon
cumin
cummaa
cumulative
cunature
cune
cunning
cunqurfamaa
cunqurfamoo
cunqurfamootni
cunqursa
cunqursaa
cunqursuu
cunt
cup
cupboard
cupid
cupidity
cupressaceae
cuqaasi
cuqaasuu
cuqqaalaa
cuqqaalame
cuqqaalan
cuqqaallaa
cuqqaaluu
cuquliisa
cuquliisaa
cur
curable
curate
curative
curator
curattor
curb
curdle
curds
cure
curie
curiew
curio
curiosity
curioslty
curious
curitiba
curl
curlo
curlous
currant
currency
current
currentiin
curriculum
curse
cursed
curser
cursing
cursive
cursory
curt
curtail
curtain
curtis
curtsy
curvaceous
curved
cush
cushion
cushite
cushy
cussed
cussonia
custard
custodian
custody
custom
customary
customer
customers
customs
cut
cutaneous
cute
cuticle
cutlass
cutlery
cutlet
cutter
cutting
cuubee
cuucii
cuukkoo
cuukkoon
cuukoo
cuuloo
cuunfaa
cuunfame
cuunfamee
cuunfan
cuunfuu
cuuphaa
cuuphame
cuuphamuu
cuuphanitti
cuuphata
cuuphuu
cuvert
cv
cw
cx
cy
cyanide
cyber
cycle
cyclist
cyclone
cyclonic
cycloniin
cylinder
cylindrical
cymbals
cynic
cynical
cypress
cyprus
cyst
cystic
cysticercosis
cytoplasm
cytoskeleton
cz
d
d0
d1
d2
d3
d4
d5
d6
d7
d8
d9
da
daa
daabboo
daabbusee
daabee
daacci
daaccii
daachi
daachonni
daadee
daadhii
daadhiin
daadhiiti
daadimachuu
daadimannaa
daadimata
daafura
daagaa
daagii
daagim
daagujjaa
daakaa
daakaatti
daakamaa
daakamne
daakan
daakiyyee
daakkiyyee
daaktuu
daaktuun
daaku
daakuu
daalacha
daalachaa
daalachooftu
daalala
daalalaa
daalaltuu
daalaluu
daalattii
daalee
daalii
daallee
daamaa
daammii
daandeettii
daandi
daandii
daandiin
daandiiwwan
daandileen
daandin
daanga
daangaa
daangaan
daangaatti
daangeeffame
daangeeffamtee
daangeeffamu
daangeessaa
daangeessuu
daangeffama
daangeffamaa
daangeffame
daangeffamee
daangeffamte
daangeffamtedha
daangeffamtee
daangeffamti
daangessa
daangessiti
daangessoo
daangessu
daangessuu
daangibeessituu
daangibeessuu
daangiboo
daangulee
daani
daannisaa
daannoo
daannoon
daannotiin
daansee
daansii
daanyaa
daaqaa
daaquu
daar
daara
daaraa
daarakteera
daarekterii
daaressituu
daargee
daarii
daariin
daarimuu
daaroftuu
daaroo
daartii
daasii
daata
daataa
daatan
daatii
daatuu
daaw
daawit
daawitii
daawodhaan
daawud
daawullaa
daawuud
daawwaa
daawwaan
daawwachaa
daawwachuu
daawwachuuf
daawwannaa
daawwannaaf
daawwatan
daawwate
daawwattoota
daawwee
daawwii
daawwitii
daay
daayaa
daayi
daayinaamaayitiifi
daayodii
daayodiin
daayoodii
daayoodiin
dab
daba
dabaa
dabaab
dabaaf
dabaaqula
dabaaqulaa
dabala
dabalaa
dabalaan
dabalaman
dabalamanii
dabalame
dabalamee
dabalamne
dabalamtee
dabalamu
dabalamutti
dabalamuun
dabalanii
dabalata
dabalataa
dabalataan
dabalataanis
dabalataatti
dabalatanii
dabalate
dabalatee
dabalatiin
dabalatu
dabale
dabalee
dabalees
dabalgochima
dabali
daballe
daballee
daballu
dabalu
dabaluf
dabaluu
dabaluudhaan
dabaluuf
dabaluun
dabaree
dabareedhaan
dabareedhan
dabareen
dabarfamanii
dabarfame
dabarfamee
dabarfatan
dabarmaleeyyii
dabarre
dabarsa
dabarsaa
dabarsaaf
dabarsan
dabarsanii
dabarse
dabarsee
dabarseen
dabarseera
dabarsina
dabarsine
dabarsinee
dabarsinu
dabarsite
dabarsitee
dabarsiteetti
dabarsiti
dabarsitu
dabarsoo
dabarsu
dabarsuu
dabarsuudha
dabarsuudhaan
dabarsuuf
dabarsuun
dabarsuurratti
dabarte
dabartee
dabballee
dabballeen
dabballummaa
dabbasaa
dabbasaan
dabbassaa
dabble
dabboo
dabe
dabeessa
dabliin
daboo
dabooroo
dabra
dabran
dabranii
dabre
dabree
dabru
dabruu
dabsa
dabsuu
dabtarii
dabu
dabursu
dacha
dachaa
dachaan
dachaane
dachaasanii
dachaasuu
dachaatu
dachee
dacheefi
dacheen
dacheetti
dachii
dachiin
dachiiniifi
dachshund
dad
dadaa
dadabarsuu
dadacha
dadachaane
dadachaasuu
dadachaatu
dadammaqsa
dadammaqsee
dadammaqsituu
dadammaqsu
dadammaqsuu
dadar
dadaritti
daddafani
daddafanii
daddafee
daddaraari
daddarba
daddarbaa
daddarbachaa
daddarbachuu
daddarban
daddarbu
daddy
dadessa
dadhaba
dadhabaa
dadhabaan
dadhabame
dadhaban
dadhabanii
dadhabaniif
dadhabbii
dadhabbiin
dadhabde
dadhabdee
dadhabdu
dadhabduu
dadhabe
dadhabee
dadhabeef
dadhabeen
dadhabiin
dadhabina
dadhabnaan
dadhabne
dadhabnee
dadhabsiisaa
dadhabsiise
dadhabsiisuu
dadhabsisaa
dadhabu
dadhabuu
dadhabuun
dado
dadullah
daduu
daemon
dafaa
dafanii
dafe
dafee
daffe
dafi
dafii
dafinoo
dafnee
dafqa
dafqaan
dafquu
daft
daftee
dagaa
dagaagaa
dagaagee
dagaagina
dagaaginni
dagaaguu
dagachuu
dagachuun
dagaggama
dagaggamaan
dagalee
dagam
dagamiin
daganne
dagataa
dagatamee
dagatamne
dagatamnee
dagatamuu
dagatanii
dagattuu
dagatu
dagduu
daggala
daggalaa
dagger
dago
dahannaa
dahannoo
dahoo
daily
daimlerchrysler
dainty
dairy
dais
daisy
dajanee
dajjaazmaach
dakar
dakee
dakkachu
dakkii
dakoo
daladala
daladalaa
dalaga
dalagaa
dalagaan
dalagan
dalage
dalagee
dalagu
dalaguu
dalaguuf
dalaguun
dalayne
daldala
daldalaa
daldalaaf
daldalaan
daldalaatti
daldalan
daldali
daldalli
daldallii
daldaltoonni
daldaltoota
daldaltuu
daldalu
daldaluu
dale
dalga
dalgaa
dalgee
dallaa
dallaalaa
dallaan
dallaga
dallanaa
dallane
dallansiisaa
dallansiisuu
dallansuu
dallanu
dallanuu
dalleeffamaa
dalleessuu
dalloo
dalluu
dally
dalmatian
dam
damage
damages
daman
damascus
damask
dambali
dambalii
dambaliin
dambi
dambidoolloo
dambii
damboobaa
damboobummaa
dame
damee
dameelee
dameen
dameewwan
damisee
damma
dammaa
dammaqaa
dammaqan
dammaqanii
dammaqe
dammaqee
dammaqiinsi
dammaqina
dammaqsuu
dammaqu
dammaquu
dammaysu
damn
damnable
damnation
damned
damooza
damp
dampen
damper
dampness
damsel
damson
dan
danaa
danaan
danada
danbal
danbali
danbii
danboobaa
danboobduu
dance
dancehall
dancer
dancing
dand
danda
dandaa
dandaha
dandahamu
dandahu
dandamachaa
dandamachiiftu
dandamachiisu
dandamachuu
dandamachuuf
dandamachuun
dandanaa
dandau
dandayama
dandaye
dandayu
danddi
dande
dandeenya
dandeenyaa
dandeenye
dandeenyee
dandeenyeef
dandeenyeen
dandeenyeetti
dandeenyen
dandeenyetti
dandeenyu
dandeenyuu
dandeessa
dandeessaa
dandeessan
dandeessaniin
dandeesse
dandeessee
dandeesseetti
dandeessi
dandeessifne
dandeessisa
dandeessise
dandeessisne
dandeessisu
dandeessisuu
dandeessu
dandeessuu
dandeetii
dandeetti
dandeettii
dandeettiin
dandeettiisaa
dandelion
dandenne
dandenye
dandetta
dandettera
dandettu
dandified
dandii
dandiin
dandiitin
dandle
dandoo
dandruff
dandy
dane
danee
daneessa
daneessaa
daneessummaa
daneessuu
danfaa
danfe
danfisan
danfisuu
danfisuudhaan
danfu
danfuu
danga
dangaa
dangaan
dangeffamte
dangeffamtee
danger
dangerous
dangle
danish
dank
dankaayii
dannaba
danny
danooma
danqaraa
danqu
danquu
dansa
dansaa
dantaa
dantaan
danuu
dapper
dappled
dapsone
daqiiqa
daqiiqaa
dar
daraaraa
daraartuu
daraartuun
daraaruu
daraash
daraatuun
daraboo
darama
darame
daran
darani
daranyoo
dararaa
dararaan
dararama
dararamaa
darasaa
darasaan
darash
darasuu
daratte
darba
darbaa
darbachaa
darbachuu
darbaman
darban
darbanii
darbaniif
darbata
darbataman
darbatame
darbatamu
darbatan
darbatanii
darbatee
darbatte
darbatu
darbatuu
darbe
darbee
darbeera
darbees
darbeeti
darbes
darbii
darbine
darbinee
darbite
darbitee
darboo
darbu
darbutti
darbuu
darbuudhan
darbuuf
darbuun
dardara
dardaraatifii
dare
daredevil
daree
dareedha
dareen
dargaa
dargageessi
dargaggeessa
dargaggeessi
dargaggeettii
dargaggeeyyii
dargaggoo
dargaggoonni
dargaggoota
dargaggootaa
dargaggootni
dargaggummaa
dargaggummaatti
dargagoo
dargii
dargiidhaan
dargiidhan
dargiin
dargiis
dargiitin
darguu
daring
dark
darken
darkish
darkness
darling
darn
darnel
darraa
darre
darree
darsa
darsaa
dart
dartboard
darzana
dasee
dash
dasheen
dashing
dastardly
data
database
date
dates
dattlikon
daub
daughter
daunt
dauntless
dauphin
david
davidovits
dawaa
dawaaroo
dawaatti
dawdle
dawe
dawn
dawoo
dawwaa
dawwee
dawweessuu
day
daybreak
daydreaming
daylight
days
dayyaasaa
dayyuu
daze
dazed
dazzle
dazzling
db
dc
dd
de
deacon
deaconess
dead
deadbeat
deaden
deadhead
deadline
deadlock
deadly
deadpan
deaf
deafen
deafness
deal
dealer
dean
deanery
dear
dearest
dearth
death
deathless
deathly
debacle
debar
debase
debatable
debate
debauch
debauchery
debi
debii
debilitate
debility
debonair
debre
debrief
debris
debt
debtor
debug
debunk
debut
debutante
dec
decade
decadence
decadent
decamp
decant
decanter
decapitate
decarbonise
decathlon
decay
decease
deceased
deceit
deceitful
deceive
deceiver
decelerate
deceleration
december
decembre
decency
decent
decentralize
deception
deceptive
decibel
decide
decided
decider
deciduous
decimal
decimate
decipher
decision
decisive
decisiveness
deck
decker
declaim
declamation
declaration
declare
declassify
decline
decode
decoder
decompose
decomposed
decompression
decongestant
decontaminate
decor
decorate
decoration
decorative
decorator
decorous
decorticate
decorum
decoy
decrease
decree
decrepit
decry
deddebi
deddeebi
deddeebianii
deddeebii
deddeebiin
deddeebin
deddeebisan
deddeebisanii
deddeebisee
deddeebisu
deddeebisuu
deddeebisuuf
deddeebitee
dedebi
deder
dedhee
dedicate
dedicated
dedication
deduce
deduct
deductible
deduction
deductive
deeb
deebanaa
deebi
deebianii
deebifachuuf
deebifamuu
deebii
deebiin
deebina
deebine
deebinee
deebinu
deebisa
deebisaa
deebisaan
deebisanii
deebisaniif
deebise
deebisee
deebiseef
deebiseefii
deebisi
deebista
deebistee
deebisu
deebisuu
deebisuudhaan
deebisuuf
deebisuun
deebite
deebitee
deebitu
deed
deeffachuu
deeffuu
deega
deegaa
deegaran
deegduu
deeggaraa
deeggarame
deeggaramee
deeggaramu
deeggaran
deeggaranii
deeggare
deeggarsa
deeggarsi
deeggartoota
deeggartummaa
deeggaru
deeggaruu
deeggaruun
deeggersa
deegummaa
deelii
deem
deema
deemaa
deemame
deemamu
deeman
deemani
deemanii
deemaniif
deemaniin
deemanitti
deeme
deemee
deemeen
deemen
deemi
deemii
deemiitii
deemna
deemne
deemnee
deemnu
deemsa
deemsaa
deemsi
deemsisu
deemsisutti
deemta
deemtaa
deemtan
deemte
deemtee
deemti
deemtonni
deemtu
deemtuu
deemtuun
deemu
deemudhaan
deemudhan
deemuf
deemun
deemutti
deemuu
deemuudhaan
deemuuf
deemuun
deemuuu
deen
deenmaarki
deentaa
deep
deepen
deeply
deer
deeroo
deerstalker
deesse
deessu
deessuu
deettii
deevid
def
deface
defamation
defamatory
defame
default
defaulter
defeat
defeating
defeatism
defecate
defect
defective
defence
defenceless
defend
defendant
defender
defense
defensible
defensive
defer
deference
deferential
defiance
defiant
deficiency
deficient
deficit
defile
define
defined
definite
definitely
definition
definitive
deflate
deflect
deflection
deflower
defoliate
defoliation
deforest
deforestation
deform
deformation
deformed
deformity
defraud
defray
defrost
deft
defunct
defuse
defy
dega
degeneracy
degenerate
deggarsaa
deggeraa
deggeramne
deggeramu
deggeranii
deggeree
deggerre
deggersa
deggersaa
deggertoota
deggertuu
deggeru
deggeruu
deggeruuf
degock
degradation
degrade
degrading
degree
dehumanise
dehydrate
dehydrated
deicer
deification
deify
deign
deininger
deity
dejected
dejection
del
delay
delectation
delegate
delegation
delete
deleted
deleterious
deletion
delft
delhi
deliberate
deliberation
delicacy
delicate
delicatessen
delicious
delictable
delight
delighted
delightful
delimit
delineate
delineation
delinquency
delinquent
delirious
delirium
deliver
deliverance
delivery
dell
delphinium
delta
delude
deluge
delusion
delusive
deluxe
delve
demagogue
demand
demanding
demarcate
demarcation
demdemoo
demean
demeaning
demeanour
demented
dementia
demerara
demerit
demijohn
demilitarize
demise
demist
demma
demme
demmu
demne
demnu
demo
demob
demobilize
democracy
democrat
democratic
demography
demokraasii
demolish
demolition
demon
demonic
demonstratable
demonstrate
demonstration
demonstrative
demonstrator
demoralize
demote
demotion
demuni
demur
demure
demystification
demystify
den
denationalisation
denationalize
deniable
denial
denigrate
denim
denizen
denmark
denomination
denominational
denominator
denote
denouement
denounce
dense
density
dent
dental
denticles
dentifrice
dentin
dentiniin
dentist
denture
denude
denunciation
deny
denzel
deodorant
depart
department
departmental
departure
depend
dependable
dependant
dependency
depict
depilatory
deplete
deplorable
deplore
deploy
depopulate
deport
deportation
deportment
depose
deposit
deposition
depositor
depository
depot
deprave
depraved
depravity
deprecate
depreciate
depreciation
depredation
depressing
depression
deprive
depth
deputation
depute
deputize
deputy
der
derail
derailment
deranged
derangement
derelict
dereliction
deresumaa
deride
derision
derisive
derisory
derivation
derivative
derive
dermal
dermatitis
dermatologist
dermatology
dermatophytosis
dermis
derogatory
derrick
derv
des
desalination
descend
descendant
descending
descent
describe
description
desecrate
desegregate
deselect
desert
deserted
deserter
desertification
deserts
deserve
desiccated
design
designate
designation
designed
designer
designing
desirable
desire
desired
desist
desk
desolate
desolation
despair
despairing
desperado
desperate
despicable
despise
despised
despising
despite
despoil
despondency
despondent
despot
desse
dessert
destination
destined
destiny
destitute
destitution
destroy
destroyer
destructible
destruction
destructive
desultory
detach
detached
detachment
detail
details
detain
detainee
detect
detection
detective
detector
detente
detention
deter
detergent
deteriorate
deterioration
determination
determine
determined
determiner
deterrent
detest
detestable
detestation
dethrone
detonate
detonation
detour
detract
detraction
detractor
detriment
detrimental
deutsche
deutsches
devaluation
devalue
devanagari
devastate
devastating
devastation
develop
developed
developer
developing
development
developments
deventer
deviate
device
devices
devil
devilish
devilment
devilry
devious
devise
devoid
devolution
devote
devoted
devotee
devotion
devotional
devour
devout
dew
dewlap
dewy
dexterity
dexterous
dextrose
df
dg
dh
dha
dhaa
dhaaba
dhaabaa
dhaabaatti
dhaabachuu
dhaabachuun
dhaabadhee
dhaabadheen
dhaabaman
dhaabamu
dhaaban
dhaabanii
dhaabanne
dhaabataa
dhaabatan
dhaabatanii
dhaabate
dhaabatee
dhaabateera
dhaabattee
dhaabatu
dhaabatuu
dhaabbachuu
dhaabbachuuf
dhaabbachuun
dhaabbadhee
dhaabbamee
dhaabbannaa
dhaabbanne
dhaabbannee
dhaabbanni
dhaabbannii
dhaabbata
dhaabbataa
dhaabbataatti
dhaabbatan
dhaabbatanii
dhaabbate
dhaabbatee
dhaabbateera
dhaabbati
dhaabbatte
dhaabbattee
dhaabbattoota
dhaabbattootaa
dhaabbatu
dhaabbatummaadhaan
dhaabbatuu
dhaabbatuun
dhaabbii
dhaabbiidhaan
dhaabbiin
dhaabbilee
dhaabbileen
dhaabde
dhaabe
dhaabee
dhaabeen
dhaabeera
dhaabicha
dhaabichaa
dhaabii
dhaabne
dhaabnee
dhaabni
dhaabota
dhaabsise
dhaabu
dhaabuf
dhaabuu
dhaabuuf
dhaabuun
dhaabuutu
dhaaccii
dhaadachaa
dhaadannoo
dhaaddatan
dhaadhaa
dhaadheessa
dhaadhessa
dhaadhessaa
dhaadhessituu
dhaadhessu
dhaadhessuu
dhaaf
dhaala
dhaalaa
dhaalame
dhaalan
dhaalchisuu
dhaalee
dhaalota
dhaaltuu
dhaalu
dhaalun
dhaaluu
dhaama
dhaamaa
dhaame
dhaamee
dhaamjecha
dhaamjechi
dhaammate
dhaamoo
dhaamsa
dhaamsaa
dhaamsan
dhaamsi
dhaamsuu
dhaamsuuf
dhaan
dhaanamte
dhaanamteef
dhaane
dhaanuu
dhaaqamaa
dhaas
dhaba
dhabaa
dhabaan
dhabamaniiru
dhabame
dhabamee
dhabamne
dhabamsiisa
dhabamsiise
dhabamsiisu
dhabamsiisuf
dhabamsiisuu
dhabamsiisuuf
dhabamsisuu
dhabamuu
dhaban
dhabanii
dhabatte
dhabatu
dhabbilee
dhabde
dhabdee
dhabdeen
dhabdeetti
dhabdu
dhabduu
dhabe
dhabee
dhabeef
dhabeessa
dhabi
dhabii
dhabiin
dhablee
dhableen
dhabnaan
dhabne
dhabnee
dhabsiisa
dhabsiisaa
dhabsiisuu
dhabu
dhabuu
dhabuudha
dhabuudhaan
dhabuun
dhabuus
dhaddacha
dhaddachaa
dhaddee
dhadhaa
dhadhaabbata
dhadhaadhaan
dhadhaafi
dhadhaan
dhaga
dhagaa
dhagaadhaan
dhagaalee
dhagaan
dhagaatti
dhagahama
dhagahamaa
dhagahame
dhagahamee
dhagahameefi
dhagahameera
dhagahamne
dhagahamneef
dhagahamu
dhagahamuu
dhagahe
dhagaheef
dhagaheen
dhagaheera
dhagahi
dhagahu
dhagahuu
dhagahuuf
dhagahuun
dhagayan
dhagayee
dhagayi
dhagayu
dhagayuu
dhageentaa
dhageenya
dhageenyan
dhageenye
dhageenyee
dhageesisaa
dhageesisu
dhageesisuu
dhageessan
dhageesse
dhageessee
dhageessisaa
dhageessisan
dhageessisanii
dhageessise
dhageessisiin
dhageessistu
dhageessisu
dhageessisuu
dhageettifi
dhageettii
dhageettiifi
dhageettu
dhageyi
dhaggeefachuu
dhaggeeffachuu
dhaggeeffachuuf
dhaggeeffadhaa
dhaggeeffadhe
dhaggeeffadhu
dhaggeeffataa
dhaggeeffatan
dhaggeeffatanii
dhaggeeffatee
dhagitee
dhagna
dhagnaa
dhagnatti
dhagni
dhaha
dhahaa
dhahaan
dhahame
dhahanii
dhahannaa
dhahee
dhaheeru
dhahii
dhahiisa
dhahu
dhahuu
dhahuun
dhaka
dhakaa
dhakaraa
dhala
dhalaa
dhalaaf
dhalachuu
dhaladhe
dhaladhee
dhalanne
dhalata
dhalataa
dhalatan
dhalatanii
dhalate
dhalatee
dhalatoo
dhalatte
dhalattee
dhalattoonni
dhalattoota
dhalatu
dhalchanii
dhalche
dhalchee
dhalchi
dhalchuu
dhale
dhalee
dhalfate
dhallaadduu
dhallaaduu
dhallate
dhalli
dhallotta
dhaloonni
dhaloota
dhalootaa
dhalootaaf
dhalootaan
dhalootan
dhalootasaa
dhalootatti
dhalotaan
dhalte
dhaltuu
dhaluu
dhama
dhamaatii
dhamdhama
dhamdhamuu
dhamjecha
dhamjechootaa
dhamsagaan
dhamsagootaa
dhamsagootaatiin
dhamsagootarraa
dhan
dhandhama
dhangaa
dhangaan
dhangaggaa
dhangala
dhangalaa
dhangalaane
dhangalaasuu
dhaqa
dhaqaa
dhaqabsu
dhaqabu
dhaqan
dhaqani
dhaqanii
dhaqdhaqii
dhaqe
dhaqee
dhaqi
dhaqii
dhaqna
dhaqnaa
dhaqqabe
dhaqqabeera
dhaqqabne
dhaqqabu
dhaqqabuu
dhaqu
dhaquu
dhaquuf
dhaquun
dhara
dharaa
dharra
dharraa
dharraadhaan
dharri
dhate
dhatee
dhawaa
dhawaan
dhawaatti
dhawu
dhawwaaqqii
dhawwaaquu
dhaye
dhayee
dhayicha
dhayichaa
dhayn
dhayne
dhayxee
dhduo
dhduon
dhedheeraa
dhedheeroo
dhedheessa
dhedheessaa
dhedheessaatti
dheebochuu
dheebuu
dheedan
dheedee
dheedhii
dheedhiin
dheedi
dheedicha
dheedichaa
dheedu
dheeduu
dheekii
dheekkamaa
dheekkame
dheekkamsa
dheekkamsaan
dheekkamu
dheekkamuu
dheera
dheeraa
dheeraadhaaf
dheeraaf
dheeraan
dheeraarratti
dheeradhaaf
dheeradhaan
dheerata
dheeratee
dheerattu
dheeratu
dheeressuu
dheeriina
dheerina
dheerinaan
dheerinni
dheerticha
dheertuu
dheessee
dheessuu
dheeyse
dheeysun
dheraa
dheriini
dherinna
dherinni
dherrina
dherrinan
dhi
dhiba
dhibaa
dhibaafateet
dhibaan
dhibaayyuu
dhibaayyuun
dhibamaa
dhiban
dhibba
dhibbaa
dhibbaafii
dhibbanta
dhibbantaa
dhibbantaan
dhibbatti
dhibbee
dhibbeentaa
dhibbeentaan
dhibbentaa
dhibbi
dhibbootaan
dhibdee
dhibe
dhibee
dhibeen
dhibeewwan
dhibii
dhibooftuu
dhibu
dhibuu
dhidhime
dhidhimne
dhidhimu
dhidhimuu
dhidhiphoo
dhifama
dhiga
dhigaa
dhigni
dhiha
dhihaa
dhihaachuu
dhihaan
dhihaanaannoowallaggakeessatti
dhihaanne
dhihaarraa
dhihaata
dhihaatan
dhihaatanii
dhihaate
dhihaatee
dhihaati
dhihaatiin
dhihaatin
dhihaattee
dhihaatti
dhihaatu
dhihaatutti
dhihaatuudha
dhihatti
dhihattu
dhiheeffatanii
dhiheenya
dhiheessan
dhiheessu
dhiheessun
dhiheessuu
dhiheessuuu
dhihenna
dhihoo
dhihootti
dhihotti
dhiibaa
dhiibaan
dhiibamanii
dhiibamu
dhiiban
dhiibanii
dhiibba
dhiibbaa
dhiibbaan
dhiibbame
dhiibban
dhiibbeffamaa
dhiibbessaa
dhiibdee
dhiibee
dhiibu
dhiibuu
dhiibuun
dhiifama
dhiifamaan
dhiifame
dhiifamee
dhiifami
dhiifamuu
dhiifne
dhiifnee
dhiiftee
dhiiga
dhiigaa
dhiigaan
dhiigi
dhiigni
dhiignii
dhiigu
dhiiguu
dhiilga
dhiilgee
dhiiqamuu
dhiira
dhiiraa
dhiiraaf
dhiiraati
dhiiras
dhiironni
dhiiroo
dhiirota
dhiirotaa
dhiirri
dhiirti
dhiirummaa
dhiisa
dhiisaa
dhiisame
dhiisan
dhiisanii
dhiise
dhiisee
dhiiseef
dhiiseen
dhiiseera
dhiisef
dhiisi
dhiisii
dhiisiitii
dhiisisuu
dhiisne
dhiisnee
dhiisnes
dhiistee
dhiisteetti
dhiisti
dhiisu
dhiisuu
dhiisuuf
dhiisuufi
dhiisuun
dhiisuunis
dhiisuusaa
dhiita
dhiitaa
dhiitanii
dhiite
dhiitee
dhiitessu
dhiitoo
dhiituu
dhikkifachuu
dhilbee
dhiltee
dhimbiibduu
dhimbiibuu
dhimma
dhimmaa
dhimmamne
dhimmamuu
dhimmi
dhimmichi
dhimmisuu
dhimmoota
dhimmota
dhinnaa
dhiphachaa
dhiphachuu
dhiphachuun
dhiphadhu
dhiphanne
dhiphataa
dhiphate
dhiphatiin
dhiphattuu
dhiphatu
dhiphina
dhiphinaa
dhiphinaan
dhiphinni
dhiphisa
dhiphisaa
dhiphise
dhiphisiin
dhiphisu
dhiphisuu
dhiphoo
dhiphummaa
dhiphuu
dhiqaa
dhiqachuu
dhiqama
dhiqamuu
dhiqan
dhiqanna
dhiqannaa
dhiqatan
dhiqnee
dhiqu
dhiquu
dhiquudhaan
dhiquuf
dhiquun
dhira
dhiraa
dhirsa
dhirsaa
dhirsi
dhirsiif
dhisame
dhisamee
dhisamu
dhisamuu
dhisanii
dhisee
dhisuu
dhita
dhitoo
dhituu
dhiya
dhiyaachaa
dhiyaachuu
dhiyaachuuf
dhiyaachuun
dhiyaana
dhiyaanatti
dhiyaanne
dhiyaannu
dhiyaassuu
dhiyaata
dhiyaataa
dhiyaatan
dhiyaatanii
dhiyaate
dhiyaatee
dhiyaateera
dhiyaatti
dhiyaattu
dhiyaatu
dhiyaatuu
dhiyaatuudha
dhiyeenya
dhiyeenyaan
dhiyeessa
dhiyeessaa
dhiyeessan
dhiyeessani
dhiyeessanii
dhiyeesse
dhiyeessee
dhiyeessi
dhiyeessite
dhiyeessitu
dhiyeessituu
dhiyeessu
dhiyeessuu
dhiyeessuudhaan
dhiyeessuuf
dhiyeessuun
dhiyo
dhiyoo
dhiyootti
dhkd
dho
dhohiinsa
dhokachuu
dhokachuuf
dhokannaa
dhokannee
dhokannu
dhokata
dhokataa
dhokataan
dhokatan
dhokatanii
dhokatee
dhokattuu
dhokfamee
dhoksaa
dhoksaadhaan
dhoksaadhan
dhoksaan
dhoksamaa
dhoksanii
dhoksee
dhokseen
dhoksiin
dhoksine
dhoksinee
dhoksu
dhoksuu
dhoksuuf
dhoksuun
dhombiir
dhoo
dhoofiyyaa
dhoofne
dhooftuu
dhoogguu
dhoolbee
dhoombir
dhooqa
dhooqaa
dhooqni
dhoose
dhoosi
dhoosuu
dhootuu
dhoowwe
dhoowwi
dhoowwu
dhoqaa
dhoqdhoqa
dhoqna
dhoqonaa
dhoqqaa
dhoqqee
dhorka
dhorkaa
dhorkamaa
dhorkame
dhorkamee
dhorkamus
dhorkamuu
dhorke
dhorkeef
dhorkeera
dhorkii
dhorku
dhorkuu
dhorkuun
dhortuu
dhowe
dhowee
dhowuuf
dhowwa
dhowwaa
dhowwamaa
dhowwame
dhowwanne
dhowwatan
dhowwate
dhowwu
dhowwuu
dhowwuun
dhoysa
dhubbe
dhudha
dhufa
dhufaa
dhufaan
dhufaatii
dhufan
dhufani
dhufanii
dhufaniif
dhufaniin
dhufaniiru
dhufanitti
dhufe
dhufedha
dhufee
dhufeedha
dhufeef
dhufeen
dhufeenya
dhufeenyaa
dhufeenyi
dhufeera
dhufeeraa
dhufeeru
dhufen
dhuferraa
dhufetti
dhuffani
dhuffe
dhuffuu
dhufiin
dhufinii
dhufnaan
dhufne
dhufnee
dhuftan
dhufte
dhuftee
dhufteen
dhufti
dhuftu
dhuftuuf
dhufu
dhufutti
dhufuu
dhufuudha
dhufuuf
dhufuun
dhufuutti
dhuga
dhugaa
dhugaadha
dhugaadhaan
dhugaadhumatti
dhugaaf
dhugaan
dhugaarraa
dhugaasaa
dhugaati
dhugaatii
dhugaatiif
dhugaatiin
dhugaatiis
dhugaatti
dhugama
dhugamee
dhugamu
dhugamuu
dhugan
dhugani
dhuganii
dhugatii
dhugduu
dhugee
dhugeeffachuu
dhugeeffannaa
dhugeeffata
dhugne
dhugoo
dhugoomsuu
dhugoomsuuf
dhugoomuu
dhugu
dhuguma
dhugumaa
dhugumaan
dhuguman
dhugumatti
dhugumattuu
dhuguu
dhuguuf
dhuguun
dhuka
dhukaafame
dhukaafamu
dhukaasa
dhukaasaa
dhukaasan
dhukaasanii
dhukaase
dhukaastuu
dhukaasu
dhukaasuu
dhukaasuun
dhukii
dhukkee
dhukkuba
dhukkubaa
dhukkubaaf
dhukkubaan
dhukkubaatiin
dhukkubbi
dhukkubbii
dhukkubbiin
dhukkube
dhukkubi
dhukkubicha
dhukkubichaa
dhukkubichaan
dhukkubichi
dhukkubichii
dhukkubnaan
dhukkubni
dhukkubnii
dhukkuboonni
dhukkuboota
dhukkubootaa
dhukkubsa
dhukkubsachaa
dhukkubsachuu
dhukkubsataa
dhukkubsataadhaaf
dhukkubsataan
dhukkubsatan
dhukkubsatanii
dhukkubsate
dhukkubsatee
dhukkubsateef
dhukkubsatte
dhukkubsattoonni
dhukkubsattoota
dhukkubsatu
dhukkubsu
dhukkubu
dhukkubuu
dhukkuubichaan
dhukubaa
dhullaa
dhuma
dhumaa
dhumaaf
dhumaarra
dhumaarratti
dhumaati
dhumaatiin
dhumaatti
dhumachuu
dhuman
dhumanii
dhumaniif
dhumarratti
dhumarrattis
dhumate
dhumatte
dhumatti
dhume
dhumee
dhumeera
dhumin
dhummuugaa
dhumne
dhumni
dhumte
dhumti
dhumu
dhumutti
dhumuu
dhumuuf
dhungachaa
dhungachuu
dhungachuun
dhungadhee
dhungadhu
dhunganna
dhunganne
dhungata
dhungate
dhungatu
dhungoo
dhuubuu
dhuudhuma
dhuufa
dhuufuu
dhuukubicha
dhuukuuba
dhuukuubicha
dhuukuubichaan
dhuukuubichi
dhuukuubichii
dhuukuubnii
dhuunfa
dhuunfaa
dhuunfaaf
dhuunfaan
dhuunfaasaa
dhuunfaatti
dhuunfarraa
dhuunfataa
dhuunfate
dhuunfattuu
di
diabetes
diabetic
diabolic
diabolical
diadem
diagnose
diagnosis
diagnostic
diagonal
diagram
dial
dialect
dialogue
dialysis
diameter
diametrically
diamond
diaphanous
diaphragm
diarist
diarrhea
diary
dias
diaspora
diatomic
diatribe
diaz
dibaa
dibaaba
dibaabaa
dibaabee
dibaan
dibaba
dibachuu
dibadhee
dibame
dibamee
dibameen
dibamu
dibanii
dibata
dibataa
dibatamu
dibatan
dibbee
dibdaaba
dibdibbee
dibduu
dibe
dibee
dibeeta
diboo
dibu
dibuu
dibuudhaan
dice
dicey
dichotomy
dick
dickens
dicky
dictate
dictation
dictator
dictatorial
diction
dictionary
dida
didaa
didactic
didan
didani
diddaa
diddan
didde
diddee
diddiirrachuu
diddiirrannaa
diddiqa
diddiqo
diddirrannaa
diddle
diddoo
dide
didee
dideef
diderraa
didhaa
didhame
didi
didibbisa
didichuu
didnaan
didu
diduu
diduun
die
diego
diem
diese
diet
dieter
dietetics
dietician
diferensiyaal
differ
difference
different
differential
differentiate
differing
difficult
diffidence
diffident
diffract
diffuse
dig
digalu
digdama
digdamaa
digdamii
digest
digestible
digestion
digestive
digger
digging
digirii
digiriisaa
digit
digital
dignified
dignify
dignitary
dignity
digress
digrii
digs
diguu
dihiifama
diida
diidaa
diiddama
diiddamaa
diiddamii
diidi
diidoo
diigaa
diigamuun
diiggama
diigi
diiguu
diikkaa
diilalla
diilallaa
diilalleessaa
diilboo
diima
diimaa
diimaan
diimaatti
diimachuu
diiman
diimatee
diimgurraa
diimillee
diimina
diiminni
diimokiraasii
diimotti
diimtu
diimtuu
diin
diina
diinaa
diinaaf
diinaan
diinagdee
diinagdeedhaan
diinagdeen
diinaggeen
diinan
diinarratti
diinatti
diinifii
diinni
diinoota
diinota
diinqa
diinshoo
diinummaa
diiqaalaa
diira
diiramuu
diishii
diizaayinii
dijitaalaa
dijitaalii
dike
dikee
dikkaa
dikkoo
diktat
dil
dilaala
dilallaa
dilapidated
dilapidation
dilate
dilatory
dilbata
dilbataa
dilbatta
dilboo
dilemma
dilettante
diligence
diligent
dilii
dill
dilute
diluted
dimaa
dimbilaala
dimbiriqqee
dime
dimension
dimensional
dimimmisa
dimimmisaa
dimimmisaan
diminish
diminuendo
diminution
diminutive
dimishqaa
dimismisa
dimmaa
dimokiraasii
dimokiraatawaa
dimokraasii
dimokraataawa
dimokraatawaa
dimoogiraafii
dimoograafii
dimookiraasii
dimookiraatawaa
dimookraatawaa
dimple
dimshaasha
dimshaashatti
din
dinaagdee
dinagde
dinagdee
dindaa
dine
diner
dinghy
dingil
dingo
dingy
dining
dinkii
dinner
dinni
dinnicha
dinnichaa
dinniinaa
dinqaa
dinqamuu
dinqi
dinqifachuu
dinqii
dinqine
dinqisifannaa
dinqisiifachuu
dinqisiifachuuf
dinqisiifachuun
dinqisiifadhu
dinqisiifamu
dinqisiifanna
dinqisiifannaa
dinqisiifannoo
dinqisiifatan
dinqisiifataniif
dinqisiifatu
dinqisiisaa
dinqisiisu
dinqisiisuu
dinqisiisuun
dinqisisaa
dinqisisuu
dinquu
dinquun
dinshoo
diocese
diode
diogo
dioxide
dip
diploma
diplomacy
diplomat
diplomatic
dipper
dippilomaasii
dippilomaatii
dippiloomaa
dipping
dipsomaniac
dipstick
diqaa
diqaalaa
diqatte
diqqa
diqqaa
diqqatte
diqqo
diqqoo
dira
diraamaa
diraamaaf
diraamaalee
diraamii
diraatuu
diranii
dire
direct
direction
directives
directly
director
directorate
directory
direessaa
dirge
diriiraa
diriiree
diriirfame
diriirsan
diriirsuu
dirk
dirmammeessuu
dirmammuu
dirndl
dirqaama
dirqama
dirqamaa
dirqamaan
dirqamaatti
dirqaman
dirqame
dirqamee
dirqamne
dirqamni
dirqamte
dirqamu
dirqii
dirqiidhaan
dirqiin
dirqisiisanii
dirqisiise
dirqisiisun
dirqisiisuu
dirqisisuu
dirra
dirre
dirree
dirreedhaan
dirreen
dirreetti
dirri
dirriba
dirribsaa
dirrisuu
dirsaa
dirt
dirty
disaasuu
disable
disabled
disabuse
disadvantage
disaffected
disagree
disagreeable
disagreement
disappear
disappearance
disappoint
disappointment
disapproval
disapprove
disapproving
disarm
disarmament
disarrange
disarray
disaster
disastrous
disavow
disband
disbar
disbelieve
disburse
disbursement
disc
discard
discern
discernable
discerning
dischaarji
dischaarjii
dischaarjiin
discharge
disciple
disciplinarian
disciplinary
discipline
disciplined
disclaim
disclaimer
disclose
disclosure
discolored
discolour
discomfit
discomfiture
discomfort
disconcert
disconcerting
disconnect
disconnected
disconsolate
discontented
discontinue
discord
discordant
discotheque
discount
discourage
discouraged
discourse
discourteous
discourteously
discover
discovered
discovery
discredit
discreditable
discreet
discrepancy
discrete
discretion
discriminate
discrimination
discursive
discursiveness
discus
discuss
discussing
discussion
disdain
disdainful
disease
diseased
diseases
disembark
disembodied
disembowel
disenchanted
disenchantment
disengage
disentangle
diseo
disfavour
disfigure
disgorge
disgrace
disgraceful
disgruntled
disguise
disgust
disgusting
dish
disharmony
dishcloth
dishearten
dishevelled
dishonest
dishonesty
dishonor
dishonorable
dishonour
dishonourable
dishwasher
disillusion
disincentive
disinclination
disinclined
disinfect
disinfectant
disinformation
disingenous
disinherit
disintegrate
disintegration
disinter
disinterest
disinterested
disjoint
disjointed
disk
dislike
dislocate
dislocation
dislodge
disloyal
dismal
dismantle
dismantled
dismay
dismember
dismiss
dismissal
dismount
disobedience
disobedient
disobey
disorder
disorderiin
disorderly
disorganize
disorganized
disorientate
disown
disparage
disparate
disparity
dispassionate
dispassionately
dispatch
dispel
dispensable
dispensary
dispensation
dispense
dispersal
disperse
dispirit
dispirited
displace
display
displaystyle
displease
displeasure
disposable
disposal
dispose
disposed
disposition
dispossess
disproportion
disproportionate
disprove
disputable
disputation
disputatious
dispute
disqualify
disquiet
disquisition
disregard
disrepair
disreputable
disrepute
disrespect
disrespectful
disrobe
disrupt
disruption
dissatisfaction
dissatisfied
dissect
dissection
dissemble
disseminate
disseminated
dissension
dissenter
dissertation
disservice
dissidence
dissident
dissimeetirii
dissimilar
dissimilarity
dissimulate
dissipate
dissipated
dissociate
dissolute
dissolution
dissolve
dissonance
dissonant
dissuade
distaff
distance
distant
distaste
distasteful
distemper
distend
distii
distil
distillation
distiller
distillery
distinct
distinction
distinctive
distinctly
distinguish
distinguished
distort
distorted
distortion
distract
distracted
distraction
distraught
distress
distribute
distribution
distributor
district
distrust
distrustful
disturb
disturbance
disturbing
disunite
disuse
disused
ditch
dither
ditto
ditty
diuretic
diurnal
divan
dive
diver
diverge
divergence
divergent
divers
diverse
diversify
diversion
diversity
divert
divest
divide
dividend
dividers
divination
divine
diving
divinity
divisible
division
divorce
divorcee
divot
divulge
diyaafiramii
diyaamaginetizimii
diyaameetirii
diyaarii
diyaariin
diyala
dizaayinii
dizzaayinii
dizziness
dizzy
dj
dk
dks
dl
dliigaa
dll
dm
dn
dna
do
dobson
docile
dock
docker
docket
dockyard
doctor
doctorate
doctrinaire
doctrine
document
documentary
documentation
dodder
doddering
doddotaa
dodge
dodgems
dodger
dodo
dodola
dodolaa
doe
doff
dog
dogfish
dogged
doggerel
doggo
doggodoggee
doggy
dogma
dogmatic
dogmatism
dogoggora
dogoggoraa
dogoggoraaf
dogoggoraan
dogoggoran
dogoggorre
dogoggorri
dogoggorsaa
dogoggorsuu
dogoggoruu
dogogorri
dogooggora
dogsbody
dogtooth
dogwood
doha
doi
doily
dokdokkee
dokimenterii
doktara
doktarii
doktaroonni
doktarootaa
doktarummaa
dokter
doktireetii
doktora
doktorummaa
dokumantii
doldrums
dole
doleful
dolfiin
dolfiinotni
dolfiinottni
doll
dolla
dollar
dollara
dolloo
dollop
dolly
dolmen
doloolloo
dolorous
dolphin
dolt
domain
dombii
dome
domestic
domesticate
domesticity
domicile
dominant
dominate
domination
domineer
domineering
dominion
domino
don
donate
donation
done
dongah
dongoroo
donkey
donor
doobanaa
doobbii
doodle
doofaa
doofummaa
dookimentii
doolaa
doolaara
doolaarii
doolara
doolloo
doollootti
dooluu
doom
doomaa
doomsday
dooni
doonii
dooniidhaan
dooniin
dooniirraa
dooniitti
doonin
doonittiin
door
doorii
doorknob
doorman
doormii
doornail
dooroo
doorsiisuu
doorsill
doorsisuu
doorstep
doorway
dooyaa
dope
doqdoqqee
doqna
doqnummaa
dordrecht
dorgoma
dorgomaa
dorgoman
dorgome
dorgomee
dorgomichaa
dorgommichaa
dorgommichi
dorgommii
dorgommiif
dorgommiin
dorgommiitti
dorgomsiisuu
dorgomsiisuun
dorgomtoota
dorgomu
dorgomuu
dorgomuuf
dorlo
dormant
dormer
dormitory
dormouse
doroomii
dorrobee
dorrobsiisuu
dorsal
dosage
dose
dosee
doss
dossier
dot
dotage
dote
dots
double
doubt
doubtful
doubtless
dough
doughnut
doughty
dour
douse
dove
dovecote
dovetail
dowager
dowdy
down
downcast
downfall
downgrade
downhearted
downpour
downright
downside
downstairs
downstream
downtown
downtrodden
downward
downy
dowry
dowse
doxycycline
doyaa
doyen
doyenne
doyle
doze
dozen
dp
dq
dr
drab
drachma
draconian
dracunculiasis
draft
draftsman
drafty
drag
dragon
dragonfly
dragoon
drain
drainage
drake
dram
drama
dramatic
dramatise
dramatist
drape
draper
drastic
draught
draughtsman
draughty
draw
drawback
drawball
drawbridge
drawer
drawing
drawl
dray
dread
dreadful
dreadlocks
dream
dreamworks
dreamy
dreary
dredge
dregs
drench
dress
dressage
dressed
dresser
dressing
dressmaker
dressy
dribble
dribbling
drier
drift
drifter
driftwood
drill
drink
drinkable
drinker
drip
drive
drivel
driven
driver
driveway
driving
drizzle
drogue
droll
dromedary
drone
drool
droop
drop
droplet
dropper
droppings
dross
drought
drove
drover
drown
drowse
drowsy
drubbing
drudge
drug
druggist
drugstore
drum
drummer
drumstick
drunk
drunkard
drunken
drunkenness
dry
dryness
drystone
ds
dst
dt
du
dua
dual
duality
dub
dubadhu
dubamuu
dubara
dubaraa
dubarri
dubarti
dubartii
dubartiif
dubartiin
dubartiis
dubartil
dubartoonni
dubartoonnis
dubartoota
dubartootaa
dubartootaaf
dubartootaafis
dubartootni
dubba
dubbachaa
dubbachiiftuu
dubbachiiftuun
dubbachiisu
dubbachuu
dubbachuudhaaf
dubbachuudhaan
dubbachuuf
dubbachuun
dubbadha
dubbadhe
dubbadhee
dubbadhu
dubbanna
dubbanne
dubbannee
dubbannu
dubbannuu
dubbata
dubbataa
dubbatama
dubbatamaa
dubbataman
dubbatame
dubbatamne
dubbatamu
dubbatamudha
dubbatamuu
dubbatan
dubbatanii
dubbataniif
dubbate
dubbatee
dubbateen
dubbateera
dubbatetti
dubbatiin
dubbatte
dubbatti
dubbattu
dubbatu
dubbatus
dubbatutti
dubbatuu
dubbatuun
dubbi
dubbichi
dubbifama
dubbifamaa
dubbifaman
dubbifamu
dubbifamuu
dubbii
dubbiin
dubbisa
dubbisaa
dubbisaan
dubbisamne
dubbisamu
dubbisan
dubbise
dubbisee
dubbisi
dubbistootaa
dubbisu
dubbisuu
dubbisuuf
dubbisuufis
dubbisuun
dubbisuunis
dubbisuus
dubii
dubious
dubiously
dublin
dubra
dubraa
dubree
dubri
dubrii
dubroo
ducal
duchess
duck
duct
dud
duddaa
dudduba
dudduuba
dude
dudgeon
duduba
due
duel
duet
dufachuu
duff
duffer
duffle
dug
dugda
dugdaa
dugdaan
dugdatti
dugommii
dugout
dugugguruu
duguuggaa
duguuguu
duiker
dukaa
dukedom
duker
dukkaana
dukkaanaa
dukkana
dukkanaa
dukkaneesse
dukkanni
dukkuba
dukukaa
dukukooftuu
dulaaba
dulcet
dulcimer
dules
dull
dullaa
dullachaa
dullatti
dulloo
dulloomaa
dullooman
dulloomanii
dulloomaniif
dulloome
dulloomee
dulloomne
dulloomtuu
dulloomuu
dulluma
dullumaa
dullumaatiin
duly
dumb
dumbfounded
dummy
dump
dumpling
dumpy
dun
dunaa
dunbushee
dunce
dunda
dune
dung
dungarees
dungeon
dunghill
dungoo
duniyaalessa
dunk
dunkaana
dunlop
dunna
duo
duodenal
dupe
duplex
duplicate
duplicity
dur
dura
duraa
duraaf
duraan
duraani
duraanii
duraaniitti
duraanuu
duraati
duraatiif
duraatti
duraattis
durable
duran
duras
duration
duratti
durattii
durattis
durayyuu
durba
durbaa
durbee
durbii
durboomte
durboonni
durboota
durbootaa
durbummaa
durdurii
durduriitti
duree
dureedha
dureen
dureessa
dureettii
dureewwan
duress
durfamee
durfamu
durfamuun
durgala
durgoo
duri
durii
duriiti
duriitiin
durin
during
durirraa
durjireessa
durjirreessa
duroo
duroommi
durra
durraf
durrii
dursa
dursaa
dursan
dursanii
dursee
dursitee
dursoo
dursu
dursuu
dursuudhaan
dursuun
duruma
durummaadhaan
duruu
dushanbe
dusk
dust
dustbin
dustcart
duster
dustman
dustpan
dusty
dutch
dutiful
duty
duuba
duubaa
duubaan
duubaatiin
duubaatti
duubatti
duubee
duuchaa
duuchan
duudaa
duudha
duudhaa
duudhaalee
duudhaawwan
duufaa
duuftuu
duufuu
duuka
duukaa
duukaas
duula
duulaa
duulaati
duulan
duule
duulee
duules
duulli
duuloo
duulu
duulummaa
duumessa
duumessaa
duumessi
duune
duuni
duura
duurse
duusel
duuseliin
duute
duuti
duutii
duutu
duuyyaa
duvet
duwwa
duwwaa
duwwaan
duwwummaa
dv
dw
dwarf
dwarfish
dwarfism
dwell
dweller
dwelling
dwindle
dx
dy
dye
dying
dynamic
dynamics
dynamite
dynamo
dynasty
dysentery
dyslexia
dyslexic
dyspepsia
dyspetic
dz
e
e0
e1
e2
e3
e4
e5
e6
e7
e8
e9
ea
each
eage
eager
eagerly
eagerness
eagle
eaglet
ear
earache
eardrum
earful
earl
earlobe
early
earmark
earn
earned
earner
earnest
earnings
earphone
earpiece
earplug
earring
earth
earthbound
earthen
earthenware
earthly
earthquake
earthquaken
earthquakiin
earthworm
earwax
ease
easel
easily
east
easter
eastern
eastward
easy
easygoing
eat
eatable
eaten
eater
eau
eaves
eavesdrop
eb
ebb
ebelee
ebifamee
ebla
eblaa
ebola
ebony
ebov
ebullient
ec
eccentric
ecclesiastic
echelon
echinococcosis
echinococcus
echo
eclair
eclectic
eclipse
ecole
ecology
economical
economics
economist
economize
economy
ecosystem
ecstasy
ectoplasm
ecumenical
eczema
ed
eda
edaa
edaanu
edaasa
eddattoo
eddattootti
eddoo
edduu
eddy
ededa
edegoo
edema
eden
edenbiraa
edesa
edge
edgeways
edging
edgy
edha
edible
edict
edifice
edify
ediisen
edinburgh
edirne
edisen
edison
edit
edited
edition
editor
editorial
edman
eds
edu
educate
educated
education
edward
ee
eebantuu
eebba
eebbaa
eebbaan
eebban
eebbi
eebbifamaa
eebbifaman
eebbifame
eebbifamee
eebbifameen
eebbifamtuu
eebbifatanii
eebbisa
eebbisaa
eebbisaan
eebbisan
eebbisanii
eebbiseera
eebbisu
eebbisuu
eebbisuuf
eebila
eeboo
eedanii
eedha
eee
eef
eefi
eefii
eefis
eega
eegaa
eegaan
eegala
eegalaa
eegalan
eegalanii
eegale
eegalee
eegaleera
eegalle
eegalte
eegaltee
eegaltuu
eegalu
eegaluu
eegaluuf
eegaluun
eegama
eegamaa
eegaman
eegamanii
eegame
eegametti
eegamne
eegamu
eegamuu
eegamuudha
eegan
eeganii
eeganis
eeganoo
eegasii
eegdee
eegdota
eegdu
eegduu
eege
eegee
eegeetti
eeggachaa
eeggachuu
eeggachuuf
eeggamaa
eeggamu
eeggannaa
eeggannaadhaan
eegganne
eeggannoo
eeggannoodhaan
eeggannoodhan
eeggannoof
eeggannoon
eeggata
eeggataa
eeggatan
eeggatanii
eeggate
eeggatee
eeggattuu
eeggatu
eegi
eegin
eegne
eegoo
eegu
eeguf
eegumsa
eegumsi
eegutti
eeguu
eeguudha
eeguudhaan
eeguuf
eeguun
eeguutti
eehama
eejjaa
eekka
eekkaa
eeksi
eel
eela
eelaa
eelee
eelle
eema
eemiti
een
eenaba
eenabaa
eeni
eenii
eenis
eenyu
eenyufaa
eenyullee
eenyummaa
eenyummaan
eenyummeessaa
eenyuniyyuu
eenyuttiyyuu
eenyuttuu
eenyutu
eenyuu
eenyuuf
eenyuufaa
eenyuufiyyuu
eenyuun
eenyuuniyyuu
eenyuuyyuu
eenyuyyuu
eera
eeraa
eeramne
eeramuu
eerga
eerie
eeritiraan
eerraa
eertiraa
eertiraan
eertoo
eertuu
eeru
eeruu
eeruuf
ees
eesaa
eeshee
eeshiyaa
eeshiyaan
eeshiyaatikii
eeshiyaatti
eeshiyicha
eessa
eessaa
eessatti
eessattu
eessayyuu
eessituu
eessoo
eessotaa
eessu
eessuma
eessumaa
eessumaatti
eessumasaa
eessummaa
eessumni
eessumoota
eessuu
eessuuf
eet
eetan
eeti
eetifii
eetii
eetin
eetti
eetu
eeyee
eeyyama
eeyyamamaa
eeyyamameef
eeyyamamne
eeyyamamuu
eeyyaman
eeyyamaniif
eeyyame
eeyyamuu
eeyyamuufillee
eeyyee
eeyyeen
eez
eezzoo
ef
efface
effect
effective
effects
effectual
effeminate
effervescent
effete
efficacious
efficacy
efficiency
efficient
effigy
effluent
effort
effortless
effrontery
effusion
effusive
eg
egaa
egaan
egalee
egalitarian
eger
egeree
egg
eggama
egghead
eggplant
ego
egocentric
egoist
egoistic
egotism
egotist
egregious
egypt
eh
ei
eiderdown
eight
eighteen
eighteenth
eighth
eightieth
eighty
either
ej
ejaculate
ejazi
eject
ejensii
ejeree
ejereetin
ejersa
ejersaa
ejja
ejjaa
ejjechaa
ejjennoo
ejjennoon
ejjeta
ejjetan
ejjetanii
ejjituu
ejju
ejjummaa
ejjuu
ek
eke
ekeraa
ekkaa
eksi
eksicheenjii
eksipermentii
el
ela
elaa
elaam
elaborate
elan
eland
elapse
elastic
elated
elation
elative
elba
elbow
elchuu
elder
elderly
elders
elect
election
electioneering
elective
elector
electorate
electric
electrical
electrician
electricity
electrification
electrify
electrocute
electrocution
electrode
electrolyte
electrolytes
electromagnetic
electron
electronic
electronics
electrophoresis
eleektriikii
elegant
elegiac
elegy
elektiriikii
elektiriin
elektirik
elektirikaal
elektirikaalii
elektirikii
elektirikiin
elektirikiitii
elektirikiitti
elektirisiitii
elektirkii
elektiromeetirii
elektiroo
elektiroodii
elektiroodonni
elektiroodota
elektirookeemikaalaa
elektirookemistirii
elektiroolaayitii
elektiroolaayitiin
elektiroomaagineetiik
elektiroomaagnineetii
elektiroomakaanikaalii
elektiroonii
elektirooniik
elektiroonik
elektiroonikii
elektiroonikiin
elektiroonikiitti
elektirooniksi
elektirooniksii
elektirooniksiin
elektiroonin
elektiroostaatiik
elektrikaalii
elektriki
elektrikii
elektrikiitti
elellaa
elellee
elemaa
element
elementary
elementii
elementiin
elementota
elementotaa
elemoo
elemoon
elemoonis
elemoorraa
elena
elephant
elephantiasis
elephantine
elevate
elevation
elevator
eleven
eleventh
elf
elicit
eligible
elii
eliin
eliminate
elimination
elision
elite
elitism
elitti
elixir
eliyuud
elizabeth
elk
elle
ellee
ellektiriiki
ellektiriikii
ellektiriikiidhaan
ellektiriikiin
ellektiriikiitti
ellektirikii
ellektiroo
ellen
elli
elliott
ellipsis
elm
elmamus
elmiinaa
elmituu
elmuu
elocution
elongate
elootaa
elope
elopement
eloquence
eloquent
else
elsevier
elsewhere
elucidate
elucidation
elude
elusive
em
emaciate
emaciated
emanate
emancipate
emancipation
emasculate
emasculation
embalm
embankment
embargo
embark
embarrass
embarrassment
embasii
embassy
embattled
embed
embeded
embellish
ember
embezzle
embezzlement
embitter
emblazon
emblem
emblematic
embodiment
embody
embolden
embossed
embrace
embroider
embroil
embryo
embryology
emdb
emend
emendation
emerald
emerge
emergence
emergency
emerging
emeritus
emery
emetic
emf
emigrant
emigration
emiila
emil
eminence
eminent
emir
emissary
emissions
emit
emmer
emmitter
emmoo
emollient
emolument
emotion
emotional
emotive
empathize
empathy
emperor
emphasis
emphasize
emphatic
emphatically
empire
empires
empirical
emplacement
employ
employed
employee
employer
employment
emporium
empower
empress
emptiness
emptor
empty
emu
emulate
emulsion
en
enable
enact
enactment
enamel
enamelii
enameliin
enamoured
encamp
encampment
encapsulate
encase
enchant
enchanter
enchanting
enchantment
enchantress
encircle
enclave
enclose
enclosure
encompass
encore
encounter
encourage
encouraging
encroach
encrustation
encrusted
encumber
encyclopaedia
encyclopedia
encyclopædia
end
endanger
endear
endearment
endeavour
endemic
ending
endive
endless
endocrine
endorse
endorsement
endothelial
endow
endowment
endurance
endure
enema
enemy
energetic
energise
energy
energyiin
enervate
enfeeble
enfeldi
enfold
enforce
enfranchise
engage
engagement
engaging
engelkirk
engender
engine
engineer
engineering
england
english
englizii
engrave
engross
engulf
enhance
enhancement
eniac
eniacn
enigma
enjoin
enjoy
enjoyment
enlarge
enlighten
enlist
enliven
enmesh
enmity
ennaa
ennoble
enormity
enormous
enough
enquire
enquirer
enquiries
enquiry
enrage
enrapture
enrol
enrolling
enrollment
enrolment
ensconce
ensemble
enshrine
ensign
enslaved
ensnare
ensue
ensure
entail
entangle
entangled
entente
enter
enterprise
entertain
entertainer
entertainment
enthrall
enthrone
enthuse
enthusiasm
enthusiastic
entice
entire
entirely
entitle
entity
entomb
entomology
entoto
entourage
entrails
entrance
entrant
entrap
entreat
entreaty
entree
entrench
entrepreneur
entrust
entry
entwine
enumerate
enunciate
envelope
envious
environment
environmental
environs
envisage
envoy
envy
enxooxxoo
enzaayimii
enzyme
eo
ep
epaulette
ephemera
epic
epicenter
epicenteriin
epicure
epidemic
epidemiol
epidemiological
epidemiology
epidermis
epidural
epiglottis
epigram
epilepsy
epilogue
epiphany
episteme
epistle
epitaph
epithet
epitome
epoch
eprp
eq
equable
equal
equality
equalize
equally
equanimity
equate
equation
equator
equerry
equestrian
equidistant
equilateral
equilibrium
equine
equinox
equip
equipment
equitable
equity
equivalence
equivalent
equivocal
equivocate
er
era
eradicate
eradication
erase
eraser
erbee
erbeen
erbuu
ere
erect
erection
erer
erga
ergaa
ergaan
ergaawwan
ergama
ergamaa
ergamaan
ergaman
ergame
ergamee
ergamoonni
ergamoota
ergamtoonni
ergamtoota
ergamtuu
ergamu
ergamuuf
ergan
erganii
ergaramaa
ergaramtuu
ergasii
ergative
erge
ergee
ergeef
ergi
ergifachuu
ergifanna
ergifannaa
ergifatame
ergifatamee
ergiffanne
ergisa
ergissan
ergisuu
ergite
ergitu
ergo
ergonomics
ergu
erguu
erguuf
erguun
eri
erica
erick
eriis
eritrea
ermine
ernesti
erobiik
erobiikii
erobiksii
erode
erogenous
eroobiikii
erosion
erotic
err
erra
erraa
erraan
errand
erratic
erratti
erratum
erritirosaayitis
erroneous
error
ersatz
ertiraa
erudite
erudition
erupt
eruption
es
escalate
escalation
escalator
escalope
escapade
escape
escapee
escapism
escarpment
eschew
escoces
escort
eshiiyyaa
eshiyaa
eshiyaatiik
eshiyaatti
esophagus
esoteric
espalier
esparanto
esparanton
especial
especially
esperanto
espionage
esplanade
espouse
espresso
essa
essay
essencee
essential
essuu
establish
established
establishment
estate
esteem
estimable
estimate
estimation
estonian
estrange
estranged
estrus
estuary
et
etc
etch
etd
eternal
eternally
eternity
ether
ethereal
ethic
ethics
ethiopia
ethiopian
ethiopias
ethnic
ethnical
ethnicity
ethnocentric
ethnography
ethnomedicinal
ethos
etienne
etiolated
etiquette
etti
etu
etymology
eu
eucalyptus
eucharist
eugenics
eukaryotic
eulogize
eulogy
eunuch
euphemism
euphorbia
euphoria
euphoric
euprotomicrus
euro
europe
european
eusapia
eutelsat
eutric
ev
eva
evacuate
evacuee
evade
evaluate
evaluation
evaluator
evanescent
evangelical
evangelist
evans
evaporate
evaporation
evasion
evasive
evd
eve
even
evening
evenly
event
eventful
eventual
ever
everlasting
evermore
every
everybody
everyday
everyone
everything
everywhere
evict
evidence
evident
evil
eviscerate
evoke
evolution
evolve
ew
ewe
ewer
ex
exacerbate
exact
exactitude
exactly
exaggerate
exaggeration
exalt
exaltation
exam
examination
examine
example
exasperate
exasperating
exasperation
excavate
excavator
exceed
excel
excellence
excellent
except
exception
exceptional
excerpt
excess
excessive
exchange
excise
excitable
excite
excitement
exclaim
exclamation
exclude
exclusive
exclusively
excommunicate
excoriate
excrement
excrete
excretion
excruciating
excursion
excuse
execrable
execute
execution
executive
exemplary
exemplify
exempt
exercise
exert
exertion
exeunt
exhale
exhaust
exhausted
exhausting
exhaustion
exhaustive
exhibit
exhibition
exhilarate
exhilarating
exhort
exhumation
exhume
exigency
exiguous
exile
exist
existence
existent
exit
exodus
exonerate
exorbitant
exorcize
exotic
expand
expanse
expansion
expatriate
expect
expectant
expectation
expected
expectorant
expedient
expedite
expedition
expel
expend
expendable
expenditure
expenses
expensive
expensiveness
experience
experienced
experiment
experimental
experiments
expert
expiate
expiration
expire
expiry
explain
explanation
explanatory
expletive
explicable
explicate
explicit
explicitly
explode
exploit
exploitation
exploration
explore
explored
explorer
exploring
explosion
explosive
export
exporter
expose
exposed
exposition
expostulate
exposure
expound
express
expression
expressionism
expressive
expropriate
expulsion
expunge
expurgate
exquisite
extant
extempore
extemporize
extend
extendable
extension
extensive
extensively
extent
extenuating
exterior
extermination
external
extinct
extinguish
extinguisher
extirpate
extol
extort
extortionate
extra
extract
extraction
extradite
extramarital
extramural
extraneous
extraordinary
extrapolate
extrasolar
extraterrestrial
extravagant
extravaganza
extreme
extremis
extremist
extricate
extrinsic
extrovert
extrude
exuberant
exude
exult
exultation
ey
eye
eyeball
eyebrow
eyed
eyeglass
eyeglasses
eyelash
eyelet
eyelid
eyepiece
eyes
eyesight
eyesore
eyewash
eyrie
eyyu
eyyuu
ez
f
f0
f1
f2
f3
f4
f5
f6
f7
f8
f9
fa
faa
faadha
faafam
faaggaa
faajja
faajjessu
faajjessuu
faajjii
faakaaltii
faakaltii
faalaa
faalama
faalaman
faalame
faalamee
faalamne
faalamnii
faalamuun
faallaa
faallama
faallaman
faallamanii
faallame
faallamee
faallamuu
faaluu
faan
faana
faanaa
faandaan
faandaanfaa
faandaani
faandaanii
faandaaniif
faandaanis
faandaanonni
faandaanota
faanni
faantii
faaqqee
faaqqisuu
faara
faarfachaa
faarfachuu
faarfama
faarfamaa
faarfannaa
faarfataa
faarfatamu
faarfattoota
faarfattuu
faarmaasii
faarsa
faarsaa
faarsu
faarsuu
faaruu
faaruun
faashinii
faashistii
faasigaa
faasiikaa
faasikaa
faasiladas
faatee
faati
faatii
faatiin
faatin
faattii
faaxima
faaximaa
faaxumaa
faaya
faayaa
faayaadhaaf
faayaalee
faayaan
faayaatti
faayame
faayeessuu
faayeffame
faayessuu
faayibiriinin
faayibriiniin
faayibrinoojiin
faayidaa
faayidaan
faayidaarra
faayila
faayyisaa
fab
fable
fabric
fabricate
fabrication
fabulous
faca
facaafattu
facaasa
facaasaa
facaasanii
facaase
facaasee
facaasu
facaasuu
facaatii
facade
faccisaa
faccisan
face
facebook
faced
facet
facetious
fachaaftee
facial
facile
facilitate
facilitator
facility
facing
facsimile
fact
factbook
faction
factitious
facto
factor
factors
factory
factotum
facts
factsheet
factual
faculty
fad
faddaalaa
faddy
fade
fadhatamaa
fadis
fadisitti
faduluma
faduu
faeces
fafa
fafaa
fafakkaatan
fafakkaatanii
fafakkaataniin
fafakkaatanitti
fafakkatan
faffaca
fafni
fag
fagaachuu
fagaachuun
fagaadhee
fagaanne
fagaara
fagaaraa
fagaata
fagaatanii
fagaate
fagaatee
fagaatiin
fagaattee
fagaatti
fagaattu
fagaatu
fageeffate
fageenya
fageenyaa
fageenyaan
fageenyi
fageessanii
fageesse
fageessee
fageessii
fageessuu
faggena
faggot
fagoo
fagoodhaa
fagoorraa
fagootti
fahrenheit
fail
failing
failure
faint
fair
faire
fairground
fairly
fairy
faith
faithful
faithfulness
faithless
fajajaa
fak
fakakkaatan
fake
fakeenyii
fakii
fakk
fakkaachaa
fakkaachun
fakkaachuu
fakkaachuudhaan
fakkaachuuf
fakkaachuufis
fakkaadha
fakkaadhee
fakkaadheen
fakkaanna
fakkaanne
fakkaata
fakkaataa
fakkaatan
fakkaatanii
fakkaataniif
fakkaataniin
fakkaatanin
fakkaatanitti
fakkaate
fakkaatee
fakkaateera
fakkaatiin
fakkaatoo
fakkaatte
fakkaatti
fakkaattii
fakkaattu
fakkaatu
fakkaatun
fakkaatutti
fakkaatuu
fakkaatuuf
fakkaatuun
fakkatan
fakkataniif
fakkataniin
fakkatee
fakkatte
fakkattu
fakkatu
fakkeeffamee
fakkeennaaf
fakkeenya
fakkeenyaa
fakkeenyaaf
fakkeenyaatti
fakkeenyaf
fakkeenyummaa
fakkeessa
fakkeessaa
fakkeessan
fakkeessanii
fakkeesse
fakkeessee
fakkeessitee
fakkeessituu
fakkeessu
fakkeessuu
fakkeessuuf
fakkena
fakkenafi
fakkeni
fakkenya
fakkenyaaf
fakki
fakkii
fakkiidhaan
fakkiilee
fakkiin
fakkiiwwan
fakkin
fakkisa
fakkoommii
fal
fala
falaasaa
falaasama
falaasamaa
falaasamni
falammii
falamsiisu
falaxuu
falcon
falfala
falfalaa
falfaltuu
falka
falkaa
fall
fallaana
fallacious
fallacy
fallessituu
falli
fallible
falling
fallopian
fallout
fallow
falmaa
falmachaa
falmachuu
falman
falmatu
falmee
falmii
falmiif
falmiin
falmisiifne
falmisiisaa
falmisiisne
falmisiistuu
falmu
falmuf
falmuu
falmuun
falquu
false
falsehood
falsetto
falsies
falsify
falter
faltii
faltiin
faltiitii
fame
famed
familiar
families
family
famine
famous
fan
fana
fanatic
fanaticism
fancier
fanciful
fancy
fandalala
fandalalaan
fandalaluu
fandii
fanfare
fangasii
fangs
fanlight
fannifaman
fannifamanii
fannifame
fannifamu
fannifatan
fannisamu
fannisan
fannisanii
fannisuu
fannoo
fantaallee
fantasise
fantastic
fantasy
fanxoo
fanzine
far
fara
faradaay
farafaangoo
farah
farajaa
farangagaa
farangagsaa
faranjichi
faranjii
faransaay
faransaayi
faransaayii
faransaayiif
faransaayiin
faransaayitti
farce
farda
fardaa
fardaaf
fardaan
fardaatti
fardasaa
fardeen
fardi
fardii
fare
farewell
farm
farmer
farmers
farmhouse
farming
farmland
farmstead
farmyard
faroo
farra
farrago
farrar
farroo
farsoo
fart
farther
farthest
fas
fascinate
fascinating
fascism
fascist
fashalaa
fashion
fast
fasten
fastener
fastening
fastidious
fasting
fastness
fat
fatal
fatalism
fate
father
fatherhood
fatherland
fathom
fathul
fatigue
fatigued
fatigues
fatness
fatted
fattee
fatten
fatty
fatuous
faucet
fault
faultless
faulty
faun
fauna
fausto
favor
favourable
favourite
fawn
fax
faxnoo
fayidaa
fayili
fayya
fayyaa
fayyaadhaaf
fayyaaf
fayyaaleessa
fayyaalessa
fayyaas
fayyaatti
fayyada
fayyadaa
fayyadama
fayyadamaa
fayyadamaan
fayyadaman
fayyadamane
fayyadamani
fayyadamanii
fayyadame
fayyadamee
fayyadamiin
fayyadamin
fayyadamna
fayyadamne
fayyadamnee
fayyadamni
fayyadamnu
fayyadamte
fayyadamtee
fayyadamti
fayyadamtoonni
fayyadamtoota
fayyadamtotta
fayyadamtu
fayyadamu
fayyadamudhaan
fayyadamuf
fayyadamuu
fayyadamuudhaan
fayyadamuudhan
fayyadamuudhani
fayyadamuuf
fayyadamuun
fayyadan
fayyadatama
fayyadatamne
fayyadatamu
fayyaddu
fayyadne
fayyadu
fayyaduu
fayydamuun
fayye
fayyee
fayyida
fayyidaa
fayyidan
fayyina
fayyine
fayyisa
fayyisaa
fayyisaan
fayyisaatiin
fayyisuu
fayyisuun
fayyummaa
fayyutti
fayyuu
faze
fb
fbi
fc
fd
fdg
fe
fear
fearful
fearless
fearsome
feasible
feast
feat
feather
feathery
feature
features
feb
febrile
februar
february
fececuu
feces
feckless
fecund
fed
federaala
federaalaa
federaalaawa
federaalawaa
federaalistii
federal
federalism
federation
federeeshinii
federeeshiniin
fedha
fedhaa
fedhan
fedhanitti
fedhe
fedhi
fedhii
fedhiidhaan
fedhiin
fedhiinsaa
fedhiisaa
fedhu
fedhuu
fee
feeble
feecoo
feed
feedbag
feeder
feeders
feedhii
feeding
feel
feeling
feelings
feene
feenu
feerchaayildi
feerroomaagineetik
feet
feeta
feete
feetii
feetu
feign
feint
fekadu
feldspar
felicitations
felicitous
felicity
feline
felix
fell
fellatio
fellencoo
fellow
fellowship
felon
felony
felt
female
females
feminine
feminism
feminist
fen
fence
fend
fender
fennel
fenugreek
fenwick
feral
ferdinaand
ferment
fermentation
fern
fernaa
fernandez
ferocious
ferocity
ferret
ferrule
ferryman
fertile
fertilise
fertility
fertilization
fertilizer
fertilizers
fervent
fervour
fesashi
fester
festival
festivity
festoon
fet
fetch
fetching
fete
fetid
fetish
fetishist
fetlock
fetter
fettle
feud
feudalism
fever
few
fey
fez
ff
ffa
ffaa
ffaan
ffaarra
ffaarraa
ffaatii
ffaatti
ffat
ffatti
fg
fh
fi
fia
fiance
fiancee
fiasco
fiat
fib
fibber
fiber
fibers
fibonaachii
fibres
fibrin
fibrinogen
fichaa
fickle
fiction
fictional
fictitious
fida
fidaa
fidan
fidanii
fidde
fiddee
fiddle
fiddly
fiddoo
fiddu
fidduu
fide
fidee
fidelity
fidget
fidgety
fidi
fidii
fidiin
fidne
fidu
fiduu
fiduudhaan
fiduudhan
fiduuf
fiduun
field
fieldwork
fiend
fiendish
fierce
fiery
fifa
fifan
fife
fifteen
fifteenth
fifth
fiftieth
fifty
fig
fight
fighter
fighting
figment
figurative
figure
figures
figurine
fii
fiibonaachii
fiichee
fiicheetti
fiida
fiiga
fiigaa
fiigan
fiiganii
fiigduu
fiige
fiigee
fiigicha
fiigichaa
fiigichaaf
fiigichi
fiigichoo
fiigu
fiigudhaan
fiigun
fiiguu
fiildi
fiildii
fiildiin
fiilimii
fiilmi
fiilmii
fiilmiifi
fiilmiin
fiilmin
fiilmirratti
fiilmotaa
fiinlaandi
fiinxee
fiitii
fiixa
fiixaan
fiixe
fiixee
fiixeen
fiizikaala
fiizikaalaa
fiiziksii
fiiziksiin
fiizisistii
filaa
filaadelfiyaa
filaashii
filaaworsi
filachaa
filachuu
filachuuf
filadhaa
filadhe
filadhee
filame
filannaa
filannoo
filannoon
filannootti
filata
filataa
filatama
filatamaa
filataman
filatamanii
filatame
filatamee
filatamin
filatamte
filatamtee
filatamuu
filatamuun
filatan
filatanii
filate
filatee
filatu
filatuu
filch
file
filee
files
filial
filigree
filiip
filiippi
filima
filimii
filings
filippiinsi
filisxeem
fill
fillano
fillate
filler
fillet
filling
filly
film
filmaata
filmaatni
filmii
filmiin
films
filoo
filoosofera
filoosoofera
filoosoofii
filootingi
filoovaayiresii
filorence
filter
filtered
filth
filthy
filtration
filu
filuu
filuun
filwuha
fime
fin
final
finale
finalise
finalist
finally
finance
financial
financially
finca
fincaa
fincaan
fincaanii
fincaaniitii
fincaanitti
fincaanuu
finch
finchaa
fincila
fincilaa
fincilli
finciltoonni
finciltoota
finciluu
find
finding
fine
finery
finesse
finfineetti
finfinne
finfinnee
finfinneedhaa
finfinneefi
finfinneen
finfinneerraa
finfinneerratti
finfinneetti
finfinneettis
finfinnetti
finger
fingering
fingernail
fingerprint
fingertip
finicky
finiinaa
finiinsaa
finiinse
finiinsuun
finiinu
finish
finite
finjaala
finn
finna
finniisa
finniisaa
finnisa
finnisaa
finyoo
finyootti
fiqhi
fiqhii
fir
fira
firaa
firaaf
firaakshinii
firaank
firaanki
firaankiliin
firaankoo
firaansi
firaansif
firaansiin
firaansin
firaansis
firaansitti
firaashii
firammaa
fire
firearm
firebrand
firecracker
fireediriik
fireench
fireenchi
fireenii
firefly
firefox
firelight
fireman
fireplace
fireproof
firewood
fireworks
firfirsan
firfirsuu
firi
firidiriish
firii
firing
firinxiixaa
firm
firma
firmament
firmly
firmness
firooma
firoommii
firoonni
firoota
firoottan
firri
first
firsthand
firummaa
fiscal
fish
fisher
fisherman
fishery
fishiinii
fishiiniidhaaf
fishiiniitti
fishing
fishmonger
fishnet
fishy
fissile
fissure
fist
fisted
fistful
fit
fitawuraari
fitawuraarii
fitful
fitment
fitnaa
fitness
fitted
fitter
fitting
five
fiver
fiwudaalaa
fix
fixa
fixaa
fixan
fixaniif
fixated
fixatee
fixation
fixative
fixe
fixed
fixedly
fixee
fixeensa
fixer
fixetu
fixiinsa
fixin
fixing
fixne
fixnee
fixture
fixu
fixuu
fixuuf
fixuun
fixxe
fiyuul
fiyuuzii
fiyuuzyinii
fizz
fizzle
fizzy
fj
fk
fkn
fl
flab
flabbergast
flabby
flaccid
flag
flagellate
flagellating
flagged
flagon
flagrant
flagship
flagstaff
flagstone
flail
flair
flak
flake
flamboyant
flame
flamingo
flammable
flammarion
flange
flank
flannel
flannelette
flap
flapjack
flapper
flare
flash
flashback
flasher
flashlight
flashy
flask
flat
flatlet
flatten
flatter
flatterer
flattery
flatulent
flaunt
flautist
flavor
flavored
flavour
flavouring
flaw
flax
flaxen
flay
flea
fleck
fledged
fledgling
flee
fleece
fleet
fleeting
flesh
fleshy
flex
flexibility
flexible
flexitime
flibbertigibbet
flick
flicker
flight
flightless
flighty
flimsy
flinch
fling
flint
flip
flippant
flipper
flirt
flirtation
flirtatious
flirting
flit
float
floating
flock
floe
flog
flood
floodgate
flooding
floodlight
floor
flooring
flop
floppy
flora
floral
florence
florid
florist
floss
flotation
flotilla
flotsam
flounce
flounder
flour
flourish
flout
flow
flower
flowered
flowering
flowery
fluctuate
fluctuation
flue
fluency
fluent
fluff
fluffy
fluid
fluids
fluke
flummox
flunk
fluorescent
fluoride
fluorine
flurry
flush
fluster
flute
flutter
fluvial
flux
fly
flyiif
flying
flyleaf
flywhisk
fm
fn
fo
foal
foam
fob
focal
focoo
focus
foddaa
fodder
fodooddoo
foduu
foe
foetus
fog
foggy
foible
foil
foist
fokkataa
fokkataan
fokkisaa
fokkistuu
fokkuu
foksoo
fold
folder
folding
foliage
folio
folk
folklore
folklorist
folksy
follicle
follow
follower
followers
following
follows
folly
folodaa
folodduu
foloduu
foment
foncaa
foncaadhaan
fond
fondant
fondle
foneeshiyaa
fonii
fonqolcha
fonqolchi
fonqolchuu
font
fontanelle
fony
food
foodstuff
fooggalaa
fooggaluu
fool
foolhardy
foolii
fooliin
foolish
foolishness
foollee
foolproof
foolscap
foon
foonaa
foonii
fooniin
foonni
foonsaa
fooqii
fooqqisuu
fooricuu
foormulaa
foormulaan
foorti
foosfeetii
foot
footage
football
footbridge
footed
footfall
foothill
foothold
footing
footlights
footloose
footman
footnote
footokoppii
footoo
footoogiraafii
footoon
footosinteesisii
footprint
footsore
footstep
footuu
footwear
fooxaa
fooyilii
fooyituu
fooyya
fooyyeessuuf
fooyyessa
fooyyessanii
fooyyesse
fooyyessu
fooyyessuu
fooyyessuuf
fooyyessuun
fop
foqi
for
forage
foray
forbear
forbearing
forbid
forbidden
force
forceful
forceps
forces
forcible
ford
fore
forearm
foreboding
forecast
forecaster
forecourt
forefather
forefinger
forefoo
forefront
foregone
foreground
forehand
forehead
foreign
foreigner
foreknowledge
foreleg
forelock
foreman
foremost
forename
forenoon
forensic
foreplay
forerunner
foresee
foreseeable
foreshadow
foresight
foreskin
forest
forestall
forester
forestry
foretaste
foretell
forethought
forever
forewarn
foreword
forfeit
forge
forgery
forget
forgetful
forgetfulness
forgivable
forgive
forgiveness
fork
forlorn
form
forma
formal
formaldehyde
formalin
formalise
formality
format
formation
formative
former
formerly
formica
formication
formidable
formless
formula
formulan
formulate
fornicate
fornicator
forsake
forswear
fort
forth
forthcoming
forthright
forthwith
fortieth
fortification
fortified
fortify
fortitude
fortnight
fortress
fortuitous
fortunate
fortunately
fortune
forty
forum
forward
fossil
fossilize
foster
fottoksuu
fottoqsuu
foul
found
foundation
founded
founder
foundling
foundry
fount
fountain
four
fourfold
foursome
fourteen
fourteenth
fourth
fowl
fox
foxhole
foxhound
foxx
foxxn
foxy
foyer
foyya
fp
fq
fr
fracas
fraction
fractious
fracture
fractured
fragile
fragment
fragmentary
fragrance
fragrant
frail
frailty
frakincense
frame
framework
franca
france
francesco
franchise
francolin
francophone
frank
frankel
frankly
franny
frantic
fraternal
fraternity
fraternize
fratricidal
fratricide
fraud
fraudulent
fray
frazzled
freak
freaky
freckle
frederic
frederick
free
freed
freedom
freehold
freely
freeman
freemason
freethinker
freetown
freeze
freezer
freight
freighter
freightliner
french
frenetic
frenzy
frequency
frequent
frequently
fresco
fresh
freshen
freshman
fret
fretful
fretwork
friable
friar
friary
friction
frida
friday
friedman
friedrich
friend
friendliness
friendly
friendship
frieze
frigate
frighten
frightened
frightening
frightful
frigid
frill
fringe
frippery
frisk
frisky
fritter
frivolous
frizz
fro
frock
frog
frogman
frogmarch
froid
frolic
from
front
frontage
frontal
frontier
frontispiece
frost
frostbite
frosting
froth
frown
frozen
frugal
fruit
fruiterer
fruitful
fruition
fruitless
fruity
frump
frustrate
frustrated
frustrating
frustration
fry
fryer
frying
fs
ft
fu
fuchii
fuck
fucking
fucungee
fuddled
fudee
fudge
fudha
fudhachaa
fudhachiisu
fudhachiisuu
fudhachu
fudhachuf
fudhachuu
fudhachuudha
fudhachuudhaan
fudhachuudhan
fudhachuuf
fudhachuun
fudhachuuu
fudhacuun
fudhadha
fudhadhe
fudhadhee
fudhadhu
fudhama
fudhanne
fudhannee
fudhata
fudhataa
fudhatama
fudhatamaa
fudhataman
fudhatame
fudhatamee
fudhatamne
fudhatamni
fudhatamu
fudhatamummaa
fudhatamuu
fudhatamuudhaan
fudhatan
fudhatanii
fudhataniif
fudhatanin
fudhate
fudhatee
fudhateera
fudhaterra
fudhatetti
fudhatin
fudhatte
fudhattee
fudhatterra
fudhatti
fudhattu
fudhattuu
fudhatu
fudhatuu
fudhatuuf
fudhatuun
fudhe
fudhee
fudhu
fudraa
fudraalee
fuduraa
fuduraalee
fuel
fufa
fufaa
fufaan
fufan
fufanii
fufata
fufe
fufee
fufeera
fufees
fufi
fufiinsa
fufinsa
fufinsaan
fufne
fufnu
fufsiisin
fufte
fuftee
fuftu
fufu
fufuu
fufuudhaan
fufuuf
fufuun
fug
fuggisoo
fugguu
fugitive
fugl
fugnan
fugug
fuh
fukui
fula
fulaa
fulbaana
fulbaanaa
fulbaanaatti
fulcrum
fuldura
fulduraa
fulduraatiif
fulduraatti
fulduratti
fulfil
fulfill
full
fulla
fullaa
fullaasaa
fullaasu
fullee
fulli
fully
fulsome
fumble
fume
fumigate
fumigated
fumigation
fun
funaan
funaanan
funaananii
funaantuu
funaanu
funaanuu
function
functional
functionary
functions
fund
fundamementalist
fundamental
fundamentalism
fundamentals
funded
funee
funeral
funerary
funereal
fungicide
fungus
funnel
funny
funyaan
funyaanii
funyaaniif
funyaaniin
funyaanitti
funyoo
fur
fura
furaa
furamuuf
furan
furatan
furdaa
furdina
furdinni
furdisanii
furdisuu
furfuur
furgaasaa
furgoo
furguffamee
furguggee
furii
furious
furiously
furiyoo
furl
furlough
furmaata
furnace
furnish
furniture
furnoo
furor
furore
furrii
furrisa
furrow
furry
further
furthermore
furthest
furtive
furtuu
furudha
furuncle
furuu
furuuf
furuun
fury
fuse
fusion
fuss
fussy
fustian
fusty
futee
futile
futtaafachuu
future
futurism
futuristic
futurity
fuudha
fuudhaa
fuudhaaf
fuudhaf
fuudhame
fuudhan
fuudhanii
fuudhanitti
fuudhe
fuudhee
fuudheen
fuudhiin
fuudhinsa
fuudhu
fuudhudhaan
fuudhun
fuudhuu
fuudhuuf
fuudhuun
fuudhuutti
fuul
fuula
fuulaa
fuulaan
fuulatti
fuulbarruu
fuuldura
fuulduraa
fuulduraan
fuulduraatiif
fuulduraatti
fuulduraattis
fuulduratti
fuullee
fuulleedhumatti
fuulleeffannaa
fuulleetti
fuulleffachuudhaan
fuullerraa
fuulli
fuullisaa
fuuluu
fuundura
fuune
fuunee
fuunfachuu
fuuriyee
fuutee
fuutuu
fuzz
fuzzy
fv
fw
fx
fxg
fy
fz
g
g0
g1
g2
g3
g4
g5
g6
g7
g8
g9
ga
gaa
gaabbaa
gaabbee
gaabbii
gaabbiin
gaabbisiisu
gaabbuu
gaachana
gaachanaan
gaadaa
gaaddidduu
gaaddisa
gaaddisaa
gaaddisaan
gaaddisee
gaadduu
gaadi
gaadin
gaaduu
gaaf
gaafa
gaafaa
gaafachaa
gaafachiisu
gaafachuu
gaafachuuf
gaafachuun
gaafadha
gaafadhe
gaafadhu
gaafan
gaafannaan
gaafannoo
gaafannu
gaafas
gaafasii
gaafata
gaafataa
gaafataan
gaafatama
gaafatamaa
gaafatamaan
gaafataman
gaafatame
gaafatamee
gaafatamiin
gaafatamtuu
gaafatamu
gaafatamummaa
gaafatamummaan
gaafatamuu
gaafatamuummaa
gaafatamuun
gaafatan
gaafatanii
gaafate
gaafatee
gaafateen
gaafatiin
gaafatin
gaafatte
gaafatti
gaafattuu
gaafatu
gaafatuu
gaaffi
gaaffii
gaaffiif
gaaffiin
gaaffiiwwan
gaaffilee
gaaffileen
gaafii
gaafni
gaafsana
gaafsanaa
gaafti
gaaftokko
gaaftorboo
gaafuma
gaaga
gaagura
gaagurrii
gaala
gaalaa
gaalaaksii
gaalamootummaa
gaalchu
gaalchuu
gaalee
gaaleen
gaalerii
gaalla
gaallaa
gaallan
gaalli
gaallii
gaaltama
gaamaa
gaambeellaa
gaambiyaa
gaammaa
gaana
gaanaa
gaanfa
gaanfi
gaanfollee
gaanfuree
gaangee
gaangoon
gaanii
gaannaba
gaannamaa
gaansa
gaantii
gaara
gaaraa
gaararraa
gaaratti
gaarayyuu
gaari
gaaridhaan
gaarii
gaariidha
gaariidhaaf
gaariidhaan
gaariin
gaariis
gaariitti
gaarin
gaaritti
gaaromsaa
gaarreen
gaarreenii
gaarreewwan
gaarreewwaniifi
gaarren
gaarrenii
gaarri
gaarrii
gaarummaa
gaarummaan
gaasaraa
gaasi
gaasii
gaasiidhaan
gaasiin
gaasin
gaasooliinii
gaattiraa
gaawus
gaayoo
gaayyaa
gaayyoo
gaaz
gaazaa
gaazeexaan
gaazexaa
gaazexaaf
gaazexaafi
gaazexaan
gaazexeessa
gaazexeessaa
gaazexeessitoonni
gaazexessaa
gaazexessitoonni
gaazexoonni
gaazexoota
gaazii
gaaziin
gaazin
gaazixeessaa
gaazota
gaazzexeessitootaf
gab
gabaa
gabaaba
gabaabaa
gabaabaadhaaf
gabaabaaf
gabaabaan
gabaabaatti
gabaabadha
gabaabadhaaf
gabaabaf
gabaabatti
gabaabbate
gabaabduu
gabaabinaan
gabaaboo
gabaabsamee
gabaabsanii
gabaabsinu
gabaabsuu
gabaabumatti
gabaafame
gabaafameera
gabaajee
gabaalcha
gabaan
gabaarra
gabaasa
gabaasaa
gabaasan
gabaase
gabaasetti
gabaasni
gabaastuu
gabaasu
gabaasuu
gababa
gabajee
gabardine
gabarii
gabaro
gabaroo
gabatee
gabateen
gabayyoo
gabayyoon
gabbaa
gabbara
gabbaraa
gabbarra
gabbarri
gabbaruu
gabbata
gabbina
gabbis
gabbisi
gabbisuu
gabbisuuf
gabbisuun
gabble
gabne
gaboo
gabra
gabraa
gabramaaram
gabramaariyaam
gabrasillaasee
gabree
gabriel
gabroomfataan
gabroomsan
gabroomsu
gabrumma
gabrummaa
gabrummaan
gabu
gachii
gad
gada
gadaa
gadaamii
gadaamoojjiin
gadaan
gadaanaa
gadaati
gadaatin
gadaatti
gadaattis
gadabii
gadabitti
gadadoo
gadameessa
gadameessaa
gadamsa
gadamsaa
gadamsi
gadareessa
gadda
gaddaa
gaddaan
gaddan
gadde
gaddee
gaddeef
gaddi
gaddii
gaddiitti
gaddine
gaddisiisa
gaddisiisaa
gaddisiise
gaddisiisu
gaddisiisuu
gaddisiisuun
gaddisisaa
gaddisisuu
gaddisisuun
gaddite
gaddu
gadduu
gadduumii
gadduun
gadee
gadfly
gadget
gadhee
gadheedhaan
gadheef
gadheen
gadhees
gadheetiif
gadheetti
gadhifame
gadhifamu
gadhiifne
gadhiisa
gadhiisan
gadhiisanii
gadhiisee
gadhiisii
gadhiisuun
gadhummaa
gadi
gadigaloo
gadii
gadiin
gadiirra
gadiiti
gadiitii
gadiitoo
gadiitti
gadiittin
gadilakkifamu
gadin
gaditti
gadlakkisee
gadoo
gadooduu
gadooma
gadulessa
gafarsa
gafarsaa
gafarsi
gaffe
gaffer
gafii
gag
gaga
gagaa
gaggaafachisne
gaggaarii
gaggaariin
gaggabaabaa
gaggabaabduu
gaggabaaboo
gaggabdee
gaggabdoo
gaggabee
gaggaragalchanii
gaggaragalchee
gaggaragalchuu
gaggeeffama
gaggeeffamaa
gaggeeffaman
gaggeeffame
gaggeeffameen
gaggeeffamu
gaggeeffamuudha
gaggeessa
gaggeessaa
gaggeessan
gaggeessanii
gaggeesse
gaggeessen
gaggeessu
gaggeessummaa
gaggeessuu
gaggeessuuf
gaggeessuun
gaggle
gaha
gahaa
gahaadha
gahan
gahanii
gahaniidha
gahaniin
gahanitti
gahe
gahee
gaheen
gaheera
gahi
gahiinsa
gahiisa
gahin
gahinsaa
gahu
gahumsa
gahutti
gahuu
gahuuf
gahuufi
gahuufis
gahuun
gaiety
gailer
gaily
gaimmacihiisaa
gain
gainful
gainsay
gait
gaiter
gajamoo
gajaraa
gajjallaa
gal
gala
galaa
galaan
galaana
galaanaa
galaanaan
galaanaarraa
galaanaatii
galaanaatiif
galaanaatiin
galaanaatti
galaanarra
galaanarraa
galaanatti
galaanni
galaasaa
galaatti
galaawudoos
galactic
galagala
galalcha
galam
galamsoo
galamsootti
galan
galani
galanii
galaniidha
galanni
galata
galataa
galatee
galateeffachaa
galateeffachuu
galateeffachuudha
galateeffachuun
galateeffadha
galateeffatamuu
galateeffatu
galati
galatii
galatoomaa
galatoomi
galatoomu
galatti
galattii
galatu
galaxy
galbeed
galbii
galcha
galchaa
galchan
galchanii
galche
galchee
galcheen
galcheera
galchi
galchii
galchiin
galchine
galchitee
galchu
galchutti
galchuu
galchuuf
galchuun
galdaa
gale
galee
galeef
galeefi
galeen
galeera
galeessa
galeessaa
galeessaan
galeessaatti
galeessan
galeessi
galfachuu
galfadhe
galfadhu
galfamaniiru
galfannaa
galfii
galgala
galgalaa
galgalaatti
galgalan
galgalarraa
galgalas
galgalla
galgalli
gali
galii
galiilaa
galiiliyoo
galiiliyoon
galiin
galiitti
gall
galla
gallan
gallana
gallanatti
gallant
gallantry
galle
gallee
galleef
galleen
galleerra
galleon
gallery
galley
galli
galling
gallivant
gallon
galloo
gallop
galloping
gallows
gallstone
gallu
galma
galmaa
galmaan
galmee
galmeeffame
galmeeffameera
galmeen
galmeessa
galmeesse
galmeessee
galmeessise
galmeessisee
galmeessisuu
galmeessisuun
galmeessitee
galmeessudhaan
galmeessun
galmeessuu
galmeessuun
galmi
galmoo
galmooftee
galoo
galore
galoshes
galte
galtee
galteef
galteen
galtii
galtu
galtuu
galtuun
galu
galudha
galuu
galuudhaan
galuudhan
galuuf
galuufii
galuun
galvaanaayessuu
galvanic
galvanize
galvanizing
gam
gama
gamaa
gamaaf
gamaaggama
gamaaggamtuu
gamaaggamuu
gamachisu
gamana
gamanaa
gamanaan
gamashuu
gamatti
gambaallee
gambela
gambit
gamble
gambler
gambling
gambol
gamboling
gamboomsuf
game
gameelcha
gamekeeper
games
gamin
gaming
gamma
gammaachuu
gammachiifne
gammachiis
gammachiisa
gammachiisaa
gammachiise
gammachiisne
gammachiistuu
gammachiisu
gammachiisuu
gammachiisuuf
gammachiisuun
gammachisaa
gammachu
gammachuu
gammachuudhaan
gammachuun
gammachuus
gammachuutti
gammada
gammadaa
gammadaan
gammadanii
gammadde
gammadduu
gammade
gammadee
gammadeera
gammadne
gammadu
gammaduu
gammanne
gammannee
gammon
gammoojii
gammoojjii
gammoojjiin
gammoojjiirra
gammy
gamna
gamnittiin
gamnootaa
gamnummaa
gamoo
gamoojii
gamoon
gamootti
gamoowwan
gamta
gamtaa
gamtaadhaan
gamtaan
gamtaatiif
gamteessuu
gamtooman
gamtoomanii
gamtoomanitti
gamu
gamut
gamy
gana
ganaa
ganaana
ganama
ganamaa
ganamaafi
ganamaan
ganaman
ganamas
ganamee
ganbaallee
ganda
gandaa
gandalabee
gander
gandhaaluu
gandi
gandiffaa
gandoota
gandootaa
ganduma
gane
ganee
gang
gangalachuu
gangland
gangling
ganglion
gangplank
gangrene
gangster
gangway
ganna
gannaa
gannaafi
gannaalee
gannas
gannatawarqi
gannati
gannatii
ganne
gannee
gannet
ganni
gannii
gannoo
gannootiin
gantry
gantummaa
gantuu
gantuutti
ganu
ganumsa
ganuu
ganuun
ganyaa
ganzabee
gaol
gap
gape
gar
gara
garaa
garaacha
garaachaa
garaaf
garaagara
garaagaraa
garaagaraan
garaagaraatii
garaagaraatiif
garaagaraatiin
garaagaraatin
garaagaraatti
garaagaratti
garaagarummaa
garaagarummaan
garaan
garaarra
garaarratti
garaas
garaatti
garad
garafuu
garagalanii
garagalcha
garagalchee
garagalchuu
garagale
garagalee
garagalu
garagaluu
garagaluudhaan
garagara
garagaraa
garagaraan
garagaree
garagaruma
garagarumma
garagarummaa
garage
garam
garan
garana
gararraa
gararraadhan
garas
garasuu
garasuun
garatti
garb
garba
garbaa
garbaabaa
garbaatti
garbage
garbi
garbii
garble
garbled
garboonni
garboota
garbootaa
garbummaa
garbuu
garcia
gardaaduma
gardaadumaa
gardaafoo
gardaasaa
garde
garden
gardener
gardenia
garee
gareen
gareewwan
gargaara
gargaaraa
gargaarama
gargaaraman
gargaarame
gargaaramee
gargaaramnu
gargaaramu
gargaaramuu
gargaaramuuf
gargaaran
gargaare
gargaari
gargaarsa
gargaarsaa
gargaarsaan
gargaarsaatti
gargaarsi
gargaartonni
gargaartota
gargaartu
gargaartuu
gargaaru
gargaarudhaan
gargaaruf
gargaarun
gargaaruu
gargaaruudha
gargaaruuf
gargaaruun
gargantuan
gargar
gargara
gargaraa
gargari
gargarri
gargle
gargoyle
garii
gariibaa
gariin
gariitti
garish
garjalaa
garjii
garland
garlic
garmalee
garment
garner
garnet
garnish
garo
garra
garraa
garraamii
garraamummaa
garraamummaan
garraan
garracha
garre
garret
garri
garrison
garrotta
garrotte
garru
garrulous
garruu
garsamii
garsiisan
garsiise
garsiisu
garter
gartokkee
gartokkeen
gartokko
gartokkoo
gartokkotti
gartuu
gartuudhaan
gartuulee
gartuuleen
gartuun
garu
garuma
garummaa
garummaan
garummoo
garuu
garuummoo
garuuyyuu
gas
gasaa
gasbag
gasee
gaseous
gash
gasiin
gasket
gasman
gasolene
gasoline
gasoo
gasp
gassy
gastric
gastronomy
gasworks
gatachiisuu
gatachuu
gatamaa
gatamanii
gatame
gatamee
gatamuuf
gatan
gatanii
gatantaraa
gatantaruu
gate
gateau
gatecrash
gatecrasher
gatee
gateettii
gatehouse
gatekeeper
gates
gateway
gather
gatherer
gathering
gati
gatii
gatiidhaaf
gatiidhaan
gatiin
gatiinsaa
gatiittii
gatiraaa
gatittii
gatu
gatuu
gatuuf
gatuun
gau
gauche
gaudy
gauge
gaunt
gauntlet
gauze
gavel
gawd
gawk
gawky
gawp
gay
gaya
gayaa
gaye
gayee
gayin
gayu
gayutti
gayuu
gaza
gaze
gazebo
gazeexessitonnii
gazelle
gazette
gazetteer
gazii
gazump
gb
gc
gd
gdp
gdpn
ge
gear
gearbox
gecko
gedi
geeba
geeboo
geedala
geeddaramne
geeddaramuu
geeddarumsa
geeddaruu
geedoo
geeffaman
geeffamanii
geeffame
geeffamee
geeffamin
geeffamu
geeffamuu
geeffamuun
geeggeeffame
geejiba
geejibaa
geejibaaf
geejiban
geejibuu
geejjiba
geejjibaa
geejjibaaf
geejjibuu
geelii
geemii
geengon
geengoo
geengoon
geengootiin
geengummaa
geenyaa
geenye
geenyeef
geenyetti
geenyu
geeraa
geerara
geerarsa
geerarsaan
geerarsi
geeraru
geergoo
geese
geeshoo
geesifne
geesisu
geesisuu
geessa
geessan
geessanii
geesse
geessee
geesseetti
geessi
geessii
geessiisaa
geessisaa
geessisan
geessise
geessisee
geessisu
geessisuu
geessitan
geessitee
geessu
geessuu
geessuun
geetaachoo
geetii
geeysee
geez
geezer
gegeeddaramaa
gegeeddaramu
geggeeffama
geggeeffamaa
geggeeffame
geggeeffamee
geggeeffameen
geggeeffamerrati
geggeeffamerratti
geggeeffamtu
geggeeffamu
geggeeffamuuf
geggeessa
geggeessaa
geggeessan
geggeesse
geggeessee
geggeessitoonni
geggeessitoota
geggeessituu
geggeessu
geggeessudhaan
geggeessummaa
geggeessummaan
geggeessun
geggeessuu
geggeessuuf
geggeessuun
geggefama
geggefame
geggefamu
geggesu
geisha
gel
gelada
gelatine
geld
gelding
gelignite
gelloo
gem
gemechu
gemede
gemini
gemmii
gemstone
gen
genarian
gendarme
gender
gene
genealogical
geneology
genera
general
generalise
generalissimo
generally
generate
generation
generator
generators
generic
generosity
generous
genes
genesis
genet
genetic
genetics
genial
genie
genital
genius
genocide
genome
genre
gent
gentile
gentle
gentlefolk
gentleman
gently
gentrify
gentry
genuflect
genuine
genus
geoash
geoffrey
geographic
geographical
geography
geologist
geologistotni
geology
geometric
geometrid
geometry
geophysics
geopolymer
geopolymere
geopolymeric
geopolymers
georgia
gerald
gerba
geriatrics
germ
german
germany
germenii
germicide
germinate
gerontology
gerrymander
gerund
gessa
gessu
gestapo
gestation
gesticulate
gesture
get
geyser
gezetena
gezot
gf
gg
gh
ghastly
ghee
gherkin
ghetto
ghimbi
ghost
ghoul
gi
giant
gibber
gibbering
gibberish
gibbet
gibbii
gibbon
gibbous
gibe
gibee
gibeetti
gibira
giblet
gibtsi
gibxi
gibxii
gidaadaa
gidaamii
gidaara
giddaa
giddi
giddii
giddu
giddugala
giddugaleessa
giddugaleessaa
giddun
giddutti
gidduu
gidduudha
gidduudhaa
gidduun
gidduuti
gidduutti
gidduuttii
giddy
gidgiddaa
gidiraa
gidiraan
giduu
gifira
gift
gifted
gig
gigantic
giggle
gigirii
gigolo
gihon
giidoo
giiftii
giiloo
giimii
giincii
giinga
giingee
giinii
giitaara
giixxaa
gilaayikoopirootiinii
gild
gilded
gilgaala
gill
gilli
gillonni
giloobiyuliin
giloobiyuliinii
gilt
gilukoosii
giluukoosii
gimbichuu
gimbii
gimbiin
gimcrack
gimijaa
gimlet
gimmick
gin
gincii
ginda
gindabarat
gindabaratiin
gindeberet
gindhir
gindii
gindo
gindoo
ginger
gingerbread
gingerly
gingham
gingilchaa
gingilchaatti
gingilchuu
ginseng
giovanni
giphee
gipsy
giraaba
giraabaa
giraafii
giraama
giraamii
giraant
giraar
giraaviitii
giraaz
girafe
giraffe
giranaadaa
gird
girder
girdle
girgaatii
girgijjii
girigoorii
giriidii
giriik
giriikii
giriikiitti
giriikitti
giriikonni
giriinlaandi
girikii
girjaa
girl
girlfriend
girmaa
giro
giroo
girooserii
girrisuu
girt
girth
gist
gita
gitaa
gitaara
gitaaraa
gitan
gitne
gitni
gitta
gitu
gituma
gituu
give
given
giver
giypsy
gizzard
gj
gk
gl
glaasgoo
glacial
glacier
glad
gladden
glade
gladiator
gladiolus
gladly
glamorize
glamorous
glamour
glance
gland
glare
glaring
glasnost
glass
glasshouse
glassware
glassy
glaucoma
glaze
glchuu
gleam
glean
gleaning
glee
glen
glib
glide
glider
glimmer
glimpse
glint
glisten
glitter
glittering
glittery
glitz
gloaming
gloat
global
globe
globular
globule
globulins
gloom
gloomy
glorify
glorious
glory
gloss
glossary
glossy
glove
glow
glower
glowing
glucopyranose
glucose
glucosiin
glue
glum
glut
glutton
gluttonous
gluttony
glycerine
glycogen
glycoprotein
gm
gn
gnarled
gnash
gnat
gnaw
gnome
gnomic
gnu
go
goaa
goad
goal
goat
goatee
goatherd
goatskin
gob
goba
gobaa
gobba
gobbaa
gobbaatti
gobbatee
gobbina
gobble
gobbledegook
gobbuu
gobeessaa
gobeessi
goblaa
goblet
goblin
gobocorroo
gobuu
gocha
gochaa
gochaafi
gochaalee
gochaan
gochi
gochibsa
gochima
gochimaa
gochimaan
gochoota
gochu
gochuf
gochuu
gochuudha
gochuudhaan
gochuuf
gochuufi
gochuufii
gochuufiin
gochuufis
gochuun
gochuunis
gochuutti
god
goda
godaa
godaanaa
godaanan
godaananiif
godaane
godaannisa
godaannisaa
godaansa
godaansi
godaantuu
godaanu
godaanuu
godaanuun
godambaa
godchild
goddaa
goddansi
goddess
godeessa
godfather
godha
godhaa
godhaan
godhachuu
godhachuudhaan
godhachuun
godhadhe
godhadheera
godhama
godhamaa
godhaman
godhame
godhamee
godhameef
godhameefi
godhameen
godhameera
godhameetti
godhamerratti
godhamne
godhamneef
godhamu
godhamuf
godhamuu
godhamuuf
godhamuufii
godhan
godhani
godhanii
godhaniif
godhaniin
godhaniiru
godhanis
godhanne
godhata
godhatamu
godhatan
godhatanii
godhate
godhatee
godhattee
godhatu
godhatuu
godhatuun
godhe
godhead
godhedha
godhee
godheef
godheen
godheera
godheetan
godherra
godherratti
godhi
godhiin
godhin
godhu
godhudha
godhuf
godhuree
godhus
godhutu
godhuu
godhuuf
godhuun
godiina
godina
godinaa
godinaalee
godinaaleen
godinicha
godinichaa
godinichaatti
godinichi
godinni
godinnichi
godinoota
godly
godmother
godoo
godsend
godson
goer
gofaa
goga
gogaa
gogaan
gogduu
gogeessa
gogfame
gogga
goggle
goggles
goggoga
goggogaa
goggogsu
goginsi
gogoraa
gogorrii
gogorriin
gogsan
gogsuu
gogu
goguu
going
goiter
goitrous
gola
golaaduu
golambaa
golba
golbaa
golbate
golbee
golbobbaa
golboo
golboon
gold
golden
goldfish
goldsmith
golee
golfaa
golfii
golfo
golga
golgaa
golgame
golgolaa
golguu
goliath
goljaa
golliwog
golloo
golloobaa
gololcha
gololchaa
gololee
golollee
gololleen
gombifamee
gombifamuu
gombisaa
gombisuu
gomboo
gomboora
gomes
gomjii
gommaa
gomoraa
gonad
goncalves
gondar
gondor
gondoritti
goner
gonfaa
gonfachuu
gonfate
gonfatu
gonfoo
gonfuu
gong
gonjaree
gonkumaa
gonofuu
gonorrhea
goo
gooba
goobaa
goobachuu
gooban
goobana
goobanaa
goobanaan
goobazee
goobbaan
goobee
goobni
gooboo
good
gooda
goodaa
goodarree
goodbye
goodhamuu
goodish
goodly
goodness
goods
gooduu
goodwill
goody
goof
goofanyii
goofaree
goofta
gooftaa
gooftaan
gooftaatti
googaa
google
goojii
goojjam
goojjamoonni
goojjamootaa
goojjoo
goolaa
goolabamu
goolabbii
goolabuu
gooldan
goolden
gooldi
goolee
goolii
gooltuu
gooluu
goomataa
goomattuu
goomii
goomoo
goona
goonaa
goondaa
goone
goonee
goonfoo
goonii
goonkumaa
goonni
goonu
goophaa
goorillaa
gooroo
gooroon
goorootti
goorroo
goosa
goose
gooseberry
gooshoo
goosuu
goota
gootaa
gootaatti
gootan
gootaraa
gootaraatti
gootatti
goote
gootee
gootfiriid
gooti
gooticha
gootichi
gootitti
gootni
gootonni
gootota
goototaa
goototni
gootu
gootummaa
gootummaadhaan
gootummaan
gootummaatti
gootuu
gopheeffamu
gora
goraa
goraadee
goran
gorantoo
gordon
gorduuba
gore
goree
gorge
gorgeous
gorgon
goricha
gorilla
gormless
goro
goromsa
goromtii
gorontoo
goroo
gorora
gororaa
gorortuu
gororuu
gorra
gorroo
gorsa
gorsaa
gorsaansaa
gorsan
gorse
gorsi
gorsituu
gorsoddoma
gorsu
gorsuu
goruu
gory
gosa
gosaa
gosaan
gosaatii
gosaatti
gosawwan
goseen
goseessuu
gosni
gosoonni
gosoota
gospel
gossa
gossamer
gossi
gossip
gossiper
gossobuu
gosti
gothic
gotoota
gotten
gouge
gourd
gourmand
gourmet
gout
gov
govern
governable
governance
governing
government
governmental
governor
gowa
gown
gowoomsa
gowoomsaa
gowoomsamu
gowoomsanii
gowoomsituu
gowoomsu
gowoomsuu
gowoomsuuf
gowoomsuun
gowoomu
gowwaa
gowwaan
gowwaatti
gowwichi
gowwichis
gowwittii
gowwittiin
gowwoomsituu
gowwoomsu
gowwoomsuu
gowwoomsuuf
gowwummaa
gp
gq
gr
grab
grace
graceful
graceless
gracious
gradation
grade
gradient
gradual
gradually
graduation
graffiti
graft
grail
grain
gram
grammar
grammatical
gramme
gran
granary
grand
grandad
grande
grandeur
grandfather
grandiloquent
grandiose
grandma
grandmother
grandpa
grandparent
grandpaw
grandson
grandstand
grange
granite
granny
grant
granted
granular
granule
grape
grapes
grapeshot
grapevine
graph
graphic
graphics
graphite
grapnel
grapple
grasp
grasping
grass
grasshopper
grassland
grata
grate
grateful
grater
gratia
gratification
gratify
gratifying
grating
gratis
gratitude
gratuitous
gratuity
grave
gravel
gravestone
graveyard
gravitate
gravity
gravy
gray
grayish
graze
grazing
grease
greasy
great
greatcoat
greatly
greece
greed
greediness
greedy
greek
green
greenery
greenfly
greengrocer
greenhouse
greenness
greenroom
greenspan
greet
greeting
gregarious
gremio
gremlin
grenade
grey
greyhound
grid
griddle
grief
grievance
grieve
grievous
griffin
grill
grille
grim
grimace
grime
grin
grind
grinder
grindstone
grip
gripe
grisly
grist
gristle
grit
grits
gritty
grizzle
grizzled
groan
grocer
grocery
grog
groggy
groin
groom
groomed
groove
groovy
grope
gross
grotto
grotty
grouchy
ground
grounding
groundless
groundnut
groundsheet
groundwork
group
groups
grouse
grout
grove
grovel
grow
grower
growl
grown
growth
grub
grubber
grubby
grudge
grudging
gruel
grueling
gruesome
gruff
grumble
grumbler
grumbling
grump
grumpy
grunt
gs
gt
gu
guano
guarantee
guard
guardian
guarding
guardroom
guardsman
guava
guba
gubaa
gubachaa
gubachuu
gubachuutti
gubaman
gubamu
guban
gubanii
gubata
gubataa
gubate
gubatu
gubba
gubbaa
gubbaan
gubbaatti
gubban
gubbatti
gubbee
gube
gubi
gubinsaa
gubinsaatti
gubu
gubuu
gubuuf
gubuutti
gucaa
guchii
guchiin
gud
gudaan
gudar
gudattu
gudayyaa
gudayyaan
gudda
guddaa
guddaadha
guddaadhaan
guddaadhan
guddaaf
guddaan
guddaanii
guddaarra
guddaarraa
guddaarratti
guddaas
guddaati
guddaatti
guddaatu
guddachaa
guddachuu
guddachuun
guddachuutti
guddadhe
guddadhu
guddan
guddanne
guddata
guddataa
guddatan
guddate
guddatee
guddateef
guddatte
guddattootaa
guddattu
guddatu
guddatuu
guddicha
guddichaa
guddichi
guddifachaa
guddifachaan
guddifachuu
guddifachuuf
guddifamuu
guddifata
guddifatee
guddifte
guddiftu
guddiftuu
guddina
guddinaa
guddinaan
guddinan
guddinni
guddis
guddisa
guddisaa
guddisan
guddisanii
guddisbaddee
guddise
guddisee
guddiseen
guddisi
guddistuu
guddisu
guddisuu
guddisuuf
guddisuun
gudditti
guddittii
guddittin
guddo
guddon
guddoo
guddoon
gudeeda
gudeeddiin
gudeeduu
gudeelcha
gudgeon
gudguddaa
gudina
gudinan
gudunfaa
guduru
guduruu
guduunfaa
guduunfamaa
guduunfuu
guerrilla
guess
guest
gufachiisa
gufachiisuu
guff
guffaw
gufii
gufufuu
gufuu
gufuun
gugee
guggudatti
gugguddoon
guggudo
guggudon
gugguuftuu
gugguufuu
gugsii
guguddaa
guguddaan
guguddoo
gugurdoo
gugurraacha
gugussuu
guidance
guide
guided
guideline
guild
guile
guillemot
guillotine
guilt
guilty
guinea
guise
guitar
guji
gujii
gujiin
gulaalaa
gulaalamuu
gulaallii
gulaaluu
gulana
gulantaa
gulantaadhaan
gulch
gulelat
gulf
gull
gullallee
gullet
gullibility
gullible
gulloo
gully
gulp
gulping
gulufa
guluffii
gulufsiisan
gulufsiisuu
gulufuu
gulummaa
gum
gumaa
gumaacha
gumaachaa
gumaachan
gumaachi
gumaachuu
gumaan
gumaata
gumbichuu
gumbii
gumboot
gumcuu
gumeessuu
gumgummii
gumgumtuu
gumgumuu
gumii
gumiin
gummaa
gummy
gumna
gumption
gumrukii
gumuuz
gumuz
gumuzii
gumuziin
gun
gunaa
gunboat
gundoo
gunfire
gunge
gunman
gunner
gunnery
gunpoint
gunpowder
gunrunner
gunship
gunshot
gunsmith
gunwale
guraacha
guraagee
guraandhala
gurbaa
gurbaan
gurbayyee
gurdaa
gurgle
gurgudda
gurguddaa
gurguddaaf
gurguddaan
gurguddaatti
gurguddo
gurguddon
gurguddoo
gurguddoolii
gurguddoon
gurgudduu
gurguraaf
gurguraman
gurguramanii
gurgurame
gurguramee
gurguramu
gurguramuu
gurguran
gurguratan
gurgure
gurguree
gurgureera
gurgurtaa
gurgurtaadhaaf
gurgurtuu
gurguru
gurguruu
gurguruudhaaf
gurguruuf
gurguruun
gurjaa
gurmaa
gurmeessaa
gurmeessuu
gurmeessuudhaan
gurmuu
gurmuun
guroo
gurra
gurraa
gurraacha
gurraachaa
gurraachaan
gurraachaatti
gurraachessuu
gurraachi
gurraachota
gurraachotaa
gurraandhala
gurraatti
gurraattii
gurracha
gurrachi
gurrandhala
gurratti
gurri
gurroolee
gurruu
gursum
gursumi
guru
gurur
gush
gushmaaxa
gusset
gust
gusto
gusty
gut
gutama
gutichaa
gutless
gutter
guttiyyaa
guttu
guttural
guttuu
gutu
gutumaa
gutummaa
gutummaan
gutuu
guuboo
guuguu
guuguutti
guujja
guula
guunne
guuraa
guuramanii
guurate
guuree
guuressa
guurii
guurree
guurrii
guuru
guuruu
guusa
guuta
guutaa
guutama
guutamaa
guutamaan
guutame
guutamee
guutameedha
guutameef
guutamne
guutamu
guutamuu
guutan
guutanii
guute
guutee
guutinbergi
guutne
guutoo
guuttachuuf
guuttame
guuttee
guutu
guutumaa
guutumaan
guutumaatti
guutummaa
guutummaan
guutummaatti
guutummatti
guututti
guutuu
guutuudhaan
guutuuf
guutuumaan
guutuummaan
guutuummaatti
guutuun
guutuus
guutuuti
guutuutiin
guutuutiinan
guutuutti
guuyyessa
guvaaraa
guvaaraan
guxatii
guy
guyya
guyyaa
guyyaan
guyyaas
guyyaatii
guyyaatti
guyyaattis
guyyee
guyyicha
guyyichaa
guyyoo
guyyoonni
guyyoota
guyyootaa
guyyooti
guyyuma
guyyuu
guyyuun
guzzle
gv
gw
gwa
gx
gy
gybe
gymkhana
gymnasium
gymnast
gymnastics
gymnosperm
gynaecological
gynaecologist
gynaecology
gynecology
gyp
gypsum
gypsy
gyrate
gyroscope
gz
gzuz
głowny
h
h0
h1
h2
h3
h4
h5
h6
h7
h8
h9
ha
haa
haacaalun
haacaaluu
haacaaluun
haada
haadaa
haaddatan
haaddatee
haadha
haadhaa
haadhaafi
haadhaas
haadhasaa
haadhatti
haadhoo
haadhummaa
haaduu
haafa
haagahu
haagar
haaguutu
haaj
haajaa
haaji
haal
haala
haalaa
haalaan
haalaasaa
haalachuu
haalata
haalawwan
haaldubbii
haalii
haalli
haallii
haallisaa
haalonni
haaloo
haalota
haaluma
haaluu
haama
haamaa
haamtuu
haamu
haamuu
haanim
haanimiifii
haanxaa
haaqila
haara
haaraa
haaraadha
haaraadhaan
haaraan
haaraatiin
haaraatti
haaran
haaratti
haardiweerii
haaressuu
haarii
haarka
haaromsa
haaromsaa
haaromsuu
haaroomsuu
haaroyni
haarraa
haarvaard
haasa
haasaa
haasaadhaaf
haasaadhaan
haasaaf
haasaan
haasawa
haasawaa
haasawee
haasaynu
haashim
haashiyaa
haasofna
haasofne
haasofnu
haasofnuu
haasofsiisuu
haasoftuu
haata
haatahu
haatayuu
haati
haatii
haatisaa
haatoo
haawaasa
haawors
haawusii
haaxoo
haayilamaariyaam
haayilamaariyaamii
haayilamaariyaamiin
haayyuu
habaaba
habaaboo
habalaka
habaqaala
habaqii
habasha
habashaa
habashoonni
habashootaa
habeas
haberdasher
habit
habitable
habitat
habitation
habitual
habituate
haboo
habro
habtamu
habtawaldi
habuu
hack
hackles
hackneyed
hacksaw
hacuucamaa
hacuuccaa
hacuuccaan
hacuuccamuunsaanii
hacuuccuu
hacuucuu
had
hadaa
hadaraa
haddock
hadha
hadhaa
hadhaawaa
hadhaba
hadhanii
hadhawaa
hadheeffachaa
hadheeffachuu
hadheeffattee
hadheeffatu
hadheessuu
hadhooftuu
hadida
hadiida
hadiidaa
hadiisa
hadiisaa
hadiisafii
hadiisni
hadiyyaa
hadurree
hadurreen
haematology
haemo
haemoglobin
haemophilia
haemorrhage
haemorrhagic
haemorrhoids
hafa
hafaa
hafaan
hafan
hafani
hafe
hafee
hafeef
hafeen
haffe
hafi
hafiin
hafin
hafne
hafnee
hafoo
hafte
haftee
hafteef
haftu
haftuu
hafu
hafurra
hafuu
hafuun
hafuura
hafuuraa
hafuus
hafuutii
hag
haga
hagadaa
hagam
hagamii
hagamillee
hagamis
hagamiyyuu
hagas
hagasi
hagasii
hagasmara
hagayya
hagayyaa
haggard
haggle
hagicha
hagiography
hagoo
haguu
haguugama
haguugamaa
haguugame
haguugee
haguuggii
haguugii
haguugu
haguuguu
hahaha
hail
haile
hair
hairbrush
hairdo
hairdresser
hairline
hairpiece
hairpin
hairspray
hairstyle
hairy
haj
haji
hajii
hajiin
hajji
hajjii
hajuuraa
hajuuruu
hakimii
halaal
halaalaa
halab
haladdaq
halaku
halal
halalee
halalummaa
halchiisa
halcyon
hale
haleelan
haleele
haleeli
haleellaa
haleeluu
half
halfway
halfwit
halibut
halitosis
halkan
halkanaa
halkani
halkanii
halkaniif
halkanuma
hall
halla
hallaattii
hallayyaa
halle
hallee
hallelujah
halli
hallmark
hallowed
hallu
hallucinate
hallucination
hallucinogen
halluu
halluun
halluuwwan
hallway
halo
halogen
haloo
halt
halter
halting
haluu
halve
halyard
ham
hama
hamaa
hamaagota
hamaamota
hamaan
hamachuu
hamam
hamanni
hamartii
hambaa
hambaalee
hambisaa
hambisan
hambise
hambisuu
hambisuuf
hamburger
hamdee
hamii
hamilee
hamlee
hamleen
hamlet
hamma
hammaachaa
hammaarrii
hammaata
hammaataa
hammaate
hammaatee
hammaateef
hammachuu
hammadhe
hammam
hammamii
hammamta
hammamtaa
hammannee
hammata
hammatamu
hammatee
hammattuu
hammayyoo
hammeenya
hammeenyaa
hammeenyaan
hammeenyi
hammer
hammering
hammi
hammina
hammock
hammooyii
hamoo
hamper
hamster
hamstring
hamtu
hamtuu
hamuummachuu
hamza
han
hanbise
hancaa
hancufa
hand
handaaqqoo
handaara
handaarii
handaraafa
handbag
handball
handbill
handbook
handbrake
handcuffs
handed
handful
handgun
handhold
handhura
handhurri
handhurtii
handhuura
handhuurraa
handicap
handicapped
handicraft
handkerchief
handle
handlebar
handler
handmade
handmaid
handoodee
hands
handsaw
handsome
handstand
handwriting
handy
handyman
hang
hanga
hangaa
hangaaquu
hangaarii
hangafa
hangafaa
hangafni
hangafootni
hangam
hangan
hangana
hangar
hangas
hangasitti
hangdog
hanger
hangi
hangina
hanging
hangman
hangnail
hangover
hanguma
hank
hankaassa
hankaassee
hankaassuu
hanker
hanky
hanna
hannaa
hannaaf
hanoi
hanqaaqun
hanqaaquu
hanqaaquun
hanqatan
hanqatee
hanqattee
hanqatu
hanqatuun
hanqina
hanqinni
hanqisi
hanqisu
hanqisuu
hanqooquu
hans
hansen
hanshaafa
hanshaala
hansom
hantuunni
hantuuta
hantuutaa
hantuuttee
hanxaxii
haphazard
haphazardness
haphee
hapheetiin
haphifamee
haphii
haphiin
hapless
happen
happening
happenstance
happiness
happy
haptee
haqa
haqaa
haqaaf
haqaan
haqame
haqanii
haqni
haqummaa
haquu
haqxuu
har
hara
haraa
haraajiidhaan
haraami
haraaraa
haraatii
haramaayaa
haramaya
harangue
harannaa
harar
harare
hararge
harargee
harargeen
harargeerraa
harargeetti
hararghe
harargie
harari
hararii
harariin
hararirraa
hararitti
harass
harassment
harataa
haratoo
harawwan
harbinger
harbisee
harbor
harbour
harbuu
harca
harcaase
harcaate
harcummaa
harcummee
hard
hardback
hardbitten
harden
hardha
hardhaa
hardhallee
hardhearted
hardiida
hardiidni
hardiidoo
hardly
hardship
hardware
hardwood
hardy
hare
harebell
harebrained
harelip
harem
harena
harganaa
hargee
haricot
hariiroo
hariiroon
hariiroosaa
hariroo
hark
harka
harkaa
harkaaf
harkaan
harkan
harkasaa
harkasaanii
harkatti
harki
harkifamaa
harkifamee
harkifamu
harkifamuu
harkifatu
harkifne
harkii
harkisa
harkisaa
harkisan
harkisanii
harkise
harkisee
harkisu
harkisuu
harkisuuf
harkisuun
harkuma
harlot
harm
harma
harmaa
harmed
harmee
harmeef
harmeen
harmeenis
harmeerra
harmees
harmeesaa
harmeeti
harmeetti
harmful
harmi
harmless
harmonica
harmonious
harmonium
harmonize
harmony
harmufaa
harmuufa
harmuufaa
harness
haro
haroo
haroon
harooressaa
haroowwan
harp
harpercollins
harpoon
harpsichord
harpy
harra
harraa
harraatti
harraqoo
harre
harree
harri
harridan
harrier
harrii
harris
harrittaa
harrow
harrowing
harry
harsama
harsh
harshama
hart
hartebeest
hartuu
haruu
harvaardi
harvest
harvester
harvesting
has
hasa
hasaasa
hasaasuu
hasan
hasansara
hash
hashish
haskaa
hasp
hassan
hassen
hassle
hassock
haste
hasten
hasty
hat
hata
hatame
hatattama
hatattamaa
hatattamaan
hatband
hatch
hatchback
hatchery
hatchet
hate
hateful
hatemonger
hatred
hatter
hattie
hattoonni
hattoota
hattuu
hattuun
hatu
hatuu
hatuuf
haughty
haul
haulage
haulier
haunch
haunt
haunted
haunting
hauteur
have
haven
haversack
havoc
haw
hawaa
hawaas
hawaasa
hawaasaa
hawaasaafi
hawaasaatti
hawaashii
hawaasi
hawaasichaa
hawaasni
hawaasumma
hawaasummaa
hawaasummaan
hawissoo
hawk
hawker
hawser
hawthorn
hawussaa
hawwa
hawwaa
hawwaasummaa
hawwachuu
hawwachuuf
hawwagamaa
hawwagame
hawwagan
hawwaguu
hawwaguuf
hawwan
hawwanii
hawwanne
hawwata
hawwataa
hawwatan
hawwattu
hawwattummaa
hawwattuu
hawwatu
hawwatummaa
hawwatuudha
hawwatuun
hawwe
hawwii
hawwiin
hawwiinsaa
hawwin
hawwina
hawwisichaa
hawwisiisa
hawwisoo
hawwisoon
hawwixii
hawwu
hawwuu
haxaa
haxaarii
haxooftuu
haxxee
haxxummaa
hay
haydiroojiinii
hayidiroojin
hayidiroojinii
hayila
hayilamaaraam
hayilamaaram
hayilamaariyaam
hayilamaariyam
hayilasillaasee
hayilasillaaseef
hayilasillaaseen
hayilasillaasen
hayilee
hayileen
hayiluu
hayiwaardi
haylasilaasen
haylasillaase
haystack
haywire
hayya
hayyama
hayyamaa
hayyamamne
hayyamu
hayyamuu
hayyee
hayyeessaa
hayyoonni
hayyoota
hayyummaa
hayyuu
hayyuun
hazard
hazardous
haze
hazel
hazelnut
hazy
hb
hc
hco
hd
he
head
headache
headband
headboard
headcount
headed
header
headgear
heading
headlamp
headland
headlight
headline
headlong
headman
headmaster
headmistress
headphones
headquarters
headrest
headscarf
headship
headstall
headstone
headstrong
headteacher
headwaters
headway
headword
heady
heal
health
healthy
heap
hear
hearing
hearken
hearsay
hearse
heart
heartbeat
heartbreak
heartbroken
heartburn
hearted
hearten
heartfelt
hearth
hearthrug
hearthstone
heartily
heartland
heartless
hearty
heat
heater
heath
heathen
heather
heatstroke
heatwave
heave
heaven
heavy
heavyweight
hebraic
hebrew
hebruu
heck
heckle
hectare
hectic
hector
heddommaate
heddommeysanii
heddu
heddumina
hedduminaan
heddummaatee
heddutu
hedduu
hedduudhaaf
hedduudhaan
hedduudhaf
hedduudhan
hedduuf
hedduun
hedduunis
hedduurratti
hedduus
hedduutti
hedge
hedgehog
hedgerow
hedonist
heduu
heebie
heed
heedduu
heeded
heedless
heefa
heektaara
heel
heelenaa
heellaa
heellee
heemisfara
heemoogiloobiinii
heennaa
heera
heeraa
heerri
heeruma
heerumaa
heerumaaf
heerumne
heerumte
heerumtu
heerumu
heerumuu
heerumuuf
heetoo
heexoo
heexosaa
hefty
hegemony
heifer
height
heighten
heinous
heir
heiress
heirloom
heist
hejjechuu
hek
hektaara
hektara
helekoopterii
helen
helena
helicopter
heliport
helium
helix
hell
hellene
hellenistic
hellish
hello
helm
helmet
helminth
helmsman
help
helpers
helpful
helpless
helpline
helter
hem
hematology
hemisferii
hemisphere
hemline
hemlock
hemoglobin
hemoogiloobiiniin
hemophilia
hemorrhage
hemorrhoids
hemostasis
hemp
hempis
hen
hence
henceforth
henchman
henirii
henna
hennaa
henpecked
henri
henrii
henriin
henry
hepatitis
heptagon
her
herald
herb
herbaceous
herbage
herbal
herbert
herbicide
herbivore
herculean
herd
herdsman
here
hereafter
hereby
hereditary
heresy
heretic
heretofore
herewith
heritage
hermaphrodite
hermetic
hermit
hermitage
hernia
hero
heroic
heroin
heroine
heroism
heron
herpes
herphee
herreega
herreegaa
herrega
herregaa
herregama
herregduu
herreguu
herreguudhaan
herring
hers
herself
hesitant
hesitate
hesitating
hessian
heterodox
heterogeneous
heterosexual
hew
hexagon
hexameter
heyday
heyitii
heyyama
hf
hg
hh
hi
hiatus
hibboo
hibernate
hibib
hibiscus
hibruu
hiccitii
hiccough
hiccup
hicks
hidda
hiddaa
hiddaan
hidden
hiddi
hiddii
hiddu
hidduu
hide
hideaway
hidebound
hideous
hidha
hidhaa
hidhaadhaa
hidhaan
hidhaatii
hidhaatti
hidhabuu
hidhachiisanii
hidhamaa
hidhamaan
hidhaman
hidhamanii
hidhame
hidhamee
hidhamne
hidhamtee
hidhamtoota
hidhamtuu
hidhamu
hidhamuu
hidhamuun
hidhan
hidhanii
hidhannoo
hidhata
hidhatan
hidhatanii
hidhate
hidhatee
hidhattoonni
hidhattoota
hidhee
hidhii
hidhiin
hidhni
hidhu
hidhuu
hidhuuf
hidhuun
hiding
hierarchy
hieroglyph
higgledy
high
highball
highbrow
higher
highfalutin
highland
highlander
highlanders
highlight
highly
highness
highway
hiibboo
hiibboon
hiika
hiikaa
hiikaan
hiikaansaa
hiikaansaas
hiikama
hiikaman
hiikame
hiikamee
hiikamne
hiikamu
hiikamuu
hiikan
hiikanii
hiikansaa
hiike
hiikee
hiikhe
hiiki
hiikisaa
hiikkaa
hiikkaan
hiikkachiisuu
hiikkamee
hiikkamu
hiikkan
hiikku
hiikni
hiikoo
hiiktee
hiiktuu
hiiku
hiikun
hiikuu
hiikuuf
hiikuun
hiin
hiinom
hiituu
hiixuu
hijack
hijacker
hijraa
hikaan
hikamuu
hike
hikkan
hilarious
hilarity
hill
hillside
hilltop
hilluu
hilly
hilt
him
hima
himaa
himaaf
himaammata
himachuu
himachuun
himalaya
himama
himamaa
himame
himamee
himametti
himamne
himamu
himamuu
himan
himanii
himanna
himannaa
himanni
himata
himataa
himatamaa
himatame
himatamee
himatamtuu
himatan
himate
himatti
himattuu
hime
himee
himeen
himeera
himeeraa
himi
himiin
himne
himnee
himni
himnu
himoota
himself
himte
himtee
himti
himtu
himtuu
himu
himutti
himuu
himuuf
himuufis
himuun
hin
hinargamne
hinarganne
hinbeekne
hinbeeku
hinbeeyne
hind
hindaanqoo
hindandeenye
hindbrain
hindhee
hindi
hindii
hindquarters
hindrance
hindu
hinduu
hingalle
hinge
hinjiraatu
hinjirreef
hinjiru
hinkennamne
hinkennu
hinkoo
hinnata
hinqabne
hinqabu
hinroobin
hinseenne
hinsochoone
hint
hinta
hintaane
hinterland
hinturiin
hinturre
hinyaadini
hip
hiphoo
hippopotamus
hir
hira
hiraa
hiraara
hiraarsaa
hiraarsuu
hiraman
hiramee
hiramu
hiramuu
hiratanii
hirbuu
hirder
hirdhacha
hire
hiree
hireling
hiriira
hiriiraa
hiriiraan
hiriiran
hiriiree
hiriyaa
hiriyaan
hiriyaansaa
hiriyaasaa
hiriyaashii
hiriyoonni
hiriyoota
hiriyootasaa
hiriyummaa
hiriyummaan
hiriyyaa
hiriyyoota
hiriyyummaa
hiriyyummaan
hirkachuu
hirkadhee
hirkoo
hirma
hirmaachaa
hirmaachise
hirmaachu
hirmaachuf
hirmaachuu
hirmaachuuf
hirmaachuun
hirmaannaa
hirmaanne
hirmaata
hirmaataa
hirmaatan
hirmaatanii
hirmaataniif
hirmaataniiru
hirmaate
hirmaatee
hirmaateera
hirmaatin
hirmaatte
hirmaatu
hirmate
hirmeemmii
hirna
hirpha
hirphaa
hirphuu
hirqinfadhee
hirqinfuu
hirqinsuu
hirree
hirreeffachaa
hirriba
hirribaa
hirriiba
hirriibaa
hirrina
hirrisa
hirrisuu
hirrisuuf
hirrisuun
hirsii
hirsute
hirtee
hirtuu
hiru
hiruu
his
hisaaba
hisataa
hisattuu
histamine
historian
historic
historical
history
histrionic
hit
hitch
hitherto
hitler
hitosa
hiv
hive
hiwuusten
hiyyaasee
hiyyeessa
hiyyeessaa
hiyyeettii
hiyyeeyyii
hiyyeeyyiin
hiyyummaa
hj
hk
hl
hm
hn
ho
hoar
hoard
hoarding
hoarse
hoary
hoax
hob
hobba
hobble
hobbled
hobby
hobgoblin
hobnob
hobo
hoboloo
hobomboleessa
hock
hockey
hocus
hod
hodgepodge
hodhaa
hodhamee
hodhamu
hodhan
hodhanii
hodhitu
hodhu
hodhuu
hodhuutiin
hoe
hoffolaa
hog
hogan
hogbarruu
hogga
hoggaa
hoggaadhan
hoggaan
hoggana
hogganaa
hogganaan
hogganamu
hogganoota
hogganootni
hoggansa
hoggantoonni
hoggantoota
hoggantootaa
hogganu
hogganummaa
hogganuu
hogganuudhaan
hogganuun
hoggayyuu
hoggonaa
hogwash
hoi
hoick
hoist
hoity
hojachaa
hojechuu
hojechuuf
hojetame
hojetamee
hojetamu
hojetamuu
hojettootaa
hoji
hojicha
hojichi
hojii
hojiidhaa
hojiidhaaf
hojiidhaan
hojiif
hojiilee
hojiin
hojiinsaa
hojiinsaas
hojiirra
hojiirraa
hojiis
hojiisaa
hojiishii
hojiitti
hojiiwwan
hojiiwwanii
hojitti
hojja
hojjaa
hojjaachaa
hojjaan
hojjachaa
hojjachu
hojjachuu
hojjachuuf
hojjachuun
hojjanne
hojjata
hojjataa
hojjatama
hojjatamaa
hojjataman
hojjatamani
hojjatame
hojjatamee
hojjatameera
hojjatamu
hojjatamuu
hojjatan
hojjatani
hojjatanii
hojjataniif
hojjataniiru
hojjataniiti
hojjate
hojjatee
hojjateen
hojjateera
hojjatta
hojjatte
hojjattoonni
hojjattoota
hojjattootaa
hojjattu
hojjattuu
hojjatu
hojjatuu
hojjatuuf
hojjatuun
hojjechaa
hojjechiisu
hojjechiisuu
hojjechiisuuf
hojjechu
hojjechuf
hojjechutti
hojjechuu
hojjechuudhaan
hojjechuuf
hojjechuun
hojjechuutti
hojjedha
hojjedhu
hojjenna
hojjenne
hojjennu
hojjetaa
hojjetaadhaaf
hojjetaan
hojjetamaa
hojjetaman
hojjetame
hojjetamee
hojjetamne
hojjetamu
hojjetamutti
hojjetamuu
hojjetamuutti
hojjetan
hojjetanii
hojjetaniif
hojjetanitti
hojjete
hojjetee
hojjeteef
hojjeteera
hojjetetti
hojjetiin
hojjettoonni
hojjettoota
hojjettootaa
hojjettu
hojjettuu
hojjetu
hojjetuu
hojjetuuf
hojji
hojmaata
hojmaateeffamuu
hojmaatessuu
hokkara
hokkora
hokum
hokusai
hold
holdall
holder
holding
hole
holiday
holiness
holistic
hollachuu
hollatu
holler
hollow
hollyhock
holocaust
hololoo
holqa
holqatti
hols
holster
holstii
holy
homaa
homaayyuu
homage
home
homeland
homeless
homely
homeopathy
homesick
homespun
homestead
homeward
homework
homicide
homily
homing
homma
homo
homoeopathy
homogencous
homogenity
homograph
homonym
homophone
homosexual
homtuu
honduraas
honest
honestly
honesty
honey
honeycomb
honeymoon
honeysuckle
hong
hongee
honk
honor
honorable
honorarium
honorary
honored
honour
hoo
hoobiin
hooch
hood
hooda
hoodlum
hoodoo
hoodwink
hooey
hoof
hooffamee
hoofii
hoofkalchaa
hooftuu
hoofu
hoofuu
hooganaa
hooggana
hoogganaa
hoogganaan
hoogganame
hoogganamu
hooggane
hooggansa
hooggansii
hooggantoonni
hooggantoota
hooggantuu
hoogganu
hoogganummaa
hoogganuu
hoogganuun
hooggayyuu
hook
hookaa
hookah
hooker
hookey
hookkara
hookkeeping
hookkoo
hookkuu
hooksu
hooksuu
hookworm
hoolaa
hoolaandi
hoolaandii
hoolaandiin
hoolaanditti
hoolandi
hooligan
hoollachuu
hoollatu
hoolota
hoolotaa
hoolotaatti
hoomaa
hoong
hoonga
hoop
hooppi
hooquudhaan
hoorii
hoosiftoonni
hoosiftoota
hoosiftuu
hoosistoota
hoospitaalaa
hoossisan
hoot
hooter
hop
hope
hopeful
hopeless
hophoo
hopscotch
hopsitaala
hoqqisiisuu
hoqubaa
hora
horaa
horaan
horaatti
horachaa
horachuu
horachuunis
horan
horanii
horata
horate
horatee
horateera
horbobbuu
horca
hordaa
horde
hordofa
hordofaa
hordofaan
hordofan
hordofanii
hordofee
hordoffii
hordoffiin
hordofne
hordoftoota
hordoftu
hordofu
hordofuu
hordofuudha
hordofuudhaan
hordofuudhan
hordofuuf
hordofuun
hore
horee
horfuu
horgoggee
horii
horiin
horiisaa
horizon
horizontal
hormaata
hormaataa
hormaataati
hormone
hormonii
hormoonii
horn
hornbeam
hornet
hornless
hornoguu
hornpipe
horo
horoscope
horrendous
horri
horrible
horrid
horrifie
horrify
horrifying
horro
horroo
horrootiin
horroqoo
horror
horse
horsebox
horseflesh
horsefly
horsehair
horseman
horseplay
horsepower
horseradish
horseshoe
horsewhip
horsey
horsiifamtu
horsiisa
horsiisan
horsiisee
horsiisuu
horsisan
horsy
hortanii
hortee
horteen
horticulture
hortu
hortuu
horu
horummaa
horuu
hose
hosee
hosiftonni
hosiftotta
hospice
hospitaala
hospitaalaa
hospitaalatti
hospitable
hospital
hospitality
hossee
host
hostage
hostel
hostelry
hostess
hostile
hostility
hot
hotbed
hotblooded
hotchpotch
hoteela
hoteelaa
hotel
hotelier
hotez
hotfoot
hothead
hothouse
hotness
hotpot
hots
hotshot
hound
hour
hourly
house
houseboat
housebound
household
housekeeper
housemaid
houseman
housemaster
housewife
housework
housing
hovel
hover
hovercraft
how
howard
however
howitzer
howl
howler
howling
howstuffworks
hoxxee
hp
hq
hr
hs
ht
htm
html
http
https
hu
hub
hubaatii
hubachaa
hubachiifna
hubachiisa
hubachiisaa
hubachiise
hubachiisu
hubachiisuu
hubachuu
hubachuudhaaf
hubachuuf
hubachuun
hubadhe
hubadheen
hubadheera
hubadhu
hubameera
hubamne
hubannaa
hubanne
hubannee
hubannoo
hubataa
hubatama
hubatamaa
hubatamu
hubatan
hubatanii
hubataniif
hubataniiru
hubate
hubatee
hubateef
hubateen
hubatiin
hubatte
hubattee
hubattu
hubatu
hubatuun
hubbub
hubby
hubris
hubuu
huccuu
huccuun
huckster
huddle
hudduu
hudduutiin
hudhaa
hudhanii
hudhee
hudhuu
hudson
hudumamanii
hudumuu
hue
huff
huffaa
huffee
hug
huge
hujeessa
hujeessaa
hujeessuu
hujii
hulaa
hulk
hulking
hull
hullabaloo
hulluuqaa
hulluuqqoo
hulluuqqoon
hulluuqsisi
hulluuqu
hultin
hum
human
humana
humane
humanism
humanitarian
humanity
humanize
humankind
humanly
humanoid
humbannaa
humble
humbug
humdinger
humdrum
humerus
humid
humidity
humiliate
humiliation
humility
humming
hummingbird
hummock
humna
humnaa
humnaan
humnaatti
humnasaa
humnatti
humni
humnoonni
humnoonnii
humnoota
humor
humorist
humorous
humour
hump
humpback
humpbacked
humus
huna
hunch
hunchback
hunchbacked
hunched
hunda
hundaa
hundaaf
hundaafuu
hundaan
hundaati
hundaatti
hundaawe
hundaawu
hundan
hundarra
hundarraa
hundarratti
hundas
hundatti
hundattuu
hundatu
hundayyuu
hundee
hundeefame
hundeeffama
hundeeffaman
hundeeffame
hundeeffamee
hundeeffameedha
hundeeffames
hundeeffamte
hundeen
hundeensaa
hundeessaa
hundeessan
hundeessanii
hundeesse
hundeessee
hundeesseera
hundeessuf
hundeessun
hundeessuu
hundeessuun
hundeffame
hundessa
hundi
hundii
hundinu
hundinuu
hundoofne
hundoofte
hundooftee
hundred
hundu
hunduma
hundumaa
hundumaaf
hundumaan
hundumaatiin
hundumaatti
hundumatti
hundumma
hundumti
hundumtuu
hunduu
hungary
hunger
hungry
hunk
hunkurametti
hunkuteessuu
hunoo
hunt
hunter
hunting
huntingford
huntress
huntsman
hurdle
hurka
hurkaa
hurkaan
hurkee
hurki
hurku
hurkuu
hurl
hurly
hurraa
hurray
hurreessuu
hurricane
hurriedly
hurrii
hurriin
hurriyaa
hurriyyaa
hurrubni
hurruma
hurrumuu
hurry
hurt
hurtful
hurtle
hurufa
hurwic
husband
husbandry
huseen
hushaayi
husk
husked
husky
hussy
hustings
hustle
hustler
hut
hutch
hutchinson
huuba
huubboo
huumee
huummoo
huuqqataa
huuqqatee
huuqqattee
huuqqattuu
huuroo
huursuu
huuruu
huusoo
huuxii
hv
hw
hx
hy
hyacinth
hybrid
hybridize
hydrant
hydrate
hydraulic
hydro
hydrocarbon
hydrochloric
hydrodynamics
hydroelectric
hydrofoil
hydrogen
hydromel
hydrophobia
hydroponics
hydrotherapy
hyena
hygiene
hygienic
hymen
hymn
hype
hyperactive
hyperbole
hyperinflation
hypermarket
hypertension
hyperventilate
hyphen
hyphenation
hypnosis
hypnotise
hypocenter
hypochondria
hypocrisy
hypocrite
hypodermic
hypomelanosis
hypothermia
hypothesis
hyrax
hysterectomy
hysteria
hysterical
hz
i
i0
i1
i2
i3
i4
i5
i6
i7
i8
i9
ia
iaaf
iaafn
ian
iaudatory
ib
iba
ibaa
ibaadaa
ibaaf
ibaati
ibamuu
ibe
ibex
ibidda
ibiddaa
ibiddaan
ibiddarratti
ibiddatti
ibiddi
ibidem
ibiisaa
ibin
ibirkuu
ibis
ibm
ibolaa
ibolaan
iboolaa
ibraahiim
ibraahim
ibrootaa
ibsa
ibsaa
ibsaan
ibsachaa
ibsachuu
ibsachuuf
ibsama
ibsaman
ibsame
ibsamee
ibsametti
ibsamne
ibsamte
ibsamu
ibsamuu
ibsan
ibsaniiru
ibsataniidha
ibsatu
ibse
ibsee
ibseef
ibseera
ibsetti
ibsi
ibsiifachuu
ibsiifannaa
ibsiisaa
ibsimuudha
ibsine
ibsinu
ibsite
ibsitu
ibsu
ibsutti
ibsuu
ibsuudha
ibsuudhaaf
ibsuuf
ibsuufis
ibsuun
ibu
ibuma
ibuu
ibuun
ic
icaw
icciitii
icciitiin
iccitidhaan
iccitii
iccitiidhaan
iccitiin
iccitiitti
ice
iceberg
icebox
icecream
icha
ichaa
ichi
icicle
icing
iciteeffame
icitii
icon
iconoclast
icy
id
ida
idaa
idaan
idaanu
idaatii
idaayyichi
idaayyittii
idaho
idaya
idda
iddiddii
iddo
iddon
iddoo
iddoodhaa
iddoodhuma
iddoolee
iddoomaa
iddoommii
iddoon
iddoosaa
iddootti
iddoowwan
iddoowwanii
iddowwan
idea
ideal
idealism
idealize
identical
identification
identify
identity
ideogram
ideology
idil
idilee
idileetii
idiocy
idiolect
idiom
idioma
idiomatic
idiosyncrasy
idiot
idiotic
idle
idleness
idol
idolator
idolatrous
idolatry
idolize
idyll
ie
ieee
iegged
if
ifa
ifaa
ifaadha
ifaajii
ifaaju
ifaan
ifaatii
ifaatoo
ifachuu
ifaduu
ifamu
ifan
ifannaa
ifatan
ifatti
ife
ifee
iffa
iffaa
iffan
iffektii
iffi
iffu
iffy
ifi
ifii
ifiin
ifiiti
ifiitin
ifin
ifirraa
iflo
ifni
iftaan
ifte
ifti
iftikhar
iftooma
iftoomina
iftu
iftuu
ifu
ifumaa
ifumatti
ifuu
ig
iggita
iggitaa
igloo
igneous
ignite
ignition
ignoble
ignominious
ignominy
ignoramus
ignorance
ignorant
ignore
ignoring
iguana
ih
ii
iid
iida
iidhaa
iidhaaf
iidil
iif
iifa
iifii
iii
iil
iillee
iim
iin
iina
iinaan
iinis
iinsa
iinsi
iinsota
iinterliinguwaan
iisaa
iit
iiti
iitifii
iitiin
iitin
iitti
iivi
iizii
iiziitti
ij
ija
ijaa
ijaaba
ijaaf
ijaajjii
ijaajju
ijaan
ijaara
ijaaraa
ijaarama
ijaaraman
ijaaramanii
ijaarame
ijaaramee
ijaarameefii
ijaaramte
ijaaramu
ijaaramuu
ijaaramuuf
ijaaran
ijaaranii
ijaare
ijaaree
ijaarramaa
ijaarraman
ijaarramu
ijaarrate
ijaarrii
ijaarsa
ijaarsaa
ijaarsi
ijaartuu
ijaaru
ijaarudhaan
ijaaruu
ijaaruuf
ijaaruun
ijaatti
ijaazaa
ijarra
ijarraa
ijasaa
ijessani
ijessuf
iji
ijibbaachuu
ijibbaata
ijiipti
ijiiptii
ijiiptitti
ijji
ijjigaayyoo
ijjolle
ijjoollee
ijmaa
ijolle
ijollee
ijoo
ijoodha
ijoolee
ijoolle
ijoollee
ijoolleen
ijoollen
ijoollumaatti
ijoollumma
ijoollummaa
ijoollummaasaa
ijoollummaatti
ijoonni
ijoota
ik
il
ila
ilaa
ilaaf
ilaaha
ilaala
ilaalaa
ilaalaan
ilaalama
ilaalaman
ilaalame
ilaalamne
ilaalamnu
ilaalamu
ilaalamuu
ilaalamuuf
ilaalamuun
ilaalan
ilaalanii
ilaalcha
ilaalchaa
ilaalchaan
ilaalchi
ilaalchise
ilaalchisee
ilaalchisuun
ilaalchota
ilaale
ilaalee
ilaaleen
ilaali
ilaaliin
ilaalla
ilaallama
ilaallame
ilaallamu
ilaallata
ilaallateen
ilaallatu
ilaallatuun
ilaalle
ilaallu
ilaalluu
ilaalte
ilaaltee
ilaaltu
ilaalu
ilaaludhan
ilaalun
ilaalutti
ilaaluu
ilaaluuf
ilaaluun
ilaaluutti
ilaan
ilalcha
ilalii
ilalla
ilallama
ilallani
ilalli
ilallu
ilalluf
ilallun
ilaluf
ilaluuf
ilamaan
ilbee
ilbiisa
ilbiisni
ilbiisonni
ilbiisota
ilbiisotaa
ilbooma
ilfataa
ilfinash
ililfannaa
ililii
ilillii
ilka
ilkaan
ilkaanii
ilkaanitti
ilkanii
ilkanni
ilkee
ilkoo
ill
illa
illallaahu
illan
illee
illeensa
illeessa
illeetti
illeettii
illegal
illegibly
illegitimate
illiberal
illicit
illiteracy
illiterate
illness
illogical
illu
illuminate
illuminating
illusion
illusory
illustrate
illustration
illustrious
ilma
ilmaafi
ilmaan
ilmaaniifi
ilman
ilmasaa
ilmee
ilmi
ilmii
ilmoo
ilmoolee
ilmoon
ils
ilteeninnaa
ilu
iluu
iluun
im
ima
imaa
imaaf
imaam
imaammata
imaammataa
imaanaa
imaati
imaatti
image
imagery
imaginable
imaginary
imagination
imagine
imaging
imala
imalaa
imale
imalee
imalli
imaltoonni
imaltootaaf
imaltuu
imaluun
imam
imbaaboo
imbaasii
imbaasin
imbalance
imbasiin
imbecile
imbibe
imbiraa
imbroglio
imbue
imdb
imeelii
imimmaan
imimmaanii
imimmaaniin
imitate
imitation
imitator
imkulluu
immaan
immaanii
immaculate
imman
immanent
immanii
immaniif
immaterial
immature
immeasurable
immediate
immediately
immemorial
immense
immensely
immerse
immersion
immigrant
immigrate
immigration
immimmaan
imminence
imminent
immiruu
immo
immobile
immobility
immobilize
immoderate
immodest
immolate
immoo
immoral
immorality
immortal
immortality
immovable
immune
immunise
immunity
immunize
immunoglobulins
immunology
immure
immutable
imoo
imp
impaayera
impaayeroonni
impaayerri
impact
impair
impale
impalpable
impart
impartial
impartiality
impassable
impasse
impassioned
impassive
impatience
impeach
impeachment
impeccable
impecunious
impede
impediment
impedimenta
impeeriyaalistii
impeeriyaalistiitif
impeeriyaalizimii
impeeriyaalizimiin
impel
impending
impenetrable
impenitent
imperative
imperceptible
imperer
imperfect
imperfection
imperial
imperialism
imperil
imperious
imperishable
imperiyaalizimii
impermanent
impermeable
impersonal
impersonate
impertinence
impertinent
imperturbable
impervious
impetigo
impetuous
impiety
impinge
impious
impish
implacable
implant
implausible
implement
implementation
implicate
implication
implicit
implicitly
implode
implore
imply
impolite
impoliteness
impolitic
imponderable
import
importance
important
importation
importer
importunate
importune
impose
imposed
imposing
imposition
impossible
imposter
impostor
imposture
impotence
impotent
impound
impoverish
impoverished
impoverishment
impracticable
impractical
imprecation
imprecise
impregnable
impregnate
impresario
impress
impression
impressionable
impressive
imprimatur
imprint
imprison
imprisoned
imprisonment
improbable
impromptu
improper
impropriety
improve
improved
improvement
improvident
improvise
imprudent
impudence
impudent
impugn
impulse
impulsive
impunity
impure
impurity
impute
imtihaana
imummaa
imuu
in
ina
inaa
inaafaa
inaaffaa
inaaftuu
inaafuu
inaafuun
inaan
inaariyaa
inability
inaccessible
inaccuracy
inaccurate
inaction
inactivation
inactive
inadequacy
inadequate
inadmissible
inadvertent
inadvertently
inadvisable
inalienable
inane
inanimate
inanity
inapplicable
inappropriate
inapt
inaptitude
inarticulate
inattention
inattentive
inaudible
inaugural
inaugurate
inauguration
inauspicious
inauthentic
inboard
inborn
inbred
inbreeding
inbuilt
inc
incalculable
incandescent
incantation
incapability
incapable
incapacitate
incapacity
incarcerate
incarceration
incarnate
incarnation
incautious
incendiary
incense
incentive
inception
incessant
incest
incestuous
inch
inches
inchii
inchoate
inchworms
incidence
incident
incidental
incidentally
inciinnii
incinerate
incinerator
incinnii
incinniitin
incipient
incise
incisive
incisor
incite
incitement
incivility
inclement
inclination
incline
inclose
inclosure
include
includes
including
inclusion
inclusive
incognito
incoherence
incoherent
income
incoming
incommensurable
incommensurate
incommode
incommunicado
incomparable
incompatibility
incompatible
incompetence
incompetent
incomplete
incomprehensible
incomprehension
inconceivable
inconclusive
incongruous
inconsequential
inconsiderable
inconsiderate
inconsistent
inconsolable
inconspicuous
inconstant
incontestable
incontinent
incontrovertible
inconvenience
inconvenient
incorporate
incorporeal
incorrect
incorrigible
incorruptible
increase
incredible
incredulity
incredulous
increment
incriminate
incrustation
incubate
incubation
incubator
incubus
inculcate
incumbency
incumbent
incur
incurable
incurious
incursion
inda
indaakshin
indaakshinii
indaakterii
indaakteriin
indaakteroonni
indebted
indecency
indecent
indecipherable
indecision
indecisive
indecorous
indeed
indefatigable
indefensible
indefinable
indefinite
indelible
indelicate
indemnify
indemnity
indent
indentation
indenture
independence
independent
indescribable
indestructible
indeterminate
index
india
indian
indiarubber
indicate
indicated
indication
indicative
indicator
indict
indictment
indies
indifference
indifferent
indigence
indigenous
indigent
indigestible
indigestion
indignant
indignation
indignity
indiis
indirect
indirectly
indiscernible
indiscipline
indiscreet
indiscretion
indiscriminate
indispensable
indisposed
indisposition
indisputable
indisputably
indissoluble
indistinct
indistinguishable
individual
individualism
individuality
individualized
individually
indivisible
indiyaa
indiyaan
indiyaatti
indo
indoctrinate
indolence
indolent
indomitable
indoneeshiyaa
indoneeshiyaan
indonesia
indoor
indoors
indootoo
indooyyee
indrawn
indubitably
induce
inducement
induct
induction
inductive
indulge
indulgence
indulgent
industirii
industiriin
industrial
industrialize
industrii
industrious
industry
ine
inebriate
inebriated
inebriation
inedible
ineffable
ineffective
ineffectual
inefficient
inelastic
inelegant
ineligible
ineluctable
inept
inequality
inequitable
inequity
ineradicable
inert
inertia
inescapable
inessential
inestimable
inevitable
inevitably
inexact
inexcusable
inexhaustible
inexorable
inexpedient
inexpensive
inexperience
inexpert
inexpiable
inexplicable
inexpressible
inexpressive
inextinguishable
inextricable
infallible
infamous
infamy
infancy
infant
infanticide
infantile
infantilism
infantry
infantryman
infatuate
infatuated
infatuation
infect
infection
infections
infectious
infective
infer
inference
inferior
inferiority
infernal
inferno
infertile
infertility
infest
infestation
infidel
infidelity
infighting
infill
infiltrate
infiltration
infiltrator
infiluweenzaa
infinite
infinitely
infinitesimal
infinitive
infinity
infirm
infirmary
infirmity
inflame
inflammable
inflammation
inflammatory
inflatable
inflate
inflated
inflation
inflect
inflection
inflexible
inflict
inflorescence
inflow
influence
influential
influenza
influx
info
infobox
inform
informal
informant
information
informative
informed
informer
infra
infraction
infrastructure
infrequent
infringe
infringement
infuriate
infuse
infusion
ingenious
ingenue
ingenuity
ingenuous
ingest
ingiccaa
ingilaand
ingilaandi
ingilaanditti
ingiliffa
ingiliffaa
ingiliffaan
ingiliffaati
ingiliish
ingiliz
ingilizi
ingilizii
ingiliziif
ingiliziitiin
ingiliziitti
ingilizoonni
ingilizoota
inglenook
inglilizii
inglizii
inglorious
ingot
ingrained
ingratitude
ingredient
ingredients
ingress
ingrowing
inhabit
inhabitable
inhabitant
inhalation
inhale
inhaler
inharmonious
inherent
inherit
inheritance
inheritor
inhibit
inhibited
inhibition
inhospitable
inhospitality
inhuman
inhumane
inhumanity
inii
iniin
inimical
inimitable
iniquitous
iniquity
inistiitiyuutii
initial
initiate
initiation
initiative
initiator
inject
injection
injifachuu
injifannoo
injifannoon
injifannoowwan
injifataa
injifatamne
injifatamuu
injifatani
injifatanii
injifate
injiinera
injiini
injiinii
injinar
injineeringii
injinerii
injineriingii
injineriingiin
injineroonni
injineroota
injiraan
injudicious
injunction
injure
injured
injurious
injury
injustice
ink
inkling
inland
inlaws
inlet
inmate
inmost
inn
inna
innaa
innaan
innards
innate
inner
innermost
inni
innii
inniifi
innika
inninis
innis
inniyyuu
innkeeper
innocence
innocent
innocuous
innovate
innovation
innuendo
innumerable
innumerate
inoculate
inoculation
inoffensive
inoperable
inoperative
inopportune
inordinate
inorganic
input
inquest
inquietude
inquire
inquirer
inquiry
inquisition
inquisitive
inquisitor
inroad
inrush
insa
insaan
insane
insanitary
insanity
insatiable
insatiate
inscribe
inscription
inscrutable
insect
insecticide
insectivore
insectivorous
insects
insecure
inseminate
insemination
insensate
insensibility
insensible
insensitive
inseparable
insert
insertion
inset
inshore
insi
inside
insider
insidious
insight
insignia
insignificant
insii
insilaala
insincere
insinuate
insinuation
insipid
insist
insistent
insole
insolence
insolent
insoluble
insolvent
insomnia
insomniac
insouciance
inspect
inspection
inspector
inspiration
inspire
instability
install
installation
instant
instead
instep
instigate
instigation
instigator
instil
instinct
instinctive
instinctively
institut
institute
institution
institutional
instruct
instruction
instructions
instructive
instructor
instrument
instrumental
instrumentalist
insubordinate
insubordination
insubstantial
insufferable
insufficient
insular
insularity
insulate
insulation
insulator
insulin
insult
insulting
insuperable
insupportable
insurance
insure
insurgency
insurgent
insurmountable
insurrection
int
intact
intaglion
intake
intala
intalaa
intalaati
intalasaanii
intalli
intalmootii
intalti
intangible
intarneetii
integireetid
integral
integrate
integrated
integration
integrity
integument
intel
intellect
intellectual
intelligence
intelligent
intelligentsia
intelligibility
intelligible
intemperance
intemperate
intend
intendentii
intense
intensifier
intensify
intensity
intensive
intensively
intent
intention
intentional
intentionally
intentioned
inter
interact
interaction
interactive
interbreed
intercalary
intercede
intercept
interception
interceptor
intercession
interchange
interchangeable
intercollegiate
intercom
intercommunicater
intercommunication
intercommunion
interconnect
interconnected
interconnection
intercontinental
intercourse
interdepartmental
interdependent
interdict
interdisciplinary
interest
interested
interesting
interface
interfere
interference
interfering
interferon
interim
interior
interject
interjection
interlace
interlard
interleave
interlock
interloper
interlude
intermarriage
intermarry
intermediary
intermediate
interment
intermezzo
interminable
intermingle
intermission
intermittent
intermittently
intermix
intern
internaashinaal
internacional
internal
international
internationale
internationalism
internecine
internee
interneetii
internet
internment
internz
interpellat
interpenetrate
interpersonal
interplanetary
interplay
interpol
interpolate
interpose
interpret
interpretation
interpretative
interpreter
interracial
interregnum
interrelate
interrelation
interrogate
interrogation
interrogative
interrogator
interrupt
interrupter
interruption
intersect
intersecting
intersection
intersperse
interstate
interstellar
interstice
intertribal
intertwine
interval
intervene
intervention
interventionism
interventionist
interview
interviewee
interviewer
interweave
intestacy
intestate
intestinal
intestine
intimacy
intimate
intimation
intimidate
intimidation
intintransitive
into
intolerable
intolerance
intolerant
intonation
intone
intoxicant
intoxicate
intoxicated
intoxicating
intoxication
intra
intractable
intramural
intransigent
intravenous
intrench
intrepid
intricate
intrigue
intriguer
intriguing
intrinsic
intro
introduce
introduction
introductory
introspect
introspection
introvert
introverted
intrude
intruder
intrusion
intrusive
intuit
intuition
intuitive
inuma
inumaa
inumaayyuu
inundate
inure
inuu
invade
invaded
invader
invalid
invalidate
invalidation
invalidity
invaluable
invariable
invasion
invasive
invective
inveigh
inveigle
invent
invention
inventions
inventive
inventor
inventory
inverse
inversion
invert
invertebrate
invest
investigate
investigation
investigator
investii
investimeentii
investimentii
investiture
investment
investor
inveterate
invidious
invigilate
invigilator
invigorate
invigorating
invincible
inviolable
inviolate
invisible
invitation
invite
inviting
invocation
invoice
invoke
involuntary
involute
involve
involved
invulnerable
[...]
