!
"
#
##0
##1
##10
##11
##12
##13
##14
##15
##16
##17
##18
##19
##2
##20
##21
##22
##23
##24
##25
##26
##27
##28
##29
##3
##30
##31
##32
##33
##34
##35
##36
##37
##38
##39
##4
##40
##41
##42
##43
##44
##45
##46
##47
##48
##49
##5
##50
##51
##52
##53
##54
##55
##56
##57
##58
##59
##6
##60
##61
##62
##63
##64
##65
##66
##67
##68
##69
##7
##70
##71
##72
##73
##74
##75
##76
##77
##78
##79
##8
##80
##81
##82
##83
##84
##85
##86
##87
##88
##89
##9
##90
##91
##92
##93
##94
##95
##96
##97
##98
##99
$
%
&
'
(
)
*
+
,
-
.
/
0
00
000
0000
01
010
02
025
03
030
04
0450
05
0510
06
07
08
084
086
09
1
10
100
1000
10000
101
102
103
104
105
106
108
11
110
1100
111
112
114
115
116
117
12
120
1200
121
123
125
126
127
13
1339
134
135
1357
138
139
1394
14
140
143
1453
148
1485
149026
1498
15
150
1500
1504
1505
1507
152
1522
1530
1536
1538
1545
1546
1554
1562
1563
1570
1578
1586
1594
16
160
1600
164
1640
1642
1648
166
1663
1665
1667
1687
169
17
170
1710
175
1776
1777
178
1788
179
1793
18
180
1800
18000
1806
1813
182
1820
1827
1830
1834
1835
1840
1844
1847
1848
185
1850
1851
1852
1854
1855
1856
1858
1859
1860
1861
1862
1863
1864
1865
1866
1867
1869
1870
1871
1872
1873
1874
1875
1876
1877
1879
1880
1881
1882
1884
1885
1886
1887
1888
1889
189
1890
1891
1892
1893
1894
1895
1896
1897
1898
1899
19
190
1900
1901
1902
1903
1904
1905
1906
1907
1909
1910
1911
1912
1913
1914
1915
1916
1917
1918
1919
192
1920
1921
1922
1923
1924
1925
1926
1927
1928
1929
1930
1931
1932
1933
1934
1935
1936
1937
1938
1939
1940
1941
1942
1943
1944
1945
1946
1947
1948
1949
1950
1951
1952
1953
1954
1955
1956
1957
1958
1959
196
1960
1961
1962
1963
1964
1965
1966
1967
1968
1969
197
1970
1971
1972
1973
1974
1975
1976
1977
1978
1979
1980
1981
1982
1983
1984
1985
1986
1987
1988
1989
1990
1991
1992
1993
1994
1995
1996
1997
1998
1999
2
20
200
2000
2001
2002
2003
2004
2005
2006
2007
2008
2009
2010
2011
2012
2013
20130415060815
2014
2015
2016
2017
2018
2019
2020
2021
2022
203
21
210
212
214
216
217
22
220
221
223
225
228
229
23
230
231
232
233
234
235
237
238
24
240
2400
246
247
25
250
254
255
256
257
258
26
262
263
27
270
275
28
280
281
283
29
290
296
2991
3
30
300
3000
31
311
32
320
323
327
33
331
34
35
350
353
354
36
360
365
37
370
375
38
381
39
397
4
40
400
4000
4004
41
42
428
43
430
44
440
45
450
46
460
47
48
49
5
50
500
5000
509
51
513
52
53
54
541
55
555
56
57
570
577
58
59
6
60
600
601
61
62
63
632
635
64
643
65
659
66
669
67
68
689
69
7
70
700
702
71
72
73
7355
74
743
7432
75
750
75884
76
77
78
79
790
8
80
800
81
82
83
830
84
85
86
87
8750
88
89
9
90
900
91
910
92
93
937
95
96
97
974
978
98
985
99
:
;
<
=
>
?
@
\
^
_
`
a
aa
aaa
aabbaa
aabbaaf
aabbaan
aabbaanis
aabbaas
aabbaatti
aabboo
aachuu
aad
aada
aadaa
aadaan
aadaatti
aadam
aadama
aadde
aadha
aadhaa
aadhaan
aadhati
aaf
aafi
aafii
aafrikaa
aaga
aagaa
aajjaa
aakshinii
aakshiniin
aaksum
aakterii
aaktiivii
aalama
aalamaa
aalfaa
aalima
aallee
aama
aan
aana
aanaa
aanaafaa
aanaalee
aanaan
aanaatti
aanafii
aanan
aananii
aananiif
aane
aanee
aanga
aangoo
aangoon
aangoorra
aangootti
aangorraa
aani
aanichaa
aanii
aanjeles
aannaan
aannan
aannanii
aanni
aannisaa
aannoo
aanolee
aanoleen
aanoolee
aanoota
aanota
aansa
aanse
aansee
aansees
aansoo
aansoon
aansudhaan
aansun
aansunis
aansuun
aantee
aanteti
aantima
aantummaa
aanu
aanutti
aanuu
aanuun
aanuutti
aara
aaran
aare
aaree
aareen
aari
aarii
aarkii
aaron
aarri
aarrii
aarsa
aarsaa
aarse
aarsu
aarsuu
aartii
aartiin
aaruu
aasaa
aatee
aati
aatifii
aatii
aatiin
aatin
aatti
aattis
aatu
aawaa
aawwan
aayerlaandi
aayina
aayyoon
ab
abaa
abaaboo
abaadaa
abaadir
abaan
abaaramaa
abaaramaan
abaarree
abaarsa
abaarsi
ababa
abadan
abalu
abarraa
abarraan
abashaa
abba
abbaa
abbaabooraa
abbaaf
abbaan
abbaana
abbaansaa
abbaanshii
abbaas
abbaasaa
abbaayi
abbaayitti
abbabaa
abbabaaf
abbabaan
abbabora
abbas
abbayyaa
abbichuu
abboo
abboommii
abboota
abbootii
abbootiin
abbootin
abc
abdadha
abdadhu
abdallaa
abdallaahi
abdallaan
abdii
abdiin
abdiinis
abdiisaa
abdiisaan
abdiisan
abdiisanis
abdul
abdullaahi
abdullaahii
abdullaahirraa
abdullaxiif
abdullee
abdulqaadir
abdulrahmaan
abdurrahmaan
abebe
abee
abera
abidda
abiddaa
abiishee
abiisheen
abiishen
abishee
abisiiniyaa
abisiniyaa
abiy
abiyyi
abjuu
abjuun
abo
abon
aboo
abootee
abotti
about
above
abrahaam
absd
abshaala
abshiir
abshir
abstract
abu
abubakar
abut
abuu
abuuna
abuunaa
abuurraa
abuurraan
abuurtonni
abuuruu
abysinia
abyssinia
abyssinica
ac
acade
academic
academy
access
accessed
achaa
achi
achii
achiimmoo
achiin
achiis
achiisaa
achiisu
achirraa
achirraan
achirratti
achirrattis
achis
achittan
achitti
achittii
achittiis
achittis
achu
achudhaan
achuma
achumaa
achumaan
achumaanis
achumarraan
achumatti
achuu
achuudhaan
achuuf
achuun
acid
act
action
activated
activation
active
activity
actor
acts
acute
ad
ada
adaa
adaabbaa
adaabbaatti
adaadaa
adaal
adaamaa
adaamaatti
adaamii
adaba
adabaa
adabbii
adaduma
adafiin
adal
adam
adamoo
adansonia
adara
adaraa
adare
adaree
adareen
adawwii
adbaarii
add
adda
addaa
addaaf
addaan
addaani
addaarra
addaarraa
addaarratti
addaati
addaatif
addaatiin
addaatin
addaatti
addaatu
addan
addarratti
addatti
addayaa
addee
addeellee
addeessa
addeessaa
addeessi
addi
addis
addisuu
addooyyee
address
addummaa
addummaan
addunya
addunyaa
addunyaaf
addunyaalessaa
addunyaan
addunyaarra
addunyaarraa
addunyaarratti
addunyaatti
addunyarratti
adduunyaa
adeema
adeemaa
adeeme
adeemee
adeemsa
adeemsaa
adeemsi
adeemsifamaa
adeemsisaa
adeemsisuuf
adeemtotaatin
adeemuu
adeera
ademaa
ademani
ademma
ademmu
ademsaa
ademsifame
ademsii
ademsisaa
ademuu
adere
adha
adhaaf
adhaan
adhe
adhee
adhesion
adhu
adhunyaatiin
adidaas
adii
adiif
adiin
adina
adiyyoo
adj
adjustable
admaasun
admaasuu
admiral
adoola
adoolaa
adooleessa
adoolessa
adoolessaa
adoolfi
adsorption
adunya
adunyaa
adurree
aduu
aduulaa
aduun
aduutti
aduwaarratti
adventures
advocate
advocates
adwui
adwuin
aerobic
aeronautics
af
afaan
afaani
afaanichumaa
afaanii
afaaniin
afaanin
afaanitti
afaanonni
afaanota
afaanotaa
afaansaanii
afaanuma
afan
afanoromo
afar
afata
afee
affaar
affaarii
affair
affeellii
affeeraman
affeerraa
affeerte
afii
afiroo
afoola
afoolaa
afoolota
afraffaa
afraffaan
afran
africa
african
afriikaa
afrika
afrikaa
afrikaan
afrikaanonni
afrikaans
afrikaarraa
afrikaatti
afrique
afrobasket
afroo
after
afur
afuri
afurii
afuriif
afuriin
afurirraa
afuritti
afurtama
afurtamii
afurtu
afuufu
afuura
afuuraa
afuuraan
afuurri
aga
agaadir
against
agarfa
agarii
agariin
agarre
agarree
agarsiifaman
agarsiifte
agarsiisa
agarsiisaa
agarsiisan
agarsiise
agarsiisu
agarsiisuf
agarsiisun
agarsiisus
agarsiisutti
agarsiisuu
agarsiisuuf
agarsissa
agarsisu
agarteettaaree
agartuu
agaw
age
agency
aggaamame
aggaaroo
agriculture
ah
ahead
ahimad
ahimadiin
ahmad
ahmar
ahmed
aids
aims
aint
air
aircraft
ajaa
ajaaniba
ajaja
ajajaa
ajajaan
ajajame
ajaje
ajajee
ajajeera
ajajichaa
ajajni
ajajoonni
ajajoota
ajajootaa
ajajuuf
ajeessaa
ajeesuu
ajeesuuf
ajjeechaa
ajjeechaan
ajjeefaman
ajjeefamanii
ajjeefame
ajjeefamu
ajjeefamuu
ajjeefne
ajjeeftu
ajjeesa
ajjeesaa
ajjeesan
ajjeesanii
ajjeese
ajjeesee
ajjeessa
ajjeessan
ajjeesse
ajjeessee
ajjeessi
ajjeessu
ajjeessuu
ajjeessuun
ajjeesu
ajjeesun
ajjeesuu
ajjeesuudhaan
ajjeesuuf
ajjeesuun
ajjesani
ajjesse
ajma
ajuuz
ak
aka
akaakayyuu
akaakayyuun
akaakayyuusaa
akaakun
akaakuu
akaakuun
akaawwii
akan
akeeka
akeekaa
akeekan
akeekkachiifna
akeekkachiisa
akeekkachiisaa
akeekkachiisan
akeekkachiiseera
akeekni
akeekuu
akhaakhiyyee
akk
akka
akkaa
akkaadaamii
akkaadaamiin
akkaan
akkaata
akkaataa
akkaataan
akkaatadhuma
akkam
akkamii
akkamiin
akkamiinan
akkamiitti
akkamitti
akkamittii
akkamittiin
akkan
akkana
akkanaa
akkanatti
akkanattin
akkanni
akkanuma
akkas
akkasaa
akkasi
akkasii
akkasiin
akkasis
akkasittan
akkasitti
akkasittin
akkasum
akkasuma
akkasumaan
akkasumaanii
akkasumaaniiti
akkasumaaniitti
akkasumaas
akkasumas
akkasumatti
akkata
akkataa
akkataan
akkatan
akkatta
akkattan
akkatti
akkawoon
akki
akkitti
akkoo
akkoon
akksumas
akkuma
akkumaa
akkuman
akkumma
akliluu
akmooyyee
aktiivii
aktiiviitii
aktiviitii
akuma
al
ala
alaa
alaabaa
alaabaan
alaamaa
alaan
alaarraa
alaarratti
alaatiin
alaatin
alaatti
alaga
alagaa
alaltuu
alam
alamaayyoo
alamganaa
alamuu
alamuun
alan
alangaa
alaqaa
alarm
alaska
alatti
alattis
alayka
alaykum
albaanin
albaatii
albama
albamii
albamiin
albert
alberti
albinism
albino
albiyumiin
albudii
album
albumin
albuuda
albuudaa
albuudni
albuudonni
albuudota
albuudotaa
aldebaran
ale
aleeksaander
alen
alenquer
alesaandiroo
alessandro
alex
alfabeetii
alfireed
algajima
alge
algeciras
algee
alger
algerie
alh
ali
alii
aliin
aliinis
aliyyii
aliyyiin
aljebraa
aljeeriyaa
aljeers
alkaalaayinii
alkali
alkan
alkanii
alkeenii
alkeenota
alkoolii
all
alla
allaah
allaayidii
allafe
alle
allee
allied
alooluu
alpaayin
alpha
also
alt
alternating
aluuminiyeemii
alveolar
alves
alvise
alwaaha
always
am
ama
amaa
amaan
amaanaa
amaara
amaaraa
amaaraatiin
amaariffaa
amaariffaan
amaaroota
amaarri
amajji
amajjii
amajjiin
amala
amalaa
amalashee
amalli
amaloonni
amaloota
aman
amana
amanama
amanamoo
amanamu
amanamummaa
amanamummaan
amanan
amananii
amananiif
amanda
amane
amanee
amaneef
amaneera
amani
amanii
amanne
amansiisaa
amansiise
amansiisuu
amantaa
amante
amantee
amantes
amantii
amantiin
amantiitti
amantoota
amantu
amantummaa
amanu
amanuu
amanuuf
amanuun
amaraa
amas
amata
amazing
ambaa
ambaasaaddara
ambisee
ambisuuf
ambo
amboo
ambootti
amd
ame
amee
ameef
ameen
ameera
ameeriikaa
ameerikaa
ameerikaan
ameerikaanota
ameerikaas
ameerikaatti
ameerikkaa
amendment
america
american
ameriikaa
amerikaa
ametti
amfibiyaanota
amh
amiir
amine
amino
aminoo
amir
amisterdaam
amma
ammaa
ammaaf
ammaan
ammaanii
ammaanitti
ammaas
ammaatti
ammachiisa
ammajjii
ammalla
ammallee
ammam
ammammoo
ammamtaa
ammao
ammas
ammata
ammatti
ammayya
ammayyaa
ammayyuu
ammo
ammoo
ammooniyeem
ammuma
ammumarraa
amna
amne
amnistii
among
amount
ampasiin
ampilifaayerii
ampilifaayeriitti
amplifier
amplifiers
ampuulii
amsterdam
amtu
amtutti
amu
amuruu
amutti
amuu
amuuf
amuun
an
ana
anaa
anaaf
anaafii
anaafis
anaalaayizeriin
anaalitikaal
anaaloogii
anaan
anaanis
anaatoomii
anaatoomin
anaatu
anaerobic
analysis
anarratti
anas
anatomy
anatti
anatu
anchote
ancient
ancootee
ancooteen
ancooten
and
andaaqqoo
andaaqqoon
andrea
andrew
andy
anfilloo
anga
angaawonni
angafa
angafaa
angafni
angafoo
angafoota
angeetuu
angeles
angle
angoo
angoolaa
angoon
angoorra
angoorraa
ani
anidha
anifi
anii
aniidha
aniif
aniifi
aniin
aniiru
aniiti
anil
animal
animalia
animals
animation
anime
animmoo
anirra
anirratti
anirru
anis
anistaayin
anitti
anka
anna
annaa
annaatti
annaka
anne
annee
anneef
anni
anniisaa
anniisaan
anniisaatti
anniyyaa
anno
annoo
annoon
annu
anoo
anoodii
another
anqaaquun
ansarii
ansoosillaa
ant
antaarkitiikaa
anteenaa
anthracis
anthrax
anthropological
anthropology
anti
antibodies
antigen
antiibaayotiiksiin
antiibayotiiksii
antiibodii
antiiliis
antiraaksi
antiraaksii
antiraaksiin
antiraaksin
antiraasis
antiraasisiin
anto
antonio
antu
anuma
anumaa
anumti
anuu
any
appaartaayidii
apparent
appearances
appendicitis
application
applications
applied
appraisal
appropriate
april
aqaaqii
ar
araada
araara
araaraa
araaraaf
arab
araba
arabaa
arabaan
arabaatifii
arabaatii
arabaatiin
arabaatin
arabaatti
arabi
arabia
arabic
arabiffaa
arabiin
arabiyaa
arable
arabni
araboonni
araboota
araddaa
arafa
arafaa
aragaay
arba
arbaa
arbooyyee
archaea
architecture
archive
archived
ardaa
ardaan
ardii
ardiilee
are
area
areas
aree
areeda
areeroo
arfaasa
arfaasaa
arfaffaa
arfaffaan
arfan
arga
argaa
argachaa
argachuu
argachuudhaaf
argachuudhaan
argachuuf
argachuun
argadhe
argadhee
argadheera
argadhu
argadhutti
argama
argamaa
argaman
argamani
argamanii
argamaniidha
argamaniin
argamaniiru
argamanis
argamanitti
argame
argamedha
argamee
argameen
argameera
argames
argammu
argamne
argamni
argamte
argamtee
argamti
argamtii
argamtu
argamtudha
argamtutti
argamtuu
argamtuudha
argamu
argamudha
argamun
argamurraa
argamus
argamutti
argamuu
argamuudha
argamuufi
argamuun
argan
arganii
arganiiru
arganna
argannaan
arganne
argannee
argannoo
argannoon
argannoosaa
argannu
argansuu
argansuun
argata
argatan
argatanii
argataniin
argataniiru
argate
argatedha
argatee
argateen
argateera
argates
argatta
argattan
argatte
argattee
argatti
argattu
argatu
argatuu
arge
argee
argeef
argeen
argeera
argentina
argetti
argii
argiin
argin
arginaan
argine
arginee
argineen
arginu
arginutti
argisiifne
argisiisa
argisiisu
argisiisuu
argita
argite
argitee
argitu
argu
arguu
arguudha
arguudhaan
arguuf
arguun
ari
arii
ariifachiise
ariifachuu
ariifachuun
ariifadheera
ariifataa
ariitidhaan
ariitii
ariitiin
ariitin
aristootil
aristotle
arithmetic
arjentiinaa
arjoo
arkiiyaa
arkiteektii
arkitiik
arkiyaan
arm
armaan
army
around
arpanet
arra
arraa
arraba
arrabaa
arrabni
arrabsan
arrabse
arrabsoo
arrabsu
arrabsuu
arratti
array
arrii
arsadii
arsi
arsii
arsiin
arsiirraa
arsiitti
arssi
art
arterial
arthur
article
articles
artificial
artii
artiistoota
artist
artisti
artistii
artistoota
artistti
arts
artti
aruusi
as
asaa
asaab
asaabaa
asafa
asaffaa
asaffaan
asakoo
asallaa
asan
asasa
asattoo
asattoon
asella
ash
ashaabi
ashaboo
ashaboon
ashangee
asheeta
ashhadu
ashkara
ashkarri
asid
asidaawaa
asidii
asii
asiidii
asiif
asiin
asiis
asirraa
asirraan
asirratti
asitti
askaarii
asmerom
asoosaa
asoosama
asoosamaa
asoosamoota
aspects
asri
asrii
assalaamu
assam
assault
assembilii
assembiliitin
assembiliitti
assembly
assess
association
associations
asteer
asteroid
asthenosphere
astironoomii
astiroonoomii
astm
astronomical
astronomy
asuma
asumaa
asxaa
at
ata
ataa
atama
atamaa
atame
atamii
atamiin
atamiirraa
atamtu
atamu
atamuu
atan
atanasof
atani
atanii
ataniin
atara
ataraa
atarii
atattamaan
ate
atee
ateensi
ateera
ateetee
ateeteen
atheist
athlete
athletics
ati
atii
atiin
atilaantiik
atilaantiikiin
atilaantiikitti
atilaantik
atilaantikii
atileet
atileetii
atileetiksii
atileetonni
atileetota
atiloon
atin
atis
atiyyuu
atlantic
atmosferra
atmosphere
atmospheric
atom
atomic
atomii
atomiikiitin
atoomichaa
atoomii
atoomiin
atoomonni
atoomota
atoomsaa
atoota
atta
attack
attain
atte
attee
attempt
atti
attu
atu
atumti
atuu
atuudha
atuuf
au
audio
auf
aug
august
augustus
aurantiaca
aurora
australia
australian
austria
authority
auto
automatic
autonomous
autumn
auxiliary
av
available
avenue
average
avireejjiin
avirejjiin
avregiin
aw
awaash
awaashi
awaashitti
awadaay
awaday
awal
award
awards
awuraajjaa
awurooppaa
awustiraaliyaa
awustiraaliyaan
awustireeliyaa
awustireliyaa
awwaala
awwaalame
awwaalamu
awwaalan
awwaalcha
awwaalchaa
awwaallame
awwaalli
awwaannisaa
awwaaroo
awwalcha
awwaluu
ayiskiriimii
ayizenawerii
ayizenewari
aylii
ayonii
ayonoota
ayowaa
ayuub
ayyaana
ayyaanaa
ayyaaneffata
ayyaani
ayyaanni
ayyaanota
ayyaantuu
ayyaantuun
ayyaneffata
ayyuub
azarbaajan
azhar
azhara
azhariin
azharirraa
azharitti
azza
azzaa
b
ba
baa
baabbichaa
baabbile
baabbilee
baabeeji
baabiloon
baabura
baaburaa
baaburri
baacaa
baachuu
baachuun
baacoo
baadhaa
baadhe
baadhee
baadhes
baadiya
baadiyaa
baadiyyaa
baadiyyaatti
baadudhaan
baadun
baaduu
baafachuu
baafachuuf
baafachuun
baafame
baafamee
baafannaa
baafatan
baafate
baafattee
baafatu
baafne
baafnee
baafneef
baafte
baaftee
baafti
baaftu
baahir
baahire
baahiree
baakireel
baakister
baakkoo
baakteeriyaa
baakteeriyaan
baala
baalaa
baalaan
baale
baalee
baaleen
baaleeti
baaletti
baalii
baallama
baallamii
baalli
baallii
baanaan
baandaa
baandaan
baandii
baandin
baandiraa
baandonni
baane
baanee
baangilaadish
baankii
baannaan
baanne
baannee
baanu
baaqelaa
baardiin
baarentummaa
baarentuu
baariyeem
baaron
baaroo
baaroon
baarree
baasa
baasaa
baasaan
baasaboortii
baasan
baasani
baasanii
baasaniif
baase
baasedha
baasee
baaseen
baaseera
baasef
baasha
baashaa
baasi
baasii
baasiin
baasiles
baasin
baasnee
baasu
baasuf
baasun
baasuu
baasuudhaan
baasuuf
baasuun
baatan
baatanii
baatanis
baate
baatee
baateen
baates
baateyyuu
baati
baatii
baatiin
baatin
baatirichi
baatirii
baatiriicha
baatiriin
baatiriiwwan
baatiroonni
baattee
baattes
baattuu
baatu
baatus
baatuu
baatuus
baaxii
baaxiitti
baaxiiwwan
baay
baayee
baayina
baayinaan
baayinni
baayipoolaar
baayitii
baayitiin
baayogaaziin
baayolojii
baayoloojii
baayoloojiin
baayoloojikaawaa
baayoogaazii
baayoogaaziin
baayoogaaziitti
baayoogaazin
baayoolojii
baayyachaa
baayyate
baayyatee
baayyatu
baayye
baayyedhaaf
baayyedhaan
baayyee
baayyeef
baayyeen
baayyeensaa
baayyeesaa
baayyeetti
baayyeetu
baayyen
baayyensaa
baayyetti
baayyetu
baayyina
baayyinaa
baayyinaan
baayyinaanoromiyaa
baayyinan
baayyinni
baayyisuu
babaasaa
babaasetti
babal
baballachaa
baballachuu
baballachuun
baballanne
baballina
baballinni
baballisuu
baballisuuf
baballisuun
babba
babbage
babbareedaa
babbareedduu
babille
baburi
bacho
bachoo
bacillus
back
bacteria
bad
bada
badaa
badan
badanii
badda
baddaa
baddaan
baddallee
baddanii
badde
baddee
baddeessaa
baddetti
bade
badee
badeera
badhaadhaa
badhaafame
badhaasa
badhaasaa
badhaasni
badhaate
badhee
badi
badii
badiin
badiisa
badin
badiyya
badoo
badruddiin
badruu
badu
baduu
bag
baga
bageemidir
baha
bahaa
bahaaf
bahaan
bahaati
bahaatiin
bahaatti
bahachaa
bahachuu
bahan
bahani
bahanii
bahar
bahara
baharirraa
bahatti
bahe
bahedha
bahee
baheen
bahes
bahi
bahiin
bahiinsa
bahu
bahuu
bahuudha
bahuuf
bahuun
baird
baka
bakakkaa
bakakkaan
bakar
bakaree
bakka
bakkaa
bakkaan
bakkalcha
bakkan
bakkanniisa
bakkasaa
bakkashee
bakkatti
bakkee
bakkeedhaan
bakkeen
bakkeetii
bakkeetiin
bakkeetti
bakkeewwan
bakki
bakkii
bakkoota
bakkuma
bakri
bakrii
bakriin
bal
balaa
balaaf
balaafamaa
balaan
balali
balalii
balaliiwwan
balance
balaq
balaqqee
balay
balbala
balbalaa
balbalichaatti
balbalichi
balballeetti
balballi
baldhina
baldhinaan
bale
ball
balla
ballaa
balleeffamuu
balleesee
balleessa
balleessaa
balleessaan
balleessan
balleesse
balleessee
balleessite
balleessu
balleessuu
balleessuuf
ballifamee
ballina
ballinaan
ballinan
ballini
ballinni
bamanankan
bana
banaa
banahuk
baname
banamu
banan
bananii
bane
banee
baneef
bang
bani
banii
bank
banne
bannee
bantii
bantu
banu
banuu
banuuf
banuun
baobab
baqaana
baqachuu
baqachuun
baqamaniiru
baqaqaan
baqaqsanii
baqaqsee
baqatan
baqatanii
baqate
baqatee
baqattoota
baqattootaa
baqattummaan
baqee
baqqaana
baqqala
baqqalaa
baqqalaan
bar
bara
baraa
baraan
baraanis
baraartoonni
baraaruuf
barachaa
barachu
barachuu
barachuuf
barachuun
baradhaa
baradhe
baradherraa
baradhu
barakatuufimoo
baramaadha
baramaan
barame
baramee
barammaa
baramne
baramu
baran
barana
baranii
baranne
barata
barataa
baratamaa
baratame
baratan
baratanii
barataniif
barate
baratee
baratoonni
baratte
baratti
barattoonni
barattoota
barattootaa
barattootni
barattu
barattuu
barattuuf
baratu
baratuu
baratuuf
barbaacha
barbaachifne
barbaachisa
barbaachisaa
barbaachisaadha
barbaachisaan
barbaachisan
barbaachise
barbaachiseef
barbaachisoo
barbaachisu
barbaachisuu
barbaachisuyyuu
barbaada
barbaadaa
barbaadaan
barbaadaf
barbaadama
barbaadamu
barbaadamuu
barbaadan
barbaadanii
barbaadaniif
barbaadanitti
barbaaddaa
barbaaddame
barbaaddamu
barbaadde
barbaaddee
barbaaddeetu
barbaaddi
barbaaddu
barbaade
barbaadee
barbaadeef
barbaadeeni
barbaades
barbaadetti
barbaadin
barbaadne
barbaadu
barbaadudha
barbaadun
barbaadutti
barbaaduu
barbaaduuf
barbaaduun
barbaaduutti
barbaanna
barbaanne
barbaanneef
barbaannu
barbachisa
barbachisaa
barbachisanni
barbadaa
barbadaan
barbadamu
barbade
barbadeessaa
barbadeessu
barbadeessuu
barbadeessuun
barbadu
barbaduu
barbareen
barcelona
barcuma
bare
baree
bareeda
bareedaa
bareedaan
bareedduu
bareedina
bareedinni
bareedoo
bareedu
bareef
bareefame
bareera
bargaa
bari
barihe
barii
bariisaa
barkeessaa
barker
barley
barliin
barmoota
barmootaa
barmootatti
barnaamija
barnoonni
barnoota
barnootaa
barnootaaf
barnootaatti
barnootasaa
barnotta
baro
baroota
barootaaf
barra
barraa
barre
barree
barreef
barreeffama
barreeffamaa
barreeffamaan
barreeffaman
barreeffame
barreeffamee
barreeffameen
barreeffamni
barreeffamoonni
barreeffamoota
barreeffamu
barreeffamuu
barreeffamuuf
barreerra
barreessa
barreessaa
barreessaan
barreessan
barreesse
barreessee
barreesseen
barreesseera
barreesseeru
barreessef
barreesserratti
barreessi
barreessine
barreessinuuf
barreessite
barreessitoonni
barreessitoota
barreessituu
barreessituun
barreessu
barreessuf
barreessun
barreessuu
barreessuuf
barreessuun
barreessuus
barrefama
barrefame
barrefami
barreffama
barri
barris
barrisan
barrisee
barrisi
barruu
barruulee
barruuleewwan
barruun
barsiifata
barsiisa
barsiisaa
barsiisaan
barsiisaatti
barsiisan
barsiise
barsiisee
barsiisonni
barsiisota
barsiisotaa
barsiisu
barsiisuu
barsiisuuf
barsiisuun
bartaa
bartu
baru
baruma
barumsa
barumsaa
barumsaaf
barumsaan
barumsaasaa
barumsasaa
baruu
baruuf
baruumsa
baruumsaa
baruumsaan
baruumsaatii
baruumsaatti
baruun
basa
basaasa
basaasaa
basalt
base
based
bash
basha
bashannana
bashannanaa
bashannansiisu
basic
basii
basin
basket
basketball
basketteuses
baskin
bassi
bassoo
bassu
basu
basuu
basuuf
bataskaana
bataskaanni
batee
battala
battalatti
battaluma
battalumatti
battee
batteries
battery
batti
battle
baxter
baxxee
bay
baya
bayaa
bayan
bayanii
baye
bayee
bayeef
bayeen
bayeessa
bayima
bayin
bayinaan
bayinna
bayna
bayu
bayuu
bayuun
bayyanaa
bayye
bayyee
bayyen
bayyetti
bayyina
bayyinaa
bayyinaan
bayyinan
bb
bbc
bbe
bc
bdbv
be
bebbeekkamoo
because
beck
becoming
beddellee
bedele
beejiingi
beejiingirratti
beeka
beekaa
beekaan
beekama
beekamaa
beekamaadha
beekaman
beekame
beekameera
beekamiin
beekamne
beekamneen
beekamoo
beekamti
beekamtii
beekamtu
beekamtuu
beekamtuudha
beekamu
beekamudha
beekamuu
beekamuudha
beekamuun
beekan
beekanii
beekaniif
beekaniiti
beekee
beekha
beekhaa
beekhi
beekhu
beekhuu
beekiin
beekin
beekkama
beekkamaa
beekkamaadha
beekkamaan
beekkaman
beekkamaniin
beekkame
beekkamee
beekkamne
beekkamneen
beekkamoo
beekkamoon
beekkamti
beekkamtii
beekkamtiin
beekkamtu
beekkamtummaa
beekkamtummaan
beekkamtuu
beekkamtuudha
beekkamu
beekkamus
beekkan
beekkomsa
beekkomsaa
beekkomsi
beekkumsa
beekkumsaa
beekkumsi
beekna
beekne
beeknee
beekneef
beekneen
beekneetti
beeknu
beeksisa
beeksisaa
beeksisan
beeksise
beeksisi
beeksisuu
beekta
beektaa
beektan
beektee
beektonni
beektota
beektu
beektuu
beeku
beekuf
beekumsa
beekumsaa
beekumsaan
beekun
beekutti
beekuu
beekuuf
beekuun
beel
beela
beelaan
beeljiyeem
beeljiyem
beellama
beelli
beelsen
been
beeniin
beenishaangul
beenyaa
beergen
beerii
beet
beeylada
beeyladoonni
beezii
before
beijing
being
beings
bekamin
bekele
bekkama
bekkamani
bekkame
bekkamerra
bekkamo
bekkamu
bekkin
bekku
belgium
believed
bell
bellatrix
belle
benz
bergen
berlin
besisaan
best
bet
beta
better
beyne
beynu
beyond
beytanii
bi
bible
biddeen
biddeena
biden
bidiree
bidiruu
bidiruun
bidiruuwwan
bidoollee
bif
bifa
bifaa
bifaafi
bifaan
bifti
bifuma
big
biifaa
biifolee
biiftuu
biikeriitti
biilaa
biiliyoona
biiron
biiroo
biirootti
biismaarki
bikila
bilbila
bilbilaa
bilbilame
bilbile
bilbilee
bilbilli
bilbiloo
bilbiloonni
bilbiluu
bilchaachaa
bilchaatee
bilchaatoo
bilchina
bilchinaan
bilii
bilillee
bililleen
bilisa
bilisaa
bilisaan
bilisumma
bilisummaa
bilisummaaf
bilisummaan
biliyoona
bill
billiona
billisumma
biluu
bin
binary
bineelda
bineeldaa
bineeldonni
bineeldonnii
bineeldota
bineeldotaa
bineensa
bineensaa
bineensi
bineensonni
bineensoota
bineensota
bineensotaa
bineensotta
binensotta
binensotti
bio
biogas
biogasta
biography
biology
bios
biqila
biqilaa
biqile
biqiloota
biqiltoonni
biqiltoota
biqiltootaa
biqiltuu
biqiltuuti
bira
biraa
biraaf
biraan
biraanuu
biraarraa
biraas
biraaselsitti
biraati
biraatiif
biraatiin
biraatin
biraatis
biraatti
biraatu
biraawun
biraaziil
biraazil
biras
birateeyin
biratti
birattillee
birbirsa
birbirsaa
bird
birds
birgaader
biriiteen
biriiten
biriitenii
biriitish
biriitishoonni
biriteenii
biriteenin
birkii
birmachuu
birmajii
birmannaan
biro
biroo
biroof
biroon
biroos
birootis
birootti
birra
birraa
birraan
birratti
birro
birruu
birsagni
biruus
bishaachaa
bishaan
bishaani
bishaanicha
bishaanii
bishaaniin
bishaaniirraa
bishaanin
bishaanirra
bishaanirraa
bishaanis
bishaanitti
bishan
bishani
bishanii
bishooftuu
bishooftuutti
bisil
biskileetii
bismaarki
bismarck
bismazii
bitaa
bitaan
bitachuu
bitadhee
bitamee
bitamte
bitamu
bitamuu
bitanii
bitate
bitatee
bite
bitee
biti
bitooteessa
bitootessa
bitootessaa
bitootessaatti
bittaa
bittaan
bittaatif
bitti
bittinna
bittinnaa
bittoota
bittummaa
bitu
bituu
bituuf
biya
biyaa
biyya
biyyaa
biyyaaf
biyyaafii
biyyaalessa
biyyaalessaa
biyyaalessaatti
biyyaan
biyyaatin
biyyaatti
biyyan
biyyasaa
biyyatti
biyyattii
biyyattiin
biyyee
biyyeen
biyyi
biyyii
biyyittiin
biyyonni
biyyoo
biyyoole
biyyoolee
biyyooleessa
biyyoolessaa
biyyoonni
biyyoonnii
biyyoota
biyyootni
biyyota
biyyotta
bizinesii
black
blessed
blessing
bletchley
blisummaa
blogspot
blood
bloomberg
blue
blundell
bo
boba
bobaa
bobba
bobbaa
bobbaan
bobbaase
bobbaasee
bobbaatiin
boca
bocaa
boce
bocuu
boda
bodaa
bodda
body
bodyguard
bofa
bofii
bogota
bohaarsuu
bokkaa
bokkaan
bokkoo
bokkuu
bokkuun
boksii
bol
bomb
bombi
bombii
bombiin
bombs
bona
bonaa
bone
bonez
bonni
boo
booda
boodaa
boodaarra
boodaas
boodaatti
boodallee
boodammoo
boodara
boodarra
boodarraa
boodarras
boodas
boodatti
booddee
booji
boojjii
boojuu
book
booka
bookee
bookhe
bookka
books
boolee
boolla
boollaa
boombaan
boombe
boombii
boombiin
boombin
boonaa
boondii
boonee
boonsaa
boonuu
boor
boora
booraa
boorana
booranaa
booranaati
booranaatti
booranni
booranticha
boordii
booree
booressu
booris
boorkitti
booruu
boosat
boosxa
booye
booyee
booyi
booyicha
booyyee
boqojjii
boqojjiin
boqonnaa
boqonnaan
boqonne
boqotan
boqote
boqotte
boqotu
boqqojjii
boqqolloo
boquu
bor
boraatii
boraatiin
boran
borana
border
borii
bormoota
boroo
borsaa
boru
borummaa
boruu
bosona
bosonaa
bosonatti
bosonni
both
botor
bottom
boushaakii
boushaki
br
branch
brazil
brazza
britannica
british
broek
bronisława
bronisławan
brussels
bu
bubbee
bubu
bud
budapest
buddeena
buddeenni
buddena
budizim
buduni
buduniin
buffalo
bugs
build
bukkee
bukkeetti
bula
bulaa
bulaatti
bulanii
bulbula
bulbulaa
bulbulame
bulbulamee
bulcha
bulchaa
bulchaan
bulchan
bulchi
bulchiinsa
bulchiinsaa
bulchiinsi
bulchiinsota
bulchina
bulchinsa
bulchinsaa
bulchite
bulchitoota
bulchitotaa
bulchituu
bulchu
bulchuu
bulchuuf
bule
bulee
bulees
bulgaria
bulgeeriyaa
buli
bull
bullaa
bulle
bullee
bulleted
bulletin
bulloo
bulluq
bultee
bultii
bultoo
bultoonni
bultoota
bultu
bultum
bulu
buluu
buluun
buna
bunaa
bunee
bunni
bunsen
buntu
buqqa
buqqee
buqqifamee
buqqifatanii
buqqisanii
buqqisuuf
buqushaa
bura
buree
burjaaja
buro
burqaa
burqaan
burqisiiftuu
burqisiise
burqisiisuuf
burrayyuu
burree
burruusee
buruundii
busaa
busaaf
busaan
busan
bushaayes
bushoo
bushraa
business
busta
but
butamee
buttaa
butter
buttujjii
buu
buubbee
buufama
buufaman
buufame
buufamee
buufameedha
buufamuu
buufanni
buufata
buufataa
buufataalee
buufataaleen
buufatawwan
buufatee
buufatni
buufatoota
buufma
buuftee
buuliyaanii
buulsi
buune
buusa
buusaa
buusan
buusanii
buuse
buusee
buusu
buusun
buusuu
buusuuf
buute
buutee
buuteen
buutuu
buzunash
buzuunash
by
c
ca
caaccun
caaccuu
caala
caalaa
caalaan
caalaatti
caalan
caalatti
caalbaasii
caalchifnee
caalchisee
caalinsaa
caaltu
caalu
caaluu
caaluuf
caamsa
caamsaa
caamsaan
caancoo
caarraa
caasaa
caasaalee
caasaan
caaseffama
caasluga
caaslugaa
caba
cabbi
cabbii
cabbin
cabdee
cabe
cabee
cabiin
cabne
cabsaa
cabsan
cabsanii
cabse
cabsee
cabserraa
cabsu
cabsuu
cabsuuf
cabsuun
cabu
cabuu
caccabaa
caccabanii
caccabe
caccabsaa
caccabu
caco
cadamosto
cadet
caesar
cafaqame
cafaqamee
cafaqamu
caffee
caffeen
cagayan
cal
calanqoo
calaqqisiisan
calaqqisiisuuf
calcium
calculator
calendar
calii
calla
callaan
callee
calliinsa
calliinsaan
calliinsi
calling
callisaa
callisee
callisnee
callistee
callisuu
calliyaa
calliyaatin
callu
calluma
calu
camadaa
camarrii
came
cameroon
camp
can
canada
canadian
cancala
cancalli
canyon
capital
caption
carallaa
carallaan
carbohydrate
carbohydrates
carbon
carbonate
carbondioxide
carcar
carcarirra
care
caribbean
carlae
carlos
carpet
carra
carraa
carraan
carraaqa
carraaqaa
carraaqqii
carraaqqiin
carre
carroomuu
cartilage
cartilagiin
case
cash
casualties
catee
category
cattle
caused
causes
cawwaaqaa
cbs
cd
cdc
cdot
ce
cedheedha
ceephoo
cell
celli
cells
cement
cements
cent
center
centers
centipedes
central
centrifugation
century
cerebral
ceremony
ceyu
ch
chaad
chaanaalii
chaappiliin
chaarjeffaman
chaarjeffamne
chaarjeffamu
chaarjeffamuu
chaarjii
chaarjin
chaarles
chaayinaa
chaayinaan
chaayiniffa
chaaynaa
chaco
chagas
chain
chalcolite
challenge
championnat
champions
championship
championships
change
changes
channel
chapel
character
characterization
chariots
charles
chaudhry
chee
cheek
cheerbergi
chemical
chemistry
cheney
cherchedjazairess
chewa
chi
chicago
chief
chiilii
chiippii
chiippiin
chikaagoo
children
chile
china
chiro
chishona
chitumbuka
chloride
cho
chocho
choice
chondrichthyes
christadelphians
christian
chromic
chronic
chronicles
chrysler
church
churchiin
churchill
ciccimaa
ciccimmoo
ciccimoo
cicciree
ciccitaa
ciccite
ciccittee
ciccituu
cichee
cid
cidha
cidhaa
cie
cigoo
ciicoo
ciimaa
ciisaa
ciise
ciisee
ciiseen
ciisicha
ciisichaa
ciisu
cilee
cimaa
cimaan
cimdaa
cimdaan
cimdii
cimee
cimina
ciminaa
ciminni
cimsan
cimsanii
cimse
cimsee
cimsitanii
cimtuu
cina
cinaa
cinaan
cinaatti
cinatti
ciniinaa
ciniinnaa
cinne
cinnee
cinqaa
cinqamtuu
cinqii
cinqu
ciprofloxacin
cirachuu
ciratanii
circuit
circuits
ciree
cireen
ciroo
cirracha
cirrachaa
cirrii
cirriin
cita
citaa
cite
citee
citii
citin
cittoo
cituun
city
civil
cl
clark
class
clifford
climate
clinic
clot
clotting
club
clubs
cm
cn
co
coagulation
coagulationiin
coal
coalition
cobar
cobuu
coccinia
code
coffee
coil
cois
cole
collagen
collateral
collection
collier
colonial
colonization
colorado
coloured
columbia
columbian
com
combined
comedy
comes
commercial
common
commons
commonscat
community
comp
compagnie
company
comparative
comparison
compassion
compilation
complex
components
compounds
computer
computers
computing
concentration
concepcio
concept
concrete
conditional
conditions
confederacy
confederate
conference
congenital
congo
congress
connective
conrad
constitution
context
contextual
continental
contributions
control
conversation
cool
coolagee
coomman
cooraa
copa
coqorsa
coqorsaa
coraa
cordiale
core
corporation
corrosion
costa
could
countdown
counter
country
countryball
coupe
course
court
courvoursier
cpu
cr
cream
creation
creepin
crescent
crop
crops
cross
crotia
crust
crustiin
cry
crystal
csa
cu
cubbuu
cubbuun
cufa
cufaa
cufame
cufamu
cufan
cufe
cufee
cuftuu
cuggee
cultivate
cultural
culture
cumaa
cumboo
cumboon
cunqurfamoo
cunqursaa
cup
cuqqaalaa
cuquliisa
curie
curitiba
current
currentiin
cush
cushite
customers
cutaneous
cuubbama
cuukkoo
cuukkoon
cuunfaa
cuunfuu
cuuphamuu
cyber
cycle
cyclone
cyclonic
cycloniin
cysticercosis
d
da
daa
daabboo
daaccii
daachi
daachonni
daadhii
daaku
daakuu
daalachaa
daalattii
daallee
daandii
daandiin
daandiiwwan
daanga
daangaa
daangaan
daangeffama
daangeffamee
daangeffamne
daangeffamte
daangeffamtee
daangeffamti
daangeffamuudha
daangessoo
daangessu
daani
daannoo
daar
daaraa
daarimuu
daaroo
daata
daataa
daataan
daatan
daatasaa
daawit
daawud
daawullaa
daawuud
daawwaa
daawwachaa
daawwachuu
daawwannaa
daawwannaaf
daawwatan
daawwate
daawwattoota
daay
daayameetira
daayi
daayimandi
daayoodii
daayoodiin
daba
dabaa
dabaab
dabala
dabalaa
dabalaan
dabalaman
dabalame
dabalamee
dabalamtee
dabalamu
dabalamutti
dabalamuun
dabalanii
dabalata
dabalataa
dabalataan
dabalataanis
dabalatanii
dabalate
dabalatee
dabalatu
dabale
dabalee
dabaleera
dabalees
dabali
daballee
dabalu
dabaluu
dabaluuf
dabaluun
dabaree
dabareedhaan
dabareedhan
dabareen
dabarfamanii
dabarfamee
dabarre
dabarsa
dabarsaa
dabarsaaf
dabarsan
dabarsanii
dabarse
dabarsee
dabarseen
dabarseera
dabarsina
dabarsine
dabarsinee
dabarsinu
dabarsite
dabarsitee
dabarsiteetti
dabarsiti
dabarsitu
dabarsu
dabarsuu
dabarsuudhaaf
dabarsuuf
dabarsuun
dabarte
dabartee
dabballee
dabballeen
dabe
daboo
dabra
dabran
dabre
dabree
dabru
dabruu
dabsa
dacha
dachaa
dachaan
dachaane
dachaatu
dachee
dacheen
dachii
dachiin
dachima
dadacha
dadammaqsuu
dadar
daddafee
daddarba
daddarbaa
daddarbachaa
daddarban
daddarbu
daddarbuu
dadhaba
dadhabaa
dadhabaan
dadhabame
dadhaban
dadhabanii
dadhabaniif
dadhabbii
dadhabbiin
dadhabde
dadhabdee
dadhabdu
dadhabduu
dadhabe
dadhabee
dadhabeen
dadhabiin
dadhabnaan
dadhabnee
dadhabsiisaa
dadhabsiise
dadhabsiisuu
dadhabu
dadhabuu
dadhabuun
dadullah
daduu
dafaa
dafanii
dafee
daffe
dafi
dafii
dafinoo
dafnee
dafqa
dafqaa
daftee
dagaa
dagaagaa
dagaagee
dagaagina
dagachuu
dagachuun
dagaggama
dagalchu
dagalchuu
dagalee
dagam
daganne
dagatamne
dagatiin
dagatinaa
daggalaa
dahannaa
dahoo
daimlerchrysler
dajjaazmaach
dakee
dakkataa
daladala
daladalaa
dalaga
dalagaa
dalagaan
dalagan
dalage
dalagee
dalagu
dalaguu
dalaguun
dalayne
daldala
daldalaa
daldalaaf
daldalaan
daldalan
daldalli
daldallii
daldaltoonni
daldaltoota
daldalu
dale
dallaa
dallaadhaan
dallaan
dallaga
dalloo
dambali
dambalii
dambaliin
dambi
dambidoolloo
dambii
dame
damee
dameen
dameewwan
dames
damma
dammaa
dammaqan
dammaqe
dammaqee
dammaqiinsi
dammaquu
dammaysu
damooza
dan
danaa
danada
danbal
danbali
danbalii
dand
danda
dandaa
dandaha
dandamachaa
dandamachuu
dandamachuuf
dandayama
dandaye
dandayu
danddi
dandeenya
dandeenye
dandeenyedha
dandeenyee
dandeenyeef
dandeenyeen
dandeenyen
dandeenyu
dandeenyuu
dandeessa
dandeessaa
dandeessan
dandeessaniin
dandeesse
dandeessee
dandeessi
dandeessisa
dandeessise
dandeessisne
dandeessisu
dandeessu
dandeessuu
dandeetti
dandeettii
dandeettiin
dandenne
dandettera
dandettu
dandii
dandiin
danfaa
danfe
danfuu
danga
dangaa
dangeffamte
daniel
dannaba
dansa
dansaa
dantaa
dantaan
danuu
daqiiqaa
daraaraa
daraartuu
daraartuun
daraash
daran
darani
dararaa
dararama
dararamaa
darasaa
darasaan
darash
darba
darbaa
darbachaa
darbachuu
darban
darbanii
darbaniif
darbatame
darbatamu
darbatee
darbatte
darbatu
darbatuu
darbe
darbee
darbeera
darbees
darbes
darbii
darbiinsa
darbine
darbinee
darbite
darbitee
darbu
darbutti
darbuu
darbuuf
darbuun
dardara
dardaraatifii
daree
dareen
dargaggeessa
dargaggeessi
dargaggeettii
dargaggoo
dargaggoonni
dargaggoota
dargaggootaa
dargaggootni
dargaggummaa
dargaggummaatti
dargii
dargiidhan
dargiin
dargiitin
darmisii
darre
darree
dassaaleny
data
database
david
davidovits
dawaa
dawaaroo
dawe
dawoo
dawwee
day
dayyaasaa
dbms
dc
de
debi
debut
december
decode
deddeebi
deddeebiin
deddeebisee
deddeebitee
deder
deebanaa
deebi
deebifachuuf
deebifama
deebifamnaan
deebii
deebiin
deebina
deebine
deebinee
deebinu
deebisa
deebisaa
deebisanii
deebisaniif
deebise
deebisee
deebiseef
deebiseefii
deebisi
deebista
deebistee
deebisu
deebisuu
deebisuuf
deebisuun
deebite
deebitee
deebitu
deeggaraa
deeggaramaa
deeggarame
deeggaramee
deeggaramu
deeggaran
deeggaranii
deeggarsa
deeggarsi
deeggartoota
deeggaru
deeggaruu
deeggaruun
deelii
deema
deemaa
deemamu
deeman
deemanii
deemaniif
deemaniin
deemaninii
deemanitti
deeme
deemee
deemeen
deemen
deemi
deemii
deemna
deemne
deemnee
deemnu
deemsa
deemsi
deemta
deemtaa
deemtan
deemte
deemtee
deemti
deemtonni
deemtu
deemtuu
deemtuun
deemu
deemudhaan
deemuf
deemun
deemutti
deemuu
deemuuf
deemuun
deesse
deessu
deessuu
deetaa
deettii
deevid
defense
defensive
deficiency
definition
dega
deggeraa
deggersa
deggertuu
deininger
del
delgado
delhi
delta
demma
demme
demmu
demne
democracy
democratic
denmark
density
denticles
dentin
denzel
depolariseritti
depression
der
dermis
dernier
des
design
designed
details
deutsche
deutscher
development
deventer
devices
dh
dha
dhaa
dhaaba
dhaabaa
dhaabachuu
dhaabachuun
dhaabadhee
dhaabadheen
dhaaban
dhaabanii
dhaabannee
dhaabata
dhaabatanii
dhaabate
dhaabatee
dhaabateera
dhaabattee
dhaabatu
dhaabbachuu
dhaabbachuun
dhaabbadhee
dhaabbanne
dhaabbannee
dhaabbanni
dhaabbata
dhaabbataa
dhaabbatan
dhaabbatanii
dhaabbate
dhaabbatee
dhaabbatte
dhaabbattee
dhaabbatu
dhaabbatuu
dhaabbatuun
dhaabbii
dhaabbiin
dhaabbilee
dhaabbileen
dhaabde
dhaabe
dhaabee
dhaabeen
dhaabeera
dhaabicha
dhaabichaa
dhaabne
dhaabnee
dhaabni
dhaabsise
dhaabu
dhaabuu
dhaabuuf
dhaabuun
dhaaccii
dhaadannoo
dhaaddatan
dhaadhessu
dhaadhessuu
dhaaf
dhaala
dhaalan
dhaalu
dhaama
dhaamaa
dhaame
dhaamee
dhaamjecha
dhaammanna
dhaammate
dhaamsa
dhaamsaa
dhaamsi
dhaamuu
dhaan
dhaanamte
dhaanamteef
dhaane
dhaas
dhaba
dhabaa
dhabame
dhabamee
dhabamsiise
dhabamsiisuf
dhabamsiisuu
dhabamuu
dhaban
dhabanii
dhabatte
dhabde
dhabdee
dhabdu
dhabduu
dhabe
dhabee
dhabeef
dhabeessa
dhabii
dhablee
dhableen
dhabne
dhabnee
dhabsiisa
dhabsiisaa
dhabu
dhabuu
dhabuudha
dhabuun
dhaddacha
dhadhaa
dhadhaadhaan
dhadhaan
dhaga
dhagaa
dhagaan
dhagaatti
dhagahama
dhagahamaa
dhagahame
dhagahamee
dhagahameefi
dhagahamne
dhagahamneef
dhagahamu
dhagahamuu
dhagahe
dhagaheera
dhagahi
dhagahu
dhagahuu
dhagahuuf
dhagahuun
dhagayaa
dhagayan
dhagayee
dhagayi
dhagayu
dhagayuu
dhageenya
dhageenyan
dhageenye
dhageenyee
dhageesisaa
dhageessan
dhageesse
dhageessee
dhageessisaa
dhageessisanii
dhageessise
dhageettii
dhaggeeffachuu
dhaggeeffachuuf
dhaggeeffadhe
dhaggeeffadhu
dhaggeeffatan
dhaggeeffatee
dhaha
dhahaa
dhahaan
dhahame
dhahanii
dhahannaa
dhahee
dhahu
dhahuun
dhaka
dhakaa
dhala
dhalaa
dhalaaf
dhaladhee
dhalata
dhalataa
dhalatan
dhalatanii
dhalate
dhalatee
dhalatte
dhalattee
dhalattoonni
dhalattoota
dhalatu
dhalchanii
dhalche
dhale
dhalee
dhalfate
dhallaadduu
dhalli
dhallotta
dhaloonni
dhaloota
dhalootaa
dhalootaaf
dhalootaan
dhalootan
dhalootasaa
dhalotaan
dhalte
dhama
dhamaatii
dhamdhama
dhamdhamaa
dhamdhamuu
dhan
dhangaa
dhangaan
dhangala
dhangalaa
dhangalaane
dhangalaaneef
dhangalaasuu
dhangalaasuun
dhaqa
dhaqaa
dhaqabu
dhaqan
dhaqanii
dhaqe
dhaqee
dhaqi
dhaqii
dhaqna
dhaqqabe
dhaqqabeera
dhaqqabne
dhaqqabu
dhaqqabuu
dhaqu
dhaquu
dhaquuf
dhaquun
dhara
dharaa
dharra
dharraa
dhawaa
dhawaan
dhawu
dhaye
dhayee
dhayicha
dhayichaa
dhayn
dhayne
dhayxee
dhduo
dhedheessa
dhedheessaa
dheebuu
dheedan
dheedhii
dheekkame
dheekkamsa
dheera
dheeraa
dheeraaf
dheeraan
dheeraarratti
dheeradhaaf
dheerata
dheeratu
dheeressuu
dheerina
dheerinaan
dheerinni
dheertuu
dheeysun
dheraa
dherinaan
dherinna
dherrinan
dhi
dhiba
dhibaa
dhibaafateet
dhibaan
dhibaayyuu
dhibaayyuun
dhibba
dhibbaa
dhibbaafii
dhibbaan
dhibbanta
dhibbantaa
dhibbantaan
dhibbatti
dhibbeentaa
dhibbeentaan
dhibbi
dhibbootaan
dhibe
dhibee
dhibeen
dhibeewwan
dhibooftuu
dhibu
dhibuu
dhiga
dhigaa
dhigni
dhiha
dhihaa
dhihaan
dhihaarraa
dhihaata
dhihaati
dhihaatiin
dhihaatin
dhihaatti
dhihaatu
dhiheenya
dhiheesse
dhihoo
dhihootti
dhihotti
dhiibaa
dhiibaan
dhiibamanii
dhiibba
dhiibbaa
dhiibbaan
dhiibbame
dhiibban
dhiibdee
dhiibee
dhiibuu
dhiifama
dhiifamaan
dhiifne
dhiifnee
dhiiftee
dhiiftuf
dhiiga
dhiigaa
dhiigaan
dhiigni
dhiignii
dhiigu
dhiiguu
dhiilga
dhiira
dhiiraa
dhiiraati
dhiiras
dhiironni
dhiiroo
dhiirota
dhiirotaa
dhiirri
dhiirti
dhiirummaa
dhiisa
dhiisaa
dhiisan
dhiisanii
dhiise
dhiisee
dhiiseef
dhiiseen
dhiiseera
dhiisef
dhiisi
dhiisii
dhiisiitii
dhiisne
dhiisnee
dhiisnes
dhiistee
dhiisteetti
dhiisti
dhiisu
dhiisuu
dhiisuuf
dhiisuufi
dhiisuun
dhiisuunis
dhiita
dhiitee
dhiltee
dhimma
dhimmi
dhimmicha
dhimmichi
dhimmoota
dhinnaa
dhiphaa
dhiphachaa
dhiphachuu
dhiphachuun
dhiphadhu
dhiphataa
dhiphina
dhiphinaa
dhiphinaan
dhiphinni
dhiphisa
dhiphisaa
dhiphise
dhiphisiin
dhiphisu
dhiphisuu
dhiphoo
dhiphuu
dhiqachuu
dhiqanna
dhiqannaa
dhiqnee
dhiquun
dhiraa
dhisamee
dhisee
dhiya
dhiyaachaa
dhiyaachuu
dhiyaachuuf
dhiyaachuun
dhiyaana
dhiyaanatti
dhiyaannu
dhiyaata
dhiyaataa
dhiyaatan
dhiyaatanii
dhiyaate
dhiyaatee
dhiyaateera
dhiyaatti
dhiyaattu
dhiyaatu
dhiyaatutti
dhiyaatuudha
dhiyeenya
dhiyeenyaan
dhiyeessa
dhiyeessan
dhiyeessani
dhiyeessanii
dhiyeesse
dhiyeessee
dhiyeessi
dhiyeessii
dhiyeessite
dhiyeessitu
dhiyeessituu
dhiyeessu
dhiyeessuu
dhiyeessuuf
dhiyeessuun
dhiyo
dhiyoo
dhiyootti
dhkd
dho
dhohinsa
dhokachuu
dhokannaa
dhokannee
dhokannu
dhokata
dhokataa
dhokatanii
dhokatee
dhoksaa
dhoksaadhaan
dhoksaadhan
dhoksaan
dhoksanii
dhoksee
dhokseen
dhoksiin
dhoksinee
dhoksuu
dhoksuuf
dhoksuun
dhombiir
dhoo
dhoohu
dhooqa
dhooqaa
dhooqni
dhoose
dhootuu
dhoowwe
dhoowwi
dhoowwu
dhoqaa
dhoqqee
dhorka
dhorkaa
dhorkame
dhorkamee
dhorkamus
dhorkamuu
dhorke
dhorkeef
dhorku
dhorkuu
dhorkuun
dhowe
dhowee
dhowuuf
dhowwa
dhowwaa
dhowwame
dhowwanne
dhowwatan
dhowwu
dhowwuu
dhoysa
dhufa
dhufaa
dhufaan
dhufaatii
dhufan
dhufani
dhufanii
dhufaniif
dhufaniin
dhufaniiru
dhufanirraa
dhufanitti
dhufe
dhufedha
dhufee
dhufeef
dhufeen
dhufeenya
dhufeenyi
dhufeera
dhufen
dhuferraa
dhufetti
dhuffani
dhuffuu
dhufiin
dhufnaan
dhufne
dhufnee
dhuftan
dhufte
dhuftee
dhufti
dhuftu
dhuftuuf
dhufu
dhufutti
dhufuu
dhufuudha
dhufuuf
dhufuun
dhuga
dhugaa
dhugaadha
dhugaaf
dhugaan
dhugaarraa
dhugaati
dhugaatii
dhugaatti
dhugan
dhuganii
dhugee
dhugoomsuuf
dhugu
dhuguma
dhugumaa
dhugumaan
dhuguman
dhugumatti
dhugumattuu
dhuguun
dhuka
dhukaasa
dhukaasaa
dhukaasanii
dhukaase
dhukaasuun
dhukii
dhukkee
dhukkeen
dhukkuba
dhukkubaa
dhukkubbi
dhukkubbii
dhukkubbiin
dhukkubicha
dhukkubichaa
dhukkubichaan
dhukkubichi
dhukkubichii
dhukkubni
dhukkuboota
dhukkubsa
dhukkubsachaa
dhukkubsachuu
dhukkubsataa
dhukkubsataan
dhukkubsatan
dhukkubsatanii
dhukkubsate
dhukkubsatee
dhukkubsateef
dhukkubsatte
dhukkubsattoonni
dhukkubsattoota
dhukkubu
dhukkubuu
dhukkuuba
dhuma
dhumaa
dhumaaf
dhumaarra
dhumaarratti
dhumaati
dhumaatiin
dhumaatti
dhuman
dhumanii
dhumarratti
dhumarrattis
dhumatti
dhume
dhumee
dhumeera
dhumne
dhumni
dhumte
dhumti
dhumu
dhumutti
dhumuu
dhungachuu
dhungachuun
dhungadhee
dhungadhu
dhunganna
dhunganne
dhungata
dhungate
dhungatu
dhuudhuma
dhuufa
dhuufuu
dhuukuuba
dhuukuubicha
dhuukuubichaan
dhuukuubichi
dhuukuubichii
dhuunfaa
dhuunfaan
dhuunfaasaa
dhuunfaatti
dhuunfate
dhuyeessan
di
dia
diabetes
diamond
dias
dibaa
dibaabaa
dibaan
dibaba
dibadhee
dibame
dibameen
dibata
dibataa
dibatan
dibbee
dibdoota
dibe
dibee
diboo
dibuu
dictionary
dida
didaa
didan
diddaa
diddan
didde
diddee
diddiqo
diddy
dide
didee
dideef
didhame
didi
didnaan
didu
diduu
diduudhaan
diduun
die
diego
diese
diferensi
diferensiyaal
different
difficile
digdama
digdamaa
digdamii
digestion
digger
digirii
digiriisaa
digital
digrii
diida
diidaa
diiddama
diiddamaa
diiddamii
diigaa
diiggamee
diigi
diiguu
diilallaa
diima
diimaa
diimaan
diimachuu
diimgurraa
diiminni
diimotti
diimtu
diimtuu
diin
diina
diinaa
diinaan
diinagdee
diinagdeen
diinaggeen
diinan
diinarratti
diinatti
diinifii
diinni
diinoota
diinota
diinshoo
diinummaa
diiramuu
dijitaalaa
dijitaalii
dikkaa
dilallaa
dilbata
dilbataa
dilbatta
dilboo
dilii
dimachuu
dimimmisaan
dimishqaa
dimokiraatawaa
dimokraasii
dimoogiraafii
dimoograafii
dimookiraasii
dimookiraatawaa
dimookraatawaa
dimshaashatti
dinaagdee
dinagdee
dingil
dinnicha
dinnichaa
dinqamuu
dinqisiifachuu
dinqisiifachuun
dinqisiifadhu
dinqisiifannaa
dinqisiifataniif
dinqisiisaa
dinquu
dinquun
diogo
dioxide
diplomacy
dippilomaasii
dippiloomaa
diqaa
diqatte
diqqa
diqqaa
diqqatte
diqqo
diqqoo
diraamaa
diraamii
dire
diriiraa
diriiree
dirqaama
dirqama
dirqamaa
dirqamaan
dirqaman
dirqame
dirqamee
dirqamne
dirqamni
dirqamu
dirqiidhaan
dirqiin
dirqisiifame
dirqisiise
dirqisiisun
dirre
dirree
dirreedhaan
dirreen
dirreetti
dirribsaa
dischaarji
dischaarjii
dischaarjiin
discovered
disease
diseases
diskiin
disorder
disorderiin
dissimeetirii
distance
distant
district
disturbing
division
diyaarii
diyaariin
diyala
dizaayinii
dizaayiniin
djazairess
dll
dna
do
doctor
document
documentary
doddotaa
dodola
dodolaa
dog
dogg
dogoggora
dogoggoraa
dogoggoraaf
dogoggoraan
dogoggorre
dogoggorri
dogoggorsaa
dogoggorsiisaa
dogogorri
dogooggora
doi
doktara
doktireetii
doktora
dolfiin
dollar
dollara
dolloo
domeenii
domestic
dongoroo
doobbii
doofummaa
doolaa
doolaara
doolloo
dooni
doonii
dooniiwwan
door
doorii
doorsisuu
dorgoma
dorgomaa
dorgome
dorgomee
dorgomichaa
dorgommii
dorgommiin
dorgommiitti
dorgommiiwwan
dorgomsiifaman
dorgomuuf
doxycycline
doyle
dpwh
dr
dragon
dreamworks
dress
drought
drug
drummer
dry
dst
dtp
du
dua
dubachuu
dubadhu
dubara
dubaraa
dubarri
dubartii
dubartiin
dubartoonni
dubartoonnis
dubartoota
dubartootaa
dubartootaaf
dubartootni
dubba
dubbachaa
dubbachiisu
dubbachuu
dubbachuudhaaf
dubbachuuf
dubbachuun
dubbadha
dubbadhe
dubbadhee
dubbadhu
dubbanna
dubbanne
dubbannee
dubbannu
dubbata
dubbataa
dubbatama
dubbatamaa
dubbataman
dubbatame
dubbatamu
dubbatan
dubbatanii
dubbate
dubbatee
dubbateen
dubbateera
dubbatetti
dubbatiin
dubbatte
dubbatti
dubbattu
dubbatu
dubbatus
dubbatuu
dubbatuun
dubbi
dubbichi
dubbifama
dubbifamaa
dubbifamu
dubbifamuu
dubbii
dubbiin
dubbisa
dubbisaa
dubbisaan
dubbise
dubbisee
dubbisi
dubbisu
dubbisuu
dubbisuuf
dubbisuun
dubbisuunis
dubbisuus
dubii
dubra
dubraa
dubree
dubri
dubrii
dudduba
due
dugda
dugdaa
dugdatti
duguuggaa
dukkaana
dukkana
dukkanaa
dukkaneesse
dukkanni
dules
dullachaa
dullatti
dulloomaa
dullooman
dulloomanii
dulloomee
dummer
dungoo
dunlop
duo
dur
dura
duraa
duraaf
duraan
duraani
duraanii
duraaniitti
duraanuu
duraati
duraatiif
duraatti
duraattis
duran
duras
duratti
durattii
durattis
durayyuu
durba
durbaa
durbee
durbii
durboonni
durbummaa
durdurii
duree
dureedha
dureen
dureettii
dureewwan
durfamee
durfamu
durfamuun
duri
durii
duriiti
duriitiin
durin
during
durirraa
durra
durraf
dursa
dursaa
dursanii
dursee
dursitee
dursoo
dursuu
duruma
dutch
duuba
duubaa
duubaan
duubatti
duudaa
duudhaa
duuka
duukaa
duukaas
duula
duulaa
duulan
duule
duulee
duules
duulli
duulu
duumessa
duumessaa
duumessi
duune
duuni
duura
duusel
duuseliin
duute
duuti
duutii
duutu
duwwa
duwwaa
dye
dynamics
e
early
earth
earthquake
earthquakiin
east
easter
eastern
eat
ebla
eblaa
ebola
ebov
echinococcosis
eckert
ed
eda
edaa
edaasa
eddoo
edema
eden
edenbiraa
edha
ediisen
edinburgh
edirne
edisen
edison
edit
edited
edition
eds
ee
eebantuu
eebba
eebbaa
eebbaan
eebbi
eebbifamaa
eebbifame
eebbifamee
eebbifatanii
eebbisa
eebbisaa
eebbisaan
eebbisan
eebbisu
eebbisuuf
eebila
eeboo
eedha
eef
eefi
eefii
eefis
eega
eegaa
eegaan
eegala
eegalan
eegalanii
eegale
eegalee
eegaleera
eegalle
eegalte
eegaltee
eegalu
eegaluun
eegama
eegamaa
eegamanii
eegame
eegamu
eegan
eeganii
eeganis
eegannoo
eegasii
eegdee
eegdota
eegduu
eege
eegee
eeggachaa
eeggachuuf
eeggamu
eeggannoo
eeggannoodhaan
eeggannoodhan
eeggannoon
eeggata
eeggataa
eeggataan
eeggatan
eeggataniiru
eeggate
eeggatee
eeggatu
eegi
eegne
eegnu
eegu
eeguf
eegumsa
eegutti
eeguu
eeguuf
eeguun
eehama
eekkaa
eeksi
eel
eela
eelaa
eelee
eema
eemiti
een
eeni
eenii
eenis
eenyu
eenyufaa
eenyullee
eenyummaa
eenyummaan
eenyuniyyuu
eenyuttiyyuu
eenyuttuu
eenyutu
eenyuu
eenyuuf
eenyuufiyyuu
eenyuun
eenyuuniyyuu
eenyuuyyuu
eenyuyyuu
eera
eeraa
eerga
eerraa
eertiraa
eertiraan
eeru
eeruu
eeruun
ees
eeshiyaa
eeshiyaan
eeshiyaatikii
eessa
eessaa
eessatti
eessayyuu
eessuma
eessumni
eessumoota
eet
eetan
eeti
eetifii
eetii
eetin
eetti
eetu
eeyyama
eeyyamamaa
eeyyamamne
eeyyamamuu
eeyyaman
eeyyamaniif
eeyyame
eeyyee
eeyyeen
eez
ef
effect
effects
egaa
egaan
egeree
egypt
einstein
ejensichi
ejeree
ejersa
ejersaa
ejja
ejjechaa
ejjennoo
ejjennoon
eksi
eksicheenjii
eksipermentii
el
ela
elaa
elastic
electric
electrical
electricity
electrify
electrolytes
electromagnetic
electronic
electronics
eleektriikii
elektiriikii
elektiriin
elektirikaal
elektirikaalii
elektirikii
elektirikiin
elektirikiitiin
elektirikiitti
elektirkii
elektiromeetirii
elektironikii
elektiroo
elektiroodii
elektiroodota
elektirookeemikaalaa
elektirookemistirii
elektiroolaayiitii
elektiroolaayitii
elektiroolaayitiin
elektiroolaayitiinsaa
elektiroolaayitiitti
elektiroomaagineetiik
elektiroomaagnineetii
elektiroomakaanikaalaa
elektiroomakaanikaalii
elektiroomakaanikalii
elektiroonii
elektirooniik
elektirooniikii
elektirooniikiin
elektiroonik
elektiroonikii
elektiroonikiin
elektiroonikiitti
elektirooniksii
elektiroonin
elektiroononni
elektiroonota
elektiroostaatiik
elektriki
elektrikii
elektrikiitti
elementary
elementii
elementiin
elementoota
elementota
elementotaa
elements
elemoo
elemoon
elemoonis
elemoorraa
eliyuud
elizabeth
elle
ellee
ellen
elli
elmiinaa
embeded
embryonic
emerging
emf
emiila
emil
emissions
emperor
emphasis
empires
en
enamel
enamelii
enameliin
enciclope
encyclopedia
end
endothelium
energy
enfeldi
engine
engineer
engineering
england
english
eniac
eniacn
enigmaan
ennaa
entente
entertainment
environment
enxooxxoo
epicenter
epidermis
eprp
era
erbeen
erer
erga
ergaa
ergaan
ergaawwan
ergama
ergamaa
ergamaan
ergaman
ergame
ergamee
ergamtoota
ergamu
ergan
erganii
ergasii
erge
ergee
ergeef
ergi
ergiffanne
ergissan
ergite
ergitu
ergu
erguu
erguun
eric
eritrea
ernesti
erobiikii
eroobiikii
erra
erraa
erraan
erratti
erritirosaayitis
es
esculenta
eshiyaa
eshiyaatti
eshiyyaa
esparanto
esparanton
essay
establishmen
establishment
estimate
estonian
et
etc
ethiopia
ethiopian
ethiopias
ethnic
ethnicity
ethnography
ethnomedicinal
etienne
etti
etu
etv
eukaryotic
euro
europe
european
eusapia
eva
evangelical
even
every
everything
except
exchange
expected
experience
experiment
experimental
exploration
explored
explorer
exposition
extrasolar
eye
eyes
eyyuu
f
fa
faa
faadha
faajjii
faakaltii
faalaa
faalama
faalaman
faalamne
faallaa
faallama
faallaman
faallame
faallamuu
faaluu
faana
faanaa
faandaan
faandaanfaa
faandaani
faandaanii
faandaaniif
faandaanis
faandaanonni
faandaanota
faanni
faarfachaa
faarsa
faarsaa
faarsu
faarsuu
faaruu
faaruun
faashistii
faasigaa
faasiladas
faatee
faati
faatii
faatiin
faatin
faattii
faaxima
faaximaa
faaxumaa
faaya
faayibiriinin
faayibrinoojiin
faayidaa
faayidaan
faayidaarra
faayyisaa
faca
facaafattu
facaasa
facaase
facaasee
facaatii
faccisaa
face
facebook
fachaaftee
factor
factors
fadis
fadisitti
fafa
faffaca
fafni
fagaachuu
fagaachuun
fagaadhee
fagaanne
fagaata
fagaatan
fagaate
fagaatee
fagaatiin
fagaattee
fagaatti
fagaattu
fagaatu
fageeffate
fageenya
fageenyaa
fageenyaan
fageenyi
fageesse
fageessee
fageessii
faggin
fagoo
fagoorraa
fagootti
fair
fairy
fajajaa
fakkaachaa
fakkaachun
fakkaachuu
fakkaachuufis
fakkaadha
fakkaadheen
fakkaanna
fakkaanne
fakkaata
fakkaataa
fakkaatan
fakkaatanii
fakkaataniif
fakkaataniin
fakkaate
fakkaatee
fakkaateera
fakkaateyyuu
fakkaatiin
fakkaatte
fakkaatti
fakkaattii
fakkaattu
fakkaatu
fakkaatun
fakkaatutti
fakkaatuun
fakkatan
fakkattu
fakkatu
fakkeennaaf
fakkeenya
fakkeenyaa
fakkeenyaaf
fakkeenyaatti
fakkeenyi
fakkeenyota
fakkeenyummaa
fakkeenyummaaf
fakkeessa
fakkeessaa
fakkeessan
fakkeessee
fakkeessitee
fakkeessituu
fakkeessu
fakkeessuuf
fakkena
fakkeni
fakkenya
fakkenyaaf
fakki
fakkii
fakkiilee
fakkiin
fakkiiwwan
fal
fala
falaasama
falaasamaa
falaasamaan
falaasamni
falka
falli
falmaa
falmee
falmii
falmu
falmuu
faltii
family
fandalalaan
fandii
fangasii
fangasootaa
fannifame
fannisanii
fannoo
fantaallee
faradaay
farah
faranjii
faransaay
faransaayi
faransaayiin
faransaayitti
farda
fardaa
fardaan
fardeen
fardi
fardii
farm
farmers
farra
farsoo
fas
fashooda
fat
father
fathul
faxnoo
fayadammuu
fayadamuun
fayyaa
fayyaaf
fayyada
fayyadaa
fayyadama
fayyadamaa
fayyadamaan
fayyadamae
fayyadaman
fayyadamani
fayyadamanii
fayyadame
fayyadamee
fayyadamin
fayyadamna
fayyadamne
fayyadamnee
fayyadamni
fayyadamnu
fayyadamte
fayyadamtee
fayyadamtoonni
fayyadamtoota
fayyadamtotta
fayyadamu
fayyadamuu
fayyadamuudhaan
fayyadamuudhan
fayyadamuuf
fayyadamuufis
fayyadamuun
fayyadatama
fayyadatamu
fayyadmaniifi
fayyadmanu
fayyadu
fayyaduu
fayydamuun
fayye
fayyee
fayyida
fayyidan
fayyisaa
fayyisaan
fayyisuu
fayyummaa
fayyuu
fbi
fdg
fe
feature
featured
features
february
federaalaa
federaalawaa
federaalistii
federal
federation
federeeshinii
federico
fedha
fedhaa
fedhan
fedhe
fedhii
fedhiin
fedhiinsaa
fedhu
fedhuu
feedhii
feeding
feene
feenu
feerchaayildi
feet
feeta
feete
feetii
feetu
fekadu
felipe
females
feminist
ferna
fertility
fertilizers
fesashi
fever
few
ffa
ffaa
ffaan
ffaarraa
ffaatti
ffat
ffatti
fi
fiba
fibers
fibonaachii
fibres
fibrin
fibrinogen
fida
fidaa
fidan
fidanii
fidde
fiddee
fiddu
fidduu
fide
fidee
fidii
fidiin
fidu
fiduu
fiduudhan
fiduuf
fiduun
field
fifa
fifan
fifth
figures
fii
fiichee
fiicheetti
fiiga
fiigaa
fiigan
fiiganii
fiige
fiigee
fiigicha
fiigichaa
fiigichi
fiigu
fiigudhaan
fiiguu
fiildi
fiildii
fiildiin
fiilmii
fiilmiin
fiilmiiwwan
fiilmirratti
fiiloo
fiinlaandi
fiinxee
fiitii
fiixa
fiixaan
fiixee
fiizikaala
fiizikaalaa
fiiziksii
fiizisistii
filaadelfiyaa
filaashii
filaaworsi
filaaworsis
filachuu
filadhee
filame
filannoo
filannoon
filata
filatama
filatamaa
filataman
filatamanii
filatame
filatamee
filatamin
filatamte
filatamuu
filatan
filate
filatee
filatu
filatuu
file
filiip
filiippiinsii
filippiins
filippiinsii
filippiinsitti
fillano
fillatame
film
filmiin
filoosofera
filootingi
filoovaayiresii
filorence
filter
filuu
filwuha
fin
final
finals
finca
fincaa
fincaanii
fincila
fincilaa
finciltoonni
finciltoota
finciluu
fine
finfinne
finfinnee
finfinneedhaa
finfinneefi
finfinneen
finfinneerraa
finfinneerratti
finfinneetti
finfinneettis
finiinaa
finiinsaa
finiinsuun
fiqh
fiqhi
fiqhii
fir
fira
firaa
firaaf
firaakshinii
firaank
firaanki
firaankoo
firaansi
firaansif
firaansis
firaansitti
firaanswort
fire
fireediriik
fireench
fireenchi
firefox
firii
firmaa
firooma
firoonni
firoota
firri
first
fishiinii
fishiiniidhaaf
fishiiniitti
fitawuraarii
five
fiwudaalaa
fixa
fixaa
fixatee
fixe
fixed
fixee
fixeensa
fixin
fixne
fixnee
fixu
fixuu
fixuuf
fixuun
fiyuul
fiyuuzii
fiyuuzyinii
fkn
flag
fleet
flexible
flight
flip
floating
florence
flow
fluid
fluids
fly
flyiif
fo
focus
foddaa
fogo
fokkataan
fokkisaa
fokkuu
folk
followers
follows
fonqolcha
fonqolchi
food
foolii
fooliin
foollee
foon
foonii
foonsaa
fooqii
foormulaa
foorti
foot
football
footoo
footosinteesiin
fooyya
fooyyesse
fooyyessuu
fooyyessuuf
fooyyessuun
foqi
for
force
forces
forest
form
formosaa
formula
formulan
foto
foundation
four
foxx
foyya
france
francesco
fred
frederic
frederick
free
freed
freedom
french
frequency
fresh
frida
friday
friendly
from
ft
fu
fucus
fudha
fudhachiisu
fudhachiisuu
fudhachu
fudhachuu
fudhachuudhaan
fudhachuudhan
fudhachuuf
fudhachuun
fudhacuun
fudhadha
fudhadhe
fudhadhee
fudhadhu
fudhanne
fudhannee
fudhata
fudhataa
fudhatama
fudhatamaa
fudhataman
fudhatamanii
fudhatame
fudhatamedha
fudhatamee
fudhatamni
fudhatamu
fudhatamuu
fudhatan
fudhatanii
fudhataniif
fudhate
fudhatee
fudhateera
fudhaterra
fudhatetti
fudhatoota
fudhatte
fudhattee
fudhatti
fudhattu
fudhattuu
fudhatu
fudhatudha
fudhatuu
fudhatuun
fudhe
fudhee
fudhu
fudraalee
fuduraa
fuduraalee
fuel
fufa
fufaa
fufaan
fufan
fufanii
fufe
fufee
fufeera
fufi
fufiinsa
fufiinsaan
fufinsaan
fufne
fufnu
fufte
fuftu
fufu
fufuu
fufuudhaan
fufuuf
fufuun
fugnan
fulbaana
fulbaanaatti
fulduratti
fulfude
fulla
fullaasu
fulle
fullee
funaananii
funaantuu
funaanu
functional
functions
fungi
funyaan
fura
furaa
furamauuf
furamne
furan
furatan
furdaa
furdaan
furdina
furfuur
furguffamee
furguggifaman
furii
furmaa
furmaanni
furmaata
furnoo
furreef
furtuu
furudha
furuu
furuuf
future
fuudha
fuudhaa
fuudhan
fuudhanii
fuudhe
fuudhee
fuudheen
fuudhu
fuudhudhaan
fuudhuu
fuudhuun
fuudhuutti
fuul
fuula
fuulaa
fuulatti
fuuldura
fuulduraa
fuulduraatti
fuulduraattis
fuulduratti
fuullee
fuulleerraa
fuullerraa
fuulli
fuullisaa
fuundura
fuunee
fuuriyee
fuutee
fxg
g
ga
gaa
gaabbaa
gaabbii
gaabbiin
gaachana
gaachanaan
gaadaa
gaaddisa
gaaddisaa
gaaddisaan
gaadi
gaaf
gaafa
gaafachiisu
gaafachuu
gaafachuuf
gaafachuun
gaafadha
gaafadhe
gaafadhu
gaafan
gaafannaan
gaafas
gaafata
gaafataa
gaafataan
gaafatama
gaafatamaa
gaafatamaan
gaafatamee
gaafatamu
gaafatamummaa
gaafatamummaan
gaafatan
gaafatanii
gaafate
gaafatee
gaafateen
gaafatiin
gaafatin
gaafatte
gaafatti
gaafattuu
gaafatu
gaafatuu
gaaffi
gaaffii
gaaffiif
gaaffiin
gaaffiiwwan
gaaffilee
gaaffileen
gaafin
gaafni
gaafsana
gaafsanaa
gaaftokko
gaafuma
gaagura
gaala
gaalaa
gaalee
gaalerii
gaalla
gaallaa
gaallan
gaalli
gaambeellaa
gaambiyaa
gaanaa
gaanfa
gaanfi
gaangeen
gaanii
gaannaba
gaara
gaaraa
gaaratti
gaari
gaarii
gaariidha
gaariin
gaariis
gaariitti
gaarin
gaaromsaa
gaarreen
gaarreenii
gaarren
gaarrenii
gaarri
gaarrii
gaarummaa
gaarummaan
gaasaraa
gaasii
gaasin
gaattiraa
gaayoo
gaayyoo
gaaz
gaazeexaan
gaazexaa
gaazexaan
gaazexoonni
gaazexoota
gaazii
gaaziin
gaazin
gaazitti
gaazixeessaa
gabaa
gabaaba
gabaabaa
gabaabaadhaaf
gabaabaaf
gabaabaan
gabaabaatti
gabaabadhaaf
gabaabduu
gabaabinaan
gabaabsanii
gabaabsee
gabaabsuu
gabaabumatti
gabaaf
gabaafameera
gabaan
gabaasa
gabaasanitti
gabaase
gabaasetti
gabaasni
gabaasuu
gabatee
gabateen
gabayyoo
gabbara
gabbarri
gabbata
gabbatee
gabbina
gabbisi
gabbisuu
gabbisuun
gabra
gabraa
gabramaaram
gabramaariyaam
gabrasillaasee
gabree
gabriel
gabroomsan
gabroomsu
gabrumma
gabrummaa
gachii
gad
gada
gadaa
gadaamii
gadaan
gadaanaa
gadaatin
gadaatti
gadabitti
gadamsa
gadda
gaddaa
gaddaan
gaddan
gadde
gaddee
gaddeef
gaddi
gaddisiisa
gaddisiisaa
gaddisiise
gaddisiisu
gaddisiisuu
gaddite
gaddu
gadduu
gadee
gadhee
gadhees
gadhiifamuu
gadhiifne
gadhiisa
gadhiisan
gadhiisanii
gadhiisee
gadi
gadii
gadiin
gadiiti
gadiitii
gadiitti
gadiittin
gadilakkifamu
gadin
gaditti
gadlakkisee
gadoo
gafarsaa
gaggaarii
gaggaariin
gaggabaaboo
gaggabdee
gaggabee
gaggaragalchee
gaggeeffama
gaggeeffamaa
gaggeeffame
gaggeeffameen
gaggeeffamu
gaggeessa
gaggeessaa
gaggeessanii
gaggeesse
gaggeessu
gaggeessummaa
gaggeessuu
gaggeessuuf
gaha
gahaa
gahaadha
gahan
gahanii
gahaniin
gahanitti
gahe
gahee
gaheen
gaheera
gahin
gahu
gahumsa
gahutti
gahuu
gahuuf
gahuufis
gahuun
gain
gajjallaa
gal
gala
galaa
galaan
galaana
galaanaa
galaanaatiin
galaanaatti
galaanarraa
galaanni
galaawudoos
galagala
galam
galamsoo
galamsootti
galan
galani
galanii
galanni
galata
galataa
galatee
galateeffachaa
galateeffachuu
galateeffachuun
galateeffadha
galateeffatu
galatoomaa
galatoomu
galatti
galattii
galatu
galbeed
galcha
galchaa
galchan
galchanii
galche
galchee
galcheen
galcheera
galchi
galchine
galchitee
galchu
galchutti
galchuu
galchuuf
galchuun
gale
galee
galeef
galeefi
galeen
galeera
galeessa
galeessaa
galeessaan
galeessaatti
galeessatti
galfadhe
galfadhu
galgala
galgalaa
galgalaatti
galgalan
galgalarraa
galgalas
galgalli
gali
galii
galiilaa
galiiliyoo
galiiloo
galileo
galla
gallana
galle
gallee
galleerra
gallery
galli
galma
galmaa
galmaan
galmee
galmeen
galmeesse
galmeessee
galmeessisuun
galmeessite
galmeessitee
galmeessun
galmeessuu
galmeessuun
galmoo
galmooftee
galoo
galte
galtee
galteen
galtu
galtuu
galu
galuu
galuudhan
galuuf
galuufii
galuun
gama
gamaa
gamaaggama
gamachisu
gamana
gamatti
gambela
gamboomsuf
game
games
gamin
gamma
gammachiisa
gammachiisaa
gammachiisu
gammachiisuu
gammachuu
gammachuudhaan
gammachuun
gammachuus
gammada
gammadaa
gammadduu
gammade
gammadee
gammadeera
gammadne
gammaduu
gammanne
gammannee
gammoojjii
gammoojjiin
gamna
gamnittiin
gamnummaa
gamoo
gamoojii
gamoon
gamoowwan
gamtaa
gamtaadhaan
gamtaan
gamtoomanii
ganama
ganamaa
ganamaafi
ganamaan
ganaman
ganamas
ganamee
ganameen
ganda
gandaa
gandi
gandoonni
gandoota
ganduma
gane
ganee
gangsta
gangster
ganna
gannaa
gannaalee
gannatii
ganne
ganni
gannii
gannoo
gantummaa
gantuu
ganu
ganuu
ganzabee
gar
gara
garaa
garaachaa
garaagara
garaagaraa
garaagaraan
garaagaraatti
garaagarummaa
garaagarummaan
garaan
garaas
garaatti
garad
garagalcha
garagalchee
garagalee
garagalfamee
garagara
garagaraa
garagaraan
garagaree
garagarumma
garan
garana
gararraa
garas
garasuu
garasuun
garba
garbaa
garbaabaa
garbaan
garbaatti
garbi
garbii
garboonni
garboota
garbootaa
garbummaa
garbummaatti
garbuu
garee
gareen
gareewwan
gargaara
gargaaraa
gargaarame
gargaaramee
gargaaramu
gargaaramuuf
gargaaran
gargaare
gargaari
gargaarsa
gargaarsaa
gargaarsi
gargaartonni
gargaartota
gargaartuu
gargaaru
gargaarudha
gargaarudhaan
gargaaruf
gargaaruu
gargaaruuf
gargaaruun
gargar
gargara
gargaraa
gargari
gargarri
garii
gariin
garjii
garmalee
garra
garraa
garraamummaan
garraan
garre
garri
garru
garruu
garsiise
garsiisu
gartokkee
gartokkeen
gartokkeesaa
gartokko
gartokkoon
gartokkotti
gartuu
garu
garuma
garummaa
garummaan
garummoo
garuu
garuummoo
gas
gatamaa
gatamanii
gatame
gatamuuf
gate
gatee
gateettii
gates
gatii
gatiin
gatiittii
gattin
gatu
gatuu
gatuuf
gatuun
gaya
gayaa
gaye
gayee
gayin
gayu
gayutti
gayuu
gazii
gbo
gc
gdp
ge
gedi
geeddaramuun
geedoo
geeffaman
geeffame
geeffamee
geeffamu
geeffamuu
geeffamuun
geejjiba
geejjibaa
geejjibaaf
geem
geemii
geengoo
geengoon
geenye
geenyetti
geenyu
geeraa
geerarsa
geerarsi
geeraru
geese
geessa
geessan
geessanii
geesse
geessee
geesseetti
geessi
geessii
geessisaa
geessisan
geessise
geessisee
geessisu
geessisuu
geessitan
geessitee
geessitu
geessituu
geessu
geessuu
geessuun
geetaachoo
geetii
geggeeffama
geggeeffamaa
geggeeffame
geggeeffamee
geggeeffameen
geggeeffamerrati
geggeeffamerratti
geggeeffamu
geggeeffamuuf
geggeessa
geggeessaa
geggeessan
geggeesse
geggeessee
geggeessite
geggeessitoonni
geggeessitoota
geggeessu
geggeessummaa
geggeessummaan
geggeessun
geggeessuu
geggeessuuf
geggeessuun
geggefame
geggefamu
gel
gemechu
gemede
gemmatimonas
gemmii
gene
general
generating
generation
genesis
genetic
genius
geoffrey
geographical
geography
geology
geopolymer
geopolymeric
geopolymerization
geopolymers
georgia
gerba
german
germany
gessa
gessu
get
gezetena
gezot
ghimbi
gi
gibbii
gibee
gibeetti
gibxi
gibxii
gidaadaa
gidaamii
giddaa
giddu
giddugala
giddugaleessa
giddugaleessaa
giddun
giddutti
gidduu
gidduun
gidduutti
gidduuttii
gidiraa
gidiraan
giduu
gihon
giiftii
giincii
giinii
giir
giixxaa
gill
giloobiyuliin
giluukoosii
gimbichuu
gimbii
gincii
ginda
gindabarat
gindabaratiin
gindhir
gindii
giraaba
giraama
giraar
giraaviitii
giranaadaa
giriidii
giriik
giriikii
giriikiitiin
girjaa
girl
giroo
girooserii
gita
gitaa
gitan
gitni
gitta
gitu
gituma
given
gje
gl
glaasgoo
gland
glass
glchuu
global
globe
globular
globulins
glucopyranose
glucose
glycogen
glycoprotein
go
goaa
goba
gobba
gobbaa
gobbuu
gobeessi
gocha
gochaa
gochaalee
gochaan
gochi
gochibsa
gochima
gochoota
gochu
gochuf
gochuu
gochuuf
gochuufi
gochuufii
gochuufis
gochuun
gochuunis
gochuutti
god
goda
godaa
godaanaa
godaanan
godaane
godaannisa
godaansa
godaansi
godaantota
godaanu
godambaa
godha
godhaa
godhachuu
godhachuudhaan
godhachuun
godhama
godhamaa
godhaman
godhame
godhamee
godhameef
godhameefi
godhameen
godhameera
godhameet
godhameetti
godhamerratti
godhametti
godhamne
godhamu
godhamuu
godhamuuf
godhan
godhani
godhanii
godhaniif
godhaniin
godhaniiru
godhata
godhatamu
godhatan
godhatanii
godhate
godhatee
godhatu
godhe
godhedha
godhee
godheef
godheen
godheera
godheetan
godherra
godherratti
godhi
godhiin
godhin
godhu
godhuree
godhus
godhutu
godhuu
godhuuf
godhuun
godiina
godina
godinaa
godinaalee
godinaaleen
godinichaa
godinni
godinoota
godoo
gofaa
goga
gogaa
gogaadhaan
gogaafi
gogaan
gogeessa
gogga
goggoga
goginsi
gola
golbaa
golboo
gold
golden
golee
golgaa
gololcha
gololchaa
gombifamee
gomes
gommaa
gomoraa
gonc
gondar
gondor
gondoritti
gonfachuu
gonfatu
gonfoo
gonkumaa
goobana
goobanaa
good
goodaa
goodhamuu
gooftaa
googaa
google
goojjam
goojjamoonni
goojjamootaa
goojjoo
gooldan
goolden
gooldi
goolii
goomattuu
goona
goonaa
goondaa
goone
goonee
goonii
goonkumaa
goonni
goonu
goorfamuu
goorillaa
gooroo
gooroon
goota
gootaa
gootaatti
gootan
goote
gootee
gooti
gooticha
gootichi
gootni
gootonni
gootota
goototaa
goototni
gootu
gootummaa
gootummaan
gora
goran
gordon
goree
goro
goroo
gorora
gorroo
gorsa
gorsaa
gorsan
gorse
gorsi
gorsituu
gorsoddoma
gorsuu
gosa
gosaa
gosaan
gosoonni
gosoota
gossa
gossi
gosti
gotoota
gottlieb
gov
government
gowwaa
gowwaan
gowwichi
gp
grand
granite
grant
granted
graphics
gray
great
greece
greek
green
greenhouse
greenspan
grey
grid
group
grove
gs
gsp
gu
guba
gubaa
gubachaa
gubaman
guban
gubannaa
gubate
gubatu
gubba
gubbaa
gubbaan
gubbaansaa
gubbaarra
gubbaatti
gubbatti
gube
gubi
gubinsaa
gubinsaatti
gubu
gubuu
guchii
gud
gudaan
gudar
gudayyaa
gudda
guddaa
guddaadha
guddaadhaan
guddaadhan
guddaan
guddaanii
guddaarra
guddaarraa
guddaarratti
guddaas
guddaati
guddaatti
guddaatu
guddachaa
guddachuu
guddachuun
guddadhe
guddadhu
guddan
guddata
guddataa
guddatan
guddate
guddatee
guddatte
guddatu
guddatuu
guddatuudha
guddicha
guddichaa
guddichi
guddifachaa
guddifachaan
guddifachuu
guddifachuuf
guddifata
guddifte
guddina
guddinaa
guddinaan
guddinan
guddinni
guddisa
guddisaa
guddisan
guddisanii
guddise
guddisee
guddiseen
guddisi
guddisu
guddisuu
guddisuuf
guddisuun
gudditti
guddittii
guddittin
guddo
guddoo
guddoon
gudina
gudinan
guduru
guduruu
gufii
gufuu
gugguddoon
guggudo
guguddaa
guguddoo
gugurdoo
guided
guinea
guji
gujii
gujiin
gulaalaa
gulantaa
gulantaawwan
gulf
gullallee
gulufuu
gulummaa
gumaa
gumaacha
gumaachaa
gumaachan
gumaachi
gumaachuu
gumbii
gumii
gumiin
gummaa
gumuuz
gumuz
gumuziin
gundoo
guraacha
guraagee
guraandhala
gurbaa
gurbaan
gurbayyee
gurgudda
gurguddaa
gurguddaaf
gurguddaan
gurguddaatti
gurguddoo
gurguddoon
gurguraaf
gurgurame
gurguramte
gurguramtee
gurguratan
gurgure
gurgureera
gurgurtaa
gurguru
gurguruuf
gurguruun
gurguruutti
gurmaa
gurmeessaa
gurmeessuudhaan
gurmuu
gurmuun
gurra
gurraa
gurraacha
gurraachaa
gurraachaafi
gurraachi
gurraachota
gurraandhala
gurraattii
gurracha
gurrachessu
gurrachi
gurrandhala
gurri
gurroolee
gursum
guttu
gutu
gutummaa
gutummaan
gutuu
guuboo
guunne
guuraa
guuramanii
guurate
guurii
guurree
guuruu
guuta
guutama
guutamaa
guutamaan
guutame
guutamee
guutameedha
guutameef
guutamu
guutamuu
guutan
guute
guutee
guutoo
guuttame
guuttee
guutu
guutumaan
guutummaa
guutummaan
guutummaatti
guututti
guutuu
guutuuf
guutuummaatti
guutuun
guutuus
guutuutiin
guutuutiinan
guutuutti
guvaaraan
guyya
guyyaa
guyyaan
guyyaas
guyyaatii
guyyaatti
guyyicha
guyyichaa
guyyoo
guyyoonni
guyyoota
guyyootaa
guyyooti
guyyuma
guyyuu
guyyuun
gwa
gzuz
h
ha
haa
haacaalun
haacaaluu
haacaaluun
haada
haaddatee
haadha
haadhaa
haadhaafi
haadhaas
haadhasaa
haadhatti
haadhoo
haaduu
haajaa
haaji
haala
haalaa
haalaan
haalata
haaleera
haalli
haallii
haalonni
haaloo
haalota
haaluma
haaluu
haanim
haanimiifii
haaqabu
haara
haaraa
haaraadha
haaraan
haaraatti
haaran
haarawaan
haardiweerii
haarii
haaromsa
haaromsaa
haaroyni
haarvaard
haarvaardi
haasa
haasaa
haasaaf
haasaan
haasahuu
haasawa
haasawee
haasaynu
haashim
haashiyaa
haasofna
haasofne
haasofnu
haasofnuu
haasoftuu
haata
haatahu
haatayuu
haati
haatii
haatisaa
haawusii
haayidiroojiinii
haayilamaariyaam
haayilamaariyaamiin
habaaboo
habasha
habashaa
habashoonni
habashootaa
haboo
habro
habtamu
habtawaldi
hacuuccaa
hacuuccaan
hacuuccamaa
had
hadaraa
hadha
hadhaa
hadhaawaa
hadhaba
hadheeffachaa
hadheeffachuu
hadheeffattee
hadheeffatu
hadhooftuu
hadiidaa
hadiisa
hadiisaa
hadiisafii
hadiisni
hadiyyaa
hadurree
hadurreen
haemoglobin
hafa
hafaa
hafan
hafani
hafe
hafee
hafeef
hafeen
haffe
hafiin
hafin
hafne
hafnee
hafte
haftee
hafteef
hafu
hafuu
hafuura
hafuuraa
hafuus
hafuutii
haga
hagam
hagamii
hagamillee
hagamis
hagamiyyuu
hagas
hagasi
hagasii
hagasmara
hagayya
hagayyaa
haguugama
haguugee
haguuggaa
hahaha
haile
hajii
hajiin
hajji
hajjii
halaal
halaalaa
halab
halaku
halalee
halchiisa
haleelan
haleele
haleellaa
half
halkan
halkanaa
halkani
halkanii
halkaniif
halkanuma
halla
hallaattii
hallayyaa
halle
halli
hallu
halluu
halluudhaan
halluutti
halluuwwan
halobacteria
haloojinoota
haluu
hama
hamaa
hamaan
hamartii
hambaa
hambisaa
hambise
hambisuuf
hamdee
hamilee
hamlee
hamleen
hamma
hammaachaa
hammaan
hammaata
hammaataa
hammaate
hammaatee
hammaateef
hammadhe
hammam
hammamii
hammannee
hammata
hammatamu
hammate
hammatedha
hammatee
hammeenya
hammeenyaan
hammi
hamtu
hamtuu
hamza
hanbise
handhurtii
handhuura
hands
hanga
hangaa
hangaarii
hangafa
hangafaa
hangafni
hangam
hangan
hangana
hangas
hangi
hanguma
hannaa
hanqaaqun
hanqaaquu
hanqatan
hanqatee
hanqattee
hanqina
hanqinni
hanqisi
hanqisu
hansen
hantuunni
hantuuta
hantuutaa
hantuuttee
haphee
haphii
haphiin
happy
haqa
haqaa
haqamaniiru
haqame
haqni
haqummaa
har
hara
haraa
haraami
haramaayaa
haramaya
harannaa
harar
hararge
harargee
harargeen
harargeetti
harargie
harari
hararii
harariin
hararirraa
hararitti
haratoo
harawwan
harbuu
harca
hardha
hardhaa
harena
harganaa
hargansuu
hariiroo
harka
harkaa
harkaan
harkasaa
harkatti
harki
harkifatoon
harkisa
harkisaa
harkise
harkisee
harkisu
harkisuu
harkuma
harma
harmee
harmeef
harmeen
harmeenis
harmeerra
harmees
harmeesaa
harmeeti
harmeetti
harmufaa
harmuufaa
haroo
haroon
haroowwan
harra
harraa
harre
harree
harri
harris
harry
harshama
harvaardi
harwell
harwellitti
has
hasa
hasan
hassan
hassen
hata
hatattamaa
hatattamaan
hattoonni
hattoota
hattuun
hatuuf
have
hawaa
hawaas
hawaasa
hawaasaa
hawaasaatti
hawaashii
hawaasni
hawaasumma
hawaasummaa
hawaasummaan
hawussaa
hawwa
hawwaa
hawwaasummaa
hawwachuu
hawwanii
hawwata
hawwataa
hawwe
hawwii
hawwiin
hawwisiisa
hawwisoo
hawwisoon
hawwu
hawwuu
haxxee
hayidiroojin
hayidiroojinii
hayila
hayilamaaraam
hayilamaaram
hayilamaariyaam
hayilasillaasee
hayilasillaaseef
hayilasillaaseen
hayilee
hayileen
hayiluu
hayiwaardi
haylasilaasen
haylasillaase
hayyama
hayyee
hayyoonni
hayyoota
hayyuu
hayyuun
hco
hd
he
head
health
heart
heat
heddommaate
heddommeysanii
heddu
hedduminaan
heddummaatee
hedduu
hedduudhaaf
hedduudhaf
hedduudhan
hedduuf
hedduun
hedduunis
hedduurratti
hedduus
heduu
heedduu
heektaara
heellaa
heemoogiloobiinii
heera
heeraa
heeruma
heerumaa
heerumte
heerumtu
heerumuu
heerzii
heexoo
heexosaa
height
hek
hektaara
hektara
helena
help
hemisphere
hemostasis
henirii
henri
henrii
henriin
henry
hepatitis
her
herban
herbert
hero
herreega
herreegaa
herrega
herregaa
herregni
hi
hibboo
hidda
hiddaa
hiddi
hiddii
hidha
hidhaa
hidhaadhaa
hidhaan
hidhaatii
hidhaatti
hidhabuu
hidhamaa
hidhaman
hidhamanii
hidhame
hidhamee
hidhamne
hidhamtee
hidhamtoota
hidhamu
hidhamuu
hidhamuun
hidhan
hidhanii
hidhannoo
hidhata
hidhatan
hidhatanii
hidhate
hidhatee
hidhattoonni
hidhee
hidhii
hidhiin
hidhuu
hidhuun
high
hiibboo
hiibboon
hiika
hiikaa
hiikaan
hiikaansaa
hiikama
hiikame
hiikamee
hiikamu
hiikamuu
hiikan
hiikanii
hiikansaa
hiike
hiikee
hiikhe
hiikka
hiikkaa
hiikkaan
hiikkamee
hiikkamu
hiikkan
hiikku
hiikni
hiikoo
hiiktee
hiiku
hiikun
hiikuu
hiikuun
hiin
hijjachuuf
hijraa
hikaan
hima
himaa
himaammannii
himaammata
himachuu
himachuun
himama
himamaa
himame
himamee
himametti
himammata
himamu
himan
himanii
himanna
himannaa
himata
himataa
himatame
himatamee
himatan
himate
himatti
hime
himee
himeen
himeera
himeeraa
himi
himne
himnee
himni
himoota
himte
himti
himtu
himu
himutti
himuu
himuuf
himuufis
himuun
hin
hinbeeku
hinbeeyne
hincitne
hindandeenye
hindii
hindu
hinduu
hinjiru
hinkennamne
hinqabne
hinqabu
hinsochoone
hinta
hintaane
hinturiin
hinturre
hip
hir
hiraara
hiraarsaa
hiratanii
hirdhacha
hiree
hiriira
hiriiran
hiriiree
hiriyaa
hiriyaan
hiriyaansaa
hiriyaashii
hiriyoonni
hiriyoota
hiriyootasaa
hiriyummaa
hiriyummaan
hiriyyaa
hiriyyummaa
hiriyyummaan
hirkadhee
hirkoo
hirmaachaa
hirmaachu
hirmaachuf
hirmaachuu
hirmaachuuf
hirmaannaa
hirmaanne
hirmaata
hirmaataa
hirmaatan
hirmaatanii
hirmaate
hirmaatee
hirmaatin
hirmaatte
hirmaatteetti
hirmaatu
hirna
hirpha
hirphaa
hirqinfadhee
hirree
hirriba
hirribaa
hirriiba
hirriibaa
hirrina
hirrisa
hirrisuu
hirrisuuf
hirrisuun
hirtee
hiruu
his
hisaaba
hishaam
historical
history
hitler
hitosa
hiv
hiyyaasee
hiyyummaa
ho
hodhaa
hodhanii
hodhuu
hoffn
hoffolaa
hogan
hogga
hoggaa
hoggaadhan
hoggaan
hoggana
hogganaa
hogganaan
hogganamu
hoggansa
hoggantoonni
hoggantoota
hoggantootaa
hogganu
hogganummaa
hogganuu
hojachaa
hojeetaman
hoji
hojicha
hojichi
hojii
hojiif
hojiilee
hojiin
hojiinsaa
hojiinsaas
hojiirra
hojiirraa
hojiisaa
hojiishii
hojiitti
hojiiwwan
hojiiwwanii
hojja
hojjaa
hojjachaa
hojjachu
hojjachuu
hojjachuuf
hojjachuun
hojjanne
hojjata
hojjataa
hojjatama
hojjatamaa
hojjataman
hojjatamani
hojjatame
hojjatamee
hojjatameera
hojjatamu
hojjatamuu
hojjatan
hojjatani
hojjatanii
hojjataniif
hojjataniin
hojjataniiru
hojjate
hojjatee
hojjateen
hojjateera
hojjatme
hojjatta
hojjatte
hojjattoonni
hojjattoota
hojjattu
hojjattuu
hojjatu
hojjatus
hojjatuu
hojjatuuf
hojjatuun
hojjatuuni
hojjechaa
hojjechuu
hojjechuuf
hojjechuun
hojjedhu
hojjenne
hojjennu
hojjeta
hojjetaa
hojjetaan
hojjetamaa
hojjetame
hojjetamee
hojjetamu
hojjetamuu
hojjetan
hojjetanii
hojjete
hojjetee
hojjeteera
hojjettoonni
hojjettoota
hojjettu
hojjetu
hojjetuu
hojji
hojjtuuf
holding
hollatu
holqa
holqatti
homaa
home
homma
homologasii
honduraas
honesty
honor
honours
hoo
hoobiin
hooftuu
hoofu
hoofuu
hooggana
hoogganaa
hoogganame
hoogganamu
hooggansa
hooggantoonni
hoogganummaa
hoogganuun
hooke
hookkara
hookkuu
hooksu
hooksuu
hoolaa
hoolaandi
hoolaandii
hoolaandiin
hoolaanditti
hoolandi
hoollachuu
hoollatu
hoolota
hoolotaa
hoolotaatti
hoomaa
hoong
hoonga
hooppi
hoosiftoonni
hoosiftoota
hop
hopsitaala
hora
horaa
horachaa
horachuu
horan
horanii
horate
horatee
horde
hordofa
hordofaa
hordofaan
hordofan
hordofanii
hordofee
hordoffii
hordoffiin
hordoftoota
hordoftu
hordofu
hordofuu
hordofuun
hore
horee
horii
horiin
hormaata
hormaataa
hormaataati
hormone
hormonii
horn
horo
horri
horro
horroo
horsiisa
horsiisee
hortee
horu
horuu
hosiftotta
hospitaala
hoteela
house
how
howard
hr
htm
html
http
https
hu
hubachaa
hubachiisa
hubachiise
hubachiisu
hubachiisuu
hubachuu
hubachuuf
hubachuun
hubadhe
hubadheen
hubadheera
hubadhu
hubameera
hubamne
hubannaa
hubanne
hubannee
hubannoo
hubatama
hubatamu
hubatan
hubatanii
hubataniiru
hubate
hubatee
hubateef
hubateen
hubatte
hubattee
hubatu
hubatuun
hubble
huccuu
huccuun
hudduu
hudhaa
hudhee
hudumamanii
hujeessa
hujeessaa
hujeessutti
hujeessuu
hujii
hulaa
hulluuqqoo
hulluuqsisi
human
humana
humanity
humidity
humna
humnaa
humnaan
humnasaa
humni
humnoonni
humnoota
humnootaa
hunda
hundaa
hundaaf
hundaafuu
hundaan
hundaati
hundaatti
hundaawe
hundan
hundarra
hundarraa
hundarratti
hundas
hundatti
hundayyuu
hundee
hundeeffama
hundeeffaman
hundeeffame
hundeeffamee
hundeeffames
hundeeffamte
hundeen
hundeessaa
hundeessan
hundeesse
hundeessee
hundeesseera
hundeessun
hundeessuu
hundeessuun
hundeffame
hundi
hundinu
hundinuu
hundoofte
hundred
hundu
hunduma
hundumaa
hundumaaf
hundumaan
hundumaatti
hundumatti
hunduu
hungary
hunkurametti
hunoo
hurka
hurkaa
hurkee
hurraa
hurricane
hurrii
hurriin
hurrumuu
hurufa
hurwic
huseen
huubboo
huuk
huumee
huuqqatee
huuqqattee
hydrocarbon
hypocenter
i
iaaf
iaafn
iba
ibaa
ibaadaa
ibaaf
ibaati
ibe
ibidda
ibiddaa
ibiddi
ibm
ibn
ibnu
ibolaa
ibolaan
iboolaa
ibraahiim
ibraahim
ibsa
ibsaa
ibsachaa
ibsachuu
ibsachuuf
ibsama
ibsame
ibsamte
ibsamu
ibsamuu
ibsan
ibsatu
ibse
ibsee
ibseef
ibseera
ibsetti
ibsi
ibsiifannaa
ibsiisaa
ibsimuudha
ibsinu
ibsite
ibsitu
ibsu
ibsutti
ibsuu
ibsuudha
ibsuuf
ibsuun
ibu
ibuma
ibuu
ibuun
icciitii
icciitiin
iccitii
ice
icha
ichaa
ichi
iciteeffame
iciteessaa
icitii
icn
id
ida
idaa
idaatii
idaayyichi
idaayyittii
idda
iddo
iddoo
iddoodhuma
iddoon
iddootti
iddoowwan
iddoowwanii
iddowwan
ideal
identity
idil
idilee
idileetti
idloomaa
idoo
ieee
if
ifa
ifaa
ifaan
ifaatti
ifachuu
ifan
ifatti
ife
ifee
iffa
iffaa
ifii
ifiin
ifiiti
ifiitin
ifin
ifirraa
ifni
ifte
ifti
iftikhar
iftoomina
iftuu
ifu
ifumaa
ifuu
ii
iid
iida
iidhaa
iidil
iif
iifa
iifii
iii
iil
iim
iin
iina
iinis
iinsa
iinsaa
iinsi
iinterliinguwaan
iisaa
iit
iiti
iitifii
iitin
iitti
iivi
ija
ijaa
ijaaf
ijaan
ijaara
ijaaraa
ijaarama
ijaaraman
ijaaramanii
ijaaramaniiru
ijaarame
ijaaramee
ijaaramte
ijaaramuu
ijaaramuuf
ijaaran
ijaare
ijaaree
ijaarramaa
ijaarraman
ijaarramu
ijaarrate
ijaarrii
ijaarsa
ijaaru
ijaarudhaan
ijaarun
ijaaruu
ijaaruuf
ijaaruun
ijaazaa
ijarraa
ijasaa
iji
ijiipti
ijiiptii
ijji
ijjigaayyoo
ijmaa
ijolle
ijollee
ijoo
ijoodha
ijoolee
ijoolle
ijoollee
ijoolleen
ijoolleesaa
ijoollen
ijoollumaa
ijoollumaatti
ijoollumma
ijoollummaa
ijoollummaasaa
ijoollummaatti
ijoolummaa
ijoonni
ijoota
il
ila
ilaa
ilaaf
ilaaha
ilaala
ilaalaa
ilaalaan
ilaalama
ilaalame
ilaalamne
ilaalamnu
ilaalamu
ilaalamuu
ilaalamuun
ilaalan
ilaalanii
ilaalcha
ilaalchaa
ilaalchi
ilaalchisee
ilaalchisuun
ilaalchota
ilaale
ilaalee
ilaaleen
ilaali
ilaalii
ilaalla
ilaallama
ilaallame
ilaallamee
ilaallamu
ilaallata
ilaallatan
ilaallateen
ilaalle
ilaallu
ilaalte
ilaaltee
ilaaltu
ilaaltuu
ilaaltuun
ilaalu
ilaalun
ilaalutti
ilaaluu
ilaaluuf
ilaaluun
ilalii
ilallani
ilalli
ilallu
ilalluf
ilaluf
ilaluuf
ilbiisa
ilbiisni
ilbiisota
ilfataa
ililfannaa
ililii
ilillii
ilkaan
ilkee
illa
illallaahu
illee
illu
ilma
ilmaan
ilman
ilmee
ilmi
ilmii
ilmoo
ilmoon
ilteeninnaa
ilu
iluu
ima
imaa
imaam
imaatti
image
imala
imalaa
imale
imalee
imaluun
imbaasin
imbasiin
imimmaan
imimmaaniin
immaan
imman
immanii
immimmaan
immo
immoo
immune
immunoglobulins
imoo
impaayera
impaayerri
impeeriyaalistii
impeeriyaalistiitif
impeeriyaalizimii
impeeriyaalizimiin
imperer
imperial
imtihaana
imummaa
in
ina
inaa
inaaffaa
inaafuun
inaan
inaariyaa
inch
incinnii
include
including
inda
indaakshin
indaakshinii
indaakterii
indaakteriin
indaakteroonni
index
india
indian
indicated
indies
indigenous
indiis
indiyaa
indiyaatti
indo
indoneeshiyaa
indooyyee
induction
industirii
industiriin
industry
inflammation
information
ingiccaa
ingilaand
ingilaandi
ingilaanditti
ingiliffa
ingiliffaa
ingiliffaan
ingiliish
ingiliz
ingilizii
ingiliziitti
ingilizoonni
ingilizoota
inglizii
inii
iniin
inistiitiyuutii
inistirumentis
injection
injifachuu
injifannoo
injifannoon
injifannoowwan
injifate
injifatte
injiini
injiinii
injinar
injinarii
injineer
injineeringii
injinerii
injineroonni
injineroota
injiraan
inna
innaa
innaan
inni
innii
inninis
innis
inniyyuu
insa
insaan
insi
institut
institute
intala
intalli
intalmootii
intalti
integireetid
integrated
integrator
intel
intellectual
intendentii
interior
internaashinaal
internacional
internal
international
interneetii
internet
interrupt
into
introduction
inuma
inumaa
inumaayyuu
inuu
inventions
investii
investimeentii
investimentii
investment
inxooxxoo
inzaayimii
ion
ionize
ionizing
ipa
ipcc
ippidarmisii
ippidarmisiifi
ippistimooloojii
iqu
ira
iraa
iraaq
iraq
irati
iratti
irbaanni
irbaata
irbuu
ireland
iron
irra
irraa
irraagadee
irraan
irraanfachuu
irraanfadhu
irraanfataman
irraas
irraati
irraatii
irraatti
irraayi
irradeddebii
irran
irras
irrati
irratii
irratti
irrattii
irrattin
irrattis
irree
irreecha
irreechaa
irreechi
irreeffatee
irreeffatu
irreessa
irreessaa
irriba
irribni
irruma
is
isa
isaa
isaac
isaaf
isaafii
isaan
isaani
isaanif
isaanii
isaaniif
isaaniin
isaaniirra
isaaniis
isaaniiti
isaaniitii
isaaniitiin
isaaniitti
isaaniittis
isaaniituu
isaaniiyyuu
isaanillee
isaanin
isaanirraa
isaanirratti
isaanis
isaaniti
isaanitii
isaanitiif
isaanitiin
isaanitti
isaaniyyuu
isaanuma
isaaq
isaarra
isaarraa
isaarraan
isaarratti
isaas
isaati
isaatif
isaatii
isaatiif
isaatiin
isaatiinis
isaatin
isaatini
isaatti
isaattii
isaatu
isaayyuu
isabela
isan
isani
isanii
isarra
isarraa
isarraan
isarratti
isarrawoo
isas
isatti
isayyuu
isbn
ise
isee
ish
ishaa
ishaaq
ishe
ishee
isheef
isheefis
isheen
isheenis
ishees
isheeti
isheetiin
isheetin
isheetti
isheetu
ishii
ishiin
ishiinis
ishiirraa
ishiirratti
ishiis
ishiitii
ishiitin
ishiitti
ishoo
isi
isii
isiidhaa
isiin
isiitti
isin
isinii
isiniif
isiniin
isinirraa
isinitti
isinuu
isiraa
isixhosa
iskaaniin
iskeelii
iskoolaarshiippii
iskoolarshiippii
iskoot
iskootilaandii
iskootlaand
iskuweer
iskuweerii
islaama
islaamaa
islaamarraa
islaami
islaamii
islaamummaa
islamic
island
ismaa
ismaartifoon
ismaartifooni
ismaartifoonii
ismaartifoononni
isniinaa
isoo
ispeen
ispeesii
ispiraalii
ispiriingis
ispiriingisitti
ispoorii
ispooriin
ispooriiwwan
ispoorin
ispooronni
ispoortii
ispoortiin
isquweer
israa
issa
issaa
issan
issani
issue
issues
issuu
istaadiyeemii
istaanlii
istaanliin
istaatistiiksii
istaatistiksii
istaayilii
istaayilized
isteet
isteetis
isteetsi
isti
istiraasbergitti
istirooberrii
istirooberriin
istookoolmi
istooniyaa
istuudiyoo
isu
isuma
isumaan
isumayyuu
isuu
isuuf
isuun
iswiichi
iswiichii
iswiichiin
iswiichiitti
iswiichitti
iswiidin
it
ita
italian
italy
itayyaa
iti
itii
itillee
ititi
itittuu
itittuun
ititu
itituu
itiyoophiyaa
itooophiyaa
itoophiya
itoophiyaa
itoophiyaadhaa
itoophiyaan
itoophiyaanonni
itoophiyaarraa
itoophiyaatin
itoophiyaatti
itoophiyummaa
itophiyaa
its
itt
ittaansee
ittaanu
ittan
itti
ittifamuu
ittii
ittiin
ittiiqaan
ittin
ittisa
ittisaa
ittisaaf
ittisan
ittisni
ittisu
ittisuu
ittisuudha
ittisuuf
ittisuun
ittiyyuu
ittoo
ittoon
ittuma
ittumayyuu
ittusin
ittuu
itu
ituu
ityoobiya
ityoobiyaan
ityoophiyaa
iupac
ives
ixaaloo
iyya
iyyaa
iyyaasu
iyyaasun
iyyaasuu
iyyaasuun
iyyachuu
iyyadhe
iyyan
iyyannoo
iyyata
iyyataa
iyyatan
iyye
iyyee
iyyi
iyyitu
iyyu
iyyuu
iyyuun
izaa
iznii
j
ja
jaagamaa
jaak
jaakson
jaal
jaala
jaalaalaa
jaalachaa
jaalachuu
jaalachuun
jaaladha
jaaladhe
jaaladheef
jaaladheefiira
jaaladhu
jaalala
jaalalaa
jaalalaaf
jaalalaan
jaalallee
jaalalli
jaalanne
jaalanneef
jaalata
jaalatamaa
jaalatamaadha
jaalatamtu
jaalatamtuu
jaalatamu
jaalatan
jaalataniif
jaalatanis
jaalatiin
jaalatta
jaalatte
jaalatti
jaalattu
jaalatu
jaalatuuf
jaallachuu
jaalladha
jaalladhu
jaallalli
jaallata
jaallatamaa
jaallatamtuu
jaallatamu
jaallattu
jaallatu
jaalle
jaallee
jaallewwan
jaama
jaamboo
jaami
jaamii
jaan
jaanjaroo
jaankishin
jaankshin
jaappaan
jaaran
jaardagaa
jaare
jaarii
jaarmayaa
jaarra
jaarraa
jaarraan
jaarran
jaarsa
jaarsaa
jaarsi
jaarsolii
jaarsoliin
jaarsoo
jaarsummaa
jaartee
jaartii
jaartiin
jaartin
jaawuda
jaawwii
jaba
jabaa
jabaachaa
jabaadhu
jabaadhuu
jabaan
jabaanne
jabaataa
jabaatee
jabaatta
jabadha
jabana
jabarti
jabba
jabbena
jabduu
jabeeffatanii
jabeessa
jabeessee
jabeessu
jabeessuu
jabeessuun
jabeettii
jabina
jabinaa
jabinaan
jabinni
jaboo
jabummaa
jabummaan
jadhu
jaggaa
jaha
jahaa
jahan
jahatti
jai
jajjabaa
jajjabeessan
jajjabeessu
jajjabeessuu
jajjabeessuuf
jajjabina
jajjabinaa
jajjabinni
jajjaboo
jajjaboon
jajuu
jal
jala
jalaa
jalaan
jalaatti
jalan
jalaqabe
jalata
jalatti
jalattii
jalbultii
jaldeessa
jaldeessaa
jaldeessi
jaldeeyyii
jaldeeyyiin
jalduu
jalduutin
jalduutti
jalgabe
jalla
jallaa
jallatti
jallinaa
jallisiin
jalqaba
jalqabaa
jalqabaaf
jalqabaan
jalqabaas
jalqabaati
jalqabaatif
jalqabaatiif
jalqabaatti
jalqabame
jalqaban
jalqabanii
jalqabaniiru
jalqabarraa
jalqabarratti
jalqabatti
jalqabbii
jalqabde
jalqabdee
jalqabdi
jalqabe
jalqabee
jalqabeen
jalqabeera
jalqabiin
jalqabin
jalqabne
jalqabnee
jalqabneerra
jalqabni
jalqabsiise
jalqabu
jalqabuma
jalqabumaa
jalqabuu
jalqabuuf
jalqabuufi
jalqabuun
jalqbaa
jam
jamaa
jamaal
james
jamie
jamz
jan
jannata
jannataa
january
japan
jara
jarman
jarmaniffa
jarmanii
jarmaniin
jarmaniitin
jarmaniitti
jarmanitti
jarmanoonni
jarmanoota
jarmanootaa
jarmiin
jarraa
jarreen
jarri
jarso
jawaar
jawaaza
jazaakallaahu
je
jean
jech
jecha
jechaa
jechaadha
jechaadhan
jechaan
jechama
jechamni
jechamoota
jechan
jechi
jechii
jechoonni
jechoota
jechootaa
jechootaan
jechu
jechun
jechuni
jechuu
jechuudha
jechuudhaa
jechuudhaan
jechuudhan
jechuuf
jechuun
jechuunis
jedha
jedhaa
jedhaan
jedhama
jedhamaa
jedhaman
jedhamani
jedhamanii
jedhamaniin
jedhamanitu
jedhame
jedhamee
jedhameera
jedhamees
jedhameet
jedhameeti
jedhames
jedhamne
jedhamnee
jedhamnu
jedhamtee
jedhamti
jedhamtii
jedhamtu
jedhamtutti
jedhamtuun
jedhamu
jedhamudha
jedhamun
jedhamuni
jedhamunii
jedhamurraa
jedhamus
jedhamutti
jedhamutu
jedhamuu
jedhamuuf
jedhamuufi
jedhamuun
jedhamuuni
jedhamuunis
jedhamuutti
jedhan
jedhani
jedhanii
jedhaniif
jedhaniin
jedhanis
jedhanitti
jedhe
jedhee
jedheef
jedheen
jedheeni
jedheenii
jedheera
jedhees
jedheetu
jedhetti
jedhi
jedhii
jedhiin
jedhiitii
jedhu
jedhudha
jedhun
jedhurraa
jedhurratti
jedhus
jedhutti
jedhuu
jedhuudha
jedhuuf
jedhuun
jee
jeedala
jeedalli
jeel
jeelii
jeemsi
jeeneeraal
jeeqa
jeeqaa
jeeqama
jeeqamaa
jeeqamuu
jeeqan
jeeqe
jeequ
jeequmsa
jeequmsi
jemes
jeneraal
jeneraala
jeneraalli
jeneraalonni
jeneral
jenereeterii
jenereeteroota
jenna
jennaan
jennaanin
jenne
jennee
jenneen
jenneerra
jenneeti
jennu
jennuu
jennuun
jermaaniyemirraa
jermeniyemii
jersey
jerusalem
jetta
jettan
jettanii
jette
jettee
jetteem
jetteen
jetteenii
jetti
jettiin
jettu
jettutti
jettuu
jettuun
jewish
ji
jibaat
jibba
jibbaa
jibbaaf
jibban
jibbe
jibbee
jibbiinsaa
jibbiinsi
jibbine
jibbines
jibbisiisaa
jibbisiise
jibbisiisee
jibbisiisu
jibbitu
jibbu
jibbuu
jibbuun
jibuuti
jibuutii
jidda
jiddaa
jiddarraa
jiddatti
jiddoo
jiddu
jiddugaleessa
jiddutti
jidduu
jidduutti
jidutti
jiduu
jige
jigee
jiggu
jiidha
jiidhaa
jiidhaan
jiidhan
jiille
jiillee
jiini
jiinii
jiiniin
jijiirama
jijjiira
jijjiirama
jijjiiramaa
jijjiirame
jijjiiramee
jijjiirameera
jijjiiramne
jijjiiramni
jijjiiramte
jijjiiramu
jijjiiramuu
jijjiiramuun
jijjiiran
jijjiiranii
jijjiire
jijjiiree
jijjiirraa
jijjiirraan
jijjiirrama
jijjiirrame
jijjiirramu
jijjiirrate
jijjiirre
jijjiiru
jijjiirun
jijjiiruu
jijjiiruuf
jijjiiruun
jijjirama
jijjiraman
jijjirame
jijjirami
jijjiramni
jijjiramu
jijjiru
jila
jilaa
jilba
jilbaa
jill
jilli
jiloo
jiloota
jim
jimaa
jimaata
jimaataa
jiminaaziyeemii
jimma
jimmaa
jimmaan
jimmaatin
jimmaatti
jimman
jimmatti
jinfuu
jinoomii
jira
jiraa
jiraacha
jiraachaa
jiraachisuu
jiraachun
jiraachuu
jiraachuuf
jiraachuun
jiraadhe
jiraadhee
jiraadhu
jiraam
jiraan
jiraanna
jiraannaan
jiraanne
jiraannee
jiraannu
jiraanya
jiraata
jiraataa
jiraatan
jiraatani
jiraatanii
jiraataniif
jiraataniin
jiraatanis
jiraate
jiraatee
jiraateera
jiraatiin
jiraatte
jiraattee
jiraatti
jiraattonni
jiraattota
jiraattu
jiraattuu
jiraatu
jiraatudha
jiraatus
jiraatuu
jiraatuudha
jirachu
jirachuu
jiran
jirani
jiranii
jiraniif
jiraniin
jiranis
jiranitti
jiranni
jiraree
jiratan
jirattotta
jirattu
jiratu
jirbii
jireenya
jireenyaa
jireenyaaf
jireenyaan
jireenyaati
jireenyaatiif
jireenyan
jireenyasaa
jireenyi
jirenya
jirenyaa
jirjiira
jirjiirame
jirjiiran
jirjiiri
jirjiirra
jirjiirre
jirma
jirra
jirrachu
jirran
jirrani
jirrattu
jirre
jirree
jirreef
jirreetti
jirretti
jirru
jirrun
jirrutti
jirruu
jirruutti
jirta
jirtaa
jirtan
jirtanii
jirti
jirtii
jirtu
jirtudha
jirturraa
jirtutti
jirtuu
jirtuudha
jirtuuf
jiru
jirudha
jirun
jirurraa
jirurratti
jirus
jirutti
jiruu
jiruudha
jiruuf
jiruufi
jiruun
jiruuti
jiruutti
jiruuyyuu
jizee
jo
joa
jograafiyaa
john
joint
joliot
jonnes
joolee
joolle
joollee
joollen
joon
joordaan
joorji
jordan
jose
joseph
journal
jpg
jr
juan
julius
july
jum
june
jungle
junior
jupiter
justice
justicen
juuliyoo
juuliyoon
juupitaar
juuza
k
ka
kaa
kaaayizer
kaaba
kaabaa
kaabaan
kaabaatiin
kaabaatti
kaaban
kaabatti
kaabbaa
kaachhoo
kaachoo
kaachuu
kaadimiyemii
kaafame
kaafamu
kaafamuu
kaafnuudha
kaalaandara
kaalandara
kaalifoorniyaa
kaalkuleeterii
kaalkulesii
kaam
kaameraa
kaameruun
kaampaanii
kaampaaniin
kaampanicha
kaampanii
kaampii
kaan
kaanaan
kaane
kaanee
kaanii
kaaniin
kaaniitti
kaanin
kaanirraa
kaanis
kaansaa
kaanserii
kaanu
kaapiteen
kaappaasiterii
kaappasiiterii
kaappitaalizimii
kaappoyaan
kaarbon
kaarbonii
kaarboonii
kaardiboordii
kaardii
kaarentii
kaarli
kaarotii
kaarraa
kaartaa
kaartaan
kaartum
kaasa
kaasaa
kaasan
kaasanii
kaase
kaasee
kaaseeta
kaaseetaa
kaaseeti
kaaseetta
kaashii
kaasnee
kaasta
kaastee
kaastota
kaasu
kaasun
kaasuu
kaasuun
kaate
kaatee
kaatod
kaatodii
kaatodiinsaa
kaatolikii
kaawonsilii
kaawwachuu
kaawwame
kaawwamuu
kaawwannu
kaayan
kaayanii
kaayanne
kaaye
kaayiroo
kaayu
kaayyeffachuudhaan
kaayyon
kaayyonsaas
kaayyoo
kaayyoon
kaazaakistaan
kabachiisuuf
kabaja
kabajaa
kabajaafi
kabajaan
kabajama
kabajamaa
kabajamaan
kabajame
kabajamoo
kabajamti
kabajamtuu
kabajamu
kabajamuu
kabajamuuf
kabajanii
kabajatan
kabajni
kabaju
kabajuudha
kabajuun
kabba
kabbada
kabbadaa
kabiir
kadhaa
kadhachaa
kadhachuu
kadhachuun
kadhadha
kadhannaa
kadhata
kadhataa
kadhataaf
kadhatan
kadhatanii
kadhatuuf
kadiir
kafaa
kafaree
kaffalee
kaffalla
kaffaltii
kahlo
kaka
kakaasa
kakaasan
kakaase
kakaasu
kakaasuu
kakaka
kakuu
kakuun
kalaandarii
kalahari
kalaqa
kalaqaa
kalaqaman
kalaqame
kalaqamee
kalaqamus
kalaqamuu
kalaqamuun
kalaqe
kalaqee
kalaqni
kalaquu
kalaquuttis
kalaqxoota
kalee
kaleen
kaleessa
kaleessaa
kallacha
kallachaa
kallachi
kallatti
kallattii
kallattiin
kalqame
kam
kamaal
kamal
kambaataa
kami
kamii
kamiifiyyuu
kamiifuu
kamiin
kamiinuu
kamiiti
kamiiyyuu
kamikaze
kamirraayyuu
kamirrayyuu
kamisa
kamittuu
kamiyyuu
kampaawondii
kamtu
kamuu
kan
kana
kanaa
kanaadaa
kanaadaan
kanaaf
kanaafan
kanaafi
kanaafidha
kanaafis
kanaafu
kanaafuu
kanaal
kanaalii
kanaan
kanaani
kanaanis
kanaarii
kanaarraa
kanaas
kanaati
kanaatiif
kanaatiin
kanaatti
kanaatu
kanadha
kanaf
kanafu
kanallee
kanammoo
kanan
kanaratti
kanarra
kanarraa
kanarraan
kanarraas
kanarratti
kanarrattis
kanas
kanatti
kanattis
kanatu
kaneen
kaniin
kanin
kankee
kanneen
kannen
kanniin
kanniinii
kannin
kanuma
kanumaaf
kanumaan
kanuman
kanye
kapiteen
kara
karaa
karaadhuma
karaan
karaarra
karaarraa
karaatti
karachi
karantii
karantiin
karibiyaan
karibiyaanii
karkarroo
karoora
karoorfame
karoorri
karra
karraa
karrayyu
karrayyuu
kartaa
karuma
kasaaraa
katabame
katabbii
katabe
katabee
katabu
katamaa
kattaa
kazimierz
kee
keebilii
keedii
keef
keekii
keelloo
keemikaala
keemikaalaa
keemikaalaasaa
keemikaalaatti
keemistirii
keen
keena
keeniyaa
keeniyaan
keeniyaatti
keenna
keennaa
keennuuf
keenya
keenyaa
keenyaaf
keenyaan
keenyaas
keenyaati
keenyaatti
keenyan
keenyanitti
keenyarraa
keenyarratti
keenyas
keenyati
keenyatti
keenyayyuu
keenye
keenyeerra
keenyi
keenyu
keenyyaa
keep
keeppi
kees
keesa
keesaa
keesatii
keesatti
keeseti
keessa
keessaa
keessaahuu
keessaan
keessaas
keessaati
keessaatti
keessaayyuu
keessahuu
keessan
keessanii
keessaniif
keessas
keessati
keessatii
keessatti
keessattii
keessattin
keessattis
keessattu
keessattuu
keessatuu
keesse
keessee
keessi
keessoo
keessumaa
keessumaayyuu
keessumattuu
keessummaa
keessummaan
keessummeessuu
keeti
keetii
keetiin
keetirraa
keetti
keeyyanni
keeyyata
keeyyataa
kefaa
kellaa
keller
kelleritti
kemistii
kemistirii
kenaf
kenenisa
kenna
kennaa
kennaaf
kennaafi
kennaan
kennaawwan
kennama
kennaman
kenname
kennamedha
kennamee
kennameef
kennameefi
kennameefii
kennameen
kennameera
kennamef
kennamneef
kennamu
kennamutti
kennamuu
kennamuuf
kennamuufii
kennan
kennani
kennanii
kennaniif
kennate
kennatee
kenne
kennee
kenneef
kenneefi
kenneefii
kenneera
kenni
kenniif
kennin
kennine
kenninee
kennineef
kennineefi
kennitan
kennite
kenniteef
kenniti
kennitu
kennu
kennun
kennuu
kennuudhaan
kennuuf
kennuufii
kennuufiif
kennuufiin
kennuun
kenya
kenyaa
keriil
kersa
kesa
kesaa
kesatti
kessa
kessaa
kessan
kessani
kessanni
kessati
kessatti
kessattis
kessattu
keynote
kg
khaalid
khaarra
khaarritti
khadhatee
khaliifaa
khaliifata
khalil
khalwaa
kharaa
kheenya
kheessa
kheessatti
kheessummaa
kheyraljazaa
khg
khiyyaa
khuxbaa
khz
kibaa
kibba
kibbaa
kibbaan
kibbaati
kibbaatiin
kibbaatin
kibbaatti
kibban
kibur
kibxata
kiibbaa
kiilolee
kiiloleedha
kiilomeetira
kiilomeetirii
kiilometirii
kiiloo
kiilowaat
kiiniya
kiinya
kiitaaba
kiitii
kiitiif
kilabii
kilaboota
kilbii
kilbiin
kilburn
kilifoordi
kilimanjaro
killayyaa
killee
kilo
kilomeetira
kilometer
kilometers
kilookii
kilooraayidii
kilooraayidiin
kiloraayidiidhan
kind
king
kingdom
kingidam
kingidem
kinnoo
kinyarwanda
kiphe
kiramuu
kireeler
kireelerfaa
kireeleritti
kireemii
kireler
kirelerfaa
kireleris
kiribati
kiriistaalii
kiristaala
kiristaana
kiristaanaa
kiristaanonni
kiristaanummaa
kiristaanummaatti
kiristoos
kiristoosiin
kirundi
kiruuksi
kiswahili
kitaaba
kitaabaa
kitaaban
kitaabban
kitaabicha
kitaabichi
kitaabilee
kitaabni
kitaabolee
kitaabonni
kitaabota
kitaabotaa
kitila
kitilaa
kiyiboordii
kiyuubii
kiyya
kiyyaa
kiyyaaf
kiyyaafii
kiyyaan
kiyyaas
kiyyaatu
kiyyarraa
kiyyas
kiyyatti
kiyyoo
kk
kkf
kkkk
klaus
klerm
km
kn
knaafis
knight
knowledge
known
ko
kobaa
kobba
kofa
kofalchiisuu
kofalee
kokichi
kokkee
kokor
kokosa
kolbaa
kolfa
kolfaa
kolfan
kolfanii
kolfee
kolfi
kolfine
kolfitee
kolfu
kolfuu
kolfuuf
kolleejjii
kolombiyaa
kolombos
koloneefattu
koloneeffachuu
koloneeffata
koloneeffattoota
koloneeffattootaa
koloneel
koloneelitti
koloneessitoota
koloneessuu
kolonialverein
kolonialzeitung
kolonii
koloniin
kolonisation
koloniyaalizimii
kolonoonni
kolooba
koloobni
kolooses
koloosesii
koloosesiin
koloraadoo
kolu
kombolcha
kombolchaa
komii
kominiitii
komishinerii
komoroos
kompaawondii
kompaayilerii
kompiitaraa
kompiliitii
kompitara
kompitaraa
kompitaraaf
kompitaraan
kompitararratti
kompitaroonni
kompitaroota
kompitarri
kongo
konkolaataa
konkolaataan
konkolaatee
konkolatta
konkollata
konkollatta
konraad
konsartii
konsentireeshinii
konsertii
konsoliirratti
kontaaktii
konyaa
koo
koochoo
koodii
koodiin
koodiitti
koof
koohen
kook
kookin
koolleejjii
koollejjii
koomee
koomoo
koon
koong
koongoo
koongoos
koonis
koopparii
kooppoonii
koorii
kooriyaa
koorra
koos
koosmooloojii
koosti
kootdivuwaar
kooti
kootii
kootiif
kootiin
koottaa
kootti
koottin
koottis
koottu
kootu
kooyilii
kopha
kophaa
kophaatti
kophee
kophummaa
kophummaan
kora
korbuzye
kore
korea
korean
koree
koreen
korma
kormaa
kormaan
kormi
kormoomsaa
korojoo
korri
kosii
kosiin
kossaa
kostaa
kotabee
kotoree
kottee
kotteen
koyaa
ku
kubba
kubbaa
kubbaan
kubbaayyaa
kubur
kudha
kudhan
kudhani
kudhanii
kudhaniin
kudhanitti
kuduraa
kufa
kufaa
kufaatii
kufan
kufanii
kufe
kufee
kufeen
kuffaaraa
kuffama
kuffise
kuffisee
kuffisuuf
kufne
kufte
kuftee
kufu
kufuu
kukkutee
kulliyyaa
kulul
kum
kuma
kumaa
kumaan
kumaatama
kumaatamatti
kumaatti
kumsaa
kun
kuni
kunii
kuniin
kuniis
kunillee
kunimmoo
kunin
kunis
kunneen
kunni
kunniin
kunnis
kunoo
kunuunsa
kunuunsan
kunuunsi
kunuunsuu
kuraa
kurii
kuriin
kuriiwwan
kurnan
kurneessaa
kuruphee
kushinaa
kuta
kutaa
kutaalee
kutaaleen
kutaan
kutaanga
kutaawwan
kutannaa
kutannoo
kutannoon
kutate
kutatee
kute
kutee
kuteen
kutiin
kutta
kuttaayee
kuttalle
kuttan
kuttee
kutu
kutuu
kutuun
kuubaa
kuubbes
kuufama
kuufamanii
kuufame
kuufamee
kuufamu
kuufamuu
kuufannoo
kuufannoof
kuufannoon
kuufannoosaa
kuula
kuuluu
kuun
kuunis
kuusaa
kuusaan
kuusaawwan
kuusdeetaa
kuusee
kuush
kuushii
kuusin
kuusuu
kuwantum
kuweyti
kuyyuu
kw
kyh
l
la
laa
laabii
laabiraatorii
laabiraatoriin
laaboraatorii
laabraatorii
laadamoo
laafaa
laafaan
laafaatti
laafe
laafee
laaffatee
laafina
laafinni
laaftee
laaftoo
laafu
laafuu
laagaan
laakkawamu
laaktiik
laal
laalaa
laalamu
laalchaa
laale
laalee
laalii
laalladhu
laaloo
laalte
laaltee
laalu
laaluu
laanqisaa
laaqana
laaqanaa
laaqanni
laata
laataa
laatanii
laatiiniin
laatinii
laayibeeriyaa
laayibiniiz
lab
labiraatorii
labooba
laboratory
labs
labsa
labsaa
labsuu
labuu
lachan
lachu
lachuu
lachuun
lafa
lafaa
lafaaf
lafaan
lafaas
lafaatin
lafaatti
lafan
lafarra
lafarraa
lafarratti
lafatti
lafe
lafee
lafeen
lafjo
lafjoo
lafjoon
lafoo
laftana
lafti
laftii
laga
lagaa
lageen
laggasaa
laggasaan
laggeen
lagni
laguu
lake
lakes
lakk
lakka
lakkaa
lakkaawaa
lakkaawuu
lakkaawuuf
lakkaawwaman
lakkaawwamnu
lakkaawwamu
lakkawwaman
lakki
lakkifaman
lakkifame
lakkifti
lakkii
lakkisa
lakkise
lakkisee
lakkisu
lakkisuu
lakkisuun
lakkofsa
lakkofsi
lakkofsii
lakkoofa
lakkoofsa
lakkoofsaa
lakkoofsaan
lakkoofsi
lakkoofsisaa
lakkoofsiseera
lakkoofsota
lakkoofsuma
lakkoofsuman
lakkooftuu
lakkooftuun
lakkooysa
lakkurnyee
laklamee
lakoofsa
lalisaa
lallaafaa
lallaba
lam
lama
lamaa
lamaaf
lamaan
lamaanii
lamaaniin
lamaanin
lamaanirraa
lamaanu
lamaanuu
lamaatti
laman
lamarraa
lamatti
lamatu
lamee
lameen
lamii
lamma
lammaa
lammaan
lammafaa
lammaffa
lammaffaa
lammaffaadha
lammaffaaf
lammaffaan
lammaffaarratti
lammaffaas
lammaffaatti
lammaffan
lammaffatti
lammaffoo
lammafi
lamman
lammata
lammataa
lammeessaa
lammeysa
lammii
lammiilee
lammiileen
lammiin
lammoota
lammummaa
lammummaan
lamuu
land
landan
landanitti
language
languages
laphee
laptop
large
larsson
last
lata
lataa
lataan
late
latiinsa
latin
latitude
lava
lavt
law
laws
layer
le
lead
leading
leaf
league
leclanche
lection
lecture
lee
leedii
leel
leelaanchi
leelaanchitu
leellisaa
leellisuu
leellisuun
leemmana
leenca
leencaa
leenci
leencichis
leencoon
leeninizimii
leenji
leenjii
leenjisaa
leenjisaan
leenjisoo
leenjisoon
leensaa
leensii
leeqaa
leexaa
leexaan
leexima
leeximni
left
leishmania
leishmaniasis
leo
leonardo
leptotyphlops
les
lethal
letter
leur
level
leyerii
lf
li
libaan
liberal
liberation
libor
library
license
life
light
ligii
ligiin
liibaan
liiban
liibiyaa
liid
liidarhoos
liidii
liigii
liimfi
liiniyaarii
liinkii
liitira
liitiyem
liizaa
liizit
lij
liji
like
lili
lilmoo
liminatoires
limmoo
limmuu
limoon
linegrey
lingala
liniyaarii
link
linko
lipid
lippiid
liqaa
liqimfamaniiru
liqimfame
liqimsa
liqimsamne
liqimse
liqimsu
liqimsuu
liqimsuuf
list
lit
literature
liters
lithosphere
lithospheriin
little
live
liver
livestock
liviingistoon
living
lixa
lixaa
lixaan
lixaatin
lixaatti
lixee
lixxee
liyonaardoo
liyooppooldi
liyuutenaantiitti
ll
llc
lldeutscher
lobe
local
log
logic
logie
logos
lola
lolaa
lolaan
lolan
lole
lolee
loliin
lolla
lolli
lollii
lolte
loltoonni
loltoota
loltootaa
loltootasaa
loltummaa
loltuu
loltuun
lolu
loluu
loluuf
loluun
london
long
loo
loodii
loogii
loojik
loojikii
loomii
loon
looni
loonihoo
loonii
looniin
looniitti
loonzyevaa
loop
looreetii
loorenzi
loos
loosaa
loosaan
loosee
loowwan
loqoda
los
losses
lost
louvre
love
low
lu
luba
lubbiyyoo
lubbiyyoon
lubbu
lubbuqabeeyyii
lubbuu
lubbuun
lubbuunsaa
lubbuuqabeeyyii
lubni
ludviig
luf
luganda
luka
lukaan
lukkeelee
lukku
lukkuu
lukkuun
lumee
luna
lunar
luteraanii
luugoo
luukosaayitis
luuwii
lvaro
lydnevi
lymph
lynch
lyte
m
ma
maa
maaccaa
maadheelee
maaf
maagaalaa
maagineetii
maagineetiik
maagineetizimii
maagneetii
maahibuubaa
maakilee
maaksi
maal
maala
maalan
maali
maalidha
maalif
maalii
maaliif
maaliifan
maaliifi
maaliifis
maaliifree
maaliin
maalikii
maalin
maalinni
maalirra
maalirratti
maalirrayyuu
maalis
maaliyyuu
maallaqa
maallaqaa
maallaqni
maaloo
maaltu
maaltuu
maaluma
maalumaafiyyuu
maalumaafuu
maalummaa
maammon
maammoo
maammoon
maan
maanchister
maanchisteritti
maandhee
maangaaneez
maanguddoonni
maannoo
maaram
maaree
maareen
maaren
maargoot
maargootii
maargootiif
maargootiin
maargootis
maargootitti
maariyaa
maariyaam
maark
maarki
maarkisistii
maarkisizim
maarkoonii
maarkooniin
maarkoonin
maarqos
maarrabii
maarree
maarsii
maartiin
maartin
maaruu
maaryland
maashin
maashinii
maashiniin
maashiniisaa
maashiniitti
maashinoonni
maashinoota
maati
maatii
maatiin
maatiisaa
maatin
maatiriksii
maattii
maayaa
maayikil
maayikirookontiroolerii
maayikiroomeetirii
maayikiroopirooseserii
maayikiroopirooseseriin
maayikirooweevii
maayilii
maaykirooskoopii
maaykirooskooppii
mabraq
macaafa
macaafaa
maccaa
maccaafi
maccaatti
machaaraa
machine
mada
madaa
madaala
madaalamu
madaalanii
madaalawaa
madaaliyaa
madaallii
madaan
madagaaskaar
madagascar
madagaskaar
madalaan
madalan
madallan
madanni
madaqsuu
madaquu
madda
maddaa
maddan
maddawwan
madde
maddi
maddii
maddiilee
maddiin
maddisiiftuu
maddisiisa
maddisiisu
maddisiisuu
maddisiisuudhaan
maddu
made
madfii
madiina
madiinaa
madiinan
madonna
madrid
magaala
magaalaa
magaalaan
magaalaatti
magaalan
magaalatti
magaalichaa
magaalittii
magaallan
magaalli
magaalonni
magaalota
magala
magalaa
magalaan
magalla
magaloota
magariinsan
magariisa
magariisaa
magariisaan
magarsa
magarsaa
magarsaan
magat
magic
magnesium
magnitude
magriba
mahaammad
mahal
mahallii
mahammad
mahammed
mahdii
mahdiin
mahibuubaa
mahibuubas
mahmuud
main
mainly
major
maka
makaa
makaana
makaanikaal
makaanikaalii
makama
makamaa
makaman
makamanii
makame
makamee
makamu
makamuu
makamuudhaan
makamuuf
makamuun
makarajjiin
make
maker
makes
makiinaa
makiinaan
making
makka
makkaa
makkarraa
makkatti
makkoo
makonnin
makoo
maksi
mala
malaa
malaaka
malaan
malagasii
malagasy
malaria
malatootnii
male
malee
maleen
malees
maleessa
maleessaa
maleeyyii
males
mali
malii
malik
maliki
malkaa
mallaqa
mallas
mallatto
mallattoo
mallattoon
mallattoowwan
malle
mallee
malli
maltiitaaskiingi
malu
maluu
mammaakan
mammaaksa
mammaaksi
mammals
man
mana
manaa
manaama
manaaman
manaan
manaasaa
manaashii
manaatti
management
manan
manasaa
manasaatti
manatti
manca
manchaa
manchester
mandara
mandaroota
mandarri
mandoo
mangisti
mangistii
mangistiin
mangistuu
mangistuun
manguddoo
manguddoon
manicha
manichaa
manifesto
maniin
mankaraara
mankaraarrii
mankuusaa
mannaa
mannee
manneen
manni
manshii
mantle
manuma
manure
manxiqa
manzuuma
manzuumaa
map
maples
maputo
maputodjazairess
maqa
maqaa
maqaaleen
maqaama
maqaan
maqaansaa
maqaasaa
maqalee
maqdasho
maqdashoo
maqdisho
maqdishoo
maqe
maqibsa
maqoota
maqqa
maqqan
maqsin
maquma
mar
mara
maraa
maraataa
maraate
maraatoonii
maraatuu
maramaa
marame
maramee
mararaa
mararaan
mararoo
marathon
maratti
marble
marburg
march
marco
marcus
mare
maree
mareewoo
mareshah
marfaman
marfame
marfamee
marfamte
marfamtee
marfan
marga
margaa
margaan
margaret
marge
marguu
mari
maria
marie
marii
mariidhaa
mariif
mariin
mariinis
mariissisu
mariitin
mark
markaba
markabni
market
marqaa
marqaan
married
marrimaan
marrimaanii
marruu
mars
marsa
marsaa
marsaalee
marsaan
marsan
marsanii
marsariiti
marsee
marseillen
marsii
marsiin
marsu
marti
martii
martin
martuu
maru
marxoo
masaraa
maseessuu
masfin
masgiida
masjida
masjidaa
masjinni
masoo
masqal
masqalaa
mass
massacre
master
mat
mata
mataa
mataan
mataansaa
mataasaa
mataasaanii
mataasaatin
mataashii
mataatii
mataatti
mataduree
matadureen
matadureensaa
matasaa
matayyaa
matayyaaf
matcha
material
materials
mathcal
mathrm
matiseen
matisse
matoobili
matoobilii
matoobiliin
matrix
matta
matter
mattuu
matuma
matumaa
mawlida
maxanfame
maxanfamee
maxansituu
maxantuu
maxaysa
maxinoo
maxxanfaman
maxxanfame
maxxanfamee
maxxanfamu
maxxanfamuu
maxxannee
maxxansa
maxxansaa
maxxansaaa
maxxansaalee
maxxansan
maxxanse
maxxansee
maxxansi
maxxansiisan
maxxansiise
maxxansiiseera
maxxansiisuun
maxxansuu
maxxantuu
maxxanuu
may
maykil
mayor
mayra
mayraa
mayri
mazammir
mazhaba
mazhabni
mazorn
mb
mbox
mc
me
mean
means
mechanical
mechanics
medaaliyaa
medaaliyaan
medal
medalii
media
medical
medicinal
medicine
medisinii
meditiraaniyaan
meditiraaniyaanii
medium
mee
meeda
meedaa
meedaaliyaa
meedhicha
meeditiraaniyaanii
meejer
meejerii
meeksikoo
meembraaniin
meemoraandamii
meeppee
meeppeefaa
meeppeen
meeppeenis
meeqa
meeqaa
meeqaan
meeqaatam
meerii
meerkikurii
meerkurii
meesha
meeshaa
meeshaale
meeshaalee
meeshaaleen
meeshaalen
meeshaan
meeshaasaa
meeshaawwan
meeshalee
meeshaleen
meeshan
meeta
meetaa
meetii
meetira
meetirii
meetiroonni
meettaa
megersa
megerssa
meison
meksikoo
mekuria
melanin
melaniniin
melbaa
membireenii
membrane
memorandamiin
memorandumiin
memorial
memory
men
mens
mer
meridian
meshaa
meshaalee
meta
meters
methane
methods
metre
metres
mexico
mg
mi
michael
michelangelo
michille
michillee
michilleetti
michooma
michoota
michummaa
michuu
michuun
miciree
micro
microbe
microbiol
microsoft
midaa
midhaan
midhaanii
midhafama
midhafame
midhafamu
midhagaa
midhagsu
midhama
midhame
mie
miftah
mii
miiccaa
miiccuu
miidha
miidhaa
miidhaan
miidhagaa
miidhagina
miidhama
miidhamaa
miidhaman
miidhame
miidhamne
miidhamni
miidhamte
miidhamtootaa
miidhamu
miidhamuu
miidhamuun
miidhan
miidhe
miidhee
miidhu
miidhuu
miidiyaa
miidiyaan
miikaa
miila
miilaa
miilaan
miilan
miilasaa
miiliiyoona
miiliiyoonoota
miiliyoona
miilla
miilli
miiltoo
miinaa
miindaa
miini
miira
miiraan
miirri
mijaa
mijaataa
mijataa
mijatu
mijatuuf
mijeessuu
mijeessuun
mijuu
mika
mikaa
mike
mil
milan
mile
miles
milii
miliqan
miliqanii
miliqee
miliqqee
military
miliyoona
miliyoonatti
milkaa
milkii
milkiin
milkoofne
milla
millan
million
millioyoona
millistuu
min
mina
minarraa
minbara
mindaa
mindeeffamee
mineral
minerals
minhaaj
mini
minilik
minilikii
minilikiin
minin
ministeera
ministeeraa
ministeerri
minister
ministeriin
minjaala
minnesota
minute
mirga
mirgaa
mirgaan
mirgaatti
mirgi
miriam
mirkana
mirkanaa
mirkaneeffachuu
mirkaneeffachuun
mirkaneeffadhe
mirkaneeffadheera
mirkaneeffadhu
mirkaneeffanne
mirkaneessa
mirkaneessan
mirkaneessanii
mirkaneesse
mirkaneessee
mirkaneesseef
mirkaneesseera
mirkaneessu
mirkaneessuu
mirkaneessuuf
mirkaneessuun
mirkanoo
misaayelii
miseensa
miseensi
miseensonni
miseensonnii
miseensota
miseensotta
mishaa
mishinaroota
mishiniin
misirroo
misiyoonii
miskiina
miskiinticha
miskiintichi
misooma
misoomaa
misra
misraa
misrarraa
misrati
misratti
missile
mission
mississippi
mit
miti
mitii
mitiiree
mitimoo
mitteenii
mitteeniin
mitteeniirraa
mitteenin
mitteeniyeem
mitti
mixxiq
miya
miyaa
mk
mm
mo
mobaayilii
mobaayiliittis
mobile
modeelii
model
modern
moggaa
moggaafame
moggaafamee
moggaafamte
moggaafamteedha
moggaafamuun
moggaasa
moggaasaa
moggaasan
moggaase
moggaasee
moggaasuu
moggaasuun
moggaawwan
moggafame
moggeen
mogolee
mohaammad
mohammed
mohe
mokonnin
molakiyuulii
molecule
molecules
moleculotta
molokiyuulii
molokiyuulotaa
mombaasaa
mombaasaatti
monday
mongooliyaa
monkey
mono
monoclonial
monomotaappaa
monosaccharide
month
months
montreal
moo
moodeela
moofa
moofaa
mooji
moon
moora
mooraa
moormii
moosaajii
moosisi
moota
mooti
mooticha
mootichaa
mootichi
mootii
mootiin
mootin
mootittii
mootota
moototaa
mootumma
mootummaa
mootummaan
mootummaatin
mootummaatti
mootumman
mootummoonni
mootummoota
mootummootaa
mootummootni
mooye
mooyyee
moozaambiik
moozaambikiitti
moozambiik
moqaadishoo
moqdisho
moqdishoo
moral
morchella
more
morkaa
morkiin
morku
morma
mormaa
morman
mormi
mormii
mormiin
mormisiisaa
mormitoota
mormu
mormuu
mormuuf
morodaa
morokkoo
morookoo
morton
mosaajii
mosajjii
mosajjiin
mosee
moseen
moseewwan
moses
moshchena
moshee
most
motion
motor
motora
motorii
motoroota
motorri
motors
motummaa
motummaan
mountains
mouth
mov
movie
moyyaalee
mozilla
mph
mro
ms
mu
mucaa
mucaan
mucaanis
mucaashee
mucaatti
mucayyoo
mucayyoon
mucicha
mucichi
mucous
mudaa
mudannoo
mudannoon
mudata
mudatan
mudate
mudatee
mudateen
mudatu
muddaa
muddaan
muddamaa
muddamni
mudde
muddee
mudhii
muduraa
mugaa
mughal
muhaammad
muhammad
muhammadiifii
muhammed
muka
mukaa
mukhtasar
muki
mukkeen
mukni
mukoota
mukuu
mul
mulaatuu
muldhate
mullah
mullanne
mullata
mullatu
mullatuu
muloo
multibacillary
multiprocessing
muluu
muraa
muraasa
muraasaa
muraasaaf
muraasaan
muraasan
muraasni
muradhe
muran
muranii
muratoo
mure
muree
muriida
murna
murni
murta
murtaa
murtaawaa
murte
murtee
murteeffachuu
murteeffama
murteeffame
murteen
murteessa
murteessaa
murteessadha
murteessan
murteesse
murteessee
murteesseera
murteessiin
murteessite
murteessu
murteessuu
murteessuuf
murtii
murtiin
murtiitti
murtoon
muscle
museen
museum
musharraf
music
muskaa
musliima
muslim
muslima
mustang
mutaa
muudaa
muudama
muudaman
muudame
muudan
muudana
muudanaa
muudani
muudannoo
muudate
muude
muuduu
muujjaa
muul
muummee
muummicha
muummichi
muummittii
muusa
muusaa
muussaa
muuxannoo
muuziqaa
muuziqaan
muuziqeessaa
muuziyeemii
muzdalifa
muziqaa
my
myersiin
mythology
n
na
naa
naaf
naafa
naafii
naan
naanna
naannaa
naannawa
naannawaa
naannawuu
naanneffatu
naannessu
naannichaa
naanno
naannodhuma
naannofnee
naannolee
naannon
naannoo
naannoolee
naannoon
naannoowwan
naanoo
naanoolee
naarvoota
naasii
naasirul
naasise
naassise
naasuu
naasuun
naatu
naayijeeriyaa
naayil
naazii
naaziin
naazonni
naazota
naazotaa
naazotaan
naazotaatti
nabee
nabi
nabii
nabiin
nabiyyii
nadhii
nadhiin
nadura
nafa
nafaa
nafxanyaa
nafxanyaan
nafxanyoonni
nafxanyoota
nafxanyootaa
nagaa
nagaan
nagaash
nagaatti
nagallee
nagaya
nagayaa
nagayaan
nagee
nageellee
nageenya
nageenyaa
nageenyaan
nageenyi
nageetiivii
nageya
nageyaa
nahaasii
najjoo
najjotti
nam
nama
namaa
namaaf
namaafi
namaan
namaati
namaatin
namaatti
naman
namarra
namarraa
namarraan
namarratti
namatti
name
nami
namibia
namicha
namichas
namichi
namichii
namii
namiraa
nammoota
namni
namnii
namonni
namoo
namoomaa
namooni
namoonni
namoonnii
namoonnis
namoota
namootaa
namootaan
namootaas
namooti
namootni
namootnii
namota
namotta
namticha
namtichaa
namtokko
namtolchee
namummaa
namuu
nan
nana
nanaa
nang
nannoo
nanoo
naqaa
naqame
naqamte
naqamtee
naqamteetti
naqamtetti
naqanii
naqatanii
naqate
naqe
naqemtee
naqni
naquu
naqxee
naratti
narra
narraa
narraan
narratti
naruhito
narvii
nasa
nasan
nasib
nation
national
nationale
nationalism
native
natti
natu
natural
navy
nba
nban
nbc
nd
ne
near
neeptuuniin
neezerlaandi
negele
neptune
net
netherlands
network
neue
neutrophils
new
news
newton
newuumaan
newyoorkii
ng
ngo
nh
ni
nicd
nicolas
nidanda
nigeria
nii
niijer
niin
niitii
niitiin
niitin
niiw
nijira
nikeel
nikel
nikola
nikolaa
nile
nimala
nimh
nin
nine
ninth
nio
nippkow
niskanen
nitti
niwukilasii
niwumaan
niwutan
niwutanitti
niwutiroonii
niwutonii
niwutoniin
niwutoon
niwutoonitti
niwuu
niwuukilaaraa
niwuumaan
niwuus
niwuuten
niwuutireentii
niwuutirentii
niwuutiroonii
niwuutiroonin
niyukilaaraa
nl
nm
no
nobel
nodes
noli
nominated
non
noobelii
noodii
noolee
noonnoo
nooruu
nooruun
noorwey
noorweyi
nooyisi
noravank
nordic
normal
normale
north
northbound
northern
noru
norway
not
notes
november
now
ntgen
nu
nuclear
nucleus
nuffii
nuffisiisaa
nuffisiise
nugusa
nuhi
num
numa
numatu
number
numbers
numerical
nurra
nurraa
nurratti
nus
nuti
nutis
nutritional
nutti
nuu
nuuf
nuugii
nuun
nuur
nuuraa
nuusa
nuutu
ny
nyaa
nyaachaa
nyaachisan
nyaachise
nyaachudhaan
nyaachun
nyaachuu
nyaachuuf
nyaachuun
nyaadhu
nyaanna
nyaanne
nyaannee
nyaanni
nyaannu
nyaapha
nyaara
nyaaraa
nyaata
nyaataa
nyaataaf
nyaatama
nyaataman
nyaatame
nyaatamu
nyaatan
nyaatanii
nyaatatti
nyaate
nyaatee
nyaatin
nyaatni
nyaatte
nyaattee
nyaattu
nyaatu
nyaatuu
nyataa
nyatamte
nyatta
nyattan
nyattu
o
obaasa
obaasi
obbaafachiisee
obbo
obbobbosh
obbolaa
obboleessa
obboleessasaa
obboleessi
obboleetti
obboleettii
obboleettiin
obboleewwan
obboleeyyan
obboloota
obbolummaa
obbolummaan
obboo
obboroo
obomboleettii
obomboleettiin
obonboleettii
obonboleettiin
oboo
obora
oborii
oborraa
obsa
obsaa
obsaan
obsee
observations
obsi
obsuu
oc
ocarbohydrate
occitan
ocd
ocean
oceanic
october
oda
odaa
odaan
oddoo
oddoon
odeeffamu
odeeffannoo
odeeffannoon
odeeffannoowwan
odeessa
odeessaa
odeessanii
odeesse
odeessee
odeessine
odeessinuu
odeessiti
odeessitu
odeessu
odeessuu
odeessuuf
odeessuun
odo
odola
odolaa
odolaarraa
odoloota
odoo
odoola
odoon
oduma
oduu
oduun
oduuwwan
of
ofan
ofeeggannoo
off
offeganoon
office
official
ofi
ofii
ofiidhuma
ofiif
ofiifis
ofiin
ofiishee
ofiitti
ofin
ofirra
ofirraa
ofirratti
ofis
ofitti
ofittin
ofittoo
ofkalaa
ofkeessatti
ofumaa
og
ogbarruu
ogbarruun
ogeessa
ogeeyyii
ogeeyyiin
oggaa
ogolchoo
ogommaa
ogummaa
ogummaan
oh
okkotee
oksaayidii
oksaayidiin
oksijiinii
ol
olaana
olaanaa
olaanaaf
olaanaan
olaanaarra
olaanaatti
olaanadhaan
olaanoo
olaansi
olaantummaa
olaantummaan
olan
olana
olchii
olee
oli
olii
oliif
oliin
oliiqaa
oliiqaan
oliitii
oliitti
olitti
olka
olkaawwama
ollaa
ollaan
olompiikii
olompiikirratti
olompikii
olomppiikii
oltee
oltu
olympic
olympics
olympiksii
omisha
omishaman
omn
omo
on
ona
onaa
onaardo
one
onesimos
onesmoos
onesmoosis
onkololeessa
onkoloolessa
online
only
onnee
onneen
onneerraa
onneetti
onni
oo
oodhatti
oof
oofaa
oofkala
oofkalaa
oofkalchaa
oofnee
ooftuu
oofu
oofuu
oogiraafii
ooksijiinii
ooksijiiniin
oola
oolaa
oolan
oolaniiru
oolchaa
oolche
oolcheera
oolchi
oolchite
oolchu
oolchuf
oolchuu
oolchuuf
oole
oolee
oolgaa
oolle
oollee
oolmaa
ooloojii
oolti
ooltota
oolu
ooluu
ooluuf
oomeetirii
oomisha
oomishaa
oomishama
oomishaman
oomishame
oomishamee
oomishametti
oomishamu
oomishan
oomishee
oomishni
oomishtoonni
oomishu
oomishuu
oomishuuf
oomishuun
oomoo
oomoon
oon
oonni
oordarii
oordariin
oorii
ooriiwwan
oorjiyaa
ooseeniyaa
oostiriyaa
oota
ooti
ootif
ootifii
ootin
ootu
oow
ooyiler
ooyruu
opdo
opireeshinii
opkoodii
oprah
opran
or
oral
orawski
orbiiti
orbit
orbitiin
order
ordinary
ordon
ordonitti
org
orgaanikii
orgaanizimiin
orgaanizimoonni
orgaanizimoota
orgaanizimootaa
organic
organization
organizations
organizimonii
organizimonni
organizimotta
ori
oriental
original
oriisaa
oriisaan
oriitu
orion
orkestiraa
orma
ormaa
ormi
orogens
oromia
oromifaa
oromiya
oromiyaa
oromiyaadhaa
oromiyaaf
oromiyaan
oromiyaatti
oromo
oromokidschannel
oromoland
oromoliberationfront
oromoo
oromoodha
oromoodhaa
oromoof
oromoofi
oromoon
oromoonni
oromoonnii
oromoorra
oromoorraan
oromoorratti
oromoos
oromoota
oromootaa
oromooti
oromootif
oromootii
oromootiif
oromootiin
oromootin
oromootti
oromorratti
oromos
oromummaa
orraa
ortodoksii
os
osasco
oshiwutzi
oshiwuutzi
oshiwuutzitti
oshuu
osileeterii
oskar
osloo
osmotic
oso
osoo
osooma
osoon
osuma
ot
ota
other
otomaatikii
otomeeshin
otomoobilii
otoo
otoola
otoon
otti
otto
otuma
otuu
out
over
overheats
own
owwaadhu
owwaatu
oxford
oxygen
oxygenaa
ozone
p
pa
paaraashuutiin
paaris
paarisi
paarisii
paarisitti
paarkii
paarkin
paarlaamaa
paartii
paartiin
paartikilii
paartikiliin
paartikiloota
paasifiik
paasifiikii
paasifiikitti
paaster
paasteriin
paateentii
paatentii
paatentiin
paatentiiwwan
paawondii
paawundii
pacific
pagasa
page
pages
pahoehoe
pain
painting
pakistan
paklaar
paklar
palace
paltoga
panaamaa
panama
panchid
panties
pantone
paper
para
paraasitii
parasite
paration
paris
park
parkii
parsantii
parsentii
parsentiin
parsing
part
particle
particles
partiin
partners
parts
party
partyiin
pass
past
pasta
paste
patent
path
paucibacillary
paul
paz
pbgb
pc
pda
pdf
pe
peace
peaufinent
pedro
peek
peensilvaaniyaa
peentiyeemii
peepper
peepperii
peeri
pendulum
penicillin
peninsulaa
pennsylvania
people
peoples
per
percentii
percentiin
pereira
perfect
period
persenti
persentiin
person
personal
persons
perugino
peruginon
pervez
peter
petroliers
ph
phage
phd
pheexiroos
phelps
phenomena
pherepheramuu
philadelphia
philosophy
phone
phosphate
photonslight
photosynthesis
php
physical
physics
pi
piano
picture
pierre
pigmentiin
piiter
piiteri
piiterii
piiteriif
piiteriifis
piiteriin
piiterin
piiteris
piiteritti
piiterittis
piitii
pilaaneetii
pilaaneetiin
pilaaneetonni
pilaaneetota
pilaanetiin
pilaanki
pilaankii
pilaasmaa
pilaasmaan
pilaasmatti
pilaastikii
pilaateleetii
pilaateleetiin
pilaatileetii
pilaatileetin
pilaatinoosaayinaayid
pilaatoo
pilaazmaa
pilagiidhaan
pileetii
pileetiifi
pileetiitti
pileeton
pileetoo
pilutoo
piluutooniyemii
ping
pioneering
piraashiyaa
piraayimeetota
pirezidaantii
piriinsi
piriinsipillii
piriinsippilii
pirofeesar
pirofeesara
pirojeektiin
pirojektii
pirooseserii
pirootiinii
pirootiiniin
pirootiiniiotni
pirootiinin
pirootiinonni
pirootiinota
pirootonii
pirootoonii
piroteestaantii
pitchblende
pitchblenden
piyaanoo
piyeer
piyeeri
piyeerif
piyeerii
piyeeris
piyeeritti
place
plan
planet
planeta
planetii
planetotta
planitti
plant
plants
plasma
plate
plates
play
player
playoffs
pleiades
plural
pm
pmid
png
po
point
polandball
polar
police
polillo
polish
polisiin
polisitti
political
politics
pollution
polooniyeemii
polooniyemii
polymer
polytechnic
pomoa
pooch
pool
poolaandi
poolaandiffa
poolaanditti
poolandi
pooliifeezii
poolisii
poolisiin
poolisiitti
poolisoonni
poolisoota
poorchugaal
poorchugaalif
poorchugaalii
poorchugaalin
poorchugaalonni
poostaa
poostara
poosterii
poosteroota
pooyinti
poozatiivii
pop
population
porchugaal
portland
porto
positive
possible
post
potable
potassium
potential
pour
power
pp
pq
pr
practice
practices
pradesh
prague
pre
prel
premier
pres
present
presidantii
president
presper
press
pressure
primary
prime
prince
principia
principles
prix
prize
problem
problems
proceedings
process
processing
processor
produce
produced
product
production
products
prof
profaayilii
profile
program
programming
progress
project
proper
properties
property
protease
protective
protein
proteiniin
proteins
prothrombin
protista
providing
province
psst
pt
public
publication
publications
published
pure
px
q
qaacaa
qaaccessuu
qaadii
qaadiriyya
qaahira
qaahiraa
qaala
qaali
qaalichi
qaalii
qaaliin
qaallichi
qaallitti
qaalluu
qaama
qaamaa
qaamaan
qaaman
qaamni
qaamolee
qaana
qaanessaa
qaanesse
qaanii
qaanqee
qaanqeen
qaanyii
qaaqee
qaasim
qaata
qaawwa
qaawwaa
qaaxaroo
qaaxaroon
qaba
qabaa
qabaachaa
qabaachun
qabaachuu
qabaachuun
qabaadhaa
qabaadhee
qabaadhu
qabaan
qabaanne
qabaata
qabaatan
qabaatanii
qabaataniyyuu
qabaate
qabaatee
qabaatiin
qabaatte
qabaattee
qabaattu
qabaatu
qabaatus
qabaatuu
qabachu
qabachun
qabachuu
qabachuuf
qabachuun
qabadhaa
qabadhee
qabadheen
qabadhetti
qabadhu
qabama
qabaman
qabamani
qabamanii
qabamaniif
qabame
qabamee
qabamne
qabamnee
qabamte
qabamtee
qabamu
qabamuu
qabamuun
qaban
qabana
qabani
qabanii
qabaniidha
qabaniif
qabaniifi
qabaniifii
qabaniin
qabanitti
qabannaa
qabanne
qabannee
qabanni
qabaree
qabata
qabataan
qabatama
qabatamaa
qabatamaan
qabatamaniif
qabatan
qabatanii
qabatanitti
qabate
qabatee
qabateen
qabateera
qabatotta
qabattanii
qabatte
qabattee
qabatteef
qabattu
qabatu
qabatuu
qabatuuf
qabbana
qabbanaa
qabbanaati
qabbaneessuu
qabbi
qabbu
qabda
qabdaa
qabdan
qabde
qabdee
qabdi
qabdii
qabdu
qabdudha
qabduu
qabduudha
qabduun
qabe
qabee
qabeen
qabeenya
qabeenyaa
qabeenyaan
qabeenyi
qabeera
qabeesa
qabeessa
qabeessi
qabeessota
qabeeyyii
qabeeyyiin
qabenya
qabi
qabin
qabiyyee
qabiyyeen
qabna
qabnaa
qabnaan
qabne
qabnedha
qabnee
qabneef
qabneen
qabneetti
qabnu
qabnuu
qabnuuf
qabnuun
qabrii
qabriin
qabroota
qabsaa
qabsaawa
qabsaawaa
qabsaawota
qabsaawuf
qabsaawuu
qabsiifachuun
qabsiifame
qabsiifamuun
qabsiisan
qabsiise
qabsiisee
qabsiisu
qabsiisuu
qabsiisuun
qabsoo
qabsoof
qabsoon
qabsoorratti
qabsoosaa
qabsootti
qabu
qabudha
qabuf
qabullee
qaburraa
qaburraan
qabus
qabutti
qabuu
qabuudha
qabuudhan
qabuuf
qabuufi
qabuufii
qabuun
qabuutti
qabxi
qabxii
qabxiin
qacanee
qacarame
qacaramee
qacaramuuf
qacaruun
qaccee
qacceen
qadaada
qadaaddee
qadaadee
qadiidaa
qafa
qajeelaa
qajeelan
qajeelchee
qajeelchu
qajeele
qajeelee
qajeelfama
qajeelfamni
qajeelle
qajeellee
qajeeltodhaan
qajeelton
qajeeltoo
qajeeluuf
qajjisa
qal
qalaa
qalama
qalamu
qalawwee
qalbii
qalbiin
qalla
qallaa
qallamu
qallinaan
qalloo
qalqalloo
qaluu
qamaa
qamadii
qamalee
qana
qanaaniisaan
qananii
qananiisaa
qananiisaan
qananiisaanis
qanyaazmaach
qaphxii
qaqal
qaqatti
qaqeessi
qaqqaba
qaqqabaa
qaqqaban
qaqqabe
qaqqabee
qaqqabu
qaqqabuu
qara
qaraa
qaraatii
qaraniyoo
qareessa
qaroo
qarooma
qarqaara
qarqara
qarqaraa
qarqaraatti
qarqaratti
qarqarra
qarqarsa
qarqaru
qarree
qarsaa
qarshii
qarshiin
qarshiitti
qaruu
qaruura
qaruuraa
qawwe
qawwee
qawween
qaxab
qaxxaamura
qaxxaamuraa
qaxxaamuran
qaxxaamure
qaxxaamuree
qaxxaamuru
qbo
qe
qeellam
qeellem
qeensa
qeensaa
qeensaan
qeensaati
qeensi
qeenxee
qeeqa
qeeraa
qeerransa
qeerransaa
qeerroo
qeerroon
qeesii
qeessota
qiblaan
qiddist
qiinxamaa
qiixxeessaa
qilee
qiliilee
qillee
qilleensa
qilleensaa
qilleensaan
qilleensaatti
qilleensatti
qilleensi
qillensa
qillensi
qilxuu
qilxuufaa
qimbibiit
qinaaxxii
qindaa
qindeeffamuu
qindeessaa
qindeessanii
qindeesse
qindeessituu
qindeessuu
qindoomina
qirixxee
qisaasa
qisaasni
qisasni
qixa
qixxaatu
qixxaatuu
qixxe
qixxee
qixxeedhuma
qixxeessaa
qo
qobummaan
qocaa
qocaan
qoccolloo
qoccolloon
qoccoltee
qoccoo
qodaa
qodaan
qodaatti
qodama
qodamu
qofa
qofaa
qofaadha
qofaaf
qofaan
qofaatti
qofaatu
qofadha
qofan
qofas
qofatti
qofatu
qoffa
qofti
qola
qolee
qolli
qomaa
qomoo
qomoon
qondaala
qondaalaa
qondaalli
qondaaltonni
qondaaltota
qonna
qonnaa
qonnaaf
qonnaan
qonqoo
qoocco
qooccoon
qooda
qoodama
qoodamte
qoodamu
qoodamuu
qoodanii
qooddachuu
qooddachuuf
qooddachuun
qooddama
qooddamuu
qooddatan
qoode
qoodee
qoodni
qooduu
qooduun
qoolloo
qoonqoo
qoonqoon
qoonsilaa
qooqa
qoosaa
qoosaaf
qoosaan
qoosaatti
qoosaawwan
qooyyaba
qooyyabaa
qopha
qophaa
qophaatti
qophaawu
qophaayee
qophee
qopheeffannee
qopheessa
qopheessan
qopheessanii
qopheessaniiru
qopheesse
qopheessee
qopheessinu
qopheessitee
qopheessuu
qopheessuuf
qopheessuun
qophii
qophiidha
qophiilee
qophooftuu
qophummaa
qoqqodama
qoqqodami
qoqqoodama
qoqqoodamtee
qoqqooddama
qoqqoodinsa
qoraa
qoraan
qoraattii
qorachaa
qorachuu
qorachuudha
qorachuudhaan
qorachuuf
qorachuun
qorannaa
qorannaan
qorannoo
qorannoon
qorannoosaa
qorannoowwan
qorata
qorataa
qorataan
qoratamanii
qoratamee
qoratamu
qoratan
qoratanii
qorataniiru
qoratanis
qorate
qoratoonni
qorattoonni
qorattoota
qoratu
qoratudha
qoratuu
qoree
qoricha
qorichaa
qorichaan
qorichi
qorichoonni
qorichoota
qorii
qormaata
qorra
qorraa
qorre
qorsaa
qorumsa
qotaa
qotanii
qotee
qotiyyoo
qotiyyootti
qottoo
qottu
qottuu
qotu
qu
quality
quang
quarter
quartz
quba
quban
qubata
qubatan
qubatanii
qubate
qubatee
qubatu
qubee
qubeelaa
qubeelee
qubeen
qubeewwan
quboota
qubsiise
qubsuma
qubsumaa
qubsumma
qubsumni
qudsii
que
quest
qufaa
qufaan
quintals
quitte
qullaa
qullubbii
qulqullaa
qulqulleessee
qulqulleessuu
qulqullina
qulqullinni
qulqullu
qulqullummaa
qulqulluu
qulqulluun
qumbii
qummaaddee
qummaaddii
qummaadee
qunca
quncisuu
quncisuuf
quncisuun
qunnaman
qunname
qunnamsiisu
qunnamtii
qunnamtiin
qunnamu
qunnamuun
qunnii
qur
quraana
quraanaa
quraanni
qurcii
qurxumii
qurxummi
qurxummii
qusachuu
qusadhu
qushuna
quubsaa
quufa
quufaa
quufamne
quufne
quufu
quunnamtii
quuqu
quwaantamii
quxisuu
r
ra
raa
raabaa
raabigh
raabiisii
raabiisiin
raabisii
raabsaa
raabsiin
raada
raadaarii
raadii
raadiin
raadiyeeshinii
raadiyeeshiniidhaaf
raadiyeeshiniin
raadiyo
raadiyoo
raadiyoodhaan
raadiyoogiraafii
raadiyooloojiin
raadiyoon
raadiyoona
raadiyootti
raafama
raafamaa
raafuu
raafuun
raaga
raajeffannaa
raajeffannoo
raajeffatamuu
raajii
raajiif
raajiin
raaju
raajuu
raammolee
raammoo
raammoon
raamoo
raaphu
raaree
raas
raasaa
raasee
raashiyaa
raashiyaan
raashiyaatin
raashiyaatti
raatuu
raaw
raawataman
raawwachaa
raawwachiisu
raawwachuu
raawwachuuf
raawwachuun
raawwata
raawwatama
raawwatamaa
raawwataman
raawwatame
raawwatamu
raawwatamuu
raawwatamuudha
raawwatan
raawwate
raawwatee
raawwateen
raawwattee
raawwatu
raawwatuu
raayituu
raayyaa
raazerfoordi
rabbi
rabbii
rabbiif
rabbiin
rabbiiti
rabbitti
rabii
race
radar
radiation
radio
radiology
radiyallaahu
rafaa
rafe
rafee
rafi
rafne
rafu
rafuu
rafuuf
rafuun
raga
ragaa
ragaan
raggaa
raggaasaa
rah
rahmata
rak
raka
rakkachaa
rakkanne
rakkata
rakkina
rakkinaa
rakkinaaf
rakkinaan
rakkinichi
rakkinni
rakkinoota
rakkisa
rakkisaa
rakkisaan
rakkise
rakkisee
rakkistuu
rakkisu
rakkisuu
rakko
rakkoo
rakkoolee
rakkoon
rakkoowwan
ram
ramadama
ramadaman
ramadame
ramadamee
ramadamu
ramaddii
ramade
ramaduu
rammoo
ramoo
random
range
ranking
raphael
raqa
rarra
ras
rasaasa
rasaasaa
rasaasaan
rashaad
rashiid
rasuulillaahi
rasuulullaahi
raw
rawdaa
raxibacumab
ray
rayiin
rays
re
reaction
real
record
red
reebaa
reebi
reebicha
reebichaa
reebu
reediyeemi
reediyeemii
reediyemii
reef
reeffa
reeffaa
reeffasaa
reeffi
reeffisaa
reefu
reeyii
reference
region
regional
registration
rejisterii
rekordii
related
relatively
relativity
relay
religion
religions
religious
remaining
rembrandt
renal
rene
report
reptaayiloota
republic
res
research
reserve
resistance
resonance
resource
resources
respectively
response
restaurant
reston
restv
results
reticular
retrieved
rev
review
revolution
reyi
reyii
reyiin
rezisterii
rezisteriin
rhincodon
rhymes
ri
richard
rienne
riennes
rieure
rifatan
rifeensa
rifeensaa
rifeensi
rifle
rift
right
rights
rigoo
riifti
riikardii
riileyii
riippabiliika
rikardii
rilem
rileyiin
rimaan
rimee
rimeen
rio
riphee
riphxee
rippabiliika
riqicha
riraa
risaa
risaalaa
rise
river
rivera
rivers
riyaala
riyoo
rna
ro
road
robbins
robe
robert
roga
roggeffamu
role
rom
roma
rome
romn
ronaldinho
ronaldo
rontgen
rooba
roobaa
roobalee
roobaleen
roobart
roobe
roobee
rooberti
roobi
roobii
roobiin
roobni
roobu
roodeeshiyaa
room
roomaa
roontigan
roontigen
roorrisaa
roorrisan
roorrisuu
roorroo
roorroon
roosing
rooterdaam
rover
royal
rraa
ru
ruda
rukkina
rukkinni
rukuta
rukutamanii
rukutamee
rukutamtee
rukutee
rukuttaa
rukuttee
rukutu
rukutuu
rukutuuf
rukutuun
rules
ruling
rumaaniyaaa
run
runner
running
runs
ruqoolee
rural
rurrukutame
russell
russia
russian
ruubii
ruubiitti
ruuda
ruudaa
ruuqa
ruuqolee
ruuqoleen
ruuqoo
ruuqota
ruus
ruusiyaa
ruutii
ruuza
ruwaandaa
ruwaaqa
s
sa
saa
saaddoo
saahel
saahiba
saahil
saahile
saal
saala
saalaa
saalfachuu
saalif
saalih
saalqunnamtii
saaman
saamanii
saame
saamicha
saamsamaa
saamsame
saamsamee
saamsamne
saamsamtee
saamsamuu
saamtonni
saamu
saamunaa
saamuu
saanawi
saanduqa
saani
saanii
saaniis
saannatee
saanqaa
saaqe
saaraa
saatalaayitii
saatelaayitii
saawwan
saaxiilamuu
saaxilama
saaxilamaa
saaxilaman
saaxilame
saaxilamu
saaxilamuu
saaxilamuun
saaxilan
saaxiluu
saayiba
saayikilii
saayinsaawaa
saayinsii
saayinsiif
saayinsiin
saayintistii
saayintistiin
saayintistoonni
saayintistoota
saayippires
sab
saba
sabaa
sabaaf
sabaafi
sabaan
sababa
sababaa
sababaan
sababbii
sababbiin
sababi
sababii
sababiin
sababiinsaas
sababinsaas
sababni
sababoota
sababuma
sabafi
sabbaa
sabbanni
sabbata
sabbataa
sabboo
sabboonaa
sabboontonni
sabboontota
sabboonummaa
sabboonummaan
sabdaneessaa
sablammii
sablammoota
sabni
saboota
sabqunnamtii
sabsibee
sabsibeen
sad
sadaarkaa
sadaasa
sadaasaa
sadaffa
sadaffaa
sadaffaaf
sadaffaan
sadaffaarra
sadaffaatti
sadan
sadarakaa
sadarka
sadarkaa
sadarkaaleen
sadarkaan
sadarkicha
sadarkichaa
saddeet
saddeeti
saddeetii
saddeetiif
saddeettaffaa
saddeettan
saddet
saddii
sadee
sadeen
sadeenirraa
sadetti
sadhata
sadhataa
sadi
sadii
sadiif
sadiin
sadiit
sadiitti
sadiyii
sadoo
sadowaa
safaara
safaaraa
safar
safara
safaraa
safaramuu
safartuu
safaruu
safaruuf
safety
saffisa
saffisaa
saffisaan
saffisi
saffisni
safisni
safiyyaan
safuu
safuun
sagal
sagala
sagalee
sagaleedhaan
sagaleen
sagaleewwan
sagalii
sagaliif
sagaltama
sagaltamii
saganta
sagantaa
sagantaan
saganteeffamu
saganteeffamuu
saganteessaa
saganteessuu
saglan
sahaaraa
saint
saiph
sakandari
sakatta
sal
salaalee
salaaletti
salaam
salaamtaa
salaannee
salaata
salaate
salaatee
salaatu
salaaxaa
salamoon
salbaan
salfaayidii
salfarii
salfariik
salgan
salpha
salphaa
salphaadha
salphaan
salphaatti
salphata
salphatee
salphatti
salphatuuf
salphina
salphisee
salphisuu
salphumatti
salvaador
sama
same
sameen
samii
samiin
sammuu
sammuun
sammuunsaa
samuu
san
sana
sanaa
sanaaf
sanaan
sanaas
sanaati
sanaatiin
sanaatti
sanan
sanarra
sanarraa
sanarraan
sanarratti
sanas
sanatti
sanattin
sanatu
sanayyuu
sanbanni
sanbata
sanbataa
sanbatduraa
sanbatta
sanduuqa
sangaa
sangaan
sangantaan
sanh
sani
sanii
saniif
saniin
sanirraa
sanirratti
sanitti
santa
santiago
sanuma
sanumaan
sanuu
sanyii
sanyiin
sanyiitti
sanyiiwwan
sanyummaan
saphaalloo
saqa
saqqaa
saqqaaf
sar
sarara
sararamaa
sararoota
sararri
sarbaa
sarbama
sarbiyaa
sardaa
sardiidaan
saree
sariitii
sarkiyuuti
sarkiyuutii
sarkiyuutiin
sarkiyuutin
sarkiyuutonni
sarkozyiin
saroota
saturday
saudi
savorgnan
sawaaba
sawud
sawweekoo
saxatoo
saxaxa
saxaxaa
saxaxaan
saxaxama
saxaxaman
saxaxamee
saxaxanii
saxaxee
saxaxni
saxaxuu
saxilame
sayaaraa
sayaaran
sayid
sayyaara
sayyaaraa
sayyaaran
sayyoo
sayyoon
scale
schenectady
schleiden
school
schools
schulz
schuster
science
sciences
scientific
scientist
scientists
scooch
scotia
scotland
se
sea
seances
season
second
secondary
secret
secretary
section
sector
security
sedan
see
seel
seeli
seelii
seeliin
seeliiniyeemii
seelin
seelitti
seelonni
seelonnii
seeloota
seelota
seelotaa
seena
seenaa
seenaafi
seenaan
seenaanii
seenaasaa
seenaati
seenaawwan
seenan
seenanii
seene
seenee
seeneen
seeneera
seenessa
seenessu
seenetan
seenetti
seenii
seenin
seenne
seennee
seennetti
seennu
seensa
seensaa
seensifne
seensiftan
seensisaa
seensisanii
seensisee
seensisi
seensisu
seensisuu
seente
seentee
seentetti
seenti
seentii
seenu
seenudhaan
seenuf
seenun
seenuu
seenuudhaan
seenuuf
seenuun
seequun
seeqxe
seera
seeraa
seeraan
seeraatiin
seeram
seeran
seerluga
seermurtoo
seerota
seerotni
seerri
seeta
seete
seetee
seismic
sekendii
sekondii
selenium
self
semi
semiikondaakter
semiikondaakterii
semiikondaakteritti
semmoo
senegaal
senne
september
seranaa
serbian
series
serra
serratus
serum
service
sesotho
set
sets
setswana
seven
sevilla
seyan
sh
shaabiyaa
shaafi
shaaftii
shaakalaan
shaakallii
shaakkisoo
shaalaqaa
shaallaa
shaam
shaambuu
shaamirraa
shaamitti
shaampiyonshiippii
shaampiyoona
shaampiyoonaa
shaampiyoonsi
shaangaayi
shaaroo
shaashamannee
shaayii
shabalee
shabee
shaggar
shahaadaa
shahnez
shakkii
shakkiin
shakku
shallaga
shallagaa
shallagame
shallaggii
shallaggiin
shallagni
shallaguu
shaman
shamarran
shamarree
shamarreen
shampiyoonshiippii
shan
shanaffaa
shanaffaan
shanan
shananii
shanghai
shani
shanii
shaniif
shaniin
shanirratti
shanitti
shantam
shantama
shantamaa
shape
sharaaten
sharhii
shari
shariif
shariifaa
shariika
shark
sharkii
sharkiin
sharkotni
shashamene
shawaa
shawaan
shayii
sheek
sheekh
sheekha
sheekhni
sheekkoo
sheekkoon
sheekkotii
sheekkotiin
sheikh
shibashii
shiboo
shift
shifta
shiftaa
shiftaan
shiistoomiyaasiisiin
shilingii
shimala
shira
shiraa
shiroo
shirri
shirt
shokokii
shokokiin
shookileen
shoora
shoorbaa
shoreham
shororkaa
shororkeessummaa
shorroo
short
shorter
show
shrek
shrekiin
shubbisa
shubbisaa
shubha
shubhaan
shugguxii
shukkaara
si
sibiila
sibiilaa
sibsaabii
sibuu
sidaamaa
sidaamoo
side
sidi
sigahuu
sigiga
sigimoo
signal
sihii
sihiin
sii
siidaa
siidaan
siidan
siidii
siif
siifan
siifii
siin
siinan
siinimaa
siinis
siinqee
siinqeedhaan
siinqeen
siiqqee
siiquu
siis
siitii
siitti
siitu
siivilii
sikkoo
silaa
silaagiter
silaasetti
silasee
silashii
silkeeniirraa
silken
silkenii
sillaasee
sillaaseen
sillaaseetti
sillasee
silookseenii
sima
simachuuf
simannaa
simannaan
simatan
simatee
simbira
simbirri
simbirroota
simon
simple
sin
sina
sinaanaa
sinaara
sinbirri
sinbirroo
sinbirroota
since
singaappoor
singer
singles
siniimaa
sinkirtuu
sinqii
sintaksii
sio
siqe
siqee
siqnee
siquu
sir
sirba
sirbaa
sirbaan
sirbe
sirbi
sirboota
sirbuu
sirbuun
siree
sireen
sirius
sirkaa
sirna
sirnaa
sirnaan
sirni
sirnicha
sirnichi
sirnoota
sirra
sirraa
sirratti
sirreeffama
sirreessee
sirreessu
sirreessuu
sirreessuuf
sirri
sirrii
sirriidha
sirriidhaa
sirriin
sirriittan
sirriitti
sirriittin
sirritti
sirrummaa
sirti
siruma
sirumaa
sirumayyuu
sis
sisilii
sistine
siswati
site
sites
sittan
sitti
sittin
sittis
situ
siwaahilii
siwaahiliin
siwiizerlaandi
siyaa
siyaad
siyaaditti
siyaasa
siyaasaa
siyaasaan
siyaasaati
siyaasaatiin
siyaasaatti
siyaasatiin
siyaasni
siyaatil
skeletal
skeleton
skin
skiwoodofiskaa
sky
skłodowska
skłodowski
slow
small
smart
smith
snoop
so
soba
sobaa
sobaan
sobanii
sobni
sobu
soccer
sochii
sochiin
socho
sochoone
sochoosan
sochoosu
sochoosuu
sochoosuun
social
society
soda
sodaa
sodaachiisaa
sodaachisa
sodaachisaa
sodaachisee
sodaachiseera
sodaachisu
sodaachisuun
sodaadha
sodaadhe
sodaan
sodaatan
sodaatee
sodaattuu
sodaatu
sodda
soddaa
soddoma
soddomaa
soddomii
sodium
sodo
software
soil
sokkan
sokke
sokorruu
solar
soldier
solid
solo
solution
somaalee
somaaleetiin
somaaliyaa
somaaliyaarraa
somaaliyaatin
somaaliyaatti
somali
somba
sombaa
some
song
songs
soodaanin
sooddo
sooddoo
soofaa
soofee
sooffaa
sooffii
soofii
soofu
soogidda
soolee
soomaale
soomaalee
soomaalen
soomaali
soomaaliga
soomale
soomana
soora
sooraa
soorama
sooranni
soorata
soorataa
sooressa
sooressoota
sooriyaa
sooshaalistii
sooveet
sooviyeet
sooviyeetii
soqamee
soraa
sorooroo
sosso
sossoo
sossoose
souma
sound
soundiin
soup
source
sources
south
southern
southwest
southwestern
space
spaghetti
spain
spanish
spark
speaks
special
specialized
species
specific
speed
spirit
spiritual
spore
sport
sportii
sports
sprache
spring
springs
spurs
sq
sql
sqrt
square
st
stad
stadiomii
stain
stan
standard
stanley
stars
start
state
states
statesiin
station
statistical
statistics
stories
storm
stormiin
story
street
strength
striker
strong
structure
students
studies
study
style
su
sub
subdomain
subhii
subii
subsidy
such
sudaan
sudaanii
sudaanitti
suddoo
sude
sudv
suez
suga
sugar
suicide
sukkaara
sukkara
sukkuumnu
sukkuumuu
sulula
sululli
sulultaa
sulxaana
sum
suma
sumaalee
sumaalen
sumaaletiin
summaa
summer
summii
summiin
summuugee
sun
suni
sunii
sunis
sunitti
sunnii
supe
super
supercritical
supha
suphaa
suphaan
suphaman
suphee
suphuu
supplied
supply
support
supporting
supreme
surface
surraa
sursagaa
suufii
suufiyyaa
suukaneessaa
suukanneessaa
suupper
suupperkompitara
suupperkompitaroonni
suuqee
suuqii
suura
suuraa
suuraah
suuraalee
suuraan
suuraawwan
suuran
suuriya
suuriyaa
suurota
suurri
suuruya
suuta
suutaan
suutan
suutumee
suuzee
suuzen
suuzetiin
suwiiz
svg
swahili
swedish
switch
switchgear
switzerland
symbiosis
symbol
symposium
syndrome
system
systems
sz
sztemon
sławomir
t
ta
taa
taaboree
taaddasaa
taaddasaan
taaddasaanis
taaddasaatti
taadhii
taaee
taajira
taajjabdoota
taajjabduun
taaksonoomii
taan
taana
taanaan
taane
taanee
taaneef
taanen
taanes
taanetti
taanikaa
taanu
taariikha
taariikhaa
taarikuu
taasifama
taasifame
taasifameen
taasisa
taasisaa
taasisan
taasisaniiru
taasise
taasiseera
taasisu
taasisuu
taasisuuf
taasisuun
taata
taatan
taate
taatee
taateef
taateefi
taateen
taateetti
taateewwan
taates
taatetti
taati
taatoo
taatota
taatu
taatuu
taayitaa
taayiwaan
taba
tabachuu
tabata
tabate
tabatee
tabatu
tabatuu
tabba
table
tables
tabuuk
tae
taee
taeef
taeniasis
tafarii
tafariin
tafkiin
tafsiira
tafv
tag
tagaanikaa
tagbaara
tahaa
tahan
tahe
tahee
taheef
tahi
tahiin
tahu
tahuu
tahuudhaan
tahuun
taj
tajaajila
tajaajilaa
tajaajilan
tajaajilaniiru
tajaajilarra
tajaajilarraa
tajaajile
tajaajileera
tajaajilla
tajaajilli
tajaajilu
tajaajiluu
tajaajiluuf
tajaajiluun
tajajilama
tajajilamuu
tajajilla
takka
takkaa
takkaan
takkaayuu
takkallee
takkammoo
takkatti
takkittii
talaalamani
talaalii
talaaliileen
talaaliin
talaalileen
talaalli
talaallii
talaalliin
talaallin
taliga
talkhis
taltallee
tamboo
tamsa
tamsaasa
tamsaasaa
tamsaasan
tamsaasee
tamsaasni
tamsaastutti
tamsaasu
tamsaasuu
tamsaasuuf
tamsaasuun
tan
tana
tanaa
tanaaf
tanaafan
tanaan
tanarraa
tanatti
tanee
tango
tanzaaniyaa
tanzania
tapha
taphaa
taphachaa
taphachu
taphachuu
taphachuun
taphataa
taphatama
taphatamu
taphatan
taphatta
taphatte
taphattoonni
taphattu
taphattuu
taphatu
taphi
taphii
taphni
taphoota
taqii
tara
taraaruu
tarii
tarkaanfataa
tarkaanfatu
tarkaanfii
tarkaanfiilee
tarkaanfin
tarkaanfiwwan
tarkii
tarminaalii
tarmitara
tarnovo
tarree
tarreedhan
tarreeffaman
tarreen
tarreessa
tarsaasuu
tarsiimawaa
tarsiimoo
tartibaa
tartibba
tartibii
tartiiba
tartiibaan
tartiibni
tasa
tasaa
tasammaa
tasayyuu
tasbiiha
tasfaahun
tasfaahuun
tasfaayee
tasgabbaa
tasgabbeessinee
tasgabbeessuf
tasgabbeessuu
tasgabbeessuuf
tasgabbii
tasisaa
tasiserra
tasuma
tasumaa
tasumaayyuu
tasumayyuu
tatamsa
tatamsaasa
tate
tatee
tattaa
tattaafachuun
tattaafata
tattaaffii
tattaaffiin
tatte
tattu
tatu
tatuu
taurus
tauu
tawarikh
taya
tayaniif
taye
tayee
tayeef
tayin
tayu
tayuu
tayuun
te
tea
teaching
team
techniques
technology
tectonic
tectonics
ted
tee
teechoo
teeknikaa
teeknoloojii
teeknooloojii
teeknooloojiin
teeknooloojiiwwan
teelee
teena
teenna
teenya
teenyaa
teenyatti
teenye
teenyee
teenyu
teepiidhaan
teessan
teesse
teessee
teessi
teessisu
teesson
teessonsaa
teessoo
teessoon
teessu
teessuma
teessumni
teknoloji
teknooloojii
teknooloojiin
teksaas
tel
tele
telegiraafii
telegraph
telekoomii
telekoominikeeshinii
telephone
telescope
televijiinii
televijiiniidhaan
televijiiniin
television
telleskoopii
temperature
tempireechara
tempireecharaa
tempireecharri
temprature
temprecherii
temprecherra
ten
tena
tenure
term
termaalii
terminal
termoniwuukilaarii
termooniik
termooniwuukilaaraa
termooniwuukilaarii
terror
tesfaye
tesla
teslaa
teslaadhaaf
teslaan
teslaanis
teslaarraa
teslaatif
tesso
testii
testiin
tewoodiroos
text
th
tha
thach
that
the
their
them
theory
there
thermal
these
they
third
thirds
this
thousand
three
thrombocytes
thrombosis
through
thumb
thumbnail
ti
tibba
tibbana
tibbee
tide
tif
tiger
tigraay
tigraayi
tii
tiif
tiimeeroosaa
tiimor
tiin
tikaa
tikiyyaa
tiksaa
tiksu
till
tilmaama
tilmaamaa
tilmaamaan
tilmaamama
tilmaamaman
tilmaamame
tilmaamameera
tilmaaman
tilmaame
tilmaameera
tilmaametti
tilmaami
tilmaamiin
tilmaamne
tilmaamni
tilmaamta
tilmaamte
tilmaamtuu
tilmaamu
tilmaamuu
tilmaamuuf
tilmaamuun
tilmamaan
tilmaman
tilmamee
tilmamman
tim
timaatima
timaatimii
time
times
timira
tin
tini
tiraakii
tiraakirraa
tiraakirratti
tiraamp
tiraanisfoormerii
tiraanzisterii
tiraanzisteriin
tiraanzisteriitti
tiraanzisteroota
tiraayoodin
tirgaat
tirii
tirika
tiriliyoona
tirmboosaayitis
tiroopikaalaa
tirooppikaalaa
tirpitz
tiruu
tiruun
tishuu
tishuulee
tisiisa
tissue
tissuen
tissues
title
titti
tiween
tiya
tiyaatira
tiyaatiraa
tiyooloojii
tiyoorii
tiyoorin
tiysuufimoo
tiyya
tiyyaa
tiyyaafii
tiyyaan
tiyyarraa
tiyyatti
tnq
tnt
to
today
todd
toftaa
toka
tokka
tokkee
tokkicha
tokkichatti
tokkichi
tokkichumaan
tokkittii
tokko
tokkodha
tokkof
tokkofaa
tokkofatti
tokkoffa
tokkoffaa
tokkoffaan
tokkoffaarra
tokkoffaatti
tokkoffati
tokkoleen
tokkollee
tokkolleen
tokkollen
tokkommoo
tokkon
tokkoo
tokkoof
tokkoofi
tokkoomte
tokkoon
tokkoonsaa
tokkoonsaayyuu
tokkoos
tokkooti
tokkootii
tokkootin
tokkootti
tokkootu
tokkorraa
tokkorraan
tokkorratti
tokkos
tokkotti
tokkottuu
tokkotu
tokkoyyu
tokkoyyuu
tokkuma
tokkummaa
tokkummaan
tokyo
tola
tolaa
tolaan
tolan
tolasaa
tolcha
tolchanii
tolche
tolchee
tolcherra
tolchu
tolchuu
tole
tolee
tolfamaa
tolfame
tolfamee
tolfannee
tolfattuun
toli
tolle
tollee
toltu
tolu
toluu
toluudha
toluuf
tom
toniin
too
tooftaa
tooftaalee
tooftaan
tooftan
tooftawaa
tooftawaan
toogoo
toogoolaandi
tookiyoo
tookkoo
tooksiin
toomaas
toomee
toomsan
toonii
toora
tooriyeem
top
torba
torbaa
torbaaf
torbaan
torbaatti
torbaffaa
torbaffaatti
torban
torbanii
torbaniin
torbatti
torbee
torbeetti
torgii
tornado
toronto
tortoran
torture
total
totti
tournament
towards
town
toxic
toxin
tplf
tqo
tr
track
trade
tradition
traditional
training
trans
transistor
translation
translations
transmission
transmitter
transport
transportation
treatment
tree
triangulum
tribune
tributary
tributaryiin
trolie
troliers
tropical
true
trump
trybishop
ts
tsaggaayee
tsahaay
tsetse
tshivenda
tsuburaya
tsunami
tsunamin
tsunamis
tt
tti
ttii
ttin
ttis
tu
tube
tubers
tuboo
tufa
tufaa
tuffii
tujaara
tujjaarri
tulama
tulamaa
tulloota
tullu
tulluu
tulluun
tulluuti
tulluuwwan
tulo
tum
tumaa
tumame
tumamee
tumanii
tume
tumee
tumsa
tumsaa
tumsu
tumte
tumtuu
tumuu
tun
tuned
tuniiziyaa
tuqa
tuqaa
tuqaaleen
tuqaawwan
tuqamne
tuqan
tuqe
tuqi
tuqne
tuqo
tuqqa
tuqu
tuquu
tuquuf
tuquun
tuqxe
tura
turaan
turan
turani
turanii
turaniidha
turaniif
turaniin
turaniiru
turaniiti
turanis
turanitti
turban
ture
turedha
turee
tureedha
tureef
tureefi
tureem
tureen
tureera
tureeyyuu
turerraa
turerratti
tures
turetti
turi
turiin
turin
turkaanaa
turkii
turkish
turkiyaa
turre
turree
turreef
turretti
turru
tursiisuuf
turtan
turte
turtee
turteef
turteetti
turtii
turtiin
turu
turus
turuu
turuuf
turuun
turuutii
tutii
tuttuquu
tuubii
tuubiin
tuubiitti
tuubin
tuubitti
tuulaa
tuulama
tuulamaa
tuulamaatiin
tuulamaatti
tuulamni
tuuli
tuulmaa
tuultuu
tuulummaa
tuuriin
tuurin
tuurinin
tuuta
tuutni
tuvalu
tv
twi
twista
two
type
typhoon
typical
typus
tyranny
u
ubuntu
udaan
udha
udhaan
udhan
uea
uefa
uefan
uf
uffachaa
uffannaa
uffanni
uffata
uffataa
uffatan
uffatanii
uffate
uffatee
uffatoota
uffatte
uffattee
uffatu
uffee
uffi
ufi
uggurtii
ujummoo
ujummoolee
ujummoon
uk
ukee
ukkaamamee
ukkaamsanii
ukkaamsee
ukkaamsuu
ulaa
ulaagaa
ulamaa
ulamaan
ulee
uleen
ulfa
ulfaa
ulfaanne
ulfaata
ulfaataa
ulfaataadha
ulfaatan
ulfaatee
ulfaatina
ulfaatinni
ulfaatoo
ulfaatu
ulfaatuu
ulfina
ulfinni
ulfoo
ulle
ullee
ultrasound
ultraviolet
uma
umama
umamaa
umaman
umamu
umamuu
umanni
umar
umawi
umma
ummaa
ummaan
ummaata
ummama
ummamaa
ummame
ummamu
ummamuu
ummani
ummanni
ummata
ummataa
ummataaf
ummataan
ummatarraa
ummatasaa
ummatatti
ummatni
ummatoota
ummatootaa
ummatta
ummattaa
ummatti
ummattoota
umme
ummu
umrii
umriin
umrrrii
umsa
umsaa
umsaaf
umsi
umurii
umuriidhaan
umuriin
umuriinsaa
umuriisaa
un
undaground
under
union
unioniin
unit
united
university
unreviewed
uona
up
upload
uppsala
upright
ups
ura
uraa
uraagaa
urgaa
urgooftuu
urgufamu
urji
urjii
urjiilee
urjiileen
urjiin
urjiiwwan
urra
urraa
urraan
urratti
ururuu
us
usa
usaa
usan
usatti
use
used
user
uses
using
usmaan
usmaayyoo
usmaayyoon
ussr
usumaayyoon
ususa
ususaan
usuuliddiin
utaalcha
utaalchaa
utaale
utaalee
utaali
utaalu
utaaluu
utc
utii
utm
utr
utti
uttin
utu
utubaa
utubaan
utuu
utuun
uu
uudha
uudhaa
uudhaan
uudhan
uudi
uudii
uudin
uuf
uuffata
uufi
uufii
uuma
uumaa
uumaan
uumama
uumamaa
uumamaan
uumaman
uumamani
uumame
uumamee
uumameen
uumameera
uumamneef
uumamni
uumamu
uumamuu
uumamuun
uuman
uume
uumee
uumeef
uumeera
uummaan
uummama
uummamaa
uummamaan
uummamaatti
uummaman
uummame
uummamee
uummameef
uummamte
uummamu
uummamuu
uummanni
uummata
uummataa
uummataaf
uummatni
uummatoota
uummattoota
uumsa
uumsi
uumte
uumu
uumun
uumuu
uumuudhaan
uumuuf
uumuun
uun
uuni
uunsaa
uura
uuraa
uureffachuun
uureffame
uuressan
uurra
uurraa
uurri
uus
uusaa
uuti
uutii
uutin
uutti
uutu
uv
uwwaa
uwwifamee
uwwisa
uwwise
uwwisee
uwwisi
uwwisni
uwwisu
uwwisuuf
uyyuu
v
vaakiyuum
vaakiyuumii
vaaleenshiyaa
vaalii
vaalvii
vaan
vaayiirasii
vaayirasii
vaayirasiin
vaayireesin
vaayiresii
vaayiresiin
vacuum
vacuumii
vacuumiin
vacuus
vakiyuum
valencian
valley
value
values
van
various
vartheta
vector
veeltipolitiikii
veenus
veenusii
veetinaam
veetnaam
veetnaamitti
veetoo
vehicle
veliko
velocity
venus
verband
verdee
version
versionii
veterinary
vey
vi
victory
video
view
viidiyoo
viiktooriyaa
viilheelmi
viinsenti
viinsentii
viktooriyaa
ville
vin
vinci
viral
virginia
virus
vise
visent
visible
visio
vision
viyuutisbuurgi
voice
vol
volcanic
volcano
volcanon
volkaanoo
volta
voltage
volume
vom
von
vooltaan
vooltaayik
voolteejii
voolteejiin
voolteejin
vooltii
voon
vp
w
wa
waa
waabbii
waabee
waabii
waacila
waadaa
waadaan
waadamu
waaddii
waadii
waaha
waajiba
waajin
waajira
waajirri
waajituu
waajjin
waajjira
waajjiraa
waajjirri
waal
waales
waallee
waaltaa
waalter
waama
waamaa
waamama
waamamaa
waamamu
waamanii
waame
waamee
waamicha
waamichaa
waamichi
waamii
waammama
waammamu
waamna
waamtu
waamu
waamuu
waamuun
waan
waanan
waancaa
waani
waanin
waanjiruu
waanjoo
waanni
waannin
waanta
waantan
waanti
waantin
waantonni
waantoota
waantota
waantotan
waantotta
waanuma
waanuman
waanumti
waaq
waaqa
waaqaa
waaqaaf
waaqaafi
waaqaatti
waaqarraa
waaqatti
waaqatu
waaqayyo
waaqayyoo
waaqayyoon
waaqeffannaa
waaqeffannaan
waaqeffannaatti
waaqeffataan
waaqeffattoonni
waaqeffattoota
waaqeffattootaa
waaqeffatu
waaqi
waaqjiraa
waaqni
waaqo
waaqon
waaqoo
waaqoon
waaree
waareen
waari
waariin
waarrii
waarsawu
waarsawutti
waashingiten
waashingitenitti
waatii
waattuu
waaw
waawu
waayee
waayit
waayyuu
wabera
wabii
wabiiwwan
waca
waccuu
wacni
wadaaja
wadaajo
wadaajoo
wadaay
wadaroo
waddeessa
wagaa
wagga
waggaa
waggaadhan
waggaan
waggaatti
waggoota
waggoottan
wagii
wahiin
wajiin
wajin
wajiniitinii
wajji
wajjiin
wajjin
wajjiniin
wajjinis
wal
wala
walaabu
walaabuu
walaba
walabummaa
walakeessaa
walakka
walakkaa
walakkaan
walakkaatti
walakkeessa
walal
walaleessaa
walaloo
walaloon
walaloosaa
walaloowwan
walanee
walaneen
walbira
waldaa
waldaan
waldee
waldhaansoo
waldhabdee
waldichaa
waldichi
walduraa
waleensuu
wales
walfaana
walfakkaata
walfakkaataa
walfakkaatu
walfakkaatuun
walga
walgahanii
walgargaarsa
walgargaarsaa
walgayii
wali
waliga
waligalaa
waligaltee
walii
waliif
waliigala
waliigalaa
waliigalaan
waliigalaatti
waliigalan
waliigaltee
waliigalteen
waliigaluu
waliigaluudhaan
waliin
waliini
waliinii
waliiniitti
waliinis
waliinitiin
waliiti
waliitii
walin
walirra
walirraa
walis
waliso
walisoo
walit
walitti
walittii
walixxee
waliyyii
waliyyumma
walla
wallaalaa
wallaalaan
wallaalee
wallaaluu
wallaansoo
wallaansoon
wallaga
wallagaa
wallagga
wallaggaa
wallaggaatti
wallee
walleewwan
walli
wallitti
wallo
walloo
wallootti
walmaraa
walnyaatinsa
walnyaatinsi
waloo
waloon
walqabata
walqabatan
walqabatanii
walqabatee
walqabattee
walqabatu
walqixa
walqixaa
walqixxaata
walqixxee
walqixxummaa
walqunnamsiisu
walqunnamti
walqunnamtii
walqunnamtiin
walta
waltajjii
waluma
walumaa
walumaagala
walumaagalatti
walumatti
walumma
walxaxaa
wamama
wamamu
wan
wancii
wandaboo
wangeela
wangeelaa
wangeelli
wanna
wanni
wannin
wanta
wanti
wantoonni
wantoonnii
wantoota
wantootaa
wantootni
wantotta
wanuma
waqni
waqqa
waqtii
waqtiilee
waqtiin
war
waraabamee
waraabanii
waraabe
waraabee
waraabessa
waraabessaa
waraabuu
waraan
waraana
waraanaa
waraanaaf
waraanaan
waraanaas
waraanaatti
waraanan
waraananii
waraanatiin
waraanee
waraani
waraanicha
waraanichaa
waraanichaan
waraanichi
waraanni
waraannii
waraansa
waraanuu
warana
waranaa
waranni
waraqaa
waraqaan
wareega
wareegama
wareegaman
wareegamaniif
wareegame
wareeggaman
wareeggame
warhol
warm
warming
warqee
warqeen
warqii
warqiin
warqinash
warra
warraa
warraanamee
warraaqsa
warraaqsaa
warraaqsi
warraasaa
warrana
warranaa
warrani
warraqsaa
warreen
warri
warrii
warrummaa
warsaw
warshaa
warshaalee
was
waseliin
washington
washingtoniin
washitandisii
wasiila
wasiilota
wataderotta
water
wave
waveiin
wavelength
waves
wavonni
waxabajji
waxabajjii
waxbajjii
wayi
wayii
wayiin
wayiiti
wayiitti
wayiituu
wayita
wayitan
wayta
wayya
wayyaa
wayyaanee
wayyaaneen
wayyeera
wayyeessaa
wayyooma
wayyu
wayyuu
wbo
wbon
we
weapon
weapons
weather
web
webb
webs
websaitiin
website
wednesday
weebsaayitii
weeddisaa
weedduu
weekly
weellisaa
weellistoota
weellistuu
weerara
weeraraa
weeraraaf
weeraraan
weeraran
weerare
weeraree
weerarichaa
weerarichi
weerarri
weerartee
weey
weld
welistoota
well
wells
weltpolitik
were
west
wester
western
westi
westiingihaawus
westinghouse
weston
wet
wfdo
whale
what
when
where
which
while
whippany
white
who
whole
wide
width
wiesbaden
wiikiipiidiyaa
wiiliiyaam
wiiliyaam
wiirtuu
wiixata
wiki
wikimedia
wikipe
wikipedia
wikipedias
wild
wilhelm
will
william
williams
winfrey
wing
winner
wirmaat
wirmaata
with
without
witsen
wixinee
wnba
woggaa
wol
wolby
wolii
woliin
wolitti
wolof
woman
women
won
woo
wool
woraana
wordpress
woreda
work
working
works
workshoppi
world
worm
would
woyyaaneedhaa
wp
wqo
writing
written
wuudaardi
www
władysław
x
xa
xaa
xaafii
xaafoo
xaaliyaan
xaaliyaanii
xaaliyaaniif
xaaliyaaniifi
xaaliyaaniin
xaaliyaanin
xaaliyaanirratti
xaaliyaanonni
xaanaa
xaawulaa
xalaya
xalayaa
xalayaalee
xalayaan
xalayoota
xannacha
xannachoota
xareetaa
xareetaatti
xariiqaa
xaxaa
xaxama
xaxamaa
xaxamaaf
xaxima
xaxxamaa
xayyaari
xiinhima
xiinsammuu
xiinxala
xiinxaluu
xiinxaluun
xiiqii
xilaahuun
xin
xinhawaa
xinhawaan
xinlubbuu
xinnaa
xinno
xinnoo
xinsammuu
xiqaa
xiqoo
xiqqa
xiqqaa
xiqqaachaa
xiqqaachuu
xiqqaadha
xiqqaadhan
xiqqaan
xiqqaata
xiqqaate
xiqqaatti
xiqqaatu
xiqqeessa
xiqqeessanii
xiqqeessee
xiqqeessuu
xiqqicha
xiqqittii
xiqqo
xiqqollee
xiqqoo
xiqqoof
xiqqoollee
xiqqoon
xiqqoos
xiqquma
xiqur
xirrootti
xixinnoo
xixiqqaa
xixiqqoo
xixiqqoon
xiyya
xiyyaara
xiyyaaraa
xiyyaaraan
xiyyaaronni
xiyyaarri
xiyyara
xiyyeefate
xiyyeeffachuu
xiyyeeffannaan
xiyyeeffannoo
xiyyeeffannoon
xiyyeeffata
xiyyeeffatan
xiyyeeffate
xiyyeeffatee
xiyyeeffatu
xiyyi
xiyyoo
xor
xummura
xumura
xumuraa
xumurame
xumuramee
xumurameen
xumurameera
xumuramne
xumuramu
xumuran
xumure
xumuree
xumureen
xumureera
xumurin
xumurre
xumurri
xumurte
xumurtee
xumuru
xumuruu
xumuruuf
xumuruun
xuqame
xuqur
xuraa
xuraawaa
xureessan
xurii
xuriiwwan
xurunash
xuuxu
xuuxxama
xuwwaarsu
xuxee
y
ya
yaa
yaabbadhee
yaabbannee
yaabbatuun
yaabuu
yaabuuf
yaachisu
yaachisuu
yaad
yaada
yaadaa
yaadaan
yaadachiisa
yaadachiisu
yaadachuu
yaadachuuf
yaadadha
yaadadhe
yaadadheen
yaadadhu
yaadame
yaadamee
yaadamiin
yaadamu
yaadan
yaadannaa
yaadanno
yaadannoo
yaadannoon
yaadannoowwan
yaadanoo
yaadasaa
yaadata
yaadatama
yaadatamaa
yaadatamu
yaadatamuu
yaadatee
yaadattee
yaadatu
yaadatuu
yaadda
yaaddaa
yaaddama
yaaddame
yaaddamne
yaaddamu
yaaddannoo
yaaddatamaa
yaaddayuu
yaadde
yaaddee
yaaddessaa
yaaddesse
yaaddessu
yaaddi
yaaddoo
yaaddoon
yaaddu
yaade
yaadee
yaadeen
yaadeera
yaadetti
yaadi
yaadiin
yaadin
yaadne
yaadni
yaadonni
yaadota
yaadrimee
yaadsammuu
yaadsammuun
yaadu
yaaduma
yaadus
yaadutti
yaaduu
yaaduun
yaala
yaalaa
yaalaatti
yaalamaa
yaalame
yaalan
yaale
yaalee
yaaleera
yaali
yaalii
yaaliin
yaalin
yaallamaa
yaalle
yaaloonihoo
yaalte
yaaltu
yaalu
yaalun
yaaluu
yaaluuf
yaaluun
yaama
yaamaa
yaaman
yaamee
yaamu
yaamuu
yaana
yaane
yaannaa
yaanne
yaannee
yaanni
yaanuu
yaaqoob
yaasi
yaatan
yaayaa
yaayya
yaayyaa
yabbuu
yadda
yaddan
yaddatama
yaddi
yahuuda
yajjuu
yakka
yakkaa
yakkan
yakki
yakkuu
yalli
yallin
yaman
yamanitti
yammuu
yanni
yaroo
yaroon
yartuu
yayyiin
ye
year
years
yellow
yemmuu
yemmuun
yeroo
yeroodha
yeroodhaa
yeroodhaaf
yeroodhaan
yeroodhan
yeroodhuma
yeroof
yeroofillee
yeroofis
yerooma
yerooman
yeroon
yerootti
yerosuma
yerro
yerroo
yeruma
yesus
yesuus
yesuusii
yet
yihudaa
yihudoonni
yihudoota
yihudootaa
yihudummaa
yihuudaa
yihuudii
yihuudonni
yihuudota
yihuudotaa
yihuudummaa
yii
ykn
yo
yohaannis
yohannis
yokaan
yokan
yoma
yommuu
yoo
yookaa
yookaan
yookan
yookii
yookiin
yookiis
yookin
yookkaa
yookkin
yoom
yoomessa
yoomi
yoomiitti
yoomillee
yoomiyyuu
yoomuma
yoomuu
yoon
yoona
yoork
yoorki
yoorkitti
yooseef
yoosuu
yoota
yootaatu
yoowwana
yoozeef
york
yoru
you
young
youth
youtube
yu
yuba
yugaandaa
yunaayitid
yunivarsiitii
yunivarsiitiin
yunivarsiitoota
yuniversity
yuraaniyeemii
yuraaniyemii
yureeshiyaa
yusuuf
yuubdoo
yuuboo
yuukaariyootis
yuukireen
yuunibarsiitii
yuunivariitii
yuunivarsiitii
yuunivarsiitiin
yuunivarsiitiitti
yuunivarsiitin
yuunivarsiitoota
yuunivarsiitota
yuunivarsitii
yuuniversaalii
yuuniversitii
yuuraanos
yuuriyaa
yuurooppi
yuurooppii
yuurooppiin
yuurooppin
yuurooppitti
yuusuf
z
za
zaakir
zaambeezii
zaanzibaar
zaar
zabanyaa
zabiibaa
zabiid
zabiiditti
zakaa
zalaalam
zamana
zamanaa
zara
zarasannaay
zari
zarihuun
zawawi
zawiyaa
zawwii
zayita
zayitii
zayitni
ze
zealand
zeendaa
zeeroo
zef
zelalem
zerah
zeyla
ziilaandi
ziinki
ziinkii
ziinkitti
zikkaa
zimbaabuwee
ziyaad
ziyaaraa
ziyaare
ziyaaree
ziyaarree
ziyaaru
ziyaarun
ziyaaruu
ziz
zodiyaak
zoga
zone
zonii
zoniin
zoonii
zubeydaa
zuhri
zuhriin
zuria
zuwaay
zy
zymogen
{
|
}
~
¡
£
«
¬
­
°
±
²
³
´
µ
·
º
»
¼
×
ł
łobez
ɑ
ɕ
ə
ɛʋɛ
ɪ
ʲ
ʼ
ʾ
ʿ
ˈ
ˌ
ː
ˤ
̀
́
̂
̃
̄
̆
̇
̈
̊
̌
̓
̣
̧
̨
̱
͂
͡
α
β
δ
ε
μ
ς
υ
ω
в
ж
и
к
м
т
є
،
ا
اجمعين
اصحاب
الا
الاسلام
البترولي
التعقب
التلخيص
الجزاء
الجليل
الحثيث
الدكتور
الزواوي
السلام
السلة
العباد
العهد
الغيابجزايرس
القارية
الله
المنافسة
المنتخب
الوطني
ان
انك
بافتراءات
بعد
تفسير
تلخيص
جزايرس
ح
خليل
خير
د
ر
رجوزة
رسول
رشاد
رضي
س
سنوات
سيدات
شرح
ض
ضغط
عبد
عراب
عقلاء
علام
على
عليك
عن
عنك
في
ل
لا
لكرة
للا
م
ما
محمد
مختصر
مع
من
ن
ندية
نظم
ه
هذا
و
واشهد
والدكتور
وجزاك
وعن
يا
َ
ُ
ِ
ّ
ٓ
ٔ
ٕ
ሀሳብ
ሀይል
ሀይድሬት
ሁኔታ
ሁኔታዎች
ሆኖ
ለመፍጠር
ለማምረት
ለማብራራት
ለማድረግ
ለማጠንከር
ለምሳሌ
ለተመሰረተው
ለተጠቃሚው
ለውጥ
ለጂኦፖሊመር
ለፖርትላንድ
ሊሆኑ
ላይ
ልቀት
ልቀቶች
መሆኑን
መልክ
መሰረት
መሳሪያ
መሳሪያዎች
መቀላቀል
መቀነስ
መንገድ
መካከል
መያዣ
መያዣዎች
መጠበቂያ
መጠኑ
መጠን
ሙቀት
ማህበር
ማለት
ማምረት
ማምረቻው
ማቅለጫ
ሜታ
ምርት
ምርትነት
ምርቶች
ምንም
ምክንያቱም
ምዕራፍ
ምድብ
ሪኤጀንት
ሪኤጀንቶች
ሰዓታት
ሲ
ሲሆኑ
ሲሆን
ሲሊኬት
ሲሊየት
ሲሎክሶ
ሲሚንቶ
ሲሚንቶዎች
ሲምፖዚየም
ሲስተሞች
ሲነፃፀር
ሲያሌት
ሳይሆን
ስለዚህ
ስለዚህም
ስልኬት
ስሪት
ስራ
ስዕል
ሶዲየም
ቀናት
ቃላት
ቃል
ቅነሳው
ቅዝቃዜ
በ
በሆነው
በላይ
በመቶ
በመገንባት
በመጋቢት
በመጠቀም
በሚል
በሚከተሉት
በማምረት
በርካታ
በቀን
በቀድሞ
በቀጥታ
በብናኝ
በብዙ
በተለየ
በተለይም
በተረፈ
በተቀላቀለ
በተጠቃሚው
በታች
በኋላ
በአሁኑ
በአለም
በአለት
በአልካላይ
በአልካላይን
በአመት
በአማካይ
በአርማታ
በአንዱ
በአየር
በእርግጥ
በከፍተኛ
በኩል
በክፍል
በዋናነት
በውሃ
በዚህ
በዝቃጭ
በዩኤስ
በጂኦፖሊመር
በጣም
በፌሮ
በፖርትላንድ
ቢ
ቢሊየን
ባለሙያ
ባለሙያዎች
ባለው
ባላቸው
ብቻ
ብናኝ
ቪ
ተመራጭ
ተመራጭነት
ተመስርቶ
ተረፈ
ተብለው
ተጠቃሚን
ተጠቃሚውን
ተጨማሪ
ትኩረት
ትክክለኛ
ትግርኛ
ቶን
ችሏል
ነበር
ነው
ነዳጅ
ነገር
ናቸው
ናይትሮጂን
ን
ንጽጽራዊ
ንጽጽር
አ
አሁን
አለው
አልካላይ
አመራረት
አመታት
አመድነት
አማርኛ
አርማታ
አሰራር
አስቀምጧል
አንድ
አካላት
አይረን
አይችሉም
አይነት
አይነቶች
አይደለም
አይደሉም
አገልግሎት
አፈር
ኢንዱስትሪ
ኤ
ኤምፒኤ
ኤስ
ኤች
ኤኤል
ኤኤስቲኤም
እ
እስከ
እቃ
እነ
እነዚህ
እነዚህም
እነዚህን
እና
እንደ
እንዲሁም
እንዲህ
እንጂ
እዚህ
ኦርቶ
ከ
ከሆነ
ከሆነው
ከሚሰሩ
ከሞላር
ከተመሰረተው
ከካልሺየም
ከዚህ
ከፍተኛ
ከፖርትላንድ
ካሉት
ካልሺየም
ካርቦኔት
ካርቦንዳይኦክሳይድ
ኬሚስትሪ
ክላስ
ክፍል
ኮሚቴ
ኮረት
ወቅት
ወይም
ወደ
ውህድ
ውህዶች
ውሎ
ውስጥ
ውጤቶች
ዘዴ
ዝርዝሮች
ዝቃጭ
ዝቅተኛ
የ
የሀይል
የሆኑ
የሌለው
የሚመረት
የሚሰሩ
የሚሰራ
የሚችሉ
የሚያስፈልገው
የሚያዝጉ
የሚያገለግል
የሚገለገልባቸው
የሚገኙት
የሚገኝ
የሚፈልግ
የማምረቻ
የማያደርሱ
የማይጐዱ
የማይጐዳ
የምርት
የሞላር
የሪለም
የሲሚንቶ
የብረት
የብናኝ
የቮልካኖ
የተለያዩ
የተመሰረተ
የተመሰረተውን
የተመሰረቱ
የተሰራ
የተባሉ
የተወሰኑ
የተገለፁ
የተገናኘውን
የታተሙ
የነበረ
የአልካላይ
የአልካላይን
የአሜሪካ
የአርማታ
የአኖርታይት
የአፈር
የኤስአይ
የካልሺየም
የካርቦን
የካርቦንዳይኦክሳይድ
የኬሚካል
የክብደት
የኮረት
የወጡ
የዝቃጭ
የዩኤስ
የደህንነት
የድንጋይ
የጂኦፖሊመሪክ
የጂኦፖሊመር
የጂኦፖሊመሮች
የግል
የጥንካሬ
የፈጠራ
የፖሊ
የፖሊመር
የፖርትላንድ
ያለ
ያለው
ያለውን
ያላቸው
ያላቸውን
ያስፈልጋል
ይሁን
ይህ
ይህም
ይህንን
ይላል
ይመልከቱ
ይቀንሳል
ይዘቶች
ይደርሳል
ይገባል
ይገኛሉ
ደረጃ
ደረጃቸውን
ደግሞ
ዱቄቶች
ዲ
ዲግሪ
ዳይ
ዳይሲሎክሶ
ዴቭዶቪትስ
ድረስ
ጂኦፖሊመር
ጆሴፍ
ጉዳት
ጉዳይ
ጊዜ
ጋር
ግብአቶች
ግን
ጠጣር
ጥሬ
ጥንቃቄ
ፖሊ
ፖሊመር
ፖሊመሮች
ፖታሺየም
፡
።
፣
​
‎
‏
–
—
‘
’
“
”
„
‟
•
…
′
⁠
ℓ
™
→
↔
↳
↷
∅
−
√
∪
⊆
③
④
⑦
☿
♀
♂
♃
♈
♉
♊
♋
♌
♍
♎
♏
♐
♑
♒
♓
♧
➦
➲
⺀
⺄
⺆
⺈
⺊
⺌
⺕
⺝
⺸
⺼
⿰
⿱
⿲
⿳
⿴
⿵
⿶
⿷
⿸
⿹
⿺
⿻
。
〢
゙
コ
ト
ホ
ユ
ラ
ル
ン
ー
㇁
㇂
㇄
㇇
㇈
㇉
㇓
㐁
㐄
㐅
㐌
㐫
㐬
㐭
㐮
㐱
㑒
㒵
㒸
㒼
㓁
㓞
㔾
㕛
㕣
㖾
㘝
㚅
㚇
㚔
㚘
㝉
㝡
㝴
㝵
㞋
㞢
㞷
㠩
㠭
㠯
㡀
㡭
㡿
㢲
㢴
㣇
㣺
㥯
㪅
㫄
㫐
㫒
㫺
㬅
㬎
㬥
㬰
㲋
㳄
㷠
㸒
㸚
㸦
㼌
㼲
㽞
㿟
䀠
䂞
䍃
䏍
䒑
䖍
䖒
䖝
䖵
䙴
䚻
䜌
䝿
䡛
䧹
䪞
一
丁
丂
七
丄
丅
丆
万
丈
三
上
下
丌
不
与
丏
丐
丑
专
且
丕
世
丘
丙
业
东
丞
丢
丣
两
严
並
丨
丩
个
丫
丬
中
丮
丰
丱
串
丵
丶
丷
丸
丹
为
主
丽
丿
乀
乂
乃
久
乆
乇
么
义
之
乌
乍
乎
乏
乐
乑
乔
乖
乗
乘
乙
乚
乛
乜
九
乞
也
习
乡
乳
乾
亀
亅
了
亇
予
争
事
二
亍
于
亏
亐
云
互
亓
五
井
亘
亚
亜
亞
亟
亠
亡
亢
交
亥
亦
产
亨
亩
享
京
亭
亮
亯
亰
亲
亳
亶
亷
人
亻
亼
亾
仁
今
介
仌
从
仐
仑
仒
仓
仕
他
付
仝
代
令
以
任
企
伊
伏
伐
休
会
伯
但
位
何
佘
余
作
佥
使
來
侈
侌
侖
侯
侵
便
保
俞
信
修
倉
倍
候
倠
備
僉
僕
儿
兀
允
兂
元
兄
充
兆
兇
先
光
兊
克
兌
免
兑
兒
兓
兔
党
兜
兟
入
全
兩
兪
八
公
六
兮
兰
共
关
兵
其
具
典
兹
兼
冀
冂
冃
冄
内
冈
冉
冊
冋
册
再
冎
冏
冐
冒
冓
冖
冗
冘
军
农
冝
冡
冥
冫
冬
冷
几
凡
凢
凵
凶
凷
凸
凹
出
函
凾
刀
刁
刂
刃
刄
刅
分
切
刍
刑
刕
刖
列
刘
则
初
別
利
别
到
制
刺
則
削
剌
前
剡
剽
劉
力
功
加
劦
助
劫
劳
劵
勃
勇
勉
勒
動
務
勞
勤
勹
勺
勻
勾
勿
匀
匂
包
匆
匈
匊
匋
匍
匕
化
北
匚
匝
匡
匪
匱
匸
匹
区
医
匽
匿
區
十
卂
千
卄
卅
卆
升
午
卉
半
卌
华
卑
卒
卓
单
卖
南
卜
卝
卞
占
卡
卢
卣
卤
卦
卩
卪
卬
卯
印
危
即
却
卵
卷
卸
卻
厂
厃
厄
历
厈
厉
厌
厓
厘
厚
原
厤
厥
厨
厭
厲
厶
厷
厸
去
厼
厽
叀
参
參
叅
又
叉
及
友
双
反
叐
发
叒
叔
叕
取
受
叚
叜
叟
口
古
句
另
叩
只
召
可
台
叱
史
右
叵
号
司
叹
吂
各
吅
合
吉
吊
吋
同
名
后
吏
向
吕
君
吝
吞
否
含
启
吳
吴
吹
吾
呂
呆
呈
告
员
呙
周
命
咅
和
咎
咠
咢
咨
咸
咼
哀
品
哉
員
哥
哲
唐
商
啇
問
啚
啬
啻
善
喜
喬
單
喿
嗇
噩
嚴
囊
囗
囘
囙
囚
四
回
囟
因
囧
囬
困
囱
囷
固
国
圂
圅
國
圍
圓
土
圡
圣
圥
在
圭
地
圶
圼
坐
坒
坚
坴
垂
垔
垚
埀
埋
埶
執
基
堂
堅
堆
堇
堯
塞
墨
壘
士
壬
壯
声
壳
壴
壹
壺
壽
夂
处
夅
夆
备
夊
夋
夌
复
夏
夒
夕
外
夗
夘
多
夜
夢
大
夨
天
太
夫
夬
夭
央
失
夲
头
夷
夸
夹
夻
夾
奂
奄
奇
奈
奉
奎
奏
奐
契
奓
奔
奚
奞
奠
奢
奥
奭
女
奴
奻
好
如
妄
妙
妟
妥
妻
妾
姑
委
姜
威
娄
婁
婴
嬰
嬴
子
孑
孔
孕
孖
字
存
孚
孛
孝
孟
季
孤
学
孫
孱
學
宀
宁
宂
它
宅
宇
守
安
宋
完
宏
宓
宗
官
定
宛
宜
宝
客
宣
室
宮
宰
害
家
容
宾
宿
寄
寅
密
富
寒
察
寧
審
寫
寬
寮
寸
对
寺
寻
寽
対
寿
封
尃
射
将
將
專
尉
尊
尋
尌
對
小
少
尒
尓
尔
尖
尗
尚
尞
尢
尣
尤
尧
尨
尭
就
尸
尹
尺
尻
尼
尽
尾
尿
局
居
屈
屋
屎
屏
屑
展
屖
屚
属
屠
屡
屬
屮
屯
屰
山
屵
屾
岁
岂
岑
岡
岩
岳
岸
峯
島
崇
崑
崔
崖
崙
崩
嵬
嶲
巂
巛
川
州
巟
巠
巢
巤
工
左
巧
巨
巩
巫
差
己
已
巳
巴
巷
巸
巽
巾
巿
帀
市
布
希
帚
帛
帝
带
師
席
帶
常
干
平
年
幵
并
幷
幸
幺
幻
幼
幽
幾
广
広
庄
床
底
店
庚
府
度
庫
庭
庶
康
庸
廉
廌
廛
廣
廩
廴
延
廷
建
廾
廿
开
弁
弃
弄
弇
弋
式
弓
弔
引
弗
弘
弜
弟
弥
弦
弱
張
強
强
彊
彌
彎
彐
彑
当
彔
录
彖
彗
彡
形
彥
彦
彧
彭
彳
役
彼
往
待
律
徒
得
徙
從
復
微
徵
心
忄
必
忌
忍
志
忝
忠
忩
快
念
忽
忿
思
怠
急
怱
恆
恒
恩
恭
息
悉
患
悤
悲
悶
惠
惡
惢
愁
愈
意
愛
感
慈
慧
慮
憂
憲
應
戀
戈
戉
戊
戋
戌
戍
戎
成
我
戒
戔
或
戚
戠
戢
截
戲
戶
户
戹
戼
戾
房
所
扁
扇
手
扌
才
打
托
执
承
折
拉
拜
拿
掌
推
提
摩
支
攴
攵
收
攸
改
放
政
敄
敏
敕
敖
敗
敝
敞
敢
散
敦
敫
敬
数
敷
數
斂
文
斉
斊
斗
斤
斥
斩
斬
斯
新
方
於
施
斿
旁
旋
族
无
旡
既
旣
日
旦
旧
旨
早
旬
旱
旲
时
旾
昆
昇
昌
昍
明
昏
易
昔
昗
昜
星
春
昬
是
昱
昴
昷
時
晃
晋
晏
普
景
晶
智
暑
暴
曇
曩
曰
曲
曳
更
曷
書
曹
曼
曾
替
最
朁
會
月
有
朋
服
朔
朕
朗
望
朝
木
朩
未
末
本
札
朮
术
朱
朵
朶
朿
杀
杏
杜
束
条
来
東
杲
杳
松
析
林
枚
果
枝
枲
枼
某
柔
查
柬
柰
柴
栗
桀
桑
桼
梁
條
梟
梨
棘
棠
棥
森
楚
業
楽
榮
樂
樊
欠
次
欣
欮
欲
欶
欽
款
歆
歇
歛
止
正
此
步
武
歨
歪
歮
歯
歰
歲
歴
歷
歸
歹
歺
死
殳
段
殷
殸
殹
殺
殻
殿
毋
毌
母
每
毒
比
毕
毚
毛
毳
氏
氐
民
气
氣
水
氵
氶
氷
永
氺
氾
求
汉
汝
汞
江
沃
沓
沙
沝
泉
法
波
泣
泥
泰
洛
洪
活
派
流
浦
浪
浮
海
淡
淮
清
渚
渠
湯
滿
漸
火
灬
灭
灰
灵
灷
炅
炎
炏
炗
炙
炭
為
烈
烏
烝
焉
無
焦
焱
然
煞
熊
熏
燕
營
燮
爪
爫
爭
爯
爰
爱
爲
爵
父
爻
爽
爾
爿
片
牙
牚
牛
牜
牟
牢
牧
牪
牽
犀
犬
犭
犮
状
狂
狄
狊
独
狺
猋
猒
猪
献
獻
玄
率
玉
王
玟
玨
珎
班
琴
瑟
瑩
瓜
瓦
甘
甚
生
産
用
甫
甬
田
由
甲
申
电
甶
男
甸
甹
画
甾
畀
界
畏
畐
留
畜
畟
畢
畧
畨
番
畫
異
畱
當
畺
畾
疊
疋
疌
疑
疒
疾
癶
癸
癹
登
發
白
百
皀
皃
的
皆
皇
皋
皐
皕
皮
皷
皿
盃
盆
盇
盈
益
盍
盎
监
盒
盖
盛
盡
監
盤
盧
目
直
相
盾
省
眇
眉
看
眔
眞
真
眷
眼
眾
着
睘
睪
睿
瞏
瞢
瞿
矍
矛
矞
矢
矣
知
矦
短
石
破
碎
磊
磨
示
礻
礼
祟
票
祭
禀
禁
禸
禹
禺
离
禽
禾
禿
秀
秃
秉
秋
科
秝
秦
移
稟
穀
穌
穴
究
穹
空
穿
突
窄
窒
立
竒
竜
竝
竟
章
童
竹
笑
笠
筆
等
答
箕
算
箴
節
篤
篭
米
粉
粛
粟
粤
粦
粲
糞
糸
糹
系
約
納
素
索
紫
累
細
絜
絫
絲
維
綿
縣
繇
纍
纟
缶
网
罒
罔
罕
罗
罙
罡
罢
罪
署
罷
羅
羊
羌
羍
美
羔
羕
羗
羞
羡
羣
群
義
羲
羸
羽
翁
翏
習
翕
翟
翠
翼
老
耂
考
者
耆
而
耎
耑
耒
耳
耴
耶
耷
聂
聊
聖
聚
聶
聿
肀
肃
肅
肉
肖
肙
肥
肩
肯
育
肴
胃
背
胡
胥
能
脊
脩
膚
臣
臤
臧
自
臬
臭
臯
臱
至
致
臺
臼
臽
臾
臿
舀
舂
舄
與
興
舉
舌
舍
舛
舜
舞
舟
般
艮
良
色
艸
艹
艾
芒
芔
芬
芮
花
芳
芺
芻
苔
苗
苟
若
苦
英
茶
茸
荅
草
荒
荣
荼
莆
莧
莫
莽
菆
菊
菐
華
萬
落
葉
著
葛
董
葵
蒙
蒦
蒼
蓋
蓬
蓺
蔑
蔡
蕉
蕭
薄
薛
薦
薰
藍
藏
藥
蘭
虍
虎
虐
虒
虔
處
虖
虗
虘
虚
虛
虜
虞
虫
虽
蚤
蚩
蜀
蜜
蟲
蠡
血
行
衍
衛
衣
衤
表
衮
衰
袁
袞
褭
褱
襄
襾
西
覀
要
覃
見
規
覓
覧
親
覽
见
角
解
言
訁
訇
計
詹
誩
諸
讠
语
谷
豆
豈
豊
豐
豕
豖
豙
象
豦
豩
豪
豸
貇
貝
貞
貟
負
貢
貧
貪
貫
責
貳
貴
買
費
賁
資
賈
賏
賓
賔
賛
賞
賢
賣
質
賴
贊
贝
贡
责
贯
贲
贵
赖
赞
赤
赦
走
越
足
路
蹇
身
躬
車
軍
軎
軟
輦
车
辛
辜
辟
辥
辰
辱
農
辵
辶
边
达
过
近
连
迷
追
退
送
逆
逐
通
速
造
逢
連
逮
進
遀
遂
過
道
達
遣
適
遷
遺
邊
邑
邕
那
邦
邪
郎
部
郭
都
鄉
酉
酋
配
酓
釆
采
里
重
野
量
金
釒
錢
钅
長
镸
长
門
閃
閉
開
閏
閑
閒
間
閔
閵
閻
闌
门
间
闷
阑
阜
阝
阿
降
陳
隆
隊
隋
隡
隨
隱
隶
隹
隺
隻
隼
隽
难
雀
雁
集
雈
雋
雍
雐
雔
雙
雚
雜
雝
離
難
雨
雩
雪
雲
零
雷
需
霍
霜
霝
霞
霸
靈
靑
青
非
靡
面
靣
革
韋
韦
韭
韯
韱
音
頁
頃
項
須
頗
頡
頻
顛
页
風
风
飛
飞
食
飠
養
饣
首
香
馬
馮
駦
马
骨
高
髟
鬥
鬯
鬲
鬼
魚
魯
鮮
鱼
鲁
鳥
鳳
鸟
鹵
鹿
麃
麗
麥
麦
麻
黃
黄
黍
黎
黑
黒
黨
黹
黽
黾
鼎
鼓
鼠
鼻
齊
齋
齐
齒
齿
龍
龙
龜
龟
龠
龰
龱
龴
龵
龶
龷
龸
龹




者
艹
︎
，
：
？
￼
𝑮
𝒂
𝒃
𝒄
𝒆
𝒈
𝒉
𝒊
𝒋
𝒌
𝒍
𝒎
𝒏
𝒐
𝒔
𝒕
𝒖
🜨
𠀁
𠀃
𠀆
𠀉
𠀎
𠀐
𠁁
𠁣
𠂆
𠂇
𠂈
𠂉
𠂊
𠂋
𠂎
𠂒
𠂔
𠂛
𠂡
𠂢
𠂤
𠂬
𠂭
𠂹
𠃊
𠃋
𠃌
𠃍
𠃎
𠃑
𠃓
𠃔
𠃜
𠄌
𠄎
𠄠
𠄢
𠆢
𠆥
𠇍
𠈌
𠌵
𠓜
𠔉
𠔥
𠔼
𠔽
𠔿
𠕀
𠕁
𠕋
𠘧
𠘨
𠙻
𠙼
𠚏
𠚒
𠚤
𠚪
𠣏
𠤎
𠤕
𠥓
𠦄
𠦑
𠦝
𠧒
𠧗
𠧪
𠩺
𠪚
𠫓
𠫔
𠫤
𠬛
𠬝
𠬞
𠬢
𠬤
𠬶
𠮛
𠮦
𠮷
𠯑
𠱠
𠳮
𠷎
𡈼
𡉀
𡉵
𡌥
𡍮
𡏳
𡕒
𡕩
𡕰
𡖅
𡗗
𡗜
𡘆
𡘤
𡧱
𡨄
𡩧
𡬠
𡭽
𡰣
𡰥
𡰪
𡰯
𡰱
𡷈
𡸁
𡿨
𡿩
𡿪
𡿺
𢀖
𢀛
𢀩
𢁙
𢆉
𢆰
𢆶
𢇁
𢇇
𢉖
𢌬
𢌿
𢏚
𢑑
𢑚
𢖻
𢙣
𢛳
𢦏
𢦒
𢧵
𢼄
𢾕
𣁋
𣄼
𣅀
𣅽
𣍘
𣎳
𣎵
𣏋
𣏼
𣗥
𣥂
𣥖
𣦵
𣦼
𣧄
𣪊
𣪠
𣬉
𣳾
𣶒
𤇾
𤊽
𤐫
𤓰
𤔔
𤕨
𤣩
𤰇
𤰔
𤰞
𤴓
𤴔
𤽄
𥁑
𥁕
𥃦
𥃩
𥃭
𥇡
𥑟
𥘅
𥘈
𥝢
𥫗
𥱡
𦈢
𦉪
𦉬
𦉼
𦍌
𦍒
𦎧
𦐇
𦓔
𦔮
𦘒
𦙃
𦚏
𦣝
𦣞
𦣻
𦥑
𦥔
𦥯
𦨉
𦭝
𦰩
𧆞
𧈧
𧘇
𧰨
𧴪
𧴮
𧵩
𧾷
𨸏
𨾴
𩙿
𩠐
𩫏
𩵋
𪉷
𪜀
𪟽
𪠲
𪩲
𫇦
𫔭
𫜸
𫝀
𫠣
𫠩
𫢉
𫥞
𫩏
𫩠
𫪡
𫲽
𫶧
𬀷
𬐘
𬗌
𬙙
𬛸
𬜯
𬟩
𬯁
𬴘
𬺻
𬼉
𬼖
𭀰
𭁈
𭁨
𭅰
𭑈
𭕄
𭗼
𭤨
𭥫
𭻾
𮅕
𮊿
𮍌
𮍏
𮓗
𮥼
𮧮
廾
𰀁
𰀄
𰀈
𰀉
𰀕
𰀠
𰀡
𰀢
𰀪
𰁜
𰃮
𰆊
𰆘
𰋙
𰕎
𰢴
𰧭
𰯲
05--
10--
11--
13--
14--
15--
16--
17--
18--
20--
24--
28--
29--
41--
47--
51--
60--
65--
80--
81--
9--
a--
aa--
aad--
aadeffat--
aak--
aaktivi--
aamm--
aan--
aana--
aanu--
aar--
aati--
aay--
ab--
abaa--
abba--
abbaa--
abbumm--
abda--
abdo--
abiy--
abja--
abjo--
abo--
abst--
abu--
abuu--
ac--
acce--
accele--
accomp--
accor--
accoun--
accu--
acqu--
act--
ad--
ada--
adam--
add--
ade--
adems--
adi--
admo--
adoo--
ador--
adulte--
advan--
adven--
adver--
aero--
af--
aff--
affaa--
affe--
affec--
affeela--
afi--
ag--
aga--
agaar--
agar--
agi--
aguu--
aguug--
ah--
ai--
air--
aj--
ajje--
ajjee--
ajjeefa--
ak--
aka--
akeekk--
akh--
akkeekk--
aksi--
al--
ala--
alan--
alba--
aleek--
alger--
ali--
alje--
alk--
alkaayin--
alkiin--
alla--
alt--
am--
aman--
amansiis--
ambas--
ami--
amiin--
amp--
amphi--
ampili--
ampu--
an--
ana--
anbi--
andaaq--
anes--
ani--
anni--
ano--
ant--
anti--
antiropp--
any--
ap--
apo--
app--
appe--
appli--
appreci--
appro--
approx--
aq--
aqu--
ar--
araa--
araar--
arbe--
arch--
arga--
argi--
ariifachi--
aritiropo--
ark--
arki--
arkit--
arkiteek--
arkitek--
arm--
aro--
arsenaay--
art--
arti--
as--
ase--
ash--
asi--
asid--
assas--
asse--
assis--
associ--
asto--
astr--
at--
ata--
ati--
atoo--
attr--
atu--
au--
audi--
aus--
auth--
auto--
av--
avi--
aw--
awna--
awuroopp--
awus--
awwaal--
ax--
axa--
ay--
ayiri--
ayisso--
ayoo--
ayya--
ayyaa--
az--
aza--
azhar--
b--
ba--
baa--
baab--
baak--
baaktee--
baand--
baanna--
baar--
baaren--
baast--
baatt--
baax--
baay--
baayoo--
baayy--
babb--
bac--
bad--
bafa--
bak--
bakk--
bal--
ball--
ban--
baq--
baqaq--
bar--
bara--
barba--
baro--
basi--
batt--
bay--
bayy--
be--
bee--
beek--
beeksi--
beel--
beeylado--
beeza--
bek--
bekk--
bekkam--
bel--
ben--
bene--
ber--
bes--
bey--
bi--
bif--
bii--
bil--
bilch--
bilchaa--
bili--
bilisooms--
bill--
bin--
binenso--
bio--
biq--
bir--
bira--
birge--
biri--
bis--
bish--
biskil--
bita--
biy--
biya--
biyya--
bo--
bobboc--
bobe--
bof--
bol--
boo--
booli--
booll--
boq--
boqoch--
boqochi--
bor--
boraaf--
boso--
bou--
bow--
br--
bra--
break--
bu--
bubb--
bubbu--
budun--
bul--
bulf--
bund--
buqq--
buqqifa--
bur--
burjaa--
burjaajessi--
burk--
burq--
burtu--
but--
buu--
buuft--
buus--
buzun--
c--
ca--
caal--
caas--
cab--
cac--
cacca--
caccab--
cafa--
cal--
calaqq--
calli--
camb--
capa--
caq--
car--
caro--
cas--
cata--
ce--
cee--
cees--
celebr--
cen--
centi--
cer--
cere--
ch--
cha--
chaar--
char--
cher--
chi--
cho--
chri--
ci--
cich--
cii--
cims--
cin--
cinqam--
cir--
cira--
cit--
cl--
cle--
co--
cob--
col--
coll--
com--
con--
conse--
const--
contem--
conv--
coo--
cooper--
cor--
coror--
coun--
cr--
cri--
crick--
cro--
cu--
cuf--
cun--
cunqurfa--
cuq--
cur--
cy--
d--
da--
daa--
daakk--
daala--
daan--
daang--
daanges--
daawwa--
dab--
daba--
dabb--
dabball--
dad--
dadda--
dadha--
dadhab--
daf--
dag--
daga--
dagatt--
daj--
dakk--
dal--
dalay--
dall--
dallan--
dallaw--
dan--
dand--
daq--
dar--
dara--
dargag--
daw--
day--
de--
ded--
dee--
deed--
deef--
deeg--
deen--
deg--
deggar--
den--
depo--
des--
deu--
dev--
dh--
dha--
dhaa--
dhaabb--
dhaabi--
dhab--
dhabb--
dhaggeef--
dhaggeeffa--
dhal--
dhall--
dham--
dhams--
dhamsa--
dhan--
dhaq--
dhaw--
dhe--
dhed--
dhee--
dheekk--
dhees--
dhey--
dhi--
dhidh--
dhihees--
dhii--
dhiis--
dhimm--
dhiph--
dhiq--
dhir--
dhiya--
dho--
dhok--
dhokfa--
dhoksi--
dhoog--
dhoy--
dhu--
dhug--
dhugaa--
dhuk--
dhukku--
dhuku--
dhum--
dhun--
dhuu--
dhuun--
di--
dia--
dib--
did--
diferenshi--
diffe--
dii--
diig--
diiga--
diimok--
diin--
diiy--
diji--
dik--
dim--
dimm--
dimok--
din--
dinaa--
ding--
dinq--
dippilo--
dippireeshin--
dir--
diriir--
dirma--
dirq--
dirqam--
dirqisii--
dis--
dist--
distri--
diyaa--
diyaagi--
do--
dogog--
dogoggor--
dok--
dokto--
doo--
dook--
dooy--
doq--
dor--
dorgomm--
dorgoms--
dr--
dra--
du--
duba--
dud--
duf--
duguu--
dukk--
dull--
dun--
dur--
duu--
duuch--
duur--
dy--
e--
ebb--
eco--
ed--
eden--
edu--
ee--
eeg--
eegga--
eej--
eel--
eeriti--
ees--
eeshi--
eessum--
eey--
ef--
eg--
ega--
ej--
ejen--
ejje--
ek--
el--
ele--
elec--
eleek--
elek--
elekti--
elektirolaay--
elektri--
em--
emb--
empiri--
en--
end--
epi--
epo--
equ--
equi--
er--
erg--
erga--
eryth--
es--
essa--
estab--
et--
ete--
ex--
execu--
exhi--
extre--
f--
fa--
faa--
faakk--
faall--
faan--
faar--
faay--
faayibr--
facc--
fag--
fakk--
fakkaatt--
fal--
falmi--
fan--
fand--
fandala--
fanni--
fannifa--
far--
fara--
fas--
fasha--
fat--
fay--
fayy--
fayya--
fayyad--
fayyu--
fe--
feer--
fees--
fell--
fer--
ferdi--
ffaa--
fi--
fid--
fif--
figh--
fii--
fiil--
fiish--
fiiz--
fiizisist--
fila--
fill--
fin--
fir--
firidiri--
fitaw--
fix--
fiz--
fl--
flav--
flu--
fo--
fokk--
folk--
fone--
fonqol--
foo--
footoo--
fooy--
fooyye--
fran--
frank--
fre--
fu--
fuf--
ful--
fund--
fur--
furgu--
futtaaf--
fuu--
fuul--
g--
ga--
gaa--
gaal--
gaarreew--
gaaz--
gaazex--
gaazzex--
gaba--
gabb--
gabr--
gabroomfat--
gadhi--
gadhiis--
gadi--
gag--
gaggara--
gagge--
gaggeef--
gal--
galuu--
gam--
gamb--
gamno--
gan--
gand--
gang--
gar--
gara--
gas--
gata--
ge--
gee--
geed--
geedda--
geeffa--
geeg--
geejib--
geen--
geera--
gees--
geg--
gegge--
geggeef--
geggeffa--
gegges--
geo--
geog--
ger--
gi--
giddi--
gidduu--
gidir--
gidirfa--
gii--
gil--
gilaayikoo--
gilaayikoopiroot--
gir--
giraa--
giraaziyaa--
giriin--
gl--
glu--
gluco--
go--
gob--
god--
godin--
gog--
gol--
goll--
gon--
gonfachi--
goo--
goobb--
good--
goof--
gool--
goolab--
gor--
gos--
gow--
goww--
gowwooms--
goy--
gra--
gram--
gre--
gro--
gu--
gud--
guddi--
guddist--
gug--
gull--
gur--
gurgu--
gurguram--
guu--
guura--
guutt--
guv--
guy--
guyy--
h--
ha--
haa--
haak--
haalkan--
haamm--
haasof--
haaw--
haay--
haayidiroo--
haayila--
hab--
haban--
had--
hadheef--
hag--
haguu--
haj--
hajjaa--
hak--
hal--
hamb--
hamm--
hamu--
han--
hanbi--
hand--
hang--
hanq--
haph--
har--
hargi--
haro--
haw--
haww--
hax--
haxx--
haxxiffachi--
hay--
hayid--
hayla--
hayy--
hayyu--
he--
heddo--
heddumm--
hee--
heel--
heer--
heeru--
heey--
heksaa--
hel--
helee--
hemoogiloobi--
hemorr--
her--
herregu--
hey--
hh--
hi--
hibb--
hii--
hiid--
hikk--
him--
himm--
hin--
hir--
hiriy--
hirk--
hirka--
hiroosh--
hirqin--
hirri--
his--
hiy--
hiyye--
ho--
hog--
hoj--
hoja--
hojjetoo--
hong--
hoo--
hooffamu--
hoog--
hooggan--
hook--
hookk--
hooll--
hooqq--
hoospi--
hoqq--
hor--
hordof--
host--
hu--
huba--
hubb--
hudey--
hull--
humb--
hun--
hund--
hunku--
hur--
hurgu--
hut--
huu--
hy--
hydro--
i--
ib--
ibb--
ibr--
id--
if--
ii--
iif--
iim--
iiz--
ij--
ijes--
il--
ila--
ilal--
ilall--
im--
imbaa--
immi--
imperi--
in--
incre--
indu--
industri--
infec--
ingiliiz--
ingl--
inji--
injifat--
injiin--
insaayi--
inst--
insu--
intar--
inte--
integ--
integi--
inter--
intro--
inv--
inven--
ir--
is--
ish--
isi--
ispo--
isti--
istiraakchera--
isuu--
it--
iti--
itti--
iz--
j--
ja--
jaal--
jaar--
jaarmi--
jaarso--
jab--
jabb--
jabe--
jabees--
jach--
jack--
jaj--
jajja--
jal--
jalli--
jalq--
jam--
jan--
jar--
je--
jech--
jee--
jees--
jel--
jene--
jer--
ji--
jibb--
jid--
jifaa--
jigs--
jiid--
jiil--
jij--
jiji--
jijji--
jijjiir--
jil--
jilbi--
jim--
jin--
jir--
jire--
jirees--
jirj--
jo--
joos--
jor--
jr--
ju--
judg--
jun--
juuli--
k--
ka--
kaa--
kaabin--
kaach--
kaafa--
kaalaand--
kaalkula--
kaam--
kaampaan--
kaan--
kaapi--
kaar--
kaas--
kaata--
kaaw--
kaawwa--
kaaya--
kaba--
kabachi--
kadhadh--
kadhati--
kafa--
kaffa--
kall--
kam--
kampa--
kan--
kar--
karo--
karoor--
kas--
kata--
kath--
kay--
ke--
kee--
keen--
kees--
keessummees--
kef--
kel--
ken--
ker--
keri--
kes--
ket--
key--
kha--
khax--
khen--
ki--
kich--
kii--
kiiloo--
kiji--
kil--
kile--
kilo--
kin--
kind--
kiph--
kiri--
kirist--
kis--
kita--
kitil--
kk--
kn--
ko--
kofalchi--
kol--
koloneef--
koloneeffat--
kom--
kompaawundo--
kompi--
kon--
kond--
konko--
konkolaa--
koo--
koompi--
koorni--
kor--
korni--
kosh--
kra--
ku--
kuf--
kuffi--
kull--
kum--
kun--
kur--
kuu--
kuuf--
l--
la--
laa--
laal--
laatt--
laay--
labs--
laf--
laga--
lakk--
lall--
lallaaf--
lam--
lamaan--
lammu--
le--
lee--
leel--
leemm--
leeshiim--
len--
leu--
lew--
li--
lib--
lii--
liiz--
likk--
lin--
lipp--
liqeef--
liqim--
liqimfa--
lis--
lo--
lob--
loc--
lol--
loo--
lool--
loon--
lor--
lu--
lub--
lug--
luka--
luqq--
luu--
ly--
m--
ma--
maa--
maadhef--
maan--
maar--
maara--
maaster--
maayi--
maayiki--
maayikiro--
maayikiroo--
maayki--
macc--
mad--
madees--
madr--
mag--
magar--
maghr--
mai--
mak--
mal--
mall--
mamm--
man--
manuf--
maq--
maqda--
maqe--
mar--
marar--
mari--
mas--
masaa--
masji--
mat--
mata--
max--
maxan--
maxxan--
maza--
mc--
me--
measu--
mech--
mee--
meemb--
men--
mer--
mes--
mi--
mic--
micro--
mid--
midha--
midi--
midiyaa--
mii--
miil--
miili--
mija--
mijees--
mil--
milli--
mimm--
min--
mir--
mirkan--
mirkanees--
mirkaneffa--
mirq--
mis--
misen--
mish--
mit--
mix--
miz--
mm--
mo--
modifi--
mog--
mole--
momeen--
momen--
mon--
moo--
moor--
moori--
moos--
moq--
mor--
mori--
morka--
morkatt--
morkit--
mos--
moun--
mu--
muc--
much--
mud--
muda--
mufachi--
muhyid--
muj--
muk--
mul--
mulq--
mun--
muq--
muqaad--
mur--
mura--
mus--
musaa--
muu--
muud--
muun--
muuz--
my--
n--
na--
naa--
naafxa--
naamu--
naan--
naannes--
naas--
naay--
nab--
nag--
nagar--
nam--
nami--
namor--
naq--
nas--
naz--
ne--
nee--
neept--
ni--
nii--
niwk--
niwuk--
niwutiro--
niy--
niyuuk--
no--
noo--
nor--
nov--
nu--
nucle--
nuffi--
nuu--
nuy--
ny--
nyat--
o--
ob--
obb--
obbaaf--
obboleett--
objec--
oc--
oddo--
ode--
odeef--
odees--
odi--
odo--
of--
off--
ofii--
ofis--
ofuma--
og--
ok--
oko--
oksi--
ol--
olom--
omi--
on--
one--
onnachi--
oo--
oode--
oof--
ook--
ooksi--
ool--
ooli--
ooltum--
oomi--
oper--
optiik--
or--
org--
ori--
oro--
oromi--
oromich--
oromo--
orth--
os--
osc--
ot--
oto--
otoo--
otto--
ou--
ox--
p--
pa--
paa--
paakis--
paar--
paart--
paas--
paay--
pal--
pano--
par--
pe--
pee--
pensil--
per--
peres--
periph--
ph--
phaaphaa--
pho--
phy--
physi--
pi--
pic--
pig--
pigmen--
piitis--
pilaa--
pilaati--
pin--
piro--
piroof--
pirookaa--
piroot--
pirooton--
pl--
pla--
plu--
po--
poli--
poly--
polysacch--
pool--
por--
pr--
practi--
pri--
pro--
prot--
psycho--
pu--
publi--
purp--
pus--
py--
q--
qa--
qaa--
qaad--
qab--
qabachi--
qac--
qacar--
qah--
qajeelfa--
qal--
qam--
qand--
qaq--
qar--
qarq--
qaw--
qax--
qaxa--
qaxaram--
qayyabachi--
qe--
qee--
qees--
qer--
qi--
qil--
qilli--
qin--
qinde--
qindees--
qindeessi--
qiri--
qix--
qixx--
qixxaa--
qo--
qocco--
qon--
qoo--
qood--
qoodda--
qoor--
qoph--
qoq--
qor--
qora--
qorri--
qotee--
qotin--
qu--
qub--
quba--
qubachi--
qubatt--
qul--
qullees--
qulqull--
qun--
qunc--
qund--
qunnam--
quph--
qur--
quu--
quub--
quun--
r--
ra--
raa--
raab--
raadi--
raadiy--
raaje--
raamm--
raaw--
raawwachi--
rab--
rah--
rak--
rakk--
rakka--
ram--
rarraaf--
ras--
re--
ree--
rees--
reeshi--
rela--
reme--
rems--
resul--
rho--
ri--
rifa--
rifachi--
rifeen--
ripp--
ro--
rom--
roo--
roor--
rooy--
rou--
ru--
rukku--
ruku--
rumi--
rur--
ruu--
ruuz--
s--
sa--
saa--
saaba--
saal--
saam--
saams--
saan--
saaph--
saaqq--
saax--
saaxiil--
saay--
saayin--
sab--
sabat--
sad--
sadda--
saga--
sagan--
sagantee--
sah--
sal--
salph--
sams--
san--
sar--
sas--
sassaa--
sassaabb--
saw--
saxxa--
say--
scav--
sch--
sco--
scor--
se--
see--
seen--
seexa--
sekre--
sel--
seli--
selu--
sen--
ser--
sh--
shaa--
shab--
shaf--
shagax--
shah--
shakki--
sham--
shar--
she--
sher--
shey--
shi--
shin--
shir--
sho--
shobo--
shog--
shokok--
shoror--
shu--
shubb--
shug--
si--
sibe--
sibi--
sig--
sii--
sil--
sili--
silii--
sill--
sim--
sin--
siq--
sir--
sirrees--
sis--
siya--
sla--
sma--
so--
solo--
soo--
soof--
sooman--
soor--
soovi--
soq--
sor--
soso--
sp--
spe--
spi--
spo--
spr--
st--
ste--
stra--
stu--
su--
sub--
sukk--
suksu--
sul--
sum--
sun--
super--
sur--
suu--
suud--
suuk--
suukkan--
sw--
swe--
t--
ta--
taa--
taaj--
taas--
taassis--
taay--
tadda--
taf--
tafk--
tag--
taja--
tajja--
tak--
takk--
tal--
tan--
tangaani--
tapach--
taqiyyid--
tar--
tas--
tasga--
tasgabb--
tasgabbees--
tatt--
tawhi--
tawhiida--
tay--
tayl--
te--
tech--
tee--
tek--
tekn--
teknoo--
tele--
teleko--
tem--
tempireech--
tempr--
temprech--
ter--
th--
the--
ti--
tigro--
tii--
tik--
til--
tilma--
tim--
tir--
tiraa--
tis--
tiy--
to--
tokk--
toko--
tolf--
too--
tor--
torto--
tottolch--
tou--
tr--
trans--
tri--
trig--
tro--
tru--
ts--
tt--
tu--
tuffat--
tum--
tun--
tuq--
tur--
tuu--
tuubich--
tuul--
u--
uf--
uffa--
uffach--
ug--
ugga--
uggu--
uh--
uk--
ukkaam--
ulf--
um--
uma--
ummatt--
umu--
un--
ur--
ura--
ure--
urjo--
us--
usuu--
utaal--
utt--
uu--
uum--
uumm--
uure--
uures--
uww--
v--
vaati--
vaayiiras--
vaayirees--
vac--
vas--
ve--
ven--
ver--
ves--
vi--
vic--
victo--
vir--
vires--
vitaa--
vo--
vol--
vool--
w--
wa--
waa--
waakk--
waamm--
waams--
waan--
waardi--
wabeef--
wag--
wak--
wal--
wala--
walanq--
waldo--
walii--
walqab--
walqix--
wan--
waq--
war--
waraa--
waraaba--
was--
wat--
way--
we--
wee--
weeddi--
weel--
weerar--
wi--
wii--
wiki--
win--
wixx--
wol--
wor--
world--
worro--
woy--
ww--
x--
xa--
xaa--
xaaliya--
xaalya--
xali--
xan--
xanna--
xaxa--
xee--
xi--
xibb--
xii--
xinnees--
xiqqe--
xix--
xu--
xumu--
xumur--
xuq--
xuu--
y--
ya--
yaa--
yaabb--
yaall--
yaamm--
yaan--
yabb--
yar--
yay--
ye--
yejj--
yes--
yo--
yok--
yoo--
yu--
yuniv--
yuu--
yuuni--
yuuniv--
yuuniver--
z--
za--
zaa--
zaah--
zay--
ze--
zeen--
zi--
zink--
zoofi--
zu--
ɡ--
ɪ--
σ--
φ--
ا--
اب--
ال--
الج--
الق--
ب--
ح--
ر--
ف--
ك--
ل--
م--
ه--
و--
ለ--
ለመደ--
ማጠና--
ሳይ--
በ--
አ--
እ--
ከ--
ከኤ--
የ--
የሚ--
የተመዘገ--
የተቀ--
--0
--1
--12
--2
--3
--4
--5
--6
--7
--8
--9
--94
--a
--aa
--aaba
--aahi
--aal
--aan
--aaroo
--aas
--aasni
--aata
--aay
--ab
--aba
--able
--aca
--ad
--ae
--af
--afamu
--affa
--afi
--afii
--afis
--aftee
--agineetizimii
--ah
--ahi
--ai
--ak
--al
--ala
--ale
--alee
--aliyaa
--alli
--am
--ama
--ame
--ami
--amu
--an
--ance
--ane
--ani
--anii
--ans
--ant
--ao
--aqaa
--ar
--ara
--ard
--arree
--arri
--ars
--aru
--ary
--as
--asan
--ase
--asee
--asti
--astuu
--asu
--asuu
--asuun
--at
--ata
--ate
--ati
--atics
--atii
--atiif
--atin
--ation
--atte
--atti
--atu
--atuu
--ay
--aya
--ayaa
--ayii
--ayyuu
--az
--b
--ba
--baa
--baba
--bafi
--ban
--bat
--bba
--bbaa
--bbi
--bbii
--bboo
--bbu
--bdee
--be
--bee
--bel
--ben
--berg
--bergi
--bi
--bicha
--bii
--biin
--bil
--ble
--bni
--bnu
--bo
--bota
--bs
--bsa
--bsu
--bu
--bul
--c
--ca
--caa
--cca
--cci
--ccuu
--ce
--cence
--cer
--ch
--cha
--chaa
--chaan
--che
--cher
--chi
--chii
--chiifne
--chiisaa
--chiisan
--chiise
--chis
--chisaa
--chise
--chisu
--chu
--chuma
--chun
--chutti
--chuu
--chuuf
--chuun
--ci
--cia
--cii
--cing
--cious
--ck
--ckey
--cks
--cle
--co
--color
--con
--coo
--cs
--ct
--ction
--ctive
--cuu
--cyte
--d
--da
--daa
--damii
--dan
--dda
--ddaa
--ddan
--ddatuu
--ddee
--ddi
--ddii
--ddoo
--ddu
--dduu
--de
--ded
--dee
--deen
--den
--dge
--dha
--dhaa
--dhaaf
--dhaam
--dhaan
--dhaani
--dhaanis
--dhaatii
--dhaf
--dhafii
--dhan
--dhanis
--dharee
--dharraa
--dhe
--dhee
--dheen
--dhu
--dhuma
--dhuu
--di
--dii
--diitti
--dine
--dis
--disa
--diyya
--do
--don
--doo
--doota
--dor
--ds
--dt
--du
--duma
--duu
--duun
--dy
--e
--ea
--eb
--ed
--ee
--eel
--een
--eessoo
--ef
--efi
--ein
--ek
--ekti
--el
--ell
--em
--emia
--en
--ena
--ence
--eni
--ens
--ent
--ents
--eo
--ep
--er
--era
--eran
--ere
--eree
--erii
--eriin
--ering
--ero
--eroo
--erra
--ers
--erton
--ery
--es
--ese
--eshinii
--esii
--esis
--essa
--essaa
--esse
--essi
--essu
--est
--esu
--et
--eti
--etii
--etin
--etta
--etti
--etu
--eve
--ew
--eyi
--ez
--f
--fa
--faa
--faan
--fachaa
--fachuu
--fachuun
--fadhe
--fadhee
--fadhu
--fama
--famaa
--faman
--famaniiru
--fame
--famee
--famne
--famni
--famte
--famu
--famus
--famuu
--famuuf
--famuun
--fan
--fanna
--fanne
--fata
--fatan
--fatanii
--fate
--fatee
--fatte
--fattuu
--fatu
--fe
--fee
--ffa
--ffaaf
--ffachaa
--ffachuu
--ffama
--ffame
--ffameera
--ffamu
--ffanna
--ffannaa
--ffannu
--ffata
--ffatan
--ffate
--ffatu
--ffi
--fi
--fii
--fiin
--fiira
--fillee
--fis
--fisuu
--fne
--fnee
--fneef
--fni
--foo
--fta
--ftan
--fte
--ftee
--fti
--ftii
--ftu
--ftuu
--fu
--fuu
--fying
--g
--ga
--gaa
--gan
--gde
--gdee
--gduu
--ge
--gee
--ger
--ggaa
--ggoo
--ght
--gi
--gii
--giin
--gineetik
--gn
--go
--gon
--goo
--gs
--gsoo
--gu
--gul
--h
--ha
--haa
--haan
--han
--hawootti
--he
--hee
--heef
--hes
--hh
--hi
--hii
--hiim
--hinii
--ho
--hole
--hoo
--hu
--huu
--huuf
--huun
--i
--ia
--ial
--ian
--ic
--ica
--ical
--icha
--ichaa
--ick
--icks
--id
--ide
--idha
--idhaan
--ie
--ied
--ient
--ier
--ies
--if
--iffa
--ifi
--ifnu
--ight
--ii
--iidha
--iif
--iifi
--iik
--iiki
--iikii
--iin
--iirra
--iiru
--iis
--iisa
--iit
--iiti
--iitti
--iittu
--iitu
--iiz
--ik
--ika
--ikii
--ikiya
--il
--ile
--ilee
--ilik
--illee
--im
--immoo
--in
--ine
--ing
--ini
--inis
--ins
--io
--ion
--ions
--ir
--ire
--iree
--iri
--irii
--iroo
--irra
--irraa
--irratti
--irri
--iru
--iruu
--is
--isa
--isaa
--ise
--ish
--ism
--ist
--istu
--isu
--it
--ite
--iti
--itii
--itiin
--itoo
--itt
--itti
--ittis
--itu
--ity
--iv
--ive
--iver
--iwwan
--ix
--iyaa
--iyaatti
--iyeem
--iyyuu
--iz
--ization
--ize
--izer
--izii
--izing
--j
--ja
--jaa
--jee
--jerii
--ji
--jii
--jin
--jji
--jjii
--jju
--ju
--k
--ka
--kaa
--kan
--kate
--katte
--katu
--ke
--ker
--ki
--kii
--kir
--kka
--kkaa
--kko
--kkoo
--kkuu
--ko
--koo
--ks
--ksa
--ksen
--kserii
--ksi
--ksii
--kti
--kton
--ku
--kuu
--l
--la
--laa
--laayi
--lamu
--lan
--laq
--lar
--lcha
--lchaa
--ld
--ldi
--le
--led
--lee
--leen
--len
--ler
--let
--ley
--li
--lia
--licha
--lie
--lii
--liin
--liiz
--lin
--line
--lisa
--lise
--lisu
--litti
--liya
--lizimii
--lla
--llaa
--llan
--lle
--llee
--lleen
--llen
--lli
--llo
--lloo
--llu
--lly
--lm
--lo
--loo
--loojii
--lota
--lotaa
--ls
--lsi
--lt
--ltee
--lti
--ltuu
--lu
--luu
--luuf
--luun
--ly
--m
--ma
--maa
--maaf
--maan
--maariyam
--maatti
--mal
--man
--manidha
--manii
--maniidha
--maniif
--maniiru
--mate
--matti
--mbaa
--md
--me
--med
--mee
--meef
--meefi
--meen
--meera
--meetti
--ment
--mes
--metti
--mi
--mic
--mii
--miin
--min
--mina
--minii
--mma
--mmaa
--mmaaf
--mmaan
--mman
--mme
--mmee
--mmii
--mmoo
--mmu
--mmuu
--mn
--mna
--mne
--mnee
--mneef
--mneen
--mni
--mnu
--mony
--moo
--mota
--motta
--mp
--ms
--msa
--msaa
--msi
--msiisa
--msiisu
--msoo
--msuu
--mte
--mtee
--mtetti
--mti
--mtoonni
--mtoota
--mtootaa
--mtu
--mtuu
--mu
--mudha
--mun
--mus
--mutti
--muu
--muuf
--muun
--my
--n
--na
--naa
--naan
--nachuu
--nan
--nce
--nces
--nd
--nda
--ndarri
--ndi
--ndii
--nds
--ne
--nedha
--nee
--neef
--neen
--nel
--nen
--ner
--nes
--ness
--ng
--nga
--ngaa
--nger
--ngii
--ngs
--ni
--nia
--nic
--nicha
--nie
--nif
--nii
--niidha
--niif
--niifi
--niin
--niiru
--niis
--nin
--nis
--nisaa
--nitti
--nium
--niyaa
--niyyuu
--nji
--nk
--nn
--nna
--nnaa
--nnaan
--nne
--nnee
--nneen
--nnetti
--nni
--nnii
--nnoo
--nnu
--no
--nonni
--noo
--noon
--nootni
--nos
--nota
--notaa
--ns
--nsa
--nsaa
--nsen
--nsi
--nsii
--nson
--nsu
--nt
--nta
--ntaa
--nte
--nti
--ntii
--ntly
--nts
--ntu
--ntuu
--nu
--numma
--nuu
--ny
--nya
--nyi
--nyii
--nz
--o
--oa
--od
--oftu
--ography
--ogy
--ojiin
--ok
--ol
--ole
--olo
--om
--oma
--ome
--omic
--omse
--omsu
--on
--onga
--oni
--onii
--onni
--ons
--oo
--oojii
--oon
--ooni
--oonni
--oos
--oota
--ootaa
--ootni
--op
--opaa
--ope
--or
--orm
--os
--ose
--osis
--ot
--ota
--otaa
--oti
--otni
--otta
--otti
--ought
--our
--ous
--ov
--ove
--ow
--ozoa
--p
--phic
--phy
--pi
--pii
--port
--ppe
--ppii
--ps
--pt
--pterii
--q
--qa
--qaa
--qan
--qee
--qi
--qii
--qne
--qo
--qoo
--qota
--qqa
--qqee
--qqi
--qqoo
--qsa
--qsee
--qu
--quu
--quun
--qxee
--qxi
--qxu
--r
--ra
--raa
--raan
--raatti
--raf
--ral
--ran
--raphy
--ras
--rate
--rati
--ratii
--ration
--ratti
--rchy
--rd
--rdi
--rdii
--rdin
--rdis
--re
--ree
--reen
--reeti
--ren
--res
--rfama
--rfatan
--rfi
--rg
--rgis
--ri
--ria
--rial
--ric
--richa
--rie
--ries
--rif
--rii
--riin
--rin
--ris
--ritti
--rium
--riya
--rk
--rki
--rlii
--rn
--rns
--ro
--ronni
--roo
--roon
--rota
--rr
--rra
--rraa
--rraan
--rran
--rrati
--rratti
--rrattis
--rre
--rren
--rri
--rrii
--rru
--rruu
--rry
--rs
--rsa
--rsee
--rsi
--rsoo
--rsu
--rsuu
--rt
--rtan
--rte
--rten
--rti
--rtoota
--rtu
--rtuu
--ru
--ruma
--rumma
--rus
--ruu
--ruun
--ry
--s
--sa
--saa
--saaf
--saan
--saanii
--saarra
--saarraa
--saas
--saati
--saatiin
--saatti
--saatu
--san
--se
--sed
--see
--seen
--sel
--sen
--senis
--ser
--serii
--ses
--sh
--sha
--shaa
--shee
--sheef
--shii
--shin
--sho
--si
--sia
--sian
--sii
--siin
--siisa
--siise
--siistu
--siisu
--siisuu
--siisuuf
--siisuun
--sik
--sin
--sinee
--sinu
--sisaa
--sisu
--sisuu
--site
--sity
--sive
--sk
--sl
--sm
--sne
--sni
--snu
--so
--sols
--son
--sonni
--soo
--soon
--sota
--ss
--ssa
--ssaa
--ssaaf
--ssaan
--ssanii
--sse
--ssee
--ssi
--ssisee
--ssitoota
--sso
--ssoo
--ssoon
--ssu
--ssuma
--ssuu
--ssuuf
--ssuun
--st
--ste
--stee
--ster
--sters
--sti
--stii
--ston
--stonni
--stu
--stuu
--sty
--su
--suf
--suma
--summa
--sun
--sus
--suu
--suuf
--suun
--suus
--sy
--t
--ta
--taa
--taafi
--tal
--tama
--tamaa
--tame
--tamu
--tan
--tanii
--taniif
--tarian
--tary
--tation
--te
--ted
--tedha
--tee
--teef
--teera
--teetti
--ter
--tera
--terii
--terraa
--tes
--tetti
--th
--ti
--tic
--tichaa
--tichi
--ties
--tif
--tifii
--tii
--tiif
--tiifii
--tiik
--tiin
--tiinan
--tiinin
--tiinis
--tiis
--tiitti
--tik
--tikii
--tin
--tiniin
--tion
--tions
--tis
--titti
--titu
--tive
--tnee
--tni
--tnii
--to
--ton
--tonni
--too
--toonni
--toota
--tor
--tors
--tory
--tota
--totni
--totta
--tra
--ts
--tt
--tta
--ttaa
--ttan
--ttanii
--tte
--ttee
--tti
--ttii
--ttiin
--ttillee
--ttin
--ttis
--ttoo
--ttoon
--ttoonni
--ttoota
--ttootaa
--ttota
--ttti
--ttu
--ttuu
--ttuun
--tu
--tudha
--tuma
--tummaa
--tutti
--tuu
--tuudha
--tuuf
--tuun
--ty
--tz
--u
--ua
--uba
--uck
--ude
--udha
--udhan
--udii
--ue
--uf
--ufi
--ufii
--ufis
--uga
--ul
--ular
--ult
--um
--uma
--umaa
--ummaa
--ummaan
--umti
--un
--una
--uqu
--ur
--ure
--uri
--urii
--us
--ut
--uta
--uti
--utii
--utti
--utu
--uu
--uuf
--uun
--v
--va
--ve
--ved
--ver
--ves
--vii
--w
--wa
--waa
--waan
--wan
--ways
--we
--wee
--wi
--wii
--win
--wn
--wo
--woo
--woota
--wos
--ws
--wska
--wu
--wus
--wuu
--wwaa
--wwaan
--wwadhe
--wwama
--wwamu
--wwan
--wwanii
--wwaniif
--wwata
--wwatte
--wwee
--wwii
--x
--xa
--xe
--xi
--xii
--xis
--xoo
--xxuu
--y
--ya
--yaa
--yaaf
--yadhee
--yan
--yatan
--ycin
--yduu
--ye
--yee
--yeem
--yeemi
--yi
--yidii
--yii
--yiin
--yik
--yim
--yin
--yis
--yn
--yni
--yo
--yoo
--ype
--ys
--ysa
--yt
--yte
--yu
--yuu
--yxe
--yya
--yyaa
--yyan
--yye
--yyee
--yyi
--yyii
--yyoo
--yyu
--yyuu
--z
--zdi
--ze
--zed
--zee
--zen
--zi
--zii
--zimii
--zimiin
--zin
--zoa
--zoo
--zoon
--ʊ
--η
--ι
--а
--ا
--ب
--ة
--ت
--د
--ر
--ض
--عد
--ل
--لة
--م
--مة
--ن
--ورية
--ى
--ي
--يل
--ሁለት
--ለም
--ሉ
--መቀላቀያ
--ሚለው
--ም
--ሩ
--ር
--ስ
--ቅ
--ተገኙ
--ተፈጥሮ
--ት
--ትስ
--ን
--ኛውም
--አር
--አይ
--ኤም
--ው
--ውሃ
--ውስትራሊያዊው
--ውን
--ዎች
--ያ
--ድ
--ግምት
