!
"
#
##0
##1
##10
##11
##12
##13
##14
##15
##16
##17
##18
##19
##2
##20
##21
##22
##23
##24
##25
##26
##27
##28
##29
##3
##30
##31
##32
##33
##34
##35
##36
##37
##38
##39
##4
##40
##41
##42
##43
##44
##45
##46
##47
##48
##49
##5
##50
##51
##52
##53
##54
##55
##56
##57
##58
##59
##6
##60
##61
##62
##63
##64
##65
##66
##67
##68
##69
##7
##70
##71
##72
##73
##74
##75
##76
##77
##78
##79
##8
##80
##81
##82
##83
##84
##85
##86
##87
##88
##89
##9
##90
##91
##92
##93
##94
##95
##96
##97
##98
##99
$
%
&
'
(
)
*
+
,
-
.
/
0
00
000
001
003
0050
007
01
02
03
04
05
06
07
08
09
1
10
100
1000
1002
1007
101
1016
102
103
1038
104
105
1050
106
107
108
1080
109
11
110
1100
1101
111
1111
112
113
1134
114
115
1154
116
117
118
1180
1185
1186
119
1198
12
120
1200
1201
1204
1205
1206
1207
1208
1209
121
1210
1211
1212
1213
1214
1215
1216
1217
1218
1219
122
1220
1221
1223
1224
1225
1226
1227
1228
1229
123
1230
1231
1232
1234
1236
1237
1238
1239
124
1240
1241
1242
1245
1248
125
1250
1251
1252
1253
1254
1255
1259
126
1260
1261
1262
1263
1264
127
1270
1279
128
1280
1282
1285
129
1290
1297
1298
13
130
1300
131
132
1323
1326
133
1330
134
1340
1341
1342
1345
135
1350
136
1360
1365
1368
137
1370
1377
138
1380
1382
1385
1386
1389
139
1392
1397
1399
14
140
1400
141
1410
1413
1415
1419
142
1420
1422
143
1430
1432
1435
144
1440
145
1450
1452
1453
146
1466
147
1471
148
1480
1481
1483
149
1492
1494
1495
1499
15
150
1500
1501
1502
1503
151
1510
1512
1514
1515
1516
1517
1519
152
1520
1521
1522
1523
1524
1525
1526
1527
1529
153
1530
1533
1534
1535
1536
154
1540
1541
1542
1543
1547
155
1550
1552
1553
1554
1555
1556
1557
1558
1559
156
1560
1561
1562
1563
1564
1565
1566
1567
1568
1569
157
1570
1571
1572
1573
1574
1575
1576
1577
1578
1579
158
1580
1581
1582
1583
1584
1585
1586
1587
1588
1589
159
1590
1592
1593
1594
1595
1596
1598
1599
16
160
1600
1601
1602
1603
1604
1605
1606
1608
1609
161
1610
1611
1612
1614
1615
1616
1617
1618
1619
162
1620
1621
1622
1623
1624
1625
1626
1627
1628
1629
163
1630
1631
1632
1633
1634
1635
1636
1637
1638
164
1640
1642
1643
1644
1645
1646
1648
1649
165
1650
1651
1652
1653
1654
1655
1656
1657
1658
1659
166
1660
1661
1662
1663
1664
1665
1666
1667
1668
1669
167
1670
1672
1674
1675
1676
1677
1678
1679
168
1680
1681
1682
1683
1684
1685
1686
1687
1688
1689
169
1690
1691
1692
1693
1694
1695
1696
1697
1698
1699
17
170
1700
1701
1702
1703
1704
1705
1706
1707
1708
1709
171
1710
1711
1712
1713
1714
1715
1717
1718
1719
172
1720
1721
1722
1723
1724
1725
1726
1727
1728
1729
173
1730
1731
1732
1733
1734
1735
1736
1737
1738
1739
174
1740
1741
1742
1743
1744
1745
1746
1747
1748
1749
175
1750
1751
1752
1753
1754
1755
1756
1757
1758
1759
176
1760
1761
1762
1763
1764
1765
1766
1767
1768
1769
177
1770
1771
1772
1773
1774
1775
1776
1777
1778
1779
178
1780
1781
1782
1783
1784
1785
1786
1787
1788
1789
179
1790
1791
1792
1793
1794
1795
1796
1797
1798
1799
18
180
1800
1801
1802
1803
1804
1805
1806
1807
1808
1809
181
1810
1811
1812
1813
1814
1815
1816
1817
1818
1819
182
1820
1821
1822
1823
1824
1825
1826
1827
1828
1829
183
1830
1831
1832
1833
1834
1835
1836
1837
1838
1839
184
1840
1841
1842
1843
1844
1845
1846
1847
1848
1849
185
1850
1851
1852
1853
1854
1855
1856
1857
1858
1859
186
1860
1861
1862
1863
1864
1865
1866
1867
1868
1869
187
1870
1871
1872
1873
1874
1875
1876
1877
1878
1879
188
1880
1881
1882
1883
1884
1885
1886
1887
1888
1889
189
1890
1891
1892
1893
1894
1895
1896
1897
1898
1899
19
190
1900
1901
1902
1903
1904
1905
1906
1907
1908
1909
191
1910
1911
1912
1913
1914
1915
1916
1917
1918
1919
192
1920
1921
1922
1923
1924
1925
1926
1927
1928
1929
193
1930
1931
1932
1933
1934
1935
1936
1937
1938
1939
194
1940
1941
1942
1943
1944
1945
1946
1947
1948
1949
195
1950
1951
1952
1953
1954
1955
1956
1957
1958
1959
196
1960
1961
1962
1963
1964
1965
1966
1967
1968
1969
197
1970
1971
1972
1973
1974
1975
1976
1977
1978
1979
198
1980
1981
1982
1983
1984
1985
1986
1987
1988
1989
199
1990
1991
1992
1993
1994
1995
1996
1997
1998
1999
2
20
200
2000
2001
2002
2003
2004
2005
2006
2007
2008
2009
201
2010
2011
2012
2013
2014
2015
2016
2017
2018
2019
202
2020
2021
2022
2023
2024
2025
203
2030
204
205
206
207
208
209
21
210
2100
211
212
213
214
215
216
217
218
219
22
220
2200
221
222
223
224
225
226
227
228
229
23
230
2300
231
232
233
234
235
236
237
238
239
24
240
2400
241
242
243
244
245
246
247
248
249
25
250
2500
251
252
253
254
255
256
257
258
259
26
260
2600
261
262
263
264
265
266
267
268
269
27
270
271
272
273
274
275
276
277
278
279
28
280
281
282
283
284
285
286
287
288
289
29
290
291
292
293
294
295
296
297
298
299
3
30
300
3000
301
302
303
304
305
306
307
308
309
31
310
311
312
313
314
315
316
3166
317
318
319
32
320
321
322
323
324
325
326
329
33
330
331
333
334
335
336
338
34
340
343
344
345
35
350
3500
354
355
356
358
36
360
365
37
370
371
375
376
38
380
383
384
386
387
388
39
390
395
4
40
400
4000
401
402
404
405
406
407
41
410
415
42
420
429
43
430
433
44
440
45
450
4500
46
460
47
470
475
48
480
49
490
5
50
500
5000
501
502
51
512
52
520
525
53
530
54
540
55
550
56
560
57
570
58
580
59
6
60
600
6000
61
610
62
63
630
639
64
640
65
650
66
660
67
68
680
69
7
70
700
7000
71
72
720
727
73
737
74
747
75
750
757
76
77
78
79
8
80
800
8000
802
81
82
83
84
85
850
86
87
870
88
880
89
9
90
900
9000
91
911
92
93
94
95
950
96
960
97
978
98
99
9984
999
:
;
<
=
>
?
@
\
^
_
`
a
aa
aae
aas
ab
aba
abas
abatija
abava
abavas
abba
abc
abe
abha
abi
abiem
abies
abinieki
abiniekiem
abinieku
abinskas
abl
able
abone
aborige
abos
about
abpus
abpuse
abra
abrahams
abrene
abrenes
abreviatu
abs
absolu
absolve
absolventi
absolventu
absorbcijas
absorbe
abstrakta
abu
abus
ac
academia
academic
academy
access
accessed
account
accounts
acf
aci
acid
acis
acp
acrocephalus
across
acs
act
acta
acteku
action
active
acu
ad
ada
adam
adamovic
adams
adamsa
adamss
adapta
adapte
adas
adata
adatas
adatu
add
ade
adi
adjutants
adler
administra
administrati
administratora
administratori
administratoriem
administrators
administratoru
administre
admira
admiral
adolf
adopte
adres
adresa
adrese
adreses
adresi
adria
adrians
adrijas
ads
adu
advance
advanced
adventures
advoka
adw
adz
ae
aed
aeronautikas
aes
af
afc
afe
afga
afganista
africa
african
afrika
afroamerika
afrodi
after
ag
aga
again
against
agaricus
agars
agata
agatas
agatu
age
agena
agency
aglomera
aglona
aglonas
agnese
agra
agrega
agresi
agresiju
agri
agris
agrisr
agro
agronoms
agrostis
ah
aha
ahista
ahiste
ahistes
ahisti
ahistiem
ahists
ahistu
ahl
ahmeda
ahmeds
ahs
ahta
ahtas
ahu
ai
aicina
aicinot
aidi
aids
aigars
aija
aikovska
ain
aina
ainais
ainars
ainas
ainava
ainavas
ainavu
ainaz
aini
aino
ainos
ains
ainu
air
airbaltic
airbus
aire
airi
airka
airlines
airways
ais
aita
aitas
aitu
aivara
aivars
aivaru
aiviekste
aiviekstes
aiz
aiza
aizaugus
aizbe
aizbrauca
aizdedzina
aizdevumu
aizdoma
aizdomas
aizdomi
aizga
aizgu
aizies
aiziet
aizju
aizkalnes
aizkauka
aizkave
aizkla
aizkraukle
aizkraukles
aizkun
aizliedz
aizliedza
aizliegt
aizliegta
aizliegtas
aizliegts
aizlieguma
aizliegums
aizliegumu
aizmaini
aizmetn
aizmirst
aizmugure
aizmugures
aizmuguri
aizn
aizpilda
aizpildi
aizpute
aizputes
aizra
aizraus
aizsa
aizsardzi
aizsarga
aizsarggra
aizsargi
aizsargiem
aizsargmu
aizsargs
aizsargu
aizsle
aizsprosts
aizsta
aizsu
aizture
aizva
aizvada
aizvadi
aizvadot
aizve
aizved
aizveda
aizvien
aizvieto
aizvietoja
aizvietojot
aizvietos
aizvietot
aizvietota
aizvietots
aja
ajai
ajam
ajax
ajevs
ajiem
ajos
ak
aka
akade
akalna
akalns
akas
akcente
akcepte
akcija
akcijas
akciju
akciona
aki
akla
aklais
akli
akmen
akmeni
akmens
akmentin
akna
akni
aknu
akomo
akova
akovs
akredita
akredite
akroba
akroni
aks
aksels
akste
akstes
aksti
akta
akti
aktiem
aktiera
aktieri
aktieriem
aktieris
aktierma
aktierspe
aktieru
aktive
aktivita
aktivize
aktos
aktrise
aktrises
aktrisi
akts
aktu
aktua
aktualita
aktualize
aktus
aku
akumulatoru
akura
akustiska
akva
akvarel
akvita
al
ala
alan
alans
alas
alba
albe
albert
alberta
albertam
alberto
alberts
albertu
albi
albion
albrehts
album
albuma
albumam
albumi
albumiem
albumos
albums
albumu
albumus
alcatel
aldehi
aldis
ale
alehandro
aleiroli
aleja
alejas
aleks
aleksandars
aleksanders
aleksandra
aleksandram
aleksandrija
aleksandrijas
aleksandrs
aleksandru
alekseja
aleksejs
alekseju
aleksis
alekss
alenia
alerg
alesandro
alexander
alfa
alfabe
alfons
alfonso
alfre
alfred
alfreda
alfreds
alga
algas
algebra
algiris
algonkinu
algoritma
algoritmi
algoritms
algoritmu
algotn
algu
ali
alianse
alianses
aliansi
align
alise
alive
alk
alka
alkaloi
alkohola
alkoholisko
alkoholu
alks
alksnis
all
alla
allaz
alle
allen
allens
alliance
allmusic
allsvenskan
alma
almati
alnas
alnis
aloizs
alojas
alona
alonso
alota
alpha
alpi
alpos
alpu
als
also
alsunga
alsungas
alsvik
alt
alta
altaja
altbergs
alternati
alternative
alu
alumi
aluna
alus
alvas
alvis
alz
am
ama
amais
amaja
amanda
amanita
amas
amata
amatam
amatas
amati
amatiem
amatieru
amatnieci
amatnieki
amatnieku
amatos
amatpersona
amatpersonas
amatpersonu
amats
amatu
amatus
amazon
amazones
ambel
amber
ambi
ame
america
american
amerika
amerikas
ameriku
amfetami
amfitea
ami
amie
aminoska
amins
amo
among
amonija
amonjaka
amos
ampe
ampi
amplitu
ams
amsterdam
amsterdama
amsterdamas
amtmanis
amu
amur
an
ana
anahaimas
anai
anali
analize
analog
analoga
analogs
analysis
anas
anastasija
anatolija
anatolijas
anatolijs
anatomija
anatomijas
anc
anca
ance
ances
ancient
and
anda
andalu
anderlecht
andersens
anderson
andersona
andersons
anderss
andes
andi
andora
andra
andre
andrea
andreas
andreass
andreja
andrejam
andrejevs
andrejs
andreju
andreti
andrew
andri
andrievs
andris
android
andrupenes
andu
andz
andzel
ane
aneiro
aneksijas
anekte
anete
anga
angel
angeles
angels
angl
anglija
anglijas
angliju
anglika
angliski
anglosaks
angne
angola
angolas
anhaja
anhajas
anhidri
ani
anima
animal
animals
animation
anime
anis
anita
anka
ankara
ankla
anna
annai
annas
anne
anni
annin
anno
annu
annual
ano
anoma
anoni
anos
another
anra
anri
anros
anrs
anru
ans
ansambl
ansambli
ansamblis
anser
ansi
ansis
anta
antantes
antarctic
antarctica
antarkti
antarktika
antarktikas
antarktiska
ante
antena
antenas
antenu
anthony
anthus
anti
anticiklona
anticiklons
antige
antil
antisemi
antivielas
antivielu
antolog
anton
antona
antonesku
antoni
antonija
antonijs
antonio
antons
antra
antropolog
antropologs
ants
antua
antverpene
antverpenes
anu
anule
any
anz
ao
ap
apaks
apal
apara
aparatu
aparka
aparks
apaugl
apaugus
apavu
apbalvoja
apbalvojumi
apbalvojums
apbalvojumu
apbalvojumus
apbalvos
apbalvota
apbalvoti
apbalvotie
apbalvots
apbedi
apbri
apbrun
apbu
apcel
apcere
apcietina
apda
apdare
apdares
apdomas
apdraud
apdraude
apdros
apdzi
ape
apela
apelsi
apeni
apes
apg
apga
apgabala
apgabalam
apgabali
apgabaliem
apgabalos
apgabals
apgabaltiesa
apgabaltiesas
apgabalu
apgabalus
apgaismi
apgaismojuma
apgaismojums
apgaismojumu
apgaismos
apgalvo
apgalvoja
apgalvojot
apgalvojums
apgalvojumu
apgalvots
apglaba
apgries
apgriezienu
apgriezta
apgrozi
apgru
apgu
apguva
apguvi
apguvis
api
apin
apinis
apiocera
apjoma
apjomi
apjoms
apjomu
apka
apkaime
apkaimes
apkaimi
apkakles
apkalpe
apkalpei
apkalpes
apkalpi
apkalpo
apkalpoja
apkalpojos
apkalpos
apkaros
apkopo
apkopoja
apkopojums
apkopos
apkopot
apkopota
apkopotas
apkopoti
apkures
apl
aplaupi
aple
apledojums
aplenca
aplenkuma
aplenkums
aplenkumu
apli
aplieci
apliecina
aplis
aploksne
aplu
apm
apma
apmain
apmaini
apmaksa
apmatojuma
apmatojums
apme
apmekle
apmes
apmesties
apmeta
apmetas
apmetn
apmetne
apmetnes
apmetni
apmetus
apmierina
apn
apollo
apple
application
applications
applu
appludina
apprece
apputeksne
apr
apra
apraides
apraksta
apraksti
aprakstos
aprakstot
apraksts
aprakstu
apre
apri
april
aprin
aprinda
aprite
aprobez
apru
aps
apsaimniekos
apsardze
apsardzes
apsardzi
apsarga
apse
apsi
apskalo
apskata
apskatei
apskates
apskati
apskats
apsle
apsoli
apspalvojuma
apspalvojums
apspalvojumu
apspieda
apspies
apspiest
apsprieda
apspriede
apspries
apspriez
apsr
apsta
apsteidza
apsteidzot
apstiprina
apstra
apstri
apsu
apsve
aptauja
aptaujas
aptauju
aptieka
aptumsums
aptur
apture
aptuvena
aptuveni
aptve
aptver
apu
apustul
apva
apvainoja
apvalka
apvalks
apvalku
apve
apvedcel
apvelti
apvidos
apvidu
apvidus
apvieni
apvieno
apvienoja
apvienojas
apvienojot
apvienojoties
apvienojums
apvienojus
apvienos
apvienot
apvienota
apvienotais
apvienotaja
apvienotas
apvienoti
apvienotie
apvienoties
apvienoto
apvienots
apvienotu
apz
apzi
apzin
apzina
aquila
ar
ara
aragonas
aranz
arauka
arbitra
arc
archicad
architecture
archive
archives
arcs
arctic
arctos
arda
arde
ards
ardu
are
area
arena
aresta
areste
argenti
argosas
arhangel
arheolog
arheologi
arheologs
arheologu
arhi
arhibi
arhidiece
arhime
arhipela
arhitekta
arhitekti
arhitektiem
arhitekts
arhitektu
arhive
ari
aria
ariane
aristokra
aristotel
aristotelis
aritme
arizona
arizonas
arka
arkas
arkive
arklu
arktika
arktikas
arktiska
arktiskais
arktiskaja
arku
arla
arlotas
arlote
arlotes
arls
arm
arma
armands
armatu
arme
armija
armijai
armijas
armiju
armin
arms
army
arnis
arno
arnold
arnolda
arnolds
arodbiedri
aroma
aronas
around
arrondissement
arrows
ars
arse
arsena
arsenal
art
arta
arte
artemi
arteria
arthur
article
articles
artikula
artile
artis
artists
artjoms
arts
artu
artura
arturs
aru
arveds
arvi
arvien
as
asa
asambleja
asamblejas
asara
asares
asari
asaris
asaru
asas
ascii
asfalta
asfaltbetona
asfalte
asi
asia
asian
asiem
asij
asijas
asimile
asin
asini
asinis
asins
asinsrites
asinsvadu
asinsza
asis
asistents
asistentu
ask
aska
askas
aske
asku
asmen
asmens
aso
asocia
asocie
asp
aspazija
aspazijas
aspekti
aspektiem
aspekts
aspektus
aspirantu
aspx
ass
associated
association
astafjevs
astana
astanas
aste
asteroi
astes
asti
astins
aston
astota
astotais
astotdal
astoto
astra
astrahan
astri
astrolog
astronaut
astronauti
astronauts
astronautu
astronomi
astronomija
astronomijas
astronomiska
astronoms
astu
asu
asv
at
ata
atalanta
atalgojumu
atas
atbalss
atbalsta
atbalstam
atbalsti
atbalstos
atbalstot
atbalsts
atbalstu
atbild
atbilda
atbilde
atbildes
atbildi
atbildot
atbilst
atbilsti
atbilstos
atbilstu
atbri
atbrun
atce
atcel
atcels
atcelt
atcelta
atceltas
atcelti
atcelts
atceras
atcere
atceres
atdala
atdali
atdalot
atdarina
atdeva
atdod
atdos
atdot
atdota
atdz
atdzese
atdzi
atdzims
atdzisa
ate
atenta
atf
atga
atgadi
atgries
atgriez
atgrieza
atgriezeniska
atgriezi
atgriezies
atgriezt
atgriezties
atgriezus
atgru
atgu
atguva
athens
athletic
aties
atiet
atis
atjaunina
atjauno
atjaunoja
atjaunojot
atjaunos
atjaunot
atjaunota
atjaunotaja
atjaunotas
atjaunoti
atjaunots
atjaunotu
atka
atkal
atkalapvienos
atkari
atkaroja
atkas
atkla
atkritumi
atkritumiem
atkritumu
atkus
atkusnis
atl
atlaida
atlais
atlaist
atlaists
atlaiz
atlant
atlanta
atlantas
atlanti
atlantic
atlantijas
atlantis
atlants
atlas
atlase
atlases
atlasi
atle
atletico
atli
atliek
atlieka
atliekas
atlikt
atlikta
atlikus
atlikusi
atlu
atm
atmaksa
atmatene
atmatenes
atmin
atmoda
atmodas
atmosfe
atn
atna
atnesa
atnesot
atoma
atomelektrostacija
atomenerg
atomi
atomiem
atoms
atomskaitli
atomu
atomus
atp
atpakal
atpaliekot
atpalika
atpazi
atpu
atra
atrada
atradi
atradies
atradis
atradn
atradne
atradnes
atradumi
atradus
atradusies
atraitne
atraitni
atrakciju
atras
atrast
atrasta
atrastas
atrasti
atrasties
atrasto
atrastos
atrasts
atrastu
atribu
atriebe
atriebi
atrisina
atrod
atrodama
atrodamas
atrodami
atrodams
atrodas
atrodos
atrodoties
atruna
ats
atsa
atsaci
atsaka
atsakoties
atsauc
atsauca
atsaucas
atsauce
atsauces
atsauci
atsaucoties
atsauks
atsauksmes
atsavina
atsegumi
atsegums
atsevis
atsita
atskaite
atskaites
atskaiti
atskan
atsla
atsle
atspe
atsperes
atspogul
atsta
atstaros
atsu
atsves
atta
attack
atte
atteica
atteicies
atteiks
atteikties
atteka
atti
attieca
attiecas
attieci
attiecina
attieksme
attieksmi
attiekties
atture
atturi
atu
atv
atva
atvadu
atvairi
atval
atvasina
atve
atveda
atveido
atveidoja
atveidojis
atveidojot
atveidos
atveidota
atver
atveras
atvere
atveres
atveri
atverot
atvesel
atvieglo
atviegloja
atvieglotu
atvienoja
atvienos
atvienots
atzara
atzars
atzaru
atzi
atzin
atzina
atzini
atzinus
atzinusi
au
auba
aubas
aubi
auce
auces
auda
aude
audes
audi
audiem
audio
audis
auditorija
auditorijai
auditorijas
auditoriju
audonas
audos
audrin
audu
auduma
audumu
audz
audze
audzes
audzina
audzis
auf
aug
auga
augam
augi
augiem
augl
augli
auglis
augos
augot
augs
augsne
augsnes
augsni
augsta
augstais
augstaja
augstas
augstceltne
augstceltnes
augsti
augstie
augstiem
augstiene
augstienes
augstieni
augstkalnes
augstkalnu
augstle
augstman
augsto
augsts
augstskola
augstskolas
augstskolu
augstsprieguma
augstu
augstuma
augstumam
augstums
augstumu
augstus
augstve
augt
augu
auguma
augums
augumu
augus
august
augusta
augustam
auguste
augusti
augusts
augustu
auj
auja
aujama
aujamieroc
aujas
aujot
aujoties
auju
auk
auks
auksi
auksle
auksta
aukstais
auksto
auksts
aukstuma
aul
aula
aulas
aulejas
aulu
auna
aunas
aundabi
aunes
aunpra
aunu
aunuma
aunumu
aura
auras
aure
auri
aurina
aurora
aurs
aursliez
auru
auruma
aurumi
aurums
aurumu
aus
ausekl
auseklis
ausi
ausis
ausma
ausmas
ausmu
auss
austin
austra
australia
australian
austras
austria
austries
austrija
austrijas
austriju
austrounga
austruma
austrumantarkti
austrumdal
austrumeiropa
austrumeiropas
austrumi
austrumiem
austrumindijas
austrumlatvijas
austrumos
austrumpru
austrumromas
austrums
austrumsibi
austrumu
austrumus
austrumva
ausu
aut
auta
autaja
autajiem
autas
autene
autenes
auteni
autentifice
autentifika
auti
autie
auties
autn
autne
autnes
auto
autoava
autobiogra
autobu
autobusa
autobusi
autobusiem
autobuss
autobusu
autocad
autocel
autodesk
automa
automag
automas
automatic
automatiza
automatize
automobil
automobili
automobilis
autonoma
autonomais
autonomaja
autonomija
autonomijas
autonomiju
autonomo
autonomu
autoosta
autora
autoram
autoraz
autore
autori
autoriem
autorita
autors
autortiesi
autoru
autosaci
autosporta
autosportisti
autosportists
autosta
autotransporta
auts
autu
auz
auza
auzin
auzu
av
ava
available
avalanche
avangard
avangarda
avare
avas
ave
aven
aves
avi
avia
avibase
avin
aviokatastrofa
aviokompa
aviosabiedri
avnieku
avota
avoti
avotiem
avotin
avotos
avots
avotu
avotus
avu
award
awards
away
ax
az
aza
azam
azartspe
azerbaidz
azi
aziem
aziste
azistes
azisti
azoru
azovas
azs
azu
b
ba
babi
babic
babilonijas
baby
back
bad
bada
bads
badu
bafina
bafta
baga
bagare
bagda
bagu
baha
bahamu
bahreinas
bahs
bai
baiba
baida
baidens
baidi
baidoties
baika
baikonuras
bail
baile
bailes
baisulis
baitu
baja
baka
bakalaura
baker
baks
bakte
baku
bal
bala
balas
balasta
baldone
baldones
baldui
baleta
baletdejota
balets
balka
ball
balle
balles
balli
balodi
balodis
balona
balonu
baloz
balsi
balsis
balso
balsoja
balsojot
balsojuma
balsojums
balsojumu
balsos
balsot
balsota
balss
balsstiesi
balsta
balsti
balstoties
balsu
balta
baltactin
baltais
baltaja
baltajiem
baltas
baltastes
baltezera
baltezers
baltgalvas
balti
baltic
baltica
baltie
baltiem
balties
baltija
baltijas
baltiju
baltimore
baltin
baltinavas
baltische
baltischen
baltisches
baltkrievi
baltkrievija
baltkrievijas
baltkrieviju
baltkrievu
balto
balts
baltu
balva
balvai
balvas
balvi
balviem
balvos
balvu
bam
ban
bana
band
banda
bandas
bandi
bandinieka
bandinieks
bandinieku
banglades
bank
banka
bankai
bankas
banknotes
bankrota
bankrote
banku
banska
baptistu
bar
bara
baraka
baraks
baram
barbara
barbarosa
barbaru
barcelona
barenca
barga
bari
barika
barikello
baris
barjera
barjeras
barjerskre
barjeru
barka
barkavas
baro
barojas
barojoties
baroka
baron
barona
barons
baronu
baros
baroties
bars
barselona
barselonas
baru
barus
barz
bas
basa
base
based
baseina
baseins
baseinu
basel
basg
basic
basket
basketball
basketbola
basketbolista
basketboliste
basketbolisti
basketbolists
basketbolistu
basketbols
basketbolu
basku
bass
bat
bataljona
bataljonam
bataljoni
bataljoniem
bataljons
bataljonu
bataljonus
baterija
baterijas
bateriju
batista
batons
batorijs
battle
batumi
bauda
baudi
bauers
bauman
baumanis
baumas
baus
bauska
bauskas
bava
bay
bayer
bayern
baz
baza
bazi
bazilika
bazilikas
bazni
bb
bbc
bc
bd
be
beach
bear
bears
beatles
beautiful
beberbek
bebrenes
bebri
bebris
bebrs
bebru
bec
because
becker
bedre
bedri
been
before
begin
behavior
behaviour
behind
bei
beidou
beidz
beidza
beidzas
beidzies
beidzis
beidzot
beidzoties
beiga
beigas
beigs
beigsies
beigt
beigu
beigus
beigusi
beigusies
being
beisbola
bejs
bek
beka
bekas
beker
bekl
bekli
beklis
beks
beku
bekvoka
bel
bela
belarus
bele
beles
belgrada
belgradas
beli
bell
bella
bells
bels
ben
bena
bendz
benedikts
benes
benetton
benfica
benga
benito
benjamin
benjamins
bens
benz
benzi
benzola
ber
bera
berberu
berc
berg
berga
bergamo
bergman
bergmanis
bergs
berija
berijs
beringa
berk
berli
berlin
bermonta
bermontia
bermonties
berna
bernard
bernards
berne
bernes
bernhards
bers
berta
berts
berze
berzes
bes
besara
best
bet
beta
betmens
betona
better
between
beveri
beyond
bez
bezdarba
bezdeli
bezgali
bezje
bezkra
bezmaksas
bezmugurkaulnieki
bezmugurkaulniekiem
bezmugurkaulnieku
beznoteces
bezpel
bezpilota
bezvadu
bezvaini
bezve
bezzemnieku
bf
bfc
bha
bi
biafra
biatlona
biatloniste
biatlonisti
biatlonists
bibliogra
bibliote
biblioteka
bic
biedra
biedre
biedri
biedriem
biedrin
biedrs
biedru
biedrus
bierin
bies
biez
bieza
biezas
biezi
biezs
biezu
biezuma
biezums
biezumu
bifel
big
bij
bija
bijas
bijis
biju
bijus
bijusi
bik
biks
bikstu
bil
bilance
bilbao
bild
bilde
bildes
bill
billboard
billijs
bills
bils
bim
bin
bina
bio
biogra
biography
biok
biol
biolog
biologi
biological
biologs
biology
biomedici
biosfe
biotehnolog
biotopi
biotopos
biotopu
bird
birdlife
birds
birg
birmas
biroja
biroji
birojs
biroju
birokra
biruta
birz
birzgales
bis
bisi
bistricas
bit
bite
bites
biti
bits
bitu
bizanties
bizantija
bizantijas
biznesa
bizness
biznesu
bj
bja
bje
bji
bjot
bju
bk
bl
bla
black
blackhawks
blagonadez
blaks
blakus
blakuspara
blauman
blaumanis
blaus
blazers
ble
bleidelis
bleiks
bli
block
blogs
blok
bloka
bloki
bloks
bloku
blood
blu
blua
blue
blues
bluk
blumbergs
bm
bmatrix
bmw
bmx
bniec
bniece
bnieces
bnieka
bniekam
bnieki
bniekiem
bnieks
bnieku
bniekus
bns
bo
board
bob
bobcats
bobijs
bobs
bobsleja
bobslejisti
bobslejists
boc
body
boeing
bohe
boikote
boja
bojas
boksa
bokseri
bokseris
bol
bola
boldera
boli
bolin
bologna
bolon
bols
boltin
bolu
bombarde
bon
bonda
bonifa
bono
bonobo
book
books
bora
border
bordo
borisa
boriss
borisu
born
borneo
bors
borta
borussia
bos
bosfora
bosnies
bosnija
bosnijas
boston
bostona
bostonas
bot
bota
botnijas
bots
bottom
botu
botvin
box
boy
boys
boz
br
bra
brac
braiants
braiens
brams
brandenburga
brandenburgas
branta
bras
brasa
brasas
brasla
braslas
braslavas
brastin
bratislava
bratislavas
brauc
brauca
brauce
brauciena
braucieni
braucienos
brauciens
braucienu
braucot
brauks
braukt
brauna
brauns
brazi
brazil
bre
bredlijs
breds
breeding
breiks
bremz
bremze
brenc
brengul
brestas
brestl
brez
bri
bria
brian
bricis
bride
bridge
bridz
briedi
briedis
briesma
briesmas
briesmi
briesmon
briesmu
briez
briga
brigadere
brigu
brin
brisele
briseles
brita
britain
britannica
briti
britiem
british
britu
briz
brjanskas
brno
broce
broka
broks
bron
bronza
bronzas
bronzu
bros
brothers
brown
bru
bruce
brug
bruins
bruklina
bruklinas
brun
bruno
bruta
bs
bsburgs
bsburgu
bspe
bt
btu
bu
buc
bucks
budapes
budapest
budas
budisma
budisms
budistu
budz
buenosairesa
buenosairesas
bufalo
buha
building
bukais
bukareste
bukarestes
buks
bukultu
bul
bulduri
bulduru
bulga
bull
bullets
bulls
bullu
bulon
bulta
bultas
bultu
bulva
bumba
bumbas
bumbiere
bumbin
bumbu
bumbul
bumbvede
bundesarchiv
bundesli
bundzinieks
bundzinieku
bungas
bungu
bura
buras
burbonu
burbul
burgundijas
burka
burkinafaso
burta
burti
burtiem
burtiski
burtni
burtnieku
burts
burtu
burtus
buru
burvesti
burvi
burvis
burvju
burz
bus
business
busulis
but
buta
butterfly
bvalsti
bvalstis
bvalsts
bvalstu
by
bz
c
ca
cad
cai
cakuls
calcio
california
call
cambridge
campaign
campeonato
can
canada
canadarm
canadensis
canadian
canadiens
cancer
candidates
canis
canto
canucks
cap
cape
capital
capitals
capri
car
cara
card
care
cargo
cariste
caristes
carl
carlos
carnikava
carnikavas
carrier
cars
carti
caru
cas
case
cases
cassini
castle
cat
catalogue
category
cathedral
catholic
cauna
caunas
caune
caur
caurcel
cauri
caurlaidi
caurspi
caurteces
caurtek
caurul
caurule
caurules
cauruli
cauruma
caurumu
cavalier
cavaliers
cbalties
cbaltu
cbs
cc
cctld
cd
cdot
cdots
ce
cee
cehs
cei
cekl
ceklis
cekuls
cel
celin
cell
celma
celmin
celms
cels
celt
celta
celtas
celti
celtic
celtics
celtn
celtne
celtnes
celtni
celtnieci
celts
celulozes
cementa
cena
cenas
cens
centa
centaur
centaura
center
centi
centieni
centieniem
centienus
centimetri
centimetriem
centimetru
centimetrus
centra
central
centralize
centram
centrbe
centre
centri
centriem
centros
centrs
centru
centrus
century
cenu
cenzu
cepl
cepli
ceplis
ceps
cepure
cepures
cepuri
cer
cere
ceremonia
ceremonija
ceremonijas
ceremoniju
ceri
cerin
cerot
ceru
ces
cesvaine
cesvaines
ceturdal
ceturksni
ceturta
ceturtais
ceturtaja
ceturtdal
ceturtdiena
ceturto
cf
cgales
ch
cha
challenge
champ
champions
championship
championships
chang
change
changes
channel
chapter
charity
charles
chart
che
chelsea
chemical
chemistry
chess
chessgames
chesstempo
chicago
child
children
china
chinese
chlorops
choice
chris
christian
christmas
christoph
christopher
chrysolina
church
ci
cia
ciblas
cieceres
cielava
ciele
ciema
ciemam
ciemata
ciemati
ciematos
ciemats
ciematu
ciemi
ciemiem
ciemos
ciems
ciemu
ciemus
cien
ciena
cieni
cieniem
ciens
cienu
cies
cieta
cietais
cietas
ciete
cietes
cieti
cietis
cieto
cietoks
cietoksni
cietoksnim
cietoksnis
ciets
cietu
cietuma
cietums
cietumsodu
cietumu
cietus
cietusi
cietvielu
cija
cijai
cijas
cijs
ciju
cik
cika
cikla
ciklona
cikloni
ciklons
ciklonu
cikls
ciklu
cilindra
cilindriska
cilindriskas
cilindrisks
cilindru
cilinskis
cilme
cilmes
cilpa
cilpas
cils
cilti
ciltis
cilts
ciltste
cilv
cilve
cim
cimze
cimzes
cin
cina
cinara
cinematic
cinka
cinot
cins
cio
cip
cipari
cipariem
cipars
ciparu
circ
circus
cirka
cirks
cirkula
cirkule
cirs
cis
ciska
ciskais
ciski
cistercies
cisti
cita
citadele
citai
citam
citas
cite
citi
citiem
citoplazma
citos
citplane
cits
citu
citur
citus
citviet
city
civil
civila
civiliedzi
civiliza
civilo
civiltiesi
cjin
cjinu
ck
ckara
cl
clark
class
classic
classification
claude
clavs
climate
clinical
clippers
club
cm
cn
cna
cnn
cnt
co
coast
coat
coca
code
codes
cola
cole
collas
collection
college
collins
collu
color
columbia
com
come
comedy
comet
comics
commercial
commission
committee
common
commons
communication
communications
community
company
comparative
complete
complex
composers
composite
computer
concacaf
conference
congress
conservation
constellation
construction
contact
contemporary
content
continental
control
cool
cooper
coordinates
copa
coppa
core
corona
corporation
corpus
corvus
cos
cot
coties
could
council
countries
country
county
coupe
court
cov
cover
covid
coyotes
cp
cpusdiena
cr
create
creative
credo
crew
critical
cropped
cross
crows
crs
cruijff
cruise
crystal
cs
cska
cspe
css
ct
ctec
cteci
ctecis
cu
cube
cubesat
cukura
cukurs
cukuru
cultural
culture
cunami
cup
current
cushman
cv
cvk
cycling
cygnus
cz
d
da
daba
dabas
dabasga
dabaspe
dabaszina
dabaszini
dabi
dabiska
dabiskais
dabiskaja
dabiski
dabiskie
dabisko
dabu
dace
dadzi
dagda
dagdas
dagesta
daglass
dai
daiga
dail
dailes
daily
dain
daina
dainas
daini
dainis
daino
dainu
daisma
daisms
daka
dakas
daks
dal
dala
dalasas
dali
dalin
dalma
dalot
dam
dama
damas
dambi
dambis
dambja
dambrete
dambretes
dami
damies
dams
damsons
damu
dan
dana
danc
dance
daniel
daniela
daniels
dans
dara
darba
darbal
darbam
darbari
darbaspe
darbdiena
darbi
darbiem
darbina
darbiniece
darbinieka
darbinieki
darbiniekiem
darbinieks
darbinieku
darbiniekus
darbni
darboja
darbojas
darbojies
darbojos
darbojoties
darbojusies
darbos
darboties
darbotos
darbs
darbu
darbus
dardanel
darela
darels
dari
darina
dark
das
data
database
date
dati
datiem
datora
datoram
datoranima
datorgrafika
datori
datoriem
datorize
datoros
dators
datorsiste
datorspe
datorti
datoru
datorus
datorzina
datos
datu
datuba
datuma
datumi
datums
datumu
datus
daudz
daudza
daudzajiem
daudzas
daudzci
daudzdienu
daudzdzi
daudzfunkciona
daudzgadi
daudzi
daudzie
daudziem
daudzka
daudzo
daudzos
daudzpusi
daudzs
daudzskaitl
daudzskaitli
daudzsolos
daudzsta
daudzstu
daudzu
daudzuma
daudzumos
daudzums
daudzumu
daudzus
daudzveidi
daudzviet
daugava
daugavai
daugavas
daugavgri
daugavpili
daugavpils
daugavu
daugmales
daugul
daumants
dave
david
davids
davis
dawn
day
days
daz
db
dc
dd
de
dead
deal
death
debate
debates
debesi
debesis
debess
debesskra
debesu
debija
debijas
debiju
debitants
debitantu
debite
dec
december
decembra
decembri
decembrim
decembris
decima
dedzes
dedzi
dedzina
deep
default
defici
define
defini
defo
deforma
deforme
deg
deglava
degos
degrade
degs
deguna
degunla
degunradz
degunradzis
deguns
degviela
degvielas
degvielu
dei
deic
deivida
deivids
deividu
deivisa
deiviss
deivs
deja
dejas
dejo
dejota
deju
deka
dekarta
dekl
deklara
deklare
dekli
deklina
deklis
dekora
dekorati
dekore
dekre
deks
del
dele
deleg
delega
delfi
deli
delivery
della
delta
deltas
dem
dema
demenes
demisione
demo
demobilize
demogra
demokra
demonstra
demonstre
demonte
dems
den
dena
dendrolog
dene
denes
deni
denijs
denim
deniss
denjels
dens
densapga
densaugiem
denscel
densdzirnavas
denskra
denskritums
densli
denspolo
denss
densteces
denstilpe
denstilpes
denstilpju
denveras
departamenta
departamenti
departamentiem
departaments
departamentu
department
depeche
depo
deporta
deporte
deportivo
depozi
depresija
depresijas
deputa
der
dera
dere
deres
deri
deriem
derim
deris
derlande
derlandes
derlandi
derlandies
ders
deru
des
desanta
description
desert
design
desmit
desmita
desmitais
desmitajos
desmitci
desmitgade
desmitgades
desmiti
desmitiem
desmitka
desmitnieka
desmito
desmitu
desmitus
destiny
det
detail
details
detal
detalize
detekti
detroitas
deutsche
deutschen
deutschland
deva
devas
deve
development
devi
devies
devil
devils
devin
devis
devona
devu
devums
devumu
devus
devusi
dez
dezerte
df
dfb
dfl
dg
dh
dhcp
di
dia
diabe
diagnostice
diagnostika
diagnostikas
diagona
diagramma
diagrammas
dialekta
dialekti
dialekts
dialektu
dialogu
diametra
diametrs
diametru
diapazona
diapazons
dibena
dibens
dibenu
dibina
dibinot
dicraeus
dictionary
did
didzis
die
diece
diego
dielektrik
diem
diemz
diena
dienai
dienas
dienasgra
diene
dienesta
dienestam
dienests
dienestu
dieni
dieniem
diennaks
diennakti
diennaktis
diennakts
diens
dienu
dienvida
dienvidamerika
dienvidamerikas
dienvidameriku
dienvidaustruma
dienvidaustrumiem
dienvidaustrumos
dienvidaustrumu
dienviddal
dienvidi
dienvidiem
dienvidk
dienvidkoreja
dienvidkorejas
dienvidkurzemes
dienvidmora
dienvidos
dienvidpola
dienvidrietumiem
dienvidrietumos
dienvidrietumu
dienvids
dienvidsla
dienvidsuda
dienvidsuse
dienvidu
dienvidus
dies
dieva
dievam
dievbiji
dievi
dieviem
dieviete
dievietes
dievis
dievkalpojumi
dievkalpojumu
dievkalpojumus
dievlu
dievma
dievnama
dievnams
dievnamu
dievs
dievu
diez
diezgan
diference
diferencia
different
difu
digita
digital
digna
dija
dijai
dijas
dijs
dijseria
diju
dikl
diks
diktators
diktatu
dim
dima
dimanta
dimanti
dimants
dimantu
dimensija
dimensiju
dimiters
dimorfisms
din
dina
dinaburgas
dinamika
dinamiska
dinamo
dinastija
dinastijas
dinastiju
dinot
dins
diode
diodes
dioksi
dioni
diploma
diplomu
direct
direkti
direktora
direktore
direktori
direktors
direktoru
dirig
diriz
dirk
dirty
dis
discipli
discogs
discovery
discussion
disease
diseldorfa
diseldorfas
diserta
diska
diski
disko
diskogra
diskre
diskrimina
disks
disku
diskusija
diskusijas
diskusiju
diskute
diskvalifice
diskvalifika
disloce
disney
displejs
dista
distanc
distance
distances
distanci
distributi
distribution
distrikti
dita
diusa
diuss
diusu
diva
divas
divci
divdesmit
dive
diversity
divi
diviem
division
diviziona
divizions
divka
divnieki
divniekos
divnieku
divos
divpadsmit
divpuse
divreiz
divskan
divspa
divsta
divu
divus
divvilc
diz
dizaina
dizaineris
dizains
dizainu
dj
djego
dju
dk
dm
dmain
dmitrija
dmitrijs
dmt
dn
dna
dnes
dni
dnieci
dnieka
dnieki
dniekiem
dnieks
dnieku
dniekus
dnis
dns
do
dobele
dobeles
dobuma
dobumos
dobums
dobumu
doc
doce
docents
docentu
doctor
dod
dodas
dodo
dodot
dodoties
dodz
does
dog
dogas
doi
dojuma
dojumi
dojums
dojumu
doktora
doktorantu
doktori
doktors
doktoru
doktri
dokumenta
dokumente
dokumenti
dokumentiem
dokumentos
dokuments
dokumentu
dokumentus
dola
dole
doles
dolfa
dolfam
dolfs
dolfu
dolls
dolomi
dom
doma
domain
domas
dombrovska
dombrovskis
dome
domes
domi
domine
dominika
dominiks
domkapitula
domstarpi
domu
domubiedriem
domuzi
don
dona
donald
donalds
donas
donavas
donbasa
doneckas
donis
dons
dopinga
dories
doroteja
dorpat
dortmund
dortmundes
dos
dosies
dot
dota
dotaja
dotas
doti
doties
doto
dotos
dots
dotu
double
douglas
down
dp
dr
dra
drabes
dracaena
drafta
drafte
drafts
dragon
dragu
drake
dramatiska
dramaturg
dramaturgs
dras
draud
draude
draudi
draudiem
draudu
draudus
draudz
draudze
draudzei
draudzene
draudzeni
draudzes
draudzi
drauga
draugam
draugi
draugiem
draugs
draugu
dre
dream
dreamworks
dreife
dreika
dreilin
dreiz
dreize
drena
drey
dri
drica
driha
driham
drihs
drihu
dris
drive
dros
drosmi
drs
dru
drudzis
drug
druka
drukas
drupa
drupas
drusku
drustu
druva
ds
dsa
dt
du
dua
dubl
duble
dublieru
dublina
dubna
dubnas
dubulta
dubultspe
dubultu
ducks
duda
dueta
duets
duke
dukurs
dul
duma
dumi
dumnieku
dumos
dumpi
dumpinieku
dumpis
dumpja
dums
dumu
dumus
dunavas
dundaga
dundagas
duntes
durbe
durbes
durch
durgas
during
durrell
durvi
durvis
durvju
dus
dusi
dvd
dve
dvi
dvieta
dvietas
dvietes
dvietu
dx
dxe
dynamics
dynamo
dynasty
dz
dza
dzas
dzautors
dzdali
dzdibina
dze
dzeguz
dzeguze
dzeguzes
dzeja
dzejas
dzejniece
dzejnieka
dzejnieki
dzejniekiem
dzejnieks
dzejnieku
dzejol
dzejoli
dzejolis
dzeju
dzekl
dzekli
dzeklis
dzel
dzelks
dzelme
dzelon
dzeltena
dzeltenais
dzeltenas
dzeltenbru
dzelteni
dzelteno
dzeltens
dzeltenu
dzelzavas
dzelzcel
dzelzi
dzelzs
dzelzsbetona
dzelzsdivi
dzemde
dzemdes
dzemdi
dzen
dzena
dzene
dzenes
dzeni
dzenis
dzens
dzenskru
dzenuma
dzenumi
dzenumos
dzenums
dzenumu
dzerokl
dzers
dzes
dzese
dzfinanse
dzi
dzidra
dzied
dzieda
dziedina
dziedot
dziedzera
dziedzeri
dziedzeru
dziena
dzieni
dzieniem
dziens
dzienu
dzienus
dziesma
dziesmai
dziesmas
dziesmin
dziesmu
dzil
dzilna
dzilnas
dzilnu
dzim
dzimis
dzims
dzimst
dzimsti
dzimta
dzimtai
dzimtaja
dzimtas
dzimtbu
dzimte
dzimtene
dzimtenes
dzimteni
dzimtes
dzimto
dzimtu
dzimuma
dzimumbriedumu
dzimumgatavi
dzimumi
dzimumiem
dzimumorga
dzimums
dzimumu
dzimus
dzimusi
dzin
dzina
dzine
dzinieki
dzinieku
dzinos
dzinot
dzintara
dzintari
dzintars
dzintaru
dzintra
dzirciema
dzirdama
dzirde
dzirdes
dzirnava
dzirnavas
dzirnavezers
dzirnavu
dzis
dzjin
dzjute
dzko
dznieci
dznieki
dznieks
dznieku
dzos
dzot
dzoties
dzprieks
dzs
dzskan
dzskanis
dzstra
dzsvara
dzsvars
dzsvaru
dztekus
dztiesi
dztwo
dzu
dzve
e
ea
eagle
ean
early
earth
east
eastern
eberhards
ebreji
ebrejiem
ebreju
ebrejus
ebs
ebu
ec
eca
ecas
eceri
echo
ecina
ecinas
eckas
eckis
ecmo
ecology
economic
economics
ecova
ecovs
ed
eda
edgar
edgara
edgars
edgaru
edge
edi
edicions
edijs
edimina
edimins
edinburga
edinburgas
edit
editing
edition
editor
editors
edmontonas
edmunds
edonies
edonija
edonijas
eds
edso
edu
edua
eduard
eduarda
eduards
eduardu
education
edvarda
edvards
edvi
edward
edz
ee
eest
eesti
eet
ef
efekta
efekti
efektivita
efekts
efektu
efektus
effect
effects
efi
efrijs
efs
eftehimik
eg
ega
egas
egejas
egi
egils
egilus
egl
eglaines
egle
egles
egli
egons
egs
eguma
ehija
ehijas
ehiju
ehoslova
ehova
ehovs
ehr
ehu
ei
eihs
eik
eikli
eiks
eimija
eimsa
eimss
eimsu
ein
eina
eindhoven
eine
einer
eins
eintracht
eipenes
eira
eiro
eirodziesma
eiroli
eiropa
eiropai
eiropas
eiropies
eiropu
eirovi
eisons
eit
eitana
eiz
eizara
eizariene
eizarienes
eizariska
eizars
eizaru
eizens
ej
eja
ejas
ejevs
ejienes
ejos
ejot
ejs
eju
ek
eka
ekamskas
ekas
ekava
ekavas
ekipa
ekipe
eko
ekolog
ekonomika
ekonomikas
ekonomiku
ekonomiska
ekonomiskais
ekonomiskaja
ekonomiskas
ekonomiski
ekonomisko
ekonomisku
ekonomisti
ekonomists
ekosiste
ekra
ekraniza
ekranize
eks
eksa
eksempla
eksiste
eksistenci
ekskluzi
ekskursija
ekskursijas
eksona
eksons
ekspedi
eksperimenta
eksperimente
eksperimenti
eksperimentiem
eksperiments
eksperimentu
eksperimentus
eksperti
eksperts
ekspertu
ekspi
eksplode
eksplozi
ekspluata
ekspluate
ekspona
ekspone
eksporta
eksporte
eksports
eksportu
ekspozi
ekspresi
ekspresionisma
ekspress
ekstraklasa
ekstrali
ekstre
ekstremita
eku
ekvadora
ekvadoras
ekvatora
ekvatoria
el
ela
elachiptera
elas
elasti
elbas
elda
ele
electric
electron
electronic
electronics
elejas
elektoru
elektri
elektrifice
elektrifika
elektrik
elektriska
elektriskais
elektriskaja
elektriskie
elektrisko
elektroapga
elektrodiem
elektrodu
elektrodzine
elektroenerg
elektroieka
elektrok
elektroli
elektromagne
elektromeha
elektrona
elektroni
elektroniem
elektronika
elektronikas
elektroniska
elektroniskais
elektronisko
elektrons
elektronu
elektrostacija
elektrostacijas
elektrovilciens
elektrovilcienu
elementa
elementi
elementiem
elements
elementu
elementus
elena
elephant
eles
elfa
elfi
elfu
eli
eliass
eliots
elis
elisa
elita
elite
eliteprospects
elites
elitse
elizabete
elizabetes
elizabeth
elizabeti
elkon
elks
ella
elle
elles
elli
elliott
elma
elne
elnes
elnieks
elo
elosa
elosas
elpa
elpos
els
elsmi
elta
elti
eltovas
eltu
elu
elvi
elza
elzasa
em
ema
emais
emaitijas
emama
emams
emamu
emanuels
emas
emberiza
emble
embrija
embu
emeri
emeru
emes
emi
emigra
emigrantu
emigre
emil
emils
emira
emisijas
emite
emma
emmy
emocijas
emociona
emot
emoties
emperor
empi
empiona
empione
empiones
empioni
empioniem
empions
empiontitulu
empionu
empionvieni
empire
ems
emsim
emt
emta
emtais
emtaja
emtajiem
emtas
emti
emtie
emties
emto
emtos
emts
emtu
emu
en
ena
enas
ence
ences
enci
enciklope
enco
encu
encyclopedia
end
enda
endas
ende
endeavour
endijs
endokri
endru
endu
endzeli
ene
enealog
enera
eneratora
enerators
eneratoru
enere
energ
energia
energija
energy
enes
engaraga
engarags
engine
engineering
england
english
engures
eni
enieks
enieku
eniera
enieri
enierija
enierijas
enieris
enieru
enierzina
enifere
enija
enijas
enin
eniti
enko
enkovs
enkura
enkurs
enoks
enough
enova
enovas
enrike
enriko
ens
enska
enskas
enta
ente
enterprise
entertainment
enti
entiem
entomolog
entonijs
ents
entu
enu
environment
environmental
enzi
eoce
eode
eofizikas
eogra
eolog
eologs
eometrija
eometrijas
eometriska
eomorfolog
eostaciona
eotelpiska
ep
epa
epards
epas
epi
epide
epidemiolog
epiderma
epidermas
epite
epizode
epizodes
epju
eposa
eposs
epras
eps
epsa
equus
er
era
eralds
eras
erbon
erboni
erbonis
ercen
ere
eredivisie
eremijs
erepovecas
eres
ereva
eri
eric
erich
erichson
ericsson
eriem
erihs
erijs
erik
eriks
eris
eritroci
erkasu
erma
erme
ermeistars
ermen
ermeni
ermenim
ermenis
ern
erna
ernest
ernesta
ernests
ernieku
ernst
ernsta
ernsts
eroms
erovas
erozijas
ers
ersija
ersijas
ert
erta
erties
ertnere
ertru
erts
eru
ervi
erzju
es
esa
esam
esami
esat
esc
eseja
esejas
eseju
esi
esika
esjes
eskadril
eskimosu
esko
eslava
eslavs
esmu
esn
esos
esot
espan
esperanto
esplana
espn
ess
est
este
estera
estes
estland
estonia
estonian
estra
estras
estri
estrim
estris
estru
et
eta
etati
etc
ete
etes
ethernet
eti
etik
etile
etimolog
etiopija
etiopijas
etlendas
etniska
etniskais
etniski
etnisko
etnogra
etra
etras
etrdesmit
etri
etriem
etriniekos
etrinieku
etrka
etros
etrpadsmit
etrstu
etru
etrus
etrusku
ets
etu
eu
eur
eurasian
euro
eurobasket
europa
europe
european
europeanhitradio
eurovision
eutelsat
ev
eva
evakua
evakue
eval
evan
evans
evansa
evanss
evas
evc
event
events
ever
everton
every
everything
evic
evica
evics
evidence
evija
eviki
evikiem
eviku
evita
evl
evo
evolu
evolution
evs
evska
evskis
evu
ex
example
expedition
experience
explorer
expo
express
extended
eye
eyes
ez
eza
ezera
ezeram
ezere
ezeres
ezeri
ezeriem
ezerin
ezermalas
ezernieku
ezeros
ezers
ezeru
ezerus
ezis
f
fa
fabia
fabricius
fabrika
fabrikas
fabriku
face
facebook
facies
fact
facto
facts
faila
faili
failiem
fails
failu
failus
fair
faith
fakta
fakti
faktiem
faktiska
faktiskais
faktiski
faktisko
faktora
faktori
faktoriem
faktors
faktoru
faktorus
fakts
faktu
faktus
fakulta
falco
falcon
fall
fam
family
fani
fans
fanta
fantastika
fantastikas
fanu
far
farma
farmakolog
fas
fasa
fast
fauna
faunas
favori
faza
fb
fc
fe
feat
feature
features
februa
february
federa
federati
federation
federiko
feedback
feens
feiman
feldmanis
feldmars
felds
feles
felicita
felikss
felipe
felis
felkerza
felsko
feltsku
fenerbahc
fenik
fenomens
fenomenu
feoda
ferdinand
ferdinanda
ferdinands
ferencs
ferga
ferguson
ferma
fermas
fermentu
fermi
ferna
fernando
ferra
ferrari
festiva
festival
fetels
feyenoord
ff
fg
fi
fia
fiat
fib
fiba
fibonac
fiction
fide
fidz
field
fiem
fifa
fifth
figu
fija
fijas
fiju
fikse
fil
filadelfija
filadelfijas
file
files
filharmonijas
filia
filipa
filipi
filips
filipu
film
filma
filmai
filmas
filme
filmogra
films
filmu
filolog
filologs
filosofija
filosofijas
filozofa
filozofi
filozofija
filozofijas
filozofiju
filozofiska
filozofs
filozofu
fils
filtra
filtre
filtru
fina
final
financial
finans
finanse
finanses
finansia
finansu
finc
find
finis
finks
finland
fiorentina
fire
firma
firmas
firmu
first
fis
fischer
fish
fiska
fiskais
fiskaja
fiskas
fiski
fiskie
fisko
fiskos
fisks
fisku
fiste
fistes
five
fizik
fizika
fizikas
fiziku
fizilieru
fiziolog
fiziska
fiziskas
fiziski
fizisko
fizisku
fjodorovs
fjodors
fk
fla
flag
flames
flandrijas
flanga
flauta
flec
fli
flickr
flight
flock
flora
floras
florbola
florence
florences
floreti
florida
floridas
floru
flote
flotei
flotes
floti
flow
floyd
fly
flyers
flying
fm
fo
focus
fogts
fokss
fokusa
fokuse
folk
folklora
folkloras
folklorists
fon
fona
fonda
fondam
fonds
fondu
fone
fons
food
football
for
foramini
forbes
force
ford
fords
foreign
forest
forests
forever
forma
formai
formas
format
formata
formate
forme
formu
formula
formulas
formule
formulu
fors
forse
forta
forts
fortu
fortum
forum
foruma
forumcinemas
forums
forza
fos
fosfa
fosfora
fosilijas
foto
fotoapara
fotoatte
fotogra
fotografe
fotosinte
found
foundation
four
fox
fr
fra
frac
fragmenta
fragmenti
fragments
fragmentu
fragmentus
frakcija
frakcijas
frakciju
frame
frameless
franc
france
francija
francijai
francijas
franciju
francis
francisco
franciska
franciski
francisks
francs
francu
frank
franka
frankfurt
frankfurte
frankfurtes
franki
franklins
franko
franks
franku
frans
fransisko
fransua
frantis
franz
fraternitas
fre
frederick
frederiks
freds
free
freedom
fregat
freiberga
freibergs
freimanis
frekvenc
frekvence
frekvences
frekvenci
french
frenks
fri
fric
fricis
fridrihs
friedrich
friends
frika
frikas
friku
frk
from
front
fronta
fronte
frontei
frontes
fronti
fru
fs
ft
ftp
fu
fulham
full
function
fund
fundamenta
fungi
fungorum
funkcija
funkcijas
funkciju
funkciona
funkcionalita
funkcione
futbola
futbolista
futboliste
futbolisti
futbolistiem
futbolists
futbolistu
futbols
futbolu
futu
future
g
ga
gabala
gabali
gabalin
gabalos
gabals
gabalu
gabalus
gabriel
gabriela
gabriels
gada
gadadiena
gadadienai
gadadienu
gadagra
gadalaika
gadam
gades
gadi
gadiem
gados
gads
gadsimta
gadsimtam
gadsimtiem
gadsimtos
gadsimts
gadsimtu
gadsimtus
gadska
gadu
gadus
gaga
gagarina
gai
gaida
gaidi
gaidot
gaigalavas
gail
gaile
gaili
gailis
gais
gaisa
gaisam
gaisma
gaismai
gaismas
gaismu
gaiss
gaistos
gaisu
gaita
gaitas
gaitu
gaizin
gaja
gajai
gajam
gajiem
gajos
gajs
gal
gala
galaktika
galaktikas
galaktiku
galam
galame
galapagu
galapunkta
galapunkts
galatasaray
galaxy
galda
galdin
galds
gale
galerija
galerijas
galeriju
galgauskas
gali
galiem
galilejs
galileo
gallery
gallija
gallu
gallus
galma
galos
galotn
galotne
galotnes
galotni
gals
galu
galva
galvas
galvaskausa
galvaskauss
galvaspilse
galvassa
galvena
galvenais
galvenaja
galvenajai
galvenajam
galvenajiem
galvenie
galveno
galvenoka
galvenos
galvi
galvin
galvu
gam
gama
gambi
gambijas
gambit
game
games
gamma
gan
gana
ganas
gandari
gandri
gani
gans
ganu
gaprindas
gar
gara
garais
garaja
garanc
garante
garantijas
garas
garasta
garastes
garden
gari
garie
gariem
garkalnes
garnizona
garnizons
garnizonu
garo
garos
garoza
garozas
gars
garsija
garu
garuma
garums
garumu
garus
gary
gas
gastons
gatava
gatavi
gatavo
gatavoja
gatavojas
gatavojoties
gatavos
gatavot
gatavoties
gatavots
gatavs
gate
gatis
gatne
gatnes
gatve
gatves
gatvi
gauja
gaujas
gaujienas
gaujmalnieks
gauju
gausa
gava
gavas
gave
gaz
gazetteer
gazols
gazprom
gb
gbif
gdan
ge
geis
geju
gekro
gela
gels
gemini
gen
gena
genas
gendstila
gene
genealogisches
general
generation
genes
genetic
geni
genoa
genoci
gens
genskalna
genus
geo
geographic
geometry
georg
georga
george
georges
georgia
georgijs
georgs
ger
gera
gerhard
gerhards
gerijs
germain
german
germany
gers
geru
ges
geschichte
gesellschaft
gesta
gestapo
get
getingenes
geto
ghz
gi
giant
gibralta
gie
giem
gif
gilmors
ginesa
ginters
gints
giovanni
girl
girls
giro
give
gje
gl
gla
glaba
glaciolog
glasgow
glass
glec
glens
glezna
gleznas
gleznieci
gleznoja
gleznojis
gleznojumi
gleznos
gleznota
gleznu
gli
gliemen
gliemez
glikozes
glikozi
globa
global
globe
globusa
globuss
glonass
glu
gluda
gludas
gluds
gluz
gm
gmbh
gn
gnera
gners
gnu
go
goba
gobas
god
goda
godalgas
godalgoto
godalgu
godam
godi
godina
godinot
godman
godpra
gods
godu
goes
gogol
going
goja
gol
golcs
gold
golden
goldensteitas
golf
golfa
golis
gomel
gone
gonec
good
google
gora
gorbac
gordon
gordons
gorkija
gorks
gors
gos
got
gota
gotas
gotfri
gotharda
gothards
goti
gotikas
gotiska
gotlandes
gotli
gots
gotu
gov
government
govis
govju
govs
gp
gps
gr
gra
grafi
grafik
grafika
grafikas
grafiks
grafiku
grafiska
grafisko
grafiti
gragox
graham
gramatika
gramatikas
grami
grammy
gramu
gramzdas
grana
grand
grande
grandes
grani
grant
grants
granulas
gras
graudaugu
graudi
graudiem
graudin
grauds
graudu
graudus
graudza
grautin
grauze
grava
gravas
grave
gravenhorst
gravi
gravita
gray
gre
great
greatest
greckis
gredzena
gredzeni
gredzeniem
gredzens
gredzenu
gredzenveida
greek
green
greenzeb
gregora
gregorijs
gregors
gregs
greiema
greiems
greja
grejs
gremos
grena
grenadieru
grenlande
grenlandes
grey
grezna
grezni
gri
grib
griba
gribas
gribe
gribu
grid
griek
gries
griesti
griestiem
griestu
griez
grieze
griezes
griezties
griezuma
griezumu
grifs
grigorijs
grik
grindeks
grinic
gripas
gris
grizzlies
grobin
grodn
gross
group
groups
growth
groza
grozi
groß
gru
grunti
gruntis
grunts
gruntsu
grupa
grupai
grupas
grupe
grupu
gruzdovs
gruzi
gruzija
gruzijas
gruziju
gs
gsat
gsm
gst
gt
gta
gtais
gtas
gti
gties
gto
gtos
gts
gtu
gu
guardian
gubern
gubernatora
gubernatori
gubernators
gubernatoru
gubu
gudra
gudrais
gudri
gudz
guide
guides
guitar
gul
gulaga
gulbe
gulbene
gulbenes
gulbis
gulbja
gulbji
gulbju
gule
guls
gulta
gultas
gultne
gultnes
gultni
guma
gumam
gumi
gumiem
gumijas
gums
gumu
gumus
gun
guna
gundars
gundega
gunta
guntars
gunter
guntis
gurk
guru
gus
gusi
gustav
gustava
gustavo
gustavs
gustavu
gut
guta
guva
guve
guvis
guvus
guvusi
guy
gvarde
gvardes
gvardi
gvatemala
gvia
gvido
gvineja
gvinejas
gyllenhal
h
ha
habarovskas
habla
habsburgu
hac
hadz
haiti
haizivis
haizivju
haizivs
half
hali
hall
halle
halles
halo
haloge
halucina
halucinoge
ham
hamburg
hamburga
hamburgas
hamburger
hamiltons
hamlets
han
hana
hand
handbook
handbuch
haniste
hanistes
hanna
hans
hansa
hansens
hanss
hantimansijska
hanu
hanzas
haosa
happy
haralds
hard
hare
harija
harijs
hariju
harju
harkiva
harkivas
harkovas
harmony
harolds
harris
harry
harta
hartmanis
hartu
harvard
harvey
has
hat
hate
hauards
havaju
havana
have
hawks
haza
hbo
hc
hcl
hd
he
head
health
heart
heat
heaven
heavy
hei
heidelbergas
height
heincs
heinrich
heinriha
heinrihs
heinrihu
heksadecima
hekta
hele
helikopteru
hell
hellas
helle
hello
helm
helmuts
help
helsinki
helsinkiem
helsinkos
helsinku
helvella
hemps
henri
henrija
henrijs
henriju
henriks
henry
her
heraldikas
herba
herbert
herberts
hercegovina
hercegovinas
hercoga
hercogam
hercogi
hercogiene
hercogiste
hercogistei
hercogistes
hercogisti
hercogs
hercogu
hercs
herdera
here
herisons
heritage
herman
hermanis
hermann
hermans
herme
hero
heroi
hers
hersonas
hertha
hes
hesenes
het
heteroseksua
hf
hg
hi
hibri
hic
hidra
hidroelektrostacijas
hidrogra
hidroksi
hidrolize
hidrolog
hidrometeorolog
hie
hierarhija
hieroni
high
higie
hill
hills
himalaju
hime
himna
himnas
himnu
hindu
hinduisma
hinduistu
hip
hiphopa
hipokra
hipote
hirs
his
hist
histolog
historia
historical
historiogra
history
hit
hiti
hitlera
hitlers
hitleru
hits
hitu
hiv
hju
hk
hlora
hlori
hloru
hmel
ho
hockey
hodkevic
hodz
hofmanis
hofmans
hokeja
hokejista
hokejisti
hokejists
hokejistu
hokejs
hokeju
holande
holandes
holandies
holding
holdings
hole
holesteri
holivuda
holivudas
hollywood
holokausta
hols
holy
home
homo
homoseksua
homoseksualita
honda
hondurasa
honkonga
honkongas
hop
hope
hopkins
hora
horeogra
horhe
horizon
horizonta
horizonts
hormona
hormoni
hormonu
hornets
horns
horse
horva
hos
hose
hospita
hot
hotel
hotspur
hottes
hour
house
hovards
how
howard
hoyo
hp
hroma
hromosomas
hromosomu
hronika
hronikas
hroniku
hroniska
hronolog
hrsg
hrus
hs
htm
html
http
https
htv
hu
huans
hugo
huma
human
humanita
humora
hun
hunter
hurricanes
huseins
husi
hypericum
hypoaspis
hz
i
ia
iaaf
ian
iana
ians
ibc
ibe
ibi
ibm
ibn
ibrahims
ibsens
ibu
ibul
ic
ica
icas
iccf
ice
ices
ich
icins
ickis
ics
id
ida
ide
idea
ideas
ideja
idejas
ideju
identification
identifice
identifika
identita
ideolog
idra
idrina
idro
idru
idruma
idrumi
idrums
idrumu
ie
ieapal
iebiede
iebilda
iebildumi
iebildumu
iebrauce
iebru
iebruce
iebruka
iebrukt
iebrukuma
iebrukumam
iebrukums
iebrukumu
iebu
iec
iecava
iecavas
iece
iecel
iecels
iecelt
iecelta
iecelts
iecere
ieceres
iecieni
iecieti
iecirkn
iecirkni
iecirknis
iedal
iedala
iedali
iedarbi
iedarbina
iedarbojas
iedarbojoties
iede
iedeva
iedibina
iedobe
iedoma
iedra
iedras
iedros
iedru
iedvesmas
iedvesmoja
iedz
iedzi
iedzieda
iedzil
iedzimta
ieee
ieeja
ieejas
ieeju
ieg
iega
iegareni
iegrave
iegremde
iegu
iegulas
ieguldi
ieguva
ieguve
ieguvei
ieguves
ieguvi
ieguvis
ieguvus
ieguvusi
ieies
ieiet
ieinterese
iejauks
iejaukties
iek
ieka
iekaisuma
iekaisums
iekaisumu
iekaro
iekaroja
iekaros
iekarot
iekarota
iekarotaja
iekaroto
iekase
iekava
iekl
iekonserve
iekra
iekraus
iekrita
ieks
iekurkalna
iela
ielai
ielaistie
ielas
ielauza
ieleja
ielejas
ieleju
ielenkuma
ieliek
ieliekta
ielikt
ielu
iem
iema
iemaksa
ieman
iemesla
iemesli
iemesliem
iemesls
iemeslu
iemi
iemu
ien
iena
ienaidnieka
ienaidniekam
ienaidnieki
ienaidniekiem
ienaidnieks
ienaidnieku
iene
ienes
ienesi
ieni
iepazi
iepazina
iepazinies
iepirka
iepirks
iepirkumu
iepla
ieplaka
ieplakas
ieplu
iepreti
iepretim
ieprieks
iera
ierada
ieradies
ieradumi
ieradus
ieraksta
ieraksti
ierakstiem
ierakstos
ieraksts
ierakstu
ierakstus
ieras
ierasta
ierasties
ieraudzi
ierauga
iere
ieri
ieriem
ierik
ierindoja
ierindojas
ierindojies
ierindojoties
ierindojusies
ieris
ierobez
ieroc
ieroci
ierocis
ierodas
ierodoties
ierosina
ierosmes
ieru
ieruna
ierus
ies
iesa
iesaista
iesaisti
iesaistoties
iesaka
iesalde
iesauca
iesauka
iesaukts
iesauku
iesila
iesildi
ieskaite
ieskaiti
ieskaitot
ieskan
ieskauj
iesle
iesli
ieslodzi
iesniedz
iesniedza
iesniegs
iesniegt
iesniegumu
iespaida
iespaidi
iespaidoja
iespaids
iespaidu
iespe
iespieda
iespies
iespiesta
iesta
iestati
iestiepjas
iestra
iestude
iesu
iesve
iet
ietami
ietaupi
iete
ieteica
ieteicams
ieteikts
ieteikuma
ietek
ieteka
ietekai
ietekas
ietekme
ietekmei
ietekmes
ietekmi
ietekos
ietilpa
ietilpi
ietilpis
ietilpst
ietilpstos
ietrieca
ieture
ietvaros
ietve
ietver
ietverot
ietverta
ietverti
ieva
ievada
ievades
ievadi
ievads
ievainoja
ievainojuma
ievainojumiem
ievainojumus
ievainoti
ievainoto
ievainots
ievas
ievaza
ieve
ieveda
ieves
ievest
ievies
ieviesa
ieviesis
ieviest
ieviesta
ieviestas
ieviesti
ieviests
ievieto
ievietoja
ievietojot
ievietos
ievietot
ievietota
ievietotas
ievietoti
ievietots
ievin
ievirzes
ievu
iez
iezi
iezis
if
ifre
ig
iga
igana
iganas
igaun
igaunija
igaunijai
igaunijas
igauniju
igna
ignore
igo
igora
igors
igovas
iha
ihivas
ii
iihf
iii
ija
ijai
ijas
ijnovgorodas
ijs
iju
ik
ika
ikajas
ikas
ikaunieks
ikdiena
ikdienas
ikgade
iki
ikista
ikita
iknede
ikona
ikonas
ikonu
ikova
ikovs
ikp
ikri
ikru
ikrus
iks
iktas
iku
ikviena
ikvienam
ikviens
ikvienu
il
ila
ilbe
ilde
ildes
ile
iles
ilga
ilgaja
ilgas
ilggade
ilggadi
ilgi
ilglaici
ilgs
ilgst
ilgstos
ilgt
ilgtermin
ilgtspe
ilgu
ilguma
ilgums
ilgumu
ilgus
ili
ilia
ilin
ilinas
ilindz
ilinoisa
ilinoisas
ilkn
illers
illustrated
ilma
ilona
ilovs
ils
ilu
ilustra
ilustre
ilze
ilzes
ilzeskalna
im
ima
image
images
imago
imanta
imantas
imants
imantu
imdb
imele
imen
imene
imenei
imenes
imeni
img
imigra
imigrantu
imijs
imita
imite
imna
impact
impe
imperatora
imperatoram
imperatore
imperatori
imperators
imperatoru
imperia
importa
importe
improviza
improvize
impulsa
impulsi
impulss
impulsu
ims
imu
imunita
in
ina
inam
inas
inaturalist
inaugura
inc
inch
incidenta
incidents
including
increment
indas
inde
indeksa
indekss
indeksu
independent
indes
index
indi
india
indian
indiana
indies
indija
indijas
indiju
indivi
individua
individual
indo
indoeiropies
indok
indone
indra
indras
indrik
induce
indukcijas
indukti
induktivita
indulis
industria
industrial
industrializa
industries
industrija
industrijas
industry
ine
inerces
ines
inese
infekcija
infekcijas
infekciju
infice
infla
inflantijas
info
infokaste
informa
informati
information
informe
infraka
infrastruktu
infty
inga
ingii
ingrada
ingradas
ingri
ingrijas
ingtona
ingtonas
ingu
ingus
ini
inicia
iniciati
inieka
inieki
iniekiem
inieks
inieku
iniem
inisma
inkorpora
inku
inkuba
ino
inocents
inos
inot
inoties
inova
inovati
ins
insbruka
insc
inscene
inside
inska
inskas
inskis
inspekcija
inspekcijas
inspektors
inspektoru
instagram
instala
institu
institut
institute
instrukcijas
instrukciju
instruktori
instruktoru
instrumenta
instrumenti
instrumentiem
instruments
instrumentu
instrumentus
insuli
insurance
int
inta
intars
integra
integre
integrita
intel
intelekta
intelekts
intelektua
intelig
intelligence
intelsat
intensi
intensita
inter
interakti
interes
interesanta
interesanti
interesants
interese
intereses
interesi
interface
interjera
interjers
interjeru
interna
internaciona
international
internationale
internazionale
interne
internet
interneta
internets
internetu
interpreta
interprete
interscope
intertoto
interva
interve
interview
intervija
intervijas
interwiki
interzonal
inti
intij
intis
into
intona
introduce
introduction
ints
inu
inus
inva
invali
invalidita
invazi
inventa
investe
investi
investoru
inz
io
iona
ionam
ioni
ioniem
ionos
ions
ionu
ionus
ios
iozi
ip
ipa
iphone
ipik
ipod
ips
ipste
ipte
iptes
ipti
ipties
ipv
ir
ira
iran
iras
irbe
irbes
irbi
irbuli
irds
ire
ireland
iri
iridium
irina
irkl
irkutskas
irlavas
irn
irne
irnes
irni
iro
iroke
iron
ironija
iros
iroskopa
irot
irotava
irs
irt
irta
irtas
irti
irties
irto
irts
irtspe
irtu
iru
irurg
irurgs
irzaka
irzakas
is
isa
isakovs
isbn
ise
isejevs
iska
iskais
iskaja
iskajam
iskajiem
iskajos
iskas
iski
iskie
iskiem
isko
iskolata
iskos
isks
isku
iskus
isla
island
islande
islanders
islandes
islandi
islandies
islands
islava
islavs
isma
isms
isnaudas
iso
isora
isore
isores
isori
isoriem
isors
isoru
israel
iss
issn
issue
issues
ist
istaba
istabas
istabu
istanbul
istikas
istiska
istra
istras
istre
istrs
istru
istu
isu
it
ita
italia
italiana
italy
itas
iti
itogorskas
itovskas
its
itunes
iu
iucn
iure
ius
iv
iva
ivan
ivana
ivanova
ivanovs
ivans
ivanu
ivara
ivars
ivas
iveta
ivo
ix
iz
iza
izabella
izaicina
izaudze
izaug
izauga
izaugsme
izaugsmes
izaugsmi
izaugumi
izaugumiem
izaugums
izaugusi
izbe
izbeidza
izbeigs
izbeigt
izbeigta
izbrauca
izbrauks
izbraukt
izbraukuma
izbu
izce
izcel
izcels
izcelsme
izcelsmes
izcelsmi
izci
izcila
izcili
izciliem
izcils
izcilu
izcirs
izd
izdala
izdali
izdalot
izdara
izdari
izdarot
izde
izdemole
izdeva
izdeve
izdevi
izdevies
izdevis
izdevnieci
izdevuma
izdevumi
izdevumiem
izdevumos
izdevums
izdevumu
izdevumus
izdevusi
izdod
izdodas
izdodot
izdoma
izdos
izdot
izdota
izdotais
izdotaja
izdotas
izdoti
izdotie
izdoto
izdots
izdze
izdzi
ize
izeja
izejas
izejos
izejot
izeju
izejviela
izejvielas
izejvielu
izforme
izga
izgatavo
izgatavoja
izgatavojis
izgatavos
izgatavot
izgatavota
izgatavotas
izgatavoti
izgatavots
izgla
izgli
izgriezts
izgudroja
izgudrojumu
izgudros
izgudrota
izi
izies
iziet
izjauca
izju
izjuka
izjuks
izka
izkaisi
izkl
izkla
izklaide
izklaides
izkli
izkliede
izkraus
izkri
izkrita
izkropl
izla
izlaida
izlaidums
izlais
izlaist
izlaista
izlaistas
izlaisti
izlaists
izlaiz
izlas
izlase
izlasei
izlases
izlasi
izlaupi
izlauzties
izle
izlemj
izlemts
izli
izlido
izliekta
izliekts
izloci
izloksne
izloksnes
izloze
izlu
izmain
izmaina
izmaini
izmainot
izmaksa
izmaksas
izmaksu
izmanto
izmantoja
izmantojama
izmantojami
izmantojams
izmantojis
izmantojot
izmantojus
izmantos
izmantot
izmantota
izmantotais
izmantotas
izmantoti
izmantotie
izmantoto
izmantots
izmantotu
izme
izmekle
izmes
izmira
izmirs
izmirus
izmirusi
izmitina
izn
izna
izne
izni
iznoma
izola
izole
izome
izotopi
izotopu
izpa
izpauda
izpausme
izpausmes
izpausties
izpauz
izpe
izpelni
izpilda
izpilddirektors
izpilddirektoru
izpilde
izpildes
izpildi
izpildkomiteja
izpildkomitejas
izpildot
izpildvara
izpildvaras
izplata
izplati
izple
izples
izpletn
izplu
izposti
izprast
izpratne
izpratni
izra
izrae
izraidi
izraisa
izraisi
izraisos
izraisot
izrakten
izrakumi
izrakumos
izrakumu
izrakumus
izraudzi
izre
izredze
izredzes
izriet
izrobota
izrok
izruna
izs
izsaka
izsauc
izsauca
izsaukts
izse
izsekos
izsekot
izsi
izskaidro
izskaidrojams
izskaidrot
izskan
izskane
izskata
izskati
izskats
izskatu
izsle
izsludina
izsmalcina
izsniedza
izsniegs
izsole
izspe
izspiez
izsta
izstaro
izstiepta
izstiepts
izstra
izsu
izte
iztece
izteica
izteiks
izteiksme
izteiksmes
izteiksmi
izteikt
izteikta
izteiktas
izteikti
izteikts
izteiktu
iztek
izteka
iztekas
izti
iztikt
iztru
iztuks
iztur
izturas
izture
izturi
iztvaikos
izvadi
izvaira
izvairi
izvairoties
izvaltas
izvaros
izve
izveda
izveide
izveidei
izveides
izveidi
izveido
izveidoja
izveidojas
izveidojies
izveidojis
izveidojot
izveidojus
izveidojusi
izveidojusies
izveidos
izveidot
izveidota
izveidotaja
izveidotas
izveidoti
izveidoties
izveidoto
izveidots
izveidotu
izves
izvest
izvietoja
izvietojas
izvietojies
izvietojums
izvietojumu
izvietojus
izvietojusies
izvietos
izvietot
izvietota
izvietotas
izvietoti
izvietots
izvirduma
izvirdums
izvirza
izvirzi
izvirzot
izz
izzin
izzina
izzu
izzuda
izzudis
izzudus
izzudusi
izzus
j
ja
jack
jackets
jackson
jacob
jacques
jagail
jagailis
jagua
jahtu
jai
jais
jaja
jaka
jakob
jakobi
jakobs
jakovl
jakovs
jakutija
jam
jama
jamaika
jamaikas
jamais
jamaja
jamajiem
jamal
jamas
james
jami
jamie
jamiem
jamo
jamos
jams
jamu
jan
jana
jandzi
jane
jangs
jani
janic
janis
jans
jansona
jansone
jansons
janu
january
janukovic
janva
japa
japan
japanese
jaroslava
jaroslavic
jaroslavl
jaroslavs
jas
jaslapa
jaslapas
jason
jau
jauce
jauda
jaudas
jaudi
jaudu
jaukta
jauktais
jauktaja
jauktas
jaukti
jauktie
jaukto
jauktu
jauna
jaunai
jaunais
jaunaja
jaunajai
jaunajam
jaunajiem
jaunajos
jaunam
jaunas
jaunatkla
jaunatne
jaunatnes
jaunava
jaunavas
jaunbu
jaunciema
jaundibina
jaundzimus
jaungada
jaungulbenes
jaungvineja
jaungvinejas
jauni
jaunie
jauniem
jaunies
jaunieve
jaunina
jaunizveidota
jaunizveidotaja
jaunjelgava
jaunjelgavas
jaunkristi
jaunlatvies
jaunmuiz
jauno
jaunos
jaunpiebalgas
jaunpiena
jaunpils
jauns
jaunsaimnieci
jaunsudrabin
jaunu
jaunumi
jaunus
jaunze
jauta
jautra
java
javas
jay
jazz
jc
jciemi
jciems
jdarbi
jdzi
jdzirnavas
je
jean
jeb
jebka
jebkad
jebko
jebkura
jebkurai
jebkuram
jebkuras
jebkurs
jebkuru
jegors
jehvi
jekaterina
jekaterinburgas
jel
jelgava
jelgavas
jelgavu
jemenas
jen
jenic
jenots
jenotu
jensens
jersey
jersikas
jeruza
jeruzaleme
jeruzalemes
jervas
jes
jesen
jesus
jets
jevge
jevgen
jevs
jez
jezui
jg
ji
jie
jiem
jiena
jienam
jienas
jieni
jieniem
jienos
jiens
jienu
jienus
jies
jiet
jim
jin
jina
jirgens
jis
jk
jma
jmuiz
jnieki
jniekiem
jnieku
jo
joahims
joannis
joda
jodu
joe
jogas
johan
johana
johanam
johann
johannes
johanness
johans
johansons
johanu
john
johnson
join
jokerit
jokl
joku
jolanta
joma
jomas
jomu
jon
jona
jonas
jonass
jonathan
jones
joni
joniem
jonijas
jonis
joniza
jonize
jonosfe
jons
jonu
joproja
jorda
jordan
joreiz
jorkas
jorks
jos
jose
josef
joseph
josifs
josla
joslas
joslu
josta
jostas
jostu
jot
joties
journal
jozefa
jozefs
jpeg
jpg
jputni
jputns
jputnu
jr
jrak
js
jsabiedri
jsaimnieci
jsiste
jskolota
jspe
jstor
ju
juan
jubileja
jubilejai
jubilejas
jubileju
judi
jugla
juglas
juhans
julajev
jules
julia
julius
july
juma
jumam
jumava
jumi
jumiem
jumos
jumprava
jumpravas
jums
jumta
jumts
jumtu
jumu
jumurdas
jumus
jun
jundzis
june
junior
junioriem
juniors
junioru
jupitera
jupiters
jura
juras
jurc
jurg
juri
juridiska
juridiskaja
juridiski
juridisko
jurija
jurijs
jurim
juris
jurista
juristi
jurists
juristu
jurja
jurka
jus
jusi
jusies
just
justi
juta
juti
juventus
juzefs
jva
jvalsti
jvalsts
jve
jvieta
jvietu
k
ka
kaba
kabata
kabatas
kabel
kabeli
kabi
kabiles
kabineta
kabinets
kabinetu
kabpili
kabpils
kabs
kabsone
kabsons
kabu
kac
kad
kada
kadetu
kadik
kadra
kadri
kadrs
kadru
kadrus
kafejni
kafijas
kai
kaija
kaijas
kaiju
kaila
kailas
kaili
kails
kaimin
kaira
kairina
kairis
kais
kaisli
kaite
kaiti
kaives
kaja
kajai
kajam
kajiem
kajos
kak
kakadu
kakas
kakla
kakls
kaklu
kaktin
kal
kala
kalci
kalcija
kaldera
kale
kalenda
kalgari
kalibra
kalifa
kalifornija
kalifornijas
kalku
kalma
kalna
kalnaina
kalnamuiz
kalnbe
kalnciema
kalne
kalni
kalniem
kalniene
kalnies
kalnin
kalnos
kalnru
kalns
kalnu
kalnus
kalpa
kalpaka
kalpi
kalpo
kalpoja
kalpojis
kalpos
kalpot
kalpota
kalps
kalpu
kals
kalsnavas
kalte
kalupes
kalve
kalvenes
kalvi
kam
kama
kamais
kamaja
kamajai
kamajam
kamajiem
kamajos
kamanin
kamas
kamaz
kambara
kambari
kambaru
kambodz
kamc
kame
kamen
kamera
kameras
kamermu
kamerork
kameru
kami
kamie
kamiel
kamielis
kamo
kamos
kampa
kampan
kamu
kan
kana
kanaliza
kanaveralas
kanc
kancele
kanceleja
kancelejas
kanclera
kanclers
kancleru
kandava
kandavas
kandida
kandidatu
kandide
kane
kangari
kangaru
kaniba
kannu
kanoe
kanona
kanta
kantona
kantora
kantri
kapa
kapacita
kapela
kapelas
kapelu
kapene
kapenes
kapi
kapiem
kapila
kapita
kapitula
kapitule
kaplavas
kaplic
kapos
kapra
kaps
kapse
kapsula
kapsulas
kaptein
kapteini
kapteinim
kapteinis
kapu
kapulauks
kar
kara
karaba
karabahas
karac
karadarbi
karadienesta
karaga
karagu
karakug
karal
karali
karaliene
karalienes
karalieni
karalim
karalis
karaliska
karaliskais
karaliskaja
karalisko
karaliste
karalistei
karalistes
karalisti
karam
karanti
karas
karaspe
karasta
karate
karava
karavadon
karavadonis
karavajevs
karavi
karbona
karbonska
kardina
kare
kareivi
kareivis
kareivji
kareivjiem
kareivju
kareivjus
karels
karen
karg
kari
kariem
karikatu
karin
karina
karjera
karjerai
karjeras
karjers
karjeru
karl
karla
karlo
karloss
karls
karlsons
karmena
karneva
karo
karodzin
karoga
karogi
karogiem
karognese
karogs
karogu
karoja
karojos
karoli
karolingu
karos
karosta
karostas
karot
karota
karpa
karpatu
karpu
kars
karse
karsta
karstas
karsts
karstu
karstuma
karstums
karta
karte
kartes
karti
kartogra
kartote
kartupel
karu
karus
kas
kasa
kase
kases
kasi
kasjauns
kaska
kaspars
kaspijas
kass
kastan
kaste
kastes
kasti
kastors
kastra
kastro
kastul
katala
katali
katalizatora
kataloga
katalogs
katalonija
katalonijas
katara
kataras
katastrofa
katastrofas
katastrofu
katedra
katedrale
katedras
katedru
kategorija
kategorijas
kategoriju
katla
katlakalna
katlu
katoda
katodu
katol
katolicisma
katoliska
katra
katrai
katram
katras
katri
katrs
katru
kauc
kaudze
kaudzi
kauguru
kauja
kaujas
kaujinieki
kaujinieku
kauju
kauka
kaula
kauli
kauliem
kaulin
kauls
kaulu
kaulus
kaun
kaunas
kaunatas
kaupo
kausa
kausam
kause
kausi
kauss
kausu
kausus
kaut
kavale
kavalieri
kavalieris
kave
kaz
kaza
kazahsta
kazahu
kazaki
kazaku
kazan
kazas
kazdangas
kazimira
kazimirs
kazino
kazu
kazurga
kb
kbru
kc
kd
kdelfi
kdienesta
ke
kec
keep
keila
keilas
keins
keita
keldis
kellija
kelly
kemals
kembridz
kemps
kenedija
kenedijs
kenets
kenija
kenijas
kens
kenta
kentas
kentuki
kepler
keramik
keramika
keramikas
kerc
keress
kerija
kerijas
kerijs
kers
kes
ketlera
ketlers
ketri
kevic
kevin
kevins
key
kf
kg
kh
khan
khl
khmeru
ki
kibo
kid
kids
kie
kiem
kija
kijas
kijeva
kijevas
kijiva
kijivas
kijivu
kiju
kikla
kikos
kill
killer
kilogramus
kilometra
kilometri
kilometriem
kilometrs
kilometru
kilometrus
kim
kima
kimi
kims
kina
kind
kine
kinematogra
king
kinga
kingdom
kings
kino
kinoakade
kinoaktieri
kinoaktieris
kinoaktrises
kinofestiva
kinofilma
kinoinstitu
kinokome
kinooperators
kinoproducenti
kinoproducents
kinorez
kinostudija
kinostudijas
kinotea
kins
kipra
kipras
kirchspiel
kirgi
kirgizsta
kirhens
kiri
kirik
kirilicas
kirils
kirova
kirs
kis
kiss
kit
kju
kka
kl
kla
klaipe
klaja
klaka
klam
klana
klanu
klas
klase
klasei
klases
klasi
klasicisma
klasifice
klasifika
klasik
klasika
klasikas
klasiku
klasiska
klasiskais
klasiskaja
klasisko
klaudija
klaus
klausa
klausi
klauss
klaviere
klavieres
klavierspe
klavieru
kle
klein
kleinen
kleins
kleistu
klejota
klements
klenburga
klenburgas
klenes
klepus
kles
kli
kliem
klienta
klientam
klienti
klientiem
klients
klientu
klija
kliks
klimata
klimatam
klimatiska
klimats
klimatu
klin
klins
klinti
klintis
klints
klips
klis
kloa
klods
klona
klos
klostera
klosteri
klosteris
klosteru
kls
klu
kluba
klubam
klubi
klubiem
klubos
klubs
klubu
klubus
klus
klusa
klusais
klusaja
kluse
kluso
klusuma
km
kmes
kn
kna
knab
kne
knes
kni
knicks
knight
knights
knis
knockout
know
knowledge
knuts
knvb
ko
koali
kobe
kobs
koc
koce
koch
kocin
koda
kode
kodeksa
kodekss
kodi
kodola
kodoli
kodolieroc
kodols
kodolu
kods
kodu
koeficienta
koeficients
koeficientu
kofei
kogniti
koivisto
koja
kojas
kojot
kojuma
kojums
kojumu
koka
kokai
kokapstra
kokars
koki
kokiem
kokl
kokle
kokles
kokmateria
koknese
kokneses
kokos
koks
koksne
koksnes
koksngrauz
koksni
kokteil
koku
kokus
kokvilnas
kokza
kol
kola
kolc
kole
koledz
kolekcija
kolekcijas
kolekciju
kolekciona
kolekcione
kolekti
kolhoza
kolhozu
koli
kolibri
kolin
kolins
kolinss
kolka
kolkas
kolona
kolonia
kolonija
kolonijas
koloniju
kolonisti
kolonistiem
kolonistu
koloniza
kolonize
kolonna
kolonnas
kolonnu
kolora
kols
kolumbija
kolumbijas
kolumbs
kolumbusas
koma
komanc
komanda
komandai
komandantu
komandas
komande
komandiera
komandieri
komandieriem
komandierim
komandieris
komandmodul
komandu
kombina
kombine
kombul
kome
komenta
komente
komercia
komercskola
komi
komik
komiksu
komisa
komisaria
komisija
komisijai
komisijas
komisiju
komiteja
komitejai
komitejas
komiteju
komjaunatnes
kompa
kompakta
kompasa
kompensa
kompense
kompetence
kompetences
kompleksa
kompleksi
komplekss
kompleksu
komplekta
komplekte
komplekti
komplekts
komplektu
komplice
komplika
kompone
komponente
komponentes
komponenti
komponentiem
komponents
komponentu
komponista
komponiste
komponisti
komponists
komponistu
kompozi
komturs
komu
komuna
komunice
komunika
komunisma
komunisti
komunistiem
komunistiska
komunistiskaja
komunistisko
komunists
komunistu
komuta
kon
kona
konc
koncentra
koncentre
koncepcija
koncepcijas
koncepciju
konceptu
konceptua
koncerta
koncerte
koncerti
koncertiem
koncertos
koncerts
koncerttu
koncertturneja
koncertu
koncertus
koncertza
koncila
koncils
kondensa
kondense
konditorejas
konektikutas
konfedera
konferenc
konference
konferences
konferenci
konfesijas
konfesiju
konfigura
konfigure
konfisce
konflikta
konflikte
konflikti
konfliktiem
konfliktos
konflikts
konfliktu
konfliktus
konfu
kongo
kongresa
kongress
kongresu
koni
konis
konkre
konkure
konkurence
konkurences
konkurenci
konkurenti
konkurentiem
konkurentu
konkursa
konkursam
konkursi
konkursos
konkurss
konkursu
konors
konra
konrad
kons
konsekre
konservati
konservatorija
konservatorijas
konservu
konsole
konsoles
konsolide
konstante
konstanti
konstantinopole
konstantinopoles
konstantinopoli
konstate
konstitu
konstituciona
konstrue
konstrukcija
konstrukcijas
konstrukciju
konstrukti
konstruktors
konstruktoru
konsula
konsuli
konsuls
konsulta
konsultants
konsultati
konsulte
konta
kontakta
kontakte
kontakti
kontakts
kontaktstien
kontaktti
kontaktu
kontaktus
konteinerkug
konteineru
konteksta
kontinenta
kontinentos
kontinentu
kontracepcijas
kontraste
kontrole
kontrolei
kontroles
kontroli
kontrolieri
kontrolieris
konts
kontu
konusa
konvencija
konvencijas
konvenciju
konventa
konvents
konverg
konversa
kooperati
koordina
koordine
kopa
kopas
kope
kopenha
kopgarums
kopi
kopiena
kopienai
kopienas
kopienu
kopija
kopijas
kopiju
koplietos
kopnes
kopoti
kopplati
kopraz
kops
kopsavilkums
kopskaita
kopskaits
kopsumma
kopu
kopuma
kopums
kopumu
kopuzn
kopvalsts
kopve
kora
koral
korc
kordirig
kordovas
koreja
korejas
korejies
korekcija
korekcijas
koresponde
korespondencs
korfs
kori
korig
korim
korinta
korintas
koris
kork
korn
korne
korol
korona
koronavi
korpora
korporati
korpusa
korpusam
korpusi
korpuss
korpusu
korti
kortosta
koru
korupcija
korupcijas
korupciju
kos
kosas
kosme
kosmiska
kosmiskais
kosmiskaja
kosmiskie
kosmisko
kosmodroma
kosmolog
kosmonaute
kosmonauti
kosmonautika
kosmonauts
kosmonautu
kosmopla
kosmos
kosmosa
kosova
kosovas
kostarika
kostarikas
kosti
kot
kota
kotaja
kotas
kotdivua
kote
koti
koties
kotne
kotnes
kotni
kots
kotu
kounotori
kova
koval
kovas
kovic
kovs
koz
kp
kpe
kpfsr
kprogramma
kpv
kr
kra
krakova
krakovas
krama
kramal
krasa
krasi
krasnojarskas
krasta
krastam
krasti
krastiem
krastin
krastmala
krastos
krasts
krastu
krastus
krati
krauja
kraujas
kraukl
krauklis
krauze
krava
kravas
kravc
kravnesi
kravu
kre
krebs
kredi
kreigs
kreis
kreisa
kreisais
kreisaja
kreisi
kreiso
kreklin
kreml
kri
krietni
krievi
krieviem
krievija
krievijai
krievijas
krieviju
krievin
krieviski
krievs
krievu
krievvalodi
krievzeme
krievzemes
kriketa
krilovs
krima
krimas
krimina
krimu
krimuldas
kriptogra
kris
krishjaanis
kriss
krista
kristapa
kristaps
kristapu
kristi
kristia
kristians
kristies
kristieti
kristofers
kristofors
kristofs
kristu
kristus
krita
krite
kritik
kritika
kritikas
kritiku
kritis
kritiska
kritiski
kritisko
kritize
kritums
kritumu
kritus
kroders
kroga
krogs
kroka
kron
krona
kronbergs
krone
kroni
kronis
krons
kronvalda
kropl
kross
kru
krui
krupis
krupju
krusa
krusas
krusta
krusten
krusti
krustin
krustkna
krustnes
krustojas
krustojuma
krustojumam
krustojums
krustos
krustpils
krustpunkta
krusts
krustte
krustu
krusu
ks
ksi
ksies
ksla
kslai
kslas
ksli
ksliniece
kslinieces
kslinieciska
kslinieciskais
ksliniecisko
kslinieka
kslinieki
ksliniekiem
kslinieks
kslinieku
ksliniekus
kslu
ksme
ksmes
ksna
ksnas
ksne
ksnes
ksni
kst
ksta
kste
kstes
ksti
kstina
kston
kstone
kstoni
kstonis
kstos
kstoti
kstotis
ksts
kstu
kstums
kt
kta
ktas
kti
kties
ktiesi
kto
ktos
kts
ktu
ku
kuba
kuban
kubas
kublinskis
kubriks
kubu
kubulu
kuc
kuce
kug
kuja
kuka
kukain
kukainis
kuks
kukul
kukuru
kul
kula
kuldi
kulina
kulmina
kulta
kultive
kults
kultu
kultura
kuma
kumam
kumel
kumi
kumiem
kumlapa
kumos
kumposma
kums
kumskola
kumskolas
kumtauti
kumu
kumus
kun
kundze
kundzi
kundzin
kunga
kungs
kungu
kunigais
kunigaiti
kunigaitijas
kunigaitis
kupla
kupola
kupols
kur
kura
kurai
kuram
kuras
kurbads
kurdista
kurdu
kurel
kurga
kuri
kuriem
kurienes
kuril
kurina
kuris
kurkul
kurla
kurland
kurmenes
kurmis
kuros
kurs
kursa
kursas
kurse
kursi
kurskas
kursos
kurss
kursu
kursus
kurt
kurts
kuru
kurus
kurvjziez
kurzeme
kurzemes
kurzemi
kus
kusalas
kusi
kusies
kustas
kuste
kusti
kuveita
kuveitas
kuzmins
kuzn
kv
kvadra
kvalifice
kvalifika
kvalita
kvalitati
kvantitati
kvantu
kvarca
kvarta
kvartets
kve
kvebeka
kvebekas
kvi
kvies
kw
kyiv
l
la
lab
laba
labad
labais
labaja
labas
labdari
labe
labi
labieka
labiem
labkla
labo
laboja
labojumi
labojumiem
labojumu
labojumus
laboratorija
laboratorijas
laboratoriju
laboratory
labos
labot
labots
labpra
labs
labu
labuma
labumu
labus
labve
lactarius
lada
lady
ladytron
laga
lagu
lahti
lai
laici
laida
laidn
laidzes
laik
laika
laikam
laikapsta
laiki
laikiem
laikmeta
laikmetam
laikmeti
laikmets
laikmetu
laikos
laikposma
laikraksta
laikrakstam
laikraksti
laikrakstos
laikraksts
laikrakstu
laiks
laiku
laikus
laila
laima
laimas
laimdotas
laime
laimes
laimi
laimonis
laina
laipni
lais
laists
laiva
laivas
laivu
laiz
laiza
laja
lajai
lajam
lajiem
lajos
lake
lakers
lakstaugs
laksti
lakta
lam
lama
lamana
lamans
lamanti
lamas
lambda
lamerika
lamerikas
lamina
lamo
lampa
lampas
lampu
lams
lamu
lan
lana
lancetiskas
land
lande
landes
landesve
landi
landmars
landra
landta
lang
lange
language
languages
lanius
laosa
lapa
lapas
lapblusin
lapc
lapgrauz
lapin
lapkoku
lapmez
lappuse
lappuses
lapsa
lapsas
lapstra
lapsu
laptevu
lapu
laputis
laputu
lapzeme
large
larisa
larry
lars
larsena
larsens
larss
larus
las
lasa
lasi
lasot
last
lasti
lasvegasa
lat
lata
late
latera
latgal
latgale
latgales
latgali
latgalies
latgaliski
latgolas
lati
latin
latreille
lattelecom
latu
latus
latv
latva
latvenergo
latvia
latvian
latvies
latvieti
latvietis
latvija
latvijai
latvijas
latviju
latviska
latviski
latvju
lau
laucienes
laucin
lauda
lauderu
lauka
laukakmen
lauki
laukiem
laukos
lauks
lauksaimnieci
lauksaimnieks
lauksaimnieku
lauku
laukuma
laukumam
laukumi
laukumiem
laukums
laukumu
laukus
laula
lauli
launch
laupi
laura
laurea
lauri
laurijs
lauris
lauru
laus
lauva
lauvas
lauvron
lauvu
lauz
lauza
lava
lavas
lavi
lavs
law
lawrence
laz
lazda
lazdin
lazdonas
lazdu
lazdukalna
lazio
lb
lberga
lbergs
lbl
lbrauce
lc
lcd
lcietuma
lcp
ld
lda
ldal
ldas
ldemokra
ldirektors
lds
ldz
le
leafs
league
learning
lec
led
leda
ledu
ledus
ledusla
lee
leeds
left
leg
lega
legalize
legend
legzdin
lei
leiboristu
leicester
leikoci
leiman
leimanis
leipciga
leipcigas
leipzig
leiropa
leiropas
leis
leitnanta
leitnants
leitnantu
leja
lejas
lejasciema
lejasdal
lejassaksija
lejassile
lejin
lejpus
lejtece
lejteces
leju
lejup
lejupiela
lejupsli
lekcija
lekcijas
lekciju
leks
lektors
lel
lelb
lelde
lelle
lelles
lema
lembergs
lemes
lemur
len
lendz
lene
lenes
lens
lente
lentes
lenti
leo
leona
leonardo
leonards
leonas
leoni
leons
leopard
leopardi
leopards
leopolda
leopolds
lepus
lerijs
lers
les
lesera
lestenes
lesti
let
leta
letgal
letonika
lettischen
lettland
lettonia
letu
lev
level
leverku
levi
levits
lewis
lexikon
lez
lf
lfeldmars
lff
lfilma
lfilmas
lg
lgbt
lgra
lgubernatora
lgubernators
lgubernatoru
lh
li
lia
liba
libe
libera
libertadores
liberty
library
liceja
licence
licences
licenci
license
licis
lidapara
lidija
lidingo
lidlauka
lidlauks
lidlauku
lidmas
lido
lidoja
lidojos
lidojot
lidojuma
lidojumam
lidojumi
lidojumiem
lidojums
lidojumu
lidojumus
lidos
lidosta
lidostas
lidostu
lidot
lidota
lidsabiedri
lidspalvas
lidva
lie
lieci
liecina
liecinieki
liedza
lieguma
liegumi
liegums
liek
lieka
liekas
liekot
liela
lielai
lielais
lielaja
lielajai
lielajam
lielajiem
lielajos
lielam
lielas
lielauces
lielbrita
lielcel
lielciemi
lielciems
lieldienu
lielgabali
lielgabaliem
lielgabals
lielgabalu
lielgabalus
lielhercogs
lieli
lielie
lieliem
lielinieki
lieliniekiem
lielinieku
lieliska
lieliski
lielisks
lielisku
lielkn
lielkrusta
liellopu
lielloz
lielmeistara
lielmeistare
lielmeistares
lielmeistari
lielmeistars
lielmeistaru
lielo
lielos
lielpilse
lielpolijas
liels
lielu
lieluma
lielumi
lielums
lielumu
lielupe
lielupes
lielupi
lielus
lielva
lielvalsti
lielvalsts
lielvalstu
lielvezi
lielvirsnieki
liem
liena
liene
lienes
lienos
liepa
liepas
liepin
liepnas
liepu
liepupes
lies
liesma
liesmas
lieta
lietas
lietavas
lietderi
lietis
lieto
lietoja
lietojama
lietojis
lietojot
lietojuma
lietojumprogramma
lietojumprogrammas
lietojumprogrammu
lietojums
lietojumu
lietos
lietot
lietota
lietotas
lietoti
lietotne
lietotnes
lietots
lietu
lietus
lietusga
lietuva
lietuvai
lietuvas
lietuvies
lietuviski
lietuvos
lietuvu
lietva
lieze
life
liga
ligatu
light
lightning
ligu
ligue
ligzda
ligzdai
ligzdas
ligzdo
ligzdojos
ligzdos
ligzdota
ligzdu
lihtens
lija
lijai
lijam
lijas
lijs
liju
lik
lika
like
likme
likmes
likmi
liks
likss
likt
likten
likteni
liktenis
likts
likuma
likumam
likumdeve
likumdos
likumi
likumiem
likumos
likumprojektu
likums
likumsakari
likumu
likumus
likvida
likvide
lil
lilija
lilijas
liliju
lille
lillehammere
lim
lima
limbaz
limited
limits
lin
lina
linards
linc
lincoln
linda
linde
line
linea
lines
linga
linin
link
linkolna
linkolns
links
linnaeus
lins
linu
linux
lion
liona
lionas
lions
lionsgate
lipa
lipi
lirika
lis
lisa
lisabona
lisabonas
liska
liski
lisko
lisku
lisma
lismam
lisms
lismu
list
lista
listam
liste
listes
listi
listiem
listika
listikas
listiska
listiskaja
listisko
listisku
lists
listu
listus
litenes
litera
literatu
literatura
literature
lithuania
lithuanian
litija
litogra
litru
little
liturg
liu
liuss
liv
livaldis
livalz
live
liverpool
liverpu
living
livla
livland
livonia
livoniae
livonija
livonijas
livoniju
liza
lizpe
lizsta
lizuma
lje
lk
lkomitejas
lkp
ll
llaika
llc
lle
lleitnants
ller
lloyd
llu
lma
lmajors
lmajoru
lman
lmanis
lme
lmenedz
lmes
lmi
lmt
lmu
ln
lnb
lndb
lng
lnieci
lnieka
lnieki
lniekiem
lnieks
lnieku
lnnk
lnt
lo
loban
lobe
loc
local
locekl
locekle
locekli
loceklis
loci
lockheed
lode
lodes
lodge
lodi
lodveida
lodz
lodzas
lodzin
loeblich
log
loga
logi
logiem
logo
logos
logotips
logs
logu
loids
loja
lojalita
lojas
lojis
lojot
lojums
lojumu
lojusi
loka
lokaliza
lokalize
lokam
lokauta
loki
lokomoti
lokomotiv
loks
loku
lolita
loma
lomai
lomas
lombardijas
lomonosova
lomu
lon
london
londona
londonas
londonu
lonely
long
longje
loni
lonis
look
looking
lopbari
lopess
lopkopi
lopu
lora
lord
lords
lorenca
lorencs
lorensa
lorenss
los
losandz
lost
lot
lota
lotais
lotas
loti
loties
lots
lotu
lotus
louis
love
loves
low
loz
loze
lp
lpasuga
lpili
lpils
lpp
lpsr
lr
lreiz
lrun
lruni
lrunis
ls
lsabiedri
lsasta
lscena
lsd
lsdsp
lse
lsekreta
lsirdi
lskola
lsm
lsocia
lspe
lspr
lsska
lsu
lt
ltd
ltf
ltirgus
lturni
ltv
lu
lua
luba
lubus
luc
ludmila
ludviga
ludvigs
ludwig
ludza
ludzas
luftwaffe
luga
lugas
lugaz
lugu
luhanskas
lui
luidz
luija
luijs
luis
luisa
luiss
luizia
luka
lukas
luks
luksemburga
luksemburgas
luksemburgu
luksusa
luma
lumi
lumos
lums
lumu
lumus
lun
luna
lunar
lundas
lus
lusies
lut
lutera
luteriska
luters
lutertici
lutrin
lutzomyia
luz
luzula
lv
lvc
lveida
lvg
lvgmc
lvi
lviena
lvu
lvva
lynx
lza
lzs
m
ma
mac
macdonald
macelverey
machine
macintosh
macrosiphoniella
mad
madagaskara
madagaskaras
madara
made
madlienas
madona
madonas
madonna
madonnas
madrid
madride
madrides
mag
magazi
magazine
magdale
magdeburgas
magela
magic
magn
magna
magne
magnetic
magnija
magnus
magnusa
magnuss
maha
mahers
mai
maiami
maiga
maija
maijam
maijs
maiju
maikla
maikls
maiklu
maiks
mail
main
maina
mainas
maini
mainot
mainoties
mais
maisi
maisin
maitas
maitu
maize
maizes
maizi
maja
majesta
majiem
major
majora
majors
majoru
mak
maka
make
making
makrel
makrofi
maks
maksa
maksas
maksima
maksimilia
maksims
maksimums
maksimumu
maksis
makss
maksts
maksu
maksvela
mal
mala
malaizija
malaizijas
malajas
malajies
malas
maldi
maldina
male
mali
malienas
malin
malme
malnavas
malta
maltas
malti
maltu
malu
mam
mamma
mammal
mammals
man
mana
manado
management
manas
manc
manchester
manda
mandz
mane
manevre
manevri
manevrs
manevru
manevrus
manga
mangal
mango
manheimas
mani
manifesta
manifestu
manila
manipula
manipulatora
manipulators
manipulatoru
manipule
manis
mann
manna
manns
manor
mans
mansards
manta
mantas
mantijas
mantinieki
mantinieks
mantinieku
mantoja
mantojuma
mantojums
mantojumu
mantos
mantu
mantzinis
manu
manua
manuels
manufaktu
manupra
many
mao
map
maple
maps
mar
maratona
maratons
marc
march
mare
mareks
marg
marga
margare
margarita
mari
maria
marians
marie
marihua
marija
marijai
marijas
marijs
mariju
marina
marine
mariner
mario
mariones
mariss
maritime
mariupole
mariupoles
mark
marka
markas
marker
markgra
marko
marks
marksa
marksisma
marksistu
markss
marku
markus
markuss
marmora
maroka
marokas
mars
marsa
marseille
marsel
marsels
marshall
marss
marsu
marta
martam
martas
marti
martin
martina
martins
marts
martu
marvel
mary
mas
masa
masac
masas
masi
maska
maskare
maskas
maskava
maskavas
maskavijas
maskavu
maske
masku
mass
master
masters
mastu
masu
masveida
masveidi
mata
matai
matas
match
matches
mate
mateja
matema
materia
materials
mathbf
mathematics
mathrm
mati
matiass
matiem
matin
matojums
matrica
matricas
matricu
matrikula
matroz
mats
matu
matvedi
mauri
maurice
maurin
maurita
mauritius
mauzoleja
mavericks
max
maxima
may
maya
mayer
maz
maza
mazais
mazaja
mazajiem
mazapdzi
mazas
mazbe
mazciemi
mazciems
mazda
mazde
mazga
mazgadi
mazi
mazie
maziem
mazina
mazjumpravas
mazkusti
mazliet
maznozi
mazo
mazos
mazovijas
mazpilse
mazpolijas
mazs
mazsalaca
mazsalacas
mazspe
mazu
mazul
mazuli
mazulis
mazumtirdznieci
mazus
mazve
mb
mbit
mbox
mc
mcc
mcels
mclaren
md
me
mec
mecena
med
medal
medi
media
mediawiki
medic
medical
medici
medicine
medieval
mediji
medijiem
medijos
mediju
medik
medikamenti
medikamentu
medin
medita
medium
medma
medn
mednieki
mednieks
mednieku
mednis
medu
medumu
medus
medvedevs
medz
medzes
meeting
meg
meha
mehanize
mehiko
mehmeda
mehmeds
mei
meierovica
meierovics
meiers
meigen
meijers
meiks
meinas
meira
meisons
meistara
meistare
meistares
meistari
meistariem
meistars
meistarsaci
meistaru
meita
meitai
meitas
meitasuzn
meiten
meitene
meitenes
meiteni
meitin
meitu
mejs
meka
mekl
mekle
mekli
meksika
meksikas
meksiku
mel
mela
melba
melburna
meldri
mele
meles
meli
meliora
melis
melitaea
melluz
melna
melnais
melnaja
melnajiem
melnas
melngail
melngailis
melngalvas
melngalvju
melni
melnie
melniem
melnkalne
melnkalnes
melno
melns
melnsila
melnu
melo
melodija
melodijas
melodiju
members
membra
memfisas
memoranda
memoria
memorial
memory
mems
memua
men
mena
menas
mendel
mene
menedz
menes
meni
menim
menis
mens
menstrua
menta
menu
menus
mer
mera
mercedes
mercury
meri
meridia
merienas
merk
merku
merkura
meromyza
mers
mes
mesi
meslus
message
mestra
mestri
mestrs
mestru
met
meta
metal
metallica
metallurg
metalurg
metalurga
metalurgs
mete
meteo
meteor
meteori
meteorolog
meteostacija
meteozinas
meti
metiem
metiena
metieni
metiens
metienu
metienus
metina
metju
metode
metodes
metodi
metodolog
metoz
metra
metri
metriem
metro
metropole
metropoles
metropoli
metropolija
metropolijas
metropolite
metros
metrs
metru
metrus
mets
metso
metta
metu
metus
mexico
mez
mezgla
mezgli
mezgliem
mezgls
mezglu
mezopota
mg
mga
mhz
mi
mia
mic
michael
michel
microlink
microsoft
mid
middle
mie
miega
mielavs
miem
mieni
mieniem
miens
mienu
mienus
miera
mieri
mierlauks
miermi
miers
mieru
miervaldis
mies
miesas
miesta
miests
miez
miezis
mig
miga
migels
mighty
migla
miglas
migra
migre
migu
mihaels
mihaila
mihails
mihailu
mihals
mija
mijai
mijas
mijiedarbi
miju
mik
mika
mike
mikelandz
mikologu
mikorizas
mikroautobusu
mikrobiolog
mikrofona
mikrofons
mikrone
mikroorganismi
mikroorganismu
mikrorajona
mikrorajons
mikroshe
mikrovil
miks
mikse
mil
mila
milan
milans
milda
mile
milicijas
milimetri
milimetrus
milita
military
milj
miljardi
miljardiem
miljardu
miljardus
miljona
miljoni
miljoniem
miljonos
miljons
miljonu
miljonus
miller
millera
millers
million
milos
miltu
milvoki
milz
milzi
milzu
min
mina
minami
minardi
mind
mindat
mindauga
mindaugs
mine
minera
mineralog
minesotas
minhene
minhenes
mini
miniatu
minima
minimums
miniseria
ministra
ministram
ministre
ministres
ministri
ministriem
ministrija
ministrijai
ministrijas
ministriju
ministrs
ministru
minor
minora
minorita
minska
minskas
minu
mioce
miokarda
mir
mira
miras
mirdza
mirdzas
mirdzizla
mirdzos
mire
mires
miris
mirkl
mirkli
miron
miroslavs
mirs
mirst
mirsti
mirt
mirus
mirusi
mis
misa
misas
misija
misijas
misiju
misin
misiona
misisipi
miska
miskais
miskaja
miskas
miski
miskie
misko
miskos
misku
miss
mission
miste
misters
misti
mistik
mists
mistu
misu
mit
mita
mitau
mitina
mitis
mitolog
mitra
mitras
mitros
mitrs
mitru
mitruma
mitrums
mitrumu
mits
mix
miza
mizas
mizloz
mizu
mja
mjanma
mjanmas
mji
mju
mk
ml
mlb
mlj
mls
mm
mn
mo
mobila
mobilais
mobilaja
mobile
mobilie
mobilita
mobiliza
mobilize
mobilo
mocarta
mocarts
moci
modas
mode
model
modele
modeli
modelim
modelis
modenas
modern
moderna
modernaja
modernisma
moderniza
modernize
moderno
modernu
modes
modifice
modifika
modo
modris
modul
modula
module
moduli
modulis
mogil
mogo
mogs
mogu
moks
mol
mola
molda
moldova
moldovas
molecular
molekula
molekulas
molekulu
moli
molje
molnija
molotova
molotovs
mols
molu
momenta
moments
momentu
mon
mona
monaco
monako
monarhi
monarhija
monarhijas
monarhiju
monarhs
monarhu
mone
moneta
money
mongol
mongolija
mongolijas
monika
monoga
monogra
monoli
monrea
monro
mons
monta
monte
monumenta
monuments
moon
moore
mora
more
moreno
mores
morfolog
morgans
morics
moriss
morning
mos
moscow
moss
most
mother
moti
motion
motiva
motive
moto
motociklu
motokrosa
motor
motora
motorize
motorola
motors
motorsport
motoru
mount
mountain
mountains
movement
movie
mozai
mozambikas
mozart
mozus
mp
mr
mredzami
mredzot
ms
msala
msalas
msaras
mstislavic
mstislavs
mt
mtv
mu
muca
mucenieks
much
mudina
mugura
muguras
mugure
mugurkaula
mugurkaulnieku
mugurpuse
muguru
muhameda
muhameds
muitas
muiz
muiza
muktupa
mul
mulsant
multi
multimediju
multiplika
muma
mumam
mumi
mumiem
mumos
mums
mumu
mumus
muni
munich
municipalita
mura
murada
murads
murja
murmastienes
mus
muse
museum
musi
music
muskul
muskulatu
muskulis
musoli
must
mustafa
mustela
musulman
muta
mute
mutes
muti
mutva
muzeja
muzejam
muzeji
muzejs
muzeju
muzice
muzika
mv
mvp
mw
mx
my
mycobank
myspace
mysql
n
na
naba
nabadzi
nach
naciona
nacional
nacionaliza
nacionalize
nacisti
nacistiska
nacistu
nadez
nafta
naftas
naftu
nagano
nagi
nagiem
nagl
nagu
nai
naida
naidi
nails
nais
naja
najiem
naks
nakti
naktis
nakts
nal
nam
nama
namam
name
names
nami
namiem
namin
nams
namu
nan
nana
nano
nanopavadon
nantes
napoleona
napoleons
napoleonu
napoli
narkotiku
naruto
narva
narvas
nas
nasa
nasdaq
nat
nata
natas
nation
national
nations
native
nato
natura
natural
nature
nauda
naudas
naudu
naujenes
nauks
nauru
nautre
nav
nava
naval
naviga
navigation
naz
naza
nazi
nba
nbc
nberga
nbergs
nbs
nbu
nc
ncaa
ncbi
ncens
ncensi
nchen
nd
nde
ndische
ndischen
ne
neaizsarga
neakti
neapbrun
neapdzi
neapmierina
neapole
neapoles
neaps
neapstiprina
neapstra
neapstri
neapzina
near
neatbalsta
neatbalsti
neatbilst
neatbilsti
neatbilstos
neatka
neatkari
neatkla
neatl
neatlaidi
neatliekama
neatn
neatrada
neatrisina
neatrodas
neats
neatsta
neatti
neattiecas
neatzi
neatzina
neaugli
nebalsi
nebija
nebri
nebu
nec
nedala
nedarbojas
nedari
nedaudz
nede
nederi
nedeva
nedod
nedoma
nedri
nedros
nedz
nedze
nedzi
nedzirdi
nee
need
neefekti
neeksiste
neesami
neesmu
neesos
neesot
nefinis
neforma
negadi
negaidi
negaisa
negaisi
negaiss
negaisu
negati
negli
negribe
neguva
neherme
nei
neiders
neieguva
neiekl
neierobez
neiesaisti
neiespe
neietekme
neietilpst
neieve
neiks
neilands
neilga
neilgi
neilgu
neimanis
neinere
neirolog
neironu
neitra
neitralita
neitralize
neitronu
neizbe
neizci
neizdeva
neizdevi
neizdodas
neizmanto
neizs
nejaus
neka
nekad
nekaiti
nekas
nekave
nekl
nekla
neko
nekontrole
nekropole
nekta
nekur
nekustama
nekustamo
nekusti
nekvalifice
nel
nelabve
nelaime
nelaimes
nelaimi
nelega
neli
neliela
nelielas
nelieli
nelieliem
nelielo
nelielos
neliels
nelielu
nelielus
nelieto
nelikumi
nelsons
nema
nemaina
nemaini
nemaz
neme
nemieri
nemieriem
nemiernieki
nemiernieku
nemieru
nemierus
nemirsti
nemiti
nemunas
nen
nena
nenodros
nenona
nenora
nenoteikti
nenoteiktu
nenotiek
nenotika
nenove
nenozi
neo
neoficia
neogotikas
neoklasicisma
neoli
neorganiska
nepa
nepabeigta
nepabeigti
nepakl
nepamani
nepara
neparasta
neparasti
neparedze
nepareiza
nepareizi
nepaspe
nepasta
nepati
nepatika
nepazi
nepiecies
nepiedala
nepiedali
nepieder
nepiekri
nepiekrita
nepiel
nepieme
nepien
nepieredze
nepies
nepiesa
nepietiek
nepietiekama
nepietiekami
nepilna
nepilngadi
nepilni
nepilnu
nepilson
nepla
nepra
nepreci
neptu
nepublice
neputns
nera
nerada
neradi
neraksturi
neraugoties
neredze
neredzi
neredzu
nereg
neregula
nerelig
nereta
neretas
nereti
neru
neruna
nervu
nes
nesa
nesaisti
nesan
nesaskan
nesasniedza
nesatur
nese
nesekmi
nesen
nesena
nesi
nesim
nesis
neskaidra
neskaidri
neskaita
neskaitot
neskatoties
nesos
nesot
nespe
ness
nest
nesta
nestabila
nestabilita
nestarte
neste
nestra
nesus
net
neta
netaisni
netflix
neti
netici
netiek
neties
netika
netiks
netiktu
netradiciona
netrauce
nets
neturpina
network
networks
neu
neue
neuhof
neuzbruks
neuzmani
neuzskata
neuzskati
neuzsve
neuztici
nevada
nevaini
nevajadze
nevajadzi
nevajag
nevalstiska
nevar
nevare
nevari
nevaru
neve
neveido
neveiksme
neveiksmes
neveiksmi
never
neviena
nevienai
nevienam
nevienas
nevienli
nevienme
neviens
nevienu
nevis
new
newcastle
news
newsletter
next
nez
neza
nezaude
nezin
nezina
nezinu
nezu
nfl
ng
nh
nhl
ni
nic
nica
nice
nicholas
nie
niece
nieces
nieci
niedra
niedras
niedre
niedres
niedru
nieka
niekam
nieki
niekiem
nieks
nieku
niekus
niem
niere
nieres
nieru
nies
niete
nige
night
nightwish
nigra
nigsberga
nigsbergas
nija
nijai
nijam
nijas
nijs
niju
nik
nika
nikaragva
nikaragvas
nikas
niko
nikola
nikolaja
nikolajam
nikolajs
nikolaju
nikolass
nikoti
niks
niksa
niksas
niksona
niksons
nikss
niku
nils
nim
nimfas
nin
nina
nine
ninja
nino
nintendo
nire
nirnbergas
nirs
nirzas
nis
niska
niskais
niskaja
niskas
niski
niskie
niskiem
nisko
niskos
nisku
nisma
nismi
nismiem
nisms
nismu
nismus
nissan
nisti
nists
nistu
nitra
nitri
nk
nkvd
nle
nm
nmete
no
noa
noaa
noapal
nobalsoja
nobalsos
nobalsot
nobela
nobi
noblok
nobriedus
nocietina
nodal
nodala
nodali
nodarbi
nodarbina
nodarboja
nodarbojas
nodarbojies
nodarbos
nodarboties
nodari
node
nodedzina
nodega
noder
nodere
noderi
nodeva
nodevas
nodeve
nodevi
nodevu
nodibina
nodibinot
nodod
nododot
nodokl
nodokli
nodoklis
nodomu
nodos
nodot
nodota
nodotas
nodoti
nodots
nodros
nodze
nodzi
noe
nofilme
noforme
noformule
nofotografe
noga
nogale
nogales
nogalina
nogalinot
noglaba
nogremde
nogriez
nogrima
nogu
noguldi
nogulsne
nogulumi
nogulumiem
nogulumiez
nogulumos
nogulumu
noir
noja
nojauca
nojauks
nojaukt
nojaukta
nojauktas
nojis
nojuma
nojums
nojumu
nok
noka
nokarte
nokia
nokl
nokla
noklausi
nokluse
nokra
nokri
nokris
nokrita
nola
nolaida
nolais
nolaiz
nolasa
nolasi
nolaupi
nole
nolemj
nolemts
noli
noliedz
noliedza
nolija
nolika
noliktava
noliktavas
noliktavu
nolikums
nolu
noma
nomain
nomaina
nomaini
nomainot
nomal
nomale
nomas
nome
nomedi
nomenklatu
nometina
nometn
nometne
nometnes
nometni
nometnieki
nomierina
nomina
nominati
nomine
nomira
nomirst
non
nona
noorganize
nope
nopelni
nopelniem
nopelnot
nopelnu
nopietna
nopietnas
nopietni
nopietns
nopietnu
nopietnus
nopirka
nopirkt
nopirkts
noplu
noposti
nora
noraida
noraidi
noraksti
nord
nordens
nordic
nordik
nore
noregule
nori
noriets
noris
norise
norises
norisi
norisina
norit
norite
norma
normai
normalize
norman
normandijas
normans
normas
normati
normu
normunds
norobez
north
northern
norve
nos
nosaci
nosaka
nosakot
nosarga
nosauc
nosauca
nosaucis
nosaucot
nosaukt
nosaukta
nosauktas
nosaukti
nosaukts
nosaukuma
nosaukumam
nosaukumi
nosaukumiem
nosaukumos
nosaukums
nosaukumu
nosaukumus
nose
nosedz
noskaidro
noskaidroja
noskaidros
noskaidrot
noskaidrots
noskaidrotu
noskan
noskati
nosla
nosle
nosli
nosodi
nospe
nospiez
nost
nosta
nostabilize
nostiprina
nostiprinot
nostra
nosu
nosusina
not
nota
notais
notas
note
notece
noteces
noteica
noteice
noteicos
noteiks
noteikt
noteikta
noteiktaja
noteiktam
noteiktas
noteikti
noteiktiem
noteikto
noteiktos
noteikts
noteiktu
noteikumi
noteikumiem
noteikumos
noteikums
noteikumu
noteikumus
noteku
notes
nothing
noti
noticis
notiek
notiekos
noties
notiesa
notika
notiks
notikt
notiktu
notikuma
notikumi
notikumiem
notikumos
notikums
notikumu
notikumus
notikus
notikusi
notis
noto
notoc
notrieca
nots
nottingham
notu
notur
noture
noturi
nov
nova
novada
novadam
novadi
novadiem
novadnieki
novados
novadpe
novads
novadu
novadus
novaja
nove
novecojis
novecojus
noved
noveda
novel
novele
noveles
november
novembra
novembri
novembrim
novembris
novest
novgoroda
novgorodas
novgorodu
novi
novieto
novietoja
novietojuma
novietojums
novietojumu
novietot
novietota
novietotas
novietoti
novietots
novirze
novirzes
novirzi
novosibirskas
now
noz
nozare
nozares
nozari
nozaru
nozi
noziedzi
noziedznieki
noziedznieks
noziedznieku
nozieguma
noziegumi
noziegumiem
noziegumos
noziegums
noziegumu
npu
nr
nra
ns
nsdap
nsiss
nsiste
nska
nss
nt
nta
nten
nts
nu
nuclear
nuggets
nulle
nulles
nulli
numa
number
numera
numi
nums
numu
numura
numure
numuri
numurs
numuru
numurus
nus
nuss
nuts
nuzn
nveida
nveidi
nvo
nvs
ny
nyc
o
oa
obama
obas
object
objects
objekta
objektam
objekti
objektiem
objekts
objektu
objektus
obliga
obri
observatorija
observatorijas
obss
oc
ocean
och
oclc
october
oda
ode
oder
oderas
odes
odesa
odesas
odien
odienas
odin
odiseja
odu
odz
odze
odzes
oels
of
ofensi
off
office
official
oficia
oga
ogad
ogas
ogists
ogl
ogle
oglekl
oglekli
ogleklis
ogles
ogota
ogre
ogres
ogresgala
ogs
ogu
oh
ohaio
oil
oilers
ois
oja
ojama
ojas
ojis
ojos
ojot
ojuma
ojumam
ojumi
ojumiem
ojumos
ojums
ojumu
ojumus
ojus
ojusi
ok
oka
oke
okea
okeanogra
okl
oklahomasitijas
okli
okola
oks
oksforda
oksfordas
oksi
okside
okta
oktavia
oktobra
oktobri
oktobrim
oktobris
oku
okupa
okupe
ol
ola
olafs
olaine
olaines
olas
olbaltumviela
olbaltumvielas
olbaltumvielu
old
ole
olga
olgas
oli
olimpbase
olimpia
olimpija
olimpiska
olimpiskais
olimpiskaja
olimpiskajiem
olimpiskajos
olimpiskie
olimpisko
olin
oliveira
oliver
olivers
olivje
olni
olomoucas
ols
olu
olveidi
olympedia
olympiad
olympiads
olympic
olympics
olympique
oma
omega
omon
omskas
omx
on
ona
onam
onas
onatans
once
one
oni
onijs
onis
onkolog
online
only
ons
onsa
onsona
onsons
onss
onta
onu
op
ope
opel
open
opengl
opera
operas
operati
operation
operatora
operatori
operatorname
operators
operatoru
operdzieda
opere
operetes
opertea
operu
opoles
opozi
ops
optika
optima
optimize
optiska
optiskais
optisko
opus
or
ora
oracle
orange
oranz
orators
orbi
orbita
orbital
orbiter
orda
ordans
ordas
orden
ordeni
ordenim
ordenis
order
ordina
ordine
ordz
ore
oreiz
orenburgas
org
orga
organiska
organiskaja
organisko
organisma
organismi
organismiem
organisms
organismu
organiza
organization
organizatori
organizatoriem
organizators
organizatoru
organize
organoi
orhideju
ori
orienta
orientalis
orientation
oriente
orig
origin
original
origins
orion
ork
orka
orlando
orlas
orlea
ornajas
ornitolog
ornobil
ors
ortodoksa
ortofoto
ortogra
ortons
ortope
oru
orz
os
oscar
oseja
osejas
oseju
oseti
osi
osis
oskara
oskars
oskaru
oslo
osman
osmans
ost
osta
ostakovic
ostapenko
ostas
ostina
ostlandes
ostrovas
ostrovskis
ostu
osu
osvalds
ot
ota
otais
otaja
otajiem
otajos
otas
otavas
otepe
other
oti
otie
otiem
oties
otne
otnes
otni
oto
otos
otra
otrai
otrais
otraja
otrajai
otrajam
otram
otras
otrdiena
otrie
otrka
otro
otrpus
otrreiz
otrreize
otrs
otru
ots
otto
otu
otus
ou
ouens
oulu
our
out
ov
ova
ovam
ovanni
ovas
over
overline
overview
ovi
ovis
ovos
ovs
ovu
owl
own
oxford
oy
oyj
oz
ozefa
ozefs
ozola
ozolaines
ozoli
ozolin
ozolmuiz
ozolnieku
ozols
ozolu
p
pa
paa
paaudz
paaudze
paaudzes
paaudzi
paaugstina
paaugstinot
pabalstu
pabe
pabeidz
pabeidza
pabeidzis
pabeidzot
pabeigs
pabeigt
pabeigta
pabeigti
pabeigts
pablo
pac
pace
pacel
pacels
pacelt
pacelta
pacelties
pacepli
pacers
pacienta
pacienti
pacientiem
pacients
pacientu
pacific
padara
padari
padarot
padeva
padevi
padoma
padomdeve
padome
padomei
padomes
padomi
padomju
padomnieks
padomnieku
pados
padoties
padsmit
padsmita
padures
padzi
padzil
padzina
pae
pag
paga
pagaida
pagaidu
pagalma
pagalms
pagalmu
pagarina
pagasta
pagastam
pagasti
pagastiem
pagastos
pagasts
pagastskola
pagastu
pagastus
pagatavos
page
pages
pagla
pagodina
pagraba
pagri
pagries
pagriez
pagrieziena
pagu
pahars
paiet
paisuma
paju
paka
pakakle
pakal
pakalna
pakalnu
pakalpojuma
pakalpojumi
pakalpojumiem
pakalpojums
pakalpojumu
pakalpojumus
pakaus
pakes
pakete
paketes
paketi
pakista
pakl
pakla
paklausi
pakta
pakts
paktu
pal
pala
palace
palaida
palais
palaist
palaista
palaisti
palaists
palaiz
palangas
paldies
pale
paleoli
paleontolog
palermo
palesti
pali
palicis
paliek
palieka
paliekas
paliekos
paliekot
palielina
palielinot
palielinoties
paliene
palienes
palika
paliks
palikt
paliktu
palikus
palikusi
palma
palmas
palmer
palmu
palsmanes
palu
pama
pamana
pamani
pamata
pamatakmens
pamati
pamatiedzi
pamatiem
pamatiez
pamatizgli
pamatkapita
pamatkra
pamatli
pamatlice
pamatne
pamatnes
pamatni
pamatoja
pamatojas
pamatojot
pamatojoties
pamatojums
pamatojumu
pamatos
pamatota
pamatoti
pamats
pamatsasta
pamatskola
pamatskolas
pamatskolu
pamatu
pamatus
pamatva
pamaza
pamazina
pame
pames
pamest
pamesta
pamests
pamet
pameta
pametis
pametus
pamez
pami
pamiera
pamiers
pamieru
pamira
pampa
pamudina
pan
pana
panama
panamas
panamerikas
panda
pande
panel
paneve
pani
pankroka
panora
panorama
panoramio
pansiona
panta
panthera
panthers
pants
pantu
panzer
pao
paolo
papagail
pape
paper
papes
papi
papildina
papildinot
papildlaika
papildspe
papildu
papildus
paplas
papua
papuass
par
para
paradi
paradise
paragvaja
paragvajas
paraksta
paraksti
parakstot
paraksts
parakstu
parale
paralize
parametri
parametriem
parametru
parametrus
paramilita
paramount
parasta
parastais
parastaja
parastajiem
parasti
parastie
parasto
parasts
parauga
paraugi
paraugiem
paraugs
paraugu
paraugus
paraz
parazi
parazite
pardubices
paredz
paredze
paredzot
pareg
pareiza
pareizi
pareizraksti
pareizs
pareiztici
pareizu
parex
pari
paris
parita
park
parka
parkam
parki
parkos
parks
parku
parlamenta
parlamentam
parlaments
parlamentu
parma
pars
part
partial
partija
partijai
partijas
partiju
partiza
partizan
partnera
partneri
partneriem
partneris
partners
partneru
party
paru
pas
pasa
pasaka
pasakas
pasaku
pasarga
pasaule
pasaulei
pasaules
pasauli
pasaz
pase
pasi
pasienes
paska
paskaidro
paskaidroja
paskaidrojumi
paskati
pasle
pasliktina
pasludina
pasniedz
pasniedza
pasniedze
pasniegs
pasniegt
pasniegta
pasniegtas
pasniegts
paspa
paspe
past
pasta
pastaiga
pastiprina
pastmarka
pastor
pastora
pastra
pasts
pastu
pasu
pasuga
pasugas
pasugu
pasvi
pat
pate
pateica
pateici
pateicoties
pateikt
patente
patentu
pati
paties
patiesa
patiesais
patiesi
patieso
patiess
patika
patlaban
patn
patne
patni
patoge
patolog
patons
patri
patria
patriarha
patriarhs
patrick
patriks
patrona
patrul
patrule
pats
patskan
patskani
patskanis
patsta
patsvars
pature
patval
patve
patversme
patversmes
pauda
paugura
pauguraine
pauguraines
pauguri
paugurs
pauguru
paukos
paukota
pauks
paul
paula
pauli
paulo
pauls
paulu
pauz
pava
pavada
pavadi
pavadon
pavadoni
pavadonim
pavadonis
pavadot
pavairos
pavasara
pavasari
pavasaris
pave
paveica
paveida
paveidi
paveids
paveidu
paveras
pavia
paviljons
pavisam
pavlovs
pazaude
pazeme
pazemes
pazemina
pazi
pazin
pazu
pazuda
pazudis
pazudus
pb
pc
pci
pctvl
pdb
pdf
pe
peace
peahoone
pec
peda
pedagog
pedagogi
pedagogs
pedagogu
pededzes
pedro
pedru
pei
peidz
peile
pekina
pekinas
pekl
pekli
peklis
pel
pelc
peld
pelde
peldos
peldot
peldu
peldvieta
pele
peles
peli
pelicans
pelika
pelni
pelnu
pelopone
pels
pen
pendz
penguin
penguins
peniska
peniski
penisku
pensija
pensijas
pensiju
pensilva
pensiona
pensione
people
pepti
per
pere
peress
perfect
performance
performances
perife
perijs
perimetru
period
perioda
periodam
periodi
periodiem
periodika
periodiska
periodiski
periodos
periods
periodu
perma
permas
peroksi
perona
perons
perpendikula
pers
persies
persija
persijas
persiju
persona
personai
personas
personi
personiska
personiskais
personiskie
personisko
personu
personva
perspekti
peru
pes
peska
pesti
pestici
pet
pete
peter
peters
petersburg
petrograda
petrogradas
petrovic
petrovs
peugeot
pfsr
pg
ph
phase
phi
phil
philadelphia
philip
philosophy
phjonc
phoenix
photo
photos
php
phylloscopus
phylogenetic
phylogeny
phys
physical
physics
pi
pianisti
pianists
pic
pica
picture
pictures
pie
pieaicina
pieaudzis
pieaug
pieauga
pieaugos
pieaugot
pieaugs
pieaugt
pieauguma
pieaugums
pieaugumu
pieaugus
pieaugusi
piebalgas
piebilst
piebu
pieca
piecas
piecci
piecdesmit
pieci
pieciem
piecinieka
piecka
piecos
piecpadsmit
piecu
piecus
pied
pieda
piedala
piedali
piedaloties
piede
pieder
piedere
piederi
piederos
piederumi
piedeva
piedevas
piedn
piedruja
piedrujas
piedzi
piedzima
piedzimis
piedzims
piedzimst
piedzimstot
piedzin
pieeja
pieejama
pieejamas
pieejami
pieejamo
pieejams
pieejamu
pieejas
pieeju
piega
piegul
pieju
piek
pieka
piekarpatu
piekl
piekla
piekraste
piekrastes
piekrasti
piekri
piekris
piekrist
piekrita
piekrite
piekta
piektais
piektaja
piektdiena
piektdienas
piekto
pieku
piel
piela
pieli
pielieto
pielietoja
pielietojot
pielietojuma
pielietojums
pielietojumu
pielietos
pielietot
pielietota
pielietots
pielikuma
pielikums
pielu
piem
piemaisi
pieme
piemekle
piemi
piemin
piemine
pieminekl
pieminekli
piemineklis
pieminot
pien
piena
piens
pienska
pienu
piepilda
piepildi
piepilse
pieplu
pieprasa
pieprasi
pieprasot
piepu
piera
pieradina
pieraksta
pieraksti
pieraksts
piere
pieredze
pieredzes
pieredzi
pieres
pieri
pierobez
pierre
pieruna
pies
piesa
piesaista
piesaisti
piesaistot
piesaka
piesardzi
piesavina
pieska
pieskaita
pieskaiti
pieskan
pieskaras
piesle
piespe
piespieda
piespiedu
piespiest
piespiez
piesprieda
piespriests
piesta
piestiprina
piesu
pietauvos
pieteica
pieteiks
pieteikt
pieteikties
pieteikts
pieteikuma
pieteikumu
pieteka
pietekas
pieteku
pietici
pietiek
pietiekama
pietiekami
pietiekams
pietiekamu
pietiekos
pietru
pietur
pietura
pieturas
pieture
pieturu
pieturvieta
pieturvietas
pietuvina
pietuvoja
pieva
pievadi
pievakare
pieve
pievedcel
pieveica
pieveicot
pievieno
pievienoja
pievienojas
pievienojies
pievienojot
pievienojoties
pievienos
pievienot
pievienota
pievienotas
pievienoti
pievienoties
pievienots
pievilci
pievilina
pievilks
piezeme
piezi
pigmentu
pija
pijs
pik
pikaso
pike
piksel
pil
pila
pilda
pildas
pildi
pildot
pili
pilieni
pilienu
pilij
pilis
pilna
pilnais
pilnas
pilngadi
pilni
pilnmetra
pilno
pilns
pilntiesi
pilnu
pilnvaras
pilnvarotais
pilnvaroto
pilnvaru
pilnve
pilnveidos
pilota
pilotam
pilote
piloti
pilotiem
pilots
pilotu
pils
pilsdrupa
pilsdrupas
pilse
pilskalna
pilskalnes
pilskalni
pilskalniem
pilskalns
pilskalnu
pilskunga
pilsmuiz
pilsnovada
pilsnovads
pilsnovadu
pilson
pilsoni
pilsonis
pilsoniska
pilsonisko
piltenes
pin
pina
pingvi
pink
pinus
pioneer
pionieris
pionieru
pira
pirags
pirami
pirce
pireneju
pirks
pirksti
pirkstiem
pirkstu
pirkt
pirma
pirmais
pirmaja
pirmajai
pirmajam
pirmajiem
pirmajos
pirmatne
pirmatskan
pirmdiena
pirmie
pirmiedzi
pirmizra
pirmka
pirmkoda
pirmo
pirmoreiz
pirmos
pirms
pirmsa
pirmskaitl
pirmskara
pirmsskolas
pirts
pis
pistole
pistoli
pistons
pitalovas
pitera
pits
pitsburgas
pj
pjas
pjastu
pje
pjedesta
pjetro
pjot
pjoties
pjotrs
pju
pk
pl
pla
place
placebo
placenta
plaisa
plaisas
plaka
plakana
plakans
plakne
plaknei
plaknes
plakni
plan
plane
planet
planeta
plankumaina
plankumi
plankumiem
plankumu
plans
plant
planta
plants
plas
plastiska
plastmasas
plata
platais
platas
plate
plates
platforma
platformas
platformu
plati
platlapju
plato
platona
plats
platsliez
platu
platuma
platums
platumu
plaudis
plaukstas
plaukstos
plaus
plauz
play
playboi
player
playstation
plazma
plazmas
ple
please
pleca
pleciem
plecka
plecu
pleistoce
ples
pleskava
pleskavas
pleskavu
pletenbergs
pli
plkst
plosi
plu
pludmale
pludmales
plus
plutona
plzen
pm
pmatrix
pmid
pn
pne
pnes
png
pni
pnieci
pnieciska
pnieciski
pniecisko
pnieks
po
poc
podlases
podol
podzole
poe
poga
pogal
pogas
pogu
point
pokal
poke
pokera
pol
pola
polam
poland
polar
polariza
polarize
pole
poli
policija
policijai
policijas
policiju
policisti
policists
policistu
policy
poliem
poligona
poligra
polija
polijai
polijas
poliju
polikli
polime
polimeriza
poline
polis
polish
politbiroja
politehnikuma
politehniska
politehniskaja
political
politics
politieslodzi
politik
politika
politikai
politikas
politiku
politiska
politiskais
politiskaja
politiskajiem
politiskas
politiski
politiskie
politisko
politiskos
politisks
politisku
polo
polocka
polockas
pols
polski
poltavas
polu
polygon
pomera
pomoz
pon
ponijs
poniju
pop
popa
pope
popes
popgrupas
popmu
poproka
popula
popular
popularita
popularize
population
porcela
porsche
port
porta
portal
portati
portlendas
porto
portrait
portreti
portrets
portretu
portretus
portu
portuga
portugal
poruka
porzin
pos
position
posma
posmam
posmi
posmiem
posmka
posmos
posms
posmu
posmus
pospol
possible
post
posten
posteni
postenis
poster
posti
postos
posts
postu
pota
potencia
potera
poters
poti
potsdamas
power
powiat
pozi
poziciona
pozicione
poziti
poznan
pp
pr
pra
prague
prakse
prakses
praksi
praksta
praktiska
praktiski
praktisko
praktize
prapors
prasa
prasi
prasme
prasmes
prasmi
prata
prate
pratina
praulienas
praulin
pravies
pravietis
pre
prec
prece
preces
preci
precize
precizita
predators
prefektu
preil
premjera
premjerli
premjerministra
premjerministri
premjerministrs
premjerministru
premjers
premjeru
prepara
pres
presbite
prese
present
preses
president
presidential
press
prestiz
pret
prete
pretende
pretendentiem
pretendentu
pretenzija
pretenzijas
pretesti
pretgaisa
preti
pretim
pretinieka
pretiniekam
pretinieki
pretiniekiem
pretinieks
pretinieku
pretiniekus
pretoja
pretos
pretoties
pretpadomju
pretruna
pretrunas
pretruni
pretstata
prettanku
pretuzbrukuma
pretuzbrukums
pretuzbrukumu
prezenta
prezente
prezidenta
prezidentam
prezidente
prezidenti
prezidents
prezidentu
prezidija
prezidijs
prezidiju
pri
prieci
priedaines
priede
priedes
priedi
prieks
prieku
priekul
priekule
priekules
priestera
priesteri
priesteris
priesteru
priez
prima
prime
primiti
princ
prince
princese
princeses
princesi
princeton
princi
principa
principi
principia
principiem
princips
principu
principus
princis
prinstonas
printeri
priorita
priva
privatiza
privatize
privile
prix
prize
prizma
pro
proble
problem
problema
problems
procedu
proceedings
procenti
procentiem
procents
procentu
procentua
procentus
procesa
procesam
procesi
procesiem
procesora
procesors
procesoru
procesos
process
procesu
procesus
produce
producente
producenti
producentiem
producents
producentu
production
productions
products
produkcija
produkcijas
produkciju
produkta
produkti
produktiem
produktivita
produktos
produkts
produktu
produktus
prof
profesija
profesijas
profesiju
profesiona
profesora
profesore
profesori
profesors
profesoru
professional
profila
profile
profils
profilu
prognoze
program
programma
programmai
programmas
programmatu
programme
programmu
progresa
progrese
progresi
progress
progresu
project
projects
projekcija
projekcijas
projekciju
projekta
projektam
projekte
projekti
projektiem
projektos
projekts
projektu
projektus
projice
proklame
prokuratu
proletaria
prom
prombu
promena
promocijas
propaganda
propagandas
propagandu
properties
proporcija
proporcijas
proporciona
prospekta
prospekts
prospektu
prostitu
prot
protams
prote
protei
protektora
protesta
protestantu
proteste
protesti
protestiem
protestu
protestus
proti
protocol
protokola
protokoli
protokoliem
protokols
protokolu
protokolus
proton
protonu
prototips
prototipu
provinc
province
provinces
provinci
provincia
proza
prozas
pru
prz
ps
psala
psalas
psalu
pseidoni
pseidozina
psi
psihede
psihoanali
psiholog
psihologs
psis
pskp
pslv
psr
psrs
pstin
psv
psychology
pt
pta
pties
pts
ptu
ptuve
pu
public
publications
publice
publicists
publika
publikai
publikas
published
publishers
publishing
publiska
publiskais
publiskaja
publiski
publisko
publiskoja
publisku
puc
pudel
pudele
pudeles
puertoriko
pugac
puika
puis
puja
puk
pul
pulce
pulcin
pulka
pulkam
pulki
pulks
pulksten
pulksteni
pulkstenis
pulku
pulkvedi
pulkvedis
pulkvez
pulsa
pulvera
pulveri
puma
pumi
pumiem
pumpura
pumpuri
pumpurs
pumpuru
pums
pumu
pumus
punduri
pundurplane
punkta
punktam
punkti
punktiem
punktin
punktos
punkts
punktu
punktus
pupin
pupuk
pura
puren
puri
puriem
purin
purk
purna
purns
purnu
purpura
purs
puru
purus
purva
purvaina
purvciema
purvi
purviem
purvin
purvos
purvs
purvu
pus
pusapal
pusaudz
pusbra
pusdiena
puse
pusei
puses
pusfina
pusgada
pusgadu
pusi
puslode
puslodes
pusme
pusmuiz
pusnakti
pusnakts
pusotra
pusotru
puspunktu
pussabruks
pussala
pussalas
pussalu
pussarga
pussargs
pussycat
pusvadi
puta
putekl
puteks
putina
putins
putinu
putna
putne
putni
putniem
putnin
putns
putnu
putnus
puzes
pv
pvo
px
python
q
quad
quantum
quarter
que
queen
queens
quercus
query
questions
r
ra
rabi
rac
race
racing
raciona
rada
radara
radaru
rade
rades
radi
radia
radies
radika
radinieki
radiniekiem
radinieks
radinieku
radio
radioakti
radioba
radiostacija
radiostacijas
radiostaciju
radiouztve
radiovil
radis
radnieci
rados
radot
radresa
radu
radus
radusies
radvils
radz
radzin
raf
rafae
rafaels
raga
ragana
raganas
raganu
ragi
ragiem
rags
ragu
rai
raiba
raibais
raiben
raibenis
raibumin
raida
raide
raides
raidi
raidorganiza
raiens
rail
railway
raimonda
raimonds
rain
rainis
rais
raisi
raiskuma
raita
raits
raivis
raja
rajai
rajam
rajiem
rajona
rajonam
rajoni
rajoniem
rajonos
rajons
rajonu
rajonus
rajos
rak
raks
raksta
rakstam
raksti
rakstiem
rakstiska
rakstniece
rakstnieces
rakstnieci
rakstnieka
rakstnieki
rakstniekiem
rakstnieks
rakstnieku
rakstos
rakstot
raksts
rakstu
rakstura
raksturi
raksturo
raksturoja
raksturojos
raksturojums
raksturot
raksturots
raksturs
raksturu
rakstus
rakstzi
raktuve
raktuves
raktuvju
ralfs
rallija
ram
rammstein
ran
ranca
ranga
range
rangers
rangs
rangu
rankas
rapa
rapbedi
rapid
raplas
raptors
ras
rasa
rasas
rasbrauce
rascu
rase
rasela
rasels
rases
rasgrundulis
rasin
rasma
rast
rasties
rasts
rasu
raszirdzin
rata
rate
ratifice
ratin
rats
ratu
rauda
raudas
rauds
raudu
raudze
rauga
raugu
rauls
rauna
raunas
raunda
raundas
ravas
ray
raz
rb
rba
rbas
rbata
rbatas
rbauda
rbaude
rbaudes
rbaudi
rbe
rbeles
rbenes
rbi
rbrauktuve
rbrauktuves
rbs
rbu
rc
rce
rcel
rcels
rcelt
rcelta
rceltas
rcelti
rcelties
rcelts
rceltuve
rces
rci
rcienas
rcin
rcis
rd
rda
rdal
rdali
rdam
rdas
rdaugava
rdaugavas
rde
rdes
rdeva
rdeve
rdi
rdiem
rdin
rdis
rdni
rdod
rdodot
rdoma
rdomas
rdos
rdot
rdota
rdotas
rdoti
rdoto
rdots
rdoze
rds
rdu
rdus
rdz
rdzenes
rdzi
re
rea
reabilite
read
reading
reag
reakcija
reakcijas
reakciju
reakti
real
realita
realiza
realize
rec
recent
recenzija
recenzijas
receptori
record
records
red
redakcija
redakcijas
redaktora
redaktore
redaktori
redaktors
redaktoru
redig
redirect
reduce
redz
redzama
redzamais
redzamas
redzami
redzamo
redzams
redze
redzes
redzi
redzot
refera
reference
references
referenduma
referendums
referendumu
reforma
reformai
reformas
reforme
reformu
reg
regbija
regbists
regi
region
reglamente
regna
regula
regule
rehabilita
rei
reic
reigans
reiha
reihs
reihsta
reikenens
rein
reina
reinas
reinholds
reiniks
reinis
reinjona
reisa
reisi
reiss
reisu
reisus
reiters
reitinga
reitings
reitingu
reiz
reize
reizes
reizi
reizina
reja
rejas
rejot
rejs
reju
reke
rekla
reklame
rekomenda
rekomende
rekonstrue
rekonstrukcija
rekonstrukcijas
rekonstrukciju
rekorda
rekordi
rekords
rekordu
rekordus
rektora
rektors
rektoru
rel
rela
related
relati
relations
relativita
release
reli
relig
religion
relis
reljefa
reljefs
reljefu
rembates
remiksu
remix
remonta
remonte
remonts
remontu
remtes
ren
rena
renaja
renault
rence
rendas
rendere
rene
renes
renesanse
renesanses
reni
reno
renova
rens
renss
renu
reorganiza
reorganize
repa
repera
reperi
reperis
repertua
replika
report
represe
represija
represijas
represiju
reprezente
reprodukcija
reprodukti
reps
republic
republika
republikai
republikas
republiku
reputa
request
rers
res
research
resna
resnums
resources
respekte
respekti
restaura
restaure
resti
restora
restu
results
resursi
resursiem
resurss
resursu
resursus
reta
retaja
retajiem
retas
reti
retina
reto
retos
retrieved
rets
retu
retumis
return
rev
revi
revidents
review
revolu
revoluciona
revolution
rex
rey
rez
reza
rezerva
rezerve
rezerves
rezervists
rezervju
rezervua
rezide
rezidence
rezidences
rezidenci
reznors
rezolu
rezonanses
rezonansi
rezulta
rezultati
rezultativita
rezulte
rfc
rfijs
rfirsts
rforme
rfs
rg
rga
rgakmen
rgale
rgales
rgas
rgb
rgi
rgl
rglis
rgu
rho
ri
ria
riaa
ribas
ribentropa
ric
rica
rich
richard
rie
riebin
riekstin
riekstu
riem
riena
rieni
riens
rienu
rienus
riepas
riepu
ries
riesta
riet
rieti
rietis
rietuma
rietumberli
rietumdal
rietumeiropa
rietumeiropas
rietumi
rietumiem
rietumkrasta
rietumkrievijas
rietumos
rietumpomoz
rietumromas
rietumsibi
rietumu
rietumus
rietumva
rietumvalsti
rieva
riga
rigassatiksme
right
rights
riharda
rihards
rihe
rihes
rihs
rihters
rija
rijai
rijam
rijas
riji
rijiem
rijs
riju
rijus
rijveida
rik
rika
rikardo
rikavas
riks
riku
rilanka
rilankas
rim
rimi
rimkus
rims
rin
rina
rinda
rindas
rindin
rindu
ring
ringa
rings
rio
riodez
ris
rise
risina
risk
riska
riskais
riski
risks
risku
risma
risms
rismu
rista
riste
risti
ristiem
rists
ristu
rita
rite
riten
rites
ritma
ritms
ritmu
ritos
ritua
river
rizgli
rja
rjazan
rju
rk
rka
rkak
rkalnes
rkava
rkavas
rkers
rketinga
rketings
rkla
rkli
rklin
rklu
rkocin
rkona
rkons
rkot
rkrievos
rkritik
rks
rku
rl
rla
rlauli
rlavas
rle
rles
rli
rlidojumu
rlieci
rliecina
rliecinos
rlieku
rlietu
rlija
rlijs
rlim
rlis
rls
rlu
rlza
rlzs
rma
rmahta
rmahts
rmain
rmala
rmalas
rmalu
rman
rmanes
rmanis
rme
rmekle
rmes
rmi
rmija
rmijas
rmiju
rmkluba
rms
rmstrongs
rmu
rmuiz
rn
rna
rnadz
rnam
rnas
rnava
rnavas
rne
rners
rnes
rneses
rnesta
rnesumka
rni
rnieci
rnieka
rnieki
rniekiem
rnieks
rnieku
rniem
rnijs
rnin
rnis
rnos
rns
rnss
rnu
rnuda
rnus
ro
road
robe
robert
roberta
robertam
roberto
roberts
robertu
robespje
robez
robin
robins
robinson
robinsons
robots
robotu
robs
roc
roci
rock
rocket
rockets
rodas
rode
rododendru
rodrigess
rodrigo
rodz
roga
roger
rogule
roja
rojama
rojamas
rojami
rojamiem
rojamo
rojams
rojamu
rojamus
rojas
rojis
rojot
rojs
rojumi
rojumiem
rojumu
rojumus
rojus
rok
roka
rokas
rokasgra
rokenrola
rokgrupa
rokgrupas
rokijs
rokmu
rokoko
rokot
rokraksta
roks
roku
rolands
role
roll
rolling
rom
roma
roman
romana
romance
romanova
romanovs
romanovu
romans
romantikas
romantiska
romantisma
romas
rome
romeo
romies
romu
romualds
ron
rona
ronald
ronalds
ronaldu
ronis
rons
ronu
room
ropaz
rorta
rortpilse
rorts
ros
rosa
rose
rosi
rosina
roskosmos
ross
rostokas
rostovas
rot
rota
rotal
rotas
rote
roterdama
roterdamas
roti
roties
rotora
rots
rotu
round
routledge
rovers
royal
roz
roza
roze
rozenbergs
rozens
rozenta
rozes
rozi
rp
rpa
rpas
rpcu
rpe
rpersona
rpersonas
rpi
rpiem
rpien
rpildi
rpils
rpin
rpju
rplu
rpolitika
rpolitikas
rpolitiku
rpos
rps
rpu
rpublice
rpus
rpuse
rpuses
rra
rraida
rraide
rraides
rraidi
rraksti
rraudzi
rrauga
rraugs
rruna
rrunas
rs
rsa
rsauca
rsaukta
rsaukts
rsava
rsavas
rse
rsenes
rsgriezuma
rsi
rsies
rsija
rsis
rska
rskata
rskati
rskats
rskatu
rskola
rsla
rslas
rsle
rsli
rsne
rsni
rsniedz
rsniedza
rsniedzis
rsniedzot
rsniegt
rso
rsoja
rsojot
rsos
rsot
rspe
rspi
rsraga
rss
rst
rsta
rstacija
rstacijas
rstam
rstas
rste
rsteidza
rsteidzos
rsti
rstiem
rsties
rstnieci
rsto
rstos
rstra
rsts
rstu
rstul
rstus
rsu
rsuma
rsums
rsumu
rsvara
rsvars
rsvaru
rt
rta
rtai
rtais
rtapa
rtas
rtavas
rte
rters
rtes
rti
rtiek
rtiem
rtik
rtika
rtikas
rtiku
rtin
rtina
rtins
rtis
rtme
rtne
rtnes
rtni
rto
rtoja
rtojas
rtojis
rtojot
rtojuma
rtojums
rtojumu
rtons
rtop
rtos
rtot
rtota
rtotas
rtoti
rtots
rtotu
rtrauc
rtrauca
rtraucot
rtrauks
rtraukt
rtraukta
rtrauktas
rtraukti
rtraukts
rtrauktu
rtraukuma
rtraukumiem
rtraukums
rtraukumu
rtru
rts
rtsarga
rtsargi
rtsargs
rtsargu
rtsila
rtsle
rtspapi
rtu
rtus
ru
rua
rubas
rube
ruben
rubenes
rubenis
rubens
rubi
rubika
rubins
rubl
rublis
rucava
rucavas
ruda
rudba
rudeni
rudenim
rudens
rudi
rudn
rudolf
rudza
rudzi
rudzu
ruga
ruks
rul
rules
ruli
rulis
ruma
rumbas
rumbula
rumbulas
rumi
rumiem
rumos
rums
rumu
run
runa
runas
runda
runde
runu
rupe
rupes
rupi
rupja
rupji
rurika
rurikovic
rus
rusa
rusi
ruslans
ruso
russ
russell
russia
russian
rusu
ruta
rute
ruti
rutiem
rutos
ruts
rutu
rutus
ruz
rva
rvada
rvades
rvadi
rvalda
rvalde
rvaldei
rvaldes
rvaldi
rvaldnieka
rvaldnieks
rvaldnieku
rvalsti
rvalstu
rvarda
rvare
rve
rveda
rveida
rveido
rveidoja
rveidojot
rveidos
rveidot
rveidota
rveidotas
rveidoti
rveidots
rves
rvete
rvetes
rvieni
rvieto
rvietoja
rvietojas
rvietojoties
rvietos
rvietot
rvietota
rvietoti
rvietoties
rvietots
rvijs
rvings
rvins
rvr
rz
rza
rzaines
rzam
rzaunes
rzciema
rze
rzel
rzeme
rzemju
rzemnieku
rzen
rzes
rzgales
rzi
rziem
rziemo
rzin
rzina
rzinis
rzkopi
rznieks
rzos
rzpils
rzs
rzu
s
sa
saasina
saaugus
sabi
sabiedri
sabiedriska
sabiedriskais
sabiedriskaja
sabiedriski
sabiedrisko
sabiedrisks
sabiedrota
sabiedrotajiem
sabiedrotie
sabiedroto
sabiedrotos
sabile
sabiles
sabli
saboja
sabres
sabru
sabruka
sabruks
sabrukuma
sabrukums
sabrukumu
sac
sace
sacels
sacens
sacensi
sacensties
sacenta
sacere
saci
saciete
sadal
sadala
sadales
sadali
sadalot
sadarbi
sadarboja
sadarbojas
sadarbojies
sadarbojoties
sadarboties
sadedzina
sadega
saderi
saderina
sadraudze
sadraudzi
sadu
sadursme
sadursmes
sadzi
saeima
saeimai
saeimas
saeimu
safety
saforme
saga
sagaida
sagaidi
sagatavo
sagatavoja
sagatavos
sagatavot
sagatavota
sagatavoti
sagatavots
sagatavotu
saglaba
sagra
sagraus
sagrauta
sagrozi
sagu
saha
sahali
saharova
sahas
sai
saikne
saikni
saime
saimei
saimes
saimnieci
saimnieciska
saimniecisko
saimnieka
saimnieki
saimnieks
saimnieku
saimons
saina
sainas
sainde
saini
sains
saint
sais
saista
saistaudi
saiste
saistes
saisti
saistos
saite
saites
saiti
saja
sajauks
sajaukt
saju
sak
saka
sakalas
sakara
sakari
sakariem
sakarse
sakaru
sakarus
sakas
sakause
sakaut
sakauta
sakauti
sakauts
sakn
sakne
saknen
saknes
sakni
sakot
sakra
sakramento
sakri
sakrita
saks
saksija
saksijas
sakstagala
saku
sal
sala
salacas
salacgri
salai
salamandra
salas
salaspili
salaspils
salaula
salavat
salda
salde
saldina
saldu
saldus
sali
saliede
salienas
salikta
salin
salmin
salna
salnas
salnavas
salo
salona
sals
salu
salvadora
sam
sama
samaksa
samaksu
samazina
samazinot
samazinoties
same
samekle
sami
samierina
samoa
sampdoria
sampo
samsons
samsung
samten
samuel
san
sana
sanantonio
sanatorija
sanatorijas
sanc
sandensas
sandis
sandjego
sandra
sandz
sanfrancisko
sanhose
sanita
sankcijas
sankciju
sanktmorica
sanktpe
sanmari
sanpaulu
sanremo
sanskrita
santa
santjago
santos
sapa
sapieru
saplacina
saplu
sapn
sapni
sapnis
sapra
sapras
saprast
saprata
sapratu
saprot
saprotama
saprotams
saprotot
saprotu
sapulce
sapulces
sapulci
sapulcina
sar
sara
sarajeva
saraksta
sarakstam
saraksti
sarakstiem
sarakstos
saraksts
sarakstu
sarakstus
saratovas
saraus
saraz
sardi
sardze
sardzes
sarez
sarga
sargi
sargs
sargu
sari
sarkan
sarkana
sarkanais
sarkanaja
sarkanajai
sarkanajiem
sarkanarmies
sarkanas
sarkanbru
sarkandaugava
sarkandaugavas
sarkani
sarkanie
sarkano
sarkanri
sarkans
sarkanu
sarma
sarmi
sars
saru
saruka
saruna
sarunas
sarunu
sarunvaloda
sas
sasaisti
sasauca
sasauks
sasaukt
sasaukuma
sasils
saska
saskaiti
saskan
saskaras
saskarne
saskarnes
saskarni
saskarsme
saskata
saskati
saske
sasle
saslima
saslims
saslimsti
saslimus
sasmalcina
sasniedz
sasniedza
sasniedzis
sasniedzot
sasniegs
sasniegt
sasniegta
sasniegts
sasniegtu
sasniegumi
sasniegumiem
sasniegums
sasniegumu
sasniegumus
sasniegus
sasniegusi
saspe
saspi
saspies
saspiez
sast
sasta
sastapa
sastapt
sastop
sastopama
sastopamas
sastopami
sastopams
sastopas
sastre
sat
sateces
satekles
satekot
satekupe
sateli
satellite
satellites
sati
satiek
satiekas
satika
satiks
satiksme
satiksmei
satiksmes
satiksmi
satori
satricina
satur
satura
saturday
sature
saturn
saturna
saturos
saturs
saturu
satuvina
satve
satversme
satversmes
satversmi
sau
sauber
sauc
sauca
saucama
saucamo
saucas
sauce
saudze
saukas
sauklis
saukt
saukta
sauktais
sauktaja
sauktas
saukti
saukto
saukts
sauktu
saul
saulaina
saulains
saule
saulei
saules
saulgriez
sauli
saulkrasti
saulkrastu
saulle
saulrieta
saunas
sausa
sausaja
sausas
sausne
sauso
sausos
sauss
sausu
sausuma
sausums
sauszeme
sauszemes
sauszemi
sava
savai
savainojuma
savainojumu
savaldi
savam
savanna
savannas
savas
savdabi
save
savi
saviem
savieni
savieno
savienoja
savienojas
savienojos
savienojot
savienojuma
savienojumi
savienojumiem
savienojumos
savienojums
savienojumu
savienojumus
savienos
savienot
savienota
savienotaja
savienotas
savienoti
savienoto
savienots
savienotu
savietojami
savojas
savos
savrupma
savs
savstarpe
savu
savuka
savulaik
savus
savval
say
sazin
sazina
sazve
sb
sc
scale
scar
scavenger
scena
scenogra
schaal
schalke
schmidt
schneider
scho
schoenus
school
schwerdt
schwerdtern
sci
science
sciences
scientific
scotland
scott
scout
sd
sdesmit
sdesmitgadu
sdiena
sdienas
sdieni
sdienu
sdimensiju
se
sea
seal
search
season
seattle
sebastia
sebastians
sec
seces
seci
secina
second
secret
section
security
seda
sedas
sedz
sedza
see
sega
segas
seglin
segmenta
segmenti
segmentiem
segments
segmentu
segspa
segu
seguma
segums
segumu
segva
seihanu
seima
seis
seja
sejas
seju
seka
sekas
sekcija
sekcijas
sekciju
sekla
sekme
sekmi
seko
sekoja
sekojos
sekojot
sekos
sekot
sekota
sekre
sekreta
sekretaria
seksa
sekss
seksua
seksualita
sektora
sektors
sektoru
seku
sekula
sekunda
sekunde
sekundes
sekunz
sel
seldz
sele
select
selected
selekcijas
selekcione
selekti
seles
self
selga
seli
selima
selims
semi
semina
semjonovs
semjons
semjuels
sems
sen
sena
senais
senaja
senajiem
senajos
senas
senatne
senatnes
senatori
senators
senatoru
senc
senega
sengriek
seni
senie
seniem
senioru
senkapi
senkrievu
senleja
senlejas
senna
seno
senos
senpilse
senpru
sens
sensori
sensors
sensoru
sentdz
sentlu
sentluisa
sentluisas
senu
separa
september
septembra
septembri
septembrim
septembris
septi
septin
sera
serbi
serbija
serbijas
serbiju
serbu
sergeja
sergejs
sergeju
seria
serie
series
sermul
sers
sertifice
sertifika
server
servera
serveri
serveriem
serverim
serveris
serveru
service
services
servisa
serviss
serz
ses
sesavas
sesija
sesijas
sesiju
seska
sesks
sesta
sestais
sestaja
sestdiena
sestdienas
sesto
set
sets
setsa
setsas
seula
sev
sevastopoles
seven
severstal
sevi
sevilla
sevis
sex
sezona
sezonai
sezonas
sezonu
sfe
sfilma
sfilmas
sfilmu
sg
share
sharks
she
sheffield
shell
shenzhou
shield
shift
ship
short
should
show
shuttle
si
sia
sibari
sibi
sic
sici
sid
side
sidneja
sidnejas
sidnijs
sie
siekalu
siem
siemens
siena
sienas
sienin
sienu
siera
siers
sieru
sies
sietlas
sieva
sievai
sievas
sievies
sieviete
sievietei
sievietes
sievieti
sievis
sievu
sigismunda
sigismunds
sigma
sign
signa
signaliza
sigulda
siguldas
sija
sijai
sijas
siju
sikspa
sil
sila
silaja
sildi
sile
sili
silika
silin
silmac
silmalas
silraka
silta
siltaja
siltas
silto
silts
siltu
siltuma
siltumizola
siltumni
siltums
siltumu
silu
silva
silvestrs
silvija
sim
simbola
simboli
simboliem
simbolika
simboliska
simboliskaja
simboliski
simbolisma
simbolize
simbols
simbolu
simbolus
simetrija
simetrijas
simetriska
simfonija
simfonijas
simfoniska
simfoniskais
simfonisko
simies
simon
simona
simons
simpa
simple
simpsoni
simpsons
simpsonu
simptomi
simptomiem
simptomu
simptomus
simt
simtgades
simti
simtiem
simts
simtus
simula
simule
sin
sina
sinagoga
sinagogas
since
sindroma
sindroms
sindromu
singapu
singla
single
singli
singliem
singls
singlu
singlus
sinhroniza
sinoni
sinoptik
sintakse
sinte
sinteze
sio
sir
siraku
sirdi
sirdis
sirds
sirdsdarbi
sire
sirmais
sirrea
sirsni
sis
sist
siste
sistema
sistematize
sisu
sit
sitamie
site
sites
sitiens
sitienu
situa
siu
sive
six
siz
size
sje
sju
sk
ska
skaidra
skaidras
skaidri
skaidro
skaidroja
skaidrojos
skaidrojums
skaidrs
skaidru
skaista
skaistas
skaistkalnes
skaistuma
skaita
skaitam
skaiti
skaitl
skaitli
skaitlis
skaitliski
skaitot
skaits
skaitu
skal
skala
skalas
skalbe
skan
skanda
skandina
skane
skanstes
skapa
skapam
skapi
skapiem
skapija
skapijai
skapijas
skapiju
skaps
skapu
skar
skas
skat
skata
skate
skati
skatos
skatoties
skatpunkta
skats
skatu
skatuve
skatuves
skausta
skautu
ske
skeleta
skeletona
skelets
skeletu
skene
ski
skice
skices
skis
skola
skolai
skolas
skole
skolnieks
skolnieku
skolota
skolu
skonto
skopje
skota
skotija
skotijas
skots
skotu
skra
skrajciemi
skrajciems
skrastin
skre
skrejcel
skri
skriemel
skrien
skries
skriet
skrims
skroderdienas
skropstin
skru
skrudalienas
skrunda
skrundas
sks
sku
skudra
skudras
skudrla
skudru
skuja
skujas
skujenes
skujenieks
skujin
skujkoku
skuju
skulme
skulptu
skulte
skultes
skursten
skve
sky
skyforger
sl
sla
slaici
slaida
slaids
slaktin
slaloma
slam
slampes
slapja
slas
slava
slavas
slave
slavena
slavenais
slaveni
slaveno
slavens
slavenu
slavina
slavu
slc
sle
sleja
slejas
slepena
slepenais
slepeni
slepeno
slepenu
slepkava
slepkavas
slepkavi
slepkavu
sli
slidos
slidota
sliede
sliedes
slieks
sliez
slikta
sliktas
slikti
slikto
slikts
sliktu
slimi
slimni
slimniekiem
slimnieku
slimo
slims
slin
slis
slo
sloboda
slodze
slodzes
slodzi
sloka
slokas
sloku
slova
slovan
slove
sls
slu
sludina
slv
sm
sma
smadzen
smadzene
smadzenes
smaga
smagais
smagaja
smagas
smagi
smagiem
smago
smagos
smags
smagu
smaguma
smagus
smai
smail
smaila
smaile
smailes
smaili
smails
smailu
smaku
smalka
smalkas
smalki
smalks
smalku
small
smart
smarz
smas
sme
smes
smiekli
smil
smils
smilta
smiltene
smiltenes
smilti
smiltis
smilts
smirdi
smirnovs
smita
smith
smits
smol
smtp
smu
sn
sne
sni
sniedz
sniedza
sniedzas
sniedze
sniedzis
sniedzot
sniega
sniegbalti
sniegputenis
sniegs
sniegt
sniegta
sniegtu
sniegu
sniegums
sniegumu
sniga
snigs
snik
snow
sns
snu
snuk
so
soc
soccerway
socia
social
society
sociolog
sociologs
soda
sodi
sods
sodu
sofija
sofijas
sofiju
software
sog
soja
sojas
sojums
sojuz
sok
sol
sola
solar
solaris
soli
solidarita
solis
soliste
solisti
solists
solo
solon
soltleiksitija
solutions
soma
somain
some
something
somi
somija
somijai
somijas
somiju
somu
somugru
son
sona
song
songs
sons
sony
sopra
sos
sota
sotas
soul
sound
soundcloud
source
south
southampton
southern
soviet
sp
spa
space
spacex
spadsmit
spain
spalva
spalvas
spalvu
sparta
spartak
spartakia
spartaks
sparties
spe
specia
special
specialita
specializa
specialize
species
specifika
specifiska
specifiskas
specifiski
specifisku
specvieni
speed
speedking
spektra
spektrs
spektru
spekula
spermatozoi
spi
spiediena
spiedienam
spiediens
spiedienu
spiegos
spiegu
spiesta
spiesti
spiests
spiez
spilgta
spilgti
spilventin
spilves
spira
spirit
spirkstu
spirta
spirtu
spkc
spogul
spoguli
spogulis
spoku
spole
spoles
sponsore
sponsors
sponsoru
sponta
spora
sporas
sport
sporta
sportacentrs
sporting
sportiska
sportista
sportistam
sportiste
sportistes
sportisti
sportistiem
sportists
sportistu
sportistus
sports
sportu
sporu
spotify
spoz
spr
spra
sprauga
spraugas
spredik
spri
spridzina
sprieduma
spriedums
spriedumu
sprieguma
spriegums
spriegumu
spriest
spriez
spring
springer
springfi
sprinta
sprinteri
sprints
sprog
spru
spuldzes
spunktu
spura
spuras
spurs
spuru
sputnik
sql
sqrt
square
sr
sreiz
ss
ssc
sseldorf
ssh
ssol
ssta
sstu
st
sta
staba
stabila
stabili
stabilita
stabiliza
stabilize
stabils
stabilu
stabin
stabs
stabu
staburaga
stacija
stacijai
stacijas
staciju
staciona
stade
stadija
stadijas
stadiju
stadiona
stadioni
stadions
stadionu
stadium
stadt
stafete
stafetes
stage
staiceles
staiga
staila
staipekn
stais
staja
stal
stallis
stam
stama
stamais
stamas
stambula
stambulas
stami
stamie
stamiem
stamo
stams
stamu
stamus
stan
stand
standard
standarta
standarti
standartiem
standartize
standarts
standartu
standartus
stanley
star
stara
stari
stariem
starlink
starojuma
starojums
starojumu
starosti
starp
starpa
starpi
starpkaru
starpkontinenta
starpnieci
starppilse
starpplane
starptautiska
starptautiskais
starptautiskaja
starptautiskajai
starptautiskajiem
starptautiskajos
starptautiskas
starptautiski
starptautiskie
starptautisko
starptautiskos
starptautisks
starptautisku
starpvalstu
starpviki
starpzonu
starpzvaigz
stars
start
starta
startam
starte
starts
startu
staru
starus
stas
state
states
stati
station
statiska
statistics
statistika
statistikas
statistiku
statistiska
stats
statu
statuja
statujas
status
statusa
statusam
statuss
statusu
ste
steel
stefa
stefana
stefans
stekn
stena
stenais
stende
stendera
stenders
stendes
steni
stenlija
stenlijs
steno
stenoja
stenos
stenot
stenota
stenotas
stenots
stenotu
step
stepanovs
stepe
stepes
stephen
stepju
sterlin
stermin
steroi
stes
steve
steven
stewart
sti
stie
stiem
stien
stieni
stiepa
stiepjas
sties
stikla
stikls
stiklu
stila
stilam
stili
stilize
still
stils
stilu
stimule
stina
stingra
stingri
stingru
stipendiju
stipra
stiprais
stipras
stipri
stiprina
stipro
stiprs
stipru
stipruma
stiprums
stiprumu
stirnu
stis
stjuarte
stjuarts
stnes
stnesis
stnieci
stnieki
stnieks
stnieku
sto
stobra
stobrin
stock
stockholm
stockmann
stokholma
stokholmas
stol
stona
stonas
stone
stop
stopin
store
stories
storm
story
stos
stot
stoties
stra
stradin
strait
strasbu
strate
strategy
strauja
strauji
straujs
strauju
straume
straumes
straumi
straupes
strauss
strauta
strautin
strauts
strautu
strazdi
strazdin
strazds
strazdumuiz
stre
street
streic
streiku
strela
strenc
strenga
stresa
stri
strikta
strods
stru
structure
struktu
struktura
strukture
strupcel
sts
stu
stubla
stuc
stude
studens
student
studenti
studentiem
students
studentu
studentus
studies
studija
studijas
studiju
studio
studios
study
stukman
stul
stule
stules
stuli
stumbra
stumbrs
stumbru
stunda
stundas
stundu
sture
sturei
stures
sturi
sturiska
sturiskais
sturiskaja
sturiskajiem
sturiskas
sturiski
sturiskie
sturisko
sturiskos
sturisks
sturisku
sturnieka
sturnieki
sturnieks
sturnieku
stus
stuttgart
style
su
subate
subates
subglacia
subjects
subjekti
subkontinenta
subkultu
suborbita
substra
subtropu
suda
sudraba
sudrabs
sudrabu
suecas
suga
sugai
sugas
sugu
sula
sulas
sulavesi
suleimana
suleimans
sulfa
sulfi
suli
sulta
sultana
sulu
sum
suma
sumatras
summa
summary
summas
summe
summer
summu
sumu
sun
suna
sunday
sunderland
suni
sunim
sunni
suns
suntaz
sunu
suomen
super
supercopa
supercoppa
supercup
superfina
superkausa
superkauss
superkausu
superli
supernova
supersonics
supervaron
support
sur
survey
surveyor
sus
susa
suse
susuris
suvere
suverenita
suvorova
suzdal
sv
sva
svaiga
svalba
svara
svarce
svarcels
svari
svars
svaru
sve
svec
sveces
svek
svens
sventa
sventes
sventoks
sver
sves
svetlana
svg
svi
svielas
svielu
svieni
sviesta
svil
svilc
svilpe
svin
svina
svine
svini
svitenes
svjatoslavic
svjatoslavs
sweden
sweet
swh
swiss
switch
sylvia
symbol
system
systems
szczecin
t
ta
tabaka
tabakas
table
tables
tabu
tabula
tabulas
tabulu
tac
tad
tadaik
tadz
tag
tagad
tagade
tagadne
tagadnes
tai
tail
tailers
taimiras
tais
taisa
taisi
taisna
taisne
taisnes
taisni
taisnlen
taisns
taisnstu
taisnu
taisons
taiva
taizeme
taizemes
taja
tajai
tajam
tajiem
tajos
taka
takas
take
takes
taksonomija
taktika
taktiku
takts
taku
talanti
talants
talantu
taliban
talk
talka
tallina
tallinas
tallinn
tallinu
talsi
talsiem
talsos
talsu
tam
tama
tami
tamli
tampabejas
tamperes
tams
tan
tango
tani
tanka
tanki
tankiem
tankkug
tanks
tanku
tankus
tans
tanu
tanza
tapa
tapas
tapis
tappan
taps
tapus
tapusi
tara
taras
tardis
target
tarkovska
tarkovskis
tartile
tartu
taru
tas
tasmanijas
tastatu
tata
tatarsta
tate
tates
tati
tatiem
tatjana
tatos
tatra
tats
tatu
tau
taube
tauki
taukska
tauku
taupi
taure
taurenes
taures
taurin
taurupes
tausma
taustekl
taustes
taustin
tauta
tautai
tautas
tautasdziesma
tautasdziesmas
tautasdziesmu
tauti
tauties
tauts
tautsaimnieci
tautu
tava
tavas
tavs
tavu
taxonomy
taylor
tb
tbilisi
tbu
tc
tcel
tciemata
tciemati
tciemats
tcp
td
tdien
tdiena
tdienas
te
tea
team
teatro
teborga
tec
tece
teces
technical
technologies
technology
teci
tecis
tehera
tehnik
tehnika
tehnikas
tehniku
tehnikuma
tehnikums
tehnikumu
tehniska
tehniskais
tehniskaja
tehniski
tehniskie
tehnisko
tehnisku
tehnolog
tei
teic
teica
teicis
teika
teikas
teiksim
teikt
teikta
teikto
teikts
teikuma
teikums
teikumu
teil
teilora
teilors
teina
teinas
teins
teinu
teju
tek
tekos
teksasa
teksasas
teksta
teksti
tekstiem
tekstilru
tekstos
teksts
tekstu
tekstus
tel
telaviva
tele
telefona
telefoni
telefoniem
telefons
telefonu
telegra
telegraph
telekom
telekomunika
telesakaru
teleskopa
teleskops
teleskopu
televi
television
televizoru
telia
telpa
telpas
telpu
tels
tematika
tematiska
temats
tematu
temperatu
templ
template
templates
temple
templi
templies
templis
temps
ten
tendence
tendences
tenesi
tenisa
tenisiste
tenisisti
tenisists
teniss
teo
teodora
teodors
teolog
teologi
teologs
teore
teorija
teorijai
teorijas
teoriju
ter
tera
terapija
terapijas
terapiju
terase
terases
terburga
terburgas
terburgu
tere
teres
tergailis
teri
terijs
terim
teris
teritoria
teritorija
teritorijai
teritorijas
teritoriju
terma
termi
termin
termina
termini
terminolog
termins
terminu
termiska
termodinamika
termometra
ternbergs
ternopil
terns
terora
terorisma
terorisms
terorismu
teroristu
terors
terra
ters
tersalas
tersone
tersons
teru
tes
tesla
tesos
test
testa
testamenta
teste
testi
tests
testu
testus
tet
tetove
tev
tevi
tevis
texas
text
textstyle
tf
tg
th
than
thank
thanks
that
the
theatre
theft
their
them
then
theodor
theory
there
these
theta
they
thing
things
think
third
this
thomas
thomson
thor
those
thovena
thrashers
three
through
thrust
thumb
thumbnail
thunder
ti
tiangong
tibeta
tibetas
tibeties
tic
ticama
ticami
ticams
tice
tici
ticis
tico
tie
tiecas
tieci
tiek
tiekas
tiekot
tieksme
tiem
tiene
tienes
ties
tiesa
tiesai
tiesas
tiesi
tiesiska
tiesisko
tieslietas
tieslietu
tiesnes
tiesnesi
tiesnesis
tiesu
tiesvedi
tieva
tiger
tigers
tija
tijas
tiju
tik
tika
tikai
tikas
tikko
tikli
tikme
tikpat
tiks
tikt
tikties
tiktu
tiku
tikumi
tikus
tikusi
tilbi
till
tilpne
tilpuma
tilpums
tilpumu
tilta
tiltam
tilti
tiltiem
tiltin
tilts
tiltu
tiltus
tilz
tilzi
tim
timbaland
timberwolves
time
timenote
times
timo
timotijs
tims
timurs
tin
tina
tinghofs
tingis
tintin
tipa
tipi
tipiem
tipiska
tipiski
tipisks
tipogra
tips
tipu
tipus
tipveida
tira
tirdznieci
tirgon
tirgos
tirgota
tirgu
tirgum
tirgus
tiri
tirzas
tis
tiska
tiskais
tiskaja
tiskajai
tiskajiem
tiskas
tiski
tiskie
tiskiem
tisko
tiskos
tisks
tisku
tiskus
tisma
tisms
tismu
tistu
tita
titan
title
tito
tits
titula
titule
tituli
tituliem
tituls
titulu
titulus
tjans
tju
tjumen
tjurku
tk
tki
tkiem
tkos
tku
tkus
tls
tm
tma
tmetru
tml
tn
tne
tnei
tnes
tnespe
tni
tniece
tnieces
tnieci
tnieciska
tniecisko
tnieka
tniekam
tnieki
tniekiem
tnieks
tnieku
tniekus
tnis
tniska
tniskais
tniskaja
tniskajiem
tniski
tniskie
tnisko
tniskos
tnisku
tniskus
to
toba
tobago
tobri
toc
today
togad
together
togo
tohtamis
tojamajiem
tojos
tokija
tokijas
toksi
tola
tolaik
tolcers
toledo
tolin
toljati
tolki
tols
tolstojs
tolu
tom
toma
tomas
tomasa
tomass
tomasu
tome
tomes
tomijs
toms
tomskas
tomsons
tomu
ton
tona
tonalita
tone
toni
tonijs
tonis
tonna
tonnas
tonnu
tons
tony
too
tool
tools
top
topa
topi
topkapi
topogra
topolog
topos
toppdoma
tops
topu
tora
toradz
toreiz
toreize
torino
torn
torni
tornis
toro
toronto
torpe
torpedo
torps
tors
torun
tos
toska
tostarp
tot
tota
total
totalita
toties
tots
tottenham
touch
tour
tournament
tower
town
toyota
tp
tr
tra
track
trade
tradi
tradiciona
trag
trail
train
traina
trainais
traja
trajektorija
trajektorijas
trajektoriju
trak
traka
trakta
trakte
traktor
traktoru
trallis
trampa
trampli
tramps
tramvaja
tramvaji
tramvajs
tramvaju
trans
transfer
transfermarkt
transforma
transforme
transilva
transla
translate
translation
translations
transle
translitera
transport
transporta
transportam
transporte
transportkug
transportli
transports
transportu
tranze
tranzi
tras
trase
trases
trasi
trauce
trauka
trauki
trauksmes
trauku
trauma
traumas
traumu
trauss
travel
tre
tree
treisijs
treka
treknraksta
trenc
trene
trenera
trenere
treneri
treneris
treneru
trenin
tres
trests
trgaitas
tri
triba
tribi
tribuna
trieciena
trieciens
triecienu
trihs
trija
trijiem
trijnieka
trijos
trijstu
triju
trika
trillera
trilleris
trilog
trim
trimda
trimdas
trin
trina
trinida
trio
triple
tris
triumfa
triumfe
tro
trofejas
trofeju
troja
trojas
troks
troksni
troksnis
trol
trolejbusa
trolejbusi
trolejbusiem
trolejbuss
trolejbusu
tron
troni
trophe
tropiska
tropos
tropu
tros
trs
trslidos
trslidota
trspe
tru
true
trulli
truma
trumam
trums
trumu
trupa
trus
trusis
trust
ts
tskola
tsnama
tsnams
tspe
tsta
tt
ttt
tu
tualetes
tuberkulozes
tuks
tuksnes
tuksnesi
tuksnesis
tukuma
tukums
tulk
tulkoja
tulkojis
tulkojuma
tulkojumi
tulkojums
tulkojumu
tulkojusi
tulkos
tulkot
tulkota
tulkoti
tulkots
tulu
tumes
tums
tumsa
tumsas
tundra
tundras
tunel
tuneli
tunelis
tunisija
tunisijas
tupe
tur
turaida
turaidas
turaids
turas
turbi
turbo
turcija
turcijas
turciju
turdus
ture
turgen
turi
turienes
turieni
turkesta
turkey
turki
turkiem
turkish
turkla
turkme
turkmenista
turku
turlavas
turn
turneja
turner
turni
turot
turp
turpat
turpina
turpinot
turpinoties
turpma
turpreti
turpretim
tus
tutgarte
tutiempo
tuva
tuvajos
tuvas
tuve
tuves
tuvi
tuvina
tuvo
tuvoja
tuvojas
tuvojoties
tuvos
tuvs
tuvu
tuvuma
tv
tva
tvaika
tvaikon
tvaikonis
tvaiks
tvaiku
tvalsti
tvalsts
tve
tveida
tveras
tvertne
tvertnes
tvingu
tvnet
twitter
two
tylopilus
type
u
ua
uab
uan
ubi
ubl
ubu
uc
uci
uciema
uciems
udhs
udo
udp
uefa
ufa
ufas
ug
uga
uganda
ugandas
ugaun
ugun
uguna
uguni
uguns
ugunsdze
ugunsgre
ugunsmu
uhan
ui
ujorka
ujorkas
ujorku
uk
uka
ukalna
ukalns
ukc
ukotkas
ukrain
ukraina
ukrainai
ukrainas
ukraine
ukrainian
ukrainu
uks
uku
ul
ula
ulbrokas
ulcs
ulda
uldis
uljeta
ulman
ulmanis
ulrihs
ultima
ultraskan
ulusa
um
uma
umahers
umam
umas
umberto
umi
umiem
umos
ums
umtiesi
umu
umuiz
umurgas
umus
un
una
und
unda
under
underground
une
unesco
unga
ungl
unidentified
unika
union
unit
unita
united
unity
universa
universal
universe
universia
universita
university
unix
uns
up
upa
upc
update
upe
upei
upejos
upes
upi
upiela
upju
uplate
upload
uploaded
uploads
upmalas
upmales
upright
upsa
upura
upure
upuri
upuriem
upuris
upuru
upurus
ur
ura
uravl
urba
urban
urbs
urga
uri
urka
urkas
url
urna
uroleucon
urs
ursus
urta
urugvaja
urugvajas
urupuc
urupucis
us
usa
usala
usb
usd
use
used
user
users
using
usmas
uss
ussr
ut
uta
utc
ute
utml
utt
uv
uva
uvas
uve
uves
uvi
uvis
uvus
uvusi
uz
uzaicina
uzaudzis
uzauga
uzbe
uzbekista
uzbru
uzbruce
uzbruka
uzbrukt
uzbrukuma
uzbrukumam
uzbrukumi
uzbrukumiem
uzbrukumos
uzbrukums
uzbrukumu
uzbrukumus
uzbu
uzbudina
uzce
uzcel
uzcels
uzcelt
uzcelta
uzceltas
uzcelti
uzcelts
uzda
uzdeva
uzdevuma
uzdevumi
uzdevumiem
uzdevums
uzdevumu
uzdevumus
uzdots
uze
uzepe
uzglaba
uzi
uzka
uzkalnin
uzkla
uzkra
uzla
uzlabo
uzlaboja
uzlabojot
uzlabojumi
uzlabos
uzlabot
uzlabota
uzlabots
uzlabotu
uzliek
uzliesmojuma
uzliesmojumu
uzlika
uzlikt
uzlu
uzmani
uzme
uzn
uzpildes
uzpildi
uzplauka
uzplaukuma
uzplaukums
uzplaukumu
uzpu
uzra
uzraksta
uzraksti
uzraksts
uzrakstu
uzraudzi
uzrauga
uzreiz
uzruna
uzsa
uzskaites
uzskaiti
uzskata
uzskati
uzskatiem
uzskatot
uzskats
uzskatu
uzskatus
uzspridzina
uzsta
uzsu
uzsvars
uzsvaru
uzsve
uzsver
uzsverot
uztaisi
uzticami
uztice
uztici
uztur
uztura
uzturas
uzture
uzturoties
uzturs
uzturu
uztve
uztver
uztvere
uztveres
uztveri
uztvers
uztvert
uztverta
uzva
uzvar
uzvara
uzvarai
uzvaras
uzvare
uzvarot
uzvaru
uzvedi
uzveica
uzzi
uzzin
uzzina
uzzinot
v
va
vabol
vabole
vaboles
vada
vadakstes
vadi
vadiem
vadims
vadli
vadon
vadoni
vadonis
vados
vadot
vadoties
vads
vadu
vaga
vagona
vagoni
vagoniem
vagons
vagonu
vagonus
vai
vaica
vaidavas
vain
vaina
vainaga
vainags
vainagu
vainas
vaini
vainoja
vainu
vaira
vairoga
vairogs
vairogu
vairojas
vairos
vairoties
vairs
vairuma
vairumam
vairums
vairumtirdznieci
vairumu
vais
vaits
vaivadija
vaivadijas
vaivads
vaivars
vaivaru
vaives
vaja
vajadze
vajadzi
vajag
vajai
vajam
vajiem
vajos
vakar
vakara
vakare
vakarin
vakaros
vakars
vakaru
vakci
vakcina
vakcine
vakuuma
val
valahijas
valda
valde
valdema
valdes
valdi
valdis
valdmanis
valdnieka
valdniekam
valdnieki
valdniekiem
valdnieks
valdnieku
valdos
valds
vale
valencia
valensijas
valenti
valga
valgas
valgundes
valis
valka
valkas
valks
valku
valles
valley
valmiera
valmieras
valmieru
valni
valnis
valoda
valodai
valodas
valodi
valodnieci
valodnieki
valodnieks
valodu
valsis
valsti
valstij
valstin
valstis
valstiska
valstisko
valsts
valstspilse
valstsvi
valstsvieni
valstu
valtera
valters
valteru
valu
valua
value
vam
vampi
van
vana
vanaga
vanagi
vanags
vanagu
vanas
vanda
vandal
vanemas
vangaz
vanguard
vanilla
vanku
vans
vanta
vanu
vanuatu
var
vara
varai
varakl
varam
varas
varasiesta
varat
varavi
varbu
varcs
vardarbi
varde
vardes
vare
varena
vareni
varepsilon
vari
varia
varianta
varianti
variantiem
variantos
variants
variantu
variantus
varie
varieta
varis
varmijas
varon
varone
varoni
varonis
varphi
vars
varu
varz
vas
vasal
vasali
vasalis
vasara
vasarai
vasaras
vasarni
vasaru
vasi
vasil
vasilijs
vaska
vasks
vaskula
vatika
vaz
vbe
vdabas
vdal
vdarbu
vdiena
vdienas
vdk
vdr
ve
vec
veca
vecais
vecaja
vecajiem
vecas
vecauces
vecgulbenes
veci
vecie
veciem
vecliepa
vecma
vecmi
veco
vecos
vecpiebalga
vecpiebalgas
vecpils
vecpilse
vecri
vecs
vecsaules
vecte
vectici
vector
vecu
vecuma
vecumam
vecumnieku
vecums
vecumu
vecva
ved
veda
vede
vedela
vedis
vef
veg
vega
vegasas
vehicle
vei
veic
veica
veice
veices
veici
veicies
veicina
veicinot
veicis
veicot
veida
veidam
veidi
veidiem
veidne
veidnes
veidni
veido
veidoja
veidojas
veidojies
veidojis
veidojos
veidojot
veidojoties
veidojumi
veidojums
veidojumu
veidojus
veidojusi
veidojusies
veidola
veidos
veidot
veidota
veidotais
veidotaja
veidotas
veidoti
veidoties
veidoto
veidots
veidotu
veids
veidu
veidus
veikala
veikali
veikalos
veikals
veikalu
veikli
veiks
veiksmes
veiksmi
veikt
veikta
veiktaja
veiktas
veikti
veiktie
veikto
veikts
veiktspe
veiktu
veikus
veikusi
veima
veins
veiss
vektora
vektori
vektors
vektoru
vel
vela
vele
veles
veli
velis
velk
velkon
vella
velna
velns
velobrauciena
velobrauciens
velosipe
vels
velsa
velsas
velsies
velta
velti
velve
vems
ven
vena
vendu
vene
venecue
venera
veneras
venes
veneto
vens
venta
ventas
ventila
ventspili
ventspils
venu
ver
vera
veras
verdi
verdzi
vere
veres
vergi
vergiem
vergu
veri
veris
verlag
verners
verona
veronika
veros
verpakovskis
vers
versal
versija
versijai
versijas
versiju
version
verss
vert
vertika
verts
veru
verve
very
ves
vesela
veselas
veseli
veselo
vesels
veselu
vesera
vesga
vessoda
vessods
vessodu
vessta
vest
vesta
vestam
vestfa
vestgotu
vesti
vestienas
vests
vestu
vesture
vesveida
vesveids
vesveidu
vesvieta
vesvietas
vesvietu
vetera
veterina
veto
vezi
vfb
vfl
vfr
vi
via
viasat
vibra
vic
vica
vice
vicec
viceprezidents
viceprezidentu
vics
victor
victoria
vid
vida
vide
videi
video
videoklipa
videoklipi
videoklips
videoklipu
videospe
vides
vidi
vidiene
vidriz
vids
vidu
vidum
vidus
vidusa
vidusdal
vidusju
viduslaiki
viduslaikiem
viduslaikos
viduslaiku
viduslatvijas
vidusskola
vidusskolai
vidusskolas
vidusskolu
vidustece
vidzeme
vidzemes
vidzemi
vie
viedokl
viedokli
viedoklis
viedta
viegla
vieglais
vieglas
vieglatle
viegli
vieglie
vieglo
viegls
vieglu
viela
vielas
vielmain
vielu
viem
vien
viena
vienai
vienalga
vienam
vienas
vienatne
vienbalsi
viencel
viendabi
viendienas
viengadi
vieni
vieniem
vienka
vienkra
vienlaici
vienlaikus
vienli
vienme
vienna
viennozi
vieno
vienoja
vienojas
vienos
vienota
vienotas
vienoti
vienoties
vienots
vienotu
vienpadsmit
vienpra
vienpuse
vienreiz
vienreize
viens
viense
vienskaitl
vienspe
viensta
vientul
vientuli
vienu
vienus
vienveidi
vienvirziena
vies
viesi
viesiem
viesis
viesma
viesni
viesoja
viesos
viestura
viesturs
viesturu
viesu
viesul
viesulis
viet
vieta
vietai
vietalvas
vietas
viete
vietne
vietnes
vietni
vietniece
vietnieci
vietnieka
vietnieks
vietnieku
vietniekva
vietu
vietva
vietvaldi
vietvalz
view
viewer
vii
viii
vija
vijai
vijas
vijol
vijole
vijolei
vijoles
vijoli
vijolnieks
vijs
viju
vika
viki
vikiekspedi
vikikra
vikingi
vikingu
vikipe
viktora
viktorija
viktorijas
viktors
viktoru
vil
vila
vilas
vilca
vilce
vilces
vilciena
vilcieni
vilcieniem
vilciens
vilcienu
vilhelma
vilhelmam
vilhelmi
vilhelms
vilhelmu
vili
vilis
viljama
viljams
viljamsa
viljamss
viljamu
viljandi
vilka
vilkac
vilki
vilks
vilku
vilkva
villa
villarreal
villijs
vills
vilna
vilnas
vilne
vilni
vilnis
vilnius
vilnu
vilosta
vilostas
vils
vilsona
vilsons
vilti
viltus
vim
vimba
vimbldonas
vin
vina
vinc
vincent
vingrina
vingros
vingrota
vinila
vinipegas
vinsents
vinstons
vinters
vinz
violeta
violeti
vira
vircavas
virdz
vires
virga
virgas
virgin
virkne
virknes
virkni
virpul
virs
virsa
virsais
virsaitis
virsas
virsbu
virsdirig
virsdzimta
virse
virska
virsleitnants
virsli
virsma
virsmai
virsmas
virsmizin
virsmu
virsnieka
virsnieki
virsniekiem
virsnieks
virsnieku
virsniekus
virsotne
virsotnes
virsotni
virspave
virspilskunga
virspuse
virsu
virsvadi
virszemes
virtemberga
virtembergas
virtua
virtual
virtuve
virtuves
virves
virza
virzi
virziena
virzienam
virzieni
virzieniem
virzienos
virziens
virzienu
virzoties
virzul
vis
visa
visai
visam
visapka
visaptveros
visas
visaugsta
visauksta
visbaga
visbeidzot
visbiez
visbieza
visdaz
visdri
vise
visgara
visi
visiem
visilga
vision
visizplati
viskonsinas
viskozita
viskrievijas
vislaba
vislas
visliela
visma
vismaz
vismaza
visms
visos
vispa
vispasaules
vispazi
vispirms
visplas
vispopula
vispusi
viss
vissavieni
vissena
vissezonas
vissilta
visspe
visstipra
vissvari
vissve
vista
vistas
viste
visti
visticama
vists
vistu
vistuva
visu
visual
visualeditor
visuma
visums
visumu
visur
visurga
visus
visvaira
visvaldis
visve
visveca
visveiksmi
visviegla
visvienka
viszema
vita
vitami
vitebska
vitebskas
vitjaz
vitra
viva
vivas
vizi
vizua
vizualiza
vja
vjac
vjetnama
vjetnamas
vjetnamies
vji
vjiem
vjl
vju
vjus
vk
vl
vladimira
vladimiras
vladimirovic
vladimirs
vladimiru
vladislava
vladislavs
vladivostokas
vlads
vlais
vlendas
vmateria
vmu
vnieci
vnieka
vniekam
vnieki
vniekiem
vnieks
vnieku
vniekus
vo
voc
vocis
voice
voja
vojama
vojamie
vojamo
vojas
vojevodiste
vojevodistes
vojis
vojos
vojot
vojumi
vojumiem
vojumu
vojus
vojusi
voka
vokl
vokli
voklim
voklis
vol
voldema
volejbola
volejbols
volfa
volfgangs
volfs
volga
volgas
volhovas
voli
volkers
volkswagen
voll
volodimirs
vols
volta
volters
volume
vom
von
voron
vos
voshod
vostas
vostok
vot
vota
votaja
votas
voterss
voti
voties
voto
votos
vots
votspe
votu
vova
voyager
vozn
vpilse
vpra
vrangel
vs
vseslavic
vsevolods
vsia
vspa
vsudraba
vsudrabs
vu
vudijs
vuds
vuelta
vulfs
vulgaris
vulka
vulpes
vuls
vuma
vums
vumu
vurpu
vus
vusi
vvalsts
vvieta
vvietas
vzal
vzeme
vzemei
vzemes
w
wa
waffen
walker
wall
walt
walter
wanderers
wang
want
war
warbler
warehouse
warner
warriors
wars
warszawa
was
washington
watch
water
way
we
weather
web
website
week
weekly
welcome
well
welt
werder
were
werner
west
western
wgm
whale
whales
what
when
where
which
white
who
whois
why
wi
width
wie
wien
wii
wiki
wikidata
wikimania
wikimedia
wikipe
wikipedia
wikis
wikitext
wild
wildlife
wiley
wilhelm
will
william
williams
wilson
wim
win
wind
windows
wings
wins
winter
wish
with
within
without
wizards
wmf
wnba
wo
wojewo
wolf
wolfgang
wolfsburg
woman
women
wood
word
words
work
workflow
working
works
world
worlds
worldteam
would
wp
wrestling
wright
writing
wta
wu
www
x
xa
xbox
xc
xd
xe
xeno
xerocomus
xf
xi
xii
xiii
xil
xiv
xix
xl
xml
xp
xv
xvi
xvii
xviii
xx
xxi
xxxtentacion
y
ya
yahoo
yang
yaogan
year
years
yellow
yo
york
you
young
your
youth
youtube
yu
yyy
yyyy
z
za
zagl
zagreb
zagreba
zagrebas
zai
zak
zaks
zal
zalcburga
zalcburgas
zalda
zalks
zalves
zamek
zan
zane
zapol
zaporiz
zara
zari
zariem
zarin
zarna
zarnas
zarnu
zaros
zars
zaru
zarus
zas
zasas
zasulauka
zatlera
zatlers
zaubes
zaude
zb
zc
zd
zdene
zdenes
ze
zealand
zebiekste
zebra
zebras
zebru
zei
zeit
zeitung
zek
zekne
zeknes
zekni
zel
zele
zelenskis
zeles
zelis
zelta
zeltaini
zelti
zeltin
zelts
zeltu
zem
zema
zemas
zeme
zemei
zemes
zemeslodes
zemesraga
zemesrags
zemess
zemessardzes
zemestri
zemgal
zemgale
zemgales
zemgali
zemgalietis
zemgals
zemi
zemien
zemiene
zemienes
zemita
zemju
zemkopi
zeml
zemnieka
zemnieki
zemniekiem
zemnieks
zemnieku
zemniekus
zemo
zems
zemu
zen
zena
zenes
zeni
zenit
zens
zenta
zentenes
zepa
zeppelin
zeps
zera
zeris
zero
zeru
zes
zeva
zf
zg
zgova
zgovas
zh
zhang
zheng
zi
zibatmin
ziben
zibens
zied
zieda
ziede
ziedi
ziediem
ziedkopa
ziedoja
ziedojumiem
ziedojumu
ziedon
ziedonis
ziedos
ziedot
zieds
ziedu
ziedus
ziem
ziema
ziemas
ziemassve
ziemel
ziemo
ziemos
ziemu
ziepju
ziepniekkalna
ziepniekkalns
zies
ziez
zigfri
zigmunds
zigurds
zija
zijai
zijas
ziju
zik
zika
zikai
zikas
zikla
ziku
zil
zila
zilais
zilas
zilbe
zilbes
zileni
zili
zilie
zilo
zilon
zilonis
zils
zilspa
zilu
zilupe
zilupes
zimbabve
zimbabves
zin
zina
zinas
zini
zinot
zinu
zirdzin
zirga
zirgam
zirgi
zirgiem
zirgs
zirgu
zirgus
zirn
zirnekl
zirnis
zis
ziska
zivi
zivis
zivju
zivs
zivsaimnieci
zivtin
zle
zli
zma
zmains
zmainu
zmas
znas
znavas
znotin
zo
zoba
zobena
zobenbra
zobens
zobenu
zobenval
zobi
zobiem
zobin
zobu
zodiaka
zolitu
zommers
zona
zonas
zonde
zondes
zondi
zone
zonu
zoo
zooda
zoolog
zoologs
zoology
zorro
zose
zosis
zoss
zosu
zr
zs
zt
zta
zts
zu
zudums
zudumu
zudus
zudusi
zudusilatvija
zuiks
zum
zuma
zums
zumu
zunda
zur
zus
zutis
zva
zvaigz
zvaigzna
zvaigzne
zvaigznei
zvaigznes
zvaigzni
zvana
zvani
zvans
zvanu
zve
zveida
zveja
zvejas
zvejnieci
zvejnieka
zvejnieki
zvejnieks
zvejnieku
zvelta
zvelts
zvezda
zvi
zviedri
zviedriem
zviedrija
zviedrijai
zviedrijas
zviedriju
zviedru
zvirbul
zvirbulis
zvirgzdenes
zzs
{
|
}
~
¡
£
§
©
«
¬
­
®
°
±
²
³
´
µ
·
¹
º
»
¼
½
×
ß
æ
÷
ø
ı
ł
ƒ
ʲ
ʻ
ʼ
ʾ
ʿ
ˈ
ː
ˑ
̀
́
̂
̃
̄
̆
̇
̈
̉
̊
̋
̌
̓
̔
̛
̣
̦
̧
̨
̯
̱
̸
͂
͡
α
β
γ
δ
ε
η
θ
ι
λ
μ
ν
ο
π
ρ
ς
σ
τ
υ
φ
χ
ψ
ω
а
александр
александрович
алексеи
ан
англ
андреи
армия
б
большои
борис
в
василии
века
владимир
во
вои
все
г
гг
года
грибы
д
дата
для
дмитрии
до
е
ж
з
за
земли
земля
и
иван
иванович
из
изд
издательство
или
истории
история
июля
к
как
л
латвии
лет
лович
м
материалы
мир
михаи
михаил
москва
н
на
наук
наука
не
ни
николаевич
николаи
о
об
обращения
он
остров
от
п
пе
по
под
полярная
прогресс
р
раи
растительность
ред
рига
россии
россия
русскии
с
саи
сергеи
ская
скии
скои
словарь
сн
советская
советскои
спб
сср
ссср
стр
т
табака
те
том
тр
у
уезд
украі
ф
фе
федерации
флора
х
ц
ч
что
ш
ъ
ы
э
энциклопедическии
энциклопедия
ю
юрии
я
і
҃
ְ
ִ
ַ
ָ
ּ
ב
ו
י
ר
ا
َ
ّ
ٓ
ٔ
ٕ
ނ
ރ
ކ
އ
މ
ަ
ާ
ި
ު
ެ
ް
ं
क
त
द
न
प
य
र
व
स
ा
ि
ी
ु
े
्
গ
ন
ব
ম
য
র
হ
়
া
ি
ু
ে
্
ா
ி
்
ั
ิ
ุ
้
་
​
‌
‎
‐
‑
–
—
―
‘
’
“
”
„
†
‡
•
…
‰
′
″
€
№
™
⅓
←
↑
→
↔
↷
⇄
∆
∈
−
√
∞
≈
≡
≤
≥
⊙
⋅
③
④
⑦
▄
█
░
▼
☎
♔
♕
♖
♗
♘
⟨
⟩
⺀
⺄
⺆
⺈
⺊
⺌
⺕
⺝
⺸
⺼
⿰
⿱
⿲
⿳
⿴
⿵
⿶
⿷
⿸
⿹
⿺
⿻
〢
い
う
か
け
し
た
っ
て
と
に
の
は
゙
゚
ア
イ
カ
キ
ク
コ
シ
ス
タ
ッ
ト
ハ
ヒ
フ
ホ
マ
ユ
ラ
リ
ル
ロ
ン
・
ー
㇁
㇂
㇄
㇇
㇈
㇉
㇓
㐁
㐄
㐅
㐌
㐫
㐬
㐭
㐮
㐱
㑒
㒵
㒸
㒼
㓁
㓞
㔾
㕛
㕣
㖾
㘝
㚅
㚇
㚔
㚘
㝉
㝡
㝴
㝵
㞋
㞢
㞷
㠩
㠭
㠯
㡀
㡭
㡿
㢲
㢴
㣇
㣺
㥯
㪅
㫄
㫐
㫒
㫺
㬅
㬎
㬥
㬰
㲋
㳄
㷠
㸒
㸚
㸦
㼌
㼲
㽞
㿟
䀠
䂞
䍃
䏍
䒑
䖍
䖒
䖝
䖵
䙴
䚻
䜌
䝿
䡛
䧹
䪞
一
丁
丂
七
丄
丅
丆
万
丈
三
上
下
丌
不
与
丏
丐
丑
专
且
丕
世
丘
丙
业
东
丞
丢
丣
两
严
並
丨
丩
个
丫
丬
中
丮
丰
丱
串
丵
丶
丷
丸
丹
为
主
丽
丿
乀
乂
乃
久
乆
乇
么
义
之
乌
乍
乎
乏
乐
乑
乔
乖
乗
乘
乙
乚
乛
乜
九
乞
也
习
乡
乳
乾
亀
亅
了
亇
予
争
事
二
亍
于
亏
亐
云
互
亓
五
井
亘
亚
亜
亞
亟
亠
亡
亢
交
亥
亦
产
亨
亩
享
京
亭
亮
亯
亰
亲
亳
亶
亷
人
亻
亼
亾
仁
今
介
仌
从
仐
仑
仒
仓
仕
他
付
仝
代
令
以
任
企
伊
伏
伐
休
会
伯
但
位
何
佘
余
作
佥
使
來
侈
侌
侖
侯
侵
便
保
俞
信
修
倉
倍
候
倠
備
僉
僕
儿
兀
允
兂
元
兄
充
兆
兇
先
光
兊
克
兌
免
兑
兒
兓
兔
党
兜
兟
入
全
兩
兪
八
公
六
兮
兰
共
关
兵
其
具
典
兹
兼
冀
冂
冃
冄
内
冈
冉
冊
冋
册
再
冎
冏
冐
冒
冓
冖
冗
冘
军
农
冝
冡
冥
冫
冬
冷
几
凡
凢
凵
凶
凷
凸
凹
出
函
凾
刀
刁
刂
刃
刄
刅
分
切
刍
刑
刕
刖
列
刘
则
初
別
利
别
到
制
刺
則
削
剌
前
剡
剽
劉
力
功
加
劦
助
劫
劳
劵
勃
勇
勉
勒
動
務
勞
勤
勹
勺
勻
勾
勿
匀
匂
包
匆
匈
匊
匋
匍
匕
化
北
匚
匝
匡
匪
匱
匸
匹
区
医
匽
匿
區
十
卂
千
卄
卅
卆
升
午
卉
半
卌
华
卑
卒
卓
单
卖
南
卜
卝
卞
占
卡
卢
卣
卤
卦
卩
卪
卬
卯
印
危
即
却
卵
卷
卸
卻
厂
厃
厄
历
厈
厉
厌
厓
厘
厚
原
厤
厥
厨
厭
厲
厶
厷
厸
去
厼
厽
叀
参
參
叅
又
叉
及
友
双
反
叐
发
叒
叔
叕
取
受
叚
叜
叟
口
古
句
另
叩
只
召
可
台
叱
史
右
叵
号
司
叹
吂
各
吅
合
吉
吊
吋
同
名
后
吏
向
吕
君
吝
吞
否
含
启
吳
吴
吹
吾
呂
呆
呈
告
员
呙
周
命
咅
和
咎
咠
咢
咨
咸
咼
哀
品
哉
員
哥
哲
唐
商
啇
問
啚
啬
啻
善
喜
喬
單
喿
嗇
噩
嚴
囊
囗
囘
囙
囚
四
回
囟
因
囧
囬
困
囱
囷
固
国
圂
圅
國
圍
圓
土
圡
圣
圥
在
圭
地
圶
圼
坐
坒
坚
坴
垂
垔
垚
埀
埋
埶
執
基
堂
堅
堆
堇
堯
塞
墨
壘
士
壬
壯
声
壳
壴
壹
壺
壽
夂
处
夅
夆
备
夊
夋
夌
复
夏
夒
夕
外
夗
夘
多
夜
夢
大
夨
天
太
夫
夬
夭
央
失
夲
头
夷
夸
夹
夻
夾
奂
奄
奇
奈
奉
奎
奏
奐
契
奓
奔
奚
奞
奠
奢
奥
奭
女
奴
奻
好
如
妄
妙
妟
妥
妻
妾
姑
委
姜
威
娄
婁
婴
嬰
嬴
子
孑
孔
孕
孖
字
存
孚
孛
孝
孟
季
孤
学
孫
孱
學
宀
宁
宂
它
宅
宇
守
安
宋
完
宏
宓
宗
官
定
宛
宜
宝
客
宣
室
宮
宰
害
家
容
宾
宿
寄
寅
密
富
寒
察
寧
審
寫
寬
寮
寸
对
寺
寻
寽
対
寿
封
尃
射
将
將
專
尉
尊
尋
尌
對
小
少
尒
尓
尔
尖
尗
尚
尞
尢
尣
尤
尧
尨
尭
就
尸
尹
尺
尻
尼
尽
尾
尿
局
居
屈
屋
屎
屏
屑
展
屖
屚
属
屠
屡
屬
屮
屯
屰
山
屵
屾
岁
岂
岑
岡
岩
岳
岸
峯
島
崇
崑
崔
崖
崙
崩
嵬
嶲
巂
巛
川
州
巟
巠
巢
巤
工
左
巧
巨
巩
巫
差
己
已
巳
巴
巷
巸
巽
巾
巿
帀
市
布
希
帚
帛
帝
带
師
席
帶
常
干
平
年
幵
并
幷
幸
幺
幻
幼
幽
幾
广
広
庄
床
底
店
庚
府
度
庫
庭
庶
康
庸
廉
廌
廛
廣
廩
廴
延
廷
建
廾
廿
开
弁
弃
弄
弇
弋
式
弓
弔
引
弗
弘
弜
弟
弥
弦
弱
張
強
强
彊
彌
彎
彐
彑
当
彔
录
彖
彗
彡
形
彥
彦
彧
彭
彳
役
彼
往
待
律
徒
得
徙
從
復
微
徵
心
忄
必
忌
忍
志
忝
忠
忩
快
念
忽
忿
思
怠
急
怱
恆
恒
恩
恭
息
悉
患
悤
悲
悶
惠
惡
惢
愁
愈
意
愛
感
慈
慧
慮
憂
憲
應
戀
戈
戉
戊
戋
戌
戍
戎
成
我
戒
戔
或
戚
戠
戢
截
戲
戶
户
戹
戼
戾
房
所
扁
扇
手
扌
才
打
托
执
承
折
拉
拜
拿
掌
推
提
摩
支
攴
攵
收
攸
改
放
政
敄
敏
敕
敖
敗
敝
敞
敢
散
敦
敫
敬
数
敷
數
斂
文
斉
斊
斗
斤
斥
斩
斬
斯
新
方
於
施
斿
旁
旋
族
无
旡
既
旣
日
旦
旧
旨
早
旬
旱
旲
时
旾
昆
昇
昌
昍
明
昏
易
昔
昗
昜
星
春
昬
是
昱
昴
昷
時
晃
晋
晏
普
景
晶
智
暑
暴
曇
曩
曰
曲
曳
更
曷
書
曹
曼
曾
替
最
朁
會
月
有
朋
服
朔
朕
朗
望
朝
木
朩
未
末
本
札
朮
术
朱
朵
朶
朿
杀
李
杏
村
杜
束
条
来
東
杲
杳
松
析
林
枚
果
枝
枲
枼
某
柔
查
柬
柰
柴
栗
桀
桑
桼
梁
條
梟
梨
棘
棠
棥
森
楚
業
楽
榮
樂
樊
欠
次
欣
欮
欲
欶
欽
款
歆
歇
歛
止
正
此
步
武
歨
歪
歮
歯
歰
歲
歴
歷
歸
歹
歺
死
殳
段
殷
殸
殹
殺
殻
殿
毋
毌
母
每
毒
比
毕
毚
毛
毳
氏
氐
民
气
氣
水
氵
氶
氷
永
氺
氾
求
汝
汞
江
沃
沓
沙
沝
泉
法
波
泣
泥
泰
洛
洪
活
派
流
浦
浪
浮
海
淡
淮
清
渚
渠
湯
滿
漸
火
灬
灭
灰
灵
灷
炅
炎
炏
炗
炙
炭
為
烈
烏
烝
焉
無
焦
焱
然
煞
熊
熏
燕
營
燮
爪
爫
爭
爯
爰
爱
爲
爵
父
爻
爽
爾
爿
片
牙
牚
牛
牜
牟
牢
牧
牪
牽
犀
犬
犭
犮
狂
狄
狊
独
狺
猋
猒
猪
献
獻
玄
率
玉
王
玟
玨
珎
班
琴
瑟
瑩
瓜
瓦
甘
甚
生
産
用
甫
甬
田
由
甲
申
电
甶
男
甸
甹
画
甾
畀
界
畏
畐
留
畜
畟
畢
畧
畨
番
畫
異
畱
當
畺
畾
疊
疋
疌
疑
疒
疾
癶
癸
癹
登
發
白
百
皀
皃
的
皆
皇
皋
皐
皕
皮
皷
皿
盃
盆
盇
盈
益
盍
盎
监
盒
盖
盛
盡
監
盤
盧
目
直
相
盾
省
眇
眉
看
眔
眞
真
眷
眼
眾
着
睘
睪
睿
瞏
瞢
瞿
矍
矛
矞
矢
矣
知
矦
短
石
破
碎
磊
磨
示
礻
礼
祟
票
祭
禀
禁
禸
禹
禺
离
禽
禾
禿
秀
秃
秉
秋
科
秝
秦
移
稟
穀
穌
穴
究
穹
空
穿
突
窄
窒
立
竒
竜
竝
竟
章
童
竹
笑
笠
筆
等
答
箕
算
箴
節
篤
篭
米
粉
粛
粟
粤
粦
粲
糞
糸
糹
系
約
納
素
索
紫
累
細
絜
絫
絲
維
綿
縣
繇
纍
纟
缶
网
罒
罔
罕
罗
罙
罡
罢
罪
署
罷
羅
羊
羌
羍
美
羔
羕
羗
羞
羡
羣
群
義
羲
羸
羽
翁
翏
習
翕
翟
翠
翼
老
耂
考
者
耆
而
耎
耑
耒
耳
耴
耶
耷
聂
聊
聖
聚
聶
聿
肀
肃
肅
肉
肖
肙
肥
肩
肯
育
肴
胃
背
胡
胥
能
脊
脩
膚
臣
臤
臧
自
臬
臭
臯
臱
至
致
臺
臼
臽
臾
臿
舀
舂
舄
與
興
舉
舌
舍
舛
舜
舞
舟
般
艮
良
色
艸
艹
艾
芒
芔
芬
芮
花
芳
芺
芻
苔
苗
苟
若
苦
英
茶
茸
荅
草
荒
荣
荼
莆
莧
莫
莽
菆
菊
菐
華
萬
落
葉
著
葛
董
葵
蒙
蒦
蒼
蓋
蓬
蓺
蔑
蔡
蕉
蕭
薄
薛
薦
薰
藍
藏
藥
蘭
虍
虎
虐
虒
虔
處
虖
虗
虘
虚
虛
虜
虞
虫
虽
蚤
蚩
蜀
蜜
蟲
蠡
血
行
衍
衛
衣
衤
表
衮
衰
袁
袞
褭
褱
襄
襾
西
覀
要
覃
見
規
覓
覧
親
覽
见
角
解
言
訁
訇
計
詹
誩
諸
讠
谷
豆
豈
豊
豐
豕
豖
豙
象
豦
豩
豪
豸
貇
貝
貞
貟
負
貢
貧
貪
貫
責
貳
貴
買
費
賁
資
賈
賏
賓
賔
賛
賞
賢
賣
質
賴
贊
贝
贡
责
贯
贲
贵
赖
赞
赤
赦
走
越
足
路
蹇
身
躬
車
軍
軎
軟
輦
车
辛
辜
辟
辥
辰
辱
農
辵
辶
边
达
过
近
连
迷
追
退
送
逆
逐
通
速
造
逢
連
逮
進
遀
遂
過
道
達
遣
適
遷
遺
邊
邑
邕
那
邦
邪
郎
部
郭
都
鄉
酉
酋
配
酓
釆
采
里
重
野
量
金
釒
錢
钅
長
镸
长
門
閃
閉
開
閏
閑
閒
間
閔
閵
閻
闌
门
间
闷
阑
阜
阝
阿
降
陳
隆
隊
隋
隡
隨
隱
隶
隹
隺
隻
隼
隽
难
雀
雁
集
雈
雋
雍
雐
雔
雙
雚
雜
雝
離
難
雨
雩
雪
雲
零
雷
需
霍
霜
霝
霞
霸
靈
靑
青
非
靡
面
靣
革
韋
韦
韭
韯
韱
音
頁
頃
項
須
頗
頡
頻
顛
页
風
风
飛
飞
食
飠
養
饣
首
香
馬
馮
駦
马
骨
高
髟
鬥
鬯
鬲
鬼
魚
魯
鮮
鱼
鲁
鳥
鳳
鸟
鹵
鹿
麃
麗
麥
麦
麻
黃
黄
黍
黎
黑
黒
黨
黹
黽
黾
鼎
鼓
鼠
鼻
齊
齋
齐
齒
齿
龍
龙
龜
龟
龠
龰
龱
龴
龵
龶
龷
龸
龹
者
艹
﻿
？
𠀁
𠀃
𠀆
𠀉
𠀎
𠀐
𠁁
𠁣
𠂆
𠂇
𠂈
𠂉
𠂊
𠂋
𠂎
𠂒
𠂔
𠂛
𠂡
𠂢
𠂤
𠂬
𠂭
𠂹
𠃊
𠃋
𠃌
𠃍
𠃎
𠃑
𠃓
𠃔
𠃜
𠄌
𠄎
𠄠
𠄢
𠆢
𠆥
𠇍
𠈌
𠌵
𠓜
𠔉
𠔥
𠔼
𠔽
𠔿
𠕀
𠕁
𠕋
𠘧
𠘨
𠙻
𠙼
𠚏
𠚒
𠚤
𠚪
𠣏
𠤎
𠤕
𠥓
𠦄
𠦑
𠦝
𠧒
𠧗
𠧪
𠩺
𠪚
𠫓
𠫔
𠫤
𠬛
𠬝
𠬞
𠬢
𠬤
𠬶
𠮛
𠮦
𠮷
𠯑
𠱠
𠳮
𠷎
𡈼
𡉀
𡉵
𡌥
𡍮
𡏳
𡕒
𡕩
𡕰
𡖅
𡗗
𡗜
𡘆
𡘤
𡧱
𡨄
𡩧
𡬠
𡭽
𡰣
𡰥
𡰪
𡰯
𡰱
𡷈
𡸁
𡿨
𡿩
𡿪
𡿺
𢀖
𢀛
𢀩
𢁙
𢆉
𢆰
𢆶
𢇁
𢇇
𢉖
𢌬
𢌿
𢏚
𢑑
𢑚
𢖻
𢙣
𢛳
𢦏
𢦒
𢧵
𢼄
𢾕
𣁋
𣄼
𣅀
𣅽
𣍘
𣎳
𣎵
𣏋
𣏼
𣗥
𣥂
𣥖
𣦵
𣦼
𣧄
𣪊
𣪠
𣬉
𣳾
𣶒
𤇾
𤊽
𤐫
𤓰
𤔔
𤕨
𤣩
𤰇
𤰔
𤰞
𤴓
𤴔
𤽄
𥁑
𥁕
𥃦
𥃩
𥃭
𥇡
𥑟
𥘅
𥘈
𥝢
𥫗
𥱡
𦈢
𦉪
𦉬
𦉼
𦍌
𦍒
𦎧
𦐇
𦓔
𦔮
𦘒
𦙃
𦚏
𦣝
𦣞
𦣻
𦥑
𦥔
𦥯
𦨉
𦭝
𦰩
𧆞
𧈧
𧘇
𧰨
𧴪
𧴮
𧵩
𧾷
𨸏
𨾴
𩙿
𩠐
𩫏
𩵋
𪉷
𪜀
𪟽
𪠲
𪩲
𫇦
𫔭
𫜸
𫝀
𫠣
𫠩
𫢉
𫥞
𫩏
𫩠
𫪡
𫲽
𫶧
𬀷
𬐘
𬗌
𬙙
𬛸
𬜯
𬟩
𬯁
𬴘
𬺻
𬼉
𬼖
𭀰
𭁈
𭁨
𭅰
𭑈
𭕄
𭗼
𭤨
𭥫
𭻾
𮅕
𮊿
𮍌
𮍏
𮓗
𮥼
𮧮
廾
𰀁
𰀄
𰀈
𰀉
𰀕
𰀠
𰀡
𰀢
𰀪
𰁜
𰃮
𰆊
𰆘
𰋙
𰕎
𰢴
𰧭
𰯲
00--
01--
02--
03--
04--
05--
06--
07--
08--
09--
210--
310--
34--
35--
36--
37--
38--
39--
40--
41--
42--
43--
44--
45--
46--
47--
48--
49--
50--
51--
52--
53--
54--
55--
56--
57--
58--
59--
60--
61--
62--
63--
64--
65--
66--
67--
68--
69--
70--
71--
73--
74--
75--
76--
77--
78--
79--
80--
81--
82--
83--
84--
85--
86--
87--
88--
90--
91--
92--
93--
99--
a--
aa--
ab--
aba--
abdul--
abe--
abi--
abl--
abs--
ac--
acce--
acet--
aci--
act--
acu--
aculieci--
ad--
ada--
adam--
add--
ade--
adi--
adop--
adu--
adven--
adz--
ae--
aegi--
aero--
aerokos--
aeros--
af--
ag--
aga--
agri--
agro--
ah--
aha--
ai--
air--
ais--
aiz--
aizbild--
aizsarg--
aizspr--
aje--
ak--
aka--
akce--
aki--
akorde--
akro--
aks--
akti--
aku--
akva--
akvato--
al--
ala--
alba--
albe--
ale--
alego--
aleks--
algebri--
ali--
alk--
alkoh--
all--
allge--
als--
alt--
altru--
alu--
alve--
aly--
am--
ama--
ambul--
ame--
ami--
amo--
amu--
amund--
an--
ana--
anar--
anato--
anatom--
anc--
and--
ane--
angl--
angu--
ani--
anne--
ano--
ans--
anth--
anti--
antibio--
anto--
any--
ao--
ap--
apar--
apdeg--
ape--
apg--
apglez--
api--
apjo--
apl--
aple--
apli--
apma--
apme--
apo--
apolo--
aps--
apsaimn--
apse--
apska--
apsti--
apu--
apva--
apvaino--
apvil--
aqua--
ar--
ara--
arc--
archa--
are--
argu--
argumen--
arha--
arhitek--
ari--
arm--
arods--
art--
arte--
as--
asa--
ases--
asi--
asinh--
asins--
ask--
aso--
asp--
ass--
aste--
astro--
at--
ata--
atalg--
atce--
atdz--
atdzej--
ate--
atka--
atl--
atli--
atm--
atn--
ato--
atomb--
atomm--
atp--
atra--
atrie--
ats--
atseg--
atsta--
attais--
atva--
atza--
au--
audio--
aug--
aujampul--
auk--
aumei--
aund--
aus--
austrum--
aut--
auto--
av--
ava--
ave--
avi--
avia--
avnie--
ax--
az--
aza--
azerbai--
azi--
b--
ba--
babi--
back--
bad--
badmin--
bah--
bai--
bal--
bam--
ban--
bank--
bapt--
bar--
bara--
baro--
bas--
base--
basti--
bat--
bau--
be--
beat--
bei--
beisb--
bek--
bel--
ben--
benedi--
ber--
berk--
bernh--
berto--
bes--
bet--
bez--
bezdi--
bha--
bhu--
bi--
biatl--
big--
bik--
bil--
bin--
bio--
birk--
birming--
birz--
bis--
bit--
biz--
bj--
bja--
bje--
bl--
bla--
blakus--
ble--
bli--
blo--
blu--
bo--
bob--
boik--
bol--
bomb--
bon--
bonap--
bor--
boris--
boro--
bos--
bot--
boul--
bour--
boz--
br--
bra--
brah--
bre--
brend--
bri--
brigh--
brisb--
bro--
brow--
bru--
brun--
bs--
bsbu--
bt--
bu--
buc--
budb--
budd--
bufe--
buko--
bul--
bumb--
bund--
bunde--
bunk--
bur--
burg--
burin--
bus--
but--
by--
bz--
c--
ca--
calc--
camp--
can--
cap--
car--
cas--
cat--
cauc--
caur--
cd--
ce--
cel--
cele--
cen--
cent--
cer--
ces--
ch--
cha--
chara--
charac--
che--
check--
chev--
chlo--
cho--
chry--
ci--
cicer--
ciet--
cik--
ciklo--
cild--
cilin--
cim--
cin--
cio--
cip--
cir--
cis--
cita--
cito--
citrus--
citt--
civil--
ck--
cl--
cm--
cn--
co--
coen--
coll--
colo--
colu--
com--
con--
conc--
cons--
consul--
cont--
conta--
contribut--
cor--
cos--
cot--
cr--
crea--
crist--
cs--
cu--
cukur--
cun--
cv--
cy--
cyano--
cycl--
cz--
d--
da--
dabs--
dai--
dakt--
dal--
dam--
dan--
dar--
darb--
darba--
das--
datorpro--
dau--
daudz--
daug--
dauga--
daugav--
day--
db--
dd--
de--
debes--
debit--
dec--
defe--
deg--
dei--
del--
dem--
demis--
den--
dens--
der--
des--
det--
detek--
deter--
dex--
dez--
dh--
di--
dia--
diagn--
diale--
did--
die--
dien--
dienvid--
diev--
dievkalpo--
diff--
dim--
dimit--
din--
dina--
dinoz--
dio--
diokl--
diplo--
direkc--
dis--
div--
diva--
divk--
diz--
dj--
dju--
dk--
dm--
dmit--
do--
docum--
dod--
dog--
dolg--
dom--
dome--
domi--
domu--
don--
dosto--
dr--
dra--
draiv--
dre--
dri--
dro--
dru--
ds--
dt--
du--
dub--
dubl--
dubrov--
dubul--
dul--
dumpi--
dund--
dunk--
dus--
dve--
dvi--
dvo--
dy--
dz--
dzaut--
dze--
dzelten--
dzen--
dzgai--
dzi--
dzied--
dzimum--
dzin--
dzirks--
dzs--
e--
ea--
ebe--
ec--
echi--
ed--
edi--
edu--
ee--
ef--
efers--
eg--
egl--
ehi--
eho--
ei--
eik--
ein--
eiro--
eiz--
eizenhau--
ej--
ek--
eka--
eklekti--
eko--
ekono--
eks--
ekspan--
ekva--
el--
ela--
ele--
elect--
elekt--
elektro--
elektros--
elektroteh--
eleon--
eli--
elipt--
elo--
els--
em--
ema--
emanu--
ember--
embri--
emi--
emoc--
emu--
en--
ena--
end--
energo--
enge--
engelh--
eni--
enierteh--
ens--
entuzi--
eo--
eof--
ep--
epi--
epizo--
eps--
equi--
er--
era--
ercherc--
erdog--
ere--
eri--
ern--
eroti--
eroz--
ers--
erz--
es--
esc--
eskad--
esko--
ess--
est--
et--
eta--
ete--
eth--
ethno--
eti--
etiop--
etr--
etri--
eu--
euph--
euro--
ev--
ever--
ex--
exper--
expl--
exten--
ez--
ezer--
f--
fa--
fam--
far--
farmacei--
fas--
faund--
fe--
feld--
fen--
fer--
ferme--
fi--
fib--
figh--
fil--
filan--
filosof--
fin--
fish--
fjo--
fjodo--
fla--
fle--
fli--
flo--
flu--
fluoresc--
fo--
foge--
fogt--
folk--
folklo--
fon--
for--
fors--
fos--
foto--
fr--
fra--
fre--
frei--
fri--
fried--
fru--
fu--
g--
ga--
gada--
gai--
gais--
gal--
gala--
gale--
gali--
gam--
gan--
gar--
garen--
gas--
gastro--
gau--
gavri--
gaz--
ge--
geim--
gemei--
gen--
gens--
geo--
ger--
ges--
get--
gi--
gibs--
gigan--
gil--
gilb--
gl--
gla--
gladi--
glez--
gli--
gliem--
glo--
glu--
gm--
gn--
gno--
go--
god--
gol--
gold--
gon--
gond--
gons--
gori--
gos--
got--
gottf--
gov--
gp--
gr--
gra--
grand--
grau--
gre--
grego--
gren--
greno--
grez--
gri--
grigo--
gro--
groning--
gros--
grot--
groz--
gru--
grund--
grunts--
gs--
gst--
gu--
gul--
gun--
gus--
gut--
gy--
gymn--
h--
ha--
hads--
haj--
ham--
hamil--
han--
hand--
haoti--
har--
hara--
hard--
hark--
harmon--
hart--
has--
hat--
haus--
hav--
hay--
he--
hei--
heidel--
heli--
helikop--
hemo--
hen--
hend--
hende--
her--
hes--
het--
heter--
heterocik--
hey--
hi--
hidr--
hidro--
hie--
hierar--
hiero--
high--
hil--
hila--
hilb--
hinde--
hip--
hiper--
hipert--
hir--
his--
hlo--
hloro--
ho--
hoenco--
hoff--
hol--
holi--
holl--
holoc--
holopa--
home--
hor--
horez--
hork--
horo--
hos--
hot--
hu--
hudz--
hug--
hugen--
humb--
humo--
humus--
hun--
huse--
hy--
i--
ia--
ib--
ibe--
ibi--
ibu--
ic--
ice--
ich--
id--
ide--
ident--
ie--
iedve--
iedvesm--
ieg--
iega--
iegu--
iek--
ielen--
iem--
iemi--
iemies--
iepa--
iepi--
iera--
ierind--
ies--
ieska--
iesnie--
iespaid--
iespied--
iet--
ieva--
ievaino--
ievil--
if--
ig--
iga--
igo--
ih--
ihi--
ii--
ij--
ik--
ika--
ikaun--
iki--
iks--
il--
ilg--
illus--
ilu--
im--
ima--
imere--
imple--
impres--
in--
ina--
inc--
indukc--
indus--
indy--
ine--
infant--
infar--
infe--
info--
infra--
ing--
ingis--
inhibit--
ini--
injekc--
ino--
ins--
inspe--
int--
inter--
intra--
io--
ip--
ir--
ira--
iro--
iron--
iros--
irs--
is--
isa--
ise--
iso--
ist--
it--
ita--
ito--
iu--
iv--
iz--
iza--
izau--
izd--
izgudr--
izjas--
izli--
izo--
izpi--
izpildd--
izra--
izs--
izse--
iztais--
izva--
izvi--
izviet--
j--
ja--
jagell--
jah--
jahrhun--
jai--
jam--
jan--
jas--
jau--
jaun--
jaund--
jaundienvid--
jaunk--
jc--
je--
jeb--
jeff--
jeka--
jel--
jen--
jer--
jes--
ji--
jin--
jk--
jo--
jos--
jr--
js--
ju--
juka--
jumt--
jun--
jupi--
juri--
k--
ka--
kaba--
kad--
kah--
kai--
kak--
kal--
kala--
kali--
kalvi--
kam--
kan--
kanto--
kapa--
kapel--
kapi--
kapu--
kar--
kara--
kas--
kat--
kata--
kate--
katego--
kato--
kau--
kaug--
kaugur--
kaul--
kaus--
kaverve--
kaz--
kazim--
kb--
kc--
kd--
ke--
keh--
keip--
keis--
keize--
kell--
kemb--
kemer--
kemp--
ken--
kend--
kenter--
kes--
ket--
kg--
kh--
ki--
kiber--
kilog--
kim--
kin--
kino--
kit--
kl--
kla--
klas--
klau--
kle--
klejo--
kleop--
kli--
klin--
km--
kn--
ko--
kodo--
kodolrea--
koi--
kokgrie--
kokv--
kol--
kolhoz--
kolum--
kom--
komand--
komb--
komerc--
komm--
komp--
kompakt--
kompres--
komprom--
komt--
komtur--
komu--
kon--
konc--
koncen--
koncert--
kondi--
konek--
konfe--
konkis--
konko--
kons--
konsor--
kontakt--
kontin--
kontr--
kontra--
kontrol--
konus--
kop--
kopiz--
kopk--
kopprodu--
kor--
kord--
kore--
kos--
kosmo--
kot--
koz--
kp--
kr--
kra--
krasn--
krast--
kre--
kreic--
kri--
kriev--
kript--
kris--
kristen--
kro--
kroko--
kron--
kros--
kru--
krust--
krusto--
ks--
ksam--
ksli--
ksta--
ku--
kubik--
kul--
kula--
kump--
kumpun--
kun--
kup--
kupr--
kupra--
kur--
kus--
kuz--
kv--
kve--
kvi--
ky--
l--
la--
lab--
labo--
lago--
lai--
laik--
laika--
lam--
lan--
lance--
land--
lapg--
lapo--
laps--
las--
lat--
latv--
lau--
lauz--
lav--
lay--
laz--
lazdu--
lb--
lc--
ld--
ldire--
le--
lec--
led--
leg--
leh--
lei--
leib--
leikp--
lej--
lejas--
leks--
lemb--
len--
leo--
lepn--
les--
let--
leuc--
lev--
lf--
lg--
lgu--
lh--
li--
libre--
lid--
lids--
lie--
lieci--
liel--
lield--
lielg--
lielhercogi--
lielk--
lielp--
lielv--
lik--
likum--
lil--
lim--
limno--
lin--
linds--
ling--
lingu--
lips--
lis--
liv--
lk--
lko--
lkomit--
ll--
lleit--
ln--
lo--
logo--
loh--
lomb--
lombar--
lon--
long--
loph--
los--
lot--
loz--
lp--
lproc--
lr--
ls--
lspul--
lt--
lu--
luc--
lucav--
luks--
lun--
lus--
lut--
luv--
luz--
lv--
lveik--
lvi--
ly--
lyca--
m--
ma--
mac--
macro--
mad--
madaga--
made--
mag--
mah--
mai--
maja--
mak--
maka--
makro--
maks--
mal--
mam--
man--
mana--
mandi--
mani--
mano--
mans--
mantin--
manu--
mao--
map--
mar--
marg--
mas--
mat--
math--
mati--
mato--
matt--
maur--
mauz--
max--
maz--
mazi--
mazo--
mb--
mc--
mcc--
md--
me--
mec--
med--
medi--
meg--
meh--
mei--
meina--
meistar--
mel--
mela--
meln--
melnk--
melo--
memo--
men--
meng--
menhengladb--
mer--
meri--
mes--
met--
meta--
mey--
mez--
mg--
mi--
mic--
micro--
mid--
mie--
mies--
mig--
miha--
mihail--
mijie--
mik--
mikro--
mikros--
mil--
milic--
milim--
milj--
min--
minha--
mini--
mir--
mis--
mit--
mitohon--
mk--
ml--
mm--
mn--
mo--
moham--
mol--
mon--
monit--
mono--
monop--
monte--
montgo--
mor--
mord--
moris--
moroz--
morpho--
mos--
moto--
motocik--
motor--
mozamb--
mp--
mr--
mredz--
ms--
mt--
mu--
muce--
muf--
mugu--
mugurkaul--
muham--
mul--
multi--
munt--
mus--
mush--
muske--
muze--
mv--
my--
myco--
n--
na--
nai--
nakts--
nal--
nam--
nan--
nano--
napv--
nark--
narkot--
nas--
nat--
nau--
naum--
naut--
nav--
nc--
nd--
ne--
neaiz--
neap--
nec--
nee--
nei--
neie--
neied--
neiro--
neiz--
neizd--
neizr--
neizt--
nel--
nema--
nen--
neno--
nenos--
nenot--
neo--
nepa--
nepie--
ner--
nera--
nere--
nes--
nesa--
net--
neu--
neuz--
neuzt--
neve--
new--
news--
ng--
nh--
ni--
nic--
nie--
nigs--
nik--
niko--
nim--
nin--
nirn--
nis--
nk--
nm--
no--
nobri--
noda--
node--
nogata--
nogri--
nogu--
nok--
nolaide--
noli--
nomn--
non--
nor--
nora--
nord--
nos--
noslepk--
not--
nov--
nova--
novato--
noz--
nr--
ns--
nt--
nu--
nunav--
ny--
nymp--
o--
oa--
ober--
obje--
obs--
obser--
oc--
ode--
odz--
of--
off--
ogi--
ogo--
oh--
ok--
okl--
oklah--
oks--
ol--
ola--
old--
oldenbu--
ole--
oleks--
oli--
olimp--
ols--
olympia--
omn--
oms--
on--
one--
ons--
op--
ope--
open--
opti--
optim--
or--
ora--
orang--
orato--
ordo--
ore--
org--
orga--
ori--
orienti--
orto--
ortt--
os--
ost--
ot--
ota--
ou--
out--
ov--
over--
oz--
ozol--
p--
pa--
pac--
padom--
pae--
pag--
pagata--
pal--
pala--
pale--
palu--
pama--
pamat--
pamatv--
pan--
pana--
papar--
papi--
papild--
par--
para--
paro--
pas--
paslu--
past--
pat--
patag--
pats--
pau--
paugur--
pava--
pavals--
pave--
pavil--
pavl--
pay--
pb--
pe--
pec--
peh--
pei--
pel--
peld--
pen--
per--
perfe--
pes--
pet--
petro--
pfa--
ph--
phen--
pi--
pic--
pie--
piebied--
piejau--
piek--
pien--
pies--
pietei--
pigm--
pik--
pil--
pilds--
piln--
pilnvar--
pils--
pin--
pioni--
pir--
pirmd--
pirms--
pirmval--
pis--
pitag--
pj--
pje--
pl--
pla--
plan--
plas--
plat--
platp--
ple--
ples--
pleten--
pli--
plot--
plov--
plu--
pm--
pneim--
pneima--
pni--
po--
podp--
poh--
pol--
poli--
polito--
poly--
pomp--
pon--
pop--
porno--
port--
pos--
posei--
post--
pp--
pra--
pract--
pre--
pream--
prefe--
premjermi--
pres--
pret--
pri--
pried--
print--
pro--
provizo--
pru--
ps--
psam--
pseido--
pseu--
psi--
psihiat--
psiho--
pt--
pu--
publi--
pue--
pul--
pund--
pundur--
punk--
punt--
purv--
pus--
pusdien--
py--
q--
qua--
que--
qui--
r--
ra--
radi--
radio--
radz--
raf--
rag--
ragn--
rah--
rai--
raibu--
rak--
rall--
ram--
ran--
ras--
rati--
rau--
raug--
ray--
raz--
rb--
rba--
rc--
rci--
rd--
rda--
rde--
re--
rea--
rec--
recep--
red--
ref--
reg--
regi--
reglam--
rei--
reihs--
rein--
reiz--
rekord--
rel--
remb--
ren--
rentg--
rentgens--
rept--
res--
resurs--
reto--
rev--
revol--
rez--
rg--
rga--
rgu--
rha--
rhi--
rho--
ri--
rie--
riekst--
rietum--
rig--
rih--
rij--
rik--
rim--
rin--
ris--
ritm--
ritters--
riv--
rizd--
rk--
rka--
rkan--
rkon--
rks--
rl--
rla--
rli--
rls--
rme--
rmi--
rms--
rn--
rna--
rni--
ro--
robot--
rock--
rodri--
rok--
rokas--
rom--
roman--
ron--
ros--
rostis--
rot--
rotas--
roul--
roz--
roze--
rp--
rpa--
rpe--
rps--
rpur--
rpus--
rra--
rs--
rse--
rsi--
rso--
rsu--
rt--
rta--
rte--
rto--
rtu--
rtulk--
ru--
rul--
run--
rus--
russ--
rva--
rve--
ry--
rz--
rza--
rzemn--
rzla--
s--
sa--
sac--
sadrumsta--
sai--
saimn--
sak--
saka--
sakop--
sal--
sala--
sali--
salo--
sam--
san--
santa--
sapro--
sar--
sara--
sas--
saska--
sat--
sati--
satra--
sau--
saul--
sav--
savai--
saviet--
saza--
sb--
sc--
scale--
sch--
sche--
schi--
scho--
schu--
sci--
scri--
sd--
se--
sea--
sec--
sed--
see--
sej--
sekto--
sel--
seman--
semi--
sen--
ser--
ses--
set--
sev--
sevas--
sfa--
sg--
sh--
sha--
she--
shi--
ship--
sho--
shu--
si--
sid--
sidra--
sie--
sigi--
sil--
sila--
sim--
sime--
simt--
sin--
singo--
sinh--
sir--
sirds--
sis--
sit--
sje--
sjerra--
sk--
ska--
skadm--
skaist--
skal--
skan--
skar--
ske--
skelet--
ski--
skle--
skol--
skorpi--
sku--
skujen--
sky--
sla--
sle--
slepen--
sli--
slo--
slu--
sm--
sma--
sme--
sn--
snai--
sni--
snieg--
sniegpu--
snovbo--
so--
soc--
soft--
sok--
sokol--
sol--
solo--
soma--
some--
son--
sorb--
sp--
spa--
space--
spe--
specd--
speci--
spekt--
spektros--
spens--
spi--
spilv--
spiri--
splen--
spli--
spons--
spul--
sr--
ss--
st--
sta--
stabu--
stal--
stan--
standart--
star--
starp--
stavro--
ste--
sten--
ster--
stere--
sti--
stie--
stikl--
stipen--
stju--
sto--
straut--
stro--
stru--
stu--
stumb--
su--
sub--
subje--
subm--
subs--
succ--
sudra--
sudrabk--
sum--
sun--
super--
supra--
sur--
sus--
sv--
sva--
sve--
sveic--
svi--
svja--
swa--
swe--
swi--
sy--
symp--
t--
ta--
tac--
tad--
tag--
tai--
taks--
takso--
taksono--
takti--
tam--
tan--
tarn--
tas--
tau--
taxono--
tb--
tc--
td--
tdoc--
te--
tea--
tech--
teh--
tei--
tek--
tel--
tele--
temp--
ten--
teo--
ter--
terapei--
termo--
terori--
tes--
test--
tet--
tetra--
tf--
th--
the--
thov--
ti--
tie--
tiho--
tik--
tim--
time--
tin--
tira--
tirg--
tis--
titu--
tituldz--
titull--
tje--
tk--
tkilo--
tm--
tma--
to--
tole--
tom--
tomps--
ton--
top--
tor--
tos--
tp--
tpers--
tr--
tra--
trabz--
trans--
tras--
tre--
tri--
triec--
triecien--
trigonome--
tro--
tromp--
tru--
ts--
tt--
tu--
tulk--
tun--
tur--
tuv--
tuvi--
tv--
tva--
tve--
twe--
twi--
ty--
u--
ua--
ubo--
uc--
ug--
uguns--
ui--
uk--
uks--
ul--
ultra--
ultravi--
ults--
um--
uma--
un--
und--
under--
ungu--
uni--
unic--
unif--
univ--
uns--
up--
upa--
upe--
upes--
ur--
ura--
urs--
us--
ut--
utop--
uv--
uvilc--
uz--
uzbe--
uzi--
uzliesmo--
uzn--
uzspi--
uztic--
uzved--
v--
va--
vago--
vai--
vaild--
vairog--
vaku--
val--
valah--
valdg--
vale--
valo--
vam--
van--
var--
vas--
vats--
vaz--
ve--
vec--
vecumn--
veg--
vei--
vel--
ven--
ver--
ves--
vest--
vi--
vibo--
vic--
vice--
vid--
video--
vidus--
vie--
vien--
vieni--
vies--
vijol--
viki--
vil--
vin--
vindz--
vingr--
virs--
vis--
visi--
viten--
vito--
vitri--
viz--
vja--
vk--
vl--
vladi--
vo--
vol--
volej--
volfg--
volgo--
volo--
vom--
vor--
vot--
vroc--
vs--
vu--
vy--
w--
wa--
war--
we--
web--
west--
whe--
wi--
wie--
wiki--
win--
wo--
wu--
wy--
x--
xa--
xe--
xi--
xx--
y--
ya--
yo--
yu--
z--
za--
zai--
zak--
zal--
zamb--
zan--
zas--
zau--
zb--
zd--
ze--
zei--
zel--
zem--
zemes--
zen--
zenha--
zes--
zh--
zi--
zied--
zigm--
zil--
zin--
ziv--
zo--
zob--
zoo--
zt--
zu--
zum--
zva--
zve--
zvejniekc--
zvi--
zwe--
δ--
λ--
ν--
ρ--
τ--
а--
акад--
ал--
ар--
б--
ба--
бал--
бе--
бо--
боль--
бр--
бу--
в--
ва--
вал--
ве--
вел--
ви--
вр--
г--
ге--
гл--
го--
гор--
государ--
гр--
д--
да--
де--
древ--
ду--
е--
евге--
ж--
жи--
жур--
з--
за--
и--
иг--
им--
име--
ин--
инст--
исследов--
к--
ка--
кар--
ки--
кл--
кн--
ко--
ком--
кон--
конст--
кор--
кос--
кр--
кра--
ку--
куль--
л--
ла--
ле--
ли--
лю--
м--
ма--
ме--
ми--
мо--
мол--
мор--
му--
мы--
н--
наци--
не--
но--
о--
ол--
оп--
ор--
охр--
п--
па--
пе--
пере--
по--
пр--
пра--
прези--
при--
про--
пу--
р--
ра--
ре--
респу--
ри--
ро--
ром--
ру--
рус--
с--
са--
св--
се--
сер--
си--
сис--
ск--
сл--
со--
сол--
ст--
ста--
су--
т--
та--
ти--
то--
у--
ук--
ф--
фе--
фл--
фр--
х--
хи--
хр--
ц--
цен--
ч--
ча--
чемпи--
ш--
шахм--
э--
экс--
эт--
я--
яз--
--0
--00
--1
--11
--2
--21
--3
--4
--5
--6
--7
--8
--9
--a
--ac
--aceae
--ach
--ad
--ado
--ae
--ag
--ah
--ai
--aidu
--aimnieci
--aimnieks
--aimnieku
--ais
--aja
--ajiem
--ajos
--aju
--ak
--aka
--al
--ala
--alas
--ally
--alo
--als
--alu
--am
--ama
--ami
--amo
--ams
--amu
--an
--ana
--ang
--ank
--ann
--ano
--ans
--ant
--antu
--anu
--ao
--apo
--apulce
--ar
--ard
--arrow
--ary
--as
--ast
--asta
--at
--ata
--ate
--ath
--ati
--ation
--atora
--atus
--au
--aus
--aux
--ava
--aw
--ax
--ay
--az
--b
--ba
--bach
--bahu
--bar
--bas
--bb
--be
--bes
--bi
--bia
--biem
--bl
--ble
--blo
--bn
--bo
--bot
--bra
--bri
--brs
--bs
--bsd
--bst
--bu
--bul
--buma
--bumi
--burg
--burga
--burgs
--burn
--bus
--by
--c
--ca
--cal
--cam
--cas
--ce
--cea
--ceae
--cel
--cene
--cenes
--ces
--cevs
--ch
--che
--chen
--cher
--chi
--cht
--chus
--ci
--cia
--cidae
--cie
--cija
--cio
--ciona
--cis
--cisms
--ck
--cka
--ckas
--cki
--ckis
--cku
--co
--com
--con
--cos
--craft
--cript
--cs
--ct
--cted
--ction
--ctor
--cts
--ctus
--cu
--cula
--cum
--cus
--cy
--cyon
--d
--da
--dae
--dal
--dams
--das
--dati
--dava
--day
--dbergs
--de
--dea
--dejs
--dentu
--der
--des
--dgre
--di
--dia
--dici
--die
--dija
--dika
--dina
--dis
--dium
--dl
--dli
--dn
--dne
--do
--doja
--dor
--dora
--dorf
--dorfa
--dors
--doru
--dos
--dot
--dova
--dra
--dro
--ds
--dt
--du
--duns
--dus
--dy
--dz
--dza
--dze
--dzi
--e
--ea
--eau
--eb
--ec
--eca
--ece
--eces
--ecka
--ects
--ed
--eda
--ede
--edus
--edze
--edzes
--ee
--ees
--ef
--eg
--ego
--egs
--egta
--ei
--ej
--eja
--ejo
--eju
--ek
--eka
--ekam
--eki
--ekiem
--ekl
--ekos
--ekot
--eks
--ekta
--ektu
--eku
--el
--ela
--ell
--els
--elu
--em
--ems
--en
--ena
--ene
--enhof
--eni
--enos
--ens
--ensis
--ent
--enu
--enze
--eo
--ep
--er
--era
--ere
--erg
--eri
--eris
--ero
--eroge
--ers
--eru
--erva
--erve
--es
--esa
--ese
--eses
--esi
--ess
--est
--esu
--et
--eta
--ete
--etes
--eti
--etis
--eto
--etos
--etot
--ets
--etu
--eus
--ev
--eva
--eve
--ew
--ex
--ey
--ez
--ezi
--f
--fa
--fe
--fel
--feld
--feli
--fels
--fer
--fera
--fes
--fest
--ff
--fi
--fice
--fika
--fly
--fs
--ft
--ften
--fu
--ful
--fy
--g
--ga
--gadi
--gas
--ge
--ged
--gen
--ger
--gh
--ght
--gi
--gina
--ging
--gium
--gl
--gle
--gma
--gmas
--gna
--gne
--gnozi
--go
--goja
--gon
--gona
--gons
--gonu
--gos
--gra
--gri
--gs
--gss
--gt
--gta
--gu
--gue
--gus
--gvi
--gy
--h
--ha
--ham
--he
--hed
--hel
--hen
--her
--hes
--hi
--hia
--hijas
--him
--hima
--hin
--hip
--hips
--hl
--hn
--ho
--hode
--hof
--hofa
--hold
--hor
--hou
--hova
--hr
--hs
--ht
--hta
--hts
--hu
--hus
--hy
--i
--ia
--iae
--ial
--ian
--ias
--iba
--ic
--ica
--ical
--ice
--ici
--icies
--icis
--icle
--ics
--icus
--id
--ida
--idae
--ide
--ides
--idi
--ido
--idoja
--idos
--idot
--ids
--idu
--idus
--idz
--idza
--idzot
--ie
--ieci
--ieki
--ieku
--iem
--iens
--ienu
--ier
--ieri
--ies
--iet
--ifa
--ifs
--ifu
--ig
--iga
--igas
--ight
--igi
--igra
--igs
--igu
--igums
--igumu
--igusi
--ii
--iidae
--ija
--ijas
--iji
--ijs
--iju
--ik
--ika
--iki
--iko
--iks
--ikt
--ikta
--iktu
--iku
--ikuma
--ikumi
--ikums
--ikumu
--ikumus
--ikus
--ikusi
--il
--ila
--ile
--ill
--illa
--ilo
--ilon
--ils
--ilu
--im
--imetrs
--in
--ina
--inae
--inais
--inas
--indz
--ine
--ines
--ing
--ings
--ini
--inie
--inis
--ino
--inojot
--inos
--ins
--inu
--io
--iology
--ion
--ior
--ious
--ir
--ira
--irdi
--iro
--is
--isa
--ische
--ischen
--ish
--isi
--iska
--iski
--isko
--ism
--isma
--ismota
--isms
--ismu
--iss
--ist
--ista
--iste
--istes
--isti
--istorijas
--istot
--ists
--it
--ita
--ite
--ites
--iti
--ities
--ition
--itis
--itot
--itu
--ity
--iu
--ium
--ius
--iva
--ive
--ivs
--iz
--iza
--ize
--j
--ja
--jai
--jam
--jas
--je
--jera
--jeri
--jers
--jeru
--jeva
--jevu
--ji
--jiem
--jies
--jis
--jo
--joki
--jora
--jos
--jot
--joties
--js
--ju
--juma
--jumi
--jumiem
--jums
--jumu
--jumus
--jus
--jusi
--k
--ka
--kai
--kais
--kaja
--kalna
--kalns
--kam
--kas
--kata
--kati
--kats
--katu
--kcija
--kcione
--ke
--kel
--ken
--ker
--kera
--keri
--keru
--kes
--ket
--ki
--kia
--kie
--kim
--kin
--kis
--kk
--kl
--kla
--kle
--kli
--kmens
--kn
--ko
--kola
--kolas
--kolu
--kos
--kot
--kov
--kovs
--kovu
--kra
--kri
--ks
--ksa
--ksas
--kse
--ksi
--kss
--kstot
--ksu
--kt
--kta
--kte
--kti
--kto
--ktona
--ktonu
--ktora
--ktors
--ktoru
--kts
--ktu
--ku
--kug
--kuma
--kumi
--kumu
--kus
--kva
--ky
--l
--la
--lage
--lam
--lan
--land
--las
--lav
--lavu
--lba
--ld
--lda
--lde
--ldehi
--ldes
--ldi
--lds
--ldu
--le
--lejs
--lemi
--lems
--lenda
--ler
--lera
--leri
--leru
--les
--less
--ley
--lg
--li
--lia
--lic
--lica
--lidae
--lin
--line
--ling
--lio
--lis
--lita
--lity
--liza
--lize
--lja
--ljas
--lk
--lka
--lkot
--lks
--ll
--lla
--llas
--lle
--lli
--llo
--lls
--llus
--lly
--ln
--lna
--lne
--lni
--lns
--lnu
--lo
--log
--loi
--loka
--los
--lova
--lovs
--lpa
--lpe
--ls
--lss
--lst
--lsti
--lstu
--lt
--lta
--lte
--lti
--lts
--ltu
--lu
--lus
--lva
--lve
--ly
--lz
--m
--ma
--maa
--mais
--mam
--man
--mas
--max
--mba
--mbe
--mbergs
--me
--men
--ment
--menti
--ments
--mentu
--mes
--mi
--mic
--mie
--miem
--miku
--ming
--mis
--mj
--mju
--mka
--mma
--mmas
--mmu
--mn
--mo
--mojos
--molog
--mon
--mors
--mos
--mota
--mova
--movs
--mp
--mpa
--mpe
--mps
--mpu
--ms
--mst
--mt
--mta
--mti
--mts
--mtu
--mu
--muiz
--mus
--my
--mys
--n
--na
--nae
--nam
--nas
--nburg
--nburga
--nburgas
--nc
--nca
--nce
--nces
--nci
--ncia
--ncs
--nd
--nda
--ndas
--nde
--ndess
--ndi
--ndo
--nds
--ndu
--ndul
--ndus
--ndz
--ndza
--ne
--nea
--ned
--neja
--nejs
--nen
--nens
--ner
--neri
--ners
--nes
--net
--ney
--ng
--nga
--ngas
--nge
--ngen
--nger
--ngi
--ngo
--ngs
--ngu
--nha
--nhard
--nhof
--ni
--nia
--nian
--nic
--nidae
--nie
--niekos
--nim
--nin
--ning
--nis
--niscences
--nity
--nium
--niza
--nize
--nja
--nje
--nk
--nka
--nkalne
--nkas
--nke
--nko
--nks
--nkss
--nku
--nma
--nn
--nna
--nnas
--nne
--no
--nolog
--nols
--noms
--nomu
--nos
--not
--novas
--novs
--np
--ns
--nsa
--nse
--nsija
--nsis
--nski
--nskis
--nsons
--nss
--nsu
--nt
--nta
--ntam
--ntas
--nte
--ntes
--nti
--ntiem
--ntiju
--nto
--nts
--ntu
--ntus
--nu
--num
--nus
--nva
--ny
--nz
--nze
--o
--oa
--oba
--obi
--oc
--oce
--oci
--od
--odi
--ods
--ody
--oe
--of
--ofi
--og
--oge
--ogy
--oi
--oja
--ojs
--oju
--ok
--ol
--ola
--ole
--oli
--olo
--olog
--ology
--ols
--olu
--om
--oma
--ome
--omi
--oms
--omu
--omy
--on
--ona
--one
--ones
--oni
--ons
--onte
--onu
--oo
--opa
--opi
--or
--ora
--ord
--ore
--ori
--oriem
--orn
--ors
--ort
--oru
--orum
--ory
--os
--osa
--osas
--oss
--ot
--ota
--ote
--oti
--oties
--ots
--otu
--ou
--ous
--ov
--ova
--ovic
--ovka
--ovo
--ovs
--ovskis
--ovu
--ow
--ox
--oy
--oz
--oza
--oze
--ozi
--p
--pa
--pace
--pas
--pc
--pd
--pe
--pes
--ph
--phie
--phy
--pi
--pis
--piska
--piski
--pja
--pji
--pjs
--pl
--ple
--plu
--pmain
--po
--pot
--pova
--povs
--pp
--ppe
--pra
--ps
--pse
--pt
--pta
--pti
--ption
--pton
--pts
--ptu
--pu
--puk
--pus
--puse
--py
--q
--que
--r
--ra
--rabs
--rage
--rags
--ram
--ras
--rax
--rbe
--rbes
--rc
--rd
--rda
--rde
--rdi
--rdo
--rds
--rdu
--re
--rer
--res
--rg
--rga
--rge
--rgs
--rgu
--rha
--ri
--ria
--rian
--ridae
--rin
--rio
--ris
--rium
--rius
--rix
--riza
--rize
--rk
--rka
--rkas
--rm
--rma
--rmas
--rme
--rmu
--rn
--rna
--rno
--ro
--roge
--ropa
--rops
--ror
--ros
--rot
--rota
--rova
--rovs
--rovska
--rovu
--rpe
--rpina
--rr
--rry
--rs
--rsa
--rsmi
--rss
--rst
--rt
--rta
--rte
--rti
--rties
--rts
--rtu
--ru
--rum
--rus
--rva
--rve
--ry
--rz
--rza
--s
--sa
--sai
--sam
--sas
--sat
--sch
--sche
--schen
--schrift
--sco
--se
--sed
--sen
--ser
--ses
--sh
--shof
--si
--sia
--sio
--sion
--sis
--sk
--ska
--skais
--skaja
--skas
--ski
--skie
--skiem
--skis
--sko
--skos
--sks
--sku
--skums
--skumu
--skus
--sla
--sm
--sma
--smi
--smju
--sms
--smu
--so
--son
--sons
--sos
--sot
--spe
--ss
--sse
--st
--sta
--ste
--ster
--sti
--stiska
--stiski
--stisko
--stma
--sto
--stors
--storu
--sts
--stu
--su
--sus
--sve
--sy
--sz
--t
--ta
--tal
--tala
--tale
--tam
--tan
--tana
--tar
--tas
--tch
--tdal
--tdarbi
--te
--ted
--tei
--tein
--tel
--ten
--tena
--ter
--tes
--th
--tha
--thus
--ti
--tia
--tial
--tic
--tics
--tidae
--tie
--tiem
--ties
--tifika
--tigra
--tija
--tijs
--tila
--tile
--time
--tin
--ting
--tio
--tion
--tional
--tions
--tis
--tiska
--tium
--tive
--tiza
--tize
--tja
--tje
--tka
--tkas
--tl
--tla
--tle
--tme
--tmuiz
--tn
--tne
--tni
--to
--toja
--toka
--tolog
--ton
--tor
--tora
--tore
--tori
--toriem
--tors
--toru
--torus
--tory
--tos
--tosfe
--tot
--tov
--tova
--tovic
--tovs
--tr
--tra
--tre
--tri
--tria
--trs
--tru
--trumenti
--try
--ts
--tsa
--tt
--tta
--tte
--tti
--ttieci
--tu
--tude
--tuls
--tum
--tuma
--tumu
--tus
--ty
--tz
--u
--ua
--ual
--ub
--ube
--uc
--uca
--ucas
--uce
--uces
--ucot
--ud
--uda
--ude
--udi
--udu
--udz
--udze
--ue
--ug
--uga
--ugi
--ugos
--ugs
--ugu
--ui
--uiz
--uj
--uja
--ujas
--ujos
--ujot
--uk
--uks
--ukt
--ukta
--ukti
--ukts
--ukumu
--ul
--ula
--ule
--ules
--uli
--ulis
--ulozi
--uls
--ulta
--ulu
--ulus
--um
--uma
--ume
--ument
--umi
--ums
--umu
--umus
--un
--una
--ung
--uni
--uns
--unu
--upe
--ups
--ur
--ura
--ure
--urs
--uru
--urus
--us
--usa
--use
--usi
--usks
--usla
--uss
--ust
--ustra
--usts
--usu
--ut
--uta
--utas
--uti
--uties
--uts
--utu
--uve
--uves
--ux
--uz
--uza
--uzt
--v
--va
--vadi
--vas
--vc
--vda
--ve
--veja
--ves
--vi
--vic
--vija
--viju
--vio
--virlaukas
--vis
--vita
--vity
--viza
--vka
--vkas
--vn
--vo
--vs
--vska
--vu
--vumi
--vus
--vz
--w
--wa
--ward
--way
--we
--wer
--wl
--wn
--worth
--ws
--wyn
--x
--y
--ya
--ybe
--ye
--yer
--ying
--yn
--yon
--ys
--yx
--z
--za
--zal
--zas
--zators
--zatoru
--zbu
--zda
--zdeve
--zds
--zdu
--ze
--zeme
--zen
--zers
--zes
--zga
--zi
--zin
--zlu
--zme
--zn
--zni
--zo
--zra
--zs
--zu
--zz
--ß
--ı
--α
--η
--ι
--ν
--ος
--ς
--υ
--а
--авич
--аи
--ат
--ах
--ая
--б
--в
--ва
--вич
--г
--га
--ги
--го
--д
--да
--дии
--дия
--ды
--е
--ев
--ева
--евич
--еи
--ел
--ен
--енко
--ента
--ер
--ет
--з
--зь
--и
--ие
--ии
--ик
--ика
--ики
--ин
--ич
--ию
--ия
--к
--ка
--ке
--ки
--кие
--кии
--ко
--ков
--кого
--кое
--кт
--л
--ла
--лав
--ле
--ли
--лк
--лов
--ль
--ля
--м
--ма
--н
--нко
--но
--нов
--ного
--нои
--ны
--ные
--ныи
--ных
--нь
--о
--ов
--ова
--ович
--овь
--ого
--од
--ое
--ои
--ок
--ом
--ор
--ос
--п
--р
--ра
--ре
--ри
--рии
--ров
--рт
--ры
--рь
--с
--са
--ск
--ские
--ского
--слав
--ст
--сти
--т
--та
--ти
--тин
--тов
--ты
--ть
--у
--х
--ц
--ца
--ции
--ция
--ч
--ъ
--ы
--ые
--ыи
--ых
--ь
--ьевич
--ю
--я
--і
