!
"
#
##0
##1
##10
##11
##12
##13
##14
##15
##16
##17
##18
##19
##2
##20
##21
##22
##23
##24
##25
##26
##27
##28
##29
##3
##30
##31
##32
##33
##34
##35
##36
##37
##38
##39
##4
##40
##41
##42
##43
##44
##45
##46
##47
##48
##49
##5
##50
##51
##52
##53
##54
##55
##56
##57
##58
##59
##6
##60
##61
##62
##63
##64
##65
##66
##67
##68
##69
##7
##70
##71
##72
##73
##74
##75
##76
##77
##78
##79
##8
##80
##81
##82
##83
##84
##85
##86
##87
##88
##89
##9
##90
##91
##92
##93
##94
##95
##96
##97
##98
##99
$
%
&
'
(
)
*
+
,
-
.
/
0
00
000
001
002
003
005
007
01
010
0100000
02
03
0362
0378
04
0451
05
06
060
07
08
09
1
10
100
1000
1001
1002
1007
101
1016
102
1021
1024
103
1038
104
1046
105
106
107
108
1080
109
1093
11
110
1100
1101
111
1111
112
1126
113
114
115
1154
116
1161
117
118
1180
1186
119
1198
12
120
1200
1201
1204
1205
1206
1207
1208
1209
121
1210
1211
1212
1213
1214
1215
1216
1217
1218
1219
122
1220
1221
1223
1224
1225
1226
1227
1228
1229
123
1230
1231
1232
1234
1235
1236
1237
1238
1239
124
1240
1241
1242
1245
1248
125
1250
1251
1252
1253
1254
1255
1256
1259
126
1260
1261
1262
1263
1264
127
1270
1272
1274
1279
128
1280
1281
1282
1285
129
1290
1295
1298
13
130
1300
131
132
1323
1326
133
1330
134
1340
1341
1345
1348
135
1350
136
1365
1368
137
1370
1371
1377
138
1380
1382
1385
1386
1389
139
1392
1397
1399
14
140
1400
1407
141
1410
1413
1415
142
1420
1422
143
1430
1432
1435
144
1440
145
1450
1452
1453
146
1460
1461
1466
1469
147
1471
148
1480
1481
1483
149
1492
1494
1495
1499
15
150
1500
1501
1502
1503
1506
1509
151
1510
1512
1513
1514
1515
1516
1517
1519
152
1520
1521
1522
1523
1524
1525
1526
1527
1529
153
1530
1533
1534
1535
1536
154
1540
1541
1542
1543
1547
155
1550
1551
1552
1553
1554
1555
1556
1557
1558
1559
156
1560
1561
1562
1563
1564
1565
1566
1567
1568
1569
157
1570
1571
1572
1573
1574
1575
1576
1577
1578
1579
158
1580
1581
1582
1583
1584
1585
1586
1587
1588
1589
159
1590
1592
1593
1594
1595
1596
1598
1599
16
160
1600
1601
1602
1603
1604
1605
1606
1608
1609
161
1610
1611
1612
1613
1614
1615
1616
1617
1618
1619
162
1620
1621
1622
1623
1624
1625
1626
1627
1628
1629
163
1630
1631
1632
1633
1634
1635
1636
1637
1638
1639
1639616
164
1640
1641
1642
1643
1644
1645
1646
1648
1649
165
1650
1651
1652
1653
1654
1655
1656
1657
1658
1659
166
1660
1661
1662
1663
1664
1665
1666
1667
1668
1669
167
1670
1672
1673
1674
1675
1676
1677
1678
1679
168
1680
1681
1682
1683
1684
1685
1686
1687
1688
1689
169
1690
1691
1692
1693
1694
1695
1696
1697
1698
1699
17
170
1700
1701
1702
17024049
1703
1704
1705
1706
1707
1708
1709
171
1710
1711
1712
1713
1714
1715
1716
1717
1718
1719
172
1720
1721
1722
1723
1724
1725
1726
1727
1728
1729
173
1730
1731
1732
1733
1734
1735
1736
1737
1738
1739
174
1740
1741
1742
1743
1744
1745
1746
1747
1748
1749
175
1750
1751
1752
1753
1754
1755
1756
1757
1758
1759
176
1760
1761
1762
1763
1764
1765
1766
1767
1768
1769
177
1770
1771
1772
1773
1774
1775
1776
1777
1778
1779
178
1780
1781
1782
1783
1784
1785
1786
1787
1788
1789
179
1790
1791
1792
1793
1794
1795
1796
1797
1798
1799
18
180
1800
1801
1802
1803
1804
1805
1806
1807
1808
1809
181
1810
1811
1812
1813
1814
1815
1816
1817
1818
1819
182
1820
1821
1822
1823
1824
1825
1826
1827
1828
1829
183
1830
1831
1832
1833
1834
1835
1836
1837
1838
1839
184
1840
1841
1842
1843
1844
1845
1846
1847
1848
1849
185
1850
1851
1852
1853
1854
1855
1856
1857
1858
1859
186
1860
1861
1862
1863
1864
1865
1866
1867
1868
1869
187
1870
1871
1872
1873
1874
1875
1876
1877
1878
1879
188
1880
1881
1882
1883
1884
1885
1886
1887
1888
1889
189
1890
1891
1892
1893
1894
1895
1896
1897
1898
1899
19
190
1900
1901
1902
1903
1904
1905
1906
1907
1908
1909
191
1910
1911
1912
1913
1914
1915
1916
1917
1918
1919
192
1920
1921
1922
1923
1924
1925
1926
1927
1928
1929
193
1930
1931
1932
1933
1934
1935
1936
1937
1938
1939
194
1940
1941
1942
1943
1944
1945
1946
1947
1948
1949
195
1950
1951
1952
1953
1954
1955
1956
1957
1958
1959
196
1960
1961
1962
1963
1964
1965
1966
1967
1968
1969
197
1970
1971
1972
1973
1974
1975
1976
1977
1978
1979
198
1980
1981
1982
1983
1984
1985
1986
1987
1988
1989
199
1990
1991
1992
1993
1994
1995
1996
1997
1998
1999
2
20
200
2000
2001
2002
2003
2004
2005
2006
2007
2008
2009
201
2010
2011
2012
2013
2014
2015
2016
2017
2018
2019
202
2020
2021
2022
2023
2024
2026
203
2030
204
205
206
207
208
209
21
210
2100
211
212
213
214
215
216
217
218
219
22
220
2200
221
222
223
224
225
226
227
228
229
23
230
2300
2307
231
232
233
234
235
236
237
23766566
238
239
24
240
2400
241
241600000
242
243
244
245
246
247
248
249
25
250
2500
251
252
253
254
255
256
257
258
259
26
260
2600
261
262
263
264
265
266
267
268
269
27
270
2701
271
272
273
274
275
276
277
278
279
28
280
281
282
283
284
285
286
287
288
289
29
290
291
292
293
294
295
296
297
298
299
3
30
300
3000
301
302
303
304
305
306
307
308
309
31
310
311
312
313
314
315
316
3166
317
318
319
32
320
321
322
323
324
325
326
327
328
329
33
330
331
332
333
334
335
336
337
338
339
34
340
341
342
343
344
345
346
347
348
349
35
350
3500
351
352
354
355
356
357
358
359
36
360
361
362
363
364
365
366
367
368
369
37
370
371
372
374
375
376
377
378
38
380
381
383
384
385
386
387
388
389
39
390
392
393
394
395
396
399
4
40
400
4000
401
402
404
405
406
407
409
41
410
411
412
415
416
417
418
419
42
420
421
422
423
425
426
427
429
43
430
431
432
433
4331
435
436
437
44
440
45
450
4500
451
453
454
455
46
460
465
47
470
471
474
475
476
479
48
480
486
49
490
495
5
50
500
5000
501
502
503
51
510
511
512
517
52
520
521
525
53
530
534
54
540
55
550
551
555
56
560
565
57
570
58
580
59
596
6
60
600
6000
601
604
605
61
610
62
620
63
630
637413
639
64
640
648
65
650
66
660
667
67
68
680
69
691
698
7
70
700
7000
71
72
720
73
737
74
747
75
750
751
754
757
76
760
767
77
770
776
78
7864
79
798
8
80
800
8000
802
8068
81
82
83
84
85
850
854
86
87
870
88
880
89
9
90
900
9000
91
911
92
9256
93
94
9482
95
950
951
96
960
97
978
98
980
99
9934
9984
999
:
;
<
=
>
?
@
[
\
]
^
_
`
a
aa
aae
aaron
ab
aba
abas
abatija
abavas
abba
abc
abe
abha
abi
abiem
abies
abinieki
abiniekiem
abinieku
abinskas
abl
abone
aborige
abos
about
abpus
abpuse
abra
abrahams
abrene
abrenes
abreviatu
abriß
abs
absolu
absolve
absolventi
absolventu
absorbe
abu
abus
ac
academia
academic
academy
acb
access
accessdate
accessed
acer
aci
acid
acis
acm
acp
acquire
acquisition
acrocephalus
acs
act
acta
acteku
action
active
activity
actor
acu
ad
ada
adam
adamovic
adams
adamsa
adamss
adapta
adapte
adas
adata
adatas
adatu
address
ade
adele
adhd
adi
adjusted
adjutants
adler
administra
administrati
administration
administrators
administre
admira
adobe
adolf
adopte
adres
adresa
adrese
adreses
adresi
adria
adrians
adrijas
ads
adu
adult
advanced
adventure
adventures
advoka
adw
adz
ae
aeg
aeronautikas
aerospace
aes
af
afc
afe
affairs
afga
afganista
afi
afp
africa
african
afrika
afroamerika
afrodi
after
ag
aga
again
against
agaricus
agars
agata
agatas
agatu
age
agena
agency
aglomera
aglona
aglonas
agnese
agra
agrega
agresi
agresiju
agri
agriculture
agris
agronoms
agrostis
ah
aha
ahista
ahiste
ahistes
ahisti
ahistiem
ahists
ahistu
ahl
ahmeda
ahmeds
ahs
ahta
ahtas
ahu
ai
aicina
aicinot
aid
aida
aidi
aids
aigars
aija
aik
aikovska
ain
aina
ainais
ainars
ainas
ainava
ainavas
ainavu
ainaz
aini
aino
ainos
ains
ainu
air
airbaltic
airbus
aire
airi
airka
airlines
airplay
airport
airways
ais
aita
aitas
aitu
aivara
aivars
aivaru
aiviekste
aiviekstes
aiz
aiza
aizaugus
aizbe
aizbrauca
aizdedzina
aizdevumu
aizdoma
aizdomas
aizga
aizgu
aizies
aiziet
aizju
aizkalnes
aizkauka
aizkave
aizkla
aizkraukle
aizkraukles
aizkun
aizliedz
aizliedza
aizliegta
aizliegtas
aizliegts
aizlieguma
aizliegums
aizliegumu
aizmaini
aizmugure
aizmugures
aizmuguri
aizn
aizpilda
aizpildi
aizpute
aizputes
aizra
aizraus
aizsa
aizsalst
aizsardzi
aizsarga
aizsarggra
aizsargi
aizsargiem
aizsargmu
aizsargs
aizsargu
aizsle
aizsprosts
aizsta
aizsu
aizture
aizva
aizvada
aizvadi
aizvadot
aizve
aizved
aizveda
aizvien
aizvieto
aizvietoja
aizvietojot
aizvietos
aizvietot
aizvietota
aizvietots
aja
ajai
ajam
ajax
ajevs
ajiem
ajos
ak
aka
akade
akalna
akalns
akarte
akas
akcente
akcepte
akcija
akcijas
akciju
akciona
aki
akla
aklais
akli
akmen
akmeni
akmens
akmentin
akna
akni
aknu
ako
akomo
akova
akovs
akredita
akredite
akroba
akroni
aks
aksels
akste
akstes
aksti
akta
akti
aktiem
aktiera
aktieri
aktieriem
aktierim
aktieris
aktierma
aktierspe
aktieru
aktive
aktivita
aktivize
aktos
aktrise
aktrises
aktrisi
akts
aktu
aktua
aktualita
aktualize
aktus
aku
akumulatoru
akura
akustiska
akuzati
akva
akvarel
akvita
al
ala
alan
alans
alas
alba
albania
albe
albert
alberta
albertam
alberto
alberts
albertu
albi
albion
albrecht
albrehts
album
albuma
albumam
albumi
albumiem
albumos
albums
albumu
albumus
alcatel
aldehi
aldis
ale
alehandro
aleiri
aleiroli
aleja
alejas
aleks
aleksandra
aleksandram
aleksandras
aleksandrija
aleksandrijas
aleksandrs
aleksandru
alekseja
aleksejs
alekseju
aleksis
alekss
alenia
alerg
alesandro
alessandro
alex
alexander
alexandra
alexandre
alfa
alfabe
alfons
alfonso
alfre
alfred
alfreda
alfreds
alga
algas
algebra
algiris
algonkinu
algoritma
algoritms
algoritmu
algotn
algu
ali
alianse
alianses
aliansi
alice
alien
aligned
alise
alive
alk
alka
alkaloi
alkohola
alkoholu
alks
alksnis
all
alla
allaz
alle
allen
allens
alliance
allmovie
allmusic
allsvenskan
alma
almati
almis
alnis
aloizs
alojas
alona
alonso
alpha
alpi
alpine
alpos
alpu
als
also
alsungas
alsvik
alt
alta
altaja
altbergs
alternati
alternative
alu
alumi
aluna
alus
alva
alvas
alvis
alz
am
ama
amais
amaja
amanda
amanita
amas
amata
amatam
amatas
amati
amatiem
amatieru
amatnieci
amatnieki
amatnieku
amatos
amatpersona
amatpersonas
amatpersonu
amats
amatu
amatus
amazing
amazon
amazones
ambel
amber
ambi
ame
america
american
americans
americanus
amerika
amerikas
ameriku
amfitea
ami
amie
aminoska
amins
amo
among
amonija
amonjaka
amos
ampe
ampi
amplitu
ams
amsterdam
amsterdama
amsterdamas
amtmanis
amu
amy
an
ana
anahaimas
anai
anali
analize
analog
analoga
analogs
analysis
anas
anastasija
anatolija
anatolijas
anatolijs
anatomija
anatomijas
anatomy
anc
anca
ance
ances
ancient
and
anda
andalu
anders
andersens
anderson
andersons
anderss
andes
andis
andora
andoras
andra
andre
andrea
andreas
andreass
andreja
andrejam
andrejevs
andrejs
andreju
andrew
andri
andrievs
andris
android
andrupenes
andu
andy
andz
andzel
ane
aneiro
aneksijas
anekte
anete
anga
angel
angeles
angels
angl
anglija
anglijas
angliju
anglika
angliski
anglosaks
angne
angola
angolas
anhaja
anhajas
anhidri
ani
anima
animal
animals
animation
anime
anis
anita
anka
ankara
ankla
ann
anna
annai
annas
anne
anni
annin
anniversary
anno
announce
announced
announces
annu
annual
ano
anoma
anoni
anos
another
anra
anri
anros
anrs
anru
ans
ansambl
ansambli
ansamblis
anser
ansi
ansis
anta
antantes
antarctic
antarctica
antarkti
antarktika
antarktikas
antarktiska
ante
antena
antenas
antenu
anthony
anthus
anti
anticiklons
antige
antil
antisemi
antolog
anton
antona
antonesku
antoni
antonija
antonijs
antonio
antons
antra
antropolog
antropologs
ants
antua
antverpene
antverpenes
anu
anule
any
anz
ao
ap
apaks
apal
apara
aparatu
aparka
aparks
apaugl
apaugus
apavu
apbalvoja
apbalvojumi
apbalvojums
apbalvojumu
apbalvojumus
apbalvos
apbalvota
apbalvotas
apbalvoti
apbalvots
apbedi
apbri
apbrun
apbu
apcel
apcere
apcietina
apda
apdare
apdares
apdomas
apdraud
apdraude
apdros
apdzi
ape
apela
apelsi
apeni
apes
apg
apga
apgabala
apgabalam
apgabali
apgabaliem
apgabalos
apgabals
apgabaltiesa
apgabaltiesas
apgabalu
apgabalus
apgaismi
apgaismojuma
apgaismojums
apgaismojumu
apgalvo
apgalvoja
apgalvojot
apgalvojums
apgalvojumu
apgalvots
apglaba
apgrozi
apgru
apgu
apguva
apguvis
aphis
api
apin
apinis
apiocera
apjoma
apjomi
apjoms
apjomu
apka
apkaime
apkaimes
apkaimi
apkakles
apkalpe
apkalpei
apkalpes
apkalpi
apkalpo
apkalpoja
apkalpos
apkaros
apkopo
apkopoja
apkopojums
apkopota
apkopotas
apkopoti
apl
aplaupi
aple
aplenca
aplenkuma
aplenkums
aplenkumu
apli
aplieci
apliecina
aplins
aplis
aploksne
aplu
apm
apma
apmain
apmaini
apmaksa
apmatojuma
apmatojums
apme
apmekle
apmes
apmesties
apmeta
apmetas
apmeties
apmetn
apmetne
apmetnes
apmetni
apmetus
apmierina
apn
apollo
app
apple
application
applications
applied
applu
appludina
apprece
approach
apputeksne
apr
apra
apraides
apraksta
apraksti
aprakstos
aprakstot
apraksts
aprakstu
apre
apri
april
aprin
aprinda
aprite
aprobez
apru
aps
apsaimniekos
apsardze
apsardzes
apsardzi
apsarga
apse
apsi
apskalo
apskata
apskatei
apskates
apskati
apskats
apsle
apsoli
apspalvojuma
apspalvojums
apspalvojumu
apspieda
apspies
apspiest
apsprieda
apspriede
apspries
apsr
apsta
apsteidza
apsteidzot
apstiprina
apstra
apstri
apsu
apsve
aptauja
aptaujas
aptieka
aptumsums
aptur
apture
aptuveni
aptve
aptver
apu
apustul
apva
apvainoja
apvalka
apvalks
apvalku
apve
apvedcel
apvelti
apvidos
apvidu
apvidus
apvieni
apvieno
apvienoja
apvienojas
apvienojot
apvienojoties
apvienojums
apvienojus
apvienos
apvienot
apvienota
apvienotais
apvienotaja
apvienotas
apvienoti
apvienotie
apvienoties
apvienoto
apvienots
apvienotu
apz
apzi
apzin
apzina
aquila
ar
ara
arab
aragonas
aranz
arauka
arbitra
arc
architecture
archive
archived
archives
arctic
arctos
arda
arde
ards
ardu
are
area
areas
arena
aresta
areste
argenti
argentina
argosas
arhangel
arheolog
arheologi
arheologs
arheologu
arhi
arhibi
arhidiece
arhime
arhipela
arhitekta
arhitekti
arhitekts
arhitektu
arhive
ari
aria
ariane
aristokra
aristotel
aristotelis
aritme
arizona
arizonas
arka
arkas
arkive
arklu
arktika
arktikas
arktiska
arktiskaja
arku
arla
arlote
arlotes
arls
arm
arma
armands
armatu
arme
armenia
armenian
armija
armijai
armijas
armiju
armin
arms
armstrong
army
arni
arnis
arno
arnold
arnolda
arnolds
arodbiedri
aroma
aronas
around
arrondissement
ars
arse
arsena
arsenal
art
arta
arte
arteria
arthur
article
articles
artikula
artile
artis
artist
artists
artjoms
arts
artu
artura
arturs
aru
arveds
arvi
arvien
arx
as
asa
asambleja
asamblejas
asara
asares
asari
asaris
asaru
asas
ascii
asfalta
asfaltbetona
asfalte
asi
asia
asian
asiem
asijas
asimile
asin
asini
asinis
asins
asinsrites
asinsvadu
asinsza
asis
asistents
asistentu
ask
aska
askas
aske
asko
asku
asmens
aso
asocia
asocie
asp
aspazija
aspazijas
aspekti
aspektiem
aspekts
aspektus
aspirantu
aspx
ass
assembly
assessment
assets
associated
association
astafjevs
astana
astanas
aste
asteroi
astes
asti
astins
aston
astota
astotais
astotdal
astoto
astra
astrahan
astri
astrolog
astronaut
astronauti
astronauts
astronautu
astronoma
astronomi
astronomical
astronomija
astronomijas
astronomiska
astronoms
astronomy
astu
asu
asv
at
ata
atalgojumu
atas
atbalss
atbalsta
atbalstam
atbalsti
atbalstos
atbalstot
atbalsts
atbalstu
atbild
atbilda
atbilde
atbildes
atbildi
atbildot
atbilst
atbilsti
atbilstos
atbilstu
atbri
atbrun
atce
atcel
atcels
atcelt
atcelta
atceltas
atcelti
atcelts
atceras
atcere
atceres
atdala
atdali
atdalot
atdarina
atdeva
atdod
atdos
atdot
atdota
atdz
atdzese
atdzi
atdzims
atdzisa
ate
atenta
atf
atga
atgries
atgriez
atgrieza
atgriezi
atgriezies
atgriezt
atgriezties
atgriezus
atgriezusies
atgru
atgu
atguva
athens
athina
athletes
athletic
athletics
atiet
atis
atjaunina
atjauno
atjaunoja
atjaunojot
atjaunos
atjaunot
atjaunota
atjaunotaja
atjaunotas
atjaunoti
atjaunots
atjaunotu
atka
atkal
atkalapvienos
atkari
atkaroja
atkas
atkla
atkritumi
atkritumiem
atkritumu
atl
atlaida
atlais
atlaist
atlaists
atlaiz
atlanta
atlantas
atlanti
atlantic
atlantijas
atlantis
atlants
atlas
atlasa
atlase
atlases
atlasi
atle
atletico
atli
atliek
atlieka
atliekas
atlikta
atlikus
atlikusi
atlu
atm
atmaksa
atmatene
atmin
atmoda
atmodas
atmosfe
atn
atna
atnesa
atnesot
atols
atoma
atomelektrostacija
atomenerg
atomi
atomiem
atoms
atomskaitli
atomu
atomus
atp
atpakal
atpaliekot
atpalika
atpazi
atpu
atra
atrada
atradi
atradies
atradn
atradne
atradnes
atradumi
atradus
atradusies
atraitne
atraitni
atrakciju
atras
atrast
atrasta
atrastas
atrasti
atrasties
atrasto
atrastos
atrasts
atrastu
atribu
atriebe
atriebi
atrisina
atrod
atrodama
atrodamas
atrodami
atrodams
atrodas
atrodos
atrodoties
ats
atsa
atsaci
atsaka
atsakoties
atsauca
atsaucas
atsauce
atsauces
atsauci
atsaucoties
atsauksmes
atsavina
atsegumi
atsegums
atsevis
atsita
atskaites
atskaiti
atskan
atsla
atsle
atspe
atspogul
atsta
atstaros
atstarota
atsu
atsves
atta
attack
atte
atteica
atteicies
atteiks
atteikties
atteka
attention
atti
attieca
attiecas
attieci
attiecina
attieksme
attieksmi
attiekties
atture
atturi
atv
atva
atvairi
atval
atvasina
atve
atveda
atveide
atveido
atveidoja
atveidojis
atveidojot
atveidos
atveidota
atver
atveras
atvere
atveres
atveri
atverot
atvesel
atvieglo
atvieglotu
atvienoja
atvienots
atzara
atzars
atzaru
atzi
atzin
atzina
atzini
atzinus
atzinusi
au
auba
aubas
aubi
auce
auces
auda
aude
audes
audi
audiem
audio
audis
auditorija
auditorijai
auditoriju
audonas
audos
audrin
audu
auduma
audumu
audz
audze
audzes
audzina
audzis
auf
aug
auga
augam
augi
augiem
augl
augli
auglis
augos
augot
augs
augsne
augsnes
augsni
augsta
augstais
augstaja
augstas
augsti
augstie
augstiem
augstiene
augstienes
augstkalnes
augstkalnu
augstle
augstman
augsto
augsts
augstskola
augstskolas
augstskolu
augstsprieguma
augstu
augstuma
augstumam
augstums
augstumu
augstus
augstve
augt
augu
auguma
augums
augumu
augus
august
augusta
augustam
auguste
augusti
augusts
augustsss
augustu
auj
auja
aujama
aujamieroc
aujas
aujot
aujoties
auju
auk
auks
auksle
auksta
aukstais
auksts
aukstuma
aul
aula
aulas
aulejas
aulu
auna
aunas
aundabi
aunes
aunpra
aunu
aunuma
aunumu
aura
auras
aure
auri
aurina
aurora
aurs
aursliez
auru
auruma
aurums
aurumu
aus
ausekl
auseklis
ausgewa
ausi
ausis
ausma
ausmas
ausmu
auss
austin
austra
australia
australian
australis
austras
austria
austrian
austries
austrija
austrijas
austriju
austrounga
austruma
austrumantarkti
austrumdal
austrumeiropa
austrumeiropas
austrumi
austrumiem
austrumindijas
austrumlatvijas
austrumos
austrumpru
austrumromas
austrums
austrumsibi
austrumu
austrumus
austrumva
ausu
aut
auta
autaja
autajiem
autas
autene
autenes
auteni
autentifika
author
auti
auties
autn
autne
autnes
auto
autoava
autobiogra
autobrauce
autobu
autobusa
autobusi
autobuss
autobusu
autocad
autocel
autodesk
automa
automag
automas
automatiza
automatize
automobil
automobili
automobilis
autonoma
autonomais
autonomaja
autonomija
autonomijas
autonomiju
autonomo
autonomu
autoosta
autora
autoram
autore
autori
autoriem
autorita
autors
autortiesi
autoru
autosaci
autosport
autosporta
autosportists
autosta
autotransporta
auts
autu
auz
auza
auzin
auzu
av
ava
available
avalanche
avangard
avangarda
avare
avas
ave
aven
aves
avi
avia
aviation
avibase
avin
aviokompa
aviosabiedri
avnieki
avnieku
avota
avoti
avotiem
avotin
avotos
avots
avotu
avotus
avu
award
awards
away
ax
az
aza
azam
azartspe
azerbaidz
azerbaijan
azi
aziem
aziste
azistes
azisti
azoru
azovas
azs
azu
b
ba
babi
babic
baby
back
bad
bada
badmintona
bads
bafina
bafta
baga
bagda
bagu
baha
bahamu
bahrain
bahreina
bahreinas
bahs
bai
baiba
baida
baidens
baidi
baidoties
baika
baikonuras
bail
baile
bailes
baja
baka
bakalaura
baker
baks
bakte
baku
bal
bala
balance
balas
balasta
baldone
baldones
baldui
baleta
baletdejota
balets
bali
balka
ball
balle
balles
balli
balode
balodi
balodis
balona
baloz
balsi
balsis
balsoja
balsojot
balsojuma
balsojums
balsojumu
balsos
balsot
balsota
balss
balsstiesi
balsta
balsti
balstoties
balsu
balta
baltactin
baltais
baltaja
baltajiem
baltas
baltastes
baltegle
baltezera
baltezers
baltgalvas
balti
baltic
baltica
baltie
baltiem
balties
baltija
baltijas
baltiju
baltimore
baltin
baltinavas
baltische
baltischen
baltisches
baltkrievi
baltkrievija
baltkrievijas
baltkrieviju
baltkrievu
balto
balts
baltu
baltva
balva
balvai
balvas
balvi
balviem
balvu
bam
ban
bana
band
banda
bandas
bandi
bandinieku
banglades
bank
banka
bankai
bankas
banknotes
bankrota
bankrote
banku
banska
baptistu
bar
bara
baraks
baram
barbara
barbaru
barcelona
bardis
barenca
barga
bari
barika
baris
barjera
barjerskre
barjeru
barka
barkavas
barnes
baro
barojas
barojoties
baroka
baron
barona
barons
baronu
baros
barot
baroties
barry
bars
barselona
barselonas
baru
barus
barz
bas
basa
base
baseball
based
baseina
baseins
baseinu
basel
basg
basic
basket
basketball
basketbola
basketbolista
basketboliste
basketbolisti
basketbolists
basketbolistu
basketbols
basketbolu
basku
bass
bataljona
bataljonam
bataljoni
bataljons
bataljonu
baterija
baterijas
bateriju
batista
batman
batons
batorijs
battle
batumi
baudi
bauer
bauers
bauman
baumane
baumanis
baumas
baus
bauska
bauskas
bava
bay
bayer
bayern
baz
baza
bazi
bazilika
bazilikas
bazni
bb
bbc
bc
bd
bdl
be
beach
bear
bears
beat
beatles
beats
beautiful
beauty
beberbek
bebrenes
bebri
bebris
bebrs
bebru
bec
beck
becker
become
becomes
bedre
bedri
bee
been
before
begin
begins
behavior
behaviour
behind
bei
beidou
beidz
beidza
beidzas
beidzies
beidzis
beidzot
beidzoties
beiga
beigas
beigs
beigt
beigu
beigus
beigusi
beigusies
beijing
being
beisbola
bek
beka
bekas
beker
bekl
bekli
beklis
beks
beku
bekvoka
bel
bela
belarus
bele
beles
belgian
belgium
belgrada
belgradas
beli
believe
bell
bella
bells
belokon
bels
ben
bena
bendz
bene
benedikts
benes
benfica
benga
benito
benjamin
benjamins
bens
benz
benzi
benzola
ber
bera
berberu
berg
berga
bergman
bergmanis
bergs
berichtsmonate
berija
berijs
beringa
berk
berkeley
berli
berlin
bermonta
bermontia
bermonties
berna
bernard
bernardo
bernards
berne
bernes
bernhard
bernhards
bers
berta
berts
berz
berze
berzes
bes
besara
best
bet
beta
betmens
betona
better
betula
between
beveri
bevo
bey
beyond
bez
bezdarba
bezdeli
bezgali
bezje
bezkra
bezmaksas
bezmugurkaulniekiem
bezmugurkaulnieku
beznoteces
bezpel
bezpilota
bezvadu
bezve
bezzemnieku
bf
bh
bi
biathlon
biatlona
biatloniste
biatlonists
biatlons
bibcode
bibliogra
bibliote
biblioteka
bic
bid
bidgos
biedra
biedre
biedri
biedriem
biedrs
biedru
biedrus
bienenstamm
bierin
bies
biez
bieza
biezas
biezi
biezs
biezu
biezuma
biezums
biezumu
big
biggest
bij
bija
bijas
bijis
biju
bijus
bijusi
bik
biks
bikse
bil
bilbao
bildes
bill
billboard
billijas
billijs
billion
bills
bils
bim
bin
bina
bio
biogra
biographical
biography
biok
biol
biolog
biological
biologs
biology
biomedici
biosfe
biotehnolog
biotopi
biotopos
biotopu
bird
birdlife
birds
birg
birmas
biroja
biroji
birojs
biroju
birokra
birth
biruta
birz
birzgales
birznieks
bis
bisi
bistricas
bit
bitcoin
bite
bites
biti
bits
bitu
biz
bizanties
bizantija
bizantijas
biznesa
bizness
biznesu
bj
bja
bje
bji
bjo
bjot
bju
bk
bl
bla
black
blackhawks
blackwell
blagonadez
blaks
blakus
blauman
blaumanis
blaus
blazers
ble
bleidelis
bleiks
bli
block
blog
blogs
blok
bloka
bloks
bloku
blood
bloomberg
blu
blua
blue
blues
bluk
blumbergs
bmc
bmw
bmx
bniece
bnieces
bnieka
bnieki
bniekiem
bnieks
bnieku
bniekus
bns
bo
board
bob
bobijs
bobs
bobsleja
bobslejists
bobslejs
body
boeing
bohe
boikote
boja
boksa
bokseris
bokss
bol
bola
boldera
boli
bolin
bolon
bols
boltin
bolu
bombarde
bon
bonda
bonifa
bono
bonobo
book
books
bora
bordo
boris
borisa
boriss
borisu
born
borneo
bors
borta
borussia
bos
bosfora
bosnies
bosnija
bosnijas
boss
boston
bostona
bostonas
bota
botnijas
bots
botsva
botvin
box
boy
boys
boz
br
bra
brac
braiens
brain
brams
brand
brandenburga
brandenburgas
branta
bras
brasa
brasas
brasil
brasla
braslas
braslavas
brassica
brastin
bratislava
bratislavas
brauc
brauca
brauce
brauciena
braucieni
braucienos
brauciens
braucienu
braucot
brauks
braukt
brauna
brauns
brazi
brazil
bre
break
breaking
bredlijs
breds
breeding
breiks
bremze
brenc
brengul
brestas
brestl
bretan
brez
bri
brian
bricis
bride
bridge
bridz
briedi
briedis
brief
briesma
briesmas
briesmi
briesmon
briesmu
briez
briga
brigadere
brigu
bril
brin
bring
brisele
briseles
brita
britain
britannica
briti
britiem
british
britu
briz
brjanskas
brno
broadcasting
broadway
broce
brockhaus
broka
broks
bron
bronza
bronzas
bronze
bronzu
brooks
bros
brothers
brown
bru
bruce
brug
bruins
bruklina
bruklinas
brun
bruno
bruta
bs
bsarga
bsburgs
bsburgu
bspe
bt
btu
bu
bubo
buc
bucks
budapes
budapest
budas
budisma
budisms
budistu
budz
buenosairesa
buenosairesas
bufalo
buha
building
bukais
bukareste
buks
bukshe
bukultu
bul
bulduri
bulduru
bulga
bulgaria
bulgarian
bull
bulletin
bulls
bullu
bulon
bulta
bultas
bultu
bulva
bumba
bumbas
bumbiere
bumbin
bumbu
bumbul
bumbvede
bundesli
bundzinieks
bungas
bungu
bura
buras
burbonu
burbul
bureau
burgen
burgundijas
burhards
burka
burkinafaso
burta
burti
burtiem
burtiski
burtni
burtnieku
burts
burtu
burtus
buru
burvesti
burvi
burvis
burvju
burz
bus
bush
business
but
buta
butterfly
bvalsti
bvalstis
bvalsts
bvalstu
by
bz
c
ca
cad
caf
cai
cakuls
calcio
calendar
california
call
called
cambridge
camp
campaign
campbell
campeonato
can
canada
canadarm
canadensis
canadian
canadiens
canal
cancer
candidates
canis
cannes
canto
canucks
cap
cape
capital
capitals
capri
captain
car
cara
carduelis
care
career
carex
cargo
cariste
caristes
carl
carlos
carnikava
carnikavas
carolina
carrier
cars
carter
carti
caru
cas
case
cases
cassini
cast
castle
castrum
cat
catalogue
catherine
catholic
cats
caun
cauna
caunas
caune
caur
caurcel
cauri
caurlaidi
caurspi
caurteces
caurtek
caurul
caurule
caurules
cauruli
caurumu
cause
cavaliers
cbalties
cbaltu
cbc
cbs
cc
cctld
cd
cdot
cdots
ce
cedsci
cei
cekl
ceklis
cekulainais
cekuls
cel
celin
cell
cells
celma
celmin
celms
cels
celt
celta
celtas
celtic
celtics
celtn
celtne
celtnes
celtni
celtnieci
celtnieku
celto
celts
celulozes
cementa
cen
cena
cenas
cens
census
centa
centaur
centaura
center
centi
centieni
centieniem
centienus
centimetri
centimetriem
centimetru
centimetrus
centra
central
centralize
centram
centrbe
centre
centri
centriem
centros
centrs
centru
centrus
century
cenu
cenzu
cepl
cepli
ceplis
ceps
cepure
cepures
cepuri
cer
cere
ceremonia
ceremonija
ceremonijas
ceremoniju
ceri
cerin
cerot
ceru
ces
cesvaines
ceturdal
ceturksni
ceturta
ceturtais
ceturtaja
ceturtdal
ceturtdiena
ceturto
cf
cgales
ch
cha
challenge
champ
champion
champions
championship
championships
chang
change
changes
channel
chapter
characteristics
charadrius
charity
charles
charlie
charlotte
chart
charts
che
check
checklist
chelsea
chem
chemical
chemistry
chen
chess
chessgames
chesspro
chesstempo
chicago
chief
child
children
chile
china
chinese
chlorops
choice
chris
christian
christie
christmas
christoph
christopher
chronicle
chrysolina
chrysomelidae
church
ci
cia
ciblas
cieceres
cielava
ciele
ciema
ciemam
ciemata
ciemati
ciematos
ciemats
ciematu
ciemi
ciemiem
ciemos
ciems
ciemu
ciemus
cien
ciena
cieni
cieniem
ciens
cienu
cies
cieta
cietas
ciete
cietes
cieti
cietis
cieto
cietoks
cietoksni
cietoksnim
cietoksnis
ciets
cietu
cietuma
cietums
cietumsodu
cietumu
cietus
cietusi
cietvielu
cija
cijai
cijas
cijs
ciju
cik
cika
cikla
ciklona
cikloni
ciklons
ciklonu
cikls
ciklu
cilindra
cilindrisks
cilindru
cilinskis
cilmes
cilpa
cilpas
cils
cilti
ciltis
cilts
ciltste
cilv
cilve
cim
cimzes
cin
cina
cinara
cinema
cinka
cinot
cio
cip
cipari
cipariem
cipars
ciparu
circle
circus
cirka
cirks
cirkula
cirs
cis
ciska
ciskais
ciski
cistercies
cisti
cita
citadele
citadeles
citai
citam
citariga
citas
cite
citi
citiem
cities
citoplazma
citos
citplane
cits
citu
citur
citus
citviet
city
citypopulation
civil
civila
civiliedzi
civiliza
civilo
cjin
cjinu
ck
ckara
cl
claims
clark
class
classic
classical
classics
classification
claude
clavs
climate
clinical
clippers
close
cloud
club
clube
cm
cn
cna
cnn
co
coach
coast
coca
code
codes
codex
cohen
cola
cold
cole
coleoptera
colin
collection
college
collins
collu
color
columbia
com
combined
come
comedy
comes
comet
comics
coming
commentary
commercial
commission
committee
common
communication
communications
community
companion
company
comparative
competition
competitors
complete
completes
complex
composers
composite
composition
computer
con
concacaf
concert
concise
conference
confirmed
confirms
conflict
congress
conmebol
conservation
constitution
construction
contemporary
content
contest
continental
contract
control
cooh
cook
cool
cooper
copa
coppa
coptotriche
core
cornell
coronavirus
corp
corporation
corpus
corvus
corythucha
cos
costa
cot
coties
could
council
count
countries
country
county
coupe
course
court
cov
covid
coyotes
cp
cpusdiena
cr
craig
crash
crazy
crc
creative
crew
crime
crisis
critical
critics
cross
crown
crows
crs
cruijff
cruise
crystal
cs
cska
cspe
ctec
cteci
ctecis
cu
cube
cubesat
cukura
cukurs
cukuru
cultural
culture
cum
cunami
cup
current
cv
cvk
cycledatabase
cycling
cyclingnews
cyclingtips
cycliste
cygnus
cyprus
cyrus
cz
czech
d
da
daba
dabas
dabasdati
dabasga
dabaspe
dabaszina
dabaszini
dabi
dabiska
dabiskais
dabiskaja
dabiski
dabisko
dabu
dace
dadzi
dagda
dagdas
dagesta
daglass
dai
daiga
dail
dailes
daily
dain
daina
dainas
daini
dainis
daino
dainu
daisma
daka
dakas
dakota
daks
dal
dala
dalasas
dali
dalma
dalot
dam
dama
damas
dambi
dambis
dambja
dambretes
dami
damies
dams
damsons
damu
dan
dana
dance
dancing
daniel
daniela
daniels
dans
dara
darba
darbal
darbam
darbari
darbaspe
darbdiena
darbi
darbiem
darbina
darbiniece
darbinieka
darbinieki
darbiniekiem
darbinieks
darbinieku
darbiniekus
darbni
darboja
darbojas
darbojies
darbojos
darbojoties
darbojusies
darbos
darboties
darbotos
darbs
darbu
darbus
dardanel
darela
darels
dari
darina
dark
darms
darvina
das
data
database
datacenter
date
dates
dati
datiem
datora
datoram
datoranima
datori
datoriem
datoros
dators
datorsiste
datorspe
datorti
datoru
datorus
datorzina
datu
datuba
datuma
datums
datumu
datus
daudz
daudza
daudzajiem
daudzas
daudzci
daudzdienu
daudzdzi
daudzfunkciona
daudzgadi
daudzi
daudzie
daudziem
daudzka
daudzo
daudzos
daudzpusi
daudzs
daudzskaitl
daudzskaitli
daudzsolos
daudzsta
daudzstu
daudzu
daudzuma
daudzumos
daudzums
daudzumu
daudzus
daudzveidi
daudzviet
daugava
daugavai
daugavas
daugavgri
daugavpili
daugavpils
daugavu
daugmales
daugul
daumants
dave
david
davids
davies
davis
dawn
day
days
daz
db
dc
dd
de
dead
deadline
deal
death
debate
debates
debesi
debesis
debess
debesskra
debesu
debija
debijas
debiju
debitants
debitantu
debite
debut
dec
december
decembra
decembri
decembrim
decembris
decima
dedzes
dedzi
dedzina
deep
defence
defense
defici
deficit
define
defini
definition
defo
deforma
deforme
deg
deglava
degos
degs
deguna
degunla
degunradz
degunradzis
deguns
degunu
degviela
degvielas
degvielu
dei
deic
deivida
deivids
deividu
deivisa
deiviss
deivs
deja
dejas
dejo
dejota
deju
deka
dekarta
dekl
deklara
deklare
dekli
deklina
dekline
deklis
dekora
dekorati
dekore
dekre
deks
del
dele
deleg
delega
delfi
deli
dell
della
dels
delta
deltas
dem
dema
demenes
demisione
demo
demobilize
demogra
demokra
demonstra
demonstre
demonte
dems
den
dena
dendrolog
dene
denes
deni
denijs
denim
denis
deniss
denjels
denmark
dennis
dens
densapga
densaugiem
denscel
densdzirnavas
denskra
denskritums
densli
denspolo
densputnu
densrozes
denss
denstilpe
denstilpes
denstilpju
denveras
departamenta
departamentiem
departaments
departamentu
department
depeche
depo
deporta
deporte
depozi
depresija
depresijas
deputa
der
dera
dere
deres
deri
deriem
deris
derlande
derlandes
derlandi
derlandies
ders
deru
des
desanta
description
desert
design
desmit
desmita
desmitais
desmitajos
desmitci
desmitgade
desmitgades
desmiti
desmitiem
desmitka
desmitnieka
desmito
desmitu
desmitus
destile
destiny
det
details
detal
detalize
detekti
detroitas
deubner
deutsch
deutsche
deutschen
deutscher
deutsches
deutschland
deva
devas
deve
development
devi
devies
devil
devils
devin
devis
devona
devu
devus
devusi
dez
dezerte
df
dfb
dfl
dg
dh
di
dia
diabe
diagnostice
diagnostika
diagnostikas
diagona
diagramma
dialekta
dialekti
dialekts
dialektu
dialogu
diametra
diametrs
diametru
diapazona
diapazons
dibena
dibens
dibenu
dibina
dictionary
did
didzis
die
diece
diego
dielektrik
diem
diemz
diena
dienai
dienas
dienasgra
diene
dienesta
dienestam
dienests
dienestu
dieni
dieniem
diennaks
diennakti
diennaktis
diennakts
diens
dienu
dienvida
dienvidamerika
dienvidamerikas
dienvidameriku
dienvidaustruma
dienvidaustrumiem
dienvidaustrumos
dienvidaustrumu
dienviddal
dienvideiropa
dienvidi
dienvidiem
dienvidk
dienvidkoreja
dienvidkorejas
dienvidkurzemes
dienvidos
dienvidpola
dienvidrietumiem
dienvidrietumos
dienvidrietumu
dienvids
dienvidsla
dienvidsuda
dienvidu
dienvidus
dies
diet
dieva
dievam
dievbiji
dievi
dieviem
dieviete
dievietes
dievis
dievkalpojumi
dievkalpojumu
dievkalpojumus
dievlu
dievma
dievnama
dievnams
dievnamu
dievs
dievu
diezgan
diference
diferencia
different
difu
digita
digital
digna
dija
dijai
dijas
dijs
dijseria
diju
dikl
diks
diktatu
dim
dima
dimanta
dimants
dimantu
dimensija
dimensiju
dimiters
dimorfisms
din
dina
dinaburgas
dinamiska
dinamo
dinastija
dinastijas
dinastiju
dinot
dins
dio
diode
diodes
dioksi
dioni
diploma
diplomdarbu
diplomu
diptera
direct
director
directory
direkti
direktora
direktore
direktori
direktors
direktoru
dirig
diriz
dirk
dirty
dis
discipli
discogs
discovery
disease
diseldorfa
diserta
diska
diski
disko
diskogra
diskre
diskrimina
disks
disku
diskusija
diskusijas
diskusiju
diskute
diskvalifice
diskvalifika
disloce
disney
disorder
disorders
displaystyle
distanc
distance
distances
distanci
distributi
distribution
dita
diusa
diuss
diusu
diva
divas
divci
divdabis
divdabja
divdesmit
dive
diversity
divi
diviem
division
diviziona
divka
divniekos
divnieku
divos
divpadsmit
divpuse
divreiz
divskan
divspa
divsta
divu
divus
divvilc
diz
dizaina
dizaineris
dizains
dizainu
dj
djego
dju
dk
dm
dmain
dmitrija
dmitrijs
dn
dna
dni
dnieci
dnieka
dnieki
dniekiem
dnieks
dnieku
dnis
dns
do
dobele
dobeles
dobuma
dobumos
dobums
dobumu
doc
doce
docents
docentu
doctor
documents
dod
dodas
dodo
dodot
dodoties
dodz
does
dog
dogas
dogs
doha
doi
dojuma
dojums
dojumu
doktora
doktorantu
doktors
doktoru
doktri
dokumenta
dokumente
dokumenti
dokumentiem
dokumentos
dokuments
dokumentu
dokumentus
dola
dolas
dole
doles
dolfa
dolfam
dolfs
dolfu
dolls
dolomi
doma
domain
domas
dombrovska
dombrovskis
dome
domes
domi
domine
dominika
dominiks
domkapitula
domskolas
domstarpi
domu
domubiedriem
don
dona
donald
donalds
donas
donavas
donbasa
doneckas
donis
dons
doom
doping
dopinga
doroteja
dorpat
dorpater
dortmund
dortmundes
dos
dosies
dot
dota
dotaja
dotas
doti
doties
doto
dotos
dots
dotu
double
douglas
down
dp
dr
dra
drabes
dracaena
draft
drafta
drafte
drafts
dragon
dragu
drake
drama
dramatiska
dramaturg
dramaturgs
dras
draud
draude
draudi
draudiem
draudu
draudus
draudz
draudze
draudzei
draudzene
draudzeni
draudzes
draudzi
drauga
draugam
draugi
draugiem
draugs
draugu
draw
dre
dream
dreams
dreamworks
drei
dreife
dreika
dreilin
dreiz
dreize
drena
drey
dri
drica
driha
driham
drihs
drihu
dris
dritter
drive
driver
dros
drosmi
drs
drt
dru
drudzis
drug
drugs
druka
drukas
drupa
drupas
drustu
druva
ds
dsk
dt
du
dubl
duble
dublieru
dublina
dubna
dubnas
dubulta
dubultspe
dubultu
duck
ducks
due
dueta
duets
duke
dukurs
dul
duma
dumi
dumnieku
dumos
dumpi
dumpinieku
dumpis
dums
dumu
dunavas
dundaga
dundagas
dunsdorfs
duntes
durbe
durbes
durch
durgas
during
durrell
durvi
durvis
durvju
dus
dusi
dutch
dvd
dve
dvi
dvieta
dvietas
dvietes
dvietu
dx
dxe
dynamics
dynamo
dz
dza
dzas
dzautors
dzdali
dzdibina
dze
dzeguz
dzeguze
dzeguzes
dzeja
dzejas
dzejniece
dzejnieka
dzejnieki
dzejniekiem
dzejnieks
dzejnieku
dzejol
dzejoli
dzejolis
dzeju
dzekl
dzekli
dzeklis
dzelks
dzelme
dzelon
dzeltena
dzeltenais
dzeltenas
dzeltenbru
dzelteni
dzelteno
dzeltens
dzeltenu
dzelzavas
dzelzcel
dzelzi
dzelzs
dzelzsbetona
dzelzsdivi
dzemde
dzemdes
dzemdi
dzen
dzena
dzene
dzenes
dzeni
dzenis
dzens
dzenskru
dzenuma
dzenumi
dzenumos
dzenums
dzenumu
dzerokl
dzers
dzerz
dzes
dzese
dzfinanse
dzi
dzidra
dzied
dzieda
dziedava
dziedina
dziedot
dziedzera
dziedzeri
dziedzeru
dziena
dzieni
dzieniem
dziens
dzienu
dzienus
dziesma
dziesmai
dziesmas
dziesmin
dziesmu
dzil
dzilna
dzilnas
dzilni
dzilnu
dzim
dzimis
dzims
dzimst
dzimsti
dzimta
dzimtai
dzimtaja
dzimtas
dzimtbu
dzimte
dzimtene
dzimtenes
dzimteni
dzimtes
dzimto
dzimtu
dzimuma
dzimumbriedumu
dzimumgatavi
dzimumi
dzimumiem
dzimumorga
dzimums
dzimumu
dzimus
dzimusi
dzin
dzina
dzine
dzinieki
dzinieku
dzinos
dzinot
dzintara
dzintari
dzintars
dzintaru
dzintra
dzirciema
dzirde
dzirdes
dzirnava
dzirnavas
dzirnavezers
dzirnavu
dzis
dzjin
dzjun
dzjute
dzko
dznieci
dznieki
dznieks
dznieku
dzos
dzot
dzoties
dzprieks
dzs
dzskan
dzskanis
dzstra
dzsvara
dzsvars
dzsvaru
dztekus
dztiesi
dztwo
dzu
dzve
e
ea
eagle
eagles
early
earth
east
eastern
easy
eberhards
ebreji
ebrejiem
ebrejs
ebreju
ebrejus
ebs
ebu
ec
eca
ecas
eceri
echo
ecina
ecinas
ecka
eckis
eclipse
ecological
ecology
economic
economics
economy
ecova
ecovs
ed
eda
edgar
edgara
edgars
edgaru
edge
edi
edicions
edijs
edimina
edimins
edinburgas
edit
edition
editor
editors
edmontonas
edmunds
edonies
edonija
edonijas
eds
edu
edua
eduard
eduarda
eduardo
eduards
eduardu
education
edvarda
edvards
edvi
edward
edz
ee
eesti
ef
efekta
efekti
efektivita
efekts
efektu
efektus
effect
effects
efi
efrijs
efs
eg
ega
egas
egejas
egi
egils
egl
eglaines
egle
egles
egli
egons
egs
eguma
egypt
ehija
ehijas
ehiju
ehoslova
ehova
ehovs
ehr
ehst
ehstland
ehu
ei
eight
eik
eikli
eiks
eimija
eimsa
eimss
eimsu
ein
eina
eindhoven
eine
einer
eins
eintracht
eipenes
eira
eiro
eirodziesma
eirodziesmas
eiroli
eiropa
eiropai
eiropas
eiropies
eiropu
eirovi
eisons
eit
eitana
eiz
eizara
eizariene
eizarienes
eizariska
eizars
eizaru
eizens
ej
eja
ejas
ejevs
ejienes
ejos
ejot
ejs
eju
ek
eka
ekas
ekava
ekavas
ekipa
ekipe
eko
ekolog
ekonomika
ekonomikas
ekonomiku
ekonomiska
ekonomiskais
ekonomiskaja
ekonomiskas
ekonomiski
ekonomisko
ekonomisku
ekonomists
ekosiste
ekra
ekraniza
ekranize
eks
eksa
eksempla
eksiste
eksistenci
eksistencia
ekskluzi
ekskursijas
eksona
eksons
ekspedi
eksperimenta
eksperimente
eksperimenti
eksperimentiem
eksperiments
eksperimentu
eksperimentus
eksperti
eksperts
ekspertu
ekspi
eksplozi
ekspluata
ekspluate
ekspona
ekspone
eksporta
eksporte
eksports
eksportu
ekspozi
ekspresi
ekspresionisma
ekspress
ekstraklasa
ekstrali
ekstre
ekstremita
eku
ekvadora
ekvadoras
ekvatora
ekvatoria
el
ela
elas
elasti
elbas
elda
elder
ele
election
elections
electric
electronic
electronics
elejas
elektri
elektrifice
elektrik
elektriska
elektriskais
elektriskaja
elektriskie
elektrisko
elektroapga
elektrodzine
elektroenerg
elektroieka
elektroli
elektromagne
elektromeha
elektrona
elektroni
elektroniem
elektronika
elektronikas
elektroniska
elektroniskais
elektronisko
elektronu
elektrostacija
elektrostacijas
elektrovilcieni
elektrovilciens
elektrovilcienu
element
elementa
elementi
elementiem
elements
elementu
elementus
elena
elephant
eles
elfa
eli
eliass
eliots
elis
elisa
elisabeth
elita
elite
eliteprospects
elites
elitse
elizabete
elizabetes
elizabeth
elizabeti
elkon
elks
elku
ella
elle
elles
elli
elliott
elma
elne
elnes
elnieks
elo
elosa
elosas
elpa
elpos
els
elsevier
elta
elti
eltovas
eltu
elu
elvi
elza
em
ema
emais
emaitijas
emama
emamu
emanuels
emas
emberiza
emble
embrija
embu
eme
emeri
emerite
emeru
emes
emi
emigra
emigrantu
emigre
emil
emils
emira
emisijas
emite
emma
emmy
emocijas
emociona
emot
emoties
empi
empiona
empione
empiones
empioni
empioniem
empions
empiontitulu
empiontitulus
empionu
empionvieni
empire
ems
emt
emta
emtais
emtaja
emtajiem
emtas
emti
emtie
emties
emto
emtos
emts
emtu
emu
en
ena
enas
ence
ences
enci
enciklope
enciklopedija
enco
encu
encyclopaedia
encyclopedia
encyclopædia
end
enda
endangered
endas
ende
endeavour
endijs
endru
ends
endu
endzeli
ene
enealog
enera
eneratora
enerators
eneratoru
enere
energ
energia
energija
energy
enes
eng
engaraga
engarags
engine
engineering
england
english
engures
engurs
eni
enieks
enieku
eniera
enieri
enierija
enierijas
enieris
enieru
enierzina
enifere
enija
enijas
enin
eniti
enko
enkovs
enkura
enkurs
enoks
enough
enovas
enrike
enriko
ens
enska
enskas
enta
ente
enterprise
entertainment
enti
entiem
entomolog
entonijs
entry
ents
entu
enu
env
environment
environmental
enzi
enzyklopa
eoce
eode
eofizikas
eogra
eol
eolog
eologs
eometrija
eometrijas
eometriska
eomorfolog
eostaciona
eotelpiska
ep
epa
epards
epas
epi
epic
epide
epidemiolog
epite
epizode
epizodes
epju
eposa
eposs
epras
eps
epsa
equus
er
era
eralds
eras
erbon
erboni
erbonis
ercen
erchercogs
ere
eredivisie
eremijs
eres
ereva
eri
eric
erich
erichson
ericsson
eriem
erihs
erijs
erik
eriks
erin
eris
eritroci
erkasu
erma
erme
ermeistars
ermen
ermeni
ermenim
ermenis
ern
erna
ernest
ernesta
ernesto
ernests
ernieku
ernst
ernsta
ernsts
eroms
erovas
erozijas
ers
ersija
ersijas
ert
erta
ertnere
ertru
erts
eru
ervi
erzju
es
esa
esam
esami
esctoday
eseckas
eseja
esejas
eseju
esene
esi
esika
esjes
eska
eskadril
esko
eslava
eslavs
esmu
esn
esos
esot
espan
esperanto
esplana
espn
esports
ess
est
este
estera
estes
estimate
estimates
estland
estonia
estonian
estra
estras
estri
estrim
estris
et
eta
etati
etc
ete
etes
ethernet
ethnic
ethnologue
eti
etik
etile
etimolog
etiopija
etiopijas
etlendas
etniska
etniski
etnisko
etnogra
etra
etras
etrdesmit
etri
etriem
etriniekos
etrinieku
etrka
etros
etrpadsmit
etrstu
etru
etrus
etrusku
ets
etu
eu
euge
eur
eurasian
euro
eurobasket
eurohockey
europa
europaea
europe
european
europeanhitradio
eurovision
eurovoix
eutelsat
ev
eva
evakua
evakue
eval
evan
evans
evansa
evanss
evas
evc
eve
event
events
ever
everton
every
everything
evic
evica
evics
evidence
evija
eviki
evikiem
eviku
evita
evo
evolu
evolution
evolutionary
evr
evs
evska
evski
evskis
evu
ex
exchange
exclusive
executive
expedition
experience
experiment
experimental
exploration
explorer
expo
express
extended
eye
eyes
ez
eza
ezera
ezeram
ezere
ezeres
ezeri
ezeriem
ezerin
ezermalas
ezernieku
ezeros
ezers
ezeru
ezerus
ezis
f
fa
fabia
fabio
fabricius
fabrika
fabrikas
fabriku
face
facebook
facies
fact
factbook
facto
factor
facts
faila
faili
fails
failu
failus
fair
faith
fakta
fakti
faktiska
faktiskais
faktiski
faktisko
faktora
faktori
faktoriem
faktors
faktoru
faktorus
fakts
faktu
fakulta
falco
falcon
fall
fam
fame
families
family
famous
fani
fans
fanta
fantastika
fantastikas
fantasy
fanu
far
farma
farmakolog
fas
fasa
fast
fauna
faunas
favori
faza
fb
fbrefspe
fc
fda
fe
fear
feat
feature
features
feb
febr
febra
februa
february
federa
federal
federati
federation
federiko
feiman
feldmanis
feldmars
felds
feles
felicita
felikss
felipe
felix
felsko
female
fenerbahc
fenik
fenomens
fenomenu
feoda
ferdinand
ferdinanda
ferdinands
ferencs
ferga
ferguson
ferma
fermas
fermentu
fermi
ferna
fernando
ferra
ferrari
festiva
festival
fetels
feyenoord
ff
fg
fi
fia
fiat
fib
fiba
fibonac
fibt
fiction
fide
fidz
field
fifa
fifth
fight
fighting
figu
figure
figures
fija
fijas
fiju
fikse
fil
fila
filadelfija
filadelfijas
file
files
filharmonijas
filia
filipa
filipi
filips
filipu
filke
film
filma
filmai
filmas
filme
films
filmu
filolog
filologs
filozofa
filozofija
filozofijas
filozofiju
filozofiska
filozofs
filozofu
fils
filtra
filtre
filtru
fin
fina
final
finals
finance
financial
finans
finanse
finanses
finansia
finansu
finc
find
finden
fine
finis
finks
finland
finnish
fiorentina
fire
firma
firmas
firmu
first
fis
fischer
fish
fishbase
fisher
fishes
fiska
fiskais
fiskaja
fiski
fiskie
fisko
fiskos
fisks
fisku
fiste
fistes
fistu
five
fizik
fizika
fizikas
fiziku
fiziolog
fiziska
fiziskas
fiziski
fizisko
fizisku
fjodorovs
fjodors
fjords
fk
fl
fla
flag
flames
flandrijas
flash
fle
flec
fleming
fli
flies
flight
flock
flora
floras
florbola
florence
florences
floreti
florida
floridas
floru
flote
flotei
flotes
floti
flow
floyd
fly
flyers
flying
fm
fo
focus
fogts
fokss
fokusa
fokuse
folklora
folkloras
folklorists
fon
fona
fonda
fondam
fonds
fondu
fone
food
foods
foot
football
for
forbes
force
forces
ford
fords
foreign
forest
forests
forever
form
forma
formai
formas
format
forme
former
formu
formula
formulas
formule
formulu
fors
forse
fort
forts
fortu
fortum
forum
foruma
forums
forward
forza
fos
fosfa
fosfora
fosilijas
foto
fotoapara
fotoatte
fotogra
fotografe
fotosinte
found
foundation
four
fourth
fox
fr
fra
frac
fragmenta
fragmenti
fragments
fragmentu
fragmentus
frakcija
frakcijas
frakciju
franc
france
francija
francijai
francijas
franciju
francis
francisco
franciska
franciski
francisks
franco
francs
francu
frank
franka
frankfurt
frankfurte
frankfurtes
franki
franklin
franklins
franko
franks
franku
frans
fransisko
fransua
frantis
franz
fraternitas
fre
fred
frederick
frederiks
freds
free
freedom
freestyle
fregat
freiberga
freibergs
freimanis
freistaates
frekvenc
frekvence
frekvences
frekvenci
french
frenks
fri
fric
fricis
fridrihs
friedrich
friends
frika
frikas
friku
fritz
fro
from
front
fronta
fronte
frontei
frontes
fronti
fru
fs
ft
ftp
fu
fulham
full
function
fund
fundamenta
fungi
fungorum
funkcija
funkcijas
funkciju
funkciona
funkcionalita
funkcione
futbola
futbolista
futboliste
futbolisti
futbolistiem
futbolists
futbolistu
futbols
futbolu
futu
future
g
ga
gabala
gabali
gabalin
gabalos
gabals
gabalu
gabalus
gabriel
gabriela
gabriels
gada
gadadiena
gadadienai
gadadienu
gadagra
gadalaika
gadam
gades
gadi
gadiem
gados
gads
gadsimta
gadsimtam
gadsimtiem
gadsimtos
gadsimts
gadsimtu
gadsimtus
gadska
gadu
gadus
gaga
gagarina
gai
gaida
gaidi
gaidot
gaigalavas
gail
gaile
gaili
gailis
gais
gaisa
gaisma
gaismas
gaismu
gaiss
gaistos
gaisu
gaita
gaitas
gaitu
gaizin
gaja
gajai
gajam
gajiem
gajos
gajs
gal
gala
galaktika
galaktikas
galaktiku
galam
galame
galapagu
galapunkts
galatasaray
galaxy
galda
galdin
gale
galerija
galerijas
galeriju
gales
gali
galiem
galilejs
galileo
gallery
gallus
galma
galos
galotn
galotne
galotnes
galotni
gals
galu
galva
galvas
galvaskausa
galvaskauss
galvaspilse
galvassa
galvena
galvenais
galvenaja
galvenajai
galvenajam
galvenajiem
galvenie
galveno
galvenoka
galvenos
galvi
galvin
galvu
gam
gama
gambi
gambit
game
games
gamma
gan
gana
ganas
gandari
gandri
gani
gans
ganu
gaprindas
gar
gara
garais
garaja
garanc
garante
garantijas
garas
garasta
garastes
garci
garden
gari
gariem
garkalnes
garnizona
garnizons
garnizonu
garo
garoza
garozas
gars
garsija
garu
garuma
garums
garumu
garus
gary
gas
gastons
gatava
gatavi
gatavo
gatavoja
gatavojas
gatavojoties
gatavos
gatavot
gatavoties
gatavots
gatavs
gate
gatis
gatne
gatnes
gatve
gatves
gatvi
gauja
gaujas
gaujienas
gauju
gaura
gava
gavas
gave
gay
gaz
gazeta
gazetteer
gazols
gazprom
gb
gbif
gdan
ge
geju
gekro
gela
gels
gemeinde
gemeinden
gemeindeverzeichnis
gemini
gen
gena
genas
gendstila
gene
genealogisches
genera
general
generation
genes
genetic
genetics
geni
gennaio
genoci
gens
genskalna
genus
geo
geographic
geographical
geographischer
georg
georga
george
georges
georgia
georgija
georgijs
georgs
ger
gera
gerald
gerhard
gerhards
gerijs
germain
german
germany
gers
ges
geschichte
gesellschaft
gesta
gestapo
get
getingenes
geto
gets
gg
ghost
ghosts
ghz
gi
giant
giants
gibralta
gibsons
gie
giem
gilbert
ginesa
ginters
gints
giovanni
girl
girls
giro
github
giuseppe
give
gks
gl
gla
glaba
glaciolog
glasgow
glass
glec
glee
glenn
glens
glezna
gleznas
gleznieci
gleznoja
gleznojis
gleznojumi
gleznos
gleznota
gleznu
gli
gliceri
gliemen
gliemez
glikozes
glikozi
glis
globa
global
globe
globusa
globuss
glonass
glory
glu
gluda
gludas
gluds
gluz
gm
gmbh
gn
gnera
gners
gnis
gnome
gnu
go
goal
goba
god
goda
godalga
godalgas
godalgu
godam
godi
godina
godinot
godman
gods
godu
goes
gogol
going
goja
gol
golcs
gold
golden
goldensteitas
golf
golfa
gomel
gonc
gone
gonsaless
good
google
gora
gorbac
gordon
gordons
gorkija
gorks
gors
gos
got
gota
gotas
gotfri
gotharda
gothards
goti
gotikas
gotiska
gotlandes
gotli
gots
gottfried
gotu
gouvernemens
gov
government
govis
govju
govs
gp
gps
gr
gra
grace
graf
grafi
grafik
grafika
grafikas
grafiku
grafiska
grafisko
graham
gramata
gramatika
gramatikas
grami
grammy
gramu
gramzdas
gran
grana
grand
grande
grandes
granger
grani
grant
grants
graphics
gras
graudi
graudiem
graudin
grauds
graudu
graudus
graudza
grautin
grauze
grava
gravas
grave
gravenhorst
gravita
gravity
gravu
gray
gre
great
greater
greatest
gredzena
gredzeni
gredzeniem
gredzens
gredzenu
gredzenus
gredzenveida
greece
greek
green
greenwood
gregora
gregorijs
gregors
gregory
gregs
greiema
greiems
greja
grejs
gremos
grena
grenadieru
grenlande
grenlandes
grey
grezna
grezni
gri
grib
griba
gribas
gribe
gribu
grid
griek
gries
griesti
griestiem
griestu
griez
grieze
griezes
griezuma
griezumu
grifs
grigorijs
grik
grindeks
grinic
gripas
gris
grizzlies
grobin
grodn
gross
ground
group
groups
growth
groza
grozi
groß
gru
grundza
grunti
grunts
gruntsu
grupa
grupai
grupas
grupe
grupu
gruzi
gruzija
gruzijas
gruziju
gs
gsat
gsm
gst
gstvielu
gt
gta
gtais
gtas
gti
gties
gto
gtos
gts
gtu
gu
guardian
gubern
gubernatora
gubernators
gubernatoru
gubu
gudenieku
gudra
gudrais
gudri
gudz
guide
guides
guinness
guitar
gul
gulaga
gulbe
gulbene
gulbenes
gulbis
gulbja
gulbji
gulbju
gule
guls
gulta
gultas
gultne
gultnes
gultni
guma
gumam
gumi
gumiem
gumijas
gums
gumu
gumus
gun
guna
gundars
gundega
guns
gunta
guntars
gunter
guntis
gurk
guru
gus
gusi
gustav
gustava
gustavo
gustavs
gustavu
gut
guva
guve
guvis
guvus
guvusi
guy
gvarde
gvardes
gvardi
gvatemala
gvia
gvido
gvineja
gvinejas
gyllenhal
gymnastics
h
ha
habarovskas
habilite
habla
habsburgu
hac
had
hadi
hadz
hagemeister
haiti
haizivis
haizivju
haizivs
half
hali
hall
halle
halles
halo
haloge
halucina
halucinoge
ham
hamburg
hamburga
hamburgas
hamilton
hamiltons
hamlets
han
hana
hand
handbook
handbuch
haniste
hanistes
hanna
hans
hansa
hansen
hansens
hanss
hantimansijska
hanu
hanzas
happy
haralds
hard
hare
harija
harijs
hariju
harju
harkivas
harkovas
harmony
harold
harolds
harper
harris
harrison
harry
hart
harta
hartknoch
hartmanis
hartu
harvard
harvey
has
hat
hate
hauards
havaju
havana
have
hawks
haza
hbo
hc
hcl
hd
he
head
health
heart
heat
heaven
heavy
heidelbergas
heincs
heine
heinrich
heinriha
heinrihs
heinrihu
heinz
heksadecima
hekta
hele
helikopteru
hell
helle
hello
helm
helmuts
help
helsinki
helsinkiem
helsinkos
helsinku
helvella
hemiptera
hemps
henri
henrija
henrijs
henriju
henriks
henry
hepati
her
herald
heraldikas
herba
herbert
herberts
hercegovina
hercegovinas
hercoga
hercogam
hercogiene
hercogiste
hercogistei
hercogistes
hercogisti
hercogs
hercogu
hercs
herdera
here
herisons
heriss
heritage
herman
hermanis
hermann
hermans
herme
hero
heroes
heroi
hers
hersonas
herzog
hes
hesenes
het
hf
hg
hi
hibri
hic
hidra
hidroelektrostacija
hidroelektrostacijas
hidrogra
hidroksi
hidrolize
hidrolog
hidrometeorolog
hie
hierarhija
hieroni
high
higher
higie
hill
hills
himalaju
hime
himna
himnas
himnu
hindi
hindu
hinduisma
hip
hiphopa
hipokra
hipote
hirs
his
hist
histoire
histolog
historia
historic
historical
historie
historiogra
history
hit
hiti
hitler
hitlera
hitlers
hitleru
hits
hitu
hiv
hju
hk
hl
hlora
hlori
hloru
hlter
hmel
ho
hockey
hodkevic
hodz
hofmanis
hofmans
hokeja
hokejista
hokejisti
hokejists
hokejistu
hokejs
hokeju
holande
holandes
holandies
hold
holding
holdings
hole
holesteri
holivuda
holivudas
holland
hollywood
holokausta
hols
holy
home
homo
homoseksua
honda
hondurasa
hong
honkonga
honkongas
honsju
hop
hope
hopkins
hora
horeogra
horizon
horizonta
hormona
hormonu
hornets
horns
horse
horva
hos
hose
hospita
host
hot
hotel
hotspur
hour
house
hovards
how
howard
hoyo
hp
hr
hroma
hromosomas
hromosomu
hronika
hronikas
hroniku
hroniska
hronolog
hrsg
hrus
hs
htm
html
http
https
htv
hu
huans
hudson
hugh
hughes
hugo
huma
human
humanita
humora
hun
hung
hungary
hunt
hunter
hupel
hurricanes
husi
hyperactivity
hypericum
hypoaspis
hz
i
ia
iaaf
ian
iana
ians
iauc
iba
ibc
ibe
ibi
ibm
ibn
ibrahims
ibsens
ibu
ibul
ic
ica
icas
iccf
ice
ices
ich
icins
ickis
ics
id
ida
ide
idea
ideja
idejas
ideju
identification
identifice
identifika
identifikators
identita
identity
ideolog
idra
idrina
idro
idru
idruma
idrums
idrumu
ie
ieapal
iebilda
iebru
iebruce
iebruka
iebrukt
iebrukuma
iebrukumam
iebrukums
iebrukumu
iebu
iec
iecava
iecavas
iece
iecel
iecels
iecelt
iecelta
iecelts
iecere
ieceres
iecieni
iecieti
iecirkn
iecirkni
iecirknis
iedala
iedali
iedarbi
iedarbina
iedarbojas
iedarbojoties
iede
iedibina
iedobe
iedoma
iedra
iedras
iedros
iedru
iedvesmas
iedvesmoja
iedz
iedzi
iedzieda
iedzimta
iedzivotaju
ieee
ieeja
ieejas
ieeju
ieg
iega
iegareni
iegrave
iegremde
iegu
iegulas
ieguldi
ieguva
ieguve
ieguvei
ieguves
ieguvi
ieguvis
ieguvus
ieguvusi
ieies
ieiet
ieinterese
iejauks
iek
ieka
iekaisuma
iekaisums
iekaisumu
iekaro
iekaroja
iekaros
iekarot
iekarota
iekarotaja
iekase
iekava
iekl
iekonserve
iekra
iekraus
iekrita
ieks
iekurkalna
iela
ielai
ielas
ielauza
ieleja
ielejas
ieleju
ieliekta
ielu
iem
iema
iemaksa
ieman
iemesla
iemesli
iemesliem
iemesls
iemeslu
iemi
iemu
ien
iena
ienaidnieka
ienaidnieki
ienaidniekiem
ienaidnieks
ienaidnieku
iene
ienes
ienesi
ieni
iepazi
iepazina
iepazinies
iepirks
iepirkumu
iepla
ieplaka
ieplakas
ieplu
iepreti
iepretim
ieprieks
iera
ierada
ieradies
ieradus
ieraksta
ieraksti
ierakstiem
ierakstos
ieraksts
ierakstu
ierakstus
ieras
ierasta
ierasties
ieraudzi
ierauga
iere
ieri
ieriem
ierik
ierindoja
ierindojas
ierindojies
ierindojoties
ierindojusies
ieris
ierobez
ieroc
ieroci
ierocis
ierodas
ierodoties
ierosina
ierosmes
ieru
ieruna
ierus
ies
iesa
iesaista
iesaisti
iesaistoties
iesaka
iesauca
iesauka
iesaukts
iesauku
iesila
ieskaite
ieskaiti
ieskaitot
ieskan
ieskats
ieskauj
iesle
iesli
ieslodzi
iesniedz
iesniedza
iesniegs
iesniegt
iesniegumu
iespaida
iespaidi
iespaidoja
iespaids
iespaidu
iespe
iespieda
iespies
iespiesta
iesta
iestati
iestiepjas
iestra
iestude
iesu
iesve
iet
ietami
ietaupi
iete
ieteica
ieteicams
ieteikts
ieteikuma
ieteikumi
ietek
ieteka
ietekai
ietekas
ietekme
ietekmes
ietekmi
ietekos
ietilpa
ietilpi
ietilpis
ietilpst
ietilpstos
ietrieca
ieture
ietvaros
ietve
ietver
ietverot
ietverta
ietverti
ietverto
ieva
ievada
ievades
ievadi
ievads
ievainoja
ievainojumu
ievainoti
ievainoto
ievainots
ievas
ievaza
ieve
ieveda
ieves
ievest
ievies
ieviesa
ieviesis
ieviest
ieviesta
ieviestas
ieviesti
ieviests
ievieto
ievietoja
ievietos
ievietot
ievietota
ievietoti
ievietots
ievin
ievirzes
ievu
iez
iezi
iezis
if
ifpi
ifre
ig
iga
igana
iganas
igaun
igaunija
igaunijai
igaunijas
igauniju
igauniski
igna
ignore
igo
igora
igors
igovas
iha
ihivas
ii
iihf
iii
ija
ijai
ijas
ijnovgorodas
ijs
iju
ik
ika
ikajas
ikas
ikaunieks
ikdiena
ikdienas
ikgade
iki
ikista
ikita
iknede
ikona
ikonas
ikonu
ikova
ikovs
ikp
ikri
ikru
ikrus
iks
iku
ikviena
ikvienam
ikviens
ikvienu
il
ila
ilbe
ilde
ildes
ile
iles
ilga
ilgaja
ilgas
ilggade
ilggadi
ilgi
ilglaici
ilgs
ilgst
ilgstos
ilgtermin
ilgtspe
ilgu
ilguma
ilgums
ilgumu
ilgus
ili
ilia
ilin
ilindz
ilinoisas
ilkn
illustrated
ilma
ilona
ilova
ilovs
ils
ilu
ilustra
ilustre
ilze
ilzes
ilzeskalna
im
ima
image
images
imago
imanta
imantas
imants
imas
imdb
imele
imen
imene
imenei
imenes
imeni
imigra
imigrantu
imijs
imite
immediate
imna
impact
impe
imperatora
imperatoram
imperatore
imperatori
imperators
imperatoru
imperia
implications
importa
importe
improviza
impulsa
impulss
impulsu
ims
imu
imunita
in
ina
inam
inas
inaturalist
inaugura
inc
incertae
inch
incidenta
including
indas
inde
indeksa
indekss
indeksu
independent
indes
index
indi
india
indian
indiana
indianapolis
indies
indija
indijas
indiju
indivi
individua
individual
indo
indoeiropies
indok
indone
indonesia
indra
indras
indrik
induce
indukcijas
indulis
industria
industrial
industrializa
industries
industrija
industrijas
industry
ine
ines
inese
ineta
infekcija
infekcijas
infekciju
infice
infla
inflantijas
info
informa
informati
information
informe
infraka
infrastruktu
infty
ing
inga
ingrada
ingradas
ingri
ingrijas
ingtona
ingtonas
ingtons
ingu
ingus
ini
inicia
iniciati
inieka
inieki
iniekiem
inieks
inieku
iniem
inisma
inkorpora
inku
inkuba
inmarsat
innovation
ino
inocents
inos
inot
inoties
inova
inovati
ins
insbruka
insc
inscene
insecta
inside
inska
inskas
inskis
inspekcija
inspekcijas
inspektors
inspektoru
instagram
instala
institu
institut
institute
institution
instrukcijas
instrukciju
instruktori
instruktoru
instrumenta
instrumenti
instrumentiem
instruments
instrumentu
instrumentus
insuli
insurance
int
inta
intars
integra
integrated
integre
integrita
intel
intelekta
intelekts
intelektua
intelig
intelligence
intelsat
intensi
intensita
inter
interactive
interakti
interes
interesanta
interesanti
interese
intereses
interesi
interjera
interjers
interjeru
interna
internaciona
international
internationale
internazionale
interne
internet
interneta
internets
internetu
interpreta
interprete
interscope
intertoto
interva
interview
intervija
intervijas
interzonal
inti
intij
intis
into
intona
introduce
introduction
ints
inu
inui
inus
inva
invali
invalidita
invasion
invazi
inventa
investe
investi
investors
investoru
inz
io
ioc
iona
ionam
ioni
ioniem
ionos
ions
ionu
ionus
ios
iozi
ip
ipa
iphone
ipod
ips
ipste
ipte
iptes
ipti
ipties
ipv
ir
ira
iran
iraq
iras
irbe
irbes
irbi
ird
irds
ire
ireland
iri
iridium
irina
irish
irklis
irkutskas
irlavas
irma
irn
irne
irnes
irni
iro
iroke
iron
iros
iroskopa
irot
irs
irt
irta
irtas
irti
irties
irto
irts
irtspe
irtu
iru
irurg
irurgs
irzaka
irzakas
is
isa
isakovs
isbn
ise
isejas
iska
iskais
iskaja
iskajiem
iskajos
iskas
iski
iskie
iskiem
isko
iskolata
iskos
isks
isku
iskus
isla
islam
islamic
island
islande
islanders
islandes
islandi
islandies
islands
islava
islavs
isma
isms
isnaudas
iso
isora
isore
isori
isoriem
isors
isoru
israel
isro
iss
issn
issue
issues
ist
istaba
istabas
istabu
istanbul
istat
istikas
istiska
istra
istras
istre
istrs
istru
istu
isu
it
ita
italia
italian
italiana
italy
itas
itf
iti
itis
itogorskas
itovskas
its
itunes
iu
iucn
iure
ius
iv
iva
ivan
ivana
ivanova
ivanovs
ivans
ivanu
ivara
ivars
ivas
iveta
ivo
ivrita
ix
iz
iza
izabella
izaicina
izaudze
izaug
izauga
izaugsme
izaugsmes
izaugsmi
izaugumi
izaugumiem
izaugums
izaugusi
izbe
izbeidza
izbeigs
izbeigt
izbeigta
izbrauca
izbrauks
izbraukuma
izbu
izce
izcel
izcels
izcelsme
izcelsmes
izcelsmi
izci
izcila
izcili
izciliem
izcils
izcilu
izcirs
izd
izdala
izdali
izdalot
izdara
izdari
izdarot
izde
izdemole
izdeva
izdeve
izdevi
izdevies
izdevis
izdevnieci
izdevuma
izdevumi
izdevumiem
izdevumos
izdevums
izdevumu
izdevumus
izdevusi
izdod
izdodas
izdodot
izdoma
izdos
izdot
izdota
izdotais
izdotaja
izdotas
izdoti
izdoto
izdots
izdze
izdzi
ize
izeja
izejas
izejot
izeju
izejviela
izejvielas
izejvielu
izforme
izga
izgatavo
izgatavoja
izgatavojis
izgatavos
izgatavot
izgatavota
izgatavotas
izgatavoti
izgatavots
izgla
izgli
izgudroja
izgudrojumu
izgudros
izgudrota
izi
izies
iziet
izjauca
izju
izjuka
izjuks
izka
izkaisi
izkl
izkla
izklaide
izklaides
izkli
izkliede
izkraus
izkri
izkrita
izla
izlaida
izlaidums
izlais
izlaist
izlaista
izlaistas
izlaisti
izlaists
izlaiz
izlas
izlase
izlasei
izlases
izlasi
izlaupi
izle
izlemj
izli
izlido
izliekta
izliekts
izloksne
izloze
izlu
izmain
izmaina
izmaini
izmaksa
izmaksas
izmaksu
izmanto
izmantoja
izmantojama
izmantojami
izmantojis
izmantojot
izmantojus
izmantos
izmantot
izmantota
izmantotais
izmantotas
izmantoti
izmantotie
izmantoto
izmantots
izmantotu
izme
izmekle
izmes
izmira
izmirs
izmirus
izmirusi
izmitina
izn
izna
izne
izni
iznoma
izola
izole
izome
izotopi
izotopu
izpa
izpauda
izpausme
izpausmes
izpausties
izpauz
izpe
izpelni
izpilda
izpilddirektors
izpilddirektoru
izpilde
izpildes
izpildi
izpildkomiteja
izpildkomitejas
izpildot
izpildvara
izpildvaras
izplata
izplati
izple
izples
izpletn
izplu
izposti
izprast
izpratne
izpratni
izra
izrae
izraidi
izraisa
izraisi
izraisot
izrakten
izrakumi
izrakumos
izrakumu
izrakumus
izraudzi
izre
izredze
izredzes
izriet
izrobota
izrok
izruna
izs
izsaka
izsauc
izsauca
izsaukts
izse
izsekos
izsi
izskaidro
izskaidrojams
izskaidrot
izskan
izskane
izskata
izskati
izskats
izskatu
izsle
izsludina
izsmalcina
izsniedza
izsniegs
izsole
izspe
izsta
izstaro
izstiepta
izstiepts
izstra
izsu
izte
iztece
izteica
izteiksme
izteiksmes
izteiksmi
izteikt
izteikta
izteiktas
izteikti
izteikts
izteiktu
iztek
izteka
iztekas
izti
iztikt
iztru
iztuks
izturas
izture
izturi
iztvaikos
izvadi
izvaira
izvairi
izvairoties
izvaltas
izvaros
izve
izveda
izveide
izveidei
izveides
izveidi
izveido
izveidoja
izveidojas
izveidojies
izveidojis
izveidojot
izveidojus
izveidojusi
izveidojusies
izveidos
izveidot
izveidota
izveidotaja
izveidotas
izveidoti
izveidoties
izveidoto
izveidots
izveidotu
izves
izvest
izvietoja
izvietojies
izvietojums
izvietojumu
izvietojus
izvietojusies
izvietos
izvietot
izvietota
izvietotas
izvietoti
izvietots
izvirduma
izvirdums
izvirza
izvirzi
izz
izzin
izzina
izzu
izzuda
izzudis
izzudus
izzudusi
izzus
j
ja
jacana
jack
jackets
jackson
jacob
jacques
jagail
jagailis
jagua
jahtu
jai
jais
jaka
jakob
jakobi
jakobs
jakovl
jakovs
jakutu
jam
jama
jamaika
jamaikas
jamais
jamaja
jamajiem
jamal
jamas
james
jami
jamie
jamiem
jamo
jamos
jams
jamu
jan
jana
jandzi
jane
jangs
jani
janic
janis
jans
jansone
jansons
janu
january
janus
janva
japa
japan
japanese
jaroslava
jaroslavl
jaroslavs
jas
jaslapa
jaslapas
jason
jau
jauda
jaudas
jaudi
jaudu
jaukta
jauktais
jauktaja
jauktas
jaukti
jaukto
jauktu
jauna
jaunai
jaunais
jaunaja
jaunajai
jaunajam
jaunajiem
jaunam
jaunas
jaunatkla
jaunatne
jaunatnes
jaunava
jaunavas
jaunbu
jaunciema
jaundibina
jaundzimus
jaungada
jaungulbenes
jaungvineja
jaungvinejas
jauni
jaunie
jauniem
jaunies
jaunieve
jaunina
jaunizveidota
jaunizveidotaja
jaunjelgavas
jaunlatvies
jaunmuiz
jauno
jaunos
jaunpiebalgas
jaunpils
jaunrade
jauns
jaunsa
jaunsaimnieci
jaunsudrabin
jaunu
jaunumi
jaunus
jaunva
jaunze
jauta
java
javas
jaxa
jay
jazz
jc
jciemi
jciems
jdarbi
jdzi
jdzirnavas
je
jean
jeb
jebka
jebkad
jebkura
jebkurai
jebkuram
jebkuras
jebkurs
jebkuru
jeff
jefferson
jeffrey
jehvi
jekaterina
jekaterinburga
jekaterinburgas
jel
jelgava
jelgavas
jelgavu
jemena
jemenas
jen
jennifer
jenots
jenotu
jens
jensens
jeremy
jerry
jersey
jersikas
jeruza
jeruzaleme
jeruzalemes
jes
jesen
jessica
jesus
jet
jets
jeva
jevge
jevgen
jevs
jeweils
jewish
jez
jezui
ji
jie
jiem
jiena
jienam
jienas
jieni
jieniem
jienos
jiens
jienu
jienus
jies
jim
jimmy
jin
jina
jinieki
jirgens
jirz
jis
jk
jma
jmuiz
jnieki
jniekiem
jnieku
jo
joachim
joahims
joannis
joda
jodu
joe
jogas
johan
johana
johanam
johann
johannes
johanness
johans
johansons
johanu
john
johnny
johns
johnson
join
joins
joint
jokerit
jokl
jolanta
joma
jomas
jomu
jon
jona
jonas
jonathan
jones
joni
joniem
jonis
joniza
jonize
jonosfe
jons
jonu
joproja
jorda
jordan
joreiz
jorkas
jorks
jos
jose
josef
joseph
josh
joshua
josifs
josla
joslas
joslu
josta
jostas
jostu
jot
joties
journal
journey
jozefa
jozefs
jpl
jputni
jputns
jputnu
jr
jrak
js
jsabiedri
jsaimnieci
jsiste
jskolota
json
jsonapi
jspe
jstor
ju
juan
jubileja
jubilejai
jubilejas
jubileju
judi
jugla
juglas
juhans
julajev
jules
julia
julian
julius
july
juma
jumam
jumava
jumi
jumiem
jumos
jump
jumprava
jumpravas
jums
jumta
jumts
jumtu
jumu
jumurdas
jumus
jun
jundzis
june
junior
junioriem
juniors
junioru
juno
jupiter
jupitera
jupiters
jura
juras
jurc
jurg
juri
juridiska
juridiskaja
juridiski
juridisko
jurija
jurijs
juris
jurisprudenci
jurista
jurists
juristu
jurja
jurka
jus
jusi
jusies
just
justi
justice
justin
justs
juta
juti
juventus
juzefs
jvalsti
jvalsts
jve
jvieta
jvietu
jzak
k
ka
kaba
kabata
kabel
kabeli
kabi
kabiles
kabineta
kabinets
kabinetu
kabpili
kabpils
kabs
kabsone
kabsons
kac
kad
kada
kadetu
kadik
kadra
kadri
kadru
kafejni
kafijas
kai
kaija
kaijas
kaiju
kaila
kailas
kaili
kails
kaimin
kaira
kairina
kairis
kais
kaisli
kaite
kaiti
kaives
kaja
kajai
kajam
kajiem
kajos
kak
kakadu
kakao
kakas
kakla
kakls
kaklu
kaktin
kal
kala
kalci
kalcija
kaldera
kale
kalenda
kalgari
kalibra
kalifa
kalifornija
kalifornijas
kalku
kalma
kalna
kalnaina
kalnamuiz
kalnciema
kalne
kalni
kalniem
kalniene
kalnies
kalnin
kalnos
kalnru
kalns
kalnu
kalnus
kalpa
kalpaka
kalpi
kalpo
kalpoja
kalpojis
kalpos
kalpot
kalpota
kalps
kalpu
kals
kalsnavas
kalte
kalupes
kalve
kalvenes
kalvi
kam
kama
kamais
kamaja
kamajai
kamajam
kamajiem
kamajos
kamanin
kamas
kamaz
kambari
kambaru
kambodz
kamc
kame
kamen
kamera
kameras
kamermu
kameru
kami
kamie
kamiel
kamielis
kamo
kamos
kampa
kampan
kamu
kan
kana
kanaliza
kanaveralas
kanc
kancele
kanceleja
kancelejas
kanclera
kanclers
kancleru
kandava
kandavas
kandida
kandidatu
kandide
kane
kangari
kangaru
kannu
kanoe
kanona
kanonize
kanta
kantona
kantora
kantri
kapa
kapacita
kapela
kapelas
kapelu
kapene
kapenes
kapi
kapiem
kapila
kapita
kapitula
kapitule
kaplavas
kaplic
kapos
kapra
kaps
kapse
kapsula
kapsulas
kaptein
kapteini
kapteinim
kapteinis
kapu
kapuci
kapulauks
kar
kara
karaba
karabahas
karac
karadarbi
karadienesta
karaga
karagu
karakug
karal
karali
karaliene
karalienes
karalieni
karalim
karalis
karaliska
karaliskais
karaliskaja
karalisko
karaliste
karalistei
karalistes
karalisti
karam
karanti
karas
karaskola
karaspe
karasta
karate
karava
karavadon
karavadonis
karavi
karbona
karbonska
kardina
kare
kareivi
kareivis
kareivji
kareivjiem
kareivju
kareivjus
karel
karels
karen
kari
kariem
karikatu
karin
karina
karjera
karjerai
karjeras
karjers
karjeru
karl
karla
karlo
karloss
karls
karlsons
karmena
karneva
karo
karoga
karogi
karogiem
karognese
karogs
karogu
karoja
karojos
karoli
karolingu
karos
karosta
karot
karota
karpa
karpatu
karpu
kars
karse
karsta
karstas
karsts
karstuma
karstums
karta
karte
kartes
karti
kartogra
kartote
kartupel
karu
karulis
karus
kas
kasa
kase
kases
kasi
kasjauns
kaska
kaspara
kaspars
kaspijas
kass
kastan
kaste
kasti
kastors
kastra
kastro
kastul
kasu
katala
kataloga
katalogs
katalonijas
katara
kataras
katastrofa
katastrofas
katastrofu
kate
katedra
katedrale
katedras
katedru
kategorija
kategorijas
kategoriju
katla
katlakalna
katoda
katol
katolis
katoliska
katra
katrai
katram
katras
katri
katrs
katru
kauc
kaudze
kaudzi
kauguru
kauja
kaujas
kaujinieki
kaujinieku
kauju
kauka
kaula
kauli
kauliem
kaulin
kauls
kaulu
kaulus
kaun
kaunatas
kauno
kaupo
kausa
kausam
kause
kausi
kausos
kauss
kausu
kausus
kausveida
kaut
kavale
kavalieris
kave
kaz
kaza
kazahsta
kazahu
kazakhstan
kazaki
kazaku
kazan
kazas
kazdangas
kazimira
kazimirs
kazino
kazu
kb
kbru
kc
kd
kdelfi
kdienesta
ke
kec
keep
keila
keilas
keins
keita
keith
keldis
kellija
kelly
kembridz
kemps
ken
kenedija
kenedijs
kenets
kenija
kenijas
kennedy
kenneth
kens
kenta
kentas
kenterberijas
kentuki
kepler
keramik
keramika
keramikas
kerc
keress
kerija
kerijas
kerijs
kes
kesko
ketlera
ketlers
ketri
kevic
kevin
kevins
kew
key
kf
kg
kh
khan
khl
khmeru
ki
kibo
kid
kids
kie
kiem
kija
kijas
kijeva
kijevas
kijiva
kijivas
kijivu
kiju
kill
killed
killer
kilogramiem
kilometra
kilometri
kilometriem
kilometrs
kilometru
kilometrus
kim
kima
kimi
kims
kina
kine
kinematogra
king
kinga
kingas
kingdom
kings
kino
kinoakade
kinoaktieris
kinofestiva
kinofilma
kinoinstitu
kinokome
kinooperators
kinoproducents
kinorez
kinostudija
kinostudijas
kinotea
kins
kinu
kipra
kipras
kira
kirchspiel
kirgi
kirgizsta
kirhens
kiri
kirik
kirilicas
kirils
kirova
kirs
kis
kiss
kit
kju
kk
kka
kl
kla
klaipe
klaja
klaka
klam
klana
klanu
klas
klase
klasei
klases
klasi
klasicisma
klasifice
klasifika
klasifikators
klasik
klasika
klasikas
klasiku
klasiska
klasiskais
klasiskaja
klasisko
klaudija
klaus
klausa
klausi
klauss
klaviere
klavieres
klavierspe
klavieru
kle
klein
kleinen
kleins
kleistu
klejota
klements
klenburga
klenburgas
klenes
klepus
kles
kli
kliem
klienta
klientam
klienti
klientiem
klients
klientu
klija
kliks
klimata
klimatiska
klimats
klimatu
klin
klins
klinti
klintis
klints
klips
klis
kloa
klods
klos
klostera
klosteri
klosteris
klosteru
klova
kls
klu
klub
kluba
klubam
klubi
klubiem
klubos
klubs
klubu
klubus
klus
klusa
klusais
klusaja
kluse
kluso
km
kmes
kn
kna
knab
kne
knes
kni
knicks
knight
knights
knis
knockout
know
knowledge
known
knuts
knvb
ko
koali
kobe
kobs
koc
koce
koch
kocin
koda
kode
kodeksa
kodekss
kodi
kodola
kodolieroc
kodols
kodolu
kods
kodu
koeficienta
koeficients
koeficientu
kofei
kogniti
koja
kojas
kojot
kojuma
kojums
kojumu
koka
kokai
kokapstra
kokars
koki
kokiem
kokl
kokle
kokles
kokmateria
koknese
kokneses
kokos
koks
koksne
koksnes
koksni
kokteil
koku
kokus
kokvilnas
kokza
kol
kola
kolc
kole
koledz
kolekcija
kolekcijas
kolekciju
kolekciona
kolekcione
kolekti
kolhoza
kolhozu
koli
kolibri
kolimas
kolin
kolins
kolinss
kolka
kolkas
kolona
kolonia
kolonija
kolonijas
koloniju
kolonisti
kolonistiem
kolonistu
koloniza
kolonize
kolonna
kolonnas
kolonnu
kolora
kols
kolumbija
kolumbijas
kolumbs
kolumbusas
koma
komanc
komanda
komandai
komandantu
komandas
komande
komandiera
komandieri
komandieriem
komandierim
komandieris
komandu
kombina
kombine
kombul
kome
komenta
komente
komercbanka
komercia
komercskola
komi
komik
komiksu
komisa
komisaria
komisija
komisijai
komisijas
komisiju
komiteja
komitejas
komiteju
komjaunatnes
kompa
kompakta
kompasa
kompensa
kompense
kompetence
kompetences
kompleksa
kompleksi
komplekss
kompleksu
komplekta
komplekte
komplekti
komplekts
komplektu
komplice
komplika
kompone
komponente
komponentes
komponenti
komponents
komponentu
komponista
komponiste
komponisti
komponists
komponistu
kompozi
komturs
komu
komuna
komunice
komunika
komunisma
komunisti
komunistiem
komunistiska
komunistiskaja
komunistisko
komunists
komunistu
komuta
kon
kona
konc
koncentra
koncentre
koncepcija
koncepcijas
koncepciju
konceptua
koncerta
koncerte
koncerti
koncertiem
koncertos
koncerts
koncerttu
koncertturneja
koncertu
koncertus
koncertza
koncila
koncils
kondensa
kondense
konditorejas
kone
konektikutas
konfedera
konferenc
konference
konferences
konferenci
konfesiju
konfigura
konfigure
konfisce
konflikta
konflikte
konflikti
konfliktiem
konflikts
konfliktu
konfliktus
konfu
kong
kongo
kongresa
kongress
kongresu
koni
konis
konjuga
konjuge
konkre
konkure
konkurence
konkurences
konkurenci
konkurentiem
konkurentu
konkursa
konkursam
konkursos
konkurss
konkursu
konors
konra
konrad
kons
konsekre
konservati
konservatorija
konservatorijas
konservu
konsole
konsoles
konsolide
konstante
konstanti
konstantinopole
konstantinopoles
konstantinopoli
konstate
konstitu
konstituciona
konstrue
konstrukcija
konstrukcijas
konstrukciju
konstrukti
konstruktors
konstruktoru
konsula
konsuls
konsulta
konsultants
konsultati
konsulte
konta
kontakta
kontakte
kontakti
kontakts
kontaktti
kontaktu
kontaktus
konteinerkug
konteineru
konteksta
kontinenta
kontinentos
kontinentu
kontiolahti
kontraste
kontrole
kontrolei
kontroles
kontroli
konts
kontu
konusa
konvencija
konvencijas
konvenciju
konventa
konvents
konverg
konversa
kooperati
koordina
koordine
kopa
kopas
kope
kopenha
kopgarums
kopi
kopiena
kopienai
kopienas
kopienu
kopija
kopijas
kopiju
koplietos
kopplati
kopraz
kops
kopsavilkums
kopskaita
kopsumma
kopu
kopuma
kopums
kopumu
kopuzn
kopvalsts
kopve
kora
koral
korc
kordirig
kordovas
korea
koreja
korejas
korejies
korekcijas
koresponde
korespondecs
korespondencs
kori
korig
korim
korinta
korintas
koris
kork
korn
korne
korol
korona
koronavi
korpora
korporati
korpusa
korpusi
korpuss
korpusu
korti
kortosta
koru
korupcijas
korupciju
kos
kosas
kosme
kosmiska
kosmiskais
kosmiskaja
kosmisko
kosmodroma
kosmonaute
kosmonauti
kosmonauts
kosmonautu
kosmopla
kosmos
kosmosa
kosova
kosovas
kosovo
kostarika
kostarikas
kosten
kosti
kot
kota
kotaja
kotas
kotdivua
kote
koti
koties
kotne
kotnes
kotni
kots
kotu
kounotori
kova
kovac
koval
kovas
kovic
kovs
koz
kp
kpe
kpfsr
kpi
kprogramma
kpv
kr
kra
krakova
krakovas
krama
krasi
krasnojarskas
krasta
krastam
krasti
krastiem
krastin
krastmala
krastos
krasts
krastu
krastus
krati
krauja
kraujas
kraukl
krauklis
krauze
krava
kravas
kravc
kravnesi
kravu
kre
krebs
kredi
kreigs
kreis
kreisa
kreisais
kreisaja
kreisi
kreiso
kreklin
kreml
kri
krietni
krievi
krieviem
krievija
krievijai
krievijas
krieviju
krievin
krieviski
krievs
krievu
krievvalodi
krievzeme
krievzemes
kriketa
krilovs
krima
krimas
krimina
krimu
krimuldas
kriptogra
kris
kriss
krista
kristalize
kristapa
kristaps
kristena
kristi
kristia
kristians
kristies
kristieti
kristina
kristofers
kristofs
kristu
kristus
krita
krite
kritik
kritika
kritikas
kritiku
kritis
kritiska
kritiski
kritisko
kritize
kritums
kritumu
kritus
kroders
kroga
krogs
kroka
kron
krona
kronbergs
krone
kroni
kronis
krons
kronvalda
kross
kru
krugosvet
krui
krupis
krupju
krusa
krusta
krusten
krusti
krustin
krustkna
krustnes
krustojas
krustojuma
krustojumam
krustojums
krustos
krustpili
krustpils
krusts
krustte
krustu
krusu
ks
ksi
ksies
ksla
kslai
kslas
ksli
ksliniece
kslinieces
kslinieci
kslinieciska
kslinieciskais
ksliniecisko
kslinieka
kslinieki
ksliniekiem
kslinieks
kslinieku
ksliniekus
kslu
ksme
ksmes
ksna
ksnas
ksne
ksnes
ksni
kst
ksta
kste
kstes
ksti
kstina
kston
kstone
kstoni
kstonis
kstos
kstoti
kstotis
ksts
kstu
kstums
kt
kta
ktas
kti
kties
ktiesi
kto
ktos
kts
ktu
ku
kuba
kuban
kubas
kubatko
kublinskis
kubu
kubulu
kuc
kuce
kug
kuja
kuka
kukain
kukainis
kuks
kukul
kukuru
kul
kula
kuldi
kulina
kulmina
kulta
kultive
kults
kultu
kultura
kuma
kumam
kumel
kumi
kumiem
kumos
kumposma
kums
kumskola
kumskolas
kumtauti
kumu
kumus
kun
kundze
kundzi
kundzin
kunga
kungs
kungu
kunigais
kunigaiti
kunigaitijas
kunigaitis
kupla
kupola
kupols
kur
kura
kurai
kuram
kuras
kurbads
kurdista
kurdu
kurel
kuri
kuriem
kurienes
kuril
kurina
kuris
kurkul
kurla
kurland
kurmenes
kurmis
kuros
kurs
kursa
kursas
kurse
kursi
kurskas
kursos
kurss
kursu
kursus
kurt
kurts
kuru
kurus
kurvi
kurvjziez
kurzeme
kurzemes
kurzemi
kus
kusalas
kusi
kusies
kustas
kuste
kusti
kuveita
kuveitas
kuzmins
kuzn
kv
kva
kvadra
kvalifice
kvalifika
kvalita
kvalitati
kvantitati
kvantu
kvarca
kvarta
kve
kvebeka
kvebekas
kvi
kvies
kw
kyiv
kz
l
la
lab
laba
labais
labaja
labas
labdari
labe
labi
labieka
labkla
labo
laboja
laboratorija
laboratorijas
laboratoriju
laboratory
labos
labpra
labs
labu
labuma
labumu
labus
labve
lac
lactarius
lada
ladies
lady
ladytron
laga
lagopus
lagu
lahti
lai
laici
laida
laidzes
laik
laika
laikam
laikapsta
laiki
laikiem
laikmeta
laikmetam
laikmeti
laikmets
laikmetu
laikos
laikposma
laikraksta
laikrakstam
laikraksti
laikrakstos
laikraksts
laikrakstu
laiks
laiku
laikus
laila
laima
laimas
laimdotas
laime
laimes
laimi
laimonis
laina
lais
laiva
laivas
laivu
laiz
laiza
laja
lajai
lajam
lajiem
lajos
lake
lakers
laks
lakstaugs
laksti
lakta
lam
lama
lamana
lamans
lamanti
lamas
lambda
lamerika
lamerikas
lamina
lamo
lampa
lampas
lampu
lams
lamu
lan
lancetiskas
land
lande
landes
landesve
landgu
landi
landmars
landra
lands
landscape
landta
lane
lang
lange
language
languages
lanius
laosa
lapa
lapas
lapblusin
lapc
lapin
lapkoku
lapmez
lappus
lappuse
lappuses
lapsa
lapsas
lapsen
lapsenes
lapstra
lapsu
lapu
large
largest
larisa
larry
lars
larsena
larsens
larss
larus
las
lasa
lasi
last
lasti
lasvegasa
lat
lata
late
latera
latest
latgal
latgale
latgales
latgalesdati
latgali
latgalies
latgaliski
latgolas
lati
latin
latreille
lattelecom
latu
latv
latva
latvenergo
latvia
latvian
latvies
latvieti
latvietis
latvija
latvijai
latvijas
latvijasdaba
latviju
latvis
latviska
latviski
latvju
laucienes
laucin
lauderu
lauka
laukakmen
lauki
laukiem
laukos
lauks
lauksaimnieci
lauksaimnieks
lauksaimnieku
lauku
laukuma
laukumi
laukumiem
laukums
laukumu
laukus
laula
lauli
lauma
launch
launches
laupi
laura
laurea
lauri
lauris
lauru
laus
lauva
lauvas
lauvron
lauvu
lauz
lauza
lava
lavas
lavi
lavin
lavs
law
lawrence
laws
laz
lazda
lazdin
lazdonas
lazdu
lazdukalna
lazio
lb
lberga
lbergs
lbl
lbrauce
lc
lcietuma
lcp
ld
lda
ldal
ldas
ldemokra
ldirekcija
ldirektora
ldirektors
lds
ldz
le
lead
leader
leaders
leaf
leafs
league
learning
leave
leaves
lec
led
leda
ledu
ledus
ledusla
lee
leeds
left
leg
lega
legacy
legal
legalize
legend
legends
legzdin
lei
leicester
leikoci
leiman
leimanis
leipciga
leipcigas
leipzig
leiropa
leiropas
leis
leitnanta
leitnants
leitnantu
leja
lejas
lejasciema
lejasdal
lejassile
lejin
lejpus
lejtece
lejteces
leju
lejup
lejupiela
lejupsli
lekcija
lekcijas
lekciju
leks
leksikons
lektors
lel
lelb
lelde
lelle
lelles
lelzter
lema
lemes
lemur
len
lena
lendz
lene
lenes
leningrad
lens
lenta
lente
lentes
lenti
leo
leona
leonard
leonardo
leonards
leonas
leoni
leons
leopard
leopards
leopold
leopolda
leopolds
lepidoptera
lepnums
lepus
lerijs
lers
les
lestenes
lesti
let
leta
letgal
letonika
letter
letters
lettischen
lettland
lettonia
letu
lev
level
levi
levits
lewis
lexikon
lez
lf
lfeldmars
lff
lfilma
lfilmas
lg
lgbt
lgia
lgra
lgubernatora
lgubernators
lgubernatoru
li
lia
liba
libe
libera
libertadores
liberty
library
liceja
licence
licences
licenci
licis
lidapara
lidija
lidlauka
lidlauks
lidlauku
lidmas
lido
lidoja
lidojos
lidojot
lidojuma
lidojumam
lidojumi
lidojumiem
lidojums
lidojumu
lidojumus
lidos
lidosta
lidostas
lidostu
lidot
lidota
lidsabiedri
lidspalvas
lidva
lie
lieci
liecina
liedza
lief
lieguma
liegums
liek
liekas
liekot
liela
lielai
lielais
lielaja
lielajai
lielajam
lielajiem
lielajos
lielam
lielas
lielauces
lielbrita
lielcel
lielciemi
lielciems
lieldienu
lielgabali
lielgabaliem
lielgabals
lielgabalu
lielgabalus
lielhercogs
lieli
lielie
lieliem
lielinieki
lieliniekiem
lielinieku
lieliska
lieliski
lielisks
lielisku
lielkn
liellopu
lielloz
lielmeistara
lielmeistare
lielmeistares
lielmeistari
lielmeistars
lielmeistaru
lielo
lielos
lielpilse
lielpolijas
liels
lielu
lieluma
lielumi
lielums
lielumu
lielupe
lielupes
lielupi
lielus
lielva
lielvalsti
lielvalsts
lielvalstu
lielvezi
liem
liena
liene
lienes
lienos
liepa
liepajniekiem
liepas
liepin
liepnas
liepu
liepupes
lies
liesma
liesmas
lieta
lietas
lietavas
lietderi
lietis
lieto
lietoja
lietojama
lietojis
lietojot
lietojuma
lietojumprogramma
lietojumprogrammas
lietojumprogrammu
lietojums
lietos
lietot
lietota
lietotas
lietoti
lietotne
lietotnes
lietots
lietu
lietus
lietusga
lietuva
lietuvai
lietuvas
lietuvies
lietuviski
lietuviu
lietuvos
lietuvosfutbolas
lietuvu
lietva
lieze
life
liga
light
lightning
lights
ligue
ligzda
ligzdai
ligzdas
ligzdo
ligzdojos
ligzdos
ligzdota
ligzdu
lihtens
lija
lijai
lijam
lijas
lijs
liju
lik
lika
like
likme
likmes
likmi
liks
likss
likt
likten
likteni
liktenis
likts
likuma
likumam
likumdeve
likumdos
likumi
likumiem
likumprojektu
likums
likumsakari
likumu
likumus
likvida
likvide
lil
lilija
lilijas
liliju
lilita
lille
lim
lima
limbaz
limited
limits
lin
lina
linards
linc
lincoln
linda
linde
line
linea
lines
linga
linin
link
linkolna
linkolns
linnaeus
lins
linu
linux
lion
liona
lionas
lions
lionsgate
lipa
lipi
lis
lisa
lisabona
lisabonas
liska
liski
lisko
lisks
lisku
lisma
lismam
lisms
lismu
list
lista
liste
listi
listiem
listika
listikas
listiska
listiskaja
listisko
listisku
lists
listu
listus
litenes
litera
literatu
literatura
literature
lithuania
lithuanian
litija
litogra
litru
little
liturg
liu
liuss
liv
livaldis
livalz
live
liverpool
liverpu
lives
living
livla
livland
livlands
livoniae
livonija
livonijas
livoniju
liza
lizpe
lizsta
lizuma
lje
lk
lkerung
lkok
lkomitejas
lkp
ll
llc
lle
lleitnants
ller
llieta
lloyd
llu
llvv
lma
lmajora
lmajors
lmajoru
lman
lmanis
lme
lmenedz
lmes
lmi
lmt
lmu
ln
lnb
lng
lniece
lnieci
lnieka
lnieki
lniekiem
lnieks
lnieku
lnk
lnnk
lnt
lo
lobe
loc
local
localities
locekl
locekle
locekli
loceklis
loci
lockheed
lode
lodes
lodi
lodveida
lodzas
lodze
log
loga
logi
logiem
logistics
logo
logos
logs
logu
loids
loja
lojalita
lojis
lojot
lojums
lojumu
lojusi
lok
loka
lokalize
lokam
lokati
lokauta
loki
lokomoti
lokomotiv
loks
loku
lolita
loma
lomai
lomas
lomonosova
lomu
lon
london
londona
londonas
londonu
lonely
long
loni
lonis
look
lopbari
lopess
lopkopi
lopu
lora
lord
lords
lore
lorencs
lorensa
lorenss
los
losandz
loss
lost
lot
lota
lotas
loti
loties
lots
lotus
louis
louise
love
low
loz
loze
lp
lpasuga
lpili
lpils
lpp
lpsr
lr
lreiz
lrun
lrunis
ls
lsabiedri
lscena
lsd
lsdsp
lse
lsekreta
lsirdi
lskola
lsm
lsocia
lspe
lspr
lsska
lsu
lt
ltd
ltf
ltirgus
lturni
ltv
lu
lua
luba
lubus
luc
luca
lucas
ludmila
ludviga
ludvigs
ludwig
ludza
ludzas
luftwaffe
luga
lugas
lugaz
lugu
luhanskas
lui
luidz
luija
luijs
luis
luisa
luiss
luizia
luka
lukas
luke
luks
luksemburga
luksemburgas
luksemburgu
luksusa
luma
lumi
lumos
lums
lumu
lumus
lun
luna
lunar
lunda
lundas
lupus
lursoft
lus
lusies
lut
lutera
luteriska
luters
lutertici
lutrin
lutzomyia
luz
luzula
lv
lveida
lvg
lvgmc
lvi
lvportals
lvtop
lvu
lvva
lycaena
lyga
lynx
lyon
lza
lzs
m
ma
mac
macdonald
machine
macmillan
macrosiphoniella
mad
madagaskara
madagaskaras
madara
made
madlienas
madona
madonas
madonna
madonnas
madrid
madride
madrides
mag
magazi
magazin
magazine
magdale
magdeburgas
magela
magic
magn
magna
magne
magnetic
magnija
magnus
magnusa
magnuss
maha
mahers
mai
maiami
maiga
maija
maijam
maijs
maiju
maikla
maikls
maiklu
maiks
mail
main
maina
mainas
maini
mainot
mainoties
mais
maisi
maisin
maitas
maitu
maize
maizes
maizi
maja
majesta
majiem
major
majora
majors
majoru
mak
maka
makdonalds
make
makes
making
mako
makrel
makrofi
maks
maksa
maksas
maksima
maksimilia
maksims
maksimums
maksimumu
maksis
makslinieki
makss
maksts
maksu
mal
mala
malaizija
malaizijas
malajas
malajies
malas
malaysia
maldi
maldina
male
mali
malienas
malin
mallon
malme
malnavas
malta
maltas
malti
malties
maltu
malu
mam
mamma
mammal
mammals
man
mana
manado
management
manager
manas
manc
manchester
manda
mandz
mane
manevre
manevrs
manevru
manevrus
manga
mangal
mango
mani
manifesta
manifestu
manila
manipula
manipulatoru
manipule
manis
mann
manna
manns
mans
mansards
manta
mantas
mantijas
mantinieki
mantinieks
mantinieku
mantoja
mantojuma
mantojums
mantojumu
mantos
mantu
manu
manua
manual
manuel
manuels
manufaktu
many
mao
map
maple
maps
mar
mara
marathon
maratona
maratons
marc
marcel
march
marco
marcus
mare
mareks
marg
margaret
margarita
mari
maria
marians
marie
marihua
marija
marijai
marijas
marijs
mariju
marina
marine
mariner
mario
maritime
mariupoles
mark
marka
markas
market
marketing
markgra
marko
marks
marksa
marksisma
markss
marku
markus
markuss
marmora
maroka
marokas
mars
marsa
marseille
marsel
marsels
marshall
marss
marsu
marta
martam
martas
marte
martes
marti
martin
martina
martins
marts
martu
marvel
mary
mas
masa
masac
masas
mashke
masi
maska
maskare
maskas
maskava
maskavas
maskavijas
maskavu
maske
masku
mass
master
masters
mastu
masu
masveida
masveidi
mata
matai
matas
match
matches
mate
mateja
matema
materia
materialien
materials
mathbb
mathbf
mathematical
mathematics
mathrm
mati
matiass
matiem
matin
matizdeve
matnieci
matojums
matra
matrica
matricas
matricu
matrikula
matrix
matroz
mats
matt
matthew
matu
matus
matvedi
mauri
maurice
maurin
maurita
mauritius
mavericks
max
maxima
may
maya
maz
maza
mazais
mazaja
mazajiem
mazapdzi
mazas
mazbe
mazciemi
mazciems
mazda
mazde
mazga
mazgadi
mazi
mazie
maziem
mazina
mazjumpravas
mazliet
mazo
mazos
mazovijas
mazpilse
mazpolijas
mazs
mazsalaca
mazsalacas
mazspe
mazu
mazul
mazuli
mazulis
mazumtirdznieci
mazus
mazve
mb
mbit
mbox
mc
mcels
mcfarland
mcgraw
mclaren
md
me
mean
measat
mec
mecena
med
medal
medi
media
medic
medical
medici
medicine
medieval
mediji
medijos
medijs
mediju
medik
medikamenti
medikamentu
medin
medita
medium
medma
medn
mednieki
mednieks
mednieku
mednis
medu
medumu
medus
medvedevs
medz
medzes
meet
meeting
meg
meha
mehanize
mehiko
mehmeda
mehmeds
mei
meiere
meierovica
meierovics
meiers
meinards
meinas
meira
meisons
meistara
meistare
meistares
meistari
meistariem
meistars
meistarsaci
meistaru
meita
meitai
meitas
meitasuzn
meiten
meitene
meitenes
meiteni
meitin
meitu
mejs
mekl
mekle
mekli
meksika
meksikas
meksiku
mel
mela
melba
melburna
meldri
mele
meles
meli
meliora
melis
melitaea
melluz
melna
melnais
melnaja
melnajiem
melnas
melngail
melngailis
melngalvas
melngalvju
melni
melnie
melniem
melnkalne
melnkalnes
melno
melns
melnsila
melnu
melo
melodija
melodijas
melodiju
members
membra
memoranda
memoria
memorial
memoriam
memory
memua
men
mena
menas
mendel
mene
menedz
menes
meni
menim
menis
mens
menstrua
menta
menu
mer
mera
mercedes
mercury
meri
merida
meridia
merienas
merk
merku
merkura
meromyza
mers
mes
mesi
meslus
message
messier
mesto
mestra
mestri
mestris
mestrs
mestru
met
meta
metacritic
metal
metallica
metallurg
metalurg
metalurgs
mete
meteo
meteor
meteori
meteorolog
meteostacija
method
methods
meti
metiem
metiena
metiens
metienu
metienus
metina
metju
metode
metodes
metodi
metodolog
metoz
metra
metres
metri
metriem
metro
metropoles
metropoli
metropolijas
metropolitan
metropolite
metros
metrs
metru
metrus
mets
metso
metta
metu
metus
mexico
meyer
mez
mezgla
mezgli
mezgliem
mezgls
mezglu
mezopota
mg
mga
mhz
mi
mia
mic
michael
michel
michigan
micron
microsoft
mid
middle
mie
miega
miem
mieni
mieniem
miens
mienu
mienus
miera
mieri
mierlauks
miermi
miers
mieru
miervaldis
mies
miesas
miesta
miests
miez
miezis
mig
miga
migels
mighty
migla
miglas
migra
migration
migre
migu
miguel
mihaels
mihaila
mihails
mihailu
mija
mijai
mijas
mijiedarbi
miju
mik
mika
mike
mikelandz
mikologu
mikorizas
mikroautobusu
mikrobiolog
mikrofona
mikrofons
mikrone
mikroorganismi
mikroorganismu
mikrorajona
mikrorajons
mikroshe
mikrovil
miks
mikse
mil
mila
milan
milans
milda
mile
miles
miley
milicijas
milita
military
milj
miljardi
miljardiem
miljardu
miljardus
miljona
miljoni
miljoniem
miljonos
miljons
miljonu
miljonus
miller
millera
millere
millers
million
mills
milos
miltu
milvoki
milz
milzi
milzu
min
mina
minami
mind
mindat
mindauga
mindaugs
mine
minera
mineralog
minesotas
minhene
minhenes
mini
miniatu
minima
minimums
miniseria
minister
ministra
ministram
ministre
ministres
ministri
ministriem
ministrija
ministrijai
ministrijas
ministriju
ministrs
ministru
ministry
minor
minora
minorita
minsk
minska
minskas
minu
mioce
miokarda
mir
mira
miranda
miras
mirdza
mirdzas
mirdzos
mire
mires
miris
mirkl
mirkli
miron
miroslavs
mirror
mirs
mirst
mirsti
mirt
mirus
mirusi
mis
misa
misas
misija
misijas
misiju
misin
misiona
misisipi
miska
miskais
miskaja
miskas
miski
miskie
misko
miskos
misku
miss
mission
miste
misters
misti
mistik
mists
mistu
misu
mit
mita
mitau
mitina
mitis
mitochondrial
mitolog
mitra
mitras
mitros
mitrs
mitruma
mitrums
mitrumu
mits
mix
mixed
miza
mizas
mizloz
mizu
mja
mjanma
mjanmas
mju
mk
ml
mlb
mlj
mls
mm
mn
mo
mobila
mobilais
mobilaja
mobile
mobiliza
mobilize
mobilo
mocarta
mocarts
modas
mode
model
modele
modeli
modelim
modelis
models
modenas
modern
moderna
modernaja
modernisma
moderniza
modernize
moderno
modernu
modes
modifice
modifika
modo
modris
modul
modula
module
moduli
modulis
mogil
mogo
mojo
moks
mol
mola
molda
moldova
moldovas
molecular
molekula
molekulas
molekulu
moli
molnija
molotova
molotovs
mols
molu
momenta
moments
momentu
mon
mona
monaco
monako
monarhija
monarhijas
monarhiju
monarhs
monarhu
monatsende
monde
mone
moneta
money
mongol
mongolija
mongolijas
monika
monitor
monoga
monogra
monoli
monrea
monro
mons
monta
montana
monte
month
montre
monumenta
moon
moore
mora
more
moreno
mores
morfolog
morgan
morgans
morics
morisa
moriss
morning
morris
mors
mos
mosa
moscow
moss
most
mother
moti
motion
motiva
motive
moto
motociklu
motokrosa
motor
motora
motorize
motorola
motors
motorsport
motoru
mount
mountain
move
movement
movie
movies
mozai
mozambika
mozambikas
mozus
mp
mr
mredzot
ms
msala
msalas
mstislavic
mstislavs
mt
mtv
mu
muca
much
mudina
mugura
muguras
mugure
mugurkaula
mugurkaulniekiem
mugurkaulnieku
mugurpuse
muguru
muhameda
muhameds
muitas
muiz
muktupa
mul
mulsant
multi
multimediju
multiple
multivides
muma
mumam
mumi
mumiem
mumos
mums
mumu
mumus
mun
muni
munich
municipa
municipalita
munzu
mura
murads
murder
murja
murmastienes
murray
mus
muse
museum
mushrooms
musi
music
muskul
muskulatu
musoli
must
mustafa
mustela
musulman
muta
mute
mutes
muti
mutva
muzeja
muzejam
muzeji
muzejs
muzeju
muzic
muzice
muzika
mv
mvp
mw
mx
my
mycobank
myspace
mysql
n
na
naba
nabadzi
nach
nachrichten
naciona
nacional
nacionaliza
nacionalize
nacisti
nacistiska
nacistu
nad
nadez
nafta
naftas
naftu
nagano
nagi
nagiem
nagl
nai
naidi
nails
nais
naja
najiem
naks
nakti
naktis
nakts
nal
nam
nama
namam
name
named
nameja
names
nami
namin
nams
namu
nan
nana
nancy
nano
nanopavadon
nantes
napoleona
napoleons
napoleonu
napoli
narkotiku
narod
naruto
narva
narvas
nas
nasa
nasaspaceflight
nasdaq
nash
nat
nata
nation
national
nationalanthems
nations
native
nato
natura
natural
nature
nauda
naudas
naudu
naujenes
nauks
nauris
nauru
nautre
nav
naval
naviga
navigation
naz
naza
nazi
nba
nbc
nberga
nbergs
nbs
nbu
nc
ncaa
ncbi
ncensi
nchen
ncis
nd
nde
ndez
ndische
ndischen
ne
nea
neaizsarga
neapbrun
neapdzi
neapmierina
neapole
neapoles
neaps
neapstiprina
neapstra
neapzina
near
neatbalsta
neatbalsti
neatbilst
neatbilstos
neatka
neatkari
neatkla
neatl
neatlaidi
neatliekama
neatn
neatrodas
neats
neatsta
neatti
neatzi
neatzina
neaugli
nebalsi
nebija
nebri
nebu
nec
nedala
nedarbojas
nedaudz
nede
nederi
nedeva
nedri
nedros
nedz
nedzi
nedzirdi
nee
need
neefekti
neeksiste
neesami
neesos
neesot
nefinis
neforma
negadi
negaidi
negaisa
negaisi
negaiss
negaisu
negati
negribe
neguva
neherme
nei
neiders
neieguva
neiekl
neierobez
neiesaisti
neiespe
neietekme
neietilpst
neieve
neiks
neil
neilands
neilga
neilgi
neilgu
neimanis
neinere
neirolog
neironu
neis
neitra
neitralita
neitralize
neitronu
neizbe
neizci
neizdeva
neizdodas
neizmanto
neizs
nejaus
nek
neka
nekad
nekaiti
nekas
nekave
nekl
nekla
neko
nekontrole
nekropole
nekta
nekur
nekustama
nekustamo
nekusti
nekvalifice
nel
nelabve
nelaime
nelaimes
nelaimi
nelega
neli
neliela
nelielas
nelieli
nelieliem
nelielo
nelielos
neliels
nelielu
nelielus
nelieto
nelikumi
nellija
neloka
nelson
nelsons
nema
nemaina
nemaini
nemaz
neme
nemieri
nemieriem
nemiernieki
nemiernieku
nemieru
nemirsti
nemiti
nemunas
nen
nenotiek
nenotika
nenove
nenozi
neo
neoficia
neogotikas
neoklasicisma
neoli
neorganiska
nepa
nepabeidza
nepabeigta
nepakl
nepara
neparasta
neparasti
neparedze
nepareiza
nepareizi
nepareizs
nepaspe
nepasta
nepati
nepatika
nepazi
nepiecies
nepiedala
nepiedali
nepieder
nepiekrita
nepiel
nepieme
nepien
nepieredze
nepies
nepiesa
nepietiekama
nepietiekami
nepilna
nepilngadi
nepilni
nepilnu
nepilson
nepla
nepra
nepreci
neptu
neptune
neputns
nerada
neraksturi
neraugoties
neredze
neredzi
neregula
nerelig
nereta
neretas
nereti
neru
neruna
nervu
nes
nesa
nesaisti
nesan
nesaskan
nesasniedza
nesatur
nese
nesekmi
nesen
nesena
nesi
nesim
nesis
neskaidra
neskaidri
neskaita
neskaitot
neskatoties
nesos
nespe
ness
nest
nesta
nestabila
nestabilita
nestarte
neste
nestra
nesus
net
neta
netaisni
netflix
netherlands
neti
netiek
neties
netika
netiks
netiktu
netradiciona
netrauce
nets
neturpina
network
networks
neu
neue
neuhof
neuzbruks
neuztici
nevada
nevaini
nevajadze
nevajadzi
nevalstiska
nevar
nevare
nevari
neve
neveido
neveiksme
neveiksmes
neveiksmi
never
neviena
nevienai
nevienam
nevienas
nevienli
nevienme
neviens
nevienu
nevis
new
newcastle
news
newton
next
nez
neza
nezaude
nezin
nezina
nezu
nfl
ng
nh
nhl
ni
nica
nice
nicholas
nick
nicolas
nicole
nie
niece
nieci
niedra
niedras
niedre
niedres
niedru
nieka
niekam
nieki
niekiem
nieks
nieku
niekus
nielsen
niem
niere
nieres
nieru
nies
niete
nige
night
nightwish
nigra
nigsberga
nigsbergas
nih
nija
nijai
nijam
nijas
nijs
niju
nik
nika
nikaragva
nikaragvas
nikas
niko
nikola
nikolaja
nikolajam
nikolajs
nikolaju
nikolass
nikoti
niks
niksa
niksas
niksons
nikss
niku
nils
nim
nimfas
nin
nina
nine
ninja
nino
nintendo
nire
nirnberga
nirnbergas
nirs
nirzas
nis
niska
niskais
niskaja
niskas
niski
niskie
nisko
nisku
nisma
nismi
nismiem
nisms
nismu
nismus
nissan
nists
nistu
nitra
nitri
nk
nkvd
nl
nle
nm
nmete
no
noa
noaa
noah
noapal
nobalsoja
nobalsos
nobalsot
nobel
nobela
nobelprize
nobi
noble
nobrauciena
nobriedus
nocietina
nodal
nodala
nodali
nodarbi
nodarbina
nodarboja
nodarbojas
nodarbojies
nodarbos
nodarboties
nodari
node
nodedzina
nodega
noder
noderi
nodeva
nodevas
nodeve
nodevi
nodevu
nodibina
nodibinot
nodod
nododot
nodokl
nodokli
nodoklis
nodomu
nodos
nodot
nodota
nodotas
nodoti
nodots
nodros
nodzi
noe
noforme
nofotografe
noga
nogale
nogales
nogalina
nogalinot
noglaba
nogremde
nogriez
nogrima
nogu
noguldi
nogulsne
nogulumi
nogulumiem
nogulumiez
nogulumos
nogulumu
noir
noja
nojauca
nojauks
nojaukt
nojaukta
nojauktas
nojuma
nojume
nojums
nojumu
nok
noka
nokarte
nokia
nokl
nokla
noklausi
nokluse
nokra
nokri
nokris
nokrita
nola
nolaida
nolais
nolaiz
nolasa
nolasi
nolaupi
nole
nolemj
nolemts
noli
noliedz
noliedza
nolija
nolika
noliktava
noliktavas
noliktavu
nolikums
nolu
noma
nomadu
nomain
nomaina
nomaini
nomainot
nomal
nomale
nomas
nome
nomedi
nomenklatu
nometina
nometn
nometne
nometnes
nometni
nometnieki
nomierina
nomina
nominati
nominations
nomine
nomira
nomirst
non
nona
noorganize
nope
nopelni
nopelniem
nopelnot
nopelnu
nopietna
nopietnas
nopietni
nopietns
nopietnu
nopirka
nopirkt
nopirkts
noplu
noposti
nora
noraida
noraidi
noraksti
nord
norden
nordens
nordic
nordik
nore
noregule
norfolkas
nori
noris
norise
norises
norisi
norisina
norit
norite
norma
normai
normalize
norman
normandijas
normans
normas
normati
normu
normunds
norobez
norris
north
northern
norton
norve
norway
norwegian
nos
nosaci
nosaka
nosakot
nosarga
nosauc
nosauca
nosaucis
nosaucot
nosaukt
nosaukta
nosauktas
nosaukti
nosaukto
nosaukts
nosaukuma
nosaukumam
nosaukumi
nosaukumiem
nosaukumos
nosaukums
nosaukumu
nosaukumus
nose
nosedz
noskaidro
noskaidroja
noskaidros
noskaidrot
noskaidroti
noskaidrots
noskaidrotu
noskan
noskati
nosle
nosli
nosodi
nospe
nost
nosta
nostabilize
nostiprina
nostra
nosu
nosusina
not
nota
notais
notas
note
notece
noteces
noteica
noteice
noteicos
noteiks
noteikt
noteikta
noteiktaja
noteiktas
noteikti
noteiktiem
noteikto
noteiktos
noteikts
noteiktu
noteikumi
noteikumiem
noteikumos
noteikums
noteikumu
noteikumus
noteku
notes
nothing
noti
noticis
notiek
notiekos
noties
notiesa
notika
notiks
notikt
notiktu
notikuma
notikumi
notikumiem
notikumos
notikums
notikumu
notikumus
notikus
notikusi
notis
noto
nots
notu
notur
noture
noturi
nov
nova
novada
novadam
novadi
novadiem
novadnieku
novados
novadpe
novads
novadu
novadus
novaja
nove
novecojis
novecojus
novecojusi
noved
noveda
novel
novele
noveles
november
novembra
novembri
novembrim
novembris
novest
novgoroda
novgorodas
novgorodu
novi
novickis
novieto
novietoja
novietojuma
novietojums
novietot
novietota
novietotas
novietoti
novietots
noviks
novirze
novirzes
novirzi
novosibirskas
now
noz
nozare
nozares
nozari
nozaru
nozi
noziedzi
noziedznieks
noziedznieku
nozieguma
noziegumi
noziegumiem
noziegums
noziegumu
npu
nr
nra
ns
nsdap
nsiss
nsiste
nska
nss
nt
nta
nten
nts
nu
nuclear
nuggets
nulle
nulles
nulli
numa
number
numbers
numera
nums
numu
numura
numuri
numurs
numuru
numurus
nus
nuss
nveida
nveidi
nvo
nvs
ny
nyc
nytimes
nz
o
oa
obama
obas
objekta
objektam
objekti
objektiem
objekts
objektu
objektus
obliga
obr
obri
observations
observatorija
observatorijas
observatoriju
observatory
observer
obss
oc
ocean
och
oclc
october
oda
ode
oder
oderas
odes
odesa
odesas
odien
odienas
odin
odiseja
odu
odz
odze
odzes
oels
oenanthe
of
ofensi
off
office
official
oficia
og
oga
ogad
ogas
ogimet
ogists
ogl
ogle
oglekl
ogles
ogota
ogre
ogres
ogs
ogu
oh
ohaio
oil
oilers
ois
oiseaux
oja
ojama
ojas
ojis
ojos
ojot
ojuma
ojumam
ojumi
ojumiem
ojumos
ojums
ojumu
ojumus
ojus
ojusi
ok
oka
oke
okea
okeanogra
okl
okli
okola
okres
oks
oksforda
oksfordas
oksi
okside
okta
oktavia
oktobra
oktobri
oktobrim
oktobris
oku
okupa
okupe
ol
ola
olafs
olaine
olaines
olas
olbaltumviela
olbaltumvielas
olbaltumvielu
old
ole
olga
olgas
oli
olimpbase
olimpia
olimpiade
olimpija
olimpiska
olimpiskais
olimpiskaja
olimpiskajos
olimpiskie
olimpisko
olin
oliveira
oliver
olivers
olivje
olni
ols
olu
olveida
olveidi
olympedia
olympiacos
olympiad
olympiads
olympians
olympic
olympics
olympique
om
oma
omega
omon
omskas
omx
on
ona
onam
onas
onatans
once
one
oni
onijs
onkolog
online
only
ono
ons
onsa
onsona
onsons
onss
onta
onu
op
ope
opel
open
opengl
opening
opera
operas
operati
operation
operations
operatora
operatori
operatorname
operators
operatoru
operdzieda
opere
operetes
opertea
operu
opoles
opozi
ops
optika
optima
optimize
optiska
optisko
opus
or
ora
oracle
orange
oranz
oras
orators
orbi
orbit
orbita
orbital
orbiter
orda
ordans
ordas
orden
ordeni
ordenim
ordenis
order
ordina
ordine
ordovika
ordz
ore
oreiz
orenburgas
org
orga
organisation
organiska
organiskaja
organisko
organisma
organismi
organismiem
organisms
organismu
organiza
organization
organizatori
organizators
organize
organoi
orhideju
ori
orienta
orientalis
oriente
orig
origin
original
origins
orion
ork
orka
orlando
orlas
orlea
orman
ornajas
ornamente
ornitofaunistika
ornitolog
ornobil
ors
ortodoksa
ortogra
ortope
oru
orz
os
oscar
oscars
oseja
osejas
oseju
oseti
osi
osis
oskar
oskara
oskars
oskaru
oslo
osman
osmans
osp
osta
ostakovic
ostapenko
ostas
ostina
ostlandes
ostrovas
ostrovskis
ostsee
ostu
osu
osvalds
ot
ota
otais
otaja
otajiem
otajos
otas
otavas
otepe
other
oti
otie
otiem
oties
otne
otnes
otni
oto
otos
otra
otrai
otrais
otraja
otrajai
otrajam
otram
otras
otrdiena
otrie
otrka
otro
otrpus
otrreiz
otrs
otru
ots
otter
otto
otu
otus
ou
ouens
oulu
our
out
ova
ovam
ovanni
ovas
over
overview
ovi
ovis
ovos
ovs
ovu
owen
owl
own
oxford
oy
oyj
oz
ozefa
ozefs
ozola
ozolaines
ozoli
ozoliem
ozolin
ozolmuiz
ozolnieku
ozols
ozolu
p
pa
paa
paaudz
paaudze
paaudzes
paaudzi
paaugstina
paaugstinot
pabaz
pabe
pabeidz
pabeidza
pabeidzis
pabeigs
pabeigt
pabeigta
pabeigti
pabeigts
pabeigusi
pablo
pac
pace
pacel
pacels
pacelt
pacelta
pacelties
pacepli
pacers
pacienta
pacienti
pacientiem
pacientu
pacific
padara
padari
padarot
padeva
padomdeve
padome
padomei
padomes
padomi
padomju
padomnieks
padomnieku
pados
padoties
padsmit
padsmita
padures
padzi
padzil
padzina
pae
paegle
pag
paga
pagaida
pagaidu
pagalma
pagalms
pagalmu
pagarina
pagasta
pagastam
pagasti
pagastiem
pagastos
pagasts
pagastskola
pagastu
pagastus
pagatavos
page
pages
pagla
pagodina
pagraba
pagri
pagriez
pagrieziena
pagu
pahars
paiet
paju
paka
pakakle
pakal
pakalna
pakalnu
pakalpojuma
pakalpojumi
pakalpojumiem
pakalpojums
pakalpojumu
pakalpojumus
pakaus
pakes
pakete
paketes
paketi
pakista
pakl
pakla
paklausi
pakta
pakts
paktu
pal
pala
palace
palaida
palais
palaist
palaista
palaisti
palaists
palaiz
palangas
paldiski
pale
paleoli
paleontolog
palermo
palesti
pali
palicis
paliek
palieka
paliekas
paliekos
paliekot
palielina
palielinot
palielinoties
paliene
palienes
palika
paliks
palikt
palikus
palikusi
pallas
palma
palmas
palmer
palmu
palsmanes
palu
pama
pamana
pamani
pamata
pamatakmens
pamati
pamatiedzi
pamatiem
pamatiez
pamatizgli
pamatkapita
pamatkra
pamatlice
pamatlielumi
pamatne
pamatnes
pamatni
pamatoja
pamatojot
pamatojoties
pamatoti
pamatraksts
pamats
pamatsasta
pamatskola
pamatskolas
pamatskolu
pamatu
pamatus
pamatva
pamaza
pamazina
pamela
pamest
pamesta
pamests
pamet
pameta
pametis
pametus
pamez
pami
pamiera
pamiers
pamieru
pamira
pampa
pamudina
pan
pana
panama
panamas
panamerikas
panda
pande
panel
paneve
pani
pankroka
panku
panora
pansiona
panta
panthera
panthers
pants
pantu
panzer
paolo
papagail
paparz
pape
paper
papers
papes
papi
papildina
papildinot
papildlaika
papildspe
papildu
papildus
paplas
papua
par
para
paradi
paradise
paragvaja
paragvajas
paraksta
paraksti
parakstot
parakstu
parale
parali
paralize
parameters
parametri
parametriem
parametrs
parametru
parametrus
paramilita
paramore
paramount
paras
parasta
parastais
parastaja
parasti
parastie
parasto
parasts
parauga
paraugi
paraugiem
paraugs
paraugu
paraugus
paraz
parazi
parazite
paredz
paredze
paredzot
pareg
pareiza
pareizi
pareizraksti
pareizs
pareiztici
pareizu
parex
pari
paris
park
parka
parkam
parker
parki
parkos
parks
parku
parlamenta
parlamentam
parlaments
parlamentu
parliament
parma
pars
part
partial
partija
partijai
partijas
partiju
partiza
partizan
partneri
partneriem
partneris
partners
partneru
party
paru
pas
pasa
pasaka
pasakas
pasaku
pasarga
pasaule
pasaulei
pasaules
pasauli
pasaz
pascal
pase
pasi
pasienes
paska
paskaidrojuma
pasle
pasliktina
pasludina
pasniedz
pasniedza
pasniedze
pasniegs
pasniegt
pasniegta
pasniegtas
paspa
paspe
pass
past
pasta
pastaiga
pastiprina
pastor
pastora
pasts
pastu
pasu
pasuga
pasugas
pasugu
pat
pate
pateica
pateici
pateicoties
pateikt
patente
patents
patentu
path
pati
patients
paties
patiesa
patiesais
patiesi
patieso
patiess
patika
patlaban
patn
patne
patni
patoge
patolog
patons
patri
patria
patriarha
patriarhs
patrick
patriks
patrona
patrul
pats
patskan
patskani
patskanis
patsta
patsvars
patterns
pature
patval
patve
patversme
patversmes
pau
pauda
pauels
paugura
pauguraine
pauguraines
pauguri
paugurs
pauguru
paukos
paukota
pauks
paul
paula
pauli
paulo
pauls
paulu
pauz
pava
pavada
pavadi
pavadon
pavadoni
pavadonim
pavadonis
pavadot
pavairos
pavasara
pavasari
pavasaris
pave
paveica
paveida
paveidi
paveids
paveidu
paveras
pavia
paviljons
pavisam
pavlovs
pazaude
pazeme
pazemes
pazemina
pazi
pazin
pazina
pazu
pazuda
pazudis
pazudus
pb
pbla
pbs
pc
pctvl
pdb
pdf
pe
peace
pec
peda
pedagog
pedagoga
pedagogs
pedagogu
pededzes
pedro
pedru
pei
peidz
peile
pekina
pekinas
pekl
pekli
pel
pelc
peld
pelde
peldos
peldot
peldu
peldvieta
pele
peles
peli
pelika
pelni
pelnu
pelopone
pels
pen
penguin
penguins
peniska
peniski
pens
pensija
pensijas
pensiju
pensilva
pensiona
pensione
people
per
pere
peress
perfect
performance
performances
perife
perijs
perimetru
perioda
periodam
periodi
periodiem
periodika
periodiska
periodiski
periodos
periods
periodu
perma
permas
peroksi
perona
perons
perpendikula
pers
persies
persija
persijas
person
persona
personai
personal
personas
personi
personiska
personiskais
personisko
personu
personva
perspective
perspekti
peru
pes
pesti
pestici
pet
pete
peter
peters
petersburg
petra
petrograda
petrogradas
petrovic
petrovs
pfsr
pg
ph
phelsuma
phi
phil
philadelphia
philip
philipp
philippe
philips
philosophy
phjonc
phoenix
photo
photos
php
phylloscopus
phylogenetic
phylogeny
phys
physical
physics
physiology
pi
pianists
piano
pic
pica
picture
pictures
pie
pieaicina
pieaudzis
pieaug
pieauga
pieaugos
pieaugot
pieaugt
pieauguma
pieaugums
pieaugumu
pieaugus
pieaugusi
piebalgas
piebu
pieca
piecas
piecci
piecdesmit
pieci
pieciem
piecinieka
piecka
piecos
piecpadsmit
piecu
piecus
pied
pieda
piedala
piedali
piedaloties
piede
pieder
piedere
piederi
piederos
piedeva
piedevas
piedn
piedruja
piedrujas
piedzi
piedzima
piedzimis
piedzims
piedzimst
piedzimstot
piedzin
pieeja
pieejama
pieejamas
pieejami
pieejamo
pieejams
pieejamu
pieejas
pieeju
piega
piegul
pieju
piek
pieka
piekarpatu
piekl
piekraste
piekrastes
piekrasti
piekri
piekris
piekrita
piekrite
piekta
piektais
piektaja
piektdiena
piektdienas
piekto
pieku
piel
piela
pieli
pielieto
pielietoja
pielietojot
pielietojuma
pielietojums
pielietojumu
pielietos
pielietot
pielietota
pielietots
pielikuma
pielikums
pielu
piem
piemaisi
pieme
piemekle
piemi
piemin
piemine
pieminekl
pieminekli
piemineklis
pieminot
pien
piena
piens
pienska
pienu
piepilda
piepildi
piepilse
pieplu
pieprasa
pieprasi
pieprasot
piepu
piera
pieradina
pieraksta
pieraksti
pieraksts
piere
pieredze
pieredzes
pieredzi
pieres
pieri
pierobez
pierre
pieruna
pies
piesa
piesaista
piesaisti
piesaistot
piesaka
piesardzi
piesavina
pieska
pieskaita
pieskaiti
pieskan
piesle
piespe
piespieda
piespiedu
piespiest
piespiez
piesprieda
piespriests
piespriez
piesta
piestiprina
piesu
pieteica
pieteiks
pieteikt
pieteikts
pieteikumu
pieteka
pietekas
pieteku
pietici
pietiek
pietiekama
pietiekami
pietiekams
pietiekamu
pietiekos
pietru
pietur
pietura
pieturas
pieture
pieturu
pietuvina
pietuvoja
pieva
pievadi
pieve
pievedcel
pieveica
pieveicot
pievieno
pievienoja
pievienojas
pievienojies
pievienojot
pievienojoties
pievienos
pievienot
pievienota
pievienotas
pievienoti
pievienoties
pievienots
pievilci
pievilks
piezeme
piezi
pigmentu
pija
pijs
pik
pikaso
pike
piksel
pil
pila
pilda
pildas
pildi
pildot
pili
pilieni
pilienu
pilij
pilis
pilna
pilnais
pilnas
pilngadi
pilni
pilnmetra
pilno
pilns
pilntiesi
pilnu
pilnvaras
pilnvarotais
pilnvaroto
pilnvaru
pilnve
pilnveidos
pilota
pilotam
pilote
piloti
pilotiem
pilots
pilotu
pils
pilsdrupas
pilse
pilskalna
pilskalnam
pilskalnes
pilskalni
pilskalniem
pilskalns
pilskalnu
pilskunga
pilsmuiz
pilsnovada
pilsnovads
pilsnovadu
pilson
pilsoni
pilsonis
pilsoniska
piltenes
pin
pina
pingvi
pink
pinus
pioneer
pionieris
pionieru
pira
pirami
pirates
pirce
pireneju
pirks
pirksti
pirkstiem
pirksts
pirkstu
pirkt
pirma
pirmais
pirmaja
pirmajai
pirmajam
pirmajiem
pirmajos
pirmatne
pirmatskan
pirmdiena
pirmie
pirmiedzi
pirmizra
pirmka
pirmkoda
pirmo
pirmoreiz
pirmos
pirms
pirmsa
pirmskaitl
pirmskara
pirmsskolas
pirs
pirts
pis
pistol
pistoli
pistons
pitalovas
pitera
pits
pitsburgas
pj
pjas
pjastu
pje
pjedesta
pjetro
pjot
pjoties
pjotrs
pju
pk
pl
pla
place
placenta
plaisa
plaisas
plaka
plakana
plakankalne
plakans
plakne
plaknei
plaknes
plakni
plan
plane
planet
planeta
planetary
plankumaina
plankumi
plankumiem
planning
plans
plant
planta
plantagenets
plants
plas
plastiska
plastmasas
plata
platais
platas
plate
plates
platform
platforma
platformas
platformu
plati
platinum
platlapju
plato
platona
plats
platsliez
platu
platuma
platums
platumu
plaudis
plaukstas
plaus
plauz
play
player
players
playstation
plazma
plazmas
plc
ple
pleca
pleciem
plecka
plecu
pleistoce
ples
pleskava
pleskavas
pleskavu
pletenbergs
pli
plkst
plosi
plu
pludmale
pludmales
plus
pluto
plutona
plzen
pm
pmatrix
pmc
pmete
pmid
pmlp
pn
pne
pnes
pni
pnieci
pnieciska
pnieciski
pniecisko
pnieks
po
poc
podzole
poe
poga
pogal
pogas
point
points
pokal
pokera
pol
pola
polam
polan
poland
polar
polariza
pole
polga
poli
police
policija
policijai
policijas
policiju
policisti
policists
policistu
policy
poliem
poligona
poligra
polija
polijai
polijas
poliju
polikli
polime
poline
polis
polish
poliski
politbiroja
politehnikuma
politehniska
politehniskaja
political
politics
politieslodzi
politik
politika
politikai
politikas
politiku
politiska
politiskais
politiskaja
politiskajiem
politiskas
politiski
politiskie
politisko
politiskos
politisks
politisku
polo
polocka
polockas
pols
polska
polski
poltavas
polu
polyommatus
pomera
pomoz
pon
ponijs
poniju
pop
popa
pope
popes
popmu
popolazione
popula
popular
popularita
popularize
population
populations
por
porcela
pori
porsche
port
porta
portal
portlendas
porto
portreti
portrets
portretu
portretus
ports
portu
portuga
portugal
poruc
poruka
porzin
pos
position
posma
posmam
posmi
posmiem
posmka
posmos
posms
posmu
posmus
pospol
possible
post
posten
posteni
postenis
posti
postos
posts
postu
pota
potencia
potential
poters
poti
potsdamas
potter
pour
power
powiat
pozi
pozicione
poziti
poznan
pp
pr
pra
practice
prade
prague
prakse
prakses
praksi
praktiska
praktiski
praktize
prapors
prasa
prasi
prasme
prasmes
prasmi
prata
prate
pratina
praulienas
praulin
pravda
pravies
pravietis
pre
prec
prece
preces
preci
precize
precizita
predators
prefektu
preil
preliminary
premier
premjera
premjerli
premjerministra
premjerministri
premjerministrs
premjerministru
premjers
premjeru
prepara
pres
presbite
prese
present
preses
president
presidential
press
prestiz
pret
prete
pretende
pretendentiem
pretendentu
pretenzija
pretenzijas
pretesti
pretgaisa
preti
pretim
pretinieka
pretinieki
pretiniekiem
pretinieks
pretinieku
pretiniekus
pretoja
pretos
pretoties
pretpadomju
pretruna
pretrunas
pretruni
pretstata
pretstats
prettanku
pretuzbrukuma
pretuzbrukumu
prevention
prey
prezenta
prezente
prezidenta
prezidentam
prezidente
prezidenti
prezidents
prezidentu
prezidija
prezidijs
prezidiju
pri
price
prieci
priedaines
priede
priedes
priedi
prieks
prieku
priekul
priekule
priekules
priestera
priesteri
priesteris
priesteru
prieva
priez
prima
prime
primera
primetime
primiti
princ
prince
princese
princeses
princesi
princess
princeton
princi
princim
principa
principi
principia
principiem
principles
princips
principu
principus
princis
prinstonas
print
priorita
priva
private
privatiza
privatize
privile
prix
prize
prizma
pro
proble
problem
problema
problems
procedu
proceedings
procenti
procentiem
procentu
procentua
procentus
procesa
procesam
procesi
procesiem
procesora
procesors
procesoru
procesos
process
procesu
procesus
procyclingstats
procyon
produce
producente
producenti
producentiem
producents
producentu
production
productions
products
produkcija
produkcijas
produkciju
produkta
produkte
produkti
produktiem
produktivita
produktos
produkts
produktu
produktus
prof
profesija
profesijas
profesiju
profesiona
profesora
profesore
profesori
profesors
profesoru
professional
professor
profila
profilakses
profile
profils
prog
prognoze
program
programma
programmai
programmas
programmatu
programme
programmu
progresa
progrese
progresi
progress
progresu
project
projekcija
projekcijas
projekciju
projekta
projektam
projekte
projekti
projektiem
projektos
projekts
projektu
projektus
projice
proklame
prokuratu
prom
prombu
promena
promocijas
propaganda
propagandas
propagandu
properties
proporcija
proporcijas
proporciona
prospekta
prospekts
prospektu
prostitu
prot
protams
prote
protection
protei
protektora
protesta
protestantu
proteste
protesti
protestiem
protests
protestu
protestus
proti
protocol
protokola
protokoli
protokoliem
protokols
protokolu
proton
protonu
prototips
prototipu
provinc
province
provinces
provinci
provincia
provinzen
proza
prozaik
prozas
pru
prz
ps
psala
psalas
psalu
pseidoni
psi
psihede
psihoanali
psiholog
psihologs
psis
pskp
pslv
psr
psrs
pstin
psv
psychiatry
psychology
pt
pta
pties
pts
ptu
ptuve
pu
puaro
pub
public
publications
publice
publicists
publika
publikai
publikas
published
publishers
publishing
publiska
publiskais
publiskaja
publiski
publisko
publiskoja
publisku
puc
pudel
pudele
pudeles
puertoriko
pugac
puika
puis
puisis
puja
puk
pul
pulce
pulcin
pulka
pulkam
pulki
pulks
pulksten
pulksteni
pulkstenis
pulku
pulkvedi
pulkvedis
pulkvez
pulse
pulvera
pulveri
puma
pumi
pumiem
pumpura
pumpuri
pumpurs
pumpuru
pums
pumu
pumus
pundurplane
punk
punkta
punktam
punkti
punktiem
punktin
punktos
punkts
punktu
punktus
pupin
pupuk
pura
pure
puri
puriem
purin
purk
purna
purns
purnu
purpura
purs
pursuit
puru
purus
purva
purvaina
purvciema
purvciems
purvi
purviem
purvin
purvos
purvs
purvu
pus
pusapal
pusaudz
pusbra
puse
pusei
puses
pusfina
pusgada
pusgadu
pusi
puslode
puslodes
pusme
pusmuiz
pusnakts
pusotru
pussabruks
pussala
pussalas
pussalu
pussarga
pussargs
pussycat
pustuksnes
pusvadi
put
puta
putekl
puteks
putina
putins
putna
putne
putni
putniem
putnin
putns
putnu
putnus
puzes
pv
pxweb
python
q
qatar
qt
qualifying
quality
quantum
quarter
que
queen
quercus
quest
questions
quick
quotient
r
ra
rabi
rac
race
racing
raciona
rada
radara
radaru
rade
rades
radi
radia
radiation
radies
radika
radinieki
radiniekiem
radinieks
radinieku
radio
radioakti
radioba
radiostacija
radiostacijas
radiostaciju
radiouztve
radiovil
radis
radnieci
rados
radot
radu
radus
radusies
radvils
radz
radzin
raf
rafae
rafaels
raga
ragana
raganas
raganu
ragi
ragiem
rags
ragu
rai
raiba
raibais
raiben
raibenis
raibumiem
raibumin
raida
raide
raides
raidi
raidorganiza
raiens
rail
raimonda
raimonds
rain
rainis
rais
raisi
raiskuma
raita
raits
raivis
raja
rajai
rajam
rajiem
rajona
rajonam
rajoni
rajoniem
rajonos
rajons
rajonu
rajonus
rajos
rak
raka
raks
raksta
raksti
rakstiem
rakstiska
rakstniece
rakstnieces
rakstnieci
rakstnieka
rakstnieki
rakstniekiem
rakstnieks
rakstnieku
rakstos
rakstot
raksts
rakstu
rakstura
raksturi
raksturo
raksturoja
raksturojums
raksturot
raksturs
raksturu
rakstus
rakstzi
raktuve
raktuves
raktuvju
ralfs
rallija
ralph
ram
rammstein
ran
ranca
random
ranga
range
rangers
rankas
ranking
rankings
rapa
rapbedi
rapid
raplas
raptors
rar
rare
ras
rasa
rasas
rasbrauce
rascu
rase
rasela
rasels
rases
rasgrundulis
rasin
rasma
rast
rasties
rasts
rasu
raszirdzin
rata
rate
rati
ratifice
ratin
ratings
ration
rats
ratu
rauda
raudas
rauds
raudu
raudze
rauga
raugu
rauls
rauna
raunas
raunda
raus
ravas
ray
raymond
raz
rb
rba
rbata
rbatas
rbauda
rbaude
rbaudes
rbaudi
rbe
rbeles
rbenes
rbi
rbrauktuves
rbs
rbu
rc
rce
rcel
rcels
rcelt
rcelta
rceltas
rcelti
rcelties
rcelts
rceltuve
rces
rci
rcienas
rcin
rcis
rd
rda
rdal
rdali
rdam
rdas
rdaugava
rdaugavas
rde
rdes
rdeva
rdeve
rdi
rdiem
rdijs
rdin
rdis
rdni
rdod
rdodot
rdoma
rdomas
rdos
rdot
rdota
rdotas
rdoti
rdoto
rdots
rdoze
rds
rdu
rdus
rdz
rdzi
re
rea
reabilite
read
reading
ready
reag
reakcija
reakcijas
reakciju
reakti
real
realgm
realita
reality
realiza
realize
rebecca
rebeka
rec
recenzija
record
recording
records
red
redakcija
redakcijas
redaktora
redaktore
redaktori
redaktors
redaktoru
redig
reds
reduce
redz
redzama
redzamais
redzamaja
redzamas
redzami
redzamo
redzams
redze
redzes
redzi
redzot
reed
ref
refera
reference
referenduma
referendums
referendumu
reforma
reformai
reformas
reforme
reformu
reg
regbija
regbists
regi
region
regional
register
registry
reglamente
regula
regule
rehabilita
reic
reich
reiha
reihs
reihsta
reikenens
rein
reina
reinas
reinhold
reinholds
reiniks
reinis
reisa
reisi
reiss
reisu
reisus
reiters
reitinga
reitings
reitingu
reiz
reize
reizes
reizi
reizina
reja
rejas
rejot
rejs
reju
reke
rekla
reklame
rekomenda
rekomende
rekonstrue
rekonstrukcija
rekonstrukcijas
rekonstrukciju
rekorda
rekordi
rekordists
rekords
rekordu
rekordus
rektora
rektors
rektoru
rel
rela
related
relati
relations
relationships
relativita
relay
release
released
releases
reli
relig
religion
religious
reljefa
reljefs
reljefu
rembates
remiksu
remix
remonta
remonte
remonts
remontu
ren
rena
renaja
renault
rence
rendas
rendere
rene
renes
renesanses
reni
reno
renova
renove
rens
renu
reorganiza
reorganize
repa
repera
reperis
repertua
replika
report
reporta
reporter
reports
represe
represija
represijas
represiju
reprezente
reprodukti
reps
republic
republika
republikai
republikas
republiku
reputa
rers
res
research
reserve
residente
resna
resnums
resolution
resource
resources
respekte
respekti
response
resta
restaura
restaure
resti
restora
restu
result
results
resursi
resursiem
resurss
resursu
resursus
reta
retaja
retajiem
retas
reti
retina
reto
retos
retrieved
rets
retu
retumis
return
returns
reuters
rev
reveal
revealed
reveals
revi
review
reviews
revised
revision
revolu
revoluciona
revolution
rex
rey
rez
rezerva
rezerve
rezerves
rezervists
rezervju
rezervua
rezide
rezidence
rezidences
rezidenci
reznors
rezolu
rezonanses
rezulta
rezultati
rezultativita
rezulte
rfc
rfijs
rfirsts
rforme
rfs
rg
rga
rgakmen
rgale
rgales
rgas
rgen
rgi
rgl
rglis
rhinella
rho
ri
ria
riaa
ribas
ribentropa
ric
rica
rich
richard
rick
ride
rie
riebin
riekstin
riekstu
riem
riena
rieni
riens
rienu
rienus
riepas
riepu
ries
riesta
riet
rieti
rietis
rietuma
rietumberli
rietumdal
rietumeiropa
rietumeiropas
rietumi
rietumiem
rietumkrasta
rietumkrievijas
rietumos
rietumpomoz
rietumromas
rietumsibi
rietumu
rietumus
rietumva
rieva
rifle
riga
rigassatiksme
right
rights
riha
riharda
rihards
rihe
rihes
rihs
rihters
rija
rijai
rijas
riji
rijiem
rijs
riju
rijus
rijveida
rik
rika
rikardo
rikavas
riks
riku
rilanka
rilankas
rim
rimi
rimkus
rims
rin
rina
rinda
rindas
rindin
rindu
ring
ringa
rings
rio
riodez
ris
rise
risina
risk
riska
riskais
riski
risks
risku
risma
risms
rismu
rista
riste
risti
ristiem
rists
ristu
rita
rite
riten
rites
ritma
ritms
ritmu
ritos
ritterschaften
ritua
river
rizgli
rjazan
rju
rk
rka
rkak
rkalnes
rkava
rkavas
rkers
rketinga
rketings
rkla
rkli
rklin
rklu
rkocin
rkona
rkons
rkot
rkrievos
rkritik
rks
rku
rl
rla
rlauli
rlavas
rle
rles
rli
rlidojumu
rlieci
rliecina
rliecinos
rlieku
rlietu
rlija
rlijs
rlim
rlings
rlis
rlitz
rls
rlu
rlza
rlzs
rma
rmahta
rmahts
rmain
rmala
rmalas
rman
rmanis
rme
rmekle
rmes
rmi
rmijas
rmiju
rmkluba
rms
rmstrongs
rmu
rmuiz
rn
rna
rnadz
rnam
rnas
rnava
rnavas
rne
rners
rnes
rneses
rnesta
rni
rnieci
rnieka
rnieki
rniekiem
rnieks
rnieku
rniem
rnijs
rnin
rnis
rnos
rns
rnss
rnu
rnuda
rnus
ro
road
robe
robert
roberta
robertam
roberto
roberts
robertu
robez
robin
robins
robinson
robinsons
robots
robotu
robs
roc
roci
rock
rocket
rockets
rodas
rode
rododendru
rodrigess
rodrigo
rodz
roga
roger
rogers
rogs
rogule
roja
rojama
rojamas
rojami
rojamiem
rojamo
rojams
rojamu
rojamus
rojas
rojot
rojs
rojumi
rojumiem
rojumu
rojumus
rojus
rok
roka
rokas
rokasbumba
rokasgra
rokenrola
rokgrupa
rokgrupas
rokijs
rokmu
rokoko
rokot
rokraksta
roks
roku
rolanda
rolands
role
roll
rolling
rom
roma
roman
romana
romance
romania
romanova
romanovs
romans
romantiska
romantisma
romas
rome
romeo
romies
romu
romualds
ron
rona
ronald
ronalds
ronaldu
ronis
rons
ronu
room
root
ropaz
rorta
rortpilse
rorts
ros
rosa
rose
rosi
rosina
roskosmos
ross
rostokas
rostovas
rot
rota
rotal
rotas
rote
roterdama
roterdamas
roti
roties
rotora
rots
rotten
rotu
round
route
routledge
rowing
roy
royal
roz
roza
roze
rozenberga
rozenbergs
rozens
rozenta
rozes
rozi
rp
rpa
rpas
rpcu
rpe
rpersona
rpersonas
rpi
rpiem
rpien
rpils
rpin
rpjiem
rpju
rplu
rpolitika
rpolitikas
rpolitiku
rps
rpstveida
rpu
rpus
rpuse
rpuses
rra
rraida
rraide
rraides
rraidi
rraksti
rraudzi
rrauga
rraugs
rrobez
rruna
rs
rsa
rsauca
rsaukta
rsaukts
rsava
rsavas
rse
rsenes
rses
rsgriezuma
rsi
rsiela
rsies
rsis
rska
rskata
rskati
rskats
rskatu
rskola
rsla
rsle
rsli
rsne
rsni
rsniedz
rsniedza
rsniedzot
rsniegt
rso
rsoja
rsojot
rsos
rsot
rspe
rspi
rsraga
rss
rsssf
rst
rsta
rstacija
rstacijas
rstam
rstas
rste
rsteidza
rsteidzos
rsti
rstiem
rsties
rstnieci
rsto
rstos
rstra
rsts
rstu
rstul
rsu
rsuma
rsums
rsumu
rsusies
rsvara
rsvars
rsvaru
rt
rta
rtai
rtais
rtapa
rtas
rtavas
rte
rters
rtes
rti
rtie
rtiek
rtiem
rtik
rtika
rtikas
rtiku
rtin
rtina
rtins
rtis
rtme
rtne
rtnes
rtni
rto
rtoja
rtojas
rtojis
rtojot
rtojuma
rtojums
rtojumu
rtons
rtop
rtos
rtot
rtota
rtotas
rtoti
rtots
rtotu
rtrauc
rtrauca
rtraucot
rtrauks
rtraukt
rtraukta
rtrauktas
rtraukti
rtraukts
rtrauktu
rtraukuma
rtraukumiem
rtraukums
rtraukumu
rtru
rts
rtsarga
rtsargs
rtsargu
rtsila
rtsle
rtspapi
rtu
rtus
ru
rua
rube
ruben
rubenes
rubenis
rubens
rubi
rubin
rubins
rubl
rucava
rucavas
ruda
rudba
rudeni
rudenim
rudens
rudi
rudn
rudolf
rudza
rudzi
rudzu
ruga
rugby
ruhrgas
ruks
rul
rule
rules
ruli
rulis
ruma
rumbas
rumbulas
rumi
rumiem
rumos
rums
rumu
run
runa
runas
runda
runde
running
runu
rupe
rupes
rupi
rupja
rupji
rurikovic
rus
rusa
rush
rusi
ruso
rusova
russ
russell
russia
russian
russischen
rusu
ruta
rute
ruti
rutiem
rutos
ruts
rutu
rutus
ruz
rußlands
rva
rvada
rvades
rvalda
rvalde
rvaldei
rvaldes
rvaldi
rvaldnieka
rvaldnieks
rvaldnieku
rvalsti
rvalstu
rvarda
rvare
rve
rveda
rveida
rveidi
rveido
rveidoja
rveidojot
rveidos
rveidot
rveidota
rveidoti
rveidots
rves
rvete
rvetes
rvi
rvieni
rvieto
rvietoja
rvietojas
rvietojoties
rvietos
rvietot
rvietota
rvietoti
rvietoties
rvietots
rvijs
rvings
rvins
rvr
ryan
rz
rza
rzaines
rzaunes
rzciema
rze
rzel
rzeme
rzemju
rzemnieku
rzen
rzes
rzgales
rzi
rziem
rziemo
rzin
rzina
rzinis
rzkalnes
rzkalns
rzkopi
rznieks
rzos
rzpils
rzs
rzu
s
sa
saasina
saaugus
sabi
sabiedri
sabiedriska
sabiedriskais
sabiedriskaja
sabiedriskas
sabiedriski
sabiedriskie
sabiedrisko
sabiedrisks
sabiedrota
sabiedrotajiem
sabiedrotie
sabiedroto
sabile
sabiles
sabli
saboja
sabres
sabru
sabruka
sabruks
sabrukuma
sabrukums
sabrukumu
sac
sace
sacels
sacens
sacensi
sacensties
sacenta
sacere
sachsen
saci
saciete
sadal
sadala
sadales
sadali
sadalot
sadarbi
sadarboja
sadarbojas
sadarbojies
sadarbojoties
sadarboties
sadedzina
sadega
saderi
saderina
sadraudze
sadraudzi
sadu
sadursme
sadursmes
sadzi
saeima
saeimai
saeimas
saeimu
safety
saforme
saga
sagaida
sagaidi
sagatavo
sagatavoja
sagatavos
sagatavot
sagatavota
sagatavoti
sagatavots
sagatavotu
saglaba
sagra
sagrauta
sagu
saha
sahali
saharova
sahas
sai
saiklis
saikne
saikni
saime
saimei
saimes
saimnieci
saimnieciska
saimniecisko
saimnieka
saimnieki
saimnieks
saimnieku
saimons
saina
sainas
sainde
saini
sains
saint
sais
saista
saiste
saistes
saisti
saistos
saite
saites
saiti
saja
sajauks
sajaukt
saju
sak
saka
sakalas
sakara
sakari
sakariem
sakarse
sakaru
sakarus
sakas
sakause
sakaut
sakauta
sakauti
sakauts
sakn
sakne
saknes
sakni
sakot
sakra
sakramento
sakri
sakrita
saks
saksija
saksijas
sakstagala
saku
sal
sala
salacas
salacgri
salai
salamandra
salas
salaspili
salaspils
salaula
salavat
salda
salde
saldu
saldus
sale
sali
saliede
salienas
salikta
saliktenis
salin
salmin
salna
salnas
salnavas
salo
salome
salona
sals
salt
salu
salvadora
sam
sama
samaksa
samaksu
saman
samanta
samazina
samazinot
samazinoties
same
samekle
sami
samierina
samoa
sampdoria
sampo
samsung
samten
samuel
san
sana
sanantonio
sanatorija
sanatorijas
sanc
sanctions
sandensas
sanders
sandis
sandjego
sandra
sandz
sanfrancisko
sanhose
sanita
sankcijas
sanktmorica
sanktpe
sanmari
sanpaulu
sanremo
sanskrita
santa
santjago
santos
sap
sapa
sapieru
saplacina
saplu
sapn
sapni
sapnis
sapra
saprast
saprata
saprot
saprotot
sapulce
sapulces
sapulci
sapulcina
sar
sara
sarah
sarajeva
sarajevo
saraksta
saraksti
sarakstiem
sarakstos
saraksts
sarakstu
sarakstus
saratovas
saraus
saraz
sardi
sardze
sardzes
sarez
sarga
sargi
sargs
sargu
sari
sarkan
sarkana
sarkanais
sarkanaja
sarkanajai
sarkanajiem
sarkanarmies
sarkanas
sarkanbru
sarkandaugava
sarkandaugavas
sarkani
sarkanie
sarkano
sarkanri
sarkans
sarkanu
sarma
sarmi
sars
saru
saruka
saruna
sarunas
sarunu
sarunvaloda
sas
sasaisti
sasauca
sasauks
sasaukt
sasaukuma
sasaukumu
sasils
saska
saskaiti
saskan
saskaras
saskarne
saskarnes
saskarni
saskata
saskati
sasle
saslima
saslims
saslimus
sasmalcina
sasniedz
sasniedza
sasniedzis
sasniedzot
sasniegs
sasniegt
sasniegta
sasniegts
sasniegtu
sasniegumi
sasniegumiem
sasniegums
sasniegumu
sasniegumus
sasniegus
sasniegusi
saspe
saspi
saspies
saspiez
sast
sasta
sastapa
sastapt
sastop
sastopama
sastopamas
sastopami
sastopams
sastopas
sastre
sat
sateces
satekles
satekot
satekupe
sateli
satellite
satellites
sati
satiek
satiekas
satika
satiks
satiksme
satiksmei
satiksmes
satiksmi
satori
satricina
satur
satura
saturday
sature
saturn
saturna
saturos
saturs
saturu
satuvina
satve
satversme
satversmes
satversmi
sau
sauber
sauc
sauca
saucama
saucamo
saucas
sauce
saudze
saukas
saukt
saukta
sauktais
sauktaja
sauktas
saukti
saukto
saukts
sauktu
saul
saulaina
saule
saulei
saules
saulgriez
sauli
saulkrasti
saulkrastu
saulle
saulrieta
sausa
sausaja
sausas
sausne
sauso
sausos
sauss
sausu
sausuma
sauszeme
sauszemes
sauszemi
sava
savai
savainojuma
savainojumu
savam
savanna
savannas
savas
savdabi
save
savi
saviem
savieni
savieno
savienoja
savienojas
savienojos
savienojot
savienojuma
savienojumi
savienojumiem
savienojumos
savienojums
savienojumu
savienojumus
savienos
savienot
savienota
savienotaja
savienotas
savienoti
savienoto
savienots
savienotu
savietojami
savojas
savos
savrupma
savs
savstarpe
savu
savuka
savulaik
savus
savval
say
says
sazin
sazina
sazve
sb
sc
sca
scar
scena
scenogra
schaal
schalke
schmidt
schneider
scho
schoenus
school
schwerdt
schwerdtern
sci
science
sciences
scientific
scientists
score
scotland
scott
scottish
screen
sd
sdesmit
sdesmitgadu
sdiena
sdieni
sdienu
sdimensiju
se
sea
seal
seals
sean
search
season
sebastia
sebastian
sebastians
sec
seces
seci
secina
second
secret
secrets
section
security
sedas
sedis
sedz
see
sega
segas
seglin
segmenta
segmentiem
segments
segmentu
segspa
segu
seguma
segums
segumu
segva
seihanu
seima
seis
seja
sejas
seju
seka
sekas
sekcija
sekcijas
sekciju
sekla
sekme
sekmi
seko
sekoja
sekojos
sekojot
sekos
sekot
sekota
sekre
sekreta
sekretaria
seksa
sekss
seksua
seksualita
sektora
sektors
sektoru
seku
sekula
sekunda
sekunde
sekundes
sekunz
sel
seldz
sele
select
selected
selection
selekcijas
selekcione
seles
self
selga
selgas
seli
selima
selims
semi
semina
semjonovs
semjons
semjuels
sems
sen
sena
senais
senaja
senajiem
senajos
senas
senatne
senatnes
senators
senatoru
senc
senega
sengriek
seni
senie
seniem
senioru
senkapi
senkrievu
senleja
senlejas
senna
sennorve
seno
senos
senpilse
senpru
sens
sensori
sensors
sensoru
sentdz
sentlu
sentluisa
sentluisas
senu
separa
sept
september
septembra
septembri
septembrim
septembris
septi
septin
sera
serbi
serbia
serbija
serbijas
serbiju
serbu
sergeja
sergejs
sergeju
seria
serie
series
sermul
sers
sertifice
sertifika
serv
server
servera
serveri
serveriem
serverim
serveris
service
services
servisa
serviss
serz
ses
sesavas
sesija
sesijas
sesiju
seska
sesks
sesta
sestais
sestaja
sestdiena
sestdienas
sesto
set
sets
setsa
setsas
seula
seulas
sev
sevastopoles
seven
severstal
sevi
sevilla
sevis
sex
sexual
sezona
sezonai
sezonas
sezonu
sfe
sfilma
sfilmu
sg
sha
share
shark
sharks
shaw
she
sheet
sheffield
shell
shenzhou
shi
shield
ship
shooting
short
shot
should
show
shows
shueisha
shuttle
si
sia
sibi
sic
sici
sid
side
sidneja
sidnejas
sidnijs
sie
siem
siemens
siena
sienas
sienin
sienu
siera
siers
sieru
sies
sietin
sietlas
siev
sieva
sievai
sievas
sievies
sieviete
sievietei
sievietes
sievieti
sievis
sievu
sigismunda
sigismunds
sigma
sign
signa
signs
sigulda
siguldas
sija
sijas
siju
sikspa
sil
sila
silaja
sildi
sile
silent
sili
silika
silin
silmac
silmalas
silovs
silta
siltaja
siltas
silts
siltu
siltuma
siltumizola
siltumni
siltums
siltumu
silu
silva
silver
silvestrs
silvija
sim
simbola
simboli
simboliem
simbolika
simboliku
simboliska
simboliskaja
simboliski
simbolize
simbols
simbolu
simbolus
simetrija
simetrijas
simetriska
simfonija
simfonijas
simfoniska
simfoniskais
simfonisko
simon
simona
simons
simpa
simple
simpsoni
simpsons
simpsonu
simptomi
simptomiem
simptomu
simptomus
simt
simtgades
simti
simtiem
simts
simtus
simula
simule
sin
sina
sinagoga
sinagogas
since
sindroma
sindroms
sindromu
sing
singapore
singapu
singer
singla
single
singles
singli
singliem
singls
singlu
singlus
sinoni
sinoptik
sinte
sinteze
sio
sir
sirdi
sirdis
sirds
sirdsdarbi
sire
sirmais
sirrea
sirsni
sis
siste
sistema
sistematize
sisu
sit
sitamie
site
sites
sitienu
situa
siu
sive
six
siz
size
sje
sju
sk
ska
skaidra
skaidras
skaidri
skaidro
skaidroja
skaidrojos
skaidrojums
skaidrs
skaista
skaistas
skaistkalnes
skaists
skaistuma
skaita
skaitam
skaiti
skaitl
skaitli
skaitlis
skaitliski
skaitot
skaits
skaitu
skal
skala
skalas
skalbe
skan
skanda
skandina
skane
skanstes
skapa
skapam
skapi
skapiem
skapija
skapijai
skapijas
skapiju
skaps
skapu
skar
skara
skas
skat
skata
skate
skati
skaties
skating
skatoties
skats
skatu
skatuve
skatuves
skausta
skautu
ske
skeleta
skeletona
skelets
skene
ski
skice
skices
skiing
skis
skola
skolai
skolas
skole
skolnieks
skolnieku
skolota
skolu
skonto
skopje
skota
skotija
skotijas
skotiju
skots
skotu
skra
skrajciemi
skrajciems
skrastin
skre
skrejcel
skri
skriemel
skrien
skries
skriet
skrims
skroderdienas
skropstin
skru
skrudalienas
skrunda
skrundas
sks
sku
skudra
skudras
skudrla
skudru
skuja
skujas
skujenes
skujenieks
skujin
skujkoku
skuju
skulme
skulptu
skulte
skultes
skunkss
skve
sky
skyforger
sl
sla
slaici
slaida
slaids
slaktin
slalom
slaloma
slam
slampes
slapja
slas
slava
slavas
slave
slavena
slavenais
slaveni
slaveno
slavens
slavenu
slavina
slavu
slc
sle
sleja
slejas
slepena
slepenais
slepeni
slepeno
slepenu
slepkava
slepkavi
slepkavu
sli
slidos
slidota
sliede
sliedes
slieks
sliez
slikta
slikti
slikto
sliktu
slimi
slimni
slimniekiem
slimnieku
slimo
slims
slin
slis
slo
sloboda
slodze
slodzes
slodzi
sloka
slokas
sloku
slova
slovakia
slovan
slove
sls
slu
sludina
slv
sm
sma
smadzen
smadzene
smadzenes
smaga
smagais
smagaja
smagas
smagi
smagiem
smago
smagos
smags
smagu
smaguma
smagus
smail
smaila
smaile
smaili
smails
smailu
smaku
smalka
smalkas
smalki
smalks
smalku
small
smart
smarz
smas
sme
smes
smiekli
smil
smils
smilta
smiltene
smiltenes
smilti
smiltis
smilts
smirdi
smirnovs
smita
smith
smithsonian
smits
smol
smtp
smu
sn
sne
sni
sniedz
sniedza
sniedzas
sniedze
sniedzis
sniedzot
sniega
sniegbalti
sniegs
sniegt
sniegta
sniegtu
sniegu
sniegums
sniegumu
sniga
snigs
snik
snovborda
snovbords
snow
sns
snu
snuk
so
soc
soccer
soccerbase
soccerway
socia
social
socie
society
sociolog
sociologs
sociology
soda
sodi
sods
sodu
sofija
sofijas
sofiju
software
sog
sojas
sojums
sojuz
sok
sokolovs
sol
sola
solar
solaris
soli
solidarita
solis
soliste
solisti
solists
solo
solon
soltleiksitija
solutions
soma
somain
some
somi
somija
somijai
somijas
somiju
somiski
somu
somugru
son
sona
song
songs
sons
sony
sophie
sopra
sorbu
sos
sota
soul
sound
soundcloud
sounds
source
south
southampton
southern
soviet
sp
spa
space
spacecraft
spaceflight
spaceflightnow
spacex
spadsmit
spain
spalva
spalvas
spalvu
spanish
sparta
spartak
spartakia
spartaks
spe
specia
special
specialita
specializa
specialize
species
specifika
specifiska
specifisku
speed
spektra
spektrs
spektru
spencer
spi
spice
spider
spiediena
spiedienam
spiediens
spiedienu
spiegos
spiegu
spiesta
spiesti
spiests
spiez
spilgta
spilgti
spilves
spin
spira
spirit
spirkstu
spirta
spkc
spogul
spoguli
spogulis
spoku
spole
spoles
sponsore
sponsors
sponsoru
sponta
spora
sporas
sport
sporta
sportacentrs
sporting
sportista
sportistam
sportiste
sportistes
sportisti
sportistiem
sportists
sportistu
sportistus
sporto
sports
sportu
sporu
spotify
spotted
spoz
spr
spra
sprauga
spraugas
spredik
spri
spridzina
sprieduma
spriedums
spriedumu
sprieguma
spriegums
spriegumu
spriest
spriez
spring
springer
springfi
sprint
sprinta
sprints
sprog
spru
spuldze
spuldzes
spura
spuras
spurs
spuru
sputnik
spy
sql
sqrt
squad
square
sr
sreiz
sritis
ss
sseldorf
ssh
ssol
sstu
st
sta
stabila
stabili
stabilita
stabiliza
stabilize
stabils
stabilu
stabin
stabu
staburaga
stacija
stacijai
stacijas
staciju
staciona
stade
stadija
stadijas
stadiju
stadion
stadiona
stadions
stadionu
stadium
stadiumdb
stadt
stafete
stafetes
staff
stage
staiceles
staiga
staila
staipekn
stais
staja
stal
stalbes
stallis
stam
stama
stamais
stamas
stambula
stambulas
stami
stamiem
stamo
stams
stamu
stan
stand
standard
standarta
standarti
standartiem
standartize
standarts
standartu
standartus
standing
standings
stanford
stanfordas
stanisław
stankevic
stanley
star
stara
stari
stariem
starkovs
starojuma
starojums
starojumu
starp
starpa
starpi
starpkaru
starpkontinenta
starpnieci
starppilse
starpplane
starptautiska
starptautiskais
starptautiskaja
starptautiskajiem
starptautiskajos
starptautiskas
starptautiski
starptautiskie
starptautisko
starptautiskos
starptautisks
starptautisku
starpvalstu
starpzonu
stars
start
starta
startam
starte
starts
startu
staru
starus
stas
stat
state
statement
states
stati
station
statistical
statistics
statistik
statistika
statistikas
statistikportal
statistiska
stats
statu
statuja
statujas
status
statusa
statuss
statusu
stay
ste
steel
stefa
stefan
stefana
stefans
stekn
stena
stenais
stende
stendera
stenders
stendes
steni
stenlija
stenlijs
steno
stenoja
stenos
stenot
stenota
stenotas
stenots
step
stepanovs
stepe
stepes
stephen
stephens
stepju
sterlin
stermin
sterna
steroi
stes
steve
steven
stewart
sti
stie
stiem
stien
stieni
stiepa
stiepjas
sties
stikla
stikls
stiklu
stila
stilam
stili
stilize
still
stils
stilu
stimule
stina
stingra
stingri
stingru
stipendiju
stipra
stiprais
stipras
stipri
stiprina
stiprs
stipru
stipruma
stiprums
stirnu
stis
stjuarta
stjuarts
stnes
stnesis
stnieci
stnieks
stnieku
sto
stobra
stobrin
stock
stockholm
stockmann
stokholma
stokholmas
stol
stona
stonas
stone
stones
stop
stopin
storage
store
stories
storm
story
stos
stot
stoties
stra
stradin
straight
strasbu
strate
strategic
strategy
strauja
strauji
straujs
strauju
straume
straumes
straumi
straupes
strauss
strauta
strauti
strautin
strauts
strautu
strazdi
strazdin
strazds
strazdumuiz
stre
street
streic
streiku
strenc
strenga
stresa
stress
stri
strike
strikta
strods
strong
stru
structure
struktu
struktura
strukture
strupcel
sts
stu
stuart
stubla
stuc
stude
studens
student
studenti
studentiem
students
studentu
studentus
studies
studija
studijas
studiju
studio
studios
study
stul
stule
stules
stuli
stumbra
stumbrs
stumbru
stunda
stundas
stundu
sture
sturei
stures
sturi
sturiska
sturiskais
sturiskaja
sturiskajiem
sturiskas
sturiski
sturiskie
sturisko
sturiskos
sturisks
sturisku
sturnieka
sturnieki
sturnieks
sturnieku
stus
stuttgart
style
su
sub
subates
subglacia
subjekti
subkontinenta
subkultu
substra
subtropu
success
suda
sudraba
sudrabs
sudrabu
suecas
suga
sugai
sugas
sugu
suisse
sula
sulas
sulavesi
suleimana
suleimans
sulfa
sulfi
suli
sulta
sultana
sulu
sum
sumatras
summa
summary
summas
summe
summer
summu
sumu
sun
suna
sunday
suni
sunim
sunni
suns
suntaz
sunu
suomen
super
supercopa
supercoppa
supercup
superfina
superkausa
superkauss
superkausu
superli
supernova
supervaron
support
sur
survey
surveyor
sus
susa
susan
suse
susuris
suvere
suverenita
suvorova
suzdal
sv
sva
svaiga
svalba
svara
svarce
svarcels
svari
svars
svaru
sve
svec
sveces
svek
svens
sventa
sventes
sver
sveriges
sves
svetlana
svi
svielas
svielu
svieni
sviesta
svil
svilc
svilpe
svin
svina
svine
svini
svitenes
svjatoslavic
svjatoslavs
swedbank
sweden
swedish
sweet
swh
swift
swimming
swiss
switzerland
sydney
sylvia
syndrome
system
systematic
systematics
systems
szczecin
t
ta
tabaka
tabakas
table
tables
tabless
tabu
tabula
tabulas
tabulu
tac
tad
tadaik
tadeus
tadz
tag
tagad
tagade
tagadne
tagadnes
tai
tailed
tailers
taimiras
tais
taisi
taisna
taisne
taisnes
taisni
taisnlen
taisns
taisnstu
taisnu
taiva
taizeme
taizemes
taja
tajai
tajam
tajiem
tajos
taka
takas
take
takes
taktika
taktiku
takts
taku
talanti
talantu
talk
talks
tallina
tallinas
tallinn
tallinu
talsi
talsiem
talsos
talsu
tam
tama
tami
tamilu
tamli
tampabejas
tampere
tamperes
tams
tan
tango
tani
tank
tanka
tanki
tankiem
tankkug
tanks
tanku
tankus
tans
tanu
tanza
tapa
tapas
tapis
taps
tapus
tapusi
tara
taras
target
tarkovska
tarkovskis
tartu
taru
tas
tasmanijas
tastatu
tata
tatarsta
tate
tates
tati
tatiem
tatjana
tatos
tatra
tats
tatu
tau
taube
tauki
taukska
tauku
taukus
taupi
taure
taurenes
taures
taurin
taurupes
tausma
taustekl
taustin
tauta
tautai
tautas
tautasdziesma
tautasdziesmas
tautasdziesmu
tauti
tauties
tauts
tautsaimnieci
tautskaite
tautu
tava
tavas
tavs
tavu
taxonomic
taxonomy
taylor
tb
tbilisi
tbu
tc
tcel
tciemata
tciematos
tciemats
tcp
td
tdiena
tdienas
te
tea
team
teams
teatr
teatro
teborga
tec
tece
teces
tech
technical
technologies
technology
teci
tecis
ted
teds
teen
tehera
tehnik
tehnika
tehnikas
tehniku
tehnikuma
tehnikums
tehnikumu
tehniska
tehniskais
tehniskaja
tehniski
tehniskie
tehnisko
tehnisku
tehnolog
tei
teic
teica
teicis
teika
teikas
teikt
teikta
teikts
teikuma
teil
teilors
teina
teinas
teiners
teins
teinu
teju
tek
tekos
teksasa
teksasas
teksta
teksti
tekstiem
tekstilru
tekstos
teksts
tekstu
tekstus
tel
telaviva
tele
telefona
telefoniem
telefons
telefonu
telegra
telegraph
telekom
telekomunika
telesakaru
telescope
teleskopa
teleskops
teleskopu
televi
television
televizoru
telia
telpa
telpas
telpu
tels
temperatu
templ
temple
templi
templies
templis
temps
ten
tendence
tendences
tenesi
tenisa
tenisista
tenisiste
tenisistes
tenisisti
tenisists
teniss
tennis
tennisabstract
tenors
teo
teodora
teodors
teolog
teologs
teore
teorija
teorijai
teorijas
teoriju
ter
tera
terapija
terapijas
terase
terases
terburga
terburgas
terburgu
tere
teres
tergailis
teri
terijs
terim
teris
teritoria
teritorija
teritorijai
teritorijas
teritoriju
term
terma
termi
termin
termina
termini
terminolog
termins
terminu
termiska
termometra
ternbergs
ternopil
terns
terora
terorisma
terorismu
teroristu
terors
terpils
terra
ters
tersalas
tersone
tersons
teru
tes
tesla
tesos
test
testa
testamenta
teste
testi
tests
testu
testus
tetove
tev
tevi
texas
text
tezaurs
tf
tg
th
thales
than
that
the
theatre
theft
their
them
theodor
theory
there
these
theta
they
thing
things
think
third
this
thomas
thompson
thomson
thor
thought
thovena
threatened
three
through
throw
thrust
thunder
ti
tiangong
tibeta
tibetas
tibeties
tic
ticama
tice
tici
ticis
tico
tie
tiecas
tieci
tiek
tiekas
tiekot
tieksme
tiem
tiene
tienes
ties
tiesa
tiesai
tiesas
tiesi
tiesiska
tieslietas
tieslietu
tiesnes
tiesnesi
tiesnesis
tiesu
tiesvedi
tieva
tievs
tiger
tigers
tija
tijas
tiju
tik
tika
tikai
tikas
tikko
tikli
tikme
tikpat
tiks
tikt
tiktu
tiku
tikumi
tikus
tikusi
tilbi
tilia
till
tilpne
tilpuma
tilpums
tilpumu
tilta
tiltam
tilti
tiltiem
tiltin
tilts
tiltu
tiltus
tilz
tilzi
tim
timbaland
timberwolves
time
timeline
timenote
times
timing
timo
timos
timothy
timotijs
tims
tin
tina
tinas
tinghofs
tingis
tintin
tipa
tipi
tipiem
tipiska
tipiski
tipisks
tipogra
tips
tipu
tipus
tipveida
tira
tirdznieci
tirgon
tirgos
tirgota
tirgu
tirgum
tirgus
tiri
tirzas
tis
tiska
tiskais
tiskaja
tiskajai
tiskajiem
tiskas
tiski
tiskie
tiskiem
tisko
tiskos
tisks
tisku
tiskus
tisma
tisms
tismu
tissot
tistu
tit
tita
titan
title
tito
tits
titula
titulam
titule
tituli
tituliem
tituls
titulu
titulus
tju
tjumen
tjurku
tk
tki
tkiem
tkilometri
tkos
tku
tkus
tls
tm
tma
tml
tn
tne
tnei
tnes
tnespe
tni
tniece
tnieces
tnieci
tnieciska
tniecisko
tnieka
tniekam
tnieki
tniekiem
tnieks
tnieku
tniekus
tnis
tniska
tniskais
tniskaja
tniskajiem
tniski
tniskie
tniskiem
tnisko
tniskos
tnisku
tniskus
to
toba
tobago
tobri
today
togad
together
togo
tojamajiem
tojos
tokija
tokijas
toksi
tokyo
tola
tolaik
tolcers
toledo
tolin
tolki
tols
tolstojs
tolu
tom
toma
tomas
tomasa
tomass
tomasu
tomatoes
tome
tomes
tompsons
toms
tomsons
tomu
ton
tona
tonalita
tone
toni
tonight
tonijs
tonis
tonna
tonnas
tonnu
tons
tony
too
top
topa
topogra
topographische
topolog
topos
tops
topu
tora
toradz
toreiz
toreize
torino
torn
torni
tornis
toro
toronto
torpe
torpedo
torps
torres
tors
torun
tos
toska
tostarp
tot
tota
total
totalita
toties
tots
tottenham
touch
tour
tourism
tournament
tournaments
tower
town
toyota
tp
tr
tra
trach
track
trade
tradi
tradiciona
traffic
trag
trail
train
traina
trainais
traja
trajektorija
trajektorijas
trajektoriju
trak
traka
trakta
trakte
traktor
traktoru
trallis
trampa
trampli
tramps
tramvaja
tramvaji
tramvajs
tramvaju
trans
transfer
transfermarkt
transforma
transforme
transilva
transla
translated
translation
transle
translitera
transplanta
transport
transporta
transportam
transporte
transportkug
transportli
transports
transportu
tranze
tranzi
tras
trase
trases
trasi
trauce
trauka
trauki
trauks
trauksmes
trauku
trauma
traumas
traumu
trauss
travel
tre
treatment
tree
trees
treijs
trek
treka
treknraksta
trenc
trene
trenera
trenere
treneri
treneris
treneru
trenin
tres
trgaitas
tri
trial
triba
tribi
tribuna
tribune
trieciena
trieciens
triecienu
trihs
trija
trijiem
trijnieka
trijos
trijstu
triju
trika
trillera
trilleris
trilog
trim
trimda
trimdas
trin
trina
trinida
trio
triple
tris
triumfa
triumfe
tro
trofeju
troglodytes
troja
trojas
troks
troksni
troksnis
trolejbusa
trolejbusi
trolejbusiem
trolejbuss
trolejbusu
tron
troni
trophe
tropical
tropiska
tropos
tropu
tros
trs
trslidos
trslidota
trspe
tru
true
truma
trumam
trump
trums
trumu
trupa
trus
trusis
trust
truth
ts
tskola
tsnama
tsnams
tspe
tt
ttt
tu
tuberkulozes
tuesday
tuks
tuksnes
tuksnesi
tuksnesis
tukuma
tukums
tulk
tulkoja
tulkojis
tulkojuma
tulkojumi
tulkojums
tulkojumu
tulkojusi
tulkos
tulkota
tulkoti
tulkots
tulu
tumes
tums
tumsa
tumsas
tundra
tundras
tunel
tuneli
tunelis
tunisija
tunisijas
tupes
tur
turaidas
turas
turbi
turbo
turcija
turcijas
turciju
turdus
ture
turgen
turi
turienes
turkesta
turkey
turki
turkiem
turkish
turkla
turkme
turkmenista
turku
turlavas
turn
turner
turni
turp
turpat
turpina
turpinot
turpinoties
turpma
turpreti
turpretim
tus
tutgarte
tutiempo
tuva
tuvajos
tuvas
tuve
tuves
tuvi
tuvina
tuvo
tuvoja
tuvojas
tuvojoties
tuvos
tuvs
tuvu
tuvuma
tv
tva
tvaika
tvaikon
tvaikonis
tvaiks
tvaiku
tvalsts
tve
tveida
tveras
tvertne
tvertnes
tvingu
tvnet
twitter
two
tyler
tylopilus
type
u
ua
uab
uae
uan
ubi
ubl
ubu
ubuntu
uc
uci
uciema
uciems
udhs
udo
udp
uefa
ufa
ufas
ug
uga
uganda
ugandas
ugaun
ugun
uguna
uguni
uguns
ugunsdze
ugunsgre
ugunsmu
uhan
ui
uiguru
ujorka
ujorkas
ujorku
uk
uka
ukalna
ukalns
ukc
ukotkas
ukrain
ukraina
ukrainai
ukrainas
ukraine
ukrainian
ukrainiski
ukrainu
uks
uku
ukura
ul
ula
ulbrokas
ulcs
ulda
uldis
uljeta
ulman
ulmanis
ulrihs
ultima
ultimate
ultraskan
ultratop
ulusa
um
uma
umam
umas
umberto
umi
umiem
umos
ums
umtiesi
umu
umuiz
umurgas
umus
un
una
und
unda
under
underground
understanding
une
unesco
unga
ungl
unika
union
unit
unita
united
unity
universa
universal
universalis
universe
universia
universita
universitas
universite
university
unix
unofficial
uns
up
upa
upc
upcel
update
upe
upei
upejos
upenieks
upes
upi
upiela
upju
uplate
upmalas
upmales
upon
upsa
upura
upure
upuri
upuriem
upuris
upuru
upurus
ur
ura
ural
uravl
urba
urban
urbs
urdu
urga
uri
urka
urkas
urku
url
urna
uroleucon
urs
ursus
urta
urugvaja
urugvajas
urupuc
urupucis
us
usa
usb
usd
use
used
user
usgs
using
usmas
uss
ussr
ut
uta
utc
ute
utt
uv
uva
uvas
uve
uves
uvi
uvis
uvus
uvusi
uz
uzaicina
uzaudzis
uzauga
uzbe
uzbekista
uzbeku
uzbru
uzbruce
uzbruka
uzbrukt
uzbrukuma
uzbrukumam
uzbrukumi
uzbrukumiem
uzbrukums
uzbrukumu
uzbrukumus
uzbu
uzbudina
uzce
uzcel
uzcels
uzcelt
uzcelta
uzceltas
uzcelti
uzcelts
uzda
uzdeva
uzdevuma
uzdevumi
uzdevumiem
uzdevums
uzdevumu
uzdevumus
uzdots
uze
uzepe
uzglaba
uzi
uzka
uzkalnin
uzkla
uzkra
uzla
uzlabo
uzlaboja
uzlabojot
uzlabojumi
uzlabos
uzlabot
uzlabota
uzlabots
uzlabotu
uzlasa
uzliek
uzlika
uzlu
uzmani
uzme
uzn
uzpildes
uzplauka
uzplaukuma
uzplaukums
uzplaukumu
uzpu
uzra
uzraksti
uzraksts
uzrakstu
uzraudzi
uzrauga
uzreiz
uzruna
uzsa
uzskaites
uzskaiti
uzskata
uzskati
uzskatiem
uzskatot
uzskats
uzskatu
uzskatus
uzspridzina
uzsta
uzsu
uzsvars
uzsvaru
uzsve
uzsver
uzsverot
uzticami
uztice
uztici
uztur
uztura
uzturas
uzture
uzturoties
uzturs
uzturu
uztve
uztver
uztvere
uztveres
uztveri
uztvers
uztvert
uztverta
uzva
uzvar
uzvara
uzvarai
uzvaras
uzvare
uzvarot
uzvaru
uzvedi
uzveica
uzzi
uzzin
uzzina
uzzinot
v
va
vabol
vabole
vaboles
vada
vadakstes
vadi
vadiem
vadims
vadli
vadon
vadoni
vadonis
vados
vadot
vadoties
vads
vadu
vaga
vagona
vagoni
vagonu
vai
vaica
vaidavas
vaigu
vain
vaina
vainaga
vainags
vainagu
vainas
vaini
vainoja
vainu
vaira
vairoga
vairogs
vairogu
vairojas
vairos
vairoties
vairs
vairuma
vairumam
vairums
vairumtirdznieci
vais
vaits
vaivadija
vaivadijas
vaivads
vaives
vaja
vajadze
vajadzi
vajag
vajai
vajam
vajiem
vajos
vakara
vakare
vakarin
vakarle
vakaros
vakars
vakaru
vakci
vakcina
vakcine
vakuuma
val
valahijas
valda
valde
valdema
valdes
valdi
valdis
valdmanis
valdnieka
valdniekam
valdnieki
valdniekiem
valdnieks
valdnieku
valdos
valds
vale
valencia
valensija
valensijas
valenti
valga
valgas
valgundes
valis
valka
valkas
valks
valku
valles
valley
valmiera
valmieras
valmieru
valni
valnis
valoda
valodai
valodas
valodi
valodnieci
valodnieks
valodu
valsis
valsti
valstij
valstin
valstis
valstiska
valstisko
valsts
valstspilse
valstsvi
valstsvieni
valstu
valtera
valters
valteru
valu
valua
value
values
valve
vam
vampi
van
vana
vanaga
vanagi
vanags
vanagu
vanas
vanda
vandal
vandzenes
vanellus
vanemas
vangaz
vanguard
vanilla
vanku
vans
vanta
vanu
vanuatu
var
vara
varai
varakl
varam
varas
varavi
varbu
varcs
vardarbi
varde
vardes
vardi
vare
varena
vareni
varepsilon
vari
varia
varianta
varianti
variantiem
variantos
variants
variantu
varie
varieta
variety
varis
varmijas
varon
varone
varoni
varonis
varphi
vars
varu
varz
vas
vasal
vasali
vasalis
vasara
vasarai
vasaras
vasarni
vasaru
vasi
vasil
vasilijs
vaska
vasks
vaskula
vatika
vaz
vbe
vdabas
vdal
vdarbi
vdarbu
vdiena
vdienas
vdk
vdr
ve
vec
veca
vecais
vecaja
vecas
vecauces
veci
vecie
veciem
vecliepa
vecma
vecmi
veco
vecos
vecpiebalga
vecpiebalgas
vecpils
vecpilse
vecri
vecs
vecsaules
vecte
vectici
vecu
vecuma
vecumam
vecumnieku
vecums
vecumu
vecva
ved
veda
vede
vedela
vedis
vef
veg
vega
vegas
vehicle
vei
veic
veica
veice
veices
veici
veicies
veicina
veicinot
veicis
veicot
veida
veidam
veidenbauma
veidi
veidiem
veidne
veido
veidoja
veidojas
veidojies
veidojis
veidojos
veidojot
veidojoties
veidojumi
veidojums
veidojumu
veidojus
veidojusi
veidojusies
veidola
veidos
veidot
veidota
veidotais
veidotaja
veidotas
veidoti
veidoties
veidoto
veidots
veidotu
veids
veidu
veidus
veikala
veikali
veikalos
veikals
veikalu
veikli
veiks
veiksmes
veiksmi
veikt
veikta
veiktaja
veiktas
veikti
veiktie
veikto
veikts
veiktspe
veiktu
veikus
veikusi
veima
veins
veiss
vektora
vektors
vektoru
vel
vela
vele
veles
veli
velis
velk
velkon
vella
velna
velns
velobrauciena
velobrauciens
velonews
velosipe
vels
velsa
velsas
velsies
velta
velti
velve
vems
ven
vena
vendu
vene
venecue
venera
veneras
venes
vens
venta
ventas
ventila
ventspili
ventspils
venu
venus
vera
veras
verdi
verdzi
vere
veres
vergi
vergiem
vergu
veri
veris
verlag
verners
verona
veronika
veros
verpakovskis
vers
versal
versija
versijai
versijas
versiju
version
verss
vert
vertika
verts
veru
verve
very
ves
vesela
veselas
veseli
veselo
vesels
veselu
vesera
vessoda
vessods
vessodu
vessta
vest
vesta
vestam
vestfa
vestgotu
vesti
vestienas
vestnesis
vests
vestu
vesture
vesveida
vesveids
vesveidu
vesvieta
vesvietu
vetera
veterina
vfb
vfl
vfr
vi
via
viasat
vibra
vic
vica
vice
vicec
viceprezidenta
viceprezidents
viceprezidentu
vics
victor
victoria
victory
vid
vida
vide
videi
video
videoklipa
videoklips
videoklipu
videos
videospe
vides
vidi
vidiene
vidriz
vids
vidu
vidum
vidus
vidusa
vidusdal
vidusju
viduslaikiem
viduslaikos
viduslaiku
viduslatvijas
vidusskola
vidusskolai
vidusskolas
vidusskolu
vidustece
vidzeme
vidzemes
vidzemi
vie
viedokl
viedokli
viedoklis
viedta
viegla
vieglais
vieglatle
viegli
vieglo
viegls
vieglu
viela
vielas
vielmain
vielu
viem
vien
viena
vienai
vienalga
vienam
vienas
vienatne
vienbalsi
viendabi
viendienas
viengadi
vieni
vieniem
vienka
vienkra
vienlaici
vienlaikus
vienli
vienme
vienna
viennozi
vieno
vienoja
vienojas
vienos
vienota
vienotas
vienoti
vienoties
vienots
vienotu
vienpadsmit
vienpra
vienpuse
vienreiz
vienreize
viens
viense
vienskaitl
vienskaitli
vienspe
viensta
vientul
vientuli
vienu
vienus
vienveidi
vienvirziena
vies
viesi
viesiem
viesis
viesma
viesni
viesoja
viesos
viestura
viesturs
viesturu
viesu
viesul
viesulis
viet
vieta
vietai
vietalvas
vietas
viete
vietne
vietnes
vietni
vietniece
vietnieci
vietnieka
vietnieks
vietnieku
vietniekva
vietu
vietva
vietvaldi
vietvalz
view
vigo
vii
viii
vija
vijai
vijas
vijol
vijole
vijolei
vijoles
vijoli
vijolnieks
vijs
viju
vika
vikidatiem
vikikra
viking
vikingi
vikingu
vikipe
viks
viktora
viktorija
viktorijas
viktors
viktoru
vil
vila
vilas
vilca
vilce
vilces
vilciena
vilcieni
vilcieniem
vilciens
vilciensas
vilcienu
vilcin
vilhelma
vilhelmam
vilhelmi
vilhelms
vilhelmu
vili
vilis
viljama
viljams
viljamsa
viljamss
viljamu
viljandi
vilka
vilki
vilks
vilku
vilkva
villa
ville
villems
villijs
vills
vilna
vilnas
vilne
vilni
vilnis
vilnius
vilnu
vilosta
vilostas
vils
vilsona
vilsons
vilti
viltus
vim
vimba
vimbldonas
vin
vina
vinc
vincent
vingrina
vingros
vingrota
vinila
vinipegas
vinsents
vinters
vinz
violeta
violeti
vira
vircavas
virdz
vires
virga
virgas
virgin
virginia
virkne
virknes
virkni
virpul
virs
virsa
virsais
virsaitis
virsas
virsbu
virsdirig
virsdzimta
virse
virska
virsleitnants
virsli
virsma
virsmai
virsmas
virsmizin
virsmu
virsnieka
virsnieki
virsniekiem
virsnieks
virsnieku
virsniekus
virsotne
virsotnes
virsotni
virspave
virspilskunga
virspuse
virsu
virsvadi
virszemes
virtembergas
virtua
virtual
virtuve
virtuves
virus
virves
virza
virzi
virziena
virzienam
virzieni
virzieniem
virzienos
virziens
virzienu
virzoties
virzul
vis
visa
visai
visam
visapka
visaptveros
visas
visaugsta
visbaga
visbeidzot
visbiez
visbieza
visdaz
visdri
vise
visgara
visi
visiem
visilga
vision
visit
visizplati
viskonsinas
viskozita
viskrievijas
vislaba
vislas
visliela
visma
vismaz
vismaza
visms
visos
vispa
vispasaules
vispazi
vispirms
visplas
vispopula
vispusi
viss
vissavieni
vissena
vissezonas
vissilta
visspe
visstipra
vissvari
vissve
vista
vistas
viste
visti
visticama
vists
vistu
vistuva
visu
visual
visuma
visums
visumu
visur
visurga
visus
visvaira
visvaldis
visveca
visveiksmi
viszema
vita
vitami
vitebska
vitebskas
vitolds
vitra
viva
vivas
vizi
vizma
vizua
vizualiza
vja
vjac
vjetnama
vjetnamas
vjetnamies
vji
vjiem
vjl
vju
vjus
vk
vl
vladimir
vladimira
vladimiras
vladimirovic
vladimirs
vladimiru
vladislava
vladislavs
vlads
vlendas
vmateria
vmu
vnieci
vnieka
vniekam
vnieki
vniekiem
vnieks
vnieku
vniekus
vo
voc
vocis
voice
voices
voja
vojama
vojamie
vojamo
vojas
vojevodiste
vojevodistes
vojis
vojos
vojot
vojumi
vojumiem
vojumu
vojus
vojusi
voka
vokl
vokli
voklim
voklis
vol
voldema
volejbola
volejbols
volfa
volfgangs
volfs
volgas
voli
volkers
volkswagen
volodimirs
vols
volta
volters
volume
volumes
vom
von
voron
voros
vos
voshod
vostas
vostok
vot
vota
votaja
votas
voti
voties
voto
votos
vots
votspe
votu
vova
voyager
vozn
vpilse
vpra
vrangel
vs
vseslavic
vsevolods
vsia
vspa
vsudraba
vu
vudijs
vuds
vuelta
vulfs
vulgaris
vulka
vulpes
vuls
vultures
vuma
vums
vumu
vurpu
vus
vusi
vv
vvalsts
vvieta
vvietas
vz
vzal
vzeme
vzemei
vzemes
w
wa
wael
waffen
wagner
wales
walk
walker
wall
walt
walter
wanderer
wanderers
wang
want
war
warbler
warblers
warner
warriors
wars
warsaw
warszawa
was
washington
watch
water
watson
wave
way
wayback
wayne
we
weather
web
webcite
webmineral
website
webster
week
weekly
weeks
weinstein
welcome
welt
werder
were
werner
west
western
wgm
whale
whales
what
when
where
which
white
who
whois
why
wi
wide
wie
wien
wii
wiki
wikimedia
wikipedia
wikivoyage
wild
wildlife
wiley
wilhelm
will
willem
william
williams
wilson
wim
win
wind
windows
wings
winner
winners
wins
winter
with
within
without
wiwibloggs
wizards
wnba
wo
wojciech
wojewo
wolf
wolfgang
wolves
woman
women
won
wonder
wood
word
wordpress
words
work
working
works
world
worldfootball
worlds
worldteam
worldtour
worldwide
would
wrestling
wright
wta
wu
wwe
www
x
xa
xbox
xc
xd
xe
xeno
xerocomus
xi
xii
xiii
xiv
xix
xl
xls
xml
xp
xv
xvi
xvii
xviii
xx
xxi
xxiv
xxxtentacion
y
ya
yahoo
yale
yang
yaogan
year
years
yellow
yo
york
you
young
your
youth
youtube
yu
z
za
zagreb
zagreba
zagrebas
zai
zak
zaks
zal
zalcburga
zalcburgas
zalda
zalks
zalves
zambija
zamek
zan
zane
zapol
zaporiz
zara
zari
zariem
zarin
zarna
zarnas
zarnu
zaros
zars
zaru
zarus
zas
zasulauka
zatlera
zatlers
zaubes
zaude
zaurs
zb
zc
zd
zdene
zdenes
ze
zealand
zebiekste
zebra
zebras
zebru
zei
zeit
zeitschrift
zeitung
zek
zekne
zeknes
zekni
zel
zele
zelenskis
zelis
zelta
zeltaini
zelti
zeltin
zelts
zeltu
zem
zema
zemas
zeme
zemei
zemen
zemes
zemeslodes
zemesraga
zemesrags
zemess
zemessardzes
zemestri
zemgal
zemgale
zemgales
zemgali
zemgals
zemi
zemien
zemiene
zemienes
zemita
zemju
zemkopi
zeml
zemnieka
zemnieki
zemniekiem
zemnieks
zemnieku
zemniekus
zemo
zems
zemu
zen
zena
zenes
zeni
zenit
zens
zenta
zentenes
zepa
zeppelin
zeps
zera
zero
zes
zeva
zf
zg
zgova
zgovas
zhang
zheng
zi
zibatmin
ziben
zibens
zied
zieda
ziede
ziedi
ziediem
ziedin
ziedkopa
ziedkopas
ziedoja
ziedojumiem
ziedojumu
ziedon
ziedonis
ziedos
ziedot
zieds
ziedu
ziedus
ziem
ziema
ziemas
ziemassve
ziemel
ziemo
ziemos
ziemu
ziepju
ziepniekkalna
ziepniekkalns
zies
zigfri
zigmunds
zigurds
zija
zijai
zijas
ziju
zik
zika
zikai
zikas
zikla
ziku
zil
zila
zilais
zilas
zilbe
zilbes
zileni
zili
zilie
zilo
zilon
zilonis
zils
zilspa
zilu
zilupe
zilupes
zimbabve
zimbabves
zin
zina
zinas
zini
zinot
zirdzin
zirga
zirgam
zirgi
zirgiem
zirgs
zirgu
zirgus
zirn
zirnekl
zirnis
zis
ziska
zivi
zivis
zivju
zivs
zivsaimnieci
zivtin
zle
zli
zma
zmains
zmas
znas
znavas
znotin
zo
zoba
zobena
zobenbra
zobens
zobenu
zobenval
zobi
zobiem
zobin
zobu
zodiaka
zolitu
zolta
zommers
zona
zonas
zonde
zondes
zondi
zone
zonu
zoo
zooda
zoolog
zoological
zoologs
zoology
zorro
zose
zosis
zoss
zosterops
zosu
zr
zs
zt
zta
zts
zu
zudums
zudumu
zudus
zudusi
zudusilatvija
zum
zuma
zums
zumu
zunda
zur
zus
zutis
zva
zvaigz
zvaigzna
zvaigzne
zvaigznes
zvaigzni
zvana
zvani
zvans
zvanu
zve
zveida
zveja
zvejas
zvejnieci
zvejnieka
zvejnieki
zvejnieks
zvejnieku
zvelta
zvelts
zvezda
zvi
zviedri
zviedriem
zviedrija
zviedrijai
zviedrijas
zviedriju
zviedriski
zviedru
zvirbul
zvirbulis
zvirgzdenes
zzs
{
|
}
~
¡
£
§
©
«
¬
­
®
¯
°
±
²
³
´
µ
·
º
»
¼
½
×
ß
æ
ð
÷
ø
þ
ı
ł
ŋ
ƒ
ɐ
ɑ
ɔ
ə
ɛ
ɡ
ɪ
ɲ
ɹ
ʃ
ʊ
ʒ
ʰ
ʲ
ʻ
ʼ
ʾ
ʿ
ˀ
ˈ
ˌ
ː
ˑ
˙
ˠ
̀
́
̂
̃
̄
̆
̇
̈
̉
̊
̋
̌
̑
̓
̔
̛
̞
̠
̣
̥
̦
̧
̨
̩
̪
̯
̱
̸
͂
ͅ
͡
α
β
βω
γ
δ
ε
ζ
ζω
η
θ
ι
κ
λ
μ
ν
νω
ξ
ο
ομαι
π
ρ
ς
σ
τ
της
υ
φ
φω
χ
ψ
ω
ϕ
ϵ
а
аи
александр
александрович
алексеи
ан
андреи
анна
б
балтии
большая
большои
борис
в
ва
валерии
василии
васильевич
века
виктор
владимир
владимирович
во
вои
все
вып
г
газета
гг
гл
года
государственныи
грибы
д
для
дмитрии
до
дор
дорович
е
евгении
его
ж
же
жизнь
журнал
з
за
земли
земля
и
иван
иванович
игорь
из
изд
издательство
или
имени
институт
истории
история
к
ка
как
карпов
клуб
книга
князь
космос
курс
л
латвии
ленинград
лет
литературы
лович
м
материалы
мир
мира
михаи
михаил
мкс
москва
муниципальным
мыс
н
на
населения
наук
наука
не
ни
николаевич
николаи
новая
новости
ны
о
об
области
область
образованиям
олег
он
остров
острова
от
п
павел
пе
петрович
по
погода
под
полярная
постоянного
почта
президента
про
прогресс
р
рае
раи
растительность
ред
республики
риа
рига
роман
россии
россия
русская
русскии
с
саи
санкт
сергеи
ская
скии
ского
скои
словарь
сн
со
советская
советскои
союз
спб
спорт
справочник
сср
ссср
станция
стр
т
та
таи
те
том
тр
у
уезд
указ
украі
улица
ф
фе
федерации
физкультура
флора
х
химия
ц
центр
ч
чемпионата
численность
что
ш
шахматы
ъ
ы
э
энциклопедии
энциклопедическии
энциклопедия
ю
юрии
я
января
і
҃
թ
ְ
ִ
ֵ
ֶ
ַ
ָ
ֹ
ּ
ׁ
א
ב
ג
ד
ה
ו
ח
י
ל
מ
ן
נ
ר
ש
ת
،
ا
ب
بن
ة
د
ر
ل
م
محمد
ن
و
ي
َ
ُ
ِ
ّ
ْ
ٓ
ٔ
ٕ
ނ
ރ
ކ
އ
މ
ދ
ތ
ަ
ާ
ި
ު
ެ
ް
ं
क
ग
ज
त
द
ध
न
प
ब
भ
म
य
र
ल
व
श
ष
स
ह
़
ा
ि
ी
ु
ू
े
ो
्
ক
গ
জ
দ
ন
ব
ম
য
র
শ
হ
়
া
ি
ী
ু
ে
্
க
ச
த
ப
ம
ர
வ
ா
ி
ு
ே
்
ా
ి
్
ั
ิ
ี
ุ
ู
็
่
้
์
་
ོ
ု
း
်
្
​
‌
‎
‏
‐
‑
‒
–
—
―
‘
’
“
”
„
†
‡
•
…
‰
′
″
⁄
⁡
€
ℏ
№
™
⅓
←
↑
→
↔
↷
⇄
∀
∂
∅
∆
∇
∈
∑
−
∗
∘
√
∞
∠
∣
∩
∪
∫
∬
∮
∼
≈
≡
≤
≥
⊙
⋅
⋮
⋯
③
④
⑦
▄
█
░
△
▼
●
♔
♕
♖
♗
♘
♭
⟨
⟩
⟶
⩽
ⴰ
⺀
⺄
⺆
⺈
⺊
⺌
⺕
⺝
⺸
⺼
⿰
⿱
⿲
⿳
⿴
⿵
⿶
⿷
⿸
⿹
⿺
⿻
、
》
「
」
〢
あ
い
う
お
か
き
け
こ
さ
し
す
た
っ
て
と
な
に
の
は
ひ
ま
み
も
ら
り
る
を
ん
゙
゚
ア
ィ
イ
ウ
オ
カ
キ
ク
ケ
コ
サ
シ
ス
タ
チ
ッ
テ
ト
ナ
ニ
ハ
ヒ
フ
ヘ
ホ
マ
ム
モ
ャ
ユ
ラ
リ
ル
レ
ロ
ン
・
ー
㇁
㇂
㇄
㇇
㇈
㇉
㇓
㐁
㐄
㐅
㐌
㐫
㐬
㐭
㐮
㐱
㑒
㒵
㒸
㒼
㓁
㓞
㔾
㕛
㕣
㖾
㘝
㚅
㚇
㚔
㚘
㝉
㝡
㝴
㝵
㞋
㞢
㞷
㠩
㠭
㠯
㡀
㡭
㡿
㢲
㢴
㣇
㣺
㥯
㪅
㫄
㫐
㫒
㫺
㬅
㬎
㬥
㬰
㲋
㳄
㷠
㸒
㸚
㸦
㼌
㼲
㽞
㿟
䀠
䂞
䍃
䏍
䒑
䖍
䖒
䖝
䖵
䙴
䚻
䜌
䝿
䡛
䧹
䪞
一
丁
丂
七
丄
丅
丆
万
丈
三
上
下
丌
不
与
丏
丐
丑
专
且
丕
世
丘
丙
业
东
丞
丢
丣
两
严
並
丨
丩
个
丫
丬
中
丮
丰
丱
串
丵
丶
丷
丸
丹
为
主
丽
丿
乀
乂
乃
久
乆
乇
么
义
之
乌
乍
乎
乏
乐
乑
乔
乖
乗
乘
乙
乚
乛
乜
九
乞
也
习
乡
乳
乾
亀
亅
了
亇
予
争
事
二
亍
于
亏
亐
云
互
亓
五
井
亘
亚
亜
亞
亟
亠
亡
亢
交
亥
亦
产
亨
亩
享
京
亭
亮
亯
亰
亲
亳
亶
亷
人
亻
亼
亾
仁
今
介
仌
从
仐
仑
仒
仓
仕
他
付
仝
代
令
以
仮
任
企
伊
伏
伐
休
会
伯
但
位
佐
何
佘
余
作
佥
使
來
侈
侌
侖
侯
侵
便
俊
保
俞
信
修
倉
倍
候
倠
健
備
僉
僕
儿
兀
允
兂
元
兄
充
兆
兇
先
光
兊
克
兌
免
兑
兒
兓
兔
党
兜
兟
入
全
兩
兪
八
公
六
兮
兰
共
关
兵
其
具
典
兹
兼
冀
冂
冃
冄
内
冈
冉
冊
冋
册
再
冎
冏
冐
冒
冓
冖
冗
冘
军
农
冝
冡
冥
冫
冬
冷
几
凡
凢
凵
凶
凷
凸
凹
出
函
凾
刀
刁
刂
刃
刄
刅
分
切
刍
刑
划
刕
刖
列
刘
则
初
別
利
别
到
制
刺
則
削
剌
前
剡
剽
劉
力
功
加
劦
助
劫
劳
劵
勃
勇
勉
勒
動
務
勞
勤
勹
勺
勻
勾
勿
匀
匂
包
匆
匈
匊
匋
匍
匕
化
北
匚
匝
匡
匪
匱
匸
匹
区
医
匽
匿
區
十
卂
千
卄
卅
卆
升
午
卉
半
卌
华
卑
卒
卓
单
卖
南
博
卜
卝
卞
占
卡
卢
卣
卤
卦
卩
卪
卬
卯
印
危
即
却
卵
卷
卸
卻
厂
厃
厄
历
厈
厉
厌
厓
厘
厚
原
厤
厥
厨
厭
厲
厶
厷
厸
去
厼
厽
叀
参
參
叅
又
叉
及
友
双
反
叐
发
叒
叔
叕
取
受
叚
叜
叟
口
古
句
另
叩
只
召
可
台
叱
史
右
叵
号
司
叹
吂
各
吅
合
吉
吊
吋
同
名
后
吏
向
吕
君
吝
吞
否
含
启
吳
吴
吹
吾
呂
呆
呈
告
员
呙
周
命
咅
和
咎
咠
咢
咨
咸
咼
哀
品
哉
員
哥
哲
唐
商
啇
問
啚
啬
啻
善
喜
喬
單
喿
嗇
噩
嚴
囊
囗
囘
囙
囚
四
回
囟
因
囧
囬
困
囱
囷
固
国
圂
圅
國
圍
圓
土
圡
圣
圥
在
圭
地
圶
圼
坐
坒
坚
坴
垂
垔
垚
埀
埋
城
埶
執
基
堂
堅
堆
堇
堯
塞
墨
壘
士
壬
壯
声
壳
壴
壹
壺
壽
夂
处
夅
夆
备
夊
夋
夌
复
夏
夒
夕
外
夗
夘
多
夜
夢
大
夨
天
太
夫
夬
夭
央
失
夲
头
夷
夸
夹
夻
夾
奂
奄
奇
奈
奉
奎
奏
奐
契
奓
奔
奚
奞
奠
奢
奥
奭
女
奴
奻
好
如
妄
妙
妟
妥
妻
妾
姑
委
姜
威
娄
婁
婴
嬰
嬴
子
孑
孔
孕
孖
字
存
孚
孛
孝
孟
季
孤
学
孫
孱
學
宀
宁
宂
它
宅
宇
守
安
宋
完
宏
宓
宗
官
定
宛
宜
宝
客
宣
室
宮
宰
害
家
容
宾
宿
寄
寅
密
富
寒
察
寧
審
寫
寬
寮
寸
对
寺
寻
寽
対
寿
封
尃
射
将
將
專
尉
尊
尋
尌
對
小
少
尒
尓
尔
尖
尗
尚
尞
尢
尣
尤
尧
尨
尭
就
尸
尹
尺
尻
尼
尽
尾
尿
局
居
屈
屋
屎
屏
屑
展
屖
屚
属
屠
屡
屬
屮
屯
屰
山
屵
屾
岁
岂
岑
岡
岩
岳
岸
峯
島
崇
崎
崑
崔
崖
崙
崩
嵬
嶲
巂
巛
川
州
巟
巠
巢
巤
工
左
巧
巨
巩
巫
差
己
已
巳
巴
巷
巸
巽
巾
巿
帀
市
布
希
帚
帛
帝
带
師
席
帶
常
干
平
年
幵
并
幷
幸
幺
幻
幼
幽
幾
广
広
庄
床
底
店
庚
府
度
庫
庭
庶
康
庸
廉
廌
廛
廣
廩
廴
延
廷
建
廾
廿
开
弁
弃
弄
弇
弋
式
弓
弔
引
弗
弘
弜
弟
弥
弦
弱
張
強
强
彊
彌
彎
彐
彑
当
彔
录
彖
彗
彡
形
彥
彦
彧
彭
彳
役
彼
往
待
律
徒
得
徙
從
復
微
徵
心
忄
必
忌
忍
志
忝
忠
忩
快
念
忽
忿
思
怠
急
怱
恆
恒
恩
恭
息
悉
患
悤
悲
悶
惠
惡
惢
愁
愈
意
愛
感
慈
慧
慮
憂
憲
應
戀
戈
戉
戊
戋
戌
戍
戎
成
我
戒
戔
或
戚
戠
戢
截
戲
戶
户
戹
戼
戾
房
所
扁
扇
手
扌
才
打
托
执
承
折
报
拉
拜
拿
掌
推
提
摩
支
攴
攵
收
攸
改
放
政
敄
敏
敕
敖
敗
敝
敞
敢
散
敦
敫
敬
数
敷
數
斂
文
斉
斊
斗
斤
斥
斩
斬
斯
新
方
於
施
斿
旁
旋
族
无
旡
既
旣
日
旦
旧
旨
早
旬
旱
旲
时
旾
昆
昇
昌
昍
明
昏
易
昔
昗
昜
星
春
昬
是
昱
昴
昷
時
晃
晋
晏
普
景
晶
智
暑
暴
曇
曩
曰
曲
曳
更
曷
書
曹
曼
曾
替
最
朁
會
月
有
朋
服
朔
朕
朗
望
朝
木
朩
未
末
本
札
朮
术
朱
朵
朶
朿
杀
李
杏
村
杜
束
条
来
東
杲
杳
松
析
林
枚
果
枝
枲
枼
某
柔
查
柬
柰
柴
栗
株
桀
桑
桼
梁
條
梟
梨
棘
棠
棥
森
楚
業
楽
榮
樂
樊
樹
橋
機
欠
次
欣
欮
欲
欶
欽
款
歆
歇
歌
歛
止
正
此
步
武
歨
歪
歮
歯
歰
歲
歴
歷
歸
歹
歺
死
殳
段
殷
殸
殹
殺
殻
殿
毋
毌
母
每
毒
比
毕
毚
毛
毳
氏
氐
民
气
氣
水
氵
氶
氷
永
氺
氾
求
汝
汞
江
沃
沓
沙
沝
河
治
泉
法
波
泣
泥
泰
洛
津
洪
活
派
流
浦
浪
浮
海
淡
淮
清
渚
渠
渡
湖
湯
滿
漸
澤
火
灬
灭
灰
灵
灷
炅
炎
炏
炗
炙
炭
為
烈
烏
烝
焉
無
焦
焱
然
煞
熊
熏
燕
營
燮
爪
爫
爭
爯
爰
爱
爲
爵
父
爻
爽
爾
爿
片
牙
牚
牛
牜
牟
牢
牧
牪
牽
犀
犬
犭
犮
狂
狄
狊
独
狺
猋
猒
猪
献
獻
玄
率
玉
王
玟
玨
珎
班
理
琴
瑟
瑩
瓜
瓦
甘
甚
生
産
用
甫
甬
田
由
甲
申
电
甶
男
甸
甹
画
甾
畀
界
畏
畐
留
畜
畟
畢
畧
畨
番
畫
異
畱
當
畺
畾
疊
疋
疌
疑
疒
疾
癶
癸
癹
登
發
白
百
皀
皃
的
皆
皇
皋
皐
皕
皮
皷
皿
盃
盆
盇
盈
益
盍
盎
监
盒
盖
盛
盡
監
盤
盧
目
直
相
盾
省
眇
眉
看
県
眔
眞
真
眷
眼
眾
着
睘
睪
睿
瞏
瞢
瞿
矍
矛
矞
矢
矣
知
矦
短
石
破
碎
磊
磨
示
礻
礼
社
神
祟
票
祭
禀
禁
福
禸
禹
禺
离
禽
禾
禿
秀
秃
秉
秋
科
秝
秦
移
稟
穀
穌
穴
究
穹
空
穿
突
窄
窒
立
竒
竜
竝
竟
章
童
竹
笑
笠
第
筆
等
答
箕
算
箴
節
篤
篭
米
粉
粛
粟
粤
粦
粲
糞
糸
糹
系
約
納
素
索
紫
累
細
絜
絫
絲
維
綿
縣
繇
纍
纟
缶
网
罒
罔
罕
罗
罙
罡
罢
罪
署
罷
羅
羊
羌
羍
美
羔
羕
羗
羞
羡
羣
群
義
羲
羸
羽
翁
翏
習
翕
翟
翠
翼
老
耂
考
者
耆
而
耎
耑
耒
耳
耴
耶
耷
聂
聊
聖
聚
聶
聿
肀
肃
肅
肉
肖
肙
肥
肩
肯
育
肴
胃
背
胡
胥
能
脊
脩
膚
臣
臤
臧
自
臬
臭
臯
臱
至
致
臺
臼
臽
臾
臿
舀
舂
舄
與
興
舉
舌
舍
舛
舜
舞
舟
般
艮
良
色
艸
艹
艾
芒
芔
芬
芮
花
芳
芺
芻
苔
苗
苟
若
苦
英
茶
茸
荅
草
荒
荣
荼
莆
莧
莫
莽
菆
菊
菐
華
萬
落
葉
著
葛
董
葵
蒙
蒦
蒼
蓋
蓬
蓺
蔑
蔡
蕉
蕭
薄
薛
薦
薰
藍
藏
藤
藥
蘭
虍
虎
虐
虒
虔
處
虖
虗
虘
虚
虛
虜
虞
虫
虽
蚤
蚩
蜀
蜜
蟲
蠡
血
行
衍
衛
衣
衤
表
衮
衰
袁
袞
裕
褭
褱
襄
襾
西
覀
要
覃
見
規
覓
覧
親
覽
见
角
解
言
訁
訇
計
詹
誩
諸
讠
谷
豆
豈
豊
豐
豕
豖
豙
象
豦
豩
豪
豸
貇
貝
貞
貟
負
貢
貧
貪
貫
責
貳
貴
買
費
賁
資
賈
賏
賓
賔
賛
賞
賢
賣
質
賴
贊
贝
贡
责
贯
贲
贵
赖
赞
赤
赦
走
越
足
路
蹇
身
躬
車
軍
軎
軟
輦
车
辛
辜
辟
辥
辰
辱
農
辵
辶
边
达
过
近
连
迷
追
退
送
逆
逐
通
速
造
逢
連
逮
進
遀
遂
過
道
達
遣
適
遷
遺
邊
邑
邕
那
邦
邪
郎
部
郭
都
鄉
酉
酋
配
酓
釆
采
里
重
野
量
金
釒
鈴
錢
钅
長
镸
长
門
閃
閉
開
閏
閑
閒
間
閔
閵
閻
闌
门
间
闷
阑
阜
阝
阿
降
陳
隆
隊
隋
隡
隨
隱
隶
隹
隺
隻
隼
隽
难
雀
雁
雄
集
雈
雋
雍
雐
雔
雙
雚
雜
雝
離
難
雨
雩
雪
雲
零
雷
需
霍
霜
霝
霞
霸
靈
靑
青
非
靡
面
靣
革
韋
韦
韭
韯
韱
音
頁
頃
項
須
頗
頡
頻
顛
页
風
风
飛
飞
食
飠
養
饣
首
香
馬
馮
駦
马
骨
高
髟
鬥
鬯
鬲
鬼
魚
魯
鮮
鱼
鲁
鳥
鳳
鸟
鹵
鹿
麃
麗
麥
麦
麻
黃
黄
黍
黎
黑
黒
黨
黹
黽
黾
鼎
鼓
鼠
鼻
齊
齋
齐
齒
齿
龍
龙
龜
龟
龠
龰
龱
龴
龵
龶
龷
龸
龹
者
艹
ﬁ
﻿
（
）
／
？
｜
�
𠀁
𠀃
𠀆
𠀉
𠀎
𠀐
𠁁
𠁣
𠂆
𠂇
𠂈
𠂉
𠂊
𠂋
𠂎
𠂒
𠂔
𠂛
𠂡
𠂢
𠂤
𠂬
𠂭
𠂹
𠃊
𠃋
𠃌
𠃍
𠃎
𠃑
𠃓
𠃔
𠃜
𠄌
𠄎
𠄠
𠄢
𠆢
𠆥
𠇍
𠈌
𠌵
𠓜
𠔉
𠔥
𠔼
𠔽
𠔿
𠕀
𠕁
𠕋
𠘧
𠘨
𠙻
𠙼
𠚏
𠚒
𠚤
𠚪
𠣏
𠤎
𠤕
𠥓
𠦄
𠦑
𠦝
𠧒
𠧗
𠧪
𠩺
𠪚
𠫓
𠫔
𠫤
𠬛
𠬝
𠬞
𠬢
𠬤
𠬶
𠮛
𠮦
𠮷
𠯑
𠱠
𠳮
𠷎
𡈼
𡉀
𡉵
𡌥
𡍮
𡏳
𡕒
𡕩
𡕰
𡖅
𡗗
𡗜
𡘆
𡘤
𡧱
𡨄
𡩧
𡬠
𡭽
𡰣
𡰥
𡰪
𡰯
𡰱
𡷈
𡸁
𡿨
𡿩
𡿪
𡿺
𢀖
𢀛
𢀩
𢁙
𢆉
𢆰
𢆶
𢇁
𢇇
𢉖
𢌬
𢌿
𢏚
𢑑
𢑚
𢖻
𢙣
𢛳
𢦏
𢦒
𢧵
𢼄
𢾕
𣁋
𣄼
𣅀
𣅽
𣍘
𣎳
𣎵
𣏋
𣏼
𣗥
𣥂
𣥖
𣦵
𣦼
𣧄
𣪊
𣪠
𣬉
𣳾
𣶒
𤇾
𤊽
𤐫
𤓰
𤔔
𤕨
𤣩
𤰇
𤰔
𤰞
𤴓
𤴔
𤽄
𥁑
𥁕
𥃦
𥃩
𥃭
𥇡
𥑟
𥘅
𥘈
𥝢
𥫗
𥱡
𦈢
𦉪
𦉬
𦉼
𦍌
𦍒
𦎧
𦐇
𦓔
𦔮
𦘒
𦙃
𦚏
𦣝
𦣞
𦣻
𦥑
𦥔
𦥯
𦨉
𦭝
𦰩
𧆞
𧈧
𧘇
𧰨
𧴪
𧴮
𧵩
𧾷
𨸏
𨾴
𩙿
𩠐
𩫏
𩵋
𪉷
𪜀
𪟽
𪠲
𪩲
𫇦
𫔭
𫜸
𫝀
𫠣
𫠩
𫢉
𫥞
𫩏
𫩠
𫪡
𫲽
𫶧
𬀷
𬐘
𬗌
𬙙
𬛸
𬜯
𬟩
𬯁
𬴘
𬺻
𬼉
𬼖
𭀰
𭁈
𭁨
𭅰
𭑈
𭕄
𭗼
𭤨
𭥫
𭻾
𮅕
𮊿
𮍌
𮍏
𮓗
𮥼
𮧮
廾
𰀁
𰀄
𰀈
𰀉
𰀕
𰀠
𰀡
𰀢
𰀪
𰁜
𰃮
𰆊
𰆘
𰋙
𰕎
𰢴
𰧭
𰯲
00--
01--
010--
02--
03--
04--
05--
06--
07--
08--
09--
210--
310--
40--
44--
46--
48--
49--
51--
52--
53--
54--
55--
56--
57--
58--
59--
60--
61--
62--
65--
66--
67--
69--
70--
71--
72--
73--
74--
75--
76--
77--
78--
79--
80--
81--
82--
83--
84--
85--
86--
87--
88--
89--
90--
91--
92--
93--
94--
95--
96--
97--
978--
98--
99--
a--
aa--
ab--
aba--
abdul--
abe--
abi--
abl--
abs--
absorbc--
ac--
acet--
act--
aculieci--
ad--
ada--
adam--
ade--
adi--
adop--
adu--
adz--
ae--
aero--
aerokos--
aeros--
af--
ag--
aga--
age--
agri--
agro--
ah--
aha--
ai--
air--
ais--
aiz--
aizbil--
aizsarg--
aizspr--
ak--
aka--
aki--
ako--
akro--
aks--
aku--
akvato--
al--
ala--
alba--
albe--
ale--
alego--
aleks--
algebri--
algo--
ali--
alk--
alkoh--
all--
allge--
als--
alt--
alu--
alve--
aly--
am--
ama--
ambul--
ame--
ami--
amo--
amu--
amund--
an--
ana--
analy--
anar--
anato--
anatom--
anc--
and--
ane--
angl--
angu--
ani--
anne--
ano--
ans--
anth--
anthro--
anti--
antibio--
anto--
any--
ao--
ap--
apbal--
apdeg--
ape--
apg--
aphi--
api--
apjo--
apl--
aple--
apma--
app--
appo--
appro--
aps--
apsaimn--
apse--
apska--
apu--
apva--
apvaino--
aqua--
ar--
ara--
arc--
archa--
are--
argu--
arha--
arhitek--
ari--
arm--
arodsk--
art--
arte--
as--
asa--
asi--
asins--
aso--
asp--
ass--
aste--
astro--
at--
ata--
atalg--
atce--
atdz--
atdzej--
ate--
atka--
atl--
atli--
atm--
atom--
atp--
atra--
atrie--
ats--
atseg--
attais--
atv--
atva--
atza--
au--
audi--
audio--
aug--
augs--
aujampul--
auk--
aund--
aus--
austrum--
aut--
auto--
av--
ava--
ave--
avi--
avia--
avioka--
ax--
az--
azi--
b--
ba--
babi--
babk--
bac--
back--
bad--
bah--
bai--
bal--
balaenop--
balso--
bam--
ban--
band--
bandi--
bank--
bapt--
bar--
bara--
baro--
bas--
base--
basti--
bat--
bato--
bau--
bb--
be--
beat--
bec--
bei--
beisb--
bek--
bel--
ben--
benedi--
ber--
berk--
berto--
bes--
bet--
bez--
bezdi--
bezmugurkaul--
bh--
bi--
biatl--
bife--
big--
bik--
bil--
bin--
bio--
birk--
birming--
birz--
bis--
bit--
biz--
bj--
bja--
bje--
bl--
bla--
blakus--
ble--
blu--
bo--
bob--
bohd--
boik--
boks--
bol--
bomb--
bon--
bonap--
bor--
boro--
bos--
bota--
boul--
bour--
bow--
box--
boz--
br--
bra--
brah--
bre--
brend--
bri--
brisb--
bro--
broa--
brom--
brow--
bru--
brun--
bs--
bt--
bu--
buc--
bul--
bumb--
bund--
bunde--
bunk--
bur--
burg--
burk--
bus--
but--
by--
c--
ca--
calc--
cali--
can--
cap--
car--
cas--
cat--
caur--
cd--
ce--
cel--
cele--
cen--
centr--
cer--
ces--
ch--
cha--
charac--
che--
chlo--
cho--
chry--
ci--
cicer--
ciet--
cik--
ciklo--
cild--
cilin--
cim--
cin--
cio--
cip--
cir--
circ--
cis--
cito--
citt--
civil--
ck--
cl--
cm--
cn--
co--
coena--
coll--
colo--
colu--
com--
con--
conco--
cor--
cos--
cot--
cov--
cr--
crea--
cro--
crus--
cs--
cu--
cukur--
cun--
cup--
cur--
cv--
cy--
cya--
cyano--
cycl--
cz--
d--
da--
dagn--
dai--
dakt--
dal--
dam--
dan--
danci--
dar--
darb--
darba--
das--
dato--
datorgraf--
datorpro--
dau--
daudz--
daug--
dauga--
db--
de--
debes--
debit--
dec--
decla--
defe--
deg--
dei--
del--
deli--
dem--
demis--
den--
dens--
der--
des--
descr--
det--
detek--
deter--
dex--
dez--
dh--
di--
dia--
diagnos--
diale--
did--
die--
dien--
dienvid--
diet--
diev--
dievkalpo--
diff--
digi--
dikta--
dim--
dimit--
din--
dina--
dinoz--
dio--
diplom--
direkc--
dis--
disco--
div--
diva--
divk--
divv--
diz--
dj--
dju--
dk--
dm--
dmit--
dn--
do--
doc--
docum--
dod--
dog--
dolg--
domb--
dome--
domi--
domk--
domu--
don--
dos--
dosto--
dr--
dra--
draiv--
drama--
dre--
drei--
dri--
dru--
ds--
dt--
du--
dub--
dubrov--
dubul--
dul--
dumpi--
dund--
dunk--
dus--
dve--
dvi--
dvo--
dy--
dz--
dzaut--
dze--
dzelten--
dzgai--
dzi--
dzied--
dzimum--
dzin--
dzirks--
dzs--
e--
ea--
ebe--
eber--
ec--
echi--
econo--
ed--
edi--
edu--
ee--
ef--
efers--
eg--
egl--
ehi--
eho--
ei--
eik--
ein--
eiro--
eiz--
eizenhau--
ej--
ek--
eka--
eklekti--
eklt--
eko--
ekono--
eks--
ekspan--
ekva--
ekviva--
el--
ela--
ele--
elec--
elekt--
elektro--
elektros--
elektroteh--
eli--
elipt--
elo--
els--
em--
ema--
emanu--
ember--
embri--
eme--
emi--
emoc--
emu--
en--
end--
energo--
eng--
engel--
eni--
enierteh--
ens--
entuzi--
eol--
eom--
ep--
epi--
epizo--
eps--
eq--
equi--
er--
era--
ere--
erepo--
eri--
ern--
eroz--
ers--
ert--
es--
eskim--
esko--
ess--
est--
et--
eta--
ete--
eti--
etiop--
etr--
etri--
eu--
euph--
euro--
ev--
eve--
ex--
exam--
exhi--
expl--
exten--
ez--
ezer--
f--
fa--
fam--
far--
farmacei--
fas--
faund--
fe--
feld--
felk--
felt--
fen--
fenc--
fer--
ferme--
fi--
fib--
fil--
filosof--
filozof--
fin--
fire--
fjo--
fjodo--
fk--
fl--
fla--
fle--
fleet--
fli--
flo--
flori--
flu--
fly--
fo--
fogt--
folk--
folklo--
fon--
for--
fors--
fos--
foto--
fra--
fre--
fred--
frei--
fri--
fried--
fro--
from--
fru--
fu--
g--
ga--
gada--
gai--
gais--
gal--
gala--
gale--
gali--
gam--
gan--
gar--
gas--
gau--
gavri--
gaz--
ge--
gen--
gens--
geo--
geoff--
ger--
get--
gi--
gigan--
gil--
gl--
gla--
glez--
gli--
gliem--
glo--
glos--
glu--
gly--
gm--
gn--
go--
god--
gol--
gold--
gonz--
good--
gori--
gos--
got--
gouve--
gov--
gr--
gra--
grand--
grau--
gre--
grego--
grenl--
gri--
grigo--
grigor--
gro--
groning--
gros--
grot--
gru--
grund--
grunts--
gruzd--
gry--
gs--
gst--
gu--
guil--
gul--
gun--
gus--
gut--
gy--
h--
ha--
had--
ham--
han--
hand--
haoti--
happ--
har--
hara--
haris--
hark--
harmon--
hart--
has--
hat--
haus--
hav--
hay--
he--
heide--
heli--
helikop--
helm--
hels--
hemo--
hen--
hend--
hende--
her--
hes--
het--
heter--
heterop--
heteros--
hey--
hi--
hidr--
hidro--
hie--
hiero--
high--
hil--
hila--
hilb--
hilde--
hinde--
hip--
hiper--
hipert--
his--
hit--
hl--
hlorop--
ho--
hoenco--
hoff--
hofm--
hol--
holi--
holoc--
home--
homo--
hor--
horo--
hot--
hr--
hroni--
hu--
hudz--
hugen--
humb--
humo--
huse--
hy--
hyper--
i--
ia--
ib--
iba--
ibe--
ibi--
ibu--
ic--
ice--
ich--
id--
ide--
ident--
ie--
iebil--
iedve--
iedvesm--
ieg--
iega--
iegu--
iek--
ielen--
iem--
iemi--
iepa--
iepi--
iera--
ierind--
ies--
iesnie--
iespaid--
iespied--
iet--
ieva--
ievaino--
ievil--
if--
ig--
iga--
igo--
ihi--
ii--
ij--
ik--
ika--
ikaun--
iki--
ikono--
iks--
il--
ilg--
illus--
ilu--
im--
ima--
imple--
impres--
in--
ina--
inc--
indu--
indus--
indy--
ine--
infar--
infec--
influ--
info--
infra--
ing--
ingis--
ini--
ino--
ins--
inspe--
int--
inter--
intra--
io--
ip--
ir--
ira--
ird--
iro--
iron--
iros--
irs--
is--
isa--
ise--
iso--
ist--
it--
itom--
iu--
iv--
iz--
iza--
izau--
izd--
ize--
izgudr--
izjas--
izli--
izpi--
izpildd--
izra--
izs--
izse--
iztais--
izvi--
izviet--
j--
ja--
jagell--
jah--
jahrhun--
jai--
jaku--
jam--
jan--
jaros--
jas--
jau--
jaun--
jaund--
jaundienvid--
jaunk--
jaunl--
jaunlai--
jc--
je--
jeb--
jel--
jen--
jes--
ji--
jin--
jk--
jo--
jos--
jr--
js--
ju--
juka--
jun--
juri--
k--
ka--
kaba--
kad--
kai--
kak--
kal--
kam--
kan--
kanto--
kapa--
kapel--
kapi--
kapu--
kar--
kara--
kas--
kat--
kata--
kataliza--
katego--
kath--
kato--
kau--
kaug--
kaugur--
kaul--
kaus--
kaval--
kaz--
kazim--
kb--
kc--
kd--
ke--
keip--
keize--
kell--
kemb--
kemer--
kemp--
ken--
kes--
ket--
kg--
kh--
ki--
kiber--
kilo--
kilog--
kim--
kin--
kino--
kit--
kl--
kla--
klas--
klau--
kle--
klejo--
kli--
klin--
km--
kn--
ko--
kodo--
kodolrea--
koi--
kokgrie--
kokva--
kol--
kolum--
kom--
komand--
komb--
komerc--
komm--
komp--
kompakt--
kompres--
komprom--
komt--
komtur--
kon--
konc--
koncen--
koncert--
kondi--
konfe--
konfli--
konkis--
konko--
kons--
konsor--
kontakt--
kontin--
kontr--
kontra--
konus--
kop--
kopk--
kopprodu--
kor--
kord--
kore--
korekc--
kos--
kosc--
kosmo--
kot--
koz--
kr--
kra--
krasn--
krast--
kre--
kreic--
kri--
kriev--
kript--
kris--
kristen--
kroko--
krom--
kron--
kros--
kru--
krust--
krusto--
ks--
ksam--
ksta--
ku--
kubik--
kul--
kula--
kumpun--
kun--
kup--
kupra--
kur--
kus--
kuz--
kv--
kva--
kve--
kvi--
ky--
kymm--
kz--
l--
la--
lab--
labo--
labrado--
lac--
ladis--
lai--
laik--
laika--
laimd--
lam--
lan--
land--
lands--
lap--
lapg--
lapo--
lapt--
las--
lat--
latv--
lau--
lauc--
lauk--
laun--
laur--
laute--
lauz--
lav--
lay--
laz--
lazdu--
lb--
lc--
ld--
ldire--
le--
lec--
led--
leg--
leh--
lei--
leikp--
lej--
lejas--
leks--
lemb--
len--
lepn--
les--
let--
leuc--
lev--
lf--
lg--
lgu--
li--
libre--
lids--
lie--
lieci--
lief--
liel--
lield--
lielg--
lielk--
lielp--
lielv--
life--
lik--
likum--
lil--
lim--
lin--
linds--
ling--
lingu--
lips--
lis--
liv--
lk--
lkomit--
ll--
lleit--
ln--
lo--
locus--
loe--
logo--
loh--
lok--
loka--
lomb--
lombar--
lon--
long--
loph--
los--
lot--
loz--
lp--
lr--
ls--
lspul--
lt--
lu--
luc--
luks--
lun--
lus--
lut--
luv--
lv--
lveik--
lvi--
ly--
lyca--
m--
ma--
mac--
maced--
macro--
mad--
madaga--
made--
mag--
mah--
mai--
mak--
maka--
makro--
maks--
mal--
mam--
man--
manhe--
mani--
mans--
mantin--
manu--
mao--
map--
mar--
mara--
marbu--
marg--
mas--
mat--
math--
mati--
mato--
matve--
mauz--
max--
maxim--
may--
maz--
mazi--
mazo--
mb--
mc--
md--
me--
mec--
med--
medi--
medn--
meg--
meh--
mei--
meistar--
mel--
mela--
melnk--
melo--
mem--
memo--
men--
meng--
mer--
meri--
mes--
met--
meta--
mexi--
mez--
mg--
mi--
mic--
micro--
mid--
mie--
mies--
mig--
miha--
mijie--
mik--
mikro--
mikros--
mil--
milic--
milim--
milj--
min--
minha--
mini--
mir--
mis--
mit--
mitohon--
mk--
ml--
mm--
mn--
mo--
mobil--
moham--
mol--
mon--
monar--
monop--
mons--
monte--
montgom--
monum--
mor--
mord--
moris--
morpho--
mos--
moto--
motocik--
motor--
mp--
mr--
mredz--
ms--
mstis--
mt--
mu--
mucen--
mufl--
muham--
mul--
multi--
mun--
mus--
musci--
muske--
muze--
my--
myco--
myth--
n--
na--
nabo--
nad--
nai--
nakts--
nal--
nam--
nan--
nano--
napv--
nark--
narkot--
nas--
nat--
nau--
naum--
nav--
nc--
nd--
ne--
nea--
neaizs--
neap--
neat--
neatg--
neatgrie--
nec--
nee--
nei--
neig--
neiz--
neizd--
neizr--
neizt--
nek--
nel--
nema--
nen--
neno--
nenos--
nenot--
neo--
nepa--
ner--
nere--
nes--
nesa--
net--
neu--
neuz--
neuzt--
new--
news--
ng--
nh--
ni--
nie--
nigs--
nik--
niko--
nim--
nin--
nis--
nitro--
nk--
nm--
no--
nobri--
noda--
node--
nogata--
nogri--
nogu--
nok--
noka--
nolaide--
noli--
non--
nor--
nora--
nord--
nos--
noslepk--
not--
nov--
nova--
novato--
noz--
noziedz--
nr--
ns--
nt--
nu--
ny--
nymp--
nz--
o--
oa--
ober--
obje--
obs--
oc--
odo--
odz--
of--
off--
og--
oh--
ok--
okl--
oklah--
oks--
ol--
ola--
old--
oldenbu--
ole--
oleks--
oli--
olimp--
ols--
oly--
om--
omni--
on--
ona--
ons--
op--
ope--
open--
opti--
optim--
or--
orang--
orato--
orche--
ore--
orga--
ori--
orienti--
ortt--
os--
osi--
osp--
osten--
osteo--
ostro--
ot--
ota--
ou--
out--
over--
oz--
ozol--
p--
pa--
pabal--
pac--
padomn--
pae--
pag--
pagata--
pal--
pala--
pale--
palu--
pama--
pamat--
pamato--
pamatv--
pan--
pana--
papi--
papild--
par--
para--
pardu--
paro--
pas--
pass--
past--
pat--
patag--
pats--
pau--
paugu--
pava--
pavals--
pave--
pavil--
pavl--
pay--
pc--
pe--
pedia--
pei--
pel--
peld--
pen--
per--
perfe--
pes--
pet--
petro--
pfa--
ph--
pi--
pic--
pie--
piebied--
piejau--
pietei--
pigm--
pik--
pil--
pilds--
piln--
pilnvar--
pils--
pin--
pioni--
pir--
pirmd--
pirms--
pirmval--
pitag--
pj--
pje--
pl--
pla--
plan--
plas--
plat--
platy--
play--
ple--
ples--
pli--
plos--
plov--
plu--
pneim--
pni--
po--
pod--
podo--
podp--
pol--
poli--
polito--
poly--
pomm--
pomp--
pon--
pop--
por--
porno--
port--
pos--
posei--
post--
pots--
pp--
pra--
prac--
pre--
prefe--
premjermi--
pres--
pret--
pri--
pried--
pro--
provizo--
pru--
ps--
psam--
pseido--
pseu--
psi--
psihiat--
psiho--
psy--
pt--
pu--
pub--
pue--
pul--
pund--
pundur--
punk--
punt--
purpu--
pus--
put--
py--
q--
qu--
qua--
qualifi--
que--
qui--
r--
ra--
radi--
radio--
radz--
raf--
ragn--
rah--
rai--
rak--
rall--
ram--
ran--
ras--
rau--
raug--
raz--
rb--
rba--
rbrauk--
rc--
rci--
rd--
rda--
rde--
rdz--
re--
rea--
rec--
recep--
recepto--
red--
ref--
reg--
regi--
reglam--
rei--
reihs--
reik--
reim--
rein--
reit--
reiz--
rel--
remb--
ren--
rentg--
rentgens--
rept--
repub--
res--
resurs--
reto--
retro--
rev--
rez--
rg--
rga--
rhi--
rhino--
rho--
ri--
rie--
riekst--
rietum--
rig--
rih--
rik--
rim--
rin--
ris--
ritm--
riv--
rizd--
rk--
rka--
rkon--
rks--
rl--
rla--
rli--
rls--
rme--
rmi--
rms--
rn--
rna--
rni--
ro--
robo--
rock--
rodri--
rok--
rom--
roman--
ron--
roos--
ros--
rostis--
rot--
rotas--
roul--
row--
roz--
rp--
rpa--
rpe--
rps--
rpu--
rpur--
rpus--
rra--
rs--
rse--
rsi--
rso--
rsta--
rt--
rte--
rto--
rtu--
rtulk--
ru--
rul--
rumb--
run--
rus--
russ--
rva--
rve--
rvi--
ry--
rz--
rza--
rzemn--
s--
sa--
sac--
sadrumsta--
sai--
saimn--
sak--
saka--
sakop--
sal--
sala--
sali--
salo--
sam--
san--
sankc--
santa--
sap--
sar--
sara--
sas--
sat--
sati--
satra--
sau--
saul--
sav--
savai--
saviet--
saza--
sb--
sc--
sca--
scand--
sch--
sche--
schi--
schl--
schu--
schwe--
sci--
scol--
scri--
scu--
sd--
se--
sea--
sec--
sed--
see--
segm--
sej--
sekto--
sel--
seman--
semi--
semjon--
sen--
ser--
ses--
sestd--
set--
sev--
sevas--
sg--
sha--
she--
shi--
sho--
shr--
shu--
si--
sid--
sie--
sigi--
sil--
sila--
sim--
sime--
simt--
sin--
sinhr--
sir--
sirds--
sis--
sit--
sje--
sjerra--
sk--
ska--
skaist--
skan--
skar--
skat--
ske--
ski--
skle--
skorpi--
skrej--
sku--
skujen--
sky--
sla--
sle--
slepen--
sli--
slo--
slu--
sm--
sma--
sme--
sn--
snai--
sni--
snieg--
so--
soft--
sok--
sokol--
sol--
solo--
soma--
some--
son--
sorb--
sorok--
sp--
spa--
spe--
spec--
speci--
spekt--
spektros--
spens--
spi--
spilv--
spiri--
splen--
spons--
sr--
ss--
st--
sta--
stabu--
stal--
stan--
star--
starp--
ste--
sten--
ster--
stere--
sti--
stie--
stipen--
stju--
sto--
straut--
stro--
stru--
stu--
stumb--
su--
sub--
subje--
sudrabk--
suic--
sum--
sun--
super--
supra--
sur--
sus--
sv--
sva--
sve--
sveic--
svi--
sviest--
swa--
swe--
swi--
swim--
sy--
symb--
symp--
synt--
sz--
sza--
t--
ta--
tac--
tad--
tag--
tai--
taks--
taksom--
taksono--
takti--
tam--
tan--
tapi--
tar--
tarn--
tas--
tau--
tb--
tc--
td--
tdoc--
te--
tea--
tech--
teh--
tei--
tek--
tel--
tele--
temp--
ten--
teo--
ter--
term--
termo--
terori--
territo--
tes--
test--
tetra--
text--
th--
the--
ti--
tic--
tie--
tiho--
tik--
tim--
tin--
tirg--
tis--
tit--
titul--
tk--
tkilo--
tm--
tma--
to--
tol--
tole--
tom--
ton--
top--
tor--
tos--
tp--
tpers--
tr--
tra--
trabz--
trans--
tras--
tre--
tri--
triec--
triecien--
tro--
tromp--
tru--
ts--
tt--
tu--
tulk--
tur--
turn--
tuv--
tuvi--
tv--
tva--
tve--
twe--
twi--
ty--
u--
ua--
ubo--
uc--
ug--
uguns--
ui--
uk--
uks--
ul--
ultra--
ultravi--
ults--
um--
uma--
un--
und--
ungu--
unic--
unif--
univers--
uns--
up--
upa--
upe--
upes--
ur--
ura--
urs--
us--
usa--
ut--
ute--
utop--
uv--
uvilc--
uz--
uzbe--
uzi--
uzliesmo--
uzra--
uztic--
uzved--
v--
va--
vacc--
vago--
vai--
vairog--
vaku--
val--
valdg--
vale--
valo--
vam--
van--
vana--
var--
vas--
vats--
vaz--
ve--
vec--
vecs--
veg--
vei--
vel--
ven--
ver--
veron--
ves--
vest--
vi--
vibo--
vic--
vice--
vid--
video--
vidus--
vie--
vien--
vieni--
vies--
vijc--
vil--
vin--
vindz--
vingr--
virs--
vis--
visit--
viss--
vit--
viten--
vitri--
viz--
vja--
vjet--
vk--
vl--
vladi--
vo--
vol--
volej--
volgo--
vot--
vroc--
vs--
vsu--
vu--
vv--
vy--
vz--
vzem--
w--
wa--
war--
we--
web--
weiss--
west--
whe--
whit--
wi--
wie--
wiki--
wilk--
win--
wo--
world--
wri--
wu--
wy--
wł--
x--
xa--
xi--
xx--
y--
ya--
yo--
yu--
z--
za--
zai--
zak--
zal--
zan--
zas--
zb--
zd--
ze--
zei--
zel--
zem--
zemes--
zen--
zenha--
zi--
zied--
zigm--
zil--
zin--
ziv--
zma--
zo--
zob--
zoo--
zt--
zu--
zum--
zva--
zve--
zvejniekc--
zvi--
zwe--
ł--
ə--
ɡ--
ʁ--
ʃ--
α--
γ--
δ--
ε--
θ--
κ--
κατ--
λ--
μ--
ν--
ο--
π--
πι--
πο--
ρ--
σ--
τ--
а--
ал--
але--
алекс--
ан--
ант--
ар--
архи--
б--
ба--
бе--
бел--
бела--
бл--
бо--
бр--
бу--
бы--
в--
ве--
вел--
ви--
во--
вр--
все--
вто--
г--
га--
гал--
ге--
гео--
гла--
го--
гор--
гос--
государ--
гр--
гру--
губер--
д--
да--
де--
ди--
дми--
древ--
дру--
е--
ев--
ефр--
жи--
жу--
з--
за--
и--
им--
ин--
исследо--
историче--
ию--
к--
ка--
кар--
ки--
кли--
ко--
ком--
кон--
конс--
кор--
косм--
космиче--
кр--
кра--
ку--
куль--
л--
ла--
ле--
ли--
лу--
лю--
м--
ма--
мар--
ме--
ми--
мо--
мол--
мор--
мос--
москов--
му--
н--
на--
наз--
наци--
не--
но--
о--
общест--
оль--
оп--
ор--
охр--
п--
па--
пар--
пе--
пер--
пере--
пи--
по--
пр--
пра--
при--
пу--
р--
ра--
раб--
ре--
ри--
риж--
ро--
рос--
ру--
рус--
с--
са--
св--
се--
сев--
сер--
си--
сис--
ск--
со--
совет--
сос--
спут--
ст--
ста--
су--
суперфи--
т--
ти--
то--
тур--
у--
ук--
универси--
управле--
уче--
ф--
фе--
фи--
фл--
фр--
х--
хи--
ц--
ч--
ча--
че--
чемпи--
чер--
ш--
шахмат--
шк--
э--
экс--
эт--
ю--
я--
яз--
і--
ا--
ال--
عب--
--0
--00
--1
--11
--2
--21
--22
--28
--3
--33
--4
--5
--50
--56
--6
--67
--7
--78
--8
--9
--94
--a
--ac
--ace
--aceae
--ad
--ado
--ae
--ag
--age
--ah
--ai
--ail
--aimnieci
--aimnieks
--air
--ais
--aja
--ajiem
--ajos
--aju
--ak
--aka
--al
--ala
--alas
--ale
--ally
--alo
--als
--alu
--am
--ama
--ami
--amika
--amikas
--amo
--ams
--amu
--an
--ana
--ans
--ant
--ants
--antu
--anu
--apulce
--ar
--ara
--ard
--are
--argi
--ari
--aris
--arrow
--ary
--as
--ase
--ast
--at
--ata
--ate
--ati
--ation
--atu
--atus
--au
--aus
--aux
--ava
--ax
--ay
--ays
--az
--b
--ba
--bach
--bas
--base
--bati
--be
--berg
--bi
--bia
--biem
--bl
--ble
--blo
--bn
--bo
--boy
--bra
--bri
--brs
--bs
--bsd
--bst
--bu
--bumi
--burg
--burga
--burgs
--bus
--by
--c
--ca
--cal
--can
--cans
--cas
--ce
--cea
--ceae
--cel
--ception
--ces
--ch
--charts
--che
--cher
--cht
--chus
--ci
--cia
--cie
--cile
--cio
--ciona
--cis
--ck
--cka
--ckas
--cki
--ckis
--cku
--cle
--co
--cogi
--com
--cos
--cracy
--craft
--cript
--cs
--ct
--cted
--ction
--ctive
--ctor
--cts
--cu
--cula
--cular
--cus
--cy
--d
--da
--dae
--dal
--dams
--das
--dava
--day
--dbergs
--de
--ded
--dents
--dentu
--der
--des
--dge
--dgre
--di
--dia
--dici
--die
--dika
--dil
--dina
--dis
--dium
--dl
--dn
--dne
--dnes
--dni
--do
--doja
--don
--dor
--dora
--dorfa
--dorfs
--dors
--doru
--dos
--dot
--dra
--dro
--drs
--dru
--ds
--dt
--du
--duct
--dus
--dy
--dz
--dza
--dze
--dzi
--e
--ea
--ean
--eb
--ec
--ece
--eces
--ech
--ect
--ects
--ed
--eda
--ede
--edes
--edze
--edzes
--ee
--ees
--eg
--eger
--ego
--egs
--ei
--ej
--eja
--ejo
--eju
--ek
--eka
--eki
--ekiem
--ekl
--ekot
--eks
--ekta
--ektu
--eku
--el
--ela
--ell
--els
--em
--ems
--en
--ena
--enburg
--end
--ene
--enhof
--eni
--eniem
--enos
--ens
--ensis
--ent
--ento
--enu
--eo
--ep
--eptori
--eptu
--er
--era
--ere
--ered
--erg
--eri
--eris
--ero
--eroge
--ers
--eru
--erva
--ery
--es
--esa
--ese
--eses
--esi
--ess
--est
--esu
--et
--eta
--ete
--etes
--eti
--etis
--eto
--etos
--etot
--ets
--ett
--ette
--etu
--eus
--ev
--eva
--ex
--ey
--ez
--f
--fa
--fe
--fel
--feld
--fels
--fer
--fera
--fes
--ff
--fi
--fice
--fika
--fits
--fly
--fo
--fs
--ft
--fta
--fts
--fu
--ful
--g
--ga
--gadei
--gadi
--gal
--gala
--gas
--gation
--ge
--ged
--gen
--ger
--ges
--gh
--ght
--gi
--gidae
--gina
--ging
--gins
--gita
--gl
--gle
--gma
--gmas
--gna
--gne
--go
--gon
--gona
--gons
--gonu
--gor
--gos
--gra
--graphy
--gri
--gs
--gt
--gta
--gti
--gto
--gu
--gua
--gue
--gues
--gus
--gy
--h
--ha
--hal
--ham
--he
--hed
--heim
--hel
--hems
--hen
--her
--hes
--hi
--hijas
--him
--hima
--hin
--hip
--hl
--hn
--ho
--hof
--hofa
--hood
--hou
--hova
--hs
--ht
--hta
--hts
--hu
--hus
--hy
--i
--ia
--iae
--ial
--ian
--ias
--ible
--ic
--ica
--ical
--ice
--ici
--icis
--ics
--icus
--id
--ida
--idae
--ide
--ides
--idi
--ido
--idoja
--idos
--idot
--ids
--idu
--idus
--idz
--idzot
--ie
--ieci
--ied
--ieki
--ieku
--iem
--iens
--iensis
--ienu
--ier
--ies
--ifa
--ifika
--iformes
--ifs
--ig
--iga
--igi
--igra
--igs
--igu
--igums
--ii
--ija
--ijas
--iji
--ijs
--iju
--ik
--ika
--iki
--iko
--iks
--ikt
--ikta
--iku
--ikuma
--ikumu
--ikumus
--ikus
--ikusi
--il
--ila
--ildi
--ile
--ill
--illa
--ille
--ilo
--ils
--ilu
--im
--imierz
--in
--ina
--inae
--inais
--inas
--ine
--ines
--ing
--ings
--ini
--inie
--inis
--ino
--inos
--ins
--inu
--io
--ion
--ior
--iprinot
--ir
--ira
--irdi
--ire
--iro
--is
--isa
--ische
--ise
--ish
--isi
--iska
--ism
--ismos
--ismota
--isms
--ismu
--isos
--iss
--ist
--ista
--iste
--istes
--isti
--istorijas
--istot
--ists
--istu
--isu
--it
--ita
--ite
--ites
--iti
--ities
--ito
--itot
--its
--itu
--ity
--iu
--ium
--ius
--iv
--iva
--ive
--ivs
--ix
--iz
--iza
--ization
--ize
--j
--ja
--jai
--jam
--jas
--je
--jera
--jeri
--jers
--jeva
--jevs
--jevu
--ji
--jiem
--jies
--jis
--jo
--joki
--jos
--jot
--js
--ju
--juma
--jumi
--jumiem
--jums
--jumu
--jumus
--jus
--jusi
--jusies
--k
--ka
--kai
--kais
--kaja
--kalna
--kalns
--kas
--kata
--kati
--kats
--katu
--kcija
--kcione
--ke
--ked
--ker
--kera
--keri
--kers
--keru
--ket
--kets
--ki
--kie
--kin
--kis
--kl
--kla
--kle
--kli
--kman
--kmens
--kn
--ko
--kola
--kolas
--kolu
--kos
--kot
--kov
--kovu
--kra
--ks
--ksa
--ksas
--kse
--ksi
--kss
--kstot
--ksu
--kt
--kta
--kte
--kti
--kto
--ktona
--ktonu
--ktora
--ktors
--ktoru
--kts
--ktu
--ku
--kug
--kumu
--kus
--ky
--l
--la
--lage
--land
--lar
--las
--lav
--lavu
--lba
--lbe
--lberg
--ld
--lda
--lde
--ldehi
--ldes
--ldi
--lds
--ldu
--le
--lem
--ler
--lera
--leru
--les
--less
--let
--ley
--li
--lia
--lic
--lica
--lidae
--lin
--line
--ling
--lio
--lips
--lis
--list
--lita
--lity
--liza
--lize
--lja
--ljas
--lk
--lka
--lks
--ll
--lla
--llas
--lle
--lli
--llis
--llo
--lls
--llus
--lna
--lne
--lni
--lns
--lnu
--lo
--log
--loi
--loka
--lova
--lovs
--lpa
--ls
--lss
--lsti
--lstu
--lt
--lta
--lte
--lti
--lton
--lts
--ltu
--lty
--lu
--lus
--lux
--lva
--lve
--ly
--lyn
--lz
--m
--ma
--maa
--mais
--mam
--man
--mann
--mas
--mba
--mberga
--mbergs
--me
--men
--ment
--menti
--ments
--mentu
--mes
--mi
--mic
--mie
--miem
--miku
--mis
--mj
--mler
--mma
--mmas
--mmu
--mn
--mo
--mon
--mony
--mos
--mota
--mouth
--mova
--movs
--mp
--mpa
--mpe
--mps
--mpu
--ms
--mst
--mt
--mta
--mti
--mts
--mu
--muiz
--mus
--my
--mz
--n
--na
--nac
--nae
--nai
--nam
--nas
--nbe
--nburg
--nc
--nca
--nce
--nces
--nci
--ncia
--nco
--ncs
--ncy
--nd
--nda
--ndas
--nde
--ndes
--ndess
--ndi
--ndo
--nds
--ndu
--ndul
--ndus
--ndz
--ne
--nea
--ned
--neja
--nejs
--nen
--ner
--nera
--neri
--ners
--nes
--net
--news
--ney
--ng
--nga
--ngas
--nge
--ngen
--nger
--ngi
--ngo
--ngs
--ngu
--nhof
--ni
--nia
--nian
--nic
--nicus
--nidae
--nie
--nija
--nin
--ning
--nique
--nis
--nium
--niza
--nize
--nje
--nk
--nka
--nkas
--nke
--nko
--nks
--nku
--nn
--nna
--nnas
--nne
--no
--nolog
--noms
--nor
--nos
--not
--novs
--np
--ns
--nsa
--nse
--nsi
--nsis
--nski
--nskis
--nsky
--nson
--nsons
--nss
--nsu
--nt
--nta
--ntam
--ntas
--nte
--ntes
--nti
--ntia
--ntiem
--ntiju
--nto
--ntrops
--nts
--ntu
--ntus
--nu
--nuel
--num
--nus
--ny
--nz
--o
--oa
--oba
--obi
--oc
--oce
--oci
--ock
--od
--odi
--ods
--ody
--oe
--of
--ofi
--og
--oge
--ogra
--ogy
--oi
--oja
--ok
--okri
--ol
--ola
--olds
--oli
--olo
--olog
--ology
--ols
--om
--oma
--ome
--omi
--omm
--oms
--omu
--omys
--on
--ona
--one
--ones
--oni
--ons
--onte
--onu
--oo
--op
--opa
--opl
--or
--ora
--ord
--ore
--ori
--oriem
--orn
--oro
--ors
--ort
--oru
--os
--osa
--oss
--osti
--ot
--ota
--ote
--oti
--oties
--oto
--ots
--otu
--our
--ous
--out
--ov
--ova
--ovas
--ovic
--ovka
--ovkas
--ovo
--ovs
--ovskis
--ovu
--ow
--ows
--owy
--ox
--oy
--oz
--oza
--oze
--ozi
--p
--pa
--pas
--pc
--pcija
--pe
--ped
--pes
--ph
--phic
--phie
--phy
--pi
--pia
--pidae
--piju
--pis
--piska
--pji
--pl
--ple
--plu
--po
--pole
--pot
--pova
--povs
--pp
--pra
--ps
--pt
--pta
--pti
--pts
--ptu
--pu
--pus
--py
--q
--que
--r
--ra
--rabs
--rad
--rags
--ragu
--ral
--ram
--ras
--rax
--rbe
--rbes
--rc
--rd
--rda
--rde
--rdi
--rdo
--rds
--rdu
--re
--res
--ress
--rg
--rga
--rge
--rgs
--rgu
--rha
--rhn
--ri
--ria
--rian
--ric
--rin
--rio
--ris
--rium
--rius
--rix
--riza
--rize
--rk
--rka
--rkas
--rly
--rm
--rma
--rmas
--rme
--rmo
--rmu
--rn
--rna
--rno
--ro
--roge
--rol
--ropa
--ror
--ros
--rot
--rova
--rovs
--rp
--rpina
--rr
--rry
--rs
--rsa
--rsmi
--rss
--rst
--rt
--rta
--rte
--rti
--rties
--rts
--rtu
--ru
--rum
--rus
--rva
--rve
--ry
--rz
--rza
--s
--sa
--sada
--sas
--sat
--sburg
--sch
--sche
--sco
--scus
--se
--sed
--sen
--ser
--ses
--sh
--shof
--si
--sia
--sio
--sion
--sis
--ska
--skais
--skaja
--skas
--ski
--skie
--skiem
--skis
--sko
--skos
--sks
--sku
--skus
--sla
--sm
--sma
--smi
--sms
--smu
--so
--son
--sons
--sos
--sot
--space
--spe
--ss
--sse
--st
--sta
--star
--ste
--stes
--sti
--stic
--stiska
--stiski
--stisko
--stma
--sto
--stone
--storu
--sts
--stu
--su
--sus
--sve
--sy
--sz
--t
--ta
--tal
--tala
--tale
--tam
--tan
--tar
--tas
--tat
--tch
--tdal
--tdarbi
--te
--ted
--tein
--tel
--ten
--tens
--ter
--tes
--teus
--th
--tha
--thus
--ti
--tia
--tial
--tic
--ticus
--tidae
--tie
--tiem
--ties
--tifika
--tigra
--tijs
--tila
--tin
--tine
--ting
--tio
--tion
--tional
--tions
--tis
--tiska
--tium
--tive
--tiza
--tize
--tja
--tje
--tka
--tkas
--tl
--tla
--tle
--tli
--tme
--tmi
--tmuiz
--tn
--tne
--tnes
--tni
--to
--toi
--toja
--toka
--tolog
--ton
--tonu
--tor
--tora
--toram
--tore
--tori
--toriem
--tors
--toru
--torus
--tory
--tos
--tosfe
--tot
--tov
--tova
--tovic
--tovs
--tr
--tra
--tre
--tri
--trofa
--trs
--tru
--try
--ts
--tsa
--tt
--tta
--tte
--tti
--tton
--tu
--tude
--tuls
--tum
--tuma
--tumu
--tus
--ty
--tz
--u
--ua
--ual
--uation
--ube
--uc
--uca
--ucas
--uce
--uces
--ucot
--ud
--uda
--ude
--udi
--udu
--udz
--udze
--ue
--ug
--uga
--ugi
--ugos
--ugs
--ugu
--ui
--uit
--uiz
--uj
--uja
--ujas
--ujos
--ujot
--uk
--uks
--ukt
--ukta
--ukti
--ukts
--ul
--ula
--ulas
--ule
--ules
--uli
--ulis
--ulozi
--uls
--ult
--ulta
--ulu
--ulus
--um
--uma
--ume
--ument
--umi
--ums
--umu
--umus
--un
--una
--ung
--uni
--uns
--unu
--up
--upe
--ups
--ur
--ura
--ure
--ures
--uring
--urs
--uru
--urus
--ury
--us
--usa
--use
--usi
--usks
--usla
--uss
--ust
--ustra
--usts
--usu
--ut
--uta
--utas
--uti
--uts
--utu
--uve
--uves
--ux
--uz
--uza
--v
--va
--vas
--vc
--ve
--veja
--ver
--ves
--vi
--vic
--vieta
--viju
--vilc
--vio
--virlaukas
--vis
--vita
--viza
--vize
--vka
--vn
--vo
--vos
--vs
--vska
--vski
--vu
--vumi
--vus
--vy
--w
--wa
--way
--we
--well
--wer
--west
--wl
--wn
--world
--worth
--ws
--x
--y
--ya
--yan
--ybe
--ye
--yer
--yi
--yn
--yon
--ys
--yx
--z
--za
--zal
--zas
--zation
--zda
--zdevi
--zds
--zdu
--ze
--zer
--zers
--zes
--zga
--zi
--zia
--zla
--zme
--zn
--zni
--zno
--zo
--zra
--zs
--zskata
--zt
--zta
--zu
--zz
--ı
--ʁ
--α
--ε
--η
--ι
--λει
--ν
--ο
--ος
--ρι
--ς
--υ
--ω
--а
--авич
--ам
--ар
--ат
--ах
--ации
--ая
--б
--ба
--бря
--в
--ве
--вич
--г
--га
--ги
--гии
--го
--д
--да
--ды
--е
--ев
--евич
--еи
--ель
--ен
--енко
--ер
--ет
--з
--и
--ид
--ие
--ии
--ик
--ики
--им
--ин
--ич
--ию
--ия
--к
--ке
--ки
--кие
--кии
--ких
--ко
--ков
--кое
--л
--ла
--лав
--ле
--ли
--лк
--ло
--лов
--ль
--ля
--м
--ма
--ми
--мов
--мы
--мя
--н
--на
--ние
--нии
--ния
--нко
--но
--нов
--ного
--ное
--нои
--нь
--ня
--о
--ов
--ова
--ович
--овна
--овь
--ого
--од
--ое
--ои
--ом
--п
--пы
--р
--ра
--ре
--ри
--рии
--ро
--ров
--рт
--ры
--рь
--с
--са
--ск
--ские
--слав
--сс
--ст
--т
--ти
--то
--тов
--ты
--ть
--у
--ф
--х
--ц
--ца
--ции
--ч
--ш
--ъ
--ы
--ые
--ыи
--ь
--ья
--ю
--я
--і
--іи
--ا
--د
--ن
