!
"
#
##0
##1
##10
##11
##12
##13
##14
##15
##16
##17
##18
##19
##2
##20
##21
##22
##23
##24
##25
##26
##27
##28
##29
##3
##30
##31
##32
##33
##34
##35
##36
##37
##38
##39
##4
##40
##41
##42
##43
##44
##45
##46
##47
##48
##49
##5
##50
##51
##52
##53
##54
##55
##56
##57
##58
##59
##6
##60
##61
##62
##63
##64
##65
##66
##67
##68
##69
##7
##70
##71
##72
##73
##74
##75
##76
##77
##78
##79
##8
##80
##81
##82
##83
##84
##85
##86
##87
##88
##89
##9
##90
##91
##92
##93
##94
##95
##96
##97
##98
##99
$
%
&
'
(
)
*
+
,
-
.
/
0
00
000
001
002
003
004
005
007
008
0094444444
01
014
015
0166666667
019
02
020
0222222222
0241666667
026
027
028
03
030
031
0333333333
03333333333
034
038
0388888889
04
049
05
055
06
061
065
066
06666666667
0666666667
069
07
071
074
075
077
0775
08
083
0833333333
08333333333
088
09
092
09361111111
095
097
098
1
10
100
1000
10000
1001
1002
1003
1005
1006
1007
1009
101
1011
1012
1014
1015
1018
1019
102
1022
1024
1026
103
1030
1032
1033
1039
104
1043
10444444444
1045
1046
1047
1048
1049
105
1050
1053
1054
1055
1057
1058
106
1061
1063
1064
1066
1067
1069
107
1070
1071
1073
1076
1078
108
1084
1085
109
1090
1091
1093
1094
1099
11
110
1100
11000
1101
1102
1104
1108
111
1115
1118
1119
112
1120
1121
1122
1125
1126
1127
113
1130
1134
1135
1138888889
114
1140
1143
1144
1147
115
1154
1157
1158
1159
116
1162
1165
1166
1166666667
1167
1168
117
1170
1175
1179
118
1180
1183
1185
1186
1187
1188
119
1190
1191
1194
1196
1197222222
12
120
1200
12000
1201
1202
1203
1204
1206
1207
121
1213
1216
1217
1218
122
1220
1222
1223
1224
1225
1227
123
1234
124
1241
12416666667
1242
1244
1246
1247
1248
125
1250
1251
1253
1254
1255
1256
1257
1258
126
1261
1264
1265
127
1271
1274
1276
1277
1278
1279
128
1280
1285
1287
1288
129
1290
1291
1296
1297
1299
13
130
1300
13000
1301
1302
1303
1304
1305
1306
1307
131
1315
1316
132
1323
1324
133
1333333333
1334
1339
134
1342
1345
1348
135
1350
1352
1353
1354
1355
1356
136
1360
1362
1363
1364
1366
137
1370
1374
1375
1378
138
1380
1386
1389
139
1394
14
140
1400
14000
1401
1404
1405
1409
141
1415
1417
142
1421
1425
1426
143
1431
1432
1436
144
1444
1447
145
1450
1452
1453
1454
1455
1458
1459
146
1464
147
1470
1471
1473
1475
1477
148
1480
1483
1484
149
1490
1492
1498
15
150
1500
15000
1503
1505
1506
1508
1509
151
1510
1512
1513
1514
1516
1517
1519
152
1520
1521
1522
1523
1524
1525
1526
1528
153
1530
1531
1532
1534
1535
1536
154
1540
1541
1543
1544
1546
1549
155
1550
1551
1552
1554
1555
1556
1557
1558
1559
156
1560
1563
1564
1568
157
1570
1571
1572
1573
1574
1575
1576
1577
1578
158
1580
1581
1583
1584
1585
1586
1587
1588
1589
159
1590
1592
1594
1596
1597
1598
1599
16
160
1600
16000
1602
1604
1605
1606
1609
161
1610
1612
1613
1616
1619
162
1620
1621
1622
1622222222
1623
1624
1625
1628
1629
163
1632
1633
1634
1636
1637
1638
164
1640
1641
1642
1643
1644
1645
1647
1648
1649
165
1650
1651
1652
1653
1655
1658
1659
166
1660
1661
1662
1664
1665
1666666667
1667
1668
1669
167
1670
1671
1672
1673
1674
1675
1676
1679
168
1680
1681
1682
1683
1684
1685
1686
1687
1688
1689
169
1690
1691
1695
1696
1699
17
170
1700
1701
1703
1705
1708
17083333333
1709
171
1710
1711
1712
1713
1717
172
1721
1722
1723
1724
1725
1727
1729
173
1730
1733
1735
1736
1737
1738
1739
174
1740
1741
1743
1744
1745
1747
1748
1749
175
1750
1752
1753
1754
1755
1756
1757
1758
176
1762
1763
1764
1766
1767
1768
1769
177
1770
1772
1773
1774
1775
1776
1777
1778
1779
178
1780
1781
1783
1784
1787
1788
1789
179
1790
1791
1792
1793
1794
1795
1796
1797
1798
1799
18
180
1800
18000
1801
1802
1803
1804
1805
1806
1807
1808
1809
181
1810
1811
1812
1813
1814
1815
1816
1817
1818
1819
182
1820
1821
1822
1823
1824
1825
1826
1827
1828
1829
183
1830
1831
1832
1833
1833333333
1834
1835
1836
1837
1838
1839
184
1840
1841
1842
1843
1844
1845
1846
1847
1848
1849
185
1850
1851
1852
1853
1854
1855
1856
1857
1858
1859
186
1860
1861
1862
1863
1864
1865
1866
1867
1868
1869
187
1870
1871
1872
1873
1874
1875
1876
1877
1878
1879
188
1880
1881
1882
1883
1884
1885
1886
1887
1888
1889
189
1890
1891
1892
1893
1894
1895
1896
1897
1898
1899
19
190
1900
1901
1902
1902777778
1903
1904
1905
1906
1907
1908
1909
191
1910
1911
1912
1913
1914
1915
1916
1917
1918
1919
192
1920
1921
1922
1923
1924
1925
1926
1927
1928
1929
193
1930
1931
1932
1933
1934
1935
1936
1937
1938
1939
194
1940
1941
1942
1943
1944
1945
1946
1947
1948
1949
195
1950
1951
1952
1953
1954
1955
1956
1957
1958
1959
196
1960
1961
1962
1963
1964
1965
1966
1967
1968
1969
197
1970
1971
1972
1973
1974
1975
1976
1977
1978
1979
198
1980
1981
1982
1983
1984
1985
1986
1987
1988
1989
199
1990
1991
19916666667
1992
1993
1994
1995
1996
1997
1998
1999
2
20
200
2000
2001
2002
2003
2004
2005
2006
2007
2008
2009
201
2010
2011
2012
2013
2014
2015
2016
2017
2018
2019
202
2020
2021
2022
2023
203
204
205
206
207
208
209
21
210
2100
21000
211
212
213
214
215
216
2166666667
217
218
2188888889
219
22
220
2200
221
222
223
224
225
226
227
228
229
23
230
2300
231
232
233
234
235
236
237
238
239
24
240
2400
24000
241
2416666667
242
243
2438888889
244
245
2458333333
246
24666666667
247
248
249
25
250
2500
251
252
2525
253
254
255
256
2561111111
257
258
259
26
260
2600
261
262
263
264
2641666667
2644444444
265
266
26694444444
267
268
269
27
270
2700
271
272
273
274
275
276
277
278
279
28
280
2800
281
282
283
28333333333
284
285
286
287
288
289
29
290
291
292
293
294
295
296
2963
297
298
299
3
30
300
3000
301
302
303
304
305
306
307
3077777778
308
309
31
310
31027777778
311
312
31277777778
313
314
315
316
317
318
319
32
320
3200
321
322
3225
323
324
325
326
327
328
329
33
330
3300
331
332
333
3332
33333333333
334
335
336
337
338
3388888889
339
34
340
3400
341
342
343
344
345
346
347
348
349
35
350
3500
351
352
353
354
355
356
357
358
359
35944444444
36
360
3600
361
362
363
364
365
366
36666666667
367
368
3688
369
37
370
371
372
3727777778
373
374
375
3750
376
377
378
379
38
380
3800
381
382
38222222222
383
384
385
386
387
388
389
39
390
3900
391
392
3925
393
3938888889
394
395
3955555556
396
397
3973
3975
398
399
4
40
400
4000
40027777778
401
402
4022222222
4025
403
404
405
406
407
408
409
41
410
411
412
413
414
415
416
417
418
419
42
420
4200
421
422
423
424
425
426
427
428
4286111111
429
43
430
431
432
4325
433
43333333333
4338888889
434
435
436
437
438
439
44
440
441
442
443
444
445
446
447
448
449
44944444444
45
450
4500
451
452
453
454
455
456
457
458
459
46
460
4600
461
462
4627777778
463
464
465
466
46666666667
467
468
469
47
470
471
472
473
474
475
476
477
478
479
4797222222
48
480
4800
481
482
483
48333333333
484
485
486
487
488
4886111111
489
49
490
491
492
494
495
496
497
4970
498
499
5
50
500
5000
501
502
503
504
505
506
507
508
509
51
510
5100
511
512
513
514
515
516
517
51722222222
518
519
52
520
521
522
523
5230555556
524
525
526
527
528
529
53
530
531
532
5325
533
53333333333
534
53416666667
535
536
537
538
539
54
540
5400
541
542
5425
543
544
545
546
547
548
549
5493
55
550
551
552
5525
553
554
555
556
557
55888888889
559
56
560
561
562
563
564
565
566
56666666667
567
569
57
570
5700
57083333333
571
572
5725
573
574
575
576
577
578
579
58
580
582
5825
583
584
585
586
587
588
589
59
590
591
5911
592
593
594
595
596
597
598
599
6
60
600
6000
601
602
603
604
605
606
607
608
6084
60888888889
609
61
610
6113888889
612
613
614
615
616
61666666667
617
618
619
62
620
621
6211
622
623
624
625
626
6270
628
62861111111
629
63
630
631
632
633
6333333333
635
636
638
639
64
640
641
642
643
645
646
647
648
649
65
650
652
653
654
655
656
657
658
6583333333
659
66
660
661
662
663
664
665
6650
666
667
668
669
67
670
671
672
674
675
676
677
678
679
68
680
681
683
68333333333
684
685
686
687
688
689
69
690
6900
693
694
695
696
6975
698
7
70
700
7000
701
702
703
704
705
707
708
709
71
710
711
713
714
715
716
71666666667
7166666667
72
720
721
722
725
726
727
728
73
731
7319444444
732
733
7333333333
73333333333
735
736
738
739
74
740
741
743
744
745
746
747
749
75
750
7500
751
752
753
756
757
758
759
76
760
762
765
766
76666666667
7666666667
767
768
769
77
770
771
772
7725
773
775
777
779
78
780
7802777778
781
782
783
7833333333
78333333333
785
786
787
7875
788
789
79
792
793
794
795
796
797
798
8
80
800
8000
803
8038888889
804
8044444444
805
808
809
81
810
811
812
813
814
815
816
81666666667
8166666667
817
818
8188
82
820
822
823
824
825
826
827
83
830
83055555556
8308333333
831
832
833
8333333333
834
836
837
838
84
840
842
843
844
845
846
847
848
849
85
850
851
852
853
854
855
856
858
86
860
861
862
865
866
8666666667
867
868
87
870
873
874
875
877
878
8783333333
879
88
880
881
882
883
8833333333
884
885
8850
886
887
888
889
89
891
892
893
895
896
897
898
9
90
900
9000
901
902
903
904
905
907
908
909
91
910
911
912
913
914
915
916
91666666667
9166666667
919
92
920
921
922
923
924
925
926
928
929
93
930
931
932
933
9333
9333333333
93333333333
934
9347222222
935
936
937
939
94
940
941
943
944
946
947
948
949
95
950
951
952
953
954
955
956
957
958
959
96
960
962
963
964
965
966
96666666667
9666666667
967
969
97
970
971
9727777778
973
974
976
9769444444
978
9780555556
979
98
980
9805555556
981
9833333333
98333333333
985
986
9866666667
987
988
99
990
992
993
994
995
996
997
998
999
9994
:
;
<
=
>
?
@
\
^
_
`
a
aa
aai
aaien
aak
aal
aalsmee
aalst
aan
aangeduud
aangelegd
aangenomen
aangetroffen
aanhouwernde
aanleg
aanslaegen
aanslag
aanslagen
aanspraak
aanstaande
aantal
aantallen
aantreft
aanvaard
aanval
aanvallers
aanwezig
aanwezigheid
aanwijzingen
aanzien
aap
aar
aard
aarde
aardenburg
aardgas
aardrijkskundig
aarg
aari
aars
aartsen
aas
ab
abadi
abaiang
abba
abbe
abbekinderen
abbekinders
abbey
abchazie
abd
abdel
abdeslam
abdie
abdieje
abdij
abdoellah
abdul
abdullah
abe
abee
abeele
abel
abeltje
abergement
abessynie
abiotische
abn
aboriginals
abraham
abrest
abrini
absdoa
absolute
abstracta
abtskerke
abu
ac
academie
academy
acanthiza
acanthizidae
accepteren
accijnzen
acco
accusatief
aces
ach
achery
achste
acht
achteg
achter
achteraf
achterberg
achtergrond
achterhaeld
achterhrond
achterkant
achterkante
achterland
achterlief
achtermusse
achteroek
achterop
achterover
achteruus
achteruut
achterveld
achtervoegsels
achthuu
achtig
achtste
achttien
achttiende
achtung
acolin
aconin
acrocephalus
act
acteur
actie
actief
acties
actieve
actinopterygii
actitis
activist
activiteit
activiteiten
actrice
acts
actueel
actuele
acy
ad
ada
adam
adams
adar
adde
ade
adel
adelbrecht
adellijke
adema
adeodatus
administratief
administratieve
admirael
admiraol
adolf
adres
adriaan
adriaen
adrianus
adriaotische
adrie
adrien
adulte
adventure
advies
advocaat
ae
aechmophorus
aedemaelen
aedemloo
aeg
aegt
aegte
aehedissen
aek
aeken
aeksnaevel
ael
aelbrecht
aelburg
aeld
aelde
aele
aelemille
aelen
aeln
aelst
aelt
aelten
aemeland
aemelandse
aemstede
aemstie
aen
aene
aensleut
aenspraoken
aeolus
aepeldoorn
aepeldoornse
aer
aerbevienge
aerbezems
aerd
aerdbevieng
aerdbeviengen
aerdbeving
aerdbodem
aerde
aerdig
aerdige
aerdriekskundige
aerebezem
aerehel
aerehels
aeren
aerenberg
aerenburg
aerepels
aerial
aerlem
aerlen
aerm
aermen
aerpeloproer
aerpels
aerssen
aertsbisschop
aertshertog
aertshertogin
aes
aeschbacher
aesem
aest
aethia
aeu
aev
aeve
aeven
aevend
aevene
aevens
aeventje
aevond
aevuns
af
afankelijk
afbee
afbeelding
afc
afdeling
affijn
affinis
afgebroken
afgeleid
afgelo
afgelopen
afgescheidenen
afgescheie
afgeschermd
afgeslote
afgevaardigden
afgevaerdigden
afgezet
afghanistan
afkomst
afkomstig
africa
african
afrika
afrikaa
afrikaans
afrikaanse
afrikaners
afrikaons
afrikaonse
afro
afscheiding
afslag
afstand
after
afval
afwachting
afwiekende
afwiekt
afwijkingen
afzonderlijke
agagiet
against
agatha
agauw
age
ageila
agema
agency
agestien
agge
agnan
agnes
agnicourt
agonges
agosie
agrarisch
agricola
agriornis
agron
agt
aguila
aguilcourt
ah
ahadith
ahasveros
ahc
ahmad
ahmed
ahosveros
ahu
ai
aigle
aiglun
aiguizy
aikant
ailette
ailles
ain
ainay
ainaz
air
aires
airlines
airport
ais
aisha
aisne
aisonville
aizelles
aizy
aj
ajaccio
ajax
ajje
aka
akaba
aken
akira
akkadisch
akker
akkerbouw
akko
akkoo
akkoord
akkoorden
akky
aksel
aksels
akselse
akten
al
ala
alabama
alaincourt
alan
alarm
alas
alaska
alaslanden
alba
alban
albanees
albanezen
albanie
albatros
albatrossen
albe
albedo
albert
alberti
alberto
albifrons
albin
alblasserdam
alblasserwaard
alblasserwaerd
alblasserwaerds
alblasserwaerdse
albrandswaerd
albrecht
album
albums
alcedo
alcidae
alcohol
aldaar
aldeer
aldus
ale
alec
alectrurus
aleid
aleksandr
aleksandra
aleoetisch
aleoetische
alessandro
alex
alexander
alexandre
alexandrie
alexius
alf
alfabet
alfabetisch
alfons
alfonso
alfred
alfrond
algemee
algemeen
algemene
algera
algerije
algerijnse
algis
alhemee
alhen
alherije
ali
alias
alighieri
align
alignbars
alke
alken
alkmaar
alkmaer
all
allaen
allaene
allaenig
allan
allang
alle
allebei
allecijfers
alledrie
allee
alleen
alleene
alleine
allemaal
allemaele
allemagne
allemant
allemaol
allemille
allen
allene
allenig
aller
allerheiligenvloed
allerlande
allerlei
alles
allie
allier
allin
allochtone
allons
allos
almaza
almere
almkerke
almont
almoravieden
alofi
alois
alom
alonso
alpen
alpes
alphabet
alphen
alpin
als
alsband
alsnog
alt
altaer
altaerschellen
altai
altaren
alte
altena
altied
altijd
alto
altoo
altoos
aluve
alv
alva
alve
alverwege
alweer
alzoo
am
amadeus
amalia
amalocichla
amand
amateurarcheologen
amateurs
amazone
ambacht
ambachten
ambachts
ambachtsheer
ambachtsheeren
ambachtslieden
ambassadeur
ambe
amble
ambleny
ambo
ambras
ambrief
ambronay
ambrym
ambt
ambtenaren
ambulance
ambutrix
ame
ameland
america
american
americas
amerika
amerikaa
amerikaanders
amerikaanse
amerikaense
amerikanen
amerikaonen
amerikaons
amerikaonse
amerikaonsen
amerindische
amerongen
amersfoort
amfibiee
amhaors
amiens
amifontaine
amigny
amin
amis
ammao
ammed
ammen
ammoniak
amnesty
amniota
amon
amor
amore
amoritisch
amparte
ampelinus
amper
amphibia
amro
amsberg
amstel
amstelveen
amsterdam
amsterdammers
amsterdams
amsterdamsche
amsterdamse
amtenaeren
amundsen
an
analfabeet
analyse
anangers
anapsida
anas
anastasius
anatidae
anatoli
anatolie
anbelangt
anbesteed
anbod
anc
ancient
ancienville
and
andacht
andamanse
andeel
andel
andelain
andelaroche
andelde
andeln
andelot
andelsplekke
anden
ander
andere
anderen
anderlecht
anders
andersen
andersom
andert
andes
andiek
andigny
andjes
andjevol
andorra
andre
andrea
andreas
andreaskruus
andrew
andries
andriessen
andschrift
andwerk
andy
anee
aneleid
anemaet
anemoon
anepast
anesteld
ang
angaet
angaur
ange
angebrocht
angeeft
angegeve
angel
angela
angelegd
angeleid
angeles
angeli
angels
angen
angenent
angepast
angeslote
angespoelde
angesteld
angeweze
angeziee
angezien
anggun
anglefort
angles
anglicaonse
anglo
angrenzend
angrenzende
angst
angt
anguilcourt
anhangers
anhimidae
anhola
anhrenzende
animalia
anita
anizy
anja
anjou
anjum
ankara
ankel
ankelek
ankelijk
ankelik
ankeluk
anker
ankommend
ankomst
ankoo
ankwamme
anleg
anlegsteiger
anleiding
anleiienge
anloo
anmekaore
ann
anna
annajacobapolder
annaland
anne
anneme
annemer
annemers
annes
annexeren
annie
anno
annobo
annois
annot
another
anouk
anpasse
anpassieng
ans
anser
anseranas
anseriformes
anserinae
anslaegen
anslaehen
anslag
anslagen
ansluting
ansluuting
anspraek
answest
ant
antal
antall
antallen
antarctica
antartica
antartische
antel
anthonie
anthony
anthus
anti
antichrist
antieke
antigua
antilichamen
antiochie
anto
antoine
anton
antoni
antonie
antonio
antonius
antropologie
antropolohie
antropoloog
antwerp
antwerpen
antwerpse
antwoord
antwoordt
anura
anus
anvaering
anval
anvall
anvallen
anvankelek
anvankelijk
anvaring
anvechte
anvoerder
anwezig
anwezige
anwezigeid
anwiezende
any
anzet
anzette
anzien
anzienlijk
ao
aod
aodde
aode
aof
aog
aok
aoke
aol
aold
aolderlei
aole
aolegaere
aoles
aolf
aolle
aollebei
aollef
aollemae
aollemaele
aollemille
aolleree
aollerlei
aolles
aolleve
aolomtegenwoordeg
aols
aolscholver
aolscholvers
aoltie
aoltied
aoltoos
aolve
aolven
aolverwege
aomae
aome
aomer
aon
aondere
aor
aord
aordbeving
aordig
aordrijkskundige
aore
aoreg
aoren
aorie
aors
aorsom
aort
aos
aost
aot
aotearoa
aovund
ap
apache
apaloderma
apart
aparte
apartheid
apeldoorn
aphelocephala
apiaster
apollo
apostel
apostelen
app
appartement
appe
appel
appelscha
appelsienen
apple
apremont
april
apterygiformes
apteryx
aquitaine
aquitaonie
ar
ara
arab
arabie
arabieren
arabiern
arabisch
arabische
arafat
arago
aragon
arahonnees
arakh
aram
aramees
aranc
arandas
aranees
aranuka
araobie
araobieren
araobisch
araobische
ararat
arbeid
arbeiders
arbeiderspartij
arbeidsdienst
arbeidsplekken
arbent
arbignieu
arbigny
arbitrage
arc
arcen
archambault
archeee
archeologie
archeologisch
archeologische
archeolohie
archief
archiefleeuwardercourant
archieven
archignat
archipel
architect
architectuur
archive
archon
arctica
arctische
arcy
ard
arde
ardenne
arder
ardlo
arduin
are
aren
arena
arenaria
arend
arendskerke
arfeuilles
argens
argentatus
argentinie
argenty
argis
arhentinie
arie
ariel
aristoteles
arizona
arjaon
arjen
arkansas
arkel
arles
arlon
arm
armand
armee
armeens
armeense
armen
armenen
armenian
armenie
armentie
armix
armoe
arms
arne
arnehistorie
arneklanken
arnem
arnemuiden
arnhem
arno
arnold
arnoux
arnulf
aroemeens
around
arp
arpa
arpheuilles
arr
arrancy
arrondissement
arrondissementen
arronnes
arrouaise
ars
art
artaud
arte
artemare
artemps
artesie
arthur
arti
artiest
artig
artikel
artikelen
artikels
artillerie
artische
artois
artonges
arts
aruba
as
aschappelaers
ash
asia
asif
asities
asjdod
asma
asnie
asof
aspect
aspecten
aspekt
ass
assad
asscher
asse
assen
assenede
assis
association
assunc
assyrie
ast
astrapia
astrolohie
astronomie
astronomische
astronoo
astronoom
asturie
asturisch
at
atacama
atatu
atelerix
ater
ath
athabaskische
athelstan
athene
athies
atid
atitla
atjeh
atjehers
atlanta
atlantic
atlantisch
atlantische
atlantischen
atlas
atlete
atmosfee
atmosfeer
atolle
atollen
atomen
atomic
atoombomme
atoommacht
atoomoorlog
atoomproef
atoomtest
att
attack
attacks
atte
atten
attencourt
attet
atthis
attignat
attila
attilly
attlee
attracties
attraksjies
attributief
au
auaha
auban
aubenas
aubencheul
aubenton
aubignosc
aubigny
aubin
auckland
audes
audi
audignicourt
audigny
auditie
audities
audition
auditions
auf
auffrique
aug
auge
auges
august
augusta
auguste
augusto
augustus
augy
auhustus
aulers
aulnois
aumencourt
aumont
aupont
aurifrons
auritus
auroue
auschwitz
aussiat
austin
australazie
australian
australie
australis
australisch
australische
austraolisch
austronesische
autels
auteur
authentieke
authon
auto
autobedrief
autochtone
automne
autonome
autonoom
autoriteit
autoriteiten
autosnelweg
autosnelwegen
autoverkeer
autremencourt
autreppes
autreville
autry
auve
auvergnat
auvergne
auvernhat
aux
auzet
avec
avermes
aves
avesnes
avicii
aviv
avond
avondmaal
avonds
avonturen
avontuur
avosetta
avril
avrilly
avro
award
awards
awast
awatan
aweer
awwee
axel
axelsestraote
ay
ayman
aymara
az
aziaotische
aziatische
azie
azien
azo
azote
azteekse
azur
azusa
azuur
azy
b
ba
baa
baagerdreef
baan
baanvlak
baarland
baarle
baarn
baarsdorp
baas
babel
babeldaob
babia
baby
babylon
bac
bach
bachelet
back
backgroundcolors
bacterie
bad
badhasten
badpaeveljoen
badplekke
badric
baekel
baelde
baemisse
baen
baenen
baer
baerland
baerle
baes
baesdurp
bagdad
bage
bagneux
bahama
bahia
bahrein
baikalmee
bains
bairds
bak
bakfiets
bakke
bakken
bakker
bakkerieje
bakkers
bakoe
bakraoui
bakstee
bal
balan
balans
balderik
balfour
bali
balk
balkan
balken
balkenende
balkje
ballast
ballen
ballot
balme
baltic
baltische
balts
bamako
bambe
ban
banaba
bancigny
band
banden
bandry
baneins
banffia
bang
bange
bangkok
bangladesh
bank
banon
bantu
baofkerk
baoi
baoloek
baon
baos
baosis
baptist
baptiste
baptists
bar
barack
barbados
barbara
barbarossa
barbera
barberier
barbonval
barbuda
barcelona
barcelonnette
bardais
bardata
barend
barendrecht
barenton
barisis
barles
barm
barneveld
barome
baron
baronie
baronn
barra
barrais
barras
barre
barreme
barrier
barrydale
bart
barton
barzy
bas
basel
basgitaor
basileuterus
basiliek
basis
baskenland
basketbal
baskisch
bass
basse
basshunter
bassoles
bastaerd
bastaerdhoniengveugels
bastaerdzeun
bastenaeken
bastion
bastogne
bat
bataafse
bataclan
batak
bataklanden
bataofse
batavia
batavie
bath
batoe
baton
battenoord
batterij
battista
battle
battles
baudet
baulne
baumjo
bavel
bax
bay
bayet
bayons
bazoches
bb
bba
bbb
bbc
bc
be
bea
beach
beatles
beatries
beatrix
beaufort
beaufortzee
beaujeu
beaulne
beaulon
beaume
beaumont
beaune
beaupont
beaurain
beauregard
beaurevoir
beaurieux
beautiful
beautor
beauvezer
beauvois
beauvoorde
bebost
beboste
bebouwde
bebouwing
becquigny
bed
bedankt
bedde
bedden
bedekt
bedieken
bediekienge
bedieking
bediekt
bediend
bedocht
bedoel
bedoeld
bedoelde
bedoelienge
bedoeling
bedr
bedraeg
bedraegt
bedrag
bedreigd
bedreiging
bedreihieng
bedreihiengen
bedrief
bedrieven
bedrieventerrein
bedroagt
bedroe
bedroeg
bedrog
bedroog
bee
beek
beekberrehe
beekerke
beekman
beel
beeld
beeldbankvenw
beelden
beeldenpark
beeldhouwer
beeldouwer
beemster
beemte
beer
beesd
beesje
beest
beesten
beeter
beethoven
beetje
beetwortelsuikerfabriek
beffecourt
beg
begae
begaen
begeerten
begi
begin
beginne
beginnen
beginselen
begint
begon
begonne
begonnen
begost
begraafplaats
begraefplekke
begraeve
begraeven
begraven
begrensd
begrepe
begriep
begriepe
begriepen
begriept
begrip
begroet
begues
begun
begunne
begunt
behalve
behandeling
behang
behin
behind
behint
behoefte
behoeve
behon
behonn
behonne
behoo
behoor
behoorde
behoorden
behooren
behoorende
behoorlek
behoort
behorende
behouwe
behraeven
behrensd
behriep
behroeiieng
behulp
behun
behunne
behunnen
behunt
bei
beide
beiden
beie
beieren
beiers
beige
beijerland
beilen
beine
beite
bek
bekanntmachung
bekant
bekarde
beke
bekeerd
beken
bekend
bekende
bekendeid
bekendheid
bekendste
bekenste
bekent
bekering
bekieken
bekken
beklemtoo
beklommen
bekomme
bekwaame
bel
beladen
belang
belangen
belangriek
belangrieke
belangrieker
belangriekste
belangrijke
belangrijkste
belangstellieng
belarus
belast
belastbaar
belastieng
belastiengen
belde
belee
beleefd
beleg
belegerde
belegeren
beleheren
beleherienge
belehern
beleid
belemmerde
beleven
belfast
belfort
belg
belge
belgen
belgie
belgiens
belgique
belgisch
belgische
belgium
belgrado
belgse
belhen
belhie
belhiese
belhisch
belhische
beligneux
belize
bellaffaire
bellamypark
belle
belleau
bellegarde
bellen
bellenaves
bellenglise
bellerive
belleu
bellevalle
belley
belleydoux
bellicourt
bellignat
belmont
belo
beloetsji
beloofd
belooft
bels
belse
belze
belzen
bemannieng
bemannienge
bemanniengsleden
bemanning
bemanningsleden
bemmel
ben
benaemieng
benaeming
benaming
benauwd
benay
benda
bende
beneden
benedicta
benedictus
benee
benelux
benen
benevens
benigne
benin
benito
benjamin
bennebroek
bennekom
bennett
benoemd
benoemde
benoemden
benoi
benoite
benonces
benthem
beny
benz
beon
beoo
beoor
beoordelen
bepaald
bepaalt
bepaeld
bepaelde
bepaelt
bepaolde
beperkt
beplant
ber
berbers
berbice
berchem
berck
bereikbaar
bereikbaer
bereike
bereiken
bereikn
bereikt
bereikte
bereikten
berekend
berend
berengarius
bereziat
berg
bergachtig
bergachtige
berge
bergeijk
bergen
bergienge
bergkeet
bergklassement
bergland
bergmann
bergse
bergtoppe
bergues
berhachtig
berhachtihe
berhen
bericht
berichten
berichtte
beriekbaer
beriekt
beriekte
beringen
beringzee
berkel
berkelland
berlancourt
berlanga
berlien
berliense
berlijn
berlijnse
berlin
berlise
bermuda
bern
bernard
bernardo
bernardus
bernhard
bernicla
bernisse
bernot
bernoville
berny
beroemd
beroemde
beroemdste
beroep
beroepen
berrehe
berrieux
berry
bert
bertaignemont
bertaucourt
bertha
berthenicourt
bertricourt
berucht
beruchte
berus
berzy
besbre
beschaedigd
bescherm
beschermd
beschermde
beschermen
beschermieng
bescherming
beschermt
beschik
beschikbaer
beschikbaereid
beschikking
beschikt
beschote
beschoten
beschouwd
beschouwt
beschreef
beschreve
beschreven
beschrieft
beschrieven
beschrievieng
beschrieving
beschrijving
beschuldigd
beslaat
beslaen
beslaet
beslag
besli
beslissende
beslist
beslit
besloeg
besloo
besloot
beslote
besloten
besluut
besme
besmet
besmont
besny
besprekingen
bessarabie
bessay
besse
bessen
bessenpikker
bessenpikkers
besson
best
bestaan
bestaande
bestaat
bestae
bestaen
bestaend
bestaende
bestaene
bestaet
bestand
bestanddeelnr
bestaon
bestaonde
bestaot
beste
bestellen
bestemd
bestemming
besten
besti
bestie
bestieng
bestier
bestierd
bestierlijk
bestierlijke
bestierlik
bestin
bestit
bestman
besto
bestoat
bestoeng
beston
bestond
bestong
bestoo
bestoot
bestudee
besturen
bestuur
bestuurd
bestuurder
bestuurlijke
bestuursaangelegenheden
bestuursregelingen
bet
betaeld
betaele
betaelen
betaeln
betaling
betaol
bete
betee
betekend
betekende
betekenis
betekenisse
betekent
beter
betere
bethancourt
bethel
bethelkerke
bethlehem
betje
betlehem
beto
betoge
beton
betref
betreffende
betreft
betrekkelijk
betrekkelik
betrekkelike
betrekkieng
betrekking
betreuren
betrof
betrokke
betrokken
bettant
bette
betuwe
betuwelijn
betwist
beugneux
beuk
beuningen
beurs
beurt
beurte
beuter
beuvardes
beval
bevat
bevatten
bevel
beveland
bevelanden
bevelands
bevelandse
bevelen
bevelschrift
bever
beveren
beversluis
beverwiek
beverwijk
bevestigd
bevieng
bevin
bevind
bevindelijk
bevinden
bevindt
beving
bevobbee
bevobbeeld
bevobbeld
bevobbild
bevolkieng
bevolkienge
bevolkiengsdichteid
bevolkiengshroei
bevolkiengshroep
bevolking
bevolkt
bevolkte
bevonde
bevons
bevoorbeeld
bevorderen
bevried
bevriedingsoffensief
bevriejieng
bevriezen
bevrijd
bevrijdienge
bevrijding
bevruchtieng
bewaerd
bewaert
bewege
bewegen
bewegende
bewegieng
beweging
bewehieng
bewester
beweund
beweunde
beweuners
beweunieng
bewezen
bewies
bewieze
bewind
bewoners
bewoond
bewust
bey
beynes
beynost
bezaeten
bezat
bezenet
bezet
bezeten
bezette
bezetten
bezetter
bezetters
bezettieng
bezetting
beziee
bezienswaerdig
bezienswaerdigeden
bezienswaerdigheden
bezienswaerdighee
bezig
bezigouw
bezit
bezitter
bezittiengen
bezittingen
bezocht
bezochte
bezoek
bezoeke
bezoeken
bezoekers
bezoekje
bezonder
bezu
bezuujenhout
bezwaren
bezwilt
bi
biafra
biak
białowiez
białystok
bibi
bible
bibliografie
biblioteek
bibliotheek
bichancourt
bicolor
bidde
bidden
biden
bie
biebel
biebelboek
biebelfragmenten
biebelgordel
biebelvertaelgroep
biebelvertaeling
bieber
biede
bieden
biedt
biee
bieee
biefs
biegenaemd
bieje
bien
biena
bienae
bienaem
bienaemen
bienea
bieneter
bieni
bier
biervliet
biesbosch
bieselinge
biesheuvel
biesterveld
biet
biete
bieuxy
bievoegelijk
bievoegelijke
bievres
biewoord
biezelehe
biezelinge
biezen
biezin
biezonder
biezondere
biezondereden
biezonders
big
bigge
bii
bij
bijdragen
bijlage
bijlmerramp
bijna
bijvoorbeeld
bijzonder
bijzondere
bikkedurp
bildt
bildts
bilker
bill
billezois
billiat
billy
bilt
bilthoven
bimmen
bin
bing
binh
binn
binne
binnekant
binneland
binnelandse
binnen
binnendieken
binnenin
binnenkant
binnenkwam
binnenland
binnenlandse
binnenmaes
binnenof
binnenstad
binnenstreumende
binomio
binst
bint
bio
biografie
biografiee
biografisch
biograofie
biohrafie
bioko
biologie
bioloog
bion
bioscoop
biotoop
biozat
bird
birieux
birma
birmingham
bis
bisch
bische
bischop
bisdom
bisdommen
bisschop
bisschoppen
bitje
bivak
bixler
bizeneuille
biziat
blaauw
black
blad
bladel
bladveugel
bladveugels
blaeren
blaeu
blaeuw
blaeuwe
blaeuwewiek
blaeze
blaezen
blanc
blancefloer
blang
blank
blanke
blanken
blankevoort
blanzy
blaricum
blauw
blauwe
blauwoo
ble
blee
bleef
bleeft
bleek
bleeve
bleke
bleken
bleone
blerancourt
blerk
bleskensgraef
blesmes
bleu
bleve
bleven
blie
bliee
blieje
bliek
blieke
bliekt
blienkt
blies
blieschap
blieux
blijf
blijft
blijken
blijker
blijven
blijvend
blik
blikke
blikvanger
blin
blind
blinde
blitz
blitzkrieg
blo
bloed
bloedbad
bloedige
bloedigste
bloei
bloeide
bloeie
bloeiende
bloeit
bloemen
bloemfontein
blok
blokkeert
blokkerende
blom
blomard
blomen
blomme
blommen
blommeveilieng
blonde
bloo
blote
blu
blue
blues
bluuf
bluuft
bluuve
bluuven
bluuvend
bluve
bluven
blyes
blz
bløf
bmg
bmw
bn
bnp
bo
boam
boamen
boane
board
boarnsterhim
boaz
bob
bocage
boccoli
bocholt
bocht
bocquiaux
bode
bodegraeven
bodem
boe
boedapest
boeddha
boeddhisme
boeddhistische
boede
boeing
boek
boekarest
boeken
boekhandel
boekje
boel
boer
boerderie
boerderiee
boerderieje
boerderiejen
boerderij
boerehat
boeren
boerenoo
boerenoorlog
boerenprotest
boerhaave
boerinne
boers
boete
boeyens
bogaard
bogaert
bohain
bohas
boheem
bohemen
bohuslav
boi
bois
boisse
boissey
bok
bokma
boko
bokseropstand
bol
bolivia
bollen
bologna
bolozon
bolsward
bolt
bolus
bolussen
bolwerk
bomans
bomanslaehen
bomanslag
bomb
bombardement
bombardementen
bombay
bomen
bommel
bommelerwaerd
bommen
bommene
bommenede
bommenee
bommenwe
bommenwerpers
bon
bonaire
bonaparte
boncourt
bond
bondgenoo
bondgenoot
bondgenoten
bondhenoo
bondhenootschap
bondsdag
bondsrepubliek
bongo
bonifacio
bonifatius
bonn
bonne
bonneil
bonnesvalyn
bonnet
bono
bons
bonsdag
bonskanselier
bont
bontbekpleviere
bonte
bony
boo
boodschap
boodschappen
boog
boois
book
books
boom
boomen
boord
booschap
boot
bootje
booven
boovenwiel
borassus
bord
bordeaux
bordje
borealis
borger
boris
borneo
borren
borsato
borsele
borssele
borst
borstbeeld
bos
bosbran
bosch
boschkapelle
bosgebied
bosklauwier
bosmont
bosnie
bosnisch
bospiewie
bosruter
bosse
bossele
bosseln
bossels
bossen
bost
bostbee
boston
bot
botanica
boten
boter
boteram
botha
botland
botswana
bott
botten
botters
bottienge
bottom
bouble
bouce
bouchaud
bouchoux
bouconville
boudewijn
boudewijnskerke
boue
bouffignereux
bouillon
bouke
bouleau
boulevard
bouligneux
boulogne
bourbon
bourbonnais
bouresches
bourg
bourgogne
bourgondie
bourguignon
bourhondie
bourhondisch
bouteille
bouterse
bouw
bouwde
bouwden
bouwe
bouwen
bouwende
bouwene
bouwkunst
bouwmee
bouwwe
bouwwerk
bove
boven
bovendien
bovenin
bovenkamp
bovenkant
bovenop
bovenste
boves
bovestaende
bowling
boxmeer
boy
boyeux
boys
boz
br
brabanc
brabant
brabants
braber
brabo
brachten
brachyramphus
brachyura
braebanse
braebant
braebants
braebantse
braeke
braine
braize
brak
brakman
bram
bran
brancourt
brand
brandde
brandenburg
brandhanze
brandt
brandwee
brandweer
bransat
branta
brantgum
braobant
braobants
braobantse
braokman
braque
bras
brasi
brasilia
brasles
bratislava
braux
brave
bravo
braxton
bray
braye
braziliaons
braziliaonse
brazilie
brazzaville
bre
brecy
breda
bredevoort
bree
breed
breedte
breedtegraden
breek
breekt
breeman
breen
bregnier
breie
breien
brein
breinigerberg
breje
breke
breken
brenaz
brenelle
brengen
brengt
brenod
brens
breny
breole
bresjes
breskens
bresnay
bresse
bressolles
brest
bretagne
brethon
breuil
brevirostris
breziliaense
brezilie
briailles
brian
bridge
brie
brief
briefwisseling
briel
brielle
brielse
brieng
brienge
briengen
briengt
briepe
brieve
brieven
brigade
brigades
bril
brillanne
brink
brinkman
brion
briord
brissay
brissy
brit
britain
britannia
britannica
british
brits
britse
brittanica
brittannie
britten
brixi
brno
bro
broch
brochen
brocht
brochte
brochten
brod
broeder
broeders
broedhedrag
broedheval
broedtied
broedzurg
broei
broeie
broeien
broeihedrag
broeinekel
broek
broekert
broekland
broer
broers
broertje
broken
brokke
brom
bromance
bromes
bromsnor
bron
bronn
bronne
bronnen
brons
broo
brood
brother
brothers
brou
brouk
brousses
brout
brouw
brouwer
brouwerie
brouwers
brouwersdam
brouwershaven
brouwes
brouws
brown
bru
bruelis
brug
brugge
bruggelingen
bruggen
brugheas
brugse
bruhhe
bruidegom
bruijn
bruin
bruinisse
bruinvis
brul
brumetz
bruna
brune
brunehamel
brunei
brunet
bruno
brunssum
brusquet
brussel
brussels
brusselse
bruukbaer
bruun
bruune
bruunhrieze
bruunkee
bruunvis
bruxelles
bruye
bruyeres
bruyne
bruys
bu
bucilly
bucy
budding
budel
budeldassen
budeldieren
budelmollen
buellas
buenos
buge
bugey
bugny
building
buire
buironfosse
buiskerke
buit
buite
buiten
buitenland
buitenlandse
buitenzorg
bul
bulgaria
bulgarije
bulhaorse
bulharije
buma
bund
bundel
bungalowpark
bungalowparken
bunkers
bunschoten
burbanche
burchard
burcht
bureau
burelles
buren
burg
burgeme
burgemee
burgemeester
burger
burgers
burgerzee
burgh
burghse
burgsluus
burhemee
burherlijke
burheroo
burheroorlog
burhers
burherwacht
burirom
burkina
burn
burregemee
burte
burundi
bus
bush
bussen
busset
bussiares
bussolles
busstation
bussum
buste
butaritari
bute
buten
butenaf
butendien
butengebied
butenkant
butenland
butenlandse
butenlanse
butenplekke
buteux
butter
buu
buuk
buukspek
buulbuuls
buur
buure
buurlan
buurland
buurman
buurschap
buurt
buurte
buurten
buurtschap
buurtschapp
buurtschappe
buurtschappen
buurtwienkel
buurvrou
buurvrouwe
buut
buute
buuten
buutenlanse
buutenwereld
buutn
buuze
buvobbeld
buxie
buxieres
buys
buysse
buzancy
bv
by
bydgoszcz
byrd
byzantijn
byzantijns
byzantijnse
byzantium
c
ca
caago
cabaretier
cacatua
cadzand
caen
caerulescens
caesar
cafe
cai
cailloue
caillouel
caire
cairo
caissons
calais
calamanthus
calcutta
caldera
caledonie
calgary
calidris
california
californie
californische
caligula
callaghan
called
calling
callixtus
calment
calon
cals
calvijn
calvin
calvinisme
calvinistisch
calyptorhynchus
cam
cambodja
cambridge
camelin
cameron
camille
campagne
campen
campensnieuwland
camping
campings
camptostoma
campveerse
can
canada
canadese
canadezen
canal
canape
canberra
canon
canorus
canterbury
cantusfirmusmisse
canus
canvas
capaciteit
cape
capelle
capitool
capitula
capitulaosievoorwear
capituleerde
capituleren
caprais
caprimulgiformes
caracas
carai
cardiff
carel
cari
caribisch
caribische
carillon
carl
carla
carlo
carlos
carnaval
carnivora
carola
carolina
carolinen
carolus
carondelet
carpentaria
carpenters
carr
carrie
carte
carter
cartman
cartoons
cascades
casembroot
casimir
casiornis
castanea
castellane
castellard
castellet
castiliaons
castilie
castle
castres
castricum
castro
casuariidae
casuariiformes
casuarius
catalaa
catalaons
catalogus
catalonie
categorie
category
catelet
catharina
cathartidae
cathedral
catillon
cats
catterfeld
cauchie
caudata
caulaincourt
caumont
causeway
cayenne
cbs
cc
cd
cda
cdu
ce
cedric
cees
ceignes
cel
celebrate
celebrity
celestinus
celio
cell
celle
celles
celsius
cent
centen
center
centimeter
centra
centraa
centraal
central
centrale
centraol
centraole
centraolen
centre
centrum
centrumfunctie
century
cepphus
cerdon
ceremonie
cereste
cerilly
cerizy
cerny
cerseuil
certines
ces
cesare
cesset
cessie
cessieres
cessy
cetacea
ceuta
ceylon
ceyze
ceyzeriat
ceyzerieu
ch
cha
chabanne
chaco
chacrise
chaem
chaffaut
chaillevois
chailvet
chaises
chalamont
chalandry
chalaronne
chaleins
chaley
challes
challex
challis
challon
chalvagne
chambe
chamberat
chamblet
chambry
chamouille
champ
champagne
champdor
champenois
champfromier
champions
champs
champtercier
chanay
chaneins
channah
chanoz
chanson
chansons
chantelle
chaourse
chapeau
chapelaude
chapelle
chappes
charadriiformes
charadrius
chareil
charente
charentes
charix
charleroi
charles
charleston
charlie
charlois
charlotte
charly
charmeil
charmel
charmes
charnoz
charon
charroux
charte
charteves
chartreuve
chassemy
chassenard
chasses
chassie
chateau
chateaufort
chateauneuf
chateauredon
chatel
chatelard
chatelperron
chatelus
chatenay
chatillon
chaudardes
chaudon
chaudun
chauna
chauny
chavannes
chavenon
chaveyriat
chavignon
chavigny
chavonne
chavornay
chavroches
chazemais
chazey
che
checourt
chef
cheignieu
chelles
chemical
chemie
chemilly
cheminots
chemische
chen
chenevex
cheops
cheret
chermizy
cherson
chery
chevagnes
chevennes
chevillard
chevregny
chevresis
chevroux
chevry
cheyenne
chezelle
chezery
chezy
chi
chicago
chierry
chigny
chileense
chileensen
chili
china
chinees
chinese
chinezen
chirac
chirat
chiroptera
chivres
chivy
chloropseidae
chloropsis
choigny
chola
chorda
chordabee
chordata
chouvigny
chouy
chr
chris
chrissen
chrissendom
chrissenen
chrissenunie
chrissenvervolgingen
christelek
christeleke
christelijk
christelijke
christen
christendom
christenen
christian
christina
christmas
christoffel
christoph
christophe
christopher
christophorus
christus
chrysler
chu
church
churchil
churchill
chy
ci
cia
cicinnurus
ciconiiformes
ciefers
cierges
cijfers
cile
cilly
cindre
cinerea
cinereus
cintrat
cio
circa
cirkel
ciry
cistercie
citroe
citters
city
civiel
civiele
civrieux
cize
ck
clacy
claim
claimde
clairfontaine
clamecy
clamensane
clanlieu
claode
claret
clark
classificaotie
clastres
claude
claudio
claus
clav
cle
clemenciat
clemens
clement
clercs
clermont
cleveland
cleverbot
cleyzieu
clifford
clignon
climacteris
clinge
clinton
clio
club
clubs
clumanc
cluse
clypeata
cm
cnemophilus
cnidaria
cnn
co
coach
coaches
coalitie
coat
cobar
coca
cochabamba
cochinchinensis
cock
code
codex
coen
coeuvres
coevorden
cognat
cohan
cohartille
coil
coincy
coingt
cola
colchicus
cole
coligny
colijn
colijnsplaat
colius
collectie
collectief
collection
college
collegium
colligis
collonges
collot
colmars
colombia
colombier
colombo
colomieu
colonfay
colonia
colonne
colonnecommandant
color
colorado
colors
colosseum
colours
colsen
columba
columbia
columbidae
columbiformes
columbus
com
combinaotie
combinatie
combraille
comin
comitaot
comite
commandant
commando
commenchon
commentry
commewijne
commisaoris
commisaorissen
commisoaris
commissaoris
commissaris
commissie
commission
committee
commonwealth
commune
communes
communistisch
communistische
compagnie
compagnies
company
competitie
compie
compilatie
compleet
complete
complex
complicated
complot
componissen
componist
componiste
componisten
compositie
composities
comte
comtois
con
conand
concentraosiekamp
concepcio
concert
concertzael
concevreux
concilie
concurrent
concurrentie
condamine
conde
condeissiat
condominium
condon
condor
condors
condren
confederatie
conferentie
confessionele
confetti
conflict
conflicten
confort
confranc
confrancon
confucius
congo
congre
congregations
congress
conhres
conirostrum
connecticut
connigis
conopias
conscience
consequent
conservative
conservator
conservatorium
consoliderene
constant
constante
constantijn
constantinopel
constellation
constitusjonele
constitutionele
constructies
consul
consulaat
contact
contacten
containerschip
contescourt
contigny
continent
continentaol
contopus
contract
contrevoz
controle
conventioneel
conzieu
coo
cook
cookeilan
copernicus
copy
cor
coraciiformes
corbeny
corbie
corbieres
corbin
corbonod
corcelles
corcy
cordon
corent
corlier
cormaranche
cormobates
cormoranche
cormoz
cornelia
cornelis
cornelius
cornet
cornwall
coronata
coronatus
correa
corsica
corsicaons
corveissiat
corythopis
cosmas
cosne
costa
costalago
cot
cottere
cotterets
coty
coucy
coulandon
coulanges
could
couleuvre
coulonges
council
countries
country
county
couplet
coupru
coupure
cour
courant
courbes
courboin
courc
courcais
courcelles
courchamps
courmangoux
courmelles
courmont
courpierre
court
courtecon
courtemont
courtes
courtil
courtrizy
coutansouze
couvrelles
couvron
couzon
coward
coyolles
cpn
cramaille
crandelain
cranendonck
crans
craonne
craonnelle
cras
crash
crateroscelis
crayertpolder
cre
creative
crechy
crecquillon
crecy
cree
creeke
creooltaele
creooltaelen
crepigny
crepy
cressanges
cressin
creuzier
crezancy
cricket
crijnssen
criminal
crise
crisis
cristatus
cristo
critici
crocodilia
croix
cromstriejen
cromstrijen
cronyk
croo
cropped
crottet
crouttes
crouy
crozet
cruis
cruninghe
crupilly
cruz
cruzilles
cry
crypturellus
cs
cscl
cu
cuba
cuffies
cugny
cuijk
cuirieux
cuiry
cuisiat
cuissy
cuisy
culemborg
culoz
cultivaotie
culture
cultureel
culturele
cultuur
cultuurtaele
cum
cunehonde
cup
curac
curatorium
curbans
curciat
curel
curie
curitiba
curtafond
cuser
cusset
cutry
cuypers
cuzco
cuzieu
cv
cvp
cy
cycloon
cyclus
cyprus
cyr
cyrenaika
cys
cze
cœuvres
d
da
daa
daadwerkelijk
daalen
daan
daar
daarbij
daarin
daarna
daarnaast
daarnae
daarom
daarop
daartoe
daaruit
daarvan
daarvoor
dad
dada
dadde
daddis
daden
dader
daders
dae
daebie
daeders
daedeu
daegeliks
daegen
daegs
daehen
daeken
daemee
daenae
daenig
daer
daerachter
daeran
daerat
daerbie
daerin
daermee
daernae
daernaest
daernessens
daerom
daeronder
daerop
daerover
daervan
daevan
daevo
dag
dagblad
dagelijks
dagen
dagje
dagneux
dagny
dai
daine
dak
dakota
dal
dalai
dale
dalen
dallon
dalmaotisch
dam
damary
damaskus
damasus
dame
dames
damianusvloed
dammard
damme
dammen
damn
dampcourt
dampierre
dampierres
dampleux
dan
dancing
dangerous
danie
daniel
danizy
dank
dankbaarheid
danken
dankt
dankzij
danny
dans
dansen
dante
danzig
dao
daogen
daomee
daomes
daor
daorisch
daorom
daotief
daotum
dap
dapper
dar
darkgrey
darkness
darling
darmstadt
darwin
das
dasyornis
dat
database
dateert
dateformat
datief
datten
datum
datzelfde
dauphine
dave
daverende
daverje
david
davidson
davis
day
days
dbektiran
dbruun
dc
dd
dder
ddr
de
deal
dean
death
debat
debrecen
decaocto
december
decennia
decennium
decken
declaration
deco
deden
dee
deed
deee
deeg
deej
deeje
deel
deelen
deelname
deelnemer
deelnemers
deels
deelt
deen
deens
deense
deer
deerbie
deerdeu
deerdeur
deerin
deermee
deerna
deernae
deernaest
deerom
deerop
deervan
dees
defensie
definitie
definitief
deg
dei
deimos
deine
deir
deje
dek
dekens
dekker
dekkers
dekpannen
del
delano
delaware
delegaotie
delen
delf
delfland
delft
delfzijl
delijke
della
delta
deltaplan
deltawe
deltawerken
dem
demandolx
demediagids
demikt
democraot
democraoten
democraotie
democraotisch
democraotische
democraotischer
democraten
democratie
democratisch
democratische
demograofie
demohrafie
demoulin
den
dendermonde
dendroica
dene
denemarken
deneuille
denis
denk
denken
dennis
dental
denters
dentocht
departement
departementen
dependency
der
derbie
dercy
derde
derden
derdracht
dere
deredactie
dereid
dergelieke
dergelijke
derhelijke
derin
derop
dertien
dertiende
dertienden
dertig
dervan
des
dese
desert
desertines
desi
desire
deslaurens
desmond
desondanks
destieds
determineern
deu
deudat
deugevoerd
deuillet
deur
deurda
deurdan
deurdat
deure
deuren
deurene
deurkomststad
deurne
deurreize
deursnee
deurt
deurtjes
deurwaorder
deuterostomata
deux
devel
development
deventer
devil
devise
deze
dezelfde
dezelve
dezelven
dezen
dezer
dge
dgieter
dhabi
dhr
dhuizel
dhuys
di
diakritische
dialect
dialectale
dialectcolumns
dialecten
dialectgroep
dialectloket
dialectn
dialectonderzoek
dialectrenaissance
dialectschrievers
dialekt
diameter
diamond
diapsida
dibi
dibie
dicaeidae
dicaeum
dich
dichbevolkt
dichbie
dicht
dichtbevolkt
dichtbie
dichtdee
dichtdeee
dichte
dichtebie
dichteid
dichten
dichter
dichters
dichtheid
dichtst
dick
dictaotor
dictator
dictatuur
dictionnaire
dideur
didier
die
diederik
dieer
dieet
diego
diejn
diek
dieke
dieken
diekgat
diekgraef
diekveroo
diekwaeter
dieleman
dien
dienaers
diende
diene
dienen
dienende
dieng
diengen
dienk
dienke
dienken
dienkt
diens
diensen
dienst
diensten
dient
diep
diepe
diependorst
diepere
diepste
diepte
diepzee
dier
dierbaar
dierde
diere
dieren
diersoo
dies
dietrich
diets
dietsche
dieven
diever
diezelfde
diffinitief
dig
digd
dige
digibron
digitaal
digne
dijk
dijke
dik
dikbekfuut
dikke
dikkelder
dikkels
dikken
dikkuls
diks
diksmuide
diksmuje
dildo
dimee
din
dinae
dinant
dinbevolkt
dineffen
ding
dingen
dingspelen
dinne
dinosaurussen
dinteloo
diomedea
dion
diou
diploma
diplomatieke
dippartement
diprotodontia
dir
dire
direct
directe
directeur
direkt
direntehen
dirigent
dirin
dirk
dirksland
dirnae
dirom
dirop
dirrom
dirrum
dis
discografie
discograofie
discussie
discussies
dishoek
diskjockey
dismantle
disney
disoek
dissendag
distel
distr
distributie
district
districten
dit
dito
divan
divers
diverse
divisie
divisies
divoe
divonne
dizy
dizze
dj
dji
djibouti
djo
djoero
dkantoo
dkantoor
dkee
dln
dmitri
dn
dna
do
doa
doad
doagn
doar
doarachter
doavan
docent
doch
docht
dochte
dochten
dochter
dochters
document
documentaire
documenten
documents
dodaars
dodelijke
doden
dodental
doe
doee
doek
doeken
doel
doelen
doelwit
doen
doende
doene
doenker
doenkerder
doenkere
doet
doetinchem
doeu
doewe
doewen
doewene
doggersbank
dohis
dokkum
dokkumer
dokter
dole
dolfijn
dolignon
dollar
dom
dombes
domburg
dome
domein
domenee
domenico
domenie
domerat
dominante
dominee
dominica
dominicaanse
dominion
dommartin
dommel
dommiers
dompierre
domptin
domsure
don
donald
donat
donau
donderdag
donetsk
dong
dongalon
dongen
dongeradeel
dongeradiel
donizetti
donjon
donk
donker
donner
doo
dood
dooie
dooien
doomnie
door
doordat
doorman
doorn
doornik
doornspiek
doors
dorde
dorden
dordrecht
dordt
dorengt
doris
dorp
dorpelingen
dorpen
dorsalis
dorsvloer
dortan
dossier
douchy
douglas
douvres
douwe
dow
doyet
dpersoo
dpeule
dplekke
dpoo
dr
draagt
draaijer
draait
dracht
drachten
draed
draedjes
draedomroep
draeg
draegbaer
draegen
draegene
draegers
draegt
dragen
draghen
draix
dramp
drank
draod
draogerieje
draoi
draoie
draoien
draoit
draoje
dravegny
dravidisch
dravidische
dream
dreef
drees
dreigt
dreischor
dreister
dreistur
drek
drente
drenthe
drents
drentse
dressuur
dreux
dreven
drie
driee
driefstang
driegde
drieje
drienk
drienke
drienken
drienkt
dries
drietee
drieve
drievende
drievuldigheid
driewe
driewegen
drimmelen
driulis
dro
droait
droefenis
droeg
droehe
drogisterie
droiturier
droizy
drom
dromaiidae
dromaius
dronge
dronten
droo
droog
drooiplotte
druillat
druk
drukke
drukken
drukker
drukkerieje
drukst
drukste
drukt
drukte
drummer
drums
druven
drymodes
dryoscopus
ds
dse
dsm
dstad
dstedelijk
dsteed
dstraf
dte
du
dub
dubbel
dubbeldekker
dubbeldekkers
dubbeldeksboo
dubbele
dubbeltje
dubius
dublin
duchte
dudelijk
dudelijker
dudelik
dudelike
due
dug
duijff
duin
duit
duits
duitse
duitsers
duitsland
duiveland
duizend
duken
dukers
dulleven
dulve
dulven
dun
dunbevolkt
dunbevolkte
duncan
dunderdag
dunen
dunenrij
dunstbevolkte
duo
dur
durdat
durende
durft
durham
durkheim
durp
durpen
durpie
durpje
durpjes
durpsbelang
durpsgezicht
durpsje
durpskerk
durpskerke
durpskern
durpskerreke
durpsplein
durpsraed
durpsraod
durpsstraete
durre
durve
durven
dury
dus
dusdanig
dust
dusun
dutch
duu
duudelijk
duukers
duum
duun
duunen
duungebied
duunkant
duunkerke
duur
duurde
duurn
duurstede
duurt
duuster
duusternis
duusters
duuts
duutse
duutsen
duutsers
duutsland
duutstaelige
duuve
duuveland
duuzend
duuzenden
duvel
duveland
duvelands
duven
duvendieke
duvestein
duyes
duzend
duzende
duzenden
dvd
dvonnis
dwangarbeiders
dwars
dwergaolscholver
dwergmee
dwergplanete
dwight
dwingeloo
dwo
dy
dyk
dyn
dynamiet
dynastie
dz
dzaekelijk
działoszyce
dztwo
dæ
e
eacht
eagles
eal
eale
ean
eantwoord
eare
earg
earl
earm
earrestee
earresteerd
earth
east
eastern
eaten
eaucourt
eaux
eavun
eb
ebaggerd
ebaseerd
ebbe
ebben
ebber
eben
ebied
ebleve
ebleven
ebola
ebombardeerd
eboo
ebore
eboren
ebouleau
ebouw
ebouwd
ebouwen
ebouwtje
ebreid
ebreuil
ebrocht
ebroeid
ebroken
ebruukt
ecdysozoa
echallon
echassieres
echenevex
echt
echte
echten
echter
echtgenote
echthenoo
echthenote
echtpaer
eclaimd
ecole
ecomare
economie
economiee
economisch
economische
econoom
ecosysteem
ecser
ecuador
ecuadoriaonse
ed
edae
edaen
edaene
edam
ede
edeeld
edel
edelen
edellieden
eden
edeportee
ederveen
edese
edge
edicht
edinburgh
edison
edit
editie
edition
edmund
edocht
edoke
edomineerd
edoo
edreigd
edreve
edreven
edroge
edroohe
eds
eduard
eduardo
eduud
edvard
edward
edwonge
edwongen
ee
eed
eede
eeh
eeij
eej
eeklo
eel
eele
eem
eemdijk
eemland
eemnes
een
eend
eenden
eendracht
eene
eeneid
eenen
eenentwintegste
eener
eenhee
eenheid
eenige
eenmaal
eens
eenvoudig
eer
eerbetoon
eerder
eere
eeren
eerlijk
eerschappij
eersel
eerser
eersienge
eerst
eerste
eersten
eertijdts
eest
eeste
eesten
eet
eete
eetn
eeu
eeuw
eeuwe
eeuwen
eeuwenlang
eeuwig
eev
ef
efate
effect
effen
effenof
effry
efrete
eft
efuseerd
eg
egaele
egbert
egeve
egeven
eggeric
eglise
egmond
ego
egoo
egraeve
egretta
egroeid
egter
egypt
egypte
eh
ehad
ehaeld
ehaele
ehee
eheet
ehel
ehels
eheven
ehn
eho
ehoue
ehouwe
ehouwen
ehrazat
ehud
ehype
ehypte
ehyptisch
ehyptische
ei
eid
eidsspecialiste
eie
eiers
eiffeltoo
eig
eige
eigelek
eigelijk
eigelik
eigen
eigenaar
eigenaer
eigenaoreg
eigendom
eigenlijk
eigenschappen
eiges
eigh
eigndom
eih
eihe
eihelijk
eiheluk
eihen
eihendom
eihenlijk
eihenluk
eihenschapp
eihlijk
eijsden
eike
eikelwurmen
eiken
eil
eilan
eiland
eilanden
eilandengroep
eilandje
eilandjes
eilandn
eilanje
eilanjes
eilat
eildert
eile
eilige
eilihe
eilihen
ein
eind
einde
eindelijk
eindhoven
eindig
eindigde
eindigt
eindklassement
eindpunt
eine
eingel
einstein
eintjessand
eintjeszand
eirde
eise
eisen
eisenhower
eisleben
eist
eisten
eit
eitjes
eje
ejoge
ek
ekeke
ekel
ekend
ekenmerkt
ekik
ekkens
ekleurd
ekocht
ekoloniseerd
ekomm
ekomme
ekommen
ekoze
ekozen
ekrege
ekregen
ekrehen
ekroo
eksterhanze
eksterhanzen
ekweekt
el
elaenia
elaete
elaeten
eland
elba
elbasan
elbe
elbroes
elburg
elco
eld
elden
elder
elderder
elders
ele
eleanor
electrisch
elee
eleen
elegans
elegast
elegd
elege
elegen
elehen
eleid
eleit
eleje
elektriciteit
elektrische
elemaele
element
elementen
elenia
eleonora
elevation
eleverd
elf
elfde
elfstedentocht
elfstee
elft
elftal
eli
elisabeth
elisabethsvloed
elizabeth
elk
elkaar
elke
elken
elkerzee
ell
ella
ellef
ellemeet
ellen
ellende
ellesdiek
ellewoutsdijk
ellice
elliengen
ellis
elo
eloape
eloi
eloy
elpe
elpen
els
else
elsevier
elspeet
elst
elt
eluh
eluusterd
elvis
elzas
elzassisch
em
emae
emaekt
emanuel
embryo
embryophyta
emeetn
emel
emeritaat
emeten
emi
emigreerde
emikt
emil
emile
emilio
emina
emir
emiraoten
emma
emmanuel
emmeloord
emmen
emmer
emoe
emoes
empidonax
empire
emtrok
en
ena
enaemd
enaoid
enchastrayes
encyclopedie
end
ende
endege
endegt
endemisch
endemische
endige
endletters
endlo
endrik
ene
enegouwe
enegouwer
enegouws
enegouwse
energie
engel
engeland
engelbert
engelen
engels
engelse
engelsen
engie
engievre
englancourt
english
engwierum
enheedn
enig
enige
enihe
enk
enkel
enkele
enkelt
enkelvoud
enkhuizen
ennemond
enoeg
enoemd
enoemt
enome
enomen
enoom
enoome
enorm
enorme
enough
enrique
ens
enschede
ense
enste
ent
ente
entente
enthousiast
entjessand
entrages
entre
entrepierres
entrevaux
entrevennes
entsje
enurme
enz
enzo
eo
eoceen
eonaviegan
eopend
eopsaltria
eorhaoniseerd
eorve
ep
epagny
epakt
eparcy
epast
epaux
epe
eperkt
ephthianura
ephthianuridae
epidemie
epieds
epikt
epimachus
epine
eplaest
epleegt
eplekt
epolderd
epourdon
eppes
epree
epresenteerd
equatoriaol
equivalent
er
erasmus
erberg
erberge
erbouw
erbouwd
erd
erde
erder
erders
erdieken
ere
ered
ereikt
erekend
eren
erestaureerd
erfenis
erfenisse
erfgenaem
erfgoed
erfhoed
erg
ergaticus
erger
ergest
ergste
eric
erich
ericht
erik
erinaceomorpha
erinaceus
erindee
erinneren
erinnering
erinnert
eritrea
erke
erkend
erkende
erkenne
erkennen
erkennieng
erkenning
erkent
erkomst
erlon
erloy
erm
erme
ermelo
ermland
ermste
ernest
ernesto
ernst
ernstig
ernstige
ernstigste
erocht
erop
eropend
errebeier
errebeiers
errebezems
erreburg
erremu
erremuje
errum
ers
erstel
ersteld
erstelt
ersten
erten
ertoe
ertog
ertogdom
ertoginne
ervan
ervat
erven
ervormde
ervormer
ervorming
ervurmde
es
escale
esch
eschaft
escheie
escheien
escheije
eschoenke
eschonken
eschote
eschoten
eschreve
eschreven
escurolles
eskimo
eslacht
eslegen
esleurd
esloge
eslogen
esloopt
esloot
esloote
eslote
esloten
esmee
esmolte
esonstad
espace
esparron
espeeld
esperanto
espi
espinasse
espiritu
esplitst
esproke
esproken
esprook
esque
esqueheries
esquilyn
essen
essens
essequibo
essigny
essises
esso
essomes
est
estae
estaekt
estaene
estart
estate
este
esteld
estemd
esten
ester
esteund
esther
esticht
estierd
estisch
estivareilles
estland
estn
estoken
estole
estooke
estoublon
estrande
estre
estrees
estroo
esturve
esturven
eswatini
et
etampes
etappe
etaves
etc
ete
etee
etekend
eteld
eten
ethiopie
ethiopische
etienne
etje
etnisch
etnische
etouvelles
etreaupont
etreillers
etrepilly
etreux
etrez
etroffe
etroffen
etrokke
etrokken
etroussat
etrouwd
ettema
etymologie
etymologisch
etymologische
eu
eucalyptusboo
eudromia
eudyptes
euge
eugene
eugenius
eukaryoot
eupen
euphe
euphemie
eur
euro
eurocrisis
euromast
europa
europacup
europe
european
europeanen
europeaon
europeaonen
europee
europees
europeese
europese
eurovisie
euscarthmus
eustatius
euvel
euvelland
euvels
euw
euwe
euws
euwsche
euwse
eva
evacuatie
evaeren
evalle
evallen
evalln
evang
evange
evangelie
evanhelie
evanhelisch
evans
evaolle
evaoren
eve
eveegd
even
evenaer
evenas
eveneens
evenement
evenhuis
evenment
evenmin
evenoevihen
eventueel
eventuele
evenwicht
ever
everest
evergnicourt
eversdiek
eversdijk
evert
every
everywhere
evestigd
evist
evloge
evochen
evochte
evoed
evoegd
evoeld
evoerd
evolgd
evolgt
evolutie
evon
evonde
evonden
evonge
evormd
evosges
evp
evuld
evurmd
ewe
eweest
ewerkt
eweze
ewezen
ewied
ewiezigd
ewist
ewonge
ewonn
ewonne
ewonnen
eworn
eworre
eworren
ex
exact
exclusief
excursie
exemplaa
exloo
expansie
expeditie
expedities
explodeert
exploderen
exploitanten
exploitaotie
exploitatie
explosie
explosies
export
exposities
express
expressionisme
extensions
exterieur
externe
extra
extremaduriaons
extreme
extremen
extremistische
exulans
eyak
eyck
eye
eyes
ez
ezakt
ezalfd
ezardian
ezegend
ezeid
ezeit
ezelspingui
ezet
ezete
ezie
eziee
ezieje
ezien
eziene
ezo
ezocht
ezoogd
ezuverd
f
fa
fabie
fabriek
facebook
factbook
facto
factoorn
factor
faero
failliet
failloue
faillouel
fala
falconiformes
falklandeilanden
fall
famenne
fami
famielje
familie
family
fan
fanatieke
fanclub
fang
faom
far
faraday
faramans
farao
fareins
fargeol
farges
farhud
faria
farizee
fasciatus
fase
fashoda
faso
fast
faty
faucon
faucoucourt
faucouzy
fauna
faverolles
fay
fayet
fc
fd
fdplaote
fe
feat
feberwari
feberwarirevolutie
feberwaristaoking
febriek
febrieken
februari
federa
federaol
federaotie
federico
fee
feest
feetiran
feillens
feit
feite
feitelijk
feitelik
feiten
fel
felhekleurde
felipe
felix
felixvloed
felle
femielie
femielje
femieljes
femilie
femilies
femke
fenicisch
feodaole
ferdinand
ferdinando
fere
fermes
fermielje
ferna
fernand
fernando
ferney
ferrand
ferrer
ferrie
ferrieres
ferries
ferry
ferte
ferwe
fesmy
fest
festa
festieux
festival
feyenoord
fezante
fezzan
fictieve
fidel
fie
field
fien
fier
fiets
fietse
fietsen
fietsers
fieulaine
fight
figure
figuren
figuur
fihuur
fihuurtjes
fiji
filain
file
filepijn
filepijnse
filip
filipijnen
filipino
filippijn
filips
filles
fillum
film
films
filosofen
filosofie
filosoof
fin
fina
finale
finalisten
financie
finaole
finaolis
finaolisten
finland
finn
fins
finschia
finse
fiore
fiorella
fire
firma
first
fiskaol
fismes
fisser
fitna
five
fjord
fjordane
fjorden
fkaerte
flabellifer
flag
flak
flakkee
flakkeee
flakkees
flamengrie
flamingo
flandre
flank
flappy
flavigny
flaviventris
flavy
flaxieu
fle
flejen
fles
flessingue
fleur
fleuriel
fleury
flevoland
flevopolder
flienk
flienke
fliet
flikken
flink
flora
florence
florian
florida
floris
florisz
flow
floyd
fluit
fluite
flupland
fluplands
flupsdam
fluquie
fluquieres
fluvicola
fm
fnp
fo
foeragere
foeraheern
foissiat
fokker
folembray
foley
folkestone
folklore
fons
fonsomme
fonsommes
fontaine
fontein
fontenelle
fontenoy
fontienne
fontsize
foo
football
for
forcalquier
force
ford
fore
forens
forest
foreste
foret
forez
forgotten
form
formans
format
formeel
formele
formierden
formosa
formule
fort
forts
fortuyn
forum
fosse
fosses
fossielen
fossoy
foster
foto
fotograaf
fotonen
foulkes
foulon
foundation
fouquerolles
four
fourdrain
fourilles
fours
fout
fouten
fraai
fraanje
fractie
fractieveuzitter
frame
frameless
franc
franca
france
francesco
franche
francheleins
franchesse
francilly
francis
francisco
franciscus
franco
francoprovenc
franeker
franjepoo
frank
franken
frankfurt
frankisch
frankische
franklin
frankriek
frankrijk
franqueville
frans
franse
fransen
fransgezinde
fransje
franstaelige
frantis
franz
fraoctieveuzitter
fraoien
fraoienove
fraoijen
fratercula
fre
fred
frederick
frederik
free
freedom
freedoms
freet
fregat
freiheit
freiherr
freinzen
french
frene
fresil
fresnes
fresnoy
fressancourt
frete
freud
frie
friedrich
frieres
fries
friese
friesland
friestaelig
friezen
frinze
frioelisch
fris
friso
frits
fritz
friulisch
froidestre
froidestrees
froidmont
from
front
frontalis
fruit
fruut
fryske
frysla
fstuk
ft
fu
fuego
fugeret
fuiter
fuliginosus
functie
functies
fundament
fundamenteel
fundamenten
fusca
fushimi
fusie
fussigny
futen
fuuftig
fuut
fvd
fveugels
fysieke
fysische
g
ga
gaan
gaat
gabe
gabon
gabrie
gabriel
gadaffi
gae
gaef
gaelic
gaen
gaende
gaepienge
gaesterland
gaet
gaeten
gaeve
gaeven
gaf
gaga
gaillard
gaius
gajo
galabre
galen
galerie
galilei
galileo
galindo
galle
gallery
galliformes
gallinago
gallo
gallus
gambia
games
ganagobie
gandelu
gane
gang
gangk
gank
gannat
gannay
gans
ganymedes
gao
gaon
gaot
gaozong
gapinge
garage
garci
garde
garden
garderen
garnat
garnerans
garnizoen
garrulax
gary
garzetta
gas
gasbedrijven
gascons
gasreuzen
gasten
gastland
gaston
gat
gatdam
gate
gaten
gatun
gauchy
gaufre
gaulle
gaumais
gauw
gaven
gavia
gavrilo
gavve
gay
gazastrook
gbouw
gd
gdan
gdansk
ge
geallieerde
geallieerden
geannexeerd
gebakke
gebaoseerd
gebaseerd
gebauer
gebed
gebeden
gebeld
gebergte
gebergtes
gebeurd
gebeurde
gebeurden
gebeure
gebeurende
gebeurt
gebeurtenis
gebeurtenisse
gebeurtenissen
gebied
gebieden
gebiedje
gebiee
gebleken
gebleve
gebleven
gebod
geboden
gebombardeerd
geboo
geboor
geboorte
geboorteplekke
geboortestad
gebore
geboren
gebouw
gebouwd
gebouwen
gebracht
gebreid
gebreide
gebrek
gebrocht
gebroeders
gebroken
gebrouwd
gebruik
gebruikt
gebruke
gebruken
gebruker
gebrukers
gebruuk
gebruuke
gebruukt
gebruukte
gebruukten
gecommitteerde
gecomponeerd
geconcentreerd
geconfederee
gedaan
gedachte
gedachten
gedae
gedaen
gedaon
gedee
gedeeld
gedeelte
gedeelteleke
gedeeltelijk
gedeelten
gedeputeerde
gedeputeerden
gedicht
gedichten
gediend
gedocht
gedoo
geduld
gedurende
gedwonge
gedwongen
gee
geef
geeft
geel
geen
geene
geenstijl
geersdiek
geersdijk
geert
geertruda
geertruida
geertruudenberg
geervliet
geest
geformaliseerde
gega
gegaan
gegae
gegaen
gegaon
gegeve
gegeven
gegevens
gegroeid
geh
gehad
gehaeld
gehee
geheel
gehele
geheugen
gehouden
gehouwen
gehucht
gehuchten
gehuwd
gei
geijskes
geirn
geit
geiten
gek
gekaekten
gekantelde
gekker
geklapt
gekleurd
gekocht
gekomen
gekomm
gekomme
gekommen
gekoze
gekozen
gekrege
gekregen
gekrookte
gel
gelaete
geland
gelande
geld
gelde
gelder
gelderland
geldermalsen
gelderse
geldrop
geldt
gele
geleden
gelee
geleee
geleen
geleerd
geleerden
gelege
gelegen
gelegend
gelegenheid
geleid
geleidt
geleje
geliefd
geliefde
geliek
gelieke
gelieknaemige
gelieknamige
geliektiedig
gelignieux
gelijk
gelo
gelok
gelokkig
geloo
geloof
gelre
geluid
geluk
gelukkig
geluud
gem
gemaakt
gemaekt
gemael
gemaelen
gemak
gemakkelik
gemaokt
gemarcheerd
geme
gemee
gemeenschap
gemeenschappelijk
gemeente
gemeentearchief
gemeentebelangen
gemeenten
gemeenteraed
gemeetn
gemenebest
gemengde
gemert
gemet
gemete
gemeten
gemiddeld
gemiddelde
gemikt
gen
genaamd
genade
genaemd
genaemde
gene
genemuiden
genera
generaal
general
generale
generaliteitsland
generaol
generaoties
generatie
generaties
generation
genesis
genest
genevie
genevieve
genezen
genghis
gengoulph
genieten
geniez
genis
genissiat
genitief
genk
gennep
gennetines
genocide
genoeg
genoegen
genoemd
genoemde
genog
genome
genomen
genoo
genouilleux
gent
gentse
genua
geny
geografie
geografisch
geografische
geograofische
geograph
geopend
georee
georg
georgaoniseerd
george
georges
georgi
georgia
georgianus
georgie
georhie
georhisch
geothlypis
geovreisset
geovreissiat
gepaerd
geplakt
geplant
gepleegd
geplunderd
gepraet
gepraot
gepreekt
gepresenteerd
geprombeerd
gepubliceerd
ger
geraakt
geraedpleegd
geraekt
geraept
gerald
gerand
geraoken
gerard
gercy
gerdien
gere
gerealiseerd
gerecht
gerechtig
gereden
geree
gereed
geref
gereformeerd
gereformeerde
gereformeerden
geregeld
geregisseerd
gereje
gerekend
gerekruteerd
gerekte
gerestaureerd
gergem
gergeminfo
gergny
gerhard
gericht
germagnat
germain
germaine
germaons
germaonse
gernicourt
gerold
geronde
geronimo
gerrit
gert
gerygone
ges
gescheie
geschiedenis
geschiedenisse
geschiedeniszeeland
geschiedt
geschikt
geschokt
geschonken
geschoten
geschreve
geschreven
geschuurd
gesetz
geslacht
geslachten
geslogen
gesloopt
geslote
gesloten
gesneuvelden
gespaerd
gespanne
gespeeld
gesplitst
gesprekken
gesproke
gesproken
gestaan
gestart
gesteld
gestemd
gesteund
gesticht
gestierd
gestoken
gestorve
gestorven
gesturve
gesturven
gestuurd
get
getal
getallen
geteld
getroffe
getroffen
getrokke
getrokken
getrouw
getrouwd
getuge
getugenisse
geul
geule
geulen
geultje
geuzen
gevaer
gevaeren
geval
gevalle
gevallen
gevange
gevangen
gevangenen
gevangengenomen
gevangengezet
gevangenis
gevangenisse
gevangennam
gevangenschap
geve
gevech
gevecht
gevechten
geveen
gevelstee
geven
geverfd
gevestegd
gevestigd
gevierd
gevist
gevlucht
gevoegd
gevoel
gevoerd
gevolg
gevolgd
gevolge
gevolgen
gevonde
gevonden
gevormd
gevroge
gevuld
gevulde
gevurmd
gewaepende
gewasse
gewassen
gewe
geweest
geweld
gewelddadige
gewend
gewenst
geweren
gewerkt
gewest
gewesten
geweun
geweund
geweune
gewezen
gewicht
gewijd
gewist
gewon
gewond
gewonde
gewonden
gewone
gewonen
gewonne
gewonnen
gewoon
gewoonlik
gewoonte
geworden
gewordn
geworre
geworren
gewurvelde
gex
gezaemenleke
gezag
gezangen
gezegde
gezegend
gezeid
gezellig
gezelschap
gezet
gezete
gezicht
gezichten
gezie
geziee
gezieje
gezien
gezin
gezocht
gezond
gezonde
gezondeid
gezondheid
gezurgd
gezusters
gg
ggelegd
ggin
gh
gha
ghana
ghazni
ghe
ghee
ghegoten
ghetto
ghoet
ghor
gi
giacomo
gian
gibbons
gibercourt
gicourt
gids
gie
gieen
gieng
gienge
giengen
gienk
gier
giessen
giessendam
giessenlan
giet
gieten
gif
gift
gigors
gij
gijsbrecht
gilbert
gilberteilan
gilles
gillis
gilze
gin
ginee
ging
ginge
gingen
ginialogische
giorgi
giorgia
giovanni
gipcy
giron
git
gitaor
gitarist
gitoar
giuseppe
givarlais
giya
gizeh
gizy
gje
gjirokaste
gk
gl
glad
glan
gland
glareola
glas
glasgow
glegging
glennes
gletsjer
gletsjers
gliek
glieke
glieknaemege
glind
glise
glo
global
globaol
gloeiend
gloove
gloria
glorie
gloriebaan
gloucester
glu
gmina
gn
gne
gnier
go
goa
goan
goat
gobain
gobert
god
goddelo
goden
godes
godfried
godin
godinne
gods
godsdienst
godt
godvruchtig
goed
goede
goedereede
goederen
goederentrein
goedkeuring
goedkoo
goeds
goeie
goeiendag
goemanszorg
goeng
goenge
goeree
goerees
goereese
goerion
goes
goesche
goese
goet
gogh
gold
golden
golf
golleven
golven
gombert
gomont
gone
gong
gongen
gonville
gonza
goo
good
goodn
google
gooi
gooide
gooie
gooien
gooischie
gooischieters
gooise
gorbatsjov
gorcum
gordon
gorkem
gorkum
gornaet
gornet
gorrevod
gors
goryeo
gos
got
gotisch
gotische
gottfried
goud
gouda
goudelancourt
gouderak
goudriaan
goudswaerd
gouise
gourdans
goussancourt
gouvernement
gouverneur
gouverneurs
gouwe
gouwen
gouy
gov
government
gozo
gp
gpv
gra
graaf
graaff
graag
graauw
grace
gracht
graef
graefschap
graefschappen
graeg
graen
graeuw
graeve
graeven
graevers
graevin
graevinne
graf
grafiek
grafstee
graftombe
graham
gram
grammaotica
granatellus
grand
grande
grandlup
grandrieux
granges
granoate
graof
graofschap
grass
gratis
grauw
graven
gravenhage
gravenpolder
gravinne
gray
gre
great
greeks
greep
gregor
gregoriaanse
gregoriaonse
gregorius
gregory
grenada
grenadines
grens
grensdorpn
grensgebied
grenspaele
grensplekkn
grenst
grenze
grenzen
greoux
greunienge
greuniengs
greuninge
grevelienge
greveliengen
greveliengendam
grevelingen
gricourt
gridcolor
grie
grieges
griek
grieken
griekenland
grieks
griekse
grieps
gries
griete
grieze
griffel
griffermee
griffermeerde
griffermeerden
grifformee
grifformeerd
grifformeerde
grifformeerden
grijpskerke
grilly
grimaldi
grimbeert
gris
grisolles
gro
groate
groavinne
groe
groede
groei
groeide
groeie
groeien
groeiende
groeikern
groeit
groen
groene
groenendijk
groenland
groenlienks
groenten
groep
groepe
groepen
groeperingen
groepje
groesbeek
groeten
grofweg
groissiat
gronard
grond
gronden
grondgebeid
grondgebied
grondig
grondslagen
grondwet
groningen
groninger
groo
grooste
groot
groote
groothuizen
grootschalige
grootste
grootte
grootvader
gros
grosle
groslee
groste
grot
grote
grotendee
grotendeels
groter
grotere
grotste
grotten
grotter
grougis
group
gru
grugies
gruiformes
grutte
gsen
gste
gsten
gt
gte
gten
gtepunt
gtes
gu
guam
guatemala
gue
guereins
guernsey
guerrilla
guery
gues
guetta
guevara
guez
guide
guido
guignicourt
guillaume
guillermie
guinea
guinee
guise
guivry
gul
gulden
guldensporenslag
gulik
gulpen
gunnar
gunste
gunstig
gunstige
gunter
guny
gurion
gurneyi
gurneys
gustaaf
gustav
gustave
gut
gutturalis
guus
guust
guy
guyana
guyencourt
gveen
gvlakte
gwijde
gwoud
gwynedd
gymnasium
gymnogyps
gyo
h
ha
haag
haakon
haamstede
haan
haar
haarlem
haarlemmerliede
haas
haat
haavoda
habitat
habsburg
hack
had
hadde
hadden
hae
haeg
haegse
haematopodidae
haematopus
haen
haene
haer
haeren
haeriengvliet
haeriengvlietdam
haeringvliet
haerlem
haerlemmermee
haest
haet
haetjes
haeven
haevene
haeveningang
haevenkanaal
haevenstad
haf
hai
haida
haifa
haiti
haji
halapahospingui
halen
half
halfbroers
halffter
halicie
halicisch
halikud
hall
halle
halsema
halve
halverwege
hama
hamal
haman
hamburg
hame
hamegicourt
hamer
hamid
hammedata
hamming
hamont
hampshire
han
hanau
hand
hande
handel
handeliengen
handelsblad
handelspartners
handen
hane
hang
hangt
hank
hanker
hannapes
hanoi
hans
hantum
hantumhuuzen
hanze
hanzen
hao
haogte
haolen
haon
haor
haoven
happencourt
harald
haram
haramont
harbor
harcigny
hard
hardcore
harde
harder
harderwiek
hardinxveld
hardnekkig
hardrockband
hare
harem
haremwachter
haren
harenkarspel
hargicourt
haringvlietdam
harley
harlingen
harly
harmelen
harmonie
harold
harp
harpactes
harris
harry
harskamp
hart
harte
hartennes
harvey
harwich
hary
has
hassan
hasselt
hastie
hastronomie
hat
hatak
hatohobei
hattem
hattinga
hattum
haumia
haus
hausa
haute
hautecourt
hauterive
hautes
hautevesnes
hauteville
haution
hauts
hauw
have
havelte
haven
havens
havre
hawai
hawaii
hawke
hayamin
haydn
haye
haß
he
head
hearadh
heart
heaven
heavene
heb
hebaer
hebakk
hebakke
hebaseerd
hebben
hebbende
hebdo
hebeurd
hebeure
hebeurn
hebeurtenis
hebeurtenisse
hebeurtenissen
hebied
hebieden
hebiedsdee
hebohen
heboo
heboorn
hebore
heboren
hebouw
hebouwd
hebree
hebreeuws
hebreeuwse
hebrek
hebriden
hebroken
hebron
hebruken
hebrukers
hebruuk
hebruukt
hebt
hecree
hectare
hedae
hedee
hedeelte
heden
hedrag
hedwigepolder
hee
heef
heeft
heel
heele
heem
heemel
heemkundige
heemskerk
heemstede
heen
heenvliet
heer
heere
heeren
heerenhoek
heerhugowaerd
heerl
heerlen
heerlijke
heerlijkheid
heerma
heers
heerschap
heersdiek
heersende
heerser
heet
heette
heeze
heffen
hegai
hehad
hehadash
hehee
heheel
heheven
hehoor
hehucht
hei
heid
heide
height
heijermans
heikant
heilig
heilige
heiligen
heiloo
hein
heineken
heinkenszand
heinrich
heist
heit
heite
hek
hekleurd
hekleurde
hekomm
hekozen
hel
held
helden
helder
heldere
hele
helegen
helehen
helehenheed
heleid
helemaal
helemael
helen
helena
helft
helgoland
helieke
heliekende
helieknaemihe
helium
hellevoet
hellevoetsluis
hells
helmond
helmut
heln
helon
heloo
helopen
help
helpen
helsinki
helt
helukkig
heluud
hem
hemaekt
hemak
heme
hemee
hemel
hemelvaert
hemi
hemichordata
hemiddeld
hemiddelde
hemiechinus
hemikt
hemitriccus
hen
henaemd
henaemde
hendrick
hendrik
hendrikskinderen
hendrikus
hene
henegouwen
heneraal
heneraol
heneraoties
henesis
hengstdijk
henk
henny
henoeg
henoemd
henri
henricus
henry
heografie
heografische
heoo
her
herakleios
herald
herberg
herbert
herbouwd
hercegovina
herders
herdocht
herdruk
herdrukt
here
heree
heremehatje
heren
herf
hericht
herie
herienigd
herinnering
herinneringen
herinnert
herisson
herken
herkomst
herman
hermann
herodotus
heroi
herstel
hersteld
hert
hertog
hertogin
hertohinne
herut
herv
hervat
hervormd
hervormde
hervormiengen
hervorming
hervormingen
herwaarts
herzegovina
herziene
herzog
heschat
hescheien
heschiedenis
heschiedenisse
heschikt
heschreven
heslachen
heslacht
heslachten
hesloten
hespecialiseerd
hesproek
hesproken
hessen
hestreept
hestreepte
hesturve
hesturven
het
heteromyias
heteroscelus
heterotroof
hetgeen
hetrokke
hetwelk
hetzelfde
heumen
heur
heusden
heuvel
heuvelrik
heuvels
hevaer
heval
hevall
hevange
hevangene
hevangenen
hevangenis
hevangenschap
heven
heverlee
hevet
hevig
hevlekt
hevlekte
hevolg
hewest
hewiede
hewist
hewone
hewoon
hey
hezag
hezeid
hezelligeid
hezet
hezichsvermohen
hezicht
hezond
hganger
hh
hhe
hhk
hi
hibraltar
hidalgo
hie
hieere
hield
hielden
hieng
hienge
hiengen
hier
hierbie
hierdeur
hierdie
hieren
hierin
hiermee
hierna
hiernea
hieronger
hierop
hiervan
hiet
hietende
hieuw
high
highlanders
hij
hil
hilaire
hildegard
hill
hillary
hillenburg
hilversum
himalaya
himself
hin
hinacourt
hindeloo
hindeloopen
hinderlagen
hindi
hindoe
hindoes
hine
hing
hiroshima
hirson
his
hisham
histoire
historici
historicus
historie
historiek
historisch
historische
history
hit
hitler
hitlerkever
hitlers
hitlieste
hitparade
hits
hitte
hjin
hl
hlad
hletsjer
hletsjers
hliek
hln
hms
ho
hoa
hoage
hoagste
hoagte
hoagten
hoan
hoatzin
hobbema
hoch
hocquet
hod
hodement
hodsdienst
hoe
hoed
hoede
hoedekenskerke
hoedje
hoedt
hoei
hoeie
hoeien
hoeje
hoek
hoeke
hoeks
hoekse
hoeksteen
hoekstra
hoenderloo
hoeng
hoengen
hoes
hoese
hoessein
hoesseini
hoeve
hoeveelheden
hoewel
hof
hoff
hofje
hoge
hoger
hogere
hoi
hol
holanda
holding
holf
holiday
holkema
holland
hollande
hollander
hollanders
hollandia
hollands
hollandsche
hollandse
hollans
hollanse
holnon
holocaust
holten
holwerd
homblie
homblieres
home
homo
hond
honderd
honderden
hondsbos
honduras
hongaors
hongaorse
hongarije
honge
hongersnoo
hongkong
honhaors
honhaorse
honharije
honiengeters
honiengjaehers
honiengveugel
honolulu
honore
honorius
honte
hontenisse
hoo
hood
hoofd
hoofden
hoofdounderwyzer
hoofdplaat
hoofdstad
hoofdtael
hoog
hooge
hooger
hoogerheyden
hoogerland
hooghvorst
hoogland
hoogste
hoogte
hoop
hoor
hoorde
hoorn
hoort
hope
hora
horatio
horde
hore
horen
horende
horizontal
horst
hortie
hos
hosdiensen
hosdienst
hospitalet
hosternokke
hostiaz
hosvazze
hot
hotel
hotels
hotonnes
houd
houden
houdsnip
houdsnippen
houdt
houg
houry
house
housse
housset
houston
hout
houte
houten
houverneur
houwe
how
howard
hr
hraden
hraef
hraefschap
hraeven
hraft
hram
hraotis
hrauwe
hrens
hrenst
hrenzen
hriek
hrieks
hriekse
hrieps
hries
hrieskee
hrieze
hro
hroat
hroei
hroen
hroene
hroenland
hroep
hroepen
hroepjes
hroet
hrond
hrondhebied
hrondstoffen
hrondtekst
hrondtiran
hrondwet
hroniengen
hroo
hroote
hrootste
hrossen
hroste
hrote
hrotter
hrottere
hrutto
htm
html
http
https
hu
hubar
huber
hubert
hubertus
hudige
hugh
hugo
huho
huib
huibert
huidige
huijbergen
huiriat
huis
huisgez
huize
huizen
hulagu
huleu
hulp
huls
hulst
human
humanist
hummel
humphrey
hun
hunea
hunne
hunze
hur
huriel
huronmee
hussiet
hut
huudihe
huujege
huujige
huus
huusarrest
huusje
huuzen
huwelijk
huwelijken
huy
huyana
huys
huyssen
huzen
hwiede
hyacinthus
hyde
hyds
hygge
hylacola
hylomys
hype
hypocoliidae
hypocolius
i
ian
iata
ibadieten
iberisch
ibn
ibrahim
ibz
ic
icao
ice
ich
ick
icteria
id
idaho
idee
ideee
identiteit
ideologie
ido
idool
ids
ie
iea
ieder
iedere
iederee
iedereen
iederen
ieders
ield
ielden
ieleke
ieleken
ielk
ielke
ielp
iem
iemand
iemend
ien
iende
iene
ieng
ienge
iengel
iengeland
iengelen
iengels
iengelse
iengelsen
iengelsman
ienige
ienkel
ienkele
ienkelvoud
ienktvissen
ieper
ier
ieran
ierbie
ierbij
ierbove
ierboven
ierdeu
ierdeur
iere
ierin
ierland
iermee
iermie
iernae
ierneffen
ieronder
ieronger
ierop
iers
ierse
iertussen
ieruut
iervan
iervo
iervoe
ies
iesberhen
iesder
iesdere
iesderen
iese
ieses
ieshockey
iesje
ieskouwe
iesland
ieslands
ieslandse
iesoenders
iesplateau
iesplateaus
iessel
iesselmeer
iesselmonde
iesselstreek
iestied
iesveugel
iesveugels
ieszee
iet
ietewat
iets
ietwat
ieuw
ieuwe
ieuwen
iew
iezder
iezendieke
iglesias
igna
ignacio
ignatius
igo
ihn
ii
iii
ij
ijlst
ijssel
ijsselmeer
ijsselmeerpolders
ijzendijke
ik
il
ilige
ilippiene
illiat
illinois
im
image
imagesize
imdb
imitatie
immanuel
immer
immers
immigrant
immigranten
immigraotie
immigratie
immihrant
impersant
import
impune
in
ina
inauguracion
inauguratie
inbrekers
inca
incident
inclinatie
inclusief
incourt
increment
inde
indee
indelieng
inderdaad
inderdaod
indernissen
index
india
indiana
indianen
indianenopperoo
indiase
indie
indigd
indisch
indische
indischen
indo
indonesia
indonesie
indonesiers
indonesisch
indonesische
indoor
indruk
industrie
industrieterrein
ine
inedee
inee
ineens
ineenstorting
ineliefd
inenoom
ineslootn
inevoerd
inewied
inezia
infanterie
infermasie
inferno
infinitief
infinitieven
infintitief
info
informaosie
informaotica
informaotie
informatie
infraklasse
infrastamme
infrastructuur
ing
ingang
ingedee
ingedeeld
ingekomen
ingekort
ingel
ingeliefd
ingenieur
ingenome
ingenomen
ingepolderd
ingericht
ingesteld
ingestort
ingevoegd
ingevoerd
ingewijd
ingezet
ingezetenen
ingreep
ingweoons
ingweoonse
inheemse
inieens
initiatief
injoux
inkommen
inkomsen
inkomsten
inleiding
inlevere
inmiddels
inname
inne
innimond
innocentius
inornata
inornatus
inpolderen
inpolderiengen
inpolderingen
inrichtiengen
inrichting
ins
inscriptie
insect
insecten
insee
inspanningen
instaet
instantie
instellienge
institute
instituut
instructie
instrumentalis
instrumentaole
int
inte
integendeel
integraotie
intellectuelen
intens
interactieve
interessante
interieur
interlingua
interlingue
internacia
internasjonaole
international
internationale
internationaol
internationaole
interne
internet
interventie
interview
interviews
into
intocht
intrekt
intusse
intussen
inuit
inuktitut
inundaotie
inundatie
inval
invall
invallen
invaosie
invasie
inverness
investigative
investituurstried
invitation
invloed
invloeden
invloedrieke
invoering
invrijheidstelling
inw
inwendig
inweuner
inweunerantal
inweuners
inweunersantal
inweunertal
inwo
inwoners
inwonertal
inzet
inzicht
inzittenden
io
ionische
iowa
ip
ir
iraakse
iraanse
iraekse
irak
iran
iraonse
iraq
irene
irish
iron
is
isaa
isaac
isaak
isabella
isbn
isengryn
ishag
isis
isla
islam
islamiah
islamitisch
islamitische
island
islands
isle
ismail
iso
isola
isolaot
isolatie
israe
israel
israelites
issards
isserpent
ist
istanbul
iste
ister
istoricus
istorisch
istorische
istriotisch
istro
it
ita
italiaa
italiaonen
italiaons
italiaonse
italie
italo
itancourt
iucn
iv
iva
ivan
ivete
iviers
ivo
ivoo
ix
iz
izenave
izendieke
izernore
izieu
j
ja
jaap
jaar
jaarbeurs
jaargang
jaarlijks
jabotinsky
jabron
jacht
jachthaevene
jachthaven
jack
jackson
jacob
jacoba
jacobapolder
jacobi
jacobs
jacobus
jacqueline
jacques
jae
jaeg
jaegt
jaehen
jaehers
jaer
jaere
jaeren
jaerenlang
jaerige
jaerihe
jaerleks
jaerlijks
jaermart
jaertal
jaertellienge
jaertelling
jaertemperatuur
jaet
jaffa
jagen
jager
jahan
jakarta
jakob
jakobsen
jakobus
jakub
jaligny
jamaica
james
jammer
jan
janeiro
jangtsekiang
jannawari
janneke
jannewari
jannewarie
jans
janse
jansen
janspolder
jansz
jantje
januaori
januari
january
januoari
jao
jaogerke
jaone
jaop
jaor
jaoren
jaorig
jaova
jaovazee
japan
japanner
japanners
japans
japanse
japansen
jare
jaren
jarig
jarige
jaroslav
jas
jassans
jasseron
jaulgonne
jausiers
java
javatrog
javie
jawel
jaya
jayat
je
jeajn
jean
jeancourt
jeanne
jeannet
jeantes
jear
jearen
jebel
jeem
jef
jefferson
jelle
jeltsin
jemaah
jen
jennings
jenzat
jer
jered
jeremy
jeroen
jerome
jersey
jerusalem
jeruzalem
jerzy
jesse
jesu
jesus
jetske
jeugd
jeugdboeken
jeugdroman
jewanna
jewannes
jewish
jews
jezui
jezus
jezuskerke
jhr
ji
jiddisch
jie
jij
jil
jilleba
jim
jimbaran
jimmy
jin
jinja
jip
jir
jje
jl
jn
jnig
jns
jo
joa
joachim
joan
joannes
joanneskerke
joaqui
joaquim
joar
job
joden
jodendom
joe
joegoslaovie
joehoe
joeng
joenge
joengen
joenger
joengeren
joenk
joep
joewe
joh
johan
johann
johanna
johannes
john
johnny
johnson
jona
jonathan
jonc
joncourt
jones
jong
jonge
jongen
jongens
jonger
jongere
jongeren
jongers
jongste
jonk
jonkheer
joo
jood
joods
joodse
joop
joosse
joost
jordanie
jordaonie
jordi
jorge
joris
jos
jose
josef
joseph
josephus
joshua
josquin
josse
jou
jouaignes
joure
journal
journalist
journans
jouswier
joux
jouy
joyce
joyeux
jozef
jozias
jpeg
jpg
jr
jsten
jt
juan
juda
judder
judea
judenfrage
judeo
judith
juffrouw
juicht
jujurieux
jukka
julder
juldere
jules
juli
julia
juliana
julianatop
juliaona
juliaonse
julie
julien
julius
july
jumencourt
jumigny
jun
june
jung
juni
junior
juntoku
jupiter
jurchen
juridische
jurist
jurn
jurre
jurs
jurson
juryleden
jurylid
jus
jussy
just
juste
justify
justin
justiniaonus
justitie
jutland
juun
juust
juuste
juveniele
juvigny
juvincourt
jy
k
ka
kaa
kaag
kaant
kaap
kaarke
kaart
kaarten
kabeljauwse
kabine
kabinet
kabinetten
kabul
kachel
kachels
kacheltje
kadaitaelen
kadaster
kadastrale
kader
kadima
kaebelbaene
kaek
kaeken
kael
kaele
kaemer
kaemerdienaers
kaemerlid
kaemers
kaemerverkieziengen
kaemerverkiezingen
kaemerzee
kaep
kaepstad
kaerel
kaerkwaerve
kaern
kaerne
kaertbee
kaertbeeld
kaerte
kaerten
kaertje
kaes
kaesfatje
kaesmart
kagoe
kagoes
kaifeng
kaiserschlacht
kaisnes
kaketoe
kaketoes
kaland
kalender
kalf
kalief
kalifaat
kaliningrad
kalkstee
kalnin
kam
kamee
kameleon
kamer
kameroen
kammen
kammenet
kammeroen
kamp
kampen
kamperland
kampf
kampioen
kampioenschap
kampong
kampongs
kampvere
kan
kanaa
kanaal
kanael
kanaol
kanaolen
kanaolstreek
kancheli
kandidaot
kandidaoten
kandidaten
kangoo
kannada
kano
kanonneerboo
kans
kansas
kansen
kant
kante
kanten
kanton
kantons
kantoor
kaoder
kaoie
kaolf
kaop
kap
kapakapa
kapel
kapelaan
kapelle
kapellen
kapelletje
kapen
kapitaal
kapitalistisch
kapitein
kapittel
kapot
kappe
kapper
kaptein
kar
karakter
karakteristieke
karakteristiekn
karang
karekiet
karekiete
karel
karinthie
karl
karla
karol
karre
karzai
kasjoebisch
kaspische
kasse
kassel
kaste
kastee
kasteel
kastilie
kasuaris
kasuarissen
kat
katachtehen
kate
kath
kathedraal
kathedrael
kathedrale
kathedraol
kathir
kathmandu
katholicisme
katholiek
katholieke
katholieken
katowice
kats
katte
katteliek
kattelieke
kattelieken
kattendieke
kattendijke
katwiek
katwijk
kaukasische
kaukasus
kawe
kayangel
kazachstan
kazerne
kdam
ke
kea
kear
kee
keek
keel
keeper
keer
keerde
keerkriengveugels
keerpunt
keert
keertje
kees
keesje
keessie
keet
keetje
keijzer
keiser
keizer
keizerinne
keizerleke
keizerlijke
keizerriek
keizers
keizerspingui
keke
kelder
keldermans
kelders
kele
kelonie
kelonies
kelpmee
keltisch
keltische
kemal
kempees
kempen
ken
kenan
kend
kende
kenden
kene
kenia
kenienge
kenisse
kenissen
kenmerk
kenmerken
kenmerkend
kenmerkn
kenn
kenne
kennedy
kennemerland
kennemers
kennen
kennende
kenneth
kennis
kennisse
kenny
kens
kent
kentucky
kepler
ker
kere
keren
kering
kerk
kerkdurp
kerke
kerkegenoo
kerkelijk
kerkelijke
kerken
kerkeraad
kerkgangers
kerkgebouw
kerkgebouwen
kerkgenootschap
kerkhof
kerkhoven
kerkje
kerknieuws
kerkof
kerkplein
kerkrade
kerkrecht
kerktoren
kerkverband
kerkwaerve
kerkwerve
kerkwijk
kerm
kerme
kermen
kermis
kern
kerncentrale
kerncentraole
kernen
kernenergie
kernmachten
kernraketten
kerreke
kerreken
kerrekgebouwen
kerremans
kers
kersenboom
kershaw
kersplaete
kerst
kerstdag
kersten
kerstfeest
kerstmart
kes
kessel
kesteren
ketoen
ketterij
ketting
keu
keuken
keul
keulen
keuln
keunieng
keunienginne
keunienk
keuninge
keuplui
keus
keuze
kever
kevin
keyser
kezand
kezands
kg
khalid
khan
khmer
khoikhoi
khubilai
khusro
kids
kiefhoek
kiek
kieke
kieken
kiekers
kiekn
kiekt
kiekuut
kiel
kielce
kies
kiescollege
kiesmannen
kiesraad
kiest
kiev
kieze
kiezen
kiezer
kijfhoek
kijk
kijken
kik
kikkers
kil
kilemeter
kilemeters
kilimanjaro
kilo
kilogram
kilometer
kilometers
kim
kimberley
kinbandpingui
kind
kinder
kinderboeken
kinderdiek
kinderen
kinderloo
kinderloze
kinders
kindje
king
kingston
kinshasa
kioto
kip
kirche
kirhizie
kirhizisch
kiribati
kiskadie
kiste
kisten
kit
kitts
kiwi
kji
kk
kke
klaagde
klaar
klaas
klaeg
klaege
klaer
klaerkwam
klaeswael
klaeuw
klank
klanken
klankkaerte
klanklere
klant
klanten
klaor
klaos
klapbank
klappe
klappen
klarenbeek
klass
klasse
klassen
klassiek
klassieke
klauwen
klauwier
klaveren
kle
klederdracht
klee
kleef
klei
kleidion
klein
kleinder
kleindere
kleine
kleiner
kleinere
kleinste
kleinsten
kleintje
kleinzeun
kleinzeune
klemtoan
klene
kleren
klerk
kleur
kleure
kleuren
kleve
kleverlands
klevers
kleverskerke
kliengen
klienk
klienke
klienker
klienkers
klienkt
kliffen
klik
klimaet
klimaot
klimatologie
kling
klinge
klink
klinkt
klm
klo
kloet
kloetegen
kloetehe
kloetehen
kloetinge
klok
klokke
klokken
klomp
klompe
klompemuseum
klompen
kloo
klooster
kloosterzande
klopgeest
kloppe
klopt
klus
kluten
kluusberg
kluut
km
kmm
knaahdier
knapof
knapt
knecht
knechten
knechts
knesset
knien
kniepen
knikkers
knip
knipolegus
knokke
knoo
knopjes
knoppe
know
ko
koape
koc
koch
kocht
kodde
koeala
koedoo
koeien
koeischorre
koejen
koejepitten
koejoahe
koek
koeke
koeken
koekje
koekjes
koekkoek
koekoek
koele
koen
koenraad
koenraod
koerdisch
koers
koese
koesjitische
koet
koeto
koetoektoe
koewacht
koeweit
koffie
koffiekoker
kofje
kogels
koggen
kohl
kok
koken
kokesnoten
kokkemee
kokmee
kole
koleboer
kolekit
kolen
kolenmiene
kolhanze
kolhanzen
kolibries
kolle
kollen
kollumerland
kolonel
koloniaol
koloniaole
kolonie
kolonies
kolonisten
kom
kombord
komde
komen
komkommers
komm
komme
kommen
kommend
kommende
kommene
kommetje
kommn
komn
komo
kompas
kompassie
komst
komt
komvurmig
komza
kon
konde
konden
kondigt
konegin
koneginne
kongo
konho
konieng
konienge
koniengin
konienginne
koniengspingui
koniengspoorte
koniengstiran
konienk
konienklijk
konienklijke
konienkriek
konihinne
koning
koningen
koningin
koninginnedag
koningskroon
koninkleke
koninklijk
koninklijke
koninkriek
koninkrijk
koninkrijksrelaosies
konn
konne
konnen
konrad
konstanz
kont
konte
koo
kooks
koole
koop
kooplieden
koor
koos
kootwiek
kootwiekerbroek
kop
kopeken
kopen
kopenhagen
koper
kopere
koperen
kopie
kopmels
koppel
koppelienge
koppig
kopr
koptisch
koraa
koraelriffen
koran
korc
kore
korea
koreaans
koreaonse
koren
korendiek
korenmeule
korenmolen
koror
korps
kort
kortbie
korte
kortegolf
korteknie
korten
korter
kortgene
kortjeen
kortriek
kortrijk
kortste
kortweg
kos
kosmos
kosmossen
kosovo
kossemisse
kost
koste
kosten
kostende
koster
kostte
kot
kotje
kotter
kotters
koud
koudbloedihe
koude
koudekerke
koudste
koukerke
kourou
kouse
kousen
kouste
kouwe
kouwere
kouwerecord
kovac
kowice
koz
kozen
kr
kra
krabb
krabbendieke
krabbendijke
kracht
krachten
krachtige
kraege
kraekbee
kraene
kraenveugelachtigen
kraenveugels
kraj
krakau
krako
krammer
kranse
krante
kranten
krantenarchief
krantenbankzeeland
krasnodar
krayem
kre
kree
kreeg
kreege
kreeh
kreehe
kreek
kreeke
kreekrikken
krege
kregen
krehen
krek
kreke
kremlin
kreta
krewinkel
kribbe
krieg
kriege
kriegen
krieger
kriegt
krieh
kriehen
kriet
krijgen
krijgt
krijn
krill
krim
krimpenerwaerd
kring
kris
kristal
kristallnacht
kristiansand
kritiek
kro
kroaotie
kroatie
kroatisch
kroegmix
krokedill
krokodill
krom
kromme
kronieken
kroo
kroon
kroonprins
kruiningen
kruis
kruisem
kruisigieng
krujenier
krujenierswaoren
krujenierswienkeltje
krune
krunege
krunehe
krung
krunige
krunihe
krupe
kruper
krupers
krusienge
kruupen
kruus
kruusing
kruusridder
kruust
kruustoch
kruustocht
kruusvaerders
kruut
krygn
krygt
krzeszowice
krzyz
ks
kse
kt
kte
kten
kton
ku
kuala
kubisme
kudde
kuip
kuiper
kuipers
kujavie
kujo
kuke
kukens
kun
kunn
kunne
kunnen
kunnn
kunsmaetihe
kunst
kunsten
kunstenaer
kunstenaers
kunstschilder
kunsttaelen
kunstwe
kunstwerk
kunt
kupe
kura
kurhaus
kursk
kursplaete
kurt
kurtjeen
kusse
kussen
kust
kuste
kusten
kustlien
kustlijn
kustwacht
kut
kuta
kuttingen
kuufpingui
kuuftinamoe
kuuroord
kuve
kuyper
kvp
kwaa
kwaad
kwaadwillenden
kwadendamme
kwaed
kwaeie
kwaeme
kwaemen
kwaliteit
kwall
kwam
kwamen
kwamm
kwamme
kwammen
kwamt
kwaom
kwaomen
kwart
kwartier
kwastvinnigen
kwe
kwedamme
kwee
kwelwaeter
kwestie
kwiem
kwiet
kwijt
kwikstaert
kwikstaerttiran
l
la
laachraoui
laan
laat
laatst
laatste
labalme
laboratorium
labour
lacerda
lacesset
lach
lache
lacht
lacuna
ladder
laden
ladinisch
ladino
lady
lae
laeding
laeg
laege
laegen
laeger
laegste
laehe
laeher
laejen
laejn
laeken
laet
laete
laeten
laeter
laetere
laetste
lafe
lafeline
laffaux
lag
lage
lagen
lagge
lagnieu
laguna
lagune
lahore
laigny
lais
laiz
lake
lalecq
lalizolle
lalleyriat
lam
lama
lamaids
lamaketta
lambercy
lambert
lambrechtsen
lambregtse
lambruisse
lammen
lammeren
lampen
lan
lanbouw
lancaster
lanchy
lancrans
land
landbouw
landbouwgrond
landbrugge
landde
lande
landelijk
landelijke
landelik
landelike
landen
landia
landienge
landiengsmonument
landiengsvaertuugen
landies
landifay
landing
landingsmonument
landje
landkant
landklimaot
landleger
landme
landoppervlak
landoppervlakte
landouzy
landplant
landricourt
lands
landschap
landschappen
landse
landsmeer
landstaele
landstreek
landzigt
lang
langdurige
lange
langediek
langen
langendam
langer
langere
langevelde
langk
langs
langsen
langst
langste
langstraet
langstraete
language
langue
languedoc
languedocien
langues
langweegje
langy
langzaam
langzaem
langzaeman
langzaemerand
laniarius
laniscourt
lank
lanka
lanks
lanksaeman
lans
lanschap
lanse
lantenay
laon
laonnois
laos
laot
laote
laoten
laoter
laotere
lapalisse
lapeyrouse
lapid
lapje
lapland
lappe
lappen
lappion
lapponica
laprugne
larche
lard
lardiers
larequille
largny
laridae
larry
larus
larven
las
lasha
lasso
last
laste
lastig
lat
late
laten
later
latere
latien
latiens
latiense
latijn
latijnse
latilly
latin
launoy
laura
laurens
laurent
laut
lauwers
lauwersmeer
lauwersoo
lauwerszee
lauze
lauzet
lava
laval
lavaqueresse
lavault
laversine
lavigne
lavoine
lavoir
lavours
lawe
lawrence
layer
lazarus
lc
ld
lde
lden
ldienge
ldouwer
le
league
leater
leave
leaz
leboel
lech
lectuur
ledeboeriaense
ledeboerianen
ledematen
leden
ledenantal
lee
leed
leedn
leee
leef
leefbaar
leefde
leefhebied
leeft
leeftied
leeftijd
leeg
leege
leek
leen
leende
leendert
leenwoo
leer
leeraarambt
leerdam
leerling
leerlingen
leert
leeuw
leeuwarden
leeuwen
leev
lefe
left
leg
legans
legde
legden
lege
legende
leger
legers
legge
leggen
leggende
leggene
legt
leh
lehaucourt
lehende
leher
lehers
lei
leid
leidde
leide
leiden
leidende
leider
leiders
leiderschap
leidieng
leidienge
leiding
leidt
leie
leien
leier
leif
leijding
leijen
leipzig
leit
lek
leken
lekker
lekkere
lekkerland
lelex
leliaards
lelle
lely
lelystad
lemaele
leme
lemille
lemmer
lempire
len
lena
lenax
lengrain
lengst
lengte
lenin
leningrad
lensen
lent
lente
leny
leo
leon
leonardo
leone
leonnees
leopardin
leopold
leopoldina
leptopogon
lere
leren
leroy
lerven
lerzy
les
leschelle
lescheroux
lesdins
lesges
lesotho
lesquielles
lessen
lessonia
lest
leste
lesten
let
letelon
letland
lets
letter
lettergreep
lettergreepdraegende
letterlijk
letters
leucophrys
leucopsis
leugenaer
leuilly
leuk
leups
leur
leurden
leurders
leure
leuren
leursters
leury
leusden
leuven
leuze
levant
leve
levels
leven
levend
levende
levens
levensstijl
levensverwachtieng
levensverwachting
lever
leverbaer
leverde
levergies
levermossen
levern
levi
levis
lewe
lewedurp
lewis
lex
lexilogos
leyment
leyssard
lez
leze
lezen
lezers
lf
lgemee
lho
lhopital
lhuis
lhuys
li
lia
liao
libanon
liberaol
liberaole
liberia
libertad
liberte
libie
libor
library
libreville
lichaem
lichbruun
licht
lichte
lichtenvoorde
lichter
lichtschip
licy
lid
lidstaeten
lidwoo
lidwoord
lidwoorden
lie
liebaards
liechenstein
liechtenstein
lied
lieden
liedje
liedjes
liedjesschriever
liee
lief
liefde
liefs
liefst
liege
liek
lieke
lieken
liekent
liekt
liekwaede
liemers
lien
liende
liene
lienen
lieng
lienge
liengen
liengte
lienk
lienkeroever
lienklieste
lienks
liep
liepe
liepen
lieren
liernolles
lierval
lies
liesje
liesse
liest
lieste
liesttrekker
liet
liete
lieten
lieve
lieven
liever
liez
life
lig
liga
ligg
ligge
liggen
liggende
liggene
liggieng
liggienge
liggiengk
ligging
light
lightgrey
lignerolles
ligneux
lignieux
ligt
lihh
lihhe
lihhen
lihhieng
lihhienge
lihhing
lihurisch
lijf
lijk
lijn
lijne
lijnen
lijntje
lijst
lik
lilian
lille
lilleke
lillijk
lillo
lima
limans
limburg
limburgers
limburgs
limburgse
lime
limineerd
limnodromus
limoise
limosa
limousiens
lin
lincoln
lincolns
linden
line
linedata
linegrey
ling
lingewaerd
linggo
lingua
linhui
linie
linies
link
linkerplaquette
links
linn
linnaeus
linnaeusklokje
lintang
lintbebouwing
linters
linux
lioessens
lions
lippe
lisa
lisch
lische
lislet
lissabon
lisse
list
lit
literaire
literature
literatuur
litouw
litouwen
litouws
litouwse
litovsk
litowsk
little
liturgie
live
liverpool
liveshow
liveshows
livre
lix
liz
lizerolles
lizy
ljubljana
lkee
lkerk
ll
llanfairpwll
lle
llek
llen
ller
lloyd
lloydszie
llywelyn
ln
lo
loape
loapt
loater
lobith
lobo
locaosie
locaotie
locatie
lochieu
locht
lochtbrugge
lochtfoto
loddes
lode
lodewiek
lodewijk
lodijcke
lodijke
loe
loenen
loeo
loesdrecht
lof
logny
logo
loi
loire
loizy
loja
lokaal
lokale
lokaole
lokt
lol
lolo
lombardisch
lommel
lompnas
lompne
lompnes
lompnieu
lon
londen
london
long
longen
longpont
longueval
longyearbyen
lons
loo
loods
looff
looftiran
loon
loop
loopt
lop
lope
lopen
lopez
lophophorata
lophotriccus
lophotrochozoa
lopikerwaerd
lopt
lor
lord
lorenzo
loriges
los
loss
losse
losser
losstaende
lost
lot
lothaoriengen
lothaoriengs
lothaorius
lotharingen
lou
loua
louatre
louchy
louis
louise
louisiana
loup
loupeigne
louroux
louvie
louvre
louw
louwerse
love
lowland
loy
loyes
loyettes
lp
lpf
lpoo
lriffen
ls
lschoffelsnaevel
lscholver
lscholvers
lse
lseweg
lstaet
lstaeten
lt
lte
ltelijk
ltiran
ltjes
ltodietiran
lu
lubbers
lublin
lubusz
luc
lucas
lucepedia
lucht
luchtaeven
luchtaevens
luchtbombardement
luchte
luchten
luchtfoto
luchthaven
luchtmacht
luchtvaert
luchvochtigeid
lucia
luciano
lucius
lucy
ludovicus
ludwig
lugny
lui
luid
luiden
luigi
luijben
luik
luis
luitenant
luk
lukkende
lukn
lukte
lul
lumpur
luna
luneau
lunteren
lurcy
lurs
lusigny
lusitania
luteijn
lutgardis
luthe
luther
lutheranisme
luthers
lutherse
luthezieu
luuk
luuken
luukse
luusjfer
luuster
luusterden
luustere
luusteren
luustert
luxe
luxemburg
luxemburgs
luxor
luzoir
lwoord
lwoorden
ly
lyceum
lydnevi
lyndon
lyon
lyonne
lzanger
m
ma
maa
maagdeneilanden
maak
maakt
maakte
maakten
maalbeek
maan
maand
maanden
maans
maansen
maar
maart
maarten
maartensdijk
maas
maaseik
maaskant
maast
maastricht
maasun
maatschappij
mac
macare
macdonald
macedonie
macedonisch
machecourt
machine
machinist
macht
machteld
machtenscheiding
machtig
machtige
machtigste
machu
mackay
maclean
macleod
macmillan
macogny
macquigny
macron
maculatus
madagaskar
madahaskar
made
madeira
madison
madocke
madonna
madrid
mae
maegd
maegdeneilanden
maegere
maek
maeke
maeken
maekende
maekene
maekn
maekt
maekte
maekten
mael
maeleg
maelen
maelihe
maelstede
maeltied
maen
maend
maendag
maendags
maenden
maene
maenen
maensen
maer
maert
maerte
maerten
maertenskerke
maes
maesgouw
maeshorst
maeslantkering
maesleher
maessen
maessluus
maestricht
maestunnel
maete
maetschap
maetschappij
maezelen
maezen
mag
magdalena
magdalenakerke
magellanicus
magere
magge
magistraat
magna
magnet
magnetisch
magnetische
magnieu
magnificats
magnirostris
magnus
magny
mahadilok
mahal
mahalalel
mahanakhon
mahasathan
mahinthara
mahmud
mai
maiduguri
mail
maillat
maillet
maime
main
maine
maire
maison
maisons
maissemy
maizy
majastres
majesteit
majoor
major
makaore
make
maken
makin
makkelek
makkelijk
makkelijker
makkeluk
makkenze
makoar
malaconotus
malafretaz
malagasi
malawi
malayalam
malaysia
malcolm
maldegem
male
maleis
maleise
maleisie
mali
malicorne
malijai
malik
mallan
mallefougasse
mallemoisson
malmaison
malme
malmedy
malmo
malta
maltees
maltezen
maltezer
malvino
malzy
mammalia
man
manchester
mand
mandaat
mandala
mandaot
mande
mandela
mandere
mandoers
mandsjen
mane
manen
manfred
manhroo
manicamp
manier
maniere
mann
manne
manneke
manneken
mannelijk
mannelijke
mannelike
mannen
mannoia
manoel
manosque
mans
manschappen
manscollege
manserve
mansur
mantel
mantelmee
mantenay
mantsjoekwo
manucodia
manuel
manx
manziat
mao
maoiers
maok
maoke
maoken
maokt
maokte
maokten
maoktn
maor
maoriekerke
maort
maos
maotschappij
map
mapai
mar
maracaibo
marathon
marboz
marc
marcel
marcellus
marcenat
marchais
marchamp
marche
marcheerden
marcillat
marco
marcoux
marcus
marcy
mard
marechaussees
marest
mareuil
marfontaine
margaret
margaretha
margival
margraten
margriet
marharetha
mari
maria
mariae
mariam
marianentrog
marianne
marie
mariekerke
marignieu
marigny
marijnen
marijnissen
marine
marino
marinus
mario
mariol
maritiem
maritieme
maritime
maritimes
marius
marizy
mark
marken
market
markgraaf
markies
markiezaet
markiezaot
markiezaotskaai
markiezaotskaoi
markiezaotsmeer
marknesse
markt
marktplein
markus
marle
marley
marlieux
marly
marmoratus
marne
marokko
marot
mars
marseille
marsh
marshalleilan
marsonnas
mart
marta
marteconomie
martel
marten
marti
martien
martignat
martigny
martijn
martin
martini
martinien
martinus
martplein
marx
mary
maryland
maserati
masi
maskerzanger
massa
massachusetts
massamoord
massaolder
massaole
masse
massendies
massief
massieux
massignieu
masten
master
masters
matacena
matafelon
matauenga
mate
materialen
materiaol
mathilde
matroos
matten
matteo
matter
mattheu
mattheus
matthias
matty
matuku
mau
mauregny
mauri
maurice
mauritanie
maurits
maurizio
mausoleum
max
maximale
maximaol
maxime
maximiliaan
maximum
may
maya
mayet
mayot
mayotte
mazerier
mazirat
mazovie
mazurie
mbasogo
mbini
mboelo
mboo
mckinley
mcleod
md
mde
mden
me
mea
meailles
meakt
meansen
mear
mearte
meaulne
mechanisatie
mechelen
mecheln
mecky
mecocerculus
med
medailles
medal
medalje
medaljes
mede
medegedeeld
medeklienker
medeklienkers
medelli
medemblik
medestemming
medewerking
media
medie
medina
meditaties
mediterraon
mee
meedoe
meedoee
meegedae
meegedoan
meegestreden
meej
meeklienkers
meekrap
meel
meen
meer
meerder
meerdere
meerdereid
meerminne
meerpaele
meerssen
meertens
meervoud
mees
meest
meesta
meestal
meeste
meester
meesters
meestoof
meet
meeter
meetjesland
meeuwis
mega
megachiroptera
megalibgwilia
mehmet
mei
meid
meiden
meidoornloop
meie
meierijstad
meijer
meillard
meillers
meillonnas
mein
meindert
meinsen
meir
meisje
meisjes
mej
mekaar
mekaere
mekander
mekaor
mekaore
mekare
mekaren
mekka
mekoare
melan
melanesie
melanocephalus
melanocharis
melanocharitidae
melanodryas
melanopareia
melbourne
melchior
meldde
melden
meldieng
melding
melessant
melilla
melis
melissa
meljoen
melk
melodie
melodiee
meloni
melve
memorial
memory
memphis
men
menciat
mende
mendes
mene
menee
meneer
meneerse
menees
menheerse
menier
meniere
menig
menister
menne
mennessis
menneville
mennevret
menno
menoux
mens
menschen
menschlievend
mense
menselijk
mensen
mensenrechten
ment
menten
menthon
menu
menukan
menuten
menuut
meolans
mepillat
meppel
mer
mercedes
mercin
mercurius
mercy
meren
merendeel
mergelland
meri
meria
meriene
merignat
merine
merjaen
merk
merkbaer
merke
merkel
merken
merkte
merkten
merlieux
merops
merrege
merren
mertens
merulaxis
merval
mes
mesangy
mesbrecourt
meschien
mesechinus
mesines
mesnil
mesopotamia
mesozoa
mesples
messele
messimy
messina
mestkalf
mestricht
met
metallisch
meteoriet
meteorologische
meter
meters
methaen
metrostation
metsers
metten
metz
meuge
meugelijk
meugelijkeid
meugelik
meuglek
meuglijk
meugt
meuheluk
meulan
meule
meulelan
meulen
meulenaer
meulens
meuleromp
meulewaerd
meur
meurival
mexicaonse
mexico
meximieux
meyer
meyriat
meyronnes
meyzel
mezel
mezeriat
meziek
mezieres
mezy
mgebied
mh
mhebied
mi
mia
miami
miang
micha
michae
michael
michail
michaille
michel
michelangelo
michele
micheli
michelle
michiel
michigan
michna
microchiroptera
microeca
micronesia
micronesie
microscopisch
mid
midd
middag
middags
middeg
middegs
middel
middelaer
middelandse
middelbourg
middelburg
middelburgers
middelburgsche
middelburgse
middelee
middeleeuwen
middeleeuwse
middelgeslote
middelgroo
middelhroo
middellandse
middellanse
middelnederlands
middelopen
middels
middelste
midden
middenschouwen
middenstand
middle
middn
mie
mien
mienbouw
miene
mienen
mieng
miengen
mienstreek
mienversperring
mier
mierlo
mietje
migranten
miguel
mij
mijn
mijnen
mijningenieur
mijoux
mik
mikheil
mikt
mikte
mikten
milaan
milan
mile
milhat
milieu
milieubewegienge
milieuvervuulieng
militair
militaire
militairen
militairn
militante
miljard
miljoen
miljoenen
millennium
miller
millieu
millimeter
milon
milos
milton
min
mina
minaj
minamoto
minder
mindere
mindereid
mindereidstaelen
mines
ming
mingen
minh
mini
miniatuur
minimum
minister
ministerie
ministers
minke
minnen
minnesota
minor
mins
minse
minsen
minst
minste
minstens
mint
minuten
minuutn
mionectes
mionnay
mir
mirabeau
miraflores
mirafloressluus
miranda
mirandees
miravail
miribel
mis
mischien
misdaed
misdaeden
misdaedjournalist
misdrief
misdrijf
mise
miserieux
misje
misluk
mislukt
mislukte
mison
miss
missa
misschien
misse
missen
missie
mississippi
missouri
missy
mist
mistal
miste
mit
mitrephanes
mitten
mix
mixe
mji
mklever
mkorkotters
mkorvisserie
mloo
mm
mo
moa
moab
moaken
moaker
moar
moat
mobilisaotie
mobiliseert
moch
mocht
mochte
mochten
modder
moddergat
mode
model
modern
moderne
modernste
modestus
modus
moe
moed
moeder
moedere
moederland
moeders
moedertael
moedertaele
moedig
moee
moefti
moeilijk
moeilijke
moeilijkheden
moeilik
moeite
moej
moelijk
moelijker
moelk
moens
moer
moeras
moerassen
moerassihe
moerbeke
moerdiek
moerdijk
moermond
moernerieng
moerstaele
moes
moeskroen
moest
moeste
moesten
moestn
moet
moete
moeten
moewder
moffen
moffenschans
mog
moge
mogelijk
mogelijke
mogend
mogneneins
mogte
mohamed
mohammed
mohhe
mohoua
moignans
mol
molain
molen
molinchart
molinet
mollen
molles
mollon
moment
momenteel
momenten
mon
mona
monaco
monampteuil
monarch
monarchie
monceau
mond
monden
monding
mondrago
mondrepuis
mone
monehaskisch
monestier
monetay
monholie
monhoo
monial
monjita
monnes
monnik
monniken
monnikendam
monotremata
mons
monster
mont
montagnac
montagnat
montagne
montagnieu
montaigu
montaigue
montaiguet
montana
montanges
montbavin
montbe
montberault
montbeugny
montbrehain
montbrun
montceaux
montcet
montcha
montchalons
montclar
montcombroux
montcornet
monte
monteignet
montellier
montenegro
montenehro
montescourt
montesquieu
montet
monteurs
montevideo
montfand
montfaucon
montferland
montfoort
montfort
montfuron
montgobert
montgriffon
montgru
monthenault
monthiers
monthieux
monthodon
monthurel
montigny
montilly
montisch
montjustin
montlaux
montlevon
montlin
montloue
montluc
montluel
montmarault
montmartre
montmerle
montmirail
montoldre
montord
montpezat
montracol
montre
montreal
montreuil
montrevel
montsalier
montsoreau
montvicq
monumen
monument
monumentaal
monumentaele
monumente
monumenten
monumentenstad
monzo
moo
moode
mooi
mooie
mooier
mooiste
mook
moord
moordanslag
moorden
moordenaers
moore
moortiran
mor
morales
moraovie
moravie
morcourt
mordekai
more
moreel
moreno
morfologie
morfolohie
morgan
morgen
morgny
mori
moriaanshoofd
moriez
morning
morra
morris
morrison
morsain
mortefontaine
mortiers
mos
moskee
moskou
moslim
moslimbroederschap
moslimextremisten
moslims
mosoel
mosque
mosse
mossel
mossele
mossels
mossen
most
moste
mosten
mostly
mot
motet
motetten
moto
motor
motoren
motte
motten
motto
motu
moulins
mount
mountain
mountains
mouscron
moussy
moustiers
movie
moy
mozambique
mozaraobisch
mozart
mprp
mr
mraedschap
ms
mse
mt
mtram
mtv
mu
mubarak
muette
muhammad
muhhen
muiden
muiters
mula
mulatre
mulder
mulisch
muller
mun
mundi
munitie
munitietrein
munster
munt
muntee
munten
muntschouwburg
mural
muralt
murat
mure
muren
muret
murina
murray
murs
muscisaxicola
muscourt
muse
musea
museum
music
musici
musicus
musse
mussolini
mustafa
mustang
muur
muusveuhels
muuzen
muzeeum
muziek
muzikale
muzikant
muzikaol
muzikaole
mvaertmieje
my
myanmar
myiarchus
myiobius
myioborus
myiodynastes
myiopagis
myiophobus
myiornis
myiotheretes
myiozetetes
mythe
mythen
mytholohie
mæ
mæk
n
na
naam
naame
naar
naast
nabie
nabij
naburige
nach
nachs
nacht
nachtelijke
nachts
nachtzwaolmachtegen
nadat
nades
nadia
nae
naebie
naeburige
naeda
naedan
naedat
naedien
naegenoeg
naegeslacht
naejaer
naekommeliengen
naelde
naem
naeme
naemelek
naemelijk
naemelik
naemeluk
naemen
naemens
naemloze
naemvallen
naemwoord
naemwoorden
naer
naerden
naerebout
naers
naeslag
naeslagje
naesleep
naest
naetoe
naezaeten
naftali
nagasaki
nagedachtenis
nai
nair
najim
nakamura
nakomelingen
nam
name
namelijk
namen
namibie
namiddag
namme
nampcelles
nampteuil
namur
nan
nancy
nandoes
nang
nanteuil
nantua
nao
naodat
naolscholver
naom
naome
naomen
naor
naost
naoste
naoties
naotuur
naotuurl
nap
napels
napoleon
narhis
narodowy
nasa
nasaol
nashville
nasjonale
nasjonaol
nasjonaole
nassau
nasser
nassigny
nat
natalia
nathan
natie
naties
nation
nationaal
national
nationale
nationalist
nationaliteit
nationaol
nationaole
nations
nattages
natte
natura
nature
natuur
natuurgebied
natuurhebied
natuurkunde
natuurkundige
natuurlijk
natuurlijke
natuurlik
natuurlike
natuurluk
natuurmonumenten
nauroy
nauru
nauw
nauwe
nauwelijks
nauwkeurige
navajo
naval
naves
navidad
navo
naz
nazareth
nazi
nbanke
nbe
nberrehe
nburg
nbv
nchen
ncipe
ncis
nd
nde
ndebele
ndegde
ndelijk
nden
nder
ndewehe
ndez
ndieke
ndige
ndom
ndracht
ne
nea
neabie
neam
near
nebest
nebraska
nectar
ned
neder
nederasselt
nederduuts
nederduutse
nederfrankisch
nederfrankische
nederhemert
nederig
nederlaeg
nederlan
nederland
nederlanden
nederlander
nederlanders
nederlands
nederlandsch
nederlandsche
nederlandse
nederlans
nederlanse
nederlaog
nedersaksen
nedersaksisch
nedersaksische
nederzettiengen
nederzetting
nederzettingen
nee
need
neef
neem
neemt
neer
neerbos
neergeschoten
neergezet
neffen
neffens
negatieve
nege
negen
negende
negentien
negentiende
negentienden
negentig
neger
negienge
nehalennia
nehels
nehen
neid
neil
neill
neivel
nek
nel
nelissen
nelson
nem
neme
nemen
nemo
nen
neo
neodrepanis
neognathae
neos
neositta
nepal
nepalees
neptunus
nergens
nergenst
nergest
nergesten
neris
ners
nes
nesles
nessen
nessens
nest
nestel
nesteln
net
netanyahu
netelbee
neter
neters
netherlands
netjes
netnummer
nette
netuur
netuurgebied
netuurlek
netuurlijk
netuurluk
netwerk
network
neue
neuf
neufcha
neufchatel
neuflieux
neuilly
neur
neure
neuroloog
neus
neuschwanstein
neutraole
neuve
neuville
neuvillette
neuvre
neuvy
neuzen
nevada
neve
nevers
nevis
new
newman
news
newton
next
neyrolles
neyron
nez
nfuut
ng
ngekomen
nguema
nh
nha
nhat
nhebied
nheid
nhk
nhroep
nhroepen
ni
nia
niawier
nibles
nic
nicaragua
niccolo
nice
nicea
nick
nicki
nicky
nico
nicola
nicolaas
nicolaes
nicolaos
nicolas
nicolaus
nie
niedorp
niejt
niellon
niels
nielsen
niemand
nieng
nienge
niet
niets
niettegenstaende
nietzsche
nieuw
nieuwbouw
nieuwbouwwiek
nieuwe
nieuwedurp
nieuwegein
nieuweland
nieuwen
nieuwendiek
nieuwenhoorn
nieuwerkaarke
nieuwerkerk
nieuwerkerke
nieuwland
nieuwlande
nieuwpoo
nieuws
nieuwsbode
nieuwste
nieuwvliet
nievroz
nig
nigd
nigde
nige
nigen
niger
nigeria
night
nigieng
nigiengen
niging
nigingsgebouw
nigne
nigra
nigricans
nigsen
nigste
nigsuuting
nih
nihe
nihen
niher
niheria
nihieng
nii
nijefurd
nijl
nijmeegse
nijmegen
nijmehen
nijntje
nijsse
nik
nikke
niklaas
niklaos
nikolai
nikolaj
niks
nilo
nilotische
nimh
nina
ning
ninginne
ningsdochter
nintendo
nio
niost
niozelles
nir
nisse
nissen
nissewaerd
nissiat
nist
nistpupe
nit
niue
niulakita
niutao
niveau
niveaus
nivelles
nivollet
nixon
nizam
nizerolles
nizier
nizy
nk
nklank
nklee
nknecht
nkom
nkomsen
nkomst
nkomsten
nl
nland
nlijk
nloo
nlverkiezingen
nmaek
nmee
nmoeder
nn
nne
no
noa
noahen
noame
noar
nobel
nobelpries
nobody
noch
nod
nodig
nodige
noe
noek
noem
noemde
noemden
noeme
noemen
noemende
noemer
noemi
noemn
noemt
nog
noga
nogal
nogent
nogentel
nogmaels
noh
noircourt
nol
nommer
non
nonces
nonkel
noo
nooijer
nooit
noor
noord
noorddiek
noordeinde
noordelek
noordeleke
noordelekste
noordelijk
noordelijke
noordelik
noordeloos
noorden
noorder
noordfries
noordgouwe
noordhinder
noordin
noordkante
noordoo
noordpool
noordwaelle
noordwelle
noordwes
noordwessen
noordwest
noordwesten
noordwester
noordzee
noorman
noormannen
noorn
noors
noorse
noorwegen
noovember
noppharat
nor
norante
norbert
noren
normaal
norman
normandie
normandisch
normaol
noroy
norte
north
northern
norway
nos
not
nota
notaoris
noten
notense
nothocercus
nothoprocta
nothura
notoryctemorphia
nototheria
notre
nou
noureuil
nouvelle
nouvion
nouvron
nova
novaehollandiae
november
novi
now
noyales
noyant
noyers
noyon
nplekken
nr
nrc
ns
nsb
nschap
nschapp
nschappelijk
nschappelijke
nschappen
nse
nsen
nstad
nster
nstrandloo
nt
ntaele
nte
ntearchief
ntegreerd
ntehuis
ntehuus
ntekaerte
ntelijke
ntelike
nten
nteraed
nteraedsverkieziengen
nteraod
ntes
ntewaepen
ntewet
ntgen
nther
ntieds
ntiran
ntje
ntroduceerd
ntuus
ntwintig
nu
nuestra
nueva
nui
nul
numa
numansdurp
numenius
nummer
nummers
nundeerd
nunder
nunspeet
nurieux
nut
nuttig
nuwe
nv
nvissen
nvloed
nvoudihen
nw
nws
ny
nyasaland
nyi
nynorsk
nyt
nz
nze
nzee
nzen
nzolder
næ
o
oa
oade
oaden
oage
oagen
oahe
oak
oal
oale
oalen
oales
oalle
oalledrie
oalles
oalme
oaltied
oaltijd
oan
oans
oanze
oar
oarden
oardt
oare
oaren
oat
ob
obama
obdurodon
object
oblast
obliquiteit
obs
observations
observatoire
oc
occidentalis
occitanie
occitaons
oceaa
oceaan
oceaen
oceanie
oceaon
oceaonen
och
ochend
ochens
ochteraf
ochthoeca
octaaf
october
od
odde
ode
odense
oder
odo
odoorn
odstad
oe
oea
oed
oedenrode
oedjeskerke
oedt
oef
oefden
oefenaer
oefiesder
oefte
oehanda
oek
oekje
oekrai
oeks
oekse
oen
oender
oenderkoete
oenderkoeten
oenders
oeneer
oenger
oengevee
oengeveer
oer
oerbos
oere
oergermaonse
oerkaekveugels
oermondegen
oerwoud
oest
oesterdam
oesteriek
oesteriekse
oesterriek
oesters
oet
oeuilly
oeuvre
oeve
oevee
oeveel
oeveeleid
oevele
oeven
oevers
oewe
oewel
oezbekistan
of
ofebrook
ofeleid
ofeschaft
ofewezen
ofezet
off
offensief
offer
offerkiste
offers
office
officie
officiee
officieel
officieele
officiele
officier
officieren
offisjee
offisjeel
offisjele
ofgebroke
ofgedamt
ofgelege
ofgescheiden
ofgescheie
ofgesloten
ofi
oficial
ofkomst
ofkomstig
oflevering
ofleveringen
ofloap
ofronding
ofscheid
ofscheiding
ofsluutdiek
ofsluuting
ofsplitsing
ofstand
ofstee
ofsto
ofstong
oft
ofte
oftewel
ofwe
ofwel
og
oge
ogen
oggin
ogner
ognes
ogooue
ohe
ohio
ohis
ohrid
oi
oigny
ois
oise
oisy
ok
oklahoma
oktober
ol
olaf
olans
old
oldambt
oldebroek
oldest
ole
olie
oliebronnen
olifant
olijfkleur
olivaceus
olive
olivia
olivier
olland
ollander
ollanders
ollands
ollandse
ollandsen
ollans
ollanse
olle
olles
ollezy
olmenof
olmert
olomouc
olympia
olympiesche
olympisch
olympische
om
oma
omaan
oman
omar
omda
omdan
omdat
ome
omergues
omgebrocht
omgekeerde
omgekomen
omgerekend
omgeve
omgevieng
omgevienge
omgeving
omheven
omhevieng
omheving
omhoo
omhoog
omissy
omkomme
omkwamme
omliggende
omlihhende
omlo
omloop
omme
ommekomme
ommers
ommuurde
omo
omoe
omoo
omotische
omriengd
omriengende
omringd
omringend
omroep
omroepzeeland
omschreve
omschrieft
omschrievieng
omschrieving
omslagdoek
omslit
omsloten
omstanders
omstandigheden
omstree
omstreee
omstreeks
omt
omtrek
omtrent
omvang
omvangrieke
omvat
omvatte
omweg
omwenteling
on
onaf
onafankelijk
onafankelijke
onafankelijkeid
onafankelijkeidspartij
onafhankelek
onafhankelijk
onafhankelijke
onafhankelijkheid
onafhankeluk
onbekend
onbekende
onbepaeld
onbepaelde
onbeslist
onbetwist
onbevreesd
onbeweund
onbeweunde
onbruuk
oncieu
oncostoma
oncypedie
ond
ondanks
ondekkiengsreiziher
ondekt
onden
onder
onderan
onderd
onderdaenen
onderdak
onderde
onderdee
onderdeel
onderden
onderdijk
onderdste
onderdvuuftig
onderfemielje
ondergang
ondergebrocht
onderhorigheden
onderhouden
onderkant
onderkennen
onderklasse
onderlieng
onderneming
onderorde
onderorden
onderouwen
onderriek
onderschei
onderscheid
onderscheidde
onderscheiden
onderscheidene
onderscheidt
onderscheien
ondersoo
onderstamme
onderste
onderstebooven
ondertussen
onderverdee
onderwaereld
onderweg
onderwerp
onderwerpen
onderwies
onderwiezer
onderwijs
onderworpen
onderzocht
onderzoek
onderzoeken
onderzoekers
ondiep
ondiepe
ondimba
ondsrugge
ondujelijk
one
onenigheid
ongelok
ongeluk
onger
ongerdee
ongerdeel
ongerdrukt
ongergang
ongermeer
ongernemer
ongeronde
ongerouwen
ongerscheidiengen
ongertee
ongertekend
ongertekent
ongertussen
ongerust
ongerwies
ongerzoek
ongevee
ongeveer
ongeweun
ongles
onhevee
onheveer
onhewurveln
onkerkelijkeid
online
onmeugleke
onmiddellijk
onne
onrust
onrustig
onrustige
ons
onstae
onstaen
onstaene
onsti
onsto
onstoeng
onstoengen
onstoo
ont
ontaerdt
ontbreken
ontdek
ontdekkiengsreiziher
ontdekking
ontdekkingsreiziger
ontdekt
ontdekte
onte
ontenisse
ontgonne
onthuld
onthullieng
onthullienge
onthulling
ontken
ontlee
ontploffende
ontploffing
ontploffinge
ontploft
ontrondienge
ontsnapt
ontstaan
ontstae
ontstaen
ontstaene
ontstaet
ontsti
ontstieng
ontstit
ontsto
ontstoeng
ontstoenge
ontstond
ontstonden
ontstong
ontstongen
ontstoo
ontstoot
ontuld
ontvangen
ontvangt
ontvieng
ontviengen
ontving
ontwerp
ontwikkel
ontwikkeld
ontwikkelde
ontwikkelieng
ontwikkelienge
ontwikkeling
ontwikkeln
ontwikkelt
ontworpe
ontzag
onvermiedelek
onvermolde
onverrichter
onverschrokken
onvoltooid
onz
onze
onzeker
onziedig
onziedige
onziee
onziejige
oo
oock
oodstad
ooe
oof
oofd
oofs
oog
ooge
oogste
oogtepunt
oohe
ooit
ook
oom
ooms
oop
oopenienge
oopn
oor
oord
oorde
oordee
oore
oorkonde
oorkonden
oorlog
oorlogen
oorlogsslachtoffers
oorlogsverklaering
oorn
oorsproenk
oorsproenkelijk
oorsproenkelijke
oorsproenkelike
oorsprong
oorspronkeleke
oorspronkelijk
oorspronkelijke
oort
oorzaek
oorzaeken
oost
oostburg
oostelijk
oosten
oostende
oostenriek
oosterland
oosterschelde
oostervant
oostindisch
oostindische
oostkapelle
oostkerke
oostvoorne
ootmarsum
oov
oover
oow
op
opa
opardin
opbouw
opbriengst
opdat
opdee
opdracht
ope
opebouwd
opedee
opeheven
opel
open
openbaer
openbaere
opend
opende
opene
opengesteld
openieng
openienge
opening
openingsact
openlijk
openome
openstellieng
opent
opera
operaotie
operatie
opericht
operold
opesteld
opgaande
opge
opgeblazen
opgebouwd
opgedee
opgedraegen
opgegaen
opgeheven
opgeknapt
opgeleid
opgelost
opgenomen
opgepakt
opgericht
opgerukt
opgeruumd
opgeschreve
opgeslokt
opgesteld
opgetreje
opgetrokken
opgevolgd
opgewekt
opgezweept
opging
opheusden
ophieven
opieste
opkomme
opkommen
opkomst
opleidieng
opleiding
opleverieng
oplevieng
oploo
opmaet
opmaot
opmars
opmerkelijk
opmerkieng
opnames
opnieuw
opole
oporornis
oppedette
opper
opperman
oppervlak
oppervlakte
oppositie
oprichter
oprichtieng
oprichtienge
oprichting
oproep
oproepen
oproer
oprukken
oprumen
opschrift
opschriften
opsporing
opstan
opstand
opstandeliengen
opstandelingen
opstandieng
opstellen
opt
optiek
optimistisch
optreden
optreejt
opvaerende
opvaerenden
opvall
opvallend
opvallende
opvallendste
opvarenden
opvearenden
opvolgde
opvolger
opvolhen
opvolher
opzet
opzicht
opzichte
or
ora
orainville
oraison
orangist
oranje
oranjenikkekasuaris
oranjezon
ord
orde
orden
ordinarium
ordn
ordonnaz
ore
oregon
oreiro
oreka
oren
orende
org
organisaotie
organisatie
organisaties
organiseerde
organist
orgel
orgeval
orgues
orhanisasie
orhanisatie
orhaniseern
orhanism
orhanisme
orhanismen
ori
orientation
origineel
originele
origny
orka
orlando
orle
orlog
orn
ornex
ornithion
ornithologia
oro
oromo
orst
orthodox
orthodoxe
orxois
os
osama
oscar
oslo
osly
osmaonse
oss
osse
ossendrecht
ossenisse
ossenpikkers
ossewaarde
ost
ostbelgien
osteichthyes
ostel
ostelik
ostelike
ostn
ostralegus
ostrohoot
oswald
ot
otawi
ote
otel
otels
othene
ott
otterlo
otto
ottokar
ottomaanse
ottoman
ottomaon
ottomaonse
ou
oud
ouddorp
oude
oudedorp
ouden
oudenaarde
oudenaorde
oudenbosch
ouder
ouderen
ouderenpartij
ouders
oudfrans
oudgermaonse
oudgrieks
oudheid
ouds
oudste
oudsten
oudt
oue
ouen
oulches
oulchy
ounder
ountstoan
our
ourcq
oussen
ouste
out
outdoor
outen
outre
outriaz
outsnip
ouverture
ouw
ouwdurp
ouwdurpse
ouwe
ouwedurp
ouweland
ouwelande
ouwen
ouwendiek
ouwer
ouwere
ouweren
ouwerkaark
ouwerkaarke
ouwerkerk
ouwerkerke
ouwerlieng
ouwerling
ouwers
ouwerwesse
ouwerwets
ouwewaeter
ouwste
ouwt
oux
oval
ovale
ove
oven
oveniern
over
overa
overal
overaol
overbetuwe
overbliefsel
overbluufsel
overbluufselen
overbluufsels
overbodig
overdag
overdracht
overe
overedrohen
overee
overeenkomsten
overeid
overende
overflakkee
overgang
overgangsgebied
overgeave
overgebleve
overgebleven
overgegaan
overgegaen
overgenome
overgenomen
overhand
overhandigt
overhang
overheid
overiessel
overiesselsen
overige
overigens
overiges
overihe
overijssel
overkant
overkante
overkomme
overlast
overleden
overlee
overleed
overleefd
overleeft
overleeje
overleg
overleje
overleven
overlevende
overlevenden
overleverieng
overlevering
overliejd
overliejen
overliejende
overliejene
overmacht
overmee
overnam
overschie
overslag
overspanning
overstak
overste
overstro
overstroming
overstromingen
overstroo
overtocht
overtuigen
overval
overwaoie
overwegend
overwegingen
overwehend
overwinnieng
overwinnienge
overwinning
overwinter
overwintern
overzee
overzicht
ovezande
ovidius
ovreisset
ovreissiat
ovva
owain
owens
own
oxford
oyonnax
ozan
p
pa
paal
paar
paars
pablo
pabo
pachycephalopsis
pachyramphus
pacifische
pad
padde
padje
padstow
pael
paele
paelen
paeloo
paer
paerd
paerde
paerden
paerelduker
paeren
paeretje
paertied
paertjes
paese
paeseiland
pag
page
pagina
pagny
pagodinho
pahina
pain
painting
pairen
paissy
pak
pakistan
pakje
pakk
pakke
pakken
pakt
pakte
pakten
pal
palace
palacio
palais
palatalisaotie
palatinum
palatyn
palau
palauaa
paleis
palen
palende
paleognathae
palermo
palestijn
palestijnen
palestijns
palestijnse
palestina
palm
palts
palud
pan
panama
panamakanaal
panamakanaol
pancy
pand
paneve
paniek
panne
pannen
panorama
panoramio
pantheon
paol
paolo
paor
pap
papa
papaya
papegaoiachtegen
papegaoien
papendrecht
papiaments
papier
papleux
papoea
papoeataelen
paptaerten
parachutisten
parade
paradiesveugel
paradigalla
paradijs
paradisaea
paradisaeidae
paradisus
paraguay
parallel
paramaribo
paramore
parasitair
paray
parazoa
parazoe
parcieux
parcours
parcy
pardon
pareto
parfondeval
parfondru
pargnan
pargny
paries
parijs
paris
park
parken
parkstad
parlement
parlementaire
parochie
parochies
parodie
parodiemisse
paroisses
parotia
parpeville
part
parti
particulier
particuliere
partido
partie
partij
partijen
partijleider
partijleiders
partnerstad
party
parula
parulidae
parves
parvirostris
pas
pascual
pase
pashtu
paskal
pasly
paspoort
passage
passagiers
passagiersvliegtuug
passahiersschip
passe
passen
passeriformes
passie
passion
passy
past
paster
pastoor
pastor
pastorie
patahonische
paterson
patrick
patriotten
patroo
patrouilles
pau
paul
paulo
paulowna
paulus
paus
pausen
pausenkaemer
paux
pavant
pavel
pavillon
pays
paz
pdf
pe
peace
pearl
pedro
pee
peee
peel
peer
peeters
peijs
peipin
peis
pekela
pekieng
peking
pel
pelecaniformes
pelekaonachtegen
peleliu
pelle
pelzelni
pen
pend
pende
peneothello
penguin
penis
pennsylvania
pensionaris
pensions
pentagon
people
peper
peperbusse
pepsico
per
perachtegen
percelen
percent
percentage
percies
percy
perdamme
perdies
perdix
pere
peres
performance
performances
perigny
perihelium
period
periode
periodes
periodiek
perkappel
perkpolder
perles
permanent
permanente
permeke
pernant
peron
peronnas
perouges
perre
perrex
perron
perry
pers
perse
perso
person
personee
personele
personen
persoo
persoon
persoonlijke
persoonsbewies
persoonsvurm
perspectief
peru
perzen
perzie
perzisch
perzische
perzischen
peso
pest
pestveugels
pet
petaoten
peter
peterolie
petersburg
petiambang
petit
petite
petra
petrarca
petrella
petroica
petroicidae
petronella
petrus
petsamo
pette
petteflet
peugde
peugeot
pevelenberg
pew
peyriat
peyrieu
peyroules
peyruis
peyzieux
pez
pg
phaethon
phalacrocoracidae
phalacrocorax
phalaropus
pharomachrus
pharos
phasianidae
phasianus
phelippine
philadelphia
philepitta
philepittidae
philip
philipp
philippe
philippeville
philippine
philips
philipsland
phillipus
phobos
phoebe
phoebetria
phoenicoparrus
phoenicopterus
phoenix
phoenixeilan
phong
phonygammus
phop
photograph
phu
phyllomyias
phylloscartes
phylum
physica
pi
pianist
piano
pianosonate
picard
picardie
picardisch
picasso
picchu
piciformes
pico
pie
pieds
piegut
piek
pieken
piel
piene
pienksterbewehieng
pienkstern
piepers
pier
pieremie
pierre
pierrefitte
pierremande
pierremont
pierrepont
pierrerue
pierrevert
piershil
piet
pieter
pieters
pietersplein
pietje
pietro
pietsjen
piewie
pig
pignicourt
pigny
pijlsturmveugels
pijp
pijpelink
pilaeren
pillat
pilly
pim
piman
pin
pine
pingui
pinksteren
pinnipedia
pinon
pip
pipe
pirajoux
piramide
piramiden
piraot
pisa
pisin
pisum
pit
pital
pithon
pitta
pitten
pius
pizay
pje
pk
pkn
pl
plaats
plaatselijke
plaatsen
plaatsengids
plaatsnamen
placozoa
plae
plaes
plaeseleke
plaeselijke
plaete
plaetje
plaetjes
plaets
plaetselijke
plaetselike
plaetsen
plaetste
plagne
plaisir
plan
planeet
planeetn
planete
planeten
planetoi
planke
plankedurp
planken
plankendorp
plankje
plankjes
plankton
plannen
planoise
plant
plantaa
plantages
plantarum
plantay
plante
planten
planters
plantesoo
plantesoorte
plantn
plaots
plassen
plastic
plat
platdiets
plateau
platform
platgebrand
plato
platte
platteland
plattelandsgemee
platyrinchus
platyzoa
platz
play
playstation
plaza
ple
plea
pleas
please
plechtige
pleegvaoder
plegen
plehen
plein
pleine
plek
plekje
plekk
plekke
plekken
plekkenaem
plekkn
plekn
pleknaem
pleknaembord
pleknaeme
pleknaemen
pleksje
plesnoy
plessier
pleviere
plevieren
plezier
pleziervaert
plicht
pliesie
plo
ploegen
ploisy
plomion
plompetoren
plotarea
plotdata
ployart
plu
plui
pluk
plumen
plundertocht
plundertochten
plus
plusminus
pluto
pluumen
pluumpot
pluus
pm
pn
png
po
poar
podiceps
podicipedidae
podilymbus
podium
podlachie
podogymnura
poe
poecilodryas
poecilotriccus
poeierdonsklauwier
poel
poeljeugd
poend
poer
poete
poetin
poezat
poging
pogingen
pogrom
pohieng
pohing
point
points
poitevin
poitiers
poitou
poizat
poke
pol
pola
polder
polderland
polderman
poldermodel
polders
polen
poletiek
poliocephalus
polisie
politica
politician
politicus
politie
politieagent
politiek
politieke
polletiek
polliat
pollieu
polman
polo
polydor
polygram
polynesie
polynesische
polystictus
pommer
pommeren
pommers
pommerse
pommiers
pomorskie
poncin
pond
pons
pont
pontavert
pontis
pontische
pontos
pontru
pontruet
pontse
pontsericourt
pontus
poo
pool
pooln
pools
poolse
poort
poorte
poorten
poortgebouw
poortugaal
poosje
pop
popband
popmart
popmeziek
poppe
poppendamme
popster
populair
populaire
populairste
populatie
population
porifera
port
portaalkraenen
portici
portland
porto
portrait
portree
portret
portugal
portugee
portugees
portugese
portugezen
portuhal
portuhees
portuhese
portuhezen
portwerder
poscode
posisie
positie
posities
post
postkantoor
postvaart
pot
potappel
poterie
potloo
potten
potter
potvis
pougny
pouillat
pouilly
poulus
pour
pourc
pourcain
pouzy
powell
power
powiat
powiats
poznan
pp
ppr
ppunt
pr
praag
praat
praats
pracht
prachtig
prachtige
prachtihe
prads
praegse
praete
praeten
praktijk
praot
praote
praoten
praotje
prasit
prate
praye
prayeres
pre
prebeerde
prebere
precies
predicatief
predikant
predikanten
predikaties
preekstoel
preekte
prefectuurstad
prehistorie
prehistorische
preken
premeyzel
premie
premier
premiers
premilhat
premillieu
premont
premontre
prentbriefkaerte
pres
presbyteriaanse
presbyterian
present
presentator
presentatrice
presenteerde
president
presidente
presidenten
presidentie
presidentschap
presles
presley
press
pressiat
prestige
pretendent
pretoria
preuve
prevessin
previncie
previnsie
pri
priay
price
pries
priest
priester
priesters
priez
priezen
prijs
prijsstijging
prikgat
prikken
primaire
primaquatre
prince
princip
principe
prins
prinsbisdom
prinsdom
prinses
prinsesse
prionochilus
priotelus
prisces
prissentator
prive
privilege
prix
pro
probeer
probeerde
probeerden
probeern
probeert
probere
proberen
proberende
probleem
probleme
problemen
procellariiformes
procent
proces
processen
produceert
producer
produceren
product
producten
productie
productief
proef
proefschrift
proefvaert
profeet
professionele
profeten
profiel
profiteren
profvoeballer
programma
progre
progressief
prohramma
proisy
proix
project
projecten
promenade
promerops
prometheus
promised
promises
promoveerde
pronk
proo
prot
protectoraa
protectoraot
protes
protessen
protest
protestant
protestante
protestanten
protestantisme
protestants
protestantsche
protestantse
protesteert
protesten
protostomata
prouvais
prov
prova
provenc
provence
provicie
provinciale
provinciaole
provincie
provincies
provinsie
proviseux
proza
pruisen
prusisch
psalm
psalmen
psd
psdnet
pse
pseudocolopteryx
pseudoniem
pseudotriccus
psgezinde
psittaciformes
psp
psv
psyholohie
pt
pterocles
pteroptochos
pterygoid
ptiloris
pu
public
publicaotie
publicaoties
publicatie
publicaties
publications
publiceerde
publiceern
publiek
publieke
publiekspries
publius
puerto
puertoricaonse
pugieu
puimichel
puimoisson
puiseux
puisieux
puna
puncak
punk
punt
punte
punten
puntje
pupe
purmerend
pusilla
put
putt
putte
putten
putter
puult
puun
puur
puut
puy
pvda
pveugel
pveugels
pvont
pvv
pvz
px
py
pygoscelis
pyrenees
pzc
q
qader
qaeda
qaida
qatar
qua
quack
quade
qualificatum
quang
quay
que
quebracho
quechua
queen
queenborough
queensland
quentin
quetzals
quierzy
quincy
quinson
quinssaines
quo
qutb
r
ra
raad
raadhuis
rabat
rabin
rache
rachel
rachels
racontas
racoon
radar
raderboo
radiata
radio
radja
raed
raedgevers
raedhuus
raedpensionaris
raedslid
raeduus
raeke
raeken
raekn
raekt
raekte
raem
raemen
raemsdonk
raepe
raepen
raeven
rafael
rahman
raillimont
railway
rainbow
rainier
raja
raket
ral
ralf
rallen
ralph
ramasse
rambert
ramecourt
ramicourt
ramillies
ramiro
rammekens
ramo
ramp
rampen
ramphotrigon
ramsbottom
ramskapelle
ran
rance
rancourt
rand
randje
randschrift
randstad
rang
rangi
ranh
rania
raod
raok
raol
rap
rapport
rapporten
raqqah
rard
ras
rassen
rat
ratchathani
rattanakosin
rattle
rattus
rau
rault
ravenstein
ravijnen
ravnopolska
ray
raymond
rbie
rbied
rboo
rboot
rce
rd
rde
rdee
rdeeld
rdelijk
rdelijke
rdelike
rden
rdenveld
rder
rdere
rdereiland
rderzielvest
rdhaevenpoorte
rdienst
rdienste
rdig
rdige
rdinaot
rdinator
rdje
rdkante
rdoo
rdse
rdwessen
rdwest
rdwesten
rdzee
re
reactie
reacties
read
reagan
reageerde
reake
real
realisaotie
realiserende
rebel
recent
recente
rech
rechen
rechs
recht
rechtbank
rechtdeur
rechte
rechten
rechter
rechterlijke
rechteroever
rechterplaquette
rechters
rechtoekig
rechts
rechtse
rechtspraek
rechtvaerdig
rechtvaerdige
reciterieng
reciteriengen
reconstructie
record
records
recreaosievaert
recreaotie
recreatie
recurvirostra
red
redde
redden
redder
redders
reddieng
reddienge
reddiengsboo
redding
rede
redelijk
redelijke
reden
redenen
reder
redortiers
ree
reed
reeds
reee
reej
reeks
rees
reestdal
reeuwiek
refdag
refereert
referendum
referenties
reformaotie
reformatie
reformatorisch
reformatorische
reformed
refrein
regel
regelen
regelingen
regelmaetig
regelmatig
regels
regen
regenboge
regent
regentes
regentesse
regeren
regerende
regerieng
regerienge
regering
regie
regime
regiment
regio
region
regionale
regisseur
regny
regrund
regt
reguliere
rehee
reheern
rehel
rehels
rehen
rehenseizoen
rehentied
rehenval
rehenwoud
rehenwouden
rehenwouen
reherieng
reherienge
reheriengsleider
reheriengspartij
rehering
rehio
rehionaole
reihers
reillanne
reimerswaal
reimerswael
reimerswaol
reims
reinaert
reinet
reinhoudt
reinier
reins
reis
reisde
reitsma
reize
reizen
reiziger
rekanje
rekene
rekenen
rekenieng
rekening
rekker
rel
relatie
relatief
relatieve
reld
relevant
relie
religie
religieuze
religion
religious
relihie
relihies
reliwiki
rellen
remark
remaucourt
rembrandt
reme
remedy
remengesau
remens
remies
remigny
remise
remix
remo
remus
remuzen
remy
ren
renaissance
renansart
renault
rence
rende
rene
renesse
rengerskerke
renisse
renlan
renn
rennes
renneval
renon
rente
renveen
replonges
representatieve
reptiel
reptielen
reptilia
republic
republiek
republika
res
research
reserve
resigny
resolutie
resp
respectievelijk
respectievelik
ressen
ressons
ressorteert
ressortere
rest
restan
restant
restanten
restaurant
restaurants
restauratie
reste
resten
resterant
resterantjes
resterende
restitue
resultaet
resultaot
resultaoten
resultaten
resulteerde
rethaan
retheuil
reto
retranchement
retrieved
retz
reu
reugny
reuil
reuilly
reusachtige
reusel
revel
reverend
revest
revillon
revival
revolutie
revoluties
revolution
revolutionair
revonnas
revue
rey
reykjavi
reykjavik
reynaerde
reynaert
reyrieux
reyssouze
rez
rg
rgb
rge
rgy
rhaetisch
rhea
rhead
rheiformes
rhein
rhenen
rho
rhode
rhodesie
rhoo
rhoon
rhynchocyclus
rhynchotus
rhynochetidae
rhynochetos
rhytipterna
ri
ria
riat
ribeauville
ribemont
ric
rica
ricardo
rich
richard
richaumont
richecourt
richen
richt
richten
richtende
richter
richthofen
richtieng
richtienge
richting
richtingen
richtte
richtten
rico
ricotrog
ricourt
ridder
ridderkerk
ridderkerke
ridders
rie
riebeeck
ried
riedt
riee
riejd
rieje
riejen
riejerwaerd
riejt
riek
riekdom
rieke
riekelui
rieken
rieker
rieksdaggebouw
rieksmonument
rieksmonumenten
rieksmuseum
riekste
rieksuniversiteit
riekswaeterstaet
rieksweg
riekswegen
riel
riem
riemes
rien
rieng
rienge
riengen
rienk
rienkelende
rienkriee
rienland
rienwaerden
riep
riepe
ries
riesdaelder
riesoo
riessen
riest
rieswe
rieswiek
riet
rietman
rietveld
rieu
rieux
riez
rif
rifferendum
rifferensies
rifferenties
riga
rige
right
rignat
rignieux
rigny
rij
rijen
rijk
rijksdienst
rijksmonument
rijksmonumenten
rijksmuseum
rijksoverheid
rijn
rijnkanaol
rijnland
rijnstreek
rijsel
rijsoord
rijssen
rijtje
rik
rilland
rillatief
rilly
rin
ring
ringdurp
ringen
rinus
rio
riottier
rippebliek
rippeblikein
ripuarisch
ris
rise
rishi
risico
rispe
rissa
risson
rite
ritje
ritme
rito
rittem
ritthem
rivael
rivaol
river
rives
rivie
rivier
rivierdelta
riviere
rivieren
riviern
riviertje
rk
rke
rken
rkers
rklaojs
rko
rksp
rkt
rkte
rkust
rlande
rlien
rliengen
rlijk
rlijkeid
rling
rlog
rlogen
rlogse
rlohen
rm
rman
rmannen
rmde
rme
rmee
rmuzen
rn
rne
rnklee
rnschat
rnsnaevel
ro
road
roakers
roald
rob
robaais
robben
robbeneiland
robert
roberto
robine
robrecht
robyn
rochefort
rochegiron
rochette
rocht
rock
rockband
rocles
rocourt
rocquigny
rode
roden
rodri
rodriguez
roeaan
roebel
roeden
roeien
roel
roelof
roelofs
roelofsen
roem
roemeens
roemeense
roemenie
roemer
roemie
roend
roep
roepe
roepen
roept
roer
roerdaelen
roergebied
roermond
roeselare
roete
roge
rogecourt
roger
rogny
roi
rok
rol
roland
rolihlahla
roll
rollandia
rollat
rolle
rollen
rolles
rom
roma
romagnolo
roman
romane
romans
romantische
romanum
romaons
romaonse
rome
romein
romeinen
romeins
romeinse
romeinsen
romeny
romery
rommel
rommelasperges
rommetom
romse
romulus
ron
ronald
ronche
roncheres
rond
ronde
rondienge
rondom
rondte
ronge
rongeres
ronnas
ronnet
ronsche
roo
rood
rooee
roofbudelbee
roofdier
rooibos
rooie
rooiewiek
rook
room
rooms
roopt
roos
roosendaal
roosendael
roosevelt
roozemond
roozendael
rop
rope
rosa
rosen
ross
rosse
rossii
rossillon
rossonoemi
rossum
rostratula
rostratulidae
rotatie
roteern
rothanze
rotonde
rots
rotsen
rotssprienger
rotterdam
rottumerplaot
roucy
roudon
rouen
rougeries
rouges
rougon
roumoules
round
roupy
roussillon
route
rouvroy
rouw
rouwe
rouy
rover
rovogges
roy
royal
royale
royan
royaucourt
roze
rozen
rozendael
rozet
rozie
rozieres
rozoy
rp
rpartijenstelsel
rpen
rpf
rr
rrebeij
rreg
rrege
rrehe
rrek
rreke
rreken
rrem
rremesse
rrepers
rriais
rrug
rrum
rs
rse
rser
rsers
rsieng
rslag
rsproenkelijk
rsproenkelijke
rsprong
rspronkelijk
rst
rste
rsti
rt
rte
rten
rtien
rtig
rtjes
rtl
rttemberg
rtug
rtugaa
ru
rubens
rudolf
rudolph
rufa
ruffieu
ruficeps
ruficollis
rug
rugby
ruhhe
rui
ruil
ruim
ruimte
ruiter
ruiters
rules
rum
rumoerige
rups
rusland
russel
russell
russen
russisch
russische
rust
ruste
rustig
rustiger
ruter
rutger
ruth
rutte
rutten
ruud
ruum
ruume
ruumte
ruumtesonde
ruurlo
ruus
ruut
ruwen
ruwwig
ruyter
ruzie
rvan
rveugel
rvo
rvoor
rvoud
rvoudsvurm
rvoudsvurmen
rvoudsvurmienge
rwanda
rwehen
rwiel
ry
ryk
rzaekt
s
sa
saakashvili
saakasjvili
saar
saartje
saaymans
saba
sabbat
sabbinge
sabel
sabic
sabine
sabotage
saconin
saddam
saebel
saeftinghe
saem
saeme
saemen
saemenevoegd
saemengaen
saemengebrocht
saemengegaen
saemengevoegd
saemenlevieng
saemenstellieng
saemenstelling
saemenvoegieng
saemenvoeginge
saemenwe
saemenwerkingsverband
saemevoegienge
safwat
sage
sagoe
sagrada
sahaora
sahara
saharaonse
sahel
saigon
sains
saint
sainte
saintongais
sakkathattiya
sakke
saksen
sal
salah
salamanders
salavre
salem
salignac
saligny
salland
sallemanders
salles
salomonseilan
salon
salsogne
salt
salvador
salvins
sam
samaria
samba
sambre
samen
samengesteld
samenleving
samenstelling
samenwerking
samoa
samognat
samoussy
samsom
samuel
san
sanatorium
sancho
sancy
sandal
sanders
sandomierz
sandra
sandrans
sandy
sangalo
sangy
sanjua
sankt
sanne
sanskriet
sanssat
santa
santiago
santo
santos
sao
saoedi
saom
saomenstellieng
saone
saore
sap
saponay
sappemeer
sara
sarah
sarande
sarawak
sarcopterygii
sardiens
sardinie
sart
sas
sasput
sassanied
satelliet
satellietfoto
satellietstaete
saterdach
saterfries
saterland
sathit
satirische
sativum
saturnus
saulcet
saulchery
sault
saulzet
saumane
sauropsida
sausses
sauvagny
sauverny
sauvier
sauvigny
savannes
savens
savigneux
savoie
savoye
savy
sayornis
sazeret
scalemajor
scaleminor
scandinavie
scandinavische
scapa
scarlatti
sce
scelorchilus
scepter
sch
schaarbeek
schae
schaede
schael
schaele
schaeltje
schaeme
schaep
schaepen
schaerbeek
schaeren
schaerendieke
schaerpenisse
schaesster
schaestocht
schaffen
schallebieter
schandaal
schande
schaol
schaopen
schaopenbout
schap
schapenneuken
scharrelaerveugels
scharwoude
schat
schatten
schattieng
schattiengen
schatting
schattingen
sche
schedel
schee
scheen
scheepsramp
scheepswurft
scheepvaart
scheepvaert
scheepvaertverkeer
scheer
scheerders
scheffer
schei
scheibel
scheidde
scheidden
scheidieng
scheiding
scheien
scheikunde
scheikundige
schelde
scheldestroo
schellen
schelling
schelluinen
schemer
schenge
schep
schepen
scheppe
schepper
scheppieng
schermer
schermerhorn
schermutselingen
scherpe
scherpenisse
scherpenzeel
schets
scheuring
scheuteltje
scheveningen
scheveningse
schie
schiedam
schieland
schiemblad
schien
schienpaopje
schient
schiereiland
schiermonnikoo
schiermonnikoog
schiet
schiete
schieten
schieve
schijndel
schijnt
schild
schilder
schilderie
schilderieje
schilderiejen
schilderkunst
schilders
schildje
schilpadd
schip
schipbreuk
schipbreukeliengen
schipbreukelingen
schiphol
schipper
schippers
schisma
schlieffenplan
schmidt
schneiders
scho
schoddebos
schoddebozze
schoef
schoen
schoenen
schoener
schoenk
schoenmaoker
schoere
schoeren
schoft
schok
schokland
schole
scholen
scholle
scholten
scholz
schommel
schommelend
schond
schone
schonk
schoo
school
schoole
schooljongers
schoon
schoondijke
schoone
schoot
schore
schorer
schorr
schorren
schortebont
schot
schoten
schotland
schots
schotse
schotten
schout
schouten
schouwen
schouwse
schrabbekerke
schraevenpolder
schre
schree
schreef
schreeuwde
schrief
schriefster
schrieft
schrieftaele
schriefwiezer
schriev
schrieve
schrieven
schriever
schrievers
schrift
schriftelike
schriftgele
schrikkeljaer
schrikkeljear
schro
schroevers
schryver
schu
schubert
schubreptielen
schuddebeurs
schuddebeuze
schuin
schuld
schulden
schuldig
schuldigkeit
schule
schummels
schure
schuren
schute
schutje
schutkleure
schuulplekke
schuur
schuure
schuuven
schwo
science
sciences
scientific
scirpaceus
sclateri
scolopacidae
scolopax
scotland
scott
scytalopus
sd
sdap
sdiek
se
sea
sealand
sean
search
seat
sebastia
sebastiaan
sebastian
sebastien
seboncourt
sec
second
seconde
secretaoris
secretaris
sector
sedert
see
seed
seek
segers
seillonnaz
seine
seinen
seiurus
seizoen
seizoenen
seksualiteit
seksuele
selency
selens
self
selonnet
seltsjoeken
selve
semi
semipalmata
semitische
semois
sen
senaot
senat
sender
senegal
senez
sent
sentiemeeter
sentiment
sentimeter
seoel
september
septmonts
septvaux
sequehart
serain
seraucourt
serbannes
serches
serenade
serenoek
sergej
sergio
sergius
sergy
sericornis
serie
seringes
sermoise
sermoyer
seroos
serooskerke
serooskerken
serpophaga
serre
serrie
serrieres
sert
sertines
servais
serval
servas
serven
service
servie
serviesgoed
servignat
servilly
servisch
servische
sery
sestug
setalland
seters
seuillet
sex
sexbierum
seyne
seyssel
sfa
sfondo
sgb
sgp
shah
shakira
shannon
sharm
sharon
sheikh
sherman
shift
shimon
shkode
shogun
short
show
showroom
si
siais
siberie
siberische
sibylla
sichon
sichuan
sicilie
side
siderische
sie
siede
siedurpe
siegfried
sien
siene
sierra
sieskerke
sietse
sigismund
sigmund
signy
sigonce
sigoyer
sigrid
siheuners
sijn
sikkelsnaevel
sil
silezie
siligo
silly
silo
silvana
silvester
silvicultrix
simandre
simiane
simmel
simon
simons
simpang
simpel
simpele
simple
simpson
simultane
sin
sinai
sinceny
sind
sinds
sindsdien
sines
sing
singapoor
singapore
singels
singkel
single
singles
sinners
sino
sinoutskerke
sins
sinsdien
sint
sinte
sinterklaos
sion
sioni
sionkerke
sions
sioule
sir
sire
sirjansland
sirpoppekerke
sirystes
sissonne
sissy
sisteron
site
sites
sitta
sittard
situaotie
situatie
situerieng
six
sixtus
sj
sjah
sjes
sjwa
sk
ska
skagerrak
skappel
skappels
ske
skelet
skepi
skerke
ski
skie
sko
skopje
skye
skyline
slaan
slaat
slabbekoorn
slabber
slacht
slachte
slachten
slachter
slachtoffer
slachtoffers
slachtten
slae
slaegen
slaen
slaepe
slaepen
slaet
slaeven
slaevernieje
slag
slager
sland
slang
slangen
slao
slaoger
slaoher
slaoherieje
slaon
slaoven
slaovisch
slaovische
slapen
slave
slavernij
slavische
sle
slechs
slecht
slechte
slechtig
slechts
sleep
sleeswiek
slepe
sleutel
sli
sliedrecht
sliep
slik
slikken
slikplaote
slim
slit
slobeend
slobodan
sloe
sloedam
sloeg
sloege
sloegebied
sloehebied
sloelijn
sloo
sloog
sloot
slot
sloten
sloveens
slovenie
slowakije
slowaok
slowaoks
slowaokse
sluis
sluiskil
sluizen
slute
sluten
slutende
sluus
sluushaeven
sluusje
sluuskil
sluuskille
sluut
sluuten
sluutn
sluuzen
sluzen
smaek
smal
smalle
smallegange
smallingerland
smalstad
sme
smeekte
smelt
smerdiek
smerig
smetana
smid
smietegelt
smit
smith
smits
smokkel
smyrna
smytegelt
smz
snaevel
snaevelbee
snaevels
snap
sne
snee
sneek
sneeuw
snel
snelheid
snelle
sneller
snelweg
snes
sneuvelde
snie
snieuw
snieuwhanze
snip
snipachtegen
snoep
snoepjes
snokke
snokken
snokten
sns
so
soches
sociaa
sociaal
sociale
socialistische
sociaol
sociaoldemocraotisch
sociaole
sociaolistische
society
sociolohie
socrates
soe
soeburg
soedan
soep
soepuus
soeren
soest
soeverein
sofia
sogn
sognefjord
soignies
soissons
soize
sokk
sokkel
soldaot
soldaoten
soldaten
soldoaten
soleerd
soleerde
soleilhas
solitair
solitaria
solomoneilan
sometimes
somme
sommege
sommegen
sommelans
sommelsdijck
sommelsdijk
sommerdiek
sommeron
sommette
sommige
sommihe
sommugte
sommuhhe
soms
somste
somtieds
son
sondags
sonde
song
songfestival
songieu
songs
sons
sonsorol
sonthonnax
soo
soort
soorte
soorten
soortgelijke
sophia
sophie
sorbais
sorbier
sorbisch
soria
sorlin
sornin
sorny
sotho
sou
souburg
souclin
soucy
soui
soupir
sourd
sourribes
sous
souterliedekens
south
southern
souvenirs
souvigny
sovjet
sovjetpresident
sovjetrepublieken
sovjetunie
sp
spaa
spaans
spaanse
spaarnwoude
spaarpot
spaense
spaensgeziend
spaer
spaerzaem
spanjaerden
spanje
spanjolen
spannend
spanningen
spanwiedte
spaons
spaonse
sparta
spd
speaks
spechen
spechtachtegen
speciaol
speciaole
specifieke
spectrum
spee
speech
speecie
speed
speel
speelde
speelgelegenheden
speeln
speelt
speeltuun
speijk
spek
speklaehe
spel
spele
spelen
spelende
spelle
spellen
spelletjes
spellienge
spencer
sperling
spheniscus
spider
spiegel
spiehel
spiek
spiekenisse
spieker
spieren
spijck
spijk
spinn
spion
spirit
spits
spitsberhen
spitters
splitsieng
splitst
spoken
spongebob
spontaone
sponzen
spoo
spoor
spoorlien
spoorliene
spoorlijn
spoorweg
spoorwegongeluk
spoorwegstation
spoorwegt
sporen
sport
sporten
sporter
spot
spotten
spraeke
sprak
sprang
spraoke
spre
spreek
spreekn
spreekt
spreektaele
spreke
spreken
spreker
sprekers
spriek
sprienge
spriengen
spriengt
springfield
sprint
sprong
sprongen
spui
spuisluus
spul
spullen
spuuje
sqar
squamata
square
squarepants
sr
sraskerke
sreinskinders
sri
ss
sse
ssel
sseldorf
ssen
sson
st
sta
staaij
staan
staandaord
staande
staat
staatkundig
staats
stad
stadhuis
stadhuus
stadion
stadium
stadje
stads
stadsbee
stadsbestier
stadsbestieren
stadsbestuu
stadsbrand
stadscentrum
stadsdee
stadsdialecten
stadsfries
stadsfuncties
stadshemee
stadskaert
stadskanaol
stadsmarkering
stadsmure
stadsmuren
stadspark
stadsplein
stadsrech
stadsrechen
stadsrechten
stadswallen
stadt
staduus
stae
staed
staedion
staen
staende
staene
staepel
staepelcontract
staepelplaet
staerre
staerrekunde
staert
staese
staesmiene
staet
staete
staeten
staetenbond
staetenle
staetenlid
staetenvertaeling
staetkundig
staets
staetsgreep
staetske
staetsman
staetsoo
staetssecretaris
staetus
staevenisse
staf
stak
stal
stalin
stalingrad
stalland
stam
stamic
stamm
stamme
stammem
stammen
stamperius
stamt
stan
stand
standaard
standaerd
standaerdnederlands
standaerdtaele
standard
standardvurm
standbee
standbeeld
standerdmeule
standerdnederlands
standerdnederlandse
standerdtaele
standpunt
standvastig
standveugels
stanford
stanislaus
stanisław
stao
staodia
staoking
staon
staot
staoten
staotus
stap
staphorst
stapte
stapten
start
startende
startte
stasie
stasjon
stat
statbel
state
staten
states
station
stations
stationsgebouw
statistiek
status
stavenisse
stavoren
stburg
stdaegen
stdag
ste
stede
stedelijk
stedelijke
steden
stee
steed
steedn
steeds
steee
steeg
steek
steekn
steekt
steen
steenbergen
steenblok
steenen
stefan
stefanus
steile
stein
stekel
stekeldiek
stekels
steken
stekene
stel
stelde
stelek
steleke
stelijk
stelijke
stelik
stelike
stell
stelle
stellen
stellendam
stellende
stelliengwerfs
stelliengwerven
stellingen
stellingmeule
stelsel
stelt
steltkluut
steltloo
stem
stemde
stemm
stemme
stemmen
stemming
stemrecht
stemt
sten
stena
stende
stenen
stenriek
stenriekse
stenrijk
stentied
stentieds
step
stephanus
stephen
steppeklimaot
ster
sterft
steriek
sterk
sterke
sterker
sterkste
sterkte
sterland
stern
sternen
sternijkerke
sterns
sterr
sterre
sterreich
sterren
sterrengebergte
sters
sterschelde
sterscheldekering
stert
sterven
sterwolde
steun
steunde
steunt
steur
steve
steven
stevens
stevig
stevihe
stewart
stflakkee
stfries
sti
stichen
sticht
stichter
stichtieng
stichting
stichtte
stie
stief
stiel
stieng
stienge
stier
stierde
stierden
stiere
stierf
stiermark
stievevol
stigmatura
stijl
stijlen
stik
stikje
stikjes
stikk
stikke
stikken
stikkie
stil
stilgeleid
stille
stillen
stilletjes
stilstaende
stilte
stische
stit
stkant
stkantons
stkerke
stkust
stmael
stmahorn
stn
stnederfrankisch
sto
stoan
stoat
stochowa
stockholm
stoel
stoele
stoelen
stoeng
stoenge
stoepen
stoet
stof
stoffels
stoffen
stofwisselieng
stok
stoke
ston
stond
stonden
stong
stonge
stongen
stoo
stoom
stoomloodsvaartuig
stoomschip
stoomtram
stoomtrein
stoomvaart
stoot
stopp
stoppeldiek
stopte
store
storm
stormvloed
stormvloedkering
stornoway
stort
stortte
stout
stoute
stpolder
straat
straatweg
straelvinnigen
straet
straetbeeld
straete
straeten
straetnaemen
straetsburg
straf
strafkelonie
strafkolonie
straits
strakke
strale
strand
strandde
strandieng
strandloo
strange
strao
straot
straote
straoten
straten
straubing
strauss
stree
streek
streekmuseum
streektaele
streektaelen
streektalen
streep
street
streetview
strek
streken
strenge
strenger
strepe
streptopelia
streven
striaticollis
strict
stried
strieder
striedkrachen
striedlustige
striejen
strigiformes
strijd
strijder
strijders
strijdkrachten
strikt
stro
stroal
stroe
stront
stroo
stroomt
stroope
stropielekkers
structure
structuren
structuur
struken
struthio
struthioniformes
struukhewas
struuksluper
struukvliehenvanger
struusveugel
struusveugels
ststelliengwerf
stuart
stuck
studeerde
studeern
studenten
studie
studiedienst
studies
studietied
studio
study
stug
stuit
stuitje
stuk
stukje
stukken
sturf
sturft
sturjalland
sturm
sturmanval
sturmen
sturmmee
sturmveugelachtegen
sturmveugels
sturmveugeltjes
sturmvloed
sturmvloeden
sturmvloedkee
sturvende
stuur
stuurman
stuut
stuute
stuutje
stzaan
stzee
su
subantartische
subfemielje
subkarpaot
subklasse
sublegatus
suborde
substraot
subtropisch
subtropische
succes
successen
successieoo
successieoorlog
succesvol
such
sucre
sudan
sudaonse
suezkanaol
suggestie
suicide
suid
suippe
suiriri
suk
sukelaodelett
suker
sukerveugel
sukerveugels
sulignat
sulla
sully
sulphurea
sulpice
sultan
sultanaot
sumatra
sunak
sunday
sung
sunnemaere
sunnemare
sunset
super
superciliaris
superciliosa
superfemielje
superklasse
supermart
superorde
superstamm
superstamme
sur
suran
sure
surfontaine
suriname
surinaome
surinaoms
surinaomse
surjoux
surrender
surtout
survival
susan
susato
sussat
susteren
sutrieu
suukerveugels
suzy
sv
svalbard
sven
svg
svore
svores
swalmdal
swamp
sweet
swiebertje
swiep
sydney
symbolische
symboliseren
symboo
symbool
sympathie
symphony
symponie
syn
synagoge
synapsida
synode
synoniem
synthliboramphus
syrie
syrische
syrrhaptes
systeem
system
systematische
szczecin
sztemon
t
ta
taak
taal
taaldialect
tabak
tabelle
tachentegjaeregen
tachentigjaerige
tachentigjaorige
tachtentig
tachtig
tachtigjaerige
tachybaptus
taczanowskii
tadzjikistan
tae
taefel
taefelberg
taek
taeken
tael
taelcontact
taele
taelekennis
taelen
taelfemielje
taelfemieljes
taelgebied
taelgroep
taelhebied
taelhroep
taelig
taelkunde
taelkundig
taelmonument
taemelijk
tag
tagalog
tagtigjarige
tahitiaons
tahrirplein
tahu
tai
taillefontaine
taipei
taiwan
taj
tak
takk
takke
takken
tal
taledavik
talent
talentenjacht
taliban
talissieu
tallinn
talrijke
tamil
tampe
tampes
tan
tanaka
taner
tang
tangaroa
tangotango
tanis
tank
tankenberg
tanks
tanna
tannenberg
tannie
tannieres
tante
tanzania
tao
taofel
taol
taolen
tapaculo
tapuittiran
tarawa
tardenois
target
tarieven
tarnobrzeg
tarnovo
tarre
tartiers
tartonne
tartu
tasmanie
tasmanzee
tassen
tat
tatoe
tatoee
taunton
taux
tavaux
taves
taxat
taxon
taxonomie
taxonomische
taxonoom
tay
taylor
tbilisi
tcha
tchagra
tdiensten
te
tea
teale
team
teams
teatro
teau
teaufort
teauneuf
teauredon
tebak
teche
techniek
tee
teeg
teegn
teehen
teehenwo
teelt
teen
tege
tegeliek
tegelieke
tegeliekertied
tegelijkertijd
tegen
tegenan
tegenover
tegenreactie
tegenstand
tegenstanders
tegenstellieng
tegenstellienge
tegenstelling
tegenwoo
tegenwoordig
tegenwoordige
tegenwoordigen
tehen
tehenover
tehenpaus
tehenstanders
tehenstellieng
tehenstelling
tehenwoo
tehenwoordig
tehenwoordige
tehenwoordihe
teheran
tehuus
teillet
tekampanje
teken
tekende
tekening
tekeningen
tekent
tekort
tekst
tekste
teksten
tel
telard
telde
telegraaf
telescoop
televoting
tell
telle
tellende
tellieng
tellnde
teln
telon
telophorus
telperron
tels
telt
telugu
telus
teminste
temissen
tempel
tempelberg
tempeliers
tempels
temperature
temperaturen
temperatuur
temperatuurn
tempo
ten
tenach
tenay
tende
tendee
tendeels
tenminste
tennessee
tennet
tennis
tenschap
tenschapper
tenslotte
tentoo
tentoonstelling
tenue
tenuirostris
teodoro
teploeg
ter
tere
terecht
terechtstelliengen
teretistris
tergnier
terjat
term
termen
ternaerd
terneuz
terneuzen
ternisse
terny
terra
terre
terrein
terrestrische
terreur
terreurgroep
terreurorganisatie
territoria
territories
territorium
terror
terrorist
ters
terschellieng
terschellienge
terschelling
terschure
terug
teruggedreven
teruggevonden
terugkeer
terugreis
terugtrokken
terve
terwiel
terwijl
tes
tess
test
testamant
testudines
testvlucht
tet
tetrapoda
tevee
tevens
tevree
tevreee
texas
texel
text
textiel
th
tha
thai
thailand
thames
than
thancourt
thans
that
the
theatre
thee
theil
thema
thenailles
thenelles
theneuille
theo
theodoor
theodor
theodore
theologische
theoloog
theoretische
theorie
thep
therence
theresa
thertog
theze
thezillieu
thiago
thibaut
thie
thiel
thieme
thierache
thiernu
thierny
thierret
thierry
thil
thing
thionne
this
thoard
thoiry
thoissey
thole
tholen
thomas
thorame
thorbecke
thorn
three
through
thu
thuel
thuiles
thuin
thuis
thumb
thumbnail
thurigneux
thuus
ti
tiberias
tibet
tibetaons
tibetaonse
tie
tied
tiede
tiedelijk
tieden
tiedens
tiedes
tiedje
tiedschrift
tiedvak
tiee
tieje
tiejen
tiejens
tiejes
tiel
tielman
tielt
tien
tiende
tienden
tienduzend
tienduzenden
tiene
tieng
tiengemee
tiengemeten
tienne
tientalle
tientallen
tier
ties
tiet
tigerhai
tigny
tigranes
tigrinya
tihen
tiid
tijd
tijde
tijden
tijdens
tijdperk
tijdschrift
tiketike
tiki
tilburg
till
tillevisie
tillevisieprogramma
tillevisieserie
tillon
tim
time
timeaxis
times
timmerman
timo
timor
timothy
timur
tinamiformes
tinamoe
tinamoes
tinamotis
tinamus
tinte
tip
tiran
tirana
tirann
tirion
tirol
tis
tisch
tische
titanic
titel
titels
tityra
tjako
tje
tjes
tk
tlingit
tmachten
tmee
tn
tneche
to
tobago
tobias
toch
tocht
todd
todietiran
todirostrum
toe
toeareg
toegang
toegangspoorte
toegangswegen
toegankelijk
toegekend
toegelaete
toegenomen
toegeschreve
toegevoegd
toegewijd
toekomst
toekomstige
toekomt
toekwam
toen
toenaeme
toenam
toendra
toenemende
toenmaelig
toenmaelige
toenmaelihe
toenmaolige
toentertied
toer
toeris
toerisme
toerissen
toerist
toeristen
toeristisch
toeristische
toernooi
toestand
toestel
toestemming
toet
toetda
toeval
toevallig
toezicht
tofik
tog
togo
toho
tohua
toi
toine
tok
tokio
tokrzyskie
tol
tole
tollebeek
tolmomyias
tolsende
tom
toma
tomb
tombe
tome
tommy
ton
tonee
toneelploeg
toneelschriever
toneelstikken
tong
tonga
tonge
tongeren
toni
tonnen
tony
too
tools
toolse
toon
toor
top
tope
topkok
topleveldomein
topografie
topografische
topograofie
topograofisch
topohrafische
toponiem
toppe
tor
tora
torcieu
torcy
toren
torenberg
torens
torentje
toro
torquata
torre
torres
torsten
tortel
tortezais
tossiat
tot
tota
totaa
totaal
totael
totaele
totale
totaol
totaole
totdat
tou
toulis
toulon
toulouse
toune
tour
tournai
toussieux
tout
touter
touvelles
touw
touwe
tower
town
townsend
toxorhamphus
toyota
tr
traas
trace
tracktor
trad
trade
tradisjonee
traditie
tradities
traditioneel
traditionele
traehe
trafalgar
tragedie
trainer
trainingskamp
tram
tramdienst
tramliene
tramlijn
tramoyes
trams
tramways
tramweg
tranclie
trancliere
trang
trans
transport
transvaal
trap
trappe
trappen
travalje
travecy
tre
treban
treden
tree
treed
treedt
trefcon
treffen
treffort
treft
tregellasia
treignat
treillers
trein
treinongelok
treinramp
treinstation
treinwaegon
trek
trekke
trekken
trekker
trekkn
trekpaerd
trekpleister
trekt
trelou
trem
trente
treteau
treur
treurig
treux
trevol
trevoux
trez
trezelles
tricolor
trier
trilaeren
tringa
trinidad
tripoli
tripolitanie
tristan
triton
trivia
trivier
trix
tro
trochozoa
troe
troenken
troep
troepen
troepenmacht
troesnes
trof
trogon
trogonidae
trogoniformes
trogons
trohhe
troje
trok
trokk
trokke
trokken
trokkn
trom
trommel
tromp
tronc
troncais
tronget
troo
troon
troonopvolger
tropisch
tropische
tros
trosly
trosse
trossen
trots
trou
troussat
trouw
trouwde
trouwden
trouwe
trouwen
trouwende
trouwens
trouwes
trouwt
troyes
trucy
truden
true
trug
truiden
truman
trump
trung
truss
truter
truzement
ts
tsaor
tschaelig
tschaelige
tschap
tschee
tse
tsjagra
tsjechie
tsjechisch
tsjecho
tsjehhie
tsjehhisch
tsjehhische
tsjehhoslowakije
tsjerepnin
tsjoektsjenzee
tsjoibalsan
tste
tsunami
tsunaomi
tta
tte
tten
tter
ttinamoe
tu
tugny
tuin
tuis
tull
tulle
tum
tumelaer
tun
tunesie
tunnel
tunnels
tupigny
tur
tureluur
turf
turfkaai
turien
turijn
turk
turken
turkey
turkieje
turkije
turkish
turkmeens
turkmenistan
turks
turkse
turksen
turner
turnhout
turnicidae
turriers
tuss
tusschen
tusse
tussen
tussendeur
tussn
tut
tuun
tuunbouw
tuunbouwprodukten
tuunen
tuus
tuusoorde
tuvalu
tuyll
tv
tvoja
tvorst
twaalf
twaelfhonderd
twaolf
twaolfde
twe
twee
tweede
tweeden
tweee
tweetaelig
twelf
twente
twentieth
twi
twidde
twidden
twiderde
twingo
twint
twinteg
twintegste
twintig
twintigsen
twintigste
twissen
twisten
twitter
twuvelachtig
ty
tybeert
tyd
tyfoon
tyler
tynaerlo
type
typisch
typische
typischer
typischte
tyrannulus
tyrannus
tz
tzebuergesch
tzelfde
u
ubaye
ubraye
ubuntu
ucht
uchten
ucv
ud
uddel
udder
udegen
uden
udihe
udihen
udomratchaniwet
uetersen
uffizi
ugchelen
ugny
uhm
ui
uil
uis
uit
uiterste
uitg
uitgave
uitgebreide
uitgegaan
uitgeverij
uitgevoerd
uitgezonden
uitmakende
uitslag
uittocht
uk
ulaanbaatar
uld
uldeblieken
ulder
uldere
ulen
ulp
ulpe
ulrich
ulst
ultimaotum
ultimatum
um
umlaut
ummers
un
unconverted
und
under
unesco
unforgettable
unicum
unie
uniek
unieke
union
unit
united
universal
universe
universiteit
universiteite
university
up
upon
uppsala
upright
upton
ur
uranus
urbanus
urc
urcay
urcel
urdu
ure
uren
urgel
urhanist
uri
uria
urk
urker
urkers
urocolius
uros
uruguay
uruzgan
urvillers
us
usa
usain
usdiek
usdijk
usnis
ussel
ut
utah
utc
uterlijk
uterlik
uterste
utersten
uterte
uto
utrecht
utrechts
utrechtse
uu
uud
uudige
uudihe
uul
uur
uure
uuren
uus
uusje
uusjes
uut
uutbarstieng
uutbarsting
uutbraek
uutbreiding
uutbreken
uutdrukke
uutdruksels
uute
uutebreid
uutebroeid
uutee
uutegroeid
uuteindelijk
uuteindeluk
uutende
uutendelienge
uutendelijk
uutendelik
uutereikt
uuterlijk
uuteropen
uuterste
uuterust
uutesproken
uutesprook
uutestrekte
uutesturven
uutevoerd
uutgae
uutgaeve
uutgaeven
uutgang
uutgebracht
uutgebreid
uutgebreide
uutgebrocht
uutgegeve
uutgegeven
uutgegroeid
uutgeno
uutgeroeid
uutgeroepen
uutgerope
uutgeschreve
uutgesproke
uutgestrekte
uutgesturve
uutgevaerdigd
uutgever
uutgeverieje
uutgevoerd
uutgezonde
uutgezonden
uutgezonderd
uuting
uutkieke
uutkomm
uutkomme
uutkomst
uutkomt
uutkwam
uutleg
uutliep
uutloo
uutmaeke
uutmaekt
uutmaekte
uutmikte
uutschieters
uutslagen
uutspraek
uutspraok
uutsproake
uutstekend
uutstel
uutstorting
uutstrekke
uutvinder
uutvoerende
uutvoerienge
uutvoering
uutvoern
uutzicht
uutzie
uutzond
uutzonderieng
uutzonderienge
uutzonderiengen
uutzondering
uuze
uuzen
uvcw
uvernet
uw
uwde
uwe
uwelijk
uwen
uwenlank
uwig
uwige
uwigen
uws
uwsche
uwse
uwsen
uyl
uyt
uze
uzen
v
va
vaa
vaak
vaan
vaarder
vaart
vacant
vache
vacheres
vacueerd
vad
vadder
vaddere
vadencourt
vader
vadere
vaderland
vaeder
vaek
vaeker
vaele
vaels
vaerde
vaerder
vaerdig
vaere
vaeren
vaern
vaert
vaerte
vaertschole
vaesjes
vaete
vaeten
vaetplant
vailly
vaje
vak
vakantie
vakhebieden
val
valavoire
valbelle
vale
valeins
valencia
valenciennes
valencijn
valensole
valentin
valentini
valernes
validation
valignat
valigny
valk
valken
valkenburg
valkenisse
vall
valladolid
valle
vallee
vallei
valleien
vallejo
vallen
vallenato
vallene
vallon
valn
valois
valromey
valse
valserine
valsery
valt
value
van
vanaf
vanaof
vandaag
vandaeg
vandaege
vandaehe
vandaen
vandaene
vandaer
vandeer
vandeins
vaneihes
vang
vange
vangen
vangst
vangt
vanof
vanouds
vant
vanuatu
vanuit
vanuut
vanwe
vanwege
vanwehe
vanzelf
vaoder
vaoders
vaok
vaol
vaolle
vaolt
vaor
vaorde
vapeur
var
varambon
varax
varde
varder
vardere
varen
varennes
varey
variant
variante
varianten
varie
varieer
variscourt
varre
vars
varuut
vasco
vassens
vasseny
vassogne
vast
vaste
vasteland
vasteleid
vasten
vastesteld
vastgegroeid
vastgeplakt
vastgesteld
vasti
vaticaa
vaticaanstad
vatican
vaucelles
vauclair
vaudesson
vault
vaumas
vaumeilh
vaurseine
vaux
vauxaillon
vauxbuin
vauxce
vauxcere
vauxrezis
vauxtin
vdb
ve
veak
veauce
vechen
vecht
vechte
vechten
vechtkwartels
vechtstreek
vechtstroo
vedder
vedders
vee
veegebruukte
veel
veelal
veele
veen
veendam
veenendaal
veenendael
veenhebied
veenkolonie
veenkolonies
veer
veeraeven
veerboo
veerboot
veerdienst
veerdienste
veerdiensten
veere
veerhaevene
veerman
veern
veerschip
veerse
veerstraote
veertien
veertiende
veertienden
veertig
veerverbindieng
vees
veetee
vegas
veghel
vegin
veilig
veiligheid
veinters
vek
vekansiepark
vel
veld
velde
velden
veldmaarschalken
veldtochte
vele
velen
veliko
velsen
veluwe
veluwezoo
veluws
velwachter
velzen
ven
venas
vend
vendat
vende
vendelles
vendeuil
vendhuile
vendie
vendieres
vendo
vendresse
venen
venerolles
venetiaons
venetie
venezuela
venizel
venlo
vent
venterol
venters
ventje
ventjes
venus
veolia
ver
verael
verandeld
veranderd
veranderde
veranderden
verandere
veranderen
veranderende
veranderienge
veranderiengen
verandering
verandert
verantwoo
verantwoordelijkeid
verban
verband
verbannen
verbasterd
verbee
verbeelding
verbeterd
verbetering
verbie
verbind
verbindend
verbindieng
verbindienge
verbindiengen
verbinding
verbindt
verbleven
verbluuf
verboden
verboge
verboje
verbon
verbond
verbonde
verbonden
verbood
verboodn
verbouwd
verbouwen
verbouwing
verbrand
verbree
verbugienge
verd
verdaches
verdacht
verdachte
verde
verdedig
verdedigers
verdediging
verdee
verdeeld
verdeelplan
verdelen
verder
verdere
verders
verdiende
verdiene
verdienen
verdieping
verdilly
verdon
verdonk
verdraege
verdrag
verdragsorganisatie
verdreef
verdreven
verdrienke
verdrieven
verdringen
verdroenke
verdronke
verdronken
verdun
verduren
verduusterd
verduusterienge
verdwee
verdween
verdwene
verdwenen
verdwien
verdwiene
verdwienen
verdwient
vere
veree
vereenigde
vereeniging
veren
verenigd
verenigde
verenigieng
vereniging
verf
vergadering
vergae
vergaedering
vergaere
vergao
vergaot
vergeet
vergeleke
vergeliekienge
vergelijk
vergete
vergeten
vergeve
vergeven
vergilius
verging
vergliek
vergliekienge
vergnicourt
vergo
vergons
vergro
vergroo
verguier
verhaal
verhaaln
verhaalnde
verhael
verhaelen
verhagen
verhalen
verhalenbank
verhaol
verhaolen
verheal
verheven
verhif
verhoo
verhoudieng
verhulst
verhungeren
verhuren
verhuusd
verhuusde
verieneweerd
verjaerdag
verjon
verkamman
verkantie
verke
verkee
verkeer
verkeerde
verkeersborden
verkeersdoo
verkeersknoo
verken
verkens
verkiezieng
verkiezienge
verkieziengen
verkiezing
verkiezinge
verkiezingen
verklaer
verklaerd
verklaerde
verklaeren
verklaerende
verklaering
verklaert
verklaring
verkleind
verkleinwoord
verkleinwoorden
verkleurd
verko
verkocht
verkochte
verkochten
verkoo
verkoop
verkooze
verkort
verkoze
verkozen
verkreeg
verkrehen
verlaete
verlaeten
verlangen
verlaten
verleate
verleden
verlee
verleejen
verleend
verleidieng
verlengde
verlengen
verlengieng
verlicht
verliep
verlierst
verlierze
verlierzen
verlies
verliest
verliet
verlieten
verlieze
verliezen
verliezersfinaole
verloo
verloop
verloor
verloorn
verlore
verloren
verlos
verlosser
verlost
verly
vermand
vermandois
vermeende
vermeer
vermeld
vermeldieng
vermindert
vermivora
vermoedelijk
vermoedelijke
vermoedeluk
vermold
vermolde
vermont
vermoo
vermoord
vermue
vernauwd
verneix
vernet
verneuil
vernield
vernietigd
vernietigen
vernietiging
vernieuwd
vernieuwiengn
vernoemd
vernome
vernoux
vernusse
veroal
verondersteld
veronica
veroo
veroordeeld
veroorzaakt
veroorzaekende
veroorzaekt
verouding
verouwerd
verover
veroverd
veroverde
veroverden
veroveren
veroverende
verovern
verovert
verplaesende
verplaest
verplaetst
verplekt
verplicht
verre
verreeje
verrejen
verreke
verrekieker
verricht
verrier
verrinneweerd
verrot
vers
versailles
versailleux
versatel
verschee
verscheen
verscheie
verscheiene
verschene
verschenen
verscheuf
verschien
verschiene
verschiensel
verschient
verschil
verschill
verschille
verschillen
verschillend
verschillende
verschillige
verschiln
verschilt
verschrikkelijk
verschrok
verschrokken
verseput
versicolor
versie
versierd
versigny
versjes
verslaegen
verslaen
verslaet
verslag
verslagen
versli
verslit
versloeg
versloge
verslogen
verslohen
versloo
versloog
versnipperd
versonnex
verspreid
verspreidieng
verspreidiengshebied
verspreiding
versregels
verst
verstae
verstaen
verstand
verste
verstedelikt
verstee
versteld
versterking
versterkingen
versterkt
versterkte
verstopt
verstrooid
verstuurd
verstuurt
vert
vertaeld
vertaeler
vertaelienge
vertaeliengen
vertaeling
vertaelingen
vertaling
verte
vertebrata
vertehenwoo
vertehenwoordigd
verteld
vertelde
vertelden
vertelle
vertellen
vertelln
verteln
vertelt
vertical
vertigo
vertoo
vertrek
vertrekke
vertrekt
vertrok
vertrokke
vertrokken
vertrouwe
vertrouweliengen
vertrouwen
veruut
vervaerdigd
verval
vervalle
vervallen
vervange
vervangen
vervangienge
vervanging
verve
verviel
verviers
vervins
vervloekt
vervoer
vervoerd
vervoeren
vervolg
vervolgd
vervolgens
vervolges
vervolging
vervolhens
vervult
verwacht
verwachte
verwanschap
verwant
verwante
verwantschap
verward
verwarring
verwekte
verwerkt
verwies
verwiest
verwieten
verwieze
verwiezen
verwiezieng
verwieziengen
verwiezing
verwiezingen
verwijderd
verwijzen
verwoessen
verwoest
verwoeste
verzaemelen
verzaemelienge
verzaemelnaem
verzamelen
verzandde
verze
verzet
verzetten
verzn
verzocht
verzoek
verzoekt
verzoening
verzurgd
verzwakt
ves
vesancy
vescours
vesines
vesles
veslud
vessem
vessin
veste
vestiengstad
vestigen
vestigieng
vestihen
vesting
vestinggordel
vet
veteraonse
vette
vetulicolia
vetveugel
veu
veugd
veugel
veugelbekdier
veugels
veugelsoo
veugelsoorten
veugelwaerde
veugelwjerde
veuhels
veuilly
veul
veur
veural
veurdre
veuren
veurjaor
veurne
veurtaon
veyle
vezanger
vezaponin
vezilly
vi
via
vic
vice
vicente
vichel
vichy
vicq
victor
victoria
victoriae
victoriamee
victory
vida
vidal
video
vie
viegeboo
viel
viele
vielen
vieln
viels
viendt
vieng
vienge
vienger
viengers
vier
vierdaagse
vierdaegse
vierde
vierden
vierduuzend
viere
vieren
vierhouten
viering
vierkant
vierkante
viern
vieronderd
vierpoo
vierstorm
viert
viertoren
viertorens
viertorentje
vierzy
vies
vietnam
vietnamees
vietnamese
vieu
vieure
vieux
viever
vievers
vieville
view
viffort
vigneux
vii
viif
viii
vijan
vijand
vijandelijke
vijandelijkheden
vijanden
vijandig
vijandiger
vijf
vijftig
vikiengen
vikingen
vila
vilfredo
vilhain
villa
villars
ville
villebois
villebret
villefranche
villemontoire
villemotier
villemus
villeneuve
villequier
villeret
villereversure
villers
villes
villette
villiers
villieu
villon
vilnius
vilvoo
vilvoorde
vin
vincent
vincenzo
vinci
vincy
vind
vinde
vinden
vindplekke
vindt
vineux
vingre
vinn
vinnen
vint
vintje
vinvis
violaine
viool
viplaix
vir
virens
virescens
virginia
viriat
viridis
virieu
virignin
virton
virus
viry
vis
vise
vishal
visit
vismijn
visscher
visse
vissen
visser
visserie
visserieje
vissermannen
vissers
vissershoek
vissersmonument
vissersplekke
vissersplekken
vissersschepen
vissersschip
vissersschuut
vissloep
vistula
vita
vitamine
vitesse
vith
vitray
vivaise
vivaro
vivie
vivieres
vivo
vivras
vl
vla
vlaams
vlaamse
vlaanderen
vladimir
vlaeke
vlaekebruggen
vlaemiengen
vlaemingen
vlaems
vlaemse
vlaenderen
vlaerdienge
vlaerdingen
vlag
vlagge
vlahhe
vlak
vlakbie
vlake
vlakke
vlakt
vlakte
vlaktes
vlaming
vlamingen
vlamme
vlammen
vlams
vlamsche
vlaomieng
vlaominge
vlaomingen
vlaoms
vlaomse
vlaomsgezinde
vlaonder
vlaondere
vlaonderen
vlas
vld
vledder
vlee
vleis
vlekke
vlekken
vleugel
vleugelpunten
vleugels
vleuhels
vleut
vlie
vliedberg
vliedbergen
vlieg
vliege
vliegen
vliegend
vliegende
vliegenier
vliegramp
vliegt
vliegtuig
vliegtuug
vliegtuugen
vliegveld
vliehen
vliehende
vliehenpikker
vliehenvanger
vliehenvangers
vlieland
vliemen
vlies
vliet
vlijmen
vlissienge
vlissiengers
vlissiengezie
vlissiengse
vlissingen
vlissingse
vloandern
vloed
vloedstroo
vloeibaar
vloer
vloo
vloog
vloot
vlore
vlot
vlote
vluchen
vlucht
vluchte
vluchteliengen
vluchtelingen
vluchten
vluchtte
vlug
vm
vn
vo
voa
voader
vobbilden
vobeeld
voc
vocal
vochen
vocht
vochte
vochten
vochtig
voe
voebal
voebalclub
voebalclubs
voeballer
voebalploeg
voebalvereniging
voebee
voeda
voedienge
voediengsstoffen
voedsel
voegsel
voegwoo
voegwoorden
voegwoordvervoegienge
voeheen
voekom
voekomm
voel
voelde
voele
voelen
voelende
voemaelihe
voen
voeng
voeplantieng
voer
voerde
voere
voeren
voerende
voern
voertuug
voet
voetbal
voetbalclub
voetbalde
voetballer
voeten
voetgangers
voetius
voetveer
vog
vogel
vogelaar
vogelwaarde
voggende
voggens
vogges
voh
voharies
voice
voir
vojaer
vokomt
vol
voldoende
voldoene
voldoewene
volendam
volg
volgde
volgden
volge
volgen
volgend
volgende
volgenden
volgens
volges
volgorde
volgt
volhen
volhende
volhens
volhorde
volk
volken
volkenbond
volkerak
volkerakdam
volkerdurp
volkert
volksaerd
volkscultuur
volksgezondeid
volkskammer
volkskrant
volkslied
volksliederen
volksliedjes
volksmond
volkspartij
volksstammen
volkstelling
volksverhael
volksverhaelen
volksverhalenbank
volksverheal
volksvertegenwoordigers
volksvertehenwoordiher
volkswaegen
volkswagen
volle
volledig
volledige
vollege
vollenhoven
volmae
volognat
volonne
volop
volt
volta
voltaire
voltooid
voltooide
voltooiing
volume
volution
volwasse
volwassen
volx
vomaelig
vomaelige
von
vond
vonde
vonden
vong
vonge
vongnes
vonn
vonnas
vonnen
vonst
vonsten
voo
voogd
vooheen
vook
voor
voora
vooraf
vooral
vooraol
voorbeeld
voorbeelden
voorbereid
voordat
voordeel
voore
voorganger
voorgenomen
voorgevel
voorging
voorgoed
voorgrond
voorhanger
voorheen
voorhoeve
voorhoute
voorjaer
voorkant
voorkeur
voorkomen
voorkommen
voorkommene
voorkomt
voorland
voorlopers
voorlopig
voorlopige
voormaelig
voormaelige
voormaelihe
voormalig
voormalige
voormalihe
voorman
voormaolige
voormaolihe
voornaamste
voornaem
voornaemelek
voornaemelijk
voornaemste
voornaomelijk
voorne
voorop
voorouwers
voorraed
voorst
voorstel
voorstraete
voort
voortaan
voortdurend
voortgekomme
voortgezet
voorthuuzen
voortplantienge
voorts
voortvloeiende
vooruit
vooruitgang
voorwaardelijke
voorwaarden
voorwaarts
voorwaerden
voorzieje
voorziejene
voorzien
voorzieningen
voorzitter
voozieningen
vor
voral
voraol
vore
voren
vorges
vorige
vorigen
vorkomm
vorkstaertmee
vorm
vorme
vormt
voroal
vorreg
vors
vorst
vorsten
vorstendom
vortan
vortaro
voruut
vorzieninge
vos
vosges
vosmear
vosmeer
vosse
vossemaer
vossemaers
vossemeer
votiefachtig
voulpaix
vous
voussac
voux
vouzance
voyager
voyenne
vozelle
vraagt
vrach
vracht
vrachtriejer
vrachtschip
vrachtwaegen
vrachtwaegun
vrachtwaehen
vraeg
vraege
vragen
vre
vrede
vree
vreed
vreemd
vreemde
vreemdelingen
vrees
vregny
vremd
vremde
vres
vresse
vreugde
vrie
vriedag
vriee
vriegemaekt
vriehee
vrieheid
vrieheidsstrijder
vrieje
vriend
vrienden
vriendin
vriendschap
vries
vriespunt
vriestad
vriestaet
vriewe
vriewel
vrij
vrijberghe
vrije
vrijgelaten
vrijheid
vrijwel
vroeg
vroege
vroeger
vroegere
vroegur
vroehe
vroeher
vroehere
vrogen
vrom
vromme
vrommekomme
vrongele
vroog
vroom
vrou
vrouw
vrouwe
vrouwekerke
vrouwelijk
vrouwelijke
vrouwelike
vrouwen
vrouwenlexicon
vrouwenpolder
vrouweverbluuf
vrouwtje
vrouwtjes
vroz
vrt
vruchen
vrucht
vruchtbaer
vruchtbaere
vruchte
vruchten
vry
vs
vu
vuelta
vught
vuillery
vulbas
vulkanen
vulkaon
vulkaonen
vulkaonische
vull
vurke
vurm
vurmde
vurme
vurmen
vurmende
vurmienge
vurmt
vurnaemelijk
vurral
vuuf
vuufde
vuufden
vuufduuzend
vuufee
vuufonderd
vuuftien
vuuftiende
vuuftiene
vuuftig
vuul
vuule
vuulte
vuur
vuurland
vuurtoren
vuurtorens
vuurwapens
vuuve
vv
vvd
vvs
vvv
w
wa
waa
waaien
waal
waalse
waaltje
waar
waara
waaraan
waarbie
waarbij
waard
waarde
waardeu
waardeur
waardoor
waare
waargenomen
waarheid
waarin
waarmee
waarna
waarnemingen
waarom
waaronder
waaronger
waarop
waarschijnlijk
waaruit
waarvan
waas
waast
wacht
wachte
wachtebeke
wachten
wachter
wad
wadden
waddeneiland
waddeneilanden
waddenhebied
waddenzee
wae
waedeu
waedhoeke
waefel
waegen
waegeningen
waegens
waeges
waels
waelse
waeltje
waenskinders
waepen
waepens
waepenstilstand
waer
waera
waerd
waerde
waerden
waerdeur
waerdigied
waere
waereid
waereld
waerelderfgoedlieste
waerelderfhoed
waereldkampioenschap
waereldmart
waereldoo
waereldoorlog
waereldoorloohe
waereldriek
waerelds
waereldwied
waeren
waerenomen
waergenomen
waerin
waermee
waern
waerna
waernee
waernemiengen
waerom
waeronder
waeronger
waerop
waerschuwen
waervan
waes
waesland
waeter
waetergeuzen
waeterinsect
waeterland
waeterlands
waeterleiding
waeterlinie
waeterloo
waetermeule
waeteroppervlak
waeteroverlast
waeterpeil
waeterpoorte
waeters
waeterschap
waeterschappen
waetersnoo
waetersnood
waetersnoodramp
waetersport
waeterstaat
waeterstaet
waeterstaetkundig
waeterstan
waeterstand
waetertoren
waeterval
waeterveugel
waeterveugels
waeterwegen
waeterwegt
waevan
wageningen
wagheven
wagner
wahieroa
wake
wakker
wal
walacria
walburg
walcher
walchere
walcheren
walchern
walchers
walcherse
walchren
wales
walk
wallace
wallen
wallon
wallonie
walon
walrussen
walso
walt
walter
walther
walvis
walvisachtigen
walvisbaai
walvissen
walvisvaerders
wan
wandel
wandeling
wandelpad
wanne
wanneer
wannes
wannseeconferentie
want
wao
waog
waoien
waol
waols
waolse
waolwiek
waopen
waopenstilstand
waor
waorbie
waore
waoren
waorin
waorn
waoronder
waos
waoter
waoterto
waovan
waover
wapen
wapens
war
warchaupact
ward
ware
waremme
waren
warendorf
warm
warmte
warmterecord
warn
warner
warns
warren
warschau
warschaupact
warschienlijk
warschijnlijk
warschijnluk
was
waschappel
waschappeller
waschappelse
washington
waspik
wasschappel
wasschappelaers
wasschappels
wasschappelse
wasse
wassen
wassenaer
wassigny
wast
waste
waster
wat
watch
water
waterlandkerkje
waters
waterschappen
watersnood
waterstof
watertoren
watervragen
watigny
watvoe
way
waylon
waz
wazze
wazzen
we
weare
weareld
weareldoo
weareldoorlog
wearelt
weatersnoodramp
web
weber
weblog
webplekke
website
webstek
webster
wederom
wedstrijd
weduw
weduwe
weduwen
wee
weeg
weegbrugge
weegt
weehen
week
weeke
weekend
weekmart
weer
weera
weeran
weerbie
weerbij
weerdeu
weerdeur
weergegeven
weerin
weermee
weerna
weernae
weeronger
weerop
weert
weervan
wees
weesp
weesper
weet
weete
weeze
weezen
weg
wege
wegen
wegens
weges
wegt
wegverbinding
wehen
wehhetjes
wehrmacht
wei
weie
weig
weigerde
weigerden
weij
weilan
weimar
weineg
weinig
weinige
weinihe
weinug
weir
weire
weke
weken
wekerom
wel
welcome
weles
welgelegen
welk
welke
welken
welkom
welle
welles
wellicht
wellington
welsh
welt
welvaart
welvaerend
welvaerende
welvaert
welvaort
welzijn
wemeldinge
wen
wenceslas
wenckebach
wendy
wenen
wens
wense
wensen
wenum
wer
werd
werden
were
wereld
werelddee
werelddeel
werelderfgoed
werelderfgoedlieste
wereldkampioen
wereldkampioenschap
wereldkampioenschappen
wereldlijke
wereldoo
wereldoorlog
wereldoorlogen
wereldwied
wereldwieje
wereldwiid
wereldwonderen
wereldwonders
werendieke
werk
werke
werken
werkendam
werkende
werkhaevene
werkieng
werknemers
werkng
werkplekke
werkt
werkte
werkten
werkwoord
werkwoorden
werkzaamheden
werm
werme
wermte
werner
werp
werpen
werre
werrek
werreke
werschienlek
werschienliek
werschienlijk
wervers
wervik
wes
wesdurpe
weskappel
wessen
west
westdorpe
westdurp
weste
westelek
westeleke
westelijk
westelijke
westelik
westelukke
westen
wester
westerbeke
westerbork
westerkwartier
westerlauwers
western
westers
westerschelde
westerscheldetunnel
westerschouwen
westerse
westerveld
westerwolde
westfaolen
westfield
westflakkees
westflinge
westfries
westfront
westhove
westkant
westkante
westkapelle
westkapellecultuurbehoud
westkerke
westkust
westminster
westn
westoek
westschouwe
weststelliengwerf
weststrate
westvoorn
westvoorne
westvore
wesvore
wet
wete
weten
wetenschap
wetenschappelijke
wetenschappen
wetenschappers
wetgevende
wethevende
wethouder
wetouwer
wett
wetten
wettin
weumelienge
weumelinge
weun
weunde
weunden
weune
weunen
weunende
weunhuus
weuningen
weunkern
weunn
weunplekke
weunsdag
weunt
weunuus
weunwieken
weze
wezen
wezene
wezenlijk
whakararo
whaki
when
which
whig
whirima
white
who
wi
wibaut
wibie
wic
wide
wideur
width
wie
wiechen
wied
wiedemee
wieg
wiege
wiegerd
wiek
wieken
wiekt
wiel
wielle
wielrenner
wielrenners
wien
wienk
wienkel
wienkele
wienkels
wienkeltje
wienkeltjes
wiens
wier
wierd
wierde
wiere
wieren
wieriengerwaerd
wieringen
wieringermeer
wiern
wierre
wierren
wiert
wierum
wies
wiesbaden
wiesel
wiest
wieze
wiezen
wig
wigge
wiggevalle
wij
wijer
wijers
wijf
wijk
wijke
wijn
wijngaardstraat
wijst
wijting
wijze
wiki
wikipedia
wikisource
wil
wild
wilde
wilden
wilder
wilders
wilhelm
wilhelmina
wilhelmus
wilhem
will
willaert
wille
willeboordse
willem
willemina
willems
willen
william
williams
willibrord
willibrordbiebel
willibrordusbasiliek
willibrorduskerk
willie
willigen
willink
willis
willoughby
willy
wils
wilson
wilsonia
wilt
wim
wimee
wimie
wimy
win
winae
wind
windeburg
winden
windhoos
windkracht
windlust
windmeule
windmeules
windstoo
windturbine
windurgel
winkel
winkelcentrum
winkels
winkler
winnaer
winnaers
winne
winnen
winston
winsum
wint
winter
winterklee
winters
winterspee
winterswiek
wiplala
wir
wira
wiran
wirin
wirnae
wironder
wironger
wirop
wirover
wirrin
wiruut
wis
wisconsin
wiskunde
wiskundige
wiskundihen
wisse
wissekaerke
wissekerke
wissele
wissen
wissignicourt
wist
wiste
wisła
wit
witbrauwliesterhaoie
with
withat
witkee
witoe
witoo
witsanukam
witt
witte
wittem
witten
witter
wittig
wivan
wizze
wjereld
wk
wo
woa
woaby
woapn
woar
woarn
woasland
woater
woavan
woe
woelderen
woensdag
woensdrecht
woer
woerden
woest
woestduyn
woeste
woestijn
woiwodschap
woiwodschapp
wojciech
wojewo
wol
wolde
wolden
wolf
wolfersdiek
wolfert
wolfgang
wolga
wolke
wolken
wolle
wolphaartsdijk
woluwe
wolvega
won
wonder
wonders
wonen
woningen
woo
wood
woods
woon
woonde
woonden
woont
woord
woordeboekn
woorden
woordenboek
woordenschat
woordgeslachten
woordje
woore
woort
wopke
wor
word
worden
wordn
wordt
works
workum
world
worldcat
wormerland
worn
worre
worren
worsteling
worstelteam
wort
wortels
wos
wosburg
wostburg
woste
wou
woud
wouden
woudrichem
woue
wouen
wouw
wouwe
wraak
wrak
wraok
wrocław
wrong
wse
wu
wudder
wuk
wulder
wullem
wullemiene
wullemina
wulleminadurp
wulleminapolder
wullempje
wullemsen
wullemstad
wulln
wulpe
wult
wunnir
wurden
wurft
wurmen
wurvelkolom
wushu
wuuf
wuufje
wuufjes
wuven
www
wyoming
władysław
x
xang
xaver
xavier
xenotriccus
xenoturbella
xenoturbellida
xhosa
xi
xiaozong
xii
xiii
xima
xiv
xolmis
xploiteerd
xv
xvi
y
ya
yahia
yair
yap
yasin
yasser
ye
year
yener
yerseke
yese
yesh
ygrande
yisrael
yitzhak
yn
yoritsune
york
yorkse
yorre
you
young
your
youtube
ys
yuan
yuit
yup
yvonne
yyyy
yzeure
z
za
zaahe
zaak
zaalf
zaalfs
zaamslag
zachjes
zachjesan
zacht
zachte
zadkine
zaed
zaeden
zaege
zaek
zaeke
zaeken
zael
zaemen
zaete
zaeterdag
zaeventem
zag
zagen
zagge
zaglossus
zagreb
zahabi
zak
zaken
zakk
zakke
zakken
zal
zalm
zaltbommel
zambia
zancy
zand
zandbank
zanddiek
zanderig
zandkree
zandkreeke
zandoen
zandoenders
zandplaete
zandplaeten
zandstee
zandstraat
zandvoort
zandwoestijn
zandzakken
zang
zanger
zangeres
zangers
zangveugel
zangveugels
zaok
zaoken
zaomslag
zaons
zaot
zaoten
zaponin
zardari
zat
zatte
zavala
zaventem
zawahiri
zdene
ze
zea
zealand
zealf
zealfs
zear
zeca
zee
zeediek
zeedieken
zeee
zeeker
zeeland
zeelandbrug
zeelandia
zeeman
zeemiene
zeer
zeet
zeeu
zeeuw
zeeuwen
zeeuws
zeeuwsch
zeeuwsche
zeeuwse
zeeven
zeg
zegden
zegelrienk
zegen
zegene
zegg
zegge
zeggen
zeggn
zegt
zegveld
zehh
zehhe
zei
zeid
zeide
zeiden
zeie
zeien
zeije
zeil
zeilen
zeist
zeit
zeiten
zeker
zekere
zekers
zel
zelande
zelden
zeldzaem
zeldzaeme
zeledonia
zelf
zelfbestuur
zelfde
zelfmoord
zelfmoordterrorist
zelfportret
zelfs
zelfstandeg
zelfstandege
zelfstandig
zelfstandige
zelfstandihe
zellef
zelles
zelluf
zellufstandige
zeluf
zelve
zelzaote
zen
zendt
zenet
zenuw
zerbeidzjaens
zerbeidzjan
zeres
zerkerreke
zery
zes
zesdaegse
zesde
zeskante
zesse
zessel
zesteg
zestie
zestien
zestiende
zestienden
zestig
zet
zetel
zetels
zetelt
zetelverdee
zetelverdeling
zett
zette
zetten
zettienge
zeuge
zeum
zeumer
zeumerklee
zeumers
zeumerspelen
zeun
zeune
zeunen
zeven
zevenaer
zevende
zevene
zeventien
zeventiende
zeventienden
zeventienjarige
zeventig
zevve
zgn
zhao
zhezong
zhou
zhujiworld
zi
ziat
zich
zichbaer
zichem
zicht
zichtbaer
zichzelf
zie
zied
ziede
ziee
zieje
ziejen
ziejene
ziek
ziekant
ziekbed
zieke
zieken
ziekenhuis
ziekenhuus
ziekenuus
ziekte
ziel
ziele
zielen
zien
ziene
zienge
ziengen
ziengt
zienken
zienkene
zienkt
ziepe
zierikzee
zierikzeesche
ziet
zieu
ziezo
zig
ziin
zij
zijden
zijdestaert
zijdestaerten
zijlstra
zijn
zijnde
zijne
zijnen
zijpe
zijt
zillieu
zilly
zilver
zilvere
zilveren
zilverreiher
zilverreihers
zimbabwe
zimmerius
zimmermanntelegram
zin
zingen
zingt
zinn
zinne
zinnen
zinnetjes
zinsbouw
zinsdee
zionisme
zionist
zionisten
zionistisch
zionistische
zit
zitplekken
zitt
zitte
zitten
zittieng
zitting
zl
zo
zoa
zoals
zoan
zoas
zocht
zochte
zoda
zodan
zodanig
zodat
zodoende
zodra
zoe
zoek
zoeke
zoeken
zoekt
zoektocht
zoen
zoet
zoete
zoetelande
zogeheten
zogenaamde
zogenaemde
zohenaemde
zoiets
zokke
zolang
zolder
zomae
zomer
zon
zona
zondaer
zondaers
zondag
zondagaeven
zondags
zonde
zonden
zonder
zone
zonen
zong
zonger
zonk
zonnemaere
zonnemaire
zonnestraal
zonstrhoofd
zoo
zoogdier
zoogdieren
zoolang
zoom
zoon
zooropa
zootje
zoovarre
zoque
zorgen
zot
zou
zouden
zoue
zounder
zout
zoute
zoutelande
zoutman
zouw
zouwe
zovarde
zovee
zoveel
zover
zowat
zowe
zowel
zs
zu
zuch
zudelijk
zudelijke
zudelijkste
zudelike
zudeliker
zuden
zudereiland
zuderzee
zuid
zuiddorpe
zuidelijke
zuiderburg
zuiderdyk
zuidgrens
zuidhof
zuidvliet
zuidzande
zuidzijde
zuilen
zuje
zujelijke
zujelike
zujen
zujerzee
zukke
zulder
zulle
zullen
zult
zulver
zulvere
zulveren
zulvermee
zum
zummer
zun
zundert
zunig
zunne
zunneschien
zunnestelsel
zunnevlekkn
zunnewind
zur
zurg
zurgde
zurgden
zurge
zurgen
zurgende
zurgt
zurhen
zurrikzee
zus
zuster
zusters
zusterstad
zustersteee
zutphen
zuu
zuud
zuudaraobisch
zuude
zuudelijk
zuudelijke
zuudelike
zuuden
zuuderlicht
zuudhaevenpoorte
zuudhorn
zuudkant
zuudkante
zuudland
zuudn
zuudof
zuudoo
zuudpole
zuudpoo
zuudpool
zuudurpe
zuudwes
zuudwessen
zuudwest
zuudwesten
zuudwolde
zuudzee
zuudzieje
zuue
zuuen
zuuj
zuujelek
zuujeleke
zuujelijk
zuujelijke
zuujen
zuujerzee
zuujn
zuur
zuurstof
zuuszande
zuuver
zuver
zuvere
zw
zwaar
zwaegdiek
zwaenen
zwaer
zwaerd
zwaerden
zwaerder
zwaere
zwaeren
zwaergewonde
zwaerste
zwaertekracht
zwak
zwake
zwakke
zwaoien
zwaor
zwaorder
zwaore
zwart
zwarte
zwartebroek
zwarten
zwartewaeterland
zwartkee
zwartkopmee
zwartoo
zwe
zweden
zwee
zweed
zweeds
zweedse
zweefvliegtuugen
zweerte
zwembad
zwemer
zwemm
zwemme
zwemmen
zwemvliezen
zwermen
zwerven
zweven
zwi
zwiendrecht
zwiendrechtse
zwijndrecht
zwijndrechtse
zwin
zwitserduuts
zwitserland
zwitsers
zwitserse
zwolle
zy
zyn
zz
{
|
}
~

£
«
­
°
±
²
³
´
¹
»
¼
½
¾
¿
×
ær
ðir
đie
đo
ı
ło
łobez
łobzie
œuilly
ɡo
ɦ
ɪ
ˈ
ˌ
ː
̀
́
̂
̃
̄
̆
̇
̈
̉
̊
̋
̌
̑
̓
̔
̛
̣
̦
̧
̨
͡
α
γ
ν
ο
π
ς
χ
в
и
н
і
ְ
ַ
ָ
ֹ
ּ
ׁ
א
ד
ו
ם
ש
ا
الا
ب
بن
ة
ت
ر
ل
َ
ِ
ّ
ْ
ٔ
ٕ
ं
क
घ
ज
त
न
प
भ
य
र
ल
स
ा
ि
ी
े
ो
्
ং
ক
ঢ
দ
ব
ল
শ
া
ে
ต
บ
ร
ส
อ
ั
ิ
ี
ุ
์
῾
‎
‏
‑
–
—
‘
’
“
”
„
‟
†
…
⁴
€
↑
→
↔
↷
③
④
⑦
☾
♇
⯓
⺀
⺄
⺆
⺈
⺊
⺌
⺕
⺝
⺸
⺼
⿰
⿱
⿲
⿳
⿴
⿵
⿶
⿷
⿸
⿹
⿺
⿻
〢
コ
ユ
㇁
㇂
㇄
㇇
㇈
㇉
㇓
㐁
㐄
㐅
㐌
㐫
㐬
㐭
㐮
㐱
㑒
㒵
㒸
㒼
㓁
㓞
㔾
㕛
㕣
㖾
㘝
㚅
㚇
㚔
㚘
㝉
㝡
㝴
㝵
㞋
㞢
㞷
㠩
㠭
㠯
㡀
㡭
㡿
㢲
㢴
㣇
㣺
㥯
㪅
㫄
㫐
㫒
㫺
㬅
㬎
㬥
㬰
㲋
㳄
㷠
㸒
㸚
㸦
㼌
㼲
㽞
㿟
䀠
䂞
䍃
䏍
䒑
䖍
䖒
䖝
䖵
䙴
䚻
䜌
䝿
䡛
䧹
䪞
一
丁
丂
七
丄
丅
丆
万
丈
三
上
下
丌
不
与
丏
丐
丑
专
且
丕
世
丘
丙
业
东
丞
丢
丣
两
严
並
丨
丩
个
丫
丬
中
丮
丰
丱
串
丵
丶
丷
丸
丹
为
主
丽
丿
乀
乂
乃
久
乆
乇
么
义
之
乌
乍
乎
乏
乐
乑
乔
乖
乗
乘
乙
乚
乛
乜
九
乞
也
习
乡
乳
乾
亀
亅
了
亇
予
争
事
二
亍
于
亏
亐
云
互
亓
五
井
亘
亚
亜
亞
亟
亠
亡
亢
交
亥
亦
产
亨
亩
享
京
亭
亮
亯
亰
亲
亳
亶
亷
人
亻
亼
亾
仁
今
介
仌
从
仐
仑
仒
仓
仕
他
付
仝
代
令
以
任
企
伊
伏
伐
休
会
伯
但
位
何
佘
余
作
佥
使
來
侈
侌
侖
侯
侵
便
保
俞
信
修
倉
倍
候
倠
備
僉
僕
儿
兀
允
兂
元
兄
充
兆
兇
先
光
兊
克
兌
免
兑
兒
兓
兔
党
兜
兟
入
全
兩
兪
八
公
六
兮
兰
共
关
兵
其
具
典
兹
兼
冀
冂
冃
冄
内
冈
冉
冊
冋
册
再
冎
冏
冐
冒
冓
冖
冗
冘
军
农
冝
冡
冥
冫
冬
冷
几
凡
凢
凵
凶
凷
凸
凹
出
函
凾
刀
刁
刂
刃
刄
刅
分
切
刍
刑
刕
刖
列
刘
则
初
別
利
别
到
制
刺
則
削
剌
前
剡
剽
劉
力
功
加
劦
助
劫
劳
劵
勃
勇
勉
勒
動
務
勞
勤
勹
勺
勻
勾
勿
匀
匂
包
匆
匈
匊
匋
匍
匕
化
北
匚
匝
匡
匪
匱
匸
匹
区
医
匽
匿
區
十
卂
千
卄
卅
卆
升
午
卉
半
卌
华
卑
卒
卓
单
卖
南
卜
卝
卞
占
卡
卢
卣
卤
卦
卩
卪
卬
卯
印
危
即
却
卵
卷
卸
卻
厂
厃
厄
历
厈
厉
厌
厓
厘
厚
原
厤
厥
厨
厭
厲
厶
厷
厸
去
厼
厽
叀
参
參
叅
又
叉
及
友
双
反
叐
发
叒
叔
叕
取
受
叚
叜
叟
口
古
句
另
叩
只
召
可
台
叱
史
右
叵
号
司
叹
吂
各
吅
合
吉
吊
吋
同
名
后
吏
向
吕
君
吝
吞
否
含
启
吳
吴
吹
吾
呂
呆
呈
告
员
呙
周
命
咅
和
咎
咠
咢
咨
咸
咼
哀
品
哉
員
哥
哲
唐
商
啇
問
啚
啬
啻
善
喜
喬
單
喿
嗇
噩
嚴
囊
囗
囘
囙
囚
四
回
囟
因
囧
囬
困
囱
囷
固
国
圂
圅
國
圍
圓
土
圡
圣
圥
在
圭
地
圶
圼
坐
坒
坚
坴
垂
垔
垚
埀
埋
埶
執
基
堂
堅
堆
堇
堯
塞
墨
壘
士
壬
壯
声
壳
壴
壹
壺
壽
夂
处
夅
夆
备
夊
夋
夌
复
夏
夒
夕
外
夗
夘
多
夜
夢
大
夨
天
太
夫
夬
夭
央
失
夲
头
夷
夸
夹
夻
夾
奂
奄
奇
奈
奉
奎
奏
奐
契
奓
奔
奚
奞
奠
奢
奥
奭
女
奴
奻
好
如
妄
妙
妟
妥
妻
妾
姑
委
姜
威
娄
婁
婴
嬰
嬴
子
孑
孔
孕
孖
字
存
孚
孛
孝
孟
季
孤
学
孫
孱
學
宀
宁
宂
它
宅
宇
守
安
宋
完
宏
宓
宗
官
定
宛
宜
宝
客
宣
室
宮
宰
害
家
容
宾
宿
寄
寅
密
富
寒
察
寧
審
寫
寬
寮
寸
对
寺
寻
寽
対
寿
封
尃
射
将
將
專
尉
尊
尋
尌
對
小
少
尒
尓
尔
尖
尗
尚
尞
尢
尣
尤
尧
尨
尭
就
尸
尹
尺
尻
尼
尽
尾
尿
局
居
屈
屋
屎
屏
屑
展
屖
屚
属
屠
屡
屬
屮
屯
屰
山
屵
屾
岁
岂
岑
岡
岩
岳
岸
峯
島
崇
崑
崔
崖
崙
崩
嵬
嶲
巂
巛
川
州
巟
巠
巢
巤
工
左
巧
巨
巩
巫
差
己
已
巳
巴
巷
巸
巽
巾
巿
帀
市
布
希
帚
帛
帝
带
師
席
帶
常
干
平
年
幵
并
幷
幸
幺
幻
幼
幽
幾
广
広
庄
床
底
店
庚
府
度
庫
庭
庶
康
庸
廉
廌
廛
廣
廩
廴
延
廷
建
廾
廿
开
弁
弃
弄
弇
弋
式
弓
弔
引
弗
弘
弜
弟
弥
弦
弱
張
強
强
彊
彌
彎
彐
彑
当
彔
录
彖
彗
彡
形
彥
彦
彧
彭
彳
役
彼
往
待
律
徒
得
徙
從
復
微
徵
心
忄
必
忌
忍
志
忝
忠
忩
快
念
忽
忿
思
怠
急
怱
恆
恒
恩
恭
息
悉
患
悤
悲
悶
惠
惡
惢
愁
愈
意
愛
感
慈
慧
慮
憂
憲
應
戀
戈
戉
戊
戋
戌
戍
戎
成
我
戒
戔
或
戚
戠
戢
截
戲
戶
户
戹
戼
戾
房
所
扁
扇
手
扌
才
打
托
执
承
折
拉
拜
拿
掌
推
提
摩
支
攴
攵
收
攸
改
放
政
敄
敏
敕
敖
敗
教
敝
敞
敢
散
敦
敫
敬
数
敷
數
斂
文
斉
斊
斗
斤
斥
斩
斬
斯
新
方
於
施
斿
旁
旋
族
无
旡
既
旣
日
旦
旧
旨
早
旬
旱
旲
时
旾
昆
昇
昌
昍
明
昏
易
昔
昗
昜
星
春
昬
是
昱
昴
昷
時
晃
晋
晏
普
景
晶
智
暑
暴
曇
曩
曰
曲
曳
更
曷
書
曹
曼
曾
替
最
朁
會
月
有
朋
服
朔
朕
朗
望
朝
木
朩
未
末
本
札
朮
术
朱
朵
朶
朿
杀
杏
杜
束
条
来
東
杲
杳
松
析
林
枚
果
枝
枲
枼
某
柔
查
柬
柰
柴
栗
桀
桑
桼
梁
條
梟
梨
棘
棠
棥
森
楚
業
楽
榮
樂
樊
欠
次
欣
欮
欲
欶
欽
款
歆
歇
歛
止
正
此
步
武
歨
歪
歮
歯
歰
歲
歴
歷
歸
歹
歺
死
殳
段
殷
殸
殹
殺
殻
殿
毋
毌
母
每
毒
比
毕
毚
毛
毳
氏
氐
民
气
氣
水
氵
氶
氷
永
氺
氾
求
汝
汞
江
沃
沓
沙
沝
泉
法
波
泣
泥
泰
洛
洪
活
派
流
浦
浪
浮
淡
淮
清
渚
渠
湯
滿
漸
火
灬
灭
灰
灵
灷
炅
炎
炏
炗
炙
炭
為
烈
烏
烝
焉
無
焦
焱
然
煞
熊
熏
燕
營
燮
爪
爫
爭
爯
爰
爱
爲
爵
父
爻
爽
爾
爿
片
牙
牚
牛
牜
牟
牢
牧
牪
牽
犀
犬
犭
犮
狂
狄
狊
独
狺
猋
猒
猪
献
獻
玄
率
玉
王
玟
玨
珎
班
琴
瑟
瑩
瓜
瓦
甘
甚
生
産
用
甫
甬
田
由
甲
申
电
甶
男
甸
甹
画
甾
畀
界
畏
畐
留
畜
畟
畢
畧
畨
番
畫
異
畱
當
畺
畾
疊
疋
疌
疑
疒
疾
癶
癸
癹
登
發
白
百
皀
皃
的
皆
皇
皋
皐
皕
皮
皷
皿
盃
盆
盇
盈
益
盍
盎
监
盒
盖
盛
盡
監
盤
盧
目
直
相
盾
省
眇
眉
看
眔
眞
真
眷
眼
眾
着
睘
睪
睿
瞏
瞢
瞿
矍
矛
矞
矢
矣
知
矦
短
石
破
碎
磊
磨
示
礻
礼
祟
票
祭
禀
禁
禸
禹
禺
离
禽
禾
禿
秀
秃
秉
秋
科
秝
秦
移
稟
穀
穌
穴
究
穹
空
穿
突
窄
窒
立
竒
竜
竝
竟
章
童
竹
笑
笠
筆
等
答
箕
算
箴
節
篤
篭
米
粉
粛
粟
粤
粦
粲
糞
糸
糹
系
約
納
素
索
紫
累
細
絜
絫
絲
維
綿
縣
繇
纍
纟
缶
网
罒
罔
罕
罗
罙
罡
罢
罪
署
罷
羅
羊
羌
羍
美
羔
羕
羗
羞
羡
羣
群
義
羲
羸
羽
翁
翏
習
翕
翟
翠
翼
老
耂
考
者
耆
而
耎
耑
耒
耳
耴
耶
耷
聂
聊
聖
聚
聶
聿
肀
肃
肅
肉
肖
肙
肥
肩
肯
育
肴
胃
背
胡
胥
能
脊
脩
膚
臣
臤
臧
自
臬
臭
臯
臱
至
致
臺
臼
臽
臾
臿
舀
舂
舄
與
興
舉
舌
舍
舛
舜
舞
舟
般
艮
良
色
艸
艹
艾
芒
芔
芬
芮
花
芳
芺
芻
苔
苗
苟
若
苦
英
茶
茸
荅
草
荒
荣
荼
莆
莧
莫
莽
菆
菊
菐
華
萬
落
葉
著
葛
董
葵
蒙
蒦
蒼
蓋
蓬
蓺
蔑
蔡
蕉
蕭
薄
薛
薦
薰
藍
藏
藥
蘭
虍
虎
虐
虒
虔
處
虖
虗
虘
虚
虛
虜
虞
虫
虽
蚤
蚩
蜀
蜜
蟲
蠡
血
行
衍
衛
衣
衤
表
衮
衰
袁
袞
褭
褱
襄
襾
西
覀
要
覃
見
規
覓
覧
親
覽
见
角
解
言
訁
訇
計
詹
誩
諸
讠
谷
豆
豈
豊
豐
豕
豖
豙
象
豦
豩
豪
豸
貇
貝
貞
貟
負
貢
貧
貪
貫
責
貳
貴
買
費
賁
資
賈
賏
賓
賔
賛
賞
賢
賣
質
賴
贊
贝
贡
责
贯
贲
贵
赖
赞
赤
赦
走
越
足
路
蹇
身
躬
車
軍
軎
軟
輦
车
辛
辜
辟
辥
辰
辱
農
辵
辶
边
达
过
近
连
迷
追
退
送
逆
逐
通
速
造
逢
連
逮
進
遀
遂
過
道
達
遣
適
遷
遺
邊
邑
邕
那
邦
邪
郎
部
郭
都
鄉
酉
酋
配
酓
釆
采
里
重
野
量
金
釒
錢
钅
長
镸
长
門
閃
閉
開
閏
閑
閒
間
閔
閵
閻
闌
门
间
闷
阑
阜
阝
阿
降
陳
隆
隊
隋
隡
隨
隱
隶
隹
隺
隻
隼
隽
难
雀
雁
集
雈
雋
雍
雐
雔
雙
雚
雜
雝
離
難
雨
雩
雪
雲
零
雷
需
霍
霜
霝
霞
霸
靈
靑
青
非
靡
面
靣
革
韋
韦
韭
韯
韱
音
頁
頃
項
須
頗
頡
頻
顛
页
風
风
飛
飞
食
飠
養
饣
首
香
馬
馮
駦
马
骨
高
髟
鬥
鬯
鬲
鬼
魚
魯
鮮
鱼
鲁
鳥
鳳
鸟
鹵
鹿
麃
麗
麥
麦
麻
黃
黄
黍
黎
黑
黒
黨
黹
黽
黾
鼎
鼓
鼠
鼻
齊
齋
齐
齒
齿
龍
龙
龜
龟
龠
龰
龱
龴
龵
龶
龷
龸
龹
ꮎ
ꮟ
ꮤ
者
艹
？
🜨
𠀁
𠀃
𠀆
𠀉
𠀎
𠀐
𠁁
𠁣
𠂆
𠂇
𠂈
𠂉
𠂊
𠂋
𠂎
𠂒
𠂔
𠂛
𠂡
𠂢
𠂤
𠂬
𠂭
𠂹
𠃊
𠃋
𠃌
𠃍
𠃎
𠃑
𠃓
𠃔
𠃜
𠄌
𠄎
𠄠
𠄢
𠆢
𠆥
𠇍
𠈌
𠌵
𠓜
𠔉
𠔥
𠔼
𠔽
𠔿
𠕀
𠕁
𠕋
𠘧
𠘨
𠙻
𠙼
𠚏
𠚒
𠚤
𠚪
𠣏
𠤎
𠤕
𠥓
𠦄
𠦑
𠦝
𠧒
𠧗
𠧪
𠩺
𠪚
𠫓
𠫔
𠫤
𠬛
𠬝
𠬞
𠬢
𠬤
𠬶
𠮛
𠮦
𠮷
𠯑
𠱠
𠳮
𠷎
𡈼
𡉀
𡉵
𡌥
𡍮
𡏳
𡕒
𡕩
𡕰
𡖅
𡗗
𡗜
𡘆
𡘤
𡧱
𡨄
𡩧
𡬠
𡭽
𡰣
𡰥
𡰪
𡰯
𡰱
𡷈
𡸁
𡿨
𡿩
𡿪
𡿺
𢀖
𢀛
𢀩
𢁙
𢆉
𢆰
𢆶
𢇁
𢇇
𢉖
𢌬
𢌿
𢏚
𢑑
𢑚
𢖻
𢙣
𢛳
𢦏
𢦒
𢧵
𢼄
𢾕
𣁋
𣄼
𣅀
𣅽
𣍘
𣎳
𣎵
𣏋
𣏼
𣗥
𣥂
𣥖
𣦵
𣦼
𣧄
𣪊
𣪠
𣬉
𣳾
𣶒
𤇾
𤊽
𤐫
𤓰
𤔔
𤕨
𤣩
𤰇
𤰔
𤰞
𤴓
𤴔
𤽄
𥁑
𥁕
𥃦
𥃩
𥃭
𥇡
𥑟
𥘅
𥘈
𥝢
𥫗
𥱡
𦈢
𦉪
𦉬
𦉼
𦍌
𦍒
𦎧
𦐇
𦓔
𦔮
𦘒
𦙃
𦚏
𦣝
𦣞
𦣻
𦥑
𦥔
𦥯
𦨉
𦭝
𦰩
𧆞
𧈧
𧘇
𧰨
𧴪
𧴮
𧵩
𧾷
𨸏
𨾴
𩙿
𩠐
𩫏
𩵋
𪉷
𪜀
𪟽
𪠲
𪩲
𫇦
𫔭
𫜸
𫝀
𫠣
𫠩
𫢉
𫥞
𫩏
𫩠
𫪡
𫲽
𫶧
𬀷
𬐘
𬗌
𬙙
𬛸
𬜯
𬟩
𬯁
𬴘
𬺻
𬼉
𬼖
𭀰
𭁈
𭁨
𭅰
𭑈
𭕄
𭗼
𭤨
𭥫
𭻾
𮅕
𮊿
𮍌
𮍏
𮓗
𮥼
𮧮
廾
𰀁
𰀄
𰀈
𰀉
𰀕
𰀠
𰀡
𰀢
𰀪
𰁜
𰃮
𰆊
𰆘
𰋙
𰕎
𰢴
𰧭
𰯲
000--
001--
002--
003--
004--
008--
01--
02--
020--
03--
030--
031--
034--
038--
04--
04416--
04666--
04888--
049--
05--
055--
05888--
06--
06055--
061--
066--
071--
08--
083--
09--
09138--
0961111--
098--
0997222--
102--
103--
108--
126--
133--
13361--
137--
138--
141--
146--
147--
149--
153--
156--
166--
167--
169--
2013--
203--
204--
206--
208--
210--
213--
214--
215--
21861--
221--
22361--
224--
225--
226--
230--
231--
232--
233--
235--
236--
239--
248--
249--
251--
255--
256--
258--
261--
263--
265--
266--
268--
271--
273--
276--
278--
279--
280--
281--
283--
285--
286--
288--
289--
290--
291--
293--
294--
295--
298--
299--
300--
301--
303--
305--
306--
308--
309--
310--
311--
31361--
314--
315--
316--
319--
320--
321--
324--
325--
328--
329--
330--
333--
33361--
334--
335--
338--
339--
341--
342--
344--
345--
346--
349--
351--
35361--
354--
355--
356--
358--
361--
362--
363--
366--
368--
369--
370--
371--
372--
378--
37861--
380--
381--
383--
386--
387--
388--
391--
393--
394--
396--
398--
401--
403--
405--
406--
407--
409--
411--
413--
414--
416--
419--
420--
423--
424--
425--
426--
429--
430--
431--
435--
436--
439--
442--
443--
445--
446--
447--
448--
451--
452--
454--
461--
465--
466--
468--
469--
470--
471--
475--
476--
480--
481--
48361--
488--
489--
490--
498--
501--
505--
507--
508--
509--
511--
512--
513--
514--
515--
516--
519--
520--
521--
522--
523--
525--
526--
528--
531--
535--
536--
540--
541--
549--
551--
554--
555--
556--
559--
561--
563--
571--
572--
573--
576--
583--
584--
585--
586--
592--
596--
600--
601--
606--
608--
613--
616--
618--
619--
629--
630--
636--
638--
639--
64--
641--
643--
65166--
653--
655--
656--
660--
664--
666--
668--
66861--
669--
67388--
676--
678--
681--
683--
686--
687--
688--
693--
696--
700--
701--
702--
704--
711--
714--
720--
721--
726--
72944--
73--
731--
73416--
738--
739--
741--
745--
746--
751--
756--
758--
759--
76--
760--
765--
766--
77--
770--
771--
779--
780--
781--
783--
785--
789--
793--
794--
796--
80--
809--
810--
811--
812--
815--
816--
820--
824--
826--
832--
836--
838--
840--
848--
850--
854--
855--
858--
860--
866--
87--
875--
881--
884--
885--
886--
889--
89--
891--
89861--
900--
902--
903--
904--
905--
907--
908--
911--
913--
914--
916--
919--
921--
926--
931--
939--
941--
943--
946--
949--
953--
954--
956--
957--
959--
96--
963--
965--
966--
96888--
970--
973--
978--
9780903--
97861--
980--
981--
986--
993--
998--
999--
a--
aa--
aagte--
aai--
aal--
aan--
aanduu--
aar--
aard--
aarts--
ab--
absd--
ac--
accept--
acht--
achter--
ad--
admir--
ady--
ae--
aele--
aen--
aer--
aerd--
aeve--
af--
afeva--
aff--
afge--
afges--
afgha--
afwezig--
aga--
age--
agg--
agra--
agt--
agu--
ah--
ai--
aj--
ak--
ake--
al--
ala--
albi--
albo--
ale--
alf--
all--
alle--
aller--
alp--
alpho--
als--
alt--
am--
amal--
ambt--
ame--
amfi--
amp--
an--
anal--
anat--
anc--
and--
andel--
andes--
ang--
ange--
anhe--
anna--
anne--
ans--
ansluut--
ant--
anti--
antre--
anvoer--
anwie--
ao--
aof--
aol--
aole--
aome--
aon--
aord--
ap--
app--
aq--
ar--
arc--
archi--
ard--
arfak--
arm--
arne--
arr--
arriv--
ars--
art--
as--
ash--
asiel--
asje--
ass--
ast--
at--
atlanti--
attractie--
au--
aust--
auto--
aw--
ay--
az--
b--
ba--
baa--
baan--
bad--
baerd--
bak--
bal--
bam--
ban--
bank--
baosis--
bar--
barok--
bas--
basalt--
basis--
basti--
bat--
bau--
be--
bea--
bed--
bedevaerts--
bee--
beek--
beeren--
beg--
begraef--
begraof--
bei--
bek--
bel--
beledi--
ben--
bende--
bene--
beproe--
ber--
berg--
berlep--
besch--
bescha--
besp--
best--
bestemm--
bet--
beurs--
bevoegd--
bewae--
bewaer--
beziens--
bi--
bibli--
bibliot--
bie--
biebel--
bier--
bievobb--
bii--
bij--
bil--
bin--
binne--
binnen--
bio--
biolo--
bis--
bla--
blae--
blaems--
blang--
blauw--
ble--
bli--
blo--
bloei--
blok--
bo--
bob--
boe--
boede--
boer--
boere--
boerek--
boeren--
bok--
bol--
bomb--
bon--
boo--
boog--
boom--
borg--
born--
borr--
bos--
bot--
bou--
bouw--
boven--
box--
br--
brae--
brand--
bras--
bre--
bree--
bril--
bro--
broed--
bron--
bru--
brug--
bruun--
bruunkap--
bry--
bu--
buf--
bul--
bur--
burger--
burher--
bus--
but--
bute--
buten--
buu--
buudel--
buurt--
buute--
buuten--
by--
c--
ca--
caca--
cal--
call--
cam--
can--
capitu--
car--
cara--
cass--
cate--
catha--
catholi--
ce--
cel--
cer--
ch--
cha--
chan--
chann--
char--
chatha--
che--
chi--
cho--
choc--
chr--
chrys--
ci--
cine--
cinere--
cinnam--
ck--
cla--
cle--
clif--
clo--
co--
coele--
col--
coll--
colo--
com--
compo--
computer--
con--
connec--
contr--
coo--
cor--
cot--
cou--
country--
coup--
cow--
cra--
cre--
cri--
cru--
cu--
culici--
cult--
cultuur--
cy--
d--
da--
daar--
dae--
daer--
dag--
dak--
dal--
dam--
dan--
dao--
dar--
das--
dat--
daup--
dbek--
dbuuk--
dd--
de--
debuut--
dec--
deca--
deci--
dee--
deel--
deer--
defe--
deg--
dei--
dek--
del--
delta--
dem--
den--
der--
des--
deu--
deur--
deutsch--
dge--
dha--
di--
dial--
dialect--
diam--
diamant--
dida--
die--
diek--
diep--
dier--
dig--
dijk--
din--
ding--
dir--
dis--
dit--
dj--
dji--
dkop--
dn--
do--
dobb--
doc--
doel--
dom--
domin--
doo--
dood--
door--
dorp--
dorps--
dow--
dr--
dra--
draai--
drenkel--
drie--
drink--
dro--
dru--
ds--
dstaert--
du--
duid--
dun--
dur--
durp--
durps--
duu--
duuk--
duun--
dwars--
dwer--
dwerg--
dwergt--
dwin--
dz--
e--
eb--
echi--
ecolo--
ed--
edel--
educa--
ee--
eem--
een--
eer--
ef--
eg--
eh--
eho--
ei--
eiber--
eid--
eier--
eigen--
ein--
eind--
ek--
el--
ele--
elec--
elekt--
eli--
ell--
elm--
elu--
em--
emels--
emi--
empi--
en--
encyc--
end--
energie--
enk--
ent--
ep--
er--
ere--
eren--
erf--
erinne--
erre--
eryth--
es--
esch--
escu--
est--
estu--
et--
eth--
eu--
eumet--
euro--
eusta--
euvel--
eva--
evanh--
eve--
even--
ever--
ewe--
ex--
exc--
execu--
exempl--
experim--
export--
ey--
eys--
ez--
ezo--
f--
fa--
fan--
far--
fas--
fasci--
fat--
fau--
favor--
fd--
fe--
febru--
fee--
feest--
fel--
femilie--
fi--
fiets--
fil--
film--
fin--
fis--
fla--
flam--
flavi--
flavo--
fle--
fli--
flo--
flor--
floren--
flu--
fluut--
fo--
fonde--
for--
foto--
fra--
frag--
fre--
frehat--
frei--
fri--
frituur--
fruit--
fu--
fumi--
fune--
fung--
fus--
fusci--
fusie--
fuu--
fys--
g--
ga--
gae--
gal--
gale--
gall--
gallo--
gam--
gas--
gau--
gd--
ge--
gedenk--
gee--
geel--
gegij--
geh--
gei--
gek--
gel--
geld--
gem--
gen--
geol--
ger--
ges--
gesch--
geschi--
get--
gev--
gevoar--
gevor--
gew--
gezw--
gg--
gh--
ghe--
gi--
gie--
giet--
gif--
giga--
gijs--
gin--
ginialo--
gis--
gisel--
git--
gl--
glas--
gler--
glo--
gn--
gnath--
go--
god--
goes--
gof--
gol--
gold--
golf--
gor--
gornet--
gos--
goud--
gra--
graaf--
graef--
graf--
gre--
green--
grens--
gri--
grif--
gro--
grond--
groot--
gru--
gu--
guil--
guis--
gut--
guy--
h--
ha--
had--
hade--
hae--
haeven--
haf--
hai--
hal--
halapahos--
halte--
ham--
hamm--
han--
hand--
hang--
har--
hard--
haring--
hart--
has--
hasje--
hat--
hay--
he--
heb--
hed--
heda--
hee--
heer--
hei--
heij--
hek--
hel--
held--
hele--
help--
hem--
hen--
heog--
heograofi--
her--
here--
herinne--
hernhut--
hert--
hesp--
het--
heu--
heuvel--
hewur--
hey--
hi--
hie--
hier--
high--
hil--
hill--
himm--
hin--
hirund--
his--
hl--
ho--
hoa--
hob--
hobb--
hod--
hoe--
hof--
hol--
holm--
hols--
home--
homo--
honderd--
honha--
honor--
hoo--
hoof--
hoofd--
hoog--
hooge--
hori--
hos--
hot--
hotis--
hou--
hout--
hr--
hries--
hriesbost--
hrieskop--
hroen--
hrond--
hu--
huis--
huiz--
hulp--
huls--
hulst--
hum--
hur--
huur--
huus--
huy--
hy--
hybr--
hydro--
i--
id--
ie--
iem--
ier--
ies--
iese--
ign--
ii--
ij--
ijs--
ik--
il--
ili--
ille--
illeg--
illeh--
im--
imperiali--
in--
inaugu--
inca--
inde--
indi--
indivi--
ine--
inf--
infra--
ing--
ingewi--
inhuldi--
inmen--
inne--
inq--
ins--
inspi--
instal--
insti--
instrum--
int--
invoer--
inw--
inzaemel--
io--
ip--
ir--
is--
iso--
ist--
it--
ita--
iv--
iz--
j--
ja--
jaar--
jacht--
jaer--
jail--
jan--
jans--
jao--
jas--
jau--
je--
jen--
jer--
jeugd--
ji--
jn--
jo--
joe--
jord--
jordaon--
jou--
journ--
ju--
jubi--
jubileum--
jud--
jum--
jur--
jutp--
juun--
k--
ka--
kaap--
kaeb--
kal--
kala--
kali--
kam--
kampong--
kan--
kanaol--
kandi--
kaneel--
kant--
kanun--
kaoi--
kaop--
kap--
kar--
kasj--
kat--
kate--
kazi--
ke--
kel--
kem--
ken--
ker--
kerk--
kern--
kerst--
kes--
kestanje--
ket--
keu--
kha--
khoi--
kies--
kiet--
kil--
kind--
kinder--
kir--
kis--
kla--
kle--
klei--
klein--
kli--
klo--
klu--
knap--
kne--
kno--
knops--
knu--
ko--
koel--
koer--
kol--
kole--
kollik--
koloni--
kolonis--
kom--
kon--
konik--
konings--
koo--
koop--
koor--
kop--
koppel--
kora--
kort--
korte--
kos--
kost--
kr--
kra--
krank--
kre--
kreeft--
krie--
kriegs--
krij--
kro--
krombek--
kru--
kruis--
krus--
kruu--
kruus--
kruut--
ku--
kuier--
kun--
kunst--
kur--
kust--
kuu--
kwa--
kwae--
kwaed--
ky--
l--
la--
lae--
laet--
laf--
lam--
land--
landbouw--
lang--
lange--
laok--
lar--
las--
last--
lat--
latir--
laure--
law--
lbost--
lbuuk--
lc--
ld--
ldouw--
le--
leeg--
leen--
leer--
lees--
leger--
leh--
lei--
lek--
lel--
len--
lept--
les--
let--
leu--
leuco--
levens--
ley--
li--
liber--
libr--
licht--
lie--
lied--
lief--
lies--
lim--
lin--
ling--
lint--
linux--
lit--
ll--
ln--
lo--
loca--
lof--
logi--
loi--
lom--
loo--
lor--
los--
lot--
lou--
ls--
lstuut--
lt--
lu--
luc--
luch--
lucht--
lud--
lui--
luu--
luxem--
ly--
m--
ma--
maa--
maas--
mac--
macu--
mae--
maen--
maer--
maes--
maets--
mag--
mahelhaen--
mai--
mak--
mal--
mala--
mamm--
man--
mao--
mar--
mare--
mark--
markt--
marmer--
maro--
masker--
massa--
mat--
maxim--
maya--
mazur--
mc--
mca--
mcc--
mck--
md--
me--
mea--
mede--
media--
mee--
meedo--
meer--
mei--
melk--
men--
mengel--
mensen--
mer--
mes--
mesit--
met--
meteo--
meu--
meubel--
meul--
mexi--
meziek--
mi--
mic--
mid--
middel--
middelpunt--
midden--
mie--
mihr--
mik--
mil--
milieu--
milit--
mill--
min--
miner--
mini--
minne--
mir--
mis--
mit--
mji--
mm--
mo--
moe--
moer--
moeras--
mol--
molen--
mon--
mond--
moo--
moord--
mor--
mos--
mossel--
mot--
motor--
mou--
mour--
mpl--
ms--
mu--
muit--
mult--
mun--
mus--
musci--
museum--
muur--
muze--
muziek--
my--
n--
na--
nach--
nacht--
nae--
naebie--
naem--
naka--
nam--
nan--
nao--
nap--
nar--
nat--
natuur--
nay--
nd--
ne--
neder--
neer--
nehen--
nei--
nemat--
nen--
neo--
nepo--
nes--
netuur--
neus--
neut--
new--
ng--
ngere--
nh--
ni--
nic--
nie--
nieuw--
nig--
nigro--
nij--
nikol--
nild--
nk--
nl--
no--
noa--
nobel--
nol--
nood--
noord--
noordoo--
nor--
nord--
not--
notot--
nr--
ns--
nsen--
nt--
nte--
nu--
nurm--
nuy--
nv--
nw--
ny--
nymp--
nz--
o--
oa--
oal--
ob--
obs--
oc--
occi--
och--
od--
odo--
oe--
oef--
oefen--
oen--
oender--
oer--
oester--
oez--
of--
ofge--
ofkon--
ofkort--
oft--
og--
oister--
ok--
oker--
ol--
olie--
olief--
olym--
om--
ome--
omme--
omste--
on--
onbe--
ond--
onder--
onderd--
onderwaeter--
ondud--
one--
onge--
ongek--
onger--
ongewer--
onhewur--
onmisken--
ons--
ont--
ontgin--
ontoe--
ontsp--
oo--
oor--
oorlogs--
oorsp--
oost--
ooster--
op--
ope--
open--
opge--
opper--
opslag--
opt--
optre--
opvat--
or--
orbi--
orde--
org--
organis--
ori--
ornaot--
ornit--
os--
ost--
ot--
otrado--
ott--
ou--
oud--
oude--
ouden--
ouds--
out--
ouw--
ouwe--
ouwer--
oven--
over--
overe--
overee--
overge--
p--
pa--
pacif--
pad--
paes--
pak--
pal--
palm--
pam--
pan--
pand--
pap--
papehaai--
par--
para--
paras--
parkeer--
pas--
passa--
pat--
pe--
pec--
pee--
pelgrims--
pen--
per--
pers--
pet--
pha--
phil--
pho--
phoe--
phy--
pi--
piano--
pic--
pie--
pienk--
pieters--
pijl--
pil--
pin--
pinkster--
pit--
pl--
pla--
plac--
plaes--
plan--
plant--
plat--
ple--
pleister--
ploeg--
plu--
plum--
pluum--
po--
pod--
poe--
poel--
pol--
polder--
poly--
pom--
poo--
pool--
poort--
pop--
poper--
porphy--
pos--
post--
pot--
pow--
pr--
pra--
prae--
praktis--
pre--
pri--
pro--
prom--
promo--
prot--
ps--
psalmberiem--
pseud--
psych--
psychol--
pt--
pteroc--
pu--
pun--
punt--
pv--
py--
pyg--
pyrr--
q--
que--
qui--
r--
ra--
raa--
rader--
radio--
ral--
ram--
ramm--
ramp--
rap--
rasci--
rat--
ratte--
rd--
rde--
rder--
rdi--
re--
rec--
rechs--
rechts--
red--
ree--
regee--
regen--
regi--
rehen--
rei--
rek--
rel--
ren--
reu--
reuzen--
reuzensturm--
revolus--
ri--
rie--
rieng--
rienk--
riet--
rij--
rijks--
rijn--
rijs--
rille--
rin--
ring--
ris--
rivier--
rix--
rk--
rke--
rko--
rlogs--
rm--
rn--
ro--
rob--
roche--
roer--
roesel--
roest--
roet--
rol--
rom--
rond--
roo--
roth--
roti--
rots--
rou--
rouw--
roze--
rp--
rr--
rs--
rt--
ru--
rufic--
rug--
ruhr--
rui--
rum--
rush--
rust--
ruu--
ruumte--
ry--
s--
sa--
saeme--
saemen--
saf--
sal--
salva--
salz--
sam--
samen--
san--
sas--
sasse--
sater--
sau--
sca--
scan--
sch--
schaf--
schal--
schar--
schat--
schelde--
schelvis--
schil--
school--
schu--
sco--
sd--
se--
sea--
sec--
see--
sel--
sem--
semi--
sen--
sept--
ser--
serr--
servaes--
sha--
shan--
shi--
sho--
shr--
shu--
si--
sie--
sigis--
sign--
sij--
sil--
sin--
sind--
sing--
sir--
sitti--
situoa--
sj--
sk--
sko--
sla--
slag--
sle--
slo--
slok--
slu--
slui--
sme--
smij--
sna--
snel--
snelre--
sneu--
snu--
so--
soci--
socia--
sociolo--
soe--
soft--
sol--
som--
son--
sou--
sovjet--
sp--
span--
spanja--
spar--
spe--
spec--
specta--
spel--
speu--
speur--
sphenisci--
spier--
spil--
spits--
spoe--
spoor--
sport--
sprieng--
spui--
sr--
ss--
st--
sta--
stad--
stads--
staes--
staets--
stam--
stan--
standerd--
start--
ste--
steen--
stem--
ster--
sti--
stic--
stie--
stienk--
stij--
stik--
stil--
stipp--
sto--
stoof--
stra--
strael--
straf--
strao--
stre--
streek--
stri--
stro--
stru--
struuk--
stud--
stuu--
stuw--
su--
sub--
sukel--
suker--
super--
sur--
suuker--
sv--
swa--
swie--
sy--
syl--
sym--
syn--
synod--
t--
ta--
taal--
tab--
tabu--
tachtig--
tachy--
taci--
tadz--
tae--
taefel--
tael--
tai--
tak--
tal--
tam--
tan--
tank--
tao--
tar--
tas--
tasmao--
tat--
te--
tech--
techni--
tee--
tege--
tegen--
tegu--
tehen--
tel--
tele--
televisie--
tem--
temm--
tempel--
temperat--
ten--
ter--
terug--
terugge--
tet--
textiel--
th--
the--
theo--
ti--
tichod--
tied--
tien--
til--
tim--
tje--
to--
toe--
toege--
toehe--
toen--
toevoe--
tol--
ton--
top--
tor--
toren--
tos--
tot--
tou--
touw--
tr--
tra--
tram--
trans--
trap--
tre--
trech--
trein--
trek--
trem--
tri--
tro--
tru--
trug--
tryn--
ts--
tscha--
tsjao--
tsjoe--
tt--
tu--
tuis--
tum--
tummer--
tur--
tuus--
tv--
twaolf--
twi--
twu--
ty--
tz--
u--
ui--
uis--
uit--
uitg--
ull--
ulp--
um--
un--
uni--
up--
ur--
us--
ut--
uu--
uur--
uus--
uut--
uutdrukk--
uute--
uutge--
uutges--
uuthe--
uutzen--
uw--
uwe--
uws--
v--
va--
vachte--
vaeg--
vak--
valk--
van--
vang--
var--
vas--
vast--
vaste--
ve--
vee--
veen--
veer--
veil--
vek--
vekansie--
vel--
veld--
ven--
ver--
verba--
verbaez--
verbij--
verbo--
verd--
vere--
verga--
verhe--
verheliek--
vernie--
verras--
vers--
vert--
vertegen--
verwie--
verwon--
verza--
verzaemel--
verzand--
verze--
verzets--
verzwol--
ves--
vesti--
vet--
veu--
veugel--
veur--
vi--
vie--
vier--
vijf--
viking--
vin--
viol--
vir--
vis--
vissers--
vl--
vla--
vlaeke--
vlas--
vlee--
vleis--
vleu--
vleuhel--
vlis--
vloe--
vloei--
vloot--
vo--
voa--
voc--
voe--
voebal--
voet--
voetbal--
vog--
vogel--
voh--
vol--
volbr--
volhel--
volk--
volks--
volksver--
voo--
voor--
voort--
vor--
vos--
vra--
vre--
vrede--
vredes--
vrie--
vrij--
vro--
vroo--
vrouw--
vrouwe--
vrouwen--
vruch--
vu--
vul--
vurm--
vuuf--
vuufent--
vuul--
vuur--
w--
wa--
waa--
waal--
waar--
wae--
waer--
waerd--
waereld--
waeter--
wagen--
wal--
wan--
war--
was--
wat--
water--
we--
web--
weder--
weds--
wee--
week--
weer--
weers--
weet--
weg--
wei--
wel--
weme--
wen--
wenkbrauw--
wenksbrau--
wer--
wereld--
werk--
werm--
wes--
west--
wet--
weun--
wha--
wi--
wie--
wiel--
wien--
wig--
wij--
wil--
wim--
win--
wind--
winter--
wir--
wit--
witbrauw--
witbuuk--
witstaert--
witstuut--
witteuhel--
witvleuhel--
wo--
woa--
woe--
wol--
woon--
woord--
wor--
worstel--
wou--
woud--
wra--
wre--
wu--
wulf--
wurm--
wuu--
wyn--
x--
xen--
xi--
y--
ya--
ye--
yol--
yoshi--
you--
ys--
yuk--
yunnano--
z--
za--
zaed--
zaeg--
zak--
zal--
zand--
zang--
zaoi--
ze--
zee--
zeeuws--
zeil--
zel--
zelf--
zem--
zen--
zendel--
zes--
zeumer--
zeven--
zi--
zie--
zijde--
zit--
zo--
zoe--
zoek--
zomer--
zon--
zonne--
zoo--
zorg--
zout--
zu--
zuder--
zuid--
zuider--
zun--
zunne--
zus--
zuu--
zuud--
zw--
zwaerd--
zwart--
zwartkap--
zwartkop--
zwartkruun--
zwartstaert--
zwe--
zwi--
π--
в--
ا--
الع--
ي--
--0
--00
--01
--04
--05
--056
--1
--10
--11
--111
--1111
--11111
--111111
--1111111
--12
--15
--17
--2
--22
--222
--2222
--22222
--222222
--2222222
--23
--26
--27
--3
--33
--333
--3333
--33333
--333333
--3333333
--4
--44
--444
--4444
--44444
--444444
--4444444
--48
--5
--53
--5555556
--555556
--55556
--5556
--556
--56
--59
--6
--6666
--6666667
--666667
--66667
--6667
--667
--67
--7
--7777
--7777778
--777778
--77778
--7778
--778
--78
--8
--80
--85
--87
--8888889
--888889
--88889
--8889
--889
--89
--9
--a
--aa
--aad
--aal
--aan
--aanse
--aar
--aat
--able
--ac
--ace
--achtegen
--ad
--adeel
--adje
--ado
--ae
--aea
--aeje
--ael
--aele
--aem
--aeme
--aer
--aers
--aert
--aet
--aeven
--af
--ag
--age
--ages
--agh
--agn
--ah
--ai
--aid
--aine
--air
--aise
--ait
--aj
--ak
--ake
--aki
--aksisch
--akt
--al
--ald
--ale
--all
--alm
--am
--ama
--amd
--amde
--ame
--amidae
--amo
--ampt
--an
--ana
--and
--ande
--ane
--anen
--ani
--anig
--anisee
--anje
--ano
--ans
--anse
--ant
--ante
--ants
--ao
--aol
--aole
--aons
--aonse
--aoris
--aot
--aotie
--ap
--apa
--ape
--apt
--aq
--ar
--ard
--ari
--aria
--ario
--aris
--arius
--ark
--ary
--as
--at
--ata
--ate
--aten
--ati
--atic
--atie
--atieve
--ation
--ations
--atus
--au
--auda
--aus
--ave
--ax
--ay
--az
--b
--ba
--baa
--baar
--baene
--baer
--bai
--baj
--bak
--bal
--ban
--band
--bank
--baor
--bare
--bd
--be
--bedrief
--bee
--beek
--beeld
--bei
--berg
--bes
--bestel
--bi
--bie
--bij
--blad
--ble
--bloem
--bo
--bod
--boek
--bol
--boo
--boot
--bord
--bos
--bouw
--braek
--broek
--brug
--brugge
--bu
--burg
--bus
--buurte
--by
--c
--ca
--cae
--cal
--cas
--ce
--cea
--cee
--ceel
--ceen
--cens
--centrum
--ceps
--ceus
--ch
--chap
--che
--chepen
--chn
--cho
--chole
--choo
--chot
--chs
--cht
--chte
--chtig
--chts
--chus
--ci
--cie
--ciefer
--cieze
--cis
--ck
--cke
--cken
--cks
--ckx
--cl
--co
--cq
--ct
--cte
--ctus
--cus
--cy
--d
--da
--daal
--dacht
--dae
--dael
--daen
--dag
--dags
--dal
--dam
--damp
--dde
--dden
--de
--dea
--dee
--deel
--dek
--den
--der
--ders
--des
--deu
--dheid
--di
--dia
--diek
--dieks
--dier
--diertjes
--dig
--dihe
--dijk
--dje
--dm
--dn
--do
--doek
--dom
--doo
--dorf
--dorp
--dr
--druk
--ds
--dt
--duceerd
--duct
--duker
--durp
--dy
--e
--ea
--eau
--ebracht
--ec
--eck
--ect
--ectus
--ed
--eden
--edie
--ee
--eel
--eer
--eerd
--eerde
--eerden
--eert
--ees
--ef
--eg
--egd
--ege
--egen
--egjes
--egt
--eh
--ehe
--ehen
--ei
--eid
--eilan
--eiland
--ein
--eis
--eit
--ej
--ek
--eke
--eken
--el
--ela
--eld
--ele
--eleke
--elen
--elftal
--elijk
--elijke
--elik
--elike
--elo
--els
--eltje
--eluk
--eluke
--em
--ema
--eman
--emans
--eme
--emen
--en
--enaer
--enaers
--end
--ende
--ene
--enen
--eng
--enge
--enia
--ening
--enis
--enk
--enne
--ens
--ense
--ensis
--eo
--ep
--epolder
--eps
--er
--era
--erd
--erde
--erden
--ere
--eren
--erende
--ergte
--eri
--erie
--ering
--erla
--ern
--ero
--ers
--ert
--erus
--es
--esa
--ese
--esse
--est
--et
--eta
--ete
--eters
--ets
--ett
--ette
--eu
--eur
--eus
--ev
--ewd
--exy
--ey
--ez
--ezen
--ezicht
--f
--fa
--fall
--fd
--fde
--fe
--fee
--fen
--ff
--ffe
--ffen
--film
--fje
--fonds
--fs
--ft
--fuut
--fysica
--g
--ga
--gae
--gang
--gat
--gave
--gd
--gde
--gden
--ge
--gebied
--gebouw
--gel
--geld
--gels
--gem
--gemee
--gen
--genoten
--ger
--gers
--gger
--gh
--ght
--gi
--gle
--gn
--go
--gon
--gri
--gs
--gt
--gua
--gus
--h
--ha
--haen
--hai
--hal
--half
--ham
--hang
--har
--he
--hebber
--hebbers
--hebergte
--heden
--hee
--heid
--heim
--hel
--held
--hem
--hen
--her
--hes
--heve
--hi
--hl
--hn
--ho
--hockey
--hoek
--hof
--houd
--hout
--houw
--hoven
--hreep
--hroep
--hs
--ht
--hte
--http
--hu
--hua
--huis
--hus
--huus
--hy
--hyta
--i
--ia
--iae
--ial
--ian
--ianus
--ias
--ib
--ic
--ica
--ical
--ice
--icelli
--ich
--icht
--ico
--icola
--icon
--icus
--icz
--id
--idae
--idde
--ide
--iden
--ides
--idus
--ie
--ied
--ieden
--iee
--ieel
--ieert
--ief
--ieje
--iek
--ieke
--iel
--ien
--ieng
--ienge
--iengen
--ienk
--ienste
--ientje
--iep
--iepe
--ier
--ies
--iet
--ieve
--if
--ift
--ig
--igd
--ige
--igea
--igeid
--igen
--iger
--igers
--igh
--igheid
--iging
--ihe
--ihen
--ii
--iidae
--ij
--ije
--ijen
--ijf
--ijk
--ijke
--ijn
--ijnen
--ijns
--ijs
--ik
--iken
--ikk
--ikt
--ikten
--il
--ilan
--iland
--ilia
--illa
--ille
--illus
--im
--ima
--ime
--in
--ina
--inae
--ind
--ine
--ing
--inge
--ingen
--inger
--ings
--ingui
--inha
--ini
--ink
--inus
--io
--ioen
--ion
--ional
--ions
--ior
--ios
--iot
--ip
--ips
--ir
--ira
--ire
--iro
--irs
--irt
--is
--isatie
--isch
--ische
--ise
--iseerde
--isel
--isering
--ish
--isie
--ism
--isme
--isse
--ist
--istische
--it
--ite
--iteit
--iten
--ites
--ith
--ithidae
--itie
--itiem
--ito
--itude
--ity
--iu
--ium
--ius
--iya
--j
--ja
--jaeher
--jaer
--jaerig
--jan
--jarige
--jd
--je
--jen
--jer
--jere
--jes
--ji
--jie
--jk
--jn
--jo
--js
--jt
--k
--ka
--kaart
--kaert
--kamp
--kant
--kante
--ke
--kee
--kel
--kelijk
--kels
--keluk
--kem
--ken
--ker
--kerk
--kerke
--kers
--kes
--ki
--kie
--kieng
--kig
--kin
--kje
--kk
--kka
--klee
--kn
--ko
--kom
--komen
--koo
--kop
--kort
--kot
--kraoie
--kruus
--ks
--kt
--kte
--ku
--kum
--kunde
--kundig
--kundige
--kundihe
--kus
--ky
--l
--la
--laafd
--laand
--laar
--lah
--lan
--land
--lang
--lange
--lant
--laren
--laus
--lav
--ld
--lde
--lder
--le
--lea
--lede
--leden
--lee
--leer
--lef
--leider
--lek
--leke
--len
--lend
--lende
--ler
--leraer
--les
--ley
--lf
--li
--lia
--lichaam
--licht
--lidae
--lie
--lied
--liek
--lieng
--liep
--lihe
--liin
--lijk
--lijke
--lijkste
--lijn
--lik
--like
--liker
--ling
--linge
--lingen
--lion
--lis
--list
--lk
--ll
--lla
--lle
--lli
--llis
--llo
--llus
--lmus
--ln
--lo
--loap
--lock
--log
--loge
--logie
--loo
--loos
--low
--loze
--lpe
--lpen
--ls
--lstruuksluper
--lt
--ltje
--lui
--luk
--lum
--lus
--lust
--lver
--ly
--m
--ma
--maal
--mae
--maeker
--maetig
--mal
--man
--mans
--maotig
--mart
--mas
--mast
--matig
--mba
--md
--me
--mee
--meer
--melk
--men
--ment
--mer
--merk
--mermeer
--mers
--mi
--mis
--mm
--mn
--mo
--moo
--mp
--ms
--mt
--mu
--mure
--mus
--museum
--muur
--muzen
--my
--n
--na
--nacht
--nae
--naem
--nais
--nas
--nau
--nberg
--nburg
--nc
--nce
--nd
--nda
--nde
--nden
--nding
--ne
--nee
--nees
--neming
--nen
--nensis
--ner
--nes
--nese
--net
--netje
--ney
--ng
--ngd
--ngde
--nge
--ngen
--ngs
--nheid
--ni
--nia
--nidae
--nie
--nin
--ning
--nip
--nis
--nisse
--nius
--nix
--nk
--nke
--nken
--nn
--nna
--no
--noden
--nome
--noy
--npikker
--ns
--nse
--nsis
--nt
--nta
--nthe
--ntidae
--ntie
--nto
--nts
--nummer
--nus
--ny
--o
--oa
--oal
--oape
--oar
--oars
--ocorypha
--od
--oda
--odam
--ode
--odidae
--oe
--oek
--oeks
--oem
--oen
--oeng
--oepe
--oes
--of
--og
--ogical
--ogie
--ogisch
--ogue
--ogy
--oh
--ohn
--oi
--oidea
--oj
--ok
--ol
--ola
--olk
--ologie
--om
--oma
--ome
--omen
--omi
--omidae
--omisch
--on
--ona
--onde
--one
--onen
--ong
--ongo
--oni
--onk
--ons
--onse
--oo
--oog
--ool
--oon
--oord
--oos
--op
--ope
--opidae
--ops
--opus
--or
--oren
--ornithidae
--ort
--os
--ose
--osie
--ot
--ote
--otidae
--otie
--otis
--ou
--ous
--ov
[...]
