!
"
#
##0
##1
##10
##11
##12
##13
##14
##15
##16
##17
##18
##19
##2
##20
##21
##22
##23
##24
##25
##26
##27
##28
##29
##3
##30
##31
##32
##33
##34
##35
##36
##37
##38
##39
##4
##40
##41
##42
##43
##44
##45
##46
##47
##48
##49
##5
##50
##51
##52
##53
##54
##55
##56
##57
##58
##59
##6
##60
##61
##62
##63
##64
##65
##66
##67
##68
##69
##7
##70
##71
##72
##73
##74
##75
##76
##77
##78
##79
##8
##80
##81
##82
##83
##84
##85
##86
##87
##88
##89
##9
##90
##91
##92
##93
##94
##95
##96
##97
##98
##99
$
%
&
'
(
)
*
+
,
-
.
/
0
00
000
001
002
003
004
005
006
007
009
01
010
011
012
013
015
016
017
02
020
021
022
023
024
025
027
028
03
031
032
035
036
037
038
039
04
041
042
043
044
045
046
047
048
049
05
050
051
052
053
054
055
056
057
059
06
060
061
062
063
064
066
067
068
069
07
070
071
073
074
075
076
077
078
079
08
080
081
082
083
084
085
086
087
088
089
09
090
091
092
094
096
097
098
099
1
10
100
1000
1002
1003
1007
101
1010
1014
1016
102
103
104
1040
105
1050
1054
106
1066
107
1070
108
1080
1086
1088
109
1093
1096
1099
11
110
1100
11000
1102
1104
1109
111
112
113
114
1146
115
1150
1155
116
117
1177
118
1185
119
1191
1194
12
120
1200
1201
1202
1204
121
122
1223
1225
1227
123
1230
1232
1233
1235
1236
124
1240
1243
1244
125
1250
1253
1256
1257
126
1265
127
1271
1278
128
1282
129
1290
1291
1293
1294
13
130
1300
131
1314
132
1320
1326
133
1332
1337
1339
134
1340
1341
1342
1343
1344
1345
1348
135
1351
1352
1353
1354
1358
136
1361
1365
1368
137
1370
1374
1375
1376
1377
138
1383
139
1393
1397
14
140
1400
141
1410
142
1420
143
1432
1439
144
1442
145
1453
146
1463
1465
1466
1469
147
1472
1475
148
1481
1482
1483
1485
149
1492
1493
1494
1495
1496
1497
1498
15
150
1500
1501
1504
1505
151
1511
1512
1513
1515
1516
1519
152
1521
1523
1524
1525
1526
1527
1528
153
1535
1536
1537
1538
154
1540
1542
1543
1545
1546
155
1552
1556
1557
156
1561
1564
1567
1569
157
1571
1579
158
1580
1588
1589
159
1590
1592
1596
1598
16
160
1600
1603
1605
1606
1609
161
1614
1615
1616
1619
162
1620
1621
1625
163
1632
1635
1636
164
1640
1642
1648
165
1650
1655
1656
1658
1659
166
1660
1663
1665
1667
1668
1669
167
1670
1672
1674
168
1680
1685
1687
169
1694
1695
1697
1699
17
170
1700
1701
1704
1707
171
1710
1713
1715
1716
1717
1718
1719
172
1721
1722
1729
173
1730
1733
1738
1739
174
1740
1741
1742
1744
1749
175
1750
1752
1755
1758
1759
176
1762
1764
1768
1769
177
1770
1771
1772
1775
1776
1777
1778
178
1780
1782
1783
1784
1785
1786
1787
1788
1789
179
1790
1791
1792
1793
1794
1795
1796
1797
1798
1799
18
180
1800
1801
1802
1803
1804
1805
1806
1807
1808
1809
181
1810
1811
1812
1813
1814
1815
1816
1817
1818
1819
182
1820
1821
1822
1823
1824
1825
1826
1827
1828
1829
183
1830
1831
1832
1833
1834
1835
1836
1837
1838
1839
184
1840
1841
1842
1843
1844
1845
1846
1847
1848
1849
185
1850
1851
1852
1853
1854
1855
1856
1857
1858
1859
186
1860
1861
1862
1863
1864
1865
1866
1867
1868
1869
187
1870
1871
1872
1873
1874
1875
1876
1877
1878
1879
188
1880
1881
1882
1883
1884
1885
1886
1887
1888
1889
189
1890
1891
1892
1893
1894
1895
1896
1897
1898
1899
19
190
1900
1901
1902
1903
1904
1905
1906
1907
1908
1909
191
1910
1911
1912
1913
1914
1915
1916
1917
1918
1919
192
1920
1921
1922
1923
1924
1925
1926
1927
1928
1929
193
1930
1931
1932
1933
1934
1935
1936
1937
1938
1939
194
1940
1941
1942
1943
1944
1945
1946
1947
1948
1949
195
1950
1951
1952
1953
1954
1955
1956
1957
1958
1959
196
1960
1961
1962
1963
1964
1965
1966
1967
1968
1969
197
1970
1971
1972
1973
1974
1975
1976
1977
1978
1979
198
1980
1981
1982
1983
1984
1985
1986
1987
1988
1989
199
1990
1991
1992
1993
1994
1995
1996
1997
1998
1999
2
20
200
2000
2001
2002
2003
2004
2005
2006
2007
2008
2009
201
2010
2011
2012
2013
2014
20141
201411
2015
2016
2017
2018
2019
202
2020
2021
2022
203
204
205
206
207
208
209
21
210
2100
211
212
213
214
215
216
217
218
219
22
220
221
222
223
224
225
226
227
228
229
23
230
231
232
233
234
235
236
237
238
239
24
240
2400
241
2410
242
243
244
245
246
247
248
249
25
250
2500
251
252
253
254
255
256
257
258
259
26
260
261
262
263
264
265
266
267
268
269
27
270
271
2715
272
273
274
275
276
277
278
279
28
280
2800
281
282
283
284
285
286
287
288
289
29
290
291
292
293
294
295
296
297
298
299
3
30
300
3000
301
302
303
304
305
306
307
308
309
31
310
3100
311
312
313
314
315
3150
316
317
318
319
32
320
3203
321
322
323
324
325
326
327
328
329
33
330
3300
331
332
333
334
335
336
337
338
339
34
340
341
342
343
344
345
346
347
348
349
35
350
3500
351
352
353
354
355
356
357
358
359
36
360
3600
361
362
363
364
365
366
36607
367
368
369
37
370
3700
371
373
374
375
376
377
378
379
38
380
3800
381
382
384
385
386
387
388
389
39
390
391
392
393
394
395
397
398
4
40
400
4000
401
402
403
404
405
406
407
409
41
410
412
413
414
415
416
417
418
42
420
421
422
423
424
425
426
427
428
429
43
430
431
432
433
434
435
436
438
439
44
440
441
442
443
444
446
447
448
449
45
450
4500
451
452
453
454
455
456
457
458
46
460
461
462
463
464
466
469
47
470
471
472
473
474
475
476
477
478
479
48
480
4800
482
484
485
486
487
488
489
49
490
491
494
495
497
498
499
5
50
500
5000
501
503
504
505
506
507
508
509
51
511
5113
512
514
516
517
519
52
520
521
522
523
525
526
527
528
529
53
530
531
532
534
535
536
537
54
540
541
542
543
544
545
546
547
548
549
55
550
5500
551
552
554
555
557
559
56
560
561
562
563
5636
564
565
566
568
569
57
570
572
573
574
575
576
577
578
579
58
580
581
582
583
584
585
587
588
589
59
590
591
594
596
597
598
599
6
60
600
6000
601
602
604
605
607
608
61
613
614
615
616
617
62
621
622
623
6236
625
626
62680
627
628
629
63
630
631
632
633
634
635
636
638
639
64
640
641
642
644
645
646
648
649
65
650
6500
651
652
653
654
655
656
657
658
66
661
662
663
664
665
666
669
67
670
672
673
674
675
676
677
678
679
68
680
681
683
684
685
686
687
69
690
691
692
693
695
696
698
7
70
700
7000
701
702
704
705
706
707
7076
708
709
71
710
711
712
713
714
715
716
718
72
720
721
722
724
725
726
727
728
7282
729
73
730
731
732
733
7339
734
7342
735
736
737
738
739
74
740
741
742
743
744
745
746
747
748
749
75
750
7500
751
752
753
754
755
756
757
758
759
76
760
761
762
763
764
765
766
768
769
77
770
772
773
775
776
778
779
78
780
782
783
784
787
788
789
79
790
791
794
795
796
797
798
799
8
80
800
8000
801
802
803
804
805
806
808
809
81
812
814
815
816
817
818
82
820
8200
821
822
824
825
826
827
829
83
830
831
832
834
835
836
837
838
839
84
842
843
844
845
846
848
849
85
850
8500
851
853
854
855
857
858
859
86
860
861
862
863
864
866
867
868
869
87
870
871
87282
873
875
876
877
878
879
88
8800
882
883
884
88680
887
888
889
89
890
891
892
893
894
895
898
899
9
90
900
9000
905
906
908
91
910
911
912
914
915
916
917
918
918393
919
92
921
922257
923
924
925
927
928
929
93
930
931
932
934
935
937
938
939
94
941
942
943
944
945
946
947
949
95
950
9525
953
954
956
958
959
96
960
961
962
963
964
965
966
968
969
97
970
9700
971
972
973
975
978
9781403917232
9781403938695
979
9798746727725
98
980
981
983
984
987
988
99
990
991
992
993
995
997
999
:
;
=
>
?
@
\
^
_
`
a
aa
aaa
aachen
aaiu
aalborg
aalen
aalst
aalto
aargau
aarhus
ab
abad
abades
abajo
abandonar
abandonat
abans
abascal
abatia
abazovic
abbey
abbott
abbottabad
abbreviat
abbreviation
abd
abdalla
abdel
abdelaziz
abdelrahman
abdic
abdicat
abdullah
abdulrazak
abe
abeba
abed
abeda
abejorral
abel
aber
aberdeen
aberystwyth
abi
abidi
abidjan
abiete
abilita
abissinia
abitur
abiy
abkhazia
abolit
abolition
abonnament
aboriginal
about
abraham
abrahamian
abram
abreviat
abreviation
abreviationes
abriaqui
abrupt
absage
absentie
absolut
absolutismes
abstract
abstracte
absurd
abu
abuja
abundant
abundantie
abusa
abuse
ac
acade
academia
academic
academie
academies
academy
acadie
acadieville
acapara
accelerant
accelerating
acceleration
accentu
accentuat
accepta
acceptabil
acceptar
acceptat
acceptation
accepte
accepter
acceptet
access
accesse
accessed
accesset
accident
accidente
accommodation
accord
accorde
according
accordo
accords
accra
achilles
achterhuis
achternbusch
acid
acide
acides
acidification
ackerdijkstraat
acompanhar
acompaniat
aconnosset
aconosse
aconossemento
aconosser
aconosset
acordat
acorde
acordeon
acordeones
acordeonist
acordes
acres
acresce
acropolis
act
acta
acte
acter
actes
actet
action
actiones
activ
activisme
activist
activista
activiste
activistes
activita
activity
activmen
actor
actorde
actores
actoressa
actoressas
actoresse
actressa
actu
actual
actualisat
actualita
actualmen
acuado
acurat
acurtat
acurtation
acusat
acusative
acustic
acustica
ad
ada
adam
adamkus
adams
adamsville
adaptar
adaptat
adaptation
adapter
adaptet
adaption
adaptiones
adavan
addi
addington
addir
addis
addit
addition
additional
additives
adelaide
adem
aden
adenauer
adepte
adeptes
ades
adet
adeta
adetes
adets
adhanom
adhere
adherente
adherentes
adheret
adhesion
adi
adieu
adil
adios
adjace
adjacent
adjective
adjectives
adjunte
adjuntent
adjunter
adjuntet
adjuntion
adjuvilo
adler
adlert
admaxim
admi
adminim
administrat
administration
administrativ
administrativmen
administrator
administrav
admir
admisset
admistration
admistrativ
adn
adnan
ado
adolescent
adolf
adolphe
adopt
adopta
adoptar
adoptat
adopter
adoptet
adopting
adoption
adoptiv
adplu
adrada
adrados
adresse
adria
adrian
adriatic
adsl
adult
adulte
adultes
adultijat
advente
adventures
adverbie
adverbies
adversari
adversario
adversarios
adversios
advocate
ae
aegean
aele
aer
aere
aereal
aerean
aerial
aero
aerodrom
aeroplane
aeroport
aeroportu
aeroportus
aeroprt
aes
af
afa
afar
afc
afd
afecte
afere
aferes
affair
affaires
affairs
afferes
afganistan
afghanistan
afiche
afiel
afirma
afixes
africa
african
africanes
africans
afrikaans
afrin
afro
afrontation
after
ag
agadir
age
agency
agente
agentes
agentia
agentura
ages
agitat
agnello
agnes
agnesi
agnoscer
agonie
agopoff
agrandat
agreabil
agression
agressiv
agricultura
agricultural
agrofert
agruppat
agua
aguila
aguilafuente
aguilar
aguilera
aguilo
aguirre
agujereada
agullie
agusti
ahaus
ahead
ahesa
ahlberg
ahlstro
ahmad
ahmed
ahmedabad
ahmet
ahmeti
ahn
aho
ahuir
ai
aibling
aichach
aichinger
aid
aida
aids
ain
air
airbus
aircraft
aires
airlines
airport
ais
aiwanger
aix
aixo
aj
ajaccio
ajn
ajunta
ak
akale
akc
akcepti
akershus
akhriani
akp
akrotiri
aks
aksel
aktau
aktiv
akureyri
akuzi
akwid
akıncı
al
ala
alabama
alacant
alain
alameda
alan
alanos
alanya
alarco
alarga
alarm
alaska
alatornio
alb
alba
albacete
albaida
albalat
albalate
albanchez
albaneses
albanesi
albania
albanian
albany
albert
alberta
alberti
alberto
albin
albrecht
albright
albrights
album
albumes
albums
alca
alcala
alcaraz
alchimie
alcida
alco
alcohol
alcoholic
alcoholisme
alcolea
alconada
alcor
alcover
alcu
alcubilla
alcun
alcunc
alcunes
aldea
aldealcorvo
aldealengua
aldeanueva
aldeaseca
aldeason
aldehorno
aldehuela
aldeonte
alderney
alderwood
aldouane
aldous
ale
aleen
alegre
alejandri
aleksa
aleksandar
aleksander
aleksandr
aleksandra
alenka
aleppo
ales
alex
alexandar
alexander
alexandr
alexandra
alexandre
alexandria
alexandro
alexandros
alexei
alexey
alexia
alexis
alfa
alfabet
alfabete
alfara
alfonso
alfoz
alfred
algar
algebra
alger
algeria
algirdas
algun
alguns
alhama
alhazen
alheim
ali
aliantie
alic
alicante
alice
alicia
alien
alienat
alighieri
alihan
alii
alija
alimentes
alineat
aliot
alisa
alison
alive
alix
aliyev
aljarafe
aljos
alkmaar
all
alla
allach
allainville
allan
allardville
alle
allee
allein
allen
allensbach
aller
alles
alley
allgemeine
alliage
alliages
alliantie
allianties
allianz
alliat
alliate
alliates
allison
allotropes
alloy
alma
almagest
almanac
almaty
almaza
almdudler
almeida
almen
almenara
almendra
almeri
almodo
almonacid
almond
alnes
alo
alocution
alofa
alone
along
alonso
alontanant
alor
alora
alpes
alphabet
alphabete
alphonse
alpin
alpines
alqual
alquande
alquant
alquel
alqui
als
also
alster
alt
alta
altarejos
altas
altdorf
alte
alten
altenburg
altera
alterant
altere
alternant
alternativ
alternative
altes
altesse
altfriesack
alti
altita
altmen
alto
altona
altore
altra
altre
altres
altri
altriloc
altrimen
altris
altstadt
aluminium
alvar
alvarado
alves
alvi
alzette
am
ama
amac
amadeus
amalfi
amalie
amanda
amant
amante
amar
amat
amateur
amazo
amazon
amazonia
amb
ambassade
ambassador
ambassadora
ambe
amberg
ambi
ambiciosi
ambis
ambrose
ame
amela
amelia
amelie
ameliorar
ameliorat
amelioration
ameliorationes
amen
ameno
americ
america
american
americana
americanes
americas
amerika
amerindian
amfibies
amforo
ami
amic
amica
amicis
amicita
amico
amicos
amiens
amiko
amin
aminata
amis
amman
ammann
ammbi
ammersee
ammon
amodellation
amor
amore
amorf
amoroses
amos
amour
amours
ampara
ampezzo
ampli
ampurias
amrun
amsterdam
amt
an
ana
anagance
analisa
analisat
analise
analises
analitic
analitico
analog
analysing
analysis
analytic
analyticmen
anarchismes
anarchist
anastasia
anastasiadis
anatole
anatolia
anatomic
anatomie
anaya
anc
ancestors
ancian
ancient
ancor
and
andalie
andaluci
andalus
andalusia
andere
anderen
anders
andersch
andersen
anderson
andersonville
andes
andorra
andra
andre
andrea
andreas
andreescu
andrei
andrej
andres
andreu
andrew
andrews
andrey
andriy
androv
andrus
andrzej
andy
ane
anelle
anelles
anett
anexe
anexet
anfield
ang
angel
angela
angeles
angelika
angelique
angelo
anger
angers
angkor
angla
angle
angles
anglese
angleses
anglesi
anglia
anglican
anglistica
anglo
angola
angostura
angst
angul
angules
anhalt
ani
anica
anidros
animal
animale
animales
animalic
animals
animanta
animat
animata
animation
anita
aniversario
ankara
anke
anlıurfa
ann
anna
annalena
annapolis
anne
annegret
annelle
annes
annette
annexet
annie
annikki
anniversarie
anno
annos
annu
annual
annualmen
annullat
annunciar
annuncies
annus
ano
anonim
anori
ans
ansbach
anse
ansi
ansip
antagoniste
antagonisti
antalya
antananarivo
antanarivo
antanas
antarctic
ante
antecessor
anterior
anteriori
antesignes
antey
anteyan
anteyneandertales
anthology
anthony
anti
antibiotics
antic
antiferromagnete
antigua
antike
antilles
antioquia
antiquat
antique
antiqui
antiquita
antje
anto
antoine
antologia
antologie
antologies
antologio
antolojia
anton
antonetti
antoni
antonio
antonius
antony
antoon
antropologic
antropologie
antti
antwerpen
anubis
anulla
anullation
anuncia
anunciar
anuncias
anunciat
anunciation
anuncie
anuncies
any
anys
anza
aoun
aparate
aparates
apare
aparent
apari
aparit
aparition
apartado
apartena
apartene
apartenet
apartmen
apartne
apec
apelle
apen
apene
apert
aperte
aperter
apertet
apertion
aphrodites
apia
apichat
apis
aplaudimentes
aplica
aplicabil
aplicat
aplication
aplicationes
apo
apocalipse
apocalypse
apoge
apohaqui
apollo
apologetich
apologie
apoplexie
aporta
aportar
aportat
apoteca
apoy
apoya
apoyar
apoyat
appari
apparir
apparit
apparition
appartene
apparteni
appell
appenzell
applica
applicable
applicar
application
apportar
appreciation
apprender
apr
apreciat
aprende
aprender
aprendet
aprensibil
aprension
aprentisage
aprentise
april
aprilo
aprioristic
aprobat
aprobation
aproxima
aproximacio
aproximante
aproximat
aproximativ
aproximativmen
apu
apud
apulia
aputova
aqua
aquareles
aquas
aquatics
aquest
aquests
aquin
aquitaine
aquitania
aquo
ar
ara
arab
araba
arabe
arabes
arabi
arabia
arabic
arabo
arago
aragon
aragone
aragones
aragoneses
aragonesi
arahuetes
aramee
aran
aranda
arandilla
arangea
arangeament
arangeamentes
arangeat
araucani
arauzo
arawak
arbeau
arbiseva
arbitrage
arbitrari
arboletes
arbor
arc
arcade
arcadia
arcaic
arcerie
archaea
archange
archeolog
archeologic
archeologie
archi
archibald
archimedes
archipelago
archipelagos
architecte
architectura
architectural
architecture
archive
archives
arco
arcones
arcos
arctic
ard
ardern
are
area
areas
arec
arena
arenas
arenillas
areopag
ares
arest
arestat
areste
arestet
arevalillo
argan
argelia
argent
argente
argentina
argil
argile
argon
arguet
argument
argumentat
argumentation
argumentes
arguso
arian
arianisme
arie
ariel
arif
aristarchus
aristocratic
aristoteles
aristotelian
aristotelic
arium
ariva
arivat
ariza
arizona
arkansas
armagh
armas
armat
arme
armen
armenia
armenian
armes
armin
armond
arms
armstrong
armun
arndt
arnold
arnsberg
aroostook
around
arovic
arran
arrangea
arriba
arriva
arrivar
arrivat
arrivation
arrondissement
arrondissements
arroyo
ars
arse
arsen
arsenal
arseniy
art
arte
artefactes
artes
arthur
arthurette
articles
articul
articules
artifical
artificial
artis
artisanes
artist
artiste
artistes
artistic
arts
artsakh
artur
arturo
arvid
arxiduc
arzobispo
as
asa
asce
ascendentie
ascender
ascendet
ascension
ascetic
ascetica
aschaffenburg
aschwanden
asgard
asgordas
ashgabat
ashland
ashleigh
ashraf
asi
asia
asian
asiatic
asien
asil
asma
asmara
asociat
asociation
asociationes
asocio
aspa
aspecte
aspectes
aspectu
aspirant
asqar
assad
assaigs
assalte
assaltes
assassinat
assassination
assecurantie
assediat
assedie
assemble
asserte
assertet
assertion
assimilat
assiria
assistent
assistenta
assistente
assister
assistet
associar
associat
association
associationes
assumptes
assumption
astana
asteroide
asteroides
astle
astonat
astres
astrid
astro
astrofisica
astrologie
astronaut
astronautes
astronom
astronomic
astronomie
asturia
asturian
asturias
asuncio
at
ata
atacca
ataccas
ataccat
ataccera
atalho
atapuerca
ate
atelier
atender
atendet
atentate
atention
aterra
aterrar
aterration
atestat
athina
athletica
athletics
athlone
atholville
atienza
atifete
atin
atinge
atinger
atinget
atitude
atla
atlanta
atlantic
atlantique
atlas
atle
atletes
atletica
atmosfere
atmosferic
atolle
atom
atomes
atomic
atomisme
aton
atp
atrae
atraer
atraet
atration
atres
atribuet
atta
attacca
attentate
attention
attila
attin
attinge
attraction
attrae
attribuet
au
aubing
auch
auckland
audi
audial
audientes
audir
audit
audition
auditori
auditoria
auditorie
audrey
aue
auf
auffarth
auflage
aufstieg
aug
auge
augere
augmenta
augmentar
augmentat
augmentation
augsburg
augsburger
august
augusta
auguste
augustin
augustus
aulac
auli
aure
auree
aures
auric
aurignacian
aurin
aurora
aus
ausgetragen
ausgewa
ausia
ausias
auslusong
ausschwitz
ausserrhoden
aussicht
austen
austin
australia
australian
australianes
austria
austrian
austronesian
ausweg
auto
autobahnpolizei
autobiografic
autobiografie
autocton
automaticman
automaticmen
automobil
automobile
automobiles
autonom
autonomia
autonomie
autor
autores
autoressa
autoressas
autori
autorita
autoritari
autorite
autoro
autors
autumn
autun
autune
auvergne
aux
auxiliaire
auxiliar
auxiliares
auxiliari
auxiliary
auxiliat
auxilie
ava
avan
avaneda
avansat
avanse
avantage
avantages
avara
avaz
avdullah
ave
avec
avelino
aventura
aventuras
aventuri
aviation
aviatorunite
avicenna
avie
avies
avigdor
avila
avion
aviones
avis
avise
aviv
avo
avocate
avocates
avon
avondale
avus
award
away
axel
axiome
ay
ayant
ayllo
ayrault
ayrshire
ayuso
az
azaba
azarenka
azawad
azerbaidjan
azerbaidjanesi
aziz
aznar
azores
azov
azra
azur
azzan
b
ba
baal
babacan
babel
babilonia
babis
baby
babylon
bac
baccalaureo
bach
bachmann
back
background
bacon
bacteria
bad
baden
badgley
bading
badminton
badric
baekje
baerbock
bagdad
bages
bagre
bahamas
bahc
bahia
bahn
bahnhof
bahrain
bai
baia
baie
baixada
bajo
bajrovic
baker
bakir
bakr
baku
bakuriani
bal
bala
balaguer
balancie
balaton
balcan
balcanico
bale
baleanico
balear
baleares
baleari
balearies
baleateca
balingen
balkan
balkanic
balkenende
ball
balla
ballade
balladen
balle
ballette
ballistic
ballon
balmont
balmoral
balneari
balneri
baltic
baltimore
bamako
bamberg
ban
bana
banc
banca
bancas
bancrott
band
bandar
bande
bandera
bandes
bandic
bandung
bang
bangalore
banghok
bangkok
bangladesh
bangui
baniszewski
baniszweski
banja
banjaluka
banjul
bank
bankero
bankeros
bankes
bann
bano
banos
banquette
banska
bansko
bantu
baptisat
baptisme
baptista
baptiste
baptistes
bar
bara
barack
barakaldo
baranja
barbadillo
barbados
barbara
barbe
barbolla
barbosa
barbuda
barca
barcelona
barcino
barclay
barco
bardella
bardolino
barham
bari
bariju
baril
barley
barngarla
baroc
barolle
baron
barres
barrio
barrios
barroc
barrows
barry
bartholdy
bartibog
bartolome
bartomeu
bartomeua
barty
barueri
baruth
barysau
barzilai
bas
basa
basardilla
basat
basc
base
baseball
basel
bases
basha
bashar
bashir
basho
basic
basicmen
basilica
basis
basketball
basketballe
baskets
baskettball
bass
basse
basseterre
bassine
bassviolin
bastament
bastet
baston
bat
bataille
batallie
bates
bath
bathurst
batkiwschtschyna
baton
bator
battalie
battallia
battalliant
battallie
battle
battuta
batumi
baucau
baudet
bauer
baum
bautista
bautzen
bauza
bavaria
bavarian
bay
baya
bayer
bayern
bayernkurier
bayernliga
bayes
bayreuth
bayrischer
bayside
bbc
bbz
bc
bce
bd
bdp
bdu
be
beach
beagle
bear
bearbeitung
beata
beatles
beatrice
beatrix
beatriz
beau
beaubassin
beauchemin
beaufront
beaumont
beaver
beaverbrook
bebe
bec
became
becerril
beck
becker
beckmann
bedr
beecham
beer
beeren
beethoven
before
befreite
begawan
behavior
bei
beijing
beiler
beim
beira
beirut
bekli
bel
belaja
belang
belarus
bele
belfast
belfort
belgia
belgian
beli
believe
belize
bell
bella
belledune
bellefleur
bellen
belles
bellinzona
bellita
bello
bells
bellta
belmira
belmonte
belmopan
belo
belousov
beltinci
beltz
ben
benali
bene
benedict
benedictus
benedit
beneficies
benes
bengali
bengalia
bengasi
benguela
benhavn
beni
benidorm
benin
benito
benjamin
benjamina
benjamins
bennett
benoi
benque
bensheim
bente
bentheim
bentost
benz
benzell
beograd
beppe
ber
bera
beration
berber
bercial
bercianos
bercimuel
berdimuhamedow
berenice
berenika
beresford
berg
bergamo
bergdoktor
bergen
berger
berggießhu
berggren
bergman
bergmann
bergzabern
beric
berichtaus
berkeley
berkshire
berland
berlin
berlinale
berliner
berlusconi
bern
bernard
bernardos
bernau
bernd
bernhard
bernuy
berri
berrocal
berry
bersicht
bert
berta
bertelsmann
bertil
bertolt
bertrand
beruchashvili
berwick
besa
besanc
beson
besona
besonat
besonio
bessarabia
best
besties
bet
beta
bethlehem
bethlem
betrugs
betrunken
bettel
bettina
betty
betulia
between
beuter
bevanda
beverly
bevilacqua
beweissicherungs
bexbach
beyond
bezalel
bezirkstag
bezonas
bfe
bg
bharatiya
bhasa
bhubaneswar
bhuneswar
bhutan
bi
biallas
bialystok
bianca
biathlon
biatlon
białystok
bibblia
bible
biblia
biblic
bibliografia
bibliografie
bibliome
biblioteca
bibliotheca
bibliothek
bibliotheken
bic
bicicle
biciclisme
bicycle
biddle
biden
bidzina
biel
bielefeld
bieliruss
bielorussia
bielorussian
bienne
bienwald
bierce
biertimpel
bierzo
bietigheim
big
bih
bihac
bihar
bijelina
bike
bil
bilal
bilbao
bild
bilic
bilinguisme
biljana
bill
billa
billetes
billian
billion
billy
bilthoven
bin
binali
binche
bingen
bingo
binh
binke
bio
biobi
biochimie
biografie
biografies
biologic
biological
biologie
biologiste
biology
bip
bir
birds
bireri
birgit
birkenwerder
birkirkara
birmingham
biro
birth
birthe
bis
bisbe
biscaya
bisch
bischofshofen
bisera
bishkek
bishop
bislama
bismarck
bissau
bissextil
bissingen
bistrit
bitburg
bitcoin
bitola
bittenfeld
bitterfeld
biz
bizantin
bizantio
bjo
bk
bka
bla
black
blacks
blackville
blair
blanc
blanca
blanch
blanchard
blanchett
blanco
blanke
blason
blatter
blau
blaue
blazers
bleckede
bleu
bleue
bli
blica
blicat
blingen
blinken
blitzkrieg
bloc
blococaten
bloemfontain
bloemfontein
blog
blogspot
blok
blome
blond
blood
bloom
bloomfield
blori
blu
blue
blues
blumberg
blythe
blyton
bmw
bmx
bo
boadilla
board
bob
bobby
boca
bocairent
bocale
bocales
boccaccio
boccace
boceguillas
bochum
bode
bodenstedt
bodo
bodom
bodrum
body
bodø
boedo
boeree
boeselager
bogdan
bogenhausen
bogenschießen
bogota
bohaty
bohemia
bohemian
bohr
bohuslav
boi
bois
boise
bojan
bojana
bojer
bokale
bol
bolchevism
bole
boleslav
boletin
bolgrad
boli
bolivia
boljitak
bolletin
bolnisi
bologna
bolsonaro
boltenhagen
bombes
bon
bona
bonaparte
bond
bonds
bone
bones
bongrange
boni
bonn
bonnie
bono
bons
bonvenit
book
books
bop
bor
bora
borac
borchert
bord
borde
bordeaux
border
borge
borgesi
borgesis
borgo
borgomastra
borgomastre
borgomastro
boris
borislav
borisov
borjans
bormio
born
borneo
bornholm
borough
borovsky
borussia
borut
bos
bosanski
bosansko
boschi
bose
bosic
bosna
bosne
bosnia
bosniak
bosniakes
bosnian
bosnien
boson
bosshard
bossy
boston
botafogo
botanica
bote
botswana
botte
bottrop
bouches
bougainville
boum
bourbon
bourdieu
bourgogne
bournemouth
bove
bover
boves
bow
box
boxero
boy
boys
boz
bozzacchi
bp
bpol
bpolabt
bpolafz
bpold
br
bra
brabant
brac
brad
braddy
bradley
brae
braga
brahe
brain
brajovic
bram
bramstedt
branche
branches
brandenburg
brandenburgia
brando
brandt
brandy
branford
branko
bras
brasi
brasil
brasileira
brasileiro
brasilia
brasilian
bratislava
bratus
braunschweig
bravo
bray
brc
brd
breathe
brecht
brecqhou
breda
bredstedt
bregenz
breher
breinigerberg
breinstrup
breisgau
breitbart
bremen
bremer
bremerhaven
bremm
bremstedt
brenner
brenz
bresadola
breslau
brest
bret
bretagne
breton
bretonia
brev
breve
brevi
brexit
brian
brianne
brice
bricen
bricker
bride
bridge
bridgeport
bridgetown
briefe
briest
brieva
brighton
brigitte
brijeg
brilliant
brilon
brinker
brion
briques
brisbane
bristol
britain
britan
britania
britanic
britannia
britannic
britannica
britannicos
british
brittany
brizio
brnabic
brno
broadcasting
brochuras
brochures
brochurete
brochurette
brocken
brongersma
bronisław
bronze
bronzin
brook
brooklyn
brose
brot
brown
broz
bru
bruce
bruder
brue
brugge
bruiso
brulat
brun
brunei
bruno
brunswick
bruxelles
bsc
bt
bu
bucarest
buch
buchdruckerei
buchner
budapest
buddhisme
buddhist
buddho
buddy
bude
budgete
budgetes
budha
budhisme
budimir
buduc
budva
buena
buenesso
buenos
buffalo
bug
bugojno
buhari
buin
buitrago
bujar
bujumbura
bulatovic
bulawayo
buletino
bulgar
bulgares
bulgaria
bulgarian
bulgaric
bull
bulle
bulletin
bulletine
bulletines
bullock
bulls
bund
bundesamt
bundesbereitschftspolizei
bundesbereitschftspolizeipra
bundeskriminalamt
bundesliga
bundespolizei
bundespolizeiabteilung
bundespolizeiabteilungen
bundespolizeiakademie
bundespolizeidirektion
bundespolizeiinspektion
bundespolizeiinspektionen
bundespolizeipra
bundespolizeireviere
bundespolizeisportschule
bundestag
bundeswehr
bunta
buono
burdon
burdones
bureba
burg
burgas
burgdorf
burgenland
burgo
burgos
burhan
buric
buried
buritica
burjanadze
burke
burkhard
burkina
burlesc
burlington
burma
burmese
burnett
burning
buro
burroughs
bursa
burton
burundi
bus
busan
bush
bushmen
business
buskerud
busovac
bustillo
butare
butica
butkevic
butones
buxe
buxtehude
bv
by
byealex
bylsma
byrne
bystrica
byzantan
byzantin
byzantines
c
ca
caballar
caballero
caballeros
caban
cabanes
cabanillas
cabeza
cabezas
cabezo
cabezuela
cabin
cabinette
cable
cabo
cabra
cabral
cabreiros
cabrera
cabritets
caccia
cacuma
cade
cader
cadet
caduc
caen
caesar
caesarion
cafe
cage
cagliari
caicedo
cairo
caixa
cala
calabazas
calabria
calais
calatrava
calcul
calculat
calcutta
caldas
calde
caldera
caldero
caldes
calendar
calendare
calendares
calentante
calentat
calentation
calgary
cali
calid
calif
califatu
california
callao
calle
calling
calore
caloric
calpe
calpurnia
calvados
calzada
cam
camargo
cambiar
cambillon
cambios
cambo
cambodja
cambridge
came
camera
cameron
cameroon
camerun
camiel
camino
camouflaged
camp
campaign
campania
campanie
campanies
campbell
campe
campeonato
campes
campillo
campillos
campionato
campo
campoo
campos
camus
can
canada
canadeses
canadesi
canadian
canal
canale
canales
canaria
canarias
canberra
cancellaria
cancelleria
cancellero
cancer
cancere
candida
candidar
candidat
candidata
candidate
candidates
candidatura
candido
canel
canes
canet
canillas
canne
cannes
cannily
cannock
cannondale
cano
canon
canson
cansones
cant
canta
cantabria
cantalejo
cantar
cantat
cantator
cantatora
cantatores
cantatoressa
cantatrice
cante
canterbury
cantespino
cantessa
cantimpalos
canton
cantonal
cantones
cantoressa
canvi
canyon
canzon
canzones
canzuk
caotic
cap
capabil
capabilita
capacita
caparo
cape
capek
capella
capilles
capital
capitale
capitalisme
capitalist
capitano
capitel
capitol
capitul
capote
capres
captation
capte
captet
captura
car
cara
carabott
carabus
caracas
caracoli
caracter
caractere
caracteri
caracterisa
caracterisant
caracterisat
caracteristic
caracteristica
caracteristicas
caramanta
caraquet
carbohidrates
carbon
carbonero
carbonic
cardella
carden
cardiff
cardinal
cardinales
cardiovascular
care
carema
cargo
caribica
cariera
carintia
carioca
carl
carla
carles
carlet
carlevaro
carlo
carlomagne
carlos
carlsen
carmen
carne
carnevale
carol
caroli
carolina
caroline
carolmagne
carpathic
carpe
carpenter
carpio
carrascal
carrascosa
carre
carrero
carrie
carriera
carrio
carroll
carson
carst
cart
cartagena
cartaginesi
carte
cartel
cartes
carthage
cartum
cartusie
carvajal
carver
carwyn
cary
casa
casablanca
casas
casaseca
casasola
cascade
cascajares
casco
caseri
casey
casino
casinostr
casla
caspian
caspic
cassero
cassette
cassidy
castan
castejo
castel
castela
castell
castella
castellan
castellana
castellano
castellanos
castellar
castelle
castelles
castellfollit
castellian
castello
castellterc
castilia
castilla
castilleja
castillejo
castillo
castilnovo
castle
castrejo
castricum
castries
castrillo
castro
castrojimeno
castroponce
castroserna
castroserraci
casu
casualmen
casus
cat
catacumba
catala
catalan
catalana
catalanes
catalanisat
catalans
catalog
catalonia
catalunya
catarina
catastrofal
cate
catechism
catedrale
categorie
categories
category
caten
catene
catenes
caterina
cathedral
catherine
catho
catholic
cato
catolic
catolica
catolicisme
catolicos
cauca
caucasia
caucasus
caude
caus
causa
causal
causar
causas
causat
causation
cause
causes
cavaco
cavall
cavalle
cavalles
cavalliero
cavallieros
cavallstaffel
cave
caves
cayenne
cazeneuve
cazin
cd
cdeli
cdot
cdu
ce
ceara
cebria
cecilia
cedet
cedillo
cedynia
cee
cega
ceja
cel
celat
celebra
celebrar
celebrat
celebration
celebri
celerimen
celestial
celestina
celia
celje
cella
celle
cellul
cellulari
cellules
cellulose
celsius
celtes
celtic
cemente
censor
censu
censura
cent
cental
centar
centelles
centene
centenes
centennie
center
centimetres
central
centralafrican
centralamerican
centrale
centrales
centralisat
centralstation
centrat
centre
centres
centrist
centristic
centro
century
cepeda
ceramica
cerar
cerarja
cercedilla
cercos
cerdanya
cerebre
ceremonie
ceres
ceresole
cerezo
cerrato
cerro
cert
certa
certe
certmen
cervantes
cervello
cervera
cesar
cesare
cessa
cessat
ceuta
cevico
cgi
cgl
ch
cha
chabi
chac
chacun
chad
chaguanas
chain
chalcolitic
chambre
chambres
champion
championatu
championatus
championes
champions
championships
chan
chance
chang
change
changea
changeament
changeamentes
changeant
changear
changeat
changes
changing
chanson
chansons
chante
chapel
chapelle
char
chara
character
characters
charge
chargeat
charges
charita
charite
charles
charleston
charlie
charlotte
charlottenburg
charlottetown
charmant
charmonix
charta
charte
chascun
chase
chassada
chassar
chassatores
chassatori
chatham
chaux
che
cheboksary
chef
chefes
chefin
chefmen
chefs
chega
chelsea
chemic
chemical
chemistry
chemnitz
chennai
chennevie
chenonceaux
cheon
cher
cherhill
chernihiv
chernivtsi
cherson
cheseaux
chess
chester
cheyenne
chhattisgarh
chi
chiapas
chicago
chicu
chidlow
chiemgau
chiemsee
chigorodo
child
children
chile
chillon
chimic
chimicalies
chimicmen
chimie
china
chine
chines
chinese
chinesi
chingen
chirurgia
chirurgie
chis
chiuj
chl
chlodwig
chlorophylle
chner
cho
choice
chongqing
chopin
chopra
chosse
chov
chow
chozas
chr
chre
chrestomathie
chril
chris
christ
christchurch
christensen
christian
christiane
christianisme
christianity
christianos
christie
christina
christine
christkind
christmas
christo
christof
christofilou
christoph
christopher
christophus
christus
chromosom
chrupalla
chrysalis
chrystia
chse
chstadt
chter
chu
chuck
chung
church
churchill
ci
cia
ciba
cibber
cicade
cicero
cicle
ciclic
ciclisme
ciclist
ciclope
cid
ciel
cieles
cies
cigarettes
cigne
cikhanovskaya
cil
cilleruelo
cim
cime
cinca
cincinnati
cinema
cinque
cintura
ciolos
ciotti
circa
circe
circle
circuit
circuites
circul
circulaire
circulari
circulation
circules
circum
circumat
circumda
circumdant
circumdat
circumeat
circumita
circumital
circumite
circumstanties
circumvola
cirilic
ciruelos
cisneros
cita
citar
citat
citationes
cite
citean
citeanes
city
ciudad
ciutat
cive
cives
civic
civil
civilisat
civilisation
civilisationes
civilization
civilizations
civita
ck
cke
cken
cker
cket
cking
cklich
cklud
cla
clackson
clair
claire
clan
clar
clara
clare
clareton
clarinette
clark
clarmen
clase
clasica
class
classe
classement
classes
classic
classical
classicisme
classicos
classificar
classificat
classification
classified
clatskanie
claude
claudia
claudius
clause
clausewitz
claustre
clave
cle
clegg
cleggan
cleij
cleland
cleopatra
clerical
clerk
clermont
cleveland
clientes
clifden
clima
climate
climatic
climatologie
clinic
clinton
clippers
clocca
clock
clooney
cloppenburg
close
clothing
cloud
clovis
clu
club
clubbes
clubes
clubs
cludet
clues
cluj
clyde
cm
cmu
cndd
co
coalition
coaltion
coast
cobar
cobold
cobos
cobra
coburg
coc
coca
coche
cocine
cocinero
cock
cocorna
code
codex
codificat
codification
codonal
codorniz
coelho
coercivita
cognitiv
coherent
coidealistes
coimbra
coition
col
cola
colaborat
colaboration
colaborator
colas
cold
cole
colecte
colecter
colection
colectiones
colectiv
colectivmen
colere
coline
colines
collaboration
collaboratores
collado
collapse
collar
collection
collectives
college
colley
collodi
colmenar
colo
coloma
colomba
colombia
colombo
colombus
colonel
colonia
colonial
colonialisme
colonias
colonie
colonies
colonisat
colonisation
colonistes
colonnes
color
colorado
colores
coloring
colors
colp
colpe
colpes
columbia
columbian
columbo
columbus
columnes
com
coma
comandante
combattar
combatte
combatter
combattes
combattet
combina
combinat
combination
combinator
combinist
combustion
comcercial
come
comediante
comedico
comedie
comedies
comedy
comemorar
comenc
comensa
comensamentes
comensant
comensante
comensar
comensat
comense
comenses
comercial
comerciant
comerciante
comerciantes
comercie
comes
cometes
comic
comico
comics
coming
comissario
comisset
comission
comita
comite
comma
commandante
commandas
comme
commensa
commensat
commense
commercial
commission
commite
committee
common
commonwealth
commonweath
commun
communaute
commune
communication
communisme
communist
communistic
communita
communite
community
como
comoros
compact
companie
companies
company
compara
comparant
comparar
comparat
comparation
comparationes
comparativ
comparative
compatibil
compensation
competent
competenties
competiones
competition
competitiones
compilat
compilation
compilationes
compleet
complement
complementation
complet
completa
completar
completat
complete
completes
completion
completmen
complex
complexe
complexita
complicat
component
componentes
components
composi
composit
composites
composition
compositiones
compositor
compositora
compositores
compostela
compra
comprar
comprat
comprende
comprender
comprendet
comprensibil
comprensibilia
comprensibilmen
comprension
compressibilita
compression
compromisse
compromisses
computar
computation
computator
computatores
computer
computeres
comte
comti
comtia
comtias
comto
comun
comuna
comunal
comunalite
comunica
comunicar
comunicat
comunication
comunidad
comunisme
comunist
comunistes
comunistic
comunita
comunitat
comunite
comunmen
con
conakry
conan
conca
concede
concedet
concentra
concentrat
concentration
concepcio
concept
concepte
conceptes
conceptet
conception
conceptiones
concerne
concernent
concernet
concert
concertes
conchita
concil
conciliar
concilie
conciliero
concludente
concludet
conclusion
concord
concordat
concordia
concret
concurrent
concurse
condado
condamnat
conde
condensat
condition
conditional
conditionale
conditiones
conducte
conducter
conductet
conductiv
conductivita
conductor
conduida
conection
conexe
conexet
conexion
confederation
conference
conferentie
conferenties
confession
confidential
confidentie
configuration
confinat
confirma
confirmat
confiscat
conflict
conflicte
conflictes
conflue
confluentie
conforma
conformante
confrontation
confucianisme
congan
congediament
congelation
congo
congosto
congregation
congres
congreso
congress
congresse
congresses
congressista
conic
conjug
conjugation
conjugatione
conjunctiones
conjunctive
conlang
connacht
connecticut
connector
connosset
conomique
conose
conosse
conossentat
conossentie
conossenties
conosser
conosset
conquesta
conquestat
conquestation
conquestator
conqueste
conquista
conrad
consacrat
conscient
conscientie
conseil
consense
consentiment
consentit
consequentie
consequenties
conserva
conservador
conservar
conservat
conservatic
conservation
conservatisme
conservativ
conservatives
conservator
considera
considerabil
considerabilmen
considerar
considerat
consiliat
consiliator
consilie
consiliera
consiliero
consilies
consilio
consiste
consistent
consistentie
consister
consistet
consocios
consolidar
consolidat
consonant
consonante
consonantes
consonants
conspiration
constant
constanti
constantine
constantinople
constantinopolis
constantmen
constatar
constatat
constellation
constitue
constituent
constituet
constitution
constitutional
constitutionalist
constructe
constructer
constructet
construction
consules
consultant
consultation
consumentes
consumption
conta
contact
contacte
contactes
conte
contemplation
contemporan
contemporani
contemporary
contene
contenent
contenet
contenete
contenetes
contenor
content
contenta
contente
contes
contest
context
contextu
contine
continent
continental
continente
continentes
continu
continua
continual
continuar
continuat
continuation
conto
contores
contos
contra
contrabanderos
contrabandistes
contracte
contrareforma
contrari
contrarie
contrast
contraste
contrate
contre
contreras
contribu
contribuent
contribuet
contributiones
control
controla
controlat
controlle
controversial
convenida
convenient
convente
convention
conventu
convergentie
conversation
conversationes
conversion
conversiones
convertet
convictet
conviction
convictiv
cook
coolen
coolio
cooper
coopera
cooperar
cooperat
cooperation
cooperativ
coordinat
coordinates
coordination
copa
copacabana
copernicus
copias
copies
copper
coppola
cops
copula
cor
corage
coral
coram
coran
corbe
corbera
corbes
corbyn
corde
cordes
cordial
cordie
cordies
corea
corect
corectet
corella
coresponde
corespondent
corespondentie
corespondet
coridor
corinna
corinte
coritiba
cork
corneja
cornelia
corner
cornesi
cornwall
coron
corona
coronament
coronas
coronat
coronation
corpor
corporal
corporation
corpore
corpores
corpus
corral
corrales
correa
correct
correctet
correlative
correlatives
corresponde
correspondent
correspondet
corriere
corruption
corsesi
corsete
corsica
corsican
corso
cort
corte
cortes
cortina
cortinas
corun
coruption
cose
coses
cosmic
cosmo
cosmoglotta
cosmoglottacosmoglotta
cosmologie
cosmos
cossi
costa
costal
costalago
costalagoli
costalagosubuqti
costas
coste
costumes
costumistes
coswig
cotar
coteau
coto
cotonou
cottbus
cotxo
country
county
cour
courier
cours
course
court
courtney
couto
couturat
cov
covalent
cove
coventry
covid
covri
covrir
covrit
cowen
cozuelos
cozumel
cracovia
cracovie
craig
crandall
craven
cre
crea
creante
crear
creat
creation
creativ
creator
creatores
creaturas
crede
credent
credentie
credenties
credet
credo
creek
creol
creoles
creolic
crepuscul
cresce
crescent
crescente
crescentie
crescer
crescet
creta
creux
creve
cri
cricket
cries
crime
crimea
criminal
criminardes
crimine
crimines
criptomone
crise
crises
crist
cristalle
cristalles
cristallin
cristan
cristanes
cristanisme
cristdemocratic
cristes
cristia
cristian
cristianes
cristianisme
cristina
cristo
cristof
criterie
criteries
critic
critica
criticaci
critical
criticant
criticantes
criticas
criticat
critico
criticos
critics
crnadak
cro
croat
croates
croatia
croatian
croke
cronat
crone
cronicas
cronologic
cronologie
crosby
cross
crossing
crossminton
crotian
cruce
cruceade
cruceat
crud
crula
cruste
cruz
crystal
cs
cseligman
csorna
csu
ctere
cteres
cteri
ctica
ctines
ctor
ctric
ctricita
cu
cuba
cubal
cubic
cubillas
cubillo
cubo
cucuteni
cue
cuenca
cuerpos
cuesta
cueva
cuevas
cueza
cugat
cuiaba
cuidar
cuje
cul
culminar
culminat
culmination
culpa
cult
cultivar
cultivat
cultivation
cultur
cultura
cultural
culturas
culture
cultures
cumbres
cunha
cunicul
cup
cuple
cupre
cura
cure
curial
curie
curieses
curitiba
curling
current
currente
currentes
curret
currida
curriero
curs
curse
curses
cursu
cursus
curt
curtis
curtmen
cusano
cusco
cusina
custa
custas
customalmen
customari
customarimen
customes
custosi
cuthbert
cuxhaven
cvijanovic
cycling
cymru
cyndi
cypria
cyril
cyrillic
czaja
czaputowicz
czernin
cœur
d
da
dabei
dabeiba
dac
dachau
dacian
daegu
dagmar
dahl
dahlmeier
dahme
dainis
dakar
dakota
dal
dalhousie
dali
dalia
dall
dallas
dalmatia
dalt
dalton
dam
dama
damage
damages
damas
damascus
dame
dameto
damian
damir
damon
dampierre
damzelo
dan
dana
danas
dance
danes
danesi
dangere
dangeres
dangeros
dangerosi
dani
dania
danian
daniel
daniela
daniil
danijel
danilo
danilovgrad
danka
danko
danny
danos
dans
dansa
dansar
dansas
dansera
dansk
danson
dante
danube
danubia
danubio
danzig
dao
dar
dares
daressalaam
darja
dark
darko
darmstadt
darreria
darwin
das
dat
data
database
datar
datas
datat
datation
date
dates
datos
datum
daugava
daugavpils
davao
dave
davenport
davi
david
davids
davis
davor
davos
davutog
dawn
dawson
day
days
dayton
dazlo
dchen
dd
ddeutsche
ddr
de
dea
deacon
dead
dean
death
debacle
debaltseve
debatet
debatte
debbie
debe
debil
debilisa
debit
debites
debrecen
debreceni
debut
dec
decade
decadentie
dece
decede
decembre
decene
decennie
decennies
decentralisat
decesim
deci
decibeles
decide
decider
decidet
decidu
deciduesim
deciesim
decininesim
decisettesim
decision
decisiones
decisiv
decitri
deciun
deciunesim
decker
declara
declarat
declaration
declassification
declinante
declinat
declive
declives
deconstruction
decora
decoration
decovrie
decovrit
decovrition
decovritiones
decret
decretat
decretos
dedicat
dedikita
dee
deepin
deer
deesa
deessa
defectes
defende
defendent
defender
defendet
defense
defensor
defensore
defensores
defeta
defetat
defete
defetes
defiante
deficite
defini
definir
definit
definition
definitiones
definitiv
deformar
deformation
deg
degas
degenerat
deggendorf
dehesa
dehiwala
dei
dein
deita
dek
del
delator
delaware
delegation
delegitaro
deletion
delfina
delhi
deli
delimitation
delivery
dell
della
delle
delmenhorst
delmonte
dels
dem
dema
demac
demand
demanda
demandar
demandas
demandat
demande
dementulo
demi
demian
demigod
demigods
deminger
demirtas
demisset
demission
demissionat
democatic
democracy
democrat
democrata
democrates
democratic
democratie
democraties
democritus
demografic
demografie
demokrati
demokratie
demokratik
demokratischer
demokratska
demon
demonstra
demonstrar
demonstrat
demonstration
demonstrationes
demonstrative
demonstratives
demos
den
dena
dendias
deneuve
denis
denise
denkt
denmark
dennis
denominat
denomination
denominationes
denov
denova
denove
denpul
densi
densimen
densita
dentage
dente
dentist
denunciat
denver
denys
denzler
deo
deodoro
deos
departament
departe
departement
departet
department
depende
dependencies
dependent
dependente
dependentie
deplazzant
deplazzement
depo
deportat
deportivo
depos
deposites
depossedent
depoy
depression
depuis
deputates
deputation
deputatos
der
derberg
derby
deriva
derivat
derivates
derivation
derrick
derry
dervo
des
desacorda
desacordat
desapareix
desapari
desaparit
desaparition
descartes
descende
descendent
descendente
descendentes
descendet
descense
descent
deschanel
descollation
descovrit
descovrition
descri
description
descrir
descrit
descrition
desde
dese
desert
deserte
desertes
desertor
desfacil
desfacilar
desfacilita
desfigurat
desiderius
designar
designat
desinenties
desinhibides
desintegration
desir
desira
desirat
desire
desires
despaig
despat
despob
despotisme
dessau
dessin
dessinar
dessinat
dessine
dessines
dessuccesset
destaca
destacar
destaquen
destinat
destination
destino
destructe
destructet
destruction
destructiv
det
details
detal
detebe
detecter
determina
determinant
determinar
determinat
deterministic
detlev
detmold
detra
detroit
deu
deuschle
deutor
deutsch
deutsche
deutschen
deutscher
deutschland
deutschlands
devastat
deve
devel
developa
developament
developamentes
developar
developat
developation
developationes
development
developpament
developpat
developpation
deveni
deveniente
devenint
devenir
devenit
deventer
dever
devet
devi
deviationes
devil
devise
devises
devlet
devoet
devon
dewahl
dexter
dextre
dextri
dez
dezirexpreso
dfb
dhabi
dhaka
dhb
di
dia
dial
dialectal
dialecte
dialectes
dialectic
dialectos
dialetto
dialog
diamant
diamantes
diametre
diamond
diana
diane
diari
diarie
diaries
diarium
diaspora
diatomic
diccionari
diccionario
dich
dick
dickens
dickinson
dics
dictator
dictatura
dictionarium
dictionariums
dictionary
did
dida
die
diebasis
diego
diehl
dient
diente
diepholz
dies
dieter
dietrich
diez
difere
diferent
diferente
diferentie
diferenties
differdange
different
differentes
differentie
difuser
difuset
difusion
dig
diga
digestion
digital
digitalisat
dignita
digraf
digrafes
digue
dil
dilemma
dili
dillingen
dilma
dimension
dimensiones
diminue
diminuer
diminuet
diminution
diminutiv
diminutives
dimitar
dimitriev
din
dina
dinamo
dinarian
dinastia
dinastic
dinastie
dine
dinghausen
dinka
dinkelscherben
dino
dins
dio
diocese
diogenes
dios
dioxid
diplom
diploma
diplomat
diplomata
diplomatic
diplomatie
diputacio
diputados
dir
direccio
direct
directe
directet
direction
directiones
directiv
directmen
director
directora
directoratu
directores
directoressa
direktion
direkton
dirigente
dirk
dirketion
dirndl
disc
discerner
disciplina
discipline
disciplines
disco
discografie
discord
discos
discricte
discs
disctricte
discurs
discurse
discurses
discusset
discussion
discussiones
disease
disentis
disionario
dislocation
dismantellement
dismembrement
diso
disoluet
disperser
disperset
dispezzat
dispezzetta
dispezzettat
disponibil
dispositiones
disputa
disputabil
disputas
disputat
dispute
disputes
dissection
dissertation
dissidentes
dissolue
dissoluer
dissoluet
dissolution
distaccar
distance
distant
distantie
distanties
distinct
distinguente
distint
distinte
distinter
distintet
distintion
distintiv
distribuet
distribution
district
districte
districtes
distrites
disunit
dit
divenit
divers
diversa
diverses
diversi
diversita
divertides
divertissement
divide
divider
dividet
divin
division
divisiones
divorciat
divorcie
divulgar
diz
dj
djambi
djamena
djibouti
djilas
djudeo
djuna
dkreuz
dle
dmitri
dmitry
dmytro
dna
dnepr
dnevni
dnieper
dnipro
dnipropetrovsk
dns
do
doane
doaneros
doberan
doble
doboj
dobrindt
doc
doce
docent
docente
docentie
docet
doch
doctor
doctoratu
doctrina
doctrine
doctrines
document
documentari
documentat
documentation
documente
documentes
dodik
dodoma
dodon
doetinchem
doggerland
doha
dohm
doi
doktrino
dolata
dolera
dolina
dollar
dolor
dom
dombais
dome
domene
domenes
domes
domestic
domesticat
domestication
domicilie
domina
dominant
dominat
domination
domingo
dominia
dominias
dominic
dominica
dominican
dominie
dominion
dominique
domino
don
dona
donald
donar
donat
donatello
donatien
donationes
donau
donets
donetsk
donev
dong
donhierro
donika
donji
donmati
donnell
donnerstag
door
dophilie
dorau
doraus
dorf
doris
dorlota
dorme
dornbirn
dorothea
dors
dorset
dortmund
dos
dostoyevski
douala
douard
double
doug
douglas
dover
dovstoievski
down
doyle
dpmne
dps
dr
dra
dracula
dragan
draghi
draginja
drago
dragon
drahos
drake
drakeford
drama
dramani
dramas
dramati
dramatic
dramaturg
drammen
dramolett
drancy
dras
drau
draz
dream
dreams
drei
dreigroschenoper
drenage
drenat
dresden
dreyer
drina
drink
dritan
dritten
dro
droits
dromo
drosten
druck
drugs
drury
drvar
dryas
ds
dsap
dsu
dt
dte
du
dualita
duant
duantesim
duanti
dubai
dubitat
dublin
dubois
dubravka
dubrovnik
duc
ducatu
ducessa
ducessea
duck
duct
ducte
ductent
ductet
ductil
duction
ductor
ductores
dud
duda
duderstadt
due
duen
duero
duesi
duesim
duesma
duesme
duesmi
duesmim
duett
duette
duhamel
duisburg
dulci
dum
duma
dumitru
dumont
dunas
dunau
dunc
duncan
dundalk
dundee
dunes
dunovic
dunsany
duo
duoesi
duolingo
duple
duplic
duplicat
duque
dur
dura
durabil
durabilmen
duran
durant
durante
durar
durat
duration
durationes
durato
durban
durch
durent
durham
durre
duruelo
dus
dushanbe
dutch
duval
duvall
duvez
dva
dvd
dveri
dyer
dylan
dynastic
dynastie
dynasty
dz
dzsudzsa
dzyarzhynsk
e
ea
eagle
ear
early
earth
east
eastern
eat
ebe
ebersbach
ebert
ebre
ebro
ec
ecclesia
ecclesiastic
ecclesie
echternach
eck
ecker
eclata
eclesia
eclesias
eclesie
eclesies
ecologic
ecologie
econo
econom
economic
economica
economicmen
economics
economie
economist
economistes
ecuador
ed
edad
eddie
eden
edgal
edgar
edi
edicio
ediciones
edicions
edificie
edificies
edin
edinburgh
edirne
edison
edita
editat
editer
editerio
editet
edith
edition
editiones
edito
editor
editores
editori
editoria
editorial
editorias
edmond
edmonson
edmonton
edmund
edo
edu
eduard
eduardo
educat
education
educational
educativ
edukero
edukisto
edward
edwards
eee
eel
een
eeset
eeten
ef
efecte
efectes
efectiv
efectuat
effi
effortie
efforties
efik
efortia
eforties
egal
egalisar
egalita
egalmen
egard
egarda
egardat
egea
egern
egide
egils
egiptia
egiptian
ego
egypt
egypte
ehf
ehrendivision
ehv
ei
eichsta
eileen
ein
eindhoven
eine
einem
einen
einer
eines
einfahrt
einfu
einsatznaves
einstein
eintracht
eisen
eisenach
eisenstadt
eix
eixe
ej
ek
ekaterina
ekena
ekkehard
ekonomi
ekonomik
ekrem
el
ela
elakovsky
elargament
elastic
elazıg
elba
elbe
elbrus
eld
eldonitaj
ele
eleanor
electe
electer
electet
election
electiones
electoral
electores
electric
electricita
electricmen
electro
electrodinamica
electromagnete
electromagnetic
electromagnetisme
electron
electrones
electronic
electronica
electronics
electrotecnica
elefant
elefanteto
elefen
elegie
element
elemental
elementari
elementes
elements
elena
elevat
eleven
elgin
eli
eliminat
elisabeth
elite
eliud
elizabeth
elj
eljeznic
eljka
eljko
ell
ella
ellas
elle
ellen
elliot
elmau
elmedin
elon
els
elvedina
elversberg
elvira
elvis
ely
em
emancipation
emau
emb
embalo
emblem
emden
emergeixen
emerget
emersent
emerser
emerset
emerson
emfasa
emfasat
emfase
emigrantes
emigrat
emigration
emil
emilia
emilianense
emilie
emilio
emily
eminent
emir
emiratu
emiratus
emission
emissiones
emma
emmanuel
emmanuelle
emmelie
emmental
emmy
emomali
emotion
emotional
emotiones
empire
empiric
employament
employat
emporda
empowerment
empu
en
ena
encara
enciclope
enciclopedie
enciclopedistes
encina
encinas
encinillas
enclave
encyclopaedia
encyclopedia
end
enda
endangered
ende
endorf
ene
ener
energeia
energetic
energi
energic
energie
energies
energy
enfant
engel
engelbert
engic
engine
engineered
engineering
england
englischer
english
englund
engordany
enid
enigmato
enlla
enmedio
enne
enner
ennio
enoch
enorm
enrichment
enrico
ens
ensayo
enschede
enski
ente
entebbe
entertainment
entes
entfu
entidad
entita
entitas
entitet
entitetes
entre
entreme
entremes
entreteniment
entropie
envigado
eny
enzersdorf
enzo
eo
eoc
ep
epi
epic
epica
epidemie
epifanie
epigrami
epigrammas
epimetheus
episcop
episcopal
episcopatu
episode
episodes
epistemologie
epistol
epistola
epistoli
epistolo
epistul
epoca
epocas
epocha
epoko
epope
epos
equalita
equation
equationes
equator
equatorial
equilibre
equilibrie
equip
equipament
equipes
equivoc
er
era
eras
erasmus
erbil
erc
erdenet
erdog
erdpenhausen
eredivisie
eren
eres
eresma
erfurt
ergo
erhard
eric
erich
erie
erik
erika
erin
erion
eritre
eritrea
erjavec
erlangen
erlebnis
erna
ernaux
erne
ernest
ernovski
ernst
ero
erokeriherria
erosion
erotic
ers
erst
erster
erstfeld
erudites
erudition
eruptiones
erwin
erxleben
erza
erzgebirge
es
esas
esbjerg
escaldes
escalona
escapa
escapat
escarabajosa
escer
esch
eschen
escholzmatt
eschwege
eschweiler
escobar
escorial
escorigu
escutar
eset
esfinge
esgle
esgrama
esgrima
esgueva
esim
esina
eske
esken
eskilstuna
esko
esky
esoteric
esoterisme
esp
espace
espade
espan
espaniol
espanyol
espanyola
espejo
espenschied
espera
esperantal
esperantan
esperantida
esperantie
esperantist
esperantista
esperantiste
esperantistes
esperantistic
esperantisto
esperanto
esperantoid
esperit
espill
espinar
espinosa
espirdo
esple
esplugues
espoir
espoo
esque
ess
essa
essay
essaye
essayes
essays
esse
essen
essent
essente
essential
essentialmen
essentie
esser
esset
essex
essim
esslingen
essset
est
esta
estacio
estadio
estados
estas
estate
estaziona
este
esteban
estepa
ester
estetica
esteve
esther
estil
estima
estimat
estimation
estimationes
estival
estive
estives
estonia
estonian
estoril
estrade
estrella
estuarie
estudi
esv
eswatini
et
eta
etablisse
etablissement
etablisser
etablisses
etablisset
etablit
etages
etappe
etappes
etc
ete
etem
etern
eternita
ethereum
ethics
ethiopia
ethnic
etica
etimologic
etimologie
etimologies
etiopia
etnic
etnical
eto
etrusces
etsi
ett
etude
etwas
etymythological
eu
euch
euclid
euclides
eufemia
eufonie
eugen
eugene
eugenia
euklid
eula
eun
eurasia
euratom
euro
eurocopter
eurolengo
europ
europa
europae
europan
europanes
europas
europasia
europe
european
eurovision
eurovison
ev
eva
evangelic
evangelie
evangelies
evangelio
evanjelio
evans
evci
eveni
eveniment
evenimentes
evenir
evenit
event
eventes
events
eventu
eventus
ever
everest
evers
everton
evic
evident
evidentie
evidenties
evil
evina
evinat
evinementes
evini
evinit
evitar
evo
evoca
evocat
evocation
evola
evolue
evoluet
evolution
evolutionari
ewa
ewan
ewe
ewige
ex
exact
exactita
exactmen
exageration
examina
examination
excavat
excavation
excavationes
excedent
exceder
excedet
excellent
excentric
except
excepte
exception
exceptiones
excerptes
excerpts
exchange
exclave
excludet
exclusion
exclusiv
exclusivmen
exdemple
exeada
executet
execution
executiv
executive
exemplare
exemplares
exemple
exemples
exemplification
exemplo
exerci
exercit
exercities
exercition
exflore
exhibi
exhibition
exiget
exilie
existe
existent
existentie
exister
existet
exode
exodus
exotic
expande
expandet
expansion
expectat
expedi
expeditiones
expense
experientie
experiment
experimental
experimentat
experimentation
experimente
experimentes
expert
experte
expertes
explica
explicar
explicat
explication
explicationes
explora
explorar
explorat
exploration
explorationes
explorations
explorativ
explorator
exploratores
explosion
explotation
expo
exponente
exponential
export
exportation
exportationes
expose
exposi
exposit
exposition
expresion
expresoformo
express
expresser
expresset
expression
expressiones
expressionisme
expressiv
expulset
expulsion
extende
extender
extendet
extension
extensiv
extent
exter
exterior
exteriori
exterius
exterland
exterminat
extern
external
externi
extintet
extra
extracte
extraet
extragalactic
extraliga
extran
extrania
extranos
extraordinari
extrem
extremadura
extremaduran
extremimen
extremisme
extremistes
extremita
extremmen
exupe
exxonmobil
eye
eyes
ez
f
fa
fabius
fabli
fabrica
fabricantes
fabricas
fabrication
fabul
fabules
face
facebook
facie
facil
facila
facile
facilita
facilitar
facilmen
fack
facsimile
fact
facte
factes
factic
factor
factores
faculta
facultativ
fadil
fahey
fahrenheit
fahrt
fahrudin
fai
faisal
faisalabad
falces
falcon
faldo
falisc
falkenau
fall
falla
falling
fallit
falls
fals
falsat
falsificat
falun
fam
famacist
fame
familia
familiar
familiari
familie
families
famille
family
famine
famo
famos
famosi
famous
fan
fanatism
fanes
fanfarona
fanny
fantasie
fantastic
fantastikaji
fante
far
faraday
farage
faraon
faras
fare
fargo
farm
farmaceutic
farmacie
farme
farmer
farmeri
farmero
farmeros
faroe
faroese
fasa
fasangarten
fasas
fascinat
fascisme
fasciste
fascistic
fase
fashist
faso
fassade
fast
fat
fate
fates
father
fatick
fattah
fauna
fauntleroy
faust
faustin
fautz
favor
favora
favorabil
favorat
favore
favorisa
fawkes
fayez
faymann
fb
fc
fcr
fdd
fdp
fe
fear
features
feb
februar
febuar
feburar
fechtner
fedaral
federal
federat
federation
federationes
federations
federativ
federer
federica
federn
federuro
felcsu
feld
feldkirch
feldmoching
felices
felici
felicita
felipe
feliu
felix
fell
feme
femimin
femina
feminin
feminisme
feminist
feministic
femme
fenestre
fenician
fenicianes
fenicies
fenninger
fenny
fenomen
fenomenes
fens
fer
ferdinand
ferencvaros
fergana
ferizaj
fermentat
fern
ferna
fernando
fernlenkmanipulator
ferra
ferrand
ferrandis
ferrari
ferre
ferrer
ferrero
ferrimagnete
ferromagnete
ferromagnetic
ferrovia
ferrovial
ferroviari
ferrovias
fertil
fertilisantes
fertilita
fest
festa
festas
festat
festes
festival
festnahmeeinheit
feudal
feudalita
feuerbringer
feuille
fever
fez
ffc
ffnung
fh
fi
fianna
fibres
fic
fichtelgebirge
fico
fiction
fictional
fide
fidel
fides
fidesz
fidji
fields
fiemme
fifa
figaro
figen
figueirense
figueres
figur
figura
figuras
figure
figures
fih
fij
fil
file
filemon
files
filia
filiale
filias
filies
filio
filios
filip
filipines
filipovic
filles
fillon
film
filmes
filmografie
films
filologie
filosof
filosofes
filosofic
filosoficmen
filosofie
filosofies
filosofo
filosofos
fin
fina
final
finale
finales
finalita
finalludes
finalmen
finalround
finalrunde
finals
finance
finances
financial
financiari
financie
financies
finci
fine
fines
fini
finir
finit
finition
finitiones
finland
finlandan
finlande
finlandes
finlandeses
finlandesi
finlandia
finn
finnes
finnish
finnland
finnmark
fins
fiord
fire
firenze
firm
firma
firmas
first
fis
fischer
fisher
fisic
fisica
fisical
fisiciste
fisicmen
fisico
fisicos
fisiologie
fisterra
fitzgerald
five
fix
fixar
fixat
fk
fl
fla
flag
flagga
flaggas
flamengo
flamme
flandria
flashdance
flaute
flech
fleck
fleimstal
flensburg
fleur
fleurs
flexione
flo
flor
flora
florat
floration
florence
florencia
flores
florescentie
florian
floriano
florida
flotte
flow
flower
flu
fluctuationes
flue
fluentmen
fluer
fluevie
flughafen
fluide
fluvglant
fluvie
fluvies
flyers
flying
flynn
fner
fo
foco
foerster
fogh
fol
folgen
folie
folies
foliumi
folk
folketing
folklore
follie
fon
fondateurs
fondation
fondet
fonds
fonograf
fonologie
fonseca
font
fontaine
fontana
fontane
fonte
fontes
food
foot
footbalist
football
footballero
footballista
for
forbes
force
forces
forcher
ford
fore
forel
forelock
foren
fores
forest
forestes
forlassa
forlassar
forlassat
forlasst
form
forma
formal
formalmen
formant
formar
formas
format
formateur
formation
forme
formes
formi
formica
formicas
formosa
forms
formul
formula
formulat
formules
forsan
forstenried
forsthaus
fort
fortaleza
fortbildungszentren
forte
forteresse
fortesse
forteza
forth
fortia
fortias
fortiat
fortie
forties
fortificat
fortification
fortimen
fortmen
forto
fortun
fortuna
fortunes
forum
fossan
fosses
fossil
fossiles
foster
foto
fotograf
fotografat
fotografie
fotografies
found
foundation
founding
four
fourmis
fox
foxborough
foxes
foy
foyes
fr
frac
fraction
fractiones
fragen
fragment
fragmente
fragmentes
frailes
fran
franc
franca
france
frances
francesc
francesco
francese
franceses
francesi
franceso
franche
francia
francis
francisco
franciscus
franck
franco
francoisme
francoiste
franconia
francos
frank
frankenberg
frankenberger
frankenstein
frankenthal
frankfort
frankfurt
frankfurter
franklin
franquismo
frans
frantis
franz
franziska
frase
frases
fraternidad
frato
fratre
fratres
frau
fraude
frauen
frauke
frc
fre
fred
freddie
frederick
fredericton
frederiksen
fredonia
free
freedom
freeland
freestyle
freetown
freiburg
freie
freiheit
freiherr
freilassing
freimann
freitag
fremden
french
frequent
frequentat
frequentie
frequenties
frequentmen
fresneda
fresno
freud
freund
freunde
freunden
freundschaft
freuned
frey
fribourg
frida
friedberg
friedrich
friedrichshain
friend
friends
friendship
frigid
frigore
frisc
frisch
frits
fritz
fro
frodelund
frohms
from
front
fronta
fronte
frontera
frontex
frontiera
frontieras
frontiere
frontino
froome
frowein
fru
fructe
fructes
fructosi
frumales
frument
fry
fsv
fu
fuat
fucus
fuengirola
fuente
fuentepelayo
fuentepin
fuenterrebollo
fuentes
fuentesau
fuentesoto
fuentiduen
fuerte
fugger
fugi
fugir
fugit
fuhlendorf
fuhrman
fuji
fukuoka
fulda
fuldatal
fuller
fum
fumio
funafuti
funchal
funcionario
funcionava
function
functiona
functional
functionament
functionar
functionario
functionarios
functiones
fund
funda
fundador
fundament
fundamental
fundamentes
fundante
fundar
fundat
fundation
fundationes
fundator
fundatores
fundatori
funde
fundet
fundland
fungus
furni
furnir
furnit
furnitor
furs
furtado
furtard
furtat
furtita
fuset
fusion
fusione
fusiones
fuster
futaki
futballe
futur
futura
future
futuri
futurologo
fußball
fven
fy
fyn
g
ga
gaa
gabi
gabon
gaborone
gabriel
gabriela
gabriele
gabrielius
gaburici
gacond
gaddafi
gadea
gael
gaelic
gaetana
gafotas
gagarin
gai
gaia
gajewski
gakharia
gala
galab
galactic
galan
galaxe
galaxes
galera
galerie
galicia
galician
galilei
galileo
galimatiaso
galina
gall
gallegos
gallen
gallesi
gallia
gallimard
gallinocanta
gallo
galo
galway
gama
gambia
game
games
gamma
gammelgaard
gandhi
ganges
gangneung
gania
ganiar
ganiat
ganie
gano
ganse
gao
garance
garantit
garau
garbi
garbo
garching
garci
garcia
garcilla
garda
gardarobe
garden
gardeno
gardera
gardero
garderos
garibashvili
garissa
garliava
garmisch
garonne
garrigue
garten
gary
garðabær
gas
gascon
gasductes
gases
gasosi
gast
gaston
gates
gato
gauck
gaul
gauland
gautama
gauteng
gauthier
gavan
gavrilit
gay
gazete
gazetes
gazette
gazettes
gaziantep
gazon
gdan
gdr
gdynia
ge
geb
gebauer
gebirge
gebrauchsanweisung
gedichte
geert
gefa
gegen
geheimnis
geiger
geist
geistliche
gel
gela
geld
gelecek
gellar
gelsenkirchen
gemell
gemelle
gemelles
gemu
gen
genchovska
gene
genealogie
genera
general
generale
generalita
generalitat
generalmen
generalsecretario
generar
generat
generation
generationes
generic
genes
genese
genesis
genetic
genetica
geneva
genio
genitiv
genitores
gennadi
genocide
genome
genomic
genova
genovese
genre
genres
gent
gente
gentes
genzel
geo
geocentric
geogra
geograf
geografes
geografic
geograficmen
geografie
geographic
geoje
geologic
geologie
geometric
geometrie
georg
george
georges
georgetown
georgi
georgia
georgian
ger
gera
gerald
gerb
gerd
gerent
gerentie
geretsried
gerhard
gerlachovsky
germain
german
germana
germanes
germania
germanic
germanistica
germano
germanwings
germering
gern
gerst
gertrud
gertrude
gesammelte
gesamt
gescha
geschichte
geschichten
geschlechterkampf
gesellschaft
gesetzgebung
gestapo
geste
getter
geuking
geun
ghana
ghani
ghebreyesus
ghil
gi
gian
gianni
gibraltar
gibran
gica
gida
gide
gießen
giffey
gift
gigant
gigantes
gigantic
gil
gilbert
giles
gillan
gillard
gilles
gillette
gilly
gimastica
gimnasia
gimnasium
gimnasta
gimnastes
gimnastic
gimnastica
gin
gina
gine
gines
ginger
giorgi
giorgia
giovanni
giraldo
girardota
girl
girls
giro
girona
gisborne
gisela
gisin
gislero
gitanas
gitarama
gitarre
gitega
giugno
giulia
giulio
giuseppe
giuseppina
giza
gjakova
gje
gjesvær
gjorge
gk
glacial
glacie
glacieros
glarus
glaser
glasgow
glass
glaube
glauk
glen
gli
glich
gllogoc
global
globalisation
globally
globasa
globe
gloria
gloriam
glorie
glosa
glosas
glu
gmbh
gmund
gmunden
gn
go
goal
godal
godalming
gode
godella
godfather
godine
gods
godwin
goebbels
goes
goethe
gogh
gogol
gol
gold
golden
goldene
goldmedaille
goldoni
goldschmidt
goles
golf
golfe
golob
gols
gomera
gomezserraci
gonai
gonc
goncalo
gondar
gondola
gone
gonska
gonza
gonzalez
gonzalo
good
goodbye
goosebumps
goran
goraz
gorbachev
gorbachov
gordana
gordon
gore
gormaz
gorski
goryachkina
gos
goslar
gostivar
got
gotha
gotic
gott
gottes
gottfried
goulet
gouverneurs
gov
govern
governa
governament
governat
government
gozo
gpd
gr
gra
grabar
grac
grace
gracia
gracie
grad
gradac
grade
gradec
grado
gradu
gradual
gradualmen
graduat
graduation
gradus
graf
grafic
grafico
grafisme
grafite
grafrath
grafschaft
grafton
graham
grainau
grajera
grama
gramatica
gramatico
gramatik
grammar
grammatic
grammatica
grammatical
grammaticas
grammatik
gran
granada
grand
grande
grandesse
grandissim
grandmastro
grandmen
grandore
grandprofil
granes
granja
granollers
grant
granules
graphic
grapsch
graset
grass
grasse
gratta
gratuit
gratuitmen
graubu
grav
grave
gravel
gravid
gravissim
gravita
gravitation
gravitational
gravito
gravuras
gray
graz
gre
great
greatest
grec
greces
grecia
greco
grecos
grecs
gredos
greece
greek
green
greenlandian
greenwich
greg
grega
gregorian
gregorio
gregory
greifswald
grenada
grenadines
grend
grenland
grenoble
grenzen
greta
grete
grexit
grey
gri
grieken
grillo
grimm
grin
grisi
griss
gro
groningen
gross
grotesc
ground
group
grove
grow
grozdanin
groß
große
großstadtrevier
gru
grudge
gruevski
grund
grup
gruppat
gruppe
gruppes
grupppe
grybauskaite
grzegorz
gsg
gu
gua
guadalajara
guadalupe
guadarrama
guanabara
guangxi
guangzhou
guard
guardia
guardie
guardiola
guaren
guarne
guatape
guatemala
guayaquil
gubanova
guderian
gudrun
guernsey
guernseyesi
guerra
guerral
guerre
guerreada
guerreros
guerres
guesnet
guez
guggenmoos
guida
guidant
guidar
guidat
guide
guido
guijar
guilbert
guimara
guine
guinea
guinot
gujarat
gulch
gulfe
gulliver
gumiel
gundulic
gunnlaugsson
gunpowder
guo
gurbanguly
gustaf
gustav
gustavo
gustu
gut
gute
guten
gutenberg
guterres
guth
guti
guverna
guvernament
guvernamental
guvernamentes
guvernaments
guvernant
guvernar
guvernat
guvernator
guvernatu
guvernia
guvernmant
guxo
guy
guyana
guys
guzma
guðru
gvir
gwangju
gyo
gz
głogo
h
ha
haag
haagsma
haas
hab
habe
habeck
habemus
haben
habilita
habilmen
habintantes
habita
habitanes
habitantes
habitants
habitar
habitat
habitation
habsburg
habsburges
hac
hacker
hadern
hades
hadi
hadrien
hadz
hafenkante
hafiz
haftar
hagen
hagman
hahn
hahnemann
haidhausen
haifa
haikou
haile
hainan
hainaut
haiti
haitian
hajduk
hala
halada
halbe
haldenwang
haldin
halep
half
halifax
hall
halla
halle
hallein
halles
hallo
halloween
halta
haltat
haltern
hamad
hamburg
hamburger
hamel
hameln
hamhung
hamilton
hamm
hammar
hammer
hammerfest
hammerschmidt
hammond
hamon
hampshire
hampstead
hampton
hamtaro
hamza
han
hanau
hand
handball
handlos
hangeul
hangul
hanja
hank
hanna
hannah
hannesschla
hanni
hannover
hanoi
hans
hanse
hant
haplogruppe
happy
har
haradinaj
harald
harappan
harare
harbour
harchas
hard
harder
hargeisa
haris
harlaching
harmonic
harmonie
haro
harold
harper
harpercollins
harriet
harris
harrisburg
harry
hart
harte
hartfield
hartford
hartig
hartwig
harvard
harvestehuder
harvey
harz
has
hasan
hasanbegovic
hase
hasenbergl
hashim
hasler
hassan
hasselmann
hat
hatari
hatrið
hatta
hauer
hauff
haugesund
hauptgeba
haus
haut
haute
hautes
hauts
havana
havant
have
havel
havelland
havelock
haven
havent
haver
haverbeck
havet
havia
havilland
havlic
havre
haw
hawaii
hawkins
haworth
hay
haydn
haye
hayek
hays
haza
hazuki
haß
hbw
hc
hdp
hdz
he
head
health
heart
heat
heather
heaven
hebdo
hebe
hebreic
hebreo
hebrew
hebrides
hebron
hecht
hectares
hector
hedwig
hee
heepen
hegemonie
heger
heian
heidelberg
heidelbergensis
heidenau
heidenheim
heidi
heights
heike
heilbronn
heim
heimat
heine
heinebach
heinrich
heinsberg
heinz
heldt
helen
helena
helgoland
heliconia
helier
heliocentric
helium
helle
hellenistic
hellersdorf
hellmuth
hellraiser
helme
helmut
helsingfors
helsinki
helvetia
helvetic
hem
hemingway
hemisfere
hemudu
henares
henk
henkel
henkirchen
hennig
hennigsdorf
henning
henri
henriette
henrik
henry
henschke
henthorne
her
heracles
heraklion
heraldic
herat
herbe
herbert
herblain
herbst
herceg
hercegovac
hercegovina
hercegovine
hercegsza
hercules
here
heredage
heredat
heredie
heren
herguijuela
heritage
herlihy
herm
herman
hermann
hermes
hermoso
herna
herning
hero
herodotus
heroes
heroic
herr
herrera
herreros
herrmann
herrn
herrsching
herschel
hersfeld
herta
hertha
hertz
herz
herzegovina
herzen
herzog
herzogtum
hesiod
hess
hesse
heterosexual
heute
hexagon
heydar
heyne
hh
hi
hickey
hidrogen
hier
hierarchie
hieroglifes
hierro
higgins
higgs
high
higiene
higuera
hilaire
hilbert
hildesheim
hill
hillary
hillmann
hills
hillsborough
him
himalaya
himne
hin
hindi
hinduisme
hindustani
hinlud
hinojosa
hinojosas
hinrich
hinz
hipotese
hipotetic
hipparchus
hippocrates
hirsch
hirschau
hirscher
hirund
hirunde
his
hispan
hispanes
hispanesi
hispania
hispanic
hispaniola
hispano
hispanos
histo
histori
historia
historial
historic
historical
historicamen
historicmen
historico
historicos
historie
histories
historiette
historiettes
historiografic
historiografie
history
hita
hitler
hits
hivernal
hiverne
hivernes
hj
hjalmar
hjørring
hk
hl
hlc
hldorf
hle
hler
hling
hlmeyer
hlt
hlung
hlungen
hlungsborn
hm
hncke
hne
hnert
hnl
ho
hoa
hoc
hochfilzen
hochzeit
hochzeitsmahl
hockenheim
hockey
hodgson
hodi
hodial
hodie
hodz
hoerbiger
hof
hofer
hoffenheim
hoffmann
hoffnung
hohen
hohenzollern
hoi
hokkaido
hokusai
holder
holding
hole
holger
hollabrunn
holland
hollande
hollywood
holm
holmes
holocaust
holocene
holodomor
holstein
holsteina
holsteinia
holt
holy
hom
homal
homan
homanite
hombre
homburg
home
homeopatie
homer
homeros
homes
homines
homme
homo
homofobie
homogen
homolka
homosexual
homosexuales
homs
honan
honduras
hong
hongkong
honningsva
honolulu
honor
honora
honorar
honorari
honorat
honoror
honrubia
honshu
hontalbilla
hontanares
hontoria
hop
hor
hora
horcajo
hores
horizonte
horizonti
horlivka
horloge
horloges
horlogho
horloje
hornija
hornillos
hornuez
horribil
horror
horrore
horse
horsens
horst
hortative
horticultura
horva
hosni
hosp
hosped
hospedalita
hospital
hospitale
hospitales
hossein
hot
hotel
hoteles
hoti
hoting
houillon
houloux
hour
house
houston
how
howard
howling
hoy
hoya
hoyo
hoyos
hoz
hpm
hr
hradec
hradis
hrchen
hrer
hring
hristijan
hrnsen
hrodna
hrointhaus
hroysman
hrsg
hrssen
hrung
hrvatska
htc
hte
hti
html
http
https
hu
huang
hubert
hudec
hudson
hue
huelva
huerta
huertos
huerva
huesca
hugh
hughes
hugo
huhtasaari
humala
human
humanes
humanisme
humanita
humanitari
humanum
humboldt
humid
humo
humor
hund
hungaresi
hungaria
hungarian
hungarianes
hunger
hunt
hunter
hunting
hurghada
hurling
hurtado
hurtigruten
husen
hussain
hussein
hussitic
hutus
huxley
huy
hvar
hvo
hybrid
hybridity
hyderabad
hydrogen
hye
hymne
hypocritic
hyun
hz
høyre
i
ia
iaaf
iala
iam
ian
iauliai
ib
iba
iberic
ibidem
ibiza
ibm
ibn
ibrahim
ibu
ic
icar
ice
icelandic
ich
icone
id
idaho
idala
ide
idea
ideal
ideales
idealisme
identic
identifica
identificant
identificat
identification
identita
ideografie
ideographie
ideological
ideologie
ideologies
ideology
idi
idiom
idioma
idiomas
idist
idista
idistes
idisto
ido
idolinguo
idriss
ids
ie
iec
iesu
if
ig
iga
ige
iglesia
iglesias
ignorat
igor
ihm
ihnen
ihr
ihre
ii
iihf
iii
ija
ijar
ikadic
il
ila
ildefonso
ile
ilham
ili
ilir
illa
ille
illegal
illes
illi
illinois
illo
illos
illuminat
illumination
illustrat
illustrated
illustration
illustrationes
ilm
ilmari
ils
ilustration
ilustrita
ilves
im
image
images
imagine
imam
imbe
imeretia
img
imi
imisu
imitar
immanuel
immer
immortal
imogen
imonyte
impact
impedi
impedimentes
impedir
impedit
imperative
imperativo
imperator
imperatores
imperia
imperial
imperialisme
imperialist
imperie
imperies
imperio
imperiofobia
implementat
implica
implicat
implicationes
implications
implicats
importancie
important
importante
importantie
importat
imposant
imposar
imposat
impossedage
impossibil
impost
impostes
impression
impressionisme
impressiv
ims
in
ina
inacceptabil
inaugral
inaugura
inauguracion
inaugural
inaugurat
inauguration
inazo
inboccatura
inc
incapabilita
incarcerat
incarceration
incas
incendie
incheon
inclassic
inclinat
include
includent
includente
includer
includet
inclusion
inclusiv
incontra
incontrar
incontras
incontrat
incoragement
incorpora
incorporat
incorporation
increment
incrystallin
incursiones
indagacions
independence
independent
index
india
indian
indiana
indianapolis
indianos
indias
indica
indicar
indicat
indicative
indicatores
indien
indigen
indigeni
indigenous
individual
individues
individuos
indo
indonesia
indonesian
indre
indus
industrial
industrialisation
industrialist
industrie
ine
ineat
inertial
inf
infant
infanta
infantal
infante
infantes
infanti
infantie
infantil
infantino
infanzones
infection
inferiori
infernal
inferne
inferno
infinit
infinitiv
infinitive
influe
influence
influenciat
influential
influentiar
influentiat
influentie
influenties
influet
influte
info
informa
informacio
informal
informar
informatic
informatica
informatico
information
informationes
informativ
informe
infortiament
infra
infrason
infrastructura
infrastructure
ing
ingageat
ingeniera
ingenierie
ingeniero
ingeniosi
inger
inglese
ingolstadt
ingredientes
ingrid
ingrida
inhabitantes
inhabitat
inhabitation
inhabitationes
inherent
inicial
iniciat
iniciative
iniesta
ininstructet
initial
initiales
initialmen
initiat
initiative
initiator
initiatores
injected
injury
inmetallic
inmigrantes
inmigrat
inmigration
inn
innat
innen
innerhofer
innerrhoden
innes
innovation
innovationes
innsbruck
innsbrucker
inorganic
inovic
inqueste
inquisitor
inrolat
insaf
insecte
insectes
inseniat
insigne
insister
insistiren
inskis
inspector
inspektion
inspektiones
inspiracio
inspirat
inspiration
instabilita
instagram
installa
installar
instanti
instituet
institut
institute
institutes
institution
institutional
institutiones
instituto
instructet
instruction
instructiones
instructor
instructora
instructores
instrument
instrumentes
insul
insular
insulas
insules
insulettes
insuperabil
insurection
intac
intal
integra
integrat
integration
intel
intelectual
inteligent
inteligentie
intellectual
intellectuales
intellige
intelligence
intelligentie
intelligibilita
intencio
intens
intensita
intensiv
intentet
intention
intentiones
inter
interacte
interaction
interactiones
interactions
interactiv
interational
intercomprension
intercontinental
interdictet
interdiction
interdisciplinari
interesar
interesat
interessant
interessat
interessates
interesse
interesses
interest
interesus
interfaces
interfacie
interferentie
intergenerational
interglacial
interim
interimari
interior
interiore
interiori
interlaceat
interlanguage
interlingua
interlingue
interlingueiste
interlinguist
interlinguiste
interlinguistes
interlinguistic
interlinguistica
interlinguistics
interlinguistiker
intermette
intermoleculari
intern
internacia
internaciaj
internaciona
internacional
internal
internasionalisation
internat
international
internationale
internationalen
internationales
internationalita
internationalmen
interne
internet
interni
interprendero
interprendet
interprense
interprenses
interprensor
interpretat
interpretation
interrament
interrat
interrete
interrogativ
interrogative
interruption
intersection
intershangho
interslavic
intervalle
intervention
interview
intimacy
intimamen
into
intra
intrada
intrania
intrar
intrat
intrinsic
introducte
introducter
introductet
introduction
introductiones
introdui
introdukto
inundat
inundationes
inurme
invade
invadet
invasion
invasiones
invasores
inventar
inventet
invention
inventiones
inventor
inventores
inverness
inversi
inversion
investiga
investigation
investigationes
investigatores
investitiones
investment
inviat
invincible
invitation
io
ioannes
ioc
iohannis
iomerovic
ion
iones
ionic
ionisat
iowa
ipac
ipanema
ipas
ipatinga
iprage
ir
ira
irak
irakli
iran
iranian
ireland
irene
irfan
irina
irinej
iris
irland
irlande
irlandes
irlandese
irlandesi
irmgard
iroki
iron
irving
is
isa
isaac
isabel
isabella
isabelle
isar
isarvorstadt
isbn
ischen
ischia
ise
iseman
isfahan
ishall
isidoro
isla
islacker
islam
islamabad
islamic
islamist
islamistes
islamistic
island
islandesi
isle
isles
ismail
ismoil
iso
isolat
isotop
isotope
isotopes
israel
israeli
isstadion
ist
istanbul
iste
istme
isto
istoc
istoria
istria
isy
it
ita
itagu
italia
italian
italianes
italiani
italiano
italic
italo
itamir
itf
its
ituango
ituero
iu
ius
iv
iva
ivan
ivana
ivanic
ivanishvili
ivankovic
ivanov
ivanovic
ivas
ivic
ivica
ivko
ivo
ivor
ix
ixe
ixi
iz
izetbegovic
izmir
j
ja
jaani
jabloko
jaca
jacinda
jacint
jack
jackie
jackson
jacky
jacob
jacobs
jacqueline
jacques
jade
jadranka
jadraque
jae
jaen
jaffa
jagd
jahjaga
jahn
jahr
jahre
jahres
jahrhundert
jaime
jair
jakarta
jakob
jalad
jalo
jama
jamaica
jamaican
james
jamie
jan
jana
janata
jane
janeiro
janez
janica
janina
janine
jankovic
jankulovska
jannik
janotta
jans
jansrud
januar
january
japan
japane
japanes
japanesi
japarov
jar
jara
jarama
jarchas
jardi
jardin
jardines
jaro
jaromi
jaroslav
jarosław
jasna
jason
jaume
java
javanesi
jay
jaya
jayawardenepura
jazira
jazyk
jazz
je
jean
jeanine
jeanne
jeanny
jedi
jeenbekov
jefferson
jelena
jelenovic
jena
jennifer
jenny
jens
jensen
jeonju
jeremic
jeremy
jericho
jerko
jero
jeroni
jersey
jerusalem
jesenice
jespersen
jessica
jest
jesu
jesus
jet
jethou
jetta
jettat
jetzendorf
jetzt
jeunesse
jewish
jexhof
jezik
jh
ji
jico
jill
jiloca
jim
jimena
jimmie
jin
jinping
jir
jo
joa
joachim
joan
joana
joanna
joanot
joaquim
joc
jocs
jodie
joe
joensuu
joh
johan
johanillo
johann
johanna
johannes
johannesburg
johansen
johansson
john
johnson
joki
joko
jomart
jomon
jonas
jonathan
jones
jong
jongno
joost
jordan
jordania
jordi
jornal
jorne
jorni
jose
josef
josefine
josep
joseph
josephine
josip
josipovic
jot
jota
jour
journal
journalist
jours
jovan
jovedi
jovice
jovovich
joya
joyce
jozefina
jpg
jr
ju
juan
juana
juarros
juba
judaism
judaisme
jude
judeic
judeisme
judeo
judgment
judic
judica
judicament
judicial
judicie
judico
judicos
judith
judo
judy
jugend
jugenderinnerungen
jugendliteratur
juha
juin
jukola
jul
jule
jules
juli
julia
juliade
julian
juliana
julie
julieta
julio
julius
july
jumbo
jun
juncker
junction
june
juneau
junes
jung
junge
jungen
jungle
jungs
juni
junio
junior
juniores
juniors
junt
junta
juntet
juntmen
junularo
jup
jupes
jupiter
jura
jurassic
jurat
jure
jures
juridic
jurie
jurisprudentie
jurist
jurista
juristic
jurnal
jurnale
jurnales
jurnalisme
jurnalist
jurnalista
jurnaliste
jurnalistes
jurnalistica
jushmanov
jushtchhenko
jusque
jussi
just
juste
justicie
justificat
justification
justin
justine
justinian
justli
justmen
justus
jusuf
jutland
juul
juvenil
jva
jylland
jytte
jyva
k
ka
kaarlo
kaas
kabjakou
kabul
kaczyn
kadem
kader
kadri
kafka
kahlil
kahlo
kahlon
kai
kaili
kain
kaiser
kaiserreich
kaiserslautern
kaj
kaja
kajs
kakapos
kakut
kalbitz
kalesnikava
kali
kalimentan
kalina
kaliningrad
kaljulaid
kallas
kalmar
kalt
kaluga
kam
kama
kamala
kamenica
kamil
kampala
kampf
kamyshin
kan
kanagawa
kane
kaninchen
kano
kansas
kant
kanta
kanti
kanto
kanton
kaohshiung
kaprun
kar
karabakh
karachi
karadz
karaganda
karalpakstan
karamarko
karamollaog
karatkevich
karch
karel
karelia
karen
karenina
karic
karim
karin
karl
karlovy
karlshagen
karlsruhe
karma
karneval
karoline
karpunina
karrenbauer
kartenhaus
kasami
kasimir
kasper
kassel
kassym
katalog
katar
katarina
katarzyna
kate
kateb
katechismus
kategorika
katerina
katharina
katharine
katherine
kathleen
kathmandu
kathrin
katie
katja
katolika
katrin
katsina
kaunas
kayak
kayseri
kazakstan
kazan
kazantzakis
kazimierz
kazimir
kc
ke
kebo
kedvesem
kedys
keeper
keflavi
kehl
kein
keine
kel
keller
kelly
kelmendi
kemerovo
kemmerich
kemp
kempen
kempten
ken
kenia
kennedy
kenneth
kenny
kent
kentucky
kenya
kenyatta
kenyon
keough
kepler
keqiang
kerber
kerch
kerguelen
kerho
kern
kerry
kersti
kesfehe
kesson
ketchum
ketsch
keven
kevin
keyserling
kf
kg
kgb
khachaturyan
khaldun
khalifa
khalifah
khalil
khan
khanatu
kharkiv
khoisanid
khor
khz
ki
kiana
kidric
kiel
kienbaum
kiesinger
kiev
kigali
kiir
kikodze
kikot
killer
killington
kilmarnock
kilmer
kilogramm
kilogramma
kilogrammas
kilogrammes
kilometes
kilometre
kilometres
kim
kind
kinder
kinderen
kinderlieder
kinderseele
kindervater
kindi
kinetic
king
kingdom
kings
kingston
kingstown
kinnock
kinshasa
kinski
kinto
kinyarwanda
kipchoge
kipling
kir
kira
kirche
kirchenlamitz
kircher
kirchheim
kirchner
kirgizistan
kiribati
kiril
kirkenes
kirkuk
kirrin
kirsten
kirstie
kirsty
kirundi
kishida
kiska
kissing
kissingen
kitakyushu
kitarovic
kitts
kiviniemi
kiviranta
kivlenieks
kjetil
kk
klabund
kladno
kladus
klagenfurt
klaipe
klara
klasse
klaus
klein
kleinbu
kleine
klenke
kleve
klimkin
klingbeil
klingenthal
klub
klujber
km
kneissl
knesset
knirsch
knjiz
know
known
knu
ko
koalicija
kobane
koblenz
koc
koca
koch
koda
koenders
koenig
koffman
kofman
kohl
kohnen
koidula
koine
kojovic
kolaroska
kolding
kolinda
kolomna
kom
kombato
komentaro
komika
komitat
komitato
komitee
kommt
kommunikationsstelle
komo
komorowski
kompilita
kompozit
koms
kon
konakovic
kong
kongresa
kongresanon
kongress
kongreß
konjic
konjufca
konkuk
konrad
konstantin
konstanz
kontakto
kontaveit
kontiolahti
kontoro
kontrau
kontre
kontrollstelle
konya
kopacz
koper
kopf
kopitar
korc
kordeti
korea
korean
koriyama
kornelia
koros
korvo
kos
kosa
kosmoglott
kosmoglotta
kosor
kosovo
kosovska
kostadin
kostadinov
kostelic
kotar
kotava
kotilka
kotor
kotte
kottgeisering
kotzias
koukalova
kourou
kova
kovac
kovachevski
kovic
kovind
kovinic
kovrita
kr
kra
kragujevac
kraj
krajina
krako
kramer
kramp
kranj
kranz
krasina
krasnaja
krasnodar
kraton
krause
krayono
krebs
krefeld
kreidekreis
kreis
kreisstadt
kremenchuk
kremmen
kresina
kretschmer
kreuzberg
kreuznach
krieg
krieger
kriegs
krim
krimi
kriminalpolizei
kring
kris
kristen
kristersson
kristian
kristin
kristina
kristoffersen
krivokapic
kriz
krk
kro
kronberg
kronstadt
kru
krumlov
kruse
kryemadhi
krylov
kryvyi
ks
ksekdag
ku
kuala
kuban
kubitschek
kuc
kufstein
kuiper
kukiz
kulanu
kuleba
kulm
kultur
kumanovo
kun
kunis
kunming
kunst
kuopio
kur
kurd
kurdes
kurdistan
kurez
kuriren
kurkov
kuro
kurpfalz
kurseto
kursus
kurt
kurta
kurti
kurylenko
kurz
kurze
kurzprosa
kurzweil
kutaisi
kutchma
kuwait
kuznetski
kwandong
kwazulu
ky
kylie
kyo
kyocera
kyoto
kyriakos
kysela
kyu
kyun
kyushu
kłodzko
l
la
labajos
labor
labora
laborant
laborar
laborat
laboratoria
labore
laborero
laboreros
labores
laboror
labotat
labrador
laburista
labyrinth
labyrinthus
lac
lacalle
lace
lacher
lacrosse
lacte
lad
ladd
laden
lades
ladies
ladin
ladine
ladislav
lado
lady
lafointaine
lafontaine
lafur
laga
lagado
lage
lagnel
lago
lagos
lagumdz
laguna
lahm
lahn
lahore
lahti
lail
laim
laimdota
laimer
laine
lajc
lake
lakers
lakes
laktas
laleham
lam
lama
lamarckisme
lambert
lambrecht
lame
lamentation
lamo
lampe
lampedusa
lampes
lampreana
lana
land
landal
landarzt
landau
lande
landes
landesstudio
landkreis
landrut
landsbergis
landshut
lane
lang
langa
lange
langen
langenhagen
langford
langnau
langore
language
languages
langue
langues
languilla
langwied
lanka
lannoy
lansat
lansdowne
lansing
lanzarote
laos
lapero
laplace
lara
larg
large
largi
largore
lark
larnaka
larry
lars
larvik
las
laschet
lass
lassa
lassar
lassat
last
lastras
lastrilla
lat
latakia
late
later
lateral
latere
latgallia
latin
latina
latine
latino
lations
latushka
latvia
latvian
laudat
laudehr
laudi
lauenburg
lauerdale
lauf
lauper
laura
laurel
lauren
laurence
laurent
lauri
laurits
lausanne
lauterbach
lavinia
lavoisier
lavrov
law
lawrence
lc
lcor
lden
lderlin
ldp
le
leadership
leaf
league
leaman
leandro
leanne
leave
lebak
lebanon
leben
lebens
lebus
lech
lechtenbrink
leclerc
lecter
lector
lectores
led
lede
ledecka
ledesma
lee
leeds
leena
leer
leet
left
lega
legal
legalmen
lege
legend
legendari
legende
legendes
leges
legge
legislation
legislativ
legislatura
legitim
legitimation
lehel
lehrer
lehrgang
lehrkursus
lehrstu
lehtolainen
leibeigenschaft
leibniz
leichteste
leiden
leif
leinster
leipheim
leipzig
leitfaden
leitner
lejzer
lekic
lektionen
lem
lemai
lena
lenchon
lenggries
lengua
leni
lenin
leningrad
lenininst
leninsk
lennon
lens
lent
lentmen
leo
leon
leonard
leonardo
leone
leones
leonhard
leonid
leopardi
lera
les
lesbos
lesestu
leslie
lesotho
lessing
lessons
lester
let
leteratur
leticia
letiones
letores
letta
lettre
lettres
letzte
letzten
leute
leutenante
leuven
leva
levant
levante
levat
leverkusen
levi
levits
levul
levy
lewandowski
lewis
lexical
lexico
lexicogra
lexiko
lexington
lexpionage
ley
leyen
leyenda
lez
lf
lfc
lfe
lfn
lgbt
lhasa
lheim
li
lia
liam
liat
libano
liber
libera
liberal
liberaldemocratic
liberales
liberalisme
liberar
liberat
liberation
liberec
libereso
liberia
liberita
libermen
libero
liberta
liberty
libia
liborina
library
libre
libres
libreville
libri
libro
libya
libyan
lic
lica
licata
lice
lichtenberg
lichtentaler
lics
liderat
lidia
lie
lieb
liebe
liebenwalde
lieber
lieberman
liebermann
liebesgedichte
liechtenstein
lied
lieder
liedern
lienz
liepa
lies
liestal
life
liga
ligamantes
ligament
ligamente
ligamentes
ligante
ligantes
ligar
ligas
ligat
ligation
ligety
light
lightning
ligne
lignin
ligure
liguria
ligurian
lihj
lihou
lijanovic
like
likens
likud
lila
lilian
lilico
lilienthal
liljana
lille
lillehammer
lillestrøm
lilli
lilongwe
lily
lima
limassol
limburg
limerick
limita
limitar
limitat
limite
limited
limites
limonade
lin
linares
linas
lincoln
linda
lindau
lindisfarne
lindner
lindow
lindsay
lindsey
line
linea
lineari
lineas
linegrey
lingen
lingu
lingua
linguage
lingual
linguala
linguas
lingue
lingues
lingui
linguist
linguistes
linguistic
linguistica
linguistics
linguistique
linguo
lingvoj
lingwa
linke
linkevic
linko
links
lino
linz
linzbach
lio
liocc
lion
lionel
lippe
lipponen
liquid
liquide
liquides
lire
liric
lirica
lis
lisa
lisboa
lissabon
lisse
list
lista
liste
listes
listhaug
liszt
lit
litera
literari
literary
literatur
literatura
literrari
litore
litt
litteralmen
litterari
litteras
litteratura
litteres
little
littlewood
littoral
littprofil
lituania
lituanian
liturgie
liu
livar
live
liverpool
living
livland
livno
livonian
livorno
lix
liz
lizz
ljiljana
ljubav
ljubic
ljubis
ljubljana
lk
lke
lklingen
ll
lla
llabe
llabes
llano
llanos
llansantffraid
llar
llares
llati
llay
lle
llegenda
llego
lleida
llengo
llengu
llengua
ller
lletres
llgebirge
lli
llibre
llibres
llichau
lliteratura
lln
llobregat
lloc
llombart
llop
llorenc
llorente
llos
llosa
llt
lluc
llui
llull
lmel
lmine
ln
lnstitut
lo
loaf
lobamba
lobatse
loc
local
localisat
localmen
locat
location
locationes
loccloca
locclocaslalom
locclocca
loccloccaslalom
loce
loces
loch
lochhausen
locke
loco
locos
locpartes
locs
lofoten
log
logan
logiar
logic
logica
logical
logo
logographic
logos
logron
logui
loir
loire
loka
loke
lokomotiva
lokomotivfu
lol
lolland
loma
lombardia
lome
lomond
london
londonderry
lonfellow
long
longa
longita
longitudinal
longmen
longore
longores
longyearbyen
lontan
looking
loquial
lor
lora
lord
lordi
lordo
lorenz
lorenzini
lorenzo
lores
los
losa
losacino
loss
lost
lot
lott
lotte
lotto
lou
loud
louis
louise
louisiana
louisville
louy
love
lovecraft
lower
lozoya
lp
ls
lsdp
lt
lten
ltic
ltim
lu
lua
luanda
luat
lublin
lubnauer
luc
luca
lucas
lucca
luce
lucena
lucia
luciana
lucio
lucke
lucta
luctas
lucte
luctes
lucy
lud
lude
luder
ludes
ludesplan
ludet
ludlow
ludovic
ludplan
ludwig
ludwigsburg
ludwigsdorf
ludwigshafen
ludwigslust
ludwigsvorstadt
ludwik
luenga
luft
lugano
lugo
luhan
luhansk
luhmann
lui
luigi
luis
luisa
luise
luka
lukashenko
luks
lukullus
lula
lule
lulu
lulzim
luminal
lumine
luminosi
lumo
lumpur
luna
lunari
lund
lunda
lune
lunedi
lunes
lupin
lupo
lupos
lusail
lusor
lusora
lusores
lustige
luteran
luthe
luther
lutovac
lutz
lux
luxembourg
luxemburg
luxemburgia
luxu
luxuriosi
luzern
luzo
lv
lvarez
lvaro
lveda
lveig
lviv
ly
lyashko
lydia
lynne
lyom
lyon
lz
løkke
m
ma
maas
maastricht
maaßen
mac
maccoll
macdonald
macdowall
macedonia
macedonian
macedonianes
maceo
machen
machern
machine
machines
macht
machte
maciej
mackay
macky
macleod
macmillan
macro
macron
macroscopic
mad
madagascar
madame
madawaska
made
madeira
madelaine
madeleine
madeline
maderuelo
madison
madonna
madras
madrid
madsen
maduro
mae
maelstrom
mafu
magasine
magaz
magazin
magazine
magdalena
magdeburg
magellan
magerøya
magic
magician
magie
magistro
magna
magnete
magnetic
magnetisat
magnetisation
magnetisme
magnetite
magnitz
magno
magnon
magnus
magufuli
mahama
mahamat
mahamuni
mahatma
mahayana
mahdi
mahe
mahmutbegovic
mai
maia
maike
mail
mailer
main
maine
mainland
maintenance
mainz
maio
mais
maja
majano
majlinda
majo
major
majori
majorita
majoritari
majorite
majority
majoro
majuro
makarska
make
makedonska
makej
makerstoun
makrov
maksimovic
mal
malabo
malad
malades
maladie
maladies
maladijat
malaltus
malaria
malawi
malaysia
malcolm
maldives
male
maledives
malevich
malfale
malgre
mali
maliciosa
maliciosi
malioboro
malleabil
mallet
mallorca
mallorqui
malmo
malone
malta
maltese
maltesi
malthus
malu
mame
mammes
mammiferes
mamnoon
mamog
mamoudzou
man
manacor
management
manager
manama
manastir
manaus
manca
mancat
mancha
manche
manchester
mancuso
mandalay
mandarin
mandate
mandates
mandela
mandiraja
mandy
mane
manet
manfred
manheimer
mani
mania
maniere
manieres
manifest
manifesta
manifestationes
manifeste
manila
manin
manitoba
manja
manjage
manjages
manjar
manjat
mankell
mann
mannes
mannheim
mano
manolito
manolo
manon
manoo
manor
mans
mansfield
mansur
mantene
mantener
mantenet
manu
manual
manuale
manuales
manualmen
manuel
manuela
manus
manuscrit
manuscrite
manx
manzanal
manzanares
mao
map
mapa
mapinte
maplandia
maputo
mar
mara
maracaibo
maracana
maradona
marathon
maraton
marazoleja
marazuela
marbode
marborde
marburg
marc
marca
marcar
marcas
marcat
marceau
marcel
marcela
marcelo
march
marche
marcia
marcilla
marco
marcos
marcus
mardi
mardona
mare
marea
marek
mares
margallo
margaret
margarita
margine
margot
margrethe
margvelashvili
mari
maria
mariana
marianne
mariano
maribor
marie
marija
marijampole
marijan
marijana
marillier
marilyn
marin
marina
marinas
marine
marinero
marineros
marinika
marinilla
marinko
marino
mario
marion
marionette
marita
maritage
marital
maritas
maritat
maritim
maritime
maritimes
marito
mariupol
marjan
mark
market
marketing
marko
markovic
markt
markus
marky
marlene
marlies
marlon
marmara
marne
marocco
marque
marques
marquesado
marquis
marrakesh
marriage
mars
marseille
marshall
marstrette
mart
marta
marte
marti
martial
martin
martina
martinet
martinica
martinique
martinovich
martins
martirie
marto
martorell
martos
martti
martuni
maruga
marvel
marveles
marvin
marx
marxist
mary
maryland
marzahn
mas
masaryk
masca
mascas
mascha
mascotte
mascul
masculin
maseru
masisi
mass
massa
massachusetts
massacre
massacres
masse
masses
massiv
massive
master
mastre
mastro
mata
matabuena
match
matches
matching
matej
matejka
matematic
matematica
matematical
matematico
matematicos
mateo
material
materiale
materiales
materials
materie
materies
mateu
mateus
mateusz
mathematica
mathematical
mathematische
mathilde
mathrm
mati
matilda
matilla
matin
matine
matisse
matovic
matre
matres
matrimonial
matrin
matsuo
matt
mattarella
matteo
matters
mattersburg
matthew
matthias
matti
mattis
matur
maturation
matute
mau
mauer
maui
maupassant
maura
mauri
maurice
mauritania
mauritius
maus
max
maxi
maxim
maximal
maximilian
maximum
maxvorstadt
maxwell
may
maya
mayardit
mayen
mayer
maynard
mayo
mayor
mayotte
mayr
maze
mazovia
małgorzata
mb
mbabane
mbit
mc
mcaleese
mcdonald
mcgraw
me
mea
meat
meazza
meazzini
mecanic
mecanica
mecanico
mecanisme
mecanismes
mechanic
mechanica
mechelen
mecklenburg
med
medalies
medallie
medallies
medalliesspegul
medan
medelli
medi
media
medial
mediano
mediante
medias
medic
medica
medical
medication
medicina
medicinal
medicine
medico
medicos
medie
mediepoca
medies
medieta
medieval
medievie
medina
medio
meditadi
meditation
mediterran
mediterrane
mediterranean
mediterraneo
medium
medvedev
meer
mega
megalitic
mehmet
mehr
meike
mein
meine
meiner
mejor
mekele
mekka
mel
mela
melanesian
melbourne
melekeok
melgar
melia
melika
melilia
melilla
melior
meliorat
melissa
meliza
melnyk
melo
melolonte
meloni
melque
melsungen
mem
membibre
membrane
membre
membres
membri
membrita
membrite
memel
memmingen
memora
memorandum
memorar
memorial
memorie
memories
memory
memphis
men
menacia
menacies
menage
menandez
mencken
mendeleev
mendelssohn
mendico
mendig
mendoza
menduh
mene
menor
mensch
menschenbildung
menschlichen
menses
menstruation
mensu
mensual
mensus
mental
mentalitas
mente
mention
mentiona
mentionant
mentionat
menton
menzieshill
mer
mera
meral
mercat
mercate
mercator
mercedes
merces
mercur
mercurdi
mercury
mere
meres
meridional
merindad
merite
merkel
merkur
merle
merlet
mero
merry
mersi
merz
mes
mesic
mesis
mesleo
mesolitic
mesopotamia
mesopotamios
messi
messina
mesura
mesurar
mesuras
mesurat
mesuration
met
meta
metabolisme
metafilosofie
metafisica
metall
metalle
metalles
metallic
metallurg
metathronos
meteologic
meteorologie
method
metkovic
metode
metodes
metodo
metodologie
metre
metres
metro
metropol
metropolitan
metsola
mette
mettet
meua
meuthen
mevlu
mexican
mexico
mexiko
mey
meyer
mez
mezina
mezzo
mg
mhc
mi
mia
miami
miasto
miazga
mic
mich
michael
michail
michea
michel
michelangelo
michelle
michigan
mickoski
micri
micro
microbiologie
micronesia
microscopic
microundes
mid
middelspraak
middle
middleton
midget
midi
midlands
midnight
midrand
midtjylland
mie
miel
miesbach
mig
mighty
migrantes
migrat
migration
miguel
miguela
mihajlovic
mijas
mikaela
mike
mikhail
mikheil
mikis
mikl
mikra
mikri
mil
mila
milagros
milan
milanesi
milano
milanovic
milbertshofen
mild
mildebrath
mile
milena
miles
miletus
milevski
miliardes
miliband
milibrand
milic
milica
milicie
milies
miliones
militant
militar
militare
militari
militarie
militarimen
militarisme
military
milite
mill
milla
millenes
millenie
millennie
millennies
millennium
miller
milles
millete
milliarde
milliardes
millimetres
million
millionen
milliones
millor
mills
milne
milo
milorad
milos
milton
milwaukee
min
mina
minas
minat
mind
mindanao
minder
mindsteps
mine
mineira
mineral
minerale
minerales
mines
ming
minh
mini
minias
miniera
minieras
minim
minimal
minimisat
minimum
minin
mininas
ministe
minister
ministerie
ministeries
ministra
ministre
ministres
ministro
minna
minneapolis
minnesota
minnette
mino
minogue
minor
minori
minorita
minoritari
minoritas
minorite
minsk
minstre
minu
minus
minuta
minute
minuten
minutes
mio
miodrag
miquel
mir
mira
mirad
miramichi
miranda
mirbeau
mirko
miro
miroslav
mirsad
miryam
mirziyoyev
mis
miscomprension
misductet
mishustin
miskolc
miskoski
miss
missage
missages
misser
misset
missiles
missillier
mission
mississippi
missouri
mister
misterie
misteriosi
misteris
mistica
miszczuk
mit
mitat
mite
mites
mitilene
mitologic
mitologie
mitrovica
mitsotakis
mitte
mitteilungen
mittelalter
mittenwald
mixation
mixed
mixet
mixter
mixtet
mixtura
mixturas
mky
mlada
mladen
mladih
mmit
mmite
mnla
mo
moavero
mobil
mobile
mobilita
mobles
moc
moda
mode
model
modell
modellat
modelle
modelles
models
moderat
moderates
moderator
modern
moderna
moderne
moderni
modernisation
modernisme
modest
modi
modiano
modificat
modification
modificationes
modificatores
modo
modric
module
modus
moeketsi
moent
mogadishu
mogherini
mohamed
mohammad
mohammed
mohawk
moi
moines
mojkovac
mokgweetsi
mol
molar
moldavia
moldavian
molde
moldova
molecul
moleculari
molecules
molenbeek
molie
molina
moline
molinos
moll
molly
molt
molta
moltke
mombasa
moment
momente
momentes
momo
momoko
mon
monaciera
monaco
monarch
monarchia
monarchic
monarchie
monarchies
monastere
monasterio
monatomic
monats
moncayo
moncloa
moncton
mond
mondadori
monde
mondezo
mondial
mondilingue
mondo
mone
monegasc
monet
monete
monetes
money
mongol
mongolia
mongolian
monica
monika
monisme
monolecs
monrepos
monroe
monrovia
mons
monsieur
monsters
monstra
monstrant
monstrar
monstrat
mont
montalba
montan
montana
montania
montanias
montanie
montaniose
montat
montauk
monte
montebello
montejo
montemayor
montenegrian
montenegro
monterrey
monterrubio
montes
montevideo
montgomery
monti
montiel
monto
montorne
montosi
montpelier
montpellier
montre
montreal
montsant
montserrat
monty
monument
monumentes
moon
moore
moorings
moosach
mor
mora
moral
morale
moraleja
morales
moralita
moralitats
morata
morava
moravec
moravia
moravian
morawiecki
mord
morddeich
morde
morden
mordovia
more
morenhoven
moreno
moreruela
mores
morfema
morfemas
morfologic
morfologie
morgan
morgen
morges
morgue
mori
morir
moriscos
morit
moritz
mormon
mormones
moro
morocco
moros
morricone
morris
morrison
morro
mort
morta
mortal
mortar
mortat
mortation
mortator
mortatora
morte
mortes
morto
mortsel
morweiser
mos
mosbach
moscas
moscva
mosel
moselle
moses
moshe
moske
moskva
moskwa
moson
mosovce
mossa
most
mostar
mostres
mosul
mota
mother
motion
motiones
motiv
motivat
motive
motives
moto
motor
motores
motors
motorsport
mottley
motto
motu
mou
moulin
mount
mountain
mountains
mountbatten
mouskouri
mouvement
move
movement
movemente
movementes
movent
mover
movet
movie
moviment
movimente
movimentes
moxico
moya
mozambique
mozarabic
mozart
mozoncillo
mpor
mporal
mpore
mpores
mr
mrkva
ms
msson
mswati
mt
mu
muamer
mubarak
mudria
mue
mugabe
mughal
muhamad
muhamed
muhammad
muhammadu
muharrem
muistatko
mukherjee
mulet
mulic
mult
multamuli
multe
multi
multilingual
multinational
multiple
multiplic
multiplicatives
multisourced
multmen
multo
mumbai
mumie
mun
mund
mundal
mundalcgl
munde
mundebocale
mundel
mundes
mundeze
mundi
mundial
mundlingue
mundlinguistic
mundo
mundolingua
mundolingue
mungo
municipal
municipalitates
municipalities
municipe
municipes
municipie
municipies
municipios
municpie
munro
munster
mur
murasaki
murcia
mures
muriel
murillo
murindo
murmansk
mus
musa
musas
musculari
muse
museo
museum
musiał
music
musica
musical
musicales
musico
musicos
musik
musikladen
musk
muslim
muslimes
musset
mussorgsky
mustafa
mustang
muster
musulman
musulmanes
mut
mutata
mutation
mutato
muthshall
mutter
mutzenbacher
muzaferija
my
myanmar
myrna
mysterios
mystery
møre
n
na
nacceptabil
nach
nacht
nachts
nacional
nacionala
naco
nad
nadal
nadine
naerssen
nagai
nagano
nagorni
nagorno
nahles
nairobi
najib
nam
name
names
namibe
namibia
namur
nan
nana
nancy
nanes
nang
nani
nanni
nanning
nantes
naomi
napoca
napole
napoleon
napoli
napolitano
narci
nare
narendra
narin
narkotanti
narmer
narra
narration
narrationes
narrativa
narros
naruhito
narva
narzissen
nas
nasa
nasc
nascat
nasce
nascentie
nascenties
nascet
nase
nashville
nashwaak
nasr
nassau
nata
natal
natalia
natascha
natasha
nate
nath
nation
national
nationaldemocratic
nationalism
nationalisme
nationalismes
nationalist
nationalistes
nationalistic
nationalita
nationalsocialisme
nationalsocialist
nationalsocialistes
nationalsocialistic
nationalstadion
nationes
nations
nativ
native
nativita
nato
natruppat
natufian
natufianes
natur
natura
natural
naturale
naturalis
naturalisme
naturalist
naturalistes
naturalistic
naturalita
naturalmen
naturamor
naturas
nature
naturien
nauen
nauru
nause
nava
navacerrada
navafri
naval
navalilla
navalmanzano
navalny
navares
navarra
navarre
navarredonda
navas
nave
naves
navigation
naypyidaw
nazarbayev
nazi
nazis
nazistic
nazzjonalista
nb
nba
nberg
nc
nce
ncere
ncert
ncessant
nchen
nchengladbach
nchez
nchner
ncia
ncies
ncila
ncipe
ncirlik
ncomplet
nconosset
nconossete
ncontestabil
ncorect
ncorrectibil
nd
ndayishimiye
nde
ndefinit
ndel
nden
ndependent
ndependentes
ndependentie
ndependentmen
nder
ndez
ndides
ndiga
ndige
ndiger
ndivisibil
ndnis
ndor
ne
nea
neamt
neandertales
neandertalian
neanderthalensis
near
neberg
nebojs
nebraska
nebst
nebul
neburg
necessari
necessi
necessita
nechayev
nechi
neckar
neco
necocli
necos
ned
nedeljko
nederland
nederlande
nederlandes
nederlandese
nederlandesi
nederlands
neel
nefeld
nega
negat
negativ
negativmen
negociationes
negocie
negotiator
negra
negre
negro
nehaj
nehammer
neil
neill
nele
nelly
nelson
nematic
nemtsov
nen
nena
nenad
neo
neolatine
neolitic
neologization
neon
nepal
nepo
nepota
nepote
nepotes
neptun
neptune
nequande
nequi
nequo
ner
nere
neres
neretva
nermin
nero
nes
ness
nestadt
nestroy
net
netanya
netanyahu
netball
netflix
nett
netta
netz
neu
neubauer
neucha
neue
neuendettelsau
neuendorf
neuer
neues
neuhausen
neuhof
neuilly
neuko
neulengbach
neumann
neumarkt
neumu
neuperlach
neuphilologische
neuruppin
neussner
neustadt
neustrelitz
neutral
neutralita
neutron
neutrones
neutronic
neuwirth
neva
nevada
never
neves
nevis
new
newark
newcastle
newell
newport
news
newton
nexistentie
next
nexta
ney
nez
nf
nfeld
ng
ngc
ngeising
ngel
ngeles
ngo
ngste
nh
nhabitat
nhausen
nheide
nhl
nhuber
ni
nia
niamey
nibali
nic
nicaragua
niccolo
nice
nichi
nicht
nichts
nick
nickel
nickname
nicola
nicolas
nicolau
nicolaus
nicole
nicosia
nidecker
nidwalden
nie
nieciecza
niederellenbach
niederense
niedergude
niels
niemczyk
niemeier
nien
nienburg
nieradkiewicz
nies
nietzsche
nieva
niez
nig
nigel
niger
nigeria
night
nightmare
nights
nigri
nigs
nigsberg
nihil
niinisto
nik
nika
nikitinstrad
niklas
nikola
nikolai
nikolaus
nikolay
nikole
nikolic
nikos
niks
nil
nile
nilo
nilotic
nim
nime
nimo
nimoy
nin
nina
nine
ninesim
nino
nio
nior
niques
nis
nishani
nishny
nisi
nit
nitobe
nitrates
nitrogen
nive
nivelle
nivelles
niversitesi
niwalden
nj
njoman
njust
nk
nkurunziza
nl
nmediat
nmediatmen
nmutilat
nn
nnatural
nnchensache
nner
nnis
nnocent
no
noah
nobel
nobil
nobiles
nobilita
nobilo
nobis
noble
noch
nociv
nockemann
nocte
noctes
noelle
noficial
noguerol
noha
noi
noir
nokto
nola
nole
nom
nomades
nomadic
nome
nomenclatura
nomina
nominar
nominat
nomination
nomine
nomines
nomitaj
noms
non
nonconoseda
nor
nora
norbert
norby
nord
nordal
norden
nordhausen
nordic
nordkapp
nordost
nordrhein
nordrhen
nordwest
norfolk
normal
normalisation
normalmen
norman
normandia
normandie
normannes
normes
norrko
norse
norte
north
northern
northgrippian
norvegia
norvegian
norwich
nos
nosferatu
nost
nostr
not
nota
notabil
notabilmen
notament
notarstefano
notas
notat
note
notes
notice
noticiam
notion
notoc
notori
notre
notruf
nottingham
nou
noubar
nouripour
nouvelle
nouvelles
nov
nova
novak
novalic
novalis
novas
nove
novel
novella
novellas
novelle
novellen
novelles
november
novembre
novgorod
novi
novial
novlingue
novmen
novo
novska
now
nowacka
nowoczesna
npopulari
npossibil
npublicat
nr
nrefutabil
nregularita
nro
ns
nsa
nsdap
nsimetric
nsimil
nster
nsuficentie
nsul
nsules
nt
ntara
nteleologic
nter
nterim
nther
ntic
nto
nu
nube
nubes
nubia
nuclear
nucleari
nucleo
nucleos
nucleotides
nud
nuestra
nueva
nuevo
nuit
nuku
nukus
null
nullcos
nullmen
nulmen
number
numerales
numere
numeres
numero
numerosi
nun
nuna
nuptie
nur
nursultan
nusual
nutriment
nutrition
nuuk
nv
nvalid
nvariabil
nvsh
nwald
ny
nyc
nycteris
nymphenburg
nyon
nzburg
nzer
nzli
næstved
o
oak
oakland
obama
oban
obedi
obedit
oberammergau
obere
oberellenbach
obergiesing
oberhausen
oberhavel
oberland
oberliga
obermenzing
oberpfalz
oberschleißheim
obersendling
oberstdorf
oberta
oberwiesenthal
obispo
object
objecte
objectes
objectiv
objective
objectives
objects
oblast
obliga
obligat
obligation
obligatori
obra
obrador
obradovic
obres
obscur
obscura
obscurita
observa
observat
observation
observationes
observatoire
observator
obst
obstacul
obstinat
obtener
obtenet
obwalden
obywatelska
oc
oca
ocasion
ocasional
ocasiones
occ
occasion
occasionalmen
occident
occidental
occidentalist
occidentaliste
occidentalistes
occidentalistic
occidentalita
occidente
occitan
occitanie
occitaniste
occupa
occupat
occupation
occurret
ocde
oce
ocean
oceane
oceanes
oceania
oceanian
oceanic
och
ocidero
ocie
oct
octave
octavianus
october
octobre
ocul
ocules
ocultat
ocultuore
ocupa
ocupat
ocupation
ocurre
ocurrent
od
ode
odense
oder
oderland
odesa
odessa
odie
odiham
odin
odisha
odisse
odisseus
odo
odore
odra
odysseus
oerlenbach
oertel
of
ofensive
oferta
ofertat
offenbach
offenburg
offensive
offerta
offertat
offical
office
officero
official
officiales
officiel
oficero
oficia
oficial
oficialisation
oficialmen
oficiario
oficie
oficies
og
ognjen
ogres
oh
ohio
ohne
ohrenbach
ohrid
oi
oil
ois
oise
oj
ojeda
ojn
ok
oka
okinawa
oklahoma
oktay
oktoberfest
okuka
okzidental
ol
ola
olaf
olalla
olav
olaya
olbia
olca
old
olda
oldbury
oldenburg
oldi
ole
oleh
oleksandr
oleksii
oleo
olexandr
olga
oli
olimpiade
olimpic
oliva
olivares
oliver
olivia
olivier
ollanta
olmeda
olmedo
olmo
olmos
olmpic
olof
olofson
olombrada
olomouc
olta
olviopol
olympia
olympiaturm
olympic
olympique
olympisches
olympus
omaha
oman
omar
omberok
ombre
ombres
ombro
ombudsmann
omdurman
omega
omid
ommite
omne
omnes
omni
omnico
omnicos
omnidial
omnipotent
omnis
omo
omsk
on
onb
once
ondara
ondra
one
oneros
ones
onetwo
onkel
online
only
ono
ons
ont
ontario
ontologie
opedro
opel
open
opera
operation
operationes
operativ
operatores
opernlibretto
opfer
opinion
opiniones
opoldville
oposit
oposition
opositional
opposition
oppression
optative
optica
optical
optim
option
optoez
or
ora
oracle
orahovac
oral
orange
oranienburg
oranje
oras
oration
orator
orba
orban
orbitale
orchestre
ordbog
orden
ordens
ordinales
ordinari
ordinarimen
ordinarmen
ordinat
ordine
oregon
orejana
orel
oreles
ores
org
organ
organes
organic
organisa
organisar
organisat
organisation
organisationes
organisator
organisatores
organisme
organismes
organization
organizations
orgasme
orginal
orhei
ori
oriental
orientales
orientat
orientation
oriente
origin
origina
original
originale
originalitat
originalmen
originar
originat
origine
origines
orkney
orlando
orleans
orlic
oro
oromo
oropesa
orphan
orpheus
orthodox
orthographia
ortigosa
ortodox
ortodoxie
ortogra
ortografia
ortografic
ortografie
ortographia
orwell
os
osa
osaka
osama
oscar
oscilanti
oscillation
oscos
oscuro
osh
osijek
oskar
oslo
oslobođenje
osma
osman
osmani
osmanovic
osnabru
osos
osse
osses
ossetia
ost
ostal
osterberg
osterhage
osterhofen
osternienburg
osternienburger
ostic
ostpriegnitz
ostrava
ostwind
ota
otan
otero
oteros
other
othering
otoman
otra
otro
ott
ottant
ottanti
ottawa
otte
ottesi
ottesim
otto
ottokar
ottoman
ottomanes
otton
otzma
ou
ouagadougou
oual
oujda
oun
our
ourense
out
outer
outta
outubro
ov
ova
ovce
over
overos
ovic
oviedo
ovre
ovres
own
oxford
oxid
oxidation
oxides
oxigen
oxygen
oz
ozon
p
pa
paar
paavo
pablo
paccat
pace
pacific
pacificmen
pacifist
pacos
pacte
pactes
paddington
paderborn
padova
paedophile
paedophilia
pafos
pag
pagan
pagans
page
pagi
pagina
pagine
pagines
pahde
pahoa
pahor
pai
paidika
paige
pais
paisage
paisages
paises
paisley
pajarejos
pajares
pakistan
palabra
palace
palacio
palacios
palatina
palatinia
palau
palazuelos
pale
palencia
paleo
paleolitic
paleontologie
palermo
palestina
palestines
palestinian
palgrave
palikir
palladium
pallars
palm
palma
palmas
palme
palmerston
paluch
pametno
pamir
pamplemousse
pamplona
pan
panama
panc
pancatalanistes
pandemie
pandora
pandunia
pane
pankel
pankow
panorama
pantalones
pantaloni
pantanal
panthers
paolo
papa
papal
papatu
paper
papere
paperes
papers
papoulias
papua
par
para
paracuellos
parade
paradies
paradigma
paradigme
paradise
parafilie
paraguay
paralel
paralelmen
paralimpic
paralise
parallel
paralleles
paramaribo
paramilitari
paramore
parapluvie
parapluviehttps
parat
paraules
paraviana
parc
parcella
parcs
pardona
pardonat
pardubice
pare
paredes
parent
parentita
pares
pari
paris
park
parken
parker
parla
parlada
parlament
parlamentari
parlamentes
parlant
parlar
parlat
parlator
parlatora
parlatores
parlava
parler
parliament
parma
parocia
parocial
parocias
parol
parolas
parole
paroles
parolformation
parovic
part
partaka
parte
partei
partement
partementes
partements
partenkirchen
partes
parti
partial
partialmen
partian
particiantes
participa
participantes
participar
participat
participation
participie
particle
particul
particular
particulari
particularimen
particularita
particularmen
particule
particules
partido
partie
parties
partija
partiprenantes
partiprende
partiprender
partiprendet
partiprensor
partiprensores
partir
partisan
partisanes
partise
partises
partisi
partit
partition
partner
partnera
parto
parts
partu
parturir
party
parvules
pas
pasca
pascal
pascual
pasechnik
pasewalk
pashtunes
pasing
pasko
pasok
pass
passa
passage
passageros
passat
passate
passau
passion
passions
passiv
passive
passivita
passos
passport
passportes
passu
pasternak
pastor
pat
pate
pater
paterna
paterno
path
patinage
patinar
patna
patouliennaves
patras
patre
patres
patria
patriarch
patricia
patrick
patrie
patrimonie
patriotic
patro
patrushev
pattaya
patterns
pau
paul
paula
pauli
pauline
paulo
paulus
pause
pausewang
pavel
pavle
pavlo
pavogur
paweł
pax
payamentes
payar
pays
paz
pazderski
pbworks
pdf
pe
peace
peano
pec
pecca
peccas
pecude
pecuniari
pecunie
ped
pedagogica
pedagogo
pede
pedes
pedofilia
pedofilic
pedofilie
pedofilos
pedraza
pedro
pedrosa
pedrosillo
peel
peer
pegida
peine
peipers
pejanovic
pejc
pel
pelayo
pelayos
pele
pelegri
peleye
pelister
pellegrini
pelmel
pelosi
pembroke
pen
pena
penal
penat
pence
pendarovski
pende
pendes
penede
penelope
penetra
penetration
peng
penguins
penh
peni
penick
peninsul
peninsula
peninsulari
penn
pennsylvania
pensa
pensada
pensament
pensar
pensas
pensat
pensatores
pense
pensi
pensilvania
pension
pensionat
pensioneros
penzance
people
peoples
peque
per
pera
peralejos
perales
peras
percent
percentage
percentes
perceptet
perceptibil
perception
percho
percy
perde
perdes
perdi
perdient
perdit
perdu
perdue
perdura
pere
peregrinage
pereira
perello
perfect
perfecte
perfectic
perfinit
performance
performat
performing
peril
perilla
period
periode
periodes
periodic
periodo
peripatetic
perl
perlach
perle
perli
perm
permanent
permanentmen
permette
permisse
permisser
permisset
permission
pernambuco
pernille
pero
perosillo
perpignan
perrault
perry
perse
persecutet
persecution
persequet
persia
persian
persianes
persistent
person
persona
personages
personal
personalita
personality
personalmen
persones
perspective
perspectives
perth
peru
pervivet
pesa
pesant
pesch
pesquera
pestan
pestazzoli
pet
petah
peter
peterburg
petersburg
peterson
petit
petite
petkov
peto
petr
petrarca
petre
petres
petrin
petro
petrograd
petroleo
petroleum
petrosel
petrov
petru
petrucci
petry
petty
peus
pez
pezze
pezzes
pfalz
pfe
pfeiffer
pferd
pforzheim
pg
ph
phan
phantoms
phase
phil
philadelphia
philip
philipp
philippe
philo
philoponus
philosophia
philosophiæ
philosophy
phnom
phoenix
phone
phono
phonosemantic
photo
photogen
photon
photos
phu
physical
physics
pi
pian
piani
pianist
pianista
piano
piatra
piazza
pic
picardie
picasso
pico
picter
pictero
pictet
pictor
pictora
pictores
pictura
picturas
picture
pidal
pide
pidgins
pidjin
pie
pierre
piet
pietschmann
pigal
pigo
pihla
pilar
pilares
pilcher
pileser
pilfender
pilgrim
pilgrims
pilot
pilote
pilz
pin
pinar
pinarejos
pinares
pinarnegrillo
pineda
pines
ping
pingouins
pings
pinguinia
pinhead
pinilla
pinneberg
pino
pinocchio
pintada
pinth
pinto
pinturault
pionero
pioneros
piones
pir
piramide
piramides
pirates
pirenees
pirineos
pirmasens
pirna
piro
pirro
pisa
pisc
pisca
piscator
piscatores
pisces
pisciera
pisin
piste
pisuerga
pites
pittsburgh
piz
pizza
pjesme
pl
pla
placate
place
plage
plages
plaid
plaisir
plan
plana
planat
planche
plane
planeat
planes
planet
planeta
planetari
planete
planetes
planification
planina
planlingue
planlingues
planned
plant
planta
plantas
plante
plantes
plants
planura
planuras
plasma
plasmas
plasmic
plastic
plata
plate
platform
platforma
plato
platon
platonic
platz
platzierungsweg
plavec
play
player
plaza
plazza
plazzamentes
plazzat
please
plebiscite
plebiscites
plej
plen
plenar
plenat
plenkovic
plenmen
plenum
ples
plesent
plesura
plesure
plic
plinius
plo
plotdata
plovdiv
plu
plum
plumbe
plummer
pluparte
plural
plurale
pluralistic
pluri
plus
plusquamperfecte
pluto
plutost
pluvie
pluvies
plzen
pneumonie
png
po
pobla
poblacio
pobladura
poc
poca
pod
podem
podemos
podgorica
podobsky
podolsk
podrinje
poe
poem
poema
poemarie
poemas
poemes
poemi
poemo
poems
poesi
poesia
poesie
poesies
poet
poeta
poete
poetes
poetessa
poeti
poetic
poetics
poetry
pogac
poggenburg
point
pointe
poitier
pokal
pol
pola
polari
pole
polendos
poli
polical
police
policie
policies
policist
policistes
policisto
polifem
polimeres
polis
polit
polita
politcal
politic
politica
political
politicalmen
politicmen
politico
politicos
politics
politik
politiques
polizei
polizeiliche
poljana
pollet
polling
pollog
polluent
polly
polo
polones
poloneses
polonesi
polonesis
polonia
polonian
polozk
poluteri
polve
polvorosa
polysystem
pom
pomak
pomakes
pomerania
pomes
pompeo
pompiati
ponce
pondera
ponferrada
pont
ponta
ponte
pontes
pontevedra
ponthttps
pontic
pooh
poole
poor
pop
pope
poplament
poples
popovic
popovska
popovski
popp
poprad
popul
populaire
popular
populari
popularisat
popularisation
popularita
populat
population
populationes
popules
populist
populistic
populo
populorum
por
porcine
porec
pornografic
pornografie
poroshenko
porreros
port
porta
portabil
portar
portas
portat
portatores
porten
portiero
portillo
portinari
portion
portisto
portland
porto
portparol
portparola
portrait
portrete
portretes
portu
portugal
portugale
portugalesi
portuguese
portuo
portus
porvoo
pos
posadas
posavina
posavska
poseidon
posit
position
positiones
positiv
positivmen
posque
posse
possede
possedet
posser
possesives
possession
possessive
possessives
posset
possibil
possibilita
possibilmen
possible
post
posta
postal
postale
postat
posterior
posteriori
posteriormen
postmarca
postmarcas
postmastre
postmodernizma
posto
postula
postulat
postulationes
posus
potato
pote
potent
potentia
potential
potentie
potenties
poter
potsdam
potte
potter
potteri
potterial
pottero
pou
pour
povas
poveda
povratak
povri
povrita
powell
power
poy
poza
poznan
pozo
pozuelo
pp
ppingen
pr
pra
practic
practica
practical
practicas
practicat
practicmen
pracy
pradales
pradesh
prado
praha
praia
prakan
prakopenka
pram
prames
pranab
praslin
prat
pratasevich
prater
prats
pravde
pre
prebende
precative
precedent
precedentes
precessor
precie
preciosi
precipue
precis
preciser
precision
precisita
precismen
precoci
precursor
predestinat
predicandi
predinastic
predit
preditiones
predrag
prefecte
prefectura
prefecturas
prefere
preferentie
preferet
prefixe
prefixes
prega
pregas
prehistoric
prehistorie
preis
prejudice
prejudicies
preliminari
preliminaro
prematurat
premiat
premie
premier
premies
premijer
premio
prende
prender
prendet
preno
prep
prepara
preparat
preparation
preparatori
prepo
preponderant
preponderante
preposition
prepositiones
preromanic
pres
presbiterian
presc
prescriptiones
prescriptivism
present
presenta
presentar
presentat
presentation
presentator
presente
presented
presentie
preservat
president
presidenta
presidental
presidente
presidentes
presidential
presidentie
presidento
presidentura
presidet
presidie
presley
presocratic
press
presse
pressent
presser
pression
pressiones
pressura
prestat
prestige
presto
prestro
pretende
pretendet
preterit
preterite
pretoria
pretty
pretzell
preuß
preußische
prevalente
prevc
previdet
pri
price
pride
prijedor
prilep
prim
primari
primarimen
prime
primera
primitive
primorje
prince
princes
princess
princessa
princeto
princeton
princip
principal
principalmen
principatu
principes
principia
principie
principies
principle
print
printat
printation
printator
priori
priorita
pris
prisma
prison
prisonari
prisonario
prisoneros
prisones
privat
privatisat
privatisation
privilegies
prix
prizren
prlic
pro
proba
probabil
probabilita
probabilmen
probis
problem
problema
problemas
probleme
problemes
probo
procede
procedet
process
processe
processes
processu
processuat
processus
proclamat
proclamation
procurator
produccio
producent
producente
producte
producter
productes
productet
production
productiones
productiv
productivita
productor
productora
produi
prof
profesional
profesionalisation
profesoressa
profession
professional
professionalmen
professor
professora
professore
profete
profil
profile
profitant
profund
profundita
profundmen
profundore
programma
programmas
programmation
programme
progreso
progress
progresse
progresses
progressiv
progressu
progressus
prohibit
prohibition
project
projecte
projectes
projectet
proletari
proletarial
promesset
prometheus
prominent
promisse
promoe
promoer
promoet
promotion
promotores
promover
pronent
prono
pronomine
pronomines
pronuncia
pronunciar
pronunciat
pronunciation
proof
propaga
propaganda
propagandon
propagar
propagat
propagation
property
proponer
proportion
proportional
proportiones
proposed
proposi
proposit
proposition
propositiones
propri
proprie
proprieta
proprietario
proprietas
propugnar
propulset
proque
proro
prosa
prosaist
prosperation
prosperita
prostata
prostituta
prostitutas
prostitution
protagonist
protecte
protecter
protectet
protection
protectoratu
protekte
protestant
protestante
protestantes
protestantisme
protestat
proteste
protestes
proto
protocol
proton
protones
prova
provanco
provar
provas
provat
provencal
provence
proveni
provensal
proverbaro
proverbies
provide
providence
province
provincia
provincial
provincias
provinse
provisori
provnumere
provocat
proxim
proximen
proximita
proximite
pru
prudent
prussia
prussian
pruva
pruvat
pruvation
prva
przemys
psd
pseudonim
pseudonimes
psichiatrie
psichic
psichologic
psichologie
psichologo
psicologie
psicologo
psiko
psv
psychologic
psychological
psychology
ptolemeo
ptolomeus
pu
public
publica
publicains
publicant
publicar
publicat
publicatcosmoglotta
publication
publicationes
publications
publicist
publicistica
publicita
publicmen
publico
publique
publishing
puc
puchheim
puebla
pueblorrico
puella
puellas
puellesses
puente
puere
puerto
pugacheva
puig
puigdemont
puk
pulari
pularita
pulat
pulation
puljak
pullman
pulmon
pulo
pum
punctu
punctus
pund
punic
punit
punition
punjab
punk
punt
punta
pupe
puppen
pur
purmen
pushilin
pusic
put
putellas
putin
putrajaya
puy
px
pyeongchang
pyongyang
pyramid
pyre
python
q
qin
qmjhl
qu
qua
quadrat
quadrates
quadratic
quadratkilometres
quakenbru
qual
qualcunc
quale
quales
qualifica
qualificar
qualificat
qualification
qualifikationsrunde
qualita
qualitativ
qualmen
quam
quan
quancam
quand
quande
quandecunc
quang
quant
quante
quantic
quantisat
quantita
quantitativ
quantum
quar
quarant
quaratlon
quaresi
quaresim
quart
quartal
quarter
quartere
quarteres
quartes
quartier
quarvez
quasi
quatar
quati
quatre
quatro
que
quebec
queen
queens
queensbury
queensland
queenstown
quel
quelc
quelces
quelcunc
quelcvez
queles
quelles
quels
quelvez
quem
quentin
quer
querco
quercos
quere
quereles
querol
quesada
question
questiona
questionante
questionat
questiones
quevedo
quezon
qui
quia
quiet
quijote
quilmes
quin
quincent
quine
quineim
quinesi
quinesim
quinn
quintana
quintanar
quintanilla
quinvez
quirze
quito
quixot
quo
quoc
quod
quotidian
quotiente
r
ra
raab
rabat
rabbo
rabindranarth
rabindranath
rables
raboe
race
races
rachael
rachel
racine
racing
raconta
racontas
racontasli
racontes
racv
rad
rada
radcliffe
rades
radev
radiation
radic
radica
radical
radicarium
radices
radies
radio
radioactivita
radiocarbonic
radiometric
radmanovic
radojka
radom
radonc
radovan
raducanu
radulovic
rae
rafael
rafał
raffaeli
rafinat
rafineri
ragnar
ragusa
raguz
rahmon
rahn
rai
rail
railway
rain
rainer
raipur
rajoy
rakete
raketes
rakonteti
rakonti
raleigh
ralf
ram
rama
raman
ramaphosa
ramelow
ramersdorf
rames
rami
ramkalawan
ramo
ramon
ramone
ramones
ramsau
ramstedt
ramush
randall
randers
rang
range
rangers
ranges
rangliste
rangun
ranko
rap
rapaport
rapariegos
rapid
rapide
rapidita
rapidmen
rapids
raportat
raporte
raportes
raptet
rar
rari
ras
rasistic
rasmussen
rason
rasonament
rassemblement
rasses
rat
ratas
rate
rathaus
ratificar
ratificat
ration
rational
rationalist
rationes
ratzeburg
rau
rauma
raus
ravensburg
raw
raxworthy
ray
rayes
raymond
rayyan
razgrad
razumkov
rb
rbara
rbel
rbiger
rbigo
rbite
rbor
rbores
rbundet
rcal
rcena
rcere
rchen
rde
rden
rder
rdige
rdine
rdines
rdoba
re
rea
reacte
reacter
reaction
reactiones
reactiv
reactores
read
reading
reagan
real
realisabil
realisar
realisat
realisation
realisme
realista
realistic
realita
reanimated
reap
rebecca
rebelles
rebellion
rebelliones
rebelo
rebensburg
rebollar
rebollo
rec
recadero
recensiones
recent
recenti
recentmen
recep
recepter
reception
recerca
recevit
rechholz
rechte
rechtsfa
rechtstaatlicher
recife
recipientes
reciproc
recive
reciver
recivet
recklinghausen
recklingshausen
reclam
reclamation
reclames
recoltatores
recoltatori
recolte
recomandar
recomandat
reconosse
reconossentie
reconosset
reconossibil
reconque
reconquesta
reconquestation
reconqueste
reconquista
reconstruction
reconstructiones
record
recordes
records
recreation
rect
rectangulari
rectification
rectificationes
rector
recuperat
recuperation
red
reda
redactet
redaction
redactor
redactora
redange
redecovrit
redefin
redessina
redonda
reductet
reduction
reduit
reelectet
reema
reeve
ref
refere
referencias
referendum
referent
referente
referentia
referential
referentie
referenties
referer
referet
reflecteixen
reflectet
reflection
reform
reforma
reformad
reformar
reformat
reformation
reformatores
reforme
reformes
reformistes
refraction
refugee
refugientes
refugitores
refundat
refusa
refusat
refutat
rega
regarda
regardar
regeneration
regensburg
regenstauf
regentie
reggio
regime
regimen
regiment
region
regional
regionalliga
regiones
regissor
registrat
registration
registre
registres
regles
regna
regnant
regnantie
regnat
regne
regnia
regnum
regresset
regression
regul
regula
regulament
regular
regulari
regularisat
regularita
regularmen
regulas
regulat
regules
rei
reich
reichenbach
reichenberg
reims
reina
reiner
reinhard
reinickendorf
reino
reinprecht
reinvented
reise
reissue
reiter
rejecte
rejectet
rejection
rel
relage
relages
relapse
relat
relatat
relate
relatent
relatet
relation
relationes
relations
relativ
relativi
relativistic
relativita
relativmen
releases
relegationsludes
reles
relevantie
reliefes
religio
religion
religiones
religions
religios
religiosi
relvia
rem
remane
remanet
remarca
remarcabil
remarcat
remation
rembrandt
reme
remedios
remember
remington
remix
remixe
remodellar
remondo
remontes
remorcator
remplazzar
remplazzat
ren
renaixement
renaixenc
renan
renasce
renascentie
renascenties
renato
renault
rendevu
rene
renkontro
rennes
reno
renominat
renovar
renovat
renovation
renunciar
renunciat
renzi
renzler
reorganisar
reorganisat
repartition
repetent
repetint
repetit
repetition
repetitorie
replazzament
repopulat
repopulation
repopulatores
reprensentantes
reprensentat
represantantes
representa
representant
representante
representantes
representar
representat
representate
representation
representationes
representativ
repression
reproches
reproducter
reproduction
reproducto
reptiles
repu
republic
republica
republican
republicanes
republicas
republik
republika
republikaner
reputation
rer
rerik
res
rescue
research
resercha
reserchar
reserchas
reserchator
reserchatores
reserves
reservuore
reside
resident
residentia
residentie
resignat
resignation
resistantie
resiste
resistentie
resister
resistet
resistivita
resoluet
resolution
resonant
respect
respectar
respectat
respecte
respectiv
respectivmen
respiration
respondar
responde
respondente
respondet
responsabil
responsabilita
response
responses
responsibil
ressurses
rest
resta
restage
restant
restar
restat
restaurat
restauration
restaureri
reste
restes
restigouche
restoration
restoreri
restrictiones
resulta
resultant
resultante
resultat
resultate
resultates
resultes
results
resuma
resumat
resume
resurectet
resurection
resz
ret
retage
retages
retardat
rete
retene
retenet
retention
retine
retirada
retirament
retirar
retirat
reto
retorica
retorn
retorna
retornar
retornat
retoroman
retortillo
retraet
retraida
retrato
retro
retromisse
retrospectet
retrova
return
reuf
reunification
reunion
reuniones
reunir
reunit
reuven
rev
reva
reval
revaler
reve
revelat
revelation
revenit
revenu
reverentiosi
review
revilla
reviset
revision
revisioncgl
revista
revivability
revival
revivalistics
revive
revivement
reviventar
reviventie
revolta
revolte
revolution
revolutionari
revolutionario
revolutiones
revu
revue
revues
revuo
rex
rey
reyal
reyat
reyatu
reyatus
reyes
reyessa
reyessas
reyesssa
reyia
reykjavi
reynolds
rez
rezensionen
reznikov
rg
rgen
rgens
rger
rgic
rgina
rgine
rgl
rhapsody
rhea
rhein
rheinland
rhen
rhenland
rhin
rho
rhode
rhoden
rhodesia
rhodopes
rhomberg
rhus
ri
ria
riad
riaguas
riaza
riba
ribas
ribbeck
ribera
ribota
ric
rica
ricarda
rice
rich
richard
richardson
richesse
richie
richmond
richter
rick
rider
ridge
ridicul
ridinda
rie
riem
ries
riesch
riess
riga
rigg
right
rights
rigi
rih
rijec
rijeka
riley
rima
rimini
rinaldo
rinco
rinconada
ring
ringer
rink
rinne
rinteln
rio
riocentro
riofri
rioja
riomoros
rionegro
riopisuerga
riordan
rioseco
ris
rise
rishi
ristevski
rita
rite
ritma
ritme
ritmic
ritter
ritu
ritual
riu
rium
rivale
rive
river
rivera
riverbank
rivere
riveres
rives
rivie
rivlin
rivne
rj
rk
rkheim
rkisch
rkische
rlaget
rm
rmino
rminos
rn
rna
rnberg
rnberger
rni
rnu
ro
roa
road
rob
robert
roberta
roberto
roberts
robin
robinette
robinson
robledo
robot
roca
rocafort
rocca
rocco
roccosi
roci
rock
rocket
rockets
rocky
roda
rodi
rodlo
rodni
rodri
rodrigo
rodrik
roger
rohani
roia
roig
rojas
roksana
rol
roland
role
roles
rolf
roll
rollamienta
rolland
rom
roma
romagna
romain
romalingue
roman
romana
romanas
romanc
romance
romanch
romanda
romandie
romane
romanes
romani
romanian
romanic
romanin
romanisat
romanisation
romanos
romans
romantic
romantica
romanticisme
rome
romeo
romero
rompuy
romsdal
romulus
romy
ronald
rond
rondayas
ronde
ronja
ronny
roo
rookie
ropa
roque
ros
rosa
rosamunde
rosario
rosarium
rose
roseburg
rosemarie
rosen
rosenberger
rosengards
rosenheim
rosenkranz
roseringen
roses
rosi
rosinkawiese
rosny
ross
rossello
rostock
rostov
rot
rota
rotar
rotas
rotation
rote
rotenburg
rottach
rotterdam
rouen
rouge
round
roundstone
rousseff
routledge
rouvray
roux
rovaniemi
rovensko
rowohlt
royal
royster
rozas
rozenberg
rozga
rpor
rpore
rpores
rquez
rr
rs
rsan
rselen
rst
rstel
rstenfeldbruck
rstenried
rster
rt
rte
rterbuch
rterverzeichnis
rth
rthsee
rtl
rtner
rto
rttemberg
rtz
ru
ruanda
rubaiyat
rubber
rubens
rubgy
rubi
rubin
rubio
rudolf
rudyard
rue
rueda
rugby
ruge
ruhpolding
ruhr
ruin
ruines
ruiz
ruka
rulla
ruma
ruman
rumania
rumanian
rumas
rumen
rummel
rumpf
run
runde
rundfunk
running
ruppin
rupte
ruptet
ruption
ruptura
rural
rus
ruses
rusia
ruslan
russ
russe
russell
russes
russia
russian
russo
rusyn
rusynes
rute
ruthenia
rutte
ruz
rva
rvalla
rvi
rwanda
ry
rybakina
rybakov
ryder
ryszard
rz
rzburg
rzeszo
rður
rørvik
s
sa
saadi
saakashvili
saale
saalfeld
saarbru
saarburg
saaremaa
saarland
sabaneta
sabin
sabina
sabine
sable
sabras
sabre
sacerdot
sache
sachkhere
sachs
sackville
sacramenia
sacramental
sacramentals
sacramento
sacre
sacri
sad
sadaf
sade
sadovyi
sadurni
sadyr
saelices
safjo
sag
saga
sagas
sagen
sagesse
sagi
sagiesse
sagitta
sagra
sagrada
sahara
saharan
said
saint
sainte
saison
saji
sakellaropoulou
sal
sala
salam
salamanca
salarie
salas
salazar
saldo
sale
salem
salgar
salic
salih
salihorsk
salinas
salir
salisbury
sall
sally
salmo
salmon
salmond
salome
salomon
salt
salta
saltar
saltas
saltation
saltator
saltatores
salteri
salteria
salutationes
salute
saluto
salva
salvado
salvador
salvar
salvat
salvatierra
salvation
salvator
salvini
salzburg
sam
sama
samara
sambahsa
sambo
samboal
same
sami
samia
samideano
samideanos
sammen
sammlung
samo
samoa
sampson
samt
samuel
samui
samut
san
sana
sanader
sancho
sanchonun
sancte
sancti
sanctiones
sand
sanda
sandhausen
sandra
sandro
sandu
sandvika
sangarci
sangue
sanita
sanitari
sankt
sanlu
sann
sanna
sans
sansibar
sanski
sanskrit
sant
santa
santander
santi
santiago
santiba
santillana
santiuste
santo
santos
santovenia
sao
sapet
saphia
sapiens
sapir
sapo
sapore
sappho
sapporo
sar
sara
sarah
sarajevo
saramago
saransk
saratov
sardinia
sardinian
sargsyan
sark
sarkozy
sarmu
sarraj
sarroca
sars
sartana
sas
saskatchewan
saskia
sassari
sassoli
sasxsek
sat
satelite
satelites
satellite
satellites
sati
satire
satiren
satiri
satiric
satisfactori
satisfat
saturdi
saturn
sau
sauber
saudi
sauli
saulius
saumarez
saunders
sauquillo
sauveur
sava
savadogo
savagi
save
saventie
saver
savet
saviour
savitri
savoie
saxo
saxon
saxonia
saxoniae
sayago
sayn
sbb
sc
scala
scalari
scale
scandale
scandinavia
scar
scarlett
scene
sch
scha
schaan
schaffhausen
schalke
schallenberg
schatten
sche
schellenberg
schema
schematic
schengen
schetyna
scheuer
schiffmann
schild
schilf
schiller
schimmer
schink
schirdewan
schisma
schisme
schladming
schlechte
schleswig
schleyer
schlierer
schlo
schlobin
schloss
schloß
schmelzer
schmid
schmidt
schmitt
schneider
schneidermann
schnitzler
scho
scholz
school
schott
schreckens
schro
schu
schubert
schulz
schulze
schumacher
schumann
schupo
schutzpolizei
schwa
schwaben
schwabing
schwanthalerho
schwarz
schwarze
schwarzwald
schweigen
schweinfurt
schweitzer
schweiz
schwerin
schwyz
science
sciences
scientic
scientics
scientie
scienties
scientific
scientificmen
scientist
scientiste
scientistes
sclaveri
sclavita
scoed
scol
scola
scolas
scolasticisme
scole
scolera
scoleras
scolero
scoles
scop
scopatu
scope
scopes
scorer
scot
scotesi
scotia
scotic
scotland
scott
scottish
scout
scouts
scramble
scream
screenwriter
scri
script
scriptore
scrir
scrit
scrite
scrites
scrition
scritor
scritores
scritura
scrituras
scsaba
scude
sculpter
sculptor
sculptores
sculptura
sculpturas
sd
sda
sde
sdp
sdsm
se
sea
season
seattle
sebastia
sebastian
sebu
seca
seccio
second
seconde
secondes
secret
secretaria
secretariatu
secretario
secrete
secretmen
secreto
secrets
section
sectiones
sector
sectores
secuent
secul
seculari
secularisme
secularization
secules
secun
secund
secundari
secunde
secundes
secundo
securar
securita
sed
sede
sedentari
sedes
see
seebruck
seefeld
seehofer
seeon
segarra
seglar
segle
segles
segona
segovia
segui
segun
segunda
segura
segway
seibersdorf
seidel
seimas
sein
seina
seine
seinen
seiten
sejdic
sejm
sekretario
sel
sela
selahattin
selb
selbstverlag
selecta
selecte
selecter
selectet
selection
selectiones
selektita
self
seligman
sell
sellers
selva
selzthal
semanal
semane
semanes
sematary
sembla
semblanc
semblar
semera
semestre
semi
semiconductent
semiconductor
semiconductores
semitic
semito
sempre
semprini
sen
sena
senad
senat
senate
senator
senatu
sencesa
sendling
seneca
senegal
sengers
senior
seniora
senioral
seniores
senioretta
seniori
senlis
sennacieca
senplue
sensation
sense
sensitivita
sensu
sent
sententiat
sententie
sententies
sentiment
sentitic
seo
seoul
sep
sepang
separa
separar
separat
separation
separatist
separatistes
separatmen
seperatist
sepesma
september
septembere
septembre
septentrional
septrembre
sepu
sepultoria
sepultura
seque
sequent
sequente
sequentie
sequer
sequera
sequet
ser
sera
seraing
serb
serbes
serbia
serbian
sercha
serchado
serchant
serchar
serchat
serdar
serena
serge
sergei
sergej
sergey
sergio
seri
serial
serie
series
seriosi
sermon
serna
sero
serpent
serra
serrano
serravalle
serrezuela
servi
service
services
servicie
servicies
servir
servit
servitor
servitores
servo
ses
sescu
seson
sesones
session
sessions
sestra
sestras
sestre
set
seth
sets
sett
sette
settesim
settesimes
settlement
setu
seu
seubersdorf
seva
sevastopol
seven
severi
severin
sevilla
sex
sexu
sexual
sexualita
sexuologo
seychelles
seyne
sez
sfax
sfere
sferes
sfk
sg
sh
shadow
shahanska
shakespeare
shakuto
shalva
shan
shanghai
shape
shavkat
shaykhun
shcherbakova
she
sheffield
sheila
shelles
shelley
sheridan
sherif
shetland
shia
shibata
shiffrin
shift
shihabi
shiho
shiisme
shiiste
shiistes
shikibu
shikoku
shilha
shinto
shinzo
shiori
ship
shkode
shmyhal
shop
short
shorttrack
show
shoygu
shtelita
shu
shultz
shwenandaw
shymkent
si
sia
siberia
sibiu
sic
sica
sical
sicc
sich
sicherheitskonferenz
sicilia
siddharta
siddhartha
side
sident
siding
sidium
sidney
sidni
sie
sieben
siedler
siedlung
siegburg
siegen
siegertsbrunn
siegsdorf
siem
siemens
siena
sierra
sigaretuyo
sigle
sigmar
sigmundur
signa
signalat
signale
signales
signar
signat
signe
signes
signica
significa
significant
significantie
significar
significat
signification
significativ
significativmen
signo
sigourney
sigra
sigrid
sigu
sigulda
sihanoukville
siim
sik
sikasso
sil
silajdz
silber
silent
silentie
silesia
silesian
silicium
silicon
siligo
silva
silver
silvia
silvio
sim
simbol
simbole
simboles
simbolic
simbolisme
simeoni
simetrie
simferopol
simfonies
simil
simila
similar
similita
simo
simon
simona
simone
simonetta
simons
simple
simplement
simpli
simplic
simplicita
simplicmen
simplificat
simplificationes
simpson
simultanmen
sin
sina
sincronisat
sind
sindicate
sindicates
sine
singapor
singer
singing
single
singli
sings
singul
singulari
singularita
singularity
singules
sinn
sino
sinonim
sinsheim
sintactic
sintaxe
sinterklaas
sintese
sintetic
sinushalter
sio
sioux
sipila
siprage
sir
siracusa
siria
siriac
sirlot
sirte
siruela
sisesma
sisi
sisme
sissoco
sissy
sistem
sistema
sistemas
sistematic
sistematica
sistematisat
sistematisation
sistemo
sister
sisters
sitatu
site
sitio
sits
situ
situa
situat
situation
situationes
siutation
siv
sive
six
sixene
sixesim
size
sjo
sjælland
sk
ska
skandalo
skandinava
skara
skedsmo
skeleton
ski
skiar
skiathlon
skiatlon
skien
skis
skopje
skribita
skvernelis
sky
skyla
sladek
slalom
slam
slav
slaves
slavic
slavistica
slavonia
slavonija
sleep
sliema
slittar
slitte
slobodan
slopestyle
slovac
slovacia
slovacian
slovak
slovakes
slovakia
slovakian
slovenes
slovenia
slovenian
slovenj
sloviansk
slovio
slovni
smaiylov
small
smart
smc
smer
smit
smith
smolensk
smotrich
sn
snjez
snow
snowboard
sns
snsd
so
sobotka
sobranie
sobre
sobretot
social
socialdemocrat
socialdemocrates
socialdemocratic
socialisme
socialismes
socialist
socialistes
socialistic
socialni
societa
societe
societo
society
socio
sociologic
sociologie
sociologo
sociology
socrates
socratic
soest
sofia
soft
softic
software
sohail
sohn
soko
sol
solana
solari
solberg
solche
soldat
soldate
soldaten
soldates
sole
soledi
soleil
solid
solidarita
solidarnos
solide
solides
soligorsk
solingen
solitra
soll
solln
sollst
solmen
solo
solothurn
solov
solresol
solsticie
solution
solutione
solutiones
solveig
solvis
solvo
som
somalia
somaliland
somebody
somerset
something
sometimes
sommaruga
somme
sommer
sommerfeld
sommite
somnie
somoni
son
sona
sondage
sonde
sonderdienste
sones
soneti
sonette
song
songs
sonia
sonic
sonjo
sonne
sonneborn
sonntag
sonora
sonori
sonso
sont
soo
soon
sooronbay
sopetra
sophia
sophie
sopho
sopron
sor
sora
sorbonne
sorcieri
soria
sorokin
sorte
sortes
sos
sotchi
sotillo
soto
sotosalbos
sotschi
soul
sound
soundtrack
sous
sousa
sousse
south
southampton
southern
sovent
sovente
soveran
soveranita
sovet
soviet
sovietes
sovietic
sowas
soziale
spa
space
spacek
spacex
spacial
spacie
spahic
spahn
spain
spandau
spanish
sparks
sparniage
spasovski
spatial
spatie
spatz
spd
speak
speakers
speaking
special
specialisat
specialist
specialita
specialmen
speciation
specie
species
specific
specificat
specification
specificmen
spectacul
spectator
spectatores
spectral
spectre
speculation
speculativ
sped
speech
speed
speedway
spegul
spegules
spencer
sper
speranto
spere
speri
speyer
spi
spiegel
spielberg
spieler
spiesen
spießer
spin
spingle
spion
spionage
spirite
spirites
spiritu
spiritual
split
spo
spondet
sport
sportal
sportartes
sportes
sporting
sportist
sportista
sportistas
sportiste
sportistes
sportiv
sports
sportverein
spotistes
spp
spra
sprache
spree
spreewald
springfield
sprint
spur
spy
spyri
sqrt
squale
sr
srath
srebrenica
srebrenik
sredny
sres
sri
srpska
srpski
sruoga
ss
ssd
sseldorf
sser
ssim
ssiques
ssp
sst
st
sta
staat
staatsschuld
stabe
stabil
stabilisation
stade
stadie
stadion
stadiones
stadium
stadt
stafete
staff
staffel
staffelsee
staffordshire
stagnation
stal
stalin
stalingrad
stamenov
stamm
stamp
stampo
stand
standa
standard
standarde
standardisar
standardisation
standardo
standards
standat
stanford
stanisław
stanivukovic
stanley
stanno
star
starbatty
staren
stari
starke
starnberg
starnberger
starrenberg
stars
start
starta
startaufstellung
stat
statal
state
states
static
station
stationes
statistic
statistica
statisticas
stato
statos
statt
statu
statue
status
statute
statutes
staub
stavanger
stavrevski
stayer
ste
stechlin
stedt
steel
stefan
stefanchuk
stefanie
stefano
stefanovic
steffes
steglitz
steinbach
steinbru
steingruber
steinmeier
stella
stellari
stelle
stelles
stem
sten
stendhal
stenwachboot
step
stepan
stepanakert
stephan
stephanie
stephen
ster
stergo
sterkelshausen
stern
sterne
sterreich
stersund
steve
steven
stevo
stewart
stic
stica
sticas
stier
stiftung
stil
stiles
still
stimmen
stimula
stimulat
stimulation
stine
stipe
stipendie
stiques
stiria
stirling
stjepan
sto
stoch
stock
stocker
stockholm
stog
stoker
stolac
stoles
stolpe
stoltenberg
stone
stonehenge
stoney
stop
stoppa
stoppat
stopselclub
stor
storc
storch
stories
storm
storting
story
strache
strada
stradas
strade
strades
stralsund
stranger
strangi
stranka
strasbourg
strasburg
strate
strategic
strategie
strategies
strates
straubing
straujuma
strauss
strauß
strax
straße
street
streifenwagen
strett
strette
strettmen
strict
strie
strinberg
stro
strofes
strow
strubel
structura
structural
structuras
structures
struga
strumica
stu
stuart
stubb
stublla
studentes
studia
studiante
studiantes
studiar
studiat
studie
studien
studies
stuff
stunde
stunden
sturgeon
sturm
stuttagrt
stuttgart
su
sub
subang
subas
subatomic
subcampes
subdistrict
subdistricte
subdistrictes
subdividet
subdivisiones
subitmen
subject
subjecte
subjectes
subjectet
sublatti
sublim
sublineat
subliniar
subordinat
subotica
subscritores
subsequentmen
subsiste
subsistentie
substantie
substanties
substantiv
substantive
substantives
substituet
substitute
substitution
subtene
subtenet
subterran
subterrania
subuqti
suburbe
subventionation
subvestiment
subvestimentes
succede
succedet
succeses
success
successa
successat
successe
successes
succession
successiv
successivmen
successor
successora
successores
successori
successosi
successosimen
sucedanto
sucios
sucre
sud
sudal
sudamerican
sudan
sude
sudetenland
sudic
suding
sudo
sudost
sudre
sudwest
suebia
suebos
sueca
sueda
suel
suevos
suez
suffix
suffixos
suffre
suffrentie
suffrer
suffret
suficent
suficient
sufix
sufixe
sufixes
sufre
suga
suggestet
suhayl
suhl
sui
suicide
suicidie
suisa
suisse
suita
suite
suk
sukarno
sul
sula
sule
sulecho
sulejman
suljagic
sultan
sultanatu
suluhu
sumer
sumeria
sumerian
summa
summer
sun
sunak
sundwall
sung
suni
suno
suns
sunset
suo
suol
suomen
super
superanet
superar
superconductor
superficial
superficie
superfluide
superinteligentie
superior
superiori
superiorita
superlative
superliga
supernatural
supernova
superposition
supervive
supervivet
suplementari
suporta
suportant
suportar
suportat
suporte
suposi
suposimen
suposir
suposit
supplement
support
supporting
suppression
supra
suprem
suprematie
supreme
supression
sur
sura
surabaya
surakarta
sure
surinam
surprisantmen
surrey
surtut
suruc
survival
survive
survivors
sus
susa
susan
susann
susannah
susanne
susie
suspecte
suspection
sussex
sutorina
sutter
suva
suzanne
sv
svalbard
sved
svede
svedesi
svedia
sven
svensk
svenska
sveti
svetlana
sviatlana
svim
svimm
svimmada
svimmar
svindal
svines
svisa
svislando
sviss
svissia
svjetlost
swan
swansea
swaziland
swedenborg
swedenborgian
swift
swimming
swinton
swisttal
sword
syalis
syarhey
syda
sydney
sydow
sye
sylt
sylvi
sylvia
sylviane
sylvie
symbol
symposium
syriza
system
systema
systemas
systematic
systematische
systeme
systemes
sz
szczypiorski
sze
szeged
szijja
szlo
szolnok
szombathely
szydło
sør
t
ta
taavi
tabac
tabanera
tabelle
tabladillo
table
tabul
tac
tache
taches
taco
tadde
tadej
tadic
tadjikistan
taevere
tag
tagalog
tage
tagore
taherian
taifa
taifas
taipei
tait
taiwan
tajani
tajo
tajun
tak
taken
takes
takounda
tal
talat
tale
talent
tales
talia
talib
talibanes
tallahassee
tallinn
talmen
tam
tamar
tamara
tamas
tambay
tambe
tambie
tambre
tambur
tambures
tamen
tamerlane
tamil
tammam
tampa
tampere
tampon
tan
tande
tang
tanganyika
tanja
tank
tanner
tant
tante
tanzania
taormina
tapia
tar
taraza
tarazona
tard
tarde
tardiv
tardmen
tarlev
tarnovo
taro
tarragona
tarso
tartempion
tartu
tarxien
tas
tashkent
tasmania
tat
tatjana
tatort
tatra
tatsiana
tattari
tau
taumelt
tauno
taunton
taunus
tauro
tautavel
tavernes
taxa
taxonomie
tay
taylor
tayyip
tazio
tbilisi
tc
tceqli
tchaikovski
tchec
tchechia
tcheco
tchecoslovacia
tchecoslovak
tchecoslovakia
tchek
tchekes
tchekia
tchekoslovakia
te
team
teams
teamsprint
teatrage
teatrages
teatre
teborg
techne
technic
technica
technical
technological
technology
tecnic
tecnica
tecnical
tecnicas
tecnico
tecnologic
tecnologie
tecnologies
ted
teddy
tedros
tegel
tegeltija
tegernsee
tegment
tegucigalpa
teheran
tehreek
teide
teil
tejadilla
tek
tel
telecom
telecommunication
telecomunication
telefon
telefones
telekom
teleologic
telescope
telescopes
television
televisiones
televsion
tell
tellkamp
teltow
tem
tema
temas
temel
temer
temes
tempe
tempelhof
temperance
temperat
temperatura
temperaturas
temple
temples
tempo
tempor
temporal
temporalmen
temporan
temporari
temporarimen
tempore
temporimen
temps
ten
tende
tendentie
tendenties
tenebrosi
tenebrosita
tenen
tener
tenerife
tenet
tengari
tengid
tennant
tennessee
tennis
tension
tentation
teodom
teodor
teodora
teologic
teological
teologie
teologo
teoretic
teoreticos
teoria
teoric
teorie
teories
tepe
tepel
tepic
ter
tera
terapie
tere
teres
teresa
teri
term
termal
terme
termes
termic
termina
terminal
terminat
termination
terminationes
termine
termines
termino
terminologic
terminologie
terminos
termodinamica
terms
terr
terra
terras
terrationes
terre
terren
terrence
terreny
terres
terrestri
terrestrial
terribil
territori
territoria
territorial
territorias
territorie
territories
terror
terrore
terrorie
terrorisme
terrorist
terroristes
terroristic
terry
ters
tersloh
teruel
tes
teschendorf
teschke
tese
teses
tesla
teslic
test
testament
testimonie
testo
tetagouche
tetovo
tetteh
teufel
teuteberg
teutsche
teutschen
teutschlands
texas
text
texte
textes
textile
textiles
textos
textu
textual
textura
textus
tg
th
tha
thac
thailand
thailandesi
thakur
thales
thalkirchen
than
thanh
thani
thanisch
thanou
that
thc
the
theater
theatrical
their
themse
then
theo
theodor
theodorakis
theoretical
theorie
theory
there
theresa
therese
theresia
theresienwiese
these
thessaloniki
thief
thierry
thiery
thiet
third
this
thode
thomas
thompson
thonig
thor
thorne
thorning
thought
three
throne
through
thu
thulesen
thumb
thumbnail
thunberg
thunder
thurgau
thuringia
ti
tiahuanako
tianjin
tib
tiberio
tibet
tibetan
tic
tica
tichy
ticino
tico
tics
tidning
tiel
tiempo
tiene
tienne
tiere
tiffany
tiger
tiglath
tigre
tihic
tihomir
tikva
til
tilburg
tilda
till
tillerson
tilman
timberlake
timbre
timbuktu
time
times
timke
timmermans
timoneda
timor
timore
timoshenko
timothy
tina
tino
tip
tipe
tipes
tipic
tipicmen
tiques
tira
tirana
tirant
tirar
tiraspol
tirat
tiro
tirol
tirolesa
tis
titan
titel
titiribi
title
titograd
titul
titulat
titules
titus
tivat
tju
tlands
tmd
tn
to
toamasina
tobago
tobias
tochter
tod
today
todenho
toderho
todes
todsu
toft
together
togo
toi
toine
tok
tokayev
tokugawa
tokyo
toledo
tolerant
tolerantie
tolero
tolkien
tolocirio
tolstoy
tom
toma
toman
tomas
tomasz
tomb
tombe
tombes
tome
tomes
tomislav
tomo
ton
tones
tonga
tongue
tonight
tonin
tonnerre
tonnes
tony
too
toomas
top
topa
topalli
topeka
topelius
topic
toponimes
tor
tora
torello
tori
torino
torkelt
tormentes
tormes
tornant
torney
torneyes
torneys
toro
toromanovic
toronto
torpedo
torquay
torralba
torre
torreadrada
torrecaballeros
torrecilla
torreiglesias
torrejo
torremocha
torres
torrubia
torteval
tortuga
tortura
torturat
toscana
tost
tot
total
totalita
totalitari
totalite
totalmen
tote
toten
totenmelodie
totenquintett
totentraum
totes
totmen
toto
totvez
touade
touch
tough
toulouse
tour
touring
tours
tourverlauf
tous
tovarnik
tower
town
townsend
toy
tra
trabzon
tracadie
tracie
tracies
track
tracta
tractament
tractat
tractate
tractates
tracy
trad
tradcutet
trade
tradicio
tradional
tradionalmen
tradition
traditional
traditionaliste
traditionalmen
traditiones
traducite
traducter
traductet
traduction
traductiones
traductor
traductora
traductores
tradukis
tradukita
tradukt
trafic
tragedie
traian
trail
train
trainer
trajanov
tram
trancendent
trans
transaction
transactiones
transcendent
transdanubia
transeat
transferet
transferte
transfertet
transformar
transformat
transformation
transformationes
transilvania
transite
transition
transitional
transitiones
transitori
transloca
translocat
transmarin
transmisser
transmisset
transmission
transnistria
transparent
transport
transporta
transportar
transportat
transportation
transporte
transversa
transversal
transvivation
trapos
trar
trate
trates
tratz
traum
traunstein
travalio
travalios
trave
travemu
traver
travers
travestit
travnik
tre
trebesius
trees
trek
tremore
tremores
tren
trencada
trencar
trener
trenero
trenes
trenton
treptow
tres
trescasas
tresor
tresorera
tresorero
treuenfels
trezoro
tri
triangle
triangul
triangulari
triant
trianti
triatlon
tribe
tribes
tribu
tribunal
tribunale
tribus
tribute
trica
tricot
trie
trier
triesim
triesm
tright
triglav
trigueros
trilogie
trilogy
trincage
trincages
trincar
trincat
trinidad
trinity
trio
trip
tripillian
triplic
tripoli
tripolis
trist
tristan
triumf
triumfa
triumfar
triunfo
trivez
trivic
trnava
tro
trobad
trobat
trobem
trofe
troms
tromsø
tron
trondheim
trophe
trophy
tropic
tropical
tropole
troskami
trostberg
trotzkopf
trova
trovar
trovat
troy
troya
tru
trudeau
trudering
true
truffaut
trujillo
trump
trupi
truppas
truppe
truppes
truro
truss
truth
trypillia
trzaskowski
trøndelag
ts
tsar
tscharntke
tschu
tsg
tsheshikhin
tshisekedi
tsipras
tsv
tt
tte
tter
tteratura
ttere
tteres
ttgen
ttingen
ttir
ttore
tu
tua
tuareg
tube
tuberculose
tuch
tudes
tugu
tui
tulipes
tullius
tunel
tunis
tunisia
tuntenhausen
tur
turanovic
turbo
turc
turces
turcia
ture
turin
turing
turisme
turistes
turistic
turk
turkia
turkic
turkish
turkmen
turkmenistan
turkovic
turku
turm
turnbull
turner
turnier
turre
turres
turrio
turtchinov
tus
tusk
tut
tutmen
tutsis
tuvalu
tuxen
tuya
tuzla
tuzlanski
tv
tvo
tvoje
tvrtko
twain
tweed
twickenham
twitter
two
tycho
tymoschenko
tymoshenko
tyne
type
types
typic
typology
tyreso
tz
tzi
u
ua
ubaid
uber
ubern
ubrilovic
uc
uceda
uci
ucraina
ucrainian
ucrania
ude
udine
udo
ue
uea
uefa
uela
uelzen
uerdingen
uetersen
ufa
ufficialia
ufigkeitswo
uganda
uhc
uherske
uhr
uhuru
ui
uica
uk
ukraina
ukrainian
ukrainianes
ul
uladzimir
ulan
ulf
uli
ullman
ullstein
ulm
ulrich
ulrike
ulster
ulterior
ultim
ultimate
ultime
ultra
ultrason
ultravioletti
um
umadija
umaglesi
umaro
ume
umea
umgekehrt
umi
umpqua
un
una
unaltru
unamuno
unanimmen
und
unde
under
underberg
undes
undic
undoid
undset
une
unesco
unesi
unesim
unesma
uni
unia
unic
unidos
unifica
unificat
unification
uniformes
unilateralmen
unilingua
unio
union
unionist
uniono
unir
unis
unit
unita
unitari
unite
united
unites
uniti
unition
univ
universal
universala
universalaj
universalglot
universe
universidad
universita
universitari
universite
university
uno
unquande
uns
unser
unsere
unserer
unter
unterfo
untergiesing
unterland
untermenzing
unterwalden
unversita
unvez
up
upanija
upon
upper
uppsala
upright
ur
ura
uraba
ural
uramita
uran
uranus
urban
urbanizacio
urbit
urdu
uretre
urgell
uri
urine
urrao
urs
urso
ursula
uruen
uruguay
uruk
us
usa
usabil
usada
usage
usant
usante
usar
usat
usate
usation
usator
usatores
usb
usedom
usher
usti
usu
usualmen
usus
ut
utah
utanovac
utensiles
util
utilisa
utilisar
utilisat
utilisation
utilita
utopia
utopio
utrecht
utøya
uwe
uzbek
uzbekistan
v
va
vaca
vacanties
vacui
vacuo
vadet
vadillo
vaduz
vahagn
vai
vail
vak
val
valandovo
valbuena
valdas
valdavia
valde
valdepen
valdeprados
valderaduey
valdevacas
valdis
valdivia
valduerna
vale
valencia
valencian
valenciana
valencianes
valencianmey
valenciano
valencianos
valencians
valenciennes
valentina
valeri
valhalla
valid
valiente
vall
valladolid
vallais
vallbona
valle
vallejera
vallelado
valleruela
valles
valletta
valley
vallfogona
valls
valmiera
valo
valor
valore
valores
valors
valparai
valseca
valtiendas
value
valuta
valverde
vampire
van
vanbrugh
vancouver
vandales
vandalos
vanessa
vant
vantaa
vanuatu
vapor
var
varaz
vardar
varela
varen
varfolomeev
vargas
varia
variabil
variant
variante
variantes
varianti
variar
variat
variation
variationes
varie
varieta
variste
varna
varoufakis
varsovio
vary
vas
vasa
vasco
vasile
vasiliki
vast
vasti
vater
vaticano
vatikan
vaud
vc
vd
ve
vechta
vectoral
vectores
veda
vedas
vega
vegachi
veganzones
vegas
vegetable
vehicle
vehicles
vehicul
vehicules
vei
vel
vela
velasco
velika
veliko
velilla
vell
vella
vellmar
velocimen
velocita
velodrome
velur
ven
vende
vendetta
vendir
vendit
venditti
vendola
vendosje
venedig
venera
venerdi
venes
venetia
venezia
venezuela
veni
venient
venir
venit
venite
venlo
venstre
vent
venta
ventas
vente
ventijo
ventosa
ventosilla
ventspils
ventura
venus
ver
vera
veracimen
verb
verbal
verband
verbandsliga
verbe
verbes
verbo
verbos
verbs
verd
verda
verde
verdejo
verdes
verdi
verein
verena
verfassungsschutz
verge
vergessen
verificar
verita
verkhochna
verkhovna
verko
verl
verlag
verlagsgesellschaft
verletzungsbedingte
verlinden
verlorene
vermen
vermont
vermund
verne
vernor
vero
veronica
vers
verse
verses
versi
versimil
versimilmen
version
versiones
verso
verstappen
versuch
versus
verte
vertical
verticalmen
vertu
verve
very
ves
veseli
veselin
vesita
vesna
vespero
vestager
vestes
vestfalia
vestiment
vestimentes
vestit
vestmannaeyjar
vete
veteli
vettel
veu
vez
vezes
vfb
vfl
vi
via
viage
viagea
viageante
viagear
viageat
viageatores
viages
viana
vias
viatge
viboral
viborg
vibrar
vibration
vibrationes
vic
vicario
vice
vicear
vicenc
vicent
vicente
vicin
vicinal
vicinita
vicinite
vicino
vicinos
victe
victet
victime
victimes
victor
victores
victoria
victorie
victories
victuales
vid
vida
vide
videant
videle
video
videoludes
videos
vider
videt
vidriales
vie
viejo
vienna
vienne
vientiane
vier
vietnam
view
vigi
vii
viii
viitala
vikersund
viking
vikinges
vikna
viktor
viktoria
vila
vilanova
viletta
vilimsky
villa
villacasti
villach
villaescusa
villafranca
village
villages
villagonzalo
villahermosa
villalba
villalbilla
villaluenga
villamanrique
villamarti
villamayor
villamiel
villanueva
villar
villarejo
villares
villarrubia
villas
villaseca
villaseco
villaverde
villaviciosa
ville
villeguillo
villena
vilnius
vin
vinatea
vinberes
vincent
vincenzo
vinci
vinge
vingegaard
vinicultura
vinnytsia
vino
violat
violent
violentie
violentosi
violin
viorica
vir
virgina
virginia
virginita
viro
virologie
virtual
virus
viruses
vis
visa
visage
viscosita
vise
visegra
visibil
visigot
visigotic
visigotos
visio
vision
visiones
visita
visitat
visite
visivita
viso
vista
visual
vita
vital
vitebsk
vitello
vito
vitoria
vitra
vitre
vitres
vitric
viva
vivant
vivar
vive
viveca
vivent
viver
vives
vivet
vivicapabilita
vivo
vivre
vizcarra
vizcaya
vjekoslav
vjosa
vlaams
vlaamse
vladimir
vladimirovich
vlajki
vlarium
vltava
vmerla
vmro
vo
vocabolario
vocabulari
vocabulario
vocabularium
vocabulariums
vocabulary
vocal
vocale
vocales
voce
voces
voci
vogel
voi
voice
voices
voie
voigt
voivodina
voix
vojens
vojevodia
vojevodias
vojislav
vojvodia
vojvodina
vol
vola
volant
volapu
volation
volcanic
vole
volentie
volet
volevo
volga
volgograd
volk
volker
volkmarsen
volksabstimmung
volkspolizei
volkswagen
volleyball
vollsta
vollzugdienst
volodin
volodymyr
vologda
volt
volta
voltaire
volte
voltoya
voltrega
volu
volume
volumine
voluminosi
voluntario
voluntarios
voluntez
vom
von
vonn
voor
vor
vorarlberg
vorau
vorbereitung
vorfu
vorlauf
voro
vorpommeria
vorpommern
vorstadtkrokodile
vortaro
vorti
vos
vosges
vota
votar
votat
votation
vote
votes
votr
voulpaix
vox
voyage
voyo
vrec
vren
vrier
vrmo
vrs
vry
vs
vsc
vu
vua
vuc
vud
vue
vuelta
vujanovic
vuk
vukovi
vuksanovic
vulcan
vulcanic
vulgar
vulgari
vulin
vulnerat
vulve
vung
vw
vyacheslav
vyborg
w
wa
wacker
wader
waffen
wagner
wahl
waiblingen
waidhaus
wald
waldbronn
waldemar
waldmu
wales
walk
walker
wall
wallace
wallander
wallis
wallonia
walsh
walsrode
walter
wand
wanderers
wanderungen
wang
wanguya
wanna
want
wanted
war
ward
warfes
warnemu
warrior
warriors
wars
warsaw
warszawa
warum
was
washington
waszczykowski
wat
water
waterford
waters
watson
wavel
way
wayne
wałe
we
weah
weapon
weaver
web
weber
weblinks
website
websitu
webstore
weckruf
wedgwood
week
weferling
weg
wege
weibrecht
weidel
weiden
weidle
weidmann
weihnachten
weihnachtsgedichte
weihnachtsmann
weil
weilburg
weiler
weilheim
weilstetten
weimar
weingut
weinheim
weinstraße
weird
weiss
weizsa
weiß
weißenstadt
welche
welcome
wellbeing
welle
wellington
wells
welt
weltcup
weltcupsta
welthilfssprache
weltreise
weltsprache
wembley
wen
wenberger
wenceslau
wendler
wenn
went
wer
werden
werner
werneuchen
werra
wes
weser
west
westal
westbrook
westbury
western
westerwald
westerwelle
westfalia
westfalie
westhoff
westic
westindian
weston
westpark
wettstein
wfc
what
when
whewell
which
while
white
whitehawk
whk
who
why
wi
wia
wichita
wicklow
widerstand
widodo
width
wie
wiehert
wiehle
wieland
wien
wiener
wiesbaden
wiest
wife
wigan
wijnand
wiki
wikipedia
wikipedie
wikisource
wikitongues
wild
wildau
wilden
wilders
wildner
wilfrid
wilhelm
will
willa
willem
william
williams
williamstown
willow
willy
wilsberg
wilson
wiltshire
wimbledon
wimbleton
wind
windhoek
windhuk
windseglation
windsor
winfried
winnetou
winnie
winnipeg
winona
winston
winter
winterthur
wir
wird
wisconsin
wise
wishlist
wismar
wissler
wisła
witch
with
within
without
witold
witt
wittenberg
wittgenstein
wks
wo
wohltorf
wolf
wolfgang
wolfsburg
wolgast
wollongong
wollstonecraft
wolter
wolverhampton
woman
women
wonder
wood
woodard
woods
word
wordsworth
work
works
world
worlds
worm
worms
wort
woywood
wozniacki
wrath
wriezen
wright
writing
wrocław
wrote
wta
wu
wuhan
wulff
wulffen
wundrak
wunsiedel
wuppertal
wurst
wurzelverzeichnis
wusterhausen
wustermark
wustrau
www
wyoming
x
xan
xavier
xe
xenolexica
xerca
xhac
xhaferi
xi
xiaobo
xic
xie
xii
xiii
xim
xima
xiv
xive
xix
xixe
xter
xv
xvi
xvie
xvii
xviie
xviii
xx
xxe
xxi
y
ya
yadin
yahoo
yair
yakutsk
yale
yali
yam
yamoussoukro
yan
yang
yangon
yangshao
yangtze
yanguas
yanis
yankovic
yanukovich
yaounde
yap
yarumal
yasko
yasnaya
yatsenyuk
yavoriv
yazaki
ye
year
years
yehudit
yelb
yelich
yeltes
yelyzaveta
yemen
yeo
yeol
yeosu
yerevan
yes
yi
yiddic
yo
yogyakarta
yokohama
yolombo
yoo
yoon
york
yorker
yorkshire
yoshihide
you
yougov
young
your
youssef
youth
youtube
ypsilon
ystad
yu
yucata
yucmanof
yug
yugoslav
yugoslavia
yugoslavian
yulia
yulija
yuliya
yun
yuna
yunes
yunesse
yung
yunita
yunite
yuno
yure
yures
yuri
yusa
yusu
yyyy
yıldırım
z
za
zabuton
zacharias
zachartchenko
zadar
zaev
zafira
zagreb
zakharieva
zakopane
zala
zambia
zamenhof
zamora
zamos
zanzibar
zapardiel
zapres
zar
zara
zaragoza
zaro
zarqa
zarza
zarzuela
zatlers
zbigniew
zdf
ze
zealand
zeh
zehdenick
zehlendorf
zehn
zeit
zeiten
zeitung
zeland
zelensky
zelina
zellhof
zellweger
zelmerlo
zelo
zeman
zemmour
zendaya
zenica
zentrum
zero
zestaponi
zet
zeta
zettel
zeus
zhanaozen
zhangjiakou
zheng
zhirinovsky
zhuang
zi
ziadin
zielona
ziering
zille
zimbabwe
zimmermann
zinnkopf
zinnowitz
zionist
zlata
zlatko
zmit
zodiac
zoe
zollverein
zona
zone
zones
zoo
zoologic
zoologie
zoran
zorana
zorita
zossen
zourabichvili
zquez
zrenjanin
zrinjevac
zs
zu
zucker
zuckermann
zug
zugspitze
zukunft
zum
zuma
zur
zurich
zuzana
zvijezda
zvizdic
zvornik
zwei
zweiten
zweiter
zwickau
zwo
zyuganov
zz
{
|
}
~
¡
¥
§
ª
«
°
²
³
´
µ
·
º
»
¿
×
ß
ßt
ð
đa
đelmic
đokovic
đorđe
đukanovic
đuris
ı
ło
łobez
ə
ɲ
ɹ
ʃ
ʎ
ʤ
ʰ
ʻ
ʾ
ʿ
ˈ
ˌ
ː
̀
́
̂
̃
̄
̆
̇
̈
̉
̊
̋
̌
̓
̔
̛
̣
̦
̧
̨
͂
ͅ
͡
α
β
ε
θ
κης
κος
λ
λε
μ
ν
να
νη
νι
ο
πα
ς
χ
а
андріи
б
в
г
д
е
ж
з
и
к
л
м
н
на
наш
нехај
о
ович
олексіи
п
па
р
с
т
твоје
у
ф
х
ц
ч
ш
ы
ю
я
є
і
ј
љ
њ
ְ
ִ
ֵ
ֶ
ַ
ָ
ּ
־
א
ב
ג
ח
ט
י
ל
ם
מ
ן
נ
פ
ר
ת
ا
الا
ب
د
س
ل
ن
ي
َ
ُ
ِ
ّ
ْ
ٓ
ٔ
ٕ
ग
थ
द
ध
न
प
भ
र
ल
ष
स
ा
ि
े
ौ
्
খ
ন
ফ
া
ু
ย
ุ
፣
ញ
ន
ព
ភ
េ
ំ
្
​
‎
‏
‑
–
—
‘
’
‚
“
”
„
†
…
′
″
€
№
™
←
→
↔
↷
−
∫
≡
⋅
③
④
⑦
☉
☾
☿
♀
♂
♃
♄
♇
⯓
⺀
⺄
⺆
⺈
⺊
⺌
⺕
⺝
⺸
⺼
⿰
⿱
⿲
⿳
⿴
⿵
⿶
⿷
⿸
⿹
⿺
⿻
〢
あ
い
か
く
こ
た
っ
つ
と
に
の
み
も
り
る
゙
オ
ク
コ
シ
ス
タ
テ
ト
ノ
ヒ
フ
ユ
ラ
レ
ロ
ン
㇁
㇂
㇄
㇇
㇈
㇉
㇓
㐁
㐄
㐅
㐌
㐫
㐬
㐭
㐮
㐱
㑒
㒵
㒸
㒼
㓁
㓞
㔾
㕛
㕣
㖾
㘝
㚅
㚇
㚔
㚘
㝉
㝡
㝴
㝵
㞋
㞢
㞷
㠩
㠭
㠯
㡀
㡭
㡿
㢲
㢴
㣇
㣺
㥯
㪅
㫄
㫐
㫒
㫺
㬅
㬎
㬥
㬰
㲋
㳄
㷠
㸒
㸚
㸦
㼌
㼲
㽞
㿟
䀠
䂞
䍃
䏍
䒑
䖍
䖒
䖝
䖵
䙴
䚻
䜌
䝿
䡛
䧹
䪞
一
丁
丂
七
丄
丅
丆
万
丈
三
上
下
丌
不
与
丏
丐
丑
专
且
丕
世
丘
丙
业
东
丞
丢
丣
两
严
並
丨
丩
个
丫
丬
中
丮
丰
丱
串
丵
丶
丷
丸
丹
为
主
丽
丿
乀
乂
乃
久
乆
乇
么
义
之
乌
乍
乎
乏
乐
乑
乔
乖
乗
乘
乙
乚
乛
乜
九
乞
也
习
乡
乳
乾
亀
亅
了
亇
予
争
事
二
亍
于
亏
亐
云
互
亓
五
井
亘
亚
亜
亞
亟
亠
亡
亢
交
亥
亦
产
亨
亩
享
京
亭
亮
亯
亰
亲
亳
亶
亷
人
亻
亼
亾
仁
今
介
仌
从
仐
仑
仒
仓
仕
他
付
仝
代
令
以
任
企
伊
伏
伐
休
会
伯
但
位
体
何
佘
余
作
佥
使
來
侈
侌
侖
侯
侵
便
保
俞
信
修
倉
倍
候
倠
偉
備
僉
僕
儿
兀
允
兂
元
兄
充
兆
兇
先
光
兊
克
兌
免
兑
兒
兓
兔
党
兜
兟
入
全
兩
兪
八
公
六
兮
兰
共
关
兵
其
具
典
兹
兼
冀
冂
冃
冄
内
冈
冉
冊
冋
册
再
冎
冏
冐
冒
冓
冖
冗
冘
写
军
农
冝
冠
冡
冥
冫
冬
冷
几
凡
凢
凵
凶
凷
凸
凹
出
函
凾
刀
刁
刂
刃
刄
刅
分
切
刍
刑
刕
刖
列
刘
则
初
別
利
别
到
制
刺
則
削
剌
前
剡
剽
劉
力
功
加
劦
助
劫
劳
劵
勃
勇
勉
勒
動
務
勞
勤
勹
勺
勻
勾
勿
匀
匂
包
匆
匈
匊
匋
匍
匕
化
北
匚
匝
匡
匪
匱
匸
匹
区
医
匽
匿
區
十
卂
千
卄
卅
卆
升
午
卉
半
卌
华
卑
卒
卓
单
卖
南
卜
卝
卞
占
卡
卢
卣
卤
卦
卩
卪
卬
卯
印
危
即
却
卵
卷
卸
卻
厂
厃
厄
历
厈
厉
厌
厓
厘
厚
原
厤
厥
厨
厭
厲
厶
厷
厸
去
厼
厽
叀
参
參
叅
又
叉
及
友
双
反
叐
发
叒
叔
叕
取
受
叚
叜
叟
口
古
句
另
叩
只
召
可
台
叱
史
右
叵
号
司
叹
吂
各
吅
合
吉
吊
吋
同
名
后
吏
向
吕
君
吝
吞
否
含
启
吳
吴
吹
吾
呂
呆
呈
告
员
呙
周
呪
命
咅
和
咎
咠
咢
咨
咸
咼
哀
品
哉
員
哥
哲
唐
商
啇
問
啚
啬
啻
善
喜
喬
單
喿
嗇
噩
嚴
囊
囗
囘
囙
囚
四
回
囟
因
囧
囬
困
囱
囷
固
国
圂
圅
國
圍
圓
土
圡
圣
圥
在
圭
地
圶
圼
坐
坒
坚
坡
坴
垂
垔
垚
埀
埋
城
埶
執
基
堂
堅
堆
堇
堯
塞
墨
壘
士
壬
壯
声
壳
壴
壹
壺
壽
夂
处
夅
夆
备
夊
夋
夌
复
夏
夒
夕
外
夗
夘
多
夜
夢
大
夨
天
太
夫
夬
夭
央
失
夲
头
夷
夸
夹
夻
夾
奂
奄
奇
奈
奉
奎
奏
奐
契
奓
奔
奚
奞
奠
奢
奥
奭
女
奴
奻
好
如
妄
妙
妟
妥
妻
妾
姑
委
姜
威
娄
娜
婁
婴
嬰
嬴
子
孑
孔
孕
孖
字
存
孚
孛
孝
孟
季
孤
学
孫
孱
學
宀
宁
宂
它
宅
宇
守
安
宋
完
宏
宓
宗
官
定
宛
宜
宝
客
宣
室
宮
宰
害
家
容
宾
宿
寄
寅
密
富
寒
察
寧
審
寫
寬
寮
寸
对
寺
寻
寽
対
寿
封
尃
射
将
將
專
尉
尊
尋
尌
對
小
少
尒
尓
尔
尖
尗
尚
尞
尢
尣
尤
尧
尨
尭
就
尸
尹
尺
尻
尼
尽
尾
尿
局
居
屈
屋
屎
屏
屑
展
屖
屚
属
屠
屡
屬
屮
屯
屰
山
屵
屾
岁
岂
岑
岡
岩
岳
岸
峯
峰
島
崇
崎
崑
崔
崖
崙
崩
嵬
嶲
巂
巛
川
州
巟
巠
巢
巤
工
左
巧
巨
巩
巫
差
己
已
巳
巴
巷
巸
巽
巾
巿
帀
市
布
希
帚
帛
帝
带
師
席
帶
常
干
平
年
幵
并
幷
幸
幺
幻
幼
幽
幾
广
広
庄
庆
床
库
底
店
庚
府
度
庫
庭
庶
康
庸
廉
廌
廛
廣
廩
廴
延
廷
建
廻
廾
廿
开
弁
弃
弄
弇
弋
式
弓
弔
引
弗
弘
弜
弟
张
弥
弦
弱
張
強
强
彊
彌
彎
彐
彑
当
彔
录
彖
彗
彡
形
彥
彦
彧
彭
彳
役
彼
往
待
律
徒
得
徙
從
復
微
徵
心
忄
必
忌
忍
志
忝
忠
忩
快
念
忽
忿
怖
思
怠
急
怨
怪
怱
恆
恐
恒
恩
恭
息
悅
悉
患
悤
悲
悶
惠
惡
惢
愁
愈
意
愛
感
慄
慈
慧
慮
憂
憲
應
戀
戈
戉
戊
戋
戌
戍
戎
成
我
戒
戔
或
戚
戠
戢
戦
截
戲
戶
户
戹
戼
戾
房
所
扁
扇
手
扌
才
打
托
执
承
折
拉
拜
拿
挙
掌
推
提
摩
支
攴
攵
收
攸
改
放
政
敄
敏
敕
敖
敗
敝
敞
敢
散
敦
敫
敬
数
敷
數
斂
文
斉
斊
斗
斤
斥
斩
斬
斯
新
方
於
施
斿
旁
旋
族
无
旡
既
旣
日
旦
旧
旨
早
旬
旱
旲
时
旾
昆
昇
昌
昍
明
昏
易
昔
昗
昜
星
春
昬
是
昱
昴
昷
時
晃
晋
晏
晓
普
景
晶
智
暑
暴
曇
曩
曰
曲
曳
更
曷
書
曹
曼
曾
替
最
朁
會
月
有
朋
服
朔
朕
朗
望
朝
木
朩
未
末
本
札
朮
术
朱
朵
朶
朿
杀
李
杏
村
杜
束
条
来
杰
東
杲
杳
松
析
林
枚
果
枝
枲
枼
某
柔
查
柬
柰
柴
栗
校
桀
桑
桼
梁
條
梟
梨
棘
棠
棥
森
楚
業
楽
榮
樂
樊
欠
次
欣
欮
欲
欶
欽
款
歆
歇
歛
止
正
此
步
武
歨
歪
歮
歯
歰
歲
歴
歷
歸
歹
歺
死
殳
段
殷
殸
殹
殺
殻
殿
毅
毋
毌
母
每
毒
比
毕
毚
毛
毳
氏
氐
民
气
気
氣
水
氵
氶
氷
永
氺
氾
求
汝
汞
江
沃
沓
沙
沝
泉
法
波
泣
泥
泰
洛
津
洪
活
派
流
浦
浪
浮
海
淡
淮
清
渚
渠
港
湯
滿
漁
漢
漸
潤
瀬
火
灬
灭
灰
灵
灷
炅
炎
炏
炗
炙
炭
為
烈
烏
烝
焉
無
焦
焱
然
煞
熊
熏
燕
營
燮
爪
爫
爭
爯
爰
爱
爲
爵
父
爻
爽
爾
爿
片
牙
牚
牛
牜
牟
牢
牧
牪
特
牽
犀
犬
犭
犮
狂
狄
狊
独
狺
猋
猒
猪
献
獄
獻
玄
率
玉
王
玟
玨
珎
班
球
琴
瑞
瑟
瑩
瓜
瓦
甘
甚
生
産
用
甫
甬
田
由
甲
申
电
甶
男
甸
甹
画
甾
畀
界
畏
畐
留
畜
畟
畢
畧
畨
番
畫
異
畱
當
畺
畾
疊
疋
疌
疑
疒
疾
癶
癸
癹
登
發
白
百
皀
皃
的
皆
皇
皋
皐
皕
皮
皷
皿
盃
盆
盇
盈
益
盍
盎
监
盒
盖
盛
盡
監
盤
盧
目
直
相
盾
省
眇
眉
看
眔
眞
真
眷
眼
眾
着
睘
睪
睿
瞏
瞢
瞿
矍
矛
矞
矢
矣
知
矦
短
石
破
碎
磊
磨
示
礻
礼
社
祟
票
祭
禀
禁
禸
禹
禺
离
禽
禾
禿
秀
秃
秉
秋
科
秝
秦
移
稟
穀
穆
穌
穴
究
穹
空
穿
突
窄
窒
立
竒
竜
竝
竟
章
童
竹
笑
笠
筆
等
答
箕
算
箴
節
篤
篭
米
粉
粛
粟
粤
粦
粲
精
糞
糸
糹
系
約
納
紗
素
索
紫
累
細
絜
絫
絲
維
綿
縄
縣
繇
纍
纟
缶
网
罒
罔
罕
罗
罙
罡
罢
罪
署
罷
羅
羊
羌
羍
美
羔
羕
羗
羞
羡
羣
群
義
羲
羸
羽
翁
翏
習
翕
翟
翠
翼
老
耂
考
者
耆
而
耎
耑
耒
耳
耴
耶
耷
聂
聊
聖
聚
聶
聿
肀
肃
肅
肉
肖
肙
肥
肩
肯
育
肴
胃
背
胡
胥
能
脊
脩
膚
臣
臤
臧
自
臬
臭
臯
臱
至
致
臺
臼
臽
臾
臿
舀
舂
舄
與
興
舉
舌
舍
舛
舜
舞
舟
般
艮
良
色
艸
艹
艾
芒
芔
芬
芮
花
芳
芺
芻
苔
苗
苟
若
苦
英
茶
茸
荅
草
荒
荣
荼
莆
莉
莊
莧
莫
莽
菅
菆
菊
菐
華
菲
萬
落
葉
著
葛
董
葵
蒙
蒦
蒼
蓋
蓬
蓺
蔑
蔡
蕉
蕭
薄
薛
薦
薰
藍
藏
藤
藥
蘆
蘭
虍
虎
虐
虒
虔
處
虖
虗
虘
虚
虛
虜
虞
虫
虽
蚤
蚩
蜀
蜜
蟲
蠡
血
行
衍
衛
衣
衤
表
衮
衰
衿
袁
袞
褭
褱
襄
襾
西
覀
要
覃
見
規
覓
覧
親
覽
见
角
解
言
訁
訇
計
話
詹
誩
談
諸
讠
谷
豆
豈
豊
豐
豕
豖
豙
象
豦
豩
豪
豸
貇
貝
貞
貟
負
貢
貧
貪
貫
責
貳
貴
買
費
賁
資
賈
賏
賓
賔
賛
賞
賢
賣
質
賴
贊
贝
贡
责
贯
贲
贵
赖
赞
赤
赦
走
越
足
路
蹇
身
躬
車
軍
軎
軟
輦
輪
车
辛
辜
辟
辥
辰
辱
農
辵
辶
边
达
过
近
连
迷
追
退
送
逆
选
逐
通
速
造
逢
連
逮
進
遀
遂
過
道
達
遣
適
遷
遺
邊
邑
邕
那
邦
邪
郎
部
郭
都
鄉
鄭
酉
酋
配
酓
釆
采
里
重
野
量
金
釒
銅
錢
錫
鐘
钅
長
镸
长
門
閃
閉
開
閏
閑
閒
間
閔
閵
閻
闌
门
间
闷
阑
阜
阝
阿
降
陳
陽
隆
隊
隋
隡
隨
隱
隶
隹
隺
隻
隼
隽
难
雀
雁
雄
集
雈
雋
雍
雐
雔
雙
雚
雜
雝
離
難
雨
雩
雪
雲
零
雷
需
霊
霍
霜
霝
霞
霸
靈
靑
青
非
靡
面
靣
革
鞠
韋
韓
韦
韭
韯
韱
音
頁
頃
項
須
頗
頡
頻
顛
页
風
风
飛
飞
食
飠
養
館
饣
首
香
馬
馮
駦
験
马
骨
高
髟
鬥
鬯
鬲
鬼
魚
魯
鮮
鱼
鲁
鳥
鳳
鳴
鸟
鹵
鹿
麃
麗
麥
麦
麻
黃
黄
黍
黎
黑
黒
黨
黹
黽
黾
鼎
鼓
鼠
鼻
齊
齋
齐
齒
齿
龍
龙
龜
龟
龠
龰
龱
龴
龵
龶
龷
龸
龹
ꜣ
者
艹
ﬁ
﻿
？
ｃ
ｅ
ｉ
ｌ
ｎ
ｏ
ｔ
ｖ
🜨
𠀁
𠀃
𠀆
𠀉
𠀎
𠀐
𠁁
𠁣
𠂆
𠂇
𠂈
𠂉
𠂊
𠂋
𠂎
𠂒
𠂔
𠂛
𠂡
𠂢
𠂤
𠂬
𠂭
𠂹
𠃊
𠃋
𠃌
𠃍
𠃎
𠃑
𠃓
𠃔
𠃜
𠄌
𠄎
𠄠
𠄢
𠆢
𠆥
𠇍
𠈌
𠌵
𠓜
𠔉
𠔥
𠔼
𠔽
𠔿
𠕀
𠕁
𠕋
𠘧
𠘨
𠙻
𠙼
𠚏
𠚒
𠚤
𠚪
𠣏
𠤎
𠤕
𠥓
𠦄
𠦑
𠦝
𠧒
𠧗
𠧪
𠩺
𠪚
𠫓
𠫔
𠫤
𠬛
𠬝
𠬞
𠬢
𠬤
𠬶
𠮛
𠮦
𠮷
𠯑
𠱠
𠳮
𠷎
𡈼
𡉀
𡉵
𡌥
𡍮
𡏳
𡕒
𡕩
𡕰
𡖅
𡗗
𡗜
𡘆
𡘤
𡧱
𡨄
𡩧
𡬠
𡭽
𡰣
𡰥
𡰪
𡰯
𡰱
𡷈
𡸁
𡿨
𡿩
𡿪
𡿺
𢀖
𢀛
𢀩
𢁙
𢆉
𢆰
𢆶
𢇁
𢇇
𢉖
𢌬
𢌿
𢏚
𢑑
𢑚
𢖻
𢙣
𢛳
𢦏
𢦒
𢧵
𢼄
𢾕
𣁋
𣄼
𣅀
𣅽
𣍘
𣎳
𣎵
𣏋
𣏼
𣗥
𣥂
𣥖
𣦵
𣦼
𣧄
𣪊
𣪠
𣬉
𣳾
𣶒
𤇾
𤊽
𤐫
𤓰
𤔔
𤕨
𤣩
𤰇
𤰔
𤰞
𤴓
𤴔
𤽄
𥁑
𥁕
𥃦
𥃩
𥃭
𥇡
𥑟
𥘅
𥘈
𥝢
𥫗
𥱡
𦈢
𦉪
𦉬
𦉼
𦍌
𦍒
𦎧
𦐇
𦓔
𦔮
𦘒
𦙃
𦚏
𦣝
𦣞
𦣻
𦥑
𦥔
𦥯
𦨉
𦭝
𦰩
𧆞
𧈧
𧘇
𧰨
𧴪
𧴮
𧵩
𧾷
𨸏
𨾴
𩙿
𩠐
𩫏
𩵋
𪉷
𪜀
𪟽
𪠲
𪩲
𫇦
𫔭
𫜸
𫝀
𫠣
𫠩
𫢉
𫥞
𫩏
𫩠
𫪡
𫲽
𫶧
𬀷
𬐘
𬗌
𬙙
𬛸
𬜯
𬟩
𬯁
𬴘
𬺻
𬼉
𬼖
𭀰
𭁈
𭁨
𭅰
𭑈
𭕄
𭗼
𭤨
𭥫
𭻾
𮅕
𮊿
𮍌
𮍏
𮓗
𮥼
𮧮
廾
𰀁
𰀄
𰀈
𰀉
𰀕
𰀠
𰀡
𰀢
𰀪
𰁜
𰃮
𰆊
𰆘
𰋙
𰕎
𰢴
𰧭
𰯲
48--
51--
61--
69--
71--
78--
81--
87--
90--
9780199--
a--
aa--
ab--
abas--
abd--
abend--
abou--
aby--
ac--
acce--
accel--
accu--
acom--
acqui--
act--
acus--
ad--
ada--
ado--
adres--
ae--
aero--
af--
ag--
age--
agricul--
agul--
ahl--
ai--
aj--
ak--
al--
ala--
alb--
ale--
algo--
alha--
ali--
all--
alt--
alta--
alten--
am--
ama--
amb--
ame--
ami--
an--
ana--
anc--
and--
ane--
anesthe--
ang--
ani--
anna--
anti--
apa--
apel--
aph--
apl--
apla--
apo--
app--
appro--
aq--
aqua--
aqui--
ar--
ara--
arbei--
arbi--
arc--
arci--
ard--
are--
arit--
art--
artif--
as--
assas--
asses--
asso--
astro--
at--
ata--
ate--
athle--
au--
aus--
auto--
aux--
av--
ava--
avan--
ave--
avi--
ay--
az--
azerbai--
b--
ba--
bac--
bach--
bad--
bai--
baj--
bal--
bap--
bar--
bas--
bass--
bat--
baum--
bay--
be--
bec--
bed--
begin--
bei--
bel--
bell--
ben--
bene--
beni--
ber--
berch--
berg--
bern--
bess--
bet--
bey--
bezie--
bi--
bib--
bil--
bin--
bio--
bir--
bis--
bla--
blan--
ble--
blu--
bo--
boc--
bogo--
bol--
bomb--
boo--
bor--
bos--
bou--
boul--
bout--
bow--
boy--
br--
bra--
bri--
brit--
brom--
bru--
bu--
bud--
buena--
buf--
bug--
bus--
by--
c--
ca--
cabr--
cal--
cala--
calc--
cale--
cam--
camp--
can--
cap--
car--
cara--
carl--
cas--
casa--
casil--
cast--
castil--
cat--
cau--
caval--
caza--
ce--
cebr--
cel--
cer--
cerr--
ch--
cha--
chap--
char--
che--
chi--
chl--
cho--
chsi--
chu--
ci--
cib--
cic--
ciga--
cim--
cir--
ciut--
ck--
cla--
cle--
cli--
client--
clo--
cm--
co--
coc--
code--
cogol--
coinc--
col--
cola--
colum--
com--
come--
coment--
comp--
con--
concess--
const--
constit--
consu--
consump--
contra--
contro--
convo--
coo--
coor--
coper--
cor--
corne--
cos--
coun--
cov--
cra--
cre--
cri--
crist--
crk--
cro--
crono--
cru--
cruci--
crypto--
cs--
cu--
cue--
cul--
cum--
cup--
curr--
custo--
cy--
cze--
d--
da--
dam--
dan--
dar--
daug--
de--
dec--
deci--
decom--
deg--
dei--
del--
deli--
dem--
demi--
demok--
den--
der--
des--
descar--
det--
deu--
di--
dia--
die--
dig--
dik--
din--
dio--
dir--
dis--
dismem--
dispa--
diss--
dist--
dit--
dj--
dnj--
do--
dolo--
dom--
don--
dor--
dos--
dostoev--
dr--
dra--
drei--
dro--
drum--
ds--
du--
dub--
dum--
dur--
dw--
dy--
dz--
e--
ea--
ear--
eb--
ebe--
ebers--
ec--
eck--
ecol--
ecomo--
ed--
edel--
edi--
ef--
efec--
eg--
ehr--
ei--
ein--
ek--
el--
ela--
ele--
elec--
electro--
elek--
eli--
ell--
elms--
em--
emb--
emer--
emis--
emph--
en--
enga--
engli--
ent--
eo--
ep--
epi--
equi--
er--
era--
erd--
erle--
eru--
es--
esca--
escri--
escu--
esp--
est--
et--
etno--
eu--
euph--
euro--
ev--
eva--
ex--
exclu--
exec--
explo--
exti--
extra--
ey--
f--
fa--
fai--
falk--
fan--
far--
fasc--
fash--
fat--
fau--
fe--
feind--
feno--
fer--
fi--
fic--
fier--
figu--
fil--
fin--
fina--
fior--
fis--
fl--
fla--
flem--
flie--
flu--
fo--
fol--
fon--
for--
fort--
fr--
fra--
frank--
frauen--
fre--
fred--
fresn--
frie--
frust--
fu--
fuente--
ful--
funa--
fur--
fusil--
fy--
g--
ga--
gai--
gang--
gar--
gara--
garg--
garr--
gas--
ge--
gel--
gem--
gemein--
gen--
general--
genit--
geo--
ger--
gerec--
gerichts--
gha--
gi--
gil--
gim--
gji--
glass--
glo--
gly--
gn--
go--
gol--
gold--
gor--
gott--
gra--
gram--
grand--
gre--
grenz--
gri--
groß--
gru--
gu--
gua--
guer--
gui--
guild--
gum--
gut--
guvern--
gy--
gym--
h--
ha--
hab--
habit--
hac--
haf--
hai--
halo--
ham--
han--
hand--
har--
hard--
hart--
has--
hat--
haun--
haup--
hay--
he--
hec--
heide--
hel--
hem--
hens--
hep--
her--
here--
heter--
hi--
hidro--
high--
hil--
him--
hin--
hindu--
hinoj--
hispan--
hitc--
hl--
ho--
hoch--
holi--
holl--
holz--
hom--
homic--
homin--
hont--
hor--
horiz--
hot--
hr--
hrva--
hu--
hue--
hul--
hum--
hung--
hy--
hydro--
i--
ib--
ic--
id--
ido--
ie--
ig--
igua--
il--
illu--
illust--
ilumi--
ilus--
im--
imag--
imi--
imo--
in--
inc--
indig--
indo--
ine--
inf--
infir--
ing--
inn--
insc--
insen--
insi--
inspi--
inst--
instit--
instruc--
inte--
inter--
interlingue--
intro--
io--
ir--
irrad--
irre--
is--
iso--
it--
iu--
iv--
iz--
j--
ja--
jabla--
jac--
jam--
jar--
jas--
je--
jeol--
ji--
jo--
joa--
ju--
jud--
jun--
juvel--
k--
ka--
kal--
kala--
kalten--
kam--
kan--
kap--
kar--
kazoh--
ke--
kel--
ken--
ker--
kh--
kha--
khu--
ki--
kil--
kilc--
kilo--
kla--
kna--
ko--
kom--
kon--
kr--
kra--
kreuz--
kro--
kru--
kry--
ku--
kum--
kur--
kurz--
kuz--
kwa--
ky--
l--
la--
lac--
lagu--
lam--
land--
las--
lat--
laz--
le--
lear--
lec--
led--
lem--
leo--
les--
let--
leut--
li--
lic--
liga--
lim--
lin--
lind--
lip--
liqui--
lit--
liv--
lju--
ll--
lla--
lli--
llo--
llor--
lo--
lock--
loco--
log--
lomb--
lor--
lou--
ls--
lt--
lu--
luc--
lud--
lv--
ly--
lz--
m--
ma--
mac--
macro--
mad--
mae--
mag--
magi--
magn--
maha--
mai--
mal--
mam--
man--
mani--
mans--
manu--
manza--
mar--
marco--
mas--
mata--
mathe--
mau--
may--
mazu--
mb--
mc--
me--
mea--
med--
medi--
mei--
meiß--
mel--
mem--
men--
mer--
mes--
met--
meta--
meteo--
meur--
mez--
meß--
mi--
micro--
mid--
mie--
mil--
mill--
min--
mini--
mir--
mis--
mit--
mix--
mo--
moc--
moga--
mol--
mon--
mono--
mons--
mont--
monte--
mor--
mou--
moy--
mr--
ms--
mt--
mu--
mue--
mul--
multi--
mun--
munci--
mund--
mur--
murat--
mus--
mut--
my--
n--
na--
nagy--
nam--
nan--
naro--
nas--
naval--
nc--
nch--
ncont--
nd--
nde--
ne--
necro--
neg--
neo--
ner--
nes--
net--
neu--
new--
news--
nf--
ng--
nh--
ni--
nie--
nieder--
nig--
nigs--
nik--
nil--
nin--
nis--
nit--
nj--
nk--
nl--
nn--
no--
noc--
nom--
non--
nor--
nord--
norga--
north--
nos--
not--
nou--
nov--
nr--
ns--
nt--
nu--
nud--
nun--
ny--
nze--
o--
ob--
obe--
ober--
obli--
occul--
oct--
od--
ode--
of--
offe--
ofic--
og--
oh--
oj--
ok--
ol--
oli--
om--
omb--
on--
op--
opo--
opp--
or--
ora--
oragn--
orbi--
os--
ost--
ott--
ou--
out--
ov--
ox--
p--
pa--
pag--
pala--
pam--
pan--
papi--
par--
para--
parri--
pas--
pat--
pav--
pay--
pe--
ped--
pedia--
pedo--
pedof--
pen--
per--
percep--
pers--
persu--
pet--
petro--
ph--
phy--
pi--
pic--
pie--
pin--
pir--
pl--
pla--
plan--
plea--
plu--
pneu--
po--
pob--
pod--
podrinj--
pog--
pol--
poli--
policie--
poly--
pom--
pop--
popul--
por--
pos--
post--
pozo--
pra--
pre--
precipi--
predi--
prerr--
presup--
pri--
pro--
propuls--
prote--
proto--
provo--
pru--
pseu--
psy--
psycho--
pto--
pu--
publi--
pue--
puig--
py--
pyg--
q--
qu--
qua--
quadr--
que--
qui--
quin--
quis--
r--
ra--
rab--
rad--
radio--
raf--
rai--
ram--
rap--
ras--
raz--
rb--
re--
rea--
rec--
rechts--
recog--
recom--
recon--
recopi--
recup--
red--
ref--
refri--
rei--
rel--
reli--
rem--
remis--
ren--
rep--
repre--
reque--
res--
resur--
ret--
retro--
rev--
revol--
rey--
rez--
rg--
rger--
rhy--
ri--
riba--
ric--
rie--
rig--
rio--
ris--
riu--
rk--
rm--
rn--
rni--
ro--
rob--
roc--
rock--
rod--
rom--
rond--
ros--
ross--
rot--
rous--
roß--
rr--
rs--
rsten--
rt--
rth--
rto--
ru--
run--
ry--
rz--
s--
sa--
sac--
sad--
sal--
sam--
sama--
san--
sana--
sand--
sar--
sas--
sat--
sau--
sauer--
say--
sc--
scale--
scep--
sch--
scho--
schwe--
scie--
scla--
scor--
scri--
sculp--
se--
sea--
sec--
sed--
see--
sel--
selbst--
selts--
sem--
sen--
sensi--
sep--
ser--
ses--
sh--
she--
ship--
si--
sie--
sign--
sik--
sil--
sim--
sin--
singa--
sir--
six--
sk--
ska--
ski--
sky--
sli--
slo--
sn--
so--
soci--
sol--
solic--
som--
son--
sor--
sorci--
sos--
sou--
spec--
special--
spi--
spiel--
spo--
sport--
spring--
sr--
srp--
ss--
st--
sta--
ste--
steen--
stein--
ster--
sto--
straß--
stru--
stu--
sty--
su--
sub--
subsi--
suc--
succe--
suce--
suf--
sufl--
sui--
sul--
sun--
suo--
super--
supl--
supp--
sur--
sus--
sv--
svi--
svissia--
swa--
swe--
swi--
swim--
sy--
sz--
t--
ta--
tac--
tag--
tal--
tam--
tapi--
tar--
tas--
tat--
tau--
tax--
tc--
te--
tec--
tech--
tek--
tel--
tele--
tem--
ten--
teori--
ter--
text--
th--
tha--
the--
theo--
thu--
ti--
tint--
tip--
to--
tok--
top--
tor--
torre--
tot--
tra--
tram--
tran--
tranc--
trans--
tras--
traum--
tre--
tri--
tro--
tru--
ts--
tsits--
tt--
tu--
tur--
tv--
twi--
ty--
tyra--
tz--
u--
uc--
ue--
uk--
ukra--
ul--
um--
un--
uni--
union--
uns--
unter--
up--
ur--
us--
ut--
v--
va--
vac--
val--
valde--
vall--
van--
var--
vas--
ve--
vege--
vel--
ven--
ver--
verkehr--
vers--
ves--
vi--
via--
vice--
vid--
vie--
vila--
vill--
villa--
villov--
vin--
vir--
vis--
viz--
vo--
vocabu--
vogt--
voivo--
vol--
vor--
vrb--
vriend--
vu--
vuk--
vuln--
vy--
w--
wa--
wahr--
wald--
wall--
wands--
war--
wasser--
wat--
water--
we--
web--
weg--
wehr--
welt--
weltme--
wen--
wer--
wes--
west--
wey--
wi--
wich--
wie--
wiki--
wil--
wild--
wir--
wissens--
wit--
witt--
wo--
wol--
wu--
x--
xe--
xi--
xim--
xx--
y--
ya--
yam--
ye--
yeong--
yi--
yo--
yu--
yun--
yıl--
z--
za--
zajed--
ze--
zeit--
zi--
zo--
zoo--
zri--
zu--
zug--
zwi--
ß--
ð--
α--
θ--
κ--
λ--
μ--
πο--
ρ--
а--
але--
ан--
бе--
бо--
бу--
в--
го--
д--
де--
до--
е--
за--
и--
ка--
л--
ла--
м--
ма--
н--
ник--
о--
от--
приз--
р--
с--
са--
се--
ск--
см--
та--
ш--
י--
ا--
ب--
--0
--00
--1
--15
--2
--20
--3
--4
--49
--5
--50
--53
--58
--59
--6
--7
--78
--8
--9
--99
--a
--abil
--ac
--aca
--ace
--ache
--acio
--ad
--ada
--ade
--ado
--ador
--ae
--aga
--age
--agen
--agh
--ago
--ah
--ai
--aica
--ail
--aj
--ak
--al
--albo
--ale
--all
--ally
--almen
--alt
--am
--amen
--an
--ana
--and
--ane
--anes
--ano
--anos
--ant
--ante
--antie
--ap
--ar
--are
--ari
--aria
--ario
--aro
--arra
--arro
--art
--ary
--as
--ashi
--astie
--at
--ate
--ates
--atic
--ation
--ativ
--ato
--ator
--atori
--atri
--atu
--atus
--au
--aud
--auer
--ay
--aya
--az
--aza
--azo
--b
--ba
--bach
--ban
--be
--bee
--bek
--bel
--ben
--berg
--bes
--bi
--bian
--bie
--bil
--bile
--bilita
--blatt
--ble
--bles
--bo
--bound
--bra
--bre
--bro
--bru
--bs
--bu
--bue
--bul
--burg
--bury
--bus
--by
--c
--ca
--cal
--can
--car
--cas
--cat
--cc
--cca
--ce
--cedo
--cena
--cer
--ces
--cgl
--ch
--cha
--che
--chen
--ches
--cht
--ci
--cia
--cie
--cio
--cion
--cionat
--ciones
--cions
--ck
--cki
--cles
--club
--co
--cos
--creat
--cs
--ct
--cte
--ctet
--ction
--ctiv
--cto
--cts
--cunc
--cy
--d
--da
--dad
--dai
--dal
--dale
--das
--dat
--de
--den
--des
--det
--dge
--dh
--di
--dia
--dic
--die
--dilla
--dis
--dl
--dno
--do
--dor
--dos
--dre
--dro
--ds
--dt
--du
--duba
--dy
--e
--ea
--ean
--eau
--eaux
--eb
--ec
--eck
--ectet
--ectiv
--ed
--eda
--edo
--ee
--eet
--ef
--eg
--eh
--ei
--eit
--eita
--eja
--ejo
--ejos
--ek
--el
--eli
--ell
--elo
--ely
--em
--ema
--emark
--emen
--ement
--en
--enc
--ene
--enen
--enes
--eno
--ens
--ensis
--ent
--enta
--ental
--ente
--entie
--ento
--eo
--er
--era
--eral
--eras
--ere
--erer
--erg
--eri
--eria
--eris
--ero
--ers
--ert
--erten
--erz
--es
--esa
--ese
--eses
--esi
--est
--et
--eta
--ete
--etic
--ets
--ette
--eur
--eus
--ev
--eve
--evich
--evski
--ey
--ez
--eza
--f
--fa
--fale
--fe
--feld
--fes
--ff
--ffen
--fic
--ficar
--ficat
--fication
--field
--flue
--fobie
--fonie
--fri
--fs
--ft
--fu
--g
--ga
--gabe
--gal
--gan
--gane
--gang
--gar
--gara
--gas
--gat
--gau
--ge
--geat
--gen
--ger
--ges
--gg
--ggio
--gh
--ght
--gi
--gia
--gic
--gie
--giosi
--gle
--gne
--gny
--go
--gon
--gos
--gro
--gs
--gt
--gton
--gu
--gue
--gues
--gui
--gy
--h
--ha
--hak
--hal
--ham
--hamshire
--haus
--he
--heim
--hen
--her
--hes
--het
--hi
--hia
--hic
--hing
--hip
--hit
--hl
--hma
--hmic
--hn
--ho
--hof
--hold
--hon
--hs
--ht
--http
--https
--htyor
--hu
--hy
--hya
--i
--ia
--iac
--iak
--ial
--ian
--iano
--iar
--ias
--iat
--iation
--ibil
--ible
--ic
--ica
--ical
--icat
--ice
--ich
--ichten
--icies
--icisme
--ick
--ico
--icos
--ics
--id
--ida
--idad
--idas
--idat
--ide
--ie
--iego
--iel
--ien
--ient
--ientes
--ier
--iera
--iere
--iers
--ies
--iet
--ieta
--if
--ifa
--ifica
--ificat
--ification
--ig
--igh
--ign
--igo
--ii
--ija
--ijn
--ik
--ika
--ikal
--ike
--il
--ila
--iles
--ilo
--im
--ima
--ime
--imen
--iment
--imo
--in
--ina
--inas
--ine
--inen
--ines
--ing
--ingen
--ini
--ino
--inos
--ins
--int
--io
--ion
--ional
--iones
--ios
--iosi
--ioso
--ious
--ique
--ir
--ira
--ire
--iro
--is
--isa
--isant
--isar
--isat
--isation
--isch
--ische
--ischer
--isches
--ism
--isme
--ismo
--isse
--issim
--ist
--ista
--iste
--istes
--istic
--istica
--it
--ita
--itat
--ite
--ities
--ition
--ito
--its
--itu
--ity
--itz
--iu
--ium
--ius
--iv
--ive
--ives
--ivita
--ix
--iy
--iz
--iza
--izam
--ization
--izos
--j
--ja
--jabi
--jada
--jak
--jas
--je
--jes
--ji
--jn
--jo
--jos
--js
--ju
--k
--ka
--kala
--kau
--ke
--ken
--ker
--kes
--key
--ki
--kia
--kiewicz
--kin
--kins
--kirche
--ko
--kov
--kreis
--ks
--kt
--ku
--kus
--kx
--ky
--l
--la
--lan
--land
--lant
--lar
--las
--lat
--lation
--lba
--lco
--ld
--lde
--ldi
--ldo
--le
--lecte
--len
--ler
--les
--ley
--lga
--lha
--li
--lia
--lic
--lich
--liche
--lichen
--licher
--lie
--lingvistiko
--lip
--lit
--lites
--lizei
--ljub
--ll
--lla
--llas
--lle
--lles
--llo
--llonga
--lls
--lm
--lmen
--ln
--lo
--logia
--logie
--logy
--lohe
--lon
--los
--low
--ls
--lse
--lsee
--lt
--lta
--lton
--lu
--lung
--lves
--ly
--lyn
--lı
--m
--ma
--mala
--man
--mant
--mar
--mat
--mbe
--mbo
--mbre
--md
--me
--men
--ment
--mentes
--mi
--mic
--mica
--mm
--mme
--mo
--more
--mp
--ms
--mu
--mud
--munt
--my
--n
--na
--nal
--nar
--nas
--nat
--nau
--nay
--naya
--nbach
--nburg
--nc
--nca
--nce
--ncho
--nd
--nda
--nde
--ndo
--ndon
--ndorf
--nds
--ne
--nebro
--nee
--nell
--nen
--nent
--ner
--nes
--nese
--net
--ney
--ng
--nga
--nge
--ngen
--nger
--ngi
--ngis
--ngo
--ngs
--nham
--ni
--nia
--nic
--nie
--nik
--nilla
--ning
--nir
--nische
--nisme
--nius
--nja
--nka
--nn
--nna
--nne
--nnes
--nny
--no
--non
--nos
--nou
--ns
--nsa
--nse
--nsee
--nsen
--nsk
--nska
--nski
--nstein
--nt
--nta
--ntal
--ntan
--ntar
--ntas
--ntat
--nte
--ntes
--nthal
--nti
--ntia
--ntial
--ntic
--ntie
--nties
--ntmen
--nto
--nts
--nuevo
--num
--nun
--nus
--ny
--nya
--nys
--nz
--nza
--nze
--nzo
--nzuela
--o
--oa
--oba
--oc
--od
--of
--ofen
--off
--og
--oga
--ogia
--ogic
--ogie
--ografie
--oi
--oid
--oj
--ojic
--ok
--ol
--ola
--ole
--olo
--ologi
--ologia
--ologic
--ologie
--ologo
--ology
--om
--omat
--on
--ona
--ondo
--ones
--oni
--onia
--onic
--onne
--ony
--oo
--ope
--or
--ora
--ord
--ore
--ores
--orf
--ori
--oria
--ors
--ort
--orte
--os
--osa
--osi
--ot
--ote
--oto
--ou
--ous
--ov
--ova
--ovac
--ovic
--ovich
--ovna
--ovo
--ovski
--ovych
--ow
--ows
--ox
--oza
--p
--pa
--park
--pe
--pes
--ph
--phie
--phy
--pi
--pie
--pil
--pio
--po
--pong
--pov
--pova
--ppe
--ps
--pta
--pte
--ptet
--pus
--q
--que
--r
--ra
--raca
--rak
--ral
--ran
--rans
--rar
--ras
--rat
--raz
--rba
--rc
--rca
--rce
--rd
--rde
--rdus
--re
--red
--ren
--res
--ret
--rf
--rg
--ri
--ria
--ric
--rie
--rik
--rin
--rini
--rino
--rio
--rit
--rn
--rno
--ro
--rog
--ron
--rops
--ros
--rot
--roth
--row
--rox
--roya
--rp
--rra
--rre
--rrubia
--rs
--rt
--rte
--rtet
--ru
--ruf
--rum
--rup
--ry
--rz
--s
--sa
--sandfort
--sar
--sas
--sat
--sation
--sbad
--sberg
--sca
--schaft
--sche
--schriften
--sco
--sdo
--sdorf
--se
--see
--sen
--ses
--set
--sey
--sh
--sha
--shausen
--shaw
--sheim
--ship
--shire
--shofen
--si
--sian
--side
--sie
--silla
--sis
--sit
--sk
--ska
--ske
--skerek
--ski
--sko
--sky
--sl
--sm
--sma
--sman
--sme
--smes
--so
--son
--sos
--spor
--ss
--ssa
--ssar
--ssat
--sse
--ssim
--ssion
--sson
--ssor
--st
--sta
--stadt
--stein
--sti
--stic
--stin
--stitui
--ston
--stra
--strasse
--stre
--su
--sy
--t
--ta
--tad
--tag
--tal
--tan
--tar
--tari
--tas
--tat
--tch
--te
--tein
--tel
--ten
--ter
--tes
--tet
--th
--thal
--ti
--tia
--tic
--tica
--tie
--tien
--tier
--ties
--tin
--tine
--ting
--tio
--tion
--tiones
--tir
--tis
--tisme
--tita
--tiv
--tive
--tle
--tler
--tmen
--to
--ton
--tor
--tora
--tores
--tos
--town
--tr
--tre
--try
--ts
--tt
--tta
--ttat
--tte
--ttes
--tti
--tto
--tu
--tue
--tum
--tung
--tungen
--tur
--tus
--ty
--tz
--tzen
--u
--ua
--ual
--ualmen
--uan
--uas
--ub
--uc
--ud
--ue
--uen
--uer
--uet
--uf
--uga
--ugh
--ui
--uk
--ul
--ulat
--ules
--ull
--ulla
--ult
--um
--umptes
--ums
--un
--ung
--ungo
--uno
--unt
--ur
--ura
--uras
--ure
--ures
--urg
--uri
--uro
--us
--use
--ut
--uti
--uu
--ux
--uz
--v
--va
--vac
--ve
--verses
--vet
--vez
--vi
--via
--vic
--vich
--vieja
--ville
--vka
--vko
--vo
--vre
--vy
--w
--wa
--way
--we
--well
--wi
--wick
--wn
--wo
--ws
--x
--xe
--xic
--xy
--y
--ya
--yan
--ye
--yena
--yer
--yev
--yin
--yk
--yl
--yle
--ym
--yn
--yne
--yo
--yola
--yr
--ys
--yu
--z
--za
--zan
--zano
--zas
--ze
--zel
--zi
--zic
--zige
--zil
--zioni
--zo
--zt
--zu
--zza
--zzo
--ß
--ßen
--ø
--øy
--ɛ
--α
--η
--ι
--ν
--ς
--υ
--а
--ан
--в
--ва
--е
--ев
--евич
--евіч
--ен
--енко
--и
--ии
--ич
--ић
--к
--ка
--ко
--ков
--ла
--мир
--н
--ни
--нов
--о
--ов
--он
--ополь
--ри
--ро
--с
--ски
--у
--ч
--ы
--я
--ја
--ن
