!
"
#
##0
##1
##10
##11
##12
##13
##14
##15
##16
##17
##18
##19
##2
##20
##21
##22
##23
##24
##25
##26
##27
##28
##29
##3
##30
##31
##32
##33
##34
##35
##36
##37
##38
##39
##4
##40
##41
##42
##43
##44
##45
##46
##47
##48
##49
##5
##50
##51
##52
##53
##54
##55
##56
##57
##58
##59
##6
##60
##61
##62
##63
##64
##65
##66
##67
##68
##69
##7
##70
##71
##72
##73
##74
##75
##76
##77
##78
##79
##8
##80
##81
##82
##83
##84
##85
##86
##87
##88
##89
##9
##90
##91
##92
##93
##94
##95
##96
##97
##98
##99
$
%
&
'
(
)
*
+
,
-
.
/
0
00
000
0001
00043
001
002
00256
00280
003
004
005
006
007
008
009
00937
01
010
0107
011
0123456
01327
014
015
016
017
018
019
02
0205
022
023
024
025
026
027
028
03
030
031
032
034
035
0354
037
038
039
04
040
0405
041
044
045
046
05
050
051
052
055
056
057
06
062
07
070
072
073
074
075
077
079
08
081
086
08664
087
089
09
090
0912
092
094
097
1
10
100
1000
10000
100000
1002
1003
1004
1008
100900
101
1010
102
1025
103
1031
1034
1038
104
105
10500
1051
1054
106
107
1076
10794
108
109
1096
1099
11
110
1100
11000
110000
111
1110
112
11273
113
1131
11331
11355
11379
1138
114
115
1157
116
1160
117
118
1181
119
12
120
1200
12000
120000
1201
12013
12023
12033
1204
121
1212
12147
122
1227
123
1230
1234
123456
124
1248
125
1252
126
1261
127
128
1289
129
1296
13
130
1300
1304
131
1319
132
1320
1328
133
13312
1339
134
1340
135
13557
136
1362
1368
137
1370
13737
1376
138
1380
1387
139
14
140
1400
141
1415
142
1421
143
1436
144
14439
145
1454
1457
1459
146
1460
1461
1462
1469
147
1470
1471
1474
1475
1478
148
149
1490
14958
1496
1499
15
150
1500
15000
1503
1507
1508
1509
151
1512
1515
1516
1518
152
1520
1523
1525
1526
1527
153
15320
1533
1534
1535
154
1541
1542
1547
1548
155
1554
1556
1557
156
1561
1564
1569
157
1570
1572
1573
1574
1575
1579
158
1581
1582
1588
1589
159
1590
1591
1596
1597
1598
1599
16
160
1600
16019
1603
1609
161
1610
1611
1612
1616
1617
1618
1619
162
1620
1621
1622
1623
1625
1626
1627
1628
1629
163
1632
1633
1634
1635
1638
1639
164
1640
1642
1644
1646
1648
165
1650
1651
1652
1653
1656
1657
1659
166
1660
1662
1664
1665
1667
1668
1669
167
1670
1672
1673
1676
1677
1678
1679
168
1680
1681
1682
1684
1685
1686
1687
1688
169
1690
1691
1693
1695
1696
1697
1699
17
170
1700
17000
1701
1702
1704
1706
1707
1708
1709
1710
1711
1716
1717
1718
1719
172
1720
1721
1722
1724
1725
1726
1727
1728
173
1732
1733
1735
1738
1739
174
1740
1741
1743
1744
1746
1747
1748
1749
175
1750
1752
1753
1754
1755
1756
1757
1758
1759
176
1760
1761
1762
1763
1765
1766
1767
1768
177
1770
1771
1772
1773
1774
1775
1776
17765
1777
1778
178
1780
1782
1783
1784
1785
1786
1787
1788
1789
179
1790
1791
1792
1793
1794
1795
1796
1797
1798
1799
18
180
1800
1801
1802
1803
1804
1805
1806
1807
1808
1809
181
1810
1811
1812
1813
1814
1815
1816
1817
1818
1819
182
1820
1821
1822
1823
1824
1825
1826
1827
1828
1829
183
1830
1831
1832
1833
1834
1835
1836
1837
1838
1839
184
1840
1841
1842
1843
1844
18448
1845
1846
1847
1848
1849
185
1850
1851
1852
1853
1854
1855
1856
1857
1858
1859
186
1860
1861
1862
1863
1864
1865
1866
1867
1868
1869
187
1870
1871
1872
1873
1874
1875
1876
1877
1878
1879
188
1880
1881
1882
1883
1884
1885
1886
1887
1888
1889
1890
1891
1892
1893
1894
1895
1896
1897
1898
1899
19
190
1900
19000
1901
1902
1903
1904
1905
1906
1907
1908
1909
191
1910
1911
1912
1913
1914
1915
1916
1917
1918
1919
192
1920
1921
1922
1923
1924
1925
1926
1927
1928
1929
193
1930
1931
1932
1933
1934
1935
1936
1937
1938
1939
194
1940
1941
1942
1943
1944
1945
1946
1947
1948
1949
195
1950
1951
1952
1953
1954
1955
1956
1957
1958
1959
196
1960
1961
1962
1963
1964
1965
1966
1967
1968
1969
197
1970
1971
1972
1973
1974
1975
1976
1977
1978
19784
1979
198
1980
1981
1982
1983
1984
1985
1986
1987
1988
1989
199
1990
1991
1992
1993
1994
1995
1996
1997
1998
1999
2
20
200
2000
20000
2001
2002
2003
2004
2005
2006
2007
2008
2009
201
2010
2011
20110827
20110903
20110918
20110925
2012
2013
2014
2015
2016
2017
2018
2019
20190502
202
2020
2021
2022
2024
2025
203
204
2041
205
2050
206
207
208
209
2099
21
210
211
212
214
215
216
217
218
219
22
220
2200
220913
221
222
223
224
225
226
227
228
23
230
2300
231
232
233
234
235
236
237
238
239
24
240
242
243
24348
244
245
246
247
248
249
25
250
2500
25000
251
252
253
2530
254
255
257
258
259
26
260
2600
26000
261
262
263
265
266
267
268
269
27
270
2700
272
273
274
275
276
277
278
279
28
280
2800
28000
281
282
285
28656
288
289
29
290
292
294
295
296
298
299
3
30
300
3000
301
303
30387
304
305
307
30728
308
30802
31
310
3100
311
312
314
315
31500
3166
317
318
319
32
320
3200
321
322
323
324
3240
325
326
327
328
3285
329
33
330
3300
331
332
333
334
335
336
337
3371
338
34
340
343
344
345
3459
347
348
349
35
350
3500
351
352
353
3533
354
355
3568
3573
3576
358
359
36
360
3600
361
362
363926
364
365
366
369
37
370
371
372
3725
3726
373
374
375
378
38
380
383
3833
384
3844
385
3852
387
388
39
390
391
392
3925
393
395
3957
396
399
3997
4
40
400
4000
401
4010
402
403
404
405
406
408
41
410
4106
411
412
413
414
415
418
419
42
420
4200
422
424
4242
425
427
428
429
43
430
4300
431
432
433
434
436
438
439
44
440
4410
442
443
444
445
446
4467
4469
447
448
449
45
450
4500
451
452
454
455
4555
456
4560
457
458
46
460
4600
461
462
463
464
4648
465
466
467
469
47
4700
4714
472
474
476
477
478
48
480
4801
481
482
483
484
485
486
4896
49
490
492
493
4930
494
4944
496
4968
497
498
4990
5
50
500
5000
50000
502
509
51
510
5106
511
513
515
517
519
52
520
521
523
527
53
530
53000
532
534
536
537
539
54
540
541
546
547
548
549
55
550
552
5527
553
554
555
56
5614
563
564
567
57
574
575
578
579
58
580
5800
5805
581
5846
585
588
589
5899
59
590
591
592
593
5932
5934
594
596
599
5990
6
60
600
6000
600000
602
603
606
6063
609
61
611
614
6167
617
62
620
6200
623
624
625
627
629
63
630
631
6310
6311
632
633
635
639
64
640
64000
641
6419
642
643
645
648
65
650
65000
654
655
656
657
658
66
660
664
665
67
670
671
672
675
676
6778
679
68
680
6819
682
684
685
686
6875
69
690
6900
694
695
697
7
70
700
7000
70000
701
703
7055
708
71
712
718
72
720
722
725
727
728
729
73
730
7307
731
733
735
737
738
74
7420
744
745
749
75
750
7525
754
756
7567
757
759
76
760
7614
762
764
766
7693
77
770
772
7739
7742
775
776
7799
78
780
782
7836
7854
79
790
791
792
7934
796
8
80
800
8000
80000
8001
805
8053
806
808
81
810
811
81284
813
817
819
82
821
822
823
825
826
8274
829
83
832
8331
834
835
8354
84
844
846
848
85
850
851
8512
85199
852
85474
856
857
858
86
86047
866
867
868
87
870
87118
872
873
8730
875
87548
876
8762
88
882
885
8859
886
8863
888
889
89
890
892
893
89416
895
89500
896
8969
898
9
90
900
9000
9070
9079
908
91
9103
911
912
9124
9131
915
9164
9169
919
92
920
9200
921
9211
9215
921516
925
9253
926
927
928
929
93
930
932
9330
935
936
937872
94
940
94000
945
948
95
950
9554
96
960
962
9629
963
965
966
967
97
970
971
973
974
976
977
978
979
98
980
983
985
986
99
990
992
995
998
999
9999
:
;
<
=
>
?
@
\
^
_
`
a
aa
aabbcc
aad
aar
aaron
ab
aba
abal
abamus
abaujense
abazes
abba
abbey
abc
abchaziskeje
abd
abeba
abel
abend
abenteuer
aber
abfangen
abhandlungen
abies
abitur
abiturje
abka
ablatiwom
ablo
ablon
ablona
ablono
abnik
abny
abo
about
above
abraham
absolutnje
absolutnu
absolwe
absolwent
abspeichern
abstrakt
abstraktne
abstraktnych
abweitung
aby
ac
aca
acad
academia
academic
academy
accipitridae
acedia
acer
ach
ache
achegety
achillea
achim
achoty
achownice
achowy
acht
achternbusch
achu
acinonyx
acko
acme
aconcagua
aconitum
acorach
acowany
acowas
acris
actinidia
action
activa
acute
acy
ad
ada
adai
adam
adama
adams
adans
adansonia
adapte
addis
addons
adelheid
aden
adipisicing
adjektiw
adjektiwa
adjektiwach
adjektiwna
adjektiwow
adjektiwy
adl
adler
adm
administrationsebenen
administrationseinheiten
administrationslevel
administrationstiefe
administratiwne
administrator
administratory
admiral
adnuła
adolf
adolfa
adom
adonis
adonisowa
adonisro
adow
adowa
adresa
adresu
adria
adriana
adwaz
adwerb
adwerbialny
adwerbowe
adwerby
ae
aenne
aere
aerial
aesculus
aesticampiani
aesticampianus
aestivalis
afar
afd
afghanistan
afghanistana
afghanistanom
afikse
afiksow
afiksowe
afn
africa
african
africanum
africe
afrika
afrikaans
afrikan
afrikanar
afrikanarje
afriki
afriku
afroaziska
afroaziske
after
ag
agboville
age
agencija
agens
agent
aglaophyton
aglomeracija
agne
agnes
agrostemma
aguata
aguataro
aguereko
aguila
aguiyi
agustoni
aguy
ah
aha
ahecha
ahechauka
ahvenanmaa
ai
aichele
aida
aigner
aikoteve
aikuaa
ailantifolia
ailuridae
ailuropoda
aime
ainu
aipo
air
aireal
aires
airport
aise
aisu
aita
aite
aiton
aj
aja
ajapo
ajapombota
ajapouka
ajarjow
ajehecha
ajnog
ajsk
ajskiej
ajsko
aju
ajuca
ajuce
ajucego
ajucy
ajucych
ajuka
ajukapota
ak
aka
akacija
akade
akademia
akademie
akademije
akademiji
akademischer
akademiske
akadiska
akal
akans
akas
akbal
akcent
akcepte
ake
akelaja
akelei
akese
akich
akim
akimi
akira
akle
ako
akorake
akoraki
akorakich
akorakim
akorakimi
akow
aktera
aktiv
aktiwe
aktiwist
aktiwistka
aktiwitu
aktiwna
aktiwne
aktiwnje
aktiwnosc
aktiwny
aktiwnych
aktow
aktualna
aktualne
aktualnego
aktualnej
aktualnje
aktualny
aktualnym
aktuell
akuzatiw
akuzatiwa
akuzatiwje
akły
al
ala
alacant
alan
aland
alaska
alaskej
alaski
alba
alban
albert
alberta
alberti
alberto
albicans
albin
albino
albinus
albov
albrecht
albrechtom
album
albumy
albus
alca
aldrin
ale
alef
aleksander
aleksandr
aleksandrija
aleksandro
aleksandrow
aleksej
alerce
ales
aleut
alexander
alexandra
alexandriner
alexej
alexis
alfabes
alfabet
alfabeta
alfabetiski
alfabetom
alfamje
alfanumeriskeje
alfons
alfred
algeriska
algeriskej
algi
algic
algonquian
algoritmusu
algow
ali
alianca
alians
alice
align
alignbars
aliqua
aliquip
alison
alituona
alize
alkaloidy
alkohola
all
alle
allem
allen
allende
allenstein
alles
allgemein
allgemeine
allianz
allioideae
allium
allmusic
alltag
alma
almost
alnus
alofon
alofoniskich
alojs
alojsa
alojzy
alomorfy
alpach
alpen
alpestre
alpestris
alph
alpha
alpina
alpinist
alpinum
alpow
alpowa
alpska
alpski
alpy
als
also
alt
altaic
altajske
altajskich
altdo
alte
alten
altenburg
alternativ
alternatiwa
alternatiwna
alternatiwne
alternatiwnje
alternatiwny
alternatiwnymi
alterne
altertumskunde
altgr
althaeoides
altherrenverband
altmark
alto
altstadt
altujo
altujuca
alva
alweolarny
alwin
am
ama
amaconasa
amaconasu
amadei
amadou
amalfi
amaliae
amar
amara
amarja
amarylisowych
amaryllidaceae
amas
amaterske
amazon
amazonian
amba
ambojahu
amboparapa
ambopuka
ambox
ambue
ame
amedeo
amen
amer
america
american
americana
americanum
americanus
americe
amerika
amerikan
amerikanar
amerikanarka
ameriki
ameriku
ameriska
ameriski
ameriskich
amerisko
amerykan
amet
ami
amica
amicu
ammi
amna
amne
amnis
amnjejs
amno
amnobrune
amnocerwjene
amnowioletne
amnoz
amnozelena
amnozelene
amnozeleny
amny
amnych
amo
amoka
amour
ampeloprasum
amrehn
ams
amsterdam
amt
amta
amtoju
amtska
amtskej
amtski
amty
amur
amurensis
amurowa
amus
amy
amygdalina
amygdaloides
amygdalus
an
ana
anach
anacheka
anagallis
anagyroides
anales
analogiski
analyse
analysiere
analysiert
analysis
analyza
analyze
analyzy
ananas
ananassa
anastacia
anatolij
anatolske
ancien
ancient
and
andach
ande
andere
anderen
anderes
andorra
andow
andra
andraprades
andre
andrea
andreas
andreasa
andree
andrej
andrew
andrews
andrickego
andricki
android
andrzej
andrzeja
andy
ane
anemofilija
anemona
anemone
anerkannten
anfa
anfang
anfu
angabe
angambyry
angaz
angeeignet
angefu
angegeben
angegebenen
angeha
angel
angela
angeles
angelia
angelica
angelo
angels
angelu
angers
angewandt
angewendet
angezeigt
anggun
angiosperm
angloamerikan
anglosakski
angola
angolu
anguilla
angulosum
angus
angustifolia
angustifolium
anhalt
anhaltska
anhaltskej
anhaltskeje
anhaltskeju
ani
anim
anis
aniski
anisum
anita
anja
anjach
anje
anju
ank
anka
ankara
ankau
anker
ankowa
ankowe
ankowych
anku
anna
anne
annegret
annelies
annemarie
anno
annopol
annopolu
annua
annuus
anny
anom
another
anow
anpa
anr
anrow
anrowe
anry
ansambel
ansambele
ansambl
ansambla
ansamblu
anska
anske
anskej
anski
ansonowa
ansonsten
ant
antarktika
antarktis
antarktisvertrag
anthony
anti
antice
antifas
antigua
antiki
antikna
antiknych
antile
antilow
antirrhinum
antiteza
antiwar
antje
anto
antoine
antologia
antologija
antologije
antologijow
antologiju
anton
antoni
antoniego
antonio
antonius
antonym
antti
anwar
anwendung
any
anych
anymore
anything
ao
aorist
ap
apache
aparaty
aparine
apelsina
apennina
apenninskeje
apetit
apfel
apg
apiaceae
apiales
apioideae
apo
apokryfow
apollo
apostoło
apostroph
app
appa
appamus
appan
appas
appat
appazes
apple
application
appo
apr
aprikoza
apryl
apryla
aprylom
aprylu
aq
aquatica
aquilegia
ar
ara
arab
arabiske
arabiskego
arabiskej
arabiski
arabs
arabska
arabske
arabskego
arabskeje
arabskeju
arabski
arabskimi
arachis
arago
araka
aramejs
aramejski
aranz
arash
arat
archa
archaiske
archanioła
archegonije
archeologa
archikatedralna
archipela
architekt
architektura
architekturu
archiv
archive
archivkopie
archiw
archiwa
archiwar
archiwje
arco
arctos
arcybiskup
arcywo
arda
ardea
are
areal
arealach
arealowe
arealu
arena
arg
argemone
argentinska
argentinskej
argentinskeje
argentinskeju
argentinski
argentinsko
argutifolius
ari
ariane
ariel
aristoteles
arithmetische
arizona
arja
arjam
arje
arjom
arjow
arka
arkady
arkansas
arki
arktischer
arktiski
arlachcerwjene
arm
armeja
armeje
armeju
armen
armeniaca
armenijarje
armii
armin
armstrong
arn
arna
arne
arnje
arnold
arnos
arnowski
aroma
aromatiske
aromatiski
aromunami
aromunow
aromunske
aromunskego
aromuny
aromy
arow
arpa
arracacia
arro
ars
arska
arski
art
artashat
arte
artemisia
arten
arthur
article
articles
artikel
artikele
artikelfließtext
artikels
artikle
artiklow
artis
artist
arts
aruba
arvense
arvensis
arxiv
ary
arz
as
asa
asafa
asar
asc
asch
asde
ases
aset
asetki
asetkow
asety
asetych
asf
ashton
asia
asiatica
asimilacija
asimilaciju
asimile
asket
asne
asneju
asner
asny
asopis
asopisu
asp
aspekt
aspektowe
asplenifolia
assa
assaigs
assoziiert
assumption
astana
asteraceae
asteroidy
astrologa
astronawt
astronom
astronomical
astronomie
astronomija
astronomije
astronomiji
astronomiju
astronomiska
astronomiske
astronomiskego
astronomiski
astronomiskich
astronomisku
astronomow
astronomy
asturiocantabricum
asu
asuncio
asurini
at
ata
atacamen
atd
ate
atej
atheny
atisgar
atk
atlantik
atlantika
atlantischer
atlantiskego
atlantiskem
atlantiski
atlantiskim
atlas
atlasa
atmosfera
atmosfery
atom
atoma
atomami
atomow
atomowa
atomowe
atomowy
atomowych
atomy
atrata
atribut
atributa
atributam
atributom
atributow
atributy
atrorubens
attac
aty
atych
au
auch
auct
aucuparia
audio
audrey
auf
aufbau
aufbereitung
aufgabe
aufgefu
aufl
auflage
aufruf
aufrufen
aufwendige
augen
augsburski
august
augusta
auguste
augusto
augustow
augustus
aung
aurantifolia
aurantium
aurea
aureum
aus
ausdehnung
ausfu
ausgabe
ausgabeformat
ausgabeformatenicht
ausgabemo
ausgeben
ausgefu
ausgegeben
ausreichend
ausstellung
australe
australia
australis
austriacum
auswahlliste
aut
aute
auto
autocollapse
automatic
automatische
automatischen
autor
autoren
autumn
außerhalb
av
ava
ave
avellana
avena
aves
avium
avril
aw
awa
awach
awar
award
awards
awaren
awarow
awary
away
awda
awdna
awdne
awdnego
awdnej
awdnu
awdny
awdnym
awdnymi
awdoſc
awdu
awe
awego
awej
aweje
awem
awg
awgusc
awgust
awgusta
awicar
awicarska
awidła
awidłam
awidło
awidłowna
awidłowne
awidłownje
awidłownosc
awidłowny
awidłownych
awiznik
awja
awjało
awje
awjenje
awna
awne
awnica
awnicy
awniski
awnosc
awny
awo
awokut
awom
awopis
awopisa
awopisna
awopisnu
awopisu
awow
awowas
awowych
awske
awstralia
awstralija
awstraliji
awstralska
awstralske
awstralskej
awstralskeje
awstralski
awstriska
awstriske
awstriskej
awstriskeje
awstriskeju
awstriski
awstrisko
awstrisku
awstroaziske
awstroneziske
awstroneziskich
awta
awto
awtomatiske
awtomatiski
awtonomna
awtonomne
awtonomnego
awtonomnej
awtonomneje
awtonomny
awtonomnych
awtonomnymi
awtor
awtora
awtorach
awtoritarny
awtorje
awtorka
awtorki
awtorow
awtorski
awtory
awtowa
awtowej
awtoweje
awu
awy
awych
awym
awz
axb
axel
axen
az
azawad
azawada
azerbaijan
azerbajdz
azerska
azerty
azery
azes
azija
azije
aziji
aziju
aziska
aziskej
aziz
azorica
azowske
aztecan
ał
ała
ałgosc
ało
b
ba
baba
babel
babelowy
babelowych
babsk
baby
bac
baccata
bach
bachmann
back
background
bacri
bad
baden
badende
bader
bagan
bagarapim
bagna
bagnach
bagnis
bagnocypresowych
bagnowa
bagnowe
bagnowych
bahamy
bahia
bahr
bahrain
bai
baile
baill
baimbai
baird
baja
bajka
bajkal
bajki
bajkow
bakel
baker
bakterije
baktun
baku
bala
balansa
baldwin
balearach
balearow
baletowy
bali
balkan
balkana
balkanska
balke
balko
ball
ballade
balls
balo
balokopanje
balokopar
balom
balow
baltikum
baltiska
baltiske
baltiskego
baltiskem
baltiskich
baltiskim
balto
baltofinske
bamako
bambara
bamberg
bami
bamz
ban
banana
bance
band
bandleader
bandy
banglades
banja
banjow
banjowe
banjowych
bank
banka
banki
bankownik
banks
banku
bantami
bantuske
banzkow
baptist
bar
bara
barack
baran
barba
barbados
barbara
barbarossa
barbary
barbucka
barbuda
barbuk
barcelona
barcelony
barcin
barcino
barczewo
barentsowego
barentsowym
baribal
bariton
barlin
barlinja
barlinjar
barlinje
barlinjom
barlinju
barlinski
barney
baroka
barranquilla
barraza
bars
bart
barta
bartels
bartholdy
bartoszyce
bartłomiej
barwa
barwach
barwidło
barwje
barwjenje
barwjenju
barwjone
barwne
barwny
barwojte
barwojtnych
barwojtych
barwow
barwowe
barwoweje
barwowy
barwu
barwy
bas
base
based
basel
basen
basiert
basilicum
basist
basketball
basketballowc
baskis
basni
basnika
basnikar
basnikarja
basnikarjow
basnikarska
basniki
basnikow
basnikowu
basniska
basnistwa
basnił
basnje
basnjow
basque
bass
baszta
batalin
batista
bau
baudouin
bauen
bauer
baum
baumkunde
bautzen
bay
bayankhongor
bayerischer
bayern
bayerska
bayerskego
bayerskej
bayerskeje
bayerskeju
bayerski
baz
baza
bazalna
bazalne
bazalnje
baze
bazilikum
bazni
baznycia
bazowa
bazowe
bazoweje
bazowych
bazu
bazy
bazylika
bałcar
bałma
bbc
bben
bbenau
bc
bchen
bd
bda
bdg
be
beach
bearbeitungsfenster
beast
beata
beate
beatles
beauforta
beauman
beaver
beber
bechtle
beck
becker
beckett
beckinsale
beckstein
bedeutung
bee
beech
beeinflusst
beer
beeskow
begin
beginnen
behind
bei
beijing
beim
beispiel
beispiele
beitra
beitrag
beiße
beißt
bejmak
bejnje
bekannt
bekendorf
bel
bela
belafonte
belarus
bele
belgiska
belgiske
belgiskej
belgiskeje
belgiskeju
belgiski
beliebig
beliebiger
belize
bell
bella
belli
belzyce
bema
bemerkungen
ben
benannt
benda
bender
benedikt
benedikta
benennen
bener
benetice
bengalensis
benin
benjamin
benno
beno
benth
benutzen
benutzer
benutzt
beograd
ber
berbe
berberske
berberskich
bercht
berda
bereich
bereitgestellt
bereits
beretta
berg
bergamia
bergamota
bergar
bergarjow
bergel
bergen
berger
bergman
bericht
berlin
berliner
berlinje
berlinli
bermuda
bermudy
bern
bernard
bernardyno
bernd
berner
bernhard
bernice
bernie
bersetzt
bersetzung
bertil
bertold
bertolonii
bertolt
beru
beschra
beschreibung
beskid
beskidska
besonderer
besser
best
beste
bestimmen
bestimmt
bestimmung
bestimmungsbuch
beta
bethune
betlehem
betlehema
bettina
betty
betula
betulaceae
between
beverly
bevo
bevorzugte
beyonce
bezeichner
bezkow
bezkowa
bezkowom
bełchato
beły
bełz
bf
bg
bhf
bhutan
bi
biala
bialostocka
bialystok
biao
biała
białogard
białostocka
biały
białystok
bibb
biblija
biblije
bibliografija
bibliografije
bibliografiji
bibliographie
biblioteka
bibliotekar
biblioteki
biblioteku
bibliske
bibliskem
bibliskich
bice
biden
bie
bieb
bieber
biebersteinii
biec
biedenkopf
biel
bielce
bielsk
bielsko
bien
biene
biermann
big
bigard
bihain
bija
bijaca
bijadłar
bijadło
bije
bik
bikpela
bild
bildatlas
bilder
bildo
bildung
bildungsprogramms
bilingualen
bilingualer
bilingualnawucba
biljana
bill
billard
billy
biloba
bilong
bimbawka
bin
binarnych
binder
bing
bingen
binz
biobliographisches
biochemikar
biodiversitylibrary
biofyzikar
biografija
biografije
biografiju
biografiski
biografiskich
biographie
bioko
biol
biolib
biologie
biologiezentrum
biologija
biologije
biologiji
biologischen
biologiskeje
biotopy
bip
bird
birmingham
birne
bis
bisher
bishops
biskop
biskup
biskupa
biskupiec
biskupstwa
biskupstwo
bislama
bislams
bissau
bisschen
bisztynek
bitej
bitte
bitujo
bituju
bitwa
bitwje
bitwu
bius
bixa
bił
biła
biłgoraj
bjarnat
bjarnata
bjatowanje
bjatowanju
bjatowas
bje
bjedrich
bjedricha
bjen
bjerjo
bjerjos
bjero
bjo
bk
bl
bla
blaba
black
blackwell
blake
blanc
blanche
blau
blauen
ble
blechen
blechena
bleibt
blestium
bleu
blick
blida
blidar
blido
blidowy
blis
bliska
bliske
bliskego
bliskem
bliski
blisko
bliskosc
bliz
bloeiwijze
blog
blok
bloka
bloke
bloki
blong
blood
bloom
blu
blue
blues
bluesowa
bluesowy
bluff
blume
blumen
blun
blus
blut
blv
bn
bna
bne
bnej
bnica
bnit
bnje
bnosc
bnowe
bny
bnych
bnymi
bo
bob
boba
bobby
bobo
bobore
bobos
bobow
bobr
bobra
bobrowy
bobry
bocatius
boce
bock
bocne
bocnych
boda
bode
bodensee
bodo
body
bodyclass
bog
boga
bogata
bogate
bogatej
bogatstwo
bogatu
bogaty
bogatych
bogna
bogoju
bogot
bogota
bogowce
bogowka
bogowki
bogu
boguchwała
bogumil
bogumił
bogumiła
bogusławski
boguwe
boh
bohe
bohemianow
bohuwe
boi
boiss
bojt
boju
bok
boka
bokach
bokami
boki
bokoju
bokom
bokoma
bokow
boksar
boku
bolesław
bolesława
bolivia
boliviska
boliwiska
boliwiskej
boliwiskeju
boliwiski
bologna
bolosna
bolte
bom
boma
bomach
bomb
bomba
bombarde
bombay
bombus
bomje
bomki
bomow
bomowa
bomowe
bomowych
bomy
bon
boniek
bonn
bono
bonus
boof
book
bookmarklet
bookmarklets
bookmarks
books
bor
boraginaceae
borago
bordeaux
border
boreale
borealis
borets
borger
boris
borisii
bork
borkh
borkowy
borneo
bornholm
bors
bos
bosc
bosca
bosco
boskiej
bosna
bosne
bosni
bosnia
bosniska
bosniskej
bosniskeje
bosniski
bosporus
boston
bot
botanic
botanica
botanical
botanicky
botanik
botanika
botanikar
botaniske
botany
both
botryoid
botsuana
botswana
botswanu
bottom
boty
bougainville
bow
boweje
bowy
box
boxstyle
boy
boyd
boyle
boys
boz
bozen
bp
br
bra
braces
braci
brackeen
bracteatus
bracteosum
bracławske
brad
brama
bramborska
bramborske
bramborskego
bramborskej
bramborskeje
bramborskeju
bramborskem
bramborski
bramy
bran
brand
brandenburg
brandt
brandtowa
brandy
branibor
branickich
braniewo
branigin
brankac
bras
brasil
brasilia
brasse
brassica
brassicaceae
brata
bratislava
bratislavska
bratisława
brats
braun
braunba
braunschweig
brawn
brazil
brazilianar
brazilska
brazilskej
brazilskeje
brazilskeju
brazilski
brazilskich
brazilsku
brazzaville
brd
bre
break
breakfast
brecht
breinigerberg
breitbla
breiten
breitengrad
bremen
bremer
bresinsky
brest
bretani
breton
brevipes
brian
brice
bridge
briefe
briesen
brigadnik
brigitte
brijnen
bringing
bringst
brit
britain
britaniska
britaniske
britaniskej
britaniskeje
britannica
british
britiska
britiske
britiskego
britiskej
britiskeje
britiski
britiskich
britisko
britta
britton
brjaza
brjazowej
brjazowych
brjazyna
brjazynje
brjazynka
brjazyny
brjog
brjoga
brjogach
brjogom
brjogu
brjoka
brjoze
brjuch
brjuchaty
brjuchu
brno
bro
brockhaus
brod
broda
brodajcami
brodajcate
brodajcojty
brodate
brodnica
brody
broken
bromus
bronis
bronjow
bronkow
bronowice
bronzowe
brook
brooklyn
browa
brown
browser
browserow
browsers
browska
broz
broza
brozdz
bru
bruce
bruk
brukow
bruna
brune
brunei
bruni
brunica
brunicowu
brunicu
brunicy
brunje
bruno
brunocarna
brunogjargawowa
brunogjargawowe
bruns
bruny
brust
brusy
bryansk
brylaty
brzes
brzez
brzeziny
brzozo
bs
bsczi
bsp
btu
bu
bubliny
bubon
bubonar
buch
buchanan
buche
buchstaben
buchu
buchwa
budapes
budapest
budar
buddha
buddhistiske
buddhizma
bude
budestec
budu
budynek
budynko
budys
budz
buen
buenos
bufo
bug
building
buildings
buk
buka
bukaresc
buki
bukojski
bukow
bukowe
bukowicki
bukowina
bukowince
bukowinka
bukowka
bukowych
bulank
bulgar
bulgaria
bulgarje
bull
bullet
bulletin
bullock
bund
bundesla
bundesrepublik
bunge
bunker
bur
bura
burat
burda
burg
burgunds
burik
burikow
buriky
burkina
burnett
burns
burow
burske
burskego
burskej
burskeje
burski
burtt
burundi
burundijom
bury
bus
busch
bush
business
buske
but
butra
butru
butterfly
button
buz
buzz
by
byc
bycantiniski
bych
bychawa
bychu
bydgoszcz
bydle
bydlen
bydli
bydlili
bydlis
bydlił
bydliła
bydliło
byhleguhre
byhlen
byk
byl
byli
byron
bys
byto
bytom
bytosc
bywa
bywacy
bywaju
bywał
bywała
byws
był
była
byłej
było
były
bz
bzn
bzw
børge
błaszkach
błaszki
błaz
bło
błobos
błomjenjach
błos
błota
błotach
błotow
błudnik
błudniki
błys
c
ca
cab
cabrel
cabrera
cach
cache
caerulea
caeruleus
caesar
cafe
cahul
caicos
cait
cajk
cak
cakowanju
cakujo
calau
calendar
calendars
calendula
cali
california
californica
californicum
caligaris
calmund
caltha
calvi
calvin
calystegia
cam
camargo
cambridge
cameron
cami
campbell
campestre
campestris
camponotus
camprowanje
can
canada
canadensis
canariensis
candida
candolle
canescens
canidae
canis
cannabaceae
cannon
canonical
canta
cantare
cantnarje
cantone
canum
canzoniere
cape
capensis
capitata
capitatum
capri
caprifoliaceae
car
cara
caracal
caras
cardamine
cardaria
cardiff
carib
carje
carl
carla
carle
carlinhos
carlo
carlos
carlson
carmen
carna
carne
carnego
carnej
carneje
carneju
carnem
carnica
carnicu
carnivora
carnje
carno
carnobrune
carnogo
carnowioletne
carnu
carny
carnych
carnym
caroba
carobu
caroby
carojstwo
carolina
caros
carpinifolia
carrie
cart
carter
caru
carum
carus
carvi
caryophyllaceae
cas
casa
casach
cascading
case
caselle
cases
casnik
casnika
casnikar
casniki
casniku
casoju
casom
casopis
casopisa
casopisach
casopise
casopisow
casopisu
casow
casowa
casowe
casowego
casowej
casoweje
casowem
casowje
casowu
casowy
casowych
caspar
caspari
caspary
cass
cassel
cassini
castanea
castanopsis
castel
castillo
castle
castor
castries
castro
casu
casy
cat
catala
catalana
catalans
catalunya
catdiffuse
cate
catedral
categoria
category
cathartica
cathedral
catherine
catholic
caudata
caulfield
causa
causation
causative
causatives
cavaradossi
cazow
cazowje
cc
ccc
ccd
cd
cdc
cde
cdeji
cdot
cdu
ce
ceallaigh
cedra
cedrus
ceglin
cej
cejcerowem
cejdejku
cejle
cejre
cejwo
cel
cela
celam
celan
celaz
cele
celi
celinu
cellpadding
cells
cellspacing
celow
celowe
celsius
celu
cem
cembra
cementa
cemetery
cena
cenas
cenis
cenit
cenitom
cenitowego
cenitoweju
census
centella
center
centimetrow
central
centralblatt
centrale
centralna
centralne
centralnego
centralnej
centralneje
centralnemu
centralnoafrikan
centralnu
centralny
centre
centrowanje
centrum
centruma
centrumje
century
ceptar
ceptaris
ceptarja
cera
cerach
cerasifera
cerasus
cereal
cerje
cerkiew
cerkwej
cerkwi
cerkwina
cerkwine
cerkwinskego
cerkwinski
cerkwinskich
cerkwiny
cerkwja
cerkwje
cerkwjejno
cerkwjen
cerkwjow
cerkwju
cerna
cernjow
cerow
cerowe
cerro
cersk
ceru
cerwjena
cerwjene
cerwjenego
cerwjenej
cerwjeneje
cerwjeneju
cerwjenem
cerwjenje
cerwjeno
cerwjenobruna
cerwjenobrune
cerwjenojs
cerwjenojta
cerwjenojte
cerwjenowioletna
cerwjenowioletne
cerwjenu
cerwjeny
cerwjenych
cerwjenym
cerwjenymi
cerwjony
cery
ces
cesc
cesne
cesnego
cesny
cesnym
cespitosum
cest
cesta
ceste
cesteju
cesto
cestosc
cesty
cet
cetk
cetna
cetne
cetnje
cetnu
cetny
ceuta
ceynowa
ceła
cełe
cełego
cełej
cełeje
cełem
cełemu
cełk
cełkowna
cełkownego
cełkownje
cełkownu
cełkownych
cełku
ceło
cełoks
cełole
cełonimski
cełu
ceły
cełych
cełym
ch
cha
chabad
chachamaru
chaco
chad
chada
chadaju
chadajuce
chadajucy
chadajucych
chadna
chaenomeles
chain
chairil
chait
cham
chamaecyparis
chamaedrys
chamberlain
championship
chan
chanat
chansonnier
chapel
char
charakter
charaktera
charakteristiska
charakteristiske
charakteristiski
charakterize
charja
charkiw
charles
charlie
charlotte
chart
chaz
chces
che
check
checklist
chehegui
cheick
chejopi
chejuka
chekyse
chelidonium
chelmno
chembopuka
chemija
chemije
chemiji
chemiju
chemikar
chemiska
chemiske
chemiski
chemiskich
chen
chendales
chendalowe
cheng
chepochy
cher
cherone
cheryl
chesu
chev
chełm
chełmin
chełmno
chełmz
chi
chicago
chiesa
child
chile
chilena
chilenar
chilenas
chilska
chilskej
chilskeje
chilskeju
chilski
chin
china
chinensis
chinezar
chinje
chins
chinska
chinske
chinskej
chinskeje
chinskeju
chinski
chinskich
chis
chitralensis
chle
chlorofyl
chloroplast
chloroplastida
chmjel
chmjela
cho
chodat
chodczu
chojnan
chojnice
chom
chomutov
chopili
chopin
chopina
chopiła
chor
choreograf
chorhoj
choroszcz
chorownje
chorwat
chorwatow
chorwats
chorwatska
chorwatske
chorwatskej
chorwatskeje
chorwatskeju
chorwatski
chorwatsko
chorwaty
chory
chorzo
chos
choszczno
chow
chowa
chowan
chowanja
chowanje
chowanjeju
chowar
chowas
chowe
chowego
chowy
chołmcom
chr
chransdorf
chrastava
chrestomatija
chris
chrischona
christa
christian
christiana
christina
christine
christlich
christoffel
christoph
christopher
chro
chrobrego
chrobry
chromosomow
chromosomowa
chromozomow
chroniki
chroniku
chronisty
chrt
chrysantha
chrysolepis
chrystian
chrystus
chrystusa
chrzano
chrzciciela
chsischen
chstho
cht
chten
chto
chtoz
chu
chuang
chude
chudych
chudym
chui
chur
church
chva
chwalba
chy
chylin
chylu
chys
chytanje
chłodnych
ci
cia
ciała
cib
cichorium
ciconia
ciconiidae
cie
ciechano
ciechanowiec
ciechocinek
ciele
cielecki
cielna
ciencias
cieplice
cierzyna
cieszano
cik
cil
cillum
cimbry
cin
cinema
cinerariifolium
cinerea
ciny
cio
cioł
cioła
circ
circle
cirka
cirkumfiks
cirkumfiksa
cirkumfleks
cis
cisse
cita
citat
citaty
cite
citrona
citronatowa
citronowa
citronowy
citrus
citrusowe
citrusowy
city
ciu
ciuszki
ciutat
civitates
ciwilne
ck
cka
ckam
ckate
cke
cken
cker
ckgegriffen
ckgen
cki
ckler
cko
ckow
ckowny
ckowy
cksichtigt
cksichtigung
ckstro
cku
cl
cla
cladistic
clannad
clark
clarke
class
classification
claude
clav
cle
clear
clecia
clematis
clemens
clenze
cleopatra
clerk
cleveland
cliath
clichy
clinton
clive
clock
cloppenburg
clovelly
club
cluster
clwb
cm
cmentarna
cmentarny
cmentarnych
cmentarz
cmentarza
cn
cna
cnar
cnarstwa
cnarstwo
cnarstwom
cne
cnego
cnej
cneje
cnem
cneorum
cnica
cnicy
cnik
cnikow
cnikowe
cnis
cnja
cnje
cnjej
cnjejs
cnosc
cnu
cny
cnych
cnym
cnymi
co
cobar
coccetum
cochimi
code
codes
codiakalnej
cogo
cogodla
cogoz
cohen
colbitz
colby
colchica
cole
coleogyne
colin
colinde
collapse
collapsed
collapsible
collection
collegium
collina
collins
colombia
color
colorado
colorata
coloratum
colors
colour
colspan
columbia
column
colurna
com
coma
come
comecrudan
comedy
comicowy
comics
commodo
common
commons
commonscat
commonwealth
commonwealtha
communis
comosus
companion
compare
completes
complex
computer
computerowych
comu
comuna
comunita
comy
comz
con
cona
conach
conakry
concepcio
concise
concolor
cone
conje
connery
connor
conow
conrad
consectetur
consequat
consider
considered
consolida
constance
constant
constructions
contemplativa
content
contes
continental
contr
contra
control
conu
convar
converbs
convolvulaceae
convolvulus
cony
coochorija
cook
cookowe
cooper
coordinate
coordinatelat
coordinatelink
coordinatelong
coordinatemain
coordinatemsg
coordinateno
coordinatenox
coordinaterr
coordinates
coordinatesort
coordinatesystem
copanje
coppens
cora
corbusier
cordata
cordiformis
core
corinna
corn
cornaro
corners
cornix
cornus
cornuta
cornwall
coronaria
corone
coronopus
corps
corpus
corr
corre
corvus
coryloideae
corylus
cos
coschen
coss
cossiga
costa
cottbus
cottbuser
coulomb
coult
council
count
country
county
court
covid
coville
cow
cowa
cowanje
cowar
cowas
cował
cowce
cowe
cowego
cowej
cowem
cowka
cowkami
cowki
cowkow
cowku
cownik
cownja
cowu
cowy
coz
cołnami
cołnik
cołnom
cołny
coło
cr
cracca
cracovia
cranberries
crane
crantz
crash
crataegus
credo
crenata
crenatum
creole
crescent
cretica
creticum
crew
crispa
crispum
cropped
cross
crownoz
cruz
cruziana
cryptomeria
cs
csik
css
csu
csy
ctype
cu
cuba
cuckoo
cucumis
cucurbita
cucurbitaceae
cucurbits
cujo
cuju
cuk
cukor
cukora
cukorom
cukorowym
cukory
culpa
cultura
culture
cum
cuniculus
cunninghamia
cunza
cup
cupidatat
cupressaceae
cupressus
cupula
curac
curial
curiel
curitiba
currentcentury
currentisoyear
currentjulianday
currentmonthdays
currentweekday
currentyearcc
currentyearyy
cursorposition
curtis
cus
custa
cut
cuza
cuze
cuzej
cuzeje
cuzore
cuzy
cuzych
cuzym
cv
cwible
cy
cyanowo
cyathium
cyathophylle
cybula
cybulinka
cycak
cycaki
cycakom
cycakow
cycce
cyclamen
cydonia
cyfry
cygan
cygnus
cyjo
cyju
cykach
cyki
cyklus
cykojte
cylindriski
cylindriskich
cym
cyma
cymraeg
cymric
cyn
cyna
cynach
cyni
cynimy
cynis
cynił
cyniła
cyniło
cynje
cynjene
cynjone
cynow
cyny
cypern
cyperna
cypernje
cypk
cyplis
cypresa
cypresowe
cypresowych
cypriska
cyril
cyrila
cyrkwinski
cyrus
cys
cysc
cysle
cystej
cysła
cysło
cyta
cytaj
cytam
cytanja
cytanju
cytanka
cytar
cytarja
cytarjow
cytas
cytał
cytisus
cywaju
cywe
cyz
cył
cyła
cz
cza
czarna
czarne
cze
czerkasy
czersk
czesław
czluchow
czna
cznej
cznie
czno
czo
czyca
czycki
czycy
czyk
człucho
cık
cłon
cłonikarje
cłonk
cłonka
cłonkami
cłonki
cłonkojske
cłonkojstwo
cłonkom
cłonkots
cłonkow
cłonkołus
cłowjek
cłowjeka
cłowjeki
cłowjekow
cłowjeske
cłowjestwa
cłowjestwoju
d
da
dabei
dabit
dabo
dach
daddy
dadurch
dafu
dag
dahinter
dahl
dai
daim
daj
dajo
dajom
dajotej
dajs
daju
dajuca
dajuce
dajucy
dajucych
daks
dal
dale
dalej
dalejdawane
dalejdawanje
dalejpo
daleposre
dali
dalic
daloka
daloke
dalokeje
daloko
dalokosc
dals
dam
dama
dame
dami
damit
damna
damu
damy
dan
dana
danas
danc
dance
dane
danego
danej
daneje
daniel
daniela
danim
danis
daniz
danja
danje
danjow
danju
dank
danki
danmark
dann
dannenberg
danska
danskich
dansku
danu
dany
danych
dar
darbni
darbnja
darbnjanski
darchan
dari
darjami
darjow
dark
darlowo
darmstadt
darow
darske
darstellung
darussalam
darłowo
das
dass
daszynskiego
dat
data
database
dataja
dataje
dataji
datajowe
dataju
datami
date
dateformat
datego
datej
daten
datiw
datiwa
datiwje
datow
datowa
datowu
datowym
datu
datum
datuma
datumje
datumom
datumoma
datumowa
daty
datym
datzig
daugavpils
daun
dave
david
davis
davison
dawa
dawaj
dawaju
dawali
dawanje
dawanju
dawas
dawaty
dawid
dawka
dawmowa
dawna
dawne
dawnego
dawno
dawny
dawson
dawyck
day
days
dazu
daß
dał
dała
dało
dbok
dboki
dbokow
dboku
dc
dcd
dce
dchen
dd
ddddff
ddf
ddr
ddruz
de
deadache
dean
debian
debora
deborah
debrecen
debrecin
dec
decade
december
decembera
decemberje
decembra
decembrje
decemlineata
decimale
decimalne
decimalnej
decimalnem
decimalnje
decker
decne
default
defaultnje
defaultowe
defaultowy
define
definicija
definicije
definiciji
definiciju
definiert
definitny
deforme
dego
dei
dein
deine
dej
dejali
dejas
dejał
dejała
dejało
deje
dejm
dejs
dek
deker
deklaracije
deklaraciji
deklare
deklinacija
deklinacije
deklinaciji
deklinaciju
del
delambre
delavayi
delaware
dele
delegacija
delhi
delicti
delikt
delkowe
delku
della
delle
delnim
delnje
delnjoserbski
delphinium
delta
delty
dem
demografija
demokratije
demokratische
demokratiska
demokratiske
demokratiskej
demokratiskeje
demokratiskeju
demokratiski
demonow
demonstratiwne
demospace
demus
den
dene
denis
denkmal
denn
dennis
denny
dentaria
dentata
denverski
deodara
departament
departement
departementow
departementy
depends
depresiju
depsku
der
derbno
derbstwa
derbstwoju
derdahl
derek
deren
derhexer
derje
derjeme
dermo
ders
derwan
des
descr
description
deserunt
designer
desna
dessau
destino
destiny
det
detaile
detailny
details
detajle
detection
detlef
deu
deum
deus
deuterium
deutsch
deutsche
deutschen
deutscher
deutsches
deutschland
deutschlands
devil
devon
dewastacija
deyzidoxs
dezenter
dezes
dezimal
dezimalausgabe
dezimalgrad
dezimalwerten
df
dguba
dh
di
dia
diagnostice
diagonale
diagonaler
diagonalnje
diagram
diakritiske
diakritiskimi
dialectal
dialekc
dialeks
dialekt
dialekta
dialektach
dialektami
dialektny
dialektologija
dialektow
dialekty
diarra
diatezu
dicaprio
dich
dickinson
dictamnus
dictionary
didaktiske
didymum
didymus
die
diego
dient
dies
diese
diesem
dieser
dieses
dieter
dietmar
dietrich
dievc
dievma
diferenca
diference
diferencu
diff
different
diftong
diftongami
diftongi
diftongow
digiserb
digital
digitalizat
digitalize
digitalna
digitalnych
digraf
dii
dikc
diktator
diliff
dim
dimensions
dimenticati
diminutiw
din
dins
dio
dioksid
dioksida
dion
dioncounda
dioulasso
diplomat
diplomowy
dipol
dippel
dipsacoideae
dir
direktnej
direktnem
direktnje
direktny
direktnych
direktor
dirigent
dirk
disciplina
discolor
disentis
disertaciju
disident
disk
diskografija
diskusija
diskusije
diskusijne
diskusijnego
diskusijnej
diskusijnem
diskusijny
diskusijnych
diskusiju
diskussion
diskute
disney
dispela
display
dispozciji
dispoziciji
dispoziji
dissen
dissenchen
distanca
distancow
distancy
distinktion
distribucija
distribucije
distribuciji
distribuciju
district
distrikt
distrikta
dit
dith
ditmarski
divaricatum
diversification
diversity
dixie
dixit
dixon
dj
djalili
django
djibouti
djo
djokovic
djwacor
dk
dka
dkami
dkas
dkategorije
dke
dki
dkich
dklasa
dko
dkoju
dkom
dkow
dkowanja
dkp
dku
dkupka
dkupki
dkupkowem
dkupku
dl
dla
dlan
dlaz
dle
dlej
dlejs
dli
dlicher
dlinina
dlininje
dlininow
dlininowe
dlininowego
dlininowej
dlininowy
dlininowych
dlininowym
dlininowyma
dlininu
dlininy
dlis
dm
dmies
dmitrij
dms
dmstype
dna
dne
dnego
dneho
dnej
dneje
dneju
dnem
dnemu
dnica
dnicy
dnik
dnika
dnikach
dnikami
dniki
dnikow
dnipro
dnis
dnistwa
dnja
dnjach
dnjami
dnje
dnjej
dnjejs
dnjenja
dnjenje
dnjepr
dnjeprje
dnjesterska
dnjo
dnjom
dnjow
dnjowe
dnju
dno
dnos
dnosc
dnota
dnotne
dnotny
dnotow
dnotu
dnoty
dnow
dnu
dnw
dny
dnych
dnym
dnyma
dnymi
do
doba
doberlug
dobje
dobna
dobne
dobnej
dobnje
dobnjenje
dobnosc
dobny
dobnych
dobra
dobre
dobrebora
dobrjoług
dobros
dobrowo
dobrozdas
dobru
dobry
dobrych
dobrymi
dobrzyn
dobrzyniu
dobu
doby
dobydnjo
dobydnuł
dobyli
dobys
dobywa
dobywaju
dobywanje
dobywanju
dobywar
dobywarjeju
dobywarjow
dobył
dobyła
doc
docasne
docent
doch
documentation
docyniopsis
doda
dodaj
dodank
dodanki
dodas
dodatnje
dode
dog
dogle
dogon
dogromady
dogrona
dogrono
doi
doj
dojs
dojz
dok
doko
dokradna
dokradne
dokradnje
dokradnjej
dokradnjejs
dokradnosc
dokradnu
dokradny
doktor
doktora
dokulaz
dokument
dokumenta
dokumentach
dokumentacija
dokumentacijach
dokumentacije
dokumentaciji
dokumentaciju
dokumentaciske
dokumentariski
dokumentation
dokumente
dokumentow
dokumenty
dokładne
dokładnje
dokładnjej
dokładny
dokłady
dolarow
dolcino
dole
doli
dolina
dolinje
dolna
dolne
dolnej
dolneje
dolnem
dolni
dolno
dolnofrancke
dolnoluz
dolnonims
dolnonimski
dolnos
dolnosakska
dolnosakskej
dolnosakskeju
dolnoserbs
dolnoserbska
dolnoserbske
dolnoserbskego
dolnoserbskej
dolnoserbskeje
dolnoserbskem
dolnoserbski
dolnoserbskich
dolnoserbskim
dolnoserbskimi
dolnoserbsko
dolnoserbsku
dolnołuz
dolnu
dolny
dolnych
dolor
dolore
dolores
dom
doma
domach
domacna
domacne
domacnej
domacneje
domacny
domain
domas
domcyk
dome
domek
domestica
domin
domine
domini
dominika
dominikan
dominikana
dominikano
domizna
domje
domka
domnosc
domnostna
domnostne
domnostnego
domnostnem
domnostnica
domnostnik
domnostniki
domnostnikow
domnostnje
domnostny
domnostnych
domnostnym
domnostnymi
domoj
domorodne
domorodny
domostne
domovino
domow
domowina
domowinje
domowinskeje
domowinski
domowiny
domowinygregor
domowinylisc
domowni
domowniski
domownja
domownje
domownjowe
domownju
doms
domu
domy
don
dona
donal
donald
donatec
donau
done
dong
donji
donkey
donnerhak
donom
doors
dopad
dopady
dopisowar
dopo
dopokazana
dopokazas
dopokaze
dopomina
dopomnjen
dopomnjes
dopołn
dopołna
dopołne
dopołni
dopołnijo
dopołnis
dopołnje
dopołny
doppeltraube
dopravni
dopre
dopus
dora
dorfkirche
doris
dorosc
dorothea
dorownje
dorownych
doroz
dorsicidna
dort
dortn
dos
dosc
dosega
dosegajucy
dosko
dospołnje
dosrjejz
dosta
dostali
dostanjo
dostanu
dostas
dostawa
dostawaju
dostał
dostała
dostało
dostojewskij
dotted
dotychme
douglas
dove
dovunque
dow
dowak
dowaka
dowaki
dowali
dowan
dowana
dowane
dowanja
dowanjach
dowanje
dowanju
dowanu
dowany
dowanych
dowar
dowarja
dowarjow
dowas
dował
dowała
dowałej
dowało
dowe
dowego
dowje
down
downe
downie
downje
download
downtown
dowo
dowol
dowola
dowolnosc
dowy
doz
dozdrjaju
dozelene
doł
dołoj
dołojce
dołojcne
doły
dpe
dpis
dpisanje
dpol
dpolarmeer
dpołdnja
dpołdnjo
dpołdnjoafrikan
dpołdnjowa
dpołdnjowe
dpołdnjowego
dpołdnjowej
dpołdnjoweje
dpołdnjoweju
dpołdnjowem
dpołdnjowemu
dpołdnjownoafriska
dpołdnjowoameriski
dpołdnjoworomaniske
dpołdnjowosłowjan
dpołdnjowotirolskem
dpołdnjowu
dpołdnjowy
dpołdnjowych
dpołdnjowym
dpołdnju
dpołnoc
dpołnocna
dpołnocne
dpołnocnego
dpołnocnej
dpołnocneje
dpołnocneju
dpołnocnem
dpołnocnemu
dpołnocnje
dpołnocno
dpołnocnoamerikan
dpołnocnoc
dpołnocnofrizis
dpołnocnogermaniska
dpołnocnogermaniske
dpołnocnokorejski
dpołnocnu
dpołnocny
dpołnocnych
dpołnocnym
dpołnocy
dpre
dps
dr
dra
draba
drabiniok
drachhausen
dragan
drama
dramas
dramatika
dramatikar
dramatiski
dramaturg
dramy
drapalcowe
drapalcowych
drastwa
drastwje
drastwu
drastwy
drawidske
dre
dream
drebkau
dreetzsee
drego
drehnow
drei
dreizehn
drej
dresden
drewn
drez
drilim
dring
drje
drjebiznowych
drjenow
drjenowa
drjenowje
drjew
drjewa
drjewinu
drjewjan
drjewjane
drjewjanopołobs
drjewjanych
drjewjenjopołabski
drjewjone
drjewo
drjez
drjowk
drjowku
drn
drnovs
dro
drobna
drobnosc
drod
drodami
droga
drogach
droge
drogi
drogow
drogowan
drogowanje
drogowanju
drogowas
drogował
drogowe
drogowej
drogowych
drogu
drogujo
drogujucego
drogujucy
drogurubar
drohiczyn
drohobyczu
drowa
drowioletna
drowioletne
drowych
droz
drozdowski
droze
drozelena
drozelene
drozeleny
drozna
dru
drude
druga
druge
drugego
drugej
drugeje
drugeju
drugem
drugemu
drugi
drugich
drugim
drugimi
drugu
druhe
druhich
druhim
druhy
druz
dry
drym
drz
drzej
drzejewicz
ds
dsb
dsc
dscf
dskem
dstwa
dstwje
dstwo
dstwoma
dswo
dtenamenbuch
dtirol
dtitel
dtitelom
dtribus
dtłocys
du
dual
duarte
duas
dub
dubium
dubja
dublin
dublina
dubow
dubowych
dubrawa
duby
duc
duce
duch
ducha
duchne
duchon
duchow
duchowne
duchowny
duchownych
duchu
duchy
ducy
duel
duis
dujacej
dujo
dujobna
dujomy
dujotej
duju
dujuca
dujuce
dujucego
dujucej
dujuceje
dujuceju
dujucem
dujucu
dujucy
dujucych
dujucym
dujucymi
dukc
dulcamara
dulcis
dulojce
dum
dumetorum
dumme
dunaj
dunaja
dunaju
dunau
dunav
duncker
dundee
dunja
dunlop
dunn
dunno
dunois
durch
durchgezogen
duridanov
durins
durinska
durinskej
durinskeje
dus
dutt
duz
dvd
dvoch
dwa
dwanasc
dwanasty
dwaz
dwe
dweju
dwjacor
dwjacora
dwjacorje
dwjacorna
dwjacorne
dwjacornego
dwjacornej
dwjacorneje
dwjacornem
dwjacornje
dwjacorno
dwjacornobaltiske
dwjacornobaltisku
dwjacornofrizis
dwjacornogermaniske
dwjacornopomorska
dwjacornopomorskem
dwjacornoromaniske
dwjacornosłowjan
dwjacornu
dwjacorny
dwjacornych
dwjacornym
dwjacoroeuropski
dwjacoropomorskej
dwjacoropomorskem
dwjacoru
dwo
dwor
dworca
dworcowa
dworek
dworski
dworzec
dxo
dy
dych
dychan
dychanje
dyer
dyk
dyla
dylan
dym
dyma
dynamiku
dynastie
dynastije
dynastiji
dynastiju
dyno
dypk
dypka
dypkami
dypkate
dypki
dypkom
dypkoma
dypkow
dypkowe
dypkowej
dypku
dyrlich
dyskusji
dytar
dyz
dz
dzajts
dzemske
dzemskich
działdowo
działoszyn
dzieci
dzielnica
dzkem
dzki
dztwo
dzwonnica
dzy
dzyrzec
dı
dıkc
dł
dła
dłach
dłej
dło
dłow
dłowego
dłowem
dłowy
dłowym
dłoz
długa
dłujka
dłujke
dłujkego
dłujkej
dłujkeje
dłujkeju
dłujkem
dłujki
dłujkich
dłujkim
dłujko
dłujkojs
dłujkojte
dłujkoko
dłujkole
dłujkopo
dłujkosc
dłujkostnej
dłujkowjacorne
dłujkowjacornej
dłujkowjacorneje
dłujkowjacornem
dłujkowjacornje
dłujkowogonkaty
dłujkozajts
dłujku
dłymi
dłymjone
dłymoka
dłymoke
dłymoki
dłymoko
dłymokosc
dłyms
e
ea
each
earl
early
earth
east
eastern
easting
easy
ebarwjuju
ebasnjenja
ebe
ebene
ebenfalls
eberhard
eberswalde
ebert
ebjas
ebju
ebra
ebro
ebuskeje
ebuskem
ebuski
ebuskich
ebuz
ebuza
ebuzom
ebuzu
ebywanje
ebywał
ec
eca
ecach
eccelenza
ece
ecego
ecej
eceje
ecejzelene
ech
echach
echadne
echo
echod
echolink
echolot
echosłowakska
echosłowakskej
echosłowakskeje
echosłowakski
echow
echoz
echu
echy
eckige
eckl
eckle
ecomstation
economy
ecowas
ecu
ecy
ecych
ed
edaju
edali
edam
edan
edane
edany
edas
edawar
edcasnje
edcasnosc
edchada
edchadajucego
edchadnik
eddefine
edefine
edeltraut
eden
ederbis
edews
edewzes
edgar
edicions
edinburgh
edith
edition
editor
editorial
editory
editrice
edlaz
edme
edmjas
edmjat
edmjata
edmjatow
edmjaty
edmjenja
edmund
edna
edne
ednego
ednej
edneje
ednjasli
ednje
edno
ednosk
ednoski
ednu
edny
ednych
ednym
edpomorska
edpomorskej
edpomorskeje
edrunda
edrundowych
edrunz
eds
edsedar
edsedarja
edsedarje
edsedarjom
edsedarka
edsedarstwo
edskoki
edsle
edstaja
edstajajucych
edstajarka
edstajenja
edstajenje
edstajenju
edstaji
edstajijo
edstajili
edstajis
edstajone
edstajony
edsłowje
edsłowo
edu
eduard
eduardo
education
edulis
edvard
edwamu
edward
edwards
edwin
edwiz
edłoga
edłogach
edłogami
edłogi
edłogow
edłogowe
edłogowy
edłogu
edłoha
edłohi
edłoze
ee
eeckenbrugge
een
eest
eesti
eet
ef
efektow
efredaktor
efredaktorka
egejske
egejskego
egejskim
egle
ego
egon
eguapy
egyptojs
egyptojska
egyptojskej
egyptojskeje
egyptojskeju
egyptojski
ehechaukami
ehi
ehlad
ei
eichler
eiffelowy
eigenem
eigenschaften
eiha
eiko
eilen
ein
eina
einaudi
einbindende
einbindung
einbindungen
eindeutige
eine
einem
einen
einer
eines
einfach
einfließt
einfu
eingabe
eingabehilfe
eingeben
eingebunden
eingefu
eingegeben
eingesetzt
einheiten
einige
einigen
einja
einklinker
einmal
einseleana
einsiedel
einteilung
eintrag
einwohner
einzelnachweise
eiporu
eirann
eiru
eis
eisenach
eisenbahn
eisenhu
eisenreich
eisleben
eisner
eiusmod
eiva
ej
eja
ejami
ejapo
ejc
ejcerwjeny
eje
ejemy
ejkom
ejkow
ejn
ejnejz
ejnin
ejo
ejow
ejs
eju
ejz
ek
ekersiz
ekkehard
eklipsa
ekliptiki
ekonom
ekonomicka
ekonomija
ekonomiske
eks
eksaktnje
eksamen
ekscelentne
ekscelentny
eksegetow
eksemplarow
eksilu
eksiste
eksistenca
eksistencu
eksistujo
ekskluziwna
ekskluziwnym
ekskluziwnymi
eksokarp
ekspansije
ekspansiju
ekspedicija
eksperta
eksplode
eksportowej
ekspresionizma
eksterne
eksterny
ekstrahowali
ekstremnje
ekstremnu
ekuador
ekue
ekuje
ekupc
ekupce
ekupcow
ekwador
ekwadorski
ekwator
ekwatora
ekwatorialna
ekwatorje
ekwatoroju
ekwatorom
ekwatoroweju
ekwiwalenty
el
ela
elach
elaka
elam
elami
elastiskich
elatius
elba
elbe
elbrusoid
ele
electric
electricos
elejoju
elektriska
elektriske
elektriskego
elektriskich
elektronegatiwita
elektronegatiwitu
elektronegatiwity
elektronow
elektronowa
elektronowe
elektronoweje
elektrony
elektrotechnika
element
elementa
elementami
elemente
elementow
elementy
elena
elevation
elew
elfoqaha
elfriede
eli
elicenje
elicys
elikowska
elina
elinborg
elinje
elipse
elipsoid
elipsoida
elipsoidiska
elipsoidiske
elipsoidowa
elipsoidoweju
elipsoiz
eliptiske
elis
elisabeth
elit
eliza
elizabeth
eljo
elju
elka
elke
elki
ella
elnosc
elow
elowa
els
elsaska
elsaskeje
elska
elske
elski
elskich
elsner
elster
elsterheide
elsterwerda
elstra
elstwa
elstwo
elu
elſtwo
em
ema
emaits
embopuka
embryjo
eme
emfatiski
emigrantow
emiraty
emje
emmanuel
emme
emo
emphasis
empire
empty
emrju
ems
emu
emus
emy
en
ena
enc
encian
enciklopediji
encyclopaedia
encyclopedia
encyklopedija
end
endemiski
endemit
endend
endl
endokarp
ene
energija
energije
energiju
eng
engel
engelking
engelmann
engels
engelska
engelske
engelskego
engelskej
engelskeje
engelskeju
engelskem
engelski
engelsko
engelsku
engenske
engl
england
engler
englisch
english
eni
enica
enicy
enicyn
enid
enigmail
enijo
enik
enika
enim
enimal
eniro
enis
enił
enja
enjach
enje
enjeju
enjer
enjera
enjerstwo
enjo
enjom
enjone
enjony
enjow
enjowych
enju
enka
enkar
enkarjowa
enkel
enki
enklawa
enko
enough
enrico
ens
ensa
enska
ent
entertainer
entfernt
entfernung
entlang
entsprechen
entsprechend
entsprechende
entsprechenden
entspricht
entwicklung
environmentalchemistry
eny
enya
enych
enzyklopa
eo
ep
eparchija
epastyr
epentetiski
epifani
epika
epiki
episujo
eplet
epo
epoch
epochy
epos
eposu
epołoz
epre
eprobe
eps
epus
epytajobne
epytali
epytowanja
epytowanjach
epytowanje
epytowanjow
epytowas
epytował
epytujo
epytujomy
eq
equinox
er
era
erba
erbse
ercy
erd
erde
erdenet
ere
erectum
eren
erfinden
erfolgen
erfolgt
erforderlich
erfu
erfurt
erfurtske
erga
ergeben
ergebnis
ergibt
erhardt
eric
ericaceae
erich
ericha
erifovic
erik
erika
eriolobus
eritreja
eritreju
erjaki
erje
erjo
erjony
erjow
erk
erka
erkannt
erkawa
erkennen
erkeskej
erlica
erlina
ermitteln
ermo
ermolenko
ern
erna
erne
ernest
ernesto
ernja
ernje
ernjow
ernjowaty
ernst
erny
ero
erobruna
erobrune
erokiske
eromski
erosc
erotiski
erozelene
erozeleny
erpjecy
erpjenja
error
ers
ersatz
ersen
ersetzt
ersetzungen
erskem
erste
erstellen
erstellt
ersten
erster
erstgenannte
eru
erweiterte
erweiterungen
erwin
erwinom
erwjeny
ery
erythrocarpum
erza
erzwungen
es
esajz
esc
eschsch
esculenta
esculentum
esedliła
esegajucy
eseje
esejist
esel
esiw
eska
eske
eskego
eskej
eskeje
eskeju
eskem
eski
eskich
eskimo
esko
esky
esle
esnasc
espan
esperans
esperantist
esperanto
esperantore
esse
essere
est
estajali
estajar
estajenje
estajenju
estajis
estajił
estajiła
estajone
estajuju
estas
este
estiano
estnis
estniska
estniskej
estniskeje
estniski
estre
estupne
estupnego
estupnem
estupny
estupnych
esty
esun
esunjenja
esunjenje
esz
esztergom
et
eta
etable
etaz
etc
ete
eterei
etergnuł
etergowanje
eteriske
eteriski
ethnologue
eti
etiopiska
etiopiskej
etiopiskeje
etiopiskeju
etko
etnija
etniska
etniske
etniskej
etniski
etnobota
etnograf
etnolog
eto
etow
etrajuca
etrs
etstwa
etstwje
etstwo
ette
ettwein
etwa
etwas
etwo
etymologija
eu
euangelion
euge
eugen
eugene
eugenio
eukaryotow
eukaryoty
euphorbia
euphorbiaceae
eurazija
eurazije
euraziji
euraziski
euro
europa
europady
europaea
europe
europeada
europeady
european
europejarje
europejarjow
europje
europska
europske
europskego
europskej
europskeje
europskem
europskemu
europski
europskich
europskim
europsku
europu
europy
eurovision
eurozonje
euryale
eva
evangeliom
evans
evelina
even
eventuell
everest
evert
evete
evic
evidence
evir
evo
evolution
ew
ewangelicki
ewangelicko
ewangelijach
ewangelije
ewangelijow
ewangeliju
ewangeliskego
ewangeliskej
ewangeliski
ewangelist
ewangelisty
ewangelium
ewangelska
ewangelski
ewangelsku
ewaz
ewc
ewe
ewentualne
ewentualnje
ewentuelnje
ewg
ewisuju
ewisujuce
ewjadli
ewjadł
ewjadło
ewjasc
ewjaz
ewjes
ewjety
ewjez
ewo
ewobros
ewoz
ewros
ewrot
ews
ewt
ewtl
ewzejo
ewzeju
ewzeli
ewzes
ewzeł
ewzełej
ex
example
examples
excelsior
excepteur
exercitation
exkursionsflora
experience
explorer
express
extensions
exterior
externe
extinct
exupe
ey
ez
ezcukorowy
ezdz
eze
ezg
ezks
ezmjedowy
ezmlokowy
ezpjepjerjowa
ezpołdnica
ezsolny
ezuk
ezwokrejsne
ezymuju
eł
eła
ełaju
ełanja
ełanje
ełk
eło
ełow
ełoz
f
fa
fabaceae
fabian
fabijan
fabricius
fabryki
fabule
fachowe
fachowy
fachowych
facu
faculty
faeroaeski
fagaceae
fagopyrum
fagottistka
fagus
faik
fairplay
fake
fakere
faki
fakiabades
fakt
fakta
faktiski
faktitiw
faktitiwno
fakultatiwny
fakultow
fakulty
falcata
falklandy
falko
fall
fallax
falls
fals
familie
families
familija
familije
familiji
familiju
family
familytree
fan
fanciulla
fanny
fantastischen
fantasyjowy
faq
fara
farar
fararja
fararjom
farizejarjam
farizejarje
farmar
farn
farny
farrell
fas
fasada
fasaz
faska
faso
fattu
faz
faza
faze
fazy
faßke
fc
fdp
fe
feb
februar
februara
februarje
federacija
federacije
federaciji
federaciju
federaciski
federal
federalny
federatiwna
federatiwneje
federico
fehlen
fehlerbehandlung
fehlermeldung
fehlt
fehr
fehrow
feik
feillu
fejetonist
felber
felder
felici
felicjan
felidae
feliks
felin
felis
felix
felowanje
felowas
felujo
feluju
felujuce
female
femininum
feministka
fennec
fenologiski
fenomen
fenzl
fer
ferdinand
ferejska
ferenc
ferenz
ferera
fermentacije
fermentaciju
fermente
ferox
ferreira
ferrer
ferro
ferrowy
ferruginea
ferulago
fest
festgehalten
festival
festiwal
festiwale
festiwalu
fett
feudalismus
feuerwehr
ff
ffentlichen
ffentlichungen
ffffff
ffnetem
fi
fichtelowych
fidel
fidz
fiedler
fifa
figueira
figura
figurje
figurow
figury
fijałka
fikse
filcojs
filcojte
file
filialny
filip
filipendula
filipiny
filipowje
film
filma
filmach
filmje
filmografija
filmow
filmowa
filmowc
filmowe
filmowy
filmy
filolog
filologiju
filologiske
filozof
filozofija
filozofije
filozofiju
filter
fimus
fin
fina
finale
finalna
finalne
finance
financielnje
financielnu
fini
finibus
finire
finland
finnisch
finougriske
finougriskich
fins
finska
finskej
finskeje
finski
finskich
finsko
finsku
finsterwalde
fire
firefox
firma
firmy
first
fis
fisch
fischer
fisher
fishman
fit
fitschen
fitzgerald
fitzherbert
five
fixe
fizis
fjodor
fl
fla
flabellata
flack
flackami
flacki
flag
flak
flakata
flakow
flammea
flash
flavonoidy
flavum
fleißer
flew
flexuosa
flickr
fließtext
fließtextkoordinate
flip
float
floor
flora
floraweb
floria
florian
floriana
floribunda
florida
flory
floty
flower
flowering
flowers
floyd
flur
fluss
fly
flyns
fn
fo
foccroulle
foetida
foetidus
fogo
folgen
folgende
folgenden
folgt
foliacea
folk
folklorist
folklorista
folklorny
folkloru
folksamen
fonem
fonema
fonemow
fonemy
fonetiikkaa
fonetika
fonetiku
fonetiskej
fonologija
fonologiskeje
font
fontana
fontanna
fontcolor
fontsize
football
footballowy
footer
for
force
ford
forga
foriining
form
forma
formach
formal
formami
formas
format
formatami
formatangabe
formate
formatierung
formatierungen
formatierungsanweisung
formatjul
formatkombination
formatowanje
formats
formaty
formen
formeninventar
formenlehre
formentera
formica
formje
formoma
formosa
formosana
formow
formu
formuju
formula
formulach
formule
formulu
formy
forrest
forschungen
forssk
forst
forster
forstmann
fort
fortaleza
fortgeschrittene
fortress
fortson
fortunato
forum
fosforesce
fosilnych
foster
fot
fota
foto
fotograf
fotografija
fotografije
fotografka
fotomodelka
fotopolska
fotowy
foty
foundation
four
fr
fra
frac
fragaria
frage
fragen
fragment
fragrans
frahnow
frakcije
fraktur
frame
frampol
frana
franc
franca
france
francesco
franch
franchet
francis
francisco
franciszek
franciszka
franciszkano
franckh
franco
francojs
francojska
francojske
francojskego
francojskej
francojskeje
francojskeju
francojski
francojskich
francojsko
francojsku
francozar
frangula
frank
frankami
frankfurs
frankfurt
franki
franklin
frankobrod
frankobroda
frankobrodom
frankobroz
frankow
frankreich
frano
frantis
franz
franziska
franzo
fraser
frau
frauenkirche
fraxinus
fraze
frazy
fre
fred
freddie
frederic
frederick
free
freestyle
freibergu
freiburg
freie
freier
freiheit
freiherr
freilichtmuseum
frencel
french
frencl
frencla
frido
frieden
friedrich
friedricha
friesenfeld
friisk
fritz
frizis
friziska
friziske
friziskej
friziskeje
friziski
frizow
from
frombork
frons
front
frontu
fru
fruit
fruticosum
fry
fryca
fryco
fryderyk
frygi
frygow
frys
fu
fugiat
fuhne
fulgencio
full
fumaria
fun
funafuti
function
fung
funguje
funk
funkcija
funkcijami
funkcije
funkciju
funkcionalnosc
funkcionar
funkcionarka
funkcione
funktion
fur
fusuej
futrowan
futuna
futur
future
futuro
fußnote
fyzika
fyzikaliske
fyzikaliski
fyzikar
fyziki
fyziku
færøerne
føroyar
g
ga
gabriel
gabriela
gabun
gabunom
gaby
gach
gadaba
gadojty
gadowata
gadowate
gadowaty
gae
gaea
gainsbourg
gajs
gaju
gajuce
gajucy
gakowar
gakowy
gal
galaksija
galaksijow
galanthus
galeobdolon
galeria
galerie
galerija
gali
galicis
galilei
galileje
galileji
galileo
galis
galiske
galium
gallagher
gama
gambija
gametofytow
gan
gana
gancer
gandhi
ganja
ganjam
ganze
ganzen
gape
gar
garba
garbowadła
garci
gard
gardeners
gardens
garfield
garja
garna
garrison
garry
garten
gary
gas
gase
gat
gata
gatach
gate
gatojce
gatow
gaty
gauck
gauleiter
gaulle
gaus
gautama
gauteng
gauß
gawje
gawrile
gaz
gał
gała
gało
gałuz
gałuzach
gałuzow
gałuzowych
gałuzy
gb
gbe
gdan
gdansk
gdansku
gdinio
gdun
gdy
gdyni
gdynia
gdyz
gdzie
ge
geabios
gearbeitet
geba
gebhardt
gebiet
gebiete
gebildes
gebildet
gebraucht
geburt
geburtstag
gedacht
gedanke
geeignete
geelvink
geeta
gega
gegen
gegenseitig
gegenwart
geho
geisel
geisha
geishu
gel
geliski
gelnhausen
gema
gemeinwohl
gen
genannt
genau
genauer
gene
generacija
generacije
generaciji
generacijow
general
generalinspektor
generalitat
generalna
generalne
generalny
generation
genere
genetiskich
genf
genitiw
genitiwne
genitiwnu
genitiwom
gentiana
genus
genusa
genuse
genusu
genusy
geo
geobox
geocaches
geocaching
geocentriska
geodatow
geodetiska
geodetiske
geodeziji
geody
geoffrey
geograf
geografija
geografije
geografiska
geografiske
geografiskego
geografiskej
geografiskeje
geografiskeju
geografiskem
geografiski
geografiskich
geografiskim
geografisko
geografisku
geograph
geographical
geographike
geographische
geohack
geoid
geolokalizacija
geometrija
geometrije
geometriska
geometriske
geometriski
geometriskim
geor
georeferenzierte
georeferenzierten
georeferenzierung
georeferenzierungen
georg
georga
george
georgen
georges
georgia
georgian
georgis
georgiska
georgiskej
georgiskeje
georgiskeju
georgiski
geostationa
geowe
gepard
ger
gera
geral
gerald
geraniaceae
gerat
gerc
gerd
gerda
gerhard
german
germanen
germanica
germanischen
germaniska
germaniske
germaniskich
germanist
germanistika
germanistiku
germanizaciji
germany
germplasm
gernot
gerundet
gerundium
gesamte
geschichte
geschichten
geschrieben
geschu
gesellschaft
gesetzt
gespenst
gespra
gestapo
gesty
get
getdate
getfullyear
getmonth
getragen
getrennten
gets
gewa
gewo
gewu
gezicht
gg
ggf
gh
ghana
ghany
gheorghe
ghit
gi
giacoma
giacomo
giacosa
gianni
gibanja
gibanje
gibowan
gibraltar
gibraltarski
gibt
gibujo
gibuju
giering
gies
gif
giftfibel
giftstoffe
gigantea
giganteum
gilbert
gilberto
gillies
gilt
gineja
gineje
ginkgo
ginkgoaceae
giona
giorgio
giovanni
girl
girony
gis
gitara
gitarist
gitaristka
gitarje
giuseppa
giuseppe
given
giz
gjarnys
gje
gl
gla
glabra
glacialis
glad
gladhouse
glagolica
glandulosa
glasgow
glauca
glaucium
gle
glee
gleichzeitig
glej
glenn
gli
glich
glichen
glichkeiten
glicht
glinicka
glinicki
glinjane
glinjanych
glis
global
globus
gloria
gloro
glowny
glu
glucny
gluki
gluku
glutinosa
glykosidow
glykosidy
gm
gmach
gmbh
gmejna
gmejnami
gmejnje
gmejnow
gmejnska
gmejnske
gmejnskego
gmejnski
gmejnskim
gmejnskimi
gmejny
gmelinii
gmina
gminy
gms
gmt
gne
gniewkowo
gniezno
gnilawa
gnilawy
gniwa
gnjenje
gnjenju
gnjo
gnjone
gnome
gnu
gnujo
gnuli
gnus
gnuł
gnuła
gnuło
go
goan
goap
goapim
god
godfather
godine
godr
goes
goethe
goetheski
going
gojc
gojce
goju
gokowc
gokowcowe
gokowcowych
gola
gold
goldmann
goldsworthy
gole
goleniowie
golf
golfje
golfowc
goli
golte
golu
golub
gom
gon
gondi
gong
gonia
goniadz
goo
good
google
gora
gorams
gorce
gordion
gordon
gore
gori
gorie
goris
gorjejce
gory
gorzewo
gosieniecki
gospelowy
got
gotis
gotiski
gotland
gotowa
gott
gottfried
gotthard
gotthold
gottlieb
gottlob
gottwald
gould
gouvernements
gov
government
govorov
gow
gowa
gowan
gowane
gowar
gowe
gowo
gowu
gowy
goyellow
goz
goła
gołdap
gołe
gołkojc
gołkojcach
gołkojce
goły
gołych
gps
gr
gra
grabeel
grabican
grabina
grabo
grabowie
grabski
grace
gracilis
grad
graebn
graf
grafika
grafikar
grafiki
grafiske
grafiski
graham
grain
grait
grajar
grajarja
grajarje
grajarjow
grajarka
grajewo
grajkanis
grajne
grajny
grajnych
grajo
grajotej
graju
gramatika
gramatikar
gramatiki
gramatiku
gramatiska
gramatiske
gramatiskego
gramatiskej
gramatiski
gramatiskich
grammar
grammatica
grammatik
gramow
grana
granach
grand
grande
grandiflora
grandifolia
grandis
granica
granicami
granice
granicnem
granicny
granicow
granicował
granicu
granicujo
granicuju
granicy
granity
granjate
granje
grant
grany
grapefruit
gras
grass
grata
graubu
graveolens
graves
gray
graz
grał
grała
grało
gre
great
green
greene
greenwich
greenwicha
greenwichski
greenwichu
gregdatum
gregor
gregorian
gregorjaniskego
gregorjaniskej
gregorjaniskeje
gregorjaniskem
gregorjaniski
gregorjaniskim
gregory
greifswald
grenada
grenadiny
grenze
grenzen
gres
grib
gribow
griby
grich
grichis
grichiska
grichiske
grichiskego
grichiskej
grichiskeje
grichiskeju
grichiskem
grichiski
grichy
grid
gridcolor
griechische
griffiths
grigioni
grigori
grimma
grin
grischun
griseb
grjekski
gro
groba
grobla
groblach
grobli
grobowa
groch
grocha
grochowka
grochowkow
grod
groda
grodk
grodka
grodku
grodno
grodojski
grodom
grodowy
grodzka
grodzkie
gromadu
gromady
gromak
gromaz
gron
grona
gronauje
groni
gronili
gronis
gronił
groniła
groniło
gronje
gronjone
gronka
gronko
gronkow
gropne
gropnje
gropny
grosser
grosso
grossraeschen
grossularia
grossulariaceae
grossularioides
grosz
group
groz
groß
große
großenhain
großer
großes
großra
grs
gru
grudzia
grudziadz
grundsa
grunwald
grunwaldzka
grupy
gruyter
gruz
gry
gryfice
gryfino
gryphiusa
grys
gryzarje
grønland
gs
gsb
gt
gu
gua
guacurian
guadeloupe
guadelupa
guam
guara
guarani
guaranis
guaraniske
guaraniski
guaraniskich
guarayu
guata
guatemala
guayana
guayaquil
guba
gubaty
guben
gubin
gubina
gubka
gubkate
gubkatych
gubu
guby
gudz
gue
guerrero
guevara
gui
guide
guine
guinea
guineja
guineje
guineji
guinejiskem
guinejskeje
guineju
guinness
guipa
guive
gujo
guju
gule
gulka
gulland
gump
gun
gunckel
gurage
guru
gusc
gusle
guslowar
gusor
guss
gusta
gustafa
gustav
gustaw
guste
gustem
gusto
gustosc
gustota
gusty
gustych
gusło
gut
gutes
guts
gutshaus
guwerner
guy
guyana
guyanu
guylaine
guyo
gv
gwach
gwaranis
gwardia
gwe
gwje
gwo
gymnazialny
gymnaziastow
gymnazij
gymnazium
gymnaziuma
gymnaziumje
gyo
gysi
gyula
gł
gła
gładka
gładke
gładki
gładku
głaz
gło
głod
głoda
głodny
głodu
głog
głogowe
głomac
głomacanow
głomacany
głos
głosa
głose
głosow
głosowy
głowa
głowan
głowje
głowkach
głowkaty
głowki
głowna
głowne
głownego
głownej
głowneje
głowneju
głownem
głownemu
głownje
głownu
głowny
głownych
głownym
głowu
głowy
głuposc
gły
gəncə
h
ha
haab
haag
haar
haarmann
habari
habe
haben
habent
habib
habilite
habitus
habola
habrachc
hac
hacker
hadz
haeupler
hag
hagi
hagle
hague
hahn
haida
haifa
haiku
hait
haiti
hajduki
hajna
hajndrich
hajnec
hajno
hajnowka
hajo
hala
halbe
hali
haliaeetus
hall
halle
hallelujah
halliana
halo
hals
ham
hamas
hamburg
hamburga
hamburgu
hamilton
hamito
hammink
hampshire
han
hana
hanc
hand
handbook
handbuch
handelt
handle
handling
handlowe
handrekojc
handrij
handrija
handrik
handros
handschrift
handwo
hanelora
hanggre
hanka
hanki
hanks
hannelore
hannes
hannover
hannoverje
hannoverskem
hanns
hans
hansen
hanso
hansowe
hants
hanus
hany
hanzo
hap
har
hara
harald
harari
harc
hard
hardt
harfa
harlow
harmonija
harmonije
harmoniji
harmoniju
harold
harp
harrachov
harrassowitz
harring
harris
harrison
harry
hartmut
hartog
harz
has
hasan
haspelmath
hast
hasy
hat
hatszor
hauke
hauptfunktion
hauptmann
hauptstraße
haus
hauser
havas
have
havel
havelberg
hawaii
hawkins
hayata
haz
hałs
hcard
hdr
hdyz
hdz
he
head
header
heart
heath
heaven
heavy
hebb
hebe
hebei
hebrejs
hebrejski
hecker
hedberg
hedera
hederacea
hedysaroides
hedysarum
heesters
heft
heide
heidekrautbahn
heidelberg
heidrun
height
heiler
heilmann
heilmittel
heilongjiang
heilpflanzen
heimat
heine
heineken
heiner
heinersbru
heino
heinrich
heinricha
heinrichowa
heinz
hej
hejdus
heksadecimalny
hektar
hektary
hel
helarctos
heldreichii
helen
helena
helianthus
helix
hell
helleborus
heller
helmert
helmut
helmuta
help
helpim
helsinki
hem
hemisferje
hemisfery
hemsl
hen
hendrich
hendricha
hendrichecy
hendrix
hendrixa
hendry
hendrys
hengen
henning
henri
henry
henryi
henryk
henryka
hens
henschel
hepburn
heptaphylla
her
herat
herb
herba
herbert
herberta
herbst
hercegovina
hercegovine
hercegovini
hercegowina
hercegowinje
hercegowinska
hercegowinskej
hercegowinu
hercegowiny
here
heritage
herman
hermann
hermas
herodes
herodesa
herr
herrada
herrera
herrmann
herrn
herta
hertneck
herunterladen
herz
herzberg
herzegovina
herzen
herzog
hesaka
hessen
hesłom
het
hete
heterogena
heterophylla
heterotetiska
hetland
heute
hexe
hey
heye
hez
hg
hi
hia
hier
hierarchija
hierarchiji
hierarchiska
hieronim
hierro
higgins
high
highlight
hilda
hilfe
hilfsfunktionen
hilfsmittel
hilfsvorlagen
hill
hillary
hills
hilz
him
himalaja
himalajaska
himalaje
himmler
hina
hinc
hindi
hindis
hindiski
hinduizma
hinduizmje
hinfa
hintergrundfarbe
hinzugefu
hiphop
hippocastanum
hiragana
hiragany
hirche
hiri
hirimotuwa
hirsuta
his
hispaniola
hist
historia
historie
historija
historiji
historiju
historikar
historikarja
historikarje
historikarjow
historische
historisches
historiska
historiske
historiskego
historiskej
historiskem
historiski
historiskich
historiskim
historisko
history
historyczny
hit
hitchc
hitlera
hity
hitzacker
hjalmar
hjaltland
hl
hlavni
hle
hlej
hler
hling
hlt
hm
hme
hn
hnchen
hne
ho
hobej
hoblincy
hobn
hochkant
hochoza
hochozy
hochschulen
hochst
hochzeit
hodz
hof
hoffen
hoffm
hoffmann
hofmann
hofmannsthal
hoheitsgebiete
hohen
hokejistka
hokkaido
hola
holan
holanska
holcy
hole
hollandski
hols
holst
holstein
holsteinskeje
holy
home
hommage
homonymy
honduras
hondurasom
hong
hook
hooker
hopfengarten
hora
horicontalna
horicontalnje
horicontalnych
horicontom
horjanski
horneophyton
horneophytopsida
horni
hornja
hornje
hornjej
hornjoserbs
hornjoserbska
hornjoserbskeje
hornjoserbskich
hornjoserbsko
hornjołuz
hornsby
hornych
horor
horst
hort
hortensija
hory
hospital
host
hostname
hot
hotel
hotelu
hotzenplotz
house
houston
how
howac
howacej
howacne
howard
howtoedit
hoyerswerda
hoz
hołbik
hołtar
hr
hra
hrabal
hraj
hren
hrend
hrende
hrer
hrige
hrjehor
hrliche
hro
hrossey
hrsg
hrt
hrubieszo
hrung
hrungszeichen
hs
hsb
ht
htm
html
http
https
hu
hua
huang
huber
hubert
hubowa
huckauf
hudz
hugo
hul
human
humanist
humberto
humboldtowej
humor
humorist
humoru
humozne
humulus
humusowe
hunderstel
hundert
hungors
hungorska
hungorskego
hungorskej
hungorskeje
hungorskeju
hungorski
hupac
hus
husat
husle
hussein
hustetojc
hustetowa
husumje
hut
huta
huxley
hwe
hwsnajper
hy
hyams
hybrid
hybrida
hybridny
hybridowe
hybridum
hybridus
hybridy
hydrangea
hydratow
hymna
hymnu
hymny
hynac
hynacej
hynaks
hync
hynz
hypericum
hyphegesis
hypogaea
hys
hłowac
i
ia
iain
ian
iar
iba
ibe
iberiskej
iberiskeje
ibiza
ibliz
ibn
ibojski
ibor
ibrahim
ibrjog
ibrjoga
ibrjogom
ibrjogu
ibrjoze
ibrjozne
ibuti
ibytne
ic
ica
icach
icar
ice
icem
icenja
icenje
ich
icha
ichapa
ichego
ichem
ichod
ichoda
ichodne
ichodnem
ichodny
ichom
ichow
ichowa
ichoz
ichu
ichupe
ichupekue
ichy
ichym
icka
icke
ickosrbska
icnokwe
icnych
icon
icons
icowanje
icowany
icu
icy
icyn
icyna
icynki
icynow
icynu
icyny
icłonki
id
ida
idaea
idaj
idajo
idaju
idajucy
idali
idana
idane
idanim
idany
idar
idared
idas
idate
idatne
idatnje
idatnu
idatny
idatnych
idatnymi
idaty
idatym
idawa
idawaj
idawaju
idawas
idawk
idał
idealize
idealnego
idealnem
ideja
ideje
ideju
identifice
identiske
identiski
identitu
identity
idiot
idle
idno
ido
idrogowarjow
idu
iduce
iducych
idzi
idła
idłacow
idłate
idło
idłow
ie
iela
ies
ievan
if
iformowe
iformowych
ifre
ig
igle
ignacy
ignore
ignoriert
igo
igor
igora
igotował
igranjata
igłosowali
ihn
ihr
ihre
ihren
ihrer
ii
iii
iivonen
ij
ija
ijajaka
ijan
ijanam
ijanje
ijanow
ijany
ijas
ijaznje
ije
ijes
ijimas
ijo
iju
ijz
ik
ika
ikach
ikata
ikatu
ikaz
ikaze
ike
iki
ikinci
ikistan
ikistana
ikistanom
ikmz
ikokrajne
ikokrajny
ikokrajnych
ikom
ikomo
ikonje
ikow
ikowa
ikowanja
ikowna
ikowne
ikownego
ikownem
ikownu
ikowny
ikownych
ikownym
ikowy
ikowych
iks
iku
ikuaa
ikure
ikusk
ikład
ikłada
ikładach
ikładow
ikładowy
ikłady
ikłaz
il
ila
ilanz
ilapate
ilatiw
ile
ili
ilicbne
ilicyjo
iliescu
iljic
illica
illinois
illos
illustration
illyrier
illyriske
illyrow
ilm
ilustracija
ilustracije
ilustracijow
ilustraciju
ilustrator
ilustre
ilustrita
ilustrował
ilute
ilyrow
im
ima
image
imagemap
imageright
images
imagesize
imap
imboden
imdb
ime
imejo
img
imi
imix
imjejo
imjejotej
imjeju
imjes
imjeł
imjeła
imjony
imjowas
imjujucu
immer
imo
impatiens
imperatiw
imperatiwnu
imperfekt
imperium
imperiuma
imperiums
implementiert
implementierte
implosiwy
import
important
impresije
imujo
imuju
imy
in
ina
inach
inaktiv
inami
inan
inap
inaroz
inate
inaty
inauguracion
inc
incanum
ince
inci
incididunt
included
incorporation
incrassatum
increment
indagacions
indefinitny
independence
index
india
indian
indiana
indic
indica
indice
indigo
indik
indikatiw
indikujo
indira
indirekte
indirektnje
indirektny
indischer
indiska
indiskego
indiskej
indiskeje
indiskeju
indiskem
indiski
indiskich
indiskim
individuelle
individueller
indiwiduelnym
indo
indoarijske
indoeuropska
indoeuropske
indoeuropski
indoeuropskich
indoeuropskim
indoiran
indoneski
indoneziska
indoneziskeje
indoneziski
industrializacije
industrialnik
industrijowe
ine
ines
inesiw
inferred
infinitiw
inflorescence
info
infobox
infoboxen
infokas
informace
informacija
informacije
informacijow
informaciju
informaciske
informaciskego
informaciski
informatika
information
informe
infrastruktura
ingeborg
ingo
ingolf
ingolic
ingrid
inhalt
iniciatiwje
iniciator
inicie
initiale
inja
injasc
injasli
injaso
injasu
injasła
inje
injese
ink
inka
inkl
inklude
inklusive
inkluziwna
inkluziwnje
inkluziwnymi
inkorporaciji
inkow
inline
inmensa
inn
inne
innerhalb
ino
inos
inosk
inoski
inoskow
inow
inowa
inowe
inoweje
inowem
inown
inowroclaw
inowrocław
inowrocławski
inowu
inowy
inowych
inowymi
input
ins
insa
insait
insajs
insektow
insekty
inserttags
inside
inska
inske
inskego
inski
inskich
insku
inst
instalacija
instalacije
instale
instead
institucija
institucijami
institucije
institucijow
institus
institut
instituta
institute
institution
instituts
instrukcija
instrument
instrumenta
instrumental
instrumentalisty
instrumentalna
instrumentow
instrumenty
int
integer
integre
intendant
intensiwnego
intensiwnje
interaktiv
intermedia
intermezzo
intern
internacionalne
internacionalnego
internat
international
internationale
interne
internecy
internes
internet
internetowe
internetowej
internetowem
internetowy
internetowych
internetquelle
internetquellen
internje
interpretaciju
interprete
interpunkcija
interpunkciske
interview
intransitiver
introduction
inu
inun
inv
inwentar
inwentarje
iny
inyn
inz
io
ion
ioniskim
iony
ior
ip
ipa
ipad
ipadnje
ipe
ipicture
ipis
ipo
ipomoea
ipora
ipowe
ipoznas
ipołdnju
iprage
ips
ipsum
ipv
ir
ira
irak
irakom
iraku
iran
iranje
iranom
iraq
iraz
irdods
ire
ireland
irian
iris
irish
irkucku
irkutsk
irl
irmgard
iroda
irodna
irodne
irodnego
irodny
irodnych
irodnym
irodosle
irodowa
irodowe
irodu
irody
irogate
ironsi
irownaj
irownanje
irownanju
irownowanja
irownowanje
irownowanju
irownuj
iroz
irp
irs
irska
irske
irskej
irskeje
irskeju
irski
irskich
iru
iruc
irucka
irure
irwin
is
isa
isabel
isabela
isabell
isabelpe
isabelu
isamem
isbn
ische
ischen
ischi
isegas
iser
iserka
isi
iska
iske
iskeje
iski
iskich
isla
islam
islama
islamiska
islamiske
islamje
island
islands
islandska
islandskej
islandskeje
islandski
isle
isleapyear
isles
islound
isnumeric
iso
isolates
isow
isoweek
isoweekdate
isoweekday
isoyear
ispomnjen
ispomnjenja
ispomnjenje
ispomnjes
israel
israela
israelom
israelski
israelu
issa
issas
issn
isso
issos
issu
issue
ist
ista
istada
istadas
istajił
istajony
istanbul
istaw
istawa
istawom
istawowe
istawy
isti
istoc
istow
istup
istupa
istupił
istupny
istupujo
isty
iswo
isłowa
isłus
it
ita
itaju
italianar
itals
italska
italske
italskego
italskej
italskeje
italskeju
italski
italskim
italsku
itana
itane
itanka
itany
itanych
itarska
itas
itawa
ite
itej
itkowne
itne
ito
itoju
itom
itomnosc
itomnostne
itowar
its
ity
iu
iucn
ius
iuxta
iv
iva
ivan
ivano
ivica
ivo
iw
iwa
iwabjaju
iwach
iwadle
iwadz
iwadła
iwadło
iwadłow
iwadłowa
iwadłowe
iwadłownica
iwadłownik
iwadłowy
iwaj
iwanja
iwanje
iwanowic
iwarske
iwas
iwało
iwe
iwi
iwiski
iwisniki
iwisnikow
iwja
iwje
iwjenja
iwjone
iwjony
iwjowany
iwka
iwne
iwneju
iwnik
iwniki
iwnosc
iwny
iwo
iwobros
iwonicz
iwosc
iwostajenju
iwotnik
iwow
iwu
iwuzny
iwy
iwych
iwzeju
iwzeli
iwzes
iwzeł
iwzeła
ix
iy
iyor
iz
izamknjenje
izamknuł
izbica
izgledima
izgradnji
izm
izma
izna
iznami
iznamje
iznamjenja
iznamjenjach
iznamjenjoma
iznamjenjow
iznome
iznomira
iznow
iznu
izny
izole
izotop
izotopa
izotopy
izuk
izukowanego
izukowanje
izukowanych
izukujo
izwo
ił
iła
iławeckie
iłej
iłka
iłko
iło
iłuk
j
ja
jablonec
jablonne
jablonowo
jabłon
jabłonowo
jabłonowski
jabłuka
jabłukach
jabłuko
jabłukow
jabłukowa
jabłukowe
jabłukowy
jabłus
jac
jacek
jack
jacki
jackie
jackson
jacmjen
jacmjenja
jacmjenjowy
jacob
jacobs
jacq
jacques
jaden
jadenadwaz
jadna
jadnab
jadnaje
jadnak
jadnaka
jadnake
jadnakej
jadnakeje
jadnakich
jadnanja
jadnanje
jadnar
jadnasc
jadnasty
jadnało
jadne
jadnego
jadnej
jadneje
jadneju
jadnem
jadno
jadnobarwnje
jadnodomna
jadnodomny
jadnoformowe
jadnogo
jadnole
jadnom
jadnomyslny
jadnora
jadnore
jadnorego
jadnoremu
jadnorje
jadnorjejs
jadnorodne
jadnorosc
jadnoru
jadnory
jadnorych
jadnosemjenjowe
jadnosemjenjowy
jadnosemjenjowych
jadnota
jadnotka
jadnotki
jadnotkow
jadnotku
jadnotliwa
jadnotliwe
jadnotliwu
jadnotliwy
jadnotliwych
jadnotliwym
jadnotliwymi
jadnotne
jadnotnemu
jadnotnje
jadnotny
jadnotow
jadnotu
jadnoty
jadnozłoz
jadnu
jadnuc
jadnucke
jadnym
jadran
jadwigi
jagger
jagic
jagiellon
jagiełły
jagoda
jagodojte
jagodow
jagodowe
jagodowy
jagody
jaguar
jahn
jahr
jahrb
jahrbu
jahre
jahrhundert
jahrhunderts
jaikuaapa
jaja
jajko
jajkow
jajojs
jajojta
jajojte
jajojty
jajojtych
jajowate
jajowy
jak
jaki
jako
jakob
jakobusa
jakow
jakub
jakuba
jakubas
jakubicy
jakupi
jakuszyce
jama
jamach
jamaika
jamaikan
jamaiski
jambiski
james
jamesa
jamie
jamlitz
jamow
jamu
jamy
jan
jana
janak
janakim
janas
jancz
jane
janeiro
janet
janez
janhoefer
janikowo
janis
janka
jano
janom
janowa
janowka
janowy
jans
jantra
janu
januar
januara
januarje
januarom
janusz
jany
janz
jap
japan
japanese
japaniske
japanske
japonica
japonicum
japonicus
japu
jar
jara
jargon
jarobrod
jaroslav
jaroslaw
jarosław
jarskej
jas
jasen
jaskrawje
jasne
jasnej
jasnje
jasnjej
jasnjejs
jasno
jasny
jasnych
jason
jastarnia
jastrze
jatropa
jats
jatwings
java
javascript
javnost
jawi
jawis
jawitej
jawił
jawje
jaworzno
jay
jazor
jazora
jazorach
jazoraty
jazorina
jazoris
jazorje
jazoro
jazorom
jazorow
jazoru
jazory
jazyka
jazyky
jazz
jazzowa
jazzowy
jała
jałowjen
jba
jc
jca
jce
jcowe
jcowych
jcy
jcyna
jd
jdelsko
je
jean
jeden
jedes
jedina
jedna
jedła
jedłach
jeetzel
jeff
jeffrey
jego
jegły
jeho
jej
jeje
jeju
jekaterinburg
jelcin
jelenia
jelic
jelo
jem
jema
jemar
jemen
jemenom
jemjelica
jemjelicowych
jemu
jen
jena
jenc
jend
jendz
jenic
jenisej
jenja
jenje
jenju
jenka
jennifer
jeno
jenoz
jens
jensen
jenu
jenz
jeps
jeremy
jerjebina
jerjeł
jersey
jerske
jerusalem
jeruzalem
jeruzalema
jeruzalemje
jerzego
jerzy
jes
jessen
jessica
jest
jesu
jesuit
jesus
jetzt
jeweils
jewo
jez
jeziorany
jezioro
jezu
jezus
jezusa
jezusoju
jezusowe
jezusowem
jezusowy
jezusowych
jezusowymi
jeſus
jfalu
ji
jic
jich
jidis
jihlava
jilin
jill
jim
jima
jime
jimi
jimmy
jindr
jir
jis
jiti
jitro
jizerske
jka
jna
jne
jnego
jniki
jnje
jnow
jnske
jnskego
jnskeje
jnski
jnu
jny
jnych
jo
joachim
joan
joannapyka
joanne
job
jobarwnu
jobne
jobs
jochen
jodie
jodlowar
joe
joensuu
joformowa
joformowe
jogo
joh
johan
johann
johanna
johannes
johannesburg
johannis
johansson
john
johna
johnny
johnson
johnst
jole
joli
jolic
jom
jomu
jon
jonas
jonathan
jonava
jonavos
jones
jonna
jony
jopara
jopismikowy
joplin
jora
jordan
jordana
jordaniska
jordaniskeje
jordaniskeju
jordaniski
jore
jorge
jorodnikojske
jos
jose
josef
joseph
joshua
josip
josipa
josmuz
journal
journalist
jover
jow
jowali
jowan
jowanja
jowanjach
jowanje
jowanju
jowar
jował
joy
joyce
joyner
jozef
jozłoz
jp
jpeg
jpg
jr
js
jsach
jska
jske
jskej
jskeje
jskem
jski
jskich
jskim
jsko
jskow
jsku
jsow
jsy
ju
juan
juana
jubilej
judahej
judeje
judeo
judoka
jugendbuchpreis
jugendlexikon
juglans
juglon
jugosłowjan
juhowuchodna
jujo
jul
julgregdatum
juli
julia
julian
juliana
julianday
julij
julija
julije
julijom
juliju
julius
juliusz
july
jun
juncea
june
jung
junge
juni
junij
junija
juniju
juniperus
jupiter
jura
juraj
juri
jurij
jurija
juris
jurist
juristka
jurja
jurk
juro
jurom
jus
juss
just
justicna
justified
justify
justin
jutta
jutty
juu
juz
jva
jwoda
jwodina
jwodstwa
jwodstwje
jwodstwo
jwodstwow
jz
jł
k
ka
kabaretist
kabaretistka
kabinet
kabineta
kabpils
kabul
kach
kaczyn
kaczynskiego
kadencu
kadereit
kadun
kaempferi
kafej
kageneckia
kagera
kahle
kahveci
kaikai
kairo
kais
kaiser
kaiserowa
kaiseroweje
kaiwa
kaj
kajetan
kajkosc
kajmany
kak
kaka
kake
kakego
kakej
kakeju
kakem
kaki
kakich
kakosc
kakostnik
kaku
kala
kalaallit
kalawa
kaledz
kalendar
kalendarja
kalendarje
kalendarju
kalender
kalendera
kalendra
kaliforniju
kaliforniska
kaliforniskej
kaliforniskeje
kaliningrad
kaliningradski
kalkate
kalkowate
kalku
kallfell
kalmar
kalom
kalts
kalwaria
kam
kama
kamala
kamap
kamaut
kambodz
kamby
kamc
kame
kamen
kamenice
kamenz
kamerun
kamerunom
kami
kamien
kamienica
kamienice
kamieniczki
kamienna
kamjen
kamjenc
kamjenica
kamjenicy
kamjenja
kamjenjow
kamjentne
kamjentny
kamjentnych
kamnitz
kamus
kan
kana
kanada
kanadijar
kanadiska
kanadiskej
kanadiski
kanadu
kanady
kanal
kanala
kanariske
kanariskich
kanaz
kanclar
kanclarja
kanclarku
kandidat
kandidata
kandidaty
kandide
kanji
kank
kanka
kann
kannada
kannel
kannst
kannu
kansas
kantela
kantele
kanton
kantone
kantonesis
kantonje
kantor
kanu
kany
kap
kapan
kapałka
kapital
kapitalismus
kapitel
kapitelu
kapitulacije
kaplica
kapliczka
kapsla
kapsle
kapslowe
kapslowy
kapsne
kapsy
kar
kara
karac
karadz
kardamom
kardinal
karel
karels
karge
karibiske
karibiskego
karibiskem
kariera
karieru
karin
karje
karl
karla
karlo
karlowej
karlsruhe
karmen
karnataka
karnikel
karnikle
karol
karola
karolin
karoline
karpatach
karpele
karrenbauer
kars
karsava
karska
karski
karta
karte
karten
kartenansicht
kartenlevel
kartenressourcen
kartuze
kartuzy
karyopsa
kas
kasem
kaseta
kasper
kaspiske
kaspiskego
kaspiskem
kaspiskim
kassel
kastanija
kasze
kaszubski
kat
kata
katakana
katalan
katalanow
katalany
katalog
kataloniska
kataloniskej
kataloniskeje
katar
katarina
katarzyny
katastrofje
kate
katechizm
katedra
katedrala
kategorie
kategorija
kategorijam
kategorijami
kategorije
kategoriji
kategorijow
kategoriju
kategorize
kategorizowanje
kater
katerina
katharina
kathmandu
katholische
katim
katja
katol
katolicki
katoliki
katolska
katolskej
katolskeje
katolski
katolskich
katolsku
katowice
katrin
katu
katun
katy
katych
katyrna
katze
kauderwelsch
kaula
kaulfu
kaunas
kauno
kausativ
kauzatiw
kavaju
kavanaugh
kawkaz
kawkaza
kawkaziska
kawkaziske
kawkaziskich
kawkazom
kawkazu
kawsaciji
kawsatiwach
kawsatiwnu
kawsatiwnych
kay
kaz
kazachs
kazachski
kazachstan
kazachstana
kazachstanje
kazachstanom
kazan
kazał
kazimierz
kazimierza
kazn
kazni
kazniski
kaznjow
kazus
kazuse
kazusow
kał
kałac
kałobny
kałpjen
kb
kc
kde
ke
keating
kec
kego
keiko
kein
keine
keiner
keith
kej
keje
keju
kejz
kek
kelec
kellowa
kelly
keltiska
keltiske
keluch
kelucha
keluchowe
keluchowy
kelus
kelvin
kem
ken
kena
kenija
keniju
kennedy
kenneth
kenrick
kentucky
kenz
ker
kera
kerc
kere
kerk
kerki
kerkonos
kerkow
kernela
kerner
kernow
kerr
kerriodae
kersee
kerulen
ketlicojc
kevin
kew
key
keyboard
keyboarderka
keyword
kezbe
kezben
keł
kf
kg
kgb
kh
khabari
khan
khoisanskich
ki
kiado
kiau
kic
kich
kichac
kiel
kielce
kielu
kiersznowski
kiesinger
kiev
kightley
kij
kijas
kije
kijew
kijewska
kijiti
kijo
kilank
kili
kilin
kilomejtarjow
kilometer
kilometerje
kilometerow
kilometrach
kilometrow
kim
kin
kina
kind
kinder
kinderbuchpreis
king
kingdom
kino
kinski
kinspork
kinsporka
kipping
kirche
kirgiziska
kirgiziskeje
kiribati
kirkut
kirs
kirschke
kirski
kis
kisalina
kisalinje
kisalinu
kisaliny
kisangani
kisała
kisałe
kisałkojty
kisały
kisc
kislik
kislika
kiss
kit
kita
kitarska
kiti
kito
kitoto
kitts
kiu
kiwi
kiwuski
kiz
kjagelojta
kjaglojta
kjaglojty
kjarchob
kjarchobje
kjarcma
kjarliz
kjarmus
kk
kks
klada
kladogram
kladu
klammer
klammern
klarinetist
klasa
klasifikacija
klasikar
klasiska
klasiske
klasiskeje
klasisku
klasow
klasowy
klasowych
klasse
klasy
klasztor
klasztorny
klaus
klawdius
klawe
kle
klein
kleinbu
kleine
kleines
klemens
klement
klen
klepk
kleszczele
kli
klickate
kliem
kliemowa
klikn
klikni
kliknus
klima
klimatiski
kliment
klimowych
klimu
klimy
kliniki
klo
klon
kloncka
klos
kloster
klub
kluba
klucyk
kluge
kluzila
km
kmo
knautia
kne
knebel
knight
kniglicki
knigłach
knigłow
knigłownja
knigły
knigłys
knigływe
kniha
knihow
kniz
knochac
know
knowles
knyszyn
ko
koaktiv
koalicija
koalicije
koaliciju
koatlet
koatletka
kobjela
kobołk
kobołkowe
kobołkowych
kobuleti
koch
kochanowski
kochojc
kock
kocor
kod
koda
kodami
kode
kodierliste
kodierung
kodom
kodow
kodowanja
kodowu
kody
koehne
kogo
kohl
kohla
koivu
kojc
koji
kojs
kojte
kojty
koju
kok
koka
kokla
kokos
kokosowe
kokosowy
kokot
kokota
kokotowe
kokrik
kokulce
kol
kola
kolami
kolasach
kolb
kolc
kole
kolegiata
kolegium
kolejowa
kolejowe
kolejowy
koli
kolkwitz
kolnie
kolno
kolobrzeg
kolonialneje
kolonija
kolonije
koloniju
kolumbarium
kolumbiska
kolumbiskej
kolumbiskeje
kolumbiskeju
kolumbiski
kolumnist
koluszki
kom
koma
kombinacija
kombinacije
kombinacijow
kombinaciju
kombinationen
kombine
kombinierbar
komentar
komercielne
komety
komi
komijoweje
komikar
komisariski
komisija
komisije
komisijedolnoserbska
komisiji
komitej
komiteja
kommt
kommunismus
komorojski
komorow
komorowa
komorowje
komory
komowe
komparatiw
kompatibelnosc
kompaß
kompilacije
kompile
kompjuterowe
kompjuteroweje
kompleksna
kompleksne
kompleksnego
kompleksny
kompleksnych
kompletna
kompletne
kompletnje
komplikowana
komplikowane
kompone
komponens
komponenta
komponenty
komponist
komponista
komponistka
komponisty
kompositionen
kompotoju
kompozicija
kompozicijach
kompozicije
kompoziciji
kompoziciju
komu
komunist
komunistiska
komunistiskeje
komunistiskemu
komunistiski
komuz
komy
kon
konare
koncente
koncentraciskich
konceptach
konceptami
konceptom
koncert
koncerty
kondicional
konditionaler
konference
konferencu
konferency
konflikt
konflikta
konfliktam
konflikty
kong
kongeriget
kongeriket
kongo
kongoski
kongresa
kongruenca
koniec
konja
konjaca
konjugacija
konjugacije
konjugacijow
konjunkcije
konjunktiw
konkatedra
konkret
konkreta
konkretach
konkretne
konkurs
konomie
konrad
konrada
kons
konsekwentnje
konserwatiwny
konserwe
konsonans
konsonant
konsonanta
konsonantach
konsonantami
konsonantiskich
konsonantom
konsonantow
konsonantowe
konsonantowej
konsonanty
konstanta
konstantin
konstantna
konstantyno
konstitucionelna
konstitue
konstrue
konstrukcija
konstrukcijach
konstrukcije
konstrukter
konstytucji
konsul
kontakt
kontakta
kontakty
kontekst
konteksta
kontext
kontinens
kontinent
kontinenta
kontinentalne
kontinente
kontinentowu
kontinenty
kontrola
kontrole
kontrolu
kontrowersne
konungariket
konwencija
konwencije
konwencijowe
konwerb
konwerbowa
konwerby
koob
kooli
koor
koordinata
koordinatach
koordinatami
koordinate
koordinaten
koordinatensysteme
koordinatentypen
koordinatenvorlage
koordinatow
koordinatowe
koordinatowy
koordinatowych
koordinatu
koordinaty
koordine
koos
kopackaty
kopackosadowe
kopackosadowych
kopan
kopanski
kopar
kope
kopenhagen
kopenhagenje
kopernika
kopf
kopica
kopicach
kopicu
kopieren
kopiervorlage
kopjenje
kops
koptische
koptiskeje
koptiski
kopts
kopty
kopula
kor
korc
korea
korean
koreja
korejan
koreji
koreju
korektne
korektnje
korige
korjen
korjenjach
korjenjami
korjenje
korjenjow
korjenju
korla
korle
korn
kornis
korniska
koro
korona
koronawirusa
koronowo
korporacija
korpsa
korsika
korsze
kort
korutan
kos
kosc
kosciol
kosinusom
kosmologija
kosmonawtiku
kosmos
koso
kosovo
kosowa
kosowar
kosowo
kosta
kostel
kostelic
kostimy
kostki
kostola
kostu
kosyk
koszalin
koszewski
kot
kotara
kotaraz
kotare
kotarejz
kotarez
kotary
kotarych
kotarychz
kotarymi
kotaryz
kotraz
kotrez
kotwicz
kotworis
kov
kova
kovu
kow
kowa
kowal
kowalewo
kowan
kowane
kowanja
kowanje
kowano
kowar
kowarjowa
kował
kowe
kowego
kowej
koweje
kowicz
kowje
kowk
kowne
kownym
kowu
kowy
kowych
kowym
kowymi
koz
kozłowski
koła
koło
kołobe
kołobrzeg
kołowokoło
kołus
kp
kpa
kpd
kr
kra
krabat
krabata
kradu
kraft
kragaty
kraj
kraja
krajach
krajami
kraje
krajina
krajinowa
krajinowe
krajinowy
krajinu
krajiny
krajna
krajne
krajnego
krajnej
krajneje
krajnem
krajnemu
krajnu
krajny
krajnych
krajnym
krajoju
krajom
krajow
krajowej
krajowu
krajowy
kraju
krako
krakow
krakowa
krakowie
krakowje
krakowska
krakowski
krakowskie
kral
krala
kralejstwo
kralestwo
kralojska
kralojskeje
kralojsku
kralojstwa
kralojstwje
kralojstwo
kralojstwu
kralom
kralow
kralowa
kralowka
kralowki
kralowna
kralozwe
kramatorsk
kramp
kras
krasicki
krasnobro
krasnojarsk
krasnosmykar
krasnovia
krasnystaw
kraszewskego
kraszewski
kraus
krausch
krause
krawc
krawcec
krawcojc
krawcyka
krawnik
krawz
krc
kre
kreatiwny
kreditni
kreditnog
kree
kreise
kreises
krejs
krejz
krejza
krejzach
krejzam
krejze
krejzom
krejzoma
krejzow
krejzowu
krejzu
kremer
kreolska
kreolske
kreslar
kreslenje
kreslenju
kresse
kreta
krick
kricka
krickach
krickami
krickaty
krida
krifka
krim
kriminalny
krischer
kristus
kristusa
kristusom
kristusowy
kristusu
kriterien
kritika
kritikar
kritiki
kritiska
kritiski
kritiskim
kritize
krivos
kriza
krizy
krjasa
krjen
krjok
krk
kro
krob
kroba
krodawa
krodo
krokodil
krona
kronje
kronowa
kronowe
kronowej
kronowych
kronu
krony
kros
krosno
krotka
krotke
krotkego
krotkej
krotkem
krotki
krotkich
krotkim
krotko
krotkopo
krotkopowe
krotkosc
krotkowjacorna
krotkowjacorne
krotkowjacornego
krotkowjacornej
krotkowjacorneje
krotkowjacornem
krotkowjacorny
krotkozajts
krotku
kroton
krots
krowa
kru
krug
kruhojte
kruhu
krus
krustpils
kruszwica
kruz
krydła
krygar
krymski
krynica
krynki
kryptomerija
krzeszowice
krzysztof
krzyz
ks
kschenka
ksia
ksie
kto
ku
kuaa
kuala
kuangsi
kuba
kuban
kubas
kubicki
kubiski
kublerski
kubrick
kubs
kubłan
kubłane
kubłanja
kubłanje
kubłanju
kubłarki
kubło
kuc
kuchar
kuchni
kuckau
kuda
kue
kuipers
kuj
kujawska
kujawski
kujawskim
kujawsko
kujo
kuju
kukel
kukol
kukow
kukowje
kukulska
kula
kulaus
kulawata
kule
kulejowa
kuli
kulis
kulka
kulkami
kulki
kulkow
kulkowa
kulkowe
kulkoweje
kulkowy
kulkowych
kulojta
kulojte
kulojtu
kulojty
kulojtych
kulow
kulowa
kulowas
kulowata
kulowate
kulowaty
kulowatych
kulowem
kulowje
kulrabij
kultiwe
kultur
kultura
kulturach
kulturelne
kulturelny
kulturelnych
kulturje
kulturna
kulturne
kulturnego
kulturnej
kulturneje
kulturnem
kulturnik
kulturnu
kulturny
kulturnych
kulturnym
kulturowe
kulturu
kultury
kulu
kums
kung
kuniny
kunst
kunsthalle
kunth
kuntze
kunze
kupa
kupach
kupam
kupami
kupce
kupił
kupje
kupjele
kupjom
kupka
kupkach
kupkam
kupkami
kupki
kupkoma
kupkow
kupkowu
kupku
kupna
kupnem
kupny
kupoma
kupow
kupowa
kupował
kupowu
kupowy
kupu
kupujo
kupy
kura
kurbjuhn
kurdiska
kurdistan
kurds
kuri
kurijowy
kurjawa
kurjo
kurmandz
kuro
kuron
kurs
kursa
kurse
kursiv
kursk
kursowy
kursu
kurt
kurupt
kurux
kurwjerch
kurwjerchska
kurymo
kurze
kurzversion
kus
kusa
kusam
kusał
kusk
kuss
kusunda
kut
kuta
kutaisi
kute
kutno
kutoju
kutow
kutowej
kuts
kuty
kutya
kuwait
kuz
kve
kw
kwadrat
kwadratiske
kwadratiski
kwadratnem
kwadratny
kwadratnych
kwadratowych
kwantitatiwnej
kwartes
kwartet
kwarteta
kwas
kwazulu
kwe
kwicojc
kwidzyn
kwis
kwitarje
kwitarjow
kwitu
kwitula
ky
kylie
kypc
kypchak
kyra
kyriliskego
kyriliski
kz
kłajpeda
kłodawa
kłos
kłosa
kłosach
kłose
kłosk
kłoski
kłud
l
la
labe
label
labem
labkraut
labore
laboris
laborje
laborum
laburnum
lac
lach
laciniata
lacki
lacus
laden
ladinskore
ladislav
lady
ladyland
laevis
lag
lage
lagewunsch
lago
lagrowy
laiferova
laik
laird
lajnert
lak
lake
lakes
laki
lakow
lam
lamarr
lambda
lambert
lamele
lami
lamiaceae
lamium
lammert
lan
lancetne
lancetojte
land
landecho
landesarchivs
landeskoordinaten
landesmuseen
landi
landkreis
landmark
landrieu
landtag
lang
langa
lange
langer
langom
language
languages
languagesgulper
langue
langues
langversion
lanka
lanska
lanulosa
lany
lanz
lanzyna
laos
lapami
lapata
lapate
lapatej
lape
lapite
laplandska
laplandski
lapow
lappland
lapska
lapy
lar
large
larik
larika
larix
larka
larry
lars
larwy
las
lask
laska
laso
lasowar
lasowarjow
lasowas
lass
lasse
lassen
last
lat
latarnia
late
latgals
latifolia
latifolium
latin
latitude
latk
latreille
lattke
latvia
latvijas
laty
lauchhammer
laura
laurent
lausanne
lausitz
lausitzer
laut
lavandula
lavigne
lavrov
law
lawa
lawica
lawrence
laxum
lay
layer
laz
lazar
lazarus
lazyn
lb
lba
lbach
lbne
lbow
lbu
lby
lc
lccn
lcy
ld
ldchen
lder
le
leaf
leap
leben
lebens
lebensbaum
lebt
lech
lecha
lechiske
lecia
lecy
ledeb
lee
leer
leeren
leerzeichen
leeskow
left
legenda
legendy
legislaturnej
legnica
legt
lehmann
lehrbuch
leibniz
leicht
leigh
leine
leinwand
leipner
leipzig
leipziger
lej
leja
leje
lejka
lejkaty
lejkojs
lejkojte
lejkowa
lejnik
lejno
lejow
lejowa
lejowe
leju
leko
leksika
leksiki
leksikon
leksiku
lektor
lektorka
lektorom
leluja
lem
lema
lemata
lemberk
lemberka
lemma
len
lena
lengua
lenim
lenin
leniski
lenja
lenje
lenjowy
lenju
lenka
lennon
lens
lenske
lenski
lentini
leny
lenz
leo
leon
leonard
leonarda
leonardo
leone
leonid
leonora
leopard
leopardus
leopold
lepidium
leptinotarsa
lepus
ler
les
lesa
lescaut
lesch
leser
leska
leskien
lesko
leso
lesotho
lesow
lesser
lessing
leswig
leswiga
leswigu
leszczyn
leszek
let
letis
letiska
letiskej
letiskeje
letiskeju
letiski
letter
letterman
letzlinger
letzte
letzten
leuchte
leucocephalus
leutheusser
leutnant
level
lew
lewanje
lewanki
lewiecka
lewis
lewkoja
lexikon
leyen
lez
lezajsk
li
lia
liaoning
libani
libanon
libanonje
liberal
liberec
libereca
liberecu
liberia
liberija
liberije
liberiu
libes
libier
libo
libor
libora
libotka
library
libreoffice
libretistach
libreville
libro
libs
libyska
libyskeje
libyskeju
lic
lica
licba
licbje
licbne
licbnik
licbniki
licbnikow
licbny
licbow
licbu
licby
lice
licen
licenca
licencu
licenim
licenja
licenje
licenju
liceum
licha
liche
licho
lichota
lichotna
lichotne
lichotnego
lichotnej
lichotnje
lichotnu
lichotny
lichotnych
lichotu
lichoty
licht
lichy
lichych
lichymi
lico
licone
licy
licymy
licys
lida
lidzbark
liebe
lieben
liebenwerda
lieberose
liebknecht
liechtenstein
liechtensteinska
liegen
liegende
liegt
lietuvos
life
liffey
lift
liga
ligi
ligurske
lihova
lijepa
liju
like
liklik
lil
lila
lili
lilongwe
lima
limba
limes
limeta
limon
limpopo
lin
lincoln
lindbergh
lindemann
linden
lindl
lindleya
lindsay
line
linealiske
linealne
linegrey
lingua
linguist
linguistic
linguistiche
linguistiskich
linija
linijami
linije
liniji
linijow
liniju
linja
linje
link
linka
linke
linked
linkerhand
linki
links
linnaea
linnaeus
linne
linnean
linsa
linsmayer
linus
linux
linuxa
linz
lipa
lipje
lipnica
lipno
lipowa
lips
lipsc
lipsk
lipska
lipsku
lipten
lipy
lis
lisa
lisabon
lisboa
lisc
lischewsky
lissabon
list
lista
listom
listopada
listopadowa
listowa
listowane
listowanim
listowanje
listowe
listowych
lists
listujo
listy
lit
litaws
litawska
litawske
litawskego
litawskej
litawskeje
litawskeju
litawski
litawsko
literarna
literarne
literarnego
literarny
literarnych
literarnym
literat
literatur
literatura
literature
literaturje
literaturny
literaturu
literatury
lithocarpus
lithuania
lithuanian
litikar
litimapim
little
liturgiska
liu
live
livedoor
liverpool
livio
liwis
liza
liznja
lizzy
lił
liła
liło
ljauchu
ljauci
ljuba
ljubljana
lk
lka
lkel
lker
lki
lkow
lkowinach
lku
ll
lle
llegenda
llen
llengua
ller
llibres
llig
lln
lloyd
llt
llte
llten
lmao
lmusec
ln
lna
lnd
lne
lnego
lnej
lnem
lni
lnica
lnicu
lnik
lnikam
lniki
lnikow
lnje
lnlu
lnokształca
lnski
lnskich
lnu
lny
lnych
lnym
lnymi
lo
lobez
loc
locali
location
locator
locmap
lod
lodarja
lodka
lodki
lodni
lodohokejist
lodowane
lodowany
lodowanymi
lodowe
lodz
logikar
logiski
logo
loire
loituma
lojban
loje
loju
lok
lokal
lokale
lokalizacija
lokalizacije
lokalize
lokalna
lokalne
lokalnu
lokalny
lokalnych
lokatiw
lokatiwne
lol
lola
lom
lomir
lon
lona
london
londona
londonje
lone
long
longifolia
longipetiolata
longitude
lony
lonych
look
loose
lopez
lora
lord
lordi
lorem
lorenc
lorentz
lorenz
los
losice
lotar
lothar
lothringska
lotowe
lotowego
lotowy
lotowym
lotu
lou
lougheed
louis
louise
louisiana
lour
love
lovelock
low
lowali
lowan
lowanje
lowas
lował
lowe
lowej
lower
lowry
lowy
lowych
lp
lr
ls
lsc
lsd
lska
lske
lskego
lskej
lskeje
lskeju
lskem
lski
lskich
lskim
lsko
lsku
lt
ltu
lu
lua
luanda
lub
lubaczo
luban
lubarto
lubawa
lubawskie
lubelska
lubelski
lubelskie
lubelskim
lubien
lubij
lubija
lubin
lubina
lubinje
lubinom
lubjej
lubka
lublin
lubnjow
lubnjowa
lubnjowje
lubochow
lubolce
lubolz
luboraz
lubos
lubosc
lubowas
lubował
lubowo
lubraniec
lubsko
lubujo
lubujom
lubujomy
lubujos
lubuju
lubus
lubuskem
luc
lucas
lucca
lucia
lucida
lucidum
lucija
luck
luckau
lud
luda
ludach
ludlicenja
ludlicenje
ludlicenju
ludmila
ludnosc
ludo
ludoju
ludom
ludospyt
ludovico
ludow
ludowa
ludowe
ludowego
ludowej
ludoweje
ludowem
ludowu
ludowy
ludowych
ludowym
ludu
ludwig
ludwigshafen
ludwigslust
ludwik
ludy
ludza
ludzi
lug
lui
luigi
luis
lujo
luju
lujuce
lujucych
luka
lukas
lukautim
lukim
lukin
luknov
lukow
luksemburga
lumbini
lumpur
lunk
lupa
lus
lusatia
lusern
lustig
lutea
lutego
lutera
luther
luthera
lutherske
lutherstadt
lutki
lutnym
lutz
luwis
luxemburg
luxemburgska
luxemburgskeju
luxemburgski
luz
lv
lva
lwo
lxx
ly
lyallii
lycalopex
lycopersicum
lydnevi
lyks
lynx
lyrice
lyrika
lyrikar
lyrikarja
lyriki
lyriku
lyriski
lysimachia
lze
lı
lənkəran
m
ma
mac
machac
machen
macht
maciej
macieja
mack
maclise
macro
macrocarpa
macrocarpon
macrophylla
maculatum
madagaskar
madagaskara
madagaskarje
madama
madame
madaus
made
madeleine
madge
madjaprades
madlena
madlenu
madonna
madrid
maemo
maera
magacin
magacina
magath
magc
magdalena
magdaleny
magdeburg
magdeburga
magdeburger
magdeburgska
magee
magic
magna
maguire
magyar
maharas
mahatma
mahr
mail
mailand
main
maine
mainland
mainom
mainz
maire
maj
maja
maje
majerova
majka
majle
major
majs
majski
maju
majus
mak
maka
make
makeba
makedon
makeevka
makes
makino
makowe
makowych
makronom
maks
maksimalna
maksimalnje
maksimalnu
maksimalny
mal
malawi
malawija
malawijom
malayanus
malaysia
malayzija
malayzije
malayziski
malbork
malczewski
malden
male
malediwy
malerei
males
malhac
mali
maliarjow
malija
malijom
maliju
malin
malina
malinje
malink
malinke
malinkowa
malis
maliskego
maliski
maliszewska
mall
mallorca
malmo
maloideae
malsnje
malsny
malt
malta
malteziske
malu
malus
malva
malz
mam
mama
mamina
maminej
maminore
maminu
mamo
mamogua
mamutowy
mamy
man
mana
manager
manchester
manchmal
manchu
mandela
mandir
mandla
mandle
mandlowe
mandlowy
mandschu
mandshurica
mandz
manfred
manfreda
manfredom
mango
manguean
manihot
maniok
maniokowu
mann
manna
mannheim
manning
manon
mans
mansardowe
mansfelder
manuel
manuskript
many
manz
manzarek
map
mapa
mapach
mapfan
mapion
mapje
maplandia
maplevel
mapper
maps
mapsite
mapsize
mapuche
mapy
mar
maranha
marcel
marcela
marcia
marcin
marcina
marco
marcos
marcus
mare
mareike
marek
margarete
margarita
margherita
margin
margita
margot
marguerite
marhata
marhold
mari
maria
mariacki
marian
marie
mariele
marieluise
marii
marija
marije
marijina
marina
marineris
marinko
marino
mariny
mario
marion
maritima
maritimum
maritimus
marja
marjana
marjany
marje
marjorie
mark
marka
marke
marker
market
markgroba
marki
marko
markojski
markow
markowca
markt
marktplatz
marktype
markup
markus
marlene
marley
marmeladu
marneuli
marokka
marokko
marokku
marron
mars
marseillaise
marseille
marshall
marshallowe
marsu
mart
marti
martin
martina
martinique
martino
martius
martrar
martu
marx
marxa
marxismus
mary
maryi
maryland
marła
marłe
mas
masa
masis
maskulinum
masowy
massachusetts
massimo
masters
mastrogiovanni
masu
masy
mat
mata
matej
mateja
matejki
matejko
mateju
matematice
matematika
matematikar
matematiki
matematiska
matematiske
mater
material
materiala
materialien
materialije
materials
materija
materije
maternal
mathias
mati
matica
matki
mato
matoto
matsui
matt
matthew
matthias
matthiola
matus
matute
mauretan
maurice
mauritius
maus
mawe
max
maxi
maxim
maxima
maximal
maximalen
maximilian
maxwell
may
maya
mayan
mayen
mayer
mayotte
mayr
mays
maz
mazowiecka
mazowiecki
mazowieckie
mazowske
mazowskej
mazowskeju
mazowskem
mazurskej
mazurskem
mazurskie
mazz
maß
mała
małe
małego
małej
małeje
małem
małka
małke
małkego
małkej
małki
małkich
małkimi
małko
małksa
małku
mało
małokalkate
małokwis
małopismikami
małopo
małorostna
mału
małuc
mały
małych
małym
małymi
mb
mba
mbarakaja
mbo
mbohapy
mbota
mbovy
mbu
mby
mbya
mbyte
mc
mccartney
mckinley
mclaughlin
mcova
mcvaugh
md
mdr
me
mean
mebla
meblow
mec
mecen
mecham
mechaniki
mechow
mechy
mecklenburg
mecklenburgska
mecklenburgskeje
med
meda
medaljon
medaljony
medellin
media
mediatiwnu
mediawiki
medica
medicina
medicinar
medicinski
medicinu
medija
medijach
medije
meditacija
medium
meego
meginlant
megisera
mehr
mehrere
mehreren
mehrfach
mehrja
meikle
mein
meine
meje
mejlkach
mejstar
mejstarja
mejstarstwa
mejstarstwo
melanchthon
melanesian
melanie
melanoleuca
melcher
melchior
meli
melilla
melo
melursus
member
memorial
memory
men
mendelssohn
mendoza
mene
menschen
mensual
mer
mercator
mercury
meredith
meri
meridian
meridiana
meridianen
meridianje
meridianoju
meridianom
meridianoma
meridianow
meridianowa
meridianoweje
meridianoweju
meridiany
merkel
merkmale
merr
merseburg
merula
merz
merzdorf
mes
mesic
mespilus
messa
message
messages
messian
messias
messiasa
mesz
met
meta
metadatow
metadaty
metaforiski
metal
metalami
metale
metalowe
metaloweje
meteorologija
meteorologiski
meter
metern
metoda
metodami
metodow
metody
metra
metrach
metropola
metrow
metrowa
metrum
metry
metsa
metzenmacher
metzler
mexicana
mexico
mexika
mexikan
mexiko
mexikom
mexiski
mey
meyer
meyers
mez
mezokarp
mezzosopran
mf
mg
mgonjwa
mhnt
mi
miai
miasta
miasto
mic
mica
mich
michael
michaela
michail
michalk
michalowo
michał
michała
michałk
michałowo
michel
michele
michigan
michx
mick
mickach
micki
mickiewicz
mickiewicza
micrantha
micranthum
microcarpa
microcarpum
microsoft
middle
midt
mie
mieczysława
miejska
miejski
miejskie
mies
mieszko
miguel
mihalic
mika
mike
mikesch
mikolajki
mikołaj
mikołaja
mikołajki
mikro
mikroformat
mikroformatom
mikroformatowych
mikroformaty
mikroneziska
mikroorganizmy
mikule
mikuli
mikławs
mil
mila
milan
milbradt
milbradta
milcanow
milcany
mildenberger
mile
milena
milenka
miley
miliardow
miliardy
miliduch
milien
milii
milimetrow
milinarnja
milinow
milinu
milion
miliona
milionami
milionow
milionowe
miliony
military
mill
millefolium
millennium
miller
millowitsch
milos
milwaukee
mime
mimi
mimo
mimon
min
mina
minasowicz
mind
minderheitensprachen
mineralne
mineralnych
ming
mingazov
mingəc
minh
mini
miniatur
minim
minima
minimalne
minimum
minimus
ministar
ministarski
ministarstwa
ministerpra
minjo
minnesota
minogue
minor
minoranze
minsk
minu
minus
minuta
minutach
minute
minuten
minutow
minutu
minuty
miny
mio
mipela
miq
miquelon
mir
mirabela
mirabele
miranda
miresmaeili
miriam
mirren
mirtschin
mis
mischen
misionar
miss
mission
mississippi
missouri
mit
mita
mitas
mitch
miti
mitte
mittel
mittelalter
mittelalters
mitteleuropa
mitteleuropas
mittermayer
mitupela
miła
miłoraz
miłos
miłosierdzia
miłych
miłym
miłymi
mj
mjadwjez
mjasec
mjaseca
mjasecach
mjasece
mjasecne
mjasecnego
mjasecnik
mjasecnych
mjasecoju
mjasecom
mjasecow
mjasecu
mjasecy
mjatelow
mjaz
mjazsobne
mjazsobnje
mjaztym
mjazy
mjazynadpis
mjazynarodna
mjazynarodne
mjazynarodnego
mjazynarodnej
mjazynarodneje
mjazynarodnje
mjazynarodnu
mjazynarodny
mjazynarodnych
mjazyps
mjazysłowjan
mjedwjedjew
mjel
mjele
mjelow
mjen
mjena
mjenach
mjeni
mjenim
mjenja
mjenjach
mjenjami
mjenje
mjenjej
mjenjom
mjenjow
mjenjowana
mjenjowane
mjenjowanej
mjenjowaneju
mjenjowanem
mjenjowany
mjenjowanych
mjenjowanym
mjenjowas
mjenjował
mjenjowe
mjenjowego
mjenjoweje
mjenjowem
mjenjowy
mjenjowym
mjenju
mjenjujo
mjenjuju
mjeno
mjenow
mjers
mjertyn
mjertyna
mjetar
mjez
mjezybor
mjod
mk
mkate
mkd
ml
mlac
mlinc
mln
mlocnokisalinowe
mloka
mloko
mlokom
mm
mmel
mn
mnich
mnicha
mnichojski
mnichojstwo
mnichy
mnjo
mnla
mnogolicbne
mnogota
mnouchkine
mo
moa
mobile
mobilne
moc
mocne
mocow
mocy
mod
modal
modalne
modalnemu
mode
model
modele
modelow
modelu
moderator
moderatorka
modern
moderna
moderne
modernego
modernej
moderneje
modernem
modernen
moderner
modernize
modernu
moderny
modernych
modi
modibo
modifice
modl
modliborzyce
modre
modul
modula
module
modulo
modulom
modulow
modus
modusa
modusowe
modusu
mody
moench
mogu
moguc
moha
mohammad
mohammed
mohan
mohana
mohanom
mohn
moi
moira
moj
moja
moje
mojich
mojo
mok
moks
moku
mol
molar
molarja
moldawska
moldawskej
moldawskeju
moldova
molecular
molekul
molekula
molekularbiologiskich
molekulargenetiskich
molekule
molekulow
moler
molina
moll
moller
mollerus
mollissima
mollit
molo
mombyry
momens
momsen
mon
monaco
monacoski
monako
monarchija
monastery
monat
monde
mondo
mongole
mongolow
mongols
mongolska
mongolske
mongolskej
mongolskeje
mongolski
monica
monika
moniuszko
monmouth
mono
monobook
monofyletiski
monogr
monotypiski
monsi
monsterman
monsuna
mont
montana
montanum
montanus
monte
montenegro
montevideo
month
monthdays
montserrat
montsoreau
monument
moo
moody
moore
moraczewski
moralnych
morawa
morawje
morawska
morawu
morawy
mordar
mordarje
mordarstwo
mordy
more
moreno
moretti
morfem
morfema
morfemy
morfologija
morfologije
morfologiji
morfologiske
morfologiskich
morgan
moric
moris
moritz
morjo
morju
morling
morne
morphologie
morrison
morska
morsztyn
mortwa
morus
mory
mos
mosambik
mosambika
mosambikom
mosambikskej
moschata
moser
moskewske
moskowski
moskwa
moskwje
moskwy
mosovce
mosshart
most
mostami
motacilla
mother
moto
motu
mount
mountain
mountains
mouton
moz
mozart
mozilla
mp
mr
mra
mre
mro
mrocniki
mroja
mroje
mrojow
mrokami
mrokawa
mroz
mroza
mrozoju
ms
msafari
msd
msk
mska
mske
mskej
mski
msko
mt
mti
mtoto
mtv
mu
muc
mucha
muchoradło
muchow
mucka
mucke
mudrineje
mudry
muell
muelle
muer
mugo
muhammad
muiz
muka
muki
mukowem
muku
mukwar
mulde
mulowka
multi
multiflorum
multus
mumbai
mundart
mur
mura
murb
murdin
murja
murjar
murje
murjow
muro
murphy
mury
mus
musa
musali
musał
musała
musałej
musało
muse
museo
museum
musi
musiat
music
musikgeschichte
muska
muskau
muske
muskece
muskego
muski
muskich
muskogean
muslimiskej
muslimy
muss
mustafa
mustang
muster
mustrje
mustry
mustwa
mustwje
mustwo
mustwom
mustwow
musy
musyli
musym
musys
musytej
mutageneza
mute
mutne
mutwjach
mutwje
mutwjetych
muz
muza
muzej
muzeja
muzejow
muzejownik
muzeju
muzeum
muzeuma
muzice
muzika
muzikaliske
muzikar
muzikarja
muzikarje
muzikarjow
muzikarka
muziki
muzikolog
muzikowa
muzikowe
muzikowy
muzikowych
muziku
muzyczna
mw
mwafrika
my
myanmar
mykawki
myo
myosotis
myrsinoideae
myrsinowe
myrsinowych
myrtillus
mys
myslach
mysle
myslenje
mysli
myslili
myslim
myslis
myslona
myslone
myslony
myslow
myslu
myta
mythiske
mytiska
myto
mytologija
mz
mzw
mło
młoda
młode
młodego
młodosc
młodostne
młodostnych
młods
młody
młodych
młoge
młogi
młogich
młogolicbne
młogosc
młoholicbne
młos
młoz
młyn
młynje
młynk
młynkowa
n
na
nabe
nabo
naborowski
naboz
nabrunje
nac
nacerjenim
nacerjenja
nacerjenje
nacerwjenje
nach
nachfolgende
nachgeholt
nachschlagen
nacht
nachylnje
nacije
nacijow
nacional
nacionalny
nacionalsocialistiskego
nacionalsocialistow
nacionalsocialisty
nacionalsocializma
nacionalsocializmoju
nacl
nad
nadawk
nadawki
nadejs
nadejz
nadir
nadpad
nadpadne
nadpadnje
nadpis
nadpisa
nadpisma
nadpisowy
nadpo
nadra
nadre
nadregionalnje
nadroznych
nadu
nadłujke
nae
naga
nagasakem
nage
nagel
nagelowa
nagi
nagich
nagle
naglowa
nagora
nagras
nagrał
nagromadu
nagromaz
nagrono
nagłe
nahuatl
nai
naiki
naj
naje
najs
nak
nakai
nako
nakon
nakoteve
nakrajne
nakrajny
naks
nakład
nakłada
nakładnik
nakładnistwa
nakładnistwje
nakładnistwo
nakładujo
nakłonjach
nakłonjenim
nalchenowych
nale
nalicenim
nalij
nam
namaka
namakaj
namakajo
namakajomy
namakaju
namakali
namakana
namakane
namakanki
namakany
namakas
namakatej
namakał
namakała
nambiquaran
name
named
namen
namenkunde
names
namespace
namespaces
namgard
nami
namibia
namibija
namibiju
namo
namocow
nams
nan
nana
nanejmjenjej
nanordhoff
nanpa
nao
napac
napawka
napis
napisanych
napisas
napisał
napisała
napise
napismje
napne
napo
napoj
napoje
napoleo
napoleon
napominanje
napominał
naposledk
napołoz
napre
napretka
naps
nar
naraz
narc
nare
narod
naroda
narodami
narodna
narodne
narodnego
narodnej
narodneje
narodnem
narodniny
narodnosc
narodnu
narodny
narodnych
narodnymi
narodow
narodowe
narodowu
narodzenia
narol
narowna
narownaj
narownaju
narownanje
narownanjow
narownas
naroz
narutowicza
nas
nasa
nasajz
nasc
nasenba
nasle
naspomnjejo
naspomnjeju
naspomnjenja
naspomnjenje
naspomnjeł
naspomnjeła
naspomnjeło
naspomnjona
naspomnjone
naspomnjony
nastajenje
nastajis
nastajony
nastali
nastanjo
nastanu
nastas
nastaty
nastawa
nastawaju
nastawane
nastawał
nastawała
nastawk
nastawka
nastawkach
nastawki
nastawkow
nastawkowe
nastawkowy
nastawku
nastał
nastała
nastało
nastupa
nastupajucy
nastupanju
nastupili
nastupił
nastupiło
nastupnosc
nasua
nasuella
nasyp
nasypach
nasz
nat
natal
natalia
natalowa
national
nationalgalerie
natu
natur
natural
nature
naturfu
natus
natwar
natwari
natwarili
natwarił
natwarjenje
natwarjona
natwarjone
natwarjony
nau
naud
naumburg
naundorf
nauru
naval
navbar
nave
navigation
navo
nawe
nawigacija
nawigaciji
nawigaciju
nawigacisku
nawikas
nawitabela
nawitabelach
nawitabele
nawitabeli
nawitabelu
nawjedowanim
nawjedowar
nawjedowarja
nawjedowarjom
nawjedował
nawka
nawo
nawopacnje
nawopak
nawro
nawros
nawtice
nawuknuli
nawuknus
nawuknuł
nawuknuła
nawuknył
nawuknyła
naya
naz
nazalne
nazalnje
nazalny
nazalnych
nazelen
nazgo
nazgonjona
nazuka
nazukowego
nazyma
nazymje
nazymska
nazymske
nazymski
nazymu
nazymy
nałe
nałog
nałogi
nałogow
nałoz
nbsp
nc
nca
nce
nchen
nchenje
ncia
ncipe
ncu
ncy
nd
nda
ndajapomo
nde
nden
ndenska
nder
ndercode
ndli
ndr
nds
ndx
ndy
ne
near
nearest
neb
nebeneffekt
nebesai
nebraska
neburg
ned
nedo
need
neg
negacija
negacije
negaciji
negaciju
negation
negative
negatiwne
negatiwnje
negatiwnosc
nege
neglecta
neglectum
nego
negreanu
negykor
neil
neill
neiße
nej
nejblis
nejbliz
nejbogats
nejcesc
nejchuds
nejdalej
nejdals
nejdlejs
nejdłyms
neje
nejgusc
nejjadnorjejs
nejje
nejkrots
nejle
nejlubs
nejmjen
nejmjenjej
nejmo
nejmłods
nejnis
nejnows
nejpjerwjej
nejpo
nejpopularnjejs
nejre
nejs
nejskerjej
nejstars
nejsławnjejs
neju
nejwaz
nejwe
nejwus
nejwuznamnjejs
nejz
nejznas
nejznaty
nek
nekrolog
nektar
nektara
nektarina
nektariny
nektarowe
nel
nelly
nelson
nem
nemecky
nemu
nen
nena
nengo
neo
neofelis
neotrop
nepal
nepalski
nepila
nepomucena
nepomuk
neptune
ner
nero
neruda
nerwna
nerwow
nerwy
nesit
nest
net
network
netzseite
neu
neubert
neubrandenburg
neue
neuen
neuendorf
neuer
neues
neuguinea
neumann
neumannojc
neustadt
neustrelitz
neutralne
neutralnje
neutron
neutronow
neuwald
nevada
nevel
never
nevis
neviusia
new
newport
news
newton
nez
nf
nftige
ng
nga
nge
ngenermittlung
ngengrad
nger
ngt
ngua
ngue
nh
nha
ni
nia
niar
nic
nica
nice
nich
nicholas
nicholson
nicht
nichten
nichts
nick
nicklas
nicolai
nicolas
nicole
nicy
nicym
nicys
nida
nidzica
nie
niech
nieder
niederlausitz
niederlausitzisch
niedersorbisch
niedersorbische
niedersorbischen
niedersorbisches
niels
niemcewicz
niemczyk
niemeyer
nien
niepodleglosci
niepodległos
niepokalanego
nies
niesky
nieszawa
nietsche
nieustaja
nieviel
niewice
niez
nig
nigdy
nigella
niger
nigerija
nigeriju
nigeriski
nigerokongoske
nigerom
night
nigra
nigricans
nigrum
nigs
nigswalde
nihali
nihat
nijich
nijo
nijos
niju
nik
nika
nikam
nikaragua
niki
nikola
nikolai
nikolic
nikosia
nikow
niku
nil
nila
nili
nilosaharaske
nilsen
nim
nima
nimale
nimc
nimce
nimcow
nimi
nimjernosc
nims
nimska
nimske
nimskego
nimskej
nimskeje
nimskeju
nimskem
nimskemu
nimski
nimskich
nimskim
nimskimi
nimsko
nimskore
nimskostatny
nimsku
nin
nina
ning
ninow
ninskeje
ninski
ninu
niny
nio
niro
nis
nisi
niska
niske
niski
nisku
nisou
nistwa
nistwo
nit
nitkaty
nitki
nitkojta
nitra
niue
nivalis
niwa
niwe
niwow
niwowje
nixon
niz
nił
niła
niło
nja
njaboga
njabogi
njabogich
njaboz
njach
njaju
njajuce
njama
njamaju
njamam
njamatej
njamo
njan
njanje
njanskego
njasecy
njaso
njasos
njasu
njasł
njata
njate
njaty
nje
njeagentiwne
njeakcentue
njeaktiwne
njeaktiwny
njebe
njebja
njebjaska
njebjaske
njebjaskego
njebjaskej
njebjaskeje
njebjaski
njebjaskich
njebjaskim
njebje
njebjelc
njebjo
njebjom
njebjomo
njebju
njebu
njebudu
njebuz
njeby
njeca
njece
njechorn
njecu
njecus
njecyste
njedajo
njedaju
njedaloko
njedefine
njedej
njedejas
njedoko
njedokradne
njedopołne
njedorozme
njedos
njedosega
njedostatk
njedostatkach
njedostatkow
njedowe
njedz
njeeksiste
njefunkcione
njegle
njego
njegronjecy
njeimplementowamy
njej
njejasna
njejasne
njejasnje
njejawi
njeje
njejo
njejs
njejsom
njejstej
njejsu
njejsy
njejz
njek
njekat
njekela
njeko
njeks
njekwis
njele
njelica
njelice
njeme
njemetal
njemetale
njemetalow
njemjenjowane
njemjenjowanej
njemjenjowany
njemo
njemuse
njemusy
njemusys
njen
njenadpadne
njenadpadnych
njenagle
njenc
njenim
njenja
njenjach
njenjami
njenjaso
njenjasu
njenje
njenju
njenuzna
njenym
njeoficialne
njeoriente
njepila
njepilic
njepis
njepo
njepokaza
njepokazujo
njepolarne
njepomjenjony
njepowe
njepr
njeps
njepłas
njerealnu
njeregularna
njeregularne
njerowne
njerownych
njerownymi
njerozeznawa
njerozme
njeroznogas
njerozymliwy
njesko
njesle
njesme
njespiwne
njespiwny
njestabilne
njestatki
njestoj
njesu
njeswac
njesłodny
njesłus
njesłys
njetransitiwnych
njetransitiwnymi
njets
njetwo
njewe
njewidne
njewiz
njewjericka
njewjesta
njewo
njewobsejz
njewobstoj
njewops
njewospjetujo
njewotwisny
njews
njewube
njewugo
njewunjere
njewustupujo
njewustupujuce
njewuz
njewzej
njez
njezabuz
njezabydnjomy
njezabydnułej
njezabyn
njezare
njezazukujucych
njezdrjałe
njezme
njeznata
njeznaty
njeznatych
njezrosc
njiti
njo
njoco
njogo
njojski
njok
njom
njomu
njona
njone
njony
njow
njowa
njowas
njowny
nju
njujo
nk
nka
nkate
nken
nkt
nku
nky
nl
nlandska
nlandskeje
nlandski
nm
nmp
nmr
nn
nne
nnen
nner
nnn
nnnn
nnnnnn
nnte
no
nobaltiske
nobel
nobelowe
nobelowego
nobis
noc
noca
nocat
nocc
noch
nocne
nocny
nocy
noe
noeditsection
noeuropejski
noeuropski
nofriziska
nofriziskeje
noga
nogermaniske
nogi
nogow
nogu
nogut
noiret
nois
noise
noka
nom
nombres
nomen
nomenach
nomina
nominalne
nominatiw
nominatiwa
nominatiwje
nominatiwom
nomine
non
nondefault
none
nonimskeje
nopjowe
nopjowych
nor
norbergowa
norbergoweju
norbert
nord
nordahl
nordhoff
nordiska
nordiskeje
nordmanniana
nordmanowa
nordpolarmeer
nordrhein
nordsee
norge
normala
normalna
normalne
normalnego
normalnej
normalneje
normalneju
normalnem
normalnje
normalnu
normalny
normalnym
normalnymi
normalu
norman
normandija
normas
normje
normow
normowa
normy
norns
noromaniske
norte
north
northern
northing
norwegen
norwegojski
norwegs
norwegska
norwegske
norwegskej
norwegskeje
norwegskeju
norwegski
norwegskim
nos
nosar
nosarje
nosarjow
nosarka
nosc
nose
nosece
noserbske
nosk
nosowe
nosowy
nostny
nostrud
nosy
nosyła
nosłowjan
not
nota
notacija
notaciju
note
notes
notica
notice
noticiario
noticy
notki
notna
notne
notnej
notnje
notny
notoc
notwendig
notwendige
noty
nouvelle
nova
novak
nove
november
now
nowa
nowak
nowaka
nowe
nowego
nowej
noweje
noweju
nowela
nowele
nowelow
nowem
nowember
nowembera
nowemberje
nowembra
nowembrje
nowemu
nowgorod
nowgoroda
nowgorodne
nowgorodskem
nowgorodski
nowiki
nowina
nowinar
nowinka
nowinow
nowiny
nowka
nowo
nowoaramejs
nowogard
nowos
nowosc
nowoseelandska
nowoseelandskej
nowoseelandskeje
nowoseelandski
nowosibirsk
nowosibirsku
nowotny
nowrap
nows
nowu
nowy
nowych
nowym
nowymi
noz
noze
nozelene
nozyny
np
nr
ns
nscht
nschte
nschten
nsdap
nsg
nsldz
nste
nsula
nt
nta
ntara
ntejs
nter
nther
ntne
ntnych
nto
nu
nuda
nudicaule
nueva
nuk
nuka
nul
nule
nulla
nullen
nulowa
nulowe
nulowego
nuloweho
nulowem
nulowy
nulu
number
numbered
numer
numeral
numerale
numeriske
numeriski
numerus
numerusa
numerusu
nummularia
nunaat
nuovo
nuphar
nupharaceae
nur
nurney
nursije
nuts
nutt
nutzen
nutzung
nuz
nuzkany
nuzny
nvu
nw
ny
nya
nych
nyctereutes
nyi
nykus
nym
nymi
nymphaea
nymphaeaceae
nysa
nysu
nysy
nyts
nyungan
nz
nzen
nzt
nłm
o
oa
oaza
ob
obama
obecnie
oben
obenkina
obenkino
oberlausitz
oberlausitzer
obermais
obero
oberson
obersorbischen
oberspreewald
oberz
objeks
objekt
objekta
objektach
objektdurchmesser
objekte
objektes
objektow
objektowe
objekty
oblasc
oblast
obliquus
obne
obny
obojta
obojte
obojty
obres
obronne
observatory
obserwatorija
obserwatorium
oby
obywatelska
oc
occaecat
occidentalis
ocean
oceana
oceanija
oceaniji
oceanje
oceanom
oceanow
oceany
ocerwjene
och
ocha
ochotona
ochu
ocimum
oclc
ocowanim
october
ocuju
od
odd
oded
odeg
oder
oderbruch
odorata
odoratum
odra
odriny
odrje
odru
odry
odrzan
oe
oesterwind
of
off
office
officia
official
officinale
officinalis
offsety
ofice
oficialna
oficialne
oficialnje
oficialny
oficialnych
oficielna
oficielne
oficielnej
oficielneje
oficielnem
oficielnje
oficielny
oficielnych
oficjelne
oficyna
ofset
og
ognowanje
ogo
ogrody
oguerekovo
ogyke
oh
ohio
ohne
ohnepo
oho
ohrid
ohridski
oi
oiko
oil
oipotava
ois
oise
oj
ojc
ojcach
ojce
ojejapova
ojen
ojenja
ojenjach
ojenje
ojenjow
ojetavy
oji
ojo
ojohecha
ojs
ojska
ojske
ojskego
ojski
ojstwa
ojta
ojte
ojty
ojtymi
oju
okan
okcitan
okcitans
oke
oko
okolice
okrug
oksid
oksida
oksidoma
oksydaciske
okt
oktober
oktobera
oktoberje
oktoberom
oktobra
oktobrje
okupe
ol
olaf
olanchana
old
oldenburg
ole
olecko
oleracea
olescha
oleszyce
oli
olivacea
oliveira
oliver
olivier
oliwa
olla
olne
olnej
olochow
ologie
ologische
olomouc
olsem
olsztyn
olsztynek
olympiada
olympiska
olympiske
olympiski
om
oma
omach
omami
oman
omanom
omate
omaty
ombopupu
omi
omid
omje
omna
omne
omnego
omniglot
omnik
omnych
omnym
omomemby
omorika
omsku
omu
omy
on
ona
once
ondinea
one
onego
onej
oneje
oneju
onem
onemu
onge
oni
onims
onis
onk
onka
onkami
onki
onkow
onkowa
onkowe
onkowego
onkowem
onkowu
onkowy
onkowych
onku
online
only
onop
onopowe
onordhoff
onosc
onow
ontario
onu
onuncu
ony
onych
onym
onymi
oo
ook
op
opartowo
opcija
opciju
opcionalne
opcionalnej
opcionalnu
opcionalny
ope
open
openoffice
openstreetmap
opera
operacija
operow
operowa
operowy
operu
opery
oplejs
opole
opolu
oportail
opozicije
oppenheimer
optimiert
optional
optiske
optiskemu
opuka
opulus
opurahe
opus
opła
opłe
opłota
opłotu
opłych
or
ora
oralne
oralny
oranienburg
oranz
oratorium
orawina
orawiny
orb
orbis
orbit
orchestra
orchestrom
orda
orders
ordinalny
ordinalnych
ordnance
ore
oregon
oreguerujevy
orellana
orembohasa
orfej
org
organ
organiskeje
organiskich
organist
organizacija
organizacije
organizacijow
organizaciju
organizator
organize
organizmow
organizmy
organy
orgelach
orgelow
orientacija
orientale
orientalis
orientation
oriente
orig
origin
original
originala
originalna
originalne
originalnje
originalny
originalnych
orkan
orkneje
orkney
orkneyo
orlicke
orn
ornakec
ornej
orneta
ornica
ornucha
orny
oro
orobanchaceae
orow
orpheus
ors
orstwa
orstwje
ort
orthodox
ortodoksne
ortodroma
ortografija
ortografiji
ortow
ortsangabe
ortsnamen
ortsnamenbuch
ory
oryctolagus
orzeszkowa
orzeł
orzysz
orłowicza
os
osaka
osama
osbu
osc
oscar
osenim
osenje
osgb
osiedle
osijek
osijeku
osin
oskar
oslo
osmanske
osmanskego
osp
ost
oste
ostendorp
ostfalen
ostfalska
osti
ostrava
ostro
ostrzeszo
ostrzeszow
ostsee
oswald
osyli
osym
osył
ot
ota
otej
otfried
other
otiska
otiskej
otiskeje
otiskem
otiski
oto
otto
otwock
ou
ouaga
ouagadougou
oujey
out
output
ov
ova
ovatum
ovce
over
ow
owa
owali
owalne
owalnu
owalny
owalnych
owan
owana
owane
owanim
owanja
owanjach
owanje
owanju
owanka
owany
owar
owas
ował
owała
owało
owc
owe
owego
owej
oweju
owem
owje
owka
owki
owku
owna
owne
ownik
ownja
ownjach
ownje
owny
owu
owy
owych
owym
oxford
oxycoccus
oxysepala
oz
ozean
ozeane
ozems
ozemska
ozemske
ozemskego
ozemskej
ozemskeje
ozemskeju
ozemski
ozemsko
ozorko
ołc
ołs
ołta
ołtarz
ołte
ołtego
ołtej
ołto
ołtobe
ołtojte
ołtomo
ołtowka
ołtozelene
ołtu
ołty
ołtych
ołtym
ołtymi
ołz
p
pa
pabianice
pablo
pace
pacelli
paciens
pacific
pacifik
pacifika
pacifiku
pacifiskej
pacino
packa
packaty
packu
pad
pada
padach
padas
padatej
padding
paderewski
padleft
padnjo
padnu
padorownje
padow
paduch
pady
paeonia
pag
page
pages
paharia
pahl
pahlavi
pai
paitim
paje
pajeczno
pak
pakala
paket
paketow
pakety
pakistan
pakistana
pakistanje
pakistanom
pakowjez
paks
palac
palace
palais
palast
palau
palc
palcow
pale
palea
palen
palenje
palestinensiskimi
palestinje
palestinska
pali
palisa
pall
palm
palma
palustris
pama
pamp
pampelmuza
pan
panama
panamu
panc
panda
pandemija
pandemije
pandy
pane
panero
panes
paneve
panijar
pank
pannonica
pannonicus
panny
panorama
panoramio
panoramy
panschwitz
panskiego
panthera
papa
papaver
papaveraceae
papitz
papjery
papros
papua
papuan
papus
par
para
paradigma
paradise
paradisi
paradiza
parafialny
paragua
paraguay
paraguayan
paraguayja
paraguayju
paraguayom
paraguayska
paraguayskeje
parai
paralelne
paralelnje
paramdypk
parameter
parameterach
parameterami
parameterje
parameternamen
parameteroju
parameterom
parameteroma
parameterow
parameters
parameterteile
parametery
parametra
parametrach
parametrami
parametrje
parametroju
parametrom
parametroma
parametrow
parametrowe
parametrowej
parametrowu
parametry
parana
parazitach
parazitiski
parchim
parcowski
parczew
parczewski
pardelowy
pardinus
pardo
pardofelis
pareiztici
pariatur
paris
parisa
pariskego
pariski
parisowy
parisu
parji
park
parka
parkach
parkowy
parku
parlamens
parlament
parlamenta
parlamentariska
parlamentowy
parliament
parmpart
parsera
parserskimi
parskom
part
parta
partei
partements
particip
participy
partikla
partikle
partikli
partiklu
partikularne
partitiw
partitura
partnar
partnarje
partnarske
partner
partnerske
party
partyje
parum
parviflora
pary
pas
pascua
pasion
pasmow
pass
passau
passenden
pasteurize
pastwach
pasym
pata
patens
paternoster
patne
patnje
patnjejs
patny
patricia
patrick
patriotiske
patriotka
patronatom
patrono
patt
patta
pau
paul
paula
pauling
paulino
paulo
pauls
pav
pavel
pavla
pavle
pawla
pawlowa
pawoł
pawoła
pawołej
pawła
pax
paz
pazifik
pazifischer
pazory
pałac
pałacowy
pc
pchjongjang
pcołka
pcołkarstwo
pcołki
pcołkow
pd
pdf
pe
peace
peak
pearl
pedagog
pedagoga
pedagogowka
pedra
pedro
pee
peg
peikoraka
peitz
peitzer
peking
peklo
pela
pelargonija
pelargonium
pele
peloponnesiacum
pelplin
pem
pen
pendant
penderecki
pendula
peni
pennsylvania
pentameter
people
peplus
pepo
per
perfekt
perfektiwnego
perforatum
perhaps
perikarp
period
perioda
periodic
periodikumy
periodowy
periodu
periody
perioz
pernak
pernambuco
pero
perotti
pers
persica
persicum
persis
persiskej
persiskeje
persiski
perso
personalne
personenmarkierung
perspecitive
perspective
perspektiwy
peru
peruwje
petar
pete
petei
peter
peterom
petersburg
petersburgu
peterzilija
petit
petra
petraeum
petrarca
petrarkizm
peuce
peve
pez
pfalcojska
pfalcojskej
pfalcojskeje
pfalcojskeju
pfalcy
pflanzen
pflanzenfu
pflanzennamen
pflanzenportra
pflanzenr
pflanzenwelt
pflaume
pflege
pflichtfelder
pflichtparameter
pgp
ph
phane
phenakospermum
phi
phil
philadelphia
philip
philipp
philippe
phillip
phillips
philologie
phoenix
php
phrygien
phylogeny
physical
pi
pia
piaf
pianist
pianistka
piaski
piasku
piastowskie
pic
pica
pican
piccard
picea
pick
picku
picne
picnja
picnjo
picnju
pico
picowan
pictures
picu
pidgin
pidginy
pie
piemonte
pienie
pierce
pierre
pierzeja
pies
piesen
piesne
pietro
pij
pija
pijin
pijo
piju
pik
pikinin
pikinini
piko
piksel
pikselach
pikselow
piktograma
pilatusa
pilger
pili
pilot
pils
pilse
pilsner
pimeja
pimenov
pinaceae
pinakothek
pinea
piniekowa
pinija
pinka
pinkerton
pinkowe
pinochet
pinus
pinyin
pione
piony
piotr
piotra
piotrko
piotrkow
piotrkowska
pip
pipe
piper
pira
pirapire
pis
pisa
pisadła
pisali
pisan
pisana
pisane
pisanja
pisanje
pisanju
pisany
pisar
pisas
pisał
pisała
pisało
piscator
pischmak
pisin
piska
pisma
pismik
pismika
pismikach
pismikami
pismiki
pismikom
pismikoma
pismikow
pismikowa
pismje
pismo
pismojstwa
pismojstwje
pismojstwo
pismom
pismostajar
pismow
pismowe
pismowstwa
pisna
pisne
pisnej
pisneje
pisnje
pisum
pisz
pits
pittau
pittkunings
pittsburgh
pius
piwa
piwaju
piwarnje
piwje
piwo
piwow
piwowych
pił
piła
piło
piłsudski
piłsudskiego
pjaca
pjacywa
pjacywo
pjakar
pjan
pjas
pje
pjec
pjech
pjecy
pjej
pjelch
pjen
pjenje
pjenjez
pjenjeze
pjepjer
pjera
pjerinate
pjerinatych
pjerinatymi
pjerkatych
pjerkow
pjero
pjers
pjerwjej
pjerwjejs
pjesnic
pkp
pl
pla
plac
place
placu
plain
plan
plana
planch
planck
plane
planet
planeta
planety
planow
planowa
planowane
planowany
planowar
planowe
planoweje
planowu
plant
plantae
plantarum
plantas
planti
plantilla
plants
planujo
plany
plas
plata
platforma
platformy
platowej
platoweje
plats
platte
plattkarten
platy
platycladus
platyphyllos
platzeck
play
plaza
ple
please
plebania
plecojty
plena
ples
plessur
plicata
pln
plo
plon
plosiwow
plotarea
plotdata
plowa
plu
plummer
plumpa
plunkett
plural
plurala
pluraliski
pluralom
pluralu
plus
pluskwamperfekt
plzen
plzne
plzni
pm
pmi
pn
png
pngwobraz
pnikow
pno
po
poa
poaceae
poc
pochada
pociech
pocynki
pocz
pocze
poczta
poczty
pod
podac
podaj
podas
podbe
podde
poddebice
poddruz
podgo
podgorica
podla
podlaska
podlaski
podlaskie
podleskem
podo
podobna
podolsk
podolske
podolski
podpe
podpołdnjowej
podps
podstawy
podstupim
podstupimske
podswo
podwyz
podzajts
podłu
poesia
poeta
poetry
poewe
poezija
poezje
pog
pogjarzlina
pogle
pogo
pogoda
pogon
pogu
pohecha
pohl
pohladnjenja
pohled
pohonc
point
poir
poiss
pojark
pok
poka
pokarpatskem
pokaz
pokaza
pokazaj
pokazali
pokazanje
pokazas
pokazał
pokazała
pokaze
pokazka
pokazki
pokazku
pokazowan
pokazowanje
pokazowas
pokazował
pokazuj
pokazujo
pokazujotej
pokazuju
pokazujuce
pokazujucy
pokazy
pokerowar
pokoj
pokud
pokus
pol
pola
polam
poland
polarna
polarne
polarnego
polarneje
polarny
polarnych
pole
polen
polenz
polewjoj
poli
policajskim
police
polish
politbe
politechnika
politik
politika
politikar
politikarka
politiki
politiku
politische
politischen
politiska
politiske
politiskego
politiskeje
politiski
politiskich
politiskim
politisku
polkka
polnisch
polo
poloju
poloma
polonia
polska
polske
polski
polskiego
polskiej
polster
polu
polysemny
polysporangiofytow
polysporangiofyty
polytoniski
pom
pomaga
pomagas
pomagał
pomagała
pomałem
pome
pomeranca
pomhaj
pomina
pominaju
pominanje
pomj
pomjen
pomjenijo
pomjenjenje
pomjenjona
pomjenjone
pomjenjonego
pomjenjonu
pomjenjony
pomjenjonych
pomjenjowali
pomjenjowana
pomjenjowane
pomjenjowanego
pomjenjowanej
pomjenjowanja
pomjenjowanje
pomjenjowany
pomjenjowanych
pomjenjował
pomjenjowała
pomjenjujo
pomjenjujomy
pomjenjuju
pomnik
pomnika
pomniki
pomnikow
pomoc
pomocka
pomocna
pomocne
pomocnu
pomocny
pomocnych
pomocu
pomocy
pomoga
pomogaj
pomogar
pomorjans
pomorska
pomorske
pomorskej
pomorskeje
pomorskem
pomorskich
pomorskie
pomorskim
pompidou
pon
pona
poniatowa
poniatowski
ponte
pontica
pool
poorly
pop
popajz
popis
popisom
popjer
popko
popojcach
popojce
popol
popov
popowa
popowy
pops
popularne
popularnosc
popularnowe
popularny
population
populus
por
pora
porach
porbandar
pore
poricidna
porno
pornofilmow
porow
porowa
port
porta
portal
portalu
porter
portmaneaumorpheme
portmanteua
portrait
portret
portugalska
portugalskej
portugalskeje
portugalski
portugis
portugiziska
portugiziski
pory
pos
posc
posenje
posesiwne
posesiwnego
posesiwnje
position
positionskarte
positionskartenauswahl
positive
posledni
post
postajenje
postaji
postowy
postponowane
postponowanym
postpozicije
postwerbalny
pota
potaninii
poti
potockich
potom
potrze
potsdam
potter
pour
pouz
povas
povec
pow
powe
powell
powiat
powiaty
powjerch
powjercha
powjerchom
powjerchu
powjesc
powjets
pows
powys
poz
pozdz
pozicija
pozicijach
pozicije
poziciji
poziciju
poziciska
poziciskej
poziciskeje
poziciskich
pozicisku
pozitivnim
pozitiw
pozitiwne
pozitiwnje
pozitiwnu
poznan
poznanju
poł
połc
połdnjo
połfinale
połkule
połkuli
połkulu
połkupa
połkupje
połkupow
połkupu
połkupy
połmjaseca
połne
połnis
połnje
połnjone
połnoc
połnocnej
połnu
połny
połnych
połnym
połob
połobs
połobske
połobskich
połojca
połojce
połojcowu
połojcy
połoz
połparazit
połpusc
połs
południe
pp
ppan
ppiu
pr
pra
prabucha
prabuchu
prac
prach
prades
pradesh
praesens
prag
praga
pragi
praha
praks
prakse
praksy
praktice
praktikum
praktiski
prapremjera
prare
pras
praszka
prasłowjan
pratensis
pratyja
pratyjarje
pratyje
pratyji
pratyju
prawa
prawdzic
prawo
prawobydlarjow
prawopisny
praworo
prawosławna
praz
praze
pre
precize
preciznosc
predefinic
predicate
predigergesellschaft
predigerkolloquium
predikat
predikata
predloga
predloz
preferujo
prefiks
prefiksa
prefikse
prefiksom
prefiksow
preil
preili
preis
prejt
preload
premier
premierka
premierministar
premierminister
premierministerka
premjeru
prepozicija
prepozicijami
prepozicije
prepozicijow
prepoziciju
pres
president
presl
presley
press
preteritum
preussische
preußler
preußlera
prewerbalny
prezenca
prezens
prezensa
prezente
prezident
prezidenta
prezidentka
prezidentoju
prezidentom
prezidentske
prezidentstwo
prezidenty
prezidiuma
preß
pri
pricynje
prima
primarne
primarstufe
primulaceae
primulowych
princ
princa
prince
princeton
principje
prinoides
prionailurus
priorita
prioritu
pris
private
priwatiw
priwatiwnej
priwatiwny
priwatny
prize
prjatkar
prjatkarske
prjatkarskego
prjatkowan
prjatkowanja
prjatkowanje
prjatkowarnje
prjawoz
prjawozu
prjedy
pro
problem
problemam
problemow
problemy
proca
proceedings
procentach
procentami
procentow
proces
procesa
procese
procesow
procesu
procesy
procowanja
procowanje
procowar
procował
procumbens
procyon
procyonidae
prodi
prodr
produce
producent
producentka
producenty
product
produkciju
produkt
produkta
produktiwny
produkty
prof
profesor
profesora
profesorow
profeta
profetiju
profijow
profil
profile
profite
prog
program
programa
programach
programe
programje
programmierung
programoju
programow
programowanje
programy
progresiwna
proident
project
projects
projekcija
projekciji
projekcijowa
projekciske
projeks
projekt
projekta
projektach
projektow
projektowych
projekty
projevy
prokaryoty
proklame
prolagus
proleptic
promenada
promise
promje
promjenja
promjenjach
promjenjami
promjenjenja
promjenjow
promjenjowe
promowe
prompt
pronomen
pronomena
pronomenach
pronomenami
pronomenje
pronomenow
pronomeny
properties
proporcije
pros
prosna
proteina
protestanty
proteste
protesty
proti
protium
protokol
protokole
proton
protonow
provence
provinzen
provoost
prowinca
prowince
prowincij
prowincow
prowincu
prowincy
proza
proze
prozna
prozne
proznego
proznotu
proznoty
proznu
prozny
proznych
proznym
proznymi
prozy
pru
pruchnik
prunella
prunifolia
prunus
prus
pruszcz
pruwowanje
prvi
prvog
prys
prystor
przed
przedecz
przedmies
przemienienia
przemys
przenajs
przeworsk
przez
przodu
przy
przyborowski
przyborze
przybylski
ps
psa
psalm
pseudo
pseudonym
pseudonymom
pskowje
psow
psowic
psowica
psy
psychoanalytikar
psycholog
pt
ptac
ptaka
ptas
ptolemeus
ptolemeusa
pttk
pu
pubescens
publ
public
publication
publice
publicist
publicistika
publicistka
publikacije
publikacijow
publique
puc
puccina
puccini
puck
pucka
puckowina
puente
puerto
puhu
puka
puknjo
puknu
pukpuk
pula
pulapim
pulawy
pulcherrima
pulegioides
pulimapim
pulsatilla
pultowe
puma
pumila
pungens
punkt
punkte
pupajca
pupawa
pupk
pupki
pupkow
pupkowe
pupku
puri
purple
purpurascens
purpurbarwny
purpurcerwjene
purpurea
purpurmo
purpurowa
pursh
purshiana
pus
pusc
puschmann
pusi
pusilla
pustiny
pustych
putin
putina
puts
putzkau
puławy
pw
pwn
px
py
pya
pyahu
pyharevove
pyra
pyramid
pyramidu
pyraster
pyre
pyreae
pyrenaica
pyrenaicum
pyreneje
pyrenejow
pyrenejska
pyrenejskej
pyrenejskeje
pyrinae
pyrodae
pyrus
pys
pyskowa
pyta
pytac
pytali
pytan
pytania
pytanje
pytas
pytał
pła
płas
płock
płod
płoda
płodach
płodam
płodami
płodne
płodnik
płodnika
płodnikow
płodnistwo
płodnosc
płodow
płodowa
płodowe
płodowego
płodoweje
płodoweju
płodowem
płodowu
płodowy
płodowych
płodowym
płody
płodz
płomje
płomjenja
płomjenjowa
płomjo
płon
płona
płone
płonego
płoni
płonime
płonina
płoninach
płoninje
płoninow
płoninu
płoniny
płonjak
płonje
płonju
płony
płonych
płonym
płotach
płotny
płoz
płun
płuwar
q
qing
qm
qu
qua
quadratische
quae
qual
quam
quator
quatre
que
queen
queensland
quelle
quellen
quelltext
quercus
querfurter
queue
qui
quinn
quinquefolia
quis
quito
quo
quod
quos
qwerty
qwertz
qz
r
ra
raab
raamatut
rabe
rach
rachel
rachow
rachowa
racibo
rack
racki
rad
rada
raddusch
radensdorf
radicatum
radija
radijo
radijowy
radinsky
radio
radius
radiusa
radiuse
radiusom
radnica
radnice
radnicu
radnje
radom
radomicki
radomsko
radomsku
radosc
radovan
radus
radwor
radworju
rady
radymno
radyn
radyserb
radziejo
radziejow
radzyn
raf
rafael
raffaele
rafiki
rahmenfarbe
railway
raimondo
rain
rainbow
rainer
rait
raj
rajch
rajgro
rajgrodzie
rajo
rajs
rajter
raju
rajucej
rajucy
rak
raka
rakecy
rakowe
rakuskeje
ralbicach
ralbicy
ralf
rali
rallyejowy
ralov
ralph
ram
ramelow
rami
ramik
ramika
ramiki
ramiku
ramjenjowu
ramo
ramona
ramu
ran
rana
ranawe
randall
rane
ranego
ranem
ranim
ranis
ranja
ranje
ranju
rano
ranowe
ranunculaceae
ranunculoideae
ranunculus
rany
ranych
ranz
rap
raphanus
rapper
rar
rard
ras
rasch
rasy
rat
ratar
ratarstwo
rathaus
ratio
ration
ratusz
ratusza
ratuszowa
ratwa
ratzinger
rau
ravenala
ravi
raw
rawa
rawp
rawska
rawskem
ray
raz
raza
razce
raze
razmatra
razoju
razow
razu
rał
rała
rało
rb
rba
rbb
rbow
rbu
rby
rc
rca
rcaibh
rce
rchb
rcowe
rcu
rcz
rd
rde
re
rea
read
reagan
reage
reakcija
reakcije
reaktiwny
real
realizacije
realna
realne
realnosc
realplayer
rebel
recepty
rech
rechnerische
recht
rechts
reciprokny
recordings
records
red
reda
redakcija
redakcije
redakciji
redakciju
redaktor
redaktora
redaktorka
redaktory
reddo
reden
redige
redirect
redmountain
redo
reduce
redundanca
reduplikacija
redzie
reed
ref
reference
references
referencnego
referencny
referencowe
referencu
referency
refleksiwny
reflekte
reforma
reformacije
reformaciji
reformowany
reformy
reftext
regalia
regalis
regel
regenzauberlied
regia
reginae
regio
region
regiona
regionach
regional
regionalcode
regionalna
regionalne
regionalnem
regionalnje
regionalny
regionalnych
regionalverbandes
regionam
regione
regionen
regiones
regionje
regionow
regionowe
regionowych
regionu
regiony
regis
registre
regnitz
regueraha
regularna
rehder
rehe
reho
reich
reichenberg
reide
reihe
reiko
reikuaa
reimann
reiner
reinhard
reinhold
reise
rej
reja
reje
rejoguara
rejonowy
rejow
rejowan
rejowanska
rejowar
rejowiec
rejtarje
rejting
rejtinga
reju
rekonstrue
rekord
rektor
rekursion
rekursiv
rekursive
relacionados
related
relations
relationships
relativ
relatiwna
relatiwnje
relatiwnu
release
relewantna
relewantne
relief
reliefom
religija
religioznego
reload
rem
remimo
remiza
ren
renato
renault
render
rene
renger
repens
replace
repo
reportar
reportaz
reprehenderit
reprezentantami
reprezente
reptans
republic
republice
republik
republika
republiki
republiku
republiky
repurahe
res
rese
research
resident
resources
resovia
resp
respektive
respektiwnje
respublika
ressen
rest
result
resultat
resurrection
reszel
ret
reticulata
retoromanow
retoromans
retoromanski
retoromany
retrieved
rettungsdiensten
return
revenant
reventlow
revista
revolution
rewe
rewolucija
rewolucije
rewoluciju
rewolucionar
rewolucionarka
reykjavi
reymont
rez
reza
rezerwe
rezidenca
rezidencowe
rezultat
rezulte
rfer
rg
rgb
rgen
rgena
rgens
rgensen
rger
rgoj
rgojcka
rgoje
rhagius
rhamnaceae
rhamnus
rhauderfehn
rhein
rheinland
rhinanthus
rho
rhoeas
rhyniophyta
rhyniopsida
rhythm
ri
ria
ribar
ribes
ric
rica
ricci
rice
rich
richard
richarda
richards
richardson
richiskem
richter
rick
rico
ridło
rieger
riegler
rietz
riga
rigen
riger
right
rih
rijki
rijo
riju
rik
rika
riki
rikow
riku
riley
rili
rilke
rim
rin
rinach
rinetta
ringen
ringo
rings
rinka
rinku
rinow
riny
rio
riordan
rire
ris
riskowy
risso
rit
ritej
ritz
riva
river
rivera
rivne
rivularis
riwne
rizo
rił
riła
rja
rjadkwi
rjadowane
rjam
rjami
rjan
rjaschen
rje
rjec
rjece
rjecego
rjech
rjechow
rjechowe
rjechy
rjecych
rjej
rjejc
rjejcach
rjejce
rjelc
rjelca
rjelcu
rjen
rjenc
rjenim
rjenja
rjenje
rjenju
rjents
rjepo
rjes
rjeta
rjetami
rjetosc
rjetow
rjo
rjom
rjona
rjone
rjoneje
rjony
rjonych
rjonym
rjow
rjowas
rju
rk
rka
rkac
rkach
rkacowe
rkacowych
rkaty
rke
rki
rkisch
rkische
rkosc
rkosłodka
rkow
rkowach
rkowskego
rkowy
rku
rlitz
rn
rna
rnberg
rnbergskego
rne
rnego
rnej
rneje
rneju
rnek
rnem
rner
rnicach
rnicy
rnicza
rnik
rnika
rnikec
rnis
rnistwje
rnistwowe
rnistwowej
rnje
rno
rnosc
rnoserb
rnoserbs
rnoserbska
rnoserbske
rnoserbskego
rnoserbskej
rnoserbskeje
rnoserbskem
rnoserbski
rnoserbskich
rnoserbskim
rnoserbsku
rnow
rnołuz
rnu
rny
rnych
rnym
ro
road
rob
roba
robards
robert
roberta
roberto
roberts
robertson
robin
robinson
robow
roby
roch
rocha
rochy
rock
rockowa
rockoweje
rockowy
rockwell
rod
roda
rodach
rodami
rodek
rodne
rodnej
rodney
rodnje
rodny
rodoju
rodolfo
rodolpho
rodom
rodopis
rodopise
rodos
rodow
rodowe
rodowy
rody
rodziny
roem
roger
rogers
rogow
rogowe
rogoz
rogu
rohan
rohanii
rohecha
rohechanga
rohne
rohrkolben
roj
rojatapyhi
roju
rok
rokosc
roku
rola
rolach
rolan
roland
rolanska
rolanskej
rolany
role
roll
rolling
rollins
rolna
rolne
rolnikar
rolnikarje
rolny
roloff
rolu
rom
roma
romalı
roman
romaneschi
romaniska
romaniske
romaniskem
romaniskich
romaniskimi
romanje
romano
romanow
romans
romantice
romantika
romantiki
romantisku
romar
romarjow
rombiske
romjanow
romje
romska
romske
romskego
romskej
romskeje
romskem
romski
romsko
romy
ron
ronald
ronan
rondine
rondo
ronica
ronicowych
ronnie
ronny
ronowe
rorce
rorka
rorki
rorkowe
rorkowymi
rorku
rory
ros
rosa
rosaceae
rosario
rosas
rosc
rose
rosemarie
roses
rosmarin
rosmarinus
ross
rossosh
rost
rostlina
rostlinach
rostlinam
rostlinami
rostlinje
rostlinow
rostlinowe
rostlinske
rostlinskej
rostlinski
rostlinskich
rostlinu
rostliny
rostock
rostu
roswe
roswitha
rot
rotacije
rotaciski
rotaru
rotbuche
rote
roth
rothmaler
rotokasis
rotta
rotterdam
rotundifolium
rotwica
rouen
round
routenplaner
routenplanung
row
rowa
rowali
rowan
rowana
rowane
rowanego
rowanej
rowaneje
rowaneju
rowanem
rowanemu
rowanim
rowanja
rowanjach
rowanjami
rowanje
rowanjoma
rowanju
rowano
rowanu
rowany
rowanych
rowanym
rowas
rował
rowała
rowało
rowe
rowego
rowje
rowna
rowne
rownem
rownik
rownina
rowninje
rowninu
rowniny
rownja
rownje
rowno
rownocasnego
rownocasnje
rownonocnosc
rownosc
rownoz
rownu
rowny
rownych
rowo
rowowy
rowy
roy
royal
royale
roz
rozc
rozdas
rozdwo
rozdz
rozetojs
rozeznawa
rozeznawaju
rozeznawamy
rozeznawanje
rozeznawas
rozeznawatej
rozeznawała
rozgrona
rozgrono
rozgłos
rozgłosa
rozgłosowa
rozgłosowy
rozhelony
rozhlad
rozhlada
rozhlaz
rozjasnjenja
rozme
rozmjej
rozmnoz
roznogas
roznogata
rozow
rozpadnu
rozpadowe
rozpadowy
rozpadujo
rozpjers
rozpne
rozporach
rozps
rozpukliny
rozpus
rozpłoz
rozraz
rozre
rozs
rozsudna
rozsuz
rozsypujo
roztyla
rozwaz
rozwe
rozz
rozłamuju
roßlau
rq
rr
rs
rsava
rska
rske
rskego
rskej
rskeje
rskeju
rskem
rski
rskich
rskim
rsku
rss
rst
rsta
rstenwalde
rstowa
rt
rta
rtach
rtami
rte
rtego
rtej
rtels
rtem
rter
rterbuch
rtk
rtner
rtoma
rtow
rtowe
rtowego
rtoweje
rtowy
rtowych
rtowymi
rttembergska
rttembergskej
rttembergskeje
rttembergsko
rtu
rty
rtyl
rtylfinale
rtyłfinale
ru
rua
ruanda
ruandu
rubens
rubikojs
rubis
rubjaz
rubjona
rubra
rubrum
rubu
ruca
ruce
rucenje
ruch
ruciane
rucnikar
rucnikarjow
rucone
rucujo
rucyjo
rucym
rucyło
ruda
ruderale
rudi
rudna
rudne
rudnych
rudolf
rudolph
rudzki
rufa
rufus
rugbyjowc
rugenstein
ruhland
ruhlander
ruiny
ruiz
ruj
rujany
rujo
rujobne
rujotej
ruju
rujuca
rujuce
rujucu
rujucy
rujucych
rujucym
ruka
rukach
ruki
rukoma
rukopisnu
rukopisow
rukow
rukowa
rukowała
ruku
rules
rum
ruma
rumburk
rumelska
rumia
rumje
rumnosc
rumnostnje
rumoju
rumowy
rumun
rumuns
rumy
runda
rundschau
rundung
runjewonline
rupestris
rupi
rupr
rus
rusin
ruska
ruskej
ruski
ruskich
rusko
ruslan
rusojs
rusojska
rusojske
rusojskego
rusojskej
rusojskeje
rusojskeju
rusojskem
rusojski
rusojskich
rusojsko
rusojsku
russell
russia
rusy
ruta
rutaceae
ruth
rutowe
rutowych
ruty
rutzkau
rwanda
ry
ryan
ryba
rybar
rybarstwa
rybarstwo
rybow
rybu
ryby
rychbach
rychtar
rydb
rym
rymano
ryn
ryna
rynek
rynje
rynku
rypin
rypotka
rys
ryszard
rz
rza
rze
rzeczpospolita
rzeka
rzeke
rzeszo
rzgo
rzna
rzno
rzseiten
rzu
rzym
rzymskokatolicki
rzyn
rła
s
sa
saale
saar
saarbru
saaremaa
saarland
saarlandska
saarlandskej
saarlandskeje
saarow
sabas
sabban
sabina
sabine
sac
sach
sachen
sachgebiete
sachs
sachsen
sad
sada
sadach
sadducejarje
sadnik
sadnika
sadnuł
sadny
sadow
sadowski
sadowy
sadowych
sadu
sady
safari
sahara
saharje
sahary
sahel
sahelu
sahra
sai
said
saint
saints
sait
sajz
sakska
sakske
sakskego
sakskej
sakskeje
sakskeju
sakskem
sakski
sakskich
saksko
saksofonist
saksofonistka
saku
sala
salat
salaty
salesianow
salicaceae
salicifolia
salicina
salisb
salli
salomony
salta
saluti
salvador
salvadorski
salvatore
salza
salzburg
salzburgej
sam
sama
sambesi
sambija
sambiju
sambucus
same
samego
samej
sami
samica
samice
samicy
samiske
samiski
samjaki
sammelband
sammu
samo
samoa
samogo
samostatna
samostatne
samostatnej
samostatneje
samostatnje
samostatnosc
samostatnu
samostatny
samostatnych
samotnia
samotnosc
samska
samske
samskego
samskej
samskeje
samskeju
samskem
samski
samskim
samskimi
samsku
samtredia
samuel
samych
samym
san
sanader
sanatorium
sanbi
sanctuary
sandaun
sandelowe
sandelowych
sander
sanders
sandhi
sandow
sandra
sandwich
sanguineum
saniculoideae
sankcije
sankt
sanktuarium
sanogo
sanok
sanskrit
sant
santa
santalaceae
santana
santiago
santo
santoro
sany
sao
saponiny
sapos
sapporo
sar
sara
sarah
sarajewo
sarda
sardegna
sardiniska
sardiniskej
sardiniskeje
sardis
sardiske
sardiski
sardo
sardu
sari
sarzyna
sas
saspow
sassnitz
satelit
satelita
satelitow
satelitowe
satelitowy
satelity
satellit
satellite
saterfriesisches
saterfrizis
saterland
sathya
satira
satirikar
sativa
sativum
sativus
saturn
saturna
satzzeichen
saudi
sauer
saul
save
sawana
sawdi
saxatile
saxoniae
saz
sb
sboz
sc
scabiosa
scale
scalemajor
scaleminor
scandens
scarborough
scarlett
scasom
sce
scena
scenami
scenariskich
scent
scełego
sch
scha
schabloun
schadanje
schadas
schadowanka
schadz
schafgarbe
scharmu
schauer
schaumkraut
scheidemann
schell
schen
schener
schicci
schiff
schill
schilling
schirgiswalde
schischk
schlaf
schlange
schleife
schleifer
schließen
schließende
schlo
schloss
schltdl
schlu
schmachtenhagen
schmaler
schmeil
schmidt
schmidta
schmitz
schmo
schmutzig
schnarrenberger
schneid
schneider
schneiderhan
schnell
schnittstellen
scho
schober
schojz
scholl
scholz
school
schowa
schowabny
schowaju
schowane
schowanem
schowanje
schrad
schrader
schrenk
schriften
schriftenreihe
schriftsprache
schritte
schro
schronisko
schu
schuck
schule
schult
schultz
schultze
schulz
schuster
schwarz
schwarze
schwarzer
schwegler
schweinfurt
schweiz
schweizer
schweiß
schwela
schwerin
sci
science
sciencefiction
sciences
scop
scoparius
scopulorum
scorpioides
scott
screenshot
scrophulariaceae
scupi
scynjone
sdaj
sdot
sdu
se
sea
sealtainn
seamonkey
sean
search
season
seattle
seb
sebastian
sebi
sebje
sebna
sebne
sebnej
sebnje
sebnosc
sebnu
sebny
second
sect
section
sed
sedaju
sedan
sedaris
sedlarje
sedlarjow
sedlen
sedlili
sedlis
sedni
sednuł
sedrun
sedym
sedyme
sedymy
sedymz
sedła
sedło
sedłom
sedłow
see
seemann
seen
seetalbahn
segaju
segajuce
seguinii
sehen
sei
seidel
seifert
seifhennersdorf
sein
seine
seite
seiten
seiteneffekt
sej
sejm
sejma
sejmje
sejmoju
sejny
sejz
sekcija
sekcije
sekcijow
sekciju
sekele
sekeru
sekretar
sekretarje
seks
seksagezimalnje
sekstet
sektor
sektoren
sekunda
sekundach
sekundarstufe
sekunde
sekunden
sekundow
sekundy
sekwency
selbstrekursion
selbstverlag
selby
selecta
selinum
selo
sels
sem
semantika
semantiske
semantiskimi
seme
semikolon
semil
seminar
seminara
semitiske
semitiskich
semje
semjenis
semjenja
semjenjakow
semjenjami
semjenjow
semjenjowe
semjenjowy
semjenjowych
sempervirens
semus
sen
senaki
senat
senata
senebiera
senegal
senegalom
senf
senftenberg
senordhoff
senufo
sep
separates
separatny
separiert
sepicy
sepik
sepium
sepopol
september
septembera
septemberje
septembra
septembrje
septicidna
sequences
sequoia
sequoiadendron
ser
serb
serba
serbach
serbam
serbami
serbin
serbiska
serbiske
serbiskego
serbiskej
serbiskeje
serbiskeju
serbiski
serbisko
serbisku
serbja
serbow
serbowharald
serbs
serbscy
serbska
serbske
serbskego
serbskeho
serbskej
serbskeje
serbskeju
serbskem
serbskemu
serbski
serbskich
serbskim
serbskimi
serbsko
serbsku
serbstwa
serbstwo
serbterm
serby
serca
serge
sergej
sergejewic
seri
serialny
serie
serija
serije
seriji
serijowy
serocki
sers
serske
serski
serval
server
service
serwe
serwera
serwerach
ses
sesliler
sessions
set
setzen
severin
sewastopol
sewjerny
sewjerowuchodni
sewjerozapadna
sewny
seybold
seychelle
sezis
sg
sh
shadow
shakespeare
shandling
shane
shanghai
shankar
sharpless
shaw
shawn
she
sheets
shehbaz
shell
shetland
shift
shinawatra
ship
shirley
shockleyi
should
show
si
sia
sibirica
sibirska
sibirskej
sibirskeje
sibirski
sich
sicherheitshinweise
sicht
sichuan
siciliska
siciliskej
siciliskeje
siddhartha
side
sider
sidibe
sie
sieb
sieben
siebold
sieboldiana
sieboldii
siedlcach
siedlce
siedlung
siedlungsgeschichte
siegfried
siegmund
siehe
sielow
siemens
siemiatycze
sienfan
sieniawa
sienkiewicz
sienkiewicza
sieradz
sieradzki
sierra
sierramadrona
sieversii
sigmund
sign
signe
signore
sike
sikensi
sikorski
sil
silene
silke
silvestris
simbabwe
simenon
simon
simone
simple
simulacija
sin
sina
sinapis
since
sind
sindaun
sine
sinensis
sing
singama
singapur
single
singular
singulara
singularje
singularna
singularny
singularom
sinnvolles
sino
sinpin
sint
sintaksa
sio
siorowski
siprage
sir
siraya
siriono
sissoko
sit
sitchensis
site
sitkowy
sitte
situacija
situacije
situaciji
situaciju
siz
size
sjabloon
sk
ska
skabelon
skadow
skakar
skala
skale
skali
skalny
skalnych
skandinawiska
skandinawiske
skandinawiskej
skandinawiskeje
skarszewy
skała
skałach
skałar
ske
skecy
skecym
skego
skej
skeje
skeju
skem
skemu
skerje
skerjej
ski
skich
skie
skiego
skiej
skim
skimi
skinneri
skjarbos
sklepy
sko
skokar
skokas
skopje
skorcz
skorczu
skoro
skowa
skowe
skowy
skowych
skrotcona
skrotcone
skrotconka
skrotconki
skrotconku
skrotconym
skru
skrz
skrzyn
sks
sku
skupina
skupiny
skvrn
skwer
sky
skład
składkowski
składowanju
składowas
skłaz
skłonjujo
sl
sla
slava
slavas
slave
slavia
slavic
slavica
slavische
slavischen
slavischer
slawen
slawische
slawischer
slawist
slawistik
slawistika
slawistiki
slawistiku
slawistka
sle
sleumer
slinika
slip
slobros
slovak
slovakia
slovenc
slovenia
slovenska
slovenske
slovenskej
slovenski
slovensky
sloviansk
slow
slus
sm
smalanka
small
smallimage
smallimageright
smalltext
smami
smarz
smata
smate
smaty
smaz
sme
smederevo
smers
smith
smithsonian
smjas
smjejkotak
smjejo
smjerdz
smjers
smjertne
smjertny
smjerz
smogorjow
smolen
smolensk
smoler
smolerja
smuga
smugu
smuz
smy
sna
snadne
snadnje
snano
snaz
sne
sni
snica
snik
snið
snjar
snjarje
snje
snjej
snjejs
snju
sno
snooker
snookerje
snu
sny
snych
so
soba
sobach
sobald
sobie
sobieski
sobieskiego
sobina
sobinske
sobinski
sobiny
sobje
sobnosc
sobo
sobor
sobota
sobotu
sobow
sobowa
sobowe
sobowego
sobowem
sobowy
sobowych
sobu
sobuawtor
sobuawtorka
sobustawow
sobuwudawar
sobuz
sobuzałoz
soby
soc
socaire
socialdemokratiski
socialistiska
socialistiskej
socialistiskeje
socialistiski
socialne
socialno
socialnych
society
sociologa
socjaliska
sodano
sodłowe
sofia
sofija
softredirect
softwara
software
sok
soko
sokolow
sokoł
sokoła
sokoło
sol
solanaceae
solanin
solano
solanum
solawa
solawu
solche
solchen
sole
solec
soli
solid
solidarnos
solist
soll
sollen
sollte
sollten
solo
solz
som
somali
somalija
somaliju
somaliland
some
sometimes
sommer
somniferum
sompolno
sona
sonderzeichen
sones
sonet
soneta
sonetow
sonetowa
sonetowego
sonetowy
sonette
sonety
song
songhai
soninke
sonja
sonnenblumen
sonstiges
sop
sophie
sopot
sopran
sopranistka
sor
sorabicus
sorabija
sorabije
sorabist
sorabistice
sorabistika
sorabistiki
sorabistiku
soraborum
sorben
sorbian
sorbisch
sorbische
sorbischen
sorbischer
sorbisches
sorbus
sorbzilla
sornoer
soroca
sors
sort
sorta
sortach
sorte
sorten
sortierbar
sortierbare
sortierbaren
sortieren
sortierschlu
sortiert
sortkey
sortow
sorty
sos
sosnowiec
sosnowskego
sotra
sots
soul
soulowy
soundtrack
south
sow
sowa
sowie
sowje
sowjetska
sowjetskego
sowjetskeje
sowjetski
sowjetskim
sowych
soziale
sozialistische
soł
sp
spa
spac
space
spaces
spacey
spach
spada
spadkami
spadkow
spalenje
span
spanish
spar
sparganium
spas
spał
spd
spe
spec
special
specialist
specialne
specialnej
specialnu
specialny
specialnym
specielnje
species
specifiske
specifiskich
specifisku
specimen
speciosum
spectabilis
speedway
spektrum
spektruma
spenser
spermatophyta
spermatophytina
spezialformat
spezialformate
spezielle
spezifiziert
spi
spicatum
spichrz
spiegel
spiel
spim
spinacia
spinat
spinkach
spinkoma
spinosa
spiraea
spiraeoideae
spis
spisali
spisane
spisanje
spisał
spise
spisovatelu
spisow
spisowac
spisowas
spisy
spitzbergen
spitze
spiw
spiwa
spiwajucy
spiwan
spiwanje
spiwar
spiwarka
spiwarnice
spiwas
spiwała
spiwje
spiwne
spiwnik
spiwny
spiwnych
spiwotwo
spiwow
spiwy
spiwyz
spiz
spjerchlinata
spjerchlinate
spjerchlinow
spjerchlinowe
spjerchlinu
spjerchliny
spjet
spjetowanje
spjetujo
splendens
sples
spliska
split
spo
spoc
spodar
spodarstwa
spohn
spoken
spomina
spominanju
spomnjen
spomnjes
sporangijami
sporofyt
sporofytami
sporofyty
sporomje
sport
sporta
sportnis
sportowa
sportowe
sportowy
spot
spoz
społnomo
sprachatlas
sprache
sprachen
sprachenlernen
sprachgeschichte
sprachlehre
sprachwissenschaft
sprawiedliwos
spree
spreewald
spremberg
spreng
sprewja
spring
springer
sprinter
sprjewi
sprjewja
sprjewje
sprugow
sps
spur
spuren
spus
spytali
spytowanja
sq
squamatus
square
sr
srbs
srce
srdce
srdci
sre
sri
srjedz
srjejz
srjez
srjoda
sroka
sroki
srpska
srpskeje
srws
ss
ssa
sse
ssel
sseldorf
ssels
ssen
sser
ssere
ssp
sst
st
sta
staat
staaten
staates
staatlicher
stabilne
stach
stachowa
stacija
stacja
stadion
stadium
stadt
stadtwiki
stadło
stafford
staj
staja
stajaj
stajaju
stajas
stajał
staje
stajenja
stajenje
stajenjeju
stajenju
staji
stajijo
stajili
stajis
stajił
stajiło
stajnje
stajona
stajone
stajonych
stajonym
stajotej
staju
stakim
stal
stali
stalin
stalowa
stam
stamenow
stameny
stami
stampa
stan
standard
standarda
standardausgabe
standardize
standardma
standardna
standardne
standardnej
standardneje
standardnje
standardny
standardnym
standardowa
standardowy
standarz
standl
stani
stanislaus
stanislaw
stanisław
stanisława
stanje
stanjo
stanley
stanu
stap
star
stara
staraju
starali
staras
starał
stare
starego
starej
stareje
stareju
starem
stargard
starjejs
starka
starke
starki
starku
staro
starobe
starocerkwinosł
starocerkwinosłowjan
starodan
starodarbnjanski
starofilologa
starogard
starogrichiskego
staroirski
staromiejska
staromiejski
staronordis
staropo
starops
staroruska
starorusojski
starosc
staroserbske
staroserbskego
starosta
starostu
starosty
starosłowjan
starosłowjanskego
starowe
stars
starstwa
starstwje
starstwo
starstwowych
start
startom
startowy
startujo
staru
stary
starych
starym
stas
staszica
stat
stata
statach
statam
statami
state
states
static
station
stations
statistika
statki
statkowanja
statkowanje
statkowanju
statkował
statkownosc
statkujo
statkuju
statna
statne
statnego
statnej
statneje
statnik
statnu
statny
statnych
statoju
statom
statoma
statow
status
staty
staw
stawa
stawaju
stawanje
stawał
stawiski
stawizna
stawiznach
stawiznam
stawiznami
stawiznar
stawizniske
stawizniski
stawiznow
stawizny
stawje
stawk
stawnik
stawnje
stawny
stawom
stawow
stawowego
stawy
stał
stała
stało
ste
stefan
stefana
stefanie
stefanovic
steffen
stegen
stego
stehen
steht
stein
steinbachs
stej
steje
stek
stelle
stellen
stem
stempel
stenselowa
stepach
stephen
sterne
sterreich
sterreichische
steudel
steve
steven
stevens
sti
sticht
stiftung
stigloher
stil
stila
stilam
stile
stiller
stilow
stilowe
stilu
stimm
stivi
stjepan
stka
stki
stko
stkow
stkowa
stkowych
stku
stlich
stna
stnach
stnami
stne
stnego
stnem
stnik
stniki
stnje
stnjenje
stno
stnoju
stnosc
stnostne
stnow
stnu
stny
stnych
stnym
sto
stochowa
stochowskiej
stockholm
stog
stoj
stojas
stojał
stojała
stojało
stoje
stojeca
stojece
stojecy
stojecych
stojkovic
stojnis
stojtej
stole
stolica
stolicu
stolicy
stolpe
stom
stoma
stone
stones
stopjen
stopjenja
stopjenje
stopjenju
stopnja
stopnjach
stopnjami
stopnje
stopnjow
stopnjowa
stopnjowanje
stopnjowej
stopnjoweje
stopnjowu
stopnju
storkow
storm
storma
story
stos
stosc
stotne
stout
stow
stowa
stowe
stowu
stoz
stoł
stoła
stołk
stołka
stołkach
stołki
stołku
stq
str
stra
strait
stralsund
stranka
stras
strasburger
strasse
stratan
straupitz
strausberg
strauss
straz
straßburg
straße
straßner
stream
street
streetmap
strelicija
strelicije
strelicijowe
strelicijowych
strelitz
strelitzia
strelitziacea
strelitziaceae
strengbach
strict
stricta
striesow
string
strings
striping
strittmatter
strjawa
strjaz
stro
stron
strona
stronach
stronami
strone
strongpela
stronje
stronki
stronow
stronowu
stronu
strony
strow
strowja
strowotniskich
stru
structure
struga
struktura
strukturu
struktury
strumica
strus
stryko
strykow
strzelno
sts
stu
stuart
stub
studa
stude
student
studentami
studentow
studentske
studentskego
studenty
studi
studia
studie
studien
studij
studija
studije
studijny
studijnych
studijow
studiju
studium
studiuma
studiumach
studiumje
studiumom
studnia
study
stufe
stuhr
stupa
stupaju
stupała
stupis
stupił
stupowali
sturm
stuttgart
stuz
stv
stwa
stwje
stwo
stwoju
stwom
stwow
stwowa
stwowe
stwoweje
stwowy
stwu
sty
stych
style
stymi
styri
styrich
styriformowa
styriks
styrilicbne
styrimi
styriroz
styrji
styrjo
styrjoch
styrnasc
styrz
su
sub
suberosa
subfamily
subgenus
subjeks
subjekt
subjekta
subjektom
subjekty
subjunktiwej
sublobata
subnationale
subnationalen
subotica
subra
subsp
subst
substanca
substancy
substantiw
substantiwach
substantiwami
substantiwje
substantiwom
substantiwow
substantiwy
substitucije
substituierbare
subtilnu
subtribus
suc
success
such
sucha
suche
suchem
suchota
suchowola
suchu
suchum
suchy
suchych
suchym
suckata
sucre
sud
suda
sudan
sudanom
sudecka
sudnica
sudnik
sudnistwo
sudows
sueddeutsche
suez
suffruticosa
sufiks
sufiksa
sufikse
sufiksom
sufiksow
sufiksu
suite
suity
suk
suknje
sul
sulejo
suli
sultan
summer
sumpf
sumqayıt
sumu
sun
sunbird
sung
suno
sunset
sunt
suo
suomen
suor
suos
superintendent
superior
superlatiw
supermapy
supertribus
supraphon
supras
suprasl
sur
suraz
surinam
surinamom
surowa
surowin
surselva
surui
survey
sus
sused
susedne
susednej
susedneje
susedny
susednych
susednymi
susedy
suspende
sutchuenensis
suvereni
suwalki
suwałki
suwi
suz
suzuki
sv
svalbard
svaz
sve
sven
sverige
svg
sw
swahili
swahils
swahls
swajz
swakoju
swann
swantowit
swap
swastika
swe
swinja
swinje
switanje
switch
swj
swjec
swl
swo
swoj
swoje
swojej
swojeje
swojich
swojim
swojogo
swojomu
swoju
sy
syc
sydney
sydom
syk
syka
sykora
sylt
sylvatica
sylvestris
sylvilagus
sym
symbiozu
symbol
symbola
symbolami
symbole
symbolow
syme
symy
syn
syna
synagoga
synagoge
synagogue
synapomorfije
synchronore
synchronowy
synchrony
synonym
synonymom
synonymy
synoptiskich
syntagmow
syntagmy
syntaksa
syntaksu
syntaksy
syntax
syntetize
sypas
sypjuce
sypjucym
syre
syrikz
syriska
syriskej
syriskeje
syriskeju
syrje
syrotka
syrotowni
sys
syst
system
systema
systemach
systematice
systematics
systematik
systematika
systematiki
systematiske
systematiski
systemje
systemom
systemow
systemowe
systems
systemy
sz
sza
szablon
szadek
szcze
szczebrzeszyn
szczec
szczecin
szczecinie
szczecinje
szczytno
sze
szeged
szenia
szentendre
szepietowo
szer
szewczenko
szewczyk
szkaplerznej
szkoła
szl
szlak
szlo
szo
szor
szpital
szpitalnych
szukacz
szymborska
szymon
sız
słaba
słabe
słabem
słabje
słabych
słabym
słan
słany
słarja
słas
sławek
sławkojce
sławny
sławoj
sławomir
słał
sło
słobodskej
słod
słoda
słoden
słodka
słodke
słodkej
słodki
słodkich
słodko
słodkosc
słodne
słodny
słodu
słody
słokowa
słon
słone
słoneje
słonoweje
słonowinowego
słony
słopis
słow
słowa
słowach
słowacki
słowak
słowaks
słowakska
słowakske
słowakskego
słowakskej
słowakskeje
słowakskeju
słowakski
słowaksku
słowami
słowen
słowian
słowin
słowjan
słowjanami
słowjanow
słowjanskich
słowjany
słowje
słowjen
słowka
słowko
słowna
słowne
słownej
słowneje
słownik
słownika
słownikar
słowniki
słowniku
słownych
słowo
słowom
słowoma
słowoskład
słowoskłada
słowoskładom
słowosle
słowow
słowowkategorija
słowowu
słowu
słoz
słubice
słuchamy
słuchanju
słuchas
słuchał
słuchogras
słuchoknigły
słup
słupa
słupow
słupsk
słupy
słus
słuz
słyn
słynica
słynicowa
słynicy
słys
t
ta
taabo
tabarro
tabela
tabelach
tabele
tabeli
tabelle
tabellen
tabelow
tabelowe
tabelowej
tabelowsłupikowy
tabelowu
tabelowy
tabelu
table
tac
tach
tadaloko
tadeusz
tadeusza
tadic
tadz
tadła
tadło
tadłow
tag
tago
tagsy
tagung
tai
taim
taipei
taiwan
taiwanje
taiwanska
tajiri
tajmne
tajneje
tajo
tajuce
tak
taka
take
takego
takej
takeju
takem
takeo
takes
taki
takich
takim
takson
taksonomija
taksonow
taksony
taku
tal
talaminzi
talk
tallinn
talo
talsperre
tam
tama
tamas
tamazight
tami
tamil
tamna
tamne
tamnego
tamnjejs
tan
tanacetum
tandem
tanganjika
tangelo
tango
tanis
tanja
tanju
tansanija
tansanije
tansaniji
tansaniju
tantum
tanvald
tanzania
tanzanija
tanzaniju
tanzen
tap
tapa
tapak
tapc
tapce
tapiła
tappenbeck
tar
tara
taraxacum
taraz
tare
tarego
taregoz
tareje
tarejez
tarejuz
tarejz
tarem
taremu
taremuz
taremz
tarez
targeo
tarja
tarjach
tarje
tarjow
tarjowe
tarjowych
tarnobrzeg
tarnogro
tarnovo
tarnowo
taro
tarragona
tarstwje
tarstwo
taru
taruz
tary
tarych
tarychz
tarymiz
tarymz
taryz
tas
taschenfu
taschenlexikon
tasol
tasta
tastach
tastatura
tastaturje
tastatury
tastow
tastowe
tastu
tasty
tat
tatarska
tathe
tatjana
tausen
tavo
tawa
taxodiaceae
taxodioideae
taxodium
taxonomic
taxonomy
tayanna
taylor
tbagrowana
tbagrowaneje
tbagrowanych
tbe
tboka
tbłys
tc
tchyla
tchylenja
tchylenjam
tchylenje
tchylowas
tcynis
tcynjone
tczew
td
te
teama
teatr
teau
tebe
tebje
technical
technika
techniki
techniku
techniska
techniske
techniskej
techniskeje
techniski
techniskich
technologije
teci
tedanki
tefan
tegdejs
tegdy
tego
tegrona
tegronje
tegrono
tegul
teichmannowa
teil
tej
teje
tejerownosc
tejn
tejnska
tejnskej
tejnskeje
tejs
teju
tek
teke
tekewe
tekoteve
teks
teksc
tekst
teksta
tekstach
tekstar
tekstom
tekstow
tekstowe
tekstowej
tekstowy
tekstowym
teksty
tel
telavi
telefoniske
teleskop
teleskopa
telewizija
telewiziji
telewizijna
telewizijny
telewizne
telewizor
telo
teltow
telugu
tem
tema
temach
temami
tematiske
tematiskich
tembe
temje
tempel
tempelowe
temperatura
temperaturach
temperaturami
temperaturu
temperatury
templa
templat
template
templatedata
templates
templator
temple
tempo
tempor
temps
tempus
temre
temu
temudz
temy
ten
tencas
tendenca
tene
tenella
tenis
tenisowa
tenisowy
tenist
tennessee
tenor
tenorow
tenpflanzen
tenpo
teolog
teologa
teologije
teologiju
teologiskeje
teologiski
teoretikar
teorija
teorije
teoriji
teoriju
teplice
tequistlatecan
ter
tera
terceta
tercetoma
tere
tereg
terehe
terenje
terespol
tergaty
tergi
teritorij
teritorija
teritorijach
teritorije
teritorijow
teritoriju
teritorium
teritoriuma
teritoriumje
terje
termin
terminologie
terminologija
terminologije
terminus
terni
ternopil
terom
terorist
terra
terre
terrence
terry
tervomaa
terych
tes
teske
test
testamens
testament
testamenta
testowa
testy
tetelcingo
tetragona
tewre
texana
texas
texasu
text
textbausteine
textcolor
textdata
texte
textlinks
textstyle
textuelle
textwahl
teyrnas
tez
teza
tg
tgle
tgranicowanje
tgłosowanja
tgłosowanju
th
tha
thailandska
thailandskeje
thailandski
thaksin
thalarctos
thalictrum
tharaeus
tharuns
that
the
theater
theatre
their
theiss
thell
them
themes
then
theodor
theodora
theorie
theory
ther
therese
they
thibetanus
thilo
thin
things
this
tho
thomas
thomasa
thome
thomson
thorn
thory
thraker
thraki
thrakiska
thrakiske
thrakiski
three
throll
through
thu
thuja
thumb
thumbnail
thumbsize
thunb
thunderbird
thus
thymian
thymus
ti
tiassa
tiassale
tibet
tibetiska
tibeto
tibetske
tica
tie
tier
tiere
tiflis
tiges
tigrin
tigu
tilda
tildu
tilia
tilich
tilicha
till
tillich
tilman
tilney
tim
timbuktu
time
timeaxis
times
timidus
timo
timor
timur
tina
tiny
tip
tipa
tipowas
tipuj
tirana
tirol
tirola
tirolu
tis
tit
titan
titel
titela
titelami
titelan
titele
titelformat
titeln
titelom
titelow
titelowej
titelowu
titelowy
titels
titelu
title
titleclass
titlestyle
tito
tivoli
tj
tk
tka
tkalc
tkata
tkatowanja
tkatowanje
tkatowanju
tkatowany
tkaz
tkaza
tkazami
tkaze
tkazom
tkazow
tkazowa
tkazowanje
tkazowas
tkazowe
tkazujo
tkazy
tki
tko
tkow
tks
tkubłar
tkul
tkłonach
tl
tlac
tle
tlejs
tlijo
tlustulimu
tlx
tm
tme
tmyslona
tna
tnar
tnavbar
tne
tnego
tnej
tneje
tnem
tni
tnica
tnik
tniku
tnis
tnje
tnoga
tnowotki
tnoz
tnu
tny
tnych
tnym
tnymi
to
tobago
tobias
tobołka
toc
tocantins
tocenje
todaloka
todalokim
todaloko
todd
tofla
tofle
tofli
toflojte
toflowa
togo
togodla
toho
toi
tok
tokawske
tokawski
tokelau
toki
tokio
tokipona
tokiponi
tokpisins
tokyo
tola
tolkien
tolstoj
tom
toma
tomas
tomasz
tomaszo
tomata
tomb
tome
tomentosa
tomislav
tommy
tomnikow
tomongy
tomu
ton
tone
toney
tonga
toni
tonojte
tonow
tony
too
tool
toole
tooli
tooltip
top
topinambur
topis
topjen
toplevel
topografija
topografiska
topografiske
topographic
toponymie
topoquest
topoł
tor
torgawa
toringo
torm
torma
torminalis
toronto
torr
torre
torres
torsten
torta
tortu
tortuosa
torun
tos
tosca
toskanje
tot
toto
tou
toumani
tour
toure
tournefortiana
tow
towa
towali
towane
towanje
towanju
towany
towar
towaris
towaristwa
towaristwje
towaristwo
towaristwoju
towaristwow
towaristwowe
towaristwowego
towaristwowy
towarstwa
towarstwo
towas
tował
towe
towego
towej
toweje
towem
towemu
tower
towers
town
towo
towu
towy
towych
towym
tpadnu
tpi
tpo
tpokazał
tpowe
tpołdnja
tpołdnjo
tr
tra
trabzon
tracheobionta
tracht
trachtenbuch
trachyspermum
trade
tradicija
tradicije
tradiciji
tradiciju
tradicionalna
tradicionelne
tradicionelnje
tradicionelnych
tradition
tragedije
tragiskej
train
trajdowy
trajdowych
trajne
trajo
trajucy
tram
trammell
tramwaje
tran
trang
trans
transformation
transitiver
transitiwne
transitiwnje
transitiwny
transitiwnych
transitiwnymi
transkripcija
transkripciji
transliteracija
transparent
transparentnje
transsibirskeje
traore
tras
trauer
traugott
traugutta
trautv
trave
travolta
trała
tre
trebinje
trebis
tree
treffen
tremarctos
tremula
trenar
trenc
trentinje
trentino
tres
trexler
tribus
tribusa
tribusami
tribusoju
tribusom
tribusow
trichocarpa
tricolor
triflorum
trifolium
trik
trikowu
trilogija
trin
trinidad
trinidadiski
trinity
trio
tripela
tripolis
tritico
tritium
trjeba
trjebaju
trjebas
trjebne
trjebujo
trjebujomy
trjebujos
trjebuju
trjebule
trjeby
trjechow
trjefijo
trjefis
trjefjona
trjefjone
trjefjonego
trjefjonej
trjefjonem
trjefjony
tro
trocknen
trofa
trojce
trojcy
trompetar
tron
tronowy
tropach
tropicos
tropiska
tropiske
tropiskej
tropiski
tropiskich
tropow
tropy
trosł
trosła
trout
trov
trow
trownanje
trowska
tru
trudla
true
trujillo
truman
trump
tryb
trybunalski
trz
trze
trzebiel
trzyn
ts
tsajz
tsn
tstawk
tstawkom
tstoje
tstojece
tstojecy
tstojecych
tstotk
tstotka
tstotkom
tstotku
tstup
tstupił
tstupje
tsuga
tsypkowych
tszego
tszej
tszer
tszo
tt
ttam
tte
ttenstadt
ttrige
ttriger
ttudy
ttwarjujo
ttysacu
tu
tua
tuareg
tuaregs
tuberosus
tuchola
tuchylnem
tuchylny
tuchylu
tuckow
tucnego
tucnych
tude
tudejs
tudy
tufala
tuja
tujo
tuju
tuk
tula
tulcea
tule
tulle
tumas
tumpachowe
tun
tuneziska
tuneziskej
tunguzske
tunguzskich
tunica
tunis
tunisie
tuo
tupa
tupe
tupela
tupi
tupinamba
tupis
tupiske
tupiskich
tupych
turbacz
turbines
turcz
turdus
turek
turist
turistickamapa
turistiski
turistow
turisty
turizm
turjej
turjeju
turki
turkmen
turkmenski
turkojs
turkojska
turkojske
turkojskej
turkojskeje
turkojskeju
turkojski
turkojskich
turks
turm
turne
turnojski
turnow
turnu
turske
tusk
tuska
tuszyn
tutaj
tute
tuto
tutorial
tutu
tuvalu
tuz
tuzla
tuzsuz
tv
tvrt
twa
twar
twarc
twarda
twarde
twardej
twardeje
twardeju
twardnica
twardnicy
twardopackate
twardopackaty
twardopackatych
twardowan
twardowanje
twardowanski
twardu
twardy
twardych
twari
twarili
twarił
twarjar
twarje
twarjenego
twarjenim
twarjenja
twarjenjach
twarjenje
twarjenjow
twarjenju
twarjow
twaroz
twarske
twarski
twarz
twe
twierdza
twisna
twisne
twisnego
twisnem
twisnje
twisnosc
twisny
twisnych
twisnym
twisnymi
twistne
twisujo
twisuju
twisujucy
two
twobros
twoja
twoje
twojogo
twoju
tworba
tworbow
tworby
twori
tworjenju
twołana
twołany
twrjenem
twy
txantiloi
txe
ty
tyca
tych
tychy
tyczyn
tydz
tykac
tykace
tykan
tykocin
tym
tymi
tymjenjowa
typ
typa
typach
typami
type
types
typha
typhaceae
typiska
typiske
typiski
typje
typological
typowas
typy
tyrrenske
tyrrenskim
tyrska
tys
tysac
tysacami
tysacow
tysia
tyszowce
tyz
tz
tzamknuł
tze
tzelsee
tzen
tzlich
tzliche
tzolkin
tzt
tzten
tzter
tzw
tła
tłe
tło
tłobrune
tłocerwjene
tłomo
tłoroz
tłos
tłowe
tłoz
tłozelene
tłu
tłusc
tłusta
tłuste
tłustosc
tłustu
tłusty
tłych
tłymi
u
ua
uahe
uang
uara
uba
ubangi
uber
ubi
ubos
ubs
ubska
ubskego
ubskej
ubski
ubt
ubuntu
uby
uc
ucher
udes
udio
udo
udy
uefa
ueter
uetersen
ufer
uflitowar
ug
uga
uganda
ugandu
ugetiere
ugi
ugojte
ugow
ugriske
ui
uj
ujgurska
ujiti
ujo
ujom
uju
ujuca
ujuce
uk
uka
uki
uko
ukowo
ukr
ukraina
ukrainar
ukrainarje
ukrainje
ukrainska
ukrainski
ukrainu
ukrainy
ukuri
układ
ul
ula
ulach
ule
ulens
uli
ulica
ulice
ulicy
uliginosum
ulita
uljanowsk
ullamco
ullstein
ulm
ulmaceae
ulmaria
ulmer
ulmus
ulo
ulow
ulowy
ulrich
ulska
ulske
ulskego
ulskem
ulski
ulskich
ulstwa
ulu
ulysses
um
umbelliferae
umberto
umbraculifera
ume
umgesetzt
umi
umig
umstritten
umwandlungen
un
una
unca
uncinata
uncu
und
under
undergoer
unesco
ungarische
ungefa
uni
unia
unicode
uniejo
unija
unije
uniji
uniju
unilang
union
unired
unit
united
unity
univ
universal
universidad
universita
universiteti
university
uniwersalna
uniwersis
uniwersita
uniwersitach
uniwersitna
uniwersitne
uniwersitu
uniwersity
uniwersum
uniwersuma
uniwersumje
uniwersytet
unk
uno
unow
uns
unsere
unserer
unsichtbarer
unstrut
unten
unter
unterlegt
unterricht
unterscheidbar
untersten
unterstu
untersuchungen
untervorlage
untervorlagen
unterwegs
unu
uo
up
upa
upan
upanom
upc
upcu
update
upe
upon
upper
upright
upu
upy
ur
ura
uraja
ural
urala
uralske
uralskich
urania
urban
urbanistyczny
urdu
urdus
urduski
urja
url
urla
urman
urmap
urnalist
urnalista
urnalistika
urnalistiki
urnalistiskich
urnalistka
urnalistki
urocyon
urowane
urowanja
urowanju
ursidae
ursinum
ursula
ursus
ursyn
uru
uruguay
uruguayski
urva
urza
urzad
us
usa
usage
usbekistan
usbekistanom
usda
use
used
usedom
user
uses
using
uska
uske
uskego
uskej
uskeje
uski
ustka
ustron
ustrzyki
usual
usually
usw
ut
uta
utc
ute
utej
utf
utm
uto
utoto
uttar
uty
utych
uv
uva
uw
uwas
uwe
uyumu
uz
uzdrowisko
uze
v
va
vaccinium
vacek
vajgl
val
valdocco
vale
valencia
valenciana
valencians
valparai
value
van
vance
vanuatu
vanuatua
vapa
var
varakl
varia
variation
variegatus
varnsdorf
varphi
vas
vasco
vat
vatikan
vattenfall
vauquelinia
vbb
vcard
ve
veb
vel
veliko
velit
vella
venezuela
venezuelski
venezuelu
veniam
vento
venus
vera
verb
verband
verbo
verbos
verde
verdi
vergeben
vergissmeinnicht
vergleichende
vergro
verkehrsverbund
verlag
vermieden
vernalis
vero
veronica
verrucosa
version
vert
vertical
verticillatum
verum
verwenden
verwendete
verwendung
very
vester
veszpre
vetschau
vez
vhez
vi
via
viadrina
viajn
viamichelin
viburnum
vicia
viciebsk
victor
victoria
victory
vida
vier
vietnam
vietnama
view
vii
viii
vijiti
vikipedio
viktor
viktoriaski
vil
vill
villa
village
villarsii
ville
villi
villosa
villosum
vilma
vilnius
vin
vincent
vineta
vinifera
viola
virgin
virginia
viridis
viscaceae
viscum
visintin
visitor
vista
vita
vitalis
viti
vitis
vitoto
viva
vivian
vivo
vladimi
vladimir
vlət
vn
vnovgorod
vo
vocant
voice
vol
volk
volker
volkseigener
volksforschung
volleyball
volta
volume
voluptate
vom
von
voodoo
vor
vorangesteller
vorangestellt
vorausgefu
voraussetzung
vorbedingungen
vorgaben
vorhanden
vorhandene
vorlage
vorlagen
vorlagenauswertung
vorlageneinbindung
vorletzten
vorletztes
vorpommern
vorschlagen
vortaro
vorvorletzten
vrindavan
vs
vu
vulgare
vulgaris
vulpes
vy
w
wa
waafrika
waals
wabrzezno
wac
wacka
wacki
wacław
wafla
waga
wagenknecht
wagu
wahr
wahrheitstabelle
waikurian
wajdars
waju
wajuce
wako
wal
walcojte
waldst
waldstadt
walencowe
walentin
walery
wales
wali
walizarjow
walizis
waliziska
waliziskej
waliziskeje
waliziski
walk
wall
wallace
wallingford
wallis
walls
walnuss
walo
walt
walter
walters
walther
wam
wami
wan
wandel
wanem
wangen
wanje
wanju
wanpela
want
wao
wappen
war
ward
waren
wari
wariabelne
wariabla
wariable
wariabli
wariablu
wariacija
wariacije
wariaciju
warians
warianta
wariantach
wariantami
wariantow
wariantowu
wariantu
warianty
warie
warietetnosc
waris
warje
warjen
warjetety
warjone
warka
warko
warmin
warnoc
warnow
wars
warsaw
warschau
warsta
warstowanje
warsty
warszawa
warszawie
warszawska
warta
wartbar
wartu
wartungslink
was
washington
wasilko
waso
wassermann
waterfield
watoto
watson
wau
wawel
wawrzyn
waz
wał
wała
wałma
wało
wałtora
wc
wcyna
wcyny
wda
we
web
webbok
webelements
weber
webkit
weblinks
weblogs
webowe
webowy
websedle
websedła
websedło
websedłow
website
webstrona
webstronje
webstrony
wedd
weder
wedojska
wedojski
weds
wedska
wedskej
wedskeje
wedski
weekday
weekdayname
weg
wegen
weglassen
wego
weil
weimar
weimarska
weimarskeje
weiss
weissenberg
weitere
weitergeben
weizsa
weiß
weiße
weißenfels
wej
wejhera
wejherowo
wejrowo
wejs
wejsan
wejsanarka
wejsna
wejsne
wejsny
wejsnych
wejsnymi
welche
welchen
welcher
welches
weliko
welke
wellingtonia
welsh
welt
weltall
weltraum
wem
wen
wenden
wendisch
wendische
wendischen
wendischer
wendisches
wendish
wendland
wendowojskem
wendowojski
wends
wenedyk
wenedyku
wenige
wenka
wenkowna
wenkowne
wenkownego
wenkownej
wenkowny
wenkownych
wenn
wenus
wenzel
weps
wer
werb
werba
werbach
werbami
werbje
werboju
werbow
werbowa
werbowe
werbowej
werbowy
werbowych
werby
werbywopis
werden
werk
werner
wernera
werse
wersija
wersijami
wersije
wersiji
wersiju
wert
werte
wertebereich
wertet
wertikalna
wertikalnje
wertikalnu
wertikalnych
werwigk
wesrjejz
west
western
westfalska
westfalskej
westfalskeje
westminster
wet
weto
wettigska
wewe
wezymskego
wezymski
wgs
wheat
when
where
which
whisky
white
whitney
who
wi
wic
wica
wicar
wicarska
wicarske
wicarskej
wicarskeje
wicarski
wicarskich
wicarsku
wice
wiceprezident
wicy
wida
wide
wideo
widlicki
widmann
widne
widnik
widniku
widobne
widok
width
widwin
widwinie
widz
widziany
wie
wiebelsheim
wiecie
wieciu
wieczorek
wieder
wiednitz
wielka
wielki
wielkie
wielkiego
wielun
wien
wiersze
wierszy
wieruszo
wieruszowie
wies
wiesbaden
wiesen
wiesengrund
wiez
wieza
wight
wijuce
wikach
wikawa
wikawje
wikawy
wiki
wikidny
wikifice
wikijach
wikijowu
wikiju
wikikod
wikimedia
wikiminiatlas
wikipe
wikipedia
wikipedii
wikipedija
wikipedijach
wikipedije
wikipediji
wikipedijowych
wikipediju
wikiprojekt
wikisource
wikispecies
wikisłownik
wikitekst
wikiteksta
wikivoyage
wikiz
wiknica
wikow
wikowan
wikowanis
wikowanja
wikowar
wikowarja
wikowarje
wikoz
wiktionary
wiktor
wild
wildapfel
wilde
wildt
wildwachsende
wilfried
wilhelm
wili
will
willa
willard
willd
willi
william
williams
willis
willy
wilno
wilson
win
wina
winar
wincenty
wind
windisch
window
windows
winicach
winikam
winiki
winklerowa
winnica
wino
winocerwjene
winow
winowa
winowatosc
winowaty
winowc
winowe
winowy
winski
winston
winter
winu
winy
wioletna
wioletne
wipper
wir
wird
wirt
wirtgenii
wirtschaft
wirtuelne
wirtuelny
wis
wisata
wisconsin
wise
wisece
wisecych
wish
wisla
wisle
wismar
wissen
wissenschaft
wissenschaften
wisła
wisława
wisłu
witaj
witalski
witamina
witaminy
witane
witany
witebsk
witebski
with
within
witka
witkojc
witkowe
witkowych
wittenberg
wittichenau
wiz
wizumy
wjacor
wjacora
wjacorje
wjacorne
wjacornjejs
wjacsławk
wjacława
wjadli
wjadł
wjadła
wjadło
wjas
wjasc
wjasce
wjasele
wjaska
wjaskej
wjaskeje
wjaski
wjec
wjednica
wjednik
wjednistwa
wjednistwo
wjednistwom
wjedrje
wjedro
wjedrowe
wjedu
wjela
wjelbowanej
wjelcej
wjele
wjelec
wjelesemjenjowy
wjelgin
wjelicka
wjelickem
wjelicki
wjelika
wjelike
wjelikego
wjelikej
wjelikeje
wjelikeju
wjelikem
wjelikemu
wjeliki
wjelikich
wjelikie
wjelikiego
wjelikim
wjelikimi
wjelikobritaniska
wjelikobritaniskej
wjelikobritaniskeje
wjelikopisanje
wjelikopismikami
wjelikopo
wjelikopłodowa
wjelikoraz
wjelikosc
wjeliku
wjelk
wjelka
wjelkomlokowe
wjelkomlokowych
wjelkowe
wjelkowje
wjelryby
wjen
wjenk
wjenka
wjeras
wjerbnje
wjerbno
wjerbowe
wjerbowych
wjerce
wjerch
wjercha
wjerchami
wjerchojstwa
wjerchojstwo
wjerchom
wjerchow
wjerchowego
wjerchowymi
wjerchu
wjerchy
wjers
wjertnych
wjes
wjets
wjez
wk
wka
wki
wladikawkaz
wladimir
wladimirowic
wladyslawowo
wliw
wliwom
wliwy
wloclawek
wlz
wmap
wna
wne
wniebowzie
wny
wo
wob
woba
wobalce
wobalka
wobalki
wobalku
wobbe
wobcerba
wobcerbje
wobcerbu
wobcerjenju
wobcerk
wobcerka
wobcerkach
wobcerki
wobcerku
wobchad
wobchada
wobchadne
wobchadnej
wobchadniski
wobchadny
wobchadowe
wobchod
wobchowa
wobchowaju
wobchowali
wobchował
wobdane
wobdaneje
wobdarjonego
wobdaty
wobdawa
wobdawajuce
wobdawajucy
wobdz
wobe
wobei
wobej
wobeju
wobes
wobgle
wobgo
wobgranicowali
wobgranicowana
wobgranicowane
wobgranicowanja
wobgranicowanje
wobgranicowanjow
wobgranicowany
wobgranicujo
wobgroz
wobgrozenje
wobgrozona
wobgrozone
wobgrozony
wobgrozyju
wobija
wobijas
wobinus
wobjadnaju
wobjadnawaju
wobkne
wobkruz
wobks
woble
woblicenja
woblicenjach
woblicenje
woblico
wobliconych
woblicujo
woblicys
woblubowana
woblubowane
woblubowany
wobme
wobnowis
wobnowjacu
wobnowjenje
wobora
wobory
wobps
wobraz
wobraza
wobrazach
wobrazami
wobraze
wobrazk
wobrazkom
wobrazkoweje
wobrazo
wobrazoju
wobrazom
wobrazoma
wobrazow
wobrazowa
wobrazowanju
wobrazowe
wobrazoweje
wobrazowki
wobrazowy
wobrazowych
wobrazu
wobrazy
wobronjonych
wobros
wobrosc
wobrotna
wobrotnej
wobrotneju
wobrotnyma
wobroty
wobs
wobsah
wobsajz
wobsedlenje
wobsedlona
wobsedlone
wobsedlony
wobsedlonych
wobsednuli
wobsedstwo
wobsejz
wobstas
wobstatk
wobstatki
wobstatkow
wobstatku
wobstejnosc
wobstoj
wobstojał
wobstojała
wobstoje
wobstojnosc
wobswe
wobsydstwowa
wobtwarz
wobwe
wobwjers
wobwliwowane
wobwliwowanje
wobwliwował
wobwliwowała
wobwliwowałej
wobwliwujo
wobwo
wobwoda
wobydlar
wobydlarja
wobydlarjach
wobydlarjami
wobydlarje
wobydlarjow
wobydlarstwo
wobydlony
wobyma
wobz
wobzamknuł
wobznamjenje
wobzwadna
wobzwadne
wobłuk
wobłuka
wobłukach
wobłukas
wobłuki
wobłukow
wobłukowa
wobłukowych
wobłuku
woc
woce
wocko
woda
wodny
wodowe
wodrjewjonu
wodrjewjony
wody
wodz
wodzie
wogen
wogle
wognja
wognjowa
wogonk
wogonka
wogonkach
wogonkata
wogonkate
wogonkatych
wogonki
wogonkow
wogonku
wogre
woidke
woitow
woj
wojciecha
wojewo
wojnje
wojny
wojska
wojto
wojtyła
wojwodina
wok
wokal
wokala
wokalach
wokalami
wokale
wokalek
wokalna
wokalnej
wokalneje
wokalnu
wokalnych
wokalom
wokaloma
wokalow
wokalowa
wokalowymi
wokalu
wokatiw
wokna
woknje
wokno
woko
wokognus
wokolina
wokolinje
wokoliny
wokolnosc
wokomiki
wokołka
wokołkach
wokołki
wokołkojtych
wokołkowa
wokołkowe
wokołkowych
wokołku
wokoło
wokrejs
wokrejsa
wokrejsach
wokrejse
wokrejsne
wokrejsneju
wokrejsnem
wokrejsow
wokrejsu
wokrejsy
wokrjes
wokrjesu
wokłona
wola
wolaz
wolbo
wolborzu
wolf
wolff
wolfgang
wolfsmilch
wolga
wolgi
wolin
wolkow
wolnos
wolodymyr
wolschinka
wolumen
wolumena
woman
women
won
wona
wonej
wonem
woni
wono
wonu
wony
wood
woodstock
wopacne
wopacnje
wopak
wope
wopis
wopisa
wopisana
wopisane
wopisanje
wopisanju
wopisanu
wopisas
wopisał
wopisma
wopismje
wopismo
wopismow
wopisn
wopisowane
wopisowanje
wopisowas
wopisował
wopisujo
wople
wopo
wopomnjen
wopon
woponje
wopor
wopowan
woprawdz
wopros
woprowas
woprowała
wops
wopus
wopyt
wopyta
wopytach
wopytaju
wopytali
wopytas
wopytał
wopytowali
wopytowan
wopytujo
wopytuju
wopłonjenje
wopłonjona
wopłonjone
wopłonjony
wopłoz
worak
worjechowy
worjejce
worjes
work
working
worklecach
worklecy
works
world
worldcat
wornar
wort
wos
wosady
wosebje
wosebnje
wosymych
wot
wotemre
wotkaz
wotkazy
wotme
wotmołwa
wotre
wotrow
wotrowje
wotrowskeje
wotroz
wots
would
wow
wowc
wows
woz
wozjawjone
woznamje
woznamjenja
woł
woła
wołali
wołan
wołanja
wołanje
wołany
wołał
wołojnik
wołomuz
wołyn
wp
wrap
wrestler
wright
writing
wrjosowe
wrjosowych
wro
wroblik
wroclaw
wrocław
wrocławja
wron
wros
wrota
wrotow
ws
wscho
wsow
wsy
wszystkich
wu
wub
wubarwi
wube
wubijanim
wubocne
wubrane
wubrany
wubras
wubrał
wubuz
wuc
wucabnica
wucabnik
wucabnika
wucabniki
wucabnikojski
wucabnikow
wucba
wucbje
wucbne
wucbnica
wucbnicow
wucbu
wucby
wucen
wuchac
wuchace
wuchada
wuchadaju
wuchadajucy
wuchadnis
wucho
wuchoda
wuchodna
wucony
wucynijo
wucynk
wucys
wucył
wucz
wud
wuda
wudac
wudaja
wudane
wudany
wudanych
wudas
wudawa
wudawali
wudawany
wudawar
wudawas
wudawał
wudał
wudała
wudało
wudobys
wudobywanje
wudobył
wudwor
wufiltrowas
wugbajo
wugbaju
wugbanja
wugbanje
wugbas
wugbał
wugel
wugla
wugle
wuglik
wuglika
wuglikowa
wuglikowe
wuglikowego
wuglikowej
wuglikowy
wuglikowych
wuglowych
wugnas
wugo
wugranja
wugranjaju
wugranjas
wugron
wugroni
wugronijo
wugroniju
wugronis
wugronił
wugronje
wugronjenja
wugronjenje
wugronjenju
wugronjone
wugrono
wuj
wujadnas
wujasnis
wujasnjenja
wujasnjenje
wujasnjone
wujasnjujo
wuje
wujes
wujk
wujs
wujz
wuknik
wuknikam
wukniki
wuknikow
wuknjen
wuknjenje
wuknjo
wuknu
wuknus
wuknuł
wuknuła
wukrajnych
wukraju
wuks
wukubłanje
wukupjen
wukładowanje
wukładowanjow
wukładowanju
wukładuju
wukładł
wulas
wule
wulew
wulewa
wulewje
wulfen
wulff
wulichowan
wulichowanja
wulichowanje
wulichował
wulicowan
wulicowanja
wulicowanje
wulicowar
wulicowas
wulicowało
wulicujo
wulicuju
wulicyjo
wulkan
wulkana
wulkaniskich
wulki
wulkich
wulosowali
wulosowało
wum
wumarła
wumarłe
wumarłych
wume
wumo
wumre
wunamakanje
wunamakar
wunamakał
wunjaso
wupada
wupadnjenje
wupady
wupjeln
wupo
wupołnjone
wupołnjony
wupr
wups
wupys
wuraz
wurazom
wurdack
wurde
wurden
wure
wurlis
wurosc
wurostk
wurostkach
wurostki
wurostkow
wurownane
wuryte
wus
wusajz
wusc
wuschnjenju
wuscyna
wuscynu
wuscyny
wuseguju
wusegujucu
wuska
wuske
wuski
wuskich
wusko
wuskolancetojtem
wusle
wusme
wusmjers
wusocynje
wusocyny
wusoka
wusoke
wusokego
wusokej
wusokeje
wusokeju
wusokem
wusoki
wusokich
wusokim
wusokimi
wusoko
wusokos
wusokosc
wusokostnego
wusoku
wuspe
wustajen
wustajone
wustatkowanja
wustatkujo
wustatkuju
wustaw
wustawa
wustawje
wustawu
wustawy
wustnje
wustrow
wustude
wustup
wustupa
wustupił
wustupiła
wustupowali
wustupowanja
wustupowanje
wustupowas
wustupował
wustupujo
wustupujotej
wustupuju
wustupujuce
wustupy
wusunus
wusus
wuswe
wuswo
wutka
wutkate
wutkow
wutkowe
wutkowych
wutrajne
wutrobic
wuts
wutwo
wutwor
wutworis
wuwe
wuwija
wuwijaju
wuwijali
wuwijanje
wuwijar
wuwijarje
wuwijas
wuwijał
wuwijo
wuwili
wuwis
wuwita
wuwitych
wuwiwa
wuwiwaju
wuwiwas
wuwił
wuwiła
wuwiło
wuwjadło
wuwo
wuwoła
wuwołanje
wuwucowan
wuwucujo
wuwzas
wuwzes
wuz
wuzamknjona
wuzamknus
wuzamkowanje
wuzbe
wuznam
wuznama
wuznamje
wuznamjenjonych
wuznamna
wuznamne
wuznamnej
wuznamny
wuznas
wuznał
wuzwignjo
wuzwignjony
wuzwignjonym
wuzwignuli
wuzwignus
wuzwignuł
wuzwigujo
wuzwiguju
wuzwo
wuzwoli
wuzwolił
wułoz
ww
www
wy
wybrane
wybrzez
wyd
wyk
wylem
wylema
wyli
wym
wyrgac
wys
wysoka
wysoki
wysokie
wysokosc
wyz
wzejo
wzejos
wzeli
wzes
wzeł
wzgo
władysław
władysławowo
włocławek
włocławku
włocławski
włodawa
włodzimierz
włosy
włoz
x
xa
xaver
xavier
xb
xe
xeta
xfce
xhtml
xi
xic
xii
xiii
xiv
xix
xixw
xizang
xl
xml
xn
xo
xochipilli
xochiquetzal
xp
xs
xul
xv
xvi
xvii
xviii
xx
xxiii
xxw
xxx
xyz
xz
y
ya
yahoo
yako
yang
yantra
yatra
yaxkin
ybar
yc
yca
ycanarje
ycanarjow
ycanu
yce
ycen
ycenje
ych
ychlin
ycka
ycke
ycki
yckie
yckiego
yckiej
ycko
ycone
yconkach
yconki
yconu
ycu
ycy
yd
ydam
ydka
ydojska
ydojske
ydojskej
ydojskeje
ydojskem
ydojski
ydojskich
ydojskim
ydojsko
ydojstwa
ydojstwje
ydow
ydowka
ydła
ydło
ye
year
yearcc
years
yearyy
yellow
yes
yet
yi
yj
yja
yje
yjo
yju
yk
yka
yke
yki
ykne
yknego
yknem
yknje
ykno
yknu
ykny
yknych
yknym
yknymi
ykom
yli
ylow
ylowje
ylowk
ym
yma
yman
ymd
ymi
yn
yna
ynach
ynam
ynami
yne
yngis
ynje
ynka
ynom
ynoma
ynow
ynowe
ynowych
ynu
ynwops
yny
ynz
yo
yokohama
york
yorku
you
young
your
youtube
ypojta
yrina
yrinach
yrinje
yrinoma
yrinowa
yrinowe
yrinowego
yrinowy
yrinowych
yrinowym
yrinu
yriny
yris
yrił
yriła
yrjen
yrjenim
yrjenja
yrjenje
yrjenjeps
yrjenjow
yrjenju
yrjona
yrjone
yrjonej
yrjonu
yrjony
yrjonym
yrjujo
yrjuju
yrna
yrne
yrny
yroka
yroke
yrokego
yroki
yrokich
yrokim
yroko
yrokosc
yroku
yrs
ys
yska
yske
yskego
yskej
yskeje
yskem
yski
yskich
ysku
yta
ytawa
ytawy
yte
ytej
ytna
ytne
yto
yty
ytych
yu
yuen
yuman
yumi
yunnan
yunnanensis
yupela
yuri
yurumangui
yva
yves
yvy
yw
ywa
ywabne
ywaj
ywaja
ywaju
ywajucy
ywali
ywamy
ywana
ywane
ywanego
ywanej
ywaneje
ywanim
ywanja
ywanje
ywanju
ywanu
ywany
ywanych
ywar
ywarja
ywarjam
ywarje
ywarjow
ywarske
ywarski
ywarskich
ywas
ywatej
ywał
ywała
ywe
ywej
ywidła
ywiec
ywis
ywił
ywiła
ywje
ywjen
ywjenja
ywjenjach
ywjenje
ywjenjobe
ywjenju
ywk
ywkow
ywne
ywnosc
ywnych
ywo
ywom
ywot
ywowa
ywowej
ywoweje
ywoweju
ywowy
ywy
ywych
ywymi
yy
yyyy
yz
ył
yła
yłej
yłkowe
yłkowych
yłkowym
yłkowymi
yło
z
za
zabe
zabel
zabern
zabijanje
zabis
zabrod
zabrze
zabudowa
zabys
zabytkowa
zabytkowy
zabył
zabłudo
zabłuz
zac
zach
zachadnem
zachadnosc
zachadny
zachodnia
zachopi
zachopijo
zachopiju
zachopili
zachopina
zachopinaju
zachopinas
zachopis
zachopił
zachopiła
zachopiło
zachopjen
zachopjonym
zachopk
zachopnego
zachowanje
zacus
zacynis
zacynjate
zacynje
zacynjony
zacynjonych
zadar
zadobyła
zagmejnowany
zago
zagonach
zagreb
zagreba
zagrodach
zagrodna
zagrodne
zagrodneje
zagrodny
zagronita
zagronite
zahl
zahn
zahnwurz
zahradil
zahrodna
zahrodnik
zahsow
zaire
zajazd
zajm
zajmne
zajmnostka
zajmnostkach
zajmnostki
zajmy
zajs
zajts
zajz
zak
zakar
zakaz
zakazana
zakazane
zakazany
zakazał
zakazała
zaki
zakliko
zako
zakopowany
zakopowarske
zaks
zakulone
zakład
zakładna
zakładne
zakładnej
zakładneje
zakładny
zakładnych
zakładnym
zakłady
zakłaz
zakłodneje
zale
zalew
zalewa
zalewje
zalewom
zalewy
zaliznjak
zaliznjaka
zambro
zame
zamek
zamenhof
zamkowy
zamku
zamo
zamordowali
zamordowana
zamordowany
zamos
zamosc
zamre
zan
zana
zander
zane
zanec
zanej
zanja
zanjasona
zanje
zanjow
zanju
zanosc
zany
zanych
zapadakowej
zapadna
zapis
zapisa
zapisane
zapisanje
zapisany
zapisas
zapisał
zapisała
zapisk
zapiskami
zapiski
zapiskown
zapisujo
zapisuju
zapo
zapoc
zapowe
zapre
zaps
zapus
zapusc
zapust
zapusta
zar
zare
zarjenk
zarodk
zarosc
zarow
zas
zasadnje
zasady
zasadz
zasajz
zasedlenja
zasedlone
zasej
zasko
zaspach
zaspy
zastanis
zastojan
zastojanje
zastojnik
zastojniski
zastojnisku
zastojnska
zastojnstwa
zastojnstwje
zastojnstwo
zastojnstwowe
zasts
zastupi
zastupił
zastupjar
zastupjarjam
zastupjarje
zastupjarjow
zastupjone
zastupnicy
zastupnik
zastupniki
zastupnikow
zastupnistwa
zastupnistwo
zastupny
zastupowany
zastupowało
zastupujo
zastupuju
zastupujucy
zasunjenim
zasuwa
zasuz
zasłuz
zauche
zavou
zawe
zawiercie
zawinowas
zawinuju
zawitk
zawitkach
zawjadł
zawjasc
zawjedujo
zawjedz
zawjez
zawlacone
zawo
zawod
zawodow
zawros
zaz
zazaki
zazdas
zazne
zał
załgosc
zało
załom
załoz
załuski
załzojs
załzy
zba
zbami
zbe
zbigniew
zbje
zbo
zbow
zbowych
zboz
zbu
zbuz
zby
zbytk
zbytki
zbytne
zc
zd
zda
zdach
zdalona
zdalone
zdalonosc
zdalony
zdami
zdarnje
zdas
zdatna
zdatne
zdatnej
zdatnem
zdatnu
zdatny
zdatnych
zdene
zdne
zdnem
zdno
zdo
zdobyli
zdonk
zdonka
zdonkach
zdonki
zdonkom
zdonkow
zdonku
zdow
zdowe
zdowy
zdrjaju
zdrjas
zdrjałe
zdrjałosc
zdrjałych
zdrjewjony
zdro
zdroj
zdu
zdun
zdwola
zdy
zdz
zdze
zdzisław
ze
zea
zebnica
zebras
zece
zecy
zeder
zee
zef
zefa
zeger
zehntel
zeichen
zeichenketten
zeichens
zeit
zeitschrift
zeitung
zeitz
zeißholz
zej
zejgrał
zejgrało
zejler
zejlera
zejlerja
zekne
zeknes
zeks
zela
zele
zelena
zelene
zelenego
zelenej
zeleni
zelenina
zeleninu
zelenis
zelenje
zeleno
zelenogo
zelenojs
zelenojte
zelenskij
zelenu
zeleny
zelenych
zelenym
zelenymi
zeleznica
zeleznicar
zeleznice
zeleznicow
zeleznicowa
zeleznicowe
zeleznicowej
zeleznicowna
zeleznicowy
zeleznicowych
zeleznicu
zeleznicy
zelezniske
zelezniskej
zelis
zelka
zelo
zeloty
zelowie
zelowych
zem
zeman
zeme
zemgals
zemi
zemja
zemjach
zemjami
zemjan
zemje
zemjepo
zemjerdz
zemju
zemre
zemske
zemskego
zemskej
zemskeje
zemskem
zemskemu
zemski
zemskich
zemskim
zemsku
zen
zenaga
zenati
zenica
zentriert
zepe
zernka
zernko
zernkow
zerske
zerskich
zes
zeserbs
zespo
zespol
zespominanje
zest
zestaja
zestajaju
zestajane
zestajanki
zestajanych
zestajar
zestajas
zestajał
zestajałej
zestajenje
zestajijona
zestajis
zestajił
zestajiła
zestajone
zestajony
zestarjete
zestarjona
zestarjone
zestarjony
zestarjonych
zeszyty
zeta
zetland
zewna
zews
zeyh
zez
zezbe
zezdrjaju
zeznał
zga
zgate
zgi
zgibnjone
zgibowanu
zgierz
zgo
zgorzelec
zgowe
zgromadne
zgromadnego
zgromadnem
zgromadnje
zgromadnosc
zgromadnu
zgromadny
zgromadnych
zgromadnym
zgromaz
zgu
zgubiju
zgubili
zgubił
zgubiła
zgubuju
zh
zhltl
zhromadz
zhytomyr
zi
zichyu
zico
zielona
ziemi
ziemia
ziemskie
ziergeho
ziesmer
zilupe
zilupes
zimbabwe
zimmermann
zinn
zisch
zise
zittau
zj
zjadnorjenje
zjadnos
zjawi
zjawił
zjawiła
zjawjenja
zjawjenje
zjawjone
zjawjony
zjawne
zjawnego
zjawnje
zjawnosc
zje
zjednoc
zjednos
zk
zka
zkach
zkami
zki
zkoju
zkom
zkow
zkowa
zkowe
zkowego
zkowej
zkoweje
zkoweju
zkowem
zkowemu
zkowy
zkowych
zkowym
zkowyma
zkowymi
zks
zku
zky
zlata
zle
zlik
zm
zmakali
zmakanjach
zmakanje
zmakał
zmars
zme
zmes
zmo
zmoray
zmuz
zmysle
zna
znac
znajo
znajobnosc
znajomy
znajos
znaju
znak
znali
znam
znama
znamja
znamjami
znamje
znamjeni
znamjenijo
znamjenis
znamjenja
znamjenjami
znamjenjen
znamjenjenja
znamjenjenje
znamjenjone
znamjenjow
znamjenjowanka
znamjenjowas
znamjenjował
znamjenju
znamjenjujo
znamjenjuju
znamjes
znamjo
znamom
znamowosc
znamus
znamy
znanjenja
znanki
znas
znata
znate
znatego
znatej
znateje
znatu
znaty
znatych
znatym
znatymi
znawaju
znał
znała
zne
znego
znej
zneju
znem
znicenje
znicenju
znicył
zniz
znja
znje
znjejs
znjom
znjone
zno
znoj
znowa
znowego
znu
znuts
zny
znymi
zo
zoju
zone
zootiere
zor
zoran
zorana
zow
zowany
zowas
zowe
zowych
zrazom
zre
zrn
zrosc
zrownana
zrownane
zrownany
zrownju
zroz
zs
zsa
zsef
zu
zub
zubajova
zubate
zubatej
zubatymi
zubick
zubje
zubkami
zubki
zuby
zucc
zucchini
zug
zugeho
zugeteilt
zugspitze
zujo
zuju
zujuca
zujuce
zujucy
zuk
zuka
zukach
zuki
zukow
zukowa
zukowe
zukowem
zukowje
zukowo
zukowy
zukowych
zuku
zukunft
zum
zuordnen
zur
zuru
zusa
zusammen
zusammengefasst
zuzana
zuzuordnen
zvon
zvony
zw
zwe
zwei
zweimal
zweiten
zweiter
zweites
zweitsprache
zwenka
zwenkowna
zwenkowne
zwenkowny
zwiastowania
zwickau
zwickauer
zwierzyniec
zwiganje
zwigas
zwignus
zwinger
zwischen
zwisk
zwisku
zwisujo
zwj
zwjazk
zwjazki
zwo
zwobrazni
zwobraznili
zwobraznis
zwobraznił
zwobraznja
zwobraznjenja
zwobraznjenje
zwobraznjenski
zwobraznjona
zwobraznjone
zwobraznjowanje
zwobraznjujo
zwobraznjuju
zwobrazowanego
zwobrazowanja
zwobrazowanje
zwobrazowanju
zwobrazowany
zwobrazowas
zwuc
zwucenja
zwucone
zwuconej
zwuconosc
zwucowanja
zwucowanje
zwurazniju
zwuraznis
zwuraznja
zwuraznjas
zwuraznjowas
zwuraznjuju
zwycie
zy
zyc
zygmunt
zyk
zyka
zykowe
zykłamate
zylistowych
zyma
zymami
zymje
zymne
zymnemu
zymska
zymske
zymskego
zymski
zymskim
zymu
zymy
zyna
zynje
zynowe
zynowu
zynu
zyny
zypresse
zz
złe
złego
złem
zło
złoczew
złokomorowski
złos
złosnik
złosnistwa
złota
złote
złotna
złotobrune
złotoz
złoty
złoz
zły
złym
{
|
}
~
£
¤
§
¨
©
«
­
¯
°
±
²
³
´
µ
¶
·
¹
º
»
½
¿
×
ß
ße
ßen
ßerung
ßig
æ
ærø
ð
ø
đ
đinđic
đo
ħ
ı
ınca
ıncı
ıp
ł
ła
łabnosc
łabny
łac
łach
łaj
łaju
łakoma
łali
łam
łama
łamanja
łamanje
łamas
łamał
łamkowy
łan
łane
łanis
łanja
łanje
łanju
łapy
łar
łarjow
łarka
łarnja
łarnje
łas
łasin
łask
łaszczo
łat
łatg
łatgalskej
łatyn
łaz
łazu
łazy
łał
łała
łc
łca
łce
łcow
łcowka
łdgas
łe
łeba
łego
łej
łeje
łemkow
łi
łka
łnoc
ło
łobez
łobis
łobja
łobjo
łobju
łobzie
łofilcojs
łoglinowe
łogriwas
łogrod
łogroda
łogroz
łokas
łom
łomz
łon
łoni
łopenjami
łopjen
łopjena
łopjenam
łopjenami
łopjenate
łopjenatych
łopjenca
łopjency
łopjeni
łopjenjami
łopjenka
łopjenkami
łopjenko
łopjenkow
łopjeno
łopjenow
łopjenowa
łopjenowe
łopjenowy
łopjenowych
łoruse
łoruska
łoruske
łoruskej
łoruskeje
łoruskeju
łoruski
łos
łosice
łow
łowa
łowarje
łowe
łowego
łowej
łoweje
łowych
łoz
łozwuc
łska
łske
łskego
łski
łsku
łstwa
łstwo
łstwow
łstwowy
łu
łuc
łuce
łuchow
łuchowa
łucna
łucneje
ług
ługowych
ługu
łuj
łuju
łuka
łukach
łukasz
łuko
łukojce
łukow
łukowje
łus
łuty
łuz
ły
łych
łym
łymi
œ
ſ
ſa
ſajs
ſc
ſo
ſtarym
ſto
ȝetland
ɑ
ɔ
ə
ɛ
ɡ
ɣ
ɨ
ɫ
ɬ
ɹ
ɾ
ʁ
ʃ
ʒ
ʔ
ʾ
ʿ
ˈ
ˌ
ː
̀
́
̂
̃
̄
̆
̇
̈
̉
̊
̋
̌
̓
̔
̛
̣
̦
̧
̨
͂
͡
α
αγγε
β
γ
γγελι
δ
ε
ευ
η
κατα
λ
λιον
μ
ν
ξ
ο
π
προ
ς
τραπεζου
τυπο
φ
ψ
ω
а
аад
б
бабруи
баи
балһыҙ
баш
башҡорт
би
бог
боросһоҙ
брянск
будинок
в
вал
вверх
взоры
вид
википедии
витебск
владимир
вокзал
вопросы
вська
вул
вч
віцебск
г
гомель
горловка
город
городе
городскои
гродна
гродно
гә
д
два
для
дом
е
еп
если
ж
живи
житомир
з
за
закон
замак
здание
земля
и
информация
иркутск
историческая
к
категория
категорија
коми
комплекс
конотоп
корпус
костел
кофе
красотои
краявіды
курск
л
ласкаешь
ле
ленина
ло
лы
лідскія
лө
м
магц
маи
ме
менск
михаи
мо
мова
можешь
море
музеи
мы
мінск
мө
н
на
над
нам
нас
наш
наши
не
невель
нека
но
новосибирск
нсан
о
об
область
обсуждения
округ
октябрьская
орт
от
очаків
п
палацава
пам
паркавы
парковая
партсъезда
по
пулн
пушкин
р
раи
ран
республика
рејтинга
риҙыҡ
ровно
роднои
россошь
русскии
рыбница
рівне
рәсәи
с
саи
сан
свято
се
ск
словарь
смоленск
собор
советская
сср
стена
страница
сәи
т
та
театр
тебя
то
троі
ты
у
украі
ул
улица
урал
успенскии
ф
федеральныи
фото
х
ха
хам
храм
хулам
ц
церква
церковь
цькии
ч
чебоксары
черкаси
чернігів
что
чудотворнои
ш
шаблон
шаблони
шуп
шупашкар
шур
щ
ъ
ы
ь
э
эс
эх
эшһеҙ
ю
я
язык
языки
ђ
є
ѕ
і
ізюм
ізюмі
ј
је
љ
њ
ћ
џ
ѣ
ҍ
ґ
ҙ
ҡала
ү
һеҙ
һоҙ
һыҙ
һөтһөҙ
һөҙ
ә
ө
өфө
՝
կաղապար
ְ
ִ
ֶ
ַ
ָ
ּ
ֿ
ׁ
׃
א
אויפ
און
ב
בן
גא
געזיכט
דא
די
דער
ה
הא
ו
ון
ז
זיי
ח
ט
י
ך
כ
ל
לא
ם
מ
מיר
מען
ן
נ
ניט
נצער
ס
ע
ערד
פ
צ
צעשפ
ר
רא
רטן
רייט
ש
שטא
שפ
ת
ا
الگو
ة
ت
ح
د
ر
س
ش
قالب
ل
ن
ه
ي
َ
ُ
ّ
ْ
ٔ
ی
ँ
ं
क
ग
च
ट
ड
ढ
त
थ
द
ध
न
प
ब
म
र
ल
श
ष
स
ह
़
ा
ि
ी
ु
ू
े
ो
ौ
्
ট
মপ
ল
ে
্
ਂ
ਦ
ਲ
ਿ
ੀ
ੱ
ં
ગ
ત
દ
ધ
પ
મ
સ
ા
ી
ુ
ો
ପ
ର
ୀ
ୁ
ப
ர
வ
ா
ு
்
ం
ఆ
ధ
ప
ర
శ
ే
్
ಂ
ನ
ಬ
ರ
ಾ
ು
ೂ
ೆ
್
ก
ึ
แบบ
แม
็
่
თარგი
წ
동
틀
፡
‌
‎
‏
–
—
‘
’
‚
“
”
„
‟
†
‡
•
…
‰
′
″
‹
›
€
№
⅓
ⅰ
ⅲ
←
↑
→
↓
↔
↷
∅
−
≈
≥
⊙
③
④
⑦
─
│
┌
┐
└
┘
├
┤
┬
┴
┼
█
▼
◄
☉
☿
♀
♂
♔
♕
♖
♗
♘
♙
⺀
⺄
⺆
⺈
⺊
⺌
⺕
⺝
⺸
⺼
⿰
⿱
⿲
⿳
⿴
⿵
⿶
⿷
⿸
⿹
⿺
⿻
〢
ぇ
こ
さ
し
っ
は
ほ
ま
ゃ
ゅ
ょ
よ
り
ろ
゚
コ
マ
ユ
ロ
ー
㇁
㇂
㇄
㇇
㇈
㇉
㇓
㐁
㐄
㐅
㐌
㐫
㐬
㐭
㐮
㐱
㑒
㒵
㒸
㒼
㓁
㓞
㔾
㕛
㕣
㖾
㘝
㚅
㚇
㚔
㚘
㝉
㝡
㝴
㝵
㞋
㞢
㞷
㠩
㠭
㠯
㡀
㡭
㡿
㢲
㢴
㣇
㣺
㥯
㪅
㫄
㫐
㫒
㫺
㬅
㬎
㬥
㬰
㲋
㳄
㷠
㸒
㸚
㸦
㼌
㼲
㽞
㿟
䀠
䂞
䍃
䏍
䒑
䖍
䖒
䖝
䖵
䙴
䚻
䜌
䝿
䡛
䧹
䪞
一
丁
丂
七
丄
丅
丆
万
丈
三
上
下
丌
不
与
丏
丐
丑
专
且
丕
世
丘
丙
业
东
丞
丢
丣
两
严
並
丨
丩
个
丫
丬
中
丮
丰
丱
串
丵
丶
丷
丸
丹
为
主
丽
丿
乀
乂
乃
久
乆
乇
么
义
之
乌
乍
乎
乏
乐
乑
乔
乖
乗
乘
乙
乚
乛
乜
九
乞
也
习
乡
乳
乾
亀
亅
了
亇
予
争
事
二
亍
于
亏
亐
云
互
亓
五
井
亘
亚
亜
亞
亟
亠
亡
亢
交
亥
亦
产
亨
亩
享
京
亭
亮
亯
亰
亲
亳
亶
亷
人
亻
亼
亾
仁
今
介
仌
从
仐
仑
仒
仓
仕
他
付
仝
代
令
以
仮
任
企
伊
伏
伐
休
会
伯
但
位
体
何
佘
余
作
佥
使
來
侈
侌
侖
侯
侵
便
俗
保
俞
信
修
倉
倍
候
倠
健
備
僉
僕
儿
兀
允
兂
元
兄
充
兆
兇
先
光
兊
克
兌
免
兑
兒
兓
兔
党
兜
兟
入
全
兩
兪
八
公
六
兮
兰
共
关
兵
其
具
典
兹
兼
冀
冂
冃
冄
内
冈
冉
冊
冋
册
再
冎
冏
冐
冒
冓
冖
冗
冘
军
农
冝
冠
冡
冥
冫
冬
冷
几
凡
凢
凵
凶
凷
凸
凹
出
函
凾
刀
刁
刂
刃
刄
刅
分
切
刍
刑
刕
刖
列
刘
则
初
別
利
别
到
制
刺
則
削
剌
前
剡
剽
劉
力
功
加
劦
助
劫
劳
劵
勃
勇
勉
勒
動
務
勝
勞
勤
勹
勺
勻
勾
勿
匀
匂
包
匆
匈
匊
匋
匍
匕
化
北
匚
匝
匡
匪
匱
匸
匹
区
医
匽
匿
區
十
卂
千
卄
卅
卆
升
午
卉
半
卌
华
卑
卒
卓
单
卖
南
卜
卝
卞
占
卡
卢
卣
卤
卦
卩
卪
卬
卯
印
危
即
却
卵
卷
卸
卻
厂
厃
厄
历
厈
厉
厌
厓
厘
厚
原
厤
厥
厨
厭
厲
厶
厷
厸
去
厼
厽
叀
参
參
叅
又
叉
及
友
双
反
叐
发
叒
叔
叕
取
受
叚
叜
叟
口
古
句
另
叩
只
召
可
台
叱
史
右
叵
号
司
叹
吂
各
吅
合
吉
吊
吋
同
名
后
吏
向
吕
君
吝
吞
否
含
启
吳
吴
吹
吾
呂
呆
呈
告
员
呙
周
命
咅
和
咎
咠
咢
咨
咸
咼
哀
品
哉
員
哥
哲
唐
商
啇
問
啚
啬
啻
善
喜
喬
單
喿
嗇
噩
嚴
囊
囗
囘
囙
囚
四
回
囟
因
囧
囬
困
囱
围
囷
固
国
圂
圅
國
圍
圓
土
圡
圣
圥
在
圭
地
圶
圼
坐
坒
坚
坡
坴
垂
垔
垚
埀
埋
城
域
埶
執
基
堂
堅
堆
堇
堯
塞
墨
壘
壤
士
壬
壯
声
壳
壴
壹
壺
壽
夂
处
夅
夆
备
変
夊
夋
夌
复
夏
夒
夕
外
夗
夘
多
夜
夢
大
夨
天
太
夫
夬
夭
央
失
夲
头
夷
夸
夹
夻
夾
奂
奄
奇
奈
奉
奎
奏
奐
契
奓
奔
奚
奞
奠
奢
奥
奭
女
奴
奻
好
如
妄
妙
妟
妥
妻
妾
姑
委
姜
威
娄
婁
婴
嬰
嬴
子
孑
孔
孕
孖
字
存
孚
孛
孝
孟
季
孤
学
孫
孱
學
宀
宁
宂
它
宅
宇
守
安
宋
完
宏
宓
宗
官
定
宛
宜
宝
客
宣
室
宮
宰
害
家
容
宾
宿
寄
寅
密
富
寒
察
寧
審
寫
寬
寮
寸
对
寺
寻
寽
対
寿
封
尃
射
将
將
專
尉
尊
尋
尌
對
小
少
尒
尓
尔
尖
尗
尚
尞
尢
尣
尤
尧
尨
尭
就
尸
尹
尺
尻
尼
尽
尾
尿
局
居
屈
屋
屎
屏
屑
展
屖
屚
属
屠
屡
屬
屮
屯
屰
山
屵
屾
岁
岂
岑
岡
岩
岳
岸
峯
峰
島
崇
崑
崔
崖
崙
崩
嵬
嶲
巂
巛
川
州
巟
巠
巢
巤
工
左
巧
巨
巩
巫
差
己
已
巳
巴
巷
巸
巽
巾
巿
帀
市
布
帆
希
帚
帛
帝
带
師
席
帶
常
幌
干
平
年
幵
并
幷
幸
幺
幻
幼
幽
幾
广
広
庄
床
底
店
庚
府
度
庫
庭
庶
康
庸
廉
廌
廛
廣
廩
廴
延
廷
建
廾
廿
开
弁
弃
弄
弇
弋
式
弓
弔
引
弗
弘
弜
弟
弥
弦
弱
張
強
强
彊
彌
彎
彐
彑
当
彔
录
彖
彗
彡
形
彥
彦
彧
彭
彳
役
彼
往
待
律
徒
得
徙
從
復
微
徵
心
忄
必
忌
忍
志
忝
忠
忩
快
念
忽
忿
态
思
怠
急
怱
恆
恒
恩
恭
息
悉
患
悤
悲
悶
情
惠
惡
惢
愁
愈
意
愛
感
慈
慧
慮
憂
憲
應
戀
戈
戉
戊
戋
戌
戍
戎
成
我
戒
戔
或
戚
戠
戢
截
戲
戶
户
戹
戼
戾
房
所
扁
扇
手
扌
才
打
托
执
承
折
拉
拜
拿
振
掌
推
提
摩
支
攴
攵
收
攸
改
放
政
敄
敏
敕
敖
敗
敝
敞
敢
散
敦
敫
敬
数
敷
數
斂
文
斉
斊
斗
斤
斥
斩
斬
斯
新
方
於
施
斿
旁
旋
族
无
旡
既
旣
日
旦
旧
旨
早
旬
旱
旲
时
旾
昆
昇
昌
昍
明
昏
易
昔
昗
昜
星
春
昬
是
昱
昴
昷
時
晃
晋
晏
普
景
晶
智
暑
暴
曇
曩
曰
曲
曳
更
曷
書
曹
曼
曾
替
最
朁
會
月
有
朋
服
朔
朕
朗
望
朝
木
朩
未
末
本
札
朮
术
朱
朵
朶
朿
杀
杏
杜
束
条
来
東
杲
杳
松
极
析
林
枚
果
枝
枲
枼
某
柔
查
柬
柰
柴
栗
桀
桑
桼
梁
條
梟
梨
棋
棘
棠
棥
森
楚
業
楽
榮
樂
樊
横
橋
欠
次
欣
欮
欲
欶
欽
款
歆
歇
歛
止
正
此
步
武
歨
歪
歮
歯
歰
歲
歴
歷
歸
歹
歺
死
殳
段
殷
殸
殹
殺
殻
殿
毋
毌
母
每
毒
比
毕
毚
毛
毳
氏
氐
民
气
氣
水
氵
氶
氷
永
氺
氾
求
汝
汞
江
沃
沓
沙
沝
泉
法
波
泣
泥
泰
洛
洞
津
洪
活
派
流
浜
浦
浪
浮
淡
淮
清
渚
渠
湖
湯
满
滿
漢
漸
潭
濟
火
灬
灭
灰
灵
灷
炅
炎
炏
炗
炙
炭
為
烈
烏
烝
焉
無
焦
焱
然
煞
熊
熏
燕
營
燮
爪
爫
爭
爯
爰
爱
爲
爵
父
爻
爽
爾
爿
片
版
牙
牚
牛
牜
牟
牡
牢
牧
牪
特
牽
犀
犬
犭
犮
狂
狄
狊
独
狺
猋
猒
猪
献
獻
玄
率
玉
王
玟
玨
珎
班
琴
瑞
瑟
瑩
瓜
瓦
甘
甚
生
産
用
甫
甬
田
由
甲
申
电
甶
男
甸
甹
画
甾
畀
界
畏
畐
留
畜
畟
畢
畧
畨
番
畫
異
畱
當
畺
畾
疆
疊
疋
疌
疑
疒
疾
癶
癸
癹
登
發
白
百
皀
皃
的
皆
皇
皋
皐
皕
皮
皷
皿
盃
盆
盇
盈
益
盍
盎
监
盒
盖
盛
盡
監
盤
盧
目
直
相
盾
省
眇
眉
看
眔
眞
真
眷
眼
眾
着
睘
睪
睿
瞏
瞢
瞿
矍
矛
矞
矢
矣
知
矦
短
石
破
碎
磊
磨
示
礻
礼
社
祟
祥
票
祭
禀
禁
禸
禹
禺
离
禽
禾
禿
秀
秃
秉
秋
科
秝
秦
移
稟
穀
穌
穴
究
穹
空
穿
突
窄
窒
立
竒
竜
竝
竟
章
童
竹
笑
笠
筆
等
答
箕
算
箴
節
篤
篭
米
类
粉
粛
粟
粤
粦
粲
糞
糸
糹
系
約
納
素
索
紫
累
細
絜
絫
絲
維
綿
縣
繇
纍
纟
细
缶
网
罒
罔
罕
罗
罙
罡
罢
罪
署
罷
羅
羊
羌
羍
美
羔
羕
羗
羞
羡
羣
群
義
羲
羸
羽
翁
翏
習
翕
翟
翠
翼
老
耂
考
者
耆
而
耎
耑
耒
耳
耴
耶
耷
聂
聊
聖
聚
聶
聿
肀
肃
肅
肉
肖
肙
肥
肩
肯
育
肴
胃
背
胡
胥
能
脊
脩
膚
臣
臤
臧
自
臬
臭
臯
臱
至
致
臺
臼
臽
臾
臿
舀
舂
舄
與
興
舉
舌
舍
舛
舜
舞
舟
般
船
艮
良
色
艸
艹
艾
芒
芔
芬
芮
花
芳
芺
芻
苔
苗
苟
若
苦
英
茶
茸
荅
草
荒
荣
荼
莆
莧
莫
莽
菆
菊
菐
華
萬
落
葉
著
葛
董
葵
蒙
蒦
蒼
蓋
蓬
蓺
蔑
蔡
蕉
蕭
薄
薛
薦
薰
藍
藏
藥
蘆
蘭
虍
虎
虐
虒
虔
處
虖
虗
虘
虚
虛
虜
虞
虫
虽
蚤
蚩
蜀
蜜
蟲
蠡
血
行
衍
衛
衡
衣
衤
表
衮
衰
衿
袁
袞
褭
褱
襄
襾
西
覀
要
覃
見
規
覓
覧
親
覽
见
角
解
言
訁
訇
計
詹
語
誩
諸
護
讠
谷
豆
豈
豊
豐
豕
豖
豙
象
豦
豩
豪
豸
貇
貝
貞
貟
負
貢
貧
貪
貫
責
貳
貴
買
費
賁
資
賈
賏
賓
賔
賛
賞
賢
賣
質
賴
贊
贝
贡
责
贯
贲
贵
赖
赞
赤
赦
走
越
足
路
蹇
身
躬
車
軍
軎
軟
輦
轄
车
辛
辜
辟
辥
辰
辱
農
辵
辶
边
达
过
近
连
迷
追
退
送
逆
逐
通
速
造
逢
連
逮
進
遀
遂
過
道
達
遣
適
遷
遺
邊
邑
邕
那
邦
邪
郎
郡
部
郭
都
鄉
酉
酋
配
酓
釆
采
里
重
野
量
金
釒
銅
錢
鍾
钅
長
镸
长
門
閃
閉
開
閏
閑
閒
間
閔
閵
閻
闌
门
间
闷
闻
阑
阜
阝
阿
降
院
陳
陽
隆
隊
隋
隡
隨
隱
隶
隹
隺
隻
隼
隽
难
雀
雁
集
雈
雋
雍
雐
雔
雙
雚
雜
雝
離
難
雨
雩
雪
雲
零
雷
需
霍
霜
霝
霞
霸
靈
靑
青
非
靡
面
靣
革
韋
韓
韦
韭
韯
韱
音
頁
頃
項
順
須
頗
頡
頭
頻
顛
页
题
風
风
飛
飞
食
飠
養
饣
首
香
馬
馮
駦
马
骨
高
髟
鬥
鬯
鬲
鬼
魚
魯
鮮
鱼
鲁
鳥
鳳
鸟
鹵
鹿
麃
麗
麥
麦
麻
黃
黄
黍
黎
黑
黒
黨
黹
黽
黾
鼎
鼓
鼠
鼻
齊
齋
齐
齒
齿
龍
龙
龜
龟
龠
龰
龱
龴
龵
龶
龷
龸
龹
者
艹
﻿
？
😁
🜨
𠀁
𠀃
𠀆
𠀉
𠀎
𠀐
𠁁
𠁣
𠂆
𠂇
𠂈
𠂉
𠂊
𠂋
𠂎
𠂒
𠂔
𠂛
𠂡
𠂢
𠂤
𠂬
𠂭
𠂹
𠃊
𠃋
𠃌
𠃍
𠃎
𠃑
𠃓
𠃔
𠃜
𠄌
𠄎
𠄠
𠄢
𠆢
𠆥
𠇍
𠈌
𠌵
𠓜
𠔉
𠔥
𠔼
𠔽
𠔿
𠕀
𠕁
𠕋
𠘧
𠘨
𠙻
𠙼
𠚏
𠚒
𠚤
𠚪
𠣏
𠤎
𠤕
𠥓
𠦄
𠦑
𠦝
𠧒
𠧗
𠧪
𠩺
𠪚
𠫓
𠫔
𠫤
𠬛
𠬝
𠬞
𠬢
𠬤
𠬶
𠮛
𠮦
𠮷
𠯑
𠱠
𠳮
𠷎
𡈼
𡉀
𡉵
𡌥
𡍮
𡏳
𡕒
𡕩
𡕰
𡖅
𡗗
𡗜
𡘆
𡘤
𡧱
𡨄
𡩧
𡬠
𡭽
𡰣
𡰥
𡰪
𡰯
𡰱
𡷈
𡸁
𡿨
𡿩
𡿪
𡿺
𢀖
𢀛
𢀩
𢁙
𢆉
𢆰
𢆶
𢇁
𢇇
𢉖
𢌬
𢌿
𢏚
𢑑
𢑚
𢖻
𢙣
𢛳
𢦏
𢦒
𢧵
𢼄
𢾕
𣁋
𣄼
𣅀
𣅽
𣍘
𣎳
𣎵
𣏋
𣏼
𣗥
𣥂
𣥖
𣦵
𣦼
𣧄
𣪊
𣪠
𣬉
𣳾
𣶒
𤇾
𤊽
𤐫
𤓰
𤔔
𤕨
𤣩
𤰇
𤰔
𤰞
𤴓
𤴔
𤽄
𥁑
𥁕
𥃦
𥃩
𥃭
𥇡
𥑟
𥘅
𥘈
𥝢
𥫗
𥱡
𦈢
𦉪
𦉬
𦉼
𦍌
𦍒
𦎧
𦐇
𦓔
𦔮
𦘒
𦙃
𦚏
𦣝
𦣞
𦣻
𦥑
𦥔
𦥯
𦨉
𦭝
𦰩
𧆞
𧈧
𧘇
𧰨
𧴪
𧴮
𧵩
𧾷
𨸏
𨾴
𩙿
𩠐
𩫏
𩵋
𪉷
𪜀
𪟽
𪠲
𪩲
𫇦
𫔭
𫜸
𫝀
𫠣
𫠩
𫢉
𫥞
𫩏
𫩠
𫪡
𫲽
𫶧
𬀷
𬐘
𬗌
𬙙
𬛸
𬜯
𬟩
𬯁
𬴘
𬺻
𬼉
𬼖
𭀰
𭁈
𭁨
𭅰
𭑈
𭕄
𭗼
𭤨
𭥫
𭻾
𮅕
𮊿
𮍌
𮍏
𮓗
𮥼
𮧮
廾
𰀁
𰀄
𰀈
𰀉
𰀕
𰀠
𰀡
𰀢
𰀪
𰁜
𰃮
𰆊
𰆘
𰋙
𰕎
𰢴
𰧭
𰯲
􀃆
02--
03--
06--
08--
09--
102--
111--
112--
114--
116--
122--
17--
204--
205--
21--
210--
22--
236--
246--
25--
26--
267--
27--
28--
29--
299--
30--
304--
307--
318--
33--
336--
34--
35--
354--
36--
38--
38960--
39--
408--
42--
45--
47--
48--
50--
51--
52--
53--
55--
56--
57--
575--
58--
59--
60--
61--
63--
632--
64--
65--
66--
67--
68--
69--
70--
71--
72--
73--
74--
75--
76--
77--
78--
79--
80--
81--
82--
83--
84--
85--
86--
87--
88--
89--
90--
91--
92--
93--
94--
95--
978--
978374--
98--
99--
a--
aa--
ab--
aba--
abie--
ac--
ach--
aconitifo--
actek--
ad--
ada--
admin--
ae--
aff--
afgh--
afr--
afroa--
ag--
age--
aglu--
agluti--
ah--
ai--
aj--
ak--
ako--
akti--
aktua--
akwar--
al--
ala--
albi--
ale--
alerg--
alexa--
alexandr--
alf--
ali--
alkoho--
alkoholis--
all--
alpi--
alt--
am--
ama--
ambor--
amer--
ami--
amno--
amo--
amt--
an--
ana--
analy--
and--
ane--
ange--
ank--
anna--
anr--
ant--
anthocy--
anti--
antiks--
antro--
ap--
apo--
app--
aprikoz--
apuli--
aq--
aquati--
aqui--
ar--
ara--
arago--
arali--
arauc--
arbei--
arc--
arche--
archeolog--
archi--
are--
arg--
ari--
arktis--
arn--
ars--
art--
as--
asc--
asimi--
asp--
astro--
astu--
at--
ata--
ate--
atenta--
atham--
atlan--
atmos--
atmosfer--
aty--
au--
auf--
augen--
aus--
ausge--
austro--
aut--
auto--
av--
aw--
awar--
awiz--
awto--
az--
azərba--
ał--
b--
ba--
bad--
bag--
bahn--
bai--
baj--
bakter--
bale--
balo--
balt--
balto--
bambu--
ban--
bank--
bar--
baro--
barw--
bas--
bau--
bay--
baz--
bał--
bbr--
be--
bearbei--
beat--
bedu--
bee--
bei--
bel--
ben--
benat--
bengal--
ber--
bern--
beth--
bethle--
bhi--
bi--
bial--
biat--
bibl--
biblijo--
biblio--
bie--
big--
bik--
bila--
bilabial--
bin--
biog--
biograf--
bir--
bis--
bjac--
bje--
bjer--
bl--
bla--
ble--
blire--
blok--
blu--
bn--
bo--
bob--
bog--
boh--
bol--
bon--
bor--
borag--
bos--
bot--
botry--
botsu--
boule--
bow--
boy--
br--
bra--
brachy--
bre--
brig--
brja--
bro--
brock--
brod--
bronz--
broz--
bru--
bs--
bu--
buch--
bud--
budd--
buddhist--
buk--
bul--
bundes--
bur--
burg--
burgen--
bus--
but--
by--
byrg--
bystr--
bystrz--
bło--
błu--
c--
ca--
cak--
cal--
calc--
callit--
cam--
can--
capi--
car--
carno--
carob--
cart--
cas--
cat--
cauc--
cc--
cd--
ce--
cej--
cel--
cem--
cent--
cer--
cerkwi--
certif--
cesno--
cełk--
ceło--
ch--
cha--
chad--
chale--
chamae--
char--
che--
chi--
chiri--
chlimp--
chlo--
cho--
choj--
chr--
chro--
chrys--
chsi--
chu--
chy--
chło--
ci--
cie--
cil--
cin--
cis--
ck--
cl--
cla--
cle--
clif--
cn--
co--
cog--
col--
colu--
columb--
com--
commu--
con--
cor--
cord--
corym--
cos--
cove--
cow--
coł--
cr--
crassifo--
crea--
crit--
crus--
cs--
cu--
cucu--
cucum--
cum--
current--
cus--
cv--
cwi--
cwibl--
cxi--
cy--
cylindr--
cym--
cyn--
cyna--
cys--
cywi--
cz--
cze--
d--
da--
dag--
daj--
dal--
dalej--
dalmac--
daloko--
dam--
dan--
dank--
dar--
das--
dd--
de--
dec--
decol--
defin--
dek--
del--
delnjo--
dem--
demo--
democ--
demon--
den--
depen--
der--
des--
detai--
deu--
dh--
di--
dia--
diag--
dibbets--
didaktis--
didel--
die--
diff--
dim--
dio--
direk--
diser--
disponujob--
dit--
dive--
diversif--
dj--
dka--
dko--
dl--
dla--
dli--
dm--
dna--
dnis--
dnu--
do--
dobn--
doc--
doda--
dog--
doj--
dok--
dokła--
dol--
dolnobar--
dom--
domow--
don--
dopo--
dor--
dos--
dose--
dostojews--
doty--
dotyk--
dow--
down--
doł--
dpoł--
dpołdnjowo--
dpołnocno--
dr--
dra--
dro--
ds--
du--
dub--
duc--
duch--
dup--
dwa--
dwjacorno--
dwo--
dwu--
dy--
dyrdako--
dz--
dzia--
dzie--
dziewc--
dł--
dła--
dłujko--
e--
ea--
eb--
ebe--
ebers--
ebjaſ--
ebuzu--
ec--
ech--
econ--
ed--
edchad--
edic--
eds--
edsta--
edło--
ef--
efektiw--
eg--
egypt--
ei--
eich--
ein--
einze--
ej--
ejcer--
ek--
ekaw--
eklipt--
ekolog--
eks--
eksak--
eksk--
eksper--
ekstra--
ekup--
ekwiwal--
el--
ela--
ele--
elek--
elektron--
elektrostat--
eli--
elikow--
els--
em--
ema--
emig--
emisi--
emje--
emy--
en--
enc--
encyklope--
end--
endem--
energ--
eni--
enje--
enk--
ens--
ent--
entuzia--
ep--
epig--
epileps--
episow--
epje--
epo--
equi--
er--
erd--
ere--
erig--
ero--
ers--
erupc--
es--
esc--
ese--
esko--
esper--
espy--
est--
estaj--
estup--
et--
eterg--
ethn--
etno--
etwa--
etym--
etymolog--
eu--
eufor--
eukaryo--
euro--
eutra--
evange--
evs--
ew--
ewje--
ewo--
ex--
ey--
ez--
ezkonfe--
eznan--
ezpoł--
eła--
f--
fa--
fabr--
fac--
face--
fach--
faki--
falk--
famil--
fan--
far--
farg--
farizej--
farmakolog--
fas--
fe--
federat--
fenic--
fer--
ff--
fi--
fijał--
fil--
filam--
filip--
film--
filt--
fin--
fini--
finougr--
fir--
fl--
fla--
flacc--
flamm--
fleks--
florent--
fo--
folk--
fonet--
fono--
for--
foto--
fr--
fra--
frakc--
frank--
fre--
fremd--
frie--
fru--
fry--
fu--
ful--
fun--
fur--
fylo--
fyz--
g--
ga--
gaelt--
gal--
galak--
gali--
galilej--
gamb--
gametof--
gar--
gas--
gat--
gau--
gav--
gb--
ge--
gebru--
geist--
gel--
gen--
gene--
geo--
geodet--
geoff--
geoinfor--
ger--
gesch--
gesp--
get--
gh--
gi--
gimn--
gioa--
gjar--
gl--
gla--
gle--
gli--
glos--
glu--
gm--
go--
goch--
goet--
goid--
got--
goł--
gr--
gra--
grawi--
grawitac--
gre--
green--
grenz--
gres--
grie--
grif--
grje--
gro--
grobin--
grobl--
grod--
groma--
groß--
gru--
grundle--
gry--
gu--
gua--
gue--
gun--
guy--
gwy--
gym--
gymnarr--
gypt--
gł--
gła--
głow--
h--
ha--
hab--
haj--
ham--
hammer--
han--
hand--
har--
hard--
harmon--
has--
hat--
hau--
haup--
haus--
haz--
he--
hecas--
heimat--
heksadecima--
hel--
helio--
hen--
her--
herod--
herodian--
het--
hey--
hi--
hidd--
him--
hinden--
hinduisti--
hinw--
hipp--
hirar--
hiri--
hirs--
his--
hit--
hl--
hm--
hmittelalter--
hn--
ho--
hob--
hoch--
hol--
holl--
home--
homon--
hor--
hot--
hr--
hra--
hro--
hu--
hua--
humi--
hung--
huron--
hus--
hut--
huwo--
hy--
hydra--
hydro--
hypote--
i--
ia--
ian--
ibe--
ibi--
ibo--
ibrjo--
ic--
id--
idea--
identif--
ido--
idy--
ie--
ig--
igo--
igron--
igłos--
ij--
ija--
ik--
iki--
iko--
ikry--
il--
ile--
ili--
ilic--
illus--
illy--
ilm--
im--
ima--
imagi--
imi--
imo--
implemen--
in--
ina--
inc--
indepen--
indigen--
indirek--
indiwiduel--
indo--
indonez--
industr--
industrie--
iner--
infekc--
infor--
inic--
ino--
ins--
insig--
instal--
int--
inte--
intens--
inter--
interdiscipl--
interpre--
intransit--
inv--
iny--
io--
ion--
ip--
ipa--
ipad--
ipismi--
ipo--
ips--
ir--
ira--
iran--
is--
ise--
isi--
ist--
isła--
isłuc--
it--
ita--
ito--
iva--
ivo--
iw--
iwa--
iwi--
iwo--
iz--
izamk--
izers--
izjaw--
izol--
j--
ja--
jabłuc--
jadno--
jadnorodnik--
jajow--
jak--
jan--
jano--
jar--
jas--
jc--
je--
jegli--
jeka--
jem--
jen--
jere--
jerje--
jes--
jew--
jez--
ji--
jo--
joko--
js--
ju--
jugla--
jugo--
jul--
jun--
jz--
k--
ka--
kaledon--
kalen--
kali--
kalifor--
kalmy--
kam--
kamts--
kan--
kap--
kapał--
kapit--
kapverdi--
kar--
karpa--
karto--
kas--
kasz--
kat--
kata--
kate--
katol--
kava--
kawa--
kaz--
kał--
kc--
ke--
kelt--
kem--
ken--
ker--
kh--
ki--
kic--
kilo--
kim--
kin--
kirc--
kirg--
kirgiz--
kirs--
kis--
kisał--
kjagl--
kla--
klapa--
klas--
klasif--
kle--
kli--
klima--
klimo--
klu--
km--
knig--
kny--
ko--
kodif--
kok--
kokul--
kol--
kolum--
kom--
komed--
komi--
kommu--
kompati--
kompju--
kompl--
komu--
komuna--
kon--
koncentra--
konk--
konwen--
kope--
kopt--
kor--
korek--
kores--
korn--
kos--
kosmo--
kot--
kow--
koz--
kr--
kra--
kraj--
kral--
kre--
kreol--
krick--
krie--
krit--
kro--
krotko--
kru--
ks--
ku--
kub--
kuc--
kuj--
kul--
kult--
kunst--
kur--
kurd--
kurs--
kurz--
kut--
kuz--
kw--
kwalitat--
ky--
kı--
kła--
kło--
l--
la--
lac--
lag--
lam--
lan--
land--
landes--
lap--
lapp--
laps--
lar--
las--
lat--
laub--
laur--
laurif--
law--
lb--
lc--
le--
lech--
leg--
legi--
legis--
lej--
lek--
leksikograf--
lem--
len--
lepi--
ler--
les--
let--
leuc--
lew--
li--
lic--
lie--
liet--
ligh--
ligu--
limnolog--
lin--
lip--
lis--
lit--
literaris--
lju--
ll--
lni--
lo--
lod--
logudo--
lom--
lon--
long--
lou--
low--
lt--
lu--
lub--
luc--
lud--
lug--
luk--
lupi--
lus--
luz--
lv--
lxx--
ly--
lyris--
m--
ma--
mac--
mag--
magel--
magis--
magnoli--
maj--
mak--
mal--
malayz--
mam--
man--
manif--
map--
mar--
marat--
marme--
marmo--
marx--
mas--
mat--
maur--
may--
maz--
mazur--
mał--
mało--
mc--
md--
me--
mec--
med--
medie--
megal--
mej--
melanes--
melanez--
meli--
memb--
memp--
men--
mer--
meri--
mes--
met--
meta--
metro--
mez--
mi--
mias--
mic--
michel--
micro--
midas--
mikro--
miks--
mil--
min--
mini--
minister--
minne--
mir--
mirab--
mis--
mit--
mittel--
mj--
mjaz--
mjazy--
ml--
mn--
mnich--
mo--
mobi--
moc--
mod--
modl--
moj--
mol--
moldawi--
momen--
momm--
mon--
monar--
mono--
monofy--
mont--
mora--
mord--
mordwin--
morfo--
mos--
moskow--
moti--
mr--
mro--
mt--
mu--
muc--
multi--
mur--
mus--
musli--
muslimis--
mutac--
mutag--
my--
myris--
myrr--
mys--
myto--
mło--
młodz--
młogolic--
młyn--
n--
na--
nac--
nacer--
nachy--
nacional--
nad--
nadre--
nagra--
nai--
naj--
nak--
nakłon--
nalchen--
nan--
napad--
nar--
narod--
nas--
naspom--
nasta--
nat--
natwo--
nau--
naw--
nawi--
nawiga--
nawje--
nawopa--
naz--
nazym--
nc--
nch--
nd--
nds--
ne--
neb--
nebel--
neder--
neders--
neg--
nej--
nem--
neo--
nept--
ner--
neu--
new--
nf--
ng--
nh--
ni--
nic--
nie--
nieder--
nig--
nigs--
nik--
nil--
nim--
nit--
nja--
nje--
njej--
njejad--
njeklas--
njenas--
njepo--
njewo--
njewobgranic--
njez--
njo--
nk--
nl--
nn--
no--
noafr--
noeurope--
noj--
nom--
nomad--
nonim--
nor--
nord--
noroman--
nos--
not--
nouc--
novo--
now--
nowo--
np--
ns--
nt--
ntei--
nu--
nugo--
nuk--
nur--
nuss--
nuz--
ny--
nyks--
nz--
o--
oa--
oafr--
oaxa--
ob--
obar--
ober--
obers--
obod--
obot--
oc--
och--
ochot--
od--
oder--
oe--
oenan--
oeurop--
of--
off--
og--
oh--
ohrid--
oi--
oj--
oke--
okla--
oks--
okt--
ol--
old--
ole--
oli--
olum--
olym--
om--
oma--
on--
onoma--
oo--
op--
opozic--
or--
ora--
orche--
orchi--
org--
orie--
orn--
oro--
ors--
ort--
ortho--
os--
osman--
osob--
ost--
ostat--
ot--
ou--
out--
ov--
ow--
owa--
oxycoc--
oz--
oł--
ołto--
p--
pa--
pacifis--
pad--
palat--
palatali--
pamf--
pan--
par--
para--
parafy--
parale--
parser--
pas--
pasteurizac--
paw--
pays--
paz--
pe--
pec--
pek--
pelt--
pem--
pen--
per--
petro--
pfa--
ph--
phon--
phry--
phylo--
pi--
pia--
pic--
pie--
pigm--
pikto--
pilt--
pinda--
pink--
pinkter--
pinnatif--
pios--
pis--
piw--
pjac--
pje--
pl--
pla--
plastis--
plat--
platt--
ple--
pleur--
plin--
plu--
plump--
pn--
po--
pocz--
pod--
poeti--
poez--
pog--
pohjan--
pohn--
pok--
pol--
pola--
poli--
poly--
pom--
pomjen--
pon--
ponti--
pop--
por--
portuga--
portugizi--
pos--
post--
pow--
powo--
poz--
poł--
połud--
pr--
pra--
prag--
prak--
pras--
praty--
praw--
pre--
preci--
prefer--
prekmur--
premj--
prezy--
pri--
priwa--
prja--
prje--
pro--
projekc--
prolet--
proz--
pru--
prze--
ps--
pseu--
psy--
pt--
pter--
pu--
pucho--
pue--
pulc--
punk--
pur--
purpu--
pus--
putnik--
py--
pys--
pła--
pło--
płod--
płun--
pſchi--
q--
qu--
qua--
que--
qui--
r--
ra--
rab--
rabbin--
rad--
radia--
radio--
raj--
rak--
ram--
ran--
rap--
rar--
ras--
rat--
raw--
rb--
rc--
rd--
re--
real--
rece--
recl--
reco--
red--
redakc--
ref--
referen--
reggae--
regu--
regular--
rej--
relac--
relat--
rem--
ren--
repre--
reprezen--
reputac--
res--
ret--
retor--
reu--
revi--
rez--
rezoluc--
rg--
rho--
ri--
[...]
