!
"
#
##0
##1
##10
##11
##12
##13
##14
##15
##16
##17
##18
##19
##2
##20
##21
##22
##23
##24
##25
##26
##27
##28
##29
##3
##30
##31
##32
##33
##34
##35
##36
##37
##38
##39
##4
##40
##41
##42
##43
##44
##45
##46
##47
##48
##49
##5
##50
##51
##52
##53
##54
##55
##56
##57
##58
##59
##6
##60
##61
##62
##63
##64
##65
##66
##67
##68
##69
##7
##70
##71
##72
##73
##74
##75
##76
##77
##78
##79
##8
##80
##81
##82
##83
##84
##85
##86
##87
##88
##89
##9
##90
##91
##92
##93
##94
##95
##96
##97
##98
##99
$
%
&
'
(
)
*
+
,
-
.
/
0
00
000
001
002
01
01745329252
02
03
04
05
055
06
07
08
09
1
10
100
1000
10000
100000
1001
1002
1003
1004
1005
1006
1007
1008
1009
101
1010
10100
101000
1011
1012
1013
1014
1015
1016
1017
1018
1019
102
1020
10200
1021
1022
1023
1024
1025
1026
1027
1028
1029
103
1030
10300
103000
1031
1032
1033
1034
1035
1036
1037
1038
1039
104
1040
10400
104000
1041
1042
1043
1044
1045
1046
1047
1048
1049
105
1050
10500
105000
1051
1052
1053
1054
1055
1056
1057
1058
1059
106
1060
10600
106000
1061
1062
1063
1064
1065
1066
1067
1068
1069
107
1070
10700
107000
1071
1072
1073
1074
1075
1076
1077
1078
1079
108
1080
10800
108000
1081
1082
1083
1084
1085
1086
1087
1088
1089
109
1090
10900
109000
1091
1092
1093
1094
1095
1096
1097
1098
1099
11
110
1100
11000
110000
1101
1102
1103
1104
1105
1106
1107
1108
1109
111
1110
11100
111000
1111
1112
1113
1114
1115
1116
1117
1118
1119
112
1120
11200
112000
1121
1122
1123
1124
1125
1126
1127
1128
1129
113
1130
11300
1131
1132
1133
1134
1135
1136
1137
1138
1139
114
1140
11400
1141
1142
1143
1144
1145
1146
1147
1148
1149
115
1150
11500
1151
1152
1153
1154
1155
1156
1157
1158
1159
116
1160
11600
1161
1162
1163
1164
1165
1166
1167
1168
1169
117
1170
11700
1171
1172
1173
1174
1175
1176
1177
1178
1179
118
1180
11800
118000
1181
1182
1183
1184
1185
1186
1187
1188
1189
119
1190
11900
1191
1192
1193
1194
1195
1196
1197
1198
1199
12
120
1200
12000
120000
1201
1202
1203
1204
1205
1206
1207
1208
1209
121
1210
12100
1211
1212
1213
1214
1215
1216
1217
1218
1219
122
1220
12200
122000
1221
1222
1223
1224
1225
1226
1227
1228
1229
123
1230
12300
1231
1232
1233
1234
1235
1236
1237
1238
1239
124
1240
12400
1241
1242
1243
1244
1245
1246
1247
1248
1249
125
1250
12500
1251
1252
1253
1254
1255
1256
1257
1258
1259
126
1260
12600
1261
1262
1263
1264
1265
1266
1267
1268
1269
127
1270
12700
1271
1272
1273
1274
1275
1276
1277
1278
1279
128
1280
12800
1281
1282
1283
1284
1285
1286
1287
1288
1289
129
1290
12900
1291
1292
1293
1294
1295
1296
1297
1298
1299
13
130
1300
13000
1301
1302
1303
1304
1305
1306
1307
1308
1309
131
1310
13100
1311
1312
1313
1314
1315
1316
1317
1318
1319
132
1320
13200
1321
1322
1323
1324
1325
1326
1327
1328
1329
133
1330
13300
1331
1332
1333
1334
1335
1336
1337
1338
1339
134
1340
13400
1341
1342
1343
1344
1345
1346
1347
1348
1349
135
1350
13500
1351
1352
1353
1354
1355
1356
1357
1358
1359
136
1360
13600
1361
1362
1363
1364
1365
1366
1367
1368
1369
137
1370
13700
1371
1372
1373
1374
1375
1376
1377
1378
1379
138
1380
13800
1381
1382
1383
1384
1385
1386
1387
1388
1389
139
1390
13900
1391
1392
1393
1394
1395
1396
1397
1398
1399
14
140
1400
14000
1401
1402
1403
1404
1405
1406
1407
1408
1409
141
1410
14100
1411
1412
1413
1414
1415
1416
1417
1418
1419
142
1420
14200
1421
1422
1423
1424
1425
1426
1427
1428
1429
143
1430
14300
1431
1432
1433
1434
1435
1436
1437
1438
1439
144
1440
14400
1441
1442
1443
1444
1445
1446
1447
1448
1449
145
1450
14500
1451
1452
1453
1454
1455
1456
1457
1458
1459
146
1460
14600
1461
1462
1463
1464
1465
1466
1467
1468
1469
147
1470
14700
1471
1472
1473
1474
1475
1476
1477
1478
1479
148
1480
14800
1481
1482
1483
1484
1485
1486
1487
1488
1489
149
1490
14900
1491
1492
1493
1494
1495
1496
1497
1498
1499
15
150
1500
15000
1501
1502
1503
1504
1505
1506
1507
1508
1509
151
1510
15100
1511
1512
1513
1514
1515
1516
1517
1518
1519
152
1520
15200
1521
1522
1523
1524
1525
1526
1527
1528
1529
153
1530
15300
1531
1532
1533
1534
1535
1536
1537
1538
1539
154
1540
15400
1541
1542
1543
1544
1545
1546
1547
1548
1549
155
1550
15500
1551
1552
1553
1554
1555
1556
1557
1558
1559
156
1560
15600
1561
1562
15623
1563
1564
1565
1566
1567
1568
1569
157
1570
15700
1571
1572
1573
1574
1575
1576
1577
1578
1579
158
1580
15800
1581
1582
1583
1584
1585
1586
1587
1588
1589
159
1590
15900
1591
1592
1593
1594
1595
1596
1597
1598
1599
16
160
1600
16000
1601
1602
1603
1604
1605
1606
1607
1608
1609
161
1610
16100
1611
1612
1613
1614
1615
1616
1617
1618
1619
162
1620
16200
162000
1621
1622
1623
1624
1625
1626
1627
1628
1629
163
1630
16300
1631
1632
1633
1634
1635
1636
1637
1638
1639
164
1640
16400
1641
1642
1643
1644
1645
1646
1647
1648
1649
165
1650
16500
1651
1652
1653
1654
1655
1656
1657
1658
1659
166
1660
16600
1661
1662
1663
1664
1665
1666
1667
1668
1669
167
1670
16700
1671
1672
1673
1674
1675
1676
1677
1678
1679
168
1680
16800
1681
1682
1683
1684
1685
1686
1687
1688
1689
169
1690
16900
1691
1692
1693
1694
1695
1696
1697
1698
1699
17
170
1700
17000
1701
1702
1703
1704
1705
1706
1707
1708
1709
171
1710
17100
1711
1712
1713
1714
1715
1716
1717
1718
1719
172
1720
17200
1721
1722
1723
1724
1725
1726
1727
1728
1729
173
1730
17300
1731
1732
1733
1734
1735
1736
1737
1738
1739
174
1740
17400
1741
1742
1743
1744
1745
1746
1747
1748
1749
175
1750
17500
1751
1752
1753
1754
1755
1756
1757
1758
1759
176
1760
17600
1761
1762
1763
1764
1765
1766
1767
1768
1769
177
1770
17700
1771
1772
1773
1774
1775
1776
1777
1778
1779
178
1780
17800
1781
1782
1783
1784
1785
1786
1787
1788
1789
179
1790
17900
1791
1792
1793
1794
1795
1796
1797
1798
1799
18
180
1800
18000
1801
1802
1803
1804
1805
1806
1807
1808
1809
181
1810
18100
1811
1812
1813
1814
1815
1816
1817
1818
1819
182
1820
18200
1821
1822
1823
1824
1825
1826
1827
1828
1829
183
1830
18300
1831
1832
1833
1834
1835
1836
1837
1837311
1838
1839
184
1840
18400
1841
1842
1843
1844
1845
1846
1847
1848
1849
185
1850
18500
1851
1852
1853
1854
1855
1856
1857
1858
1859
186
1860
18600
1861
1862
1863
1864
1865
1866
1867
1868
1869
187
1870
18700
1871
1872
1873
1874
1875
1876
1877
1878
1879
188
1880
18800
1881
1882
1883
1884
1885
1886
1887
1888
1889
189
1890
18900
1891
1892
1893
1894
1895
1896
1897
1898
1899
19
190
1900
19000
1901
1902
1903
1904
1905
1906
1907
1908
1909
191
1910
19100
1911
1912
1913
1914
1915
1916
1917
1918
1919
192
1920
19200
1921
1922
1923
1924
1925
1926
1927
1928
1929
193
1930
19300
1931
1932
1933
1934
1935
1936
1937
1938
1939
194
1940
19400
1941
1942
1943
1944
1945
1946
1947
1948
1949
195
1950
19500
1951
1952
1953
1954
1955
1956
1957
1958
1959
196
1960
19600
1961
1962
1963
1964
1965
1966
1967
1968
1969
197
1970
19700
1971
1972
1973
1974
1975
1976
1977
1978
1979
198
1980
19800
1981
1982
1983
1984
1985
1986
1987
1988
1989
199
1990
19900
1991
1992
1993
1994
1995
1996
1997
1998
1999
2
20
200
2000
20000
2001
2002
2003
2004
2005
2006
2007
2008
2009
201
2010
20100
2011
2012
2013
2014
2015
2016
2017
2018
2019
202
2020
20200
202014
2021
2022
2023
2024
2025
2026
2027
2028
2029
203
2030
20300
2031
2032
2033
2034
2035
2036
2037
2038
2039
204
2040
20400
2041
2042
2043
2044
2045
2046
2047
2048
2049
205
2050
20500
2051
2052
2053
2054
2055
2056
2057
2058
2059
206
2060
20600
2061
2062
2063
2064
2065
2066
2067
2068
2069
207
2070
20700
2071
2072
2073
2074
2075
2076
2077
2078
2079
208
2080
20800
2081
2082
2083
2084
2085
2086
2087
2088
2089
209
2090
20900
2091
2092
2093
2094
2095
2096
2097
2098
2099
21
210
2100
21000
2101
2102
2103
2104
2105
2106
2107
2108
2109
211
2110
21100
2111
2112
2113
2114
2115
2116
2117
2118
2119
212
2120
21200
2121
2122
2123
2124
2125
2126
2127
2128
2129
213
2130
21300
2131
2132
2133
2134
2135
2136
2137
2138
2139
214
2140
21400
2141
2142
2143
2144
2145
2146
2147
2148
2149
215
2150
21500
2151
2152
2153
2154
2155
2156
2157
2158
2159
216
2160
2161
2162
2163
2164
2165
2166
2167
2168
2169
217
2170
21700
2171
2172
2173
2174
2175
2176
2177
2178
2179
218
2180
21800
2181
2182
2183
2184
2185
2186
2187
2188
2189
219
2190
21900
2191
2192
2193
2194
2195
2196
2197
2198
2199
22
220
2200
22000
2201
2202
2203
2204
2205
2206
2207
2208
2209
221
2210
22100
2211
2212
2213
2214
2215
2216
2217
2218
2219
222
2220
22200
2221
2222
2223
2224
2225
2226
2227
2228
2229
223
2230
22300
2231
2232
2233
2234
2235
2236
2237
2238
2239
224
2240
22400
2241
2242
2243
2244
2245
2246
2247
2248
2249
225
2250
22500
2251
2252
2253
2254
2255
2256
2257
2258
2259
226
2260
22600
2261
2262
2263
2264
2265
2266
2267
2268
2269
227
2270
22700
2271
2272
2273
2274
2275
2276
2277
2278
2279
228
2280
22800
2281
2282
2283
2284
2285
2286
2287
2288
2289
229
2290
22900
2291
2292
2293
2294
2295
2296
2297
2298
2299
23
230
2300
23000
2301
2302
2303
2304
2305
2306
2307
2308
2309
231
2310
23100
2311
2312
2313
2314
2315
2316
2317
2318
2319
232
2320
23200
2321
2322
2323
2324
2325
2326
2327
2328
2329
233
2330
23300
2331
2332
2333
2334
23342
2335
2336
2337
2338
2339
234
2340
23400
2341
2342
2343
2344
2345
2346
2347
2348
2349
235
2350
23500
2351
2352
2353
2354
2355
2356
2357
2358
2359
236
2360
23600
2361
2362
2363
2364
2365
2366
2367
2368
2369
237
2370
2371
2372
2373
2374
2375
2376
2377
2378
2379
238
2380
2381
2382
2383
2384
2385
2386
2387
2388
2389
239
2390
23900
2391
2392
2393
2394
2395
2396
2398
2399
24
240
2400
24000
2401
2402
2403
2404
2405
2406
2407
2408
2409
241
2410
24100
2411
2412
2413
2414
2415
2416
2417
2418
2419
242
2420
2421
2422
2423
2424
2425
2426
2427
2428
2429
243
2430
2431
2432
2433
2434
2435
2436
2437
2438
2439
244
2440
2441
2442
2443
2444
2445
2446
2447
2448
2449
245
2450
24500
2451
2452
2453
2454
2455
2456
2457
2458
2459
246
2460
24600
2461
2462
2463
2464
2465
2466
2467
2468
2469
247
2470
24700
2471
2472
2473
2474
2475
2476
2477
2478
2479
248
2480
24800
2481
2482
2483
2484
2485
2486
2487
2488
2489
249
2490
24900
2491
2492
2493
2495
2496
2497
2498
2499
25
250
2500
25000
2501
2502
2503
2504
2505
2506
2507
2508
2509
251
2510
25100
2511
2512
2513
2514
2515
2516
2517
2519
252
2520
2521
2522
2523
2524
2525
2526
2527
2528
2529
253
2530
25300
2531
2532
2533
2534
2535
2536
2537
2538
2539
254
2540
25400
2541
2542
2543
2544
2545
2546
2547
2548
2549
255
2550
25500
2551
2552
2553
2554
2555
256
2560
25600
2562
2563
2564
2565
2566
2567
2568
2569
257
2570
25700
2571
2572
2574
2575
2576
2578
2579
258
2580
2581
2582
2583
2584
2585
2586
2587
2588
2589
259
2590
25900
2591
2592
2593
2594
2595
2596
2597
2598
26
260
2600
26000
2602
2603
2604
2605
2607
2608
2609
261
2610
26100
2611
2612
2613
2614
2615
2616
2617
2618
2619
262
2620
26200
2621
2622
2623
2624
2625
2626
2627
2629
263
2630
26300
2632
2633
2635
2636
2637
2638
2639
264
2640
26400
2641
2642
2643
2644
2645
2646
2647
2649
265
2650
26500
2652
2654
2655
2656
2657
2658
2659
266
26600
2661
2662
2663
2665
2666
2667
2669
267
2670
26700
2672
2673
2674
2676
2677
2678
2679
268
2680
26800
2681
2682
2683
2684
2685
2687
2689
269
2690
26900
2691
2692
2693
2694
2695
2696
2697
2698
2699
27
270
2700
27000
2701
2703
2704
2705
2706
2707
2708
2709
271
2710
27100
2711
2712
2713
2714
2715
2717
2718
2719
272
2720
27200
2721
2722
2723
2724
2725
2726
2727
2728
2729
273
2730
27300
2731
2732
2733
2734
2735
2736
2737
2738
2739
274
27400
2742
2743
2744
2745
2746
2747
2748
2749
275
2750
27500
2751
2753
2754
2755
2757
2758
2759
276
2760
27600
2761
2762
2763
2765
2766
2767
2768
2769
277
2770
27700
2771
2772
2773
2774
2775
2777
2778
2779
278
2780
27800
2781
2782
2783
2784
2785
2786
2788
279
2790
27900
2791
2792
2793
2794
2796
2798
2799
28
280
2800
28000
2801
2802
2803
2804
2806
2807
2808
2809
281
2810
28100
2812
2813
2814
2815
2816
2817
2818
282
2820
28200
2821
2823
2824
2825
2826
2827
2828
2829
283
2830
28300
2831
2832
2833
2834
2835
2836
2837
2838
2839
284
2840
28400
2841
2842
2843
2844
2846
2847
2848
285
2850
28500
2851
2852
2853
2856
2857
2858
2859
286
2860
28600
2861
2862
2863
2864
2865
2867
287
2870
28700
2871
2872
2874
2875
2877
2878
288
28800
2882
2883
2884
2885
2886
2887
2888
2889
289
2890
28900
2891
2893
2894
2895
2896
2897
2898
2899
29
290
2900
29000
2901
2902
2903
2904
2906
2907
2909
291
2910
29100
2911
2912
2913
2914
2915
2918
2919
292
29200
2923
2924
2927
2929
293
2930
29300
2931
2932
2934
2935
2938
294
2940
2941
2943
2944
2946
2947
2949
295
2950
2951
2952
2953
2955
2957
2958
2959
296
2960
29600
2963
2964
2967
2968
2969
297
2970
29700
2972
2973
2974
2975
2976
2977
2978
2979
298
2980
29800
2982
2983
2984
2985
2986
2987
2988
2989
299
2990
2991
2992
2993
2995
2996
2998
2999
3
30
300
3000
30000
3001
3002
3003
3004
3005
3006
3007
3008
3009
301
30100
3011
3012
3013
3014
3015
3016
3017
3018
3019
302
3020
3022
3023
3024
3025
3026
3027
3028
3029
303
3030
3031
3033
3034
3035
3036
3037
3038
3039
304
3040
30400
3042
3044
3045
3046
3049
305
3050
30500
3051
3052
3053
3054
3056
3057
3059
306
3060
30600
3062
3064
3065
3066
3067
3068
3069
307
3070
30700
3071
3072
3074
3075
3077
3078
3079
308
3080
30800
3082
3083
3084
3085
3086
3087
3088
3089
309
3090
30900
3091
3092
3094
3096
3098
3099
31
310
3100
31000
3101
3102
3103
3104
3105
3106
3107
3108
3109
311
3110
31100
3111
3113
3114
3116
312
3121
3123
3124
3126
3127
3128
313
3130
3131
3132
3133
3134
3135
3137
3138
3139
314
3140
3141
3142
3143
3144
3147
3148
315
3150
31500
3154
3156
3158
3159
316
3160
3161
3162
3163
3165
3166
3167
317
3170
3171
3172
3174
3175
3178
318
3182
3184
3186
3187
3188
319
31900
3191
3192
3193
3194
3195
3196
3197
3198
32
320
3200
32000
3202
3207
3208
321
3214
3216
3217
322
3220
3224
3225
3226
323
3230
32300
3232
3233
3235
3236
3238
324
32400
3241
3243
3244
3246
3247
3249
325
3253
3254
3256
326
3260
3261
3262
3264
3268
327
3270
3278
3279
328
3284
3286
3289
329
3291
3292
3299
33
330
3300
33000
3301
3302
3303
3304
3306
3307
3309
331
33100
3311
3312
3313
3316
3319
332
3324
3325
3326
3327
333
3330
33300
3331
3334
3337
3339
334
3340
3342
3343
3344
3345
3346
3349
335
3351
3352
3353
3356
3358
336
3360
33600
3362
3363
3365
3366
3367
337
3370
33700
3372
3374
3375
338
33800
3382
3386
3389
339
3390
3392
3393
3395
3398
34
340
3400
34000
3403
3404
3406
3408
341
34100
3411
3412
3413
3414
3417
3418
3419
342
3420
3421
3422
3427
3428
343
3432
3433
3437
344
34400
3444
3446
3447
3449
345
3452
3454
3456
3458
346
3461
3462
3463
3465
3469
347
3470
3473
3477
3478
348
349
3492
3497
3498
35
350
3500
35000
351
3510
3511
3517
352
3523
353
35300
3533
3537
354
3541
355
3553
3554
3555
356
3567
357
3574
3575
3576
3578
358
35800
3586
3587
359
3592
36
360
3600
36000
3606
3607
361
3612
362
3622
363
3634
3635
364
3647
3649
365
3650
3655
3658
366
3660
3663
367
3674
368
3687
3689
369
37
370
3700
3702
371
3715
3718
372
3721
373
3731
3734
3738
374
375
3755
376
3761
3766
3767
377
378
3781
379
3798
38
380
3800
38000
381
3812
3817
3818
382
3824
3828
383
3831
3832
3833
3834
384
3845
385
3852
386
3864
3865
3866
3868
387
3876
3877
3879
388
3889
389
3892
39
390
3900
39000
391
3916
392
3920
3923
3925
3926
3928
393
3937
3938
394
395
3956
396
3961
3967
397
3978
398
3984
399
3996
4
40
400
4000
40000
4007
4008
401
402
4022
403
4039
404
4041
405
4053
4058
406
407
408
409
4090
4095
41
410
4100
41000
4104
4107
4109
411
4115
4118
412
413
41300
4132
41385
4139
414
4140
4143
415
4150
416
4165
417
418
419
4190
42
420
4200
42000
4209
421
4211
4217
422
42200
423
4230
4239
424
4241
4246
425
4256
426
4262
4269
427
428
4288
429
43
430
4300
43000
4304
431
4313
432
433
43300
4331
4338
434
4345
4346
435
43527
4357
436
437
4370
4376
438
439
44
440
4400
441
442
443
4431
444
445
446
447
448
449
45
450
4500
451
4513
452
453
454
455
456
457
4570
458
459
46
460
4600
461
462
4620
463
464
465
466
4666
467
4673
468
4687
4688
469
47
470
4700
471
472
473
474
4745
475
476
477
478
479
48
480
4800
48000
481
482
483
484
4841
4846
485
486
487
488
489
4894
49
490
4900
491
492
4924
493
494
4947
4949
495
4953
496
497
4972
4974
498
4983
4988
499
4997
4998
5
50
500
5000
50000
5002
5005
5006
501
502
5025
503
503036217
5038
504
505
5056
506
5066
507
5074
5076
508
5084
509
51
510
5100
51000
5105
511
512
5120
5125
5126
513
5136
514
5145
515
516
517
518
519
5193
52
520
5200
52000
5204
5206
521
5212
522
523
5233
524
525
526
527
528
529
53
530
5300
53000
531
532
5321
533
534
5340
535
536
537
538
539
54
540
5400
54000
541
5410
542
543
5431
544
545
546
547
548
5483
549
55
550
5500
55000
551
552
553
554
555
556
557
558
559
56
560
5600
56000
561
562
563
564
565
566
567
568
569
57
570
5700
57000
571
572
573
574
5747
575
576
577
578
579
58
580
5800
58000
581
582
583
584
585
586
587
588
589
5890
5892
59
590
5900
59000
591
592
593
594
595
596
597
598
599
6
60
600
6000
60000
601
602
603
604
6040
605
606
607
608
609
61
610
6100
61000
611
612
613
614
615
616
617
618
619
62
620
6200
62000
621
622
623
624
625
626
627
628
629
63
630
6300
63000
631
632
633
634
6340
635
636
637
638
639
6394
64
640
6400
64000
641
642
643
644
645
646
647
648
649
65
650
6500
65000
651
652
653
654
655
656
657
658
659
66
660
6600
66000
661
662
663
664
665
666
667
668
669
67
670
6700
67000
671
6715
672
673
674
675
676
677
678
679
68
680
6800
68000
681
682
683
684
685
686
687
688
689
69
690
6900
69000
691
692
693
694
695
696
697
698
699
7
70
700
7000
70000
701
702
703
704
705
706
707
708
709
71
710
7100
71000
711
712
713
714
715
716
717
718
719
72
720
7200
72000
721
722
723
724
725
726
727
728
729
73
730
7300
73000
731
732
733
734
735
736
737
738
739
74
740
7400
741
742
743
744
745
746
747
748
749
75
750
7500
75000
751
752
753
754
755
756
757
758
759
76
760
7600
761
762
763
764
765
766
767
768
769
77
770
7700
771
772
773
774
775
776
777
778
779
78
780
7800
781
782
783
784
785
786
787
788
789
79
790
7900
791
792
793
794
795
796
797
798
799
8
80
800
8000
801
802
803
804
805
806
807
808
809
81
810
8100
811
8112027
812
813
814
815
816
817
818
819
82
820
8200
82000
821
822
823
824
825
826
827
828
829
83
830
8300
83000
831
832
833
834
835
836
837
838
839
84
840
8400
841
842
843
844
845
846
847
848
849
85
850
8500
851
852
853
854
855
856
857
858
859
86
860
8600
8601
861
86153
862
863
864
865
866
867
868
869
87
870
8700
871
872
873
874
875
876
877
878
879
88
880
8800
881
882
883
884
885
886
887
888
889
89
890
8900
891
892
893
894
89476
895
896
897
898
899
9
90
900
9000
901
902
903
904
905
906
907
908
909
91
910
9100
911
912
913
914
915
916
917
918
919
92
920
9200
921
922
923
924
925
926
927
928
929
93
930
9300
931
932
933
934
935
936
937
938
939
94
940
9400
941
942
943
944
945
946
947
948
949
95
950
9500
951
952
953
954
955
956
957
958
959
96
960
9600
961
962
963
964
965
966
967
968
969
97
970
9700
971
972
973
974
975
976
977
978
979
98
980
9800
98000
981
982
983
984
985
986
987
988
989
99
990
9900
991
992
993
994
995
996
997
998
999
:
;
<
=
>
?
@
\
^
_
`
a
aa
aakhmedova
aasor
aaude
ab
able
about
above
ac
access
accessdate
account
accounts
across
action
active
actm
ad
add
addclass
added
adding
addition
additional
adds
adm
admin
administrativno
ae
af
affect
after
ag
against
agf
ah
ai
air
aj
ak
aka
ako
al
alaska
alemania
alias
aliases
align
all
allow
allowed
already
als
also
alt
always
am
ambox
amikeco
amount
an
anchor
and
android
angle
announcement
another
any
ao
aonb
ap
apologies
apologize
appendsnaks
apply
appropriate
april
aq
ar
arabic
arc
archive
are
area
aren
arg
args
argsk
argument
arguments
armenia
armenian
around
array
art
article
articles
arxiv
as
asin
ask
aspx
ast
astranet
astrobl
asv
at
atlas
attr
au
august
author
authors
auto
automatic
automatically
autonomous
av
available
aw
ax
ay
ayalt
az
b
ba
back
background
bad
baden
bank
banner
bar
base
based
basic
bay
bb
bbc
bc
bd
be
beach
beatles
because
become
been
before
beginning
behalf
being
belarus
below
benz
berlin
best
beta
better
between
bf
bg
bh
bi
bibcode
big
biorxiv
bit
bj
bk
bkzi
bl
black
block
blue
bm
bn
bo
board
bob
body
bolivia
book
books
boolean
border
bot
both
bots
bottom
boundaries
bouron
box
bp
bq
br
break
bridge
british
bs
bt
bu
bug
bugs
building
bulgaria
but
button
buttons
bv
bw
bx
by
bz
c
ca
call
called
campaign
can
canada
candidates
cap
caption
capture
cards
case
castle
cat
catedral
categories
category
cathedral
cats
cb
cc
cd
ce
center
central
centre
century
cf
cfg
cg
cgi
ch
chain
change
changed
changes
chapter
char
character
characters
charts
charttype
chartvis
che
check
cheljab
child
chile
chinese
chislennost
choose
chumikanadm
church
ci
citation
citations
cite
citeseerx
citoid
city
cityes
cj
ck
cl
claim
claims
class
classes
classif
click
close
cm
cmfsaglzdc
cmfulnj
cn
co
code
codes
coins
color
colors
column
com
coming
comma
commas
comment
comments
committee
common
commons
communities
community
compact
complete
concat
conduct
conference
config
configuration
conjunction
connect
consultation
contact
contain
contains
content
contest
context
continue
contributions
contributor
contributors
convert
coord
coordinate
coordinatespec
copy
correct
cos
could
count
countries
country
cp
cq
cr
create
created
cropped
cs
css
ct
cu
cube
culture
current
currententity
currently
custom
cv
cw
cx
cy
cyberleninka
cz
d
da
data
database
datatype
datavalue
date
datein
datepart
dates
david
day
days
db
dbinet
dbscripts
dc
dd
de
dec
december
default
defined
del
delenie
delivered
delivery
demand
demo
demoscope
deny
department
deployment
deprecated
der
des
description
descriptions
design
detail
details
developers
development
devices
df
dg
dgpt
dh
dha
dhj
di
dialog
did
diff
different
digit
digits
directly
discussion
discussions
display
div
dj
dk
dl
dm
dms
dn
do
doc
docs
document
documentation
docviewer
docx
does
doesn
doi
dom
domain
don
donation
done
double
down
download
dp
dq
dr
draft
dru
ds
dspl
dt
du
due
during
dv
dvinaland
dw
dx
dy
dylan
dz
dziglo
e
ea
each
early
easier
east
eb
ec
ecuador
ed
edit
edited
editing
edition
editor
editors
edits
ee
ef
eg
eh
ei
either
ej
ek
el
election
elections
elib
elitre
else
elseif
em
embargo
empty
en
enable
enabled
encode
encourage
encyclopedia
end
engagement
engine
english
engr
enter
entity
entityid
eo
ep
eq
equals
er
erne
err
errmsg
error
errors
es
espan
estados
et
etal
etc
ethno
eu
european
ev
even
event
every
everyone
everything
ew
ex
example
examples
exist
existing
exists
expand
expandtemplate
experience
ext
extension
external
extract
ey
ez
ezhegodnik
f
fa
fair
false
family
faq
far
fb
fc
fd
fdc
fe
feature
features
february
feedback
feel
female
few
ff
fg
fh
fi
field
file
files
fill
filter
find
first
five
fix
fixed
fj
fk
fl
flag
flags
floor
flower
fm
fn
fo
folk
folklore
follow
following
font
for
form
format
formats
formatsnak
formatted
formattedclaims
formattedstatement
forward
found
foundation
four
fp
fq
fr
frac
frame
frameless
francisco
free
french
frhdkazan
from
front
fs
ft
fu
full
fullname
function
functionality
functions
funds
future
fv
fw
fx
fy
fz
g
ga
galuzzi
gb
gc
gd
ge
gem
gemeindeverzeichnis
general
generic
geoinfobox
georgia
georgian
german
germany
geschichte
get
getargs
getcontentlanguage
getcurrentframe
getentity
getentityobject
getfile
getlabel
getparent
gets
gf
gg
gh
gi
gif
give
given
gj
gje
gks
gl
global
globe
gm
gn
go
goal
gody
good
google
gov
gp
gq
gr
grand
grant
grants
grc
great
green
greetings
group
gs
gsub
gt
gu
guide
gv
gw
gx
gy
gz
h
ha
habstat
had
handler
handlers
happen
happy
has
hash
have
having
hb
hbwu
hd
hdl
hdr
he
head
header
headers
hear
height
heiligengrabe
hello
help
here
hh
hi
hidden
hiddencat
high
history
hm
ho
hold
home
hope
host
house
how
hozyaystvo
hr
ht
htm
html
http
https
hu
hv
hw
hx
hy
hyphen
i
ia
ic
icon
id
idea
ideas
identifier
identifiers
ids
ie
if
ig
iglesia
ignored
ii
iii
iiwidhmioje
ijoiote
ik
il
im
image
images
img
imh
important
improve
improved
improvements
improving
in
inactive
inbord
include
including
index
india
individual
info
infobox
infocards
information
initial
initials
input
insert
inside
instead
instructions
interested
interface
international
interviewer
interwiki
into
invalid
inversed
invisible
involved
invybci
io
iof
ip
ipairs
iq
ir
ira
irkutsk
is
isbn
isempty
isla
island
islandia
ismn
iso
issn
issue
issues
ist
istmat
istoriya
it
item
itemid
items
its
iu
iv
iw
ix
iy
iz
j
ja
jan
january
japanese
jb
jc
jd
je
jf
jh
ji
jj
jk
jl
jm
jn
jnrtpte
jo
john
johr
join
journal
journals
jp
jpeg
jpg
jq
jr
js
ju
july
june
junonia
juqwjui
juqwjujcjuqxjthdjuqxjtgxjuqwjujbkze
juqwjujdjuqwjujfjuqwjuizjuqxjtgwjuqwjuiwjuqxjtg
juqwjujejuqwjujfjuqxjtgwjuqwjui
juqxjthgjnvybd
just
jy
k
ka
kadavoor
kak
kavkaz
ke
key
keycell
keywords
kg
kh
kha
khabkrai
khosheutovskijselsovet
ki
king
kirche
kirchspiel
kk
kl
klevyi
kloster
kn
know
knowledge
ko
korean
kp
kr
kraeved
kraj
ks
ku
kubanzdrav
kv
kw
ky
kz
l
la
label
labels
lago
lake
lang
langs
language
languages
las
last
lat
later
latin
lb
lccn
le
leading
leaf
learn
leave
left
legend
len
length
lenta
let
letter
level
lg
li
lib
library
like
limit
limited
line
link
linked
links
list
lists
literature
live
lj
ll
lmcmftzsi
lmen
ln
lo
load
loaddata
local
location
log
logged
logo
lon
london
long
longer
look
looking
los
love
loves
low
lower
lr
lt
lu
lua
luc
luca
lum
ly
m
ma
made
mailing
main
mainsnak
maint
make
makes
making
male
mall
manual
manually
many
map
march
margin
mari
maria
mark
marks
markup
martin
mask
mass
match
matches
materials
math
max
may
mc
mclfmjaxnl
mcuyov
md
mde
mdqynzgymtkmdgxkpxj
mdqynzgymza
me
media
mediabank
mediawiki
meeting
meetings
members
menu
mercedes
message
messages
meta
metadata
mg
mi
michael
might
min
mini
minutes
missing
mit
mj
mje
mk
ml
mm
mmnljmtlew
mo
mobile
mode
modern
module
modules
mojgorod
monasterio
monitoring
monobook
month
months
moon
more
moscow
most
mount
move
movement
mr
ms
msg
msisinnlcnbqyxjhbxmioijsyw
mt
mtu
mu
multilingual
multiple
mun
munich
munst
museum
music
must
mw
my
n
na
nacional
nad
name
named
names
namespace
namibia
narhoz
narod
narodnoe
naselenie
naseleniya
national
navbox
nd
ne
near
necessary
need
needed
needs
net
new
newattributes
newchild
news
newsletter
next
ngc
ngrk
nich
night
nil
nje
nl
nm
nn
no
nocat
node
nodes
nolinks
non
none
nonr
normal
north
not
note
notes
notice
notify
notoc
november
now
nowiki
np
npxj
ns
nster
nt
ntkwymm
ntqsinl
ntu
num
number
numbers
numeric
nums
ny
nzkzytvlndu
nzymbwltzt
o
obj
obl
oblasti
obverse
ocinsoutput
october
od
ode
odhrwjtnbly
of
off
office
oh
ojkum
ok
ol
old
om
omk
on
once
one
ones
online
only
open
operator
opt
option
optional
options
optout
or
order
org
orig
original
os
ossetia
ossetian
ossetians
ossetic
ostpreussen
otechestvennoy
other
others
otherwise
otyrjuqwjui
our
out
output
over
owl
own
p
pa
padding
page
pages
pairs
palace
pall
pan
pandia
panorama
panthera
papilio
param
parameter
parameters
params
parent
parententityids
parentid
parentoptions
parentsnak
parentsnaks
paris
park
parque
part
participate
parts
pasport
path
pathoschild
pattern
patterns
pcall
pdf
people
per
period
peru
pgpb
phabricator
phase
photo
php
pi
pipe
pl
place
plain
plan
planned
plantilla
please
pmc
pmid
pn
png
pnzreg
po
point
policy
poly
pop
portrait
pos
poselenii
poseleniya
position
possible
post
posted
potd
poyxlldmeucgrmjnrlehq
pp
pre
precision
preferences
preferred
prefix
preprocess
present
presentation
preset
press
prev
preview
previously
pri
prim
prlib
problem
problems
problemy
process
program
project
projects
properties
property
propertyid
proposal
proposals
protocol
provide
provided
prunus
ps
pt
ptr
public
publication
published
publisher
px
python
pywikipedia
pz
q
qberlogulagnyfdk
qid
qualifier
qualifiers
quality
quantity
questions
quito
quote
r
ra
radius
raiona
rajona
rang
range
rank
rapp
rar
re
read
readers
reading
ready
real
recent
record
records
red
redirect
redundant
ref
refdb
reference
references
reg
regards
region
regions
registration
regnum
related
relative
release
remove
removed
rendered
rendering
repin
replace
replaced
report
republic
request
requests
require
required
requires
res
research
resolution
resources
result
resultclaims
results
ret
return
returns
reverse
review
rfc
rfdata
rft
rg
richard
right
river
rk
ro
robert
rossiyskiy
rosstat
royal
rsfsr
ru
rule
rules
run
rus
russia
russian
s
sa
sah
saint
sak
salmo
same
san
sandbox
santa
save
says
scale
scales
schedule
scheme
schloss
scholarships
science
sciences
scope
screenshot
script
scripts
se
sea
search
season
second
section
see
seen
selah
select
selectclaims
selected
self
selo
selskoe
selsovet
sent
sep
separate
separated
separator
sepc
september
series
service
set
settings
several
sh
share
shift
short
should
show
showing
shown
showvalues
shpl
shtml
si
side
sign
signups
silver
similar
simple
sin
since
single
site
sitelink
sitelinks
sites
size
sk
skin
skyline
sl
small
smo
sms
smth
sn
snak
snaks
snaktype
so
social
society
software
some
someone
something
soon
sorry
sort
source
sources
south
sp
space
spaces
span
spb
special
specified
split
sprav
spring
sputnik
spx
sq
sr
src
ssp
sssr
st
standard
start
started
starting
stat
state
statement
statements
station
statistical
statisticheskiy
status
stay
std
stift
still
storage
str
strategy
street
string
strings
strip
stripmarker
studies
style
styles
su
sub
subject
submit
subrule
subscribe
subscription
substitute
such
suffix
suggestions
summary
sun
sunset
support
supported
sur
sure
surname
survey
sv
svedeniya
sverdlov
svg
sw
swallow
switch
system
t
taamu
tab
table
tables
tag
tail
take
talk
target
task
taxon
tbl
td
te
team
tech
technical
technology
template
templatedata
templates
temple
temprow
terra
test
tested
testing
tests
text
th
than
thank
thanks
that
the
their
them
then
there
these
they
things
think
this
thomas
those
three
through
throwerror
thumb
tiger
till
time
times
title
tld
tlz
to
today
todo
together
tonumber
tool
toolbar
tools
tooltip
top
toppdoma
tostring
tower
tr
train
trans
translate
translated
translatewiki
translathon
translation
translations
translator
translators
tree
triage
trim
true
trustees
try
ts
tt
tu
tv
two
type
types
u
ua
uchr
ucoz
uezd
ui
uk
und
under
unicode
unidos
unit
universal
university
unknown
until
up
upcoming
update
updated
updates
upload
uploads
upper
uri
url
urls
us
usa
usage
use
used
useful
user
users
uses
using
ustring
utc
utilities
utils
v
val
valid
validate
valley
value
values
van
vanc
vancouver
var
vcm
ve
vector
velikoy
version
very
vg
vi
via
viatour
victoria
view
viewer
vii
viii
village
visible
vista
visual
visualeditor
vivaldi
vizu
vo
vol
volume
volunteer
volunteers
von
vorlage
vote
voting
voyny
vpn
vptaifq
vsvzfmsg
vsvzfmsuyoduwjti
vulwxzelmjg
vyb
vyp
w
want
wants
war
was
water
way
wcm
wd
we
web
website
wednesday
week
weekly
weeks
welcome
well
were
west
what
when
where
whether
which
while
white
who
why
wide
width
wiki
wikibase
wikidata
wikilink
wikimania
wikimedia
wikimedians
wikipedia
wikipedias
wikis
wikitext
will
windows
winter
wishes
wishlist
with
within
without
wl
wmde
wmf
women
word
work
working
works
world
would
wp
wps
wrap
write
writing
written
wrong
www
wzgyilcjub
wzgymbdewbj
wzgymbhi
x
xi
xii
xiii
xiv
xix
xls
xn
xtype
xv
xvi
xvii
xviii
xx
xxi
xziwmtzfvxjvemhhewv
y
yak
yandex
ydszzawduptm
year
yearmark
years
yellow
yes
yesno
yet
yjq
ymd
ymde
york
you
your
ys
ytype
yyyy
z
za
zcz
zealand
zero
zh
zip
zoom
zswidwlkijointazmdm
ztmxzdhimgu
ztrb
zugl
{
|
}
~

§
©
«
¬
­
°
±
²
³
·
»
×
æ
ð
ø
ǝ
ə
ʁ
ʦ
ʰ
ʲ
ʷ
ʻ
ʼ
ʾ
ʿ
ˈ
̀
́
̂
̃
̄
̆
̇
̈
̉
̊
̌
̓
̔
̣
̧
̨
͂
α
β
γ
ε
η
ι
λ
ν
ο
ρ
ς
υ
ω
а
аб
абаев
абаева
абазаг
абаи
абалц
абанскии
абарг
аббатства
абет
абзелиловскии
абон
абони
абоны
абу
абхаз
абхазаг
абхазы
авг
август
августа
августы
авд
авест
авиаконструктор
авиации
австрали
австралии
австралия
австри
австриаг
австрии
австрия
автодор
автократор
автоматически
автомобилон
автономи
автономныи
автономон
автор
авторт
авторты
авторы
аг
агдоны
агентад
аграрон
агъомм
агъуыст
агъуысты
ад
адаи
адам
адардд
адджын
аджы
адис
адм
административно
административныи
административон
администраци
администрации
администрация
админы
адон
адрес
адт
ады
адыгаг
адыгеи
адыгея
адыгъеи
адыл
ае
аз
азад
азгаи
азд
аздзыд
азербаи
ази
азиаг
азии
азм
азнакаевскии
азовскии
азовы
азон
азт
азты
азы
аи
аив
аивад
аивадон
аивады
аивта
аивтои
аирв
аиуварс
аиш
ак
академи
академии
академик
академион
аккаг
акодта
акодтои
аксаи
аксе
акте
активон
актрис
акулово
ал
алабам
алагир
алагиры
алаи
алан
алани
алании
алания
алант
аланты
аланы
аланыстон
алапаевское
албании
алданскии
але
алеи
александр
александра
александро
александровка
александрово
александровскии
александровское
александры
алексеевка
алексеево
алексеевскии
алексеевское
алексеи
алексин
алексино
алжир
алжиры
али
аликовскии
алихан
алк
алли
аллон
аллы
алтаи
алтарь
алф
алфавит
алфавитм
алфавитт
алфавиты
алфамбылаи
алчи
алчид
алы
алыварс
алыг
алыгъд
алыгъдис
алыгъдысты
алыксандр
алыксандры
алыхуызон
аль
альберт
альберто
альбом
альбомт
альманах
альп
альпинистт
альшеевскии
аляск
аляска
ам
амад
амаддз
амазонк
амаи
амал
амалиу
амалхъом
амалхъомад
амалхъомадг
амалхъомады
амард
амарди
амардис
амардта
амардтои
амарды
амардысты
америк
америкаг
ами
амон
амонд
амоны
амонынц
амураг
амурская
амыдта
амынд
ан
анализ
ананьино
анап
анастасио
анастасия
анатоли
анатолии
анатоми
англ
англии
англис
англисаг
англисагау
англисы
андиаг
андии
андреапольскии
андреевка
андреево
андреевская
андреевскии
андреевское
андреи
андроново
андт
андты
анисимово
анн
анна
аннино
аннинскии
ансамбль
антикон
антон
антонио
антоновка
антоново
антроповскии
апп
аппон
апрел
апрелы
апрель
апреля
ар
арабб
араббаг
араббы
арагон
арагуии
араз
аразг
аразы
аразын
аразынц
аразыны
аракс
араксы
арарат
араст
арбажскии
арбег
арв
арвы
арвыком
арвыкомы
арвыста
арвыстои
аргентин
аргентинаг
аргъ
аргъау
аргъуан
аргъуант
аргъуаны
ард
ардатовскии
арджыт
арджыты
ардыг
ареал
арзамасскии
аристово
аркадакскии
армавир
армения
армии
арс
арсен
арсены
арсеньевскии
арт
артдз
арте
артист
артистк
артистт
артур
арты
арф
арфд
арх
архаи
архангельская
архангельскии
архангельское
архангельсчы
археолог
археологии
архив
архивы
архипелаг
архипеладжы
архитектор
архитекторт
архитектур
архитектурон
арыхъхъы
ас
асекеевскии
аскинскии
асл
аслам
аспирантур
ассоциации
асср
аст
астраханская
астраханскии
астраханскои
астраханы
астрахань
астроном
асыи
ат
аткарскии
атлантикон
атлас
атом
атомон
атомт
аты
ау
ауд
аул
аургазинскии
аф
афанасово
афанасьевскии
афгъанистан
афгъанистаны
афин
афицер
афон
афонино
африк
африка
афт
афтид
афтидд
афыст
ах
ахадг
ахадындзинад
ахаст
ахаста
ахастдзин
ахастои
ахастыт
ахиц
ахм
ахметъаи
ахс
ахсджиаг
ахсджиагд
ахст
ахста
ахстои
ахсы
ахсынц
ахуыр
ахуырад
ахуырадон
ахуырады
ахуырг
ахуыргонд
ахуырдон
ахуырм
ахуыры
аххос
ахъаз
ахъаззаг
ахъазыдис
ац
аци
ацы
ацыд
ацыди
ацыдис
ацыдысты
ачхои
ачъары
аэропорт
б
ба
баб
бабаевскии
бабино
бабочка
бабочки
бабушкинскии
бабынинскии
бав
баварии
бавария
бавз
бавн
багаевскии
багат
багратионовскии
бад
баден
бадзырд
бадзырдм
бадзырды
бады
баз
база
базар
базарадон
базарно
баззад
баззади
баззадис
баззадысты
баззаи
базон
базонг
базонын
базыдта
базыдтои
баи
баиу
бак
бакалинскии
бакаст
бакодта
бакодтои
баку
бакуи
бакуыста
бакъуырдта
бал
балахнинскии
балашовскии
балезинскии
балеты
балка
балкаи
балканы
балкария
балтачевскии
балтии
балты
балх
балхъаи
балхъар
балхъары
балц
балцы
балы
балыгъдысты
бамб
бангладеш
бангладешы
банд
банк
бантыст
бантыстис
баныг
банымад
банымадта
банымадтои
банымаи
бар
барад
барадон
барады
барановка
бараново
бардзырд
бардзырдм
бардуаг
барис
барисы
барселон
барсуки
барт
барты
бары
барятинскии
бас
баск
баскаг
бассеи
баст
бастдзин
бастдзинад
бастдзинады
бат
батецкии
батист
батыр
батырадз
батырт
батыры
бауагъта
баф
бафиппаи
бафснаи
бафтыд
бафтыдис
бафтыдта
бафтыдтои
бафыста
бафыстои
бах
бахаста
бахауд
бахаудис
бахаудтои
бахиз
бахх
баххуыс
бахчисараи
бахъ
бахъахъхъ
бахъуыд
бахъуыди
бахъуыдис
бац
бацархаи
бацахста
бацахстои
бацахсын
баци
бацыд
бацыди
бацыдис
бацыдысты
башкортостан
башкортостаны
башни
башня
бе
бежецкии
без
безенчукскии
беи
бек
бекъои
белая
белгородская
белгородскии
белгороды
беле
белебеевскии
белинскии
беловскии
белогорскии
белое
белозерскии
белокалитвинскии
белокатаи
белорецкии
белореченскии
белоруссаг
белорусси
белоруссии
белоярскии
белыи
бельги
бельгии
бельскии
беляево
бенгаи
бенгалии
бенц
бенцы
бер
бердзенаг
бере
берег
береговои
бережки
бережок
березник
березники
березовка
березово
берлин
берлины
бесл
бестаут
бестауты
бетъырбух
бетъырбухм
бетъырбухы
би
биазырты
библии
библиографи
библиотек
библиотека
библиотеки
бигъуылаты
бижбулякскии
бизнес
бии
бинои
бинон
бинонад
бинонадм
бинонт
бинонтим
бинонты
биографи
биографион
биография
биологи
бир
бирскии
бируни
бит
битлз
битлзы
бицы
благоварскии
благовещенскии
благовещенское
благоевграды
блок
блокад
бо
бобровка
боброво
бобровскии
богдановка
богданово
богородицкии
богородицкое
богородскии
богородское
богословка
бои
бокситогорскии
болатат
болгаи
болгари
болгарии
более
боливар
боливи
боливии
боливия
боллоев
бологовскии
болото
болотово
болховскии
большая
больше
большеболдинскии
большевик
большевикты
большемурашкинскии
большесельскии
большесолдатскии
большесосновскии
большие
большое
большои
большом
бомб
бомбеи
бон
бондарскии
бонм
бонт
бонты
боны
боныхъ
бор
боржомы
борис
борисково
борисовка
борисово
борисовскии
борисовское
борисоглебскии
борки
боровичскии
боровое
боровскии
бородино
борок
босни
ботлихы
брагино
бразили
бразилии
бразилия
браи
бранденбург
брасовскии
братскии
бреи
бритаи
британи
британии
британская
брод
бронз
брытъиаты
брюсселы
брянская
брянскии
брянсчы
бу
буар
буаргъ
буары
бугры
буда
будапешт
будд
буде
будет
будка
будут
буздякскии
бузныг
бузулукскии
буи
бул
булатово
булкъон
буллинскии
булт
бунат
бур
бураевскии
бургас
бургасы
бурзянскии
бурцево
бурятия
бут
бутырки
буэнос
бы
бывшее
бывшии
быдыр
быдырм
быдырт
быдырты
быдыры
быковка
быково
был
былг
были
было
былт
былтыл
былыл
бын
бынат
бынатм
бынаты
бынатыл
бындур
бындурон
бындуры
бындурыл
бынм
бынт
бынтон
бынтонд
бынты
быны
бырс
быс
бысты
бысх
быть
быц
бышевскии
бюллетень
в
ва
ваг
вагаи
вадим
вазыгджын
ваи
валдаи
валентин
валери
валерии
валлии
валуи
валют
ван
вано
вань
вар
варад
варваровка
вариант
вариантт
варн
варнавинскии
варшав
вас
василе
василево
василевс
василии
васильевка
васильево
васильевская
васильевскии
васильевское
васильково
васо
васои
васькино
васьково
вахтанг
вачскии
вашингтон
вашкинскии
вв
ввахс
вверху
вг
вгар
вд
вда
вдз
вдис
вдисы
вдисынц
вдыст
вдыста
ве
веденои
ведомости
веи
века
веке
великая
великии
велико
великобритания
великое
великои
великоустюгскии
вельскии
вен
венгри
венгриаг
венгрии
вене
венесуэл
венесуэла
венеции
верди
веретье
верещагинскии
верси
версии
версим
верх
верхне
верхневолжское
верхнедонскои
верхнее
верхнеландеховскии
верхнетоемскии
верхнехавскии
верхние
верхнии
верхняя
верховажскии
верховскии
верховье
верхошижемскии
вершина
вершины
весе
веста
вестник
вестфалии
вестфалия
весь
весьегонскии
ветлужскии
вз
взаг
взагзонынад
взагзонынады
взагм
взагон
взагыл
взаджы
взалы
взар
взист
взонг
ви
вид
видео
византиаг
византии
византия
византияи
вики
викиданных
викикъ
викимедиа
википеди
википедии
википедия
викирардт
виктор
виктори
виктория
викторы
вилегодскии
винниц
виноградовскии
виппаи
вирджинии
вирхъау
виталии
витебсчы
виттон
вице
вичугскии
вишне
вка
вклад
вконтакте
владивосток
владикавказ
владимир
владимировка
владимирская
владимиры
владислав
власово
власьево
внизу
внуково
внутренних
внц
во
водопад
воды
воевод
воеводство
военно
вожегодскии
возвращает
воздвиженка
вознесенка
вознесенскии
вознесенское
возрождение
вои
волг
волгоградская
волгограды
волгодонскои
волжскии
волжское
волково
воловскии
вологд
вологодская
вологодскии
володарскии
володино
волоконовскии
волосово
волосовскии
волости
волотовскии
волховскии
волыны
вольскии
вольфганг
вопросы
воробье
воронеж
воронежская
воронежы
воронино
вороново
воронцовка
воронцово
ворота
воротынскии
воскресенка
воскресеновка
воскресенскии
воскресенское
восток
востока
восточная
восточное
восточнои
восточныи
восход
вохомскии
времен
временник
время
вс
все
всеволод
всеволожскии
всего
всем
всеобщеи
всероссии
всесоюзная
всех
вск
вскии
вское
всы
вся
вторая
второе
второи
вторые
вулкан
вулканон
вулкант
вулканты
вулканы
вы
выборах
выборгскии
выборов
выгон
выгоничскии
выи
вын
вып
выползово
выпуск
выражении
выселки
выселок
высокая
высокии
высоково
высоковское
высокое
выставка
вытегорскии
вышневолоцкии
вьетнам
вьетнамы
вюртемберг
вюртемберджы
вязниковскии
вязовка
вячеслав
г
га
гаваи
гаванского
гаврилов
гавриловка
гаврилово
гавриловскии
гагадыргът
гагат
гагинскии
гагкаи
гаглои
гаджет
газ
газет
газета
газетт
газетты
газеты
газы
гаи
гал
галактик
галереи
галиу
галиуырдыг
галичскии
галкино
галуан
галуаны
галы
гамбургм
гамсахурдиа
ган
ганди
гандии
гари
гарь
гас
гассиева
гасситы
гат
гатаг
гатм
гатчинскии
гаты
гатырд
гатырдыг
гафурии
гаяз
гб
гбон
гбонт
гбоны
гвардеи
гвардии
гвардия
гватемал
гвинеи
гг
ггаг
ггад
ггаи
ггат
ггаты
ггонд
гд
гдар
где
гджын
гдзинад
ге
гевара
гевараи
геи
гектары
генералон
геннадии
генрих
географи
географии
географион
географические
геор
георги
георгиевка
георгиевскии
георгиевское
георгии
герб
герд
гермаи
герман
германия
германы
герои
герцеговин
геу
гецати
ги
гиаты
гигъ
гидроэлектростанц
гим
гимн
гимназ
гимназы
гиреи
гитлер
гиу
гкат
гкаты
гл
главна
главныи
глазово
глазовскии
глазуновскии
глебово
глебовское
глинка
глухово
гм
го
год
года
годов
году
годы
гои
гол
голова
головино
головинское
голосование
голосования
голы
гольштеи
гом
гомелы
гон
гонд
гонт
гор
гора
горбово
гордеевскии
горе
горицы
горка
горки
горномарии
горноуральскии
горныи
город
города
городах
городе
городец
городецкии
городище
городищенскии
городищи
городов
городок
городских
городского
городское
городскои
гороховецкии
горшеченскии
горшково
горы
горькии
горьковскии
горького
гос
госкомстат
государственнои
государственныи
гпрезидентон
граждаи
гражданска
грамматик
грамматикон
гран
гранад
гранд
граница
границы
граф
графад
графадт
графады
график
граче
грекъ
грекъаг
гремучии
гренланди
гренландии
греция
гречъы
грива
гривн
григор
григории
григорово
григорьевка
григорьевское
гридино
гришино
гришкино
гроднои
грознаи
грозныи
грузии
грузия
группа
группы
грязовецкии
гсакъадах
гсакъадахы
гсакъадахыл
гсср
гт
гти
гтим
гтрк
гты
гтыл
гтымбыл
гу
гуаты
губ
губа
губерн
губернии
губерния
губернского
губино
губкинскии
гуманитарных
гуманитарон
гунибы
гур
гуры
гурьевскии
гусево
гусь
гуфтаи
гущино
гуыл
гуымы
гуыр
гуырд
гуырдзи
гуырдзиаг
гуырдзиагау
гуырдзы
гуырдзыи
гуырдзыстон
гуырдзыстоним
гуырдзыстонм
гуырдзыстоны
гуырди
гуырдис
гуырды
гуырдысты
гуыриаты
гуырысхои
гуыт
гхуыз
гхъ
гхъахъхъ
гц
гцгоев
гъ
гъатыр
гъатыры
гъг
гъд
гъдау
гъдаум
гъдибар
гъдын
гъе
гъз
гъиат
гъм
гън
гъои
гът
гъты
гъы
гъын
гъынц
гы
гыл
гыццыл
гыццылд
гэс
д
да
давид
давлекановскии
давыдово
давыдовское
даг
дагестан
дагестана
дагонд
дагъ
дагъистаи
дагъистан
дагъистаны
даже
даи
дальневост
дальнего
дальнее
дальнеконстантиновскии
дальнии
дам
дамгъ
дан
дани
даниаг
дании
даниловка
данилово
даниловскии
даниловское
даниэль
дания
данковскии
данного
данные
данным
данных
дант
данте
дантеи
дар
даргъ
дард
дардд
дардта
дардтои
даредзанты
дары
дарын
дарынц
дарьял
дас
дасдзинады
дат
дата
дату
даты
дау
дауыт
дахадаевы
дача
дбар
дбардзинад
дбардзинады
дбардзинадыл
два
две
движение
движения
двор
дворец
дворики
дворов
дворца
дворы
дг
дд
ддаг
дде
ддон
ддонт
де
деи
декабр
декабры
декабрь
декабря
дел
деление
деления
дель
дельт
деменскии
демидово
демократон
демянскии
ден
денджыз
денджызг
денджызм
денджызон
денджызт
денджызы
денисово
день
департамент
департамента
департаментт
департаменты
депутат
депутатт
дербенты
дергаче
деревень
деревеньки
деревня
деталь
деятельности
дж
джаи
джан
джанкои
джаны
джегутаи
джеи
джер
джеры
джиголат
джимараи
джинаты
джиот
джиоты
джиппы
джит
джон
джордж
джусои
джы
джыз
джыккаи
джын
джыт
джыты
дз
дзабиты
дзаг
дзадзиев
дзадзиты
дзамболат
дзанаи
дзар
дзарад
дзарадон
дзарады
дзарм
дзарон
дзары
дзау
дзаум
дзаума
дзауы
дзахо
дзерасс
дзержинскии
дзесты
дзи
дзидза
дзии
дзиим
дзил
дзим
дзимыргомы
дзинад
дзиццои
дзомагъгомы
дзт
дзу
дзуапп
дзуар
дзуарх
дзуары
дзуарыхъ
дзур
дзург
дзурджыты
дзуры
дзурын
дзурынц
дзутт
дзуттаг
дзух
дзухд
дзуцев
дзуццаты
дзы
дзыд
дзылл
дзыллон
дзырд
дзырдм
дзырдт
дзырдта
дзырдтои
дзырдты
дзырдуат
дзырдуаты
дзырды
ди
диалект
диалектт
диалекты
диалектыл
диан
дианы
диаспор
диаты
див
дигор
дигори
дигорскии
дигорско
дидин
дидинджыт
диего
дизаи
дии
диктатор
дин
динамика
динамо
династи
династии
динм
динон
дины
диныл
диплом
директор
директора
дирекция
дириже
дис
диск
дисм
дисон
диссаг
диссаджы
диссертаци
дисы
дих
дихгонд
дихдзинад
дихт
дихы
для
дм
дмитриевка
дмитриево
дмитриевскии
дмитриевское
дмитрии
дмитровка
дмитровскии
днепропетровсчы
дня
до
добринскии
добрянскии
дои
доктор
докторт
докторы
дол
долгая
долгии
долгое
долгоруковскии
должанскии
должен
должны
долина
долл
дом
дома
домбаи
домен
дон
донбылы
донг
донецчы
донкъубал
донкъубалы
донм
донмар
донского
донское
донскои
донт
дону
доны
доныл
доныфарсы
доп
дополненное
дор
доровка
доровскии
доровское
дорога
дохтыр
др
драм
драматург
драмон
древнеи
дреи
другие
дружба
дружныи
дт
дта
дтим
дтои
дтулг
дты
дтыл
ду
дуар
дуарг
дубенскии
дубки
дубовка
дубовскии
дубрава
дуброва
дубровка
дуброво
дубровскии
дубровское
дуванскии
дуг
дудаи
дудар
дуджы
дуи
дум
думиничскии
дун
дунаи
дуне
дунеи
дунеон
дур
дурт
дурхуызт
дурхуызты
дуры
дуу
душеты
ды
дыв
дыг
дыгур
дыгургом
дыгургомм
дыгургомы
дыгурм
дыгурон
дыгуронау
дыгуры
дыд
дыдта
дыдтои
дыз
дыи
дыкк
дыккаг
дыл
дымг
дын
дынджыр
дыргът
дыргъты
дырыс
дыс
дыт
дыты
дыуу
дыууад
дьяконово
дю
дюльмен
дюртюлинскии
е
евгении
евразии
евреи
европ
европеи
его
егорлыкскии
егъау
егъауд
едд
едысы
ее
ежегодник
еи
екатерин
екатеринбург
екатериновка
екатериновскии
еклезии
еланскии
елань
елга
елен
елецкии
елизавет
елизаветино
елои
елховка
елшанка
ем
емецкое
енисеи
ер
ере
ереван
ереваны
ермаково
ермаковское
ермекеевскии
ермолино
ершово
ершовскии
ерыст
ерыстау
ерысты
ес
ескино
если
есо
естествознанию
есть
еу
ефремов
ефремово
еци
еще
ж
жан
жанеи
жанры
жарковскии
жданово
же
железногорскии
железнодорожная
железнодорожнои
железнодорожныи
жердевскии
животного
животных
жиздринскии
жизни
жизнь
жилино
жирятинскии
жителеи
житомиры
жныи
жуковка
жуково
жуковскии
журавле
журнал
журналист
журналистик
журналистт
журналты
журналы
з
за
забаи
заболотье
заборье
завод
завода
заводскои
заводы
заволжскии
заволжское
завражье
завьяловскии
заголовков
заголовок
загор
загорье
загъта
загътои
зад
задонскии
зады
заж
заи
заимка
закат
закъ
закъон
закъонд
зал
залегощенскии
залесье
заман
заманты
заманхъулы
заманы
замка
замок
замостье
замошье
заозерье
заокскии
западная
западнодвинскии
западнои
западныи
заповедник
заполье
запорожьеи
зар
зарджыт
зарджыты
зареченское
заречная
заречное
заречныи
заречье
зарифф
заручевье
заручье
зары
заря
зато
затон
зауыр
зауырбег
захарово
захаровскии
захары
захъхъагомы
захъхъаи
заявлении
зве
звезда
зверево
звягино
зг
згъ
зд
здан
здание
здесь
зджын
зджыт
здравоохранения
зды
здыг
здыгд
зе
зеи
зеланди
зеландии
зеландия
зеле
зеленоградскии
земли
земля
зерноградскии
зети
зз
ззат
ззаты
ззау
ззы
ззынц
зи
зиан
зианчуринскии
зии
зил
зилаирскии
зилг
зимовниковскии
зин
зм
зн
зна
знаг
знаджы
знадон
знаменка
знаменскии
знаменское
знамя
знат
знауыры
значение
значения
зовка
зово
зовскии
зовское
зои
зокъот
золк
золотая
золотои
золотухинскии
зон
зонад
зонадон
зонады
зонг
зонд
зондахаст
зонды
зоны
зонын
зонындзин
зонынц
зорино
зруггомы
зруджы
зт
зта
зтад
зтадон
зтады
зти
зтис
зтм
зтои
зты
зтыл
зтысты
зтыт
зтыты
зуат
зуатм
зуаты
зубово
зубцовскии
зуево
зуевскии
зураб
зы
зыдта
зыдтои
зыково
зыл
зылд
зылдт
зылды
зылын
зым
зын
зынаргъ
зынг
зынд
зындгонд
зындгондд
зынди
зындис
зындысты
зыны
зынынц
зыхъ
и
иа
иберии
ибн
ибрагим
ив
иван
иванково
ивано
иванов
ивановка
иваново
ивановои
ивановская
ивановскии
ивановское
иванцево
иваны
иваньково
ивашево
ивашково
ивг
ивгъуыд
ивд
ивддзин
ивнянскии
ивта
ивтои
ивы
ивын
ивыны
иг
иглинскии
игнатово
игорь
идеи
иерусалим
из
избирателя
избранные
изд
издание
изданные
издательско
издательство
измаи
измаил
измалковскии
изменении
износковскии
изображение
изображением
изображения
израилы
израиль
ии
икон
ил
илас
илецкии
или
илишевскии
иллинои
ильд
ильинка
ильино
ильинскии
ильинское
ильича
ильиче
илья
ильяи
им
имам
имеет
имен
имени
имереты
император
императорт
императоры
импери
империи
имя
ин
инвалидт
инвалидты
инг
индеи
инди
индиаг
индии
индия
индоевроп
индонези
индонезии
индустри
индустриалон
индустрии
индустрион
инжавинскии
инженер
инн
ино
институт
института
институтм
институты
инструмент
инструментт
интервью
интернет
интернеты
интерьер
информаци
информации
информацион
информация
иоанн
иоганн
иосиф
ипп
ипц
ир
ираи
ирак
ираклии
иран
ираны
ирачы
ирбеи
ирбитское
ирд
ирин
иркутская
иркутсчы
ирланди
ирландиаг
ирландии
ирм
ирон
иронау
иронско
ирт
иртас
иртасджыт
иртасы
иры
ирыстон
ирыстонм
ирыстоны
ис
исаак
исаакы
исаево
исаково
исаты
иск
искитимскии
искра
исланди
исландиаг
исландии
исландия
испаи
испани
испании
испания
исполнительнои
использование
использования
использовать
используется
используи
исправленное
исс
исследование
исследовании
исследования
ист
иста
истои
истори
истории
историк
историко
историкт
историон
историческая
исторические
историческии
история
источник
источники
исты
исфахан
исчи
исы
исын
исынц
исыны
итаи
итали
италиаг
италии
италия
итоги
итт
итум
иу
иуазон
иуг
иугонд
иум
иун
иут
иууон
иууыл
иууылд
иухуызон
иуы
иуыл
ифтыгъд
их
ихджын
ишимбаи
ишимскии
июлы
июль
июля
июны
июнь
июня
к
ка
кабардино
кавалер
кавказ
кавказа
кавказаг
кавказм
кавказскии
кавказского
кавказы
кагальницкии
каганады
кад
кадавоор
кадджын
кадджыт
кадджыты
кадр
кадрт
кадуи
кады
кадыи
казаково
казанка
казанскии
казанское
казарма
казинка
казмаляр
каи
как
кал
кала
калак
калаче
калачы
календарь
калии
каликино
калинин
калинина
калининградская
калининграды
калинино
калининскии
калининское
калиновка
калиновскии
калифорни
калифорнии
калифорния
калм
калманскии
калмыкия
калоев
калои
калоты
калтасинскии
калуг
калуга
калужская
калы
кальскии
калья
калязинскии
камал
каменец
каменка
каменное
каменныи
каменскии
каменское
камень
камешковскии
кампании
камчатк
камчатскии
камышинскии
канад
канада
канал
канд
кандидат
кандидатов
кандидатон
кандидатт
кандидаты
кантемирова
каньон
капитан
кар
кара
карабахы
карабулакскии
карагаи
караев
караидельскии
карачаево
карачевскии
каргапольскии
каргопольскии
кард
кардинал
карелии
карелия
карелы
карз
карибы
каринтия
карл
карла
карлос
кармаскалинскии
каролин
карповка
карпово
карт
карта
картина
картли
картлии
картлис
картоф
карты
кары
карьер
касаты
касимовскии
каст
касти
кастис
касторенскии
кастро
кастысты
касы
катаи
каталаи
каталонии
категори
категории
категорит
категорию
категория
католикон
каф
кафедр
кафедра
кафт
кафты
кашарскии
кашино
кашинскии
кб
кв
квадратон
квебек
кг
ке
кеи
кельтаг
кемеровои
кемеровская
кении
керала
кесовогорскии
кетовскии
кешев
ки
кигинскии
киев
киевы
километр
километры
ким
кимовскии
кимрскии
кингисеппскии
кинель
кинельскии
кинешемскии
кино
кинои
киноныв
кинонывт
кинорежиссе
кинскии
кинское
кипр
кипры
киреевскии
киржачскии
кирилловка
кирилловскии
кириллон
киров
кирово
кировская
кировскии
кировское
кировы
кирпичныи
кирсановскии
кирхшпиль
киселе
киселево
китаи
кито
кичменгско
кишертскии
кишкино
кк
ккъ
кл
клавиатур
кладбище
класс
классикон
кле
клепиковскии
климово
климовскии
климовское
клин
клинцовскии
клуб
клубт
клубы
ключ
ключевскии
ключевское
ключи
ключики
км
кмет
кминскии
кн
книга
книжка
книжное
княгининскии
княжево
князево
ко
ков
ковернинскии
ково
ковровскии
ковскии
когда
код
кодекса
кодта
кодтаид
кодтаиккои
кодтои
кодтонц
кожино
кожуун
кожухово
козат
козаты
козельскии
козино
козловка
козлово
козловскии
кои
кокаи
кокоев
кокои
кокуи
колледжы
кологривскии
колодезь
колони
колонит
колорадои
колпнянскии
колумби
колумбии
колумбия
колыванскии
колышлеи
кольцово
кольчугинскии
ком
команд
команда
командир
комаричскии
комаровка
комарово
комб
коми
комиссар
комиссии
комитет
комитета
комитеты
комкомм
комм
комментарии
коммерцион
коммун
коммуна
коммунист
коммунистон
компакт
компани
компании
компанит
комплекс
комплексон
композитор
композиторт
компьютерон
комсомольскии
комсомольское
комы
комыл
конаковскии
конгои
конгрессы
конд
конец
конкурс
конкурсы
коношскии
консерватории
константин
константиновка
константиново
константиновскии
константинополы
константинополь
константины
конституции
конституцим
конституцион
консулад
контеи
контракт
конференции
конфликты
конце
концерт
коныше
координат
коптево
кораблинскии
кордильер
кордильера
кордов
кордон
кореи
кореневскии
коровино
короле
корочанскии
корреспондент
корсаковскии
коса
космонавт
космос
косово
кост
коста
костино
костромская
костромскои
кот
котельничскии
котласскии
котово
которые
которыи
которых
коцои
кочетовка
кошелево
кошкино
краи
красная
красненскии
краснинскии
красноармеи
краснобаковскии
красноборскии
красново
красногвардеи
красногорскии
краснодар
краснодарскии
краснодарского
краснодары
красное
краснознаменскии
краснозоренскии
краснокамскии
краснокутскии
краснооктябрьскии
краснопартизанскии
красноперекопскии
краснополье
красносельскии
красносельское
красносулинскии
краснохолмскии
красноярск
красноярскии
красноярское
красноярсчы
красные
красныи
краткии
краю
края
крепость
крестецкии
кресты
кривои
кривцово
кристобаль
критик
критикон
криуша
кроме
кромскои
крон
круглое
крутая
крутец
крутое
крутои
крутцы
крым
крымскии
крюково
кстовскии
кто
ку
куадз
куб
куба
кубенское
кубинскии
кув
кувшиновскии
кугарчинскии
кудрино
кудымкарскии
кузнецкии
кузнецовка
кузнецово
кузнецовскии
кузнецы
кузнечиха
кузьминка
кузьмино
кузьминская
кузьминское
куи
кулаково
кулига
куликовка
куликово
культур
культура
культурон
культуры
куме
кумена
кунгурскии
купинскии
купол
курган
курганская
курганскии
курганы
курд
курдаг
курдиат
курдиатджын
курилово
куркинскии
курманаевскии
курово
курорт
курортон
курортт
курс
курская
курскаяи
курскии
курсчы
курсыт
курчалои
курчатовскии
курья
кус
кусг
кусджыт
кусджыты
куст
кусы
кусын
кусынм
кусынц
кут
кутаисы
кушнаренковскии
куще
куы
куывд
куывды
куывтои
куыд
куыдд
куыдз
куыдзет
куыдзы
куыи
куын
куыр
куырдта
куырдтои
куырттаты
куыст
куыста
куыстм
куыстои
куысту
куыстуарзты
куыстуат
куысты
куыстыл
куыстыт
куыстыты
куюргазинскии
къ
къаб
къабаз
къабазы
къадд
къаи
къам
къамис
къамисы
къамт
къанау
къанн
къарол
къаролад
къаролады
къаролы
къаспы
къах
къахдз
къахеты
кълас
къласм
къласы
къни
къобы
къозы
къопп
къора
къорд
къордим
къордм
къордт
къордты
къорды
къоста
къостаи
къофи
къофии
къуаи
къуары
къул
къулт
къулы
къуссуи
къут
къух
къухдариу
къухм
къухт
къухты
къухы
къуыдаргомы
къуылдым
къуым
къуымбил
къуыри
къуырии
къуырис
кызыл
кырджалии
кыштовскии
кюе
л
ла
лаб
лабинскии
лаврово
лаг
лагодехы
ладзыгон
лади
ладог
лазарево
лаи
лакаг
лам
ланка
лаос
лапино
лаптево
лар
ларт
ларты
лас
ласт
ластои
ласы
ласын
лат
латви
латвии
латинаг
лауреат
лауреатт
лахиз
лахизы
лая
лбар
лборт
лборты
лв
лвар
лвырд
лг
лгои
лгонц
лгъ
лд
лдаи
лдар
лдариу
лдары
лддз
лдз
лдзыр
лди
лдис
лдон
лдоны
лдта
лдтои
лдтыт
лды
лдыст
лдыста
лдыстад
лдыстадон
лдыстады
лдысты
ле
лебедево
лебедянскии
лебяжскии
лебяжье
лев
левино
лежневскии
лезгоры
леи
лексик
лекцит
лекъ
лекъаг
лен
ленин
ленина
ленингоры
ленинград
ленинградская
ленинградскии
ленинградскои
ленинграды
ленино
ленинск
ленинскии
ленинское
ленины
ленк
леннон
ленскии
леон
леонид
леонтьево
леоны
лепрозории
лермонтовы
лес
лескены
лесная
лесничества
лесничество
лесное
леснои
лет
леуахии
лз
ли
лиаты
либо
ливаны
ливенскии
ливии
лиг
лигурии
лигъд
лидерства
лидзын
лии
лим
лингвист
лингвистик
лингвистт
линдар
липецкая
липецкии
липецчы
липки
липовка
липовское
лирикон
лискинскии
лит
литва
литваи
литератур
литература
литературон
литературы
лиу
лихославльскии
лиц
лицеи
лка
лки
лкъорд
лл
ллаг
ллагкомы
ллагхъ
ллад
лладжыргом
лладжыргомы
лладжыры
ллиц
ллои
ллон
ллоны
лм
лмац
лмацг
лмацгонд
лмацт
лмацы
ло
лобаново
лов
ловка
лово
ловская
ловскии
ловское
лог
логиново
логотип
лодеи
лои
лок
локомотив
локтевскии
лом
ломбардии
ломоносовскии
лон
лондон
лондоны
лопатино
лопатинскии
лос
лочы
лт
лтау
лтт
лтты
лты
лтыл
лу
луар
луг
лугансчы
луговая
луговое
луговои
луговское
лужки
лужскии
луи
луис
лука
лукино
лукинское
лукояновскии
лукьяново
лухскии
луч
лучше
лф
лх
лхох
лхуыз
лхуызт
лхынцъ
лц
лццон
лы
лыг
лыгъд
лыгъдысты
лыи
лыккаты
лын
лынг
лынц
лысковскии
лыст
ль
львовы
льговскии
любимскии
любинскии
люблины
любовь
любытинскии
людвиг
людиновскии
людмил
людовик
люксембург
м
ма
мавзолеи
маврикии
маг
магм
магомедов
мад
мадагаскар
маджы
мадз
мады
мазендераны
мазинскии
маи
мак
макарово
макарьевскии
македои
македони
македонии
маккартни
максатихинскии
максим
максимовка
максимово
макскии
мал
малаи
малахово
малая
малиновка
малиновскии
малиты
мало
малоархангельскии
маловишерскии
малое
малоярославецкии
малые
малыи
малышево
мальт
мальцево
мамсыраты
мамысонгом
мамысонгомы
мамысоны
ман
манагу
мангои
манголты
манголы
мансии
мантуровскии
маны
мар
мараи
марг
маргджын
маргъ
мард
марды
мардысты
маре
мари
марии
марино
мария
марк
марково
марковское
маркс
марксовскии
марокко
мароккои
марр
марс
марта
мартаны
мартин
мартъи
мартъии
мартыново
мартыновскии
марфино
марш
марьевка
марьино
масаи
масловка
маслово
масс
массив
маст
мастер
мастерт
матвеевка
матвеево
матвеи
математик
математикон
математикт
материалов
материалон
материалы
матчы
мауал
мах
махараштр
махарбег
махачкала
махне
мачу
машин
мая
маяк
мб
мбал
мбалад
мбалады
мбар
мбарын
мбарынад
мбарынг
мбис
мбисы
мблаи
мбын
мбырд
мбырдг
мбырдгонд
мбырдгонды
мбырды
мв
мвд
мвт
мг
мглинскии
мгуыт
мгъуыд
мгъуыдм
мд
мдз
мдзыгуыр
ме
мегаполист
медведево
медведевскии
медведково
медвежье
медвенскии
медицин
медицине
медицинон
медои
медынскии
медье
медьет
между
междуреченскии
междуречье
межевскои
меи
мекк
мексик
мексика
меленковскии
мелеузовскии
мельница
мест
места
место
мета
метод
метр
метро
метрополитен
метры
механик
мечети
мечетлинскии
мещовскии
ми
мивдис
миг
миграционные
мид
мидис
мидх
миллер
миллеровскии
миллиард
милославскии
милуан
милуаны
милютинскии
мим
мин
мингаи
мини
минино
министерства
министерстве
министр
министра
министрад
министрады
министрт
министры
миниу
миниуджыт
минм
миннесот
мино
минское
минсчы
минуты
мины
мир
мира
мирныи
мит
митино
миты
мифологи
мифологии
мифология
михаи
михаил
михаилы
михал
михале
михалево
михеево
мичуринскии
мишино
мишкинскии
мище
миякинскии
мкъаи
млн
мм
мне
много
мном
мо
мовсес
могиле
могильная
могут
модель
модуль
можгинскии
может
можете
можно
мои
мокшанскии
моладзандон
моладзандоны
молдавии
молекул
молодая
молоде
молоковскии
молчаново
момент
мон
монастырь
монастыря
монографи
монт
монтан
монумент
мор
морави
моргаушскии
мордовскии
море
моркинскии
морозовка
морозово
морозовскии
морскои
моршанскии
мосальскии
москва
москвы
московскии
мост
моста
мостовая
моховое
моцарт
мошенскои
мп
мр
мс
мт
мтк
мтт
мтты
мты
му
мугг
мужского
музеи
музык
музыкалон
музыкант
музыканта
музыкантт
мулк
муниципалитет
муниципалитетт
муниципалитеты
муниципалон
муниципального
муниципальное
муниципальныи
муниципальным
муравье
мураз
муразы
мурат
мурзино
мурманская
мурмансчы
муромскии
мусс
мустафа
мухарбег
мухино
мх
мхас
мхуызон
мхъ
мценскии
мы
мыг
мыгг
мыггаг
мыггагм
мыггагон
мыггагыл
мыггаджы
мыгъд
мыд
мыдх
мыза
мызд
мызур
мызуры
мыл
мын
мыр
мырзаганты
мыс
мысин
мысыди
мысыр
мысыры
мых
мыхатт
мыхуыр
мыхуыргонд
мыхуыры
мышкинскии
мьянм
мэр
мюнстер
мюнхен
н
на
навигацион
навлинскии
наволок
наг
нагау
нагорное
нагорныи
над
надежда
надеждино
наджы
надо
надон
нады
назарово
название
названии
названия
назраны
наи
нал
намибия
намыс
намысы
нанит
например
нар
народа
народная
народное
народов
народы
нарт
нартовском
нартхор
нартхоры
нарты
нары
нарыхъ
нас
населе
население
населения
населенных
наслег
настрои
натальино
наталья
нато
натуралон
нау
наук
наука
наукон
наумовка
наумово
наут
научно
науы
нафи
нафии
нах
нахаг
нахичеваны
нахуыр
национ
националон
национальном
национальныи
нациты
ная
нбег
нбынат
нв
нг
нгард
нгарз
нгас
нгом
нгонд
нгт
нгты
нд
ндаг
ндагон
ндагыл
ндаджы
нджы
нджыт
нджыты
ндз
ндзин
ндзысты
ндидз
ндон
ндонм
ндоны
ндт
ндты
нды
ндыд
ндыди
ндыдис
ндыл
ндыр
не
невад
невадо
неверово
невскии
неи
неклиновскии
некоторые
некоузскии
некрасовка
некрасово
некрасовскии
нелидовскии
нем
немецкии
немыц
немыцаг
ненецкии
неологизмы
нерехтскии
несветаи
несколько
нестерово
нестеровскии
нет
нефедово
нефт
нефты
ни
нива
нивы
нигер
нидерландаг
нидерландт
нидерландты
нидерланды
ниже
нижегородская
нижнегорскии
нижнее
нижнеингашскии
нижнеомскии
нижние
нижнии
нижняя
низ
низдзинад
низдзинады
низт
низы
нии
ник
никарагу
никитино
никиткино
никифоровскии
никола
николаевка
николаевскии
николаевское
николаевы
николаи
николо
никольск
никольская
никольскии
никольское
никулино
никуы
никъала
никъалаи
ним
нин
нинаг
нинскии
нис
них
ниц
ницы
ничи
нк
нка
нки
нковское
нкъар
нкъуыст
нкъуыстыт
нланд
нм
нн
нная
нные
нныи
нных
но
нобелы
нов
нова
новая
новгород
новгородская
новгородскии
новгороды
новинка
новинки
новка
новленское
ново
новоалександровка
новодеревеньковскии
новое
новоивановка
новокубанскии
новокузнецкии
новомихаи
новомосковск
новониколаевка
новониколаевскии
новоникольское
новооскольскии
новопавловка
новопокровка
новопокровскии
новороссии
новосе
новоселки
новоселье
новосельское
новосибирск
новосибирская
новосибирскии
новосибирскои
новосибирсчы
новосильскии
новости
новострои
новоторъяльскии
новотроицк
новотроицкии
новотроицкое
новоузенскии
новохопе
новочеркасск
новская
новскии
новское
новые
новыи
новых
ног
ногиры
ногхъ
ногъаи
ноджы
ное
ножаи
нозт
нои
нок
нолинскии
ном
номдзыд
номив
номивджыт
номим
номхыгъд
номхыгъдгаглои
номхыгъдт
номхыгъдты
номхыгъды
номы
номыл
номыр
номыры
нон
норвеги
норвегиаг
норвегии
норвегия
норильск
норильского
норм
ночнои
ноябр
ноябры
ноябрь
ноября
нр
нран
нраны
нск
нскии
нское
нт
нтим
нтт
нты
нтыл
нтыст
нтыстджын
нтыстдзин
нтыстыт
ну
нуат
нувыд
нужно
нур
нуримановскии
нус
нусм
нусон
нусонцъ
нуст
нусты
нусы
нут
нхъ
нхъыт
нхъыты
нц
нцои
нцон
нцонд
нштеи
ны
ныббырст
ныв
нывг
нывгонд
нывк
нывонд
нывт
нывты
нывыл
ныг
ныгуыл
ныдд
ные
ныи
ныкк
ныл
нылл
ным
нымад
нымадта
нымадтои
нымаи
ныммыхуыр
нын
нынад
нынады
нынм
нынц
ныны
ныныл
ныппырх
ныр
нырд
нырдыг
нырид
нырм
нырма
нырт
ныры
нырыккон
ныс
нысан
нысангонд
нысаниу
нысант
нытвенскии
ныууагъта
ныууагътои
ныфс
ныффидар
ныффысс
ныффыссын
ныффыст
ныффыста
ныффыстои
ных
ныхас
ныхасм
ныхасы
ныхасызд
ныхм
ныхх
нь
нью
нюксенскии
няндомскии
о
об
обеспечению
обзор
обл
области
областного
область
обливскии
обозрение
обоянскии
образование
образования
образованиям
обслужване
обсуждение
обсуждения
обухово
общие
община
объект
объектт
обыкновенная
обычно
ованес
овсянниково
огаи
огаре
одесс
один
одоевскии
озе
озера
озере
озерки
озеро
ои
океании
океаны
около
округ
округа
октябр
октябры
октябрь
октябрьскии
октябрьское
октября
окулово
окуловскии
оле
олег
оленинскии
олимпаг
олимпиаг
ольгино
ольгинск
ольховка
ольховскии
ольшанка
ома
омар
омская
омскии
он
она
онг
онежскии
они
онлаи
онм
онов
онт
онты
оны
оп
опер
операци
оперон
описание
опись
ор
орг
организаци
организации
организацит
орден
ордены
орджоникидзе
орджоникидзеи
оре
оренбургская
оренбургскии
оренбурджы
орехово
оригинал
оричевскии
орк
оркестр
орловка
орлово
орловская
орловскии
орловское
ортега
оруэлл
орчы
ос
осет
осетии
осетин
осетинская
осетинские
осетинскии
осетинских
осетинского
осетинское
осетинскои
осетинском
осетины
осетия
осинки
осиновка
осинскии
осипово
осмаи
османты
основные
остан
остановочная
остант
останы
осташковскии
остров
острова
острове
островскии
острогожскии
от
отд
отделение
отделения
отделом
отдыха
отечественнои
относящихся
отрада
отрадное
отто
отче
офиц
официалон
официальныи
оформления
оффициалон
оханскии
охыл
оценка
оче
очерк
очерки
очеркт
ошибка
ошибки
п
пабло
павел
павелы
павловка
павлово
павловская
павловскии
павловское
паддз
паддзах
паддзахад
паддзахадон
паддзахады
паддзахы
паи
пакистан
пакистаны
палат
палеолог
палестин
палехскии
палкино
пальм
памятная
панам
панино
панинскии
паново
панорам
панорама
панфилово
паньково
пап
парагваи
параметр
параметра
параметров
параметром
параметры
парахат
парахатг
париж
парижы
парк
парке
парламент
парламенты
парти
партизан
партизанскии
партии
партион
партит
партне
парфеньевскии
парфинскии
парчы
паспорт
пастухов
патриотон
паук
паулу
пахарь
пахомово
пахс
пашково
пе
пед
педагог
педагогон
педро
пеи
пензенская
пензенскии
пеновскии
пеньки
пер
первая
первое
первои
первомаи
первые
первыи
перевод
перевоз
перевозскии
перед
перемышльскии
перенаправление
переписи
перепись
переславскии
период
периодикон
периодон
пермскии
пермы
пермь
персаи
персы
перу
перуи
першино
пески
песочное
песочня
пестово
пестовскии
пестяковскии
песчанка
песчаное
песчаныи
петербург
петра
петраково
петровка
петрово
петровскии
петровское
петропавловка
петропавловскии
петропавловское
петрушино
петряево
петухово
петушинскии
пехуымпар
пижанскии
пильнинскии
пинежскии
пионерскии
пиренеи
пирогово
письма
питер
пичаевскии
пкс
плавскии
план
планет
планирования
платформа
пле
плеи
плесецкии
плит
плиты
пло
пловдив
пловдивы
плосково
плоское
пляж
по
победа
поведения
поводу
погарскии
погорелка
погорелово
погост
под
подберезье
подгоренскии
подгорная
подгорное
подгорныи
подгорье
поддорскии
поддубье
подлесное
подлесныи
подол
подосиновскии
подпись
поезд
пожалуи
позицион
пои
покров
покровка
покрово
покровскии
покровское
пол
пола
поле
полевои
полесскии
полиграфион
полиграфическое
политик
политикон
политикт
полиции
полом
полтав
полчъы
польскии
польш
польша
поляна
полянскии
полянское
поляны
полярон
померании
пономаре
поныровскии
поп
попечителеи
попов
поповка
попово
поповское
популярон
популяронд
поречье
порт
портал
портрет
портт
порту
португаи
португали
португалии
португалия
посад
посадов
посадскии
посе
поселение
поселении
поселения
поселениях
после
посмотреть
поспелихинского
поссовет
пост
постоянного
посты
потапово
потолок
потоси
почепскии
починки
починковскии
починок
пошехонскии
поэзи
поэзии
поэм
поэт
поэтесс
поэтикон
поэтт
поэтты
поэты
пп
ппадз
ппу
ппуи
ппут
ппын
ппынкъадд
ппынф
ппыт
правда
правдинскии
правоприменения
прадеш
прадешы
практик
практикон
предложения
предмет
предприятие
президент
президента
президентт
президенты
преми
премии
премьер
преображенка
пресс
префектур
при
приволжскии
привольное
привольныи
пригородное
пригородныи
приднестровьеи
призе
прилепы
приложение
применены
применяется
пример
примеры
приморскии
приморско
приморского
принимает
приозе
приозерскии
приписанное
приписное
природныи
пристань
пристенскии
проблем
проблемы
пробуждение
прованс
проверьте
провинци
провинции
провинцит
программ
программа
прогресс
продолжить
продукт
продуктт
продукци
продукции
продюсер
проект
проекта
проектт
проектты
проекты
проз
прозаик
прокопьевскии
пролетарскии
промышленного
пронскии
проспект
просто
протасово
против
профессионалон
профессор
профиль
прохладн
прохоровскии
процесс
процессы
прочее
прудки
пруды
психолог
публицист
пугаче
пун
пункт
пунктов
пункты
пурти
пустошка
пустошь
пустынь
путь
путятинскии
пучежскии
пушкин
пушкино
пушкины
пуэрто
пх
пъ
пъанкъисы
пълан
пырх
пысылм
пысылмон
пьер
пьес
пятилетка
р
ра
раб
работы
рабочии
рав
равдисын
равдыст
равдыста
равдыстои
равз
равзурд
раг
рагд
рагон
рагонд
рагфыд
рагъ
рагъы
рад
раджы
радзырд
радзырдт
радзырдта
радзырдты
радио
радиои
радиостанц
радих
радон
радта
радтои
раз
разагъды
разамон
разамонджыт
разамынд
разамынды
разв
развитие
развития
разд
раздел
разделов
раздзог
раздолье
раздольненскии
раздольное
раззаг
разм
разных
разныхас
разонт
разъезд
разъезда
разы
разынд
разындис
разындысты
раи
раивта
раивтои
раирт
рак
ракодта
ракуырдта
рал
ралидзын
ралыгъд
ралыгъдис
ралыгъдысты
рам
рамбылдта
раменье
рамешковскии
рамонскии
ран
ранм
раны
рапарахат
рапп
раппонд
рарвыста
рарвыстои
раргом
рас
расаи
расидти
расидтис
распоряжению
рассвет
рассказовскии
рассказы
раст
растад
растады
растджыты
растении
растительного
растуырн
расул
рат
ратт
ратта
раттын
раты
рау
рауагъд
рауагъдад
рауагъдадон
рауагъды
рауагъта
рауагътои
рауад
рауаи
раф
рах
рахаста
рахастои
рахиз
рахизфарсы
рахизырдыг
рахиц
рац
рацар
рацъ
рацъы
рацыд
рацыди
рацыдис
рацыдысты
рб
рбазд
рбаи
рбалыгъд
рбалыгъдысты
рбафтыд
рбафтыдысты
рбах
рбац
рбацыд
рбацыдис
рбацыдысты
рбынат
рв
рвад
рвадиу
рвит
рвон
рвхуыз
рвылаз
рвыст
рг
ргаэ
рги
ргии
ргом
ргонд
ргут
ргъ
ргъв
ргъит
ргъиты
ргъл
ргъм
ргът
ргъты
ргъы
рд
рдар
рдары
рдгуыт
рддз
рджын
рджыт
рджыты
рдз
рдззон
рдзон
рдзы
рдзын
рди
рдиаг
рдис
рдм
рдон
рдт
рдта
рдтои
рдты
рды
рдыг
рдыгон
рдыл
рдын
рдысты
ре
реакции
реалон
революци
революции
революцион
революционер
революционерт
регион
регионалон
регионм
регионов
регионт
регионты
регионы
регистрацигонд
регистрация
ред
редактор
редакции
редькино
режиссе
реи
река
реке
реки
реклам
реком
рекомы
ректор
рельеф
репье
рес
республик
республика
республики
республикон
ресы
реформ
речка
ржавец
ржаксинскии
ржевскии
рз
рзг
рзиу
рзиуджыт
рзиуджыты
рзифтонг
рзои
рзонд
рзондд
рзт
рзты
рзхъ
ри
рибар
рибарг
рибары
ригъ
ридд
рик
рим
рин
ринаг
рио
рис
рисджыны
риу
рифм
ришелье
рк
рка
рки
ркодта
рл
рлыгъдысты
рм
рмагонд
рн
рная
рнигон
рное
рнон
рныи
ро
роберт
ровнои
рог
рогнединскии
рогово
род
родионово
родники
родниковскии
рождения
рождественка
рождествено
рождественское
роз
рои
рок
роль
ром
ромаг
ромаи
роман
романовка
романово
романовскии
романовское
романт
романы
романьяи
ромы
ромыл
рон
ронд
рондд
ронм
роны
роныл
россии
россия
россошанскии
ростиловское
ростов
ростовская
ростовскии
ростовы
рох
роща
рощино
рр
рс
рсагд
рсагдон
рсг
рск
рскии
рское
рсо
рссаг
рст
рста
рстаны
рстои
рсты
рстыл
рстыт
рстыты
рсфср
рсыг
рт
ртищевскии
ртон
ртт
ртты
рттыл
ртхъир
рты
ртыкк
ртыккаг
ртыл
ртынд
ру
руаджы
руаны
рубаи
рубцовскии
рувики
рудня
руководства
руководством
рукъаты
румынаг
румыни
румынии
рус
руслан
русская
русские
русскии
русско
русское
русскои
русском
рухс
рухстау
ручеи
ручъы
ручьи
рф
рфидар
рфыст
рх
рхад
рхаста
рхастои
рхи
рхон
рхоны
рхуы
рхуызон
рхъула
рхъуыды
рц
рцард
рцарди
рцардис
рцардысты
рцахста
рцахстои
рци
рцуат
рцуд
рцц
рцы
рцыд
рцыди
рцыдис
рцыдысты
ры
рыбинскии
рыбновскии
рыбное
рыгон
рыдон
рыдоны
рыжково
рызд
рыл
рыльскии
рын
рынм
рынц
рынчын
рынчындоны
рынчынт
рыны
рюо
рябиновка
ряд
ряжскии
рязанская
рязанскии
рязаны
рязань
с
са
саакашвили
саби
сабибонт
сабии
сабит
сабыр
сабырдзинад
сабырдзинады
савино
савинская
савинскии
савинское
савкино
саг
сагъ
сад
саджы
садовая
садовое
садовыи
садоны
саи
сакмарскии
сакскии
саксони
саксонии
саксония
сакъад
сакъадах
сакъадахон
сакъадахы
сакъадахыл
сал
салаватскии
саламова
салд
сальвадор
самадтои
самар
самарская
самец
самка
самои
самуил
сан
санатории
санатория
санахъот
сандовскии
саниба
санибаи
санкт
сант
санта
сантиметры
сантьяго
санчурскии
сар
сараевскии
сараз
саразта
саразын
саразыны
саракташскии
саратовская
саратовскии
саратовы
сари
сасанидты
сасовскии
саст
сасчыт
сасчыты
сат
сау
сауджын
сауды
саулохт
сафоновскии
сах
сахалинская
сахар
сахарм
сахарт
сахарты
сахары
сахат
сахаты
сахуыр
сб
сбаи
сбир
сборник
сбург
св
сваты
сведении
сведения
сведениям
свердловская
свердловскии
свердловсчы
свет
светлое
светлыи
свечинскии
свобода
свободныи
свое
свои
связи
святого
святои
сг
сгаи
сгом
сгон
сгуыт
сгуыхт
сденджызон
сджыт
сджыты
сдз
се
сев
севера
северная
северное
севернои
северныи
северо
северскии
севскии
сезоны
сеи
сеим
секретар
секретарь
секъа
секъаи
сел
села
селиваново
селивановскии
селижаровскии
селище
село
сельскии
сельских
сельского
сельское
сельскому
сельсовет
сельсовета
сельцо
сем
семе
семеи
семенково
семеновка
семеново
семеновское
семилукскии
семинар
семинары
сен
сент
сентябр
сентябры
сентябрь
сентября
сеон
серб
сербаг
серби
сербии
сервантес
сервис
сервисы
сергачскии
сергеевка
сергеево
сергеи
сергиевка
сергиевскии
сергиевское
сере
середское
сериал
сериалы
серии
серия
серро
сет
си
сив
сивинскии
сид
сидз
сидоровка
сидорово
сидоровское
сидтысты
силезии
силистр
символ
симд
симон
симоново
симферопольскии
симфонион
син
сингл
сирв
сири
сирии
сис
сист
систа
систем
система
системы
систы
сисы
сиукъаты
сицилии
ск
ска
скавказ
скавказы
скарпаты
ская
ские
скии
скифаг
скифт
ских
ско
ского
скодта
скодтои
ское
скои
ском
скомц
сконд
скондм
сконды
сконеи
скопинскии
скульптор
скульптура
скусын
скуы
скуыи
скуым
скуыста
скъ
скъола
скъолаи
скъолам
скъолат
скъолаты
скъуыддзаг
сл
славскии
славяи
сланцевскии
слева
сливены
слобода
слободка
слободское
слободскои
слов
словаки
словакии
словарь
словени
словении
слово
слудка
служб
случае
см
смерти
смоленская
смоленскии
смоленсчы
сн
сномыг
сны
сныи
снысан
со
собинскии
соболево
собор
собора
совет
совета
советон
советская
советскии
советско
советское
советы
современность
совхоз
совхоза
совхозныи
согъдаг
создания
созырыхъо
сои
соигси
сокол
соколов
соколовка
соколово
сокольскии
солецкии
солиаг
солигаличскии
солнечное
солнечныи
солнцевскии
соловье
солыи
соль
сом
сомалии
сомих
сомихаг
сомихы
сомоса
сомы
сон
сонковскии
сонт
сонты
сообщения
сообщества
сообществом
сорокино
сорочинскии
соседи
сосковскии
сослан
сосланы
сосновка
сосновскии
сосновское
сосновыи
сост
состав
состава
составители
составитель
составленные
состоянии
состоянию
состояния
софия
софияи
социалистон
социалон
социально
социальных
сочи
союза
спаи
спартак
спас
спасибо
спасскии
спасское
спб
спбгу
спектакльт
спировскии
списки
список
спорт
спортивон
спортсмен
спортсмент
спорты
справка
справочник
спутник
ср
сразы
срастгонд
среднее
средние
среднии
средняя
сс
ссаг
ссад
ссар
ссард
ссардта
ссардтои
ссарын
сси
ссис
сср
ссрц
ссср
ссы
ссылка
ссылки
ссылку
ссылок
ссын
ссынц
ст
ста
ставд
ставрополь
ставропольскии
ставропольскои
стаг
стагм
стадион
стаи
сталин
сталины
стальскии
стамбул
стамбулы
стан
станислав
станиц
станица
становлянскии
становое
станц
станции
станция
стара
старая
старица
старицкии
старково
старо
старово
стародубскии
старое
старожиловскии
старооскольскии
старорусскии
староселье
старосельское
старые
старыи
стат
статеи
статистик
статистика
статистики
статистические
статистическии
статистического
статистическое
статус
статье
статьи
статью
статья
статьяи
статьят
статьяты
ств
ства
ство
стг
стгонд
стд
стдзинад
сте
степановка
степаново
степановская
степное
степнои
степь
стерлибашевскии
стерлитамакскии
стефан
стиат
стили
стилы
стиль
стим
стиу
стм
стои
стокгольм
столбово
стон
стонт
стоны
стр
страница
странице
страницу
страницы
страны
стратегии
стратовулкан
стрелка
строка
строки
строку
структур
студе
студенец
студент
студентт
студентты
студии
ступино
стъ
стъалы
стъалыи
стъараполы
сты
стыл
стыр
стырд
стыт
стыты
стых
стыхаи
стыхъ
су
суа
суад
суадон
суан
суанг
суар
субтропикон
субъект
субэтникон
суворов
суворово
суворовскии
суворовы
суг
сугъд
судан
суджанскии
судиславскии
судогодскии
суздальскии
суи
суинаг
сулеи
султан
сумароково
суматр
сумон
сумыи
сунж
сунскии
сур
суражскии
сурз
сус
сусанинскии
сухая
сухиничскии
суходол
сухои
сухумы
сф
сфер
сфидар
сфыст
сфыстм
сх
схем
схема
схорз
схуыдта
схуыдтои
схъ
схъомыл
сцен
сценарист
сцкп
счы
сша
сы
сыбыры
сыв
сыг
сыгъд
сыгъз
сыджы
сызгъ
сызд
сыл
сылгои
сын
сындзыхъ
сынм
сынц
сыны
сыр
сырд
сырдт
сырды
сырх
сысертскии
сыф
сыфт
сых
сыхаг
сыхт
сыхы
сыче
сьерра
сюжет
ся
сямженскии
т
та
табасараи
таблиц
таблица
таблицу
таблицы
табу
табуи
таг
тагил
тагъд
тагъдд
таджикаг
таджикистан
таджикистаны
таджы
тае
таи
таиланд
так
также
таксономи
талица
талицкии
талицкое
таллин
таловка
таловскии
там
тамаев
тамако
тамалинскии
тамар
тамбовская
тамбовскии
тамбовы
тамерлан
тар
тарасово
тарасовскии
таркскии
тарногскии
тарт
тарусскии
тары
тас
тасы
тат
татарская
татарскии
татарстан
татевы
татышлинскии
таур
тахъазты
тацинскии
ташлинскии
тбилис
тбилиси
тбилисм
тбилисскии
тбилисы
тв
тверская
тверы
тг
тдунеон
те
театр
театралон
театры
тебердаи
тегкат
тедет
тедеты
теи
текст
текста
текстт
тексты
текущии
тела
телеуынынады
тем
тембол
температур
темырболат
тенант
теори
теории
тер
тербунскии
терек
терехово
терк
термин
терминов
терминологи
терминологион
терминологическии
терминон
терминт
терминты
терновскии
территори
территориалон
территориального
территориальное
территории
территорит
территоритыл
территория
терскои
терчы
тесь
техасы
техник
техникон
техникум
ти
тиб
тибы
тигр
тигрт
тигрты
тигры
тим
тимаше
тимонино
тимошкино
тимскии
тимур
тин
тип
типа
типографи
типографии
типография
типы
тираж
тироль
титикак
титово
титул
тифлисы
тихвинскии
тихорецкии
тк
ткон
ткъуы
тлигом
тлигомы
тлии
тм
то
тобольскии
товарт
товскии
того
тои
токаи
токаре
токарево
токаты
токио
толковыи
толстовскии
толстои
только
том
томаи
томас
томская
томскии
томсчы
тон
тони
тонкинскии
тонн
топографион
топоними
топонимия
топонимт
топп
топчихинскии
торжокскии
торопецкии
тоскан
тосненскии
тот
тотемскии
тох
тохг
тохты
тохы
тр
трагеди
традицим
традицион
традицит
трамваи
транспорт
транспортон
транспорты
тре
тренер
тренерт
три
тринидад
троица
троицк
троицкии
троицкое
троллеи
тропикон
троснянскии
трубчевскии
труд
труды
тры
тскии
тт
ттаг
ттаты
ттим
ттон
тты
ттыл
ттын
ттынц
ттыны
ттыт
ттыты
ту
туалгом
туалгомы
туаллаг
туалт
туат
туаты
туг
тугдзых
тугуро
туджджын
туджджынт
туджы
туи
тукаи
тул
тула
тульская
тур
туризм
туризмы
туринскии
туристон
туристт
турк
туркаг
туркм
турковскии
турнир
турово
турчы
тутаевскии
тухх
тъ
ты
тыбылт
тыбылты
тыва
тыджыт
тызм
тыл
тылл
тымбыл
тын
тынг
тынгд
тырсыгом
тырсыгомы
тырыса
тырысаи
тых
тыхджын
тыхджынд
тыхт
тыхты
тыхх
тыхъ
тыхъты
тыхы
тюкалинскии
тюльганскии
тюменская
тюркаг
у
уа
уав
уаг
уагд
уагдон
уагъд
уагъта
уагътои
уад
уадз
уадзы
уадзын
уадзынц
уады
уаз
уазал
уаи
уаид
уал
уалдз
уалыт
уанеты
уарзон
уарзонд
уарзт
уарзта
уасил
уастырджи
уастырджии
уац
уацары
уацау
уацаут
уацилла
уациллаи
уацмыс
уацмыст
уацмысты
уацмысы
уацт
уацты
уацх
уацы
уб
убыхаг
уважением
уварово
уваровскии
уг
угличскии
угол
уд
удгои
уджыт
уджыты
уджыхъ
удз
удмуртии
удмуртия
удомельскии
уды
уезд
уезда
уже
узаманы
узбекистан
узбекистаны
узловскии
уи
уид
уидаг
уильям
указ
уккаг
уклада
укп
украин
украина
украинаг
украинскии
ул
улан
улус
ульяновка
ульяновская
ульяновскии
ульяновсчы
ум
уме
умолчанию
ун
унечскии
универсального
университет
университета
университетм
университетт
университеты
уои
уом
уон
управлении
управлению
управления
ур
урал
уралы
уральскии
уренскии
уржумскии
урицкии
урожаи
урс
урсдзуары
урсдон
урсдоны
урстуалты
уругваи
урус
урюпинскии
ус
усадьба
усольскии
успенка
успенскии
успенское
уссурии
устава
устрои
устыт
усть
устье
устьянскии
устюженскии
усфср
усы
ут
утверждения
ути
уткино
утро
утт
уттар
утты
уты
уу
ууон
ууонх
ууы
ууыд
ууыди
ууыдис
ууыдысты
ууыл
ууылты
ууын
ууынц
уф
уфа
уфимскии
ухоловскии
уцмии
учалинскии
участие
участника
участников
участок
уче
училище
училищеи
ушаково
уы
уыг
уыд
уыдаид
уыдз
уыдзысты
уыди
уыдис
уыдон
уыдоним
уыдонм
уыдоны
уыдоныл
уыдысты
уыи
уыим
уыл
уылты
уым
уымы
уын
уынафф
уынг
уынгт
уынд
уынджы
уынц
уыны
уырд
уырдыг
уырнджыт
уырны
уырызм
уырыс
уырысс
уырыссаг
уырыссагау
уырысы
уыциу
уыцы
уэльс
уэльсы
ф
фабрик
фаг
фад
фадат
фадыджы
фаи
фактт
факультет
факультетм
факультеты
фал
фамилии
фантаст
фараст
фарераг
фарерты
фареры
фарн
фарнаваз
фарс
фарсм
фарст
фарста
фарстат
фарсы
фарсыл
фасад
фат
фатежскии
фатим
фгбун
фе
феврал
февралы
февраль
февраля
федералон
федеральныи
федеративон
федераци
федерации
федорково
федоровка
федоровское
федотово
федта
федтои
федыр
феи
феликс
фемб
фембылды
фен
фендд
феодалон
ферв
ферзиковскии
ферох
фес
фестиваль
фесты
фех
фехстои
фехъусын
фид
фидар
фидаргонд
фидары
фидель
фидиу
фидыд
фидыды
физик
физикон
физикт
филатово
филиал
филимоново
филино
филиппинты
филипповка
филиппово
филолог
филологии
филологион
филологон
философ
философи
философии
философон
философт
фильм
фильмт
фильмы
финалист
финансон
финлянди
финляндии
финнаг
фиппаи
фиппаин
фирм
фировскии
фист
фк
флагификация
флоренции
флорид
флот
флоты
фнц
фольклор
фольклоре
фольклорон
фольклоры
фомино
фоминская
фоминское
фон
фона
фонд
фонда
фондз
фонды
фонем
фонетикон
фонтан
форм
формат
форт
форум
фос
фосы
фотография
фраз
франк
франковсчы
франц
францаг
франция
францм
францусаг
францы
фреи
фреска
фридрих
фрисландия
фролово
фронт
фронтм
фронты
фс
фсад
фсадм
фсады
фсати
фсир
фсирджынт
фснаи
фсым
фт
фта
фтауы
фтауын
фтиаг
фтои
фтуан
фты
фтыд
фтыт
функции
функцит
функция
фурд
фурды
фурмановскии
футбол
футболист
футболистт
футболон
футболы
фх
фц
фцджыт
фы
фыд
фыдг
фыдрак
фыды
фыдыб
фыдыу
фыи
фылд
фын
фырт
фыртм
фыртт
фырты
фыс
фысг
фысджыт
фысджыты
фысс
фыссы
фыссын
фыссынад
фыссынады
фыссынц
фыссыны
фыст
фыста
фыстои
фыстыт
фыстыты
фых
фыцц
фыццаг
фыццаджы
фыццаджыд
фюльке
х
ха
хаб
хабар
хабаровскии
хабаровского
хаврогорское
хаджумар
хадзы
хазби
хазбии
хаи
хакасия
хал
хан
ханты
характерон
хардз
харино
харовскии
харьковы
хасан
хаст
хаста
хастои
хатгаи
хатт
хатты
хау
хауы
хауынц
хахх
хашуры
хб
хвастовичскии
хвои
хг
хгонд
хд
хджы
хджын
хджынгонд
хджыт
хе
хеи
хельсинки
херсоны
хет
хи
хибар
хигъ
хид
хиды
хиз
хилачъы
хилт
хим
хими
химик
химион
хин
хинди
хист
хиу
хиуы
хиуыл
хиуынафф
хихджын
хиц
хицау
хицауад
хицауады
хицауиу
хицауы
хкус
хкусджыт
хкусджыты
хм
хмелевка
хмельники
хмельницкии
хо
ход
ходы
хозиты
хозяи
хои
холм
холмогорскии
холмскии
хольскии
хомутовскии
хон
хоны
хонын
хонынц
хор
хорасан
хорватаг
хорвати
хорватии
хорз
хоры
хос
хосг
хосе
хост
хостел
хотынецкии
хох
хохаг
хохм
хохы
храм
хран
храны
христофор
хроник
хрустальныи
хс
хсаи
хсар
хсарбег
хсары
хсат
хст
хста
хстои
хсты
хстыл
хсы
хсызгон
хсын
хсыр
хсыры
хт
хта
хти
хтис
хты
хтыл
хтысты
хтыт
ху
хуан
худ
хуи
хур
хурз
хурныгуыл
хуры
хурыск
хус
хуссаи
хуссар
хуссарварс
хуссарварсы
хуссард
хуссарм
хуссары
хуссарырд
хуссарырдыг
хут
хутор
хутора
хуыбиат
хуыгат
хуыгаты
хуыдта
хуыдтои
хуыз
хуызд
хуызон
хуызт
хуызты
хуызы
хуыи
хуым
хуымг
хуымз
хуымт
хуынд
хуынди
хуындис
хуыцау
хуыцаубоны
хуыцауы
хх
ххаст
ххон
ххуыс
ххуысг
ххуысы
ххы
ххыл
ххыт
ххыты
ххытыл
хца
хцаи
хческы
хъ
хъавы
хъавыдысты
хъаз
хъазаны
хъазахстан
хъазахстаны
хъазахъхъ
хъазахъхъаг
хъазджыт
хъазт
хъазты
хъазуатон
хъазы
хъазыбег
хъазыбеджы
хъазыд
хъазыдис
хъаи
хъал
хъалац
хъалацы
хъалон
хъама
хъаныхъуаты
хъарат
хъараты
хъарм
хъарс
хъарсы
хъару
хъауджыд
хъахъхъ
хъац
хъелы
хъиз
хъиргъиз
хъиргъизы
хъит
хъо
хъобаны
хъодзаты
хъои
хъомыл
хъомылг
хъомыс
хъотаи
хъуам
хъуды
хъус
хъусын
хъусынг
хъуыдд
хъуыддаг
хъуыддагм
хъуыддаджы
хъуыди
хъуыдис
хъуыды
хъуыдыи
хъуыдым
хъуыдыт
хъуылаты
хъуымыхъхъаг
хъуыстгонд
хъхъ
хъырым
хъырымы
хъысм
хы
хыгъд
хыз
хыл
хын
хынц
хыс
ц
цав
цагаева
цаган
цагъаты
цагъд
цад
цадт
цады
цаи
цал
цалд
цалх
цалц
цалынм
цар
цард
цардафыст
цардв
цардг
царди
цардис
цардм
царды
цардысты
цардыуаг
цардыуаджы
цари
царии
цария
царм
царциаты
цас
цасд
цау
цаут
цауты
цауы
цветке
цветок
цг
цгоев
цгъои
цджыт
цево
целинныи
целинскии
центр
централон
центральная
центрального
центральное
центральныи
центрон
центры
церемониалон
церетели
церкви
церковь
ци
цивилизации
цивильскии
цигаи
цикл
цин
ципу
цис
цк
цм
цмии
цомахъ
цон
цот
цоцит
цоциты
цска
цт
цты
цуан
цуанон
цуаны
цудг
цур
цуры
цух
цхета
цхетаи
цхинвал
цхинвалм
цхинвалы
цхуырбаты
цц
цъ
цъаи
цъамады
цъар
цъити
цъитии
цъитит
цъиу
цъумадаи
цъунтъаи
цъупп
цъуппыт
цъус
цы
цыбыр
цыбырт
цыбырты
цыд
цыди
цыдис
цыдысты
цыи
цыколаи
цым
цыма
цымыдис
цымыдисаг
цымытии
цын
цыпп
цыппар
цыппурсы
цыран
цыргъ
цырт
цыртдз
цыт
цытджын
цыты
цыф
цыхт
цыхуырбаты
ч
чавес
чавчавадзе
чагодощенскии
чад
чаи
чаплыгинскии
чарышскии
части
часть
че
чебоксарскии
чегем
чегемы
чеджемты
чеи
чекмагушевскии
чел
человек
челябинская
челябинсчы
чемпион
чемпионат
чемпионаты
чемпионт
ченцы
чепецкии
чере
через
черемисиновскии
черемшанка
череповецкии
черкасскии
черкес
черкесаг
черкесия
черкесы
чермен
черниговы
черногори
черногории
черноморскии
чернскии
чернушинскии
черняховскии
чертковскии
чеселтгомы
четыре
чехаг
чехи
чехии
чехия
чехов
чечня
чи
чид
чили
чилии
чин
чингуыт
чингуыты
чиныг
чиныгк
чиныгм
чиныгуадз
чиныджы
чириково
числа
численности
численность
чистоозе
чита
чишма
чишминскии
чкаловскии
членов
чтение
что
чтобы
чувашии
чувашия
чудиново
чудовскии
чуи
чукотскии
чумиканского
чусовскои
чухломскии
чучковскии
чъародаи
чъири
чъирит
чы
чызг
чызджы
чызджыт
чызджыты
чынд
чындз
чындзы
чынди
чындис
чырыст
чырыстии
чырыстон
чырыстонхъ
чысаи
чысыл
чысылд
ш
шабалинскии
шаблон
шаблона
шаблоне
шаблонт
шаблоны
шаблыкинскии
шадрино
шадринскии
шаи
шалии
шалинскии
шамил
шамилы
шаранскии
шарьинскии
шатковскии
шахм
шахрестаны
шахте
шахты
шахунья
шацкии
шведаг
швеи
швеци
швеции
швеция
ше
шебекинскии
шевченко
шеи
шекснинскии
шенкурскии
шие
шилово
шиловскии
шимскии
шино
шипуновскии
ширина
широкии
ширяево
ших
шишкино
шлезвиг
шолохово
шолоховскии
шостакович
шота
шотланди
шотландиаг
шотландии
шотландия
шри
штаб
штат
штатт
штатты
штаты
штера
шубино
шуи
шульгино
шумены
щ
ще
щигровскии
щучье
ъ
ы
ыг
ыл
ым
ын
ынц
ыны
ыхъ
ь
э
эвенкии
эгеи
эдуард
эи
эквадор
эквадоры
экваториалон
экз
экологическии
экологон
экономик
экономикон
экономист
экономического
экспедици
экспедиции
эл
электрон
электростанц
элемент
элементт
элементты
элементы
эль
эльбрус
эльбрусы
эмили
эмин
энергетик
энциклопеди
энциклопедии
энциклопедическии
энциклопедия
эпос
эпосе
эпосы
эр
эрнесто
эро
эртильскии
эсперанто
эсперантои
эстои
эстони
эстонии
эстония
этимологи
этимологион
этникон
этнические
этнограф
этнографи
этнографии
этнографион
этнографическое
этнография
это
этого
этои
этом
этот
эфиопия
ю
юбилеи
юга
юго
югославии
югское
юдино
южная
южно
южное
южнои
южныи
южскии
юлии
юнеско
юри
юридикон
юрии
юрино
юрист
юркино
юрт
юртовское
юрты
юрьев
юрьевецкии
юрьевка
юрьево
юрьевское
юрьянскии
юстиниан
юсьвинскии
юхновскии
юшково
я
яв
ягодное
ягънобаг
ядринскии
яз
язык
языка
языках
языке
языки
языков
языково
языкознания
яи
яков
яковлев
яковлевка
яковлево
яковлевскии
яковлевское
яковы
якутии
якутия
якутска
якшино
ям
ямаи
ямскии
янаульскии
январы
январь
января
япои
япон
япония
японы
яр
яранскии
ярославлы
ярославль
ярославская
ярославскии
ярославскои
ярцево
ясная
ясногорскии
яхт
ячеи
і
ӕ
ӕмӕ
ا
ٓ
ٔ
च
द
स
ा
ि
ी
्
চ
ট
ন
ব
ল
়
া
ি
ে
্
ப
ர
வ
ா
ி
ு
்
್
ം
ี
ู
่
้
​
‌
‎
–
—
―
‘
’
“
”
„
†
•
…
′
″
€
₽
№
←
→
↔
↷
−
≈
≥
③
④
⑦
ⴰ
ⵜ
⺀
⺄
⺆
⺈
⺊
⺌
⺕
⺝
⺸
⺼
⿰
⿱
⿲
⿳
⿴
⿵
⿶
⿷
⿸
⿹
⿺
⿻
〢
の
゙
イ
コ
ユ
㇁
㇂
㇄
㇇
㇈
㇉
㇓
㐁
㐄
㐅
㐌
㐫
㐬
㐭
㐮
㐱
㑒
㒵
㒸
㒼
㓁
㓞
㔾
㕛
㕣
㖾
㘝
㚅
㚇
㚔
㚘
㝉
㝡
㝴
㝵
㞋
㞢
㞷
㠩
㠭
㠯
㡀
㡭
㡿
㢲
㢴
㣇
㣺
㥯
㪅
㫄
㫐
㫒
㫺
㬅
㬎
㬥
㬰
㲋
㳄
㷠
㸒
㸚
㸦
㼌
㼲
㽞
㿟
䀠
䂞
䍃
䏍
䒑
䖍
䖒
䖝
䖵
䙴
䚻
䜌
䝿
䡛
䧹
䪞
一
丁
丂
七
丄
丅
丆
万
丈
三
上
下
丌
不
与
丏
丐
丑
专
且
丕
世
丘
丙
业
东
丞
丢
丣
两
严
並
丨
丩
个
丫
丬
中
丮
丰
丱
串
丵
丶
丷
丸
丹
为
主
丽
丿
乀
乂
乃
久
乆
乇
么
义
之
乌
乍
乎
乏
乐
乑
乔
乖
乗
乘
乙
乚
乛
乜
九
乞
也
习
乡
乳
乾
亀
亅
了
亇
予
争
事
二
亍
于
亏
亐
云
互
亓
五
井
亘
亚
亜
亞
亟
亠
亡
亢
交
亥
亦
产
亨
亩
享
京
亭
亮
亯
亰
亲
亳
亶
亷
人
亻
亼
亾
仁
今
介
仌
从
仐
仑
仒
仓
仕
他
付
仝
代
令
以
任
企
伊
伏
伐
休
会
伯
但
位
何
佘
余
作
佥
使
來
侈
侌
侖
侯
侵
便
保
俞
信
修
倉
倍
候
倠
備
僉
僕
儿
兀
允
兂
元
兄
充
兆
兇
先
光
兊
克
兌
免
兑
兒
兓
兔
党
兜
兟
入
全
兩
兪
八
公
六
兮
兰
共
关
兵
其
具
典
兹
兼
冀
冂
冃
冄
内
冈
冉
冊
冋
册
再
冎
冏
冐
冒
冓
冖
冗
冘
军
农
冝
冡
冥
冫
冬
冷
几
凡
凢
凵
凶
凷
凸
凹
出
函
凾
刀
刁
刂
刃
刄
刅
分
切
刍
刑
刕
刖
列
刘
则
初
別
利
别
到
制
刺
則
削
剌
前
剡
剽
劉
力
功
加
劦
助
劫
劳
劵
勃
勇
勉
勒
動
務
勞
勤
勹
勺
勻
勾
勿
匀
匂
包
匆
匈
匊
匋
匍
匕
化
北
匚
匝
匡
匪
匱
匸
匹
区
医
匽
匿
區
十
卂
千
卄
卅
卆
升
午
卉
半
卌
华
卑
卒
卓
单
卖
南
卜
卝
卞
占
卡
卢
卣
卤
卦
卩
卪
卬
卯
印
危
即
却
卵
卷
卸
卻
厂
厃
厄
历
厈
厉
厌
厓
厘
厚
原
厤
厥
厨
厭
厲
厶
厷
厸
去
厼
厽
叀
参
參
叅
又
叉
及
友
双
反
叐
发
叒
叔
叕
取
受
叚
叜
叟
口
古
句
另
叩
只
召
可
台
叱
史
右
叵
号
司
叹
吂
各
吅
合
吉
吊
吋
同
名
后
吏
向
吕
君
吝
吞
否
含
启
吳
吴
吹
吾
呂
呆
呈
告
员
呙
周
命
咅
和
咎
咠
咢
咨
咸
咼
哀
品
哉
員
哥
哲
唐
商
啇
問
啚
啬
啻
善
喜
喬
單
喿
嗇
噩
嚴
囊
囗
囘
囙
囚
四
回
囟
因
囧
囬
困
囱
囷
固
国
圂
圅
國
圍
圓
土
圡
圣
圥
在
圭
地
圶
圼
坐
坒
坚
坴
垂
垔
垚
埀
埋
城
埶
執
基
堂
堅
堆
堇
堯
塞
墨
壘
士
壬
壯
声
壳
壴
壹
壺
壽
夂
处
夅
夆
备
夊
夋
夌
复
夏
夒
夕
外
夗
夘
多
夜
夢
大
夨
天
太
夫
夬
夭
央
失
夲
头
夷
夸
夹
夻
夾
奂
奄
奇
奈
奉
奎
奏
奐
契
奓
奔
奚
奞
奠
奢
奥
奭
女
奴
奻
好
如
妄
妙
妟
妥
妻
妾
姑
委
姜
威
娄
婁
婴
嬰
嬴
子
孑
孔
孕
孖
字
存
孚
孛
孝
孟
季
孤
学
孫
孱
學
宀
宁
宂
它
宅
宇
守
安
宋
完
宏
宓
宗
官
定
宛
宜
宝
客
宣
室
宮
宰
害
家
容
宾
宿
寄
寅
密
富
寒
察
寧
審
寫
寬
寮
寸
对
寺
寻
寽
対
寿
封
尃
射
将
將
專
尉
尊
尋
尌
對
小
少
尒
尓
尔
尖
尗
尚
尞
尢
尣
尤
尧
尨
尭
就
尸
尹
尺
尻
尼
尽
尾
尿
局
居
屈
屋
屎
屏
屑
展
屖
屚
属
屠
屡
屬
屮
屯
屰
山
屵
屾
岁
岂
岑
岡
岩
岳
岸
峯
島
崇
崑
崔
崖
崙
崩
嵬
嶲
巂
巛
川
州
巟
巠
巢
巤
工
左
巧
巨
巩
巫
差
己
已
巳
巴
巷
巸
巽
巾
巿
帀
市
布
希
帚
帛
帝
带
師
席
帶
常
干
平
年
幵
并
幷
幸
幺
幻
幼
幽
幾
广
広
庄
床
底
店
庚
府
度
庫
庭
庶
康
庸
廉
廌
廛
廣
廩
廴
延
廷
建
廾
廿
开
弁
弃
弄
弇
弋
式
弓
弔
引
弗
弘
弜
弟
弥
弦
弱
張
強
强
彊
彌
彎
彐
彑
当
彔
录
彖
彗
彡
形
彥
彦
彧
彭
彳
役
彼
往
待
律
徒
得
徙
從
復
微
徵
心
忄
必
忌
忍
志
忝
忠
忩
快
念
忽
忿
思
怠
急
怱
恆
恒
恩
恭
息
悉
患
悤
悲
悶
惠
惡
惢
愁
愈
意
愛
感
慈
慧
慮
憂
憲
應
戀
戈
戉
戊
戋
戌
戍
戎
成
我
戒
戔
或
戚
戠
戢
截
戲
戶
户
戹
戼
戾
房
所
扁
扇
手
扌
才
打
托
执
承
折
拉
拜
拿
掌
推
提
摩
支
攴
攵
收
攸
改
放
政
敄
敏
敕
敖
敗
敝
敞
敢
散
敦
敫
敬
数
敷
數
斂
文
斉
斊
斗
斤
斥
斩
斬
斯
新
方
於
施
斿
旁
旋
族
无
旡
既
旣
日
旦
旧
旨
早
旬
旱
旲
时
旾
昆
昇
昌
昍
明
昏
易
昔
昗
昜
星
春
昬
是
昱
昴
昷
時
晃
晋
晏
普
景
晶
智
暑
暴
曇
曩
曰
曲
曳
更
曷
書
曹
曼
曾
替
最
朁
會
月
有
朋
服
朔
朕
朗
望
朝
木
朩
未
末
本
札
朮
术
朱
朵
朶
朿
杀
杏
杜
束
条
来
東
杲
杳
松
析
林
枚
果
枝
枲
枼
某
柔
查
柬
柰
柴
栗
桀
桑
桼
梁
條
梟
梨
棘
棠
棥
森
楚
業
楽
榮
樂
樊
欠
次
欣
欮
欲
欶
欽
款
歆
歇
歛
止
正
此
步
武
歨
歪
歮
歯
歰
歲
歴
歷
歸
歹
歺
死
殳
段
殷
殸
殹
殺
殻
殿
毋
毌
母
每
毒
比
毕
毚
毛
毳
氏
氐
民
气
氣
水
氵
氶
氷
永
氺
氾
求
汝
汞
江
沃
沓
沙
沝
泉
法
波
泣
泥
泰
洛
洪
活
派
流
浦
浪
浮
淡
淮
清
渚
渠
湯
滿
漸
火
灬
灭
灰
灵
灷
炅
炎
炏
炗
炙
炭
為
烈
烏
烝
焉
無
焦
焱
然
煞
熊
熏
燕
營
燮
爪
爫
爭
爯
爰
爱
爲
爵
父
爻
爽
爾
爿
片
牙
牚
牛
牜
牟
牢
牧
牪
牽
犀
犬
犭
犮
狂
狄
狊
独
狺
猋
猒
猪
献
獻
玄
率
玉
王
玟
玨
珎
班
琴
瑟
瑩
瓜
瓦
甘
甚
生
産
用
甫
甬
田
由
甲
申
电
甶
男
甸
甹
画
甾
畀
界
畏
畐
留
畜
畟
畢
畧
畨
番
畫
異
畱
當
畺
畾
疊
疋
疌
疑
疒
疾
癶
癸
癹
登
發
白
百
皀
皃
的
皆
皇
皋
皐
皕
皮
皷
皿
盃
盆
盇
盈
益
盍
盎
监
盒
盖
盛
盡
監
盤
盧
目
直
相
盾
省
眇
眉
看
眔
眞
真
眷
眼
眾
着
睘
睪
睿
瞏
瞢
瞿
矍
矛
矞
矢
矣
知
矦
短
石
破
碎
磊
磨
示
礻
礼
祟
票
祭
禀
禁
禸
禹
禺
离
禽
禾
禿
秀
秃
秉
秋
科
秝
秦
移
稟
穀
穌
穴
究
穹
空
穿
突
窄
窒
立
竒
竜
竝
竟
章
童
竹
笑
笠
筆
等
答
箕
算
箴
節
篤
篭
米
粉
粛
粟
粤
粦
粲
糞
糸
糹
系
約
納
素
索
紫
累
細
絜
絫
絲
維
綿
縣
繇
纍
纟
缶
网
罒
罔
罕
罗
罙
罡
罢
罪
署
罷
羅
羊
羌
羍
美
羔
羕
羗
羞
羡
羣
群
義
羲
羸
羽
翁
翏
習
翕
翟
翠
翼
老
耂
考
者
耆
而
耎
耑
耒
耳
耴
耶
耷
聂
聊
聖
聚
聶
聿
肀
肃
肅
肉
肖
肙
肥
肩
肯
育
肴
胃
背
胡
胥
能
脊
脩
膚
臣
臤
臧
自
臬
臭
臯
臱
至
致
臺
臼
臽
臾
臿
舀
舂
舄
與
興
舉
舌
舍
舛
舜
舞
舟
般
艮
良
色
艸
艹
艾
芒
芔
芬
芮
花
芳
芺
芻
苔
苗
苟
若
苦
英
茶
茸
荅
草
荒
荣
荼
莆
莧
莫
莽
菆
菊
菐
華
萬
落
葉
著
葛
董
葵
蒙
蒦
蒼
蓋
蓬
蓺
蔑
蔡
蕉
蕭
薄
薛
薦
薰
藍
藏
藥
蘭
虍
虎
虐
虒
虔
處
虖
虗
虘
虚
虛
虜
虞
虫
虽
蚤
蚩
蜀
蜜
蟲
蠡
血
行
衍
衛
衣
衤
表
衮
衰
袁
袞
褭
褱
襄
襾
西
覀
要
覃
見
規
覓
覧
親
覽
见
角
解
言
訁
訇
計
詹
語
誩
諸
讠
谷
豆
豈
豊
豐
豕
豖
豙
象
豦
豩
豪
豸
貇
貝
貞
貟
負
貢
貧
貪
貫
責
貳
貴
買
費
賁
資
賈
賏
賓
賔
賛
賞
賢
賣
質
賴
贊
贝
贡
责
贯
贲
贵
赖
赞
赤
赦
走
越
足
路
蹇
身
躬
車
軍
軎
軟
輦
车
辛
辜
辟
辥
辰
辱
農
辵
辶
边
达
过
近
连
迷
追
退
送
逆
逐
通
速
造
逢
連
逮
進
遀
遂
過
道
達
遣
適
遷
遺
邊
邑
邕
那
邦
邪
郎
部
郭
都
鄉
酉
酋
配
酓
釆
采
里
重
野
量
金
釒
錢
钅
長
镸
长
門
閃
閉
開
閏
閑
閒
間
閔
閵
閻
闌
门
间
闷
阑
阜
阝
阿
降
陳
隆
隊
隋
隡
隨
隱
隶
隹
隺
隻
隼
隽
难
雀
雁
集
雈
雋
雍
雐
雔
雙
雚
雜
雝
離
難
雨
雩
雪
雲
零
雷
需
霍
霜
霝
霞
霸
靈
靑
青
非
靡
面
靣
革
韋
韦
韭
韯
韱
音
頁
頃
項
須
頗
頡
頻
顛
页
風
风
飛
飞
食
飠
養
饣
首
香
馬
馮
駦
马
骨
高
髟
鬥
鬯
鬲
鬼
魚
魯
鮮
鱼
鲁
鳥
鳳
鸟
鹵
鹿
麃
麗
麥
麦
麻
黃
黄
黍
黎
黑
黒
黨
黹
黽
黾
鼎
鼓
鼠
鼻
齊
齋
齐
齒
齿
龍
龙
龜
龟
龠
龰
龱
龴
龵
龶
龷
龸
龹
者
艹
？
📏
📲
𠀁
𠀃
𠀆
𠀉
𠀎
𠀐
𠁁
𠁣
𠂆
𠂇
𠂈
𠂉
𠂊
𠂋
𠂎
𠂒
𠂔
𠂛
𠂡
𠂢
𠂤
𠂬
𠂭
𠂹
𠃊
𠃋
𠃌
𠃍
𠃎
𠃑
𠃓
𠃔
𠃜
𠄌
𠄎
𠄠
𠄢
𠆢
𠆥
𠇍
𠈌
𠌵
𠓜
𠔉
𠔥
𠔼
𠔽
𠔿
𠕀
𠕁
𠕋
𠘧
𠘨
𠙻
𠙼
𠚏
𠚒
𠚤
𠚪
𠣏
𠤎
𠤕
𠥓
𠦄
𠦑
𠦝
𠧒
𠧗
𠧪
𠩺
𠪚
𠫓
𠫔
𠫤
𠬛
𠬝
𠬞
𠬢
𠬤
𠬶
𠮛
𠮦
𠮷
𠯑
𠱠
𠳮
𠷎
𡈼
𡉀
𡉵
𡌥
𡍮
𡏳
𡕒
𡕩
𡕰
𡖅
𡗗
𡗜
𡘆
𡘤
𡧱
𡨄
𡩧
𡬠
𡭽
𡰣
𡰥
𡰪
𡰯
𡰱
𡷈
𡸁
𡿨
𡿩
𡿪
𡿺
𢀖
𢀛
𢀩
𢁙
𢆉
𢆰
𢆶
𢇁
𢇇
𢉖
𢌬
𢌿
𢏚
𢑑
𢑚
𢖻
𢙣
𢛳
𢦏
𢦒
𢧵
𢼄
𢾕
𣁋
𣄼
𣅀
𣅽
𣍘
𣎳
𣎵
𣏋
𣏼
𣗥
𣥂
𣥖
𣦵
𣦼
𣧄
𣪊
𣪠
𣬉
𣳾
𣶒
𤇾
𤊽
𤐫
𤓰
𤔔
𤕨
𤣩
𤰇
𤰔
𤰞
𤴓
𤴔
𤽄
𥁑
𥁕
𥃦
𥃩
𥃭
𥇡
𥑟
𥘅
𥘈
𥝢
𥫗
𥱡
𦈢
𦉪
𦉬
𦉼
𦍌
𦍒
𦎧
𦐇
𦓔
𦔮
𦘒
𦙃
𦚏
𦣝
𦣞
𦣻
𦥑
𦥔
𦥯
𦨉
𦭝
𦰩
𧆞
𧈧
𧘇
𧰨
𧴪
𧴮
𧵩
𧾷
𨸏
𨾴
𩙿
𩠐
𩫏
𩵋
𪉷
𪜀
𪟽
𪠲
𪩲
𫇦
𫔭
𫜸
𫝀
𫠣
𫠩
𫢉
𫥞
𫩏
𫩠
𫪡
𫲽
𫶧
𬀷
𬐘
𬗌
𬙙
𬛸
𬜯
𬟩
𬯁
𬴘
𬺻
𬼉
𬼖
𭀰
𭁈
𭁨
𭅰
𭑈
𭕄
𭗼
𭤨
𭥫
𭻾
𮅕
𮊿
𮍌
𮍏
𮓗
𮥼
𮧮
廾
𰀁
𰀄
𰀈
𰀉
𰀕
𰀠
𰀡
𰀢
𰀪
𰁜
𰃮
𰆊
𰆘
𰋙
𰕎
𰢴
𰧭
𰯲
00--
000--
01--
02--
03--
05--
08--
09--
1000--
1002--
1003--
1005--
1009--
1011--
1013--
1015--
1018--
1019--
1022--
1023--
1024--
1025--
1027--
1028--
1029--
1032--
1034--
1035--
1036--
1038--
1041--
1042--
1043--
1047--
1048--
1050--
1052--
1053--
1054--
1055--
1057--
1058--
1059--
1063--
1064--
1068--
1071--
1073--
1074--
1075--
1077--
1080--
1081--
1083--
1084--
1086--
1089--
1090--
1092--
1093--
1094--
1097--
1099--
1100--
1101--
1103--
1105--
1108--
1110--
1113--
1114--
1115--
1116--
1119--
1121--
1122--
1127--
1128--
1135--
1137--
1138--
1139--
1140--
1145--
1147--
1149--
1151--
1153--
1155--
1156--
1157--
1158--
1160--
1162--
1163--
1164--
1165--
1167--
1170--
1171--
1173--
1174--
1181--
1184--
1185--
1188--
1190--
1191--
1196--
1198--
1202--
1203--
1204--
1206--
1207--
1208--
1211--
1212--
1213--
1221--
1223--
1225--
1226--
1227--
1228--
1229--
1231--
1234--
1235--
1236--
1237--
1238--
1240--
1244--
1247--
1248--
1249--
1250--
1251--
1252--
1259--
1260--
1261--
1262--
1264--
1266--
1267--
1269--
1270--
1274--
1275--
1276--
1278--
1281--
1282--
1283--
1284--
1285--
1287--
1288--
1290--
1291--
1292--
1297--
1298--
1302--
1303--
1304--
1311--
1312--
1313--
1316--
1318--
1319--
1320--
1322--
1326--
1327--
1328--
1330--
1333--
1336--
1339--
1340--
1341--
1343--
1344--
1345--
1347--
1352--
1353--
1354--
1359--
1362--
1363--
1365--
1366--
1367--
1368--
1370--
1372--
1375--
1378--
1380--
1381--
1385--
1387--
1391--
1392--
1393--
1394--
1395--
1397--
1398--
1399--
1401--
1402--
1403--
1405--
1406--
1410--
1413--
1417--
1418--
1419--
1421--
1422--
1424--
1425--
1426--
1429--
1431--
1435--
1438--
1440--
1441--
1442--
1444--
1446--
1447--
1448--
1449--
1452--
1453--
1456--
1460--
1463--
1464--
1465--
1468--
1470--
1472--
1475--
1476--
1477--
1478--
1481--
1483--
1484--
1485--
1490--
1496--
1498--
1499--
1507--
1508--
1509--
1513--
1516--
1517--
1519--
1520--
1522--
1524--
1525--
1530--
1531--
1533--
1534--
1535--
1536--
1537--
1539--
1540--
1541--
1543--
1544--
1545--
1546--
1547--
1548--
1550--
1554--
1557--
1558--
1564--
1565--
1566--
1567--
1568--
1572--
1574--
1580--
1581--
1583--
1585--
1586--
1587--
1591--
1594--
1595--
1596--
1599--
1601--
1602--
1603--
1607--
1610--
1614--
1616--
1619--
1620--
1621--
1623--
1629--
1634--
1636--
1639--
1640--
1641--
1642--
1643--
1644--
1645--
1646--
1647--
1648--
1650--
1651--
1652--
1653--
1658--
1659--
1660--
1661--
1662--
1663--
1664--
1666--
1667--
1669--
1671--
1675--
1678--
1679--
1680--
1681--
1683--
1684--
1685--
1686--
1687--
1688--
1692--
1699--
1700--
1701--
1705--
1706--
1707--
1709--
1710--
1711--
1715--
1718--
1720--
1723--
1724--
1725--
1726--
1727--
1728--
1729--
1732--
1735--
1737--
1738--
1739--
1741--
1742--
1748--
1749--
1751--
1752--
1753--
1755--
1756--
1758--
1760--
1763--
1765--
1766--
1769--
1772--
1774--
1775--
1776--
1778--
1779--
1780--
1784--
1789--
1790--
1792--
1793--
1794--
1797--
1799--
1800--
1802--
1804--
1805--
1806--
1807--
1809--
1812--
1813--
1815--
1816--
1819--
1821--
1822--
1823--
1824--
1825--
1827--
1834--
1835--
1836--
1843--
1844--
1845--
1849--
1850--
1853--
1854--
1855--
1857--
1862--
1867--
1869--
1870--
1873--
1875--
1877--
1879--
1884--
1888--
1889--
1890--
1891--
1892--
1893--
1897--
1899--
1900--
1901--
1906--
1909--
1912--
1913--
1918--
1919--
1920--
1922--
1925--
1926--
1927--
1929--
1934--
1935--
1936--
1939--
1942--
1945--
1948--
1949--
1951--
1952--
1956--
1957--
1958--
1959--
1960--
1961--
1963--
1968--
1969--
1972--
1973--
1977--
1978--
1980--
1983--
1984--
1985--
1987--
1994--
1998--
1999--
2000--
2001--
2003--
2004--
2005--
2008--
2009--
2011--
2012--
2014--
2017--
2018--
2019--
2020--
2021--
2023--
2027--
2028--
2029--
2030--
2031--
2033--
2034--
2035--
2036--
2038--
2039--
2040--
2043--
2044--
2049--
2050--
2052--
2053--
2054--
2055--
2057--
2062--
2065--
2066--
2070--
2074--
2075--
2077--
2082--
2084--
2085--
2089--
2090--
2091--
2093--
2094--
2097--
2098--
2099--
2100--
2101--
2102--
2105--
2108--
2109--
2110--
2113--
2115--
2116--
2117--
2119--
2120--
2122--
2124--
2125--
2127--
2130--
2135--
2143--
2144--
2145--
2146--
2271--
255--
257--
260--
263--
264--
265--
266--
268--
275--
281--
284--
285--
286--
287--
290--
291--
292--
293--
294--
295--
296--
304--
305--
306--
309--
311--
312--
314--
315--
316--
317--
318--
320--
321--
322--
323--
324--
325--
326--
327--
328--
329--
331--
332--
333--
334--
335--
336--
337--
338--
339--
340--
342--
343--
344--
345--
346--
347--
348--
349--
350--
351--
352--
353--
354--
355--
356--
357--
358--
359--
360--
361--
362--
363--
364--
365--
366--
367--
368--
369--
370--
371--
372--
373--
374--
375--
376--
377--
378--
379--
380--
381--
382--
383--
384--
385--
386--
387--
388--
389--
390--
391--
392--
393--
394--
395--
396--
397--
398--
399--
400--
401--
402--
403--
404--
405--
406--
407--
408--
409--
410--
411--
412--
413--
414--
415--
416--
417--
418--
419--
420--
421--
422--
423--
424--
425--
426--
427--
428--
429--
430--
431--
432--
433--
434--
435--
436--
437--
438--
439--
440--
441--
442--
443--
444--
445--
446--
447--
448--
449--
450--
451--
452--
453--
454--
455--
456--
457--
458--
459--
460--
461--
462--
463--
464--
465--
466--
467--
468--
469--
470--
471--
472--
473--
474--
475--
476--
477--
478--
479--
480--
481--
482--
483--
484--
485--
486--
487--
488--
489--
490--
491--
492--
493--
494--
495--
496--
497--
498--
499--
500--
501--
502--
503--
504--
505--
506--
507--
508--
509--
510--
511--
512--
513--
514--
515--
516--
517--
518--
519--
520--
521--
522--
523--
524--
525--
526--
527--
528--
529--
530--
531--
532--
533--
534--
535--
536--
537--
538--
539--
540--
541--
542--
543--
544--
545--
546--
547--
548--
549--
550--
551--
552--
553--
554--
555--
556--
557--
558--
559--
560--
561--
562--
563--
564--
565--
566--
567--
568--
569--
570--
571--
572--
573--
574--
575--
576--
577--
578--
579--
580--
581--
582--
583--
584--
585--
586--
587--
588--
589--
590--
591--
592--
593--
594--
595--
596--
597--
598--
599--
600--
601--
602--
603--
604--
605--
606--
607--
608--
609--
610--
611--
612--
613--
614--
615--
616--
617--
618--
619--
620--
621--
622--
623--
624--
625--
626--
627--
628--
629--
630--
631--
632--
633--
634--
635--
636--
637--
638--
639--
640--
641--
642--
643--
644--
645--
646--
647--
648--
649--
650--
651--
652--
653--
654--
655--
656--
657--
658--
659--
660--
661--
662--
663--
664--
665--
666--
667--
668--
669--
670--
671--
672--
673--
674--
675--
676--
677--
678--
679--
680--
681--
682--
683--
684--
685--
686--
687--
688--
689--
690--
691--
692--
693--
694--
695--
696--
697--
698--
699--
700--
701--
702--
703--
704--
705--
706--
707--
708--
709--
710--
711--
712--
713--
714--
715--
716--
717--
718--
719--
720--
721--
722--
723--
724--
725--
726--
727--
728--
729--
730--
731--
732--
733--
734--
735--
736--
737--
738--
739--
740--
741--
742--
743--
744--
745--
746--
747--
748--
749--
750--
751--
752--
753--
754--
755--
756--
757--
758--
759--
760--
761--
762--
763--
764--
765--
766--
767--
768--
769--
770--
771--
772--
773--
774--
775--
776--
777--
778--
779--
780--
781--
782--
783--
784--
785--
786--
787--
788--
789--
790--
791--
792--
793--
794--
795--
796--
797--
798--
799--
800--
801--
802--
803--
804--
805--
806--
807--
808--
809--
810--
811--
812--
813--
814--
815--
816--
817--
818--
819--
820--
821--
822--
823--
824--
825--
826--
827--
828--
829--
830--
831--
832--
833--
834--
835--
836--
837--
838--
839--
840--
841--
842--
843--
844--
845--
846--
847--
848--
849--
850--
851--
852--
853--
854--
855--
856--
857--
858--
859--
860--
861--
862--
863--
864--
865--
866--
867--
868--
869--
870--
871--
872--
873--
874--
875--
876--
877--
878--
879--
880--
881--
882--
883--
884--
885--
886--
887--
888--
889--
890--
891--
892--
893--
894--
895--
896--
897--
898--
899--
900--
901--
902--
903--
904--
905--
906--
907--
908--
909--
910--
911--
912--
913--
914--
915--
916--
917--
918--
919--
920--
921--
922--
923--
924--
925--
926--
927--
928--
929--
930--
931--
932--
933--
934--
935--
936--
937--
938--
939--
940--
941--
942--
943--
944--
945--
946--
947--
948--
949--
950--
951--
952--
953--
954--
955--
956--
957--
958--
959--
960--
961--
962--
963--
964--
965--
966--
967--
968--
969--
970--
971--
972--
973--
974--
975--
976--
977--
978--
979--
980--
981--
982--
983--
984--
985--
986--
987--
988--
989--
990--
991--
992--
993--
994--
995--
996--
997--
998--
999--
aa--
ab--
ac--
acad--
acce--
ad--
add--
ae--
af--
afr--
ag--
ah--
ai--
al--
alex--
all--
alp--
am--
an--
ant--
any--
ap--
app--
append--
ar--
arg--
args--
as--
assi--
asso--
at--
att--
au--
av--
aw--
awar--
ba--
bal--
bar--
base--
be--
ben--
ber--
bi--
biblio--
bl--
blo--
bo--
box--
br--
brac--
bru--
bu--
bur--
by--
ca--
cali--
cam--
can--
car--
cas--
cau--
cauca--
ce--
cer--
ch--
cham--
chart--
che--
cho--
chr--
ci--
cir--
cl--
co--
coll--
com--
con--
cons--
consideras--
contri--
cor--
corpo--
country--
cr--
cro--
cu--
cur--
cy--
da--
dan--
dark--
data--
de--
deuts--
di--
dire--
dis--
distri--
do--
dr--
dro--
du--
duis--
ea--
ear--
ec--
ed--
edu--
ef--
ei--
el--
em--
en--
ent--
entriestolookup--
ep--
er--
es--
est--
eu--
ev--
eval--
ex--
exp--
expl--
fa--
fe--
fi--
fl--
flag--
flo--
fo--
font--
foot--
for--
format--
fr--
fran--
fu--
ga--
gar--
ge--
gene--
genitivus--
geogr--
get--
gi--
gl--
go--
gol--
goro--
gr--
group--
gu--
h--
ha--
har--
he--
her--
hi--
hist--
ho--
hor--
hu--
i--
id--
ig--
il--
illu--
im--
image--
impl--
in--
incr--
indi--
init--
inst--
inte--
inter--
intr--
ir--
is--
it--
iv--
j--
ja--
je--
jo--
js--
ju--
k--
ka--
kara--
kate--
ke--
key--
ki--
kir--
kl--
ko--
kr--
ku--
l--
la--
lang--
last--
le--
li--
lin--
line--
list--
lo--
lu--
ly--
m--
ma--
map--
mar--
me--
mer--
mes--
meta--
mi--
micr--
mis--
mo--
modi--
mon--
mona--
mont--
mu--
mult--
mur--
my--
n--
na--
nase--
nat--
ne--
nev--
new--
next--
nic--
nn--
no--
nor--
novo--
ns--
nu--
num--
o--
obs--
off--
ok--
ol--
om--
open--
or--
os--
out--
p--
pa--
par--
para--
parse--
pas--
ped--
pen--
per--
pes--
pet--
pi--
pl--
plat--
po--
popu--
por--
port--
pra--
pre--
pro--
pt--
pu--
publ--
pur--
q--
qu--
qui--
r--
ra--
ray--
raz--
re--
reg--
reli--
render--
result--
ro--
ru--
s--
sa--
samouprav--
sch--
schol--
scr--
se--
ser--
set--
sh--
si--
situ--
sk--
sl--
slo--
so--
some--
source--
sp--
spec--
sq--
st--
stav--
sto--
str--
stu--
su--
sub--
sugg--
supp--
sw--
sy--
syms--
t--
tam--
tat--
te--
tem--
temp--
tempo--
ter--
territ--
text--
th--
thou--
tigr--
title--
to--
tor--
tr--
trad--
trans--
tu--
tur--
ty--
type--
u--
un--
up--
ur--
us--
v--
ve--
ver--
vi--
vla--
vo--
vol--
vulg--
w--
wat--
watch--
we--
wiki--
wil--
win--
x--
xx--
y--
z--
za--
zh--
æ--
α--
λ--
ν--
ρ--
а--
аб--
абак--
абат--
абрамо--
абро--
абы--
ав--
авд--
авдее--
аве--
ави--
авто--
автобу--
автоном--
аг--
агъ--
ад--
ади--
адис--
админ--
адо--
аз--
аи--
ак--
акро--
акци--
акъ--
ал--
але--
алек--
алексее--
алеш--
али--
алле--
алы--
аль--
ам--
амар--
амфи--
амы--
ан--
анда--
анде--
андже--
андр--
андриа--
ани--
анне--
анно--
анти--
антип--
анто--
антропо--
ап--
ар--
ара--
араз--
аргу--
ард--
аре--
арк--
армя--
арт--
арш--
ас--
аскъ--
асп--
аст--
ат--
атмо--
ау--
аф--
афан--
афанасье--
афты--
афы--
ах--
ахал--
ахвле--
ахы--
ац--
ачъ--
аш--
ая--
б--
ба--
баб--
бабы--
бав--
баг--
багд--
баграти--
бад--
бае--
баже--
баз--
баи--
бак--
бакла--
бакуы--
бал--
бар--
барано--
бас--
бат--
баф--
бафи--
бафта--
бафы--
бах--
бац--
баш--
башки--
башмако--
бе--
беж--
без--
безвод--
бекето--
беко--
бела--
белг--
бели--
бело--
бель--
беля--
беляе--
бен--
бенду--
бер--
бере--
бетхо--
би--
биб--
биби--
био--
биосфе--
бит--
бихъар--
биш--
бла--
благо--
благовеще--
бли--
ближ--
бо--
боб--
богд--
богдано--
богос--
бое--
болот--
боль--
больше--
бон--
бор--
боро--
борт--
бот--
бота--
ботаниче--
боч--
бояр--
брат--
бре--
бри--
бру--
бры--
брю--
бря--
бу--
буб--
буза--
бук--
бул--
булга--
бур--
бурду--
буре--
бут--
бутурли--
буха--
буш--
бълг--
бы--
быгъ--
бын--
быс--
быч--
бю--
в--
ва--
вави--
ваг--
вад--
важ--
ван--
вар--
вас--
васю--
вах--
ваш--
вв--
вве--
введен--
вд--
ве--
велико--
велоси--
венгеро--
вере--
верт--
верхне--
верш--
вершин--
весе--
вест--
вет--
веш--
вз--
ви--
вид--
вики--
виль--
вин--
виног--
виш--
вла--
власо--
во--
вод--
водо--
водя--
вое--
вож--
воз--
воздуш--
возмож--
вознесе--
вок--
вол--
воло--
волч--
воль--
воп--
воро--
ворон--
вороно--
ворот--
воспо--
восточ--
вс--
вто--
вы--
выбор--
вын--
высо--
выш--
вя--
вяз--
вязо--
вят--
г--
га--
габ--
гав--
газ--
гал--
гам--
гамкре--
ган--
гат--
гви--
гг--
гд--
ге--
гег--
гене--
генераль--
гео--
ги--
гидро--
гиль--
гитар--
гл--
гла--
глав--
глаз--
глу--
глуш--
гля--
гни--
го--
гог--
гол--
голов--
голуб--
гом--
гон--
гончаро--
гор--
горбу--
горно--
гос--
госуд--
град--
граж--
граждан--
гре--
гремя--
гри--
гриба--
гриш--
гришин--
гро--
гру--
грузин--
гряз--
гу--
гудж--
гул--
гур--
гурье--
гуы--
гуыр--
гъ--
гъуы--
гы--
д--
да--
давыд--
давыдо--
дам--
дан--
даро--
дас--
дау--
дач--
дв--
дви--
де--
деклар--
деле--
деме--
демидо--
демо--
демографиче--
демок--
демон--
демья--
ден--
денисо--
деревя--
деря--
дет--
дж--
джа--
джава--
дже--
джи--
джо--
джы--
дз--
дзан--
дзе--
дзи--
дзо--
дзома--
дзу--
дзы--
дзырд--
ди--
див--
дивизи--
дин--
дис--
дли--
дми--
дмитро--
до--
доб--
добро--
дов--
дол--
долго--
дом--
дон--
донбе--
доны--
дополнитель--
дор--
доро--
доце--
др--
дре--
древ--
дро--
друж--
ду--
дуб--
дуби--
дубо--
дубро--
дубров--
дур--
духов--
душ--
ды--
дыргъ--
дь--
дэ--
дю--
дят--
е--
ев--
еги--
егоро--
егорье--
ежо--
ел--
ела--
елба--
елбызды--
еле--
ели--
елх--
елхо--
елхъ--
ель--
ем--
еме--
емелья--
еп--
ер--
ере--
ермако--
ермо--
еро--
ершо--
еры--
ес--
есе--
еси--
еф--
ефимо--
ж--
жар--
же--
желе--
железнодорож--
женщ--
жи--
жив--
жиг--
жир--
жу--
жуков--
жуп--
жура--
журав--
жю--
з--
за--
забе--
заг--
заголо--
зад--
зал--
залес--
зальц--
зап--
запад--
запруд--
зар--
зарече--
зарин--
заха--
захаро--
заяв--
зве--
зви--
зд--
зе--
зеле--
зем--
зз--
зи--
зим--
злын--
зм--
зна--
зны--
зо--
золо--
зон--
зонд--
зоо--
зооп--
зоро--
зру--
зуб--
зубцо--
зуе--
зул--
зы--
зыря--
и--
ив--
иг--
игум--
иде--
идео--
идр--
иев--
иер--
иж--
иже--
из--
извест--
изме--
икъ--
ил--
иллюстр--
ило--
иль--
им--
имп--
ин--
инва--
инве--
ингуш--
индо--
иници--
иннокентье--
ино--
интер--
инф--
иор--
ир--
иркут--
ис--
исако--
искус--
исследователь--
исто--
иу--
иуда--
ифт--
их--
иш--
ию--
к--
ка--
каба--
кад--
каж--
каз--
каза--
казар--
казачин--
кал--
кали--
калин--
кало--
каль--
каме--
камы--
камыш--
камыше--
кан--
канаш--
кант--
кап--
капи--
капус--
кар--
кара--
каре--
карпо--
карто--
касп--
ката--
кате--
като--
каф--
кач--
каче--
каш--
кв--
кве--
ке--
кедро--
ки--
киев--
кикн--
кинемато--
кино--
кирее--
кири--
кич--
киш--
кк--
кл--
кле--
клетня--
климо--
клю--
кн--
княж--
ко--
коб--
кобе--
ков--
код--
кож--
кожев--
коз--
козьмодемья--
коко--
кол--
колес--
количе--
коллек--
коло--
колосо--
колп--
колы--
коль--
ком--
компью--
кон--
конг--
конова--
консерв--
констру--
консу--
конт--
контине--
конф--
конфе--
коп--
копе--
кор--
коре--
корн--
коро--
корп--
корс--
корч--
корш--
коря--
коси--
космиче--
косо--
кост--
кот--
котель--
кото--
коч--
коче--
кош--
коше--
крае--
крап--
крапив--
крас--
краса--
красно--
красногор--
кре--
крем--
креме--
крестья--
кри--
криво--
кро--
кру--
круп--
круто--
кры--
крыло--
крым--
крю--
ку--
куб--
кув--
кугу--
куж--
кузнецо--
кузь--
кули--
куль--
куп--
курб--
курд--
кури--
куро--
курч--
кус--
куту--
куч--
куш--
къ--
къад--
къас--
къах--
къи--
къо--
къуб--
къум--
къус--
къух--
къуы--
къуыдар--
кы--
кырдж--
кю--
л--
ла--
лаб--
лав--
лавро--
лаг--
лазаре--
лам--
лап--
лар--
лари--
лас--
лбе--
лв--
лви--
лвиды--
лвы--
лг--
лд--
ле--
лебе--
лебеде--
лев--
лег--
леге--
лед--
лек--
лен--
леоп--
лес--
лесо--
лет--
ли--
лим--
лип--
липи--
липо--
лисс--
литви--
лито--
лич--
лл--
лм--
ло--
лоб--
лоба--
лог--
лож--
лом--
ломо--
лоп--
лош--
лт--
лу--
лубя--
луго--
луж--
луки--
лукья--
луч--
лх--
лхъ--
лц--
лцъ--
лы--
лысогор--
лыч--
ль--
льво--
льно--
лью--
лю--
люб--
люби--
любимо--
любо--
ля--
ляхо--
м--
ма--
маг--
маз--
мак--
макаро--
мал--
мало--
маль--
мамы--
ман--
мар--
марии--
мартья--
марьин--
марья--
мас--
маслов--
масля--
мат--
матвее--
матю--
мах--
маш--
маэ--
мб--
мг--
ме--
мег--
мед--
медведе--
медя--
меж--
меле--
мель--
мельнич--
мен--
мене--
мень--
мери--
мерк--
меш--
ми--
миг--
мид--
мик--
микро--
мин--
мир--
миро--
мит--
митин--
митро--
мих--
михее--
мич--
мичурин--
миш--
мо--
моби--
мож--
моисее--
мок--
мола--
моллю--
моло--
молоч--
мон--
мор--
моро--
морфо--
моско--
мосо--
мосто--
мото--
мохо--
моч--
мош--
мс--
мт--
му--
муж--
муль--
мульт--
муницип--
муха--
муш--
мх--
мы--
мыды--
мырза--
мыс--
мыш--
мэ--
мя--
мяки--
мясни--
н--
на--
наг--
нагор--
над--
надеждин--
наз--
назаро--
наи--
нак--
нал--
нап--
нар--
народ--
нарт--
нас--
нау--
наумо--
науч--
нах--
нач--
нг--
нд--
ндаг--
ндж--
не--
невья--
нег--
неи--
нек--
некрасо--
нем--
необ--
неп--
нестеро--
неч--
нечае--
ни--
ниж--
ниже--
нижне--
низ--
низо--
ник--
ники--
никитин--
никифоро--
никулин--
никуль--
нк--
нко--
нн--
нно--
но--
нови--
новин--
ново--
ног--
ном--
номин--
ноч--
нт--
ну--
нур--
нхъ--
нц--
ны--
ныб--
ныв--
ныр--
ныс--
ныууад--
ныфс--
ню--
о--
об--
обл--
обнов--
обо--
образо--
обрат--
обсерв--
обще--
объе--
объяв--
обыкновен--
ов--
ови--
овся--
овчин--
ог--
од--
озг--
озе--
ок--
ока--
оке--
оккуп--
око--
окси--
оку--
оле--
оли--
оль--
ольхо--
омс--
омут--
он--
оп--
опред--
опыт--
ор--
орган--
орехо--
орфо--
ос--
осе--
оси--
осино--
основ--
осо--
оста--
осташ--
ось--
от--
отдель--
оте--
отк--
отно--
отоб--
отрад--
отрадне--
охо--
охот--
ош--
п--
па--
пав--
пави--
павли--
пад--
паз--
пак--
пал--
паль--
памят--
пан--
пани--
пано--
панси--
панте--
пань--
пар--
паро--
парфе--
пас--
пат--
патаг--
патри--
пах--
паш--
пе--
пед--
пен--
пень--
пер--
перво--
пере--
переве--
перенап--
перес--
песч--
песья--
петро--
петропав--
пех--
печ--
пече--
пеш--
пи--
пиа--
пик--
пил--
пин--
пир--
пис--
пла--
плат--
пле--
плеш--
пло--
плот--
по--
побе--
повя--
погоре--
под--
поддуб--
подсо--
пож--
поз--
пока--
пол--
поли--
полови--
полу--
поль--
поля--
поме--
поп--
поро--
пота--
поте--
поч--
пп--
прав--
правитель--
пре--
пред--
предна--
прези--
преображе--
при--
присое--
про--
прове--
прого--
прок--
пролет--
прон--
проп--
проте--
проце--
прош--
пру--
пруд--
прудо--
пси--
пу--
публи--
пур--
пус--
пут--
пути--
пуш--
пъ--
пы--
пыш--
пыщуг--
пьем--
пя--
пят--
пяти--
р--
ра--
раб--
рав--
раг--
рад--
ради--
радио--
рае--
раз--
разг--
раи--
рак--
рако--
рам--
раме--
рас--
раси--
раст--
рат--
рах--
рахы--
раци--
рб--
рбабы--
рв--
рвыл--
рг--
ргъ--
рд--
рдо--
ре--
ред--
реж--
резе--
рези--
резуль--
рекон--
реп--
рес--
рефе--
реч--
реше--
рз--
ри--
рибар--
рим--
рин--
рис--
рк--
рл--
рм--
рн--
ро--
ров--
рог--
рого--
род--
роди--
родин--
рож--
рожде--
рождестве--
рощин--
рс--
рт--
ру--
руб--
руд--
рус--
рф--
рх--
рхон--
рхъ--
рц--
ры--
рыб--
рын--
рыч--
рю--
ря--
ряб--
ряби--
рябо--
ряз--
рязан--
с--
са--
саба--
сав--
сави--
саг--
сад--
садо--
сак--
сал--
салты--
саль--
само--
самп--
самс--
сан--
сап--
сар--
сарато--
саргат--
сат--
сау--
саф--
сах--
сая--
сб--
св--
сверд--
сви--
свобод--
свя--
сг--
сдел--
се--
сев--
север--
сек--
сел--
сель--
сем--
семи--
сен--
сене--
сень--
сер--
сергее--
серго--
серновод--
сече--
си--
сибир--
сив--
сид--
силь--
сим--
симе--
син--
сит--
ситу--
сиу--
ск--
ска--
ско--
ску--
скульп--
скъ--
сл--
сла--
слав--
славя--
сле--
служеб--
см--
сме--
смир--
смо--
смоле--
смоль--
смоля--
смор--
сн--
сне--
снеж--
со--
соб--
собо--
содер--
сол--
солдат--
соли--
солом--
соля--
сом--
сон--
сообще--
соответ--
соп--
сорокин--
сот--
соф--
софь--
соци--
социаль--
социо--
сп--
спек--
специ--
спи--
спо--
ср--
срав--
сре--
сред--
средне--
сс--
ссы--
ст--
ста--
старо--
стд--
сте--
степ--
степано--
стиу--
сто--
стол--
стор--
сторо--
стр--
стре--
стъара--
су--
суа--
суб--
суббо--
сузд--
сук--
супер--
сур--
сус--
сухо--
суш--
суще--
сф--
сх--
схы--
съе--
сы--
сын--
сь--
сю--
сюне--
ся--
т--
та--
тав--
тавриче--
так--
тальме--
там--
тамбо--
тан--
тар--
тарасо--
тас--
тат--
тау--
таш--
тв--
твер--
творче--
те--
теб--
теге--
теле--
телег--
тем--
тенн--
тео--
тепло--
тер--
тере--
терехо--
терро--
техно--
ти--
тим--
тимирязе--
тимо--
тимофее--
тин--
типо--
тито--
тих--
тиш--
тк--
ткъ--
тм--
тме--
то--
тоболь--
ток--
тол--
том--
топ--
топо--
тор--
торо--
тот--
точ--
тр--
трав--
трак--
тран--
тре--
треть--
три--
тро--
тростя--
троф--
троя--
тру--
труб--
труфа--
тт--
ту--
туаг--
туг--
тур--
тъ--
тъе--
ты--
тыгъд--
тых--
тэ--
тю--
тюме--
у--
уа--
уарз--
уб--
уваж--
уваро--
уве--
уг--
уд--
удар--
удмурт--
уе--
уж--
уз--
уи--
ул--
уль--
улья--
ум--
ун--
уни--
уо--
уп--
управ--
ур--
уро--
урс--
ус--
усо--
успе--
ут--
уу--
уч--
участ--
уш--
ушако--
уще--
уы--
ф--
фад--
фаз--
фак--
фал--
фан--
фар--
фатья--
фаш--
фе--
фед--
федо--
фео--
фех--
фехъуы--
фи--
фиг--
фид--
физ--
фил--
филар--
фили--
филиппо--
фин--
фла--
фло--
фо--
фоно--
фор--
фос--
фото--
фран--
фри--
фро--
фс--
фт--
функ--
фур--
фы--
фыд--
фыды--
фын--
х--
ха--
хадзы--
хал--
хан--
харак--
харе--
хари--
харл--
харь--
хат--
хау--
хач--
хва--
хво--
хворостя--
хд--
хе--
хи--
хиды--
хиз--
хлеб--
хме--
хо--
холод--
хому--
хон--
хор--
хорео--
хос--
хох--
хре--
хреб--
хроно--
хру--
хс--
хсар--
хст--
ху--
худ--
худож--
хун--
хур--
хуы--
хх--
ххуы--
хче--
хъ--
хъан--
хъантемы--
хъар--
хъес--
хъо--
хъоба--
хъуп--
хъус--
хъуы--
хъы--
хъыг--
хъыз--
ц--
цагъ--
цар--
цве--
це--
цели--
цер--
ци--
циви--
цимля--
циф--
цо--
цоп--
цу--
цц--
цъ--
цъе--
цъы--
цы--
цыхуы--
ч--
ча--
чаг--
чал--
чам--
чан--
чано--
чап--
чапае--
чар--
чах--
чаш--
чащ--
че--
чел--
челяби--
чер--
чердын--
чере--
черка--
черн--
черна--
черни--
черниго--
черно--
черны--
черныше--
черня--
черт--
чесно--
чехос--
чече--
чж--
чи--
чико--
чин--
чинов--
чист--
чкало--
чо--
чу--
чуб--
чуваш--
чуд--
чул--
чум--
чун--
чур--
чъ--
чъре--
чъы--
чъыл--
чы--
чысан--
ш--
ша--
шаб--
шаг--
шад--
шак--
шал--
шам--
шан--
шань--
шап--
шар--
шара--
шат--
шах--
шахо--
ше--
шеве--
шексп--
шемя--
шеста--
ши--
шиг--
шии--
шил--
шило--
шин--
шипи--
шир--
широ--
шиш--
шко--
школь--
шл--
шо--
шор--
шос--
шта--
шти--
шу--
шуб--
шува--
шул--
шум--
шун--
шур--
шуш--
щ--
ще--
щетин--
щу--
ы--
э--
эве--
эди--
эк--
эко--
экономиче--
экс--
экспер--
эл--
элек--
электро--
эль--
эми--
эмиг--
энге--
энгель--
эне--
эп--
эпизо--
эр--
эри--
эст--
эт--
этно--
этю--
эф--
ю--
юж--
юро--
я--
яб--
яблоно--
явенг--
яг--
ягод--
яз--
яку--
якут--
якш--
ям--
янв--
янг--
яр--
яросла--
яш--
ӕ--
--0
--00
--000
--001
--002
--003
--004
--005
--006
--007
--008
--009
--01
--010
--011
--012
--013
--014
--015
--016
--017
--018
--019
--02
--020
--021
--022
--023
--024
--025
--026
--027
--028
--029
--03
--030
--031
--032
--033
--034
--035
--036
--037
--038
--039
--04
--040
--041
--042
--043
--044
--045
--046
--047
--048
--049
--05
--050
--051
--052
--053
--054
--055
--056
--057
--058
--059
--06
--060
--061
--062
--063
--064
--065
--066
--067
--068
--069
--07
--070
--071
--072
--073
--074
--075
--076
--077
--078
--079
--08
--080
--081
--082
--083
--084
--085
--086
--087
--088
--089
--09
--090
--091
--092
--093
--094
--095
--096
--097
--098
--099
--1
--10
--100
--101
--102
--103
--104
--105
--106
--107
--108
--109
--11
--110
--111
--112
--113
--114
--115
--116
--117
--118
--119
--12
--120
--121
--122
--123
--124
--125
--126
--127
--128
--129
--13
--130
--131
--132
--133
--134
--135
--136
--137
--138
--139
--14
--140
--141
--142
--143
--144
--145
--146
--147
--148
--149
--15
--150
--151
--152
--153
--154
--155
--156
--157
--158
--159
--16
--160
--161
--162
--163
--164
--165
--166
--167
--168
--169
--17
--170
--171
--172
--173
--174
--175
--176
--177
--178
--179
--18
--180
--181
--182
--183
--184
--185
--186
--187
--188
--189
--19
--190
--191
--192
--193
--194
--195
--196
--197
--198
--199
--2
--20
--200
--201
--202
--203
--204
--205
--206
--207
--208
--209
--21
--210
--211
--212
--213
--214
--215
--216
--217
--218
--219
--22
--220
--221
--222
--223
--224
--225
--226
--227
--228
--229
--23
--230
--231
--232
--233
--234
--235
--236
--237
--238
--239
--24
--240
--241
--242
--243
--244
--245
--246
--247
--248
--249
--25
--250
--251
--252
--253
--254
--255
--256
--257
--258
--259
--26
--260
--261
--262
--263
--264
--265
--266
--267
--268
--269
--27
--270
--271
--272
--273
--274
--275
--276
--277
--278
--279
--28
--280
--281
--282
--283
--284
--285
--286
--287
--288
--289
--29
--290
--291
--292
--293
--294
--295
--297
--298
--299
--3
--30
--300
--301
--302
--303
--304
--305
--306
--307
--308
--309
--31
--310
--311
--312
--313
--314
--315
--316
--317
--318
--319
--32
--320
--321
--322
--323
--324
--325
--326
--327
--328
--329
--33
--330
--331
--332
--333
--334
--335
--336
--337
--338
--339
--34
--340
--341
--342
--343
--344
--345
--346
--347
--348
--349
--35
--350
--351
--352
--353
--354
--355
--356
--357
--358
--359
--36
--360
--361
--362
--363
--364
--366
--367
--368
--369
--37
--370
--371
--372
--373
--374
--375
--376
--377
--378
--379
--38
--380
--381
--382
--383
--384
--385
--386
--387
--388
--389
--39
--390
--391
--392
--393
--394
--395
--396
--397
--398
--399
--4
--40
--400
--401
--402
--403
--404
--405
--406
--407
--408
--409
--41
--410
--411
--412
--413
--414
--415
--416
--417
--418
--419
--42
--420
--421
--422
--423
--424
--425
--426
--427
--428
--429
--43
--430
--431
--432
--433
--434
--435
--436
--437
--438
--439
--44
--440
--441
--442
--443
--444
--445
--446
--447
--448
--449
--45
--450
--451
--452
--453
--454
--455
--456
--457
--458
--459
--46
--460
--461
--462
--463
--464
--465
--466
--467
--468
--469
--47
--470
--471
--472
--473
--474
--475
--476
--477
--478
--479
--48
--480
--481
--482
--483
--484
--485
--486
--487
--488
--489
--49
--490
--491
--492
--493
--494
--495
--496
--497
--498
--499
--5
--50
--500
--501
--502
--503
--504
--505
--506
--507
--508
--509
--51
--510
--511
--512
--513
--514
--515
--516
--517
--518
--519
--52
--520
--521
--522
--523
--524
--525
--526
--527
--528
--529
--53
--530
--531
--532
--533
--534
--535
--536
--537
--538
--539
--54
--540
--541
--542
--543
--544
--545
--546
--547
--548
--549
--55
--550
--551
--552
--553
--554
--555
--556
--557
--558
--559
--56
--560
--561
--562
--563
--564
--565
--566
--567
--568
--569
--57
--570
--571
--572
--573
--574
--575
--576
--577
--578
--579
--58
--580
--581
--582
--583
--584
--585
--586
--587
--588
--589
--59
--590
--591
--592
--593
--594
--595
--596
--597
--598
--599
--6
--60
--600
--601
--602
--603
--604
--605
--606
--607
--608
--609
--61
--610
--611
--612
--613
--614
--615
--616
--617
--618
--619
--62
--620
--621
--622
--623
--624
--625
--626
--627
--628
--629
--63
--630
--631
--632
--633
--634
--635
--636
--637
--638
--639
--64
--640
--641
--642
--643
--644
--645
--646
--647
--648
--649
--65
--650
--651
--652
--653
--654
--655
--656
--657
--658
--659
--66
--660
--661
--662
--663
--664
--665
--666
--667
--668
--669
--67
--670
--671
--672
--673
--674
--675
--676
--677
--678
--679
--68
--680
--681
--682
--683
--684
--685
--686
--687
--688
--689
--69
--690
--691
--692
--693
--694
--695
--696
--697
--698
--699
--7
--70
--700
--701
--702
--703
--704
--705
--706
--707
--708
--709
--71
--710
--711
--712
--713
--714
--715
--716
--717
--718
--719
--72
--720
--721
--722
--723
--724
--725
--726
--727
--728
--729
--73
--730
--731
--732
--733
--734
--735
--736
--737
--738
--739
--74
--740
--741
--742
--743
--744
--745
--746
--747
--748
--749
--75
--750
--751
--752
--753
--754
--755
--756
--757
--758
--759
--76
--760
--761
--762
--763
--764
--765
--766
--767
--768
--769
--77
--770
--771
--772
--773
--774
--775
--776
--777
--778
--779
--78
--780
--781
--782
--783
--784
--785
--786
--787
--788
--789
--79
--790
--791
--792
--793
--794
--795
--796
--797
--798
--799
--8
--80
--800
--801
--802
--803
--804
--805
--806
--807
--808
--809
--81
--810
--811
--812
--813
--814
--815
--816
--817
--818
--819
--82
--820
--821
--822
--823
--824
--826
--827
--828
--829
--83
--830
--831
--832
--833
--834
--835
--836
--837
--838
--839
--84
--840
--841
--842
--843
--844
--845
--846
--847
--848
--849
--85
--850
--851
--852
--853
--854
--855
--856
--857
--858
--859
--86
--860
--861
--862
--863
--864
--865
--866
--867
--868
--869
--87
--870
--871
--872
--873
--874
--875
--876
--877
--878
--879
--88
--880
--881
--882
--883
--884
--885
--886
--887
--888
--889
--89
--890
--891
--892
--893
--894
--895
--896
--897
--898
--899
--9
--90
--900
--901
--902
--903
--904
--905
--906
--907
--908
--909
--91
--910
--911
--912
--913
--914
--915
--916
--917
--918
--919
--92
--920
--921
--922
--923
--924
--925
--926
--927
--928
--929
--93
--930
--931
--932
--933
--934
--935
--936
--937
--938
--939
--94
--940
--941
--942
--943
--944
--945
--946
--947
--948
--949
--95
--950
--951
--952
--953
--954
--955
--956
--957
--958
--959
--96
--960
--961
--962
--963
--964
--965
--966
--967
--968
--969
--97
--970
--971
--972
--973
--974
--975
--976
--977
--978
--979
--98
--980
--981
--982
--983
--984
--985
--986
--987
--988
--989
--99
--990
--991
--992
--993
--994
--995
--996
--997
--998
--999
--a
--ab
--ae
--age
--ago
--ai
--ain
--al
--am
--an
--ana
--ance
--ang
--ans
--ar
--ard
--ark
--ary
--as
--at
--ata
--ate
--ated
--ation
--ations
--atus
--au
--ay
--b
--ble
--bot
--box
--c
--ca
--cal
--cale
--cat
--ce
--cell
--ces
--ch
--cio
--ck
--co
--code
--ct
--d
--da
--dar
--data
--date
--de
--do
--ds
--e
--ea
--ect
--ed
--ee
--el
--elsovet
--em
--en
--ent
--entity
--ents
--er
--era
--ered
--ern
--ers
--ert
--ery
--es
--ess
--est
--et
--ete
--ets
--eus
--ever
--ey
--f
--fer
--ff
--g
--ga
--ge
--gen
--ger
--ging
--go
--gs
--h
--ha
--hen
--hing
--hington
--ht
--hy
--i
--ia
--ial
--ian
--ible
--ic
--ica
--ical
--ics
--ict
--id
--ie
--ied
--ier
--ies
--ig
--ii
--ik
--il
--im
--impl
--in
--ine
--ing
--io
--ion
--ions
--ious
--ir
--is
--ish
--ision
--ism
--it
--ite
--ity
--ium
--ius
--ive
--ix
--iya
--iz
--ize
--ized
--j
--ja
--k
--ka
--ke
--ked
--ket
--key
--ki
--ko
--ks
--l
--la
--land
--ld
--le
--ler
--les
--li
--light
--ling
--link
--lis
--list
--ll
--lla
--lly
--lm
--lo
--ls
--lus
--ly
--m
--ma
--man
--map
--me
--ment
--mp
--n
--na
--name
--nce
--nd
--nds
--ne
--ner
--ng
--ni
--nia
--nian
--nica
--ning
--nis
--nk
--nn
--no
--ns
--nse
--nsk
--nt
--nus
--nx
--ny
--o
--oe
--ofdeath
--og
--oi
--oke
--ol
--om
--on
--ons
--oon
--op
--or
--ors
--ort
--ory
--os
--ot
--ov
--ovo
--ovsk
--ow
--p
--params
--pe
--ped
--ps
--pt
--pus
--q
--r
--ra
--ral
--rd
--re
--ref
--rg
--ri
--ria
--rial
--rie
--ring
--ris
--rl
--rm
--rn
--ro
--ros
--rr
--rs
--rsk
--rt
--rta
--rted
--ry
--s
--sa
--se
--sed
--sen
--ses
--sh
--ship
--si
--sia
--side
--sion
--sis
--sk
--skij
--skiy
--sm
--son
--ss
--st
--sus
--sy
--t
--ta
--tal
--tamp
--tatement
--te
--ted
--ter
--tes
--text
--th
--ti
--ting
--tion
--tions
--title
--tive
--to
--ton
--tor
--tors
--tr
--ts
--tus
--ty
--type
--tz
--u
--ub
--ue
--ul
--ula
--ular
--um
--up
--ur
--ure
--url
--urs
--us
--ut
--v
--va
--value
--ve
--ver
--vka
--vo
--vsk
--w
--ws
--x
--y
--ya
--z
--za
--ze
--α
--ι
--ς
--а
--аа
--аба
--ав
--ава
--ави
--авино
--аг
--аги
--агом
--агомы
--агъд
--ад
--ада
--аджы
--адз
--адм
--адо
--ады
--аев
--аева
--аево
--ает
--аж
--аз
--аи
--аид
--аиккои
--аит
--ак
--акаи
--аки
--аков
--аково
--ал
--ала
--алон
--алт
--алы
--альная
--ального
--альное
--альнои
--альныи
--альных
--ам
--ама
--ами
--ан
--ана
--анд
--ани
--ание
--ании
--аниха
--ания
--анка
--ано
--анов
--анова
--аново
--анс
--анскии
--ант
--анты
--аны
--ань
--ао
--ар
--ара
--ари
--ариха
--арка
--арм
--арон
--ары
--арын
--ас
--аск
--асов
--асово
--аст
--асы
--ат
--ата
--ати
--ативон
--атик
--атм
--атов
--атово
--атор
--атори
--атт
--аты
--ать
--ау
--аут
--ауы
--ауын
--ах
--ахи
--ахъ
--ац
--аци
--ации
--ач
--аче
--ачево
--ачи
--ачы
--аш
--ашево
--аши
--ашово
--ая
--б
--ба
--баево
--баи
--бан
--баш
--бе
--бег
--би
--бино
--бки
--бл
--бо
--бон
--бр
--бы
--быр
--в
--ва
--вает
--вать
--вая
--вд
--ве
--вер
--вец
--ви
--вии
--вик
--вин
--вица
--вицы
--вич
--вк
--вка
--вки
--во
--вого
--вое
--вом
--вон
--вская
--вскии
--вское
--вскои
--вта
--вщина
--вы
--вые
--вых
--вье
--г
--га
--гаг
--гаи
--гард
--гда
--ге
--ген
--гер
--ги
--гино
--го
--гово
--гом
--гомау
--гомы
--гон
--гонд
--град
--грады
--гт
--гу
--гун
--гъ
--гы
--д
--да
--дар
--дд
--де
--дев
--дж
--джы
--джын
--джыт
--дз
--дзау
--дзаут
--дзе
--дзеи
--дзин
--ди
--дис
--дка
--дки
--дм
--до
--дов
--дово
--дон
--дра
--дс
--дт
--дта
--ду
--дух
--ды
--дь
--дя
--е
--еб
--ев
--ева
--евич
--евка
--ево
--евск
--евская
--евы
--ег
--еги
--ед
--еди
--еев
--еево
--еж
--ез
--еи
--ек
--екс
--ел
--ела
--еле
--ели
--елы
--ель
--ельно
--еля
--ем
--ен
--ена
--енево
--ение
--ения
--енко
--енково
--енн
--енно
--енное
--еннои
--ент
--ены
--ень
--енье
--ер
--ера
--ери
--ерик
--ерово
--ерон
--ерт
--еры
--ерь
--ес
--ест
--есы
--ет
--етово
--ется
--етт
--еты
--еть
--еу
--еуы
--ец
--ецкая
--ецкии
--ецкое
--ея
--ж
--жа
--жаи
--же
--жен
--жи
--жии
--жик
--жка
--жная
--жное
--жок
--жы
--жын
--жыт
--жыты
--жье
--з
--за
--заг
--зат
--заци
--зации
--зг
--зд
--зе
--зен
--зи
--зин
--зинад
--зинады
--зки
--зм
--змы
--зо
--зов
--зон
--зт
--зу
--зы
--зыд
--зын
--зя
--и
--иа
--иаг
--иаи
--иал
--иан
--иат
--иаты
--иб
--ив
--ивон
--игонд
--ид
--идзе
--идт
--иды
--ие
--иев
--ием
--из
--изм
--измы
--ии
--ик
--ика
--ики
--иккои
--икон
--икт
--ил
--ила
--илат
--ило
--илово
--илы
--иль
--им
--имово
--имы
--ин
--ина
--инаг
--инад
--ине
--ини
--инка
--инки
--инныи
--ино
--инск
--инскии
--инское
--инт
--инты
--инцы
--ины
--ио
--ион
--ип
--ир
--иры
--ис
--ист
--истик
--истон
--истт
--ит
--ита
--ите
--ити
--итово
--иты
--ить
--иу
--иф
--ификаци
--ифт
--их
--иха
--иц
--ица
--ици
--иции
--ицкое
--ицы
--ич
--ичи
--ичы
--ишвили
--ище
--ищево
--ищи
--ию
--ия
--иях
--к
--ка
--каг
--каева
--кан
--кас
--кат
--кая
--ке
--ки
--кие
--кии
--кин
--кина
--кино
--кк
--кка
--ккон
--ко
--ково
--кого
--кое
--кои
--кол
--ком
--кон
--кс
--кт
--кты
--ку
--куль
--къ
--къат
--кы
--л
--ла
--лав
--лан
--лая
--ле
--лер
--лец
--ли
--лин
--лино
--лиха
--лия
--лк
--лка
--лл
--лла
--ллы
--ло
--лов
--лово
--лон
--лт
--лук
--лы
--лыи
--ль
--лье
--льм
--льно
--льт
--ля
--м
--ма
--маа
--маи
--ме
--меево
--мен
--мент
--мечание
--ми
--мо
--мов
--мово
--мскии
--мское
--мт
--му
--мы
--мышево
--н
--на
--над
--нат
--ная
--нг
--нга
--нд
--нда
--ндз
--не
--нево
--нее
--нер
--нец
--нз
--ни
--ние
--ник
--никово
--нино
--нит
--нить
--нию
--ния
--ниях
--нк
--нка
--нки
--нко
--нм
--нное
--но
--нов
--ново
--ного
--ное
--нои
--ном
--ности
--ность
--нот
--нс
--нск
--нская
--нское
--нт
--нти
--нтов
--нты
--ную
--нц
--нцево
--нци
--нцы
--ны
--ные
--ныи
--ных
--нь
--нье
--ня
--няк
--нять
--няя
--о
--об
--ов
--ова
--овать
--овая
--овец
--овик
--овина
--овица
--ович
--овичи
--овка
--овки
--овня
--ово
--овое
--овои
--овск
--овская
--овскии
--овское
--овцы
--овщина
--овы
--овые
--овыи
--овых
--овье
--ог
--оги
--огии
--ого
--од
--ода
--одо
--оды
--ое
--ожно
--оз
--озы
--ои
--ок
--оки
--окии
--ол
--ола
--олы
--оль
--олье
--ом
--омы
--он
--онд
--онды
--оне
--онт
--оны
--оп
--ополы
--ополь
--ор
--ора
--ории
--орово
--ород
--орск
--орт
--оры
--орье
--ос
--ост
--ость
--осы
--от
--ота
--оты
--оу
--офеево
--ох
--охово
--очка
--очки
--очно
--ошево
--оян
--п
--па
--пе
--пи
--писи
--пп
--пр
--пс
--пы
--р
--ра
--рг
--рд
--ре
--рево
--ри
--рид
--рии
--рк
--рм
--рма
--рн
--ро
--ров
--рова
--рово
--ровы
--рон
--рп
--рск
--рт
--рты
--ру
--ры
--рь
--рье
--с
--са
--сам
--се
--си
--сии
--сим
--сит
--сия
--ск
--ская
--ски
--ские
--скии
--ским
--ских
--ско
--ского
--ское
--скои
--ском
--скому
--скы
--со
--сово
--сс
--ст
--сти
--стик
--стт
--стты
--сты
--сть
--су
--сы
--сь
--сье
--ся
--т
--та
--таи
--тан
--тау
--тации
--тва
--те
--тез
--тель
--ти
--тиан
--тии
--тик
--тикон
--тим
--тис
--тка
--тки
--тм
--то
--тов
--тово
--тои
--ток
--тон
--тор
--тся
--тт
--ттат
--тты
--ту
--ты
--тыи
--тыл
--тыт
--тыты
--ть
--тьево
--у
--уа
--уал
--уар
--уат
--уаты
--уг
--уги
--уд
--уево
--ует
--ужье
--уз
--уи
--ук
--ул
--ули
--улово
--уль
--ум
--умы
--ун
--уни
--уново
--уны
--уп
--ур
--ури
--урт
--уры
--ус
--ут
--ух
--уха
--ухъ
--уц
--уша
--уши
--ушка
--уы
--уыр
--уырты
--ую
--уя
--ф
--фа
--фе
--фо
--фр
--фт
--фф
--фы
--х
--ха
--хе
--хи
--хо
--хово
--хт
--хъ
--хъы
--хы
--хья
--ц
--ца
--це
--цев
--цева
--цево
--ци
--ции
--цит
--ция
--цк
--цкая
--цкии
--цкое
--цово
--цы
--ч
--ча
--че
--чев
--чево
--чен
--ческие
--ческии
--ческих
--чи
--чии
--чик
--чит
--чиха
--чка
--чки
--чно
--чо
--чу
--чы
--чь
--чье
--чья
--ш
--ша
--шаг
--швили
--ше
--шево
--ши
--шир
--шка
--шки
--шкин
--шня
--шово
--шур
--шы
--шь
--щ
--ща
--ще
--щево
--щи
--щина
--ъ
--ъа
--ъаи
--ъат
--ъд
--ъе
--ъо
--ът
--ъта
--ъы
--ы
--ыг
--ыд
--ые
--ыз
--ызт
--ыи
--ык
--ыл
--ым
--ын
--ынм
--ынц
--ыны
--ыр
--ырбег
--ырд
--ырт
--ыры
--ыс
--ысс
--ыст
--ысты
--ыт
--ыты
--ых
--ыхъ
--ыц
--ыш
--ь
--ьга
--ье
--ьев
--ьево
--ьи
--ька
--ьки
--ьма
--ьныи
--ьск
--ьскии
--ьское
--ься
--ьт
--ьф
--ьцы
--ья
--ьян
--э
--ю
--юг
--юз
--юк
--юм
--юр
--ют
--ющии
--я
--яево
--яи
--як
--яки
--ял
--ям
--ями
--ян
--яны
--яр
--ят
--ята
--ять
--ях
--яш
--і
--ӕ
--ӕи
