!
"
#
##0
##1
##10
##11
##12
##13
##14
##15
##16
##17
##18
##19
##2
##20
##21
##22
##23
##24
##25
##26
##27
##28
##29
##3
##30
##31
##32
##33
##34
##35
##36
##37
##38
##39
##4
##40
##41
##42
##43
##44
##45
##46
##47
##48
##49
##5
##50
##51
##52
##53
##54
##55
##56
##57
##58
##59
##6
##60
##61
##62
##63
##64
##65
##66
##67
##68
##69
##7
##70
##71
##72
##73
##74
##75
##76
##77
##78
##79
##8
##80
##81
##82
##83
##84
##85
##86
##87
##88
##89
##9
##90
##91
##92
##93
##94
##95
##96
##97
##98
##99
$
%
&
'
(
)
*
+
,
-
.
/
0
00
000
0001
0004
001
0019
002
0022
003
004
005
006
007
008
009
01
010
011
012
013
014
0140
015
016
017
01798
018
019
02
020
021
0248
025
026
027
03
0300091656
0362
04
05
050
0500017980
06
07
08
09
09165
1
10
100
1000
1001
1002
1006
1007
101
1012
1015
1016
1017
102
1021
1023
1029
103
1035
1037
1038
1039
104
1046
105
1050
1051
1054
1056
1057
106
1066
107
1073
108
1080
1086
1088
109
1093
1095
1097
1098
11
110
1100
1103
111
1111
112
1126
113
1130
1136
114
1146
115
1150
116
117
1170
1177
118
1180
1185
1186
119
12
120
1200
1204
121
1215
122
123
124
1240
1241
125
1250
126
1261
127
1270
128
129
13
130
1300
131
132
1328
133
134
1348
135
1350
1353
136
1365
1368
137
1370
1371
138
139
14
140
1400
141
1415
142
1420
1425
143
1431
1439
144
145
1450
1453
1455
146
1460
1467
1469
147
1470
1471
1473
1475
1476
1477
1478
148
1480
1481
1483
1485
1486
1488
149
1490
1492
1493
1494
1497
1498
1499
15
150
1500
1501
1502
1503
1504
1505
1506
1509
151
1510
1512
1513
1515
1516
1517
1518
1519
152
1520
1521
1523
1524
1525
1526
1527
1528
1529
153
1530
1532
1533
1534
1535
1536
1537
1538
154
1540
1541
1542
1543
1545
1546
1547
1549
155
1550
1552
1553
1555
1556
1557
1558
1559
156
1560
1561
1562
1564
1565
1566
1567
1568
157
1570
1571
1572
1574
1575
1576
1577
158
1580
1581
1582
1584
1585
1586
1587
1588
1589
159
1590
1591
1592
1594
1595
1596
1597
1598
1599
16
160
1600
1601
1602
1603
1604
1605
1606
1607
1608
1609
161
1610
1611
1612
1613
1614
1615
1616
1617
1618
1619
162
1620
1621
1622
1623
1624
1625
1626
1627
1628
1629
163
1630
1631
1632
1633
1634
1635
1636
1637
1638
1639
164
1640
1641
1642
1643
1644
1645
1646
1647
1648
1649
165
1650
1651
1652
1653
1654
1655
1656
1657
1658
1659
166
1660
1661
1662
1663
1664
1665
1666
1667
1668
1669
167
1670
1671
1672
1673
1674
1675
1676
1677
1678
1679
168
1680
1681
1682
1683
1684
1685
1686
1687
1688
1689
169
1690
1691
1692
1693
1694
1695
1696
1697
1698
1699
17
170
1700
1701
1702
1703
1704
1705
1706
1707
1708
1709
171
1710
1711
1712
1713
1714
1715
1716
1717
1718
1719
172
1720
1721
1722
1723
1724
1725
1726
1727
1728
1729
173
1730
1731
1732
1733
1734
1735
1736
1737
1738
1739
174
1740
1741
1742
1743
1744
1745
1746
1747
1748
1749
175
1750
1751
1752
1753
1754
1755
1756
1757
1758
1759
176
1760
1761
1762
1763
1764
1765
1766
1767
1768
1769
177
1770
1771
1772
1773
1774
1775
1776
1777
1778
1779
178
1780
1781
1782
1783
1784
1785
1786
1787
1788
1789
179
1790
1791
1792
1793
1794
1795
1796
1797
1798
1799
18
180
1800
1801
1802
1803
1804
1805
1806
1807
1808
1809
181
1810
1811
1812
1813
1814
1815
1816
1817
1818
1819
182
1820
1821
1822
1823
1824
1825
1826
1827
1828
1829
183
1830
1831
1832
1833
1834
1835
1836
1837
1838
1839
184
1840
1841
1842
1843
1844
1845
1846
1847
1848
1849
185
1850
1851
1852
1853
1854
1855
1856
1857
1858
1859
186
1860
1861
1862
1863
1864
1865
1866
1867
1868
1869
187
1870
1871
1872
1873
1874
1875
1876
1877
1878
1879
188
1880
1881
1882
1883
1884
1885
1886
1887
1888
1889
189
1890
1891
1892
1893
1894
1895
1896
1897
1898
1899
19
190
1900
1901
1902
1903
1904
1905
1906
1907
1908
1909
191
1910
1911
1912
1913
1914
1915
1916
1917
1918
1919
192
1920
1921
1922
1923
1924
1925
1926
1927
1928
1929
193
1930
1931
1932
1933
1934
1935
1936
1937
1938
1939
194
1940
1941
1942
1943
1944
1945
1946
1947
1948
1949
195
1950
1951
1952
1953
1954
1955
1956
1957
1958
1959
196
1960
1961
1962
1963
1964
1965
1966
1967
1968
1969
197
1970
1971
1972
1973
1974
1975
1976
1977
1978
1979
198
1980
1981
1982
1983
1984
1985
1986
1987
1988
1989
199
1990
1991
1992
1993
1994
1995
1996
1997
1998
1999
2
20
200
2000
2001
2002
2003
2004
2005
2006
2007
20078357
2008
2009
201
2010
2011
2012
2013
2014
2015
2016
2017
2018
2019
202
2020
2021
2022
2023
2024
2025
2026
2027
2028
203
2030
2031
204
2041
205
2050
206
207
208
209
21
210
2100
211
212
213
214
215
216
217
2172
218
219
22
220
2200
221
222
223
224
225
226
227
228
229
23
230
2307
231
232
233
234
235
236
237
238
239
24
240
241
242
243
244
245
24528
246
247
248
249
25
250
2500
251
252
253
254
255
256
257
258
259
26
260
261
262
263
264
265
266
267
268
269
27
270
271
272
273
274
275
2759
276
277
278
279
28
280
281
282
283
284
285
286
287
288
289
29
290
291
292
293
294
295
296
2966
297
298
299
3
30
300
3000
301
302
303
304
305
306
307
308
309
31
310
311
312
313
314
315
316
3166
317
318
319
32
320
321
322
323
324
325
326
327
328
329
33
330
331
332
333
334
335
336
337
338
339
34
340
341
342
343
344
345
346
347
348
349
35
350
3500
351
352
353
354
355
356
357
358
359
36
360
3600
361
362
363
364
365
366
367
368
369
37
370
371
372
373
374
375
376
377
378
379
38
380
381
382
383
384
3847
385
386
387
388
389
39
390
391
392
393
394
395
396
397
398
399
4
40
400
4000
401
402
4020
403
404
405
4051
406
407
408
409
41
410
411
412
413
414
415
416
417
418
419
42
420
421
422
423
424
425
426
427
428
429
43
430
431
432
433
4331
434
435
436
437
438
439
44
440
441
442
443
444
445
446
447
448
449
45
450
451
452
453
454
455
456
457
458
459
46
460
461
462
463
464
465
466
467
468
469
47
470
471
472
473
474
475
476
477
478
479
48
480
481
482
483
484
485
486
487
488
489
49
490
491
492
493
494
495
496
497
498
499
5
50
500
5000
501
502
503
504
505
506
507
508
509
51
510
511
512
513
514
515
516
517
518
519
52
520
521
522
523
524
525
526
527
528
529
53
530
531
532
533
534
535
536
537
538
539
54
540
541
542
543
544
545
546
547
548
55
550
551
552
553
554
555
556
557
558
559
56
560
561
562
563
564
565
566
567
568
569
57
570
571
572
573
574
575
578
579
58
580
581
582
583
584
585
586
587
588
589
59
590
591
592
593
594
595
596
597
598
599
6
60
600
6000
601
602
603
604
605
606
607
608
609
61
610
611
612
613
614
615
616
617
618
62
620
621
622
623
624
625
6256
626
627
628
63
630
631
632
633
634
635
636
6361
637
638
639
64
640
641
642
643
645
646
647
649
65
650
651
652
653
654
655
656
66
660
661
662
664
666
667
668
669
67
670
671
672
6736
674
675
679
68
680
681
683
684
685
687
688
689
69
690
691
692
695
7
70
700
7000
701
702
705
707
708
709
71
710
711
712
715
7153
717
718
719
72
720
721
722
724
725
726
727
729
73
730
731
732
733
736
737
74
740
741
742
743
744
745
747
748
75
750
751
752
7537
757
759
76
760
767
77
770
77007
77009
771
775
77578
77584
777
778
78
780
787
79
790
7914
7981
8
80
800
8000
8014
8018
802
804
8047
805
81
810
8108
814
817
82
820
824
8248
825
83
830
832
833
84
840
842
843
844
84476
85
850
85323
855
858
86
860
867
86842
86872
869
86919
86977
87
870
875093
876
877
879
88
880
883
884
885
89
890
897
9
90
900
90210
907
908409
91
910
911
912
915
917
92
920
920033
921
924
926
928
93
930
936
937
94
940
95
950
96
960
962
963
965
967
97
970
975
978
98
980
981
982
99
995
999
:
;
<
=
>
?
@
[
\
]
^
_
`
a
aa
aalwyn
aalwyne
aalwynspesies
aan
aanbeveel
aanbeveling
aanbevelings
aanbevole
aanbid
aanbidding
aanbied
aanbieder
aanbieding
aanbiedings
aanbly
aanbod
aanboord
aanbou
aanbreek
aanbring
aand
aandag
aande
aandeel
aandeelhouer
aandeelhouers
aandele
aandelebeurs
aandete
aandoen
aandrang
aandring
aandryf
aandrywing
aandui
aanduiding
aanduidings
aaneenlopend
aaneenlopende
aangaan
aangaande
aangebied
aangebly
aangebore
aangebou
aangebreek
aangebring
aangedoen
aangedrewe
aangedring
aangedryf
aangedui
aangee
aangegaan
aangegee
aangegroei
aangegryp
aangehaal
aangehang
aangehelp
aangehoor
aangehou
aangekla
aangeknoop
aangekom
aangekondig
aangekoop
aangele
aangeleenthede
aangeleentheid
aangeleer
aangemeld
aangemoedig
aangenaam
aangename
aangeneem
aangenome
aangepak
aangepas
aangepaste
aangeplant
aangeraai
aangeraak
aangerand
aangerig
aangese
aangesien
aangesig
aangeskaf
aangeskakel
aangeslaan
aangesluit
aangespoor
aangespreek
aangesteek
aangestel
aangetas
aangeteken
aangetekende
aangetoon
aangetref
aangetrek
aangetrokke
aangeval
aangevoer
aangevra
aangevul
aangevuur
aangewakker
aangewend
aangewese
aangewys
aangrensend
aangrensende
aangrypende
aanhaling
aanhalings
aanhang
aanhanger
aanhangers
aanhangig
aanhou
aanhoudend
aanhoudende
aanhouding
aanklaer
aanklag
aanklagte
aanklank
aankom
aankomelinge
aankoms
aankondig
aankondiging
aankoop
aankope
aanle
aanleer
aanleg
aanlegte
aanleiding
aanliggende
aanloop
aanloopbaan
aanloopbane
aanlyn
aanlynensiklopedie
aanmekaar
aanmerking
aanmoedig
aanmoediging
aanname
aannames
aanneem
aanneming
aanpak
aanpas
aanpassing
aanpassings
aanplant
aanraak
aanraking
aanranding
aanrig
aansien
aansienlik
aansienlike
aansig
aanskou
aanslae
aanslag
aansluit
aansluitend
aansluiting
aansoek
aansoeke
aansporing
aanspraak
aanspraakmaker
aanspraakmakers
aansprake
aanspreek
aanspreeklik
aanspreekvorm
aansteeklike
aanstel
aanstelling
aanstoot
aantal
aantas
aanteken
aantekening
aantekeninge
aantoon
aantrek
aantrekking
aantrekkingskrag
aantreklik
aantreklike
aantreklikhede
aantreklikheid
aantygings
aanvaar
aanvaarbaar
aanvaarbare
aanvaarde
aanvaarding
aanval
aanvalle
aanvallende
aanvaller
aanvallers
aanvang
aanvanklik
aanvanklike
aanvoer
aanvoerder
aanvoering
aanvraag
aanvul
aanvullende
aanvulling
aanwend
aanwending
aanwesig
aanwesigheid
aanwysend
aanwysings
aap
aaptos
aar
aard
aardbewing
aardbewings
aardbol
aarde
aardgas
aardklop
aardkors
aardoppervlak
aardrykskunde
aardse
aardverwarming
aaron
aartappel
aartappels
aartsbisdom
aartsbiskop
aas
aasvoe
ab
abba
abbado
abbas
abbey
abbott
abc
abchasie
abd
abdel
abdikasie
abdikeer
abdomen
abdu
abdul
abdullah
abdy
abe
abeba
abel
abell
abend
abenteuer
aberdeen
abigail
ablatief
able
abnormale
aboe
aborsie
about
above
abraham
abrahams
abrams
abroad
abs
absa
abseits
absolute
absolutely
absoluut
absorbeer
absorpsie
abstract
abstrak
abstrakte
absurde
abu
abuse
ac
acacia
acade
academia
academic
academica
academy
acanthascus
acanthella
acarnidae
acarnus
accademia
accepted
access
accessed
accident
accidental
accipiter
according
account
accounting
accounts
accused
ace
aces
achaemenidiese
achenaten
achievement
achille
achilles
acid
ackerman
ackermann
acre
acres
acrocephalus
across
acs
act
acta
acting
action
active
activities
activity
actor
actors
actress
acts
actually
ad
ada
adad
adagio
adam
adams
adaptation
add
addams
addiction
addis
addisionele
addison
address
ade
adel
adelaide
adele
adelheid
adellike
adellikes
adelstand
aden
adi
adidas
adjunk
adjunkminister
adjunkpresident
adler
administrasie
administrateur
administrateurs
administratief
administratiewe
administration
administreer
admiraal
admiral
adolescence
adolescent
adolessensie
adolessente
adolf
adolph
adonis
adorno
adres
adresse
adri
adriaan
adrian
adriana
adrianus
adriatiese
adrienne
adult
adults
adv
advanced
advances
advent
adventure
adventures
advertensie
advertensies
advertiser
advice
advies
adviseer
adviseur
adviseurs
advocate
advokaat
advokate
ae
aero
aeronautics
aerospace
af
afar
afbeelding
afbeeldings
afbetaal
afbreek
afc
afd
afdeling
afdelings
afdelingsraad
afdraai
afdrukke
afdwing
afer
affair
affairs
affekteer
afganistan
afgebaken
afgebeeld
afgebrand
afgebreek
afgedank
afgedruk
afgedwing
afgee
afgegee
afgehandel
afgekap
afgekeur
afgekoel
afgekom
afgekondig
afgekort
afgelaai
afgelas
afgele
afgelee
afgelei
afgeleide
afgelewer
afgelope
afgemaak
afgeneem
afgeplat
afgeplatte
afgerig
afgerond
afgeset
afgesien
afgesit
afgeskaf
afgeskakel
afgeskei
afgeskiet
afgeskop
afgesluit
afgesny
afgesonder
afgesonderde
afgespeel
afgestaan
afgestig
afgestorwenes
afgetrede
afgetree
afgetrek
afgevaardig
afgevaardigde
afgevaardigdes
afgevuur
afgeweer
afgewerp
afgewissel
afgewyk
afgewys
afghaanse
afghanistan
afhang
afhangend
afhangende
afhanklik
afhanklike
afhanklikheid
afi
afkeer
afkeur
afkoel
afkoeling
afkoms
afkomstig
afkorting
afkortings
aflaai
aflandige
afle
aflei
afleiding
afleidings
aflewering
aflewerings
afloop
afmetings
afname
afneem
afr
afraid
afri
africa
african
africana
africans
africanus
afriforum
afrigter
afrigting
afrika
afrikaan
afrikaans
afrikaansche
afrikaanse
afrikaansmedium
afrikaanssprekende
afrikaanssprekendes
afrikalande
afrikane
afrikaner
afrikanerbond
afrikaners
afrikanervolk
afrique
afro
afrodite
afsetting
afsettings
afsien
afskaffing
afskei
afskeid
afskeiding
afskrif
afslaan
afsluit
afsluiting
afsondering
afsonderlik
afsonderlike
afspeel
afspraak
afstaan
afstam
afstammeling
afstammelinge
afstand
afstande
afsterwe
afstig
afstigting
aftak
aftakeling
after
afterlife
aftermath
afternoon
aftrede
aftree
aftrek
afvaardiging
afval
afvoer
afwaarts
afwaartse
afwagting
afwerking
afwesig
afwesigheid
afwisselend
afwisselende
afwisseling
afwyk
afwykende
afwyking
afwykings
ag
again
against
agamemnon
agatha
agathis
age
aged
agelas
agena
agency
agenda
agent
agente
agents
agentskap
agentskappe
ages
agglomerasie
aggressie
aggressief
aggressiewe
agnes
ago
agrariese
agreement
agricultural
agriculture
agrippa
agste
agt
agter
agterbly
agtereenvolgende
agtereenvolgens
agtergebly
agtergelaat
agtergrond
agtergronde
agterkant
agterkleinseun
agterkom
agterlaat
agterlyf
agterna
agterpote
agterste
agtertoe
agteruit
agteruitgaan
agteruitgang
agteruitgegaan
agtervoegsel
agtervolg
agtien
agtiende
agtige
agting
agtste
agttien
agulhas
ah
ahasveros
ahead
ahmad
ahmed
ahmet
ai
aid
aids
aim
aime
ain
ainoe
air
airbus
aircraft
aires
airline
airlines
airplane
airport
airports
airways
ais
aischulos
aise
aix
aj
ajat
ajax
ak
aka
akademia
akademici
akademie
akademies
akademiese
akademikus
akbar
aken
akira
akkad
akkadies
akkadiese
akkedis
akkedisse
akker
akkers
akko
akkommodasie
akkommodeer
akkoord
akkuraat
akkuraatheid
akkurate
akkusatief
akoestiese
akr
akroniem
akropolis
aksent
aksie
aksies
akte
akteur
akteurs
aktief
aktiewe
aktiveer
aktivis
aktivisme
aktiviste
aktiwiteit
aktiwiteite
aktrise
aktrises
aktuele
akupunktuur
akute
akwarium
akwariums
akwitanie
al
ala
alabama
aladdin
alain
alamo
alamos
alan
alarm
alaska
alba
alban
albanees
albanese
albanie
albany
albatros
albe
albedo
albei
albert
alberta
albertinia
alberto
alberton
alberts
albertus
albertyn
albon
albrecht
album
albums
albuquerque
alcatraz
alchemie
alchemist
aldaar
aldo
aldrich
aldus
ale
alec
aleksander
aleksandr
aleksandra
aleksandrowitsj
aleksei
alemanne
alemanniese
aleppo
alert
alessandro
aletta
alex
alexa
alexander
alexandra
alexandre
alexandria
alexandrie
alexios
alexis
alf
alfa
alfabet
alfabetiese
alfabette
alfonso
alfred
alfredo
algaande
alge
algebra
algebrai
algehele
algemeen
algemeenste
algemene
algerie
algiers
algoabaai
algoritme
alheit
alhier
alhoewel
ali
alias
alibi
alice
alicia
alida
alien
aliens
alison
alive
aliwal
alix
alkaloi
alkohol
alkoholiese
alkoholisme
all
alla
allah
allan
alle
alledaagse
alleen
alleenlik
alleenlopers
alleenstaande
allegorie
allegoriese
allegro
allele
allen
allende
aller
allerhande
allerlei
allerwee
alles
allesbehalwe
alletiders
alley
allgemeine
alliance
alliansie
alliansies
allied
allison
allmusic
allo
ally
alma
almal
almanac
almanak
almeida
almost
aloe
aloha
alone
along
alonso
alpe
alpes
alpha
alphabet
alphonse
alpynse
alreeds
als
also
alt
altaar
altaarstuk
altai
altar
alte
alten
alter
alternatief
alternatiewe
alternatiewelik
alternative
altesaam
altesame
althusser
alto
altrui
altviool
altwee
altyd
aluminium
alumni
alvarez
alvin
alvorens
always
alwyn
am
ama
amadeus
amalia
amanda
amarna
amaryllidaceae
amasone
amateur
amateurs
amazing
amazon
ambag
ambagsmanne
ambagte
ambassade
ambassades
ambassadeur
ambassador
amber
ambisie
ambisies
ambisieuse
ambition
ambrose
ambush
ame
amelia
amen
amenhotep
america
american
americana
americans
americas
amerika
amerikaans
amerikaanse
amerikaner
amerikaners
amerikas
amersfoort
ames
amfibiee
amfiteater
amg
ami
amin
aminosure
aminosuur
ammoniak
ammunisie
amnestie
amoen
amoer
among
amor
amore
amos
amour
amp
amper
amphimedon
amphoriscus
ampie
amplitude
ampstaal
ampstermyn
ampte
amptelik
amptelike
amptenaar
amptenare
amstel
amsterdam
amsterdamse
amt
amundsen
amy
an
ana
anae
anal
anale
analise
analiseer
analitiese
analoe
analoog
analysis
anarchy
anargistiese
anas
anastasia
anastasius
anatolie
anatoliese
anatomie
anatomiese
anatomy
anc
ancestry
anchor
ancient
ancorinidae
and
andante
ander
andere
anderen
anderkant
anders
andersen
andersins
andersom
anderson
andersson
andersyds
andes
andorra
andre
andrea
andreas
andrei
andrew
andrews
andries
android
andromeda
andromedae
andronikos
andrus
andrzej
andy
ang
ange
angel
angela
angeles
angelico
angelina
angelo
angels
anger
angiosperm
angkor
anglikaanse
anglo
angola
angolensis
angolese
angry
angs
angst
anguilla
angus
anhalt
anhianhi
animal
animals
animasie
animated
animation
anime
anita
anja
anjou
ankara
anker
ann
anna
annale
annals
annandale
annapolis
anne
anneksasie
annekseer
annemarie
annette
annie
anniversary
anno
announced
announces
annual
annurev
anode
anoniem
anonieme
anonymous
anorganiese
another
ans
answer
answers
ant
antananarivo
antarctic
antarctica
antarktiese
antarktika
antenne
antennes
anthem
antho
anthology
anthonie
anthony
anthropology
anthus
anti
antibiotika
antieke
antigua
antille
antiogie
antiquities
antiquity
antisemitisme
antjie
anto
antoine
antoinette
anton
antoni
antonia
antonie
antoninus
antonio
antonissen
antonius
antony
antrim
antropologie
antropoloog
antwerpen
antwoord
antwoorde
anus
any
anything
ao
ap
apa
apache
apart
aparte
apartheid
apartheidsaktivis
apartheidsbeleid
apartheidsera
apartheidsregering
apartment
ape
apes
aphia
apj
apjs
aplysina
apocalypse
apocynaceae
apokriewe
apollinaire
apollo
apollodorus
apostel
apostels
apostoliese
app
apparaat
appe
appeal
appel
appels
appendix
apple
appleton
application
applications
applied
applous
appointment
approach
approaches
apr
apre
aprika
april
aps
apteek
apteker
apus
aqua
aquarii
aquila
ar
ara
arab
arabia
arabian
arabic
arabie
arabiere
arabies
arabiese
aragon
aramee
aramees
aramese
aranos
arbei
arbeid
arbeider
arbeiders
arbeidersparty
arbeidsmag
arbitre
arbor
arc
arcadia
arch
archaeological
archaeology
archaeopteryx
arche
archer
archibald
archie
archimedes
architects
architectural
architecture
archive
archived
archives
arctic
arctotis
arden
ardenne
are
area
areas
arena
arend
arende
ares
arg
argai
argei
argentina
argentinie
argentynse
argeoloe
argeologie
argeologiese
argeoloog
argerich
argetipe
argief
argiefkopie
argiewe
argipel
argitek
argitekte
argitektoniese
argitektuur
argo
argon
argument
argumente
argumenteer
argus
ari
aria
ariane
ariarathes
arias
arie
ariel
ariese
aristokrasie
aristokratiese
aristoteles
arizona
ark
arkansas
arkel
arktiese
arles
arlington
arm
armada
armageddon
armand
armchair
arme
armed
armeens
armeense
armene
armenia
armenie
armer
armes
arminius
armoede
arms
armste
armstrong
army
arn
arne
arnhem
arno
arnold
arnoldus
aromatiese
around
arp
arrau
arrest
arrestasie
arrested
arresteer
arrival
arriveer
arrondissement
arrow
ars
arseen
art
arte
artefacts
artefakte
artemis
artes
arthur
article
articles
artificial
artikel
artikels
artillerie
artist
artistieke
artists
artritis
arts
artur
arturo
aruba
arxiv
as
asa
asbestopluma
ascension
aschenborn
asem
asemhaal
asemhaling
ash
ashanti
ashes
ashgate
ashley
ashton
asia
asian
asiaties
asiatiese
asie
asiel
asimmetriese
asimov
asin
asjanti
ask
asked
asma
asof
asook
asore
asp
aspalathus
asparagus
aspects
aspek
aspekte
asphodelaceae
aspirasies
aspx
ass
assassin
assassination
assassins
assault
asse
asseblief
assembly
assessment
assessor
assignment
assimilasie
assirie
assiriese
assistant
assistent
assistente
assistentregisseur
associated
associates
association
assosiasie
assosiasies
assur
assurbanipal
asteekse
asteke
asteraceae
asterix
asteroi
asteroid
asteroids
aston
astrid
astro
astrobiology
astrologie
astronomers
astronomical
astronomie
astronomiese
astronomiques
astronomy
astrophoto
astrophysical
astrophysics
asyn
at
ata
atei
ateljee
ateljees
atena
atheense
athena
athene
atheners
athens
athlone
athol
athos
atkins
atkinson
atkv
atlanta
atlantic
atlantiese
atlantis
atlas
atleet
atlete
atletiek
atmosfeer
atmosferiese
atmosphere
atmospheric
atol
atom
atome
atomic
atoom
atoombom
atoomgetal
atoommassa
atp
attack
attacks
attenborough
attic
attie
attila
attorney
attraction
attributief
attributiewe
atwood
au
aubrey
aucamp
auch
auckland
aucklandpark
auction
aude
auden
audi
audience
audio
audrey
auer
auf
auflage
aug
augsburg
august
augusta
auguste
augustin
augustinus
augusto
augustus
aum
aunt
aurea
aurelius
aurora
aus
auschwitz
austen
austin
australia
australian
australie
australiese
australis
australopithecus
austria
austronesiese
auteur
auteurs
author
authority
authors
autism
auto
autobiography
autosport
autumn
auvergne
aux
av
ava
available
avalon
avant
avanti
avatar
ave
avec
avenger
avengers
avenue
average
avery
aviation
avignon
aviv
avn
avondmaal
avonture
avonturier
avontuur
avril
avro
aw
awakening
awakens
award
awarded
awards
away
awb
awesome
awkward
aws
ax
axe
axel
axinella
axinellidae
axinyssa
az
azerbaijan
azerbeidjan
azerbeidjans
azerbeidjanse
aziz
azur
aɪ
aʊ
b
ba
baa
baadjie
baai
baaie
baan
baanbrekende
baanbreker
baanbrekers
baanbrekerswerk
baar
baard
baarde
baarmoeder
baas
baat
baba
babas
babbage
babbitt
babe
babel
babes
babiana
babies
babilon
babilonie
babiloniese
baby
babylon
babysitter
baccalaureus
bach
bachelor
back
background
backstage
backstreet
bacon
bad
baddens
baden
badenhorst
badlands
bae
baez
bafta
bag
bagasie
bagdad
bagheera
baha
bahai
bahamas
bahasa
bahia
bahrein
bai
baie
bailey
bain
baines
baird
bait
bak
baken
bakens
baker
bakermat
bakker
bakkie
bakkies
baklei
bakmaat
bakoe
baksteen
bakstene
bakterie
bakteriee
bal
balance
balans
balanseer
baldpate
baldwin
bale
balfour
bali
balie
balk
balkan
balke
balkema
balkon
ball
ballad
ballade
ballades
balle
ballerina
ballet
ballingskap
ballistiese
ballon
balloon
ballot
balls
balmoral
baltiese
baltimore
bam
bamberger
bamboes
ban
banana
banarsidass
bancroft
band
banda
bande
bandit
bandits
bane
bang
bangkok
bangladesh
bangladesj
banier
bank
banke
bankier
banknote
bankrot
bankrotskap
banks
bannelingskap
bantam
bantoe
bantoetale
baptist
baptiste
bar
barack
barbaarse
barbados
barbara
barbare
barbarian
barbarians
barbarossa
barber
barberton
barbie
barbier
barbuda
barbus
barcelona
bare
barefoot
barend
bariton
barium
barker
barkly
barlow
barmen
barn
barnard
barnes
barnett
barney
barnsteen
barok
barokstyl
baron
barr
barre
barrett
barrie
barrier
barriers
barrow
barry
barrydale
bars
bart
barth
bartho
bartholomeus
bartlett
barto
bartolomeo
bartolomeus
barton
bas
basaar
basale
basalt
base
baseball
based
baseer
basel
bash
basic
basies
basiese
basil
basiliek
basilius
basin
basis
basisse
baskeland
baskervilles
basketbal
baskies
baskiese
baskitaar
baskitaarspeler
basoeto
basoetoland
basotho
bass
basse
basshunter
basson
basters
bastille
bat
bataafse
bataljon
batavia
bate
bates
bath
bathurst
batista
batman
batoe
battenberg
battery
batterye
battista
battle
battles
battlestar
battling
baudelaire
bauer
bauhaus
baum
baxter
bay
bayer
baywatch
bb
bbc
bbkl
bbp
bc
bd
be
beach
beacon
beampte
beamptes
bean
beantwoord
bear
bearbei
bearbeiding
bears
beast
beasts
beat
beatles
beatrice
beatrix
beats
beau
beaufort
beaumont
beautiful
beauty
beaux
beaver
beboet
beboste
beboude
bec
became
because
beck
becker
beckett
becky
become
becomes
becoming
bed
bedags
bedank
bedanking
beddens
bedek
bedekking
bedekte
bedeling
bederf
bedford
bedien
bediendes
bediener
bedieners
bediening
bedink
bedoei
bedoel
bedoeling
bedra
bedrae
bedrag
bedreig
bedreigde
bedreiging
bedreigings
bedrewe
bedriee
bedrieg
bedrog
bedroom
bedryf
bedryfstelsel
bedryfstelsels
bedrywe
bedrywig
bedrywighede
bedtime
beduidend
beduidende
beduidendste
bee
beek
beeld
beelde
beeldende
beeldhouer
beeldhouers
beeldhoukuns
beeldhouwerk
beeldhouwerke
beelding
beeldmateriaal
beeldspraak
been
beendere
beer
beers
bees
beeste
beesvleis
beet
beethoven
befaamde
befonds
befondsing
before
begaafde
begaan
began
begeer
begeerte
begeertes
begelei
begeleiding
beggar
begin
beginjare
beginnende
beginners
beginning
beginnings
beginpunt
begins
beginsel
beginsels
begraafplaas
begraafplase
begrafnis
begrafnisse
begrawe
begrens
begrip
begrippe
begroet
begroting
begryp
behaal
behalwe
behandel
behandeling
behandelings
behartig
behavior
behavioral
behaviour
beheer
beheerde
beheerliggaam
beheerliggame
beheers
behels
behind
behoefte
behoeftes
behoeftige
behoewe
behoorlik
behoorlike
behoort
behorend
behorende
behou
behoud
behoudende
behoue
behuising
behulp
behulpsaam
bei
beide
beiere
beiers
beierse
beijer
beijing
being
beira
beiroet
beirut
beit
bejaarde
bejaardes
bejee
bek
bekamp
bekeer
beken
bekend
bekende
bekendes
bekendgemaak
bekendgestaan
bekendgestel
bekendheid
bekendstaan
bekendste
bekendstelling
bekendstes
beker
bekering
bekken
bekker
beklee
beklemtoon
beklemtoonde
beklink
beknopte
bekom
bekommerd
bekommernis
bekoor
bekostig
bekostigbare
bekragtig
bekroon
bekroonde
bekwaam
bekwaamheid
bekwame
bekyk
bel
bela
belaai
beland
belang
belange
belanggestel
belangrik
belangrike
belangriker
belangrikheid
belangrikste
belangrikstes
belangstel
belangstellendes
belangstelling
belangstellings
belarus
belarussies
belas
belasting
belastings
bele
belee
beleef
beleg
beleggers
belegging
beleggings
beleid
beleide
belemmer
belewenis
belfast
belge
belgie
belgies
belgiese
belgium
belgrado
belgravia
belief
beliefs
believe
belig
beligting
belinda
belisarius
belize
bell
bella
bellamy
belle
belles
bellevue
bellini
bello
bells
bellville
belmont
belofte
beloftes
beloning
beloof
beloofde
beloon
beloop
beloved
below
belowe
belowende
belt
bely
belydende
belydenis
bemaak
bemagtiging
beman
bemande
bemanning
bemanningslede
bemark
bemarking
bemeester
bemesting
bemiddel
bemiddelaar
bemiddeling
beminde
bemoei
bemoeilik
ben
benadeel
benader
benadering
benaderings
benadruk
benaming
benamings
bend
benda
bende
bender
bene
beneath
benede
benedeloop
benedetto
benedict
benedictus
benefit
benefits
benetton
benevento
benewens
bengaalse
bengal
bengale
benin
benito
benjamin
bennett
bennie
benny
benodig
benodigde
benoem
benoemde
benoemdes
benoeming
benoemings
benoni
benseen
benson
bent
benth
bentley
benut
benutting
benz
beoefen
beoefening
beoog
beoogde
beoordeel
beoordelaar
beoordelaars
beoordeling
beowulf
bepaal
bepaald
bepaalde
bepalende
bepaling
bepalings
beperk
beperkende
beperking
beperkinge
beperkings
beperkte
beplan
beplande
beplanning
bepleit
beproef
beproewing
ber
beraad
beraadslaag
beraam
beraamde
beraming
berbers
bere
berea
berede
berei
bereid
bereiding
bereik
bereikbaar
bereiking
bereken
berekening
berekeninge
berekenings
berg
bergagtige
berge
bergen
berger
berggebiede
bergh
berghange
berging
bergman
bergpas
bergpasse
bergpiek
bergpieke
bergquist
bergreeks
bergreekse
bergrivier
bergspits
bergspitse
berig
berigte
berillium
bering
berkeley
berlin
berliner
berlioz
berlyn
berlynse
berman
bermuda
bern
bernard
bernardino
bernardo
bernardus
bernau
bernhard
bernie
bernstein
beroemd
beroemde
beroemdste
beroep
beroepe
beroerte
berokken
beroof
berou
berry
bersillon
bert
berta
bertel
bertha
bertie
bertram
bertrand
berug
berugte
berus
berɔ
bes
beseer
beseerde
besef
besering
beserings
beset
besette
besetters
besetting
besiel
besienswaardighede
besig
besige
besighede
besigheid
besigste
besigtig
besin
besing
besinning
besit
besitting
besittings
beskaafde
beskadig
beskadigde
beskadiging
beskawing
beskawings
beskeie
beskerm
beskermde
beskermende
beskermer
beskermheer
beskermheilige
beskerming
beskik
beskikbaar
beskikbaarheid
beskikbare
beskikking
beskou
beskouing
beskouings
beskryf
beskrywende
beskrywing
beskrywings
beskuldig
beskuldigings
beskutte
beslaan
beslag
besleg
beslis
beslissend
beslissende
beslissing
besliste
besluit
besluite
besluitneming
besmet
besmette
besmetting
besnydenis
besoedel
besoedeling
besoek
besoeke
besoekende
besoeker
besoekers
besonder
besondere
besonderhede
besonders
besonderse
besorg
bespaar
bespeel
bespeur
bespiegel
bespoedig
bespreek
bespreking
besprekings
besproeiing
bessie
bessies
best
bestaan
bestaande
bestaansjaar
bestand
bestanddeel
bestanddele
beste
besteding
bestee
bestek
bestel
bestelling
bestellings
bestem
bestemming
bestemmings
bestempel
besten
bestendig
bestendige
bester
bestorm
bestraling
bestry
bestryding
bestudeer
bestudering
bestuif
bestuiwing
besturende
bestuur
bestuurder
bestuurders
bestyg
beswaar
besware
beswyk
bet
beta
betaal
betaalde
betaalmiddel
betaling
beteken
betekenis
betekenisse
betekenisvol
betekenisvolle
beter
beth
bethal
bethesda
bethlehem
bethulie
betogers
betogings
beton
betoog
betoon
betrap
betrayal
betrayed
betree
betref
betreffende
betrek
betrekking
betrekkinge
betreklik
betreklike
betreur
betrokke
betrokkenheid
betroubaar
betroubaarheid
betroubare
betsjoeanaland
betsy
bette
better
bettie
betty
betuig
between
betwis
betwiste
betwyfel
betyds
beukes
beurs
beurse
beurt
beurte
bevaarbaar
bevat
beveel
beveg
beveilig
bevel
bevele
bevelvoerder
bevelvoerders
beverly
bevestig
bevestigde
bevestiging
bevind
bevinding
bevindinge
bevindings
bevo
bevoegdhede
bevoegdheid
bevolk
bevolking
bevolkings
bevolkingsdigtheid
bevolkingsgroei
bevolkingsgroep
bevolkingsgroepe
bevolkte
bevoordeel
bevoorregte
bevorder
bevordering
bevraagteken
bevredig
bevredigend
bevredigende
bevrediging
bevriend
bevrore
bevrug
bevrugte
bevrugting
bevry
bevryding
bewaak
bewaar
bewaarde
bewaarder
bewapen
bewapening
beware
bewaring
beweeg
beweegbare
beweeglike
beweeglikheid
beweer
beweerde
bewegende
beweging
bewegings
bewering
bewerings
bewerk
bewerking
bewerkings
bewerkstellig
bewind
bewindhebbers
bewitched
bewonder
bewonderaars
bewondering
bewoners
bewoning
bewoon
bewoonbare
bewoonde
bewoording
bewus
bewussyn
bewuste
bewustelik
bewustheid
bewys
bewyse
beyer
beyers
beyond
beywer
bezuidenhout
bf
bg
bhoetan
bhutan
bi
bianca
bibcode
bibel
bible
biblical
bibliografie
bibliographisches
bibliography
biblioteek
bibliotekaris
biblioteke
bibliotheek
bicolor
bid
biddle
biden
bidure
bie
bied
biemna
bien
bier
bietjie
big
bigger
biggest
bij
bijl
bikini
biko
bilanz
bilaterale
bildung
biljoen
biljon
bill
billboard
billie
billike
billion
billy
bin
binary
bind
binding
bindings
bindweefsel
bine
bing
bingen
bingle
bingo
binne
binnebrandenjin
binnedring
binnegaan
binnegedring
binnegegaan
binnegekom
binnegeval
binnehof
binnekant
binnekom
binnekort
binneland
binnelanders
binnelands
binnelandse
binnenshuis
binnenshuise
binneruimte
binnestad
binneste
binneval
bio
biochemie
biochemiese
biochemistry
biodiesel
biodiversiteit
biodiversity
biodiversityexplorer
biograaf
biografie
biografiee
biografiese
biographical
biographie
biographies
biographisch
biography
biol
biolib
biological
biologie
biologies
biologiese
biology
bioloog
biomassa
biome
bioom
biotegnologie
bipole
bird
birdlife
birdman
birds
birma
birmaanse
birmingham
birth
birthday
bis
bisantium
bisantyne
bisantynse
bisdom
bishop
biskop
biskoppe
bismarck
bison
bissau
bisse
bit
bitch
bitcoin
bite
bites
bitter
bittere
bivar
bj
bjo
bl
bla
blaaie
blaar
blaartjies
blaas
blachot
black
blackburn
blackie
blacklist
blackmore
blackout
blacks
blackwell
blad
blade
bladmusiek
bladsy
bladsye
bladwisselende
blair
blake
blame
blameer
blanc
blanche
blank
blanke
blankes
blare
blast
blaue
blazing
ble
bleek
bleeker
blerk
bles
bless
blessed
bleu
blica
blignault
blignaut
blik
blind
blinde
blindes
blindheid
blink
bliss
blitz
blitzkrieg
bloch
block
bloed
bloedbad
bloeddruk
bloedige
bloeding
bloedrivier
bloedvate
bloei
bloeiende
bloeityd
bloeitydperk
bloeiwyse
bloem
bloemfontein
bloemfonteinse
bloemhof
bloemlesing
bloemlesings
blog
blogs
blogspot
blok
blokkade
blokke
blokkeer
blokkie
blokkies
blom
blomdraende
blomme
blommetjies
blomplant
blomplante
blond
blonde
blondes
blondie
blood
bloody
bloom
bloomberg
bloomington
bloomsbury
bloopers
bloot
blootgestel
blootstelling
blote
blou
blougroen
blow
bls
blu
blue
blues
bluff
blum
blunt
blut
bly
blydskap
blyk
blykbaar
blyke
blyplek
blywende
bm
bmg
bmj
bmw
bn
bo
board
boardwalk
boat
bob
bobaasvliee
bobbejaan
bobbejane
bobby
boccaccio
bod
bode
bodem
bodems
bodies
body
bodyguard
boe
boedapest
boeddha
boeddhisme
boeddhiste
boeddhistiese
boedel
boeiende
boeing
boek
boekarest
boekdeel
boekdele
boeke
boeken
boekewe
boekhandel
boekhuis
boekie
boekreeks
boekvorm
boekwinkel
boer
boerdery
boerderye
boere
boeremagte
boereoorlog
boererepublieke
boergondie
boergondiese
boerneef
boesman
boesmanland
boesmans
boesmansrivier
boet
boete
boetedoening
boetie
bofbal
bogenoemde
bogrondse
bohe
boheemse
boheme
bohemian
bohr
boikot
bois
bojare
bok
bokant
bokke
bokkeveld
bokkeveldberge
bokma
boks
boksburg
bokser
bol
boland
bolandse
bold
boleyn
boli
bolivia
bolivie
bolle
bologna
boloop
bolope
bolsjewiste
bolsjewistiese
bolton
boltzmann
bolus
bolvormige
bolyf
bom
bomaanval
bomaanvalle
bomb
bombardeer
bombardement
bombardering
bombay
bomber
bombers
bombus
bome
bomme
bomwerper
bomwerpers
bon
bonaire
bonanza
bonaparte
bonatuurlike
bond
bondage
bondgenoot
bondgenootskap
bondgenote
bondsrepubliek
bone
bones
boneschans
boniface
bonifatius
bonn
bonne
bonnie
bonobo
bont
bontpaling
bonus
bonuspunt
bonuspunte
boo
boodskap
boodskappe
boodskapper
boog
boogie
boogsekondes
boogskutter
book
booker
books
bookslive
boom
boomerang
boompie
boomveld
boon
boone
boonop
boonste
boontoe
boonzaier
boor
boord
boorling
boosheid
boot
booth
boots
booyens
booysen
bophuthatswana
bopunt
bora
bord
borde
bordeaux
border
borders
borealis
borg
borgen
borges
borgia
boris
borja
born
borneo
borojevic
borough
borrowed
bors
borsbeeld
borsbeen
borsjt
borskanker
borste
bos
bosbou
bosch
boscia
bose
bosgebiede
boshof
boshoff
bosman
bosnie
bosnies
bosniese
bosporus
boss
bosse
bostaande
boston
bosveld
bot
botanic
botanical
botaniese
botaniste
botany
bote
botes
both
botha
bothaville
bothma
botma
bots
botsing
botsings
botswana
bottas
bottel
bottels
botter
bottle
bottom
bou
bouaannemer
boubedryf
boubedrywighede
bouer
bouers
bouery
boufonds
boukommissie
boukoste
boukuns
boulbeurt
boulbeurte
boulder
bouler
boulevard
boulez
boumateriaal
boumeester
boumeesters
bound
boundary
bounty
bouplanne
bouprojekte
bourbon
bourgeois
bourgeoisie
bourne
boury
boustyl
boustyle
bout
bouvalle
bouwer
bouwerk
bouwerke
boven
bow
bowe
bowen
bowendien
bowerbank
bowery
bowie
bowker
bowl
bowling
bowman
box
boy
boyd
boyfriend
boyle
boys
boyz
boʂ
bp
bpk
bpkt
br
bra
braai
braak
braam
braamfontein
brabant
brad
bradbury
bradford
bradley
bradshaw
bradt
brady
braganc
braganza
brahma
brahms
braille
brain
brak
braking
brakpan
brakrivier
brakspruit
bram
branch
brand
brande
branded
brandenburg
brandenburgse
brandende
branders
brandewyn
brandfort
brando
brandon
brandpunt
brands
brandstapel
brandstof
brandstofverbruik
brandstowwe
brandt
brandwag
branson
brasi
brasil
brasiliaans
brasiliaanse
brasilie
brass
brat
bratislava
bratz
braun
braunschweig
brave
bravo
brazil
bre
bread
break
breakdown
breaker
breakfast
breaking
breaks
breast
breath
brecht
breda
bredasdorp
bredell
bree
breed
breederivier
breedte
breedtegraad
breedtegrade
breedvoerig
breek
breemse
brei
brein
breitfuss
bremen
bremer
bremerhaven
brenda
brendan
brennan
brenner
brent
brest
bretagne
breton
bretons
bretonse
brett
breuk
breuke
brewer
brewster
breyten
breytenbach
brezjnef
brian
brick
bride
brides
bridge
bridges
bridget
brief
briefwisseling
brien
briewe
brigade
brigades
brigadier
briggs
bright
brighton
brigitte
bril
briljante
brill
brilliant
bring
bringing
brink
brisbane
bristol
brit
britain
britannia
britannica
british
brits
britse
britstown
britt
brittanje
brittany
britte
britten
britz
brixton
briza
bro
broad
broadcast
broadcasting
broadway
brock
brockhaus
brody
broeder
broederbond
broeders
broederskap
broei
broeiende
broeityd
broek
broeke
broekhuizen
broen
broenei
broer
broers
broerskind
broke
broken
bron
bronkhorst
bronkhorstspruit
bronkode
bronmateriaal
bronne
brons
bronstydperk
bronx
bronze
brood
broodboom
brook
brooke
brooklyn
brooks
broom
bros
brosius
brother
brotherhood
brothers
brouery
brown
browne
brownell
browning
brownlee
browse
browser
bru
bruce
bruckner
brug
brugge
bruggen
bruid
bruidegom
bruidskat
bruikbaar
bruikbare
bruin
brumbies
brunelleschi
brunia
brunner
bruno
brunswick
brunswyk
brusher
brussel
brussels
brusselse
brute
bruto
bruwer
bruyn
bruyns
bryan
bryant
bryce
brøndsted
bs
bsc
bsg
bu
bubble
buccaneer
buch
buchanan
buck
buckaroo
buckingham
buckley
bud
budapest
buddha
buddhism
buddhist
buddies
buddy
budget
buenos
buffalo
buffel
buffels
buffelsrivier
buffer
buffy
bug
bugs
buick
buie
buig
buiging
buigsame
buik
build
builder
building
buildings
built
buis
buise
buit
buite
buiteaardse
buitekant
buiteland
buitelanders
buitelandse
buiten
buitendien
buitengewone
buitengewoon
buitenste
buitepos
buitewe
buitewyke
buk
bul
bulawayo
bulbine
bulgaars
bulgaarse
bulgare
bulgarye
bulger
bull
bulldog
bulle
bullet
bulletin
bullets
bulls
bully
bult
bultfontein
bun
bunch
bundel
bundels
bundesliga
bundestag
bundy
bungtod
bunker
bunny
burchell
burden
bure
bureau
buren
burg
burgemeester
burgemeesters
burgenland
burger
burgerlike
burgerlikes
burgermag
burgeroorloe
burgeroorlog
burgerregte
burgers
burgersdorp
burgerskap
burgerville
burgess
burggraaf
buried
burke
burkina
burlesque
burlington
burma
burman
burn
burnett
burnham
burning
burns
buro
burokrasie
burroughs
burstein
burt
burton
burundi
bury
bus
busch
bush
business
buskruit
busoni
busse
bussy
buster
busters
but
butch
butchart
butcher
butler
butt
butterflies
butterfly
butterworth
button
buurland
buurlande
buurman
buurt
buurte
buy
buys
buzz
bv
bwv
by
bybel
bybelgenootskap
bybels
bybelse
bybelvertaling
bydra
bydrae
bydraer
bydraers
bydraes
bye
byeen
byeengebring
byeengekom
byeengeroep
byeenkoms
byeenkomste
bygedra
bygekom
bygeloof
bygestaan
bygevoeg
bygewerk
bygewoon
bykans
bykomend
bykomende
byl
bylae
bymekaar
bymekaargekom
bymekaargemaak
bymekaarkom
byna
bynaam
byname
byrd
byrne
byron
byspeler
bystaan
bystand
byt
byval
byvoeg
byvoeging
byvoeglik
byvoeglike
byvoorbeeld
bywoning
bywoon
bywoordelik
byzantine
byzantium
bærɔ
bɑ
bɔ
bə
bɛ
bɛʔ
c
ca
cab
cabaret
cabin
cabinda
cabinet
cable
cabo
cachet
cactus
cadillac
caen
caesar
caf
cafe
cage
cain
caine
cairns
cairo
caitlin
cake
cal
calais
calcarea
calcinai
caledon
caledonrivier
calendar
calgary
calidris
california
calitzdorp
call
callas
called
calling
callixtus
calls
callyspongia
callyspongiidae
calvin
calvinia
calvinisme
calvinistiese
calvyn
cam
cambodia
cambridge
camden
came
camera
cameron
camilla
camille
camp
campaign
campbell
campert
campo
campus
camus
can
canada
canadian
canal
canary
canaveral
canberra
cancer
candidate
candles
candy
canis
cannes
cannon
canon
canterbury
canyon
cao
cap
cape
capella
capensis
caper
capita
capital
capitalism
capitol
capo
capri
capricorn
caprimulgus
caprivi
captain
captains
captive
capture
captured
capua
car
cara
carafa
caravaggio
caravan
carballo
carbon
carcassonne
card
cardiff
cardinal
cardinals
cards
care
career
carel
carey
cargo
caribbean
carina
carissa
carl
carla
carletonville
carlo
carlos
carlson
carlton
carmel
carmen
carnarvon
carnegie
carnival
carol
carole
carolina
caroline
carolus
carolyn
carpenter
carpet
carr
carrie
carrier
carroll
carry
cars
carson
carstens
carte
carter
cartier
cartoon
carvalho
cary
cas
casa
casablanca
casanova
case
cases
casey
cash
casino
caspar
casper
cass
cassell
cassidy
cassini
cassius
cast
casting
castle
castro
casualty
cat
catalog
catalogue
catalunya
catch
catching
category
catharina
cathcart
cathedral
cathen
catherine
catholic
cathy
cato
cats
cattle
caught
caulophacus
causa
cause
causes
cavalcade
cavalier
cave
cavendish
cavour
cb
cbc
cbr
cbs
cc
cd
cda
cdc
cdot
cds
cdu
ce
cebuano
cecil
cecile
cecilia
celebrates
celebrating
celebration
celebrity
celeste
celestial
celestinus
cell
celliers
cellini
cello
celsius
celtic
cemetery
cengage
census
cent
centauri
centaurus
centennial
center
centers
central
centre
centro
centuries
centurion
century
ceo
cephei
ceremony
ceres
cern
certain
cervantes
ces
cesare
ceti
cetshwayo
ceylon
cf
cfa
cfm
cgi
ch
cha
chad
chadwick
chaetodon
chain
chains
chainsaw
chair
chalinidae
chalinula
challenge
challenger
challenges
chamber
chamberlain
chambers
chameleon
chamonix
champ
champagne
champion
champions
championship
champs
chan
chance
chances
chandler
chandra
chanel
chang
change
changed
changes
changing
changuion
channel
chant
chaos
chaotiese
chapel
chaplin
chapman
chapter
character
characteristics
characters
charadrius
charge
charismatiese
charity
charl
charles
charleston
charley
charlie
charlotte
charmed
charon
chart
charter
charts
chase
chasing
chat
che
cheaper
cheat
check
checklist
cheers
cheese
cheetah
cheetahs
chef
chekhov
chelsea
chem
chemical
chemici
chemie
chemies
chemiese
chemikaliee
chemikus
chemistry
chen
cher
cherokee
cherry
cheryl
chess
chest
chester
chevalier
chevrolet
cheyenne
chez
chi
chiang
chicago
chick
chicken
chicks
chief
chiefs
child
childhood
children
chile
chileense
chili
chimpanzees
chin
china
chinatown
chinees
chinese
ching
chip
chipmunks
chips
chiron
chirurg
chirurgie
chirurgiese
chisholm
chitty
chloe
chloor
chlorofil
cho
chocolate
choice
choir
cholera
cholesterol
chomsky
chondriete
chondrocladia
choose
chopin
choreograaf
chorus
chosen
chow
chre
chris
christ
christa
christchurch
christelik
christelike
christen
christendom
christene
christensen
christi
christiaan
christian
christiana
christiane
christianity
christians
christie
christina
christine
christmas
christo
christoffel
christoph
christopher
christophorus
christus
christy
chroesjtsjof
chromosome
chromosoom
chronicle
chronicles
chroniese
chronik
chronological
chronologie
chronologiese
chronology
chronostratigrafiese
chroom
chrysler
chte
chu
chuck
chun
chung
church
churches
churchill
ci
cia
cicero
cid
cie
cillie
cilliers
cinachyrella
cincinnati
cinderella
cindy
cine
cinema
cinerea
cinnyris
cio
ciocalypta
circa
circle
circuit
circular
circus
cis
ciskei
cisticola
cit
cite
citeseerx
cities
citizen
citizens
citroe
citrus
citrusdal
citta
city
ciudad
civil
civilization
civilizations
cj
ck
cke
cken
ckhoff
cl
claassen
cladorhiza
cladorhizidae
claim
claims
claire
clan
clans
clanwilliam
clara
clare
claremont
clarence
clarendon
clarens
clark
clarke
clash
class
classic
classical
classics
classification
classify
clathria
clathrina
clathrinidae
claude
claudia
claudio
claudius
claus
clause
clausewitz
claw
clay
clayton
cle
clean
clear
clemens
clement
clements
cleopatra
clermont
cleveland
cliff
clifford
cliffortia
clift
clifton
climate
clin
clinic
clinical
clint
clinton
clio
cliona
clionaidae
clive
clock
clockwork
cloete
close
closed
closer
closet
clothes
cloud
clouds
clovis
clown
club
clue
cluster
clusters
clyde
cm
cn
cna
cnbc
cnn
cno
co
coach
coal
coalition
coast
coastal
coasts
coat
coates
coauthors
cobra
cobus
coca
cochrane
cock
cocktail
coco
code
codes
codex
cody
coe
coelosphaera
coelosphaeridae
coenie
coenraad
coetsee
coetzee
coetzer
coeur
coffee
cognitive
cohen
coke
col
cola
colbert
cold
cole
coleman
colenso
colesberg
coligny
colin
collapse
collar
colle
collected
collection
collections
collective
collector
colleen
college
coller
collier
collins
collision
colombia
colombiaanse
colombo
colonel
colonia
colonial
colonna
colony
color
colorado
colors
colour
colt
columba
columbia
columbie
columbus
column
com
coma
combat
combined
combretaceae
combretum
combrink
come
comeback
comedian
comedians
comedy
comes
comet
comets
comfort
comic
comics
coming
command
commander
commandment
commandments
commando
comme
commedia
commentary
commerce
commercial
commiphora
commission
commissioner
committee
commodore
common
commons
commonwealth
commune
communication
communications
communist
communities
community
como
comore
compact
compagnie
companies
companion
companions
company
comparative
comparison
compendium
competition
compilation
complete
complex
composer
composers
composition
compounds
comprehensive
compton
computer
comrades
comte
con
conan
concept
concepts
concerning
concert
concertgebouw
concerto
concertos
concise
concord
concorde
concrete
conditions
condor
conduct
conductor
conebush
conference
confession
confessions
confidence
confidential
confirmed
confirms
conflict
congo
congress
connecticut
connection
connections
connell
connie
connolly
connor
conqueror
conquest
conrad
conradie
conscience
consciousness
consequences
conservation
consolidated
conspiracy
constable
constance
constant
constantia
constantijn
constantine
constellation
constellations
constitution
constraints
construction
consumer
contact
contemporary
content
contest
context
conti
continent
continental
continues
continuum
contract
contrast
contribution
contributions
control
controversy
convention
conversation
conversations
conversion
conway
cook
cooke
cookeilande
cooking
cool
cooper
cooperation
cop
copa
cope
copenhagen
copernicus
copper
copperfield
coppola
cops
copy
cor
cora
coral
corals
corbett
core
corey
cork
corn
cornelia
cornelis
cornelius
cornell
corner
cornwall
cornwallis
corolla
corona
coronation
coronavirus
corp
corporate
corporation
corps
corpse
corpus
correspondence
correspondent
corrie
corruption
corte
cortina
corvus
cory
cos
cosa
cosby
cosimo
cosmic
cosmology
cosmos
cost
costa
costello
coster
costume
cottage
cottesloe
cotton
couch
cougar
could
couldn
council
count
countdown
counter
countess
counties
countries
country
county
coup
coupe
couperus
couple
couples
courage
courageous
courant
courier
course
court
courtney
cousin
cousins
cove
covent
cover
covid
cow
coward
cowboy
cowboys
cox
coyote
cp
cr
crack
cradle
cradock
craft
craig
crane
craniella
crash
craven
crawford
crazy
crc
cre
cream
created
creating
creation
creative
creativity
creator
creature
creatures
credo
creed
creek
crella
cremona
crest
cretaceous
crew
cricinfo
cricket
crime
crimes
criminal
crimson
crisis
cristina
cristo
critic
critical
criticism
critics
critique
croce
crocodile
croft
croix
cromwell
cronje
cronulla
cronwright
crooked
crosby
cross
crossed
crossing
crossroads
crous
crow
crowd
crowell
crowley
crown
crucis
cruel
cruise
crusade
crusaders
crush
crusoe
cruywagen
cruz
cry
crying
cryptocarya
crystal
cs
csi
ct
cu
cuba
cube
cuckoo
cuisine
cullinan
cult
cultural
culture
cultures
cum
cummings
cunha
cunningham
cup
cupid
curac
curb
cure
curie
curiosity
curious
curl
current
curriculum
currie
curriebeker
curry
curse
curtain
curtis
curve
cussons
custer
customs
cut
cuts
cutting
cuvier
cv
cvn
cvs
cyathea
cyber
cycle
cyclone
cyclopia
cygni
cygnus
cynthia
cyprus
cyril
cyrilliese
cyrtanthus
cyrus
cz
czech
d
da
daad
daadwerklike
daag
daagliks
daaglikse
daai
daal
daan
daar
daaraan
daaragter
daarbenewens
daarbo
daarby
daardeur
daardie
daarenteen
daargestel
daarheen
daarin
daarmee
daarna
daarnaas
daarom
daaronder
daaroor
daarop
daaropvolgende
daarstel
daarstelling
daarteen
daarteenoor
daartoe
daaruit
daarvan
daarvandaan
daarvolgens
daarvoor
dad
daddy
dade
dadelik
dae
dag
dagblaaie
dagblad
dagboek
dagboeke
dagbreek
dagen
dagga
dagger
daglig
dahl
dahlgren
dahmer
dai
daily
daimler
daisy
dak
dakar
dakke
dakota
dal
dalai
dale
dalende
dalene
dali
daling
dalk
dallas
dalro
dalton
daly
dam
damage
damaskus
dame
dames
damien
damme
damned
damon
damp
dampdruk
damwal
dan
dana
dance
dancer
dancing
dandy
dane
daneel
danger
dangerous
danie
daniel
danielle
daniels
danish
dank
dankbaar
dankbaarheid
danke
dankie
danksy
danmark
danny
dans
danse
danser
danseres
dansers
dante
daphne
dapper
dapperheid
dar
dare
daredevil
darem
daring
darius
dark
darkest
darkness
darling
darmstadt
darren
dart
darwin
das
daspoort
dassault
dat
data
database
databasis
date
dateer
datering
dates
datief
dating
datsun
datum
datums
daughter
daughters
dauphin
dave
davenport
david
davidson
davies
davis
davy
dawid
dawie
dawkins
dawn
dawson
day
daylight
days
daytime
dayton
daze
db
dbnl
dc
dchen
dd
ddr
de
deacon
dead
deadline
deadly
deadwood
deal
dealiseerde
dean
dear
death
deathly
deaths
debat
debate
debatte
debbie
deborah
debt
debussy
debut
debuteer
debuut
debuutalbum
debuutbundel
dec
decade
decades
decay
decca
december
deception
decision
deck
declaration
decline
deco
dee
deeds
deeg
deeglik
deeglike
deel
deelgebied
deelgebiede
deelgeneem
deelname
deelneem
deelnemende
deelnemer
deelnemers
deels
deelstaat
deelstate
deeltjie
deeltjiefisika
deeltjies
deeltyds
deeltydse
deelwoord
deen
deens
deense
deep
deer
deernis
deesdae
default
defeat
defence
defender
defenders
defense
defiance
defined
definieer
definisie
definisies
definitief
definitiewe
definition
definitive
deftige
degli
degordel
degrassi
degree
degrees
dei
dein
dek
dekaan
dekade
dekades
deken
dekker
dekking
deklinasie
dekompressie
dekor
dekorasies
dekoratiewe
dekreet
dekrete
deksel
del
delagoabaai
delarey
delaware
dele
deleted
delft
delhi
delicious
delikate
deling
deliver
delivered
delivery
dell
della
delle
delmas
delphi
delport
dels
delta
deluxe
delwers
delwerye
dem
demand
demeter
demi
demille
demissie
demo
democracy
democratic
demografie
demografiese
demografische
demographic
demokrasie
demokrate
demokraties
demokratiese
demon
demone
demoniem
demons
demonstrasie
demonstreer
demospongiae
den
dendy
dene
denemarke
deng
denis
denise
denkbeeldige
denke
denker
denkers
denmark
dennebome
dennis
denominasies
density
dent
dentifiseer
denver
deo
deon
departement
departemente
department
depressie
depression
dept
depth
deputasie
deputate
deputy
der
derby
derde
derdes
derek
dergelike
derhalwe
deritz
derk
derm
dermkanaal
derrida
dertien
dertiende
dertig
dertigerjare
dertigjarige
dertigste
deræ
des
descartes
descendants
descending
description
desember
desert
design
designing
desimale
desire
desires
desk
deskundige
deskundiges
desmacella
desmacellidae
desmond
desondanks
despatch
desperate
despite
desqueyroux
dessau
dessin
destination
destiny
destroy
destruction
destyds
destydse
det
detail
details
detection
detective
detectives
determination
detroit
deug
deugde
deur
deurbraak
deurbring
deurdat
deurdring
deure
deurentyd
deurgaans
deurgang
deurgebring
deurgedring
deurgemaak
deurgevoer
deurkruis
deurloop
deurlopend
deurlopende
deurmekaar
deursettingsvermoe
deursigtig
deursigtige
deurskynend
deurskynende
deurslaggewende
deursnee
deursnit
deursoek
deus
deuterium
deutsch
deutsche
deutschen
deutscher
deutsches
deutschland
deux
developing
development
developmental
developments
deventer
devi
devil
devils
devon
devoon
dewald
dewey
dexter
deze
dfb
dg
dhabi
dhaka
dharma
di
dia
diabetes
diafragma
diagnose
diagnosis
diagnostiese
diagonale
diagram
diaken
diakens
dial
dialek
dialekgroep
dialekte
dialektiek
dialogue
dialoog
diamant
diamante
diameter
diamond
diamonds
diana
diane
diaries
diarree
diary
dias
diaspora
dice
dich
dichter
dick
dickens
dickie
dickinson
dictator
dictionaries
dictionary
did
didn
dido
die
dieburger
died
dieet
dief
diefstal
diegene
diego
diels
dien
dienaar
dienaars
dienende
dienooreenkomstig
diens
dienskneg
diensplig
dienste
dienstesektor
dienstyd
diep
diepe
dieper
diepgaande
dieprivier
diepsee
diepste
diepte
dieptes
dier
diere
dierelewe
diereriem
dieretuin
dieretuine
dierkunde
dierkundige
dierlike
diertjie
diertjies
dies
diesel
dieselde
dieselenjin
dieselenjins
dieselfde
diet
dietary
dieter
dietrich
dieu
diewe
difference
differences
differensiasie
different
diffusie
dig
digbevolkte
digbundel
digbundels
digby
digest
diggers
digimon
digitaal
digital
digitale
digkuns
digte
digter
digteres
digterlike
digters
digtheid
dijk
dik
dikker
dikkop
diktator
diktatorskap
diktatuur
dikte
dikwels
dilemma
dillon
dimensie
dimensies
dimension
dimensionele
dimensions
dimitri
din
dina
dinamies
dinamiese
dinamiet
dinamika
dinastie
dinastiee
dinastiese
ding
dingaan
dinge
dinger
dink
dinner
dino
dinosaur
dinosauria
dinosaurs
dinosourus
dinosourusse
dinsdag
dio
diocletianus
diode
diodes
diogenes
dion
dione
dionusos
diospyros
diploi
diploma
diplomaat
diplomacy
diplomasie
diplomat
diplomate
diplomatic
diplomatieke
dir
direct
direction
director
directorate
directors
directory
direk
direksie
direkte
direkteur
direkteure
direktoraat
dirigeer
dirigent
dirigente
dirk
dirkie
dirt
dirty
dis
disa
disaster
disc
disco
discodermia
discography
discover
discovered
discoveries
discovering
discovery
discussion
disease
diseases
disguise
disk
diskoers
diskografie
diskrete
diskriminasie
disney
disorder
disorders
display
displaystyle
dispute
dispuut
disse
dissipels
dissipline
dissiplines
distance
distant
distillasie
distinguished
distribution
district
distrik
distriksmunisipaliteit
distriksmunisipaliteite
distrikte
dit
ditions
div
diva
dive
divergent
divers
diverse
diversiteit
diversity
divide
divided
divine
diving
divisie
division
divorce
dixie
dixon
dj
djainisme
djengis
djiboeti
dk
dl
dlamini
dm
dmg
dmitri
dna
dns
do
dobson
doc
doch
docs
doctor
doctors
document
documenta
documentary
documents
dodd
dodelik
dodelike
dodge
dodson
doe
doeane
doebai
doek
doel
doelbewus
doelbewuste
doele
doeleindes
doelgerigte
doelmatige
doelstellings
doeltreffend
doeltreffende
doeltreffender
doeltreffendheid
doelwit
doelwitte
doen
doep
does
doesn
dof
dog
dogg
dogma
dogs
dogter
dogtergemeente
dogtergemeentes
dogters
dogtertjie
dohna
dohrmann
doi
doing
dok
dokter
dokters
doktor
doktorale
doktorsgraad
doktrine
dokument
dokumentasie
dokumente
dokumenteer
dolby
dolf
dolfyn
dolfyne
dolittle
doll
dollar
dollars
dolls
dolly
dolores
dolphin
dom
domain
dome
domein
domeine
domeinname
domenico
domestic
dominant
dominante
dominee
domineer
domingo
dominic
dominica
dominikaanse
dominique
dominiums
domino
domkerk
dommisse
don
donald
donau
donderdag
donderstorms
done
donetsk
dong
donker
donkerblou
donkerbruin
donkerder
donkergroen
donkergrys
donkerte
donkie
donna
donne
donnell
donnie
donovan
donsker
doo
dood
doodgaan
doodgemaak
doodgeskiet
doodle
doodmaak
doodsberig
doodstraf
doofheid
dooie
dooies
doom
doomsday
doop
dooplidmate
door
doornfontein
doors
dop
dope
doper
dopgehou
doppe
doppers
doppie
doppler
dora
dorado
dordrecht
dorf
dorian
doriese
doringrivier
dorings
doris
dorothea
dorothy
dorp
dorpe
dorpenaars
dorpie
dorpies
dorpsgebied
dorpsraad
dorre
dors
dorsale
dortmund
dos
doseer
dosent
dosente
dosis
dosisse
dostojefski
dosyn
dosyne
dot
douard
double
doubleday
doubt
doug
douglas
dove
dover
dow
down
download
downs
downton
downtown
dowwe
dowwer
doyle
dozen
dp
dq
dr
dra
draad
draadlose
draagbare
draai
draaiboek
draaiboeke
draaiboekskrywer
draaie
draaiende
draak
dracula
drade
draer
draers
draft
drag
dragnet
dragon
dragons
dragtig
drake
drakensberg
drakensberge
drakenstein
drama
dramareeks
dramas
dramatic
dramaties
dramatiese
dramaturg
drang
drank
dranke
drankie
drankies
drasties
drastiese
draw
dream
dreaming
dreams
drei
dreig
dreigemente
dreigende
dreineer
dreinering
dresden
dress
dressed
drew
dreyer
dreyfus
drie
drieankerbaai
driedimensionele
driedubbele
driee
driehoek
driehoeke
driehoekige
driehonderd
driejarige
driekleur
driekwart
driemanskap
drienasiesreeks
dries
driese
drievoudige
drif
drift
dring
dringend
dringende
drink
drinkwater
drive
driven
driver
driving
droe
droese
drome
dronk
droog
droogste
droogte
droogtes
droom
drop
drosanthemum
drs
drug
drugs
drui
druiwe
druk
drukker
drukkers
drukkery
drukpers
drukwerk
drum
drummond
drums
drunk
druppel
druppels
dry
dryf
dryfkrag
drywende
drywing
ds
dsm
dss
dstv
dt
du
dual
dubai
dubbel
dubbele
dubbelsinnig
dubbelsinnigheidsbladsy
dubbelster
dubbelsterre
dublin
dubois
ducati
duchamp
duchassaing
duchess
duck
ducks
duckworth
dude
dudley
due
duel
duet
duff
duffy
dui
duidelik
duidelike
duideliker
duidelikheid
duie
duif
duik
duikboot
duikbote
duiker
duikers
duim
duine
duisend
duisende
duisternis
duits
duitse
duitser
duitsers
duitsland
duitssprekende
duitstalige
duiwe
duiwel
duiwels
duke
dukes
dulles
dullstroom
dumas
dumb
dumont
dun
dunbar
duncan
dundee
dunderm
dune
dunedin
dunn
dunner
dunning
duo
dupont
duquesne
durand
durant
durban
durbanse
durbanville
durch
durf
durham
during
dus
dusseau
dust
dusty
dusver
dutch
dutoitspan
duty
duur
duurder
duurste
duvenage
dvd
dvor
dw
dwaling
dwang
dwarf
dwarfs
dwars
dwarsdeur
dwarsoor
dwarsrivier
dwelm
dwelms
dwerg
dwerge
dwergplaneet
dwergplanete
dwergsterrestelsel
dwight
dwing
dws
dx
dy
dyck
dye
dyer
dying
dyk
dyke
dylan
dynamic
dynamics
dynamite
dynasty
dysidea
dysideidae
dz
dæ
dæm
dæme
dær
dære
dœʏ
dɑ
dɑn
dɔ
də
dəm
dən
dər
dɛ
dɛn
e
ea
each
eagle
eagles
eamon
earl
earliest
early
earnest
ears
earth
earthquake
east
eastenders
easter
eastern
eastwood
easy
eat
eater
eating
eaton
eau
eb
eben
eberhard
ebert
ec
echinochalina
echinoclathria
echinodictyum
echo
echoes
ecionemia
eck
eckl
eclipse
eco
ecological
ecology
economic
economics
economist
economy
ecstasy
ecuador
ed
edda
eddie
eddy
ede
edel
edele
edelman
edelstene
eden
edenburg
edenvale
edgar
edge
edi
edik
edinburg
edinburgh
edis
edison
edited
edith
edition
editions
editor
editorial
editors
edmond
edms
edmund
edna
eds
edu
eduard
eduardo
education
educational
edvard
edward
edwards
edwin
edæ
edæn
ee
eed
eeden
een
eenbedryf
eenbedrywe
eend
eendag
eende
eenders
eenderse
eene
eenhede
eenheid
eenhonderd
eenjarige
eenkant
eenkeer
eenmaal
eenmalige
eenparig
eens
eensaamheid
eensame
eensellige
eenslagtig
eensydig
eensydige
eenvormig
eenvormige
eenvoud
eenvoudig
eenvoudige
eenvoudiger
eenvoudigste
eenwording
eer
eerbewys
eerbewyse
eerbied
eerbiedig
eerder
eerdmans
eerlik
eerlike
eerlikheid
eers
eersgenoemde
eerste
eerstens
eersterangse
eerstes
eertydse
eervol
eervolle
eerw
eerwaarde
eet
eetbaar
eetbare
eetsaal
eeu
eeue
eeufees
eeufeesgedenkboek
eeufeesjaar
eeuse
eeuw
eeuwfeest
ef
efese
eff
effe
effect
effective
effects
effek
effekte
effektebeurs
effektief
effektiewe
effektiwiteit
effens
effense
eg
egei
egg
eggenoot
eggenote
eggo
eggsa
egipte
egiptenare
egipties
egiptiese
ego
egoli
egpaar
egskeiding
egte
egtelike
egter
egtheid
egypt
egyptian
ehe
ehlanzeni
ei
eichmann
eid
eie
eienaam
eienaar
eienaardige
eienaars
eienaarskap
eiename
eiendom
eiendomme
eiendomsreg
eienskap
eienskappe
eier
eiers
eiersel
eierselle
eiesoortige
eietydse
eight
eighteenth
eighth
eike
eiland
eilandbewoners
eilande
eilanders
eilandgroep
eilandgroepe
eilandjies
eilandnasie
eilandstaat
eileen
eilish
ein
einde
eindelik
eindelike
eindelose
eindhoven
eindig
eindige
eindproduk
eindpunt
eindronde
eindstryd
eindstryde
eine
einem
einen
einer
eines
einmal
einstein
eintlik
eintlike
eis
eise
eisenhower
eisenstein
ej
ejakulasie
ek
eke
ekologie
ekologiese
ekonome
ekonomie
ekonomiee
ekonomies
ekonomiese
ekonoom
ekosisteem
ekosisteme
ekostelsel
eks
eksamen
eksamens
eksemplaar
eksemplare
eksentrieke
eksentrisiteit
eksistensialisme
eksistensie
eksklusief
eksklusiewe
ekskommunikeer
eksodus
eksoplaneet
eksoplanete
eksotiese
ekspedisie
ekspedisies
eksperiment
eksperimente
eksperimenteel
eksperimenteer
eksperimentele
eksperimentering
eksplisiet
eksplisiete
ekspressionistiese
eksteen
eksterne
ekstra
ekstreme
ekumeniese
ekwatoriaal
ekwivalent
ekwivalente
el
elaine
elam
eland
elandsrivier
elastiese
elba
elbe
elder
elders
eldoret
ele
eleanor
elected
election
elections
electra
electric
electronic
elegans
elegante
elektra
elektries
elektriese
elektrisiteit
elektrodes
elektrolise
elektromagnetiese
elektron
elektrone
elektronies
elektroniese
elektronika
element
elementary
elemente
elements
elena
elephant
eleven
eleventh
elf
elfde
elgar
elgin
eli
elia
elias
elie
elim
eliot
elisabeth
elise
elite
eliza
elizabeth
elize
elk
elke
elkeen
ella
elle
ellen
ellende
ellery
ellington
elliot
elliott
ellips
elliptiese
ellis
ellul
elm
elmer
elmo
eloff
eloffsdal
elot
els
elsa
elsabe
elsas
else
elsevier
elsie
elsiesrivier
elst
elton
elvira
elvis
em
emanuel
embassy
emberiza
embleem
embrio
emerald
emergence
emergency
emerging
emeritaat
emeriteer
emeritus
emerson
emery
emfaties
emi
emigrante
emigrasie
emigreer
emil
emile
emilia
emilio
emily
emiraat
emirate
emirates
emissie
emma
emmanuel
emmanuelle
emmer
emmerdale
emmy
emmys
emosie
emosies
emosioneel
emosionele
empangeni
emperor
empire
empires
empiriese
empirisme
empress
empty
en
ena
enca
encarta
encephalartos
enchanted
encore
encounter
encounters
encyclopaedia
encyclopedia
encyclopædia
end
endangered
ende
endeavour
endemies
endemiese
ending
endless
ends
ene
enemies
enemy
energie
energiebron
energiebronne
energieke
energieverbruik
energy
enersyds
enfant
enfants
eng
engagement
engel
engela
engeland
engelbrecht
engele
engelenburg
engels
engelse
engelsman
engelssprekende
engelssprekendes
engelstalige
engine
engineer
engineering
engineers
engines
engl
england
english
enige
enigeen
enigiemand
enigiets
enigma
enigsins
enigste
enjin
enjins
enkel
enkele
enkeles
enkeling
enkelsnit
enkelspeler
enkelvoud
enkelvoudige
enklawe
enoch
enorm
enorme
enough
enrico
ens
enschede
ense
ensemble
ensiem
ensieme
ensiklopedie
enslin
ensomeer
ensovoorts
ensɔn
ent
entalpie
entebbe
enter
enterprise
entertainment
enthusiasm
entiteit
entiteite
entjie
entoesiasme
entourage
entre
entrepreneur
entrepreneurs
entropie
entry
entstof
entstowwe
environment
environmental
eol
eon
eos
eoseen
ep
epic
epidemie
epidemies
epidemiology
epidermis
epiese
epilepsie
epinephelus
episode
episodes
epistemologie
epog
epos
epsilon
epstein
equal
equipment
equus
er
era
eras
erasmus
erde
erdewerk
ere
erectus
erediens
eredienste
eredivisie
eredoktorsgraad
ereksie
erelid
erelidmaatskap
erepenning
erf
erfenis
erfgenaam
erfgename
erflating
erflike
erg
erge
erger
ergste
eric
erica
erich
erik
erika
erin
eris
eritrea
erken
erkende
erkenning
erlank
ermelo
erna
ernest
ernie
erns
ernst
ernstig
ernstige
ernstiger
eros
erosie
erotic
erotica
erotiese
error
ers
erste
ertjies
erts
ertse
eruption
ervaar
ervare
ervaring
ervaringe
ervarings
erwe
erwin
erylus
erza
es
esa
esaach
esat
esau
escape
escher
ese
eseken
esi
eskader
eskarp
eskimo
eskom
esme
esnault
eso
esoteriese
espan
esperanto
esperiopsis
espn
espncricinfo
espnscrum
esprit
essay
essayis
essays
essen
essence
essensie
essential
essex
est
esta
establishment
estate
estcourt
este
estelle
ester
esterhuizen
estetiese
estetika
esther
estiese
estimates
estland
estnies
estniese
eswatini
et
eta
etage
etanol
etc
ete
eter
eternal
eternity
etes
ethan
ethekwini
ethel
ethics
ethiopia
ethiopian
ethiopie
ethiopiese
ethnic
ethnicity
ethnologue
etiek
etienne
etiese
etihad
etiket
etikette
etimologie
etimologiese
etlike
etna
etnies
etniese
etnisiteit
etosha
etruskers
etruskies
etruskiese
etymologiebank
etymology
eu
eufraat
euge
eugen
eugene
eugenie
eugenius
euler
eunice
euphorbia
euplectella
euplectellidae
eurasie
eurasiese
eureka
euripides
euro
europa
europe
european
europee
europees
europese
eurovision
euryops
eurypon
eusebius
ev
eva
evaluation
evalueer
evaluering
evan
evangelical
evangelie
evangeliebediening
evangelies
evangeliese
evangelis
evangelisasie
evans
eve
evelyn
even
evening
event
events
ever
everest
everett
every
everybody
everyday
everyone
everything
evidence
evil
evolusie
evolusione
evolution
evolutionary
ewe
ewekansige
eweknie
ewekniee
ewenaar
eweneens
eweredig
ewewig
ewig
ewige
ewigheid
ex
examination
example
excel
excelsior
exchange
exclusive
executive
exeter
exhibition
exile
exit
exodus
exoplanet
exoplanets
exorcist
exotic
expansion
expectations
expedition
experience
experiences
experiment
experimental
expert
experts
explained
exploration
explore
explorer
exploring
explosion
expo
exposed
exposition
exposure
express
extended
extension
extinct
extinction
extra
extraordinary
extrasolar
extreme
eybers
eye
eyed
eyes
eyewitness
eyre
ez
ezra
f
fa
faa
faal
fabaceae
fabels
faber
faberge
fabian
fabriek
fabrieke
fabulous
face
facebook
faces
fact
factbook
facto
factor
factors
factory
facts
factsheet
faculty
fagan
fagot
fahd
fail
failed
failure
fair
fairfax
fairy
faisal
faith
fak
fake
fakkel
faksie
faksies
faktor
faktore
fakulteit
fakulteite
falco
falcon
falkland
falkner
fall
fallen
falling
falls
false
fame
familia
familie
familiegeskiedenis
familielede
familielid
familienaam
familieplaas
families
famille
family
famous
fan
fancy
fanerosoi
fang
fanie
fanny
fans
fantasia
fantasie
fantasiee
fantasies
fantastic
fantastiese
fantasy
fanus
fao
fapla
faq
far
faraday
farao
farewell
fargo
farm
farmaseutiese
farmer
farmers
farnese
faroe
farrar
farrea
farrell
fasade
fasades
fasciospongia
fascisme
fascistiese
fase
fases
fasette
fashion
fasiliteer
fasiliteit
fasiliteite
faso
fast
fastest
fat
fatal
fate
father
fathers
fau
faulkner
fauna
faure
fauresmith
faust
favorite
favourite
fay
faye
fbi
fc
fda
fe
fear
fearless
fears
feast
feat
feather
feathers
feature
features
featurette
featuring
feb
februar
februarie
february
federal
federale
federasie
federation
federer
federico
fee
feel
feeling
fees
feesalbum
feesdae
feesdag
feeste
feestelik
feestelike
feesvierings
feet
feit
feite
feitegids
feitlik
fel
feldman
felice
felipe
felis
felix
fell
fellini
fellow
fellows
fellowship
female
feministiese
femme
feng
fenisie
fenisiese
fenomeen
fenomenologie
feodale
fer
ferdinand
ferguson
ferm
fermentasie
fermi
fern
ferna
fernando
ferrara
ferrari
ferreira
ferrer
ferris
fest
festival
fetus
feu
feud
fever
few
ff
ffisie
fi
fia
fiat
fichte
fick
ficksburg
fiction
ficus
fide
fidel
fidji
fidjiaanse
field
fields
fiesta
fiets
fietse
fietsry
fifa
fifth
fifty
fig
figaro
fight
fighter
fighters
fighting
figueres
figure
figures
figuur
figuurlik
fiji
fiksie
fiktiewe
filament
filamente
filantroop
file
files
filharmoniese
filiaal
filiale
filip
filippo
filippyne
filippynse
filips
filistyne
fille
film
filmbedryf
filmfees
filmmaker
filmmakers
filmregisseur
films
filologie
filosofie
filosofiee
filosofiese
filosoof
filosowe
filter
filthy
filum
fin
finaal
final
finale
finali
finalis
finally
finance
financial
finansie
finansieel
finansier
finansiering
finansies
finch
find
finding
finds
fine
finest
finger
fingers
finish
finland
finlay
finn
finne
fins
finse
fiona
fire
fired
firefly
firefox
fires
firm
firma
firmas
first
fischer
fish
fishbase
fisher
fishes
fisici
fisiek
fisieke
fisies
fisiese
fisika
fisikus
fisiologie
fisiologiese
fist
fisted
fit
fitzgerald
fitzpatrick
five
fix
fjodor
fjodorowna
fjord
fl
fla
flag
flags
flak
flame
flames
flaming
flamsteed
flanders
flank
flanke
flash
flat
flats
flaubert
flavius
fleet
fleming
flemming
flesh
fletcher
fleur
fleurs
fliek
flieks
flies
flight
flights
flint
flintstones
flip
flits
flitse
flood
floor
flora
floreer
florence
florentynse
florerende
flores
florian
florida
floris
flow
flower
flowering
flowers
floyd
flu
fluit
fluoor
fluweel
fly
flyer
flying
flynn
fm
fo
fobos
focus
fodor
fog
fokker
fokus
fokuspunt
foley
folio
folk
folklore
follies
follow
following
folly
fonda
fondament
fondamente
fonds
fondse
fonetiek
fonetiese
fontaine
fontana
fontein
fonteine
food
foods
fool
foolish
fools
foot
football
footsteps
for
forbes
forbidden
force
forcepia
forces
ford
fordsburg
foreign
forensiese
forest
forever
forget
forgot
forgotten
form
formaat
formasie
formasies
format
formate
formation
formeel
formele
former
formidabele
forms
formula
formule
formuleer
formulering
formules
forrest
forster
forsyth
fort
forte
fortress
fortuin
fortune
forty
forum
forward
fosfaat
fosfor
fossiel
fossielbrandstowwe
fossiele
fossil
fossils
foster
foto
fotograaf
fotografie
fotografiese
fotograwe
foton
fotone
fotos
fotosintese
foucault
fouche
found
foundation
foundations
founder
fountain
four
fourie
fourier
fourth
fout
foute
foutief
foutiewe
fowler
fox
fr
fra
fraates
frac
fragilis
fragment
fragmente
fragments
fraksie
frame
framed
framework
fran
franc
franca
france
frances
francesca
francesco
franche
franchise
francina
francis
francisco
franciscus
franciskus
franck
franco
francois
frank
franke
frankenstein
frankfort
frankfurt
frankfurter
frankie
frankies
frankiese
franklin
frankryk
frans
franschhoek
franse
fransman
franssprekende
franstalige
franz
frase
fraser
fraserburg
frases
frau
frauen
fre
freak
freaks
fred
freda
freddie
freddy
frederic
frederick
frederik
fredrik
free
freedom
freeman
fregat
freiburg
freie
freight
frekwensie
frekwensies
frelimo
fremantle
french
frequency
frere
fresh
freshwater
fresko
freud
freund
fri
friday
fried
frieda
friedman
friedrich
friend
friendly
friends
friendship
fries
friese
friesland
fright
frigie
frikkie
fringe
frisco
fristedt
frits
fritz
fro
frog
from
fromont
front
fronte
frontier
frontiers
frost
frozen
fru
fruit
frustrasie
fry
fryer
fs
fsa
ft
fu
fuchs
fuck
fuel
fuga
fugard
fugitive
full
fuller
fun
function
functional
fund
fundamental
fundamentals
fundamenteel
fundamentele
funeral
fungeer
fungi
fungus
funk
funksie
funksies
funksionaliteit
funksioneel
funksioneer
funksionele
funksionering
funniest
funny
furious
further
furtwa
fury
fusie
fusion
futurama
future
futures
fuzz
fw
fy
fyn
fynbos
fyner
fɔ
g
ga
gaan
gaande
gaandeweg
gaar
gaatjies
gable
gaboen
gabor
gaborone
gabrie
gabriel
gabriele
gabrielle
gade
gaelies
gaeliese
gag
gaia
gail
gaius
gal
gala
galactic
galactica
galaktiese
galaxies
galaxy
galba
gale
galerie
galery
galerye
galex
galilei
galileo
gallagher
gallant
galle
gallen
gallery
galli
gallia
gallie
galliese
gallimard
gallo
galloping
gama
gambie
gamble
gambler
game
games
gamesbids
gamete
gamka
gamma
gammastrale
gan
gandhi
ganesha
ganesja
gang
gange
ganges
gangster
gans
gansbaai
ganse
ganumedes
ganz
gao
gap
gaping
gapings
garage
garageband
garci
garcia
garde
garden
gardens
gardes
gardiner
gardner
gareth
garfield
garibaldi
garies
garland
garnale
garnisoen
garratt
garrett
garrison
garry
gars
garten
gary
gas
gasheer
gasheerstad
gasheerstede
gashere
gasse
gaste
gastehuis
gasteria
gaston
gat
gate
gates
gateway
gathering
gatsby
gaudi
gauge
gauguin
gauliga
gaulle
gaum
gautama
gauteng
gave
gavin
gawe
gawes
gawie
gawl
gay
gays
gazania
gazeta
gazette
gazetteer
gb
gc
ge
geaardheid
geabsorbeer
geadministreer
geaffekteer
geaffilieer
geag
geaktiveer
geallieerde
geallieerdes
geanimeerde
geanker
geannekseer
geantwoord
gear
gearbei
geargiveer
geargumenteer
gearresteer
gearriveer
geassosieer
geassosieerde
geb
gebaan
gebaar
gebak
gebalanseerde
gebare
gebaseer
gebaseerde
gebe
gebed
gebede
gebeeldsend
geberg
gebergte
gebesig
gebeur
gebeure
gebeurtenis
gebeurtenisse
gebid
gebied
gebiede
gebiedende
gebind
geblaas
geblokkeer
geblom
gebly
geblyk
geboe
geboer
geboikot
gebombardeer
gebonde
geboorte
geboortedatum
geboortedorp
geboorteland
geboorteplek
geboortes
geboortestad
gebore
geborg
gebots
gebou
geboude
geboue
gebraai
gebrand
gebreek
gebreekte
gebrek
gebreke
gebrekkige
gebring
gebroke
gebruik
gebruike
gebruiker
gebruikers
gebruiklik
gebruiklike
gebruikte
gebuig
gebuk
gebundel
gedaal
gedaan
gedaante
gedagte
gedagtes
gedans
gedateer
gedebatteer
gedeel
gedeelde
gedeelte
gedeeltelik
gedeeltelike
gedeeltes
gedefinieer
gedefinieerde
gedek
gedemonstreer
gedenk
gedenkalbum
gedenkboek
gedenkplaat
gedenksteen
gedenkteken
gedenkwaardighede
gedenkwaardigheid
gedeporteer
gedetailleerde
gediagnoseer
gedichten
gedien
gedig
gedigte
gedink
gedirigeer
gedoen
gedokumenteer
gedokumenteerde
gedompel
gedood
gedoop
gedoseer
gedra
gedraai
gedrag
gedreig
gedrink
gedroog
gedroogde
gedruk
gedrukte
gedryf
gedugte
gedui
geduld
gedurende
gedurig
gedurige
geduur
gedwing
gedwonge
gedy
gee
geel
geelbruin
geen
geeneen
geensins
geers
geert
gees
geesdrif
geesdriftig
geesdriftige
geest
geeste
geestelik
geestelike
geestelikes
geestesteurings
geesteswetenskaplike
geesteswetenskappe
geestige
gefa
gefaal
gefedereerde
gefinansier
gefloreer
gefokus
geformuleer
geforseer
gefotografeer
gefragmenteerde
gefungeer
gegaan
gegee
gegeld
gegen
gegenereer
gegewe
gegewens
gegiet
geglo
gegoede
gegooi
gegradueer
gegraveer
gegrawe
gegrens
gegroei
gegroepeer
gegrond
gegun
gehaal
gehad
gehalte
gehandel
gehandhaaf
gehang
gehanteer
geharde
gehardloop
geheel
geheers
geheet
gehef
geheg
geheim
geheime
geheimnis
geheimsinnige
gehele
gehelp
geheue
gehoop
gehoor
gehoorsaam
gehoorsaamheid
gehore
gehou
geht
gehuisves
gehul
gehuldig
gehuur
gehys
gei
geiger
geissorhiza
gejaag
gejag
gekanselleer
gekant
gekap
gekarakteriseer
gekategoriseer
gekeer
gekelder
geken
gekenmerk
gekerf
gekeur
gekies
gekla
geklassifiseer
geklee
gekleur
gekleurde
geklim
geklop
gekoester
gekoloniseer
gekom
gekombineer
gekombineerde
gekomponeer
gekonfedereerde
gekonfiskeer
gekonfronteer
gekonsentreer
gekonsentreerde
gekonsolideer
gekontrasteer
gekoo
gekook
gekookte
gekoop
gekopieer
gekoppel
gekos
gekose
gekrediteer
gekrimp
gekritiseer
gekroon
gekruis
gekry
gekwalifiseer
gekwalifiseerde
gekweek
gekyk
gel
gelaai
gelaaide
gelaat
gelag
geland
gelang
gelanseer
gelas
geld
geldeenhede
geldeenheid
geldelike
geldenhuys
gelderland
geldig
geldige
geldigheid
geldsake
gele
gelede
geledere
gelee
geleedpotiges
geleef
geleen
geleenthede
geleentheid
geleer
geleerde
geleerdes
geleerdheid
gelees
gelegitimeer
gelei
geleide
geleidelik
geleidelike
geleidingsvermoe
geleier
geleiers
gelerig
geletterdheid
gelewe
gelewer
geliebte
geliefde
geliefdes
gelig
geller
gelliodes
gelofte
gelok
gelokaliseerde
geloods
geloof
geloofsbelydenis
geloofwaardigheid
geloop
gelos
gelowe
gelowige
gelowiges
gelui
geluid
geluide
geluister
geluk
gelukkig
gelukkige
gely
gelyk
gelyke
gelykgestel
gelykheid
gelyknamige
gelykop
gelykopuitslag
gelyksang
gelykstaande
gelykstroom
gelyktydig
gelyktydige
gelys
gem
gemaak
gemaal
gemaalde
gemagtig
gemak
gemaklik
gemaklike
gemanipuleer
gemartel
gematig
gematigde
gematrikuleer
gemeen
gemeenskap
gemeenskaplik
gemeenskaplike
gemeenskappe
gemeente
gemeentegrense
gemeentelede
gemeentelike
gemeentes
gemeentevergadering
gemeet
gemeinden
gemeld
gemene
gemenebes
gemeng
gemengde
gemerk
gemiddeld
gemiddelde
gemigreer
gemik
gemini
gemis
gemoderniseer
gemodifiseerde
gemoed
gemoeid
gemonitor
gemonteer
gemotiveer
gemyn
gen
genaamd
genade
genadendal
genader
gender
gene
genealogie
genealogiese
genealogy
geneefse
geneem
genees
geneesheer
geneeshere
geneeskunde
geneeskundige
geneesmiddel
geneesmiddels
geneig
geneigdheid
genera
generaal
generaals
general
generale
generasie
generasies
generation
generations
genereer
generiese
genes
genesing
genesis
genetic
genetics
geneties
genetiese
genetika
geneva
geni
genie
geniet
genitale
genitief
genius
genl
genocide
genoeg
genoegsaam
genoegsame
genoem
genoemde
genome
genomineer
genommer
genommerde
genoodsaak
genooi
genoom
genoop
genoot
genootskap
genot
genoteer
genre
genres
genslin
gent
gentle
gentleman
gentlemen
gentry
genua
genus
genuttig
geo
geodia
geodiidae
geoes
geoff
geoffer
geoffrey
geofiet
geograaf
geografie
geografies
geografiese
geographic
geographical
geography
geoksideer
geoloe
geologic
geological
geologie
geologies
geologiese
geology
geoloog
geometrie
geometriese
geonames
geopen
geopenbaar
geophysical
geopper
georden
geordende
georg
georganiseer
georganiseerde
george
georges
georgetown
georgi
georgia
georgian
georgie
georgies
georgiese
georie
geotermiese
gepaard
gepaardgaan
gepaardgaande
gepak
gepantserde
gepas
gepaste
gepatenteer
gepers
geplaas
geplant
gepleeg
gepleit
gepluk
geplunder
gepomp
gepoog
gepraat
gepraktiseer
gepreek
geprikkel
geprobeer
geproduseer
geproklameer
gepromoveer
geprys
gepubliseer
gepubliseerde
gepunte
ger
geraadpleeg
geraak
geraam
geraamde
geraamte
geraamtes
geraas
gerald
geraldine
gerangskik
gerapporteer
gerard
gerber
gerbera
gerbic
gerd
gerdener
gereageer
gered
geredelik
geredeneer
geredigeer
gereduseer
geree
gereed
gereedskap
gereeld
gereelde
geref
gereformeerde
gereformeerdes
gereg
geregeer
geregisseer
geregistreer
geregistreerde
geregshof
geregte
geregtelike
geregtig
geregtigheid
gereguleer
geregverdig
gereis
gereken
gerekende
gerekonstrueer
gereserveer
gerespekteer
gerespekteerde
gerestoureer
gerhard
gerhardus
gericke
gerief
gerieflike
geriewe
gerig
gerigte
gering
geringe
germaans
germaanse
germain
german
germane
germania
germanicus
germany
germiston
germplasm
geroep
gerol
geronde
gerrie
gerrit
gerry
gert
gertrude
gerugte
geruil
geruime
geruk
gerus
gery
gesaai
gesag
gesaghebbende
gesamentlik
gesamentlike
gesang
gesange
gesant
gesante
geschichte
geschichten
geschiedenis
gese
gesee
gesegde
geseil
geselekteerde
gesellschaft
gesels
geselskap
geselstaal
gesentraliseerde
gesentreer
gesetel
gesien
gesiene
gesig
gesigte
gesimboliseer
gesin
gesinde
gesindheid
gesing
gesink
gesinne
gesintetiseer
gesit
geskaar
geskakel
geskat
geskatte
geskeduleer
geskeduleerde
geskei
geskend
geskenk
geskenke
geskep
geskets
geskeur
geskied
geskiedenis
geskiedkundige
geskiedkundiges
geskiedskrywer
geskiedskrywing
geskiet
geskik
geskikte
geskil
geskilder
geskille
geskoei
geskok
geskoolde
geskop
geskors
geskrap
geskree
geskrewe
geskrif
geskrifte
geskryf
geskrywe
geskud
geskuif
geslaag
geslaagd
geslaagde
geslaan
geslaap
geslag
geslagsdele
geslagsorgane
geslagte
gesleep
gesloop
geslote
gesluit
gesmee
gesmelt
gesmelte
gesneuwel
gesneuweldes
gesny
gesoek
gesofistikeerde
gesog
gesogte
gesond
gesonde
gesondheid
gesondheidsorg
gesondheidsprobleme
gesondheidsredes
gesorg
gespaar
gespan
gespanne
gespeel
gespekuleer
gespel
gespesialiseer
gespesialiseerde
gespesifiseer
gespikkelde
gespreek
gesprek
gesprekke
gespring
gesproke
gestaak
gestaan
gestaar
gestabiliseer
gestalte
gestandaardiseer
gestandaardiseerde
gestap
gestapo
gestasioneer
gesteek
gesteel
gesteelde
gesteente
gesteentes
gestel
gesteld
gestem
gesterf
gesteun
gestig
gestigte
gestileerde
gestimuleer
gestoor
gestoot
gestop
gestort
gestorwe
gestraf
gestrand
gestreef
gestreepte
gestrek
gestrem
gestremde
gestremdes
gestroom
gestroop
gestry
gestudeer
gestuit
gestuur
gestyg
gesubstantiveer
gesuiwer
gesuiwerde
gesukkel
gesweer
get
getal
getalle
getaway
geteel
geteiken
geteister
geteken
getel
gethyllis
getitel
getiteld
getoer
getoets
getoon
getoonset
getree
getref
getrek
getrou
getroud
getroude
getroue
getrouheid
gets
getting
getty
getuie
getuienis
getuies
getuig
gety
getye
geur
geure
gevaar
gevaarlik
gevaarlike
geval
gevalle
gevang
gevange
gevangene
gevangenes
gevangenis
gevangenisse
gevangenisstraf
gevangenskap
gevare
gevat
geveg
gevegte
geverf
geverfde
geverg
gevestig
gevestigde
gevier
gevierde
gevind
gevlekte
gevlieg
gevloei
gevlug
gevoed
gevoeg
gevoel
gevoelens
gevoelig
gevoelige
gevoer
gevolg
gevolge
gevolglik
gevolglike
gevolgtrekking
gevolgtrekkings
gevonnis
gevorder
gevorderde
gevorm
gevormde
gevou
gevra
gevrees
gevreesde
gevreet
gevries
gevul
gevurk
gevuur
gewaag
gewaagde
gewaai
gewaar
gewaarborg
gewaardeer
gewaarsku
gewag
gewapen
gewapende
gewas
gewasse
gewasverbouing
geweeg
geweer
gewees
geweet
gewei
geweier
gewek
gewel
geweld
gewelddadig
gewelddadige
geweldig
geweldige
gewels
gewen
gewend
gewenste
gewentel
gewere
gewerf
gewerk
gewerp
gewerwelde
gewerweldes
gewes
gewese
geweste
gewete
gewig
gewigte
gewikkel
gewild
gewilde
gewilder
gewildheid
gewildste
gewillig
gewin
gewissel
gewoed
gewond
gewonde
gewondes
gewone
gewoon
gewoond
gewoonlik
gewoonte
gewoontes
geword
gewortel
gewrig
gewrigte
gewy
gewyde
gewys
gewysig
gewysigde
geyer
gezelle
gezina
gg
gh
ghana
gheorghiu
ghetto
ghieliemientjie
gholf
gholfbaan
ghost
ghostbusters
ghosts
gi
giacomo
gian
giant
giants
gibbon
gibbons
gibbs
gibeon
gibraltar
gibson
gideon
gids
gie
giet
gif
gifstowwe
gift
gifted
giftig
giftige
gigi
gij
gil
gilbert
gilde
gilded
gildes
giles
giliomee
gill
gilles
gillespie
gillian
gillis
gilmore
gimnasium
gimnastiek
gina
ginger
gini
gion
giorgio
giovanni
gips
girl
girlfriend
girlfriends
girls
girolamo
giroux
gis
gister
giulia
giuliano
giulio
giuseppe
give
given
gives
giving
giyani
giza
gj
gk
gksa
gl
glad
gladde
gladiator
gladiolus
gladstone
gladys
glamour
glans
glas
glasby
glasgow
glasiale
glass
glassponse
gle
gleason
glee
glen
glencoe
glenda
glenn
gletser
gletsers
gliederungen
gliese
glimlag
glo
global
globale
globalisering
globe
globes
globular
gloria
glorie
glorious
glory
glossary
gloucester
glover
glu
glukose
gly
gm
gmbh
gnome
gnoreer
gnostiese
gnostisisme
gnu
go
goa
goal
goat
gobabis
god
goddard
goddelike
goddess
gode
godfather
godfrey
godfried
godhede
godheid
godin
godinne
godoenof
gods
godsdiens
godsdienste
godsdienstig
godsdienstige
godwin
godzilla
goed
goede
goedere
goedgekeur
goedgekeurde
goedgesind
goedheid
goedkeur
goedkeuring
goedkoop
goedkoper
goeie
goelag
goes
goethe
goewerneur
goewerneurs
gogh
going
gold
goldberg
goldblatt
golden
goldene
goldenglobes
goldie
goldman
goldstein
golf
golflengte
golflengtes
goliath
golwe
golwende
gom
gomez
gondwana
gone
goniwe
gonna
gonza
gonzaga
good
goodall
goodbye
goodman
goodnight
goods
goodwin
goodwood
goodyear
google
gooi
goop
goose
goosen
gorbatsjof
gordel
gordels
gordon
gordonsbaai
gordyne
gore
gorgeous
gorilla
gorillas
gorter
gospel
gossip
gost
got
gote
gotenburg
gotha
gotham
gothic
goties
gotiese
gott
gotta
gottfried
gottlieb
gottlob
gou
goud
gouda
gouden
goudkus
goudland
goudmyn
goudmyne
goudstad
goudstormloop
goudvelde
goue
gould
gouws
gov
governance
government
governor
govt
goya
gp
gps
gqeberha
gr
gra
graad
graaf
graaff
graafskap
graafskappe
graag
graal
graan
grabovoi
grace
gracie
gracilis
grade
gradering
gradstein
graduate
gradueer
grady
graeme
graf
graffiti
grafiek
grafieke
grafiese
grafiet
grafkelder
grafkelders
grafsteen
grafte
graftombe
graham
grahamstad
gram
grammar
grammatika
grammatikale
grammophon
grammy
gramophone
gran
granaat
granada
grand
grande
grandma
grandpa
grands
grange
graniet
grant
grantessa
grantia
grantiidae
grap
grapes
gras
grass
grasse
grasveld
grasvelde
grasvlaktes
gratis
grave
graves
gravin
gravity
grawe
gray
graz
gre
grease
great
greater
greatest
greece
greed
greeff
greek
greeks
green
greenberg
greene
greenhouse
greenwich
greenwood
greep
greg
gregor
gregoriaanse
gregorio
gregorius
gregory
grenada
grenoble
grens
grense
grensgebied
grenslyn
grensoorloe
grensoorlog
grenspos
grensposte
grepe
greta
gretel
gretig
grey
greyling
greytown
gri
grieg
grieke
griekeland
grieks
griekse
griekwa
griekwaland
griekwas
griekwastad
griep
grietjie
griewe
griffin
griffith
griffiths
grigori
grim
grimm
grin
grit
gro
grobbelaar
grobler
groblersdal
groei
groeiende
groeikoers
groen
groenewald
groenland
groenpunt
groente
groentes
groep
groepe
groepeer
groepering
groeperings
groepfase
groepie
groepies
groepnaam
groepsgebiedewet
groet
groewe
grof
grond
grondbeginsels
grondbesit
gronde
grondeienaars
grondgebied
grondige
grondlegger
grondpad
grondslag
grondstof
grondstowwe
grondvlak
grondwater
grondwet
grondwetlike
groningen
groot
groote
grootfontein
grootgemaak
grootgeword
grootheid
groothertog
groothertogdom
groothertogin
grootliks
grootmaak
grootmeester
grootouers
grootpad
grootprins
grootrivier
grootse
grootskaalse
grootste
grootstes
grootte
groottes
grootvader
grootword
groove
gross
grosse
grosskopf
grot
grote
grotendeels
groter
grotius
grotte
ground
group
groups
grove
groves
grow
growing
grown
growth
growwe
große
großen
gru
gruis
grumman
gruyter
gryp
grys
grysbruin
gs
gt
gu
guam
guangdong
guangzhou
guard
guardian
guardians
guarneri
guatemala
guderian
gue
guernsey
guerra
guerre
guerrilla
guess
guest
guevara
guez
guidance
guide
guidelines
guides
guiding
guido
guild
guillaume
guillermo
guilty
guinea
guinee
guinese
guinness
guitar
gulag
gulden
gulf
gun
gunn
guns
gunsmoke
gunste
gunsteling
gunstelinge
gunstig
gunstige
gunter
gunther
gupta
guru
gus
gustaf
gustav
gustave
gut
gutenberg
guthrie
guy
guyana
guys
gwelo
gwen
gwyneth
gymnosporia
gymnothorax
gyo
gypsy
gys
gysbert
gyselaar
gyselaars
gɔ
h
ha
haag
haai
haaie
haak
haal
haan
haar
haarhoff
haarlem
haarself
haas
haastig
haat
habagatang
habana
haber
habermas
habit
habitable
habitat
habitats
habitatte
habits
habsburg
habsburgse
hacker
hackett
had
hades
hadid
hadit
hadj
hadrianus
hadsund
haeckel
hael
haemanthus
hagar
hagen
hager
haglike
hahn
hai
haifa
hail
haile
hair
hairspray
haiti
hajdu
hajj
haka
hakea
hakies
hal
hale
half
halfbroer
halfeeu
halfeindronde
halfeindrondte
halfeindstryd
halfeindstryde
halfgeleier
halfleeftyd
halfmaan
halfmiljoen
halfpad
halfrond
halfsuster
halfuur
halichondria
halichondriidae
haliclona
halifax
halisarca
hall
halle
halley
halliday
hallo
halloween
hallows
hallusinasies
halo
hals
halwe
ham
hamacantha
hambidge
hamburg
hamburger
hamer
hamersma
hamilton
hamlet
hammer
hammond
hampshire
hampton
han
hancock
hand
handbal
handboek
handboeke
handbook
hande
handel
handelaar
handelaars
handeling
handelinge
handels
handelsbande
handelsbetrekkinge
handelsblad
handelsentrum
handelskepe
handelsmerk
handelsmerke
handelsnaam
handelspos
handelsposte
handelsroete
handelsroetes
handgeskrewe
handhaaf
handhawing
handjievol
handle
handleiding
hands
handskoene
handskrif
handtekening
handves
handwoordeboek
hanekom
hang
hange
hangende
hanging
hangover
hani
hank
hanlie
hanna
hannah
hannes
hannibal
hannover
hanoi
hanover
hans
hanse
hansen
hansie
hantam
hanteer
hantering
haploi
happen
happened
happening
happens
happiness
happy
har
hara
harald
haram
harappa
harare
harari
harbor
harbour
harcourt
hard
hardcore
harde
hardeband
harder
hardeskyf
hardeware
hardheid
harding
hardloop
hardy
hare
harem
harige
harland
harlem
harlow
harm
harmonie
harmoniese
harmony
harnoncourt
harold
harp
harper
harpercollins
harrassowitz
harriet
harrington
harris
harrismith
harrison
harry
hars
hart
hartaanval
harte
hartjie
hartklop
hartland
hartley
hartlik
hartlike
hartman
hartmann
hartseer
hartversaking
harv
harvard
harvest
harvey
has
hasa
hasan
hase
hassan
hastings
hat
hatch
hate
hatfield
hattingh
haum
haunted
haunting
hauptfleisch
haus
hausa
haut
haute
havana
have
havel
haven
havenga
havilland
having
havre
haw
hawai
hawaii
hawaiian
hawaise
hawe
hawens
hawestad
hawk
hawker
hawking
hawkins
hawks
hawley
haworthia
haworthiopsis
hawthorne
hay
hayden
haydn
hayes
haynes
hayward
hazard
hazel
hbo
hc
hcl
hd
hdl
he
head
headlines
headquarters
heads
healing
health
hear
heard
heart
heartbeat
heartbreak
heartland
hearts
heat
heath
heather
heaven
heavenly
heavy
heb
hebben
hebree
hebreeus
hebreeuse
hebrew
hebride
hebron
hector
hede
hedendaagse
hedwig
heeft
heel
heelal
heelers
heelgetal
heelgetalle
heelparty
heels
heeltemal
heeltyd
heelwat
heemstra
heen
heengaan
heenkome
heer
heerden
heere
heeren
heerlike
heers
heersende
heerser
heersers
heerskappy
heese
heet
heever
hef
hefboom
heffings
heft
heftig
heftige
heg
hegel
hegte
hegtenis
heide
heidegger
heidelberg
heidelbergse
heidene
heidense
heidi
heights
heil
heilbron
heilig
heiligdom
heilige
heiliges
heiligheid
heiligste
heimat
hein
heine
heinemann
heining
heinrich
heinz
heist
hek
hekke
heks
hekse
heksery
heksie
hektaar
hektor
hel
held
helde
helder
helderberg
helderder
helderheid
helderrooi
helderste
heldesaal
heldin
hele
helen
helena
helene
helfte
helftes
helikopter
helikopters
helios
helium
hell
hellenistiese
heller
helling
hellings
hello
helm
helms
helmteken
helmut
help
helpmekaar
helsinki
helter
hem
hemde
hemel
hemelliggaam
hemelliggame
hemelruim
hemelse
hemingway
hemofilie
hemp
hen
henderson
hendricks
hendrik
hendrina
hengel
henk
henley
hennenman
hennie
henning
henog
henri
henrie
henrietta
henriette
henrik
henry
henschel
hentschel
hepatitis
hepburn
her
hera
herakleitos
herakles
herald
heraldiek
heraldiese
heraldry
herbarium
herbegrawe
herberg
herbert
herbie
herbivore
herbou
herbst
hercules
herdenk
herdenking
herder
herders
herdoop
herdruk
here
herehuis
herehuise
herenig
hereniging
herero
herfs
hergeboorte
hergebruik
herhaal
herhaalde
herhaaldelik
herhalende
herhaling
herinner
herinnering
herinneringe
heritage
herken
herkenbaar
herkenbare
herkies
herkoms
herleef
herlei
herlewing
herman
hermann
hermans
hermanus
hermes
hermien
herna
hernandez
hernieude
hernoem
hernu
hernubare
hero
herodes
herodotos
herodotus
heroes
heroi
herold
herontdek
herontwerp
heropbou
heropen
herorganiseer
herower
herpes
herpesvirus
herr
herrn
herroep
hers
herschel
hersien
hersiene
hersiening
herskep
herskryf
herstel
herstelwerk
herstig
herstrukturering
hertoe
hertog
hertogdom
hertogdomme
hertogenbosch
hertogin
hertz
hertzog
hertzogprys
hertzsprung
heruitgegee
heruitgereik
heruitreiking
herv
hervat
herverkies
hervestig
hervorm
hervormde
hervormer
hervorming
hervormings
herwin
herwinning
herz
herzegowina
herzog
hesiodus
hesperantha
hess
hesse
hessen
hester
het
heteroseksuele
hetiete
hetitiese
hetsy
hettie
heuning
heup
heupe
heute
heuwel
heuwelagtige
heuwels
hewig
hewige
hewitt
hewlett
hex
hexactinellida
hexrivierberge
hey
heyns
hi
hibried
hibriede
hicks
hidden
hide
hiding
hidroe
hidrostatiese
hidrouliese
hie
hiemstra
hier
hieraan
hierarchy
hierbo
hierby
hierdeur
hierdie
hierheen
hierin
hiermee
hierna
hiernamaals
hieronder
hieroor
hierop
hiertoe
hieruit
hiervan
hiervandaan
hiervolgens
hiervoor
higgins
higginsia
high
higham
higher
highest
highland
highlander
highlanders
highlands
highlights
highway
higie
hij
hilary
hilda
hill
hillary
hillbrow
hills
hilton
hilversum
him
himalaja
himmel
himself
hindemith
hindernis
hindernisse
hindi
hindoe
hindoei
hindoes
hindu
hinduism
hip
hipotese
hipoteses
hipotetiese
hipparcos
hippo
hippocampus
hippospongia
hiragana
hiram
hire
hiroshi
hiroshima
hirsuta
his
hist
histoire
historia
historian
historic
historical
historici
historie
histories
historiese
historikus
historique
historisch
historische
history
hit
hitch
hitchcock
hitchhiker
hitler
hits
hitte
hiv
hl
hlabisa
hle
hler
hm
hms
hn
hne
hnp
ho
hobbit
hobhouse
hobo
hoboken
hobson
hoc
hochschule
hochzeit
hockey
hodder
hoe
hoed
hoedanigheid
hoede
hoef
hoegenaamd
hoek
hoeke
hoekom
hoeksteen
hoeksteenlegging
hoender
hoenders
hoes
hoeveel
hoeveelhede
hoeveelheid
hoewe
hoewel
hof
hoff
hoffman
hoffmann
hofmann
hofmeyr
hofsaak
hofsake
hogan
hohenzollern
hok
hokkaido
hokkie
hol
hold
holden
holding
holdings
hole
holes
holiday
holidays
holland
hollandberge
hollander
hollanders
hollands
hollandsch
hollandse
hollow
holloway
holly
hollyoaks
hollywood
holm
holmes
holocaust
holoseen
holst
holstein
holt
holte
holtes
holy
hom
home
homecoming
homeland
homepage
homer
homeriese
homeros
homes
homicide
homme
homo
homofobie
homogene
homoseksualiteit
homoseksueel
homoseksuele
homosexuality
homself
hond
honda
honde
honderd
honderdduisende
honderde
honderdjarige
honderdtal
honduras
honey
honeymoon
hong
hongaars
hongaarse
hongare
hongarye
honger
hongersnood
hongkong
honiball
honneur
honneurs
honneursgraad
honolulu
honor
honorary
honore
honoris
honorius
honors
honour
hons
hood
hoof
hoofafrigter
hoofartikel
hoofbestuur
hoofbestuurder
hoofbron
hoofde
hoofdirigent
hoofdoel
hoofdorp
hoofeiland
hoofgebou
hoofgroepe
hoofingang
hoofkantoor
hoofkarakter
hoofkarakters
hoofkwartier
hoofkwartiere
hoofletter
hoofletters
hoofman
hoofmanne
hoofpad
hoofplek
hoofplekke
hoofpyn
hoofred
hoofredakteur
hoofreeks
hoofreeksster
hoofreekssterre
hoofregter
hoofrol
hoofrolle
hoofsaaklik
hoofsanger
hoofse
hoofstad
hoofstede
hoofstraat
hoofstroom
hoofstuk
hoofstukke
hooft
hooftema
hoofvakke
hoofweg
hoog
hoogduits
hoogduitse
hoogenhout
hooggeregshof
hoogheid
hoogland
hooglande
hoogleraar
hooglied
hoogs
hoogstaande
hoogste
hoogstens
hoogte
hoogtepunt
hoogtepunte
hoogtes
hoogverraad
hook
hooker
hoop
hooper
hoopstad
hoor
hoorn
hoort
hoover
hop
hope
hopefield
hopes
hopetown
hopkins
hopper
horace
horde
hore
horing
horings
horison
horisontaal
horisontale
horizon
horizons
horlosie
horlosies
hormone
hormoon
horn
horne
hornet
horowitz
horrible
horror
horrors
horse
horseman
horses
horst
horus
hoshino
hospitaal
hospital
hospitale
host
hostage
hosts
hot
hotel
hotelle
hottentot
hottentots
hottentotte
hottest
hou
houding
houdings
houer
houers
hough
houghton
hound
hour
hours
house
household
houses
housewives
housing
houston
hout
houtagtige
houtbaai
houtskool
houvas
how
howard
howe
howell
hoya
hozawa
hp
hr
hrer
hrsg
hrung
ht
htm
html
http
https
hu
hua
huang
hub
hubbard
hubble
huber
hubert
huckleberry
hudson
huffington
huge
hugenote
hugh
hughes
hugo
hui
huid
huide
huidig
huidige
huil
huis
huisarres
huisbesoek
huise
huisgenoot
huisgesin
huisgesinne
huishoudelike
huishouding
huishoudings
huisie
huislike
huisplante
huistaal
huisves
huisvesting
huisvrou
huiwerig
hul
hulde
huldeblyk
huldig
hulk
hull
hulle
hulleself
hulp
hulpbron
hulpbronne
hulpmiddel
hulpmiddels
hulpprediker
hulpwerkwoord
hulself
human
humanis
humanisme
humanistiese
humanite
humanities
humanity
humans
humansdorp
humboldt
hume
humiditeit
humor
humoristiese
humorsin
humpata
humphrey
hun
hunchback
hund
hundred
hung
hungarian
hungary
hunger
hungry
hunne
hunt
hunted
hunter
hunters
hunting
huntington
hupstoot
hur
hurricane
hurricanes
hurst
hurt
husband
husbands
hush
hussein
husserl
hustle
hut
hutch
hutchinson
hutte
hutton
huur
huurders
huursoldate
huwelik
huwelike
huxley
huygens
huyssteen
hy
hyalonema
hyalonematidae
hyatt
hyde
hydrogen
hyman
hymedesmia
hymedesmiidae
hymenancora
hymeniacidon
hyperion
hys
hysbak
hyself
hyundai
hz
hɔ
i
ia
iaaf
ian
iana
iata
iau
ib
iberie
iberiese
ibm
ibn
ibrahim
ibsen
ic
icao
icar
icarus
icc
icd
ice
iceland
ich
icloud
icon
id
ida
idaho
idea
ideaal
ideal
ideale
idealisme
idealistiese
ideas
idee
idees
identies
identiese
identification
identifikasie
identifiseer
identifisering
identiteit
identities
identity
ideologie
ideologiee
ideologiese
ideology
idioom
idiot
idol
idols
ie
iedereen
ieee
iemand
ien
iere
ierland
iers
ierse
iets
ietwat
iewers
if
ifa
ifrs
ignatius
ignoreer
igor
ihr
ihre
ii
iii
ij
ijima
ik
ike
ikea
ikko
ikone
ikoniese
ikonografie
ikoon
ikr
il
ili
ilias
ilife
ill
illegal
illinois
illusie
illusion
illustrasie
illustrasies
illustrated
illustreer
illustreerder
ilse
im
ima
image
images
imaginary
imagination
imagine
imaging
imam
imdb
imf
imitation
immanuel
immelman
immer
immergroen
immers
immigrant
immigrante
immigrasie
immigration
immortal
immuniteit
immuunstelsel
imovie
impact
impacts
impak
imperial
imperiale
imperialisme
implementeer
implementering
implications
implikasie
implikasies
impliseer
importance
important
impossible
impressionisme
impressionistiese
improv
improvisasie
impuls
impulse
in
ina
inagneming
inbegrip
inbeweeg
inboorlinge
inc
incident
including
income
incorporated
incredible
incrustans
ind
indeks
indeling
independence
independent
inderdaad
indertyd
index
india
indiaanse
indian
indiana
indianapolis
indiane
indians
indica
indie
indien
indiensneming
indies
indiese
indig
indigenous
indiging
indigo
indirek
indirekte
individu
individual
individue
individueel
individuele
indiwidu
indiwidue
indiwiduele
indo
indonesia
indonesie
indonesies
indonesiese
indringende
indringerplant
indringerplante
indruk
indrukke
indrukwekkend
indrukwekkende
induksie
indus
industrial
industrialisasie
industrialisering
industrie
industriee
industries
industry
indwe
ine
ineengestort
ineenstort
ineenstorting
inenting
infanterie
infection
infectious
infeksie
infeksies
inferno
infinite
infinity
inflammatoriese
inflasie
influence
info
infobase
informasie
information
informeel
informele
infrared
infrarooi
infrastruktuur
ing
ingang
ingange
inge
ingebou
ingeboude
ingebring
ingebruikneming
ingedeel
ingedien
ingehou
ingehuldig
ingelei
ingelig
ingelui
ingelyf
ingeneem
ingenieur
ingenieurs
ingenieurswese
ingepalm
ingeperk
ingereken
ingerig
ingeroep
ingesamel
ingeskakel
ingeskryf
ingeslaan
ingesluit
ingesluk
ingespan
ingespuit
ingestel
ingesteldheid
ingestem
ingestuur
ingesweer
ingetree
ingetrek
ingeval
ingevoeg
ingevoer
ingevoerde
ingevolge
ingewande
ingewikkeld
ingewikkelde
ingewikkelder
ingewillig
ingewy
ingrid
ingrypend
ingrypende
ingryping
inheems
inheemse
inhegtenisneming
inherent
inherente
inheritance
inhou
inhoud
inhuldiging
inisiatief
inisiatiewe
initial
initiative
ink
inka
inkatha
inkomende
inkomste
inkorporeer
inkwisisie
inlaat
inland
inleiding
inligting
inligtingstegnologie
inlywing
inmeng
inmenging
inn
inname
inneem
inner
innerlike
innes
innige
innocence
innocent
innocentius
innovasie
innovasies
innovation
innoverende
innsbruck
inorganic
inpas
inperking
inquirer
inquiry
inrigting
inrigtings
ins
insake
insamel
insameling
insek
insekte
insel
inset
insette
inside
insident
insider
insig
insiggewende
insight
insights
insigte
insinking
inskripsie
inskripsies
inskryf
inskrywing
inskrywings
inslag
insluit
insluitend
insluitende
insluiting
inspan
inspanning
inspector
inspekteur
inspirasie
inspiration
inspireer
inspuiting
instagram
installasie
installasies
installeer
instandhouding
instansie
instansies
instel
instelling
instellings
instinct
institusionele
institut
institute
institutes
institution
institutionellen
instituto
instituut
instruksies
instrument
instrumentaal
instrumentale
instrumente
instrumenteel
instrumentele
instruments
insulien
int
integrale
integrasie
integrated
integreer
integriteit
intekening
intel
intellectual
intellek
intellektueel
intellektuele
intellektueles
intelligence
intelligensie
intelligensiediens
intelligent
intelligente
intens
intense
intensief
intensiewe
intensiteit
intent
inter
interaction
interactive
interaksie
interaksies
interaktiewe
interessant
interessante
interest
interface
interieur
interim
interior
interkontinentale
intermedia
intermedie
intern
internal
internasionaal
internasionale
international
internationale
internationals
interne
internet
internettopvlakdomein
internettopvlakdomeine
interpersoonlike
interpretasie
interpretasies
interpretation
interpreteer
interseks
intersex
interstellar
interstelle
interval
intervalle
intervention
interview
interviews
intieme
intimate
into
intree
intreepreek
intreerede
intrek
intrige
intrigue
intrinsieke
introducing
introduction
intruder
intui
intussen
inui
invaders
inval
invalid
invalle
invallende
invallers
invasion
invention
inversie
invertebrates
investigation
investment
invincible
invisible
invitation
invloed
invloede
invloedryk
invloedryke
invloedrykste
invloedsfeer
invloei
invoer
invoere
invoering
inwendige
inwerk
inwonende
inwoner
inwoners
inwonertal
inwoonster
inwyding
io
ioc
iok
iol
ione
ioniese
ionisasie
ioon
iophon
ios
iowa
ip
ipa
ipad
ipcc
iphone
ipni
ipod
ir
ira
irak
irakse
iran
iranian
iranica
irannese
iranse
iraq
iras
irb
ircinia
irciniidae
ireland
irene
irina
iris
irish
irkoetsk
irl
irma
iron
ironie
ironies
ironiese
irr
irvine
irving
irwin
is
isa
isaac
isabel
isabella
isabelle
isak
isbn
isi
isis
isla
islam
islamic
islamitiese
island
islands
isle
isles
ismael
ismail
isn
iso
isodictya
isolasie
isoleer
isomere
isotoop
isotope
israel
israeli
israeliese
israeliete
israelse
issn
issue
issues
ist
istanboel
istanbul
it
italia
italiaans
italiaanse
italian
italiana
italianers
italie
italiese
italy
item
items
ithaca
itis
its
itsrugby
itu
itunes
itv
iubn
iucn
iupac
ius
iv
ivan
ivar
ives
ivoor
ivoorkus
ivory
ivy
iwan
iwork
ix
ixia
iyasu
iz
izak
j
ja
jaag
jaap
jaar
jaarboek
jaargang
jaarliks
jaarlikse
jaarsv
jaarsveld
jaartelling
jaarverslag
jac
jacana
jacek
jack
jacket
jackie
jackson
jaco
jacob
jacoba
jacobs
jacobsdal
jacobsen
jacobson
jacobus
jacq
jacqueline
jacques
jade
jaeff
jaer
jaers
jag
jagd
jager
jagersfontein
jagluiperd
jagter
jagters
jagtogte
jaguar
jahn
jahre
jail
jak
jake
jakkals
jakkalse
jakob
jakobus
jaloers
jaloesie
jam
jama
jamaica
jamaika
jamal
james
jameson
jamestown
jamie
jammer
jan
jana
jane
janeiro
janet
jang
janice
jannie
janse
jansen
jansenville
janssen
janssens
januar
januari
januarie
january
janus
janussen
japan
japanese
japannees
japanners
japannese
japanse
japie
jar
jare
jared
jarelange
jaren
jarige
jaroslaf
jarrett
jas
jason
jasper
jaspis
java
javaanse
javier
jaws
jay
jayavarman
jazeera
jazz
jc
jd
je
jean
jeanette
jeanne
jeannie
jedi
jeens
jeff
jefferson
jeffrey
jeffreysbaai
jekaterinburg
jekyll
jeltsin
jemen
jen
jena
jenkin
jenkins
jenna
jennifer
jenny
jens
jensen
jeppe
jeppestown
jeremia
jeremy
jerewan
jericho
jerome
jerry
jersey
jerusalem
jesaja
jess
jesse
jessica
jessie
jesu
jesui
jesus
jet
jetstar
jeu
jeug
jeugboeke
jeugdige
jeugdiges
jeugherinneringe
jeugjare
jeuglektuur
jeugliga
jeugverhale
jewel
jewish
jewitt
jews
jg
ji
jia
jiang
jiddisj
jie
jigme
jij
jill
jim
jimmy
jin
jj
jm
jo
joa
joachim
joan
joanhambidge
joanna
joanne
job
jobs
jode
jodium
joe
joego
joel
joeri
joernaal
joernale
joernalis
joernaliste
joernalistiek
joernalistieke
joey
joga
johan
johann
johanna
johannes
johannesburg
johannesburgse
john
johnny
johns
johnson
johnston
join
joins
joint
joke
jom
jon
jona
jonah
jonas
jonathan
jones
jong
jonge
jonger
jongere
jongh
jongmense
jongs
jongspan
jongste
jonk
jonker
jonny
jood
joods
joodse
joost
jooste
jopie
jordaan
jordan
jordanie
jorge
joris
jos
jose
josef
joseph
josephine
josephus
josh
joshua
josua
jou
joubert
joule
jour
journal
journalism
journalist
journals
journey
journeys
jouself
jovi
joy
joyce
jozef
jozini
jozua
jp
jpl
jr
js
jse
jsp
jstor
ju
juan
juanita
jubilee
jubileum
juda
judai
judas
judd
judea
judge
judgment
judith
judo
judy
juffrou
jugend
juilliard
juis
juiste
juk
jul
jules
juli
julia
juliaanse
julian
juliana
julie
julien
juliet
juliette
julio
julius
julle
july
jump
jun
junction
june
jung
junge
jungle
juni
junie
junior
juno
junta
jupiter
jura
jurassic
jure
jurie
juris
jurisdiksie
jury
just
justice
justicia
justified
justin
justine
justinianus
justisie
justus
juta
jutland
jutlandstreek
juwele
juweliersware
jy
jɑ
jɔ
jə
jɛ
jɪ
jɯ
k
ka
kaa
kaak
kaal
kaap
kaapkolonie
kaapland
kaaplandse
kaapprovinsie
kaaps
kaapse
kaapstad
kaapstadse
kaart
kaarte
kaartjies
kaas
kabaret
kabel
kabeljou
kabels
kabinet
kabinetsminister
kadmium
kafee
kafka
kahn
kai
kain
kainosoi
kaiser
kajuit
kakamas
kakao
kake
kakebeen
kakkerlak
kal
kalahari
kalanchoe
kaledonie
kalender
kalenders
kaler
kalf
kali
kaliber
kalief
kalifaat
kalifornie
kaliforniese
kaliningrad
kalium
kalk
kalkbaai
kalksponse
kalksteen
kallenbach
kalm
kalsium
kalsiumkarbonaat
kam
kambodja
kambrium
kameel
kameelperd
kameelperde
kamele
kamer
kamera
kameras
kamermusiek
kameroen
kamerorkes
kamers
kamertemperatuur
kamiesberg
kamp
kampe
kampen
kampf
kampioen
kampioene
kampioenetrofee
kampioenskap
kampioenskappe
kampioenskapseisoen
kampioentrofee
kampus
kampvegter
kamtsjatka
kan
kanaa
kanaal
kanada
kanadese
kanale
kanariese
kandidaat
kandidate
kandinsky
kane
kaneel
kang
kanker
kann
kanna
kannemeyer
kannibalisme
kano
kanon
kanonieke
kanonne
kans
kansas
kanse
kansel
kanselier
kant
kantate
kante
kantelberg
kanton
kantons
kantoor
kantore
kap
kapasiteit
kapel
kapelaan
kapelle
kapitaal
kapitalisme
kapitalistiese
kaplan
kapp
kappa
kappadosie
kappie
kapsule
kapt
kaptein
kapteins
kar
kara
karaat
karabach
karajan
karakter
karakterisering
karakteristieke
karakters
karas
karate
karboon
kardinaal
kardinale
karel
karen
karenina
karibies
karibiese
karin
karl
karla
karloekse
karma
karnaval
karnivore
karolingiese
karoo
karpate
karpis
karre
kartago
kas
kasakstan
kasjmir
kasjoebies
kaspiese
kassel
kassier
kaste
kasteel
kastele
kastilie
kat
katagtiges
katalaans
katalaanse
katalisator
katalisators
katalogus
katalogusse
katalonie
katar
kate
katedraal
katedrale
kategismus
kategorie
kategoriee
kathare
katharina
katharine
katherine
kathleen
kathryn
kathy
katie
katinka
katkisasie
katmandoe
katode
katoen
katoliek
katolieke
katolisisme
katras
katrasse
katrina
katte
katy
katz
kaufman
kaufmann
kaukasiese
kaukasus
kaunas
kaunda
kavallerie
kay
kaye
kazakhstan
kazan
kb
kc
ke
kea
keaton
keats
kee
keel
keep
keeper
keepers
keeping
keeps
keer
keerpunt
kees
keet
keetmanshoop
kei
kein
keine
keirivier
keiser
keiserin
keiserlike
keiserryk
keisers
keith
kelder
kelk
keller
kelly
kelte
kelties
keltiese
kelvin
kemp
kempff
kempton
kemptonpark
ken
kendall
kenhardt
kenia
keniaanse
kenmerk
kenmerke
kenmerkend
kenmerkende
kenne
kennedy
kenner
kenners
kenneth
kennis
kennisgewing
kennismaking
kenny
kensington
kent
kenteken
kentucky
kenya
kepler
ker
keramiek
kere
kerf
kerk
kerkblad
kerkbode
kerkbou
kerkdienste
kerke
kerkgangers
kerkgebou
kerkgeboue
kerkgeskiedenis
kerkhof
kerkie
kerkkas
kerklatyn
kerklike
kerkorde
kerkorrel
kerkplein
kerkraad
kerkraadslede
kerkraadsnotule
kerkraadsvergadering
kerkraadsvergaderings
kerkrade
kerksaal
kerkslawies
kerkstraat
kerktoring
kerkverband
kerkvergadering
kern
kernaangedrewe
kerne
kerneels
kernensiklopedie
kernfusie
kernkrag
kerns
kernwapens
kerr
kerry
kers
kersdag
kerse
kersfees
kershaw
kerstening
kestell
ketel
kettery
ketting
kettings
keulen
keur
keurspan
keurspanne
keurvors
keuse
keuses
kevin
kew
kewer
kewers
key
keys
kg
kgb
kgv
kh
khama
khan
khanaat
khashoggi
khmer
khoi
khoikhoi
khoisan
khz
ki
kia
kick
kid
kidd
kidnapped
kids
kie
kiel
kiem
kies
kiesafdeling
kiesafdelings
kieschnick
kiesel
kieselnaalde
kiesers
kieserslys
kieue
kiev
kijif
kildare
kill
killed
killer
killers
killing
kills
kilogram
kilometer
kilometers
kim
kimberley
kimberly
kimi
kin
kind
kinder
kinderboek
kinderboeke
kinderen
kinderensiklopedie
kinderhuis
kinderjare
kinderloos
kinders
kinderverhale
kindle
kinematograaf
kinetiese
king
kingdom
kingdoms
kings
kingston
kino
kinsey
kipling
kirby
kirche
kirchenlexikon
kirchner
kirgisie
kiribati
kirill
kirk
kirkpatrick
kirsch
kirsten
kirstenbosch
kis
kiss
kisses
kissing
kissinger
kiste
kit
kitaar
kitaarspeler
kitchen
kitchener
kitts
kitty
kj
kknk
kla
klaar
klaarblyklik
klaas
klade
klag
klagte
klagtes
klam
klank
klankbaan
klanke
klant
klante
klap
klara
klarinet
klas
klaskamer
klaskamers
klasse
klassiek
klassieke
klassifikasie
klassifiseer
klassifisering
klassis
klassisisme
klassisistiese
klatt
klaus
klautau
klavier
klavierconcerto
klavierconcertos
klaviere
klavierkonsert
klaviersonate
klavierwerke
klawer
klawerbord
kleding
kledingstuk
kleed
kleef
klei
klein
kleinboere
kleindogter
kleine
kleiner
kleinkinders
kleinletter
kleinmond
kleins
kleinseun
kleinste
kleintjie
kleintjies
klem
klemtoon
klep
kleppe
klere
kleredrag
klerk
klerksdorp
kleur
kleure
kleurling
kleurlinge
kleurlose
kleurryke
kleurskema
kleurskemas
kleurstof
kleurstowwe
kleurvolle
kleuterskool
kli
klie
klier
kliere
klim
klimaat
klimaatstoestande
klimaatsverandering
klimaks
klimate
kliniek
kliniese
klink
klinker
klinkers
klip
klipkabeljou
klippe
klipperige
kliprivier
klipriviersberg
klitoris
klm
klofies
klok
klokke
kloktoring
klomp
klompie
kloof
kloos
klooster
kloosters
klop
klopper
kloppers
klotzsch
klou
kloue
klowe
klub
klubblad
klubs
klubwerf
klug
kluge
kluisenaar
klyntji
km
kmdt
kmol
kn
knaagdiere
knap
knesset
knew
knie
kniee
knife
knight
knights
kniphofia
knock
knoet
knoffel
knolle
knoop
knop
knope
knopf
knoppe
knoppies
know
knowledge
known
knows
knox
knut
knvb
knysna
ko
koalisie
koalisieregering
kobalt
kobe
koburg
kobus
koch
kock
koda
kodak
kode
kodeks
kodenaam
kodes
koe
koeberg
koeblai
koee
koei
koeie
koek
koekies
koel
koeler
koen
koepee
koepel
koepels
koerant
koerante
koerantredakteur
koerde
koerdies
koerdiese
koerile
koers
koerse
koersk
koesj
koester
koevoet
koeweit
koffie
koffiefontein
kogelberg
kognitiewe
koi
kok
kokai
kokstad
kol
kole
kolf
kolfbeurt
kolkata
kolle
kollega
kollegas
kollege
kolleges
kollekte
kollekteer
kollektiewe
kolletjies
kollig
kolom
kolomme
kolon
kolonel
koloniale
kolonialisme
kolonie
kolonies
kolonisasie
koloniste
koltun
kolwer
kolwers
kom
koma
komatipoort
kombinasie
kombinasies
kombineer
kombuis
komediant
komedie
komedies
komeet
komeetagtige
komen
komende
komete
komi
komiese
komitee
komitees
komma
kommandant
kommandeur
kommando
kommentaar
kommentare
kommentator
kommentators
kommer
kommersie
kommersieel
kommissaris
kommissie
kommissies
kommt
kommune
kommunikasie
kommunikeer
kommunis
kommunisme
kommuniste
kommunistiese
kompakte
kompanjie
kompas
kompeteer
kompetisie
kompetisies
kompleks
komplekse
kompleksiteit
komplemente
komplikasies
komplot
komponeer
komponent
komponente
komponis
komponiste
komposisie
komposisies
kompromie
kompromis
komrij
koms
kon
kondensasie
kondenseer
kondig
konfederasie
konfederasiebeker
konferensie
konferensies
konfigurasie
konflik
konflikte
konfrontasie
konfronteer
konfyt
kong
kongo
kongolese
kongorivier
kongres
koning
koningin
koningkryk
konings
koningshuis
koningskap
koningslys
koninklijke
koninklike
koninklikes
koninkryk
koninkryke
konklaaf
konkrete
konrad
konsekwent
konsekwente
konsensus
konsentrasie
konsentrasiekamp
konsentrasiekampe
konsentrasies
konsentreer
konsep
konsepte
konseptuele
konsert
konserte
konsertsaal
konservatoria
konservatorium
konserwatief
konserwatiewe
konserwatiewes
konserwatisme
konsessie
konsessies
konsilie
konsistorie
konsolideer
konsonant
konsonante
konsortium
konstant
konstante
konstantin
konstantinopel
konstantyn
konstanz
konstitusionele
konstruksie
konstruksies
konsul
konsulaat
konsulent
konsuls
konsultant
kontak
kontakte
kontant
konteks
kontekste
kontempore
kontinent
kontinentale
kontinente
kontinue
kontinui
kontrak
kontrakte
kontras
kontrasteer
kontrasterende
kontrei
kontrole
kontroversie
kontroversieel
konveksie
konvensie
konvensies
konvensionele
konyn
koo
kook
kookkuns
kookpunt
kool
koolhidrate
koolstof
koolstofatome
koolstofdioksied
koolstofmonoksied
koolsuurgas
koolwaterstowwe
koop
koopman
koopmans
koor
koors
koos
kop
kopbeen
kopenhagen
koper
kopers
koperstreek
kopie
kopiee
kopiereg
koppe
koppel
koppelaar
koppeling
koppelteken
koppelvlak
koppie
koppies
kopties
koptiese
kopulatief
kor
koraal
koraalrif
koraalriwwe
korale
koran
kore
korea
koreaans
koreaanse
korean
kores
korf
koring
korinthe
korintie
koronavirus
korporasie
korporasies
korporatiewe
korps
korrek
korrekte
korrektiewe
korrelasie
korrels
korrespondensie
korrespondent
korridor
korrosie
korrupsie
korrupte
kors
korsika
korsten
kort
korte
korter
kortfilm
kortliks
kortlys
kortom
kortste
kortstondig
kortstondige
kortverhaal
kortverhaalbundel
kortverhale
kortweg
kos
kosak
kosakke
kosbare
koshuis
koshuise
kosmiese
kosmologie
kosmologiese
kosmopolitiese
kosmos
kosovo
kosse
koste
koster
kosterm
kostes
kostuum
kostuums
kotze
kou
koud
koudste
koue
kouer
kousatief
kovalente
kpa
kpc
kr
kra
kraag
kraai
kraaines
kraairivier
kraak
kraakbeen
kraal
kraanvoe
kraft
krag
kragbron
kraglewering
kragopwekking
kragsentrale
kragsentrales
kragstasie
kragte
kragtens
kragtig
kragtige
kragtiger
kragtigste
krai
krake
krakow
krale
kramer
krans
kranse
krap
krappe
krater
kraters
krause
kreatiewe
kreatiwiteit
krediet
kreef
kremlin
kreta
krieg
krieket
krieketklub
krieketnasies
krieketraad
krieketspan
krieketspanne
krieketspeler
krieketveld
krieketwe
krieketwedstryde
kriel
krige
krim
kriminele
krimoorlog
krimp
kring
kringe
kringloop
kris
krishna
krisis
krisisse
kristal
kristalle
kristalliseer
kristallyne
kristalstruktuur
kristen
kristian
kristin
kriteria
kriterium
kritici
kritiek
kritieke
krities
kritiese
kritikus
kritiseer
kritzinger
kro
kroasie
kroaties
kroatiese
kroee
kroeg
krog
krokodil
krokodille
krokodilrivier
krom
kromme
kromming
kron
kronberg
krone
kroniek
kronieke
kroning
kronkel
kronos
kroon
kroonblare
kroonprins
kroonstad
kru
kruger
krugersdorp
krugerwildtuin
kruidagtige
kruie
kruik
kruin
kruip
kruis
kruise
kruiser
kruisiging
kruising
kruisings
kruispad
kruispunt
kruistog
kruistogte
kruisvaarders
kruit
krukas
kry
krygers
krygsgevangene
krygsgevangenes
krygswet
kryt
ks
ksperimenteer
ku
kuala
kuba
kubaanse
kubieke
kubiese
kubisme
kubrick
kudde
kuhn
kuier
kuiken
kuikens
kuilsrivier
kuiper
kuipergordel
kuit
kuline
kultivar
kultivars
kultur
kulture
kultureel
kulturele
kultus
kultuur
kultuuralmanak
kultuurgeskiedenis
kultuurhistoriese
kultuurtaal
kultuurvereniginge
kum
kumar
kumbh
kun
kundige
kundiges
kundigheid
kunene
kunenerivier
kung
kunnen
kuns
kunsgalery
kunsgeskiedenis
kunshistorikus
kunsmatig
kunsmatige
kunsmis
kunsmuseum
kunssentrum
kunsskilder
kunsskool
kunsstowwe
kunst
kunste
kunstefees
kunstenaar
kunstenaars
kunsvorm
kunswerk
kunswerke
kurator
kuratore
kurper
kurrikulum
kursus
kursusse
kurt
kuruman
kurwe
kus
kusdorp
kusgebied
kusgebiede
kuslyn
kusstreke
kusstrook
kuste
kusvlakte
kuyper
kv
kw
kwaad
kwaadaardige
kwaai
kwadraat
kwaito
kwale
kwalifikasie
kwalifikasies
kwalifiseer
kwalifiserende
kwalifisering
kwaliteit
kwantitatiewe
kwantummeganika
kwark
kwarke
kwart
kwartaal
kwarte
kwarteindrondte
kwarteindstryd
kwartet
kwartier
kwartiere
kwarts
kwas
kwazulu
kwe
kweek
kweekhuisgasse
kweekskool
kwesbaar
kwesbaarheid
kwesbare
kwessie
kwessies
kwik
kwyn
kwyt
kwytgeraak
ky
kyiv
kyk
kyker
kykers
kyknet
kyle
kylie
kzn
kærlighed
kɑ
kɔ
kə
l
la
laag
laagland
laagliggende
laagste
laagtepunt
laai
laan
laas
laasgenoemde
laasgenoemdes
laaste
laastens
laat
laatste
lab
labeo
labia
labirint
labor
laboratorium
laboratoriums
laboratory
labour
labrador
labuschagne
labyrinth
lac
lace
lacey
lachenalia
lada
ladder
laden
ladies
lading
ladings
ladismith
lady
ladybrand
ladysmith
lae
laer
laerhuis
laerskole
laerskool
laetitia
laeveld
lafayette
lag
lagerfeld
lagie
lagoon
lagos
lagrange
laguna
lagune
lahore
lai
laingsburg
lake
lakes
lam
lama
lamarck
lamas
lamb
lambda
lambe
lambert
lamp
lampe
lampoon
lampranthus
lamprecht
lan
lana
lancashire
lancaster
lance
lancet
lancia
land
landbou
landbougrond
landbouprodukte
landbousektor
landbouweekblad
landdros
lande
landelike
landengte
landerye
landgenote
landgoed
landgoedere
landing
landings
landman
landmassa
landmerk
landmeter
lando
lands
landscape
landsdele
landskap
landskappe
landskapsvorme
landstem
landstreek
landswyd
landswye
landwyd
landwye
lane
lang
langa
langafstand
langdurige
lange
langebaan
langeberg
langenhoven
langer
langkloof
langlaagte
langley
langs
langsaan
langsamerhand
langste
langtermyn
language
languages
languedoc
langwerpige
lanham
lank
lanka
lankaanse
lankal
lanseer
lansering
lantern
lao
laos
lap
lapa
lapeirousia
lar
lara
large
largest
lark
larry
lars
larsen
larson
larus
larwe
larwes
las
laser
lash
lassen
lassie
last
laste
laster
lastig
lat
late
lategan
later
lateraanse
laterale
latere
latest
latin
latina
latium
latrunculia
latyn
latyns
latynse
laubenfels
laubscher
laude
laugh
laughing
laughs
laughter
launch
launches
laura
laurel
lauren
laurence
laurens
laurensrivier
laurent
laurie
laurika
lausanne
lautrec
laval
lavey
lavranos
law
lawa
lawless
lawrence
laws
lawson
lawyer
lay
laz
lazarus
laɪ
lb
lc
lccn
ld
lde
lderlin
le
lea
lead
leader
leaders
leadership
leading
leads
leaf
league
leah
leap
lear
learn
learned
learning
least
leather
leave
leaves
leaving
lebanon
leben
lebens
lebomboberge
leclerc
lecture
lectures
led
lede
ledemate
ledetal
lee
leed
leeds
leef
leefstyl
leeftyd
leefwyse
leeg
leemte
leen
leenwoorde
leer
leeraar
leerder
leerders
leerling
leerlinge
leermeester
leerstelling
leerstellings
leerstoel
lees
leesstof
leeu
leeus
leeuwen
left
leg
legacy
legal
legally
legend
legendariese
legendary
legende
legendes
legends
legering
legerings
legioen
legioene
legion
lego
legs
lehmann
lehnert
lei
leibbrandt
leibniz
leicester
leiden
leidende
leiding
leidrade
leier
leiers
leierskap
leif
leigh
leila
leinster
leipoldt
leipzig
leith
lek
leke
lekker
leksikon
lektor
lektriese
lelik
lem
lemme
lemoene
lemon
len
lena
lendenfeld
lengte
lengtegraad
lengtes
lenin
lening
leningrad
lenings
lennon
lenny
lens
lense
lensopening
lente
leo
leon
leona
leonard
leonardo
leone
leonid
leonore
leopard
leopold
lepel
lepidoptera
ler
leraar
leraars
leringe
lerner
leroux
les
lesbian
lesbie
lesbiese
leser
lesers
lesing
lesings
lesley
leslie
lesotho
less
lesse
lessenaar
lesser
lessing
lesson
lessons
lester
let
letaba
lethal
letland
letlandse
lets
letsels
letter
lettere
letteren
lettergreep
lettergrepe
letterkunde
letterkundige
letterlik
letterlike
letters
lettie
lettres
letzte
letzten
leucadendron
leucandra
leucosolenia
leucospermum
leuens
leukemie
leuse
leuven
lev
levant
level
levels
leven
levi
levin
levine
levy
lewe
lewend
lewende
lewendes
lewendig
lewendige
lewens
lewensduur
lewensiklus
lewenskets
lewenslange
lewenslank
lewensmaat
lewensomstandighede
lewenstandaard
lewenstyl
lewensverhaal
lewensverlies
lewensverwagting
lewensvorme
lewenswyse
lewer
lewering
lewis
lex
lexicon
lexikon
lexington
lez
lg
lgbt
lhof
li
lia
liam
liar
liars
lib
libanese
libanon
liber
liberaal
liberale
liberalisme
liberation
liberie
liberty
libie
libiese
libraries
library
libre
libretto
libya
license
licht
lichtenburg
lichtenstein
lid
liddell
lidland
lidlande
lidmaat
lidmaatskap
lidmaattal
lidmate
lidstate
lidwoord
lie
liebe
liebenberg
liebig
liechtenstein
lied
lieder
liedere
liedjie
liedjies
liedjieskrywer
lief
liefdadigheid
liefde
liefdes
liefdesgedigte
liefdesverhaal
liefdesverhale
liefdesverhouding
liefdevolle
liefling
lien
lier
lies
lieutenant
liewe
liewer
life
lifetime
lig
liga
ligapunte
ligas
ligblou
ligbruin
liggaam
liggaamlik
liggaamlike
liggaamsbou
liggaamsdele
liggaamstemperatuur
liggame
liggeel
liggende
liggewig
ligging
liggings
light
lighthouse
lightning
lights
ligjare
ligsnelheid
ligsterkte
ligte
ligter
lik
like
likely
lil
lila
lili
lilian
lille
lillian
lily
lim
lima
limbo
limburg
limburgs
limiet
limit
limited
limits
limpopo
limpopoprovinsie
limpoporivier
lin
lina
lincoln
linda
linde
linden
lindenberg
lindeque
linder
lindgren
lindley
lindsay
line
linee
lines
ling
lingen
lings
lingua
linguistic
linguistics
linguistiek
linguistiese
linie
linies
link
linkedin
linker
linkerhand
linkerkant
linkeroewer
links
linkse
linnaeus
linne
linnean
lint
linus
linux
lion
lionel
lions
lip
lippe
lippi
lips
lipvis
liquid
liriek
lirieke
liriese
lis
lisa
lise
lisensie
lisensies
lissabon
lissodendoryx
list
listen
lister
lists
liszt
lit
litaue
litauers
litaus
litause
liter
literary
literator
literatur
literature
literatuur
literatuurgeskiedenis
literatuurverwysings
literatuurwetenskap
litere
litium
litnet
litt
litte
little
littlefield
liturgie
liturgiese
liu
liv
live
lived
liverpool
lives
living
livingstone
livre
lix
liz
liza
lizzie
liŋ
lkerung
ll
llc
lle
ller
lloyd
llustreer
llustreerde
lmatig
lmatige
ln
lo
lob
lobbe
lobostemon
loc
local
location
loch
lochner
lock
locke
locked
lockheed
locomotive
locomotives
lodewijk
lodewikus
lodewyk
lodge
loeb
loerie
loes
lof
loftus
log
logan
logic
logies
logiese
logika
logistiek
logistieke
logo
logos
loire
lois
lojaal
lojale
lojaliteit
lok
lokaal
lokale
lokatief
loket
lokomotief
lokomotiewe
lokval
lola
lolita
lombard
lombarde
lombardye
londen
londense
london
lone
lonely
lonesome
long
longe
longer
longest
longkanker
longman
longontsteking
lood
loodreg
loods
loof
look
looking
looks
loon
looney
loop
loopbaan
loopbane
loopgrawe
loose
loot
loots
lope
lopende
loper
lopes
lopez
lopie
lopies
lord
lords
lore
lorenzo
lori
lorna
lorraine
los
lose
loser
losers
losgelaat
losgemaak
losieshuis
losing
losprys
loss
losse
losskakel
losstaande
lost
losweg
lot
lotaringe
lotarius
lote
lotgevalle
lothar
lotte
lotus
lou
loubser
loud
louie
louis
louisa
louise
louisiana
lounge
lourenc
lourens
louvre
louw
love
loved
lovely
lover
lovers
loves
loving
low
lowe
lowell
lower
lowry
loxton
loɖ
lp
lpg
ls
lsid
lso
lspesies
lt
ltd
ltjies
lu
lubbe
luc
luca
lucas
lucia
luciano
lucien
lucifer
lucille
lucius
luck
lucky
lucy
ludovico
ludwig
lufthansa
luftwaffe
lug
lugaanval
lugaanvalle
lugbesoedeling
lugdiens
lugdruk
lughawe
lughawens
lugmag
lugmagbasis
lugmagte
lugredery
lugrederye
lugruim
lugskip
lugvaart
lugvloei
lui
luidens
luigi
luik
luikrug
luiperd
luiperds
luis
luise
luislang
luislange
luister
luisteraar
luisteraars
luisterryke
luitenant
luiz
lukas
luke
lukrake
lul
lullaby
lulu
lumpur
luna
lunar
lunch
lund
lundbeck
luo
lupin
lur
lure
lus
lusaka
lusern
lust
luther
lutherse
luthuli
lutz
luukse
lux
luxemburg
luxemburgs
luxemburgse
luyt
lv
ly
lydenburg
lydende
lydia
lyding
lyf
lyfeienes
lyfland
lyfstraf
lying
lyk
lyke
lyn
lynch
lynden
lyndon
lyne
lynn
lynne
lynx
lyon
lyons
lys
lyste
lyttelton
lywe
lɑ
lɔ
lɔz
lɔɦ
lə
lɛ
lɛɪ
lɛɹ
lɪ
lɪʔ
m
ma
maa
maag
maagd
maagde
maagdeburg
maak
maal
maaltyd
maaltye
maan
maand
maandag
maandblad
maande
maandeliks
maandelikse
maar
maarskalk
maart
maarten
maas
maastricht
maat
maatree
maats
maatschappij
maatskaplike
maatskappy
maatskappye
maatstaf
mabel
mac
macarthur
macau
macbeth
macdonald
macedonia
mach
machine
machines
macht
macintosh
mack
mackay
mackenzie
maclean
maclear
macmillan
macy
mad
madagascar
madagaskar
madam
madame
made
madea
madeira
madeleine
madeline
mademoiselle
madison
madness
madonna
madrid
mae
maeder
maer
maestro
mafeking
mafia
mafikeng
mafiosi
mag
magaliesberg
magazine
magda
magdalena
magdalene
magdom
magellaanse
magersfontein
maggie
magic
magical
magician
magiese
magister
magistraat
magma
magna
magneet
magneetveld
magnesium
magnetic
magnetiese
magnificent
magnitude
magnum
magnus
magstryd
magte
magtig
magtige
magtigste
mah
maha
mahan
maharero
mahatma
mahayana
mahlangu
mahler
mai
maid
maiden
mail
main
maine
mainstream
maint
mainz
maisie
maison
maitland
maj
maja
majesteit
majesty
majeur
majoor
major
majoris
majority
majuba
mak
make
maker
makers
makes
makhuduthamaga
making
maklik
maklike
makliker
maklikste
makro
maksimaal
maksimale
maksimum
mal
mala
malakka
malan
malaria
malawi
malawimeer
malaysia
malcolm
male
maledive
maleiers
maleis
maleise
maleisie
maleisiese
malema
malgassiese
malherbe
mali
malibu
malik
mall
malley
malmesbury
malo
malone
malta
maltese
malvern
mama
mamma
mammal
mammals
man
mana
management
manager
manchester
manchu
manconi
mand
mandaat
mandaryns
mandela
mandjie
mandy
mane
manetho
manfred
manga
mangaan
mango
manhattan
manhunt
mani
manie
manier
maniere
manifes
manila
manipulasie
manipuleer
manitoba
manjifieke
manlik
manlike
manlikheid
mann
manna
manne
mannekrag
mannetjie
mannetjies
mannheim
manning
mannix
manon
manor
mans
mansfield
mansion
manskappe
manson
mantel
mantsjoerye
mantua
manual
manuel
manufacturing
manuskrip
manuskripte
manx
many
mao
maori
map
mapping
maps
mapungubwe
maputo
mar
mara
marabastad
marais
marat
marathi
marathon
maraton
marble
marburg
marc
marcel
marcello
marcellus
march
marchand
marcia
marco
marconi
marcos
marcus
mare
maree
marek
margaret
margaretha
margarita
margate
margot
margrethe
marguerite
mari
maria
marian
mariana
marianne
marico
marie
mariene
mariental
marietjie
marilyn
marin
marina
marine
mariner
marines
marinespecies
marinierskorps
marino
marinus
mario
marion
marionet
marita
maritha
maritieme
maritime
maritz
marius
marjorie
mark
marked
market
marketing
markets
markies
markplein
marks
markte
markus
marlene
marley
marlon
marlowe
marmer
marne
maroela
maroelamedia
marokkaanse
marokko
marquard
marques
marquis
marriage
married
marry
mars
marsden
marseille
marsh
marshal
marshall
marsjeer
mart
marta
martel
martelaar
marteling
martha
marthinus
marti
martial
martian
martie
martin
martinez
martini
martinique
martins
martinus
marty
marvel
marvin
marx
marxisme
marxistiese
mary
maryland
marylebone
mas
masaccio
masai
masedonie
masedoniese
masels
masjien
masjiene
masjiengeweer
masjiengewere
masjinerie
masjonaland
mask
masked
masker
maskers
maskew
masks
mason
masquerade
mass
massa
massachusetts
massacre
massamedia
massamiddelpunt
massaproduksie
massas
masses
massey
massie
massief
massiewe
massive
massonia
master
masterpiece
masters
masturbasie
mat
mata
matabele
matador
match
matches
mate
mater
materiaal
material
materiale
materialisme
materials
materie
mates
math
mathbf
mathematical
mathematics
mathews
mathias
mathilde
mathrm
matig
matige
matilda
matinee
mating
matisse
matlabas
matriek
matriks
matrikulasie
matrikuleer
matrix
matroos
matrose
matt
matte
matteo
matter
matters
matteus
matthee
matthew
matthews
matthias
matthys
mau
maud
maude
maui
mauna
maureen
maurice
mauritanie
mauritius
maurits
mausoleum
maverick
max
maxim
maximilian
maximum
maximus
maxwell
may
maya
maybe
mayer
mayfair
maynard
mayo
mayor
mayotte
maz
mazda
maze
maɦ
mb
mba
mbeki
mbox
mc
mcbride
mcc
mccarthy
mccartney
mccormick
mccoy
mcdonald
mcdonnell
mcfarland
mcgill
mcgraw
mcgregor
mcguire
mckay
mckenzie
mclaren
mcqueen
md
me
mean
meaning
means
measure
measurement
measurements
meat
mechanics
mechelen
mecklenburg
med
medal
medalje
medaljes
medaljewenners
mede
medea
mededingend
mededingende
mededinger
mededingers
mededinging
medekeiser
medeklinkers
medeleraar
medemens
medeprofessor
medeskrywer
medestigter
medewerker
medewerkers
medewerking
media
medical
medici
medicine
medies
mediese
medieval
medikasie
medina
medisinale
medisyne
meditasie
mediterranean
mediterreense
medium
mediumgrootte
medusa
mee
meebring
meeding
meegebring
meegedeel
meegeding
meegemaak
meel
meeldrade
meen
meer
meerdere
meerderheid
meerjarige
meermale
meersellige
meervoud
meervoudige
mees
meesal
meestal
meeste
meester
meesters
meestersgraad
meesterstuk
meet
meeting
meetkunde
meetkundige
meets
meg
mega
megan
meganies
meganiese
meganika
meganisme
meganismes
meghan
mehmet
mehr
mei
meiji
mein
meine
meiner
meintjes
meiring
meisie
meisies
meisieskool
mej
mejuffrou
mekaar
mekka
meksikaanse
meksiko
meksikostad
mel
mela
melaatsheid
melanie
melbourne
meld
melding
melinda
melissa
melk
melkweg
melodie
melodiee
melodiese
melodrama
melody
melrose
melt
melville
melvin
member
members
membership
membraan
membrane
memel
memoir
memoires
memoirs
memorandum
memorial
memoriam
memories
memory
memphis
men
menace
mendelssohn
meneer
menelik
meng
mengsel
mengsels
menige
menigte
mening
menings
meningsverskil
meningsverskille
mens
mensch
menschen
mensdom
mense
menselewens
menseregte
mensgemaakte
mensheid
menslik
menslike
menslikheid
ment
mental
mente
mentor
mentz
menuhin
mer
mercedes
merchant
mercurius
mercury
mercy
mere
meredith
merendeels
merensky
meridiaan
meriete
merina
meriteer
merk
merkbaar
merkbare
merke
merkwaardig
merkwaardige
merlin
mermaid
merriam
merrie
merriman
merry
merwe
mes
mesa
mesembryanthemum
meso
mesopotamia
mesopotamie
mesopotamiese
mesosoi
mess
message
messe
messenger
messiah
messias
messier
messina
met
meta
metaal
metaan
metaboliese
metabolisme
metafisiese
metafisika
metafoor
metafore
metal
metale
metamorfose
metamorfoses
meteoorree
meteor
meteore
meteoriet
meteoriete
meteorite
meteorites
meteoroi
meteorologiese
meter
meters
metgesel
metgeselle
method
methods
methuen
meting
metings
metode
metodes
metrieke
metriese
metro
metropole
metropolis
metropolitaanse
metropolitan
metropool
mettertyd
metuchen
metz
meubels
meul
mev
mevrou
mexican
mexico
mexikaanse
mexiko
mey
meyer
meyers
meyerton
mez
mg
mgm
mh
mhz
mi
mia
miami
mianmar
mice
miceense
mich
michael
michaelis
michaels
michail
michailowitsj
michel
michelangelo
michele
michelle
michelotti
michiel
michigan
mick
mickey
mickiewicz
microbiology
microcionidae
microsoft
mid
midas
middag
middagete
midde
middel
middelbare
middelburg
middelduitse
middele
middeleeue
middeleeuse
middelgroot
middelklas
middelland
middellandse
middelnederlands
middelpunt
middels
middelste
midden
middernag
middestad
middle
middlesex
middleton
midi
midnight
midrand
midsummer
midway
mie
mielies
miemie
mier
miere
mifflin
mig
might
mighty
migrante
migrasie
migrasies
migration
migreer
miguel
mij
mijn
mik
mika
mikael
mike
mikhail
mikro
mikrofoon
mikronesie
mikroo
mikroskoop
mikroskopiese
mil
mila
milaan
milan
milano
mildred
mile
miles
milestones
milf
milieu
militante
military
milite
miljard
miljarde
miljoen
miljoene
milk
milky
mill
millais
mille
millennium
miller
millimeter
million
millionaire
millions
mills
milner
milo
milt
milton
milwaukee
mimi
min
mina
minagting
minas
mind
mindat
minder
mindere
minderhede
minderheid
minderheidsgroepe
minds
mindy
mine
mineraal
mineral
minerale
mineralogy
mines
mineur
ming
minh
mini
minima
minimale
minimum
mining
minireeks
minister
ministerie
ministers
ministry
minnaar
minnaars
minnares
minneapolis
minnesota
minnie
minogue
minoi
minor
minority
minsk
minste
minstens
minus
minuta
minute
minutes
minuut
mio
mioseen
mir
mira
mirabilis
miracle
miracles
mirage
miranda
miriam
mirror
mis
misbruik
misdaad
misdade
misdadiger
misdadigers
mise
misfits
misgeloop
mishandel
mishandeling
miskien
mislei
misleidend
misluk
mislukking
mislukkings
mislukte
miss
missa
misse
missie
missiel
missiele
missies
missile
missing
mission
missionary
missions
mississippi
mississippirivier
missouri
missy
mist
mistake
mister
misteriee
mistieke
mistress
misverstand
mit
mitchell
mite
mites
mitford
mitiese
mitologie
mitologiese
mits
mitsubishi
mitte
mittelland
miv
mix
mixed
miyazaki
miə
mj
mk
ml
mlit
mm
mmer
mmigreer
mn
mnr
mnras
mo
moai
mob
mobiele
mobile
mobileme
mobiliseer
mobiliteit
mobutu
moby
mod
modder
mode
model
modelle
models
modena
moderator
modern
moderne
modernisering
modernism
modernisme
modernistiese
modernity
modes
module
modus
moed
moeder
moedergemeente
moederkerk
moederland
moeders
moederskant
moedertaal
moedertaalsprekers
moedig
moeg
moegheid
moeilik
moeilike
moeiliker
moeilikhede
moeilikheid
moeilikste
moeite
moenie
moeras
moerasagtige
moerasse
moerdijk
moerdyk
moes
moet
moffat
mog
mohamed
mohammad
mohammed
mohicans
mohs
moi
mojo
mokɔlɔ
mol
moldawie
moldawiese
moldova
moldowa
mole
molecular
molekule
molekules
molekuul
molibdeen
moll
molle
molly
molteno
moltrein
mom
moment
moments
momentum
mommy
moms
mon
mona
monaco
monarch
monarchy
monarg
monarge
monargie
mond
monday
monde
mondelinge
mondelings
monding
mondstuk
monet
monete
money
mongol
mongole
mongolia
mongolie
mongols
mongools
mongoolse
monica
monique
monitor
monitoring
monk
monkey
monkeys
monnik
monnike
mono
monopolie
monotei
monroe
mons
monsieur
monster
monsters
mont
montagu
montana
monte
montenegro
monterey
montevideo
montgomery
month
monthly
months
monticola
montmartre
montpellier
montre
montreal
montreux
montserrat
monty
monument
monumentale
monumente
monuments
monza
mooi
mooirivier
mooiste
moolman
moon
moondhede
moondheid
moonlight
moons
moontlik
moontlike
moontlikhede
moontlikheid
moor
moord
moorde
moordenaar
moordenaars
moore
moorrees
moorreesburg
moot
mopani
mor
moraal
moraea
moral
morales
moraliteit
morals
moran
morawie
morawiese
mord
more
moreel
morele
moreno
morfologie
morfologiese
morg
morgan
morgen
moritz
morkel
mormon
morne
morning
morocco
morphin
morphology
morris
morrison
morrow
morse
mort
mortal
mortality
morton
mos
mosai
mosaic
mosambiek
mosambiekse
moscow
moser
moses
mosie
mosjesj
moskee
moskees
moskou
moskouse
moslem
moslems
moslemse
moss
mosse
mosselbaai
mossels
most
mostert
mot
motel
moth
mother
mothers
motief
motiewe
motilal
motion
motive
motivering
moto
motor
motorbedryf
motore
motorfiets
motorfietse
motoriese
motormaatskappy
motorongeluk
motors
motorskou
motorsport
motorvervaardiger
motorvoertuie
motorvoertuig
motte
mottle
moue
moulin
mount
mountain
mountains
mountbatten
mounted
mouse
mouth
mouton
move
movement
movements
moves
movie
movies
moving
movt
mowbray
mowgli
mozambique
mozart
mozilla
moʔ
mp
mpla
mplementeer
mpumalanga
mpumalangaprovinsie
mpv
mr
mrs
ms
msn
mt
mthatha
mtv
mu
much
mud
mugabe
muhammad
muir
muis
muise
muizenberg
mulder
mulholland
muller
multi
multikulturele
multimedia
multinasionale
multiple
mum
mumbai
mummie
mummies
mummy
mun
munich
municipal
municipality
munisipale
munisipaliteit
munisipaliteite
munro
munson
munster
munt
munte
muntstuk
muntstukke
muppet
muppets
murakami
murat
murder
murderer
murders
murdoch
mure
muriel
murphy
murray
murrayfield
murraysburg
mus
musa
muscle
muse
musea
museo
museum
museums
music
musica
musical
musici
musicians
musiek
musiekbedryf
musiekblyspel
musiekblyspele
musiekdirekteur
musiekfees
musiekgroep
musiekgroepe
musiekinstrumente
musiekspel
musiekvideo
musik
musikale
musikant
musikante
musikus
musique
musketeers
muslim
mussolini
must
mustafa
mustang
mutant
mutasie
mutasies
mutiny
mutter
mutual
muur
muurskilderye
mv
mw
mwa
my
myanmar
myburg
myburgh
mycale
mycalidae
myers
myl
mylpaal
mylpale
myn
mynbou
myne
mynhardt
mynwerkers
mynwese
myself
myspace
mysteries
mysterious
mystery
mystic
myth
mythology
myths
myxilla
myxillidae
mær
mærd
mærde
mɑ
mɑʔ
mɔ
mɔa
mɔn
mə
mən
mɛ
n
na
naak
naakte
naald
naalde
naam
naamlik
naamlose
naamsverandering
naamval
naamvalle
naamwoord
naamwoorde
naar
naarheid
naas
naasgrootste
naaste
naastenby
naaswenner
naaswenners
nabokov
naboots
nabootsing
naburige
naby
nabye
nabygelee
nabyheid
nach
nacht
nacional
nad
nadal
nadat
nadeel
nadele
nadelig
nadelige
nader
nadere
naderende
naderhand
nadia
nadine
nadruk
naels
naelskraap
nag
nagano
nagasaki
nageboots
nagedagtenis
nagegaan
nagekom
nagel
nagelaat
nagelate
nagenoeg
nageslag
nagestreef
nagevolg
naghemel
nagmaal
nagorno
nagraadse
nagte
nagtegaal
nagtelike
nagy
nahuatl
nai
nairobi
najaar
naked
nakom
nakomelinge
nalatenskap
naledi
naln
nam
nama
namakwaland
namas
namate
name
named
namen
namens
names
namib
namibia
namibian
namibie
namibiese
namibwoestyn
namiddag
naming
nan
nana
nancy
nanjing
nanny
nansen
nantes
naomi
naoorlogse
napels
napier
napole
napoleon
napoleontiese
nar
nara
narkose
narnia
narratief
narratiewe
narrative
narrow
nas
nasa
nasaret
nasate
nash
nashville
nasie
nasies
nasiesbeker
nasionaal
nasionale
nasionalis
nasionalisme
nasionaliste
nasionalistiese
nasionaliteit
nasleep
nasou
naspers
nassau
nasser
nastreef
nasty
nat
natal
natalensis
natalia
natalie
natalse
natasha
nate
nathan
nathaniel
nation
national
nationale
nationalism
nations
native
nato
natrium
natste
natur
naturae
natural
naturalis
naturalisme
naturalistiese
nature
naturelle
natuur
natuurbewaring
natuurgeskiedenis
natuurkunde
natuurkundige
natuurlewe
natuurlik
natuurlike
natuurreservaat
natuurreservate
natuurskoon
natuurwetenskap
natuurwetenskaplike
natuurwetenskappe
naude
naughty
nauru
navajo
naval
navarra
navigasie
navigator
navo
navolging
navorser
navorsers
navorsing
navorsings
navorsingsentrum
navy
naweek
naweke
naxos
nazi
nazionale
nazis
nb
nbc
nberg
nboog
nc
nchen
nchu
ncipe
ncis
nd
nda
nde
ndebele
ndel
nden
nder
ndez
ndruk
ndustrialiseerde
ne
neal
neanderdallers
neanderthal
near
nearby
nearly
neberg
nebraska
nebula
nebulae
neburg
necessary
ned
neder
nederduits
nederduitsch
nederduitsche
nederduitse
nederige
nederlaag
nederlae
nederland
nederlande
nederlanden
nederlander
nederlanders
nederlands
nederlandsch
nederlandsche
nederlandse
nederlandstalige
nedersakse
nedersaksies
nedersetters
nedersetting
nedersettings
nee
need
needs
neef
neefs
neels
neem
neer
neergekom
neergele
neergeskryf
neergestort
neerlaag
neerle
neerslae
neerslag
neethling
nefertiti
nefie
negatief
negatiewe
nege
negejarige
negende
negentien
negentiende
negentig
negentigerjare
negro
nei
neig
neighbor
neighborhood
neighbors
neighbours
neiging
neigings
neil
neill
nek
nekke
nektar
nel
nell
nellie
nelly
nelson
nelspruit
nemesis
nen
neo
neogotiese
neoklassieke
neolitiese
neolitikum
neon
neopetrosia
nepal
nepalese
neptune
neptunian
neptunus
ner
nero
ners
nerve
nervosa
nes
nest
neste
net
netanyahu
netbal
netflix
netherlands
netjies
netjiese
netto
netwerk
netwerke
network
networks
neu
neue
neumann
neurenberg
neurologiese
neurone
neuroscience
neus
neusgate
neushoringvoe
neute
neutraal
neutrale
neutraliteit
neutrino
neutron
neutrone
nevada
never
neville
nevis
new
newadvent
newark
newcastle
newe
newel
newels
neweproduk
newfoundland
newlands
newman
newport
news
newsletter
newspaper
newspapers
newsroom
newsweek
newton
next
nez
nf
ng
nga
ngc
nge
nger
nges
ngler
ngr
nguni
nh
ni
nia
niagara
nibelungen
nic
nicaragua
niccolo
nice
nicea
nicholas
nichols
nicholson
nicht
nick
nickel
nicky
nico
nicol
nicola
nicolaas
nicolai
nicolas
nicole
nicolson
nida
nie
nieamptelike
niekerk
niels
nielsen
niemand
niemeyer
nienaber
nier
niere
nierop
niers
nies
niese
niet
nieteenstaande
nietemin
nietig
nietzsche
nieu
nieuw
nieuwe
nieuwoudt
nieuwoudtville
nieuws
nig
nigel
niger
nigeria
nigerie
nigeriese
niggie
night
nightingale
nightmare
nights
nigin
nigra
nih
nijhoff
nijmegen
nikephoros
nikita
nikkel
nikki
nikolaas
nikolai
nikolajewitsj
nikolaus
nikon
niks
nile
nin
nina
nine
nineteenth
nineve
ning
ninja
ninth
nio
niphates
niphatidae
nippon
nirvana
nis
nisieer
nissan
nisse
nist
niue
nix
nixon
niz
nizjni
niə
nj
njassaland
nk
nkarnasie
nkorporeer
nkosi
nl
nm
nn
nner
no
noaa
noag
noah
nobel
nobelprize
nobelprys
nobelpryswenner
noble
nobody
noch
nodig
nodige
noe
noel
noem
noemenswaardig
noemenswaardige
noemnaam
nog
nogal
nogtans
noir
noise
nok
nolan
nolloth
nom
nomade
nomades
nomadiese
nomenclature
nomina
nominale
nominasie
nominatief
nominees
nommer
nommers
non
none
nonne
nood
noodgedwonge
noodlot
noodlottig
noodlottige
noodsaak
noodsaaklik
noodsaaklike
noodsaaklikheid
noodtoestand
noodwendig
nooi
nooiensvlug
nooientjie
nooit
noon
noord
noorde
noordeiland
noordekant
noordelike
noordelikste
noordkus
noordoos
noordooste
noordoostelike
noordpool
noordryn
noordsee
noordwaarts
noordwes
noordwesprovinsie
noordweste
noordwestelike
noormanne
noors
noorse
noorwee
noorweegse
noot
nor
nora
norbert
nord
nordiese
norfolk
norm
norma
normaal
normaalkollege
normaalweg
normal
normale
norman
normandie
normandiese
norme
norris
north
northern
northwest
nortje
norton
norval
norway
norwegian
norwich
nos
nostra
not
nota
notas
notasie
note
notebook
notes
nothing
notice
notices
notorious
notre
nottingham
notule
notules
nou
noue
nouer
noukeurig
noukeurige
nouliks
noupoort
nous
nouste
nouveau
nouvelle
nov
nova
novak
novel
novelle
novelles
november
novo
now
nowaja
nowgorod
nowhere
np
npc
npr
nr
nrc
nrk
nro
ns
nsdap
nse
nseisoen
nskynlik
nskynlike
nspireer
nspireerde
nstalleer
nster
nsu
nsw
nsə
nt
ntasie
nte
nteerde
ntegreer
ntegreerde
nter
nteresseerd
nterneer
nterpreteer
nther
ntologie
nu
nubase
nubie
nuclear
nude
nudibranchs
nui
nuit
nuklei
nul
num
number
numbers
numeriese
nun
nuntius
nur
nuremberg
nureyev
nurse
nurses
nut
nutrition
nuts
nutteloos
nuttig
nuttige
nuus
nuusberigte
nuusblad
nuusbrief
nuuskierigheid
nuut
nuutgestigte
nuutste
nuwe
nuwejaar
nuweland
nuweling
nuwer
nuə
nval
nvloed
nw
nwater
nwoud
nwoude
nwu
ny
nyabe
nyc
nye
nyi
nyl
nylon
nylrivier
nylstroom
nynorsk
nypd
nytimes
nyweraar
nywerhede
nywerheid
nywerheids
nywerheidsektor
nywerheidsentrum
nywerheidsgebiede
nywerheidslande
nywerheidsomwenteling
nywerheidstad
nz
nzasm
nzerin
nɐ
nɑ
nɔ
nə
nɛ
nɪ
nɪn
nɯn
nʦ
o
oa
oak
oakland
oaks
oas
oath
ob
obama
obelisk
oberholster
oberholzer
oberliga
oberm
obituary
object
objects
objek
objekte
objektief
objektiewe
oblast
obscura
observation
observations
observatory
observer
obsessie
obsession
oc
ocean
oceanapia
oceanic
oceans
och
ochna
ochnaceae
oclc
oct
octavianus
october
octobre
octopus
od
odahl
odd
odds
ode
odendaal
odendaalsrus
odendal
oder
odessa
odi
odin
odussee
odusseus
odyssey
oe
oecd
oefen
oefening
oefeninge
oegriese
oeigoer
oeigoers
oeigoerse
oekrai
oenanthe
oeral
oeralgebergte
oerdoe
oerknal
oerwoud
oes
oesbekistan
oeso
oeste
oesters
oeuvre
oewer
oewers
of
off
offensief
offensiewe
offer
offerande
offerandes
offers
office
officer
official
officially
officials
offisie
offisier
offisiere
ofskoon
oftewel
og
ogg
oggend
oggendblad
oh
ohio
ohm
ohne
oidipus
oil
ois
oise
ok
oka
okahandja
okavango
okavangorivier
oker
okinawa
oklahoma
okorafor
oksidasie
oksidasietoestand
oksideer
oksied
oksiede
oksitaans
oksitaanse
okt
oktae
oktober
ol
ola
olaf
old
oldenburg
older
oldest
ole
oleg
olga
olie
olies
olifant
olifante
olifantshoek
olifantsrivier
olimpiade
olimpiese
oliv
olive
oliveira
oliver
olivia
olivier
ollie
olof
olsen
olson
olyf
olyfolie
olympia
olympiad
olympic
olympics
olympus
olywe
om
oman
omar
omaruru
omdat
omdraai
omega
omgang
omgangstaal
omgebou
omgedraai
omgekeer
omgekeerd
omgekeerde
omgekom
omgesien
omgesit
omgeskakel
omgeskep
omgewing
omgewings
omgewingsake
omgewingsfaktore
omhels
omhoog
omhul
omhulsel
omkeer
omliggende
omloop
omnibus
omnivore
omrede
omring
omringende
omroeper
omseil
omset
omsien
omsingel
omskakel
omskakeling
omskep
omskryf
omslag
omsluit
omstandighede
omstrede
omstredenheid
omstreeks
omtrek
omtrent
omvang
omvangryke
omvat
omvattend
omvattende
omver
omvergewerp
omverwerping
omwenteling
omwentelinge
on
onaangename
onaanvaarbaar
onafhanklik
onafhanklike
onafhanklikheid
onafhanklikheidsdag
onafhanklikheidsoorlog
onafhanklikheidsverklaring
onafhanklikwording
onbekend
onbekende
onbemande
onbepaald
onbepaalde
onbeperk
onbeperkte
onbeslis
onbestrede
onbewoon
onbewoonde
onbewus
onbewuste
onbruik
once
ondanks
onder
onderaan
onderafdeling
onderafdelings
onderbreek
onderbreking
onderbrekings
onderdane
onderdeel
onderdele
onderdruk
onderdrukkende
onderdrukking
ondergaan
ondergang
ondergeskik
ondergeskikte
ondergronds
ondergrondse
onderhandel
onderhandeling
onderhandelinge
onderhandelings
onderhewig
onderhou
onderhoud
onderhoude
onderkaak
onderkant
onderkoning
onderliggend
onderliggende
onderling
onderlinge
ondermeer
ondermyn
onderneem
onderneming
ondernemings
onderrig
onderrigmedium
ondersese
onderskat
onderskei
onderskeid
onderskeidelik
onderskeiding
onderskeidings
onderskeie
onderskep
onderskryf
ondersoek
ondersoeke
ondersoekers
onderstaande
onderste
onderstebo
onderstel
onderstepoort
ondersteun
ondersteunende
ondersteuner
ondersteuners
ondersteuning
onderstreep
onderteken
ondertekenaars
ondertekening
ondertussen
onderverdeel
ondervind
ondervinding
ondervindings
ondervoorsitter
ondervra
onderwater
onderwe
onderweg
onderwerp
onderwerpe
onderwerping
onderworpe
onderwys
onderwysdepartement
onderwysdiploma
onderwyser
onderwyseres
onderwysers
onderwysinstellings
onderwyskollege
onderwysstelsel
ondoeltreffend
onduidelik
one
oneindig
oneindige
onenigheid
onepage
onerkende
onervare
ones
onewe
ongeag
ongedaan
ongee
ongekende
ongeldig
ongelooflike
ongeluk
ongelukke
ongelukkig
ongelukkige
ongelyk
ongelyke
ongelykheid
ongemak
ongepubliseerde
ongerepte
ongeskik
ongeskonde
ongetroud
ongetroude
ongetwyfeld
ongevalle
ongeveer
ongewenste
ongewerwelde
ongewerweldes
ongewild
ongewone
ongewoon
ongunstige
onherbergsame
onion
oniseerde
onkel
onkonvensionele
onkoste
onkruid
onkunde
onlangs
onlangse
online
onluste
only
onmiddellik
onmiddellike
onmin
onmoontlik
onmoontlike
onnodig
onnodige
ononderbroke
onoorwonne
onprakties
onree
onreg
onrus
ons
onse
onseker
onsekere
onsekerheid
onsigbaar
onsigbare
onskuld
onskuldig
onskuldige
onstabiel
onstabiele
onstabiliteit
onsterflike
onsterflikheid
onstuimige
onsuiwerhede
onsuksesvol
onsuksesvolle
onsydig
onsydige
ont
ontaard
ontario
ontberings
ontbied
ontbind
ontbinding
ontbloot
ontbossing
ontbrand
ontbreek
ontbrekende
ontbyt
ontdek
ontdekker
ontdekkers
ontdekking
ontdekkings
ontdekkingsreisiger
ontdekkingsreisigers
ontdekte
ontduik
onteien
ontevrede
ontevredenheid
ontgin
ontginning
onthaal
onthef
onthoof
onthou
onthul
onthulling
ontken
ontkenning
ontketen
ontkiem
ontkieming
ontlasting
ontleding
ontledings
ontleed
ontleen
ontlok
ontluikende
ontmoedig
ontmoet
ontmoeting
ontmoetings
ontneem
ontnugtering
ontologie
ontplof
ontploffende
ontploffing
ontploffings
ontplooi
ontplooiing
ontruim
ontruiming
ontsaglike
ontset
ontslaan
ontslae
ontslag
ontslape
ontsluit
ontsnap
ontsnapping
ontspan
ontspanne
ontspanning
ontspring
ontstaan
ontsteek
ontsteking
ontstel
ontsteld
ontsteltenis
ontsyfer
onttrek
onttrekking
onttroon
ontvang
ontvanger
ontvangers
ontvangs
ontvlug
ontvlugting
ontvoer
ontvoering
ontvolking
ontwaking
ontwerp
ontwerpe
ontwerper
ontwerpers
ontwerpte
ontwikkel
ontwikkelaar
ontwikkelaars
ontwikkelde
ontwikkelende
ontwikkeling
ontwikkelinge
ontwikkelings
ontwrig
ontwrigting
onveranderd
onverboe
onvergeetlike
onverklaarbare
onvermoe
onvermoeide
onvermydelik
onvermydelike
onverskrokke
onverwags
onverwagse
onverwagte
onvoldoende
onvolledige
onvoltooid
onvoltooide
onvolwasse
onwaar
onwaarskynlik
onwettig
onwettige
onwillig
onze
oog
oogmerk
oogpunt
ooie
ooit
ook
oom
oomblik
oomblikke
oond
oop
oopbron
oopgaan
oopgemaak
oopgestel
oopmaak
oor
oorbevolking
oorbeweiding
oorbly
oorblyfsel
oorblyfsels
oorblywende
oorbodig
oorbrug
oord
oorde
oordeel
oordosis
oordra
oordraagbare
oordrag
oordrewe
ooreen
ooreengekom
ooreengestem
ooreenkom
ooreenkoms
ooreenkomste
ooreenkomstig
ooreenstem
ooreenstemmende
ooreenstemming
oorerflike
oorgaan
oorgang
oorgange
oorgangstydperk
oorganklike
oorgawe
oorgebly
oorgedra
oorgee
oorgegaan
oorgegee
oorgekom
oorgelaat
oorgelewer
oorgelewerde
oorgeloop
oorgeneem
oorgeplaas
oorgeskakel
oorgesteek
oorgrote
oorhand
oorhandig
oorheers
oorheersend
oorheersende
oorheersing
oorhoofse
oorkant
oorkoepelende
oorkom
oorkruis
oorl
oorlede
oorledene
oorledenes
oorleef
oorleg
oorlewende
oorlewendes
oorlewering
oorlewerings
oorlewing
oorloe
oorlog
oorlogse
oorlogsjare
oorlogskepe
oorlogskip
oorlogsmisdade
oorlogstyd
oorlogsvlag
oorlogvoering
oormaat
oormag
oormatige
oornag
oorname
oorneem
oorreed
oorrompel
oorsaak
oorsake
oorsee
oorsese
oorsig
oorskadu
oorskakeling
oorskot
oorskry
oorsprong
oorspronge
oorspronklik
oorspronklike
oorspronklikheid
oorsteek
oorstroming
oorstromings
oorstroom
oort
oortollige
oortreders
oortreding
oortredings
oortree
oortref
oortreffend
oortreffende
oortrek
oortuig
oortuigend
oortuigende
oortuiging
oortuigings
oortwolk
oorval
oorvertel
oorvleuel
oorvloed
oorvloedige
oorweeg
oorwegend
oorweging
oorwegings
oorweldig
oorweldigend
oorweldigende
oorwin
oorwinnaar
oorwinning
oorwinnings
oorwinter
oos
oosgrens
ooskus
oossee
oost
ooste
oostekant
oostelike
oostenryk
oostenryks
oostenrykse
oosters
oosterse
oosthuizen
ooswaarts
op
opbloei
opbou
opbreek
opbrengs
opbrengste
opdaag
opdoen
opdrag
opdragte
ope
opeenvolgende
opeenvolging
opel
open
openbaar
openbare
openbaring
opening
openinge
openlik
openlike
opens
oper
opera
operahuis
operas
operasangeres
operasie
operasies
operasioneel
operasionele
operateur
operateurs
operation
operations
operator
operette
opfer
opgang
opgeblaas
opgebou
opgebreek
opgebruik
opgedaag
opgedateer
opgedeel
opgedoen
opgedra
opgee
opgegee
opgegradeer
opgegrawe
opgehang
opgehef
opgehou
opgeknap
opgekom
opgelaai
opgele
opgelei
opgeleide
opgelewer
opgelig
opgelos
opgeloste
opgemeet
opgemerk
opgeneem
opgerig
opgeroep
opgeruk
opgeskort
opgesluit
opgesom
opgespoor
opgestaan
opgestel
opgestyg
opgeteken
opgetekende
opgetel
opgetree
opgetrek
opgevang
opgevoed
opgevoede
opgevoer
opgevolg
opgevul
opgewek
opgewonde
opgradering
opgrawings
opheffing
ophelia
ophou
opinie
opinies
opinion
opium
opknapping
opkom
opkomende
opkoms
oplaag
opleiding
opleidingskollege
oplewer
oplewing
oplos
oplosbaar
oplosbaarheid
oplosbare
oplosmiddel
oplosmiddels
oplossing
oplossings
opm
opmars
opmerking
opmerkings
opmerklik
opmerklike
opname
opnames
opneem
opnuut
opoffering
oppas
oppenheimer
opper
opperbevelhebber
opperbevelvoerder
oppergesag
opperhoof
opperman
opperste
oppervlak
oppervlakke
oppervlakkige
oppervlakte
oppervlaktemperatuur
oppervlaktes
oppervlakwater
opponent
opponente
opponerende
opportunity
opposisie
opposition
oprah
opregte
oprig
oprigting
oproep
oproepe
oproer
opset
opsetlik
opsetlike
opsie
opsies
opsig
opsigte
opsionele
opskrif
opslae
opsoek
opsomming
opspoor
opsporing
opspraakwekkende
opstaan
opstal
opstand
opstande
opstandelinge
opstandige
opstanding
opstel
opstelle
opstelling
opstyg
opstyging
opswaai
opsy
optel
optical
optiese
optika
optimale
optimisme
option
optog
optogte
optrede
optredes
optree
opus
opvallend
opvallende
opvallendste
opvanggebied
opvatting
opvattings
opvoeding
opvoedkunde
opvoedkundige
opvoer
opvoering
opvoerings
opvolg
opvolgende
opvolger
opvolgers
opvolging
opwaarts
opwaartse
opwek
opwekking
opwinding
or
ora
oracle
orakel
oral
orale
orals
orange
orania
oranje
oranjerivier
oranjerivierkolonie
oratorium
orbea
orbit
orbitaal
orbital
orbitale
orbiting
orbits
orchestra
orchestre
orchid
orde
ordening
order
orders
ordes
ordinary
ordo
ordonnansie
ore
oregon
org
orgaan
organe
organic
organiese
organisasie
organisasies
organisation
organisatoriese
organiseer
organiseerder
organisering
organisme
organismes
organization
orgasme
orgidee
orgue
ori
orie
orient
oriental
orientalis
orientation
orige
origens
origin
original
originals
origins
orion
orkaan
orkes
orkeste
orkestrale
orkney
orlando
orle
orleans
ornamente
oro
oromo
orphan
orpheus
orrel
orrelis
orreliste
orsini
orson
orthodox
ortodoks
ortodokse
ortografie
orville
orwell
oryx
os
osaka
osborne
oscar
oscars
oseaan
oseane
oseanie
oseaniese
osiris
oskar
oslo
osman
osmotiese
osprey
oss
osse
ossetie
ossewa
ossewaens
ostia
ostwald
oswald
ot
otago
othello
other
others
othonna
otis
otjimbingwe
otjiwarongo
ots
ott
ottawa
otto
ottomaanse
ottoman
ottomane
ou
ouboet
oud
oude
ouderdom
ouderdomme
ouderdomsgroep
ouderdomsperk
ouderling
ouderlinge
oudhede
oudheid
oudio
ouditeur
ouditorium
oudl
oudnoors
oudste
oudstes
oudtshoorn
oue
ouer
ouere
ouerhuis
ouers
ouetehuis
oulitnet
ouma
oup
oupa
our
ours
out
outbreak
outeniekwaberge
outentieke
outer
outeur
outeurs
outeursafkorting
outisme
outjo
outlaw
outlaws
outline
outlook
outo
outobiografie
outobiografiese
outokratiese
outomaties
outomatiese
outonome
outonomie
outorite
outoriteit
outreach
outside
outsider
outta
outtakes
outydse
ouverture
ov
ovaal
ovaalvormig
ovaalvormige
oval
ovambo
ovamboland
over
overberg
overijssel
overland
overseas
overview
ovidius
ovs
owen
owens
owerhede
owerheid
owerspel
own
ox
oxford
oxygen
oz
ozoroa
oə
p
pa
paa
paaie
paal
paaltjie
paaltjies
paar
paarl
paartjie
paartjies
paaseiland
paasfees
pablo
pac
pace
pachypodium
pacific
pack
packard
pact
pad
padda
paddas
paddington
paddy
padnetwerk
padua
pagan
paganini
page
pages
pagos
pai
paid
paige
pain
paint
painted
painter
painting
paintings
pair
pak
pakendorf
pakistan
pakistanse
pakket
pakkette
pakkies
pakt
pal
palace
palaiologos
palais
palau
palazzo
pale
paleis
paleise
paleogeen
paleolitikum
paleontoloe
paleontologie
paleontology
paleontoloog
paleoseen
paleosoi
palermo
palestina
palestine
palestyne
palestynse
palgrave
pali
paling
palladium
pallas
palm
palma
palme
palmer
palms
palmyra
pals
paltrow
palts
paltsgraaf
pama
pamela
pamflet
pamflette
pan
panama
panda
pandemie
pandora
paneel
panel
panele
panic
paniek
panne
panorama
pansini
pantei
panteon
pantheon
panther
panthera
pants
pantser
panzer
paolo
pap
papa
papacy
papegaaie
paper
paperback
papers
papier
papillon
papirus
papoea
pappa
papua
par
para
parade
parades
paradies
paradigma
paradise
paradoks
paradys
paragraaf
paraguay
paralimpiese
parallel
parallelle
parameter
parameters
paramount
parana
paranormal
paranormale
parasetamol
parasiet
parasiete
parasitiese
parc
pardon
pare
parenkiem
parent
parenthood
parents
parfuum
paring
paris
parish
park
parke
parker
parkeraad
parkinson
parks
parktown
parlement
parlemente
parlementsgebou
parlementslede
parlementslid
parliament
parma
parodie
parody
parole
parool
parow
parry
parsek
parsie
parsons
part
partement
partements
partial
particle
partie
parties
partiese
partikel
partikels
partitief
partituur
partner
partners
partnership
partridge
parts
party
partye
partykeer
partyleier
partytjie
parys
paryse
pas
pascal
pasch
paschalis
pasgebore
pasie
pasifiese
pasp
paspoort
pass
passage
passasier
passasiers
passe
passenger
passer
passes
passie
passief
passievolle
passiewe
passing
passion
passions
passport
past
pasta
pasternak
pasteur
pastoor
pastor
pastorale
pastorie
pat
patch
patel
patent
patente
paterson
path
paths
patient
patients
patogene
paton
patria
patriarg
patriargaat
patricia
patrick
patriot
patriotiese
patriotisme
patriotte
patrol
patrollie
patrone
patroniem
patroon
patrys
patterns
patterson
patti
pattinson
patton
paul
paula
pauli
pauline
paulo
paulus
pauly
pauridia
pausanias
pauw
pawiljoen
pawn
pax
paxton
pay
payne
pays
paz
pb
pbs
pc
pd
pdf
pe
peabody
peace
peach
peacock
peak
peaks
pearce
pearl
pears
pearson
pearston
peck
pecos
peddie
pedro
peek
peel
peep
peer
peet
pegasus
peggy
peil
pejmɔ
pektorale
pelgrims
pelham
pelle
pellissier
peloponnesiese
pels
pelse
pelser
pen
penalty
penares
pendelaars
pendeltuig
penelope
penetrasie
peng
penguin
penguins
peninsula
penis
penisillien
penn
penne
pennsilvanie
pennsylvania
penny
pens
pensioen
pentagon
penthouse
people
peoples
peper
pepper
pepyn
per
peratiewe
perception
perciformes
percy
perd
perde
perdekrag
perdry
pere
perez
perfect
perfek
perfekte
performance
performances
performing
pergamon
perihelium
perikles
peril
perils
period
periode
periodes
periodiek
periodieke
perk
perke
perkins
perkussie
perlman
perm
permanent
permanente
pero
peroen
perold
perrier
perry
pers
persberig
perse
perseel
persele
persent
persentasie
persepsie
perseus
persia
persian
persie
persies
persiese
perskor
person
persona
personal
personality
persone
personeel
personeellede
persons
persoon
persoonlik
persoonlike
persoonlikhede
persoonlikheid
perspective
perspectives
perspektief
perspektiewe
persverklaring
perth
peru
perugia
pes
pest
pet
pete
peter
peters
petersburg
petersen
peterson
petisie
petit
petite
petra
petrarca
petrarch
petrie
petro
petrograd
petrol
petrolenjin
petroleum
petronella
petrosia
petrosiidae
petrus
petrusburg
petticoat
peugeot
peule
peyton
pez
pf
pg
ph
phage
phakellia
phalaborwa
phalacrocorax
phane
phantom
pharaohs
pharos
phase
phd
pheiffer
phenomenon
pheronema
phi
phil
philadelphia
philharmonia
philharmonic
philharmoniker
philip
philipp
philippe
philippines
philippolis
philippus
philips
philipstown
phillip
phillips
philo
philosopher
philosophical
philosophie
philosophy
phloeodictyidae
phnom
phoenix
phone
phorbas
photo
photographic
photography
photometric
photometry
photos
php
phra
phu
phyllis
phylogenetic
phylogeny
phylum
phys
physical
physics
physiology
pi
pia
pianis
pianist
pianiste
piano
piazza
pic
picasso
piccadilly
pick
picton
picture
pictures
pie
piece
pieces
piek
pieke
pienaar
pienk
pier
pierce
pierneef
piero
pierre
piesangs
piet
pieter
pietermaritzburg
pietersburg
pieterse
pieterskerk
pietro
pig
pigment
pigmente
pik
piketberg
pikkewyn
pikkewyne
pilaar
pilare
pilatus
pilgrim
pilgrimage
pilot
pimpernel
pin
pine
pinelands
pines
pinetown
ping
pink
pinkster
pinky
pinocchio
pinto
pinyin
pion
pione
pioneer
pioneers
pionier
pioniers
pionne
pipeline
piper
piramide
piramides
piranha
pirate
pirates
pirelli
pirenee
piroklastiese
pirow
pisa
pisera
pistorius
pit
pitch
pitt
pittsburgh
pius
pizza
pj
pjotr
pk
pl
pla
plaag
plaas
plaasgevind
plaashuis
plaaslik
plaaslike
plaasskool
plaasvervanger
plaasvind
plaat
plaatje
plaats
plaattektoniek
place
places
placid
plae
plafon
plague
plain
plains
plan
planck
plane
planeet
planet
planetary
planete
planets
planke
plankton
planne
planning
plans
plant
plantaardige
plantasies
plante
plantegroei
plantkunde
plantkundige
plantmateriaal
plants
plantsoftheworldonline
plantspesie
plantspesies
plantzafrica
plase
plasenta
plasing
plasma
plastic
plastiek
plastiese
plat
plata
plate
platekontrak
platemaatskappy
platform
platforms
platinum
plato
platorand
platteland
plattelandse
platz
play
playboy
played
player
players
playground
playhouse
playing
plays
plaza
plc
please
pleasure
pleeg
plegtig
plegtige
plegtigheid
pleidooi
plein
pleistocene
pleistoseen
pleit
plek
plekke
plekkie
pleknaamwoordeboek
plekname
pleks
plesier
plessis
plettenberg
plettenbergbaai
pli
plig
pligte
plinius
ploeg
plofbare
plofstof
plooy
plos
plot
plu
pluimbal
pluimvee
pluk
plunder
plundering
plus
plutarchus
pluto
plutonium
plymouth
pm
pmc
pmid
pnas
po
pocket
podcast
podium
poe
poecillastra
poeier
poel
poele
poelfase
poelln
poema
poemas
poems
poesjkin
poet
poetin
poetry
poets
pofadder
poging
pogings
pohl
point
points
poison
poissons
poitiers
pokal
poke
poker
pokke
pol
poland
polar
polaris
pole
polemiek
poli
police
policy
polie
poliepe
polimeer
polimere
polinesie
polinesiese
polio
polis
polish
polisie
polisiediens
polisiemag
polisieman
polisiemanne
politburo
political
politici
politics
politiek
politieke
polities
politiese
politikus
politische
poll
pollock
pollution
polly
polo
polokwane
pols
poltergeist
polukarpus
polymastia
polymastiidae
polynesian
pomare
pommere
pomp
pompe
pompeii
pompeius
pond
pondoland
pone
pont
ponte
pontiffs
pontificalis
pontifikaat
pony
poog
pooh
pool
pools
poolse
poor
poort
poorte
poot
pop
popcorn
pope
popes
pople
popmusiek
poppe
popper
poppie
popular
populasie
populasies
population
populations
popule
por
porifera
porn
porno
pornografie
pornografiese
porsche
porselein
port
porta
portaal
portal
porte
portefeulje
porter
porterville
portland
porto
portrait
portraits
portret
portrette
ports
portsmouth
portugal
portugees
portugese
portuguese
pos
posdiens
poseidon
poseidonios
posgevat
posisie
posisies
positief
positiewe
position
positive
poskantoor
posmeester
posse
possee
possession
possible
post
postal
poste
postma
postmasburg
postmoderne
postmodernisme
postscript
postuum
postuur
pot
potato
potchefstroom
potchefstroomse
pote
potensiaal
potensie
potensieel
potential
potgieter
potgietersrus
potlood
potsdam
potte
pottebakkery
potter
potts
pou
pound
pour
pous
pouse
pouslike
poverty
powder
powell
power
powerful
powers
powo
poznan
pp
ppen
pr
pra
praag
praat
practical
practice
practices
pradesh
prado
praeger
prag
pragtig
pragtige
prague
prairie
praise
prakties
praktiese
praktiseer
praktisyns
praktyk
praktyke
pratt
pray
prayer
pre
preacher
precinct
precious
predator
predikant
predikante
predikantsvrou
predikatief
prediker
prediking
preek
preekstoel
preez
prefek
prefekture
prefektuur
prehistoric
prehistoriese
prehistory
preis
prejudice
preke
preliminary
preller
prelude
preludes
premie
premier
premiere
premierskap
premio
premium
prent
prente
prentice
prentjie
prepositief
pres
presbiteriaanse
presbyterian
presence
present
presentation
presents
presessie
presidency
presidensie
president
presidente
presidential
presidents
presidentskap
presidentsverkiesing
presies
presiese
presley
press
presse
pressure
prestasie
prestasies
presteer
prestige
preston
pret
pretoria
pretoriase
pretorius
pretty
prevention
preview
previous
prey
pri
price
pride
prieska
priest
priester
priesters
prijs
prikkel
prikkeling
prikkels
prima
primary
primate
prime
primetime
primitief
primitiewe
primitive
primrose
prince
princes
princess
princeton
principal
principle
principles
pringle
prins
prinsdom
prinse
prinses
prinsloo
print
printing
prinz
prior
prioriteit
prisma
prison
prisoner
prisoners
privaat
privaatheid
privaatskool
private
prix
prize
pro
probe
probeer
probleem
problem
problematiek
problematies
probleme
problems
proc
proceedings
process
processes
processing
producers
product
production
productions
products
produk
produksie
produksies
produkte
produktief
produktiewe
produktiwiteit
produseer
produsent
produsente
proef
proefskrif
proewe
prof
profeet
profesiee
profession
professional
professioneel
professionele
professor
professoraat
professore
profete
proff
profiel
profile
profiles
program
programmatuur
programme
programmeertaal
programmering
progress
progressiewe
project
projects
projek
projeksie
projekte
proklamasie
prokofie
prokureur
prokureurs
proletariaat
prom
prometheus
prominent
prominente
promise
promised
promises
promosie
promoveer
proms
pronk
proof
prooi
prop
propaan
propaganda
proper
properties
property
prophet
proponent
proporsies
proporsionele
proposal
propulsion
prosa
prosedure
prosedures
proses
prosesse
prospects
prostitusie
prostitute
prostituut
protagonis
protea
proteas
proteaspesies
protect
protection
protei
protein
protektoraat
protes
protest
protestant
protestante
protestantisme
protestantse
proteste
protesteer
protests
proteus
proto
protocol
protokol
protokolle
proton
protone
protonotarius
protoplanete
protosuberites
prototipe
prototipes
proud
provence
provided
providence
province
provinces
provincial
provinsiale
provinsie
provinsies
proxima
proxy
pru
pruise
pruisiese
pryor
prys
pryse
prysgegee
prysgeld
ps
psa
psalm
psalms
psammocinia
psammoclema
pseudo
pseudowetenskap
psi
psige
psigiater
psigiatriese
psigiese
psigoanalise
psigologiese
psoralea
psyche
psychiatric
psychiatry
psycho
psychological
psychology
pt
pta
ptah
ptolemaeus
ptolemei
ptolemeus
pty
pu
pub
puberteit
public
publication
publications
publiek
publieke
publikasie
publikasies
publique
publiseer
published
publisher
publishers
publishing
publisiteit
publius
puccini
pueblo
puerto
puffinus
puik
puin
puk
pulitzer
pulitzerprys
pulp
pulsar
pulse
puma
pumas
punch
punctuation
punies
puniese
punishment
punjab
punk
punt
punte
puntelee
punteverskil
puppet
puppy
puranas
purcell
pure
purple
purpose
pursuit
push
pussy
put
putin
putnam
putting
puzzle
pv
pw
pygmalion
pyl
pyle
pyn
pynlike
pyp
pype
pyporrel
pyramid
pyre
pythagoras
python
pza
pɑ
pɔ
q
qantas
qatar
qi
qin
qing
qquad
qt
qu
quad
quality
quantum
quarter
quarterly
quartet
quaternary
quattro
que
quebec
quebecstad
queen
queens
queensland
queenstown
queer
quentin
quest
question
questions
qui
quick
quiet
quinn
quintus
quixote
quiz
quo
qur
quran
r
ra
raad
raadgewende
raadgewer
raadgewers
raadpleeg
raadsaal
raadslede
raadslid
raaf
raai
raaisel
raak
raakgesien
raam
raamwerk
rabbi
rabbit
rabie
rables
race
races
rache
rachel
rachelle
rachmaninoff
racing
racket
rad
radar
rade
radford
radial
radiale
radiation
radical
radii
radikaal
radikale
radio
radioaktiewe
radioaktiwiteit
radiodrama
radiodramas
radiogolwe
radioprogram
radioprogramme
radiosondergrense
radiostasie
radiostasies
radium
radius
radon
rae
raf
rafael
raffles
rage
ragnar
rahman
rai
raid
raider
raiders
rail
railroad
railway
railways
rain
rainbow
rainer
rainfall
rainier
raise
raising
rak
rakende
ral
rally
ralph
ram
rama
ramaphosa
rame
raming
ramings
ramme
ramo
ramosa
ramp
rampe
rampspoedige
ramsar
ramsay
ramses
ramsey
ran
ranch
rand
randall
randburg
rande
randfontein
randi
randolph
random
randse
randy
rang
range
ranger
rangers
ranglys
rangorde
rangskik
rangskikking
rangtelwoord
rank
ranking
rankings
ransom
rant
rante
rao
raoul
rap
rapa
rape
raper
raphael
rapid
rapids
rapp
rappaport
rapport
rapporteer
rapportprys
rard
rare
rargie
ras
rasionale
rasionalisme
rasionele
rasmus
rasmussen
raspailia
raspailiidae
raspoetin
rasse
rasseskeiding
rassisme
rassistiese
rat
rate
rates
rath
rather
ration
ratkas
rats
rattus
rau
rauch
rautenbach
ravel
raven
ravenna
ravi
raw
rawhide
rawls
ray
raymond
razin
rb
rca
rd
rde
rdinasie
rdinate
rdinatestelsel
rdineer
rdineerde
rdoba
re
rea
reach
reaching
reaction
read
reader
reading
ready
reagan
reageer
reaksie
reaksies
reaksione
reaktief
reaktiewe
reaktor
real
realisme
realisties
realistiese
realiteit
reality
really
realm
reason
reasons
rebecca
rebel
rebelle
rebellie
rebellion
rebels
reborn
recall
recent
recht
reckless
reckoning
recognition
reconstruction
record
recorded
recording
recordings
records
recovery
recreation
red
redaksie
redaksiekomitee
redaksiekommissie
redaksionele
redakteur
redakteurs
redakteurskap
reddersburg
redding
rede
redelik
redelike
redelinghuys
redemption
redenaar
redenasie
redeneer
redery
redes
redevoering
redford
redigeer
redigering
redirect
redlist
reds
reduction
reduksie
ree
reed
reeds
reef
reeks
reekse
reeksmoordenaar
reel
reenen
rees
reeves
ref
referaat
referate
reference
references
referendum
reflections
refleks
refleksie
reflekteer
reform
reformasie
reformed
refs
refugees
reg
regan
regarding
regbank
regdeur
regeer
regency
regent
regentskap
regerende
regering
regerings
regeringsetel
regeringshoof
regeringstelsel
reggekry
reggestel
reggio
reghoek
reghoekig
reghoekige
regie
regime
regiment
regimente
regimes
regina
reginald
regio
region
regional
regionalliga
regions
regisseur
regisseurs
regisseuse
register
registers
registrasie
registrateur
registreer
regmatige
regoor
regop
regs
regse
regsgeleerde
regspraak
regstelsel
regstreeks
regstreekse
regte
regter
regterhand
regterkant
regterlike
regteroewer
regters
regtig
reguit
regular
regulasies
regulation
reguleer
regulering
regverdig
regverdige
regverdigheid
regverdiging
rehabilitasie
rehoboth
rei
reich
reid
reign
reik
reikafstand
reilande
reilly
reims
rein
reine
reinecker
reiner
reinet
reinhard
reinheid
reinhold
reis
reise
reisende
reisiger
reisigers
reiswig
reitz
rek
reken
rekenaar
rekenaars
rekenaarwetenskap
rekening
rekeninge
rekeningkunde
rekeningkundige
rekenkunde
reklame
rekonstruksie
rekord
rekords
rektor
rel
relaas
related
relatief
relatiewe
relation
relations
relationship
relationships
relative
relatiwiteit
relatiwiteitsteorie
reld
reldbank
reldbekende
reldbeker
reldbekerkwalifisering
reldbekertoernooi
reldbekertoernooie
reldbekerwedstryd
reldbeskouing
reldbevolking
relddele
relde
relderfenis
relderfenisgebied
relderfenisgebiede
reldgesondheidsorganisasie
reldkampioen
reldkampioenskap
reldkrieketliga
reldlike
reldmark
reldoorloe
reldoorlog
reldranglys
reldrekord
reldrugby
reldse
reldspektrum
reldtentoonstelling
reldwyd
reldwye
release
released
releases
relevant
relevante
relie
relief
religie
religieuse
religion
religions
religious
rels
reluctant
rem
remains
remarkable
rembrandt
remember
remembered
remembering
remembers
remembrance
remington
remix
ren
renaissance
renault
renbaan
rendezvous
rene
renegade
renegades
reneke
renjaer
renne
rennes
reno
renoster
renosters
renosterveld
rens
rensburg
rent
rente
rep
repertoire
repertorium
replika
report
reported
reporter
reports
representation
reprint
reptiel
reptiele
reptiles
repu
republic
republican
republiek
republieke
republiekwording
republik
republikein
republikeine
republikeinse
reputasie
request
requiem
requires
rer
res
rescue
research
resensent
resensente
resensie
resensies
resep
resepte
reseptore
reservaat
reservate
reserve
reservoir
reserwe
reserwebank
reserwes
resessie
residensie
resident
resies
resistance
resolusie
resolution
resonansie
resort
resource
resources
respek
respekteer
respektiewelik
respiratoriese
response
responses
ressorteer
rest
restaurant
restaurante
reste
restless
restoration
restourante
restourasie
restourasiewerk
restoureer
result
resultaat
resultate
results
resurrection
retha
reticulata
retief
retina
retoriek
retoriese
retreat
retrieved
retrograde
retrospective
return
returns
reuben
reuk
reunion
reus
reusagtige
reuse
reusester
reuters
rev
reveal
revealed
reveals
revelation
revenge
review
reviews
revised
revision
revisited
revista
revival
revolt
revolusie
revolusione
revolution
revolutionary
revolutions
revue
reward
rewolusie
rewolusies
rewolusione
rex
rey
reykjavik
reyneke
reynolds
rez
reza
rf
rfc
rfu
rg
rganismes
rgb
rgen
rgn
rgroep
rh
rhabdastrella
rhabderemia
rhapsody
rhein
rhino
rhizaxinella
rho
rhode
rhodes
rhodesia
rhodesie
rhodesiese
rhodos
rhuis
rhys
rhythm
ri
ria
riaad
riaan
riana
ribbes
ribeiro
ric
rica
ricaanse
ricardo
riccardo
ricciardo
rice
rich
richard
richards
richardsbaai
richardson
richelieu
riches
richie
richmond
richter
richtersveld
rick
ricky
rico
ridder
ridders
riddle
ride
rider
riders
rides
ridge
ridin
riding
ridley
ridpath
rie
riebeeck
riebeek
riefenstahl
riemann
riet
riete
rietfontein
rietrivier
rif
rifles
rig
riga
right
rightarrow
rights
rigiede
riglyne
rigting
rigtings
riina
rijksmuseum
rijn
riksdaalders
riley
rilke
riller
rim
rin
rina
ring
ringe
ringen
ringer
rings
ringskommissie
rio
riot
rip
ripper
rise
rises
risiko
rising
risk
rissik
rit
rita
ritchie
rite
rites
ritme
ritmes
ritmiese
ritter
ritual
ritueel
rituele
ritz
rivals
river
rivera
rivers
riversdal
riverside
rivier
riviera
rivierbedding
riviere
rivierloop
riviermondings
rivieroewers
riviersonderend
riviersonderendberge
rivonia
riwwe
riə
rj
rjoerik
rk
rm
rms
rn
rna
rns
ro
road
roads
roar
roaring
rob
robbe
robbeneiland
robbery
robbie
robbins
robert
roberto
roberts
robertson
robiese
robin
robinson
robocop
robot
robots
robson
robusta
rocco
roche
rochelle
rochester
rock
rockefeller
rocket
rockgroep
rockies
rocks
rockwell
rocky
rococo
rod
rode
rodgers
rodin
rodney
rodri
rodrigo
rodriguez
roe
roei
roelof
roem
roemeens
roemeense
roemenie
roep
roeping
roer
roes
roete
roetes
roetine
roets
rofweg
rog
roger
rogers
roggeveld
rogliewe
rogue
roi
rok
rol
roland
role
rolf
roll
rolle
roller
rollers
rolling
rolls
rolprent
rolprentbedryf
rolprentdatabasis
rolprentdebuut
rolprente
rolprentfees
rolprentmaker
rolprentregisseur
rolprentvervaardiger
rolspelers
rolverdeling
rom
roma
romaanse
romagna
romain
roman
romana
romance
romani
romania
romano
romanof
romanos
romanovs
romans
romanse
romanskrywer
romantic
romantiek
romanties
romantiese
rome
romein
romeine
romeins
romeinse
romeo
rommel
romp
romulea
romulus
ron
ronald
rond
ronde
rondebosch
rondom
rondte
rondtes
ronnie
roodepoort
roodt
roof
roofdier
roofdiere
rooftogte
roofvoe
rooi
rooibos
rooibruin
rooierig
rooierige
rooikat
rooilys
rooisee
rooiverskuiwing
rooiwyn
rook
rookie
room
rooms
roomse
roomys
roos
roosevelt
rooster
root
roots
rooy
rooyen
rope
ros
rosa
rosaceae
rosalind
rosario
rosberg
rose
rosebank
rosemary
rosen
rosenberg
rosenthal
roses
rosetta
rosie
ross
rossella
rossellidae
rossellini
rossetti
rossi
rossini
rosso
rossouw
rostock
rostof
rot
rota
rotasie
rotation
rotational
rote
roteer
roterende
roth
rots
rotsagtige
rotse
rotsgebergte
rotskuns
rotsriwwe
rotstekeninge
rotte
rotten
rotterdam
rou
rouch
rouen
rouge
rough
round
roundup
rourke
rousseau
roussillon
route
routledge
roux
rouxville
rover
rovere
row
rowan
rowe
rowers
rowland
rowman
rowwe
roy
royal
royale
royce
rp
rpm
rr
rs
rsa
rsg
rskole
rskool
rt
rte
rterbuch
rttemberg
ru
ruan
rubber
ruben
rubens
rubin
rubinstein
rubriek
rubrieke
rubriekskrywer
ruby
rudd
rude
rudi
rudolf
rudolph
rudy
rue
rufus
rug
rugby
rugbyarchive
rugbyfederasie
rugbykampioenskap
rugbyraad
rugbyspan
rugbyspanne
rugbyspeler
rugbyunie
rugbyvoetbalunie
rugbywe
rugbywedstryde
rugbyworldcup
ruggraat
rugkant
rugmurg
rui
ruigtes
ruik
ruil
ruim
ruimte
ruimtelike
ruimtependeltuig
ruimtes
ruimtestasie
ruimteteleskoop
ruimtetuie
ruimtetuig
ruimtevaarder
ruimtevaarders
ruimtevaart
ruimtevlug
ruins
ruiter
ruiters
ruk
rukkie
rule
rulers
rules
ruling
rum
rumpff
run
runaway
rundfunk
rune
runner
running
runs
ruolie
rupert
rural
rus
ruschia
rush
rusie
rusland
rusplek
russ
russe
russel
russell
russia
russian
russians
russies
russiese
russo
rust
ruste
rustenburg
rustende
rustig
rustige
rustlers
rusty
rutgers
ruth
rutherford
rutte
ruwe
rvi
rwanda
ry
ryan
rye
ryk
rykdom
ryke
ryker
rykes
ryklik
ryksdag
rykste
rylaan
rym
rympies
ryn
rynland
rynse
ryp
rys
ryssen
rzburg
ræ
rœm
rɑ
rɑʔ
rɔ
rə
rɛ
rɪ
rɪn
rɯ
rɯn
rʊ
s
sa
saad
saadjie
saadjies
saag
saai
saak
saal
saam
saamgebring
saamgebundel
saamgeneem
saamgepers
saamgeperste
saamgesmelt
saamgesnoer
saamgespan
saamgestel
saamgestelde
saamgestem
saamgetrek
saamgeval
saamgevat
saamgevoeg
saamgewerk
saamsmelt
saamstel
saamstem
saamtrek
saamval
saamvloei
saamwerk
saans
saarland
saartjie
saba
sabbat
sabc
sabie
sabine
sabotage
sabotasie
sabra
sabrina
sacha
sachalin
sachs
sacred
sacrifice
sacs
sad
sadat
saddam
saddle
saddles
sade
sadie
sae
safari
safe
safety
saffraan
sag
saga
sagan
sagas
sage
sagittarius
sagrada
sagte
sagteband
sagter
sagteware
sahara
sahistory
sai
said
saigon
sailor
saint
sainte
saints
sainz
sak
sake
sakekern
sakelui
sakeman
sakemanne
sakeondernemings
sakke
sakkie
sakp
sakrale
sakrament
sakramente
sakse
saksers
saksies
saksiese
sakwoordeboek
sal
salaam
salaris
salarisse
saldanha
saldanhabaai
sale
salem
sales
salig
salisb
salisbury
sally
salm
salman
salmon
salome
salomo
salomon
salomonseilande
salon
salpetersuur
salt
salute
salutes
salvador
salvation
salvatore
salzburg
sam
sama
samaai
samantha
sambreelterm
same
samehang
samehangende
samekoms
samel
samelewing
samelewings
samesmelting
samesprekings
samest
samestellende
samesteller
samestellers
samestelling
samestellings
sameswering
sametrekking
samevatting
samevloei
samevloeiing
samevoeging
samewerking
sami
sammy
samoa
sampioene
sample
sampson
samson
samsung
samuel
samurai
san
sanbi
sanctuary
sand
sandduine
sander
sanderige
sanders
sandra
sandrivier
sands
sandspruit
sandsteen
sandstrande
sandton
sandveld
sandwich
sandy
sanford
sang
sanger
sangeres
sangers
sangfees
sangvoe
sanitasie
sanksies
sanlam
sannie
sannieshof
sans
sanskrit
sant
santa
santiago
santo
santos
sanzar
sao
saoed
saoedi
sap
sapa
sapiens
sapporo
sar
sara
sarah
sardinie
sarel
sargent
sargon
sarie
sarkady
sars
sartre
saru
sarugby
sas
sasha
saskatchewan
sasol
sasolburg
sassanidiese
sat
satan
satanic
satanisme
satelliet
satelliete
satellite
satellites
saterdag
saterdagaand
satie
satire
satiriese
sato
saturday
saturn
saturnus
sauber
saudi
sauer
sauk
saul
saunders
savage
savages
savannah
savanne
savannes
save
saved
saves
saving
savoie
savoje
savonarola
savoy
saw
sawyer
saxo
saxon
say
says
sb
sc
scala
scale
scandal
scandals
scar
scare
scarecrow
scared
scarface
scarlet
scary
scenario
scene
scenes
scha
schaik
schalekamp
schalk
schalkwyk
schatten
schedule
scheepers
schelde
schicksal
schiller
schleiermacher
schlesinger
schloß
schltr
schmidt
schmitt
schmitz
schnabel
schneider
scho
schoeman
schoenberg
scholar
scholars
scholtz
school
schools
schoonees
schoor
schreiner
schro
schu
schubert
schuld
schule
schultz
schulze
schumacher
schuman
schumann
schuster
schutte
schuur
schwantes
schwartz
schwarz
schwarze
schweiz
schweizer
schwerin
sci
scie
science
sciencedaily
sciences
scientific
scientist
scientists
scientology
scooby
score
scorecard
scored
scorpion
scorsese
scotia
scotland
scots
scott
scottish
scout
scouts
scream
screaming
screen
screw
scriba
scribner
script
sculpture
sd
sdss
se
sea
seal
sealed
seals
sean
search
searching
searle
searsia
seas
season
seasons
seat
seattle
sebastian
sebra
sebras
sec
second
secondary
seconds
secret
secretary
secrets
section
secunda
secure
security
sed
sedan
sederberg
sedert
sedertdien
sedes
sediment
sedimente
sedna
seds
seduction
see
seebodem
seed
seediere
seeds
seegebied
seehawe
seehawens
seeing
seek
seeking
seekoei
seekoeie
seekos
seeland
seelandse
seelewe
seeman
seemyl
seen
seep
seepunt
seer
seereis
seeroete
seerower
seerowers
seerowery
sees
seeslag
seespiee
seestraat
seestrome
seevaarder
seevaarders
seevlak
seevoe
seewater
sege
segment
segmente
sei
seil
seile
sein
seine
seinfeld
seismiese
seisoen
seisoenale
seisoene
sekel
sekelmaan
seker
sekere
sekerheid
sekerlik
sekhukhune
sekonde
sekondes
sekretaresse
sekretaris
seks
seksie
seksies
seksualiteit
seksueel
seksuele
sekte
sektor
sektore
sekule
sekuriteit
sel
selassie
selde
seldsaam
seldsame
select
selected
selection
seleksie
selektiewe
selena
seleukidiese
self
selfbeeld
selfbeskikking
selfbestuur
selfde
selfmoord
selfone
selfoon
selfregerende
selfregering
selfs
selfstandig
selfstandige
selfstandigheid
selfvertroue
selim
sell
selle
sellers
selling
sellule
sellulose
selma
selwand
sem
semantiese
semen
sement
semi
seminarie
semitiese
semmelweis
sen
senaat
senate
senator
senatore
send
sendeling
sendelinge
sender
senders
sending
sendinggemeente
sendinggenootskap
sendingkerk
sendingkommissie
sendings
sendingstasie
sendingstasies
sendingwerk
seneca
senegal
senegalensis
senekal
senior
senna
sens
sensasie
sensation
sense
sensitief
sensitiewe
sensitiwiteit
sensor
sensoriese
sensors
sensus
sensuur
sent
sentiment
sentimeter
sentinel
sentour
sentra
sentraal
sentrale
sentrum
sentrums
senuwee
senuwees
senuweestelsel
seoel
seoul
sep
separate
sepie
sept
september
sequel
sequence
sequoia
ser
seremonie
seremonies
serenade
serfontein
serge
sergeant
sergei
sergey
sergio
sergius
serial
serie
series
seringboom
serious
serpent
serruria
sersant
sertifikaat
servaas
serve
served
service
services
serwie
serwies
serwiese
ses
sesame
sesdaagse
sesde
sesnasies
sessie
session
sessions
sestien
sestiende
sestienjarige
sestig
sestiger
sestigerjare
sestigste
set
setel
setels
seth
seti
setlaar
setlaars
sets
setting
settlement
seun
seuns
seunskool
seuntjie
seurat
seven
seventeenth
seventh
severus
sevilla
sewe
sewejarige
sewende
sewentien
sewentiende
sewentig
sewentigerjare
sex
sexual
sexuality
sexy
seychelle
seymour
sf
sfeer
sferiese
sfinks
sforza
sg
sh
sha
shades
shadow
shadows
shah
shaka
shake
shakespeare
shall
shame
shameless
shane
shang
shanghai
shannon
shape
shaped
shapiro
share
sharif
sharing
shark
sharks
sharma
sharon
sharp
sharpe
sharpeville
shattered
shaun
shaw
shawn
she
sheep
sheet
sheffield
sheila
sheldon
shell
shelley
shelter
shepard
shepherd
sheppard
shepstone
sheridan
sheriff
sherlock
sherman
sherwood
shetland
shi
shield
shields
shift
shine
shining
ship
ships
shire
shirley
shiva
sho
shock
shoemaker
shoes
shoot
shooter
shooting
shop
shopping
shore
short
shorts
shot
shots
should
show
showalter
showcase
showdown
shower
shows
showtime
shrek
shrine
shu
shut
si
sia
siais
siam
siamese
sibbes
sibelius
siberia
siberian
siberie
siberiese
sic
sich
sichuan
sick
sid
side
sider
sidney
sidon
sie
sieben
siege
siegfried
siek
siekbed
siekes
siekte
siektes
siel
siele
sieletal
sielkunde
sielkundige
sielkundiges
siemens
sien
siena
siende
siener
siening
sienings
sienswyse
sierlike
sierra
sif
sig
sigarette
sigbaar
sigbaarheid
sigbare
sight
sigismund
sigma
sigmund
sign
signac
signal
signals
significance
signs
sigoot
sigself
sikliese
siklone
sikloon
siklus
siklusse
sil
silence
silent
silesie
silicon
silika
silikon
silinder
silinders
silindriese
silk
silkaats
silva
silver
silverman
silverstone
silverton
silvester
silwer
silwerdoek
silwermedalje
silwerrivier
silwerwit
sim
simba
simbad
simbole
simboliek
simbolies
simboliese
simboliseer
simbool
simeon
simfonie
simfoniee
simfonieorkes
simfoniese
simmetrie
simmetries
simmetriese
simmons
simon
simone
simons
simonstad
simpatie
simpatieke
simple
simplex
simpson
simpsons
simptome
simptoom
sims
simson
sin
sina
sinagoge
sinai
sinatra
sinbad
since
sinchroniese
sinclair
sind
sindroom
sing
singapoer
singapore
singer
singh
singing
single
singles
sings
singulariteit
sinister
sink
sinn
sinne
sinner
sinners
sino
sinodale
sinode
sinodes
sinoniem
sinonieme
sins
sint
sintaksis
sintese
sinteties
sintetiese
sintoetaal
sintuie
sintuiglike
sio
sionistiese
siprus
sir
sire
siren
sirie
siries
siriese
sirius
sirkel
sirkels
sirkelvormige
sirkulasie
sirkus
sis
sisiliaanse
sisilie
sisteem
sistematiese
sisteme
sister
sisters
sisulu
sit
sitcom
site
sites
sitkamer
sitoplasma
sitplek
sitplekke
sitrusvrugte
sittende
sitting
situasie
situasies
situation
siviele
six
sixteen
sixth
sixtus
sixty
size
sizwe
sj
sjabloon
sjah
sjanghai
sjef
sjii
sjimpansee
sjimpansees
sjina
sjinees
sjinese
sjokolade
sjostakowitsj
sk
ska
skaak
skaal
skaaldiere
skaam
skaap
skaar
skaars
skaarste
skade
skadelik
skadelike
skadevergoeding
skadu
skaduminister
skaduwee
skaduwees
skaf
skag
skakel
skakelaar
skakelaars
skakeling
skakels
skakering
skakerings
skale
skalie
skandaal
skande
skandinawie
skandinawiese
skape
skare
skares
skat
skatkis
skatte
skatting
skattings
skedel
skedels
skedule
skeepsbou
skeepswerf
skeepvaart
skeer
skei
skeiding
skeidsregter
skeidsregters
skeikunde
skelet
skeleton
skelette
skelm
skelter
skelton
skema
skemer
skending
skenk
skenker
skenking
skenkings
skep
skepe
skeppende
skepper
skepping
skeptic
skeptical
skeptici
skeptics
skepties
skeptiese
skeptisisme
skerm
skerms
skermutseling
skerp
skerpioen
skerpioene
sketch
sketches
skets
sketse
skeur
skeurbuik
skeure
skeuring
skeurvallei
ski
skielik
skielike
skiereiland
skies
skiet
skietstilstand
skiettoring
skikking
skil
skild
skilde
skilder
skilderkuns
skilders
skilderwerk
skildery
skilderye
skildhoek
skildhoof
skildklier
skilpaaie
skilpad
skin
skinner
skip
skipbreuk
skipper
skisma
skitie
skitterende
sklerose
sko
skoen
skoene
skoenlapper
skoenlappers
skok
skole
skoliere
skone
skool
skoolgaan
skoolgebou
skoolgegaan
skoolhoof
skoolkinders
skoolloopbaan
skoolopleiding
skoolraad
skoon
skoongemaak
skoonheid
skoonmaak
skoonpa
skoonseun
skoonvader
skoot
skop
skote
skotland
skots
skotse
skotte
skou
skouer
skouers
skouspel
skouspelagtige
skraal
skree
skriba
skrif
skrifte
skriftelike
skrik
skrikkeljaar
skrikkeljare
skroef
skroewe
skryf
skryfkuns
skryfstelsel
skryfster
skryfstyl
skryftaal
skryfwerk
skryfwyse
skrywe
skrywer
skrywers
skrywersalbum
skrywersgilde
skrywerskring
skrywes
sku
skubbe
skud
skuif
skuil
skuiling
skuilnaam
skuilname
skuilplek
skuim
skuins
skuld
skuldig
skuldlas
skull
skulp
skulpe
skuur
sky
skyf
skyfies
skyn
skynbaar
skynbare
skynsel
skywe
sl
slaaf
slaag
slaags
slaai
slaan
slaap
slaapkamer
slabbert
slade
slae
slag
slagoffer
slagoffers
slagskip
slagspreuk
slagtande
slagtersnek
slagting
slagveld
slak
slakke
slam
slang
slange
slank
slanke
slap
slate
slater
slave
slavery
slaves
slavin
slavistiek
slawe
slawehandel
slawerny
slawie
slawies
slawiese
slayer
slee
sleep
sleeping
sleeps
sleeswyk
sleg
slegs
slegte
sleutel
sleutelbord
sleutelrol
sleutels
slik
slim
slinger
slingsby
sloan
sloane
sloping
slot
slotsom
slotte
slow
slowaaks
slowaakse
slowakye
sloweens
slowenie
sluier
sluipmoord
sluipmoordaanval
sluise
sluit
sluiting
sluk
slukderm
slym
slymvlies
sm
sma
smaak
smal
small
smarag
smart
sme
smee
smeer
smell
smelt
smeltpunt
smile
smiling
smit
smith
smithfield
smithsonian
smoke
smoking
smolensk
sms
smuts
sn
snaaks
snags
snake
snakes
snapper
snare
snawel
snawels
sneeu
sneeuval
snel
snelhede
snelheid
snelle
snelwee
snelweg
sneuwel
snijman
snit
snitte
snoet
snoop
snow
snv
sny
snyder
snyman
so
soap
soc
soccer
social
socialist
socie
societies
society
sociology
soda
sodanig
sodanige
sodat
sodoende
sodra
soedan
soek
soeke
soektog
soen
soenda
soera
soest
soet
soewereine
soewereiniteit
soezdal
sofia
soft
software
sogenaamde
soggens
sohn
soho
soi
soil
soir
sojoes
sokker
sokkerafdeling
sokkerkampioenskap
sokkerklub
sokkerliga
sokkerspan
sokkerspanne
sokkerspeler
sokkies
sokrates
sol
solank
solar
sold
soldaat
soldate
soldier
soldiers
sole
soleer
soleerde
soleil
solid
solidariteit
soliede
solis
soliste
sollas
solo
solomon
solution
solutions
solzhenitsyn
som
somalie
somaliese
somaliland
some
somebody
someone
somer
somermaande
somers
somerset
somerspele
somertyd
something
somewhere
somme
sommer
sommige
sommiges
soms
somtyds
son
sonata
sonate
sonates
sond
sondae
sondag
sondagkoerant
sondagskool
sonde
sonder
sondes
sone
sonenergie
sones
song
songod
songs
songz
sonic
sonja
sonlig
sonmassas
sonne
sonnebaan
sonnestelsel
sonnet
sonnette
sonnige
sonny
sononder
sonop
sonora
sonpanele
sons
sonskyn
sonsondergang
sonsopkoms
sonsverduistering
sonwind
sony
soo
soogdier
soogdiere
soon
soort
soorte
soortgelyk
soortgelyke
soos
sop
sophia
sophie
sophokles
sopraan
sopranos
sorbies
sorbonne
sorcerer
sorg
sorghum
sorgvuldig
soria
sorority
sorry
sos
soseer
sosiaal
sosiale
sosialisme
sosialiste
sosialistiese
sosio
sosiologie
sosiologiese
sosioloog
sotho
soto
sou
soul
souls
sound
sounds
soup
source
sourcebook
sources
souropodes
sous
sout
soute
soutgehalte
south
southafrica
southampton
southeast
southern
southwest
soutpansberg
soutrivier
soutsuur
soutwater
souvenir
soveel
sover
soviet
sowat
sowel
soweto
sowjet
sowjetrepubliek
sowjetse
sowjetunie
sp
spa
spaans
spaanse
spaar
space
spacecraft
spacex
spaghetti
spain
span
spandeer
spanish
spanjaarde
spanje
spanmaat
spanne
spanning
spanninge
spannings
spark
sparks
sparrow
sparta
spartacus
spasie
spasies
spat
spd
speak
speaker
speaking
speaks
spears
special
specialist
specials
species
specific
specifications
specimen
spectacular
spectator
spectral
spectroscopic
spectroscopy
spectrum
speech
speed
speeksel
speel
speelgoed
spek
spektraaltipe
spektroskopie
spektroskopiese
spektrum
spekulasie
spel
spele
speler
spelers
speletjie
speletjies
spelling
spelonken
spelree
spence
spencer
sperm
sperma
speserye
spesiaal
spesiale
spesialis
spesialiseer
spesialiste
spesie
spesies
spesifiek
spesifieke
spesifikasie
spesifikasies
spesifiseer
speurder
sphinx
spice
spicejet
spider
spiee
spiegel
spiel
spielberg
spier
spiere
spierwit
spies
spiese
spike
spikkels
spikula
spil
spilmoondhede
spilpunt
spin
spinnekop
spinnekoppe
spinosa
spinoza
spioen
spioenasie
spioene
spiraal
spiraalarms
spiral
spirit
spirits
spiritual
spiritualiteit
spirituele
spit
spitfire
spits
spitsberaad
spitzer
splendid
split
spoed
spoedig
spoel
spoelstra
spoetnik
spog
spoke
spongillidae
sponginevesels
spons
sponsdiere
sponse
sponsspesie
spontaan
spontane
spook
spoor
spoorlyn
spoorlyne
spoorwee
spoorweg
spoorwegmaatskappy
spoorwegstasie
sporadies
spore
sport
sporte
sporting
sportklub
sports
sportsoort
sportsoorte
spot
spotlight
spotted
spp
spraak
sprache
sprake
spread
spreek
spreekpouse
spreektaal
sprekende
spreker
sprekers
spreuke
spring
springbok
springbokboeke
springbokkaptein
springbokke
springbokrugbyspeler
springboks
springer
springfield
springs
sprinkane
sprokie
sprokies
sprong
spronge
spruit
spruite
spuit
spur
spurs
spuy
spy
spyker
spysverteringskanaal
spysverteringstelsel
spyt
spyte
sqrt
squad
squadron
square
squares
sr
sri
ss
ssa
ssc
sseldorf
ssr
st
sta
staaf
staak
staal
staan
staande
staanspoor
staar
staat
staatgemaak
staatkundige
staatmaak
staats
staatsamptenaar
staatsamptenare
staatsbeheerde
staatsdiens
staatsekretaris
staatsgebied
staatsgodsdiens
staatsgreep
staatsgrepe
staatshoof
staatshoofde
staatskerk
staatskoerant
staatsman
staatsopera
staatspresident
staatsraad
staatsteater
staatsuniversiteit
staatsvorm
stabiel
stabiele
stabiliseer
stabiliteit
stable
stacey
stad
stade
staden
stadhouer
stadhuis
stadia
stadig
stadigaan
stadige
stadiger
stadion
stadions
stadium
stadiums
stadsaal
stadsbeplanning
stadsbuurt
stadsbuurte
stadsdeel
stadsdele
stadsentrum
stadsgebied
stadskern
stadsmure
stadsmuur
stadsraad
stadsregering
stadstaat
stadstate
stadstatus
stadswyk
stadt
staf
staff
stafford
stafhoof
stafies
stage
stagecoach
stages
stake
stakers
staking
stakings
stal
stalin
stalingrad
stallion
stals
stam
stamboom
stamhoofde
stamme
stamp
stampede
stamvader
stan
stand
standaard
standaarde
standaardmodel
standaardtaal
standaardtyd
standard
standards
standbeeld
standbeelde
stande
stander
standerd
standerton
standhoudende
standing
standplaas
standplase
standpunt
standpunte
standvoe
stanford
stanhope
stanisław
stanley
stanton
stap
stapel
stapelvoedsel
stappe
star
stardust
stargate
stark
starlight
starr
starring
stars
starship
start
started
stasie
stasies
stat
state
statebond
statebondspele
statebybel
statement
staten
states
statesman
statiese
statige
station
statistical
statistics
statistiek
statistieke
statistiese
statistik
stats
statue
status
statute
statuut
stay
ste
steal
stealing
steam
stede
stedelike
steeds
steek
steel
steele
steen
steenberg
steenbok
steenkamp
steenkool
steenkoolmyne
steenselle
steentydperk
stefan
stefano
stefanus
stegmann
steil
stein
steinberg
steiner
steinkopf
stekels
stel
stele
stella
stellaland
stellar
stelle
stellenbosch
stellenboschwriters
stellenbosse
stellend
stelling
stellings
stelsel
stelselmatig
stelselmatige
stelsels
stem
stemgeregtigdes
stemme
stemming
stempel
stemreg
stene
step
stephan
stephanie
stephanus
stephen
stephens
stephenson
steppe
steps
ster
stereo
sterf
sterfbed
sterfgevalle
sterflike
sterfte
sterftes
sterftesyfer
sterk
sterke
sterker
sterkste
sterkstroom
sterkte
sterling
stern
sterna
sternaamwerkgroep
steroi
sterre
sterrebeeld
sterrebeelde
sterreich
sterreklassifikasie
sterrekunde
sterrekundige
sterrekundiges
sterrestelsel
sterrestelsels
sterrestelselswerm
sterreswerm
sterreswerms
sterrewag
stert
sterte
stertvin
stervorming
sterwe
sterwende
steun
steuring
steurings
steve
steven
stevens
stevenson
stewart
stewig
stewige
steyn
steynsburg
steytler
steytlerville
sti
stichting
stick
sties
stiese
stig
stigma
stigter
stigters
stigterslede
stigterslid
stigting
stigtingsdatum
stikstof
stil
stilbaai
stilfontein
still
stille
stiller
stillewe
stillewes
stilstaande
stilstand
stilte
stimulasie
stimuleer
stimuli
stimulus
sting
stingel
stingels
stirling
stm
sto
stock
stockenstro
stockholm
stoei
stoel
stoele
stoep
stof
stofberg
stoffberg
stoffel
stoflike
stogastiese
stoi
stok
stoker
stokes
stokke
stokowski
stokperdjie
stol
stole
stolen
stomp
stone
stonehenge
stones
stonewall
stooges
stoom
stoomenjin
stoomlokomotief
stoomlokomotiewe
stoomskip
stoor
stoot
stop
stopgesit
storage
store
storia
storie
storielyn
stories
storieverteller
storiewerf
storm
stormagtige
stormberg
stormers
storms
stormvoe
stormy
stort
storting
story
stoughton
stoute
stowwe
stra
straal
straat
straatsburg
strabo
strachan
stradivari
stradivarius
straf
straight
strain
strale
straling
stralsund
strand
strande
strandmeer
strandmere
strandveld
strange
stranger
strangers
strangler
strasbourg
strate
strategic
strategie
strategiee
strategies
strategiese
strategy
stratford
straus
strauss
straw
strawberry
strawinski
strawwe
straße
streak
stream
streef
streek
streeks
streeksname
streeksroete
streeksroetes
streep
street
streets
strek
streke
streng
strenger
strength
strepe
strepies
stres
stress
strewe
strictly
strijdom
strike
strikes
string
stringe
strings
strip
stripes
stroke
strokiesprent
strokiesprente
strome
stroming
strominge
strong
strooi
strook
stroom
stroomaf
stroombaan
stroombane
stroomop
stroomversnellings
stroop
strooptogte
stroud
struck
structural
structure
structures
struggle
struik
struike
struikelblokke
strukture
strukturele
struktuur
strumaria
stry
stryd
strydenburg
strydende
strydom
stryk
strykinstrumente
strykkwartet
strykkwartette
sts
stu
stuart
stuck
studeer
student
studente
studentejare
studenteraad
studentevereniging
students
studie
studien
studies
studieveld
studio
studios
study
stuff
stuifmeel
stuit
stuk
stukke
stukkend
stukkie
stukkies
stukrag
stunde
stunt
stupid
sturm
stut
stutterheim
stuttgart
stuur
stuurman
styf
styg
stygende
styging
styl
style
styles
stysel
stywe
su
sub
suba
subatomiese
suberitidae
subfamilie
subfamilies
subgroep
subgroepe
subjects
subjektiewe
subklas
subkontinent
submarine
suborde
subplek
subpopulasies
subsidies
subsp
subspesie
subspesies
substansie
substraat
subtiel
subtiele
subtitel
subtropiese
suburban
suburbs
success
successful
succession
such
suck
sud
sudan
sudden
suddenly
sue
suetonius
suez
suezkanaal
sugar
sugarbush
suggereer
suggestie
sui
suicide
suid
suide
suideiland
suidekant
suidelike
suidelikste
suider
suiderkruis
suidkus
suidoos
suidooste
suidoostelike
suidpool
suidpunt
suidwaarts
suidwes
suidweste
suidwestelike
suier
suig
suiker
suikerriet
suikers
suile
suisse
suit
suite
suiwelprodukte
suiwer
suiwerheid
suiwering
suk
sukkel
sukkulente
sukovs
sukses
suksesse
suksesvol
suksesvolle
suksesvolste
sul
sulke
sulks
sulla
sullivan
sultan
sultanaat
sum
sumatra
sumer
sumeries
sumeriese
summary
summer
summers
summier
summit
sun
sundance
sunday
sundown
sung
sunny
sunnyside
sunrise
sunset
sunshine
suny
supe
super
superfamilie
supergiants
supergirl
superintendent
superior
superkontinent
superman
supermarkte
supernatural
supernova
supernovas
superrugby
superrugbykompetisie
supersoniese
supersport
superstar
superstars
superswerm
supplement
supply
support
supra
supreme
sur
sure
surf
surface
suriname
surprise
surrealisme
surrealistiese
surrender
surrey
surveillance
survey
surveyor
survival
survive
surviving
survivor
survivors
sus
susan
susanna
susanne
susie
suspect
suspense
suspicion
sussex
sussie
sustainable
suster
susters
sutherland
sutton
suur
suurstof
suzanne
suzman
suzuki
sv
svalbard
sve
sven
sveriges
sw
swa
swaai
swaan
swaar
swaard
swaarde
swaarder
swaarkry
swaarste
swaartekrag
swaartepunt
swael
swaelsuur
swaer
swahili
swak
swakhede
swakheid
swakke
swakker
swakopmund
swakste
swam
swamme
swamp
swan
swanepoel
swanger
swangerskap
swapo
swart
swartberg
swartberge
swartes
swartkolk
swartkolke
swartland
swartmense
swartruggens
swartsee
swartwoud
swartz
swastika
swawel
swazi
swaziland
swede
sweden
swedish
sweeds
sweedse
sweef
sweeney
sweep
sweer
sweet
sweetheart
sweethearts
swellendam
swelling
swem
swembad
swembaddens
swemmer
swemmers
swerm
swerms
swerwer
swift
swim
swing
swiss
switch
switserduitse
switserland
switsers
switserse
switzerland
sword
sy
sycettidae
sycettusa
sycon
syd
sydney
sye
syfer
syfers
sykes
sylvester
sylvia
sylyn
symbol
symbols
symphonie
symphony
symposium
syn
synde
syndrome
syne
synthesis
syracuse
syria
syroete
system
systema
systematic
systematics
systems
sytak
sytakke
sz
szigeti
szila
søren
sɔ
sə
sɛ
t
ta
taai
taak
taal
taalbeweging
taalfamilie
taalfamilies
taalgebied
taalgebruik
taalgenoot
taalgroep
taalkommissie
taalkunde
taalkundige
taalkundiges
taalraad
taalstryder
taamlik
taamlike
tab
tabachnick
tabak
tabel
tabelle
table
tables
tablet
tablette
tacitus
tadeusz
tadjikistan
taetse
tafel
tafelbaai
tafelberg
tafels
tafeltennis
tag
tage
tagtig
tagtigerjare
tahiti
tai
tail
tails
taipei
taiping
tait
taiwan
tak
take
taken
takes
taking
takke
takkies
takrivier
takson
taksonomie
taksonomiese
taktiek
taktiese
tal
talbot
tale
talent
talente
talentvolle
tales
taliban
talk
talking
talks
tall
talle
tallinn
tallose
talmoed
talryke
tam
tamara
tamaties
tambo
tamboerskloof
tamil
taming
tammy
tan
tand
tande
tang
tanganjika
tangled
tango
tanita
tank
tanks
tankwa
tanner
tannie
tans
tant
tante
tanzania
tanzanie
tao
taoi
tap
tape
tapes
tapyte
tara
target
targets
tariewe
tarkastad
tartare
tarzan
tas
tasbare
taschenbuch
task
tasman
tasmanie
taste
tat
tatare
tate
tatoes
tatort
tattoo
tau
taunus
tauris
taurus
taxa
taxdetails
taxi
taxon
taxonomic
taxonomy
taylor
tb
tbilisi
tc
tcm
te
tea
teacher
teachers
teaching
team
teams
tears
teater
teaters
teatro
teau
tebaldi
tech
technical
technikon
technique
techniques
technologies
technology
ted
teddy
tee
teel
teen
teenaan
teenage
teengestaan
teenkanting
teenoor
teenoorgestelde
teenoorstaande
teenpous
teens
teenstaan
teenstand
teenstander
teenstanders
teenstelling
teenstellings
teenstrydig
teenstrydige
teenstrydighede
teenstrydigheid
teenswoordig
teenswoordige
teenvoeter
teenwoordig
teenwoordige
teenwoordigheid
teer
teeth
tegelyk
tegelykertyd
tegemoet
tegen
tegniek
tegnieke
tegnies
tegniese
tegnologie
tegnologiee
tegnologiese
teheran
tehuis
tei
teiken
teikens
teil
teit
teite
teken
tekenaar
tekening
tekeninge
tekens
tekort
tekorte
tekortkominge
teks
tekste
tekstiel
tekstielbedryf
tekstiele
tekstuur
tektoniese
tel
tele
telefoon
telegraaf
telegram
telegraph
telekommunikasie
telephone
telescope
teleskoop
teleskope
teleurgesteld
teleurstellend
teleurstelling
televisie
televisieprogram
televisieprogramme
televisiereeks
televisiereekse
television
teling
telkens
tell
teller
telling
tellings
tema
temas
tematiek
tematiese
tempel
tempelhof
tempels
tempera
temperament
temperature
temperatuur
tempest
temple
tempo
temps
temptation
ten
tendens
tendense
tender
tenders
tenerife
tenk
tenks
tenminste
tennessee
tennis
tennisspeler
tenoor
tensy
tent
tentakels
tente
tenth
tentoonstelling
tenuis
teoloe
teologie
teologiese
teoloog
teoretici
teoreties
teoretiese
teoretikus
teorie
teoriee
ter
terapeutiese
terapie
terblanche
tereg
tereggestel
teregstelling
teregstellings
terence
teresa
term
terme
termiese
termiete
terminaal
terminal
terminale
terminator
terminologie
terminology
termodinamiese
termodinamika
terms
termyn
termyne
terra
terracotta
terras
terrasse
terre
terrein
terreine
terrestrial
terreur
terrible
territoriale
territories
territory
terror
terrorism
terrorisme
terroriste
terry
terselfdertyd
tersie
terug
terugbesorg
terugdateer
terugflitse
teruggebring
teruggedryf
teruggee
teruggegee
teruggekeer
teruggeneem
teruggeroep
teruggesak
teruggestuur
teruggetrek
teruggeval
teruggevoer
terugkeer
terugkerende
terugkoms
terugreis
terugslae
terugslag
terugtog
terugtrek
terugval
terugvoer
terwyl
tes
tesame
tesis
tesla
tesourie
tesourier
tess
tessa
test
testament
testamentiese
testikels
testing
tests
tetillidae
tetrae
teufel
tevergeefs
tevore
tevrede
teweeg
teweegbring
teweeggebring
tewens
tex
texan
texas
text
texts
th
tha
thaba
thabazimbi
thabo
thai
thailand
thaise
thames
than
thank
thanks
thanksgiving
that
thatcher
the
thea
theater
theatre
thebe
theguardian
their
thelma
them
thema
then
theo
theodor
theodora
theodore
theodorus
theodosius
theological
theology
theophilus
theoretical
theories
theory
thepeerage
therapy
theravada
there
theresa
thermal
theron
these
thesis
theta
theunis
theunissen
theuns
they
thibault
thief
thiele
thieves
thin
thing
things
think
thinking
third
thirteen
thirteenth
thirty
this
thom
thomas
thompson
thomson
thor
thoreau
thorectidae
thorn
thorne
thornton
those
thou
thought
thoughts
thousand
thousands
threat
threatened
three
thrill
thriller
throne
thrones
through
thru
thu
thukydides
thule
thunb
thunberg
thunder
thunderbolt
thundering
thursday
thy
thys
ti
tiananmen
tianjin
tiberius
tibet
tibettaanse
tica
tick
ticket
tide
tie
tien
tiende
tienduisende
tiener
tienerjare
tieners
tienie
tienjarige
tienne
tientalle
tier
tiere
ties
tiese
tiffany
tig
tiger
tigers
tight
tigray
tigris
tijd
tijdschrift
tik
tikmasjien
til
till
tim
timber
timboektoe
time
timeline
times
timeslive
timmerman
timmins
timon
timor
timothy
tin
tina
tiny
tip
tipe
tipes
tipies
tipiese
tiran
tiriese
tirion
tirol
tirus
tis
titaan
titan
titane
titanic
titans
titel
titelrol
titels
titelverhaal
title
tito
tits
titule
titus
tj
tjaart
tjellis
tjello
tjie
tl
tm
tn
tnam
tnamees
tnamese
tnamoorlog
tnt
to
toast
tobacco
tobago
tobias
tobie
toby
tochter
tockus
tod
today
todd
todes
toe
toediening
toedoen
toegang
toeganklik
toeganklike
toegedien
toegee
toegeken
toegelaat
toegele
toegemaak
toegeneem
toegepas
toegepaste
toegerus
toegese
toegeskryf
toegespits
toegespreek
toegestaan
toegetree
toegevoeg
toegewy
toegewyde
toegewys
toeken
toekenning
toekennings
toekenningsaand
toekoms
toekomstige
toelaat
toelating
toen
toenadering
toename
toendra
toeneem
toenemend
toenemende
toenmalige
toepas
toepaslike
toepassing
toepassings
toepolef
toer
toere
toergenef
toerien
toerisme
toerismebedryf
toeriste
toeristebestemming
toernooi
toernooie
toerusting
toesig
toeskouers
toespits
toespraak
toesprake
toestand
toestande
toestel
toestelle
toestemming
toetankamen
toetmoses
toetrede
toetreding
toets
toetse
toetsing
toetskrieket
toetsreeks
toetsstatus
toetsvliee
toetswedstryd
toetswedstryde
toeval
toevallig
toevallige
toevertrou
toevlug
toevlugsoord
toevoeging
toevoer
toewyding
tog
together
togo
toilet
toit
tokelau
tokio
tokyo
tol
told
toledo
tolk
tolkien
toll
tolstoi
tom
tomahawk
tomas
tomato
tomatoes
tomb
tombe
tombstone
tome
tomlinson
tommaso
tommy
tomorrow
ton
tonder
tone
toneel
toneelgeselskap
toneelskrywer
toneelspel
toneelstuk
toneelstukke
tonele
tong
tonga
tongue
toni
tonight
tonnel
tonnels
tony
too
tooi
took
tool
tools
toom
toon
toonaangewende
toonhoogte
toonleer
toonsetting
toonsettings
top
topic
topografie
topografiese
toppunt
tops
topsent
topsenti
topverkoper
tor
tora
torch
toring
torings
tornado
toro
toronto
torpedo
torque
torre
torres
tosca
toscanini
toskane
tot
totaal
total
totale
totally
totdat
totem
totius
totstandkoming
tou
touch
toue
tough
toulouse
tour
tourism
tourist
tournament
tours
tout
touwsrivier
toward
towards
towenaar
tower
towers
town
towns
townsend
township
townships
toy
toyota
toys
tr
tra
trace
tracey
trachyandra
track
tracks
tracy
trade
trading
tradisie
tradisies
tradisioneel
tradisionele
tradition
traditional
traditions
traffic
tragedie
tragedies
tragedy
tragiese
trail
trailer
trails
train
training
traitor
trajanus
trajek
traktement
tramp
trane
trans
transactions
transaksie
transaksies
transatlantiese
transformasie
transformation
transformeer
transformers
transgender
transistor
transistors
transit
transition
transkei
transkripsie
translated
translation
transliterasie
transmissie
transmission
transnet
transport
transportation
transvaal
transvaalse
transvaler
transvalers
trant
trap
trappe
trapped
traum
trauma
traumatiese
travel
traveler
traveling
travels
travis
tre
treason
treasure
treasures
treasury
treat
treatment
treaty
tred
tree
trees
treetags
tref
treffend
treffende
treffer
treffers
tregardt
trein
treine
treinstasie
trek
trekboere
trekke
trekkers
trekpleister
trekvoe
trems
trends
trent
trente
tres
treurnicht
treviso
trevor
trey
tri
trial
trials
triangle
trias
triassic
tribe
tribes
tribunaal
tribune
tribute
trichardt
trick
tricks
trier
tries
trigger
trillings
trilogie
trilogy
tringa
trinidad
trinity
trio
triomf
trip
triple
tripoli
tristan
triton
tritonia
tritoniopsis
triumph
tro
troepe
troeteldiere
trofee
trois
trojaanse
trojan
trojane
troje
tromme
trompet
tromspeler
tronk
tronke
tronkstraf
troon
troonbestyging
troonopvolger
troonopvolging
troop
trooper
troopers
troops
troos
trop
trope
trophy
tropical
tropiese
troppe
trosse
trots
trotse
trotseer
trotsky
trou
trouble
troue
trouens
trouw
troy
troyes
tru
true
trui
truie
truk
truman
trump
trust
trustees
truter
truth
try
trying
ts
tsaar
tsar
tsaristiese
tshwane
tsitsikamma
tsjad
tsjaikofski
tsjechof
tsjeggie
tsjeggies
tsjeggiese
tsjeggo
tsjetsjnie
tsjikatilo
tsoenami
tsonga
tsumeb
tsv
tswana
tt
tte
tter
ttingen
ttir
tu
tuberkulose
tucker
tucson
tudes
tudor
tuesday
tugela
tugelarivier
tuie
tuig
tuin
tuine
tuinier
tuinroete
tuis
tuisblad
tuisdorp
tuisland
tuislande
tuisnasies
tuisstadion
tuiste
tuisveld
tuiswedstryd
tuiswedstryde
tulbagh
tulbaghia
tuna
tune
tunes
tunisie
tunnel
turbine
turbines
turbo
turdus
turf
turffontein
turing
turke
turkey
turki
turkic
turkish
turkmenistan
turks
turkse
turkye
turn
turned
turner
turning
turns
turtles
turyn
tus
tussen
tussenbeide
tussenganger
tussenin
tussenposes
tussentydse
tussenverkiesing
tut
tutu
tuvalu
tv
tvl
tvsa
twaalf
twaalfde
twain
twee
tweed
tweede
tweedens
tweehonderd
tweeledige
tweeling
tweemotorige
tweeslagtig
tweetalig
tweetalige
tweevoud
twelfth
twelve
twente
twentieth
twenty
twer
twice
twickenham
twilight
twin
twins
twintig
twintigerjare
twintigste
twis
twist
twisted
twitter
two
twyfel
twyfelagtige
txt
ty
tycho
tyd
tyde
tydelik
tydelike
tydens
tydgenoot
tydgenote
tydjie
tydlyn
tydperk
tydperke
tydren
tydsduur
tydskaal
tydskrif
tydskrifte
tydskriftemaatskappy
tydsnede
tydsone
tydstip
tydsverloop
tydvak
tye
tygerberg
tylecodon
tyler
type
types
tz
tzaneen
tzler
tɑ
tɔn
tɔnrɔ
tə
tər
tɛ
u
ua
uae
ubuntu
uc
uca
ucla
ud
udf
uefa
uffizi
ufo
uganda
ugie
ugly
ui
uie
uighuric
uigur
uiguric
uil
uile
uit
uitbarsting
uitbarstings
uitbeeld
uitbeelding
uitbeeldings
uitbetaal
uitbou
uitbraak
uitbreek
uitbrei
uitbreiding
uitbreidings
uitbroei
uitbuiting
uitdagende
uitdaging
uitdagings
uitdruk
uitdrukking
uitdrukkings
uitdruklik
uitdying
uiteen
uiteengesit
uiteenlopend
uiteenlopende
uiteensetting
uiteensit
uiteindelik
uiteindelike
uitenhage
uiteraard
uiterlike
uiters
uiterste
uiterstes
uitg
uitgaan
uitgang
uitgangspunt
uitgawe
uitgawes
uitgebars
uitgebeeld
uitgeblink
uitgebou
uitgeboul
uitgebragte
uitgebreek
uitgebrei
uitgebreid
uitgebreide
uitgebring
uitgebroei
uitgebuit
uitgedaag
uitgedeel
uitgedien
uitgedink
uitgedraf
uitgedruk
uitgee
uitgegaan
uitgegee
uitgegrawe
uitgehaal
uitgeken
uitgekom
uitgelaat
uitgele
uitgelewer
uitgelig
uitgelok
uitgeloop
uitgemaak
uitgenooi
uitgeoefen
uitgeput
uitgereik
uitgerekte
uitgeroei
uitgeroep
uitgeruil
uitgesaai
uitgesien
uitgesit
uitgeskakel
uitgeskei
uitgeskryf
uitgesluit
uitgesoekte
uitgesonder
uitgespeel
uitgespreek
uitgesproke
uitgestal
uitgesteek
uitgestel
uitgesterf
uitgestorwe
uitgestraal
uitgestrek
uitgestrekte
uitgestuur
uitgetree
uitgetrek
uitgevaardig
uitgeverij
uitgevers
uitgevind
uitgevoer
uitgewer
uitgewerk
uitgewers
uitgewersbedryf
uitgewery
uitgewis
uitgewyk
uitgewys
uitgrawings
uitheemse
uithouvermoe
uiting
uitklopfase
uitkom
uitkoms
uitkomste
uitkyk
uitlaat
uitlaatgasse
uitlanders
uitlatings
uitleg
uitloop
uitloper
uitlopers
uitmaak
uitmekaar
uitmond
uitmuntende
uitnemende
uitnemendheid
uitnodiging
uitoefen
uitputting
uitreik
uitreiking
uitroep
uitruil
uitruiling
uitrusting
uitsaai
uitsaaier
uitsaaikorporasie
uitsending
uitsendings
uitset
uitsetting
uitsien
uitsig
uitsit
uitskakeling
uitslae
uitslag
uitsluit
uitsluitend
uitsluiting
uitsluitlik
uitsluitlike
uitsondering
uitsonderings
uitsonderlik
uitsonderlike
uitspeelwedstryd
uitspeelwedstryde
uitspraak
uitsprake
uitspreek
uitstaan
uitstaande
uitstalling
uitstallings
uitsteek
uitsteeksels
uitstek
uitstekend
uitstekende
uitstel
uitsterf
uitsterwing
uitstraal
uitstraling
uittog
uittrede
uittreksel
uittreksels
uitverkoop
[...]
