!
"
#
##0
##1
##10
##11
##12
##13
##14
##15
##16
##17
##18
##19
##2
##20
##21
##22
##23
##24
##25
##26
##27
##28
##29
##3
##30
##31
##32
##33
##34
##35
##36
##37
##38
##39
##4
##40
##41
##42
##43
##44
##45
##46
##47
##48
##49
##5
##50
##51
##52
##53
##54
##55
##56
##57
##58
##59
##6
##60
##61
##62
##63
##64
##65
##66
##67
##68
##69
##7
##70
##71
##72
##73
##74
##75
##76
##77
##78
##79
##8
##80
##81
##82
##83
##84
##85
##86
##87
##88
##89
##9
##90
##91
##92
##93
##94
##95
##96
##97
##98
##99
$
%
&
'
(
)
*
+
,
-
.
/
0
00
000
001
002
003
005
007
01
01798
018
02
026
027
03
04
05
06
07
08
09
09165
1
10
100
1000
1001
101
1016
102
103
104
105
1050
1054
106
1066
107
108
1080
109
11
110
1100
111
112
113
114
115
1150
116
117
1170
118
119
12
120
1200
1204
121
122
1220
123
124
1240
1241
125
1250
126
127
1270
128
129
13
130
1300
131
132
1328
133
134
1348
135
1350
136
1368
137
1370
138
139
14
140
1400
141
1415
142
1420
1425
143
1430
1431
144
145
1450
1452
1453
1455
146
1460
1461
1469
147
1470
1471
1475
1478
148
1480
1481
1482
1483
1485
1486
1488
149
1490
1492
1493
1494
1495
1497
1498
1499
15
150
1500
1501
1502
1503
1505
1506
1509
151
1510
1513
1515
1516
1517
1518
1519
152
1520
1521
1523
1524
1525
1526
1527
153
1530
1532
1533
1534
1535
1536
1537
154
1540
1541
1542
1543
1546
1547
1549
155
1550
1552
1553
1555
1556
1557
1558
1559
156
1560
1561
1562
1564
1565
1566
1567
1568
157
1570
1571
1572
1574
1575
1576
1577
1578
158
1580
1581
1582
1584
1585
1587
1588
1589
159
1590
1591
1592
1593
1594
1595
1596
1598
1599
16
160
1600
1601
1602
1603
1604
1605
1606
1607
1608
1609
161
1610
1611
1612
1613
1614
1615
1616
1617
1618
1619
162
1620
1621
1622
1623
1624
1625
1626
1627
1628
1629
163
1630
1631
1632
1633
1634
1635
1636
1637
1638
1639
164
1640
1641
1642
1643
1644
1645
1646
1647
1648
1649
165
1650
1651
1652
1653
1654
1655
1656
1657
1658
1659
166
1660
1661
1662
1663
1664
1665
1666
1667
1668
1669
167
1670
1671
1672
1673
1674
1675
1676
1677
1678
1679
168
1680
1681
1682
1683
1684
1685
1686
1687
1688
1689
169
1690
1691
1692
1693
1694
1695
1696
1697
1698
1699
17
170
1700
1701
1702
1703
1704
1705
1706
1707
1708
1709
171
1710
1711
1712
1713
1714
1715
1716
1717
1718
1719
172
1720
1721
1722
1723
1724
1725
1726
1727
1728
1729
173
1730
1731
1732
1733
1734
1735
1736
1737
1738
1739
174
1740
1741
1742
1743
1744
1745
1746
1747
1748
1749
175
1750
1751
1752
1753
1754
1755
1756
1757
1758
1759
176
1760
1761
1762
1763
1764
1765
1766
1767
1768
1769
177
1770
1771
1772
1773
1774
1775
1776
1777
1778
1779
178
1780
1781
1782
1783
1784
1785
1786
1787
1788
1789
179
1790
1791
1792
1793
1794
1795
1796
1797
1798
1799
18
180
1800
1801
1802
1803
1804
1805
1806
1807
1808
1809
181
1810
1811
1812
1813
1814
1815
1816
1817
1818
1819
182
1820
1821
1822
1823
1824
1825
1826
1827
1828
1829
183
1830
1831
1832
1833
1834
1835
1836
1837
1838
1839
184
1840
1841
1842
1843
1844
1845
1846
1847
1848
1849
185
1850
1851
1852
1853
1854
1855
1856
1857
1858
1859
186
1860
1861
1862
1863
1864
1865
1866
1867
1868
1869
187
1870
1871
1872
1873
1874
1875
1876
1877
1878
1879
188
1880
1881
1882
1883
1884
1885
1886
1887
1888
1889
189
1890
1891
1892
1893
1894
1895
1896
1897
1898
1899
19
190
1900
1901
1902
1903
1904
1905
1906
1907
1908
1909
191
1910
1911
1912
1913
1914
1915
1916
1917
1918
1919
192
1920
1921
1922
1923
1924
1925
1926
1927
1928
1929
193
1930
1931
1932
1933
1934
1935
1936
1937
1938
1939
194
1940
1941
1942
1943
1944
1945
1946
1947
1948
1949
195
1950
1951
1952
1953
1954
1955
1956
1957
1958
1959
196
1960
1961
1962
1963
1964
1965
1966
1967
1968
1969
197
1970
1971
1972
1973
1974
1975
1976
1977
1978
1979
198
1980
1981
1982
1983
1984
1985
1986
1987
1988
1989
199
1990
1991
1992
1993
1994
1995
1996
1997
1998
1999
2
20
200
2000
2001
2002
2003
2004
2005
2006
2007
2008
2009
201
2010
2011
2012
2013
2014
2015
2016
2017
2018
2019
202
2020
2021
2022
2023
2024
2025
2026
2027
203
2030
204
205
2050
206
207
208
209
21
210
211
212
213
214
215
216
217
218
219
22
220
221
222
223
224
225
226
227
228
229
23
230
231
232
233
234
235
236
237
238
239
24
240
241
242
243
244
245
24528
246
247
248
249
25
250
2500
251
252
253
254
255
256
257
258
259
26
260
261
262
263
264
265
266
267
268
269
27
270
271
272
273
274
275
2759
276
277
278
279
28
280
281
282
283
284
285
286
287
288
289
29
290
291
292
293
294
295
296
297
298
299
3
30
300
3000
301
302
303
304
305
306
307
308
309
31
310
311
312
313
314
315
316
3166
317
318
319
32
320
321
322
323
324
325
326
327
328
329
33
330
331
332
333
334
335
336
337
338
339
34
340
341
342
343
344
345
346
347
348
349
35
350
351
352
353
354
355
356
357
358
359
36
360
361
362
363
364
365
366
367
368
369
37
370
372
373
374
375
376
377
378
379
38
380
381
382
383
384
385
386
387
388
39
390
391
392
393
394
395
396
399
4
40
400
4000
401
402
403
404
405
406
407
408
409
41
410
411
412
413
414
415
416
417
418
419
42
420
421
422
423
424
425
427
428
429
43
430
431
432
433
435
438
439
44
440
441
442
443
444
445
446
447
448
449
45
450
451
452
453
455
456
457
46
460
461
462
463
464
465
47
470
471
472
473
475
476
479
48
480
484
485
486
49
490
491
492
496
5
50
500
5000
501
502
503
504
505
506
507
508
51
510
511
512
515
518
52
520
521
525
527
53
530
533
534
535
536
538
539
54
540
545
55
550
553
555
56
560
562
565
57
570
571
575
58
580
581
587
59
590
6
60
600
6000
601
602
604
605
61
610
612
618
62
620
624
625
627
63
630
631
632
638
64
640
641
642
643
65
650
66
660
666
668
67
670
671
674
68
680
684
69
690
691
7
70
700
7000
707
71
710
711
72
720
727
73
730
737
74
747
75
750
751
752
76
760
767
77
770
77007
77009
77578
77584
777
78
780
787
79
7981
8
80
800
8000
802
81
810
82
820
83
830
832
84
840
84476
85
850
855
86
860
86842
86872
86919
87
870
876
877
88
880
89
9
90
900
90210
907
908409
91
911
912
917
92
920
920033
924
926
928
93
9352
94
940
95
950
96
960
97
978
98
980
99
999
:
;
<
=
>
?
@
\
^
_
`
a
aa
aalto
aalwyn
aalwyne
aalwynspesies
aan
aanbeveel
aanbeveling
aanbevelings
aanbevole
aanbid
aanbidding
aanbied
aanbieder
aanbieding
aanbiedinge
aanbiedings
aanbly
aanbod
aanboord
aanbou
aanbreek
aanbring
aand
aandag
aande
aandeel
aandeelhouer
aandeelhouers
aandele
aandelebeurs
aandete
aandoen
aandrang
aandring
aandryf
aandrywing
aandui
aanduidend
aanduiding
aanduidings
aaneenlopend
aaneenlopende
aangaan
aangaande
aangebied
aangebly
aangebore
aangebou
aangebreek
aangebring
aangedoen
aangedrewe
aangedring
aangedryf
aangedui
aangee
aangegaan
aangegee
aangegroei
aangegryp
aangehaal
aangehang
aangehelp
aangehoor
aangehou
aangekla
aangeknoop
aangekom
aangekondig
aangekoop
aangele
aangeleenthede
aangeleentheid
aangeleer
aangemeld
aangemoedig
aangenaam
aangename
aangeneem
aangenome
aangepak
aangepas
aangepaste
aangeplant
aangeraai
aangeraak
aangerand
aangerig
aangese
aangesien
aangesig
aangeskaf
aangeskakel
aangeslaan
aangesluit
aangespoor
aangespreek
aangesteek
aangestel
aangetas
aangeteken
aangetekende
aangetoon
aangetref
aangetrek
aangetrokke
aangeval
aangevoer
aangevra
aangevul
aangevuur
aangewakker
aangewend
aangewese
aangewys
aangrensend
aangrensende
aangrypende
aanhaling
aanhalings
aanhang
aanhanger
aanhangers
aanhangig
aanhou
aanhoudend
aanhoudende
aanhouding
aanklaer
aanklag
aanklagte
aanklank
aankom
aankomelinge
aankoms
aankondig
aankondiging
aankoop
aankope
aanle
aanleer
aanleg
aanlegte
aanleiding
aanliggende
aanloop
aanloopbaan
aanloopbane
aanlyn
aanmekaar
aanmerking
aanmoedig
aanmoediging
aanname
aannames
aanneem
aanneming
aanpak
aanpas
aanpassing
aanpassings
aanplant
aanraak
aanraking
aanranding
aanrig
aansien
aansienlik
aansienlike
aansig
aanskou
aanslae
aanslag
aansluit
aansluitend
aansluiting
aansoek
aansoeke
aansporing
aanspraak
aanspraakmaker
aanspraakmakers
aansprake
aanspreek
aansteeklike
aanstel
aanstelling
aanstellings
aanstoot
aantal
aantas
aanteken
aantekening
aantekeninge
aantoon
aantrek
aantrekking
aantrekkingskrag
aantreklik
aantreklike
aantreklikhede
aantreklikheid
aantygings
aanvaar
aanvaarbaar
aanvaarbare
aanvaarde
aanvaarding
aanval
aanvalle
aanvallende
aanvaller
aanvallers
aanvang
aanvanklik
aanvanklike
aanvoer
aanvoerder
aanvoering
aanvraag
aanvul
aanvullende
aanvulling
aanwend
aanwending
aanwendings
aanwesig
aanwesigheid
aanwysings
aap
aaptos
aar
aard
aardbewing
aardbewings
aardbol
aarde
aardgas
aardklop
aardkors
aardoppervlak
aardrykskunde
aardse
aardverwarming
aaron
aartappels
aartsbisdom
aartsbiskop
aartsengel
aas
aasvoe
ab
abba
abbas
abbey
abbott
abc
abchasie
abd
abdikasie
abdikeer
abdomen
abdu
abduction
abdul
abdullah
abdy
abe
abeba
abel
abell
abend
abenteuer
aberdeen
abigail
able
abner
abnormale
aboe
aborsie
about
above
abraham
abrahams
abroad
absa
abseits
absent
absolute
absolutely
absoluut
absorbeer
absorpsie
abstract
abstrak
abstraksie
abstrakte
absurde
abu
ac
acacia
acade
academia
academic
academica
academy
acanthascus
acanthella
acarnidae
acarnus
accademia
access
accessed
accident
accidental
according
account
accused
ace
aces
achaemenidiese
achajers
achenaten
achievement
achille
achilles
acid
ackerman
acre
acres
acrocephalus
across
act
acta
acting
action
activity
actor
actors
actress
acts
actually
ad
ada
adad
adagio
adam
adams
addams
addicted
addis
addisionele
ade
adel
adelaide
adele
adellike
adellikes
adelstand
aden
adieu
adjunk
adjunkminister
adjunkpresident
adler
administrasie
administrateur
administrateurs
administratief
administratiewe
administration
administreer
admiraal
admiral
ado
adolescent
adolessensie
adolessent
adolessente
adolf
adolph
adonis
adorno
adres
adresse
adri
adriaan
adrian
adriana
adrianus
adriatiese
adult
adults
adv
advanced
advent
adventure
adventurer
adventures
adverteer
advertensie
advertensies
advice
advies
adviseer
adviseur
adviseurs
advocate
advokaat
advokate
ae
aerosmith
af
afar
afbeelding
afbeeldings
afbetaal
afbreek
afbreuk
afc
afdeling
afdelings
afdelingsraad
afdelingswinkel
afdraai
afdruk
afdrukke
afdwing
affair
affairs
affekteer
afganistan
afgebaken
afgebeeld
afgebrand
afgebreek
afgedank
afgedruk
afgedwing
afgee
afgegee
afgehandel
afgekap
afgekeur
afgekoel
afgekom
afgekondig
afgekort
afgelaai
afgelas
afgele
afgelee
afgelei
afgeleide
afgeleides
afgelewer
afgelope
afgemaak
afgeneem
afgeplat
afgeplatte
afgerig
afgerond
afgeset
afgesien
afgesit
afgeskaal
afgeskaf
afgeskakel
afgeskei
afgeskiet
afgeskop
afgesluit
afgesny
afgesonder
afgesonderde
afgespeel
afgestaan
afgestig
afgestorwe
afgestorwenes
afgetrede
afgetree
afgetrek
afgevaardig
afgevaardigde
afgevaardigdes
afgevuur
afgeweer
afgewerp
afgewissel
afgewyk
afgewys
afghaanse
afghanistan
afhang
afhangend
afhangende
afhanklik
afhanklike
afhanklikheid
afkeer
afkeur
afkoel
afkoeling
afkoms
afkomstig
afkondiging
afkorting
afkortings
aflaai
aflandige
afle
aflei
afleiding
afleidings
aflewering
aflewerings
afloop
afmetings
afname
afneem
afraid
africa
african
africana
africanus
afriforum
afrigter
afrigters
afrigting
afrika
afrikaan
afrikaans
afrikaansche
afrikaanse
afrikaansmedium
afrikaanssprekende
afrikaanssprekendes
afrikalande
afrikanasiesbeker
afrikane
afrikaner
afrikanerbond
afrikanernasionalisme
afrikaners
afrikanervolk
afro
afrodite
afsetting
afsettings
afsien
afskaffing
afskei
afskeid
afskeiding
afskop
afskrif
afslaan
afsluit
afsluiting
afsondering
afsonderlik
afsonderlike
afspeel
afspraak
afstaan
afstam
afstammeling
afstammelinge
afstand
afstande
afsterwe
afstig
afstigting
aftak
aftakeling
after
aftermath
afternoon
aftrede
aftree
aftrek
afvaardiging
afval
afvoer
afwaarts
afwaartse
afwagting
afwerking
afwesig
afwesigheid
afwisselend
afwisselende
afwisseling
afwyk
afwykende
afwyking
afwykings
ag
again
against
agamemnon
agatha
agathis
age
agelas
agena
agency
agenda
agent
agente
agents
agentskap
agentskappe
ages
aggressie
aggressief
aggressiewe
agnes
ago
agrariese
agricola
agriculture
agste
agt
agter
agterbly
agterdog
agtereenvolgende
agtereenvolgens
agtergebly
agtergelaat
agtergrond
agtergronde
agterkant
agterkom
agterlaat
agterlyf
agterna
agterpote
agterstand
agterste
agtertoe
agteruit
agteruitgaan
agteruitgang
agteruitgegaan
agtervoegsel
agtervoegsels
agtervolg
agtien
agtiende
agtige
agting
agtste
agttien
aguilera
agulhas
ah
ahasveros
ahead
ahmad
ahmed
ahoy
ai
aid
aids
aim
aime
ain
ainoe
air
airbus
aircraft
aires
airlines
airplane
airport
airways
ais
aischulos
aise
aj
ajat
ajax
ak
aka
akademia
akademici
akademie
akademies
akademiese
akademikus
aken
akira
akkad
akkadies
akkadiese
akkedis
akkedisse
akker
akkerbou
akkers
akkommodasie
akkommodeer
akkoord
akkuraat
akkuraatheid
akkurate
akkusatief
akoestiese
akr
akroniem
akropolis
aksent
aksente
aksie
aksies
akte
akteur
akteurs
aktief
aktiewe
aktiveer
aktivis
aktivisme
aktiviste
aktiwiteit
aktiwiteite
aktrise
aktrises
aktuele
akute
akwariums
akwitanie
al
alabama
aladdin
alain
alamo
alamos
alan
alane
alarm
alaska
alba
alban
albanese
albanie
albany
albatros
albe
albedo
albei
albert
alberta
albertinia
alberto
alberton
alberts
albertus
albertyn
albon
albrecht
album
albums
albuquerque
alcatraz
alchemie
alchemist
aldaar
aldrich
aldus
ale
alec
aleksander
aleksandr
aleksandra
aleksandrowitsj
aleksei
alemanne
alemanniese
aleppo
alessandro
aletta
alex
alexa
alexander
alexandra
alexandre
alexandria
alexandrie
alexios
alexis
alf
alfa
alfabet
alfabetiese
alfabette
alfonso
alfred
algaande
alge
algebra
algebrai
algeheel
algehele
algemeen
algemeenste
algemene
algerie
algiers
algoabaai
algoritme
algoritmes
alheit
alhier
alhoewel
ali
alias
alibi
alice
alicia
alida
alien
aliens
align
alison
alive
aliwal
alix
alkane
alkohol
alkoholiese
alkoholisme
all
alla
allah
allan
alle
alledaagse
alleen
alleenlik
alleenlopers
alleenstaande
allegorie
allegoriese
allegro
allele
allen
aller
allerhande
allerlei
alles
allesbehalwe
alletiders
alley
allgemeine
alliance
alliansie
alliansies
alligator
allison
allo
ally
alma
almal
almanak
almeida
almighty
almost
aloe
aloha
alone
along
alonso
alpe
alpes
alpha
alphabet
alphonse
alpynse
alreeds
alright
als
also
alt
altaar
altaarstuk
altai
altar
alte
alten
alter
alternate
alternatief
alternatiewe
alternatiewelik
alternative
altesaam
altesame
althusser
alto
altrui
altviool
altwee
altyd
aluminium
alumni
alvarez
alvin
alvorens
always
alwyn
am
amadeus
amalia
amanda
amaryllidaceae
amasone
amateur
amateurs
amazing
amazon
ambag
ambagsmanne
ambagte
ambassade
ambassades
ambassadeur
ambassadeurs
amber
ambisie
ambisies
ambisieuse
ambition
ambush
ame
amelia
amen
amenhotep
america
american
americana
americans
amerika
amerikaans
amerikaanse
amerikaner
amerikaners
amerikas
amersfoort
amfibiee
amfiteater
amg
ami
amin
aminosure
aminosuur
amityville
ammoniak
ammunisie
amnestie
amoen
amoer
among
amor
amore
amos
amour
amp
amper
amphimedon
ampie
amplitude
ampsdraers
ampstaal
ampstermyn
ampte
amptelik
amptelike
amptenaar
amptenare
amstel
amsterdam
amsterdamse
amundsen
amy
an
ana
anae
anal
anale
analise
analiseer
analitiese
analoog
analysis
anarchy
anargie
anargistiese
anas
anastasia
anastasius
anatolie
anatoliese
anatomie
anatomiese
anatomy
anc
anchor
ancient
ancorinidae
and
andante
ander
andere
anderen
anderkant
anders
andersdenkendes
andersen
andersins
andersom
anderson
andersyds
andes
andorra
andre
andrea
andreas
andrei
andrew
andrews
andries
andromeda
andronikos
andrzej
andy
anekdotes
ang
ange
angel
angela
angeles
angelico
angelina
angelo
angels
anger
angkor
anglikaanse
anglo
angola
angolese
angry
angs
angst
anguilla
angus
anhalt
animal
animals
animaris
animasie
animated
animation
anime
anita
anja
anjou
ankara
anker
ann
anna
annabelle
annale
annals
annandale
annapolis
anne
anneksasie
annekseer
annemarie
annette
annie
anniversary
annual
anode
anoniem
anonieme
anonymous
anorganiese
another
ans
answer
answers
ant
antananarivo
antarctic
antarctica
antarktiese
antarktika
antenne
antennes
anthem
antho
anthology
anthonie
anthony
anthropology
anthus
anti
antibiotika
antieke
antigone
antigua
antille
antiogie
antiquity
antisemitisme
antjie
anto
antoine
antoinette
anton
antoni
antonie
antoninus
antonio
antonissen
antonius
antony
antrim
antropoloe
antropologie
antropoloog
antwerpen
antwoord
antwoorde
anus
any
anything
anzac
ao
ap
apache
apart
aparte
apartheid
apartheidsaktivis
apartheidsaktiviste
apartheidsbeleid
apartheidsera
apartheidsregering
apartment
apb
ape
apes
aphia
aplysina
apocalypse
apocynaceae
apokriewe
apollinaire
apollo
apollodorus
apostel
apostels
apostoliese
apparaat
appe
appel
appels
apple
apples
appleton
application
applied
applous
appointment
apprentice
approach
approx
apr
apre
april
apteek
apteker
aqua
aquarii
aquila
ar
ara
arab
arabia
arabian
arabie
arabiere
arabies
arabiese
aragon
aramee
aramees
aramese
aranos
ararat
arbei
arbeid
arbeider
arbeiders
arbeidersparty
arbeidsmag
arbeidsmark
arbitre
arc
arcadia
arch
archaeological
archaeology
archaeopteryx
arche
archer
archibald
archie
archimedes
architects
architectural
architecture
archive
archives
arctic
arctotis
arden
ardenne
are
area
areas
arena
arend
arende
ares
arg
argai
argei
argentina
argentinie
argentynse
argeoloe
argeologie
argeologiese
argeoloog
argetipe
argief
argiewe
argipel
argitek
argitekte
argitektoniese
argitektuur
argo
argon
argument
argumente
argumenteer
argus
aria
arias
arie
ariel
ariese
aristokrasie
aristokratiese
aristoteles
arizona
ark
arkansas
arkel
arktiese
arles
arlington
arm
armada
armageddon
armand
armchair
arme
armed
armeens
armeense
armene
armenie
armer
armes
armoede
armoedige
arms
armste
armstrong
army
arnhem
arno
arnold
arnoldus
aromatiese
around
arp
arrest
arrestasie
arrested
arresteer
arrival
arriveer
arrondissement
arrow
ars
arsakidiese
arseen
art
arte
artefacts
artefakte
artemis
artes
arthur
article
articles
artificial
artikel
artikels
artillerie
artist
artistieke
artists
artritis
arts
arturo
aruba
as
asa
asbestopluma
ascension
aschenborn
asem
asemhaal
asemhaling
ash
ashanti
ashes
ashley
ashton
asia
asian
asiatiese
asie
asiel
asimmetriese
asjanti
ask
asked
askes
asma
asof
asook
asore
asp
aspalathus
asparagus
aspects
aspek
aspekte
asphodelaceae
aspirasies
aspx
ass
assassin
assassination
assassins
assault
asse
asseblief
assembly
asses
assessment
assignment
assimilasie
assirie
assiriese
assistant
assistent
assistente
assistentregisseur
associated
associates
association
assonville
assosiasie
assosiasies
assosieer
assur
assurbanipal
asteekse
asteke
asteraceae
asterix
asteroi
aston
astrid
astro
astrofisika
astroloba
astrologie
astronaut
astronomical
astronomie
astronomiese
astronomy
asylum
asyn
at
ata
atei
ateljee
ateljeealbums
ateljees
atena
atheense
athena
athene
atheners
athens
athlone
athol
athos
atkins
atkinson
atkv
atlanta
atlantic
atlantiese
atlantis
atlas
atleet
atlete
atletiek
atmosfeer
atmosferiese
atol
atom
atome
atomic
atoom
atoombom
atoomgetal
atoommassa
atp
attached
attack
attacks
attic
attie
attorney
attraction
au
aubrey
aucamp
auch
auckland
aucklandpark
auction
aude
audi
audience
audio
audrey
auer
auf
aug
augen
augsburg
august
augusta
auguste
augustinus
augusto
augustus
aum
aunt
aurelius
aurora
aus
auschwitz
austen
austin
australia
australian
australie
australiese
australis
australopithecus
austronesiese
auteur
auteurs
author
authority
authors
auto
autobiography
autre
autumn
auvergne
aux
av
ava
available
avalanche
avalon
avant
avatar
ave
avec
avenger
avengers
avenging
avenue
avery
aviation
avignon
aviv
avn
avondmaal
avonture
avonturier
avontuur
avro
awake
awakening
awakens
award
awards
away
awb
awesome
awful
awkward
aws
ax
axe
axel
axinella
axinellidae
axinyssa
az
azerbaijan
azerbeidjan
azerbeidjanse
azur
b
ba
baa
baadjie
baai
baaie
baan
baanbreker
baanbrekers
baanbrekerswerk
baard
baarde
baarmoeder
baas
baat
bab
baba
babas
babe
babel
babes
babiana
babies
babilon
babilonie
babiloniese
baby
babylon
babysitter
baccalaureus
bacchus
bach
bachelor
back
backstage
backstreet
bacon
bad
baddens
baden
badenhorst
badge
badlands
baez
bafta
bag
bagasie
bagdad
bagheera
baha
bahamas
bahia
bahrein
bai
baie
bailey
bain
baines
baird
bait
baja
bak
baken
bakens
baker
bakermat
bakker
bakkie
baklei
bakoe
baksteen
bakstene
bakterie
bakteriee
bal
balance
balans
balanseer
baldpate
baldwin
bale
balfour
bali
balie
balk
balkan
balke
balkema
balkon
ball
ballad
ballade
ballades
balle
ballerina
ballet
ballingskap
ballistiese
ballon
balloon
balls
balmoral
baltiese
baltimore
bam
bambi
bamboes
ban
banana
band
banda
bande
bandit
bandits
bane
bang
bangkok
bangladesj
banier
bank
banke
bankier
banknote
bankrot
bankrotskap
banks
banneling
bannelingskap
bantam
bantoe
bantoetale
baptist
baptiste
bar
barack
barbaarse
barbados
barbara
barbare
barbarian
barbarians
barbarossa
barbary
barber
barberton
barbie
barbier
barbus
barcelona
bare
barefoot
barely
barend
bargain
bariton
barker
barkly
barlow
barmen
barn
barnard
barnes
barney
barnsteen
barok
barokstyl
baron
barre
barrett
barrie
barrier
barriers
barrow
barry
barrydale
bars
bart
bartho
bartholomeus
bartlett
barto
bartolomeo
bartolomeus
barton
bas
basaar
basale
basalt
base
baseball
based
baseer
basel
bash
basic
basies
basiese
basil
basiliek
basilika
basilius
basin
basis
basisse
baskeland
baskervilles
basketbal
basketball
baskies
baskiese
baskitaar
baskitaarspeler
basoeto
basotho
bass
basse
basson
bastard
basters
bastien
bastille
bat
bataafse
bataljon
batavia
bate
bates
bath
bathurst
batista
batllo
batman
batoe
battenberg
battery
batterye
battista
battle
battles
battleship
battlestar
battling
baudelaire
bauer
bauhaus
baxter
bay
bayer
bayou
baywatch
bb
bbc
bbp
bc
bd
be
beach
beacon
beampte
beamptes
bean
beantwoord
bear
bearbei
bearbeiding
bears
beast
beasts
beat
beatles
beatrice
beatrix
beau
beaufort
beaumont
beautiful
beauty
beaux
beaver
beboet
beboste
beboude
bec
became
because
beck
becker
beckett
becky
become
becomes
becoming
bed
bedags
bedank
bedanking
beddens
bedek
bedekking
bedekte
bedeling
bederf
bedford
bedien
bediendes
bediener
bedieners
bediening
bedink
bedoei
bedoel
bedoeling
bedra
bedrae
bedrag
bedreig
bedreigde
bedreiging
bedreigings
bedrewe
bedriee
bedrog
bedroom
bedryf
bedryfstelsel
bedryfstelsels
bedrywe
bedrywig
bedrywighede
bedtime
beduidend
beduidende
beduidendste
bedwang
bee
beeld
beelde
beeldende
beeldhouer
beeldhouers
beeldhoukuns
beeldhouwerk
beeldhouwerke
beelding
beeldjies
beeldmateriaal
beeldspraak
been
beendere
beenvisse
beer
beers
bees
beeste
beesvleis
beet
beethoven
befaamde
befonds
befondsing
before
begaafde
begaan
began
begeer
begeerte
begeertes
begelei
begeleiding
beggar
begin
beginjare
beginnende
beginners
beginning
beginpunt
begins
beginsel
beginsels
begraafplaas
begraafplase
begrafnis
begrafnisse
begrawe
begrens
begrip
begrippe
begroet
begroting
begryp
behaal
behalwe
behandel
behandeling
behandelings
behartig
behave
behavior
beheer
beheerde
beheerliggaam
beheerliggame
beheers
behels
behind
behoefte
behoeftes
behoeftige
behoewe
behold
behoorlik
behoorlike
behoort
behou
behoud
behoudende
behoue
behuising
behulp
behulpsaam
bei
beide
beiere
beierse
beijing
being
beira
beiroet
beit
bejaarde
bejaardes
bejee
bek
bekamp
bekeer
beken
bekend
bekende
bekendes
bekendgemaak
bekendgestaan
bekendgestel
bekendheid
bekendstaan
bekendste
bekendstelling
bekendstes
beker
bekering
bekken
bekker
beklee
beklemtoon
beklemtoonde
beklink
beknopte
bekom
bekommerd
bekommernis
bekoor
bekostig
bekostigbare
bekragtig
bekroon
bekroonde
bekwaam
bekwaamheid
bekwame
bekyk
bel
bela
belaai
beland
belang
belange
belanggestel
belangrik
belangrike
belangriker
belangrikheid
belangrikste
belangrikstes
belangstel
belangstellendes
belangstelling
belangstellings
belarus
belas
belasting
belastings
bele
beledig
belee
beleef
beleg
beleggers
belegging
beleggings
beleid
beleide
belemmer
belewenis
belfast
belgie
belgiese
belgium
belgrado
belgravia
believe
belig
beligting
belinda
belisarius
belize
bell
bella
belle
belles
bellevue
bellini
bells
bellville
belo
belofte
beloftes
beloning
beloof
beloofde
beloon
beloop
beloved
below
belowe
belowende
belt
belvedere
bely
belydende
belydenis
bemaak
bemagtiging
beman
bemande
bemanning
bemanningslede
bemark
bemarking
bemeester
bemesting
bemiddel
bemiddelaar
bemiddeling
beminde
bemoei
bemoeilik
ben
benadeel
benader
benaderde
benadering
benaderings
benadruk
benaming
benamings
bend
bende
bender
bendes
bene
beneath
benede
benedeloop
benedetto
benedict
benedictus
benediktynse
benefit
benetton
benevento
benewens
bengaalse
bengale
benin
benito
benjamin
bennett
bennie
benny
benodig
benodigde
benoem
benoemde
benoemdes
benoeming
benoemings
benoni
benseen
benson
bent
benth
bentley
benut
benutting
benz
beoefen
beoefening
beoog
beoogde
beoordeel
beoordelaar
beoordelaars
beoordeling
beowulf
bepaal
bepaalde
bepalende
bepaling
bepalings
beperk
beperkende
beperking
beperkinge
beperkings
beperkte
beplan
beplande
beplanning
bepleit
beproef
beproewing
ber
beraad
beraadslaag
beraam
beraamde
beraming
berbers
bere
berea
berede
berei
bereid
bereiding
bereik
bereikbaar
bereiking
bereken
berekening
berekeninge
berekenings
berg
bergagtige
berge
bergen
berger
berggebiede
bergh
berghange
berging
bergman
bergpas
bergpasse
bergpiek
bergpieke
bergquist
bergreeks
bergreekse
bergrivier
bergspits
bergspitse
bericht
berig
berigte
berkeley
berle
berlin
berliner
berlioz
berlyn
berlynse
berman
bermuda
bern
bernard
bernardino
bernardo
bernardus
bernau
bernhard
bernie
bernini
bernstein
beroemd
beroemde
beroemdste
beroep
beroepe
beroerte
berokken
beroof
berou
berry
bert
berta
bertel
bertha
bertie
bertram
bertrand
berug
berugte
berus
bes
beseer
beseerde
besef
besering
beserings
beset
besette
besetters
besetting
besiel
besienswaardighede
besig
besige
besighede
besigheid
besigste
besigtig
besin
besing
besinning
besit
besitting
besittings
beskaafde
beskadig
beskadigde
beskadiging
beskawing
beskawings
beskeie
beskerm
beskermde
beskermende
beskermer
beskermheer
beskermheilige
beskerming
beskik
beskikbaar
beskikbaarheid
beskikbare
beskikking
beskou
beskouing
beskouings
beskryf
beskrywende
beskrywing
beskrywings
beskuldig
beskuldigdes
beskuldiging
beskuldigings
beskutte
beslaan
beslag
besleg
beslis
beslissend
beslissende
beslissing
besliste
besluit
besluite
besluitneming
besmet
besmette
besmetting
besnydenis
besoedel
besoedeling
besoek
besoeke
besoekende
besoeker
besoekers
besonder
besondere
besonderhede
besonders
besonderse
besorg
bespaar
bespeel
bespeur
bespiegel
bespoedig
bespreek
bespreking
besprekings
besproeiing
bess
bessie
bessies
best
bestaan
bestaande
bestaansjaar
bestand
bestanddeel
bestanddele
beste
besteding
bestee
bestek
bestel
bestelling
bestellings
bestem
bestemming
bestemmings
bestempel
besten
bestendig
bestendige
bester
bestorm
bestraling
bestry
bestryding
bestudeer
bestudering
bestuif
bestuiwing
besturende
bestuur
bestuurder
bestuurders
bestyg
beswaar
besware
beswyk
bet
beta
betaal
betaalde
betaalmiddel
betaling
beteken
betekenis
betekenisse
betekenisvol
betekenisvolle
beter
beth
bethal
bethesda
bethlehem
bethulie
betogers
betoging
betogings
beton
betoog
betoon
betrap
betrayal
betrayed
betree
betref
betreffende
betrek
betrekking
betrekkinge
betreklik
betreklike
betreur
betrokke
betrokkenheid
betroubaar
betroubaarheid
betroubare
betsjoeanaland
betsy
bette
better
bettie
betty
betuig
between
betwis
betwiste
betwyfel
betyds
beukes
beurs
beurse
beurt
beurte
bevaarbaar
bevat
beveel
beveg
beveilig
bevel
bevele
bevelvoerder
bevelvoerders
beverly
bevestig
bevestigde
bevestiging
bevind
bevinding
bevindinge
bevindings
bevoegdhede
bevoegdheid
bevolk
bevolking
bevolkings
bevolkingsaanwas
bevolkingsdigtheid
bevolkingsgroei
bevolkingsgroep
bevolkingsgroepe
bevolkte
bevoordeel
bevoorregte
bevorder
bevordering
bevraagteken
bevredig
bevredigend
bevredigende
bevrediging
bevriend
bevrore
bevrug
bevrugte
bevrugting
bevry
bevryding
bewaak
bewaar
bewaarde
bewaarder
bewapen
bewapening
beware
bewaring
beweeg
beweegbare
beweeglike
beweeglikheid
beweer
beweerde
bewegende
beweging
bewegings
bewering
bewerings
bewerk
bewerking
bewerkings
bewerkstellig
bewillig
bewind
bewindhebbers
bewitched
bewonder
bewonderaars
bewondering
bewoners
bewoning
bewoon
bewoonbare
bewoonde
bewoording
bewus
bewussyn
bewuste
bewustelik
bewustheid
bewys
bewyse
beyers
beyond
beywer
bezuidenhout
bf
bhoetan
bi
bianca
bibel
bible
bibliografie
biblioteek
bibliotekaris
biblioteke
bibliotheek
bicolor
bid
biddle
biden
bidure
bie
bied
biemna
bien
bier
bieszczady
bietjie
big
bigfoot
bigger
biggest
bij
bijl
bikini
biko
bilaterale
bildung
biljoen
biljon
bill
billboard
billie
billike
billion
billy
bin
bind
binding
bindings
bindweefsel
bine
bing
bingen
bingle
bingo
binne
binnedring
binnegaan
binnegedring
binnegegaan
binnegekom
binnegeval
binnehof
binnekant
binnekom
binnekort
binneland
binnelanders
binnelands
binnelandse
binnenshuis
binnenshuise
binneruimte
binnestad
binneste
binneval
bio
biochemie
biochemiese
biodiesel
biodiversiteit
biodiversityexplorer
biograaf
biografie
biografiee
biografiese
biographical
biography
bioloe
biological
biologie
biologies
biologiese
biology
bioloog
biomassa
biome
bionic
bioom
biosfeer
bioskoop
biotegnologie
bipole
bird
birdman
birds
birma
birmaanse
birmingham
birth
birthday
bis
bisantium
bisantyne
bisantynse
bisdom
bisdomme
bishop
biskop
biskoppe
bismarck
bissau
bisse
bist
bit
bitch
bitches
bite
bites
bits
bitte
bitter
bittere
bitterheid
bj
bjo
bl
bla
blaaie
blaar
blaas
black
blackburn
blackie
blacklist
blackmail
blackout
blacks
blackwell
blad
blade
bladmusiek
bladsy
bladsye
bladwisselende
blair
blake
blame
blameer
blanc
blanche
blank
blanke
blankes
blare
blast
blaue
blazing
ble
bledisloebeker
bleek
blerk
bless
blessed
bleu
blignault
blignaut
blik
blind
blinde
blindes
blindheid
blink
bliss
blitz
blitzkrieg
bloch
block
bloed
bloedbad
bloeddruk
bloedige
bloeding
bloedrivier
bloedskande
bloedvate
bloei
bloeiende
bloeityd
bloeitydperk
bloeiwyse
bloem
bloemfontein
bloemfonteinse
bloemhof
bloemlesing
bloemlesings
blog
blogspot
blok
blokboek
blokboeke
blokkade
blokke
blokkeer
blokkie
blokkies
blom
blomdraende
blomme
blommetjies
blomplant
blomplante
blond
blonde
blondes
blondie
blood
bloody
bloom
bloomsbury
bloopers
bloot
blootgele
blootgestel
blootstelling
blossom
blossoms
blote
blou
blougroen
blouwalvis
blow
bls
blu
blue
blues
bluff
blum
blunt
blut
bly
blydskap
blye
blyk
blykbaar
blyke
blyplek
blyspel
blywende
bm
bmg
bmw
bo
board
boardwalk
boat
bob
bobbejaan
bobbejane
bobby
boccaccio
bod
bode
bodem
bodems
bodies
body
bodyguard
boe
boedapest
boeddha
boeddhas
boeddhisme
boeddhiste
boeddhistiese
boedel
boeg
boeiende
boeing
boek
boekarest
boekdeel
boekdele
boeke
boekewe
boekhandel
boekhuis
boekie
boekreeks
boekvorm
boekwinkel
boer
boerdery
boerderye
boere
boeremagte
boereoorlog
boererepublieke
boergondie
boergondiese
boerneef
boesman
boesmanland
boesmans
boesmansrivier
boet
boete
boetedoening
boetie
bofbal
bogenoemde
bogrondse
bohe
boheemse
boheme
bohemian
bohr
boikot
bois
bojare
bok
bokant
bokke
bokkeveld
bokkeveldberge
boks
boksburg
bokser
bol
bolaag
boland
bolandse
bold
boleyn
bolivia
bolivie
bolle
bologna
boloop
bolsjewiste
bolsjewistiese
bolton
bolus
bolvormige
bolyf
bom
bomaanval
bomaanvalle
bomb
bombardeer
bombardement
bombardering
bombay
bomber
bombers
bombus
bome
bomme
bomwerper
bomwerpers
bon
bonanza
bonaparte
bonatuurlike
bond
bondage
bondgenoot
bondgenootskap
bondgenote
bonds
bondsrepubliek
bone
bones
boneschans
bonheur
boniface
bonifatius
bonn
bonne
bonnie
bonobo
bont
bonus
bonuspunt
bonuspunte
boo
boodskap
boodskappe
boodskapper
boodskappers
boog
boogie
boogsekondes
boogskutter
book
booker
books
bookslive
boom
boomerang
boompie
boomveld
boon
boone
boonop
boonste
boontoe
boonzaier
boor
boord
boorling
boorlinge
boos
boosheid
boot
booth
boots
booty
booyens
booysen
bophuthatswana
bopunt
bora
bord
borde
bordeaux
border
borders
borg
borge
borgen
borges
borgia
boris
borja
born
borneo
borojevic
borough
borrowed
bors
borsbeeld
borsbeen
borsjt
borskanker
borskas
borste
bos
bosbou
bosch
boscia
bose
bosgebiede
boshof
boshoff
bosman
bosnie
bosporus
boss
bosse
bostaande
boston
bosveld
bot
botanical
botanici
botaniese
botaniste
bote
botes
both
botha
bothaville
bothma
botma
bots
botsende
botsing
botsings
botswana
bottas
bottel
bottels
botter
bottle
bottom
bou
bouaannemer
boubedryf
boubedrywighede
bouer
bouers
bouery
boufonds
boukommissie
boukoste
boukuns
boulbeurte
boulder
bouler
boulevard
boulez
boulwerk
boumateriaal
boumateriale
boumeester
boumeesters
bound
boundary
bounty
bouplan
bouplanne
bouprojekte
bourbon
bourgeois
bourgeoisie
bourne
boury
boustene
boustyl
boustyle
bout
bouvalle
bouwer
bouwerk
bouwerke
boven
bow
bowe
bowendien
bowerbank
bowery
bowie
bowker
bowl
bowling
box
boxer
boy
boyd
boyfriend
boyle
boys
boyz
bp
bpb
bpk
bpkt
br
bra
braai
braak
braam
braamfontein
brabant
brad
bradbury
bradford
bradley
bradman
bradshaw
brady
braganza
brahma
brahms
braille
brain
brak
braking
brakpan
brakrivier
brakspruit
bram
branch
brand
brande
branded
brandenburg
brandenburgse
brandende
branders
brandewyn
brandfort
brando
brandon
brandpunt
brandstapel
brandstof
brandstowwe
brandt
brandwag
branson
brasi
brasiliaanse
brasilie
brass
brat
bratislava
bratz
braun
brave
bravo
brazil
bre
bread
break
breakdown
breaker
breakers
breakfast
breaking
breaks
breast
breath
breathe
brecht
breda
bredasdorp
bredell
bree
breed
breederivier
breedte
breedtegraad
breedtegrade
breedvoerig
breek
breemse
brei
brein
breitfuss
bremen
bremer
bremerhaven
brenda
brendan
brent
brest
bretagne
breton
bretons
bretonse
brett
breuk
breuke
brewster
breyten
breytenbach
brezjnef
brian
brick
bride
brides
bridge
bridges
bridget
brief
briefwisseling
brien
briewe
brigade
brigades
brigadier
briggs
bright
brighton
brigitte
bril
briljante
brill
brilliant
bring
bringing
brink
brisbane
bristol
brit
britain
britannia
britannica
british
brits
britse
britstown
brittanje
britte
britten
britz
brixton
bro
broad
broadcast
broadcasting
broadway
brockhaus
broeder
broederbond
broeders
broederskap
broei
broeiende
broeityd
broek
broeke
broekhuizen
broen
broenei
broer
broers
broke
broken
bron
bronkhorst
bronkhorstspruit
bronkode
bronne
bronnelys
brons
bronsmedalje
bronson
bronstydperk
bronx
bronze
brood
broodbome
brooke
brooklyn
brooks
broom
bros
brother
brotherhood
brothers
brouery
brown
browning
browse
bru
bruce
bruckner
bruegel
brug
brugge
bruggen
bruid
bruidegom
bruidskat
bruikbaar
bruikbare
bruin
brumbies
brunelleschi
brunia
bruno
brunswick
brunswyk
brush
brussel
brussels
brusselse
brute
bruto
bruwer
bruyn
bruyns
bryan
bryant
brøndsted
bs
bsc
bsg
bt
bu
bubble
buccaneer
buch
buchanan
buck
buckaroo
bucket
buckingham
bud
budapest
buddenbrooks
buddha
buddhist
buddies
buddy
budget
buenos
buffalo
buffel
buffels
buffelsrivier
buffer
buffy
bug
bugs
buick
buie
buig
buiging
buigsaamheid
buigsame
buik
build
builder
building
buildings
built
buis
buise
buit
buite
buiteaardse
buitekant
buiteland
buitelanders
buitelandse
buiten
buitendien
buitengewone
buitengewoon
buitensporige
buitenste
buitepos
buitewe
buitewyke
bul
bulawayo
bulbine
bulgaars
bulgaarse
bulgare
bulgarye
bull
bulldog
bulle
buller
bullet
bulletin
bullets
bulls
bully
bult
bultfontein
bun
bunch
bundel
bundels
bundesliga
bundy
bunker
bunny
burchell
burden
bure
bureau
buren
burg
burgemeester
burgemeesters
burgenland
burger
burgerlike
burgerlikes
burgermag
burgeroorloe
burgeroorlog
burgerregte
burgers
burgersdorp
burgerskap
burgerville
burgess
burggraaf
burglar
buried
burke
burkina
burlesque
burlington
burma
burman
burn
burnett
burning
burns
buro
burokrasie
burt
burton
burundi
bury
bus
busch
bush
business
buskruit
busoni
busse
bussy
bust
buster
busters
but
butch
butcher
butler
butt
butterflies
butterfly
butterworth
button
butts
buurland
buurlande
buurman
buurt
buurte
buy
buys
buzz
bv
bwv
by
bybel
bybelgenootskap
bybels
bybelse
bybelvertaling
bydra
bydrae
bydraer
bydraers
bydraes
bye
byeen
byeengebring
byeengekom
byeengeroep
byeenkom
byeenkoms
byeenkomste
bygedra
bygekom
bygeloof
bygestaan
bygevoeg
bygewerk
bygewoon
bykans
bykomend
bykomende
byl
bylae
bymekaar
bymekaargekom
bymekaargemaak
bymekaarkom
byna
bynaam
byname
byrd
byron
byspeler
bystaan
bystand
byt
byval
byvoeg
byvoeging
byvoeglike
byvoorbeeld
bywoning
bywoon
byzantium
c
ca
cab
cabaret
cabin
cabinet
cable
cabo
cachet
cactus
cadillac
caen
caesar
cafe
caffra
cage
cagney
cain
caine
cairns
cairo
cake
cal
calais
calamity
calcarea
caledon
calendar
calidris
california
caligula
calitzdorp
call
callas
called
calling
callixtus
calls
callyspongia
callyspongiidae
calvin
calvinia
calvinisme
calvinistiese
calvyn
cam
cambridge
came
camelot
camera
cameron
camilla
camille
camp
campaign
campbell
campert
camping
campo
campus
camus
can
canada
canadian
canal
canary
canaveral
canberra
cancer
candid
candidate
candles
candy
canis
cannes
cannon
cannonball
canon
canterbury
canvas
canyon
cao
cap
cape
capensis
caper
capita
capital
capitol
capri
capricorn
caprivi
captain
captive
capua
car
carafa
caravaggio
caravan
carballo
carbon
carcassonne
card
cardiff
cardinal
cardinals
cards
care
career
carel
carey
cargo
caribbean
carike
carina
carissa
carl
carla
carletonville
carlo
carlos
carlson
carlton
carmen
carnarvon
carnegie
carnival
carol
carolina
caroline
carolus
carolyn
carpenter
carpet
carr
carrie
carroll
carry
cars
carson
carstens
carter
cartier
cartoon
cas
casa
casablanca
casanova
case
cases
casey
cash
casino
casper
cassidy
cassini
cassius
cast
casting
castle
castles
castro
casual
casualty
cat
catalog
catalogue
catalunya
catch
catching
catharina
cathcart
cathedral
cathen
catherine
catholic
cathy
cato
cats
cattle
catullus
caught
caulophacus
cause
causes
cavalcade
cavalier
cavalry
cave
cb
cbs
cc
cd
cda
cdc
cdot
cds
cdu
ce
cecil
cecile
cecilia
celebrating
celebration
celebrities
celebrity
celeste
celestinus
cell
celliers
cellini
celsius
celtic
cemetery
census
cent
centauri
centennial
center
centerfold
central
centre
centro
centuries
centurion
centurions
century
cephei
ceres
certain
ces
cesare
ceti
cetshwayo
ceylon
cf
ch
cha
chad
chain
chains
chainsaw
chair
chalinidae
chalinula
challenge
challenger
chamber
chamberlain
chambers
chameleon
champ
champagne
champion
champions
championship
champs
chan
chance
chances
chandler
chanel
chang
change
changed
changes
changing
changuion
channel
chant
chanute
chaos
chaotiese
chapel
chaplin
chapman
chapter
character
characters
charadrius
charge
charismatiese
charity
charl
charles
charleston
charley
charlie
charlotte
charm
charmed
charming
charon
chart
charter
chase
chasing
chat
che
cheaper
cheat
cheaters
cheating
check
cheer
cheers
cheetah
cheetahs
chef
chekhov
chelsea
chemical
chemici
chemie
chemies
chemiese
chemikaliee
chemikus
chemistry
chen
cher
cherokee
cherry
chess
chest
chester
chevalier
chevrolet
chevy
cheyenne
chez
chi
chiang
chicago
chick
chicken
chicks
chief
chiefs
child
childhood
children
chile
chileense
chili
chin
china
chinatown
chinees
chinese
ching
chip
chipmunks
chippendale
chips
chirurg
chirurgie
chirurgiese
chitty
chloe
chloor
chlorofil
cho
chocolate
choice
choir
cholera
cholesterol
chomsky
chondriete
chondrocladia
choose
chopin
choreograaf
chorus
chosen
chow
chris
christ
christa
christchurch
christelik
christelike
christen
christendom
christene
christenskap
christi
christiaan
christian
christiana
christianity
christie
christina
christine
christmas
christo
christoffel
christoph
christopher
christophorus
christus
christy
chroesjtsjof
chromosome
chromosoom
chronicle
chronicles
chroniese
chronologie
chronologiese
chronology
chronostratigrafiese
chroom
chrysler
chte
chter
chu
chuck
chun
chung
church
churchill
ci
cia
cicero
cillie
cilliers
cimarron
cinachyrella
cincinnati
cinderella
cindy
cine
cinema
cinerea
cinnyris
cio
ciocalypta
circa
circle
circuit
circus
cirque
cis
cisco
ciskei
cisticola
cit
cite
cities
citizen
citizens
citroe
citrus
citrusdal
citta
city
ciudad
civil
civilization
ck
cke
cken
ckhoff
cl
claassen
cladorhiza
cladorhizidae
claim
claire
clan
clancy
clans
clanwilliam
clara
clare
claremont
clarence
clarendon
clarens
clark
clarke
clash
class
classic
classical
classics
classification
classify
clathria
clathrina
claude
claudia
claudio
claudius
claus
clause
clausewitz
claw
claws
clay
clayton
cle
clean
clear
clemens
clement
cleopatra
clerks
clermont
cleveland
click
cliff
clifford
cliffortia
clift
clifton
climate
climax
clinic
clint
clinton
clio
cliona
clionaidae
clive
clock
clockwork
cloete
clone
close
closed
closer
closet
clothes
cloud
clouds
clover
clovis
clown
clowns
club
clue
clueless
clyde
cm
cmt
cn
cna
cnn
cno
co
coach
coal
coast
coastal
coasts
coat
coates
cobra
cobus
coca
cochrane
cock
cocktail
code
codex
cody
coelosphaera
coelosphaeridae
coenie
coenraad
coetsee
coetzee
coetzer
coeur
coffee
cohen
coke
col
cola
cold
cole
coleman
colenso
colesberg
coligny
colin
collar
colle
collected
collection
collector
colleen
college
coller
collier
collins
collision
colombia
colombiaanse
colombo
colonel
colonia
colonial
colonna
colony
color
colorado
colors
colour
colt
columbia
columbie
columbus
column
com
coma
combat
combretaceae
combretum
combrink
come
comeback
comedian
comedians
comedy
comes
comet
comfort
comic
comics
comin
coming
command
commander
commandment
commandments
commando
comme
commedia
commentary
commercial
commiphora
commission
committee
commodore
common
commons
commonwealth
commune
communication
communications
community
como
comore
compagnie
companion
companions
company
comparative
compass
competition
complete
complex
composer
compton
computer
comrades
comte
con
conan
concept
concert
concertgebouw
concerto
concertos
concise
concorde
concrete
condemned
condor
conduct
conference
confession
confessions
confidential
conflict
congo
congress
connecticut
connection
connie
connor
conqueror
conquest
conrad
conradie
conscience
consciousness
consent
consequences
conservation
consolidated
conspiracy
constable
constance
constant
constantia
constantijn
constantine
constitution
construction
contact
contemporary
content
contessa
contest
context
conti
continent
continental
continues
continuum
contract
contrast
contre
control
controversy
convention
conversation
conversations
conviction
conway
cook
cookeilande
cookie
cooking
cool
cooper
cop
copa
cope
copper
copperfield
cops
copyright
cor
cora
coral
corals
core
coritiba
cork
corn
cornelia
cornelis
cornelius
cornell
corner
cornwall
corolla
coronation
coronavirus
corporate
corporation
corps
corpse
corpus
corrie
corte
cortina
cory
cos
cosa
cosby
cosimo
cosmic
cost
costa
costello
coster
costume
cottage
cottesloe
cotton
couch
cougar
could
couldn
council
count
countdown
counter
counterfeit
countess
counties
countries
country
county
coup
coupe
couperus
couple
couples
courage
courageous
courant
courier
course
court
courtney
courtship
cousin
cousins
cove
covenant
covent
cover
covered
covid
cow
coward
cowboy
cowboys
cox
coyote
cp
cr
crack
crackers
cradle
cradock
craft
craig
crane
craniella
crash
crashing
craven
crawford
crazy
crc
cre
cream
creating
creation
creative
creature
creatures
credo
creed
creek
crella
crest
crew
cricket
crime
crimes
criminal
crimson
crisis
cristina
cristo
critical
criticism
critics
critique
cro
crocodile
cromwell
cronje
cronwright
crook
crooked
crooks
cropped
crosby
cross
crossed
crossing
crossroads
crous
crow
crowd
crowded
crowell
crown
cru
crucible
cruel
cruise
crusade
crusaders
crush
crusoe
cruz
cry
crying
crypt
cryptocarya
crystal
cs
csi
ct
cu
cuanavale
cuba
cube
cuckoo
cuisine
cuito
cullinan
cult
cultural
culture
cultures
cum
cummings
cunha
cup
cupid
curac
curb
cure
curie
curiosity
curious
curl
current
curriebeker
curse
curtain
curtis
curve
cussons
custer
cut
cuts
cutting
cv
cvs
cyathea
cyber
cyborg
cycle
cyclone
cyclopia
cygni
cygnus
cyndi
cynthia
cyril
cyrilliese
cyrillus
cyrtanthus
cyrus
d
da
daad
daadwerklik
daadwerklike
daag
daagliks
daaglikse
daal
daan
daar
daaraan
daaragter
daarbenewens
daarbo
daarby
daardeur
daardie
daarenteen
daargestel
daarheen
daarin
daarmee
daarna
daarnaas
daarom
daaronder
daaroor
daarop
daaropvolgende
daarstel
daarstelling
daarteen
daarteenoor
daartoe
daaruit
daarvan
daarvandaan
daarvolgens
daarvoor
dad
daddy
dade
dadelik
dae
daeraad
dag
dagblaaie
dagblad
dagboek
dagboeke
dagbreek
dagen
dagga
dagger
daglig
dagligbesparing
dahl
dahlgren
dahmer
dai
daily
daimler
daisy
dak
dakar
dakke
dakota
dal
dalai
dale
dalende
dalene
dali
daling
dalk
dallas
dalmatians
dalro
dalton
daly
dam
damaged
damaskus
dame
dames
damme
damn
damned
damon
damp
dampdruk
damwal
dan
dana
dance
dancer
dances
dancing
dandy
dane
daneel
danger
dangerous
danie
daniel
daniels
danish
dank
dankbaar
dankbaarheid
danke
dankie
danksy
danny
dans
danse
danser
danseres
dansers
dante
daphne
dapper
dapperheid
dar
dare
daredevil
darem
daring
darius
dark
darkest
darkness
darling
darmstadt
darren
darwin
das
dassault
dat
data
database
databasis
date
dateer
datering
dates
datief
dating
datsun
datum
datums
daughter
daughters
dauphin
dave
davenport
david
davidson
davies
davis
davy
dawid
dawie
dawn
dawson
day
daylight
days
daytime
dayton
daze
db
dbnl
dc
dchen
dd
ddr
de
deacon
dead
deadline
deadly
deadpool
deadwood
deal
dealiseerde
dean
dear
dearest
death
deathly
debat
debate
debatte
debbie
deborah
debt
debussy
debuteer
debuut
debuutalbum
debuutbundel
dec
decade
decca
deceit
december
deception
decision
deck
decline
deco
dee
deeds
deeg
deeglik
deeglike
deel
deelgebied
deelgebiede
deelgeneem
deelname
deelneem
deelnemende
deelnemer
deelnemers
deels
deelstaat
deelstate
deeltjie
deeltjiefisika
deeltjies
deeltyds
deeltydse
deens
deense
deep
deer
deernis
deesdae
defence
defender
defenders
defense
defiance
definieer
definisie
definisies
definitief
definitiewe
definition
deftige
degli
degordel
degrassi
degree
degrees
dei
dein
dek
dekaan
dekade
dekades
dekker
dekking
deklinasie
dekompressie
dekor
dekorasies
dekoratiewe
dekreet
dekrete
deksel
del
delagoabaai
delaware
dele
deleted
delft
delhi
delicious
delight
delikate
delilah
deling
deliver
delivered
delivery
dell
della
delle
delphi
delport
delta
deluxe
delwers
delwerye
dem
demand
demeter
demi
demissie
demo
democracy
democratic
demografie
demografiese
demokrasie
demokrate
demokraties
demokratiese
demon
demone
demons
demonstrasie
demonstrasies
demonstreer
demospongiae
den
dendy
dene
denemarke
deng
denis
denise
denkbeeldige
denke
denker
denkers
denmark
dennebome
dennis
denominasie
denominasies
dent
dentifiseer
dentifiseerde
denver
deo
deon
departement
departemente
department
deposito
depressie
dept
deputasie
deputate
deputy
der
derby
derde
derdes
derek
dergelike
derhalwe
deritz
derk
derm
dermkanaal
derrida
dertien
dertiende
dertig
dertigerjare
dertigjarige
dertigste
des
descartes
descendants
description
desember
desert
design
designing
desimale
desire
desires
deskundige
deskundiges
desmacella
desmond
desondanks
desperado
desperate
desqueyroux
dessau
dessin
destination
destiny
destroy
destruction
destyds
destydse
det
detail
details
detective
detectives
determinisme
detour
detroit
deuce
deug
deugde
deur
deurboor
deurbraak
deurbring
deurdat
deurdring
deure
deurentyd
deurgaans
deurgang
deurgebring
deurgedring
deurgemaak
deurgevoer
deurkruis
deurloop
deurlopend
deurlopende
deurmekaar
deursettingsvermoe
deursigtig
deursigtige
deurskynend
deurskynende
deurslaggewende
deursnee
deursnit
deursoek
deus
deutsch
deutsche
deutschen
deutscher
deutsches
deutschland
deux
development
deventer
devil
devils
devon
devoon
dewald
dewey
dexter
deze
dfb
dg
dhabi
dhaka
dharma
di
dia
diabetes
diablo
diafragma
diagnose
diagnosis
diagnostiese
diagonale
diagram
diaken
diakens
dial
dialek
dialekte
dialektiek
dialektiese
dialogue
dialoog
diamant
diamante
diameter
diamond
diamonds
diana
diane
diaries
diarree
diary
dias
diaspora
dice
dich
dick
dickens
dickinson
dictator
dictionary
did
didaktiese
didn
dido
die
dieburger
died
dieet
dief
diefstal
diegene
diego
dien
dienaar
dienaars
dienende
dienooreenkomstig
diens
dienskneg
diensplig
dienste
dienstesektor
dienstyd
diep
diepe
dieper
diepgaande
dieprivier
diepsee
diepste
diepte
dieptes
dier
diere
dierelewe
diereriem
dieretuin
dieretuine
dierkunde
dierkundige
dierlike
diertjie
diertjies
dies
diese
diesel
dieselde
dieselenjin
dieselenjins
dieselfde
dieter
dietrich
dieu
diewe
differensiasie
different
diffusie
dig
digbevolkte
digbundel
digbundels
digby
digest
diggers
digimon
digitaal
digital
digitale
digkuns
digte
digter
digteres
digterlike
digters
digtheid
dik
dikker
dikkop
diktator
diktators
diktatorskap
diktatuur
dikte
dikwels
dilemma
dimensie
dimensies
dimension
dimensionele
dimorphotheca
din
dina
dinah
dinamiek
dinamies
dinamiese
dinamiet
dinamika
dinastie
dinastiee
dinastiese
ding
dingaan
dinge
dinger
dink
dinner
dino
dinosaur
dinosaurs
dinosourus
dinosourusse
dinsdag
dio
diocletianus
diode
diodes
diogenes
dion
dionusos
diospyros
diploi
diploma
diplomaat
diplomasie
diplomat
diplomate
diplomatieke
dir
direct
directing
direction
director
directors
directory
direk
direksie
direkte
direkteur
direkteure
dirigeer
dirigent
dirigente
dirk
dirkie
dirt
dirty
dis
disa
disappearance
disaster
disc
disco
discodermia
discover
discovering
discovery
disease
disguise
dish
diskoers
diskografie
diskrete
diskriminasie
disney
disorder
dispute
dispuut
disse
dissipels
dissipline
dissiplines
distance
distant
distillasie
distinguished
distress
distribution
district
distrik
distriksmunisipaliteit
distriksmunisipaliteite
distrikte
dit
dition
ditions
div
diva
divas
dive
divergent
divers
diverse
diversiteit
diversity
divide
divided
divine
diving
divisie
division
divorce
dixie
dixon
dj
djainisme
djengis
djiboeti
dk
dm
dmitri
dmso
dna
dns
do
doc
doch
docks
doctor
doctors
document
documenta
documentary
documents
dodd
dodelik
dodelike
dodge
doe
doeane
doebai
doek
doel
doelbewus
doelbewuste
doele
doeleindes
doelgerigte
doelmatige
doelstellings
doeltreffend
doeltreffende
doeltreffender
doeltreffendheid
doelwit
doelwitte
doema
doen
doep
does
doesn
dof
dog
dogg
dogma
dogs
dogter
dogtergemeente
dogtergemeentes
dogters
dogtertjie
dohna
dohrmann
doi
doing
dok
dokter
dokters
doktor
doktorale
doktorsgraad
doktrine
dokument
dokumentasie
dokumente
dokumenteer
dolby
dolf
dolfyn
dolfyne
dolittle
doll
dollar
dollars
dolls
dolly
dolphin
dom
domain
dome
domein
domeine
domeinname
domenico
dominant
dominante
dominee
domineer
domingo
dominic
dominikaanse
dominique
dominium
dominiums
domino
domkerk
dommisse
don
donald
donatello
donau
donderdag
donderstorms
done
donetsk
dong
donker
donkerblou
donkerbruin
donkerder
donkergroen
donkerte
donkie
donna
donne
donnie
donovan
donsker
doo
dood
doodgaan
doodgemaak
doodgeskiet
doodle
doodmaak
doodstraf
doofheid
dooie
dooies
doom
doomed
doomsday
doone
doop
dooplidmate
door
doornfontein
doors
dop
dope
doper
dopgehou
doppe
doppers
dora
dorado
dordrecht
dorf
dorian
doriese
doringrivier
dorings
doris
dorothea
dorothy
dorp
dorpe
dorpenaars
dorpie
dorpies
dorpsgebied
dorpsraad
dorre
dors
dorsale
dortmund
dos
doseer
dosent
dosente
dosis
dosisse
dostojefski
dosyn
dosyne
dot
dou
douard
double
doubleday
doubt
doug
douglas
dove
dover
dow
dowe
down
downton
downtown
dowwe
dowwer
doyle
dozen
dp
dr
dra
draad
draadlose
draagbare
draai
draaiboek
draaiboeke
draaiboekskrywer
draaiboekskrywers
draaie
draak
dracula
drade
draer
draers
drag
dragnet
dragon
dragons
drake
drakensberg
drakensberge
drakenstein
drama
dramareeks
dramarolprente
dramas
dramatic
dramaties
dramatiese
dramaturg
dramaturge
drang
drank
dranke
drankie
drankies
drapeau
draper
drasties
drastiese
draw
dream
dreamer
dreaming
dreams
dreef
drei
dreig
dreigemente
dreigende
dreineer
dreinering
drenthe
dresden
dress
dressed
dressing
drew
dreyer
dreyfus
drie
drieankerbaai
driedimensionele
driedubbele
driee
driehoek
driehoeke
driehoekige
driehonderd
driejarige
driekleur
driekwart
drieledige
driemanskap
drienasies
drienasiesreeks
dries
driese
drievoudige
drif
drift
drifter
dring
dringend
dringende
drink
drinkwater
drive
driven
driver
driving
dro
droe
droese
drome
dromer
dronk
droog
droogste
droogte
droogtes
droom
drop
drosanthemum
drowning
drug
drugs
drui
druiwe
druk
drukker
drukkers
drukkery
drukpers
drukval
drukwerk
drum
drummond
drums
drunk
druppel
druppels
dry
dryf
dryfkrag
drywende
drywing
ds
dsc
dsm
dstv
dt
du
dualisme
dubai
dubbel
dubbele
dubbelsinnig
dubbelsinnigheid
dubbelsinnigheidsbladsy
dubbelster
dubbelsterre
dublin
duc
duchassaing
duchess
duck
ducks
dude
dudley
due
duel
duet
duff
dugan
dui
duidelik
duidelike
duideliker
duidelikheid
duie
duif
duik
duikboot
duikbote
duiker
duikers
duim
duimnael
duine
duisend
duisende
duister
duisternis
duits
duitse
duitser
duitsers
duitsland
duitssprekende
duitstalige
duiwe
duiwel
duke
dukes
dulles
dumas
dumb
dumont
dun
duncan
dundee
dunderm
dune
dunedin
dunn
dunner
duo
dupont
duquesne
durand
durant
durban
durbanse
durbanville
durch
durf
durham
during
dus
dusk
dusseau
dust
dusty
dusver
dutch
duty
duur
duurder
duurste
duvenage
dvd
dvor
dwaling
dwang
dwangarbeid
dwarf
dwars
dwarsdeur
dwarsoor
dwarsrivier
dwelm
dwelms
dwerg
dwerge
dwergplaneet
dwergplanete
dwight
dwing
dws
dx
dy
dyck
dye
dying
dyk
dyke
dylan
dynamics
dynamite
dynasty
dysidea
dz
e
ea
each
eagle
eagles
eamon
earl
early
earnest
earp
ears
earth
earthquake
east
eastenders
easter
eastern
easy
eat
eater
eating
eaton
eau
eb
eben
eberhard
ebert
echinoclathria
echinodictyum
echo
echoes
eckl
eclipse
ecological
ecology
economic
economics
economist
economy
ecstasy
ecuador
ed
edda
eddie
eddy
ede
edel
edele
edelman
edelstene
eden
edenburg
edgar
edge
edi
edik
edinburg
edinburgh
edis
edison
edited
edith
edition
editions
editor
edmond
edms
edmund
edna
edo
eds
edu
eduard
eduardo
education
educational
edvard
edward
edwards
edwin
ee
eed
eeden
een
eenbedryf
eenbedrywe
eend
eendag
eende
eenders
eenderse
eene
eenhede
eenheid
eenhonderd
eenjarige
eenkeer
eenmaal
eenmalige
eenparig
eens
eensaamheid
eensame
eensellige
eenslagtig
eensydig
eensydige
eenvormig
eenvormige
eenvormigheid
eenvoud
eenvoudig
eenvoudige
eenvoudiger
eenvoudigste
eenwording
eer
eerbewyse
eerbied
eerbiedig
eerder
eerlik
eerlike
eerlikheid
eers
eersgenoemde
eerste
eersteklas
eerstens
eersterangse
eerstes
eertydse
eervol
eervolle
eerw
eerwaarde
eet
eetbaar
eetbare
eetsaal
eeu
eeue
eeufees
eeufeesgedenkboek
eeuse
eeuwisseling
ef
efese
eff
effe
effect
effects
effek
effekte
effektebeurs
effektief
effektiewe
effektiwiteit
effens
effense
eg
egei
egg
eggenoot
eggenote
eggo
eggs
eggsa
egipte
egiptenare
egipties
egiptiese
ego
egoi
egoli
egpaar
egskeiding
egte
egtelike
egter
egtheid
egypt
egyptian
ehe
ehlanzeni
ei
eichmann
eie
eienaam
eienaar
eienaardige
eienaars
eienaarskap
eiename
eiendom
eiendomme
eiendomsreg
eienskap
eienskappe
eier
eiers
eiersel
eierselle
eierstokke
eiesoortige
eietydse
eight
eighth
eike
eikel
eiland
eilandbewoners
eilande
eilanders
eilandgroep
eilandgroepe
eilandjies
eilandnasie
eilandstaat
eileen
eilish
ein
einde
eindelik
eindelike
eindelose
eindhoven
eindig
eindjaarrugbytoetsreeks
eindproduk
eindpunt
eindronde
eindrondte
eindstryd
eindstryde
eine
einem
einen
einer
eines
einmal
einstein
eintlik
eintlike
eis
eise
eisenhower
eisenstein
ejakulasie
ek
ekologie
ekologiese
ekonome
ekonomie
ekonomiee
ekonomies
ekonomiese
ekonoom
ekosisteem
ekosisteme
ekostelsel
eks
eksamen
eksamens
eksemplaar
eksemplare
eksentrieke
eksentrisiteit
eksistensialisme
eksistensie
eksklusief
eksklusiewe
ekskommunikeer
eksodus
eksoplaneet
eksoplanete
eksotiese
ekspedisie
ekspedisies
eksperiment
eksperimente
eksperimenteel
eksperimenteer
eksperimentele
eksperimentering
eksplisiet
eksplisiete
ekspressionistiese
eksteen
eksterne
ekstra
ekstreme
ekumeniese
ekwatoriaal
ekwivalent
ekwivalente
el
elaine
elam
eland
elandsrivier
elastiese
elbe
elder
elders
eldoret
eleanor
election
electra
electric
electronic
elegans
elegante
elektra
elektries
elektriese
elektrisiteit
elektrodes
elektromagnetiese
elektron
elektrone
elektronies
elektroniese
elektronika
element
elementary
elemente
elements
elena
elephant
elevator
eleven
eleventh
elf
elfde
elgar
elgin
eli
elia
elias
elim
eliot
elisabeth
elise
elite
elites
eliza
elizabeth
elize
elk
elke
elkeen
ella
elle
ellen
ellende
eller
ellery
elliot
elliott
ellips
elliptiese
ellis
ellul
elm
elmari
elmer
elmo
eloff
eloffsdal
els
elsa
elsabe
elsas
else
elsevier
elsewhere
elsie
elsiesrivier
elsker
elst
elton
elvira
elvis
em
emanuel
embleem
embleme
embrio
emerald
emergency
emeritaat
emeriteer
emeritus
emerson
emi
emigrante
emigrasie
emigreer
emil
emile
emilia
emilio
emily
emiraat
emirate
emirates
emissie
emma
emmanuel
emmanuelle
emmer
emmerdale
emmy
emosie
emosies
emosioneel
emosionele
empangeni
emperor
empire
empires
empiriese
empirisme
empress
empty
en
ena
encephalartos
enchanted
encore
encounter
encounters
encyclopaedia
encyclopedia
encyclopædia
end
ende
endeavour
endemies
endemiese
ending
endings
endless
endokriene
ends
ene
eneas
enemies
enemy
energie
energiebron
energiebronne
energieke
energieverbruik
energy
enersyds
enfant
enfants
eng
engagement
engel
engela
engeland
engelbrecht
engele
engelenburg
engels
engelse
engelsman
engelssprekende
engelssprekendes
engelstalige
engine
engineering
engineers
engl
england
english
enige
enigeen
enigiemand
enigiets
enigma
enigsins
enigste
enjin
enjins
enkel
enkele
enkeles
enkeling
enkelsnit
enkelsnitte
enkelspeler
enkelspelers
enkelvoud
enkelvoudige
enklawe
enorm
enorme
enough
enrico
ens
enschede
ense
ensemble
ensiem
ensieme
ensign
ensiklieke
ensiklopedie
ensiklopediee
enslin
ensovoorts
ent
entalpie
enter
enterobacteria
enterprise
entertainment
enthusiasm
entiteit
entiteite
entjie
entoesiasme
entourage
entre
entrepreneur
entrepreneurs
entropie
entry
entstof
entstowwe
environment
environmental
eon
eos
eoseen
ep
epic
epidemie
epidemies
epidermis
epiese
epilepsie
episode
episodes
epistemologie
epiteel
epitome
epog
epos
epsilon
epstein
equal
equalizer
equestria
equus
er
era
erasmus
erbe
erde
erdewerk
ere
erectus
erediens
eredienste
eredoktorsgraad
ereksie
erelid
erelys
erepenning
erf
erfenis
erfgenaam
erfgename
erflating
erflike
erg
erge
erger
ergste
eric
erica
erich
erik
erika
erin
eris
eritrea
erken
erkende
erkenning
erlank
ermelo
erna
ernest
ernie
erns
ernst
ernstig
ernstige
ernstiger
eroica
eros
erosie
erotic
erotica
erotiese
errol
error
ers
erste
ersten
ertjies
erts
ervaar
ervare
ervaring
ervaringe
ervarings
erwe
erwin
erylus
erza
es
esa
esaach
esat
esau
escape
escher
ese
eseken
eskader
eskarp
eskimo
eskom
esme
esnault
eso
esoteriese
espan
esperanto
esperiopsis
espncricinfo
esprit
essay
essayis
essayiste
essays
essen
essence
essensie
essential
essex
est
establishment
estate
este
estelle
ester
esterhuizen
estetiese
estetika
esther
estiese
estland
estniese
eswatini
et
eta
etage
etanol
etc
ete
eter
eternal
eternity
etes
ethekwini
ethel
ethics
ethiopia
ethiopie
ethiopiese
ethnic
ethnologue
etiek
etienne
etiese
etiket
etikette
etimologie
etimologiese
etlike
etnies
etniese
etnisiteit
etnografiese
etosha
etruskers
etruskiese
eu
eufraat
euge
eugen
eugene
eugenius
euphorbia
eurasie
eurasiese
eureka
euripides
euro
europa
europe
european
europee
europees
europese
eurovision
euryops
eurypon
eusebius
ev
eva
evalueer
evaluering
evan
evangelie
evangelies
evangeliese
evangelis
evangelisasie
evangeliste
evans
eve
evelyn
even
evening
event
events
ever
everest
everett
every
everybody
everyday
everyone
everything
evidence
evil
evolusie
evolusione
evolution
ewe
ewekansige
eweknie
ewekniee
ewenaar
eweneens
eweredig
ewewig
ewig
ewige
ewigheid
ex
excel
excelsior
exchange
exclusive
executive
exhibition
exile
exit
exodus
exorcist
exotic
expectations
expedition
expendables
experience
experiment
expert
exploration
explorer
exploring
expo
exposed
exposure
express
extended
extinction
extra
extraordinary
extreme
eybers
eye
eyed
eyes
eyre
ez
ezra
f
fa
faal
faan
fabaceae
fabel
fabels
faber
faberge
fabian
fabriek
fabrieke
fabulous
face
facebook
faces
fact
factbook
facto
factor
factory
facts
faculty
fade
fagan
fagot
fahd
fail
failure
fair
faire
fairy
faisal
fait
faith
faithful
fak
fake
fakkel
faksie
faksies
faktor
faktore
fakulteit
fakulteite
falco
falcon
falkland
fall
fallen
falling
falls
fallus
false
fame
fami
familia
familie
familiegeskiedenis
familielede
familielid
familien
familienaam
familieplaas
families
famille
family
famous
fan
fancy
fangs
fanie
fanny
fans
fantasia
fantasie
fantasiee
fantasies
fantastic
fantastiese
fantasy
fanus
fapla
far
faraday
farao
farewell
fargo
farm
farmaseutiese
farmer
farnese
faroe
farrea
farrell
fasade
fasades
fascisme
fascistiese
fase
fases
fasette
fashion
fashioned
fasiliteer
fasiliteit
fasiliteite
faso
fast
faster
fat
fatal
fate
father
fathers
fau
fauna
faure
fauresmith
faust
favorite
favourite
fay
fbi
fc
fe
fear
fearless
feast
feat
feather
feathers
feature
features
featurette
featuring
feb
februarie
february
federal
federale
federasie
federation
federer
federico
fee
feel
feeling
fees
feesalbum
feesdae
feesdag
feeste
feestelik
feestelike
feesviering
feesvierings
feet
feit
feite
feitegids
feitlik
fel
felice
felipe
felis
felix
fell
felle
fellini
fellow
fellowship
female
feministiese
femme
femmes
feng
fenisie
fenisiese
fenomeen
fenomenologie
feodale
fer
ferdinand
ferguson
ferm
fermentasie
fermi
fern
ferna
fernando
ferrara
ferrari
ferreira
ferris
fest
festival
fetus
feu
feud
fever
few
ff
ffisie
fi
fia
fiat
fichte
ficksburg
fiction
ficus
fide
fidel
fidji
fidjiaanse
field
fields
fiesta
fiets
fietse
fietsry
fifa
fifth
fifty
fig
figaro
fight
fighter
fighters
fighting
figueres
figure
figures
figuur
fiji
fiksie
fiktiewe
filamente
filantroop
filantrope
file
files
filharmoniese
filiaal
filiale
filip
filippo
filippyne
filippynse
filips
filistyne
fille
film
filmbedryf
filmfees
filmmaker
filmmakers
filmografie
filmregisseur
films
filologie
filosofie
filosofiee
filosofiese
filosoof
filosowe
filter
filters
filthy
filum
fin
finaal
final
finale
finali
finalis
finance
financial
finansie
finansieel
finansier
finansiering
finansies
find
finding
finds
fine
finest
finger
fingers
finish
finland
finn
fins
finse
fire
fired
firefly
firefox
fires
firm
firma
firmas
first
fischer
fish
fishbase
fisher
fishes
fishing
fisici
fisiek
fisieke
fisies
fisiese
fisika
fisikus
fisiologie
fisiologiese
fist
fisted
fists
fit
fitzgerald
fitzpatrick
five
fix
fjodor
fjord
fl
flag
flags
flak
flame
flames
flaming
flamsteed
flanders
flank
flanke
flash
flat
flats
flavius
fledermaus
fleet
fleming
flemming
flesh
fletcher
fleur
fleurs
flickr
fliek
flieks
flies
flight
fling
flint
flintstone
flintstones
flip
flirt
flirting
flits
flitse
flo
flood
floor
floors
flora
floreer
florence
florentynse
florerende
florida
floris
flou
flow
flower
flowers
floyd
flu
flucht
fluit
fluoor
fluweel
fly
flyer
flying
flynn
fm
fo
fockers
focus
fodor
fog
fokker
fokus
fokuspunt
folio
folk
folklore
folks
follies
follow
following
folly
fonda
fondament
fondamente
fonds
fondse
fonetiek
fonetiese
fonologie
fontaine
fontainebleau
fontana
fontein
fonteine
fontsize
food
fooi
fool
foolish
fools
foot
football
footloose
footsteps
for
forbes
forbidden
force
forcepia
forces
ford
fordsburg
foreign
forensiese
forest
forever
forget
forgive
forgot
forgotten
form
formaat
formasie
formasies
formate
formation
formeel
formele
former
formosa
formula
formule
formuleer
formulering
formules
forrest
forster
forsyth
fort
forte
fortress
fortuin
fortune
fortunes
forty
forum
forward
fosfaat
fosfor
fossiel
fossielbrandstowwe
fossiele
fossil
foster
fosters
foto
fotogalery
fotograaf
fotografie
fotografiese
fotograwe
foton
fotone
fotos
fotosintese
foucault
fouche
found
foundation
fountain
four
fourie
fourier
fourth
fout
foute
foutief
foutiewe
fox
foxes
fr
fra
fraates
frac
fragilis
fragment
fragmente
fragments
fraksie
frame
framed
franc
franca
france
frances
francesca
francesco
franche
franchise
francina
francis
francisco
franciscus
franciskus
franck
franco
francois
frank
franke
frankenstein
frankfort
frankfurt
frankfurter
frankfurtse
frankie
frankiese
franklin
frankryk
frans
franschhoek
franse
fransman
franssprekende
franstalige
franz
frase
fraser
fraserburg
frases
frau
frauen
fre
freak
freaks
freaky
fred
freda
freddie
freddy
frederic
frederick
frederik
free
freedom
freek
freeman
fregat
freiburg
freie
freiheit
frekwensie
frekwensies
frelimo
fremde
french
frequency
frere
fresh
freshman
freshwater
fresko
freud
freund
friars
friday
fried
frieda
friedman
friedrich
friend
friendly
friends
friendship
fries
friese
friesland
fright
frightened
frigie
frikkie
fringe
frisco
frits
fritz
fro
frog
from
fromont
front
fronte
frontier
frontiers
frost
frozen
fru
fruit
frustrasie
fry
fryer
fs
fsa
ft
fu
fuchs
fuck
fucking
fuel
fuga
fugard
fugitive
full
fuller
fullmetal
fun
fund
fundamenteel
fundamentele
funeral
fungeer
fungi
fungus
funk
funksie
funksies
funksionaliteit
funksioneel
funksioneer
funksionele
funksionering
funniest
funny
furious
furtado
further
furtwa
fury
fusie
fusion
futurama
future
fuzz
fw
fx
fyn
fynbos
fyner
g
ga
gaan
gaande
gaandeweg
gaar
gaatjies
gable
gables
gaboen
gaborone
gabrie
gabriel
gabriele
gade
gadget
gaelies
gaeliese
gag
gaia
gail
gaius
gal
gala
galactic
galactica
galaktiese
galaxies
galaxy
galba
gale
galerie
galery
galerye
galilei
galileo
gallant
gallen
gallery
gallia
gallie
galliese
gallo
galloping
gama
gambie
gamble
gambler
gamblers
gambling
game
games
gamete
gamka
gamle
gamma
gammaflitse
gammastrale
gandhi
ganesha
ganesja
gang
gange
ganges
gangster
gans
ganse
ganumedes
ganz
gap
gaping
gapings
garage
garageband
garci
garcia
garde
garden
gardens
gardes
gardiner
gardner
gare
garfield
garibaldi
garland
garnale
garnisoen
garry
gars
garten
gary
gas
gasheer
gasheerstad
gasheerstede
gashere
gasse
gaste
gastehuis
gasteria
gaston
gat
gate
gates
gateway
gathering
gatsby
gaudi
gauguin
gauliga
gaulle
gaum
gautama
gauteng
gave
gavin
gawe
gawes
gawie
gawl
gay
gays
gazania
gazeta
gazette
gb
ge
geaardheid
geabsorbeer
geadministreer
geaffekteer
geaffilieer
geag
geaktiveer
geallieerde
geallieerdes
geanimeerde
geanker
geannekseer
geantwoord
gear
gearbei
geargiveer
geargumenteer
gearresteer
gearriveer
geassimileer
geassosieer
geassosieerde
geb
gebaan
gebaar
gebak
gebalanseerde
gebare
gebaseer
gebaseerde
gebe
gebed
gebede
gebeeldsend
geberg
gebergte
gebergtes
gebesig
gebeur
gebeure
gebeurtenis
gebeurtenisse
gebid
gebied
gebiede
gebind
geblaas
geblokkeer
geblom
gebly
geblyk
geboe
geboer
geboikot
gebombardeer
gebonde
geboorte
geboortedatum
geboortedorp
geboorteland
geboorteplek
geboortes
geboortestad
gebore
geborg
gebots
gebou
geboude
geboue
gebouekompleks
gebraai
gebrand
gebreek
gebreekte
gebrek
gebreke
gebrekkig
gebrekkige
gebring
gebroke
gebruik
gebruike
gebruiker
gebruikers
gebruiklik
gebruiklike
gebruikte
gebuig
gebuk
gebundel
gedaal
gedaan
gedaante
gedagte
gedagtes
gedagvaar
gedans
gedateer
gedebatteer
gedeel
gedeelde
gedeelte
gedeeltelik
gedeeltelike
gedeeltes
gedefinieer
gedefinieerde
gedei
gedek
gedemonstreer
gedenk
gedenkboek
gedenkplaat
gedenksteen
gedenkteken
gedenkwaardighede
gedenkwaardigheid
gedeporteer
gedetailleerde
gediagnoseer
gedichten
gedien
gedierte
gedig
gedigte
gedink
gedirigeer
gedoen
gedokumenteer
gedokumenteerde
gedomineer
gedompel
gedood
gedoop
gedoseer
gedra
gedraai
gedrag
gedrang
gedreig
gedrink
gedroog
gedroogde
gedruk
gedrukte
gedryf
gedugte
gedui
geduld
gedurende
gedurig
gedurige
geduur
gedwing
gedwonge
gedy
gee
geeks
geel
geelbruin
geen
geeneen
geensins
gees
geesdrif
geesdriftig
geesdriftige
geest
geeste
geestelik
geestelike
geestelikes
geestelikheid
geestesteurings
geesteswetenskaplike
geesteswetenskappe
geestige
gefa
gefaal
gefassineer
gefedereerde
gefinansier
gefloreer
gefokus
geformuleer
geforseer
gefotografeer
gefragmenteerde
gefungeer
gegaan
gegee
gegeld
gegen
gegenereer
gegewe
gegewens
gegiet
geglo
gegoede
gegooi
gegradueer
gegraveer
gegrawe
gegrens
gegroei
gegroepeer
gegrond
gegryp
gegun
gehaal
gehad
gehalte
gehandel
gehandhaaf
gehang
gehanteer
geharde
gehardloop
geheel
geheers
geheet
gehef
geheg
geheim
geheime
geheimnis
geheimsinnige
gehele
gehelp
geheue
gehoop
gehoor
gehoorsaam
gehoorsaamheid
gehore
gehou
geht
gehuisves
gehul
gehuldig
gehuur
gehys
gei
geissorhiza
gejaag
gejag
gekaap
gekanselleer
gekant
gekap
gekarakteriseer
gekategoriseer
gekeer
gekelder
geken
gekenmerk
gekerf
gekeur
gekies
gekla
geklassifiseer
geklee
gekleur
gekleurde
geklim
geklop
gekoester
gekollekteer
gekoloniseer
gekom
gekombineer
gekombineerde
gekommunikeer
gekomponeer
gekonfedereerde
gekonfiskeer
gekonfronteer
gekonsentreer
gekonsentreerde
gekonsolideer
gekontrasteer
gekoo
gekook
gekookte
gekoop
gekopieer
gekoppel
gekoppelde
gekos
gekose
gekrediteer
gekrimp
gekritiseer
gekroon
gekruis
gekry
gekwalifiseer
gekwalifiseerde
gekweek
gekyk
gel
gelaai
gelaaide
gelaat
gelag
geland
gelang
gelanseer
gelas
geld
geldeenhede
geldeenheid
geldelike
geldenhuys
gelderland
geldig
geldige
geldigheid
geldsake
gele
gelede
geledere
gelee
geleedpotiges
geleef
geleen
geleenthede
geleentheid
geleer
geleerde
geleerdes
geleerdheid
gelees
gelegitimeer
gelei
geleide
geleidelik
geleidelike
geleiding
geleidingsvermoe
geleier
geleiers
geletterdheid
gelewe
gelewer
geliebte
geliefde
geliefdes
gelig
geller
gelliodes
gelofte
gelok
gelokaliseerde
geloods
geloof
geloofsbelydenis
geloofwaardigheid
geloop
gelos
gelowe
gelowige
gelowiges
gelui
geluid
geluide
geluister
geluk
gelukkig
gelukkige
gely
gelyk
gelyke
gelykgestel
gelykheid
gelyknamige
gelykop
gelykopuitslag
gelyksang
gelykstaande
gelykstroom
gelyktydig
gelyktydige
gelys
gem
gemaak
gemaal
gemaalde
gemagtig
gemak
gemaklik
gemaklike
gemanipuleer
gemartel
gematig
gematigde
gematrikuleer
gemeen
gemeenskap
gemeenskaplik
gemeenskaplike
gemeenskappe
gemeente
gemeentegrense
gemeentelede
gemeentelike
gemeentes
gemeentevergadering
gemeet
gemeganiseerde
gemeld
gemene
gemenebes
gemeng
gemengde
gemerk
gemiddeld
gemiddelde
gemigreer
gemik
gemini
gemis
gemoderniseer
gemodifiseerde
gemoed
gemoedstoestand
gemoeid
gemonitor
gemonteer
gemotiveer
gemyn
gen
genaamd
genade
genadedood
genader
genasionaliseer
gender
gene
genealogie
genealogiese
geneefse
geneem
genees
geneesheer
geneeskunde
geneeskundige
geneeskundiges
geneesmiddel
geneesmiddels
geneig
geneigdheid
genera
generaal
generaals
general
generale
generasie
generasies
generation
generations
genereer
generiese
genesing
genesis
geneties
genetiese
genetika
geni
genie
geniet
genitale
genitief
genius
genl
genoeg
genoegsaam
genoegsame
genoem
genoemde
genome
genomineer
genommer
genommerde
genoodsaak
genooi
genoom
genoop
genoot
genootskap
genot
genoteer
genre
genres
gent
gentle
gentleman
gentlemen
genua
genus
genusse
geo
geodia
geodiidae
geoes
geoffer
geoffrey
geofiet
geograaf
geografie
geografies
geografiese
geographic
geography
geoksideer
geoloe
geologic
geological
geologie
geologies
geologiese
geology
geoloog
geometrie
geometriese
geonames
geopen
geopenbaar
geopolitieke
geopper
georden
geordende
georg
georganiseer
georganiseerde
george
georges
georgi
georgia
georgie
georgies
georgiese
georie
geotermiese
gepaard
gepaardgaan
gepaardgaande
gepak
gepantserde
gepas
gepaste
gepatenteer
gepers
geplaas
geplant
gepleeg
gepleit
gepluk
geplunder
gepomp
gepoog
gepraat
gepreek
geprikkel
geprobeer
geproduseer
geproklameer
gepromoveer
geprys
gepubliseer
gepubliseerde
gepunte
ger
geraadpleeg
geraak
geraam
geraamde
geraamte
geraamtes
geraas
gerald
geraldine
gerangskik
gerapporteer
gerard
gerber
gerbera
gerbic
gerdener
gereageer
gerealiseer
gerebelleer
gered
geredelik
geredeneer
geredigeer
gereduseer
geree
gereed
gereedskap
gereeld
gereelde
geref
gereformeerde
gereformeerdes
gereg
geregeer
geregisseer
geregistreer
geregistreerde
geregshof
geregte
geregtelike
geregtig
geregtigheid
gereguleer
geregverdig
gereis
gereken
gerekende
gerekonstrueer
gerekonstrueerde
gereserveer
gerespekteer
gerespekteerde
gerestoureer
gerestoureerde
gerhard
gerhardus
gerief
gerieflike
geriewe
gerig
gerigte
gering
geringe
germaans
germaanse
germain
german
germane
germania
germanicus
germany
germiston
geroep
gerol
geronde
gerrie
gerrit
gerry
gert
gertrude
gertruida
gerugte
geruil
geruim
geruime
geruk
gerus
gery
gesaai
gesag
gesaghebbende
gesamentlik
gesamentlike
gesang
gesange
gesant
gesante
geschichte
geschichten
geschiedenis
gese
gesee
gesegde
geseil
geselekteerde
gesellschaft
gesels
geselskap
geselskapseilande
gesentraliseerde
gesentreer
gesetel
gesien
gesiene
gesig
gesigte
gesimboliseer
gesin
gesinde
gesindheid
gesing
gesink
gesinne
gesinslewe
gesintetiseer
gesit
geskaar
geskakel
geskat
geskatte
geskeduleer
geskeduleerde
geskei
geskend
geskenk
geskenke
geskep
geskets
geskeur
geskied
geskiedenis
geskiedkundige
geskiedkundiges
geskiedskrywer
geskiedskrywing
geskiet
geskik
geskikte
geskil
geskilder
geskille
geskoei
geskok
geskoolde
geskop
geskors
geskrap
geskree
geskrewe
geskrif
geskrifte
geskryf
geskrywe
geskud
geskuif
geslaag
geslaagd
geslaagde
geslaan
geslaap
geslag
geslagsdele
geslagsorgane
geslagte
gesleep
gesloop
geslote
gesluit
gesmee
gesmelt
gesmelte
gesneuwel
gesneuweldes
gesny
gesoek
gesofistikeerde
gesog
gesogte
gesond
gesonde
gesondheid
gesondheidsorg
gesondheidsprobleme
gesondheidsredes
gesorg
gespaar
gespan
gespanne
gespeel
gespekuleer
gespel
gespesialiseer
gespesialiseerde
gespesifiseer
gespierde
gespikkelde
gespreek
gesprek
gesprekke
gespring
gesproke
gespuit
gestaak
gestaan
gestaar
gestabiliseer
gestalte
gestandaardiseer
gestandaardiseerde
gestap
gestapo
gestasioneer
geste
gesteek
gesteel
gesteelde
gesteente
gesteentes
gestel
gesteld
gestem
gesterf
gestern
gesteun
gestig
gestigte
gestileerde
gestimuleer
gestoor
gestoot
gestop
gestort
gestorwe
gestraf
gestrand
gestreef
gestreepte
gestrek
gestrem
gestremde
gestremdes
gestroom
gestroop
gestruktureer
gestruktureerde
gestry
gestryk
gestudeer
gestuit
gestuur
gestyg
gesuggereer
gesuiwer
gesukkel
gesweer
get
getal
getalle
getaway
geteel
geteiken
geteister
geteken
getel
gethyllis
getitel
getiteld
getoer
getoets
getoon
getoonset
getree
getref
getrek
getrou
getroud
getroude
getroue
getrouheid
gets
getting
getty
getuie
getuienis
getuies
getuig
gety
getye
geur
geure
gevaar
gevaarlik
gevaarlike
geval
gevalle
gevang
gevange
gevangene
gevangenes
gevangenis
gevangenisse
gevangenisstraf
gevangenskap
gevare
gevat
geveg
gevegte
geverf
geverfde
geverg
gevestig
gevestigde
gevier
gevierde
gevind
gevlekte
gevlieg
gevloei
gevlug
gevoed
gevoeg
gevoel
gevoelens
gevoelig
gevoelige
gevoer
gevolg
gevolge
gevolglik
gevolglike
gevolgtrekking
gevolgtrekkings
gevonnis
gevorder
gevorderd
gevorderde
gevorm
gevormde
gevou
gevra
gevrees
gevreesde
gevreet
gevries
gevul
gevuur
gewaag
gewaagde
gewaai
gewaar
gewaarborg
gewaardeer
gewaarsku
gewag
gewapen
gewapende
gewas
gewasse
gewasverbouing
geweefde
geweeg
geweer
gewees
geweet
gewei
geweier
gewek
gewel
geweld
gewelddadig
gewelddadige
geweldig
geweldige
geweldpleging
gewels
gewen
gewend
gewenste
gewentel
gewere
gewerf
gewerk
gewerp
gewerwelde
gewerweldes
gewes
gewese
geweste
gewete
gewig
gewigte
gewikkel
gewild
gewilde
gewilder
gewildheid
gewildste
gewillig
gewin
gewissel
gewoed
gewond
gewonde
gewondes
gewone
gewoon
gewoond
gewoonlik
gewoonte
gewoontes
geword
gewortel
gewrig
gewrigte
gewy
gewyde
gewys
gewysig
gewysigde
geyer
gezelle
gg
ghaddafi
ghana
ghetto
ghieliemientjie
gholf
ghost
ghostbusters
ghosts
gi
giacomo
gian
giant
giants
gibbon
gibbons
gibbs
gibeon
gibraltar
gibson
gibt
gideon
gids
giet
gif
gifstowwe
gift
gifted
giftig
giftige
gigi
gigolo
gij
gil
gilbert
gilde
gilded
gildes
giles
giliomee
gill
gilles
gillespie
gilligan
gillis
gilmore
gimme
gimnasium
gimnastiek
gina
ginger
gion
giorgio
giovanni
gips
girl
girlfriend
girlfriends
girls
girolamo
gis
gister
giuliano
giulio
giuseppe
give
given
gives
giving
giyani
giza
gje
gk
gksa
glad
gladde
gladiator
gladiators
gladiolus
gladstone
gladys
glamour
glans
glas
glasby
glasgow
glasiale
glasnost
glass
glassponse
glasuur
gleason
glee
glen
glencoe
glenn
gletser
gletsers
gliese
glimlag
glo
global
globale
globalisering
globe
globes
gloria
glorie
glorious
glory
glossary
gloucester
glove
glu
glukose
gly
gm
gmbh
gnome
gnoreer
gnostiese
gnostisisme
gnu
go
goal
goat
gobabis
god
goddard
goddelike
goddess
gode
godfather
godfrey
godhede
godheid
godin
godinne
godoenof
gods
godsdiens
godsdienste
godsdienstig
godsdienstige
godzilla
goed
goede
goedere
goedgekeur
goedgekeurde
goedgesind
goedheid
goedkeur
goedkeuring
goedkoop
goedkoper
goeie
goelag
goes
goethe
goewerneur
goewerneurs
gogh
going
gold
goldberg
goldbergs
goldblatt
golden
goldene
goldenglobes
goldie
goldman
golf
golflengte
golflengtes
goliath
golwe
golwende
gom
gondwana
gone
gong
goniwe
gonna
gonzaga
good
goodall
goodbye
goodman
goodnight
goods
goodwin
goodwood
goodyear
google
gooi
goop
goose
goosen
gor
gorbatsjof
gordel
gordels
gordon
gordyne
gore
gorgeous
gorilla
gorillas
gosford
gospel
gossip
got
gote
gotenburg
gotha
gotham
gothic
goties
gotiese
gott
gotta
gottfried
gottlieb
gottlob
gou
goud
gouda
goudaar
goudkus
goudland
goudmyn
goudmyne
goudstad
goudstormloop
goudvelde
goue
gould
gouws
gov
government
governor
goya
gp
gps
gqeberha
gr
gra
graad
graaf
graaff
graafskap
graafskappe
graag
graal
graan
grabovoi
grace
gracie
gracilis
grade
gradering
gradstein
graduate
grady
graf
graffiti
grafiek
grafieke
grafiese
grafiet
grafkelder
grafkelders
grafsteen
grafte
graftombe
graham
grahamstad
gram
grammar
grammatika
grammatikale
grammophon
grammy
gramophone
gran
granaat
granada
grand
grande
grandma
grandpa
grands
grange
graniet
grant
grantessa
grantia
grantiidae
grap
grapes
grappe
gras
grass
grasse
grasveld
grasvelde
grasvlaktes
gratis
grave
graves
gravin
gravity
grawe
gray
graz
gre
grease
great
greater
greatest
greece
greed
greeff
greek
greeks
green
greene
greenwich
greenwood
greep
greg
gregor
gregoriaanse
gregorius
gregory
grenoble
grens
grense
grensgebied
grenslyn
grensoorloe
grensoorlog
grenspos
grepe
greta
gretel
gretig
grey
greyling
greytown
grief
grieg
grieke
griekeland
grieks
griekse
griekwa
griekwaland
griekwas
griekwastad
griep
grietjie
griewe
griffin
griffith
griffiths
grim
grimaldi
grimm
grind
grit
grizzly
gro
grobbelaar
grobler
groei
groeiende
groeikoers
groen
groenewald
groenland
groenpunt
groente
groep
groepe
groepeer
groepering
groeperings
groepfase
groepie
groepies
groepnaam
groepsgebiedewet
groepwedstryd
groepwedstryde
groet
groewe
grof
grond
grondbeginsels
grondbesit
grondbesitters
gronde
grondeienaars
grondgebied
grondige
grondlegger
grondpad
grondslae
grondslag
grondstof
grondstowwe
grondvlak
grondwater
grondwet
grondwetlike
grondwette
groningen
groot
groote
grootfontein
grootgemaak
grootgeword
groothede
grootheid
groothertoe
groothertog
groothertogdom
groothertogin
grootliks
grootmaak
grootmeester
grootouers
grootpad
grootprins
grootrivier
grootse
grootskaalse
grootste
grootstes
grootte
groottes
grootvader
grootword
groove
gross
grosse
grosskopf
grot
grote
grotendeels
groter
groteske
grotius
grotte
ground
group
grove
groves
grow
growing
grown
growth
growwe
große
großen
gru
grudge
gruis
gruyter
gryp
grys
grysbruin
gs
gt
gu
guam
guangzhou
guard
guardian
guardians
guatemala
guderian
gue
guerne
guernsey
guerre
guerrilla
guerrillas
guess
guest
guevara
guide
guides
guiding
guido
guild
guillaume
guilt
guilty
guinea
guinee
guinese
guinness
guitar
gulden
gulf
gulliver
gun
gundam
gunfighter
gunn
guns
gunsmoke
gunste
gunsteling
gunstelinge
gunstig
gunstige
gunther
gupta
guru
gus
gustaf
gustav
gustave
gut
gute
gutenberg
guthrie
guy
guyana
guys
gymnosporia
gymnothorax
gyo
gypsy
gys
gysbert
gyselaar
gyselaars
h
ha
haag
haai
haaie
haak
haal
haan
haar
haarhoff
haarlem
haarself
haas
haastig
haat
haben
haber
habermas
habilis
habit
habitat
habitats
habitatte
habsburg
habsburgse
hachioji
had
hades
hadid
hadj
hadrianus
hadsund
haeckel
hael
haemanthus
hagen
hager
haglike
hahn
hai
hail
haile
hair
hairspray
haiti
hajdu
haka
hakies
hal
hale
half
halfbroer
halfeeu
halfeindronde
halfeindrondte
halfeindstryd
halfeindstryde
halfleeftyd
halfmaan
halfmiljoen
halfpad
halfrond
halfuur
halichondria
halichondriidae
haliclona
halifax
hall
halle
halley
halliday
hallo
halloween
hallows
hallusinasies
halo
hals
halwe
ham
hambidge
hamburg
hamburger
hamer
hamersma
hamilton
hamlet
hammer
hammond
hampshire
hampton
han
hancock
hand
handbal
handboek
handboeke
handbook
hande
handel
handelaar
handelaars
handeling
handelinge
handels
handelsbande
handelsbetrekkinge
handelsblad
handelsentrum
handelskepe
handelsmerk
handelsmerke
handelsnaam
handelspos
handelsposte
handelsroete
handelsroetes
handelsvennote
handgeskrewe
handhaaf
handhawing
handjievol
handle
handleiding
handleidings
hands
handskoene
handskrif
handsome
handtekening
handves
handwoordeboek
hanekom
hang
hange
hangende
hanging
hangman
hangover
hani
hank
hanlie
hanna
hannah
hannes
hannibal
hannover
hanover
hans
hanse
hansen
hansestad
hanseverbond
hansie
hantam
hanteer
hantering
haploi
happen
happened
happening
happens
happily
happiness
happy
har
hara
harald
harappa
harare
harbor
harbour
hard
hardcore
harde
harder
hardeskyf
hardeware
hardheid
harding
hardloop
hardy
hare
harem
harige
haring
harland
harlem
harm
harmonie
harmoniese
harmony
harnas
harold
harp
harper
harriet
harris
harrismith
harrison
harry
hars
hart
hartaanval
harte
hartklop
hartland
hartley
hartlik
hartlike
hartman
hartmann
hartseer
hartversaking
harv
harvard
harvest
harvey
has
hase
hassan
hastings
hat
hatch
hate
hattingh
haum
haunted
haunting
hauptfleisch
haus
haut
haute
havana
have
havel
haven
havenga
havilland
having
havoc
havre
haw
hawaii
hawaiian
hawaise
hawe
hawens
hawestad
hawestede
hawk
hawkins
hawks
hawley
haworthia
haworthiopsis
hawthorne
hay
haydn
hayes
hazard
hazel
hbo
hc
hcl
hd
he
head
headed
headin
headlines
headquarters
heads
healing
health
hear
heard
heart
heartbeat
heartbreak
heartland
hearts
heat
heath
heather
heathrow
heaven
heavenly
heavy
heb
hebben
hebree
hebreeus
hebreeuse
hebride
hebron
hector
hedda
hede
hedendaagse
hedwig
heeft
heel
heelal
heelers
heelgetal
heelgetalle
heelparty
heels
heeltemal
heeltyd
heelwat
heemstra
heen
heengaan
heenkome
heer
heerden
heere
heeren
heerlike
heers
heersende
heerser
heersers
heerskappy
heese
heesters
heet
heever
hef
hefboom
heffings
heft
heftig
heftige
heg
hegel
hegte
hegtenis
heide
heidegger
heidelberg
heidelbergse
heidene
heidense
heidi
heights
heil
heilbron
heilig
heiligdom
heiligdomme
heilige
heiliges
heiligheid
heimat
hein
heine
heining
heinrich
heinz
heiress
heist
hek
hekke
heks
hekse
heksery
heksie
hektaar
hektor
hel
held
helde
heldedig
helder
helderberg
helderder
helderheid
helderrooi
helderste
heldesaal
heldin
hele
helen
helena
helene
helfte
helftes
helgaard
helikopter
helikopters
heling
helios
helium
helize
hell
hellenistiese
helling
hellings
hello
helm
helms
helmteken
helmut
help
helpmekaar
helsing
helsinki
helter
hem
hemde
hemel
hemelliggaam
hemelliggame
hemelruim
hemelse
hemingway
hemofilie
hemp
hen
henderson
hendrik
hendrina
hengel
henk
henley
hennenman
hennie
henning
henog
henri
henrietta
henriette
henrik
henry
hentschel
hepatitis
hepburn
her
hera
herakleitos
herakles
herald
heraldiek
heraldiese
heraldry
herbarium
herbegrawe
herberg
herbert
herbie
herbivore
herbou
herbst
hercules
herd
herdenk
herdenking
herdenkings
herder
herders
herdoop
herdruk
here
herehuis
herehuise
herenig
hereniging
herero
herfs
hergeboorte
hergebruik
herhaal
herhaalde
herhaaldelik
herhalende
herhaling
herholdt
heringestel
herinner
herinnering
herinneringe
heritage
herken
herkenbaar
herkenbare
herkies
herkoms
herleef
herlei
herlewing
herman
hermann
hermans
hermanus
hermeneutiek
hermes
hermie
hermien
herna
hernieude
hernoem
hernu
hernubare
hernude
hero
herodes
herodotos
herodotus
heroes
heroi
herold
herontdek
herontwerp
heropbou
heropen
herorganiseer
herower
herpes
herpesvirus
herr
herrn
herroep
herroeping
hers
herschel
hersien
hersiene
hersiening
herskep
herskryf
herstel
herstelwerk
herstig
herstrukturering
hertoe
hertog
hertogdom
hertogdomme
hertogenbosch
hertogin
hertz
hertzog
hertzogprys
heruitgegee
heruitgereik
heruitreiking
herv
hervat
herverkies
hervestig
hervestiging
hervorm
hervormde
hervormer
hervorming
hervormings
herwin
herwinning
herz
herzegowina
herzen
herzog
hesperantha
hess
hesse
hessen
hessiese
hester
het
heteroseksuele
hetiete
hetitiese
hetsy
hettie
heuning
heup
heupe
heute
heuwel
heuwelagtige
heuwels
hewig
hewige
hexactinellida
hexrivierberge
hey
heyns
hi
hibriede
hidden
hide
hiding
hidroe
hidrostatiese
hidrouliese
hie
hiemstra
hier
hieraan
hierbo
hierby
hierdeur
hierdie
hierheen
hierin
hiermee
hierna
hiernamaals
hieronder
hieroor
hierop
hiertoe
hieruit
hiervan
hiervandaan
hiervolgens
hiervoor
higgins
higginsia
high
higher
highest
highland
highlander
highlanders
highway
higie
hij
hilary
hilda
hill
hillary
hillbrow
hills
hilton
hilversum
him
himalaja
himmel
himself
hindemith
hindernis
hindernisse
hindi
hindoe
hindoei
hindoes
hinomaru
hinter
hip
hiperbool
hipotese
hipoteses
hipotetiese
hippospongia
hiram
hire
hiroshima
hirosjima
his
histoire
historia
historic
historical
historici
historie
histories
historiese
historikus
historique
historische
history
hit
hitch
hitchcock
hitchhiker
hitler
hitman
hits
hitte
hitteruiler
hiv
hl
hle
hler
hm
hms
hn
hne
hnp
ho
hobbes
hobbit
hobbs
hobhouse
hobo
hobson
hochschule
hochzeit
hockey
hoe
hoed
hoedanigheid
hoede
hoef
hoegenaamd
hoek
hoeke
hoekom
hoeksteen
hoeksteenlegging
hoender
hoenders
hoes
hoeveel
hoeveelhede
hoeveelheid
hoewe
hoewel
hof
hoff
hoffman
hoffmann
hofmeyr
hofsaak
hofsake
hogan
hohenzollern
hok
hokkaido
hokkie
hol
holby
hold
holden
holding
holdings
hole
holes
holiday
holidays
holland
hollandberge
hollander
hollanders
hollands
hollandsch
hollandsche
hollandse
hollow
holloway
holly
hollyoaks
hollywood
holm
holmes
holocaust
holst
holstein
holt
holte
holtes
holy
hom
home
homecoming
homeland
homer
homeriese
homeros
homerus
homes
homicide
homme
hommes
homo
homofobie
homogene
homoseksualiteit
homoseksueel
homoseksuele
homself
homunculus
hond
honda
honde
honderd
honderdduisende
honderde
honderdjarige
honderdtal
honderdtalle
honduras
honey
honeymoon
honeymooners
hong
hongaars
hongaarse
hongare
hongarye
honger
hongersnood
hongkong
honiball
honneur
honneurs
honneursgraad
honolulu
honor
honore
honoris
honorius
honors
honour
hons
hood
hoof
hoofafrigter
hoofartikel
hoofbestuur
hoofbestuurder
hoofbron
hoofde
hoofdirigent
hoofdoel
hoofdorp
hoofeiland
hoofgebou
hoofgroepe
hoofingang
hoofkantoor
hoofkarakter
hoofkarakters
hoofkwartier
hoofkwartiere
hoofletter
hoofletters
hoofman
hoofmanne
hoofpad
hoofpyn
hoofred
hoofredakteur
hoofreeks
hoofreeksster
hoofreekssterre
hoofregter
hoofrol
hoofrolle
hoofrolspelers
hoofs
hoofsaaklik
hoofsanger
hoofse
hoofstad
hoofstasie
hoofstede
hoofstraat
hoofstroom
hoofstuk
hoofstukke
hooft
hooftema
hoofvakke
hoofweg
hoog
hoogduits
hoogduitse
hoogenhout
hooggeregshof
hoogheid
hoogl
hoogland
hooglande
hoogleraar
hooglied
hoogs
hoogste
hoogstens
hoogte
hoogtepunt
hoogtepunte
hoogtes
hoogverraad
hook
hooker
hoop
hooper
hoopstad
hoor
hoorn
hoort
hoover
hop
hope
hopefield
hopetown
hopkins
hopper
horace
horatio
horde
hore
horing
horings
horison
horisontaal
horisontale
horizon
horizons
horlosie
horlosies
hormone
hormoon
horn
hornet
horowitz
horrible
horror
horrors
horse
horseman
horses
horst
horus
hoshino
hospitaal
hospital
hospitale
host
hostage
hot
hotel
hotelle
hottentot
hottentots
hottentotte
hottest
hou
houding
houdings
houe
houer
houers
hough
houghton
hound
hour
hours
house
houses
housewives
houston
hout
houtagtige
houtbaai
houtskool
houvas
how
howard
howe
howerd
hozawa
hp
hr
hrer
hrsg
hrung
hsm
ht
htm
html
http
https
hu
huang
hub
hubbard
hubble
hubert
huckleberry
hudson
hugenote
hugh
hughes
hugo
hui
huid
huide
huidig
huidige
huil
huis
huisarres
huisbesoek
huise
huisgenoot
huisgesin
huishoudelike
huishouding
huishoudings
huisie
huislike
huisplante
huistaal
huisves
huisvesting
huisvrou
huiwerig
hul
hulde
huldeblyk
huldig
huldigingsbundel
hulk
hull
hulle
hulleself
hulp
hulpbron
hulpbronne
hulpmiddel
hulpmiddels
hulpprediker
hulself
human
humanis
humanisme
humanistiese
humanite
humanities
humanity
humans
humansdorp
humboldt
hume
humiditeit
humor
humoristiese
humorsin
humpata
humphrey
hun
hunchback
hund
hundred
hungarian
hungary
hunger
hungry
hunne
hunt
hunted
hunter
hunters
huntford
hunting
huntington
huntsman
hupstoot
hur
hurricane
hurricanes
hurry
hurt
hus
husband
husbands
hush
husserl
hustle
hut
hutch
hutchinson
hutte
hutton
huur
huurders
huursoldate
huwelik
huwelike
huxley
huygens
huyssteen
hvem
hy
hyalonema
hyalonematidae
hyde
hymedesmia
hymedesmiidae
hymeniacidon
hymn
hyperion
hys
hysbak
hyself
hyundai
hz
i
ia
iaaf
ian
iana
iata
iau
ib
iberie
iberiese
ibm
ibn
ibrahim
ibsen
ic
icao
ice
iceland
ich
icloud
icon
id
ida
idaho
idea
ideaal
ideal
ideale
idealisme
idealistiese
ideas
idee
idees
identies
identiese
identifikasie
identifiseer
identifisering
identiteit
identities
identity
ideologie
ideologiee
ideologiese
idioom
idiot
idol
idols
ie
ieee
iemand
ien
iere
ierland
iers
ierse
iets
ietwat
iewers
if
ifa
ifrs
ignatius
ignoreer
igor
ihr
ihre
ii
iii
ijima
ik
ike
ikea
ikke
ikko
ikone
ikoniese
ikonografie
ikoon
ikr
il
ilias
ill
illegal
illinois
illusie
illusion
illustrasie
illustrasies
illustrated
illustreer
illustreerder
ilse
im
image
images
imaginary
imagination
imagine
imam
imdb
imf
img
imitation
immanuel
immelman
immer
immergroen
immers
immigrant
immigrante
immigrasie
immortal
immuniteit
immuunstelsel
imovie
impact
impak
impakte
imperial
imperiale
imperialisme
imperialistiese
imperium
implementeer
implementering
implications
implikasie
implikasies
impliseer
importance
important
impossible
impostor
impressionisme
impressionistiese
improv
improvisasie
impuls
impulse
imre
in
ina
inagneming
inbetweeners
inbeweeg
inboorlinge
inc
inch
incident
including
incorporated
incredible
incrustans
indeks
indeling
independence
independent
inderdaad
indertyd
index
india
indiaanse
indian
indiana
indianapolis
indiane
indians
indie
indien
indiensneming
indies
indiese
indig
indigenous
indiging
indigo
indirek
indirekte
individu
individue
individueel
individuele
indiwidue
indiwiduele
indo
indonesia
indonesie
indonesies
indonesiese
indringende
indringer
indringerplant
indringerplante
indringing
indruk
indrukke
indrukwekkend
indrukwekkende
induksie
indus
industrial
industrialisasie
industrialisering
industrie
industriee
industries
industry
indusvalleibeskawing
indwe
ine
ineengestort
ineenstort
ineenstorting
inenting
infanterie
infeksie
infeksies
inferior
inferno
infinite
infinity
inflasie
inflasiekoers
influence
info
informasie
information
informeel
informele
infrarooi
infrastruktuur
infty
ing
ingaan
ingang
ingange
inge
ingebed
ingebou
ingeboude
ingebring
ingebruikneming
ingedeel
ingedien
ingehaal
ingehou
ingehuldig
ingelei
ingelig
ingelui
ingelyf
ingeneem
ingenieur
ingenieurs
ingenieurswese
ingepalm
ingeperk
ingereken
ingerig
ingeroep
ingesamel
ingeskakel
ingeskiet
ingeskryf
ingeslaan
ingesluit
ingesluk
ingespan
ingespuit
ingestel
ingesteldheid
ingestem
ingestuur
ingesweer
ingetree
ingetrek
ingeval
ingevoeg
ingevoer
ingevoerde
ingevolge
ingewande
ingewikkeld
ingewikkelde
ingewikkelder
ingewillig
ingewy
ingrid
ingrypend
ingrypende
ingryping
inheems
inheemse
inhegtenisneming
inherent
inherente
inheritance
inhou
inhoud
inhuldiging
inisiatief
inisiatiewe
initial
ink
inka
inkatha
inkomende
inkomste
inkorporeer
inkwisisie
inlaat
inleiding
inligting
inligtingstegnologie
inlywing
inmeng
inmenging
inn
inname
inneem
inner
innerlike
innig
innige
innocence
innocent
innocentius
innovasie
innovasies
innoverende
innsbruck
inpas
inperking
inquiry
inrigting
inrigtings
ins
insake
insamel
insameling
insek
insekte
insel
inset
insette
inside
insident
insidente
insider
insig
insiggewende
insight
insigte
insinking
inskripsie
inskripsies
inskryf
inskrywing
inskrywings
inslag
insluit
insluitend
insluitende
insluiting
inspan
inspanning
inspector
inspekteur
inspirasie
inspiration
inspireer
inspuiting
installasie
installasies
installeer
instandhouding
instansie
instansies
instant
instel
instelling
instellings
instinct
institusionele
institut
institute
institution
instituut
instroming
instruksies
instrument
instrumentale
instrumente
instrumenteel
instrumentele
instruments
insulien
int
inteendeel
integrale
integrasie
integreer
integriteit
intekening
intel
intellek
intellektueel
intellektuele
intellektueles
intelligence
intelligensie
intelligensiediens
intelligent
intelligente
intens
intense
intensief
intensiewe
intensiteit
intent
intentions
inter
interactive
interaksie
interaksies
interaktiewe
interessant
interessante
interest
interieur
interior
interkontinentale
intermedia
intermedie
intern
internal
internasionaal
internasionale
international
internationale
interne
internet
internettopvlakdomein
internettopvlakdomeine
interpersoonlike
interplanete
interpretasie
interpretasies
interpretation
interpreteer
interseks
interstate
interstelle
interval
intervalle
interview
interviews
intiem
intieme
intimate
intimiteit
into
intree
intreepreek
intreerede
intrek
intrige
intriges
intrigue
intrinsieke
introducing
introduction
intruder
intui
intussen
invaders
inval
invalle
invallende
invallers
invasion
invention
invertebrates
investigation
investigator
invincible
invisible
invitation
invloed
invloede
invloedryk
invloedryke
invloedrykste
invloedsfeer
invloei
invoer
invoere
invoering
inwendige
inwerk
inwonende
inwoner
inwoners
inwonertal
inwyding
io
ioc
iok
iol
ione
ioniese
ionisasie
ioon
iophon
ios
iowa
ip
ipcc
iphone
ipni
ipod
ir
ira
irak
irakse
iran
iranie
irannese
iranse
iraq
ircinia
irciniidae
ireland
irene
iris
irish
irl
irma
iron
ironie
ironies
ironiese
irr
irving
irwin
is
isa
isaac
isabel
isabella
isabelle
isak
isbn
isfahan
ish
isis
isla
islam
islamic
islamitiese
island
islands
isle
isles
ismael
ismail
isn
iso
isodictya
isolasie
isoleer
isomere
isotoop
isotope
israel
israeli
israeliese
israeliete
israelse
issn
issue
issues
ist
istanboel
istanbul
it
italia
italiaans
italiaanse
italian
italianer
italianers
italie
italy
item
items
its
itsrugby
itunes
itv
iubn
iucn
ius
iv
ivan
ivar
ives
ivoor
ivoorkus
ivory
ivy
iwan
iwork
ix
ixia
iyasu
iz
izak
j
ja
jaag
jaap
jaar
jaarboek
jaargang
jaarliks
jaarlikse
jaarsveld
jaartal
jaartelling
jac
jacana
jack
jacket
jackie
jackpot
jackson
jaco
jacob
jacoba
jacobs
jacobsdal
jacobus
jacopo
jacq
jacqueline
jacques
jade
jaeff
jaer
jaers
jag
jagd
jager
jagluiperd
jagluiperds
jagter
jagters
jagtog
jagtogte
jaguar
jahre
jail
jake
jakkals
jakkalse
jakob
jakobus
jaloers
jaloesie
jalta
jam
jamaica
jamaika
james
jameson
jamestown
jamie
jammer
jan
jana
jane
janeiro
janet
jang
jannie
janse
jansen
jansenville
janssens
januarie
january
janus
janussen
japan
japanese
japannees
japanners
japannese
japanse
japie
jar
jare
jared
jarelange
jaren
jarige
jaroslaf
jarrett
jas
jason
jasper
jaspis
java
javaanse
jaws
jay
jayavarman
jazz
jc
je
jealousy
jean
jeanette
jeanne
jeannie
jedi
jeens
jeff
jefferson
jeffrey
jeffreysbaai
jeg
jekaterinburg
jekyll
jeltsin
jemen
jena
jenkin
jenkins
jennifer
jenny
jens
jensen
jeopardy
jeppe
jeppestown
jeremia
jeremy
jerewan
jericho
jerome
jerry
jersey
jerusalem
jesaja
jess
jesse
jessica
jessie
jesu
jesui
jesus
jet
jetstar
jeu
jeug
jeugboeke
jeugdige
jeugdiges
jeugherinneringe
jeugjare
jeuglektuur
jeugliteratuur
jeugverhale
jew
jewel
jewish
jews
jg
ji
jiang
jiddisj
jigme
jill
jim
jima
jimmy
jin
jj
jo
joa
joachim
joan
joanhambidge
joanna
joanne
job
jobs
jochem
jode
jodium
joe
joego
joel
joeri
joernaal
joernale
joernalis
joernaliste
joernalistiek
joernalistieke
joerofski
joey
joga
johan
johann
johanna
johannes
johannesburg
johannesburgse
john
johnnie
johnny
johns
johnson
johnston
joint
joke
joker
jolly
jom
jomini
jon
jona
jonah
jonas
jonathan
jones
jong
jonge
jonger
jongere
jongh
jongman
jongmense
jongs
jongspan
jongste
jonk
jonker
jonny
jood
joods
joodse
joost
jooste
jordaan
jordan
jordanie
jorge
joris
jos
jose
josef
joseph
josephine
josephus
josh
joshua
josua
jou
joubert
joule
jour
journal
journalist
journals
journey
journeys
jouself
jovi
joy
joyce
jozua
jp
jpeg
jpg
jpl
jr
js
jse
jstor
jsx
ju
juan
juanita
jubilee
jubileum
juda
judai
judas
judea
judge
judgment
judith
judy
juffrou
jugend
juice
juilliard
juis
juiste
juk
jul
jules
julia
juliaanse
julian
julie
julien
juliet
juliette
julio
julius
julle
july
jump
jumping
jun
junction
june
jung
junge
jungle
junie
junior
juno
junta
jupiter
jura
jurassic
jure
jurie
juris
jurisdiksie
jury
just
justice
justified
justin
justine
justinianus
justisie
justus
juta
jutland
jutlandstreek
juwele
juweliersware
jy
k
ka
kaa
kaak
kaal
kaap
kaapkolonie
kaapland
kaaplandse
kaapprovinsie
kaaps
kaapse
kaapstad
kaapstadse
kaart
kaarte
kaartjie
kaartjies
kaas
kabaret
kabel
kabeljou
kabels
kabinet
kabinetsminister
kabinette
kaczyn
kafee
kafka
kahn
kai
kain
kaiser
kajuit
kakamas
kakao
kake
kakebeen
kakkerlak
kalahari
kaledonie
kalender
kalenders
kalf
kali
kaliber
kalief
kalifaat
kalifornie
kaliforniese
kaliningrad
kalium
kalk
kalkbaai
kalksponse
kalksteen
kallenbach
kalm
kalsium
kalsiumchloried
kalsiumkarbonaat
kam
kama
kambodja
kameel
kameelperd
kameelperde
kamele
kamer
kamera
kamerade
kameras
kamermusiek
kameroen
kamerorkes
kamers
kamertemperatuur
kamp
kampe
kampen
kampf
kampioen
kampioene
kampioenetrofee
kampioenskap
kampioenskappe
kampioenskapseisoen
kampioentrofee
kampus
kampvegter
kamtsjatka
kan
kanaa
kanaal
kanaaleilande
kanada
kanadese
kanale
kanaries
kanariese
kandidaat
kandidate
kandinsky
kane
kaneel
kang
kangaroo
kanker
kann
kanna
kannemeyer
kannibalisme
kano
kanon
kanonieke
kanonne
kans
kansas
kanse
kansel
kanselier
kant
kantate
kantates
kante
kantelberg
kanton
kantons
kantoor
kantoorgebou
kantore
kap
kapasiteit
kapasitor
kapel
kapelaan
kapelle
kapitaal
kapitalisme
kapitalistiese
kaplan
kappa
kappadosie
kappie
kapsule
kapt
kaptein
kapteins
kar
kara
karaat
karabach
karajan
karakter
karakterisering
karakteristieke
karakters
karate
kardinaal
kardinale
karel
karen
karenina
karibiese
karin
karl
karla
karma
karnaval
karnivore
karolingiese
karoo
karpate
karpis
karre
kartago
kartografie
kas
kasakstan
kasimir
kasino
kasjmir
kaspiese
kassel
kassier
kaste
kasteel
kastele
kastilie
kat
katagtiges
katalaans
katalaanse
katalisator
katalisators
katalogus
katalogusse
katalonie
katar
kate
katedraal
katedrale
kategismus
kategorie
kategoriee
kathare
katharina
katharine
katherine
kathleen
kathy
katie
katinka
katkisasie
katmandoe
katode
katoen
katoliek
katolieke
katolisisme
katrasse
katrina
katte
katy
katz
kaufmann
kaukasiese
kaukasus
kaunas
kaunda
kavallerie
kay
kazan
kb
ke
keaton
keats
kee
keel
keep
keeper
keepers
keeping
keeps
keer
keerpunt
kees
keet
keetmanshoop
kei
kein
keine
keirivier
keiser
keiserin
keiserlike
keiserryk
keisers
keith
kelder
keller
kelly
kelte
kelties
keltiese
kelvin
kemp
kempff
kempton
kemptonpark
ken
kendall
kenhardt
kenia
keniaanse
kenmerk
kenmerke
kenmerkend
kenmerkende
kenne
kennedy
kenner
kenners
kenneth
kennis
kennisgewing
kennismaking
kennisse
kenny
kensington
kent
kenteken
kentekens
kentucky
kenya
kepler
ker
keramiek
kere
kerf
kerk
kerkblad
kerkbode
kerkbou
kerkdienste
kerke
kerkgangers
kerkgebou
kerkgeboue
kerkgeskiedenis
kerkhof
kerkie
kerkkas
kerklike
kerkorde
kerkorrel
kerkplein
kerkraad
kerkraadslede
kerkraadsnotule
kerkraadsvergadering
kerkraadsvergaderings
kerkrade
kerksaal
kerkskuld
kerkslawies
kerkstraat
kerktoring
kerkverband
kerkvergadering
kern
kernaangedrewe
kerne
kerneels
kernensiklopedie
kernfisika
kernfusie
kernkrag
kernkragsentrale
kerns
kernwapens
kerr
kers
kersdag
kerse
kersfees
kershaw
kerstening
kerte
kestell
ketel
kettery
ketting
kettings
kettle
keulen
keur
keurboslaan
keurspan
keurspanne
keurvors
keusche
keuse
keuses
kevin
kew
kewer
kewers
key
keys
kg
kgb
kgv
khama
khan
khanaat
khartoem
khashoggi
khmer
khoi
khoikhoi
khoisan
ki
kia
kick
kid
kidd
kidnapped
kids
kie
kiel
kiem
kierkegaard
kies
kiesafdeling
kiesafdelings
kiesel
kieselnaalde
kiesers
kieserslys
kieue
kijif
kiki
kildare
kill
killed
killer
killers
killing
kills
kilogram
kilometer
kilometers
kim
kimberley
kimi
kin
kind
kinder
kinderboek
kinderboeke
kinderen
kinderensiklopedie
kinderhuis
kinderjare
kinderloos
kinders
kinderverhale
kindle
kinematograaf
kinetiese
king
kingdom
kings
kingston
kino
kinsey
kioto
kipling
kirby
kirche
kirchner
kirgisie
kirill
kirk
kirkpatrick
kirsch
kirsten
kirstenbosch
kis
kiss
kissed
kisses
kissing
kissinger
kiste
kit
kitaar
kitaarspeler
kitchen
kitchener
kitty
kj
kknk
kla
klaar
klaarblyklik
klaas
klade
klag
klagte
klagtes
klam
klank
klankbaan
klanke
klante
klap
klara
klarinet
klas
klaskamer
klaskamers
klasse
klassiek
klassieke
klassifikasie
klassifiseer
klassifisering
klassis
klassisisme
klassisistiese
klaus
klautau
klavier
klavierconcerto
klavierconcertos
klaviere
klavierkonsert
klaviersonate
klaviersonates
klavierwerke
klawer
klawerbord
kleding
kledingstuk
kledingstukke
kleed
kleef
klei
klein
kleinboere
kleindogter
kleine
kleinen
kleiner
kleinkinders
kleinletter
kleinmond
kleins
kleinseun
kleinste
kleintjie
kleintjies
klem
klemtoon
klep
kleppe
klere
kleredrag
klerk
klerksdorp
kleur
kleure
kleurkoo
kleurling
kleurlinge
kleurlose
kleurryke
kleurskema
kleurskemas
kleurstof
kleurstowwe
kleurvolle
kleuters
kleuterskool
klie
klier
kliere
klim
klimaat
klimaatstoestande
klimaatsverandering
klimaks
klimate
kliniek
kliniese
klink
klinker
klinkers
klip
klippe
klipperige
kliprivier
klipriviersberg
klitoris
klm
klofies
klok
klokke
kloksgewys
kloktoring
klomp
klompie
klondike
kloof
kloos
klooster
kloosters
klop
klopper
kloppers
klou
kloue
klowe
klub
klubblad
klubs
klubwerf
klug
kluisenaar
klyntji
km
kmdt
kmol
kmr
knaagdiere
knap
knesset
knew
knie
kniee
kniel
knife
knight
knights
kniphofia
knock
knoet
knoffel
knolle
knoop
knop
knope
knopf
knoppe
knoppies
knot
knots
know
knowledge
known
knows
knox
knysna
ko
koalisie
koalisieregering
kobalt
kobie
koburg
kobus
koch
kock
koda
kode
kodeks
kodenaam
kodes
koe
koeblai
koee
koei
koeie
koek
koel
koeler
koepee
koepel
koepels
koerant
koerante
koerde
koerdiese
koerile
koers
koerse
koersk
koesj
koesjitiese
koester
koevoet
koeweit
koffie
koffiefontein
kogelberg
kognitiewe
koi
kok
kokai
kokstad
kol
kole
kolf
kolfbeurt
kolkata
kolle
kollega
kollegas
kollege
kolleges
kollekte
kollekteer
kollektes
kollektiewe
kolletjies
kollig
kolom
kolomme
kolonel
koloniale
kolonialisme
kolonie
kolonies
kolonisasie
koloniste
koltun
kolwer
kolwers
kom
koma
kombat
kombinasie
kombinasies
kombineer
kombuis
komediant
komediante
komedie
komedies
komeet
komeetagtige
komen
komende
komete
komiese
komitee
komitees
komma
kommandant
kommandeur
kommandeurs
kommando
kommentaar
kommentare
kommentator
kommentators
kommer
kommersie
kommersieel
kommissaris
kommissarisse
kommissie
kommissies
kommt
kommune
kommunikasie
kommunikatiewe
kommunikeer
kommunis
kommunisme
kommuniste
kommunistiese
kompakte
kompanjie
kompas
kompeteer
kompetisie
kompetisies
kompilasie
kompleks
komplekse
kompleksiteit
komplemente
komplikasies
komplot
komponeer
komponent
komponente
komponis
komponiste
komposisie
komposisies
kompressor
kompromie
kompromis
komrij
koms
kon
kondensasie
kondenseer
kondig
konfederasie
konfederasiebeker
konferensie
konferensies
konfigurasie
konflik
konflikte
konfrontasie
konfrontasies
konfronteer
konfusianisme
kong
kongo
kongolese
kongorivier
kongres
koning
koningin
koningkryk
konings
koningshuis
koningskap
koningslys
koninklijke
koninklike
koninklikes
koninkryk
koninkryke
konjunksie
konklaaf
konkrete
konrad
konsekwent
konsekwente
konsensus
konsentrasie
konsentrasiekamp
konsentrasiekampe
konsentrasies
konsentreer
konsep
konsepte
konseptuele
konsert
konserte
konsertsaal
konservatoria
konservatorium
konserwatief
konserwatiewe
konserwatiewes
konserwatisme
konsessie
konsessies
konsilie
konsistorie
konsistories
konsolidasie
konsolideer
konsonant
konsonante
konsortium
konstant
konstante
konstantin
konstantinopel
konstantyn
konstanz
konstitusie
konstitusionele
konstruksie
konstruksies
konsul
konsulaat
konsulent
konsuls
konsultant
kontak
kontakte
kontant
konteks
kontekste
kontempore
kontinent
kontinentale
kontinente
kontinue
kontinui
kontrak
kontrakte
kontras
kontraste
kontrasteer
kontrasterende
kontrei
kontreie
kontrole
kontroversie
kontroversieel
konveksie
konvensie
konvensies
konvensionele
konvooi
konyn
konyne
koo
kook
kookkuns
kookpunt
kool
koolhidrate
koolstof
koolstofatome
koolstofdioksied
koolstofmonoksied
koolsuurgas
koolwaterstowwe
koop
koopman
koopmans
koor
koors
koos
kop
kopbeen
kopenhagen
koper
kopers
kopie
kopiee
kopiereg
koppe
koppel
koppelaar
koppeling
koppelteken
koppelvlak
koppie
koppies
kopties
koptiese
koraal
koraalrif
koraalriwwe
korale
koran
kore
korea
koreaans
koreaanse
korean
koreane
kores
korf
koring
korinthe
korintie
koronavirus
korporasie
korporasies
korporatiewe
korps
korrek
korrekte
korrektiewe
korrelasie
korrels
korrespondensie
korrespondent
korridor
korrosie
korrupsie
korrupte
kors
korsika
korsten
kort
korte
korteks
korter
kortfilm
kortliks
kortlys
kortom
kortste
kortstondig
kortstondige
kortverhaal
kortverhaalboek
kortverhaalbundel
kortverhale
kortweg
kos
kosak
kosakke
kosbare
koshuis
koshuise
kosmiese
kosmologie
kosmologiese
kosmopolitiese
kosmos
kosovo
kosse
koste
koster
kostes
kostuum
kostuums
kotze
kou
koud
koudste
koue
kouer
kovalente
kpa
kpc
kra
kraag
kraai
kraaines
kraak
kraakbeen
kraal
kraanvoe
kraft
krag
kragbron
kraglewering
kragopwekking
kragsentrale
kragsentrales
kragstasie
kragte
kragtens
kragtig
kragtige
kragtiger
kragtigste
krai
krake
krakow
krale
kramer
krans
kranse
krap
krappe
krater
kraters
krause
kreatiewe
kreatiwiteit
krediet
kreef
kremlin
kreta
krieg
krieket
krieketklub
krieketraad
krieketspan
krieketspanne
krieketspeler
krieketspelers
krieketveld
krieketwe
krieketwedstryde
kriel
krige
krim
kriminele
krimoorlog
krimp
kring
kringe
kringloop
krisis
krisisse
kristal
kristalle
kristalliseer
kristallyne
kristalstruktuur
kriteria
kriterium
kritici
kritiek
kritieke
krities
kritiese
kritikus
kritiseer
kritzinger
kro
kroasie
kroaties
kroatiese
kroee
kroeg
krog
krokodil
krokodille
krokodilrivier
krom
kromme
krommes
kromming
kron
kronberg
krone
kroniek
kronieke
kroning
kronkel
kronkelende
kronos
kroon
kroonblare
kroonprins
kroonprinses
kroonstad
krotbuurte
kru
kruger
krugersdorp
krugerwildtuin
kruidagtige
kruie
kruik
kruin
kruip
kruis
kruise
kruiser
kruisers
kruisiging
kruising
kruisings
kruispad
kruispunt
kruistog
kruistogte
kruisvaarders
kruit
krukas
kry
krygers
krygsgevangene
krygsgevangenes
krygswet
kryt
ks
ksperimenteer
ku
kuala
kuba
kubaanse
kubieke
kubiese
kubisme
kubrick
kudde
kuhn
kuier
kuiken
kuikens
kuilsrivier
kuiper
kuipergordel
kuit
kuline
kultivar
kultivars
kultur
kulture
kultureel
kulturele
kultus
kultuur
kultuuralmanak
kultuurgeskiedenis
kultuurhistoriese
kultuurtaal
kultuurvereniginge
kum
kumar
kun
kundige
kundiges
kundigheid
kunene
kung
kunnen
kuns
kunsgalery
kunsgeskiedenis
kunshistorikus
kunsmatig
kunsmatige
kunsmis
kunsmuseum
kunssentrum
kunsskilder
kunsskool
kunsstowwe
kunst
kunste
kunstefees
kunstenaar
kunstenaars
kunstenaarsvoorstelling
kunsvorm
kunswerk
kunswerke
kurator
kuratore
kurper
kurrikulum
kursus
kursusse
kurt
kuruman
kurwe
kus
kusdorp
kusgebied
kusgebiede
kuslyn
kusstede
kusstreke
kusstrook
kuste
kusvlakte
kuyper
kv
kw
kwaad
kwaadaardige
kwaai
kwadraat
kwaito
kwale
kwalia
kwalifikasie
kwalifikasies
kwalifiseer
kwalifiserende
kwalifisering
kwalitatiewe
kwaliteit
kwantitatiewe
kwantummeganika
kwark
kwarke
kwart
kwartaal
kwarteindrondte
kwarteindstryd
kwarteindstryde
kwartet
kwartier
kwartiere
kwarts
kwasars
kwazulu
kwe
kweek
kweekhuiseffek
kweekhuisgasse
kweekskool
kwesbaar
kwesbaarheid
kwesbare
kwessie
kwessies
kwik
kwyn
kwyt
kwytgeraak
kyk
kyker
kykers
kyknet
kyle
kylie
kyo
kyoto
kyrie
kærlighed
l
la
laag
laagland
laagliggende
laagste
laagtepunt
laai
laan
laas
laasgenoemde
laasgenoemdes
laaste
laastens
laat
laatste
lab
labia
labor
laboratorium
laboratoriums
laboratory
labour
labrador
labuschagne
labyrinth
lac
lacan
lace
lacey
lachenalia
lada
ladder
laden
ladies
lading
ladings
ladismith
lady
ladybrand
ladysmith
lae
laer
laerhuis
laers
laerskole
laerskool
laetitia
laeveld
lafayette
lafras
lag
lagerfeld
lagie
lagoon
lagos
lagrange
laguna
laingsburg
lake
lam
lama
lamarck
lamb
lambda
lambe
lambert
lamp
lampe
lampoon
lampranthus
lamprecht
lan
lancashire
lancaster
lance
lancelot
lancia
land
landbou
landboubedryf
landbougrond
landbouprodukte
landbousektor
landbouweekblad
landdros
lande
landelike
landengte
landerye
landgenote
landgoed
landgoedere
landing
landings
landingstuig
landman
landmassa
landmerk
landmeter
lands
landscape
landsdele
landskap
landskappe
landskapsvorme
landstreek
landswyd
landswye
landvorme
landwyd
landwye
lane
lang
langa
langafstand
langdurige
lange
langebaan
langeberg
langenhoven
langer
langkloof
langlaagte
langley
langs
langsaan
langsamerhand
langste
langtermyn
language
languages
languedoc
langwerpige
lank
lanka
lankaanse
lankal
lansdowne
lanseer
lansering
lantern
laos
lap
lapa
lapeirousia
lara
larceny
large
lark
larry
lars
larsen
larson
larus
larwe
larwes
las
laser
lash
lassen
lassie
last
laste
laster
lastig
lat
late
lategan
latent
later
lateraanse
laterale
latere
latin
latino
latrunculia
latyn
latyns
latynse
laubenfels
laubscher
laude
laugh
laughing
laughs
laughter
launch
lauper
laura
laurel
lauren
laurence
laurens
laurensrivier
laurent
laurie
laurika
lausanne
lautrec
laval
lavender
law
lawa
lawless
lawrence
laws
lawson
lawyer
lay
lazarus
lb
lc
lccn
ld
lde
le
lea
lead
leader
leadership
leading
leaf
league
leap
lear
learn
learned
learning
leather
leave
leaves
leaving
leben
lebens
leclerc
lecture
lectures
led
lede
ledemate
ledetal
lee
leed
leeds
leef
leefstyl
leeftyd
leefwe
leefwyse
leeg
leemte
leen
leenheer
leenwoorde
leer
leeraar
leerder
leerders
leerling
leerlinge
leermeester
leerproses
leerstelling
leerstellings
leerstoel
lees
leesstof
leestekens
leeswerk
leeu
leeus
left
leg
legacy
legal
legally
legend
legendariese
legendary
legende
legendes
legends
legering
legerings
legioen
legioene
legion
legitimiteit
lego
legs
lehnert
lei
leibbrandt
leibniz
leicester
leiden
leidende
leidenschaft
leiding
leidrade
leier
leiers
leierskap
leigh
leinster
leipoldt
leipzig
leisure
lek
leke
lekker
lektor
lektriese
lelik
lem
lemme
lemoene
lemon
len
lena
lendenfeld
lengte
lengtegraad
lengtes
lenin
lening
leningrad
lenings
lennon
lenny
lens
lense
lensopening
lente
leo
leon
leona
leonard
leonardo
leone
leonid
leonore
leopard
leopold
ler
leraar
leraars
leringe
lerner
leroux
les
lesbian
lesbie
lesbiese
leser
lesers
lesing
lesings
leslie
lesotho
less
lesse
lesser
lessing
lesson
lessons
lester
let
letaba
lethal
letland
letlandse
lets
letsels
letter
lettere
letteren
lettergreep
lettergrepe
letterkunde
letterkundige
letterlik
letterlike
letters
lettie
lettres
letzte
letzten
leucadendron
leucandra
leucosolenia
leucospermum
leuens
leuse
leuven
lev
levant
level
leven
levi
levine
levy
lewe
lewend
lewende
lewendes
lewendig
lewendige
lewens
lewensduur
lewensgeskiedenis
lewensiklus
lewenskets
lewenslange
lewenslank
lewensloop
lewensmaat
lewensomstandighede
lewenstandaard
lewenstyl
lewensverhaal
lewensverlies
lewensverwagting
lewensvorme
lewenswyse
lewer
lewering
lewis
lex
lexicon
lexikon
lexington
lez
lf
lgbt
lhof
li
lia
liam
liar
liars
libanese
libanon
liber
liberaal
liberale
liberalisme
liberation
liberie
liberty
libie
libiese
library
libre
libretto
license
licht
lichtenburg
licinius
lid
liddell
lidland
lidlande
lidmaat
lidmaatskap
lidmaattal
lidmate
lidstaat
lidstate
lidwoord
lie
liebe
lieben
liebenberg
liebig
liechtenstein
lied
lieder
liedere
liedjie
liedjies
liedjieskrywer
lief
liefdadigheid
liefde
liefdes
liefdesgedigte
liefdesverhaal
liefdesverhale
liefdesverhouding
liefdevolle
liefling
lien
lier
lies
lieutenant
liewe
liewer
life
lifetime
lig
liga
ligaposisionering
ligapunte
ligas
ligblou
ligbruin
liggaam
liggaamlik
liggaamlike
liggaamsbou
liggaamsdele
liggaamstemperatuur
liggame
liggeel
liggende
liggewig
ligging
liggings
liggroen
light
lighthouse
lightnin
lightning
lights
ligjaar
ligjare
ligsnelheid
ligsterkte
ligstrale
ligte
ligter
like
likely
lil
lili
lilian
lille
lily
lim
lima
limbo
limburg
limburgs
limiet
limit
limited
limits
limpopo
limpopoprovinsie
limpoporivier
limpoporiviersytakke
lin
lina
lincoln
linda
linde
linden
lindenberg
lindeque
lindley
lindsay
line
linee
lines
ling
lingen
lings
lingskomitee
lingua
linguistics
linguistiek
linguistiese
linie
linies
link
linkedin
linker
linkerhand
linkerkant
linkeroewer
links
linkse
linkshierdie
linnaeus
linne
lint
linus
linux
lion
lionel
lions
lip
lipiede
lippe
lippi
lips
lipvis
liquid
liriek
lirieke
liriese
lis
lisa
lise
lisensie
lisensies
lissabon
lissodendoryx
list
listen
lister
liszt
lit
litaue
litauers
litaus
litause
liter
literary
literator
literatur
literature
literatuur
literatuurgeskiedenis
literatuurwetenskap
litere
litium
litnet
litt
little
liturgie
liturgiese
liu
liv
live
lived
liverpool
lives
livet
living
livingstone
lix
liz
liza
lizzie
ll
lle
ller
lloyd
llustreer
llustreerde
lmatig
lmatige
ln
lo
loaded
loaf
lob
lobbe
lobostemon
loc
local
location
loch
lochner
lock
locke
locked
lockheed
locomotive
lodewijk
lodewikus
lodewyk
lodge
loeb
loep
loerie
lof
loftus
log
logan
logic
logies
logiese
logika
logistiek
logistieke
logo
logos
loire
lois
lojaal
lojale
lojaliteit
lok
lokaal
lokale
loket
lokomotief
lokomotiewe
lokval
lola
lolita
lombard
lombarde
lombardye
londen
londense
london
lone
lonely
lonesome
long
longe
longest
longkanker
longman
longontsteking
lood
loodreg
loods
loof
look
looking
looks
loon
looney
loop
loopbaan
loopbane
loopgrawe
loose
loot
loots
lope
lopende
loper
lopes
lopez
lopie
lopies
lopietempo
lord
lords
lorenzo
lorna
lorraine
los
lose
loser
losers
losgelaat
losgemaak
losieshuis
losing
losprys
loss
losse
losskakel
losstaande
lost
losweg
lot
lotaringe
lotarius
lote
lotgevalle
lothar
loting
lotte
lottery
lotus
lou
loubser
loud
lough
louie
louis
louisa
louise
louisiana
lounge
lourenc
lourens
louvre
louw
love
loved
lovely
lover
lovers
loves
loving
low
lowe
lowell
lower
lowry
loxton
lp
ls
lsid
lso
lspesies
lt
ltd
ltjies
lu
luanda
lubbe
luc
luca
lucas
luce
lucia
luciano
lucien
lucifer
lucius
luck
lucky
lucy
ludovico
ludwig
luft
lufthansa
luftwaffe
lug
lugaanval
lugaanvalle
lugbesoedeling
lugbrug
lugdiens
lugdruk
lugfoto
lughawe
lughawens
lugmag
lugmagbasis
lugmagte
lugredery
lugrederye
lugruim
lugvaart
lugvloei
lui
luidens
luigi
luik
luikrug
luiperd
luiperds
luis
luise
luislang
luislange
luister
luisteraar
luisteraars
luit
luitenant
luk
lukas
luke
lukrake
lullaby
lulu
lumpur
luna
lunar
lunch
lund
lundbeck
lupin
lure
lus
lusaka
lusern
lust
luther
lutherse
lutz
luukse
lux
luxemburg
luxemburgse
luyt
lv
ly
lydenburg
lydende
lydia
lyding
lyf
lyfeienes
lyfland
lyfstraf
lyfwag
lying
lyk
lyke
lyn
lynch
lynden
lyndon
lyne
lynn
lynne
lyon
lyons
lys
lyste
lyttelton
lywe
m
ma
maa
maag
maagd
maagde
maagdeburg
maak
maal
maaltyd
maaltye
maan
maand
maandag
maandblad
maande
maandeliks
maandelikse
maanhare
maar
maarskalk
maart
maarten
maas
maastricht
maat
maatree
maats
maatschappij
maatskaplike
maatskappy
maatskappye
maatstaf
maatstawwe
mabel
mabuse
mac
macarthur
macau
macbeth
macdonald
macfarquhar
macgyver
mach
machine
machines
macht
macintosh
mack
mackenzie
maclean
maclear
macmillan
macy
mad
madagascar
madagaskar
madam
madame
made
madea
madeira
madeleine
madeline
mademoiselle
madison
madness
madonna
madrid
mae
maeder
maer
maestro
mafeking
mafia
mafiosi
mag
magaliesberg
magazine
magda
magdalena
magdalene
magdom
magellaanse
magersfontein
maggie
magi
magic
magical
magician
magiese
magistraat
magistrate
magma
magna
magneet
magneetveld
magnesium
magnetiese
magnetisme
magnetosfeer
magnificent
magnitude
magnum
magnus
magsgebied
magsoorname
magstryd
magte
magtig
magtige
magtigste
mahan
maharero
mahatma
mahayana
mahler
mai
maid
maiden
maids
mail
main
maine
mainz
maisie
maison
maitland
maj
maja
majesteit
majesty
majeur
majoor
major
majuba
mak
make
maker
makers
makes
making
maklik
maklike
makliker
maklikste
makro
maksimaal
maksimale
maksimum
mal
malakka
malan
malaria
malawi
malawimeer
malaysia
malcolm
male
maledive
maleiers
maleis
maleise
maleisie
maleisiese
malgassiese
malherbe
mali
malibu
malice
mall
malley
mallorca
malmesbury
malone
malta
maltese
malvern
mama
mamma
mammals
man
mana
management
manchester
manchu
manconi
mand
mandaat
mandela
mandjie
mandy
mane
manet
manfred
manga
mangaan
mango
manhattan
manhunt
mani
maniac
manie
manier
maniere
manifes
manila
manipulasie
manipuleer
manitoba
manjifieke
manlik
manlike
manlikheid
mann
manna
manne
mannekrag
mannetjie
mannetjies
mannheim
manning
mannix
manon
manor
mans
mansfield
mansion
manskappe
manson
mantel
mantsjoerye
mantua
manual
manuel
manuskrip
manuskripte
manx
many
mao
maori
map
maps
mapungubwe
maputo
mar
mara
marais
marat
marathon
maraton
marble
marc
marcel
marcello
marcellus
march
marchand
marco
marconi
marcus
mare
maree
marek
margaret
margaretha
margate
margot
margrethe
marguerite
mari
maria
mariah
marian
mariana
marianne
marico
marie
mariene
mariental
marietjie
marilyn
marina
marine
mariner
marines
marinespecies
marino
marinus
mario
marion
marionet
marionette
marita
maritha
maritieme
maritime
maritz
marius
marjorie
mark
markaandeel
marked
market
markies
markplein
marks
markte
markus
marlene
marley
marlowe
marmer
marne
maroela
maroelamedia
marokkaanse
marokko
maroon
marquard
marques
marquis
marriage
married
marry
mars
marseille
marsh
marshal
marshall
marsjeer
mart
martel
martelaar
marteling
martha
marthinus
marti
martial
martian
martie
martiens
martin
martini
martinique
martins
martinus
martjie
marty
marvel
marvin
marx
marxisme
marxistiese
mary
maryland
mas
masaccio
masai
masedonie
masedoniese
masels
mash
masjien
masjienbou
masjiene
masjiengeweer
masjiengewere
masjinerie
masjonaland
mask
maske
masked
masker
maskers
maskew
masks
mason
masquerade
mass
massa
massachusetts
massacre
massamedia
massamiddelpunt
massaproduksie
massas
massie
massief
massiewe
massonia
master
masterpiece
masters
masturbasie
mat
mata
matador
match
mate
mater
materiaal
material
materiale
materialisme
materials
materie
mates
mathbf
mathematical
mathematics
mathews
mathias
mathilde
mathrm
matig
matige
matilda
matinee
mating
matisse
matlabas
matras
matriek
matriks
matrikulasie
matrikuleer
matrimony
matrix
matroos
matrose
matt
matte
matteo
matter
matters
matteus
matthee
matthew
matthews
matthias
matthys
maud
maude
maui
maureen
maurice
mauritanie
mauritius
maurits
mausoleum
maverick
max
maxentius
maxim
maximilian
maximum
maximus
maxwell
may
maya
maybe
mayer
mayfair
mayo
mayor
mazda
maze
mb
mbeki
mbox
mc
mcbride
mcc
mccarthy
mccartney
mccoy
mcdonald
mcgill
mcgraw
mcgregor
mcguire
mckay
mckenzie
mclaren
mcqueen
md
me
mean
meaning
means
measure
meat
mechanics
mechelen
mecklenburg
med
medal
medalje
medaljes
mede
medea
mededingend
mededingende
mededinger
mededingers
mededinging
medekeiser
medeklinkers
medeleraar
medemens
medeskrywer
medestigter
medewerker
medewerkers
medewerking
media
medical
medici
medicine
medies
mediese
medieval
medikasie
medina
medisinale
medisyne
meditasie
mediterreense
medium
mediumgrootte
medusa
mee
meebring
meeding
meedoe
meegebring
meegedeel
meegeding
meegemaak
meel
meeldrade
meen
meer
meerdere
meerderheid
meerjarige
meermale
meersellige
meervoud
meervoudige
mees
meesal
meestal
meeste
meester
meesters
meestersgraad
meesterstuk
meet
meeting
meetkunde
meetkundige
meets
meg
mega
megan
meganies
meganiese
meganika
meganisme
meganismes
mehmet
mehr
mei
meiji
mein
meine
meiner
meintjes
meiring
meisie
meisies
meisieskool
mej
mejuffrou
mekaar
mekka
meksikaanse
meksiko
meksikostad
mel
mela
melaatsheid
melanie
melbourne
meld
melding
melinda
melissa
melk
melkweg
melodie
melodiee
melodiese
melodrama
melody
melrose
melt
melville
melvin
member
members
membraan
membrane
memoir
memoires
memoirs
memorandum
memorial
memoriam
memories
memory
memphis
men
menace
mendelssohn
meneer
menelaos
menelik
meng
mengsel
mengsels
menige
menigte
mening
menings
meningsverskil
meningsverskille
mens
mensch
menschen
mensdom
mense
menselewens
menseregte
mensgemaakte
mensheid
menslik
menslike
menslikheid
menswees
mental
mentor
mentz
menuhin
mer
mercedes
merchant
mercurius
mercury
mercy
mere
merendeels
meridiaan
meriete
meriteer
merk
merkbaar
merkbare
merke
merkwaardig
merkwaardige
merlin
mermaid
merops
merrie
merriman
merry
merton
merwe
mes
mesa
mesembryanthemum
meso
mesopotamie
mesopotamiese
mesosoi
mess
message
messe
messenger
messiah
messias
messier
messina
met
meta
metaal
metaalinhoud
metaan
metaboliese
metabolisme
metafisiese
metafisika
metafoor
metafore
metal
metale
metallurgie
metamorfose
metanol
meteoorree
meteor
meteore
meteoriet
meteoriete
meteoroi
meteorologie
meteorologiese
meter
meters
metgesel
metgeselle
method
methodius
methods
methuen
meting
metings
metode
metodes
metrieke
metriese
metro
metropole
metropolis
metropolitaanse
metropolitan
metropool
metrum
mettertyd
metz
meubels
meul
mev
mevrou
mexican
mexico
mexikaanse
mexiko
mey
meyer
meyerton
mg
mgm
mhnt
mhz
mi
mia
miami
mianmar
mice
miceense
mich
michael
michaelis
michaels
michail
michel
michelangelo
michele
michelle
michelotti
michiel
michigan
mick
mickey
mickiewicz
microcionidae
microsoft
mid
midas
middag
middagete
midde
middedorp
middel
middelbare
middelburg
middele
middeleeue
middeleeuse
middelgroot
middelklas
middelland
middellandse
middelpunt
middelryk
middels
middelste
midden
middernag
middestad
middle
middleton
midi
midjaarrugbytoetsreeks
midnight
midrand
midsummer
midway
mie
mielies
miemie
mier
miere
mig
might
mighty
migrante
migrasie
migrasies
migreer
miguel
mij
mijn
mik
mike
mikhail
mikro
mikrofoon
mikronesie
mikroo
mikroskoop
mikroskopiese
mila
milaan
milan
milano
mild
mildred
mile
miles
miley
milf
milieu
militante
militariste
military
milite
miljard
miljarde
miljoen
miljoene
milk
mill
millais
mille
millennium
miller
millie
millimeter
million
millionaire
millions
mills
milner
milo
milt
milton
milwaukee
mimi
min
mina
minagting
minaret
mind
minder
mindere
minderhede
minderheid
minderheidsgroepe
minds
mindy
mine
mineraal
minerale
mineralogie
mines
mineur
ming
minh
mini
minimale
minimum
mining
minireeks
minister
ministerie
ministers
ministry
minnaar
minnaars
minnares
minneapolis
minnesota
minnie
minogue
minoi
minor
minority
minste
minstens
minus
minute
minutes
minuut
mio
mioseen
mir
mira
miracle
miracles
mirage
miranda
miriam
mirror
mirrors
mis
misadventures
misbruik
mischief
misdaad
misdade
misdadiger
misdadigers
mise
misery
misfits
misgeloop
mishandel
mishandeling
miskien
mislei
misleidend
misluk
mislukking
mislukkings
mislukte
miss
missa
misse
missie
missiel
missiele
missies
missing
mission
mississippi
mississippirivier
missouri
missy
mist
mistake
mister
misteriee
mistieke
mistress
misverstand
mit
mitchell
mite
mites
mitford
mitiese
mitologie
mitologiese
mitridates
mits
mitsubishi
mitte
mitternacht
miv
mix
mixed
miyazaki
mj
mk
ml
mm
mmer
mmigreer
mn
mnr
mo
moab
moai
mob
mobiele
mobile
mobileme
mobiliseer
mobiliteit
mobutu
moby
mod
modale
modder
mode
model
modelle
models
modena
moderator
modern
moderne
modernisering
modernisme
modernistiese
modes
module
modules
modus
modusse
moe
moed
moeder
moedergemeente
moederkerk
moederland
moeders
moederskant
moedertaal
moedertaalsprekers
moedig
moeg
moegheid
moeilik
moeilike
moeiliker
moeilikhede
moeilikheid
moeilikste
moeite
moenie
moeras
moerasagtige
moerasse
moerdijk
moerdyk
moes
moet
mog
mohamed
mohammad
mohammed
mohicans
moi
mol
moldawie
moldowa
mole
molecular
molekule
molekules
molekuul
molibdeen
molie
moll
molle
molly
molteno
molto
moltrein
molurus
mom
moment
moments
momentum
momma
mommy
moms
mon
mona
monaco
monarg
monarge
monargie
mond
monday
monde
mondelinge
mondelings
monding
mondo
mondstuk
monet
monete
money
mongole
mongolie
mongools
mongoolse
monica
monique
monisme
monitor
monk
monkey
monkeys
monnik
monnike
mono
monogatari
monopolie
monotei
monroe
mons
monsieur
monster
monsters
mont
montagu
montana
monte
montenegro
monterey
montering
montesquieu
montevideo
montgomery
month
monthly
montmartre
montpellier
montre
montreal
montreux
montserrat
monty
monument
monumentale
monumente
monuments
monza
mooi
mooier
mooirivier
mooiste
moolman
moon
moondhede
moondheid
moonlight
moontlik
moontlike
moontlikhede
moontlikheid
moor
moord
moorde
moordenaar
moordenaars
moore
moorrees
moorreesburg
moot
mopani
mor
moraal
moraea
moral
morales
moraliteit
morals
moran
morawie
morawiese
mord
more
moreel
morele
morfeme
morfologie
morfologiese
morg
morgan
morgen
moritz
morkel
mormon
morne
morning
morocco
morphin
morris
morrison
morse
mort
mortal
morton
mos
mosai
mosaic
mosambiek
mosambiekse
moscow
moser
moses
mosie
moskee
moskees
moskou
moskouse
moskwa
moslem
moslems
moslemse
moss
mosse
mosselbaai
mossels
most
mostert
mot
motel
moth
mother
mothers
motief
motiewe
motion
motive
motiveer
motivering
moto
motor
motorbedryf
motore
motorfiets
motorfietse
motoriese
motorongeluk
motors
motorskou
motorsport
motorvervaardiger
motorvervaardigers
motorvoertuie
motorvoertuig
motte
mottle
moue
moulin
mount
mountain
mountains
mountbatten
mounted
mouse
mouth
mouton
move
movement
moves
movie
movies
moving
movt
mowbray
mowgli
mozambique
mozart
mozilla
mp
mpla
mplementeer
mpumalanga
mpumalangaprovinsie
mpv
mr
mrs
ms
mt
mthatha
mtv
mu
much
mud
mugabe
muhammad
muir
muis
muise
muizenberg
mulder
mulholland
muller
multi
multikulturele
multimedia
multinasionale
multiple
mum
mumbai
mummie
mummies
mummy
munich
munisipale
munisipaliteit
munisipaliteite
munson
munster
munt
munte
muntstuk
muntstukke
muppet
muppets
murat
murder
murderer
murders
murdoch
mure
murphy
murray
murrayfield
murraysburg
mus
musa
muscle
muse
musea
museo
museum
museums
music
musica
musical
musicals
musici
musicians
musiek
musiekbedryf
musiekblyspel
musiekblyspele
musiekdirekteur
musiekfees
musiekgroep
musiekgroepe
musiekinstrumente
musiekspel
musiekvideo
musik
musikale
musikant
musikante
musique
musketeers
muslim
mussolini
must
mustafa
mustang
mutant
mutasie
mutasies
mutiny
mutter
mutual
muur
muurskildery
muurskilderye
muß
mv
mw
mx
my
myanmar
myburg
myburgh
mycale
mycalidae
myers
myl
mylpaal
mylpale
myn
mynbou
myne
mynhardt
mynwerkers
mynwese
myself
myspace
mysteries
mysterious
mystery
mystic
myth
mythology
myths
myxilla
myxillidae
n
na
naak
naakte
naaktheid
naald
naalde
naam
naamlik
naamlose
naamsverandering
naamval
naamvalle
naamwoord
naamwoorde
naar
naas
naaste
naastenby
naaswenner
naaswenners
nabokov
naboots
nabootsing
naburige
naby
nabye
nabygelee
nabyheid
nach
nacht
nacional
nadal
nadat
nadeel
nadele
nadelig
nadelige
nader
nadere
naderende
naderhand
nadia
nadine
nadraai
nadruk
naels
naelskraap
naelskraapse
naelstring
nag
nagano
nagasaki
nageboots
nagedagtenis
nagegaan
nagekom
nagel
nagelaat
nagelate
nagenoeg
nageslag
nagestreef
nagevolg
nagevors
naghemel
nagklubs
nagmaal
nagoja
nagorno
nagraadse
nagte
nagtegaal
nagtelike
nagy
nai
nairobi
najaar
naked
nakom
nakomelinge
nakoming
nalatenskap
naledi
naln
nam
nama
namakwaland
namas
namate
name
named
namen
namens
names
namib
namibia
namibian
namibie
namibiese
namibwoestyn
namiddag
nan
nana
nancy
nanette
nanjing
nanny
nansen
nantes
naomi
naoorlogse
napels
napier
napole
napoleon
napoleontiese
nar
nara
narkose
narnia
narratief
narratiewe
narrative
narrow
narva
nas
nasa
nasaret
nasate
nasdaq
nash
nashville
nasie
nasies
nasiesbeker
nasionaal
nasionale
nasionalisme
nasionaliste
nasionalistiese
nasionaliteit
nasleep
nasou
naspers
nassau
nasser
nastreef
nasty
nat
natal
natalensis
natalia
natalie
natalse
natasha
nathan
nathaniel
nation
national
nationale
nations
native
nativity
natrium
natste
natural
naturalisme
naturalistiese
nature
naturelle
natuur
natuurbewaring
natuurgeskiedenis
natuurkunde
natuurkundige
natuurlewe
natuurlik
natuurlike
natuurrampe
natuurreservaat
natuurreservate
natuurskoon
natuurwetenskap
natuurwetenskaplike
natuurwetenskappe
naude
naughty
nauru
navajo
naval
navarra
navigasie
navigator
navo
navolging
navorser
navorsers
navorsing
navorsingsentrum
navraag
navy
naweek
naweke
naxos
nazi
nazionale
nb
nbc
nberg
nboog
nc
nchen
nchu
ncis
nd
nde
ndebele
ndel
nden
nder
ndez
ndruk
nduseerde
ndustrialiseerde
ne
neal
neanderdallers
near
nearly
neberg
nebraska
nebula
neburg
necessary
neck
ned
neder
nederduits
nederduitsch
nederduitse
nederige
nederlaag
nederlae
nederland
nederlande
nederlander
nederlanders
nederlands
nederlandsche
nederlandse
nederlandstalige
nedersakse
nedersaksies
nedersetters
nedersetting
nedersettings
nee
need
needs
neef
neefs
neels
neem
neer
neergele
neergeskryf
neergestort
neerlaag
neerle
neerslae
neerslag
neethling
nefertiti
nefie
negatief
negatiewe
nege
negejarige
negende
negentien
negentiende
negentig
negentigerjare
negro
neig
neighbor
neighborhood
neighbors
neighbours
neiging
neigings
neil
neill
nek
nekke
nektar
nel
nell
nellie
nelly
nelson
nelspruit
nemesis
nemo
nen
neo
neogotiese
neoklassieke
neolitiese
neolitikum
neon
neopetrosia
nepal
nepalese
nepoot
nepotisme
neptune
neptunus
ner
nerds
nerine
nero
ners
nerve
nes
nest
neste
net
netanyahu
netbal
netflix
netherlands
netjies
netjiese
nette
netto
netwerk
netwerke
network
neue
neues
neumann
neurenberg
neurologiese
neurone
neus
neushoringvoe
neute
neutraal
neutrale
neutraliseer
neutraliteit
neutrino
neutron
neutrone
nevada
never
neville
nevis
new
newadvent
newark
newcastle
newe
newel
newels
neweproduk
newfoundland
newman
newport
news
newton
next
nf
ng
ngc
nge
nger
nges
ngke
ngler
ngr
nguni
nh
ni
nia
niagara
nibelungen
nic
nicaragua
niccolo
nice
nicea
nicholas
nichols
nicholson
nicht
nichts
nick
nickelodeon
nicky
nico
nicol
nicola
nicolaas
nicolai
nicolas
nicole
nicolson
nie
nieamptelike
niekerk
niels
nielsen
niemand
niemeyer
nienaber
nier
niere
nierop
niers
niese
niet
nieteenstaande
nietemin
nietig
nietzsche
nieu
nieuw
nieuwe
nieuwoudt
nieuwoudtville
nig
nigel
niger
nigerie
nigeriese
niggie
night
nightingale
nightmare
nights
nigin
nigra
nigs
nigsberg
nijhoff
nijmegen
nikephoros
nikita
nikkel
nikki
nikolaas
nikolai
nikolajewitsj
nikolaus
niks
nile
nimfe
nin
nina
nine
nineve
ning
ninja
ninth
nio
niphatidae
nippon
nirvana
nirwana
nis
nisieer
nissan
nisse
nix
nixon
niz
nizjni
nj
njassaland
nk
nkarnasie
nkorporeer
nkosi
nl
nm
nn
nner
no
noag
noah
nobel
nobelprys
nobelpryswenner
noble
nobody
noch
nodig
nodige
noe
noel
noem
noemenswaardig
noemenswaardige
noemer
noemers
noemnaam
nog
nogal
nogtans
noir
noise
nok
nolan
nomade
nomades
nomadiese
nominale
nominasie
nominatief
nommer
nommers
non
none
nonne
nood
noodgedwonge
noodlot
noodlottig
noodlottige
noodsaak
noodsaaklik
noodsaaklike
noodsaaklikheid
noodtoestand
noodwendig
nooi
nooiensvlug
nooit
noon
noord
noorde
noordeiland
noordekant
noordelike
noordelikste
noordkus
noordoos
noordooste
noordoostelike
noordpool
noordryn
noordsee
noordwaarts
noordwes
noordwesprovinsie
noordweste
noordwestelike
noormanne
noors
noorse
noorwee
noorweegse
noot
nora
norbert
nord
nordiese
norfolk
norm
norma
normaal
normaalkollege
normaalweg
normal
normale
norman
normandie
normandiese
norme
norris
norte
north
northern
northwest
norton
norval
norway
norwich
nos
nose
nostalgie
nostra
not
nota
notas
notasie
note
notes
nothing
notice
notorious
notre
nottingham
notule
notules
nou
noue
nouer
noukeurig
noukeurige
nouliks
nous
nouste
nouveau
nouvelle
nov
nova
novalis
novel
novelle
novelles
november
novo
now
nowaja
nowgorod
nowhere
np
npc
nr
nrc
nro
ns
nsdap
nseisoen
nskynlik
nskynlike
nspireer
nspireerde
nstalleer
nste
nster
nsu
nt
ntasie
nte
nteer
nteerde
ntegreer
ntegreerde
nter
nteresseerd
nterneer
nterpreteer
nther
ntologie
nu
nubie
nubiese
nuclear
nude
nudibranchs
nui
nuit
nuklei
nul
num
number
numbers
numeriese
nun
nuntius
nur
nuremberg
nureyev
nurse
nurses
nut
nuts
nutteloos
nuttig
nuttige
nuus
nuusberigte
nuusblad
nuusbrief
nuuskierigheid
nuut
nuutgestigte
nuutste
nuwe
nuwejaar
nuweland
nuweling
nuwer
nuwes
nval
nvloed
nw
nwater
nwoud
nwoude
ny
nyabe
nye
nyi
nyl
nylon
nylrivier
nylstroom
nynorsk
nypd
nyweraar
nywerhede
nywerheid
nywerheids
nywerheidsektor
nywerheidsentrum
nywerheidsgebied
nywerheidsgebiede
nywerheidslande
nywerheidsomwenteling
nywerheidstad
nz
nzasm
nzerin
o
oak
oath
ob
obama
obelisk
oberholster
oberholzer
oberliga
obituary
object
objects
objek
objekte
objektief
objektiewe
oblast
oblaste
observations
observatory
observer
obsessie
obsession
oc
ocean
oceanapia
och
ochna
oclc
octavianus
october
octopus
odahl
odd
odds
ode
odendaal
odendaalsrus
odendal
oder
odessa
odin
odussee
odusseus
odyssey
oe
oedipus
oefen
oefening
oefeninge
oegriese
oekrai
oeral
oerdoe
oerknal
oerwoud
oes
oesbekistan
oeso
oeste
oesters
oeuvre
oewer
oewers
of
off
offensief
offensiewe
offer
offerande
offerandes
offers
office
officer
official
offisie
offisier
offisiere
ofskoon
oftewel
og
ogg
oggend
oggendblad
oh
ohio
ohm
ohne
oidipus
oil
ois
oise
ok
okahandja
okavango
oker
okinawa
oklahoma
oksidasie
oksidasietoestand
oksideer
oksied
oksitaans
oksitaanse
okt
oktaaf
oktober
ol
olaf
old
oldenburg
older
oldest
ole
oleg
olga
olie
olies
olieverf
olifant
olifante
olifantsrivier
olimpiade
olimpiese
oliv
olive
oliver
olivia
olivier
olof
olsen
olyf
olyfolie
olympia
olympic
olympics
olympus
olywe
om
oman
omar
omaruru
omdat
omdraai
omega
omgang
omgangstaal
omgebou
omgedraai
omgekeer
omgekeerd
omgekeerde
omgekom
omgesien
omgesit
omgeskakel
omgeskep
omgewing
omgewings
omgewingsake
omgewingsfaktore
omhels
omhoog
omhul
omhulsel
omkeer
omliggende
omloop
omnibus
omrede
omring
omringende
omroeper
omroepers
omseil
omset
omsetting
omsien
omsingel
omskakel
omskakeling
omskep
omskryf
omslag
omsluit
omstandighede
omstrede
omstredenheid
omstreeks
omtrek
omtrent
omvang
omvangryke
omvat
omvattend
omvattende
omver
omvergewerp
omverwerping
omwenteling
omwentelinge
omwentelings
on
onaangename
onaanvaarbaar
onafhanklik
onafhanklike
onafhanklikheid
onafhanklikheidsdag
onafhanklikheidsoorlog
onafhanklikheidsverklaring
onafhanklikwording
onbekend
onbekende
onbemande
onbepaald
onbepaalde
onbeperk
onbeperkte
onbeslis
onbesliste
onbestrede
onbetwiste
onbevlekte
onbewoon
onbewoonde
onbewus
onbewuste
onbruik
once
ondanks
onder
onderaan
onderafdeling
onderafdelings
onderbewuste
onderbreek
onderbreking
onderbrekings
onderdane
onderdeel
onderdele
onderdruk
onderdrukkende
onderdrukking
onderdrukte
ondergaan
ondergang
ondergeskik
ondergeskikte
ondergronds
ondergrondse
onderhandel
onderhandeling
onderhandelinge
onderhandelings
onderhewig
onderhou
onderhoud
onderhoude
onderkaak
onderkant
onderkoning
onderliggend
onderliggende
onderling
onderlinge
ondermeer
ondermyn
onderneem
onderneming
ondernemings
onderrig
onderrigmedium
onderrigtaal
ondersese
onderskat
onderskei
onderskeid
onderskeidelik
onderskeidelike
onderskeidende
onderskeiding
onderskeidings
onderskeie
onderskep
onderskryf
ondersoek
ondersoeke
ondersoekers
onderstaande
onderste
onderstebo
onderstel
ondersteun
ondersteunende
ondersteuner
ondersteuners
ondersteuning
onderstreep
onderteken
ondertekenaars
ondertekening
ondertussen
onderverdeel
ondervind
ondervinding
ondervindings
ondervoorsitter
ondervra
onderwater
onderwe
onderweg
onderwerp
onderwerpe
onderwerping
onderworpe
onderwys
onderwysdepartement
onderwysdiploma
onderwyser
onderwyseres
onderwysers
onderwysinstellings
onderwyskollege
onderwysstelsel
ondoeltreffend
onduidelik
one
oneindig
oneindige
onenigheid
onervare
ones
onewe
ongeag
ongedaan
ongee
ongei
ongekende
ongeldig
ongelooflike
ongeluk
ongelukke
ongelukkig
ongelukkige
ongelyk
ongelyke
ongelykheid
ongemak
ongepubliseer
ongepubliseerde
ongerepte
ongeskik
ongeskonde
ongeskoolde
ongetroud
ongetroude
ongetwyfeld
ongevalle
ongeveer
ongewenste
ongewerwelde
ongewerweldes
ongewild
ongewone
ongewoon
ongunstige
onherbergsame
onion
oniseerde
onkel
onkonvensionele
onkoste
onkruid
onkunde
onlangs
onlangse
online
onluste
only
onmiddellik
onmiddellike
onmin
onmoontlik
onmoontlike
onnatuurlike
onnodig
onnodige
ononderbroke
onoorwonne
onprakties
onree
onreg
onrus
ons
onse
onseker
onsekere
onsekerheid
onsigbaar
onsigbare
onskuld
onskuldig
onskuldige
onstabiel
onstabiele
onstabiliteit
onsterflike
onsterflikheid
onstuimige
onsuiwerhede
onsuksesvol
onsuksesvolle
ontaard
ontario
ontberings
ontbied
ontbind
ontbinde
ontbinding
ontbloot
ontbossing
ontbrand
ontbreek
ontbreekt
ontbyt
ontdek
ontdekker
ontdekkers
ontdekking
ontdekkings
ontdekkingsreise
ontdekkingsreisiger
ontdekkingsreisigers
ontdekte
ontduik
onteien
ontevrede
ontevredenheid
ontgin
ontginning
onthaal
onthef
onthoof
onthou
onthul
onthulling
ontken
ontkenning
ontketen
ontkiem
ontkieming
ontkom
ontkoppel
ontlasting
ontleding
ontledings
ontleed
ontleen
ontlok
ontluikende
ontmasker
ontmoedig
ontmoet
ontmoeting
ontmoetings
ontneem
ontnugtering
ontoeganklik
ontologie
ontplof
ontploffende
ontploffing
ontploffings
ontplooi
ontplooiing
ontrou
ontruim
ontruiming
ontsaglike
ontset
ontslaan
ontslae
ontslag
ontslape
ontsluit
ontsnap
ontsnapping
ontspan
ontspanne
ontspanning
ontspring
ontstaan
ontsteek
ontsteking
ontstel
ontsteld
ontsteltenis
ontsyfer
onttrek
onttrekking
onttroon
ontval
ontvang
ontvanger
ontvangers
ontvangs
ontvlug
ontvlugting
ontvoer
ontvoering
ontvolking
ontwaking
ontwerp
ontwerpe
ontwerper
ontwerpers
ontwerpte
ontwikkel
ontwikkelaar
ontwikkelaars
ontwikkelde
ontwikkelende
ontwikkeling
ontwikkelinge
ontwikkelings
ontwrig
ontwrigting
ontwyk
onveranderd
onvergeetlike
onverklaarbare
onvermoe
onvermoeide
onvermydelik
onvermydelike
onversadigde
onverwags
onverwagse
onverwagte
onvoldoende
onvolledig
onvolledige
onvoltooid
onvoltooide
onvolwasse
onwaarskynlik
onwettig
onwettige
onwillig
onze
oog
oogmerk
oogpunt
ooie
ooit
ook
oom
oomblik
oomblikke
oond
oop
oopbron
oopgaan
oopgemaak
oopgestel
oopmaak
oor
oorbevolking
oorbeweiding
oorbly
oorblyfsel
oorblyfsels
oorblywende
oorbodig
oorbrug
oord
oorde
oordeel
oordosis
oordra
oordraagbare
oordrag
oordrewe
ooreen
ooreengekom
ooreengestem
ooreenkom
ooreenkoms
ooreenkomste
ooreenkomstig
ooreenstem
ooreenstemmende
ooreenstemming
oorerflike
oorgaan
oorgang
oorgange
oorgangstydperk
oorgawe
oorgebly
oorgedra
oorgee
oorgegaan
oorgegee
oorgekom
oorgelaat
oorgelewer
oorgelewerde
oorgeloop
oorgeneem
oorgeplaas
oorgeskakel
oorgesteek
oorgrote
oorhand
oorhandig
oorhandiging
oorheers
oorheersend
oorheersende
oorheersing
oorhoofse
oorkant
oorkoepelende
oorkom
oorkruis
oorlede
oorledene
oorledenes
oorleef
oorleg
oorlewende
oorlewendes
oorlewering
oorlewerings
oorlewing
oorloe
oorlog
oorlogse
oorlogshandelinge
oorlogsjare
oorlogskepe
oorlogskip
oorlogsmisdade
oorlogstyd
oorlogsverklaring
oorlogsvlag
oorlogvoering
oormaat
oormag
oormatige
oornag
oorname
oorneem
oorreed
oorrompel
oorsaak
oorsaaklikheid
oorsake
oorsee
oorsese
oorsig
oorskadu
oorskakel
oorskakeling
oorskot
oorskry
oorsprong
oorspronge
oorspronklik
oorspronklike
oorspronklikheid
oorsteek
oorstroming
oorstromings
oorstroom
oort
oortollige
oortreders
oortreding
oortredings
oortree
oortref
oortrek
oortuig
oortuigend
oortuigende
oortuiging
oortuigings
oortwolk
oorval
oorvertel
oorvleuel
oorvleueling
oorvloed
oorvloedige
oorweeg
oorwegend
oorweging
oorwegings
oorweldig
oorweldigend
oorweldigende
oorwin
oorwinnaar
oorwinning
oorwinnings
oorwinter
oos
oosblok
oosgrens
ooskus
oossee
oost
ooste
oostekant
oostelike
oostenryk
oostenryks
oostenrykse
oosters
oosterse
oosthuizen
ooswaarts
op
opbloei
opbou
opbreek
opbrengs
opbrengste
opdaag
opdoen
opdrag
opdragte
ope
opeenvolgende
opeenvolging
opel
opelug
open
openbaar
openbare
openbaring
opening
openinge
openingseremonie
openingswedstryd
openlik
openlike
openoffice
oper
opera
operahuis
operas
operasangers
operasie
operasies
operasioneel
operasionele
operateur
operateurs
operation
operations
operator
operette
opfer
opg
opgang
opgeblaas
opgebou
opgebreek
opgebruik
opgedaag
opgedateer
opgedeel
opgedoen
opgedra
opgee
opgegee
opgegradeer
opgegrawe
opgehang
opgehef
opgehou
opgeknap
opgekom
opgelaai
opgele
opgelei
opgeleide
opgelewer
opgelig
opgelos
opgeloste
opgemeet
opgemerk
opgeneem
opgerig
opgeroep
opgeruk
opgeskort
opgeslaan
opgesluit
opgesom
opgespoor
opgestaan
opgestel
opgestyg
opgeteken
opgetekende
opgetel
opgetree
opgetrek
opgevang
opgevlam
opgevoed
opgevoede
opgevoer
opgevolg
opgevul
opgewek
opgewonde
opgradering
opgrawings
opheffing
ophelia
ophou
opinie
opinies
opinion
opium
opknapping
opkom
opkomende
opkoms
oplaag
opleiding
opleidingskollege
oplewer
oplewing
oplos
oplosbaar
oplosbaarheid
oplosbare
oplosmiddel
oplosmiddels
oplossing
oplossings
opm
opmars
opmerking
opmerkings
opmerklik
opmerklike
opname
opnames
opneem
opnuut
opoffering
oppad
oppas
oppenheimer
opper
opperbevelhebber
opperbevelvoerder
oppergesag
opperhoof
opperman
opperste
oppervlak
oppervlakke
oppervlakkige
oppervlakte
oppervlaktemperatuur
oppervlaktes
oppervlakwater
opponent
opponente
opponerende
opposisie
opposisiepartye
opposite
oprah
opregte
oprig
oprigting
oproep
oproepe
oproer
opset
opsetlik
opsetlike
opsie
opsies
opsig
opsigte
opsionele
opskrif
opskudding
opsoek
opsomming
opspoor
opsporing
opspraakwekkende
opstaan
opstal
opstand
opstande
opstandelinge
opstandige
opstanding
opstel
opstelle
opstelling
opstyg
opstyging
opswaai
opsy
optel
optiese
optika
optimale
optimisme
optog
optogte
optrede
optredes
optree
opus
opvallend
opvallende
opvallendste
opvanggebied
opvatting
opvattings
opvoeding
opvoedkunde
opvoedkundige
opvoer
opvoering
opvoerings
opvolg
opvolger
opvolgers
opvolging
opwaarts
opwaartse
opwek
opwekking
opwinding
or
ora
oracle
orakel
oral
orale
orals
orange
orania
oranje
oranjerivier
oranjerivierkolonie
oratorium
orbea
orbitaal
orbitale
orchard
orchestra
orchestre
orchid
orchids
orde
ordeal
ordening
order
orders
ordes
ordinary
ordo
ordonnansie
ore
oregon
org
orgaan
organe
organiese
organisasie
organisasies
organisation
organisatoriese
organiseer
organiseerder
organisering
organisme
organismes
organization
orgasme
orgidee
orgy
ori
orie
orient
oriental
orientalis
orige
origin
original
originals
origins
orion
orkaan
orkes
orkeste
orkestrale
orkney
orlando
orle
orleans
ornamente
oro
oromo
orphan
orpheus
orrel
orrelis
orreliste
orsini
orson
ortodoks
ortodokse
ortodoksie
ortografie
orville
orwell
oryx
os
osaka
osborne
oscar
oscars
oscularia
oseaan
oseane
oseanie
oseaniese
osiris
oskar
oslo
osmotiese
oss
osse
ossetie
ossewa
ossewabrandwag
ossewaens
ostia
oswald
ot
otago
othello
other
others
othonna
otjimbingwe
otjiwarongo
ottawa
otters
otto
ottomaanse
ottoman
ottomane
ou
oud
oude
ouderdom
ouderdomme
ouderdomsgroep
ouderdomsperk
ouderling
ouderlinge
oudhede
oudheid
oudio
ouditeur
ouditorium
oudl
oudnoors
oudste
oudstes
oudtshoorn
oue
ouer
ouere
ouerhuis
ouers
ouetehuis
oulitnet
ouma
oupa
our
ours
out
outcast
outentieke
outer
outeur
outeurs
outeursafkorting
outeurskap
outisme
outistiese
outjo
outlaw
outlaws
outo
outobiografie
outobiografiese
outokratiese
outomaties
outomatiese
outonome
outonomie
outorite
outoriteit
outpost
outside
outsider
outta
outtakes
outydse
ouverture
ov
ovaal
ovaalvormige
oval
ovambo
ovamboland
over
overberg
overijssel
overland
overture
overview
ovidius
ovs
owen
owens
owerhede
owerheid
owerspel
owl
own
oxford
oz
ozoroa
p
pa
paa
paaie
paal
paaltjie
paaltjies
paaltjiewagter
paar
paarl
paarlse
paartjie
paartjies
paaseiland
paasfees
pablo
pac
pace
pachypodium
pacific
pack
pact
pad
padda
paddas
paddington
paddy
padnetwerk
padua
pagan
paganini
page
pageant
pages
pagos
pai
paid
pain
pains
paint
painted
painter
painting
pair
pajama
pak
pakendorf
pakistan
pakistanse
pakket
pakkette
pal
palace
palaiologos
palais
palau
palazzo
pale
paleis
paleise
paleogeen
paleolitiese
paleolitikum
paleontoloe
paleontologie
paleontoloog
paleoseen
paleosoi
palermo
palestina
palestyne
palestynse
palgrave
pali
paling
palladium
pallas
palm
palma
palme
palmer
palms
palmyra
palooka
pals
palts
paltsgraaf
pama
pamela
pamflet
pamflette
pan
panama
panda
pandemie
pandora
paneel
panele
panic
paniek
panne
panorama
panoramiese
panoramio
pantei
panteon
pantheon
panther
panthera
pants
pantser
panzer
paolo
pap
papa
papacy
papegaaie
paper
papers
papier
papillon
papirus
papoea
par
para
paraboliese
parabool
parade
parades
paradies
paradigma
paradise
paradoks
paradys
paragraaf
paraguay
paralimpiese
parallel
parallelle
parameters
paramilite
paramount
parana
paranomus
paranormal
paranormale
parasetamol
parasiet
parasiete
parc
pardon
pare
parent
parenthood
parents
parfuum
paring
paris
park
parke
parker
parkeraad
parkinson
parks
parktown
parlement
parlemente
parlementsgebou
parlementslede
parlementslid
parliament
parma
parodie
parody
parogie
parole
parool
parow
parry
parsek
parsie
parsons
part
partement
partements
partial
partie
parties
partiese
partikels
partisane
partituur
partner
partners
partridge
parts
party
partye
partykeer
partyleier
partytjie
partytjies
parys
paryse
pas
pascal
pasch
paschalis
pasgebore
pasie
pasifiese
paspoort
pass
passage
passasier
passasiers
passasiersvliegtuie
passe
passenger
passer
passerina
passie
passief
passievolle
passiewe
passing
passion
passionate
passions
passport
past
pasta
pasternak
pasteur
pastoor
pastor
pastorale
pastorie
pat
patch
patent
patente
paterson
path
pathfinder
paths
patient
patogene
paton
patria
patriarg
patriargaat
patriargale
patricia
patrick
patriot
patriotiese
patriotisme
patriotte
patrol
patrollie
patrone
patroon
patrys
patterns
patterson
patti
pattinson
patton
paul
paula
pauli
pauline
paulo
paulus
pauper
pauridia
pausanias
pauw
pavia
pawiljoen
pawn
pax
pay
payback
payne
pays
paz
pb
pbs
pc
pd
pdf
pe
peabody
peace
peach
peacock
peak
peaks
pearl
pearls
pearson
peck
pecos
peddie
pedro
pee
peek
peel
peep
peer
peet
peg
pegasus
peggy
peil
peking
pektorale
pelgrims
pelgrimstog
pelham
pellissier
peloponnesiese
pels
pelse
pelser
pen
penares
pendelaars
pendeltuig
penelope
penetrasie
peng
penguin
penguins
penis
penn
penne
pennies
pennsilvanie
pennsylvania
penny
pens
pensioen
penthouse
people
peoples
peper
pepper
peppers
pepyn
per
peratiewe
percy
perd
perde
perdekrag
perdry
perfect
perfek
perfekte
performance
performances
pergamon
perifere
perihelium
perikles
peril
perils
period
periode
periodes
periodiek
periodieke
perk
perke
perkussie
perm
permanent
permanente
peroen
perold
perry
pers
perse
perseel
persele
persent
persentasie
persepsie
persepsies
perseus
persie
persies
persiese
perskor
person
persona
personal
personality
persone
personeel
personeellede
persons
persoon
persoonlik
persoonlike
persoonlikhede
persoonlikheid
perspective
perspectives
perspektief
perspektiewe
perth
peru
perugia
pes
pest
pet
pete
peter
peters
petersburg
petersen
peterson
petisie
petit
petite
petra
petrarca
petrarch
petrochemiese
petrograd
petrol
petroleum
petronella
petrosia
petrus
petrusburg
petticoat
peugeot
peule
peyton
pg
ph
phage
phakellia
phalaborwa
phantom
pharos
phase
phd
pheiffer
phenomenon
phi
phil
philadelphia
philharmonia
philharmoniker
philip
philipp
philippe
philippolis
philippus
philips
philipstown
phillip
phillips
philo
philosophical
philosophie
philosophy
phloeodictyidae
phnom
phoenix
phone
phorbas
photo
photographic
photography
photos
php
phra
phu
phyllis
phylum
physical
physics
pi
pia
pianis
pianiste
piano
piazza
pic
picasso
piccadilly
pick
pickwick
picnic
picton
picture
pictures
pie
piece
pieces
pied
piek
pieke
pienaar
pienk
pier
pierce
pierneef
piero
pierre
piesangs
piet
pieter
pietermaritzburg
pietersburg
pieterse
pieterskerk
pietro
pig
pigeon
pigment
pigmente
pik
piketberg
pikkewyn
pikkewyne
pilaar
pilare
pilatus
pilgrim
pilot
pimlott
pimpernel
pin
pine
pinelands
pines
pinetown
ping
pink
pinkster
pinky
pinocchio
pinto
pinyin
pion
pione
pioneer
pioneers
pionier
pioniers
pionne
piper
piramide
piramides
piranha
pirate
pirates
pirelli
pirenee
piroklastiese
pirow
pisa
pisera
pissarro
pistorius
pit
pitch
pittsburgh
pius
pizza
pj
pjotr
pk
pl
pla
plaag
plaagdoders
plaas
plaasgevind
plaashuis
plaaslik
plaaslike
plaasskool
plaasvervanger
plaasvind
plaaswerkers
plaat
plaatje
plaats
plaattektoniek
place
places
placid
plae
plafon
plague
plain
plains
plakkaat
plakkate
plan
planck
plane
planeet
planet
planetary
planete
planets
planke
plankton
planne
planning
plant
plantaardige
plantasies
plante
plantegroei
plantfamilies
plantkunde
plantkundige
plantmateriaal
plants
plantsoftheworldonline
plantspesie
plantspesies
plantzafrica
plase
plasenta
plasing
plasma
plastic
plastiek
plastiese
plat
plata
plate
platekontrak
platemaatskappy
platform
platforms
platinum
plato
platorand
platteland
plattelandse
platz
play
playboy
played
player
players
playground
playhouse
playing
plays
plaza
please
pleasure
pleasures
pleeg
plegtig
plegtige
plegtigheid
pleidooi
plein
pleine
pleistoseen
pleit
plek
plekke
plekkie
pleknaam
plekname
pleks
plesier
plessis
plettenbergbaai
plig
pligte
plinius
ploeg
plofstof
plooy
plot
pluimvee
pluk
plum
plunder
plundering
plus
plutarchus
pluto
plutonium
plymouth
pm
pmid
png
po
pocket
poco
podcast
podium
poe
poecillastra
poeier
poel
poele
poelfase
poema
poemas
poems
poesjkin
poet
poetin
poetry
poets
poging
pogings
pohl
point
pointe
points
poison
poitiers
pokal
poke
poker
pokke
pol
poland
polar
polaris
polarisasie
pole
polemiek
poli
police
policy
polie
poliepe
polimeer
polimere
polinesie
polinesiese
polis
polish
polisie
polisiebeamptes
polisiediens
polisiemag
polisieman
polisiemanne
politburo
political
politici
politics
politiek
politieke
polities
politiese
politikus
politische
polka
pollock
polly
polo
polokwane
pols
poltergeist
polukarpus
polymastia
polymastiidae
pomare
pommere
pomp
pompe
pompeii
pompeius
pond
pondoland
pont
ponte
pontificalis
pontifikaat
pony
poog
pooh
pool
poolkoo
pools
poolse
poor
poort
poorte
poot
pop
popcorn
pope
popes
popeye
pople
popmusiek
poppe
popper
poppespel
poppie
popular
populasie
populasies
population
popule
por
porifera
porn
porno
pornografie
pornografiese
porsche
porselein
port
porta
portaal
portal
porte
portefeulje
porter
porterville
portland
porto
portrait
portraits
portret
portrette
portsmouth
portugal
portugees
portugese
portuguese
pos
posdiens
poseidon
poseidonios
posgevat
posisie
posisies
positief
positiewe
position
positivisme
poskantoor
posmeester
posse
possee
possession
possible
post
postcards
poste
postma
postman
postmasburg
postmoderne
postmodernisme
postuum
postuur
pot
potato
potchefstroom
potchefstroomse
pote
potensiaal
potensie
potensieel
potgieter
potgietersrus
potlood
potsdam
potte
pottebakkery
potter
potts
pou
pound
pour
pous
pouse
pouslike
pov
poverty
powder
powell
power
powers
poznan
pp
pr
pra
praag
praagse
praat
practical
practice
pradesh
prado
prag
pragmatiese
pragtig
pragtige
prague
prairie
prakties
praktiese
praktiseer
praktisyns
praktyk
praktyke
pratt
pray
prayer
pre
preacher
precinct
precious
predator
predikant
predikante
predikantsvrou
prediker
prediking
preek
preekstoel
preez
prefek
prefekture
prefektuur
prehistoriese
prejudice
preke
preller
prelude
preludes
premie
premier
premiere
premiers
premierskap
premium
prent
prente
prentice
prentjie
pres
presbiteriaanse
presbyterian
present
presents
presessie
presidensie
president
presidente
presidential
presidentskap
presidentsverkiesing
presies
presiese
presisie
presley
press
pressure
prestasie
prestasies
presteer
prestige
preston
pret
pretoria
pretoriase
pretorius
pretty
preview
prey
pri
priamos
price
pride
prieska
priest
priester
priesters
prijs
prikkel
prikkeling
prikkels
prima
primary
primate
prime
primetime
primitief
primitiewe
primitive
primrose
prince
princes
princess
princeton
principles
prins
prinsdom
prinse
prinses
prinsloo
print
prinz
prinzessin
prioriteit
prisma
prison
prisoner
prisoners
privaat
privaatheid
private
privatisering
prix
prize
pro
probeer
probleem
problem
problematiek
problematies
probleme
problems
proceedings
process
prodigal
producers
production
productions
produk
produksie
produksies
produkte
produktief
produktiewe
produktiwiteit
produseer
produsent
produsente
proe
proef
proefskrif
proewe
prof
profeet
profesiee
profession
professional
professionalisering
professioneel
professionele
professor
professoraat
professore
profete
profetiese
proff
profiel
profile
profiles
program
programmatuur
programme
programmering
progress
progressiewe
project
projek
projeksie
projekte
projektiel
proklamasie
prokofie
prokureur
prokureurs
proletariaat
prom
prometheus
prominent
prominente
promise
promised
promises
promosie
promoveer
pronk
proof
prooi
prooidiere
prop
propaan
propaganda
properties
property
prophecy
prophet
proponent
proporsies
proporsionele
proposal
proposed
prosa
prosedure
prosedures
proses
prosesse
prostitusie
prostitute
prostituut
protagonis
protea
proteas
proteaspesies
protection
protei
protektoraat
protes
protestante
protestantisme
protestantse
proteste
protesteer
proteus
proto
protokol
protokolle
proton
protone
protonotarius
protoplanete
prototipe
prototipes
proud
provence
providence
province
provinsiale
provinsie
provinsies
proxima
proxy
pruise
pruisiese
prys
pryse
prysgegee
prysgeld
ps
psa
psalm
psalms
psammocinia
psammoclema
pseudo
pseudowetenskap
psi
psige
psigiater
psigiatriese
psigiese
psigoanalise
psigologiese
psoralea
psyche
psycho
psychology
pt
ptah
ptolemaeus
ptolemei
ptolemeus
pty
pu
pub
puberteit
public
publication
publications
publiek
publieke
publikasie
publikasies
publique
publiseer
published
publishers
publishing
publisiteit
publius
puccini
pueblo
puerto
puik
puin
puk
pulitzer
pulitzerprys
pulp
pulsar
pulse
puma
punch
punisher
punishment
punjab
punk
punt
punte
puntelee
puntestand
puntestelsel
punteverskil
puppet
puppy
puranas
purcell
pure
purge
purple
purpose
pursuit
push
pussy
pussycat
put
putin
putnam
putting
puzzle
pv
pw
px
pygmalion
pyl
pyle
pyn
pynlike
pyp
pype
pyplyn
pyramid
pyre
pythagoras
python
q
qantas
qi
qin
qing
qquad
qt
qu
quad
quality
quand
quantum
quarter
quarterly
quartet
quattro
que
quebec
quebecstad
queen
queens
queensland
queenstown
queer
quentin
quest
question
questions
qui
quick
quiet
quincy
quinn
quite
quixote
quiz
quo
quran
r
ra
raad
raadgewende
raadgewer
raadgewers
raadpleeg
raadsaal
raadslede
raadslid
raai
raaisel
raaisels
raak
raakgesien
raam
raamloos
raamwerk
rabbi
rabbit
rabie
rables
race
racer
races
rache
rachel
rachelle
rachmaninoff
racing
racket
radar
rade
radford
radiale
radical
radikaal
radikale
radio
radioaktiewe
radioaktiwiteit
radiodrama
radiodramas
radiogolwe
radioprogram
radioprogramme
radiosondergrense
radiostasie
radiostasies
radium
radius
rae
raf
rafael
raffles
rage
raging
ragnar
ragtime
rahman
rai
raid
raider
raiders
rail
railroad
railway
railways
rain
rainbow
rainer
raise
raising
rak
raka
rakende
rakke
ral
rally
ralph
ram
rama
ramaphosa
rame
raming
ramings
ramme
ramo
ramp
rampe
rampspoedige
ramsay
ramses
ran
ranch
rancho
rand
randall
randburg
rande
randfontein
randi
random
randse
randy
rang
range
ranger
rangers
ranglys
rangorde
rangskik
rangskikking
rank
ransom
rant
rante
rap
rapa
rape
raper
raphael
rapid
rapids
rappaport
rapport
rapporteer
rapportprys
rard
rare
rargie
ras
rascals
rasionalisme
rasionele
raskolnikof
rasmussen
raspailia
raspailiidae
raspoetin
rasse
rasseskeiding
rassisme
rassistiese
rat
rather
ration
ratkas
rats
ratte
rau
rauch
rautenbach
ravel
raven
ravenna
raw
rawhide
rawls
ray
raymond
razin
rb
rca
rd
rde
rder
rdinasie
rdinate
rdinatestelsel
rdineer
rdineerde
rdoba
re
rea
reach
reaching
read
reader
reading
ready
reagan
reageer
reaksie
reaksies
reaksione
reaktiewe
reaktor
real
realisme
realisties
realistiese
realiteit
reality
really
realm
rear
reason
reasons
rebecca
rebel
rebelle
rebellie
rebellies
rebellion
rebels
reborn
rebound
recent
recht
reckless
reckoning
record
recording
recordings
records
recreation
red
redaksie
redaksiekomitee
redaksiekommissie
redaksionele
redakteur
redakteurs
redakteurskap
reddersburg
redding
rede
redelik
redelike
redelinghuys
redemption
redenaar
redenasie
redeneer
redery
rederye
redes
redevoering
redford
redhead
redigeer
redigering
redlist
reds
reduksie
ree
reed
reeds
reef
reeks
reekse
reeksmoordenaar
reel
reenen
referaat
referate
reference
referendum
reflections
refleks
reflekse
refleksie
reflekteer
reform
reformasie
reformed
refrein
reg
regbank
regdeur
regeer
regent
regentskap
regerende
regering
regerings
regeringsbeleid
regeringsetel
regeringsgeboue
regeringshoof
regeringstelsel
regeringsvorm
reggekry
reggestel
reghoek
reghoekig
reghoekige
regie
regime
regiment
regimente
regimes
regina
reginald
regio
region
regional
regionalliga
regisseur
regisseurs
regisseuse
register
registers
registrasie
registreer
regmatige
regoor
regop
regs
regse
regsgeleerde
regsgeleerdes
regspraak
regstellende
regstelsel
regstreeks
regstreekse
regte
regtelike
regter
regterhand
regterkant
regterlike
regteroewer
regters
regtig
reguit
regular
regulasie
regulasies
reguleer
regulering
regverdig
regverdige
regverdigheid
regverdiging
rehabilitasie
rehoboth
rei
reich
reichstag
reid
reign
reik
reikafstand
reilande
reilly
reims
rein
reine
reinecker
reinet
reinhard
reinheid
reinhold
reis
reise
reisende
reisiger
reisigers
reisverhale
reiswig
reitz
rek
reken
rekenaar
rekenaars
rekenaarwetenskap
rekening
rekeninge
rekeningkunde
rekeningkundige
rekenkunde
reklame
rekonstruksie
rekord
rekords
rektor
rel
relaas
related
relatief
relatiewe
relation
relations
relationship
relationships
relative
relatiwiteit
relatiwiteitsteorie
reld
reldbank
reldbekende
reldbeker
reldbekerkwalifisering
reldbekerrekord
reldbekerstadions
reldbekertoernooi
reldbekertoernooie
reldbeskouing
reldbevolking
relddele
relde
relderfenisgebied
relderfenisgebiede
reldgesondheidsorganisasie
reldkampioen
reldkampioenskap
reldkrieketliga
reldlike
reldmark
reldoorloe
reldoorlog
reldranglys
reldrekord
reldrugby
reldse
reldspektrum
reldtentoonstelling
reldwyd
reldwye
release
relevant
relevante
relie
relief
religie
religieuse
religion
religions
religious
reloaded
rels
reluctant
rem
remains
rembrandt
remember
remembered
remembering
remembers
remembrance
remington
remix
ren
renaissance
renault
renbaan
rendezvous
rendiere
rene
renegade
renegades
reneke
renjaer
renjaers
rennes
reno
renoster
renosters
renosterveld
rens
rensburg
rent
rente
renuitslag
repertoire
repertorium
replika
report
reporter
reports
reproduksie
reptiele
republic
republiek
republieke
republiekwording
republikein
republikeine
republikeinse
reputasie
reputation
request
requiem
rer
res
rescue
research
resensent
resensente
resensie
resensies
resep
resepte
reseptore
reservaat
reservate
reserve
reservoir
reserwe
reserwebank
reserwes
resessie
residensie
resident
resies
resistance
resolusie
resolution
resonansie
resort
resource
resources
respek
respekteer
respektiewelik
respiratoriese
response
ressorteer
rest
restaurant
restaurante
reste
restless
restoration
restourante
restourasie
restourasiewerk
restoureer
resultaat
resultate
results
resurrection
retha
reticulata
retief
retina
retoriek
retoriese
retreat
retrieved
retrograde
retrospective
return
returns
reuk
reunion
reus
reusagtige
reuse
reusester
reusesterre
reuters
rev
revealed
revelation
revenge
reverse
review
reviews
revised
revisited
revival
revolt
revolusie
revolusione
revolution
revolutionary
revolutions
revue
reward
rewolusie
rewolusies
rewolusione
rex
rey
reykjavik
reyneke
reynolds
rez
reza
rf
rfc
rfu
rg
rganismes
rgb
rgen
rger
rgroep
rh
rhabderemia
rhapsody
rhein
rhino
rho
rhode
rhodes
rhodesia
rhodesie
rhodesiese
rhodos
rhuis
rhymes
rhythm
ri
ria
riaan
riana
ribbes
ric
rica
ricaanse
ricardo
ricciardo
rice
rich
richard
richards
richardsbaai
richardson
richelieu
riches
richie
richmond
richter
richtersveld
rick
ricky
rico
ridder
ridders
riddick
riddle
ride
rider
riders
rides
ridge
ridin
riding
ridley
rie
riebeeck
riebeek
riefenstahl
riemann
rien
ries
riet
riete
rietfontein
rif
rifles
rig
riga
right
rightarrow
rights
rigiede
riglyne
rigting
rigtings
rijksmuseum
rijn
riksdaalders
riley
rilke
riller
rim
rin
rina
ring
ringe
ringen
ringer
rings
ringskommissie
rio
riot
rip
ripper
rise
rises
risiko
rising
risk
rit
rita
rite
rites
ritme
ritmes
ritmiese
ritter
ritual
ritueel
rituele
ritz
rivals
river
rivera
rivers
riversdal
riverside
rivier
riviera
riviere
rivierloop
riviermondings
riviersonderend
riviersonderendberge
riwwe
rjoerik
rk
rm
rms
rn
rna
rns
ro
road
roads
roar
roaring
roast
rob
robbe
robbeneiland
robbery
robbie
robbins
robe
robert
roberto
roberts
robertson
robespierre
robiese
robin
robinson
robocop
robot
robots
robusta
rocco
roche
rochelle
rochester
rock
rockefeller
rocket
rockford
rockgroep
rockies
rockin
rocks
rockwell
rocky
rococo
rod
rode
rodeo
rodgers
rodin
rodney
rodrigo
rodriguez
roe
roebel
roei
roelof
roem
roemeens
roemeense
roemene
roemenie
roep
roeping
roer
roes
roete
roetes
roetine
roets
rofweg
rog
roger
rogers
roggeveld
rogliewe
rogue
rogues
roi
rok
rol
roland
role
rolf
roll
rolle
roller
rollers
rolling
rolls
rolprent
rolprentbedryf
rolprente
rolprentfees
rolprentmaker
rolprentregisseur
rolprentregisseurs
rolprentvervaardiger
rolprentvervaardigers
rolspelers
rolverdeling
rom
roma
romaanse
romagna
romain
roman
romana
romance
romani
romano
romanof
romanofs
romanos
romans
romanse
romanskrywer
romantic
romantiek
romanties
romantiese
rome
romeine
romeins
romeinse
romeo
rommel
romp
romulea
romulus
ron
ronald
rond
rondbeweeg
ronde
rondebosch
rondom
rondte
rondtes
ronnie
roodepoort
roodt
roof
roofdier
roofdiere
rooftogte
roofvoe
rooi
rooibaard
rooibos
rooibruin
rooierig
rooierige
rooikat
rooilys
rooiplein
rooisee
rooiverskuiwing
rook
rookie
room
rooms
roomse
roomys
roos
roosevelt
rooster
root
roots
rooy
rooyen
rope
rosa
rosaceae
rosario
rosberg
rose
rosemary
rosen
rosenberg
rosenthal
roses
rosetta
rosie
ross
rossellidae
rossetti
rossi
rossini
rosso
rossouw
rostock
rostof
roswell
rot
rota
rotasie
rote
roteer
roterende
roth
rots
rotsagtige
rotse
rotsgebergte
rotskuns
rotsriwwe
rotstekeninge
rotte
rotten
rotterdam
rou
rouch
rouen
rouge
rough
round
roundup
rourke
rousseau
roussillon
route
routledge
roux
rouxville
rover
rovere
row
rowe
rowers
rowland
rowwe
roy
royal
royale
royce
rpm
rr
rs
rsa
rsg
rskole
rskool
rst
rt
rterbuch
rttemberg
ru
rubber
ruben
rubens
rubin
rubinstein
rubriek
rubrieke
rubriekskrywer
ruby
rude
rudi
rudolf
rudolph
rudy
rue
ruf
rufus
rug
rugby
rugbyfederasie
rugbykampioenskap
rugbykampioenskapreeks
rugbylande
rugbyraad
rugbyspan
rugbyspanne
rugbyspel
rugbyspeler
rugbyspelers
rugbyunie
rugbyvoetbalunie
rugbywe
rugbywedstryd
rugbywedstryde
ruggraat
rugkant
rugmurg
rugrats
rui
ruik
ruil
ruim
ruimte
ruimtelike
ruimtependeltuig
ruimterommel
ruimtes
ruimtestasie
ruimteteleskoop
ruimtetuie
ruimtetuig
ruimtevaarder
ruimtevaarders
ruimtevaart
ruimtevlug
ruins
ruiter
ruiters
ruk
rukkie
rule
rules
rum
rumble
rumpff
run
runaway
runaways
rundfunk
runner
running
runs
ruolie
rupert
rus
ruschia
rush
rusie
rusland
rusplek
russe
russel
russell
russia
russian
russies
russiese
rust
ruste
rustenburg
rustende
rustig
rustige
rustlers
rusty
rut
ruth
rutherford
rutte
ruwe
rwanda
rx
ry
ryan
rye
ryk
rykdom
ryke
ryker
rykes
ryklik
ryksdag
rykste
rylaan
rym
rympies
ryn
rynland
rynse
ryp
rys
rytuie
rzburg
s
sa
saad
saadjies
saadselle
saai
saak
saal
saam
saamgebring
saamgebundel
saamgeneem
saamgepers
saamgeperste
saamgesmelt
saamgesnoer
saamgespan
saamgestel
saamgestelde
saamgestem
saamgetrek
saamgeval
saamgevat
saamgevoeg
saamgewerk
saamsmelt
saamstel
saamstem
saamtrek
saamval
saamvloei
saamwerk
saans
saarland
saartjie
saba
sabbat
sabc
sabie
sabierivier
sabotage
sabotasie
sabra
sabrina
sacha
sachalin
sachs
sacred
sacrifice
sacs
sad
sadat
sadc
saddam
saddle
saddles
sade
sadie
sae
safari
safe
safety
saffraan
sag
saga
sagan
sagas
sage
sagittarius
sagrada
sagte
sagteband
sagter
sagteware
sahara
sahistory
sai
said
saigon
sailor
sailors
saint
sainte
saints
sak
sake
sakekern
sakelui
sakeman
sakemanne
sakeondernemings
sakke
sakkie
sakp
sakrale
sakrament
sakramente
sakse
saksers
saksiese
sakwoordeboek
sal
sala
salaam
salaris
salarisse
saldanha
saldanhabaai
sale
salem
salf
salig
salisb
salisbury
sally
salm
salmon
salome
salomo
salomon
salomonseilande
salon
salpetersuur
salt
salute
salutes
salvador
salvation
salvatore
salzburg
sam
sama
samaai
samantha
same
samehang
samehangende
samekoms
samel
samelewing
samelewings
samesmelting
samesprekings
samest
samestellende
samesteller
samestellers
samestelling
samestellings
sameswering
sametrekking
samevatting
samevloei
samevloeiing
samevoeging
samewerking
sami
sammy
samoa
sampioene
samson
samsung
samuel
samurai
san
sanbi
sanctuary
sand
sandduine
sanderige
sanders
sandra
sandrivier
sands
sandspruit
sandsteen
sandstrande
sandton
sandwich
sandy
sanford
sang
sanger
sangeres
sangers
sangfees
sangvoe
sanitasie
sanksies
sankt
sanlam
sannie
sans
sanskrit
sanssouci
sant
santa
santiago
santo
santos
sao
saoed
saoedi
sap
sapiens
sapporo
saqqara
sar
sara
sarah
sardinie
sarel
sargon
sarie
sarkady
sartre
sas
sasha
saskatchewan
sasol
sasolburg
sassanidiese
sat
satan
satanisme
satelliet
satellietbeeld
satelliete
satellite
saterdag
saterdagaand
satie
satire
satiriese
saturday
saturn
saturnus
sauber
saudi
sauer
sauk
saul
saunders
savage
savages
savannah
savanne
save
saved
saves
saving
savoie
savoje
savonarola
savoy
saw
sawyer
say
says
sb
sc
scala
scale
scandal
scandals
scar
scare
scarecrow
scared
scarface
scarlet
scary
scenario
scene
scenes
scha
schaik
schalekamp
schalk
schalkwyk
schatten
schatz
scheepers
schelling
scherzo
schicksal
schiller
schleiermacher
schlesinger
schloß
schltr
schmidt
schmitt
schmitz
schnabel
schneider
scho
schoeman
schoenberg
schoenhals
scholtz
school
schools
schoonees
schoor
schopenhauer
schreiner
schro
schu
schubert
schuld
schule
schultz
schulze
schumacher
schuman
schumann
schuster
schutte
schuur
schwantes
schwartz
schwarz
schwarze
schweigen
schweizer
schwerin
sci
scie
science
sciences
scientific
scientist
scientists
scientology
scooby
score
scorpion
scorsese
scotia
scotland
scots
scott
scottish
scout
scouts
scream
screaming
screen
screw
script
scrooge
sd
se
sea
seal
sealed
sean
search
searching
searsia
seas
season
seasons
seattle
sebastian
sebra
sec
sechs
second
secondary
seconds
secret
secretary
secrets
section
secunda
security
sed
sedan
sederberg
sedert
sedertdien
sedes
sediment
sedimente
sedna
seds
seduction
see
seebodem
seed
seediere
seeds
seegebied
seehawe
seehawens
seeing
seek
seekers
seeking
seekoei
seekoeie
seekos
seeland
seelanders
seelandse
seele
seelewe
seeman
seemyl
seen
seep
seepunt
seer
seereis
seeroete
seerower
seerowers
seerowery
seeslag
seespiee
seestraat
seestrome
seevaarder
seevaarders
seevaart
seevlak
seevoe
seewater
seeweg
sege
segment
segmente
segregasie
sei
seil
seile
sein
seine
seiner
seinfeld
seismiese
seisoen
seisoenale
seisoene
sekel
sekelmaan
seker
sekere
sekerheid
sekerlik
sekhukhune
sekonde
sekondes
sekretaresse
sekretaris
sekretarisvoe
seks
seksie
seksies
seksualiteit
seksueel
seksuele
sekte
sektes
sektor
sektore
sekule
sekuriteit
sel
selassie
selde
seldsaam
seldsame
select
selected
selection
seleksie
selektiewe
selena
seleukidiese
self
selfbeeld
selfbeskikking
selfbestuur
selfde
selfmoord
selfone
selfoon
selfportret
selfregerende
selfregering
selfs
selfstandig
selfstandige
selfstandigheid
selfsugtige
selfvertroue
sell
selle
sellers
sellule
sellulose
selma
selwand
sem
semantiese
semen
sement
semi
seminarie
semitiese
semmelweis
sen
senaat
senator
senatore
send
sendeling
sendelinge
sender
senders
sending
sendinggemeente
sendinggenootskap
sendingkerk
sendings
sendingstasie
sendingstasies
sendingwerk
seneca
senegal
senegalensis
senekal
senior
sens
sensasie
sensation
sense
sensitief
sensitiewe
sensitiwiteit
sensor
sensoriese
sensors
sensus
sensuur
sent
senter
sentiment
sentimeter
sentra
sentraal
sentrale
sentrum
sentrums
senuwee
senuwees
senuweestelsel
seoel
seoul
sep
sepie
sept
september
sequel
sequence
ser
seremonie
seremonies
serenade
serengeti
serfontein
serge
sergeant
sergei
sergio
sergius
serial
serie
series
seringboom
serious
serpent
serruria
sersant
sertifikaat
servaas
servant
served
service
services
serwie
serwies
serwiese
ses
sesame
sesdaagse
sesde
sesnasies
sessie
session
sessions
sestien
sestiende
sestienjarige
sestig
sestiger
sestigerjare
sestigers
set
setel
setels
seth
setlaar
setlaars
sets
settlement
seun
seuns
seunskool
seuntjie
seurat
seven
seventeen
seventh
severus
sevilla
sewastopol
sewe
sewejarige
sewende
sewentien
sewentiende
sewentig
sewentigerjare
sex
sexual
sexy
seychelle
seymour
sf
sfeer
sferiese
sfinks
sforza
sg
sh
sha
shades
shadow
shadows
shaft
shah
shaka
shake
shakedown
shakespeare
shall
shame
shameless
shane
shang
shanghai
shannon
shape
share
sharing
shark
sharks
sharon
sharp
sharpe
sharpeville
shattered
shaun
shaw
she
sheep
sheet
sheffield
sheila
sheldon
shell
shelley
shelter
shepard
shepherd
shepstone
sheriff
sherlock
sherman
sherwood
shetland
shi
shield
shift
shine
shining
ship
ships
shire
shirley
shiva
sho
shock
shoes
shoot
shooter
shooting
shop
shopping
shore
shores
short
shortcake
shorts
shorty
shot
shots
should
shoulder
show
showcase
showdown
shows
showtime
shrek
shrew
shu
shut
shy
si
sia
siais
siam
siamese
sias
sibbes
sibelius
siberie
siberiese
sic
sich
sichuan
sick
sid
side
sider
sidney
sidon
sidste
sie
sieben
siege
siegfried
siek
siekbed
siekes
siekte
siektes
siel
siele
sieletal
sielkunde
sielkundige
sielkundiges
siemens
sien
siena
siende
siener
siening
sienings
sienswyse
sierlike
sierra
sierras
sif
sig
sigarette
sigbaar
sigbaarheid
sigbare
sight
sigismund
sigma
sigmund
sign
signac
signal
signe
signs
sigoot
sigself
sikliese
siklone
siklus
siklusse
silence
silent
silesie
silhoee
silicon
silika
silikon
silinder
silinders
silindriese
silk
silkaats
silva
silver
silverstone
silvester
silwer
silwerdoek
silwermedalje
sim
simba
simbole
simboliek
simbolies
simboliese
simboliseer
simbolisme
simbool
simeon
simfonie
simfoniee
simfonieorkes
simfoniese
simmetrie
simmetries
simmetriese
simmons
simon
simone
simonstad
simpatie
simpatieke
simple
simplex
simpson
simpsons
simptome
simptoom
simson
sin
sinagoge
sinagoges
sinai
sinatra
sinbad
since
sinchroniese
sinclair
sind
sindroom
sing
singapoer
singapore
singende
singer
singh
singing
single
singles
sings
singulariteit
sinister
sink
sinn
sinne
sinner
sinners
sinodale
sinode
sinodes
sinoniem
sinonieme
sins
sint
sintaksis
sintese
sintetiese
sintuie
sintuiglike
sio
sioux
siprus
sir
sire
siren
sirie
siries
siriese
sirius
sirkel
sirkels
sirkelvormige
sirkulasie
sirkule
sirkus
sis
sisiliaanse
sisilie
sisteem
sistematiese
sisteme
sister
sisters
sisulu
sit
sita
sitcom
site
sites
sitkamer
sitoplasma
sitplek
sitplekke
sitrusvrugte
sittende
sitting
situasie
situasies
situation
siviele
six
sixteen
sixth
sixtus
sixty
size
sizwe
sjah
sjanghai
sjef
sjielings
sjimpansee
sjimpansees
sjina
sjinees
sjinese
sjoa
sjokolade
sjostakowitsj
sk
ska
skaak
skaal
skaaldiere
skaam
skaap
skaar
skaars
skaarste
skade
skadelik
skadelike
skadevergoeding
skadu
skaduwee
skaduwees
skaf
skag
skakel
skakelaar
skakelaars
skakeling
skakels
skakering
skakerings
skale
skalie
skandaal
skande
skandinawie
skandinawiese
skape
skare
skares
skat
skatkis
skatryk
skatte
skatting
skattings
skeba
skedel
skedels
skedule
skeepsbou
skeepswerf
skeepswerwe
skeepswrakke
skeepvaart
skeer
skei
skeiding
skeidsregter
skeidsregters
skelet
skeleton
skelette
skelter
skelton
skema
skemer
skending
skenk
skenker
skenking
skenkings
skep
skepe
skeppende
skepper
skepping
skeptical
skeptici
skepties
skeptiese
skeptisisme
skerm
skerms
skermutseling
skerp
skerpioen
sketch
sketches
skets
sketse
skeur
skeure
skeuring
skeurvallei
ski
skielik
skielike
skiereiland
skies
skiet
skietstilstand
skiettoring
skikking
skil
skild
skilde
skilder
skilderkuns
skilders
skilderwerk
skildery
skilderye
skildhoek
skildhoof
skildklier
skilpaaie
skilpad
skin
skinner
skins
skip
skipbreuk
skipper
skisma
skisofrenie
skitie
skitterende
skoene
skoenlapper
skoenlappers
skok
skole
skoliere
skone
skool
skoolgaan
skoolgebou
skoolgegaan
skoolhoof
skooljaar
skoolkinders
skoollied
skoolloopbaan
skoolopleiding
skoolraad
skoon
skoongemaak
skoonheid
skoonmaak
skoonseun
skoonvader
skoot
skop
skorsing
skote
skotland
skots
skotse
skotte
skou
skouer
skouers
skouspel
skouspelagtige
skraal
skree
skriba
skrif
skriflig
skrifte
skriftelike
skrik
skrikkeljaar
skrikkeljare
skroef
skroewe
skrum
skryf
skryfkuns
skryfstelsel
skryfstelsels
skryfster
skryfstyl
skryftaal
skryfwerk
skryfwyse
skrywe
skrywer
skrywers
skrywersalbum
skrywersgilde
skrywerskring
skrywes
sku
skubbe
skud
skuif
skuil
skuiling
skuilnaam
skuilname
skuilplek
skuim
skuins
skuld
skuldig
skuldige
skuldlas
skull
skulp
skulpe
skuur
sky
skyf
skyfies
skyn
skynbaar
skynbare
skynsel
skywe
sl
slaaf
slaag
slaags
slaan
slaap
slaapkamer
slabbert
slade
slae
slag
slagoffer
slagoffers
slagskepe
slagskip
slagspreuk
slagtande
slagting
slagveld
slak
slakke
slam
slang
slange
slank
slanke
slap
slapende
slater
slaughter
slave
slavery
slaves
slavin
slawe
slawehandel
slawerny
slawie
slawies
slawiese
slayer
slee
sleep
sleeping
sleepover
sleeps
sleepy
sleeswyk
sleg
slegs
slegte
sleutel
sleutelbord
sleutelrol
sleutels
slide
slightly
slik
slim
slinger
sloane
sloping
slot
slotsom
slotte
slow
slowaaks
slowaakse
slowakye
slowenie
sluier
sluipmoord
sluipmoordaanval
sluise
sluit
sluiting
sluk
slukderm
sluts
slym
slymvlies
sm
smaak
smal
small
smaller
smallville
smarag
smart
smash
sme
smee
smell
smelt
smeltpunt
smile
smiling
smit
smith
smithfield
smithsonian
smoke
smoking
smoky
smolensk
sms
smurfs
smuts
sn
snaaks
snags
snake
snakes
snare
snawel
snawels
sneak
sneeu
sneeuval
snel
snelhede
snelheid
snelle
sneller
snelwee
snelweg
sneuwel
snijman
sniper
snit
snitte
snoet
snoop
snor
snow
snv
sny
snyman
so
soap
soccer
social
socialist
socie
societies
society
soda
sodanig
sodanige
sodat
sodiak
sodoende
sodra
soedan
soek
soeke
soektog
soen
soenda
soera
soest
soet
soewerein
soewereine
soewereiniteit
soezdal
sofia
soft
softly
software
sogenaamde
soggens
sohn
soho
soi
soir
sojoes
sokker
sokkerafdeling
sokkerkampioenskap
sokkerklub
sokkerklubs
sokkerliga
sokkerspan
sokkerspanne
sokkerspeler
sokkerspelers
sokkerstadions
sokkies
sokrates
sol
solank
solar
sold
soldaat
soldate
solder
soldier
soldiers
sole
soleer
soleerde
soleil
solidariteit
soliede
solis
soliste
sollas
solo
solomon
solzhenitsyn
som
somalie
somaliese
somaliland
somber
some
somebody
someone
somer
somermaande
somers
somerset
somerspele
somertyd
something
sometimes
somewhere
somme
sommer
sommige
sommiges
soms
somtyds
son
sonata
sonate
sonates
sond
sondae
sondag
sondagkoerant
sondagskool
sonde
sonder
sondes
sone
sonenergie
sones
song
songod
songs
songz
sonic
sonja
sonlig
sonmassas
sonne
sonnebaan
sonnestelsel
sonnet
sonnette
sonnige
sonny
sononder
sonop
sonora
sonpanele
sons
sonskyn
sonsondergang
sonsopkoms
sonstraling
sonsverduistering
sonwind
sony
soo
soogdier
soogdiere
soon
soort
soorte
soortgelyk
soortgelyke
soos
sop
sophia
sophie
sophokles
sopraan
sopranos
sorbonne
sorcerer
sorg
sorghum
sorgvuldig
soria
sorority
sorry
sos
soseer
sosiaal
sosiale
sosialisme
sosialiste
sosialistiese
sosio
sosiologie
sosiologiese
sosioloog
sotho
sou
soul
souls
sound
sounds
soup
source
sources
souropodes
sous
sout
soute
soutgehalte
south
southafrica
southampton
southern
southland
southwest
soutpansberg
soutrivier
soutsuur
soutwater
souvenir
soveel
sover
soviet
sowat
sowel
soweto
sowjet
sowjetrepubliek
sowjets
sowjetse
sowjetunie
sp
spa
spaans
spaanse
spaar
space
spaghetti
spain
span
spandeer
spanish
spanjaarde
spanje
spanmaat
spanne
spannende
spanning
spanninge
spannings
spanningsverhaal
spare
spark
sparks
sparrow
sparta
spartaanse
spartacus
spasie
spasies
spat
spatalla
spd
speak
speaker
speaking
speaks
spears
special
specials
species
spectacular
speech
speed
speeksel
speel
speelgoed
speelse
speke
spektra
spektraaltipe
spektroskopie
spektroskopiese
spektrum
spekulasie
spekulatiewe
spel
spele
speler
spelers
spelerstatistieke
speletjie
speletjies
spell
spelling
spelree
spencer
sperm
sperma
speserye
spesiaal
spesiale
spesialis
spesialiseer
spesialiste
spesialiteite
spesie
spesies
spesifiek
spesifieke
spesifikasie
spesifikasies
spesifiseer
speurder
speurverhaal
sphinx
spice
spider
spiee
spiegel
spiel
spielberg
spier
spiere
spierwit
spies
spiese
spike
spikkels
spikula
spil
spilmoondhede
spilpunt
spin
spinnekop
spinnekoppe
spinosa
spinoza
spioen
spioenasie
spioene
spiraal
spiraalarms
spiraalstelsels
spiral
spirale
spirit
spirits
spiritualiteit
spirituele
spit
spitfire
spits
spitsberaad
spitzer
splash
splendid
split
splitsing
spoed
spoedig
spoel
spoelstra
spoetnik
spog
spoilers
spoke
spongebob
spongillidae
sponginevesels
spons
sponsdiere
sponse
sponsspesie
spontaan
spontane
spook
spoon
spoor
spoorlyn
spoorlyne
spoornetwerk
spoorvervoer
spoorwee
spoorweg
spoorwegmaatskappy
spoorwegstasie
sporadies
sporadiese
spore
sport
sporte
sporting
sportklub
sportlui
sports
sportsoort
sportsoorte
spot
spotlight
spp
spraak
sprache
sprake
spree
spreek
spreektaal
sprekende
spreker
sprekers
spreuke
spring
springbok
springbokboeke
springbokkaptein
springbokke
springbokrugbyspeler
springbokrugbyspelers
springer
springfield
springs
springtime
sprinkane
sprokie
sprokies
sprong
spruit
spruite
spuit
spur
spurs
spuy
spy
spyker
spysverteringskanaal
spysverteringstelsel
spyt
spyte
sqrt
squad
squadron
square
squares
squaw
squirrel
squirt
sr
sri
ss
sse
sseldorf
ssr
st
sta
staaf
staak
staal
staan
staande
staanspoor
staar
staat
staatgemaak
staatkundige
staatmaak
staats
staatsamptenaar
staatsamptenare
staatsbeheerde
staatsbesit
staatsdiens
staatsekretaris
staatsgebied
staatsgodsdiens
staatsgreep
staatsgrepe
staatshoof
staatshoofde
staatskerk
staatsman
staatsopera
staatspresident
staatsraad
staatsteater
staatsuniversiteit
staatsvlag
staatsvorm
stabiel
stabiele
stabiliseer
stabiliteit
stacey
stad
stade
staden
stadhouer
stadhuis
stadia
stadig
stadigaan
stadige
stadiger
stadion
stadions
stadium
stadiums
stadsaal
stadsbeplanning
stadsbewoners
stadsbuurt
stadsbuurte
stadsdeel
stadsdele
stadsentrum
stadsgebied
stadshorison
stadskern
stadslewe
stadsmure
stadsmuur
stadsraad
stadsregering
stadstaat
stadstate
stadstatus
stadswyk
stadt
staf
staff
stafhoof
stafies
stage
stagecoach
staircase
stake
stakers
staking
stakings
stal
stalin
stalingrad
stalinistiese
stalker
stallion
stals
stam
stamboom
stamhoofde
stamme
stamp
stampede
stampvol
stamselle
stamvader
stan
stand
standaard
standaarde
standaardisering
standaardmodel
standaardtaal
standaardtyd
standard
standards
standbeeld
standbeelde
stande
stander
standerd
standerton
standhoudende
standing
standplaas
standplase
standpunt
standpunte
standvoe
stanford
stanhope
stanley
stanton
stap
stapel
stapelvoedsel
stappe
star
stardust
stargate
stark
starlight
starr
starring
stars
starship
start
started
starting
stasie
stasies
stat
state
statebond
statebondspele
statebybel
staten
states
statiese
statige
station
statistics
statistiek
statistieke
statistiese
status
statute
statuut
stay
ste
steal
stealing
steam
stede
stedelike
steeds
steek
steel
steele
steen
steenberg
steenbok
steenkamp
steenkool
steenkoolmyne
steenselle
steentydperk
stefan
stefano
stefanus
stegmann
steil
stein
steinberg
stekels
stel
stele
stella
stellaland
stelle
stellenbosch
stellenboschwriters
stellenbosse
stelling
stellings
stelsel
stelselmatig
stelselmatige
stelsels
stem
stemgeregtigdes
stemme
stemming
stempel
stempersentasie
stemreg
stene
step
stepford
stephan
stephanie
stephanus
stephen
stephens
stephenson
steppe
stepping
steps
ster
stereo
stereotipes
sterf
sterfbed
sterfgevalle
sterflike
sterfte
sterftes
sterftesyfer
sterk
sterke
sterker
sterkste
sterkstroom
sterkte
sterling
stern
sterna
sterne
sterre
sterrebeeld
sterrebeelde
sterreklassifikasie
sterrekunde
sterrekundige
sterrekundiges
sterrestelsel
sterrestelsels
sterrestelselswerm
sterreswerm
sterreswerms
sterrewag
stert
sterte
stertvin
stervorming
sterwe
sterwende
steun
steuring
steurings
steve
steven
stevens
stevenson
stewart
stewig
stewige
steyn
steynsburg
steytler
steytlerville
stichting
stick
sties
stiese
stiff
stig
stigma
stigter
stigters
stigterslede
stigterslid
stigting
stigtingsdatum
stikstof
stil
stilbaai
still
stille
stiller
stillewe
stillewes
stilstaande
stilstand
stilte
stimulasie
stimuleer
stimuli
stimulus
sting
stingel
stingels
stirling
stitch
sto
stock
stockenstro
stockholm
stoei
stoel
stoele
stoep
stof
stofberg
stoffberg
stoffel
stoflike
stogastiese
stoi
stok
stoker
stokke
stokowski
stokperdjie
stol
stole
stolen
stomp
stone
stones
stonewall
stooges
stoom
stoomenjin
stoomlokomotief
stoomlokomotiewe
stoor
stoot
stop
stopgesit
store
storie
storielyn
stories
storieverteller
storiewerf
stork
storm
stormagtige
stormers
storms
stormvoe
stormy
stort
storting
story
stoute
stowwe
straal
straat
straatsburg
strabo
strachan
stradivari
stradivarius
straf
straight
strain
strale
straling
stralsund
strand
strande
stranded
strandmeer
strandmere
strange
stranger
strangers
strangler
strate
strategic
strategie
strategiee
strategies
strategiese
strategy
stratford
strauss
straw
strawberry
strawinski
strawwe
straße
streak
stream
streef
streek
streeks
streeksroete
streeksroetes
streep
street
streets
strek
streke
strekking
streng
strenger
strength
strepe
strepies
stres
stretch
strewe
strictly
strijdom
strike
strikes
string
stringe
strings
strip
stripes
strofe
stroke
strokiesprent
strokiesprente
strome
stroming
strominge
strong
stronger
strooi
strook
stroom
stroomaf
stroombaan
stroombane
stroomop
stroomversnellings
stroop
strooptogte
stroud
struck
structure
struggle
struik
struike
struikelblok
struikelblokke
strukturalisme
strukture
strukturele
struktuur
strumaria
stry
stryd
strydenburg
strydende
strydom
strydwa
stryk
strykinstrumente
strykkwartet
strykkwartette
sts
stu
stuart
stuck
studeer
student
studente
studentejare
studenteraad
studentevereniging
students
studie
studies
studieveld
studio
studios
study
stuff
stuifmeel
stuit
stuk
stukke
stukkend
stukkie
stukkies
stukrag
stunde
stunt
stunts
stupid
sturm
stut
stuttgart
stuur
stuurman
styf
styg
stygende
styging
styl
style
stylelemente
stysel
stywe
su
sub
subatomiese
suberitidae
subfamilie
subfamilies
subgroep
subjektiewe
subklas
subkontinent
submarine
suborde
subpopulasies
subsidies
subsp
subspesie
subspesies
substansie
substitute
substraat
subtiel
subtiele
subtitel
subtropiese
suburban
suburbia
subway
success
such
suck
sud
sudan
sudden
suddenly
sue
suetonius
suez
suezkanaal
sugar
sugarbush
suggereer
suggestie
sui
suicide
suid
suide
suideiland
suidekant
suidelike
suidelikste
suider
suiderkruis
suidkus
suidoos
suidooste
suidoostelike
suidpool
suidpunt
suidwaarts
suidwes
suidweste
suidwestelike
suier
suig
suiker
suikerriet
suikers
suile
suisse
suit
suite
suiwelprodukte
suiwer
suiwerheid
suiwering
suk
sukkel
sukkulente
sukovs
sukses
suksesse
suksesvol
suksesvolle
suksesvolste
sul
sulke
sulks
sulla
sullivan
sultan
sultanaat
sultans
sum
sumatra
sumer
sumerie
sumeries
sumeriese
summary
summer
summers
summertime
summier
summit
sun
sundance
sunday
sundown
sunny
sunnyside
sunrise
sunset
sunshine
super
superfamilie
supergirl
supergroep
superintendent
superior
superkontinent
superman
supermassiewe
supernatural
supernova
supernovas
superrugby
supersoniese
supersport
superstar
superstars
superswerm
supplement
support
supra
supreme
sur
sure
surf
surface
suriname
surprise
surrealisme
surrealistiese
surrender
surrey
survey
surveyor
survival
survive
surviving
survivor
survivors
sus
susan
susanna
susanne
susie
suspect
suspense
suspicion
sussex
sussie
suster
susters
susterstede
sutherland
sutton
suur
suurstof
suzanne
suzman
suzuki
sv
svalbard
sve
sven
svg
swaai
swaan
swaar
swaard
swaarde
swaarder
swaarkry
swaarste
swaartekrag
swaartepunt
swael
swaelsuur
swaer
swahili
swak
swakhede
swakheid
swakker
swakopmund
swakste
swallow
swam
swamme
swamp
swan
swanepoel
swanger
swangerskap
swapo
swart
swartberg
swartberge
swartes
swartkolk
swartkolke
swartland
swartmense
swartruggens
swartsee
swartwoud
swastika
swawel
swazi
swaziland
swede
sweden
swedish
sweeds
sweedse
sweef
sweeftuig
sweeney
sweep
sweer
sweet
sweetheart
sweethearts
swellendam
swelling
swem
swembad
swemmer
swemmers
swerm
swerms
swerwer
swift
swim
swimming
swing
swinging
swiss
switch
switserland
switsers
switserse
sword
sy
sycon
sydney
sye
syfer
syfers
sykes
sylvia
sylyn
symbols
symphonie
symphony
symposium
syn
sync
synde
syndrome
syne
syracuse
syria
syroete
system
systems
sytak
sytakke
sz
szigeti
szila
t
ta
taai
taak
taal
taalbeleid
taalbeweging
taalfamilie
taalfamilies
taalgebied
taalgebruik
taalgenoot
taalgroep
taalkommissie
taalkunde
taalkundige
taalkundiges
taalmonument
taalraad
taalstryder
taamlik
taamlike
tab
tabachnick
tabak
tabel
tabelle
table
tablet
tablette
taboe
taboo
tacitus
tadeusz
tadjikistan
tafel
tafelbaai
tafelberg
tafels
tafeltennis
tag
tage
tagebuch
tagtig
tagtigerjare
tahiti
tai
tail
tailor
tails
taipei
tait
taiwan
tak
take
taken
takes
taking
takke
takkies
takrivier
takson
taksonomie
taksonomiese
taktiek
taktiese
tal
talbot
tale
talent
talente
talentvolle
tales
taliban
talk
talking
talks
tall
talle
tallinn
tallose
talmoed
talryke
tamara
tamaties
tambo
tamboerskloof
tamil
taming
tammy
tan
tand
tandbederf
tande
tang
tanganjika
tangier
tangled
tango
tanita
tank
tankwa
tanner
tannie
tans
tant
tante
tanzanie
tao
taoi
tap
tape
tapes
tapyte
tara
target
tariewe
tarkastad
tartare
tarzan
tas
tasbare
taschenbuch
taskaup
tasmanie
taste
tat
tatare
tate
tatoee
tatoes
tatort
tattoo
tau
taunus
taurus
taxa
taxdetails
taxi
taxon
taylor
tb
tbilisi
tc
te
tea
teacher
teachers
teaching
team
teams
tears
teater
teaters
teatro
teau
tebaldi
tech
technical
technikon
technique
techno
technology
ted
teddy
tee
teel
teen
teenaan
teenaanval
teenage
teengestaan
teenkanting
teenoor
teenoorgestelde
teenoorstaande
teenpous
teens
teenstaan
teenstand
teenstander
teenstanders
teenstelling
teenstellings
teenstrydig
teenstrydige
teenstrydighede
teenstrydigheid
teenswoordig
teenswoordige
teenvoeter
teenwoordig
teenwoordige
teenwoordigheid
teer
teeth
tegelyk
tegelykertyd
tegemoet
tegen
tegnesium
tegniek
tegnieke
tegnies
tegniese
tegnologie
tegnologiee
tegnologiese
teheran
tehuis
tei
teiken
teikens
teil
teit
teite
teken
tekenaar
tekening
tekeninge
tekens
tekort
tekorte
tekortkominge
teks
tekste
tekstiel
tekstielbedryf
tekstiele
tekstuur
tektoniese
tel
telefoon
telegraaf
telegram
telegraph
telekommunikasie
telephone
telescope
teleskoop
teleskope
telethon
teleurgesteld
teleurstellend
teleurstellende
teleurstelling
televisie
televisiekanale
televisieprogram
televisieprogramme
televisiereeks
televisiereekse
televisierolprente
television
teling
telkens
tell
teller
telling
tellings
tema
temas
tematiek
tematiese
temoedjin
tempel
tempelhof
tempels
tempera
temperament
temperature
temperatuur
tempest
temple
tempo
temporary
temps
temptation
temu
ten
tendens
tendense
tender
tenders
tenerife
tenk
tenks
tenminste
tennessee
tennis
tennisspeler
teno
tenoor
tense
tensy
tent
tentakels
tente
tenth
tentoonstelling
teoloe
teologie
teologiese
teoloog
teoretici
teoreties
teoretiese
teoretikus
teorie
teoriee
ter
terapeutiese
terapie
terblanche
tereg
tereggestel
teregstelling
teregstellings
terence
teresa
term
terme
termiese
termiete
terminaal
terminal
terminale
terminator
terminologie
termodinamiese
termodinamika
terms
termyn
termyne
teropodes
terra
terracotta
terras
terrasse
terre
terrein
terreine
terreur
terrible
territoriale
territory
terror
terrorisme
terroriste
terry
terselfdertyd
tersie
terug
terugbesorg
terugdateer
terugflitse
teruggaan
teruggebring
teruggedryf
teruggee
teruggegee
teruggekeer
teruggekom
teruggekry
teruggeneem
teruggeroep
teruggesak
teruggestuur
teruggetrek
teruggeval
teruggevoer
terugkeer
terugkerende
terugkom
terugkoms
terugreis
terugslae
terugslag
terugtog
terugtrek
terugval
terugvoer
terwyl
tes
tesame
tesis
tesla
tesourie
tesourier
tess
tessa
test
testament
testamentiese
testes
testikels
tetillidae
tetis
tetrae
teufel
tevergeefs
tevore
tevrede
teweeg
teweegbring
teweeggebring
tewens
tex
texan
texas
text
texts
th
tha
thaba
thabazimbi
thabo
thai
thailand
thaise
thames
than
thank
thanks
thanksgiving
that
thatcher
the
thea
theater
theatre
thebe
thee
their
thelma
them
thema
then
theo
theodor
theodora
theodore
theodorus
theodosius
theological
theophilus
theory
therapy
theravada
there
theresa
theron
these
theta
theunis
theunissen
theuns
they
thibault
thief
thiele
thieves
thin
thing
things
think
thinking
third
thirteen
thirteenth
thirty
this
thom
thomas
thompson
thomson
thor
thorn
thornton
those
thou
thought
thoughts
thousand
thread
threads
threat
three
thrill
thriller
throat
thrones
through
thru
thu
thukydides
thumb
thunb
thunberg
thunder
thunderbirds
thunderbolt
thundering
thursday
thy
thys
ti
tiananmen
tianjin
tiber
tiberius
tibet
tibettaanse
tica
tick
ticket
tide
tie
tien
tiende
tiendes
tienduisende
tiener
tienerjare
tieners
tienie
tienjarige
tienne
tientalle
tier
tiere
ties
tiese
tiffany
tiger
tigers
tight
tigray
tigris
tijd
tijdschrift
tik
tikmasjien
til
till
tillie
tim
timber
timberlake
timboektoe
time
timeless
timeline
times
timmerman
timmins
timon
timor
timothy
tin
tina
tinker
tiny
tip
tipe
tipes
tipies
tipiese
tiran
tirannie
tiriese
tirol
tirus
tis
tit
titaan
titan
titane
titanic
titans
titel
titelkerk
titelrol
titels
titelverhaal
title
tito
tits
titule
titus
tj
tjaart
tjellis
tjello
tjie
tnam
tnamees
tnamese
tnamoorlog
tnt
to
toast
tobacco
tobago
tobias
tobie
toby
tochter
tod
today
todd
todes
toe
toediening
toedoen
toegang
toeganklik
toeganklike
toegedien
toegee
toegegee
toegeken
toegelaat
toegele
toegemaak
toegeneem
toegepas
toegepaste
toegerus
toegese
toegeskryf
toegespits
toegespreek
toegestaan
toegetree
toegevoeg
toegewings
toegewy
toegewyde
toegewys
toeken
toekenning
toekennings
toekenningsaand
toekoms
toekomstige
toelaat
toelating
toen
toenadering
toename
toendra
toeneem
toenemend
toenemende
toenmalige
toepas
toepaslike
toepassing
toepassings
toepolef
toer
toere
toerien
toerisme
toerismebedryf
toeriste
toeristebestemming
toernooi
toernooie
toerusting
toesig
toeskouers
toespits
toespraak
toesprake
toestaan
toestand
toestande
toestel
toestelle
toestemming
toetankamen
toetmoses
toetrede
toetreding
toets
toetse
toetsing
toetskrieket
toetsreeks
toetsstatus
toetswedstryd
toetswedstryde
toeval
toevallig
toevallige
toevertrou
toevlug
toevlugsoord
toevoeging
toevoegings
toevoer
toewyding
toewysing
tog
toga
together
togo
toi
toilet
toit
tokio
tokyo
tol
tolbosse
told
toledo
tolk
tolkien
toll
tolle
tolstoi
tom
tomahawk
tomas
tomato
tomatoes
tomb
tombe
tombstone
tome
tomlinson
tommaso
tommy
tomorrow
ton
tonder
tone
toneel
toneelgeselskap
toneelspel
toneelstuk
toneelstukke
tonele
tong
tonga
tongue
tongues
toni
tonight
tonnel
tonnels
tony
too
tooi
took
toon
toonaangewende
toonaard
toonhoogte
toonleer
toonsetting
toonsettings
top
topografie
topografiese
toppdoma
toppunt
topsent
topverkoper
tor
tora
torch
tori
toring
torings
torn
tornado
toro
toronto
torpedo
torpedojaers
torque
torre
torres
torso
torun
tosca
toscanini
toskaanse
toskane
tot
totaal
total
totale
totalite
totally
totdat
tote
toten
totius
totstandkoming
tou
touch
touched
toue
tough
toulouse
tour
tourism
tourist
tournament
tours
tout
toward
towards
towenaar
towenaars
tower
towers
town
townsend
township
townships
toy
toyland
toyota
toys
tr
tra
trace
tracey
trachyandra
track
tracks
tracy
trade
trading
tradisie
tradisies
tradisioneel
tradisionele
tradition
traditional
traffic
tragedie
tragedies
tragedy
tragies
tragiese
trago
trail
trailer
trails
train
training
traitor
trajanus
trajek
traktement
tramp
trane
trans
transaksie
transaksies
transatlantiese
transformasie
transformation
transformeer
transformers
transgender
transistor
transistors
transit
transition
transkei
transkripsie
translated
translation
translations
transliterasie
transmissie
transnet
transparent
transport
transsilvanie
transvaal
transvaalse
transvaler
transvalers
trant
trap
trappe
trapped
trash
traum
trauma
traumatiese
travel
traveler
traveling
travels
tre
treason
treasure
treasures
treat
treatment
tred
tree
trees
treetags
tref
treffend
treffende
treffer
treffers
tregardt
trein
treine
treinstasie
trek
trekboere
trekke
trekkers
trekpleister
trekvoe
trems
trends
trent
trente
tres
treviso
trevor
trey
tri
trial
trials
triangle
trias
tribe
tribunaal
tribune
tribute
trichardt
trick
tricks
trier
trigger
trillings
trilogie
trilogy
trinidad
trinity
trio
triomf
trip
triple
tripoli
triptofaan
tristan
triton
tritonia
tritoniopsis
triumph
trivia
tro
troepe
troeteldiere
trofee
trog
trois
trojaanse
trojane
troje
trom
tromme
trompet
trompie
tromspeler
tronk
tronke
tronkstraf
troon
troonbestyging
troonopvolger
troonopvolging
troop
trooper
troopers
troops
troos
trop
trope
tropic
tropical
tropiese
troppe
trosse
trots
trotse
trotseer
trotsky
trou
trouble
troubles
troue
trouens
troues
troy
tru
truck
true
trui
truie
truk
truman
trump
trumpet
trust
trustees
truter
truth
try
trying
ts
tsaar
tsaristiese
tsel
tshwane
tsjad
tsjagatai
tsjaikofski
tsjechof
tsjeggie
tsjeggies
tsjeggiese
tsjeggo
tsjetsjnie
tsjetsjniese
tsjikatilo
tsoenami
tsonga
tswana
tt
tte
tter
ttingen
ttir
tu
tuberkulose
tucker
tucson
tudes
tudor
tuesday
tugela
tugelarivier
tuie
tuig
tuin
tuine
tuinplante
tuinroete
tuis
tuisblad
tuisdorp
tuisland
tuislande
tuisnasies
tuisstadion
tuiste
tuisveld
tuiswedstryd
tuiswedstryde
tulbagh
tulbaghia
tuna
tune
tunes
tunisie
tunnel
turbine
turbines
turbo
turboskroef
turdus
turf
turffontein
turing
turke
turkey
turkish
turkmenistan
turks
turkse
turkye
turn
turner
turning
turns
turtle
turtles
turyn
tus
tussen
tussenbeide
tussenin
tussenposes
tussentyd
tussentydse
tussenverkiesing
tutu
tuvalu
tv
tvl
twaalf
twaalfde
twaalfjarige
twain
twee
tweede
tweedens
tweedimensionele
tweehonderd
tweeledige
tweeling
tweemotorige
tweeslagtig
tweetalig
tweetalige
twelfth
twelve
twente
twentieth
twenty
twer
twice
twickenham
twilight
twin
twins
twintig
twintigerjare
twintigste
twis
twist
twisted
twitter
two
twyfel
twyfelagtige
txt
ty
tyd
tyde
tydelik
tydelike
tydens
tydgenoot
tydgenote
tydjie
tydlyn
tydperk
tydperke
tydren
tydsduur
tydskaal
tydskrif
tydskrifte
tydskriftemaatskappy
tydsnede
tydsone
tydsones
tydstip
tydvak
tye
tygerberg
tyler
type
tz
tzaneen
tzler
u
ua
ubuntu
uca
ud
udf
uefa
uffizi
ufo
uganda
ugie
ugly
ui
uie
uil
uile
uit
uitbarsting
uitbarstings
uitbeeld
uitbeelding
uitbeeldings
uitbetaal
uitbou
uitbraak
uitbreek
uitbrei
uitbreiding
uitbreidings
uitbroei
uitbuiting
uitdagende
uitdaging
uitdagings
uitdruk
uitdrukking
uitdrukkings
uitdruklik
uitdying
uiteen
uiteengesit
uiteenlopend
uiteenlopende
uiteensetting
uiteensit
uiteindelik
uiteindelike
uitenhage
uiteraard
uiterlike
uiters
uiterste
uiterstes
uitg
uitgaan
uitgang
uitgange
uitgangspunt
uitgawe
uitgawes
uitgebars
uitgebeeld
uitgeblink
uitgebou
uitgeboul
uitgebragte
uitgebreek
uitgebrei
uitgebreid
uitgebreide
uitgebring
uitgebroei
uitgebuit
uitgedaag
uitgedeel
uitgedien
uitgedink
uitgedraf
uitgedruk
uitgee
uitgegaan
uitgegee
uitgegrawe
uitgehaal
uitgeken
uitgekerf
uitgekom
uitgelaat
uitgele
uitgelewer
uitgelig
uitgelok
uitgeloop
uitgemaak
uitgenooi
uitgeoefen
uitgeput
uitgereik
uitgerekte
uitgeroei
uitgeroep
uitgeruil
uitgesaai
uitgesien
uitgesit
uitgeskakel
uitgeskei
uitgeskryf
uitgesluit
uitgesoekte
uitgesonder
uitgespeel
uitgespreek
uitgesproke
uitgestal
uitgesteek
uitgestel
uitgesterf
uitgestorwe
uitgestraal
uitgestrek
uitgestrekte
uitgestuur
uitgetree
uitgetrek
uitgevaardig
uitgeverij
uitgevers
uitgevind
uitgevoer
uitgewer
uitgewerk
uitgewers
uitgewersbedryf
uitgewery
uitgewis
uitgewyk
uitgewys
uitgrawings
uitheemse
uithouvermoe
uiting
uitklopfase
uitklopformaat
uitkom
uitkoms
uitkomste
uitkyk
uitlaat
uitlaatgasse
uitlanders
uitlatings
uitleg
uitloop
uitloper
uitlopers
uitmaak
uitmekaar
uitmond
uitmuntende
uitnemende
uitnemendheid
uitnodiging
uitoefen
uitoorle
uitputting
uitreik
uitreiking
uitroep
uitruil
uitruiling
uitrusting
uitsaai
uitsaaier
uitsaaikorporasie
uitsending
uitsendings
uitset
uitsetting
uitsien
uitsig
uitsit
uitskakel
uitskakeling
uitslae
uitslag
uitsluit
uitsluitend
uitsluiting
uitsluitlik
uitsluitlike
uitsondering
uitsonderings
uitsonderlik
uitsonderlike
uitspeelwedstryd
uitspeelwedstryde
uitspraak
uitsprake
uitspreek
uitstaan
uitstaande
uitstalling
uitstallings
uitsteek
uitsteeksels
uitstek
uitstekend
uitstekende
uitstel
uitsterf
uitsterwing
uitstraal
uitstraling
uittog
uittrede
uittreksel
uittreksels
uitverkoop
uitvind
uitvinder
uitvinders
uitvinding
uitvindings
uitvloei
uitvloeisel
uitvoer
uitvoerder
uitvoere
uitvoerende
uitvoerig
uitvoerige
uitvoering
uitvoerings
uitweg
uitwendige
uitwerking
uitwerkings
uitwissing
uk
ukraine
ulein
uli
ulrich
ulster
ultimate
ultimatum
ultra
ultraviolet
ulysses
um
umberto
ume
umea
umkhanyakude
umkhonto
un
una
unauthorized
unbreakable
uncensored
unchained
uncle
und
under
undercover
underdog
underground
understanding
underwater
underwood
underworld
une
unesco
unexpected
unfinished
unforgettable
unholy
unicode
unicorn
unie
uniegebou
uniek
unieke
unies
unievlag
uniewording
uniform
uniforms
uninvited
union
uniondale
unioniste
unionisteparty
unisa
unit
unita
unite
united
univ
universal
universe
universeel
universele
universita
universite
universiteit
universiteite
universiteitskollege
university
unix
unknown
unleashed
unlimited
unmarried
uns
unseen
unser
unsere
untamed
unter
until
untitled
unto
untold
up
update
upington
upon
upper
uppsala
upright
uprising
ups
upside
upstairs
ur
uraan
uranus
urban
urbanus
ure
ureum
urien
urine
uriz
url
urn
ursula
uruguaanse
uruguay
uruk
us
usa
usb
use
used
user
usher
using
usm
uss
ussr
ut
uta
utah
utc
ute
utopia
utrecht
uttam
uttar
uur
uv
uw
uwe
uys
v
va
vaag
vaal
vaalrivier
vaandel
vaandels
vaar
vaardig
vaardige
vaardighede
vaardigheid
vaart
vaartuie
vaartuig
vaarwel
vaas
vacation
vacelet
vader
vaderland
vaders
vaderskant
vae
vagabond
vagina
vaginale
vak
vakansie
vakansiedae
vakansiedag
vakansieoord
vakansies
vakant
vakature
vakbond
vakbonde
vakgebied
vakgebiede
vakke
vakkundige
vakmanne
vakuum
val
valda
vale
valencia
valentin
valentine
valerie
valhalla
valiant
valk
valke
valle
vallei
valleie
valley
valois
valor
vals
valsbaai
valse
value
values
valuta
valve
vampier
vampiere
vampire
vampires
van
vanaf
vance
vancouver
vandaan
vandaar
vandag
vandale
vandat
vanderbijlpark
vanessa
vang
vanger
vanguard
vanishing
vanities
vanity
vanne
vanrhynsdorp
vanself
vanselfsprekend
vantevore
vanuatu
vanuit
vanwaar
vanwee
var
variant
variante
variasie
variasies
varie
varieer
variety
varings
vark
varke
varkvleis
vars
varswater
varswatervis
varus
vas
vasari
vasberade
vasbeslote
vasco
vase
vasgebind
vasgeheg
vasgehou
vasgekeer
vasgele
vasgemaak
vasgestel
vasgestelde
vasgevang
vashou
vasseur
vasstel
vasstelling
vaste
vasteland
vastelande
vastelandse
vastestof
vastestowwe
vastrapplek
vat
vatbaar
vate
vater
vatikaan
vatikaanse
vatikaanstad
vaudan
vaughan
vault
vb
vc
ve
vec
ved
vedanta
vedas
vedder
vediese
vee
veeboerdery
veeboere
veel
veeldoelige
veeleisende
veelrassige
veelsydige
veelvoudige
veelvuldige
veen
veenemans
veep
veer
veerboot
veertien
veertiende
veertienjarige
veertig
veertigerjare
veeteelt
veevoer
veg
vega
vegas
vegter
vegters
vegvliee
vegvliegtuie
vegvliegtuig
veil
veilig
veilige
veiliger
veiligheid
veiligheidsmagte
veiligheidspolisie
veiligheidsraad
veiling
vein
vel
vela
veld
veldbrande
velde
velden
veldkornet
veldmaarskalk
veldslae
veldslag
veldtog
veldtogte
vele
velkleur
velle
velociraptor
velocity
velvet
venables
venda
vendetta
venesiaanse
venesie
venesiese
veneto
venezia
venezuela
vengeance
venice
vennoot
vennootskap
vennote
venster
vensters
vent
venter
ventersburg
ventersdorp
venterstad
venture
venus
vepris
ver
vera
verafgelee
veral
verander
veranderde
veranderende
verandering
veranderinge
veranderings
veranderlike
veranderlikes
veranderlikheid
verantwoordelik
verantwoordelike
verantwoordelikhede
verantwoordelikheid
verantwoording
verarmde
veras
verbaas
verbale
verban
verband
verbande
verbanning
verbasend
verbasing
verbastering
verbeel
verbeelding
verberg
verbeter
verbeterde
verbetering
verbeteringe
verbeterings
verbi
verbied
verbind
verbinding
verbindings
verbintenis
verbintenisse
verblyf
verbod
verbode
verbond
verbonde
verborge
verbou
verbouing
verbrand
verbranding
verbreed
verbreek
verbrokkel
verbrokkeling
verbruik
verbruiker
verbruikers
verbruikersgoedere
verby
verbybeweeg
verbygaan
verbygaande
verbygesteek
verbyvlug
verdagte
verdagtes
verdamp
verdamping
verde
verdedig
verdedigende
verdediger
verdedigers
verdediging
verdeel
verdeeld
verdeelde
verdeeldheid
verdeling
verden
verder
verdere
verdi
verdict
verdien
verdienste
verdiep
verdieping
verdiepings
verdink
verdra
verdraagsaamheid
verdrae
verdrag
verdriet
verdring
verdrink
verdryf
verdubbel
verduidelik
verduideliking
verduidelikings
verduister
verduistering
verdun
verdunde
verduur
verdwyn
verdwyning
vere
vereeniging
vereenselwig
vereenvoudig
vereenvoudigde
vereer
vereis
vereiste
vereistes
verengels
verengelsing
verenig
verenigde
vereniging
verenigings
vererger
verering
verf
verfilm
verfilming
verfyn
verfynde
verfyning
verg
vergaan
vergader
vergadering
vergaderings
verganklikheid
vergasser
vergeefs
vergeefse
vergeet
vergelding
vergelegen
vergeleke
vergelyk
vergelykbaar
vergelykbare
vergelykende
vergelyking
vergelykings
vergemaklik
vergesel
vergete
vergetelheid
vergewe
vergifnis
vergiftig
vergiftiging
vergilius
vergoed
vergoeding
vergroei
vergroot
vergrote
vergroting
vergulde
verhaal
verhale
verhalen
verhalende
verhandel
verhandeling
verhard
verhef
verheug
verhewe
verhinder
verhit
verhitting
verhoed
verhoging
verhoog
verhoogde
verhoognaam
verhoor
verhore
verhouding
verhoudinge
verhoudings
verhuis
verhuising
verhuur
verjaag
verjaardag
verjaarsdag
verkeer
verkeerd
verkeerde
verkeerdelik
verken
verkenner
verkenners
verkenning
verkies
verkiesbaar
verkiesing
verkiesings
verkiesingsuitslae
verkiesingsveldtog
verkieslik
verklaar
verklaarde
verklarende
verklaring
verklarings
verklein
verkleur
verkoel
verkoeling
verkondig
verkoop
verkope
verkoper
verkort
verkorte
verkose
verkrag
verkragting
verkry
verkrygbaar
verkryging
verkyker
verlaag
verlaagde
verlaat
verlag
verlaging
verlam
verlamming
verlang
verlangde
verlange
verlate
verlede
verleen
verleentheid
verlei
verleng
verlengde
verlenging
verlief
verlies
verliese
verlig
verligte
verligting
verlof
verloof
verloofde
verloop
verloor
verloorspan
verlore
verloren
verlos
verlosser
verlossing
verlowing
vermaak
vermag
vermeende
vermeerder
vermeerdering
vermeld
vermelding
vermeng
vermenging
vermenigvuldig
vermenigvuldiging
vermeulen
verminder
verminderde
vermindering
vermink
vermis
vermiste
vermoe
vermoed
vermoede
vermoedelik
vermom
vermont
vermoor
vermooten
vermy
vernaam
vernaamlik
vernaamste
vername
verneder
vernedering
verneem
verniel
vernietig
vernietigende
[...]
