!
"
#
##0
##1
##10
##11
##12
##13
##14
##15
##16
##17
##18
##19
##2
##20
##21
##22
##23
##24
##25
##26
##27
##28
##29
##3
##30
##31
##32
##33
##34
##35
##36
##37
##38
##39
##4
##40
##41
##42
##43
##44
##45
##46
##47
##48
##49
##5
##50
##51
##52
##53
##54
##55
##56
##57
##58
##59
##6
##60
##61
##62
##63
##64
##65
##66
##67
##68
##69
##7
##70
##71
##72
##73
##74
##75
##76
##77
##78
##79
##8
##80
##81
##82
##83
##84
##85
##86
##87
##88
##89
##9
##90
##91
##92
##93
##94
##95
##96
##97
##98
##99
$
%
&
'
(
)
*
+
,
-
.
/
0
00
000
001
002
003
004
005
006
007
01
010
013
02
020
021
03
033
04
05
06
07
08
09
1
10
100
1000
1001
101
1015
1016
1018
1019
102
1020
103
1035
104
1040
1041
105
1050
1054
106
1060
1066
107
1070
1075
1077
108
1080
1085
109
1093
1096
11
110
1100
1101
111
112
1120
1122
1125
1127
113
1130
1135
1137
1138
1139
114
1145
1146
1147
115
1150
1154
1155
1157
116
1160
1165
1167
117
1170
1174
1175
118
1180
1185
1189
119
1190
1191
12
120
1200
1204
1205
121
1214
1215
1216
1218
122
1220
1222
1226
1227
123
1230
1231
1232
1233
1235
124
1240
1241
1243
1244
1245
1246
1247
1248
125
1250
1253
1255
1258
1259
126
1260
1261
1263
1264
1265
127
1270
1271
1272
1274
1275
1276
1277
1279
128
1280
1282
1283
1284
1285
1287
1288
129
1290
1291
1294
1296
1299
13
130
1300
1302
1304
131
1310
1312
1314
1315
1316
132
1320
1322
1324
1325
1326
1327
1328
1329
133
1330
1336
1339
134
1340
1343
134340
1344
1345
1346
1347
135
1350
1353
1357
136
1360
1361
1366
1368
137
1370
1371
1377
138
1380
1381
1382
1386
1389
139
1397
1399
14
140
1400
1402
1404
1405
1406
1408
141
1410
1412
1414
1415
1417
1418
1419
142
1420
1421
1422
1424
1425
1426
1428
1429
143
1430
1431
1432
1433
1434
1435
1437
1438
1439
144
1440
1441
1443
1444
1447
1448
1449
145
1450
1452
1453
1454
1455
1456
1458
146
1460
1461
1462
1463
1464
1465
1466
1467
1468
1469
147
1470
1471
1472
1474
1475
1477
1478
1479
148
1480
1481
1482
1483
1484
1485
1486
1487
1488
1489
149
1490
1492
1493
1494
1495
1496
1497
1498
1499
15
150
1500
1501
1502
1503
1504
1505
1506
1507
1508
1509
151
1510
1511
1512
1513
1514
1515
1516
1517
1519
152
1520
1521
1522
1523
1524
1525
1526
1527
1528
153
1530
1532
1533
1534
1535
1536
1537
1538
1539
154
1540
1541
1542
1543
1545
1546
1547
1548
1549
155
1550
1551
1552
1553
1554
1555
1556
1557
1558
1559
156
1560
1561
1562
1563
1564
1565
1566
1567
1568
1569
157
1570
1571
1572
1573
1574
1575
1576
1577
1578
1579
158
1580
1581
1582
1583
1584
1585
1586
1587
1588
1589
159
1590
1591
1592
1593
1594
1595
1596
1597
1598
1599
16
160
1600
1601
1602
1603
1604
1605
1606
1607
1608
1609
161
1610
1611
1612
1613
1614
1615
1616
1617
1618
1619
162
1620
1621
1622
1623
1624
1625
1626
1627
1628
1629
163
1630
1631
1632
1633
1634
1635
1636
1637
1638
1639
164
1640
1641
1642
1643
1644
1645
1646
1647
1648
1649
165
1650
1651
1652
1653
1654
1655
1656
1657
1658
1659
166
1660
1661
1662
1663
1664
1665
1666
1667
1668
1669
167
1670
1671
1672
1673
1674
1675
1676
1677
1678
1679
168
1680
1681
1682
1683
1684
1685
1686
1687
1688
1689
169
1690
1691
1692
1693
1694
1695
1696
1697
1698
1699
17
170
1700
1701
1702
1703
1704
1705
1706
1707
1708
1709
171
1710
1711
1712
1713
1714
1715
1716
1717
1718
1719
172
1720
1721
1722
1723
1724
1725
1726
1727
1728
1729
173
1730
1731
1732
1733
1734
1735
1736
1737
1738
1739
174
1740
1741
1742
1743
1744
1745
1746
1747
1748
1749
175
1750
1751
1752
1753
1754
1755
1756
1757
1758
1759
176
1760
1761
1762
1763
1764
1765
1766
1767
1768
1769
177
1770
1771
1772
1773
1774
1775
1776
1777
1778
1779
178
1780
1781
1782
1783
1784
1785
1786
1787
1788
1789
179
1790
1791
1792
1793
1794
1795
1796
1797
1798
1799
18
180
1800
1801
1802
1803
1804
1805
1806
1807
1808
1809
181
1810
1811
1812
1813
1814
1815
1816
1817
1818
1819
182
1820
1821
1822
1823
1824
1825
1826
1827
1828
1829
183
1830
1831
1832
1833
1834
1835
1836
1837
1838
1839
184
1840
1841
1842
1843
1844
1845
1846
1847
1848
1849
185
1850
1851
1852
1853
1854
1855
1856
1857
1858
1859
186
1860
1861
1862
1863
1864
1865
1866
1867
1868
1869
187
1870
1871
1872
1873
1874
1875
1876
1877
1878
1879
188
1880
1881
1882
1883
1884
1885
1886
1887
1888
1889
189
1890
1891
1892
1893
1894
1895
1896
1897
1898
1899
19
190
1900
1901
1902
1903
1904
1905
1906
1907
1908
1909
191
1910
1911
1912
1913
1914
1915
1916
1917
1918
1919
192
1920
1921
1922
1923
1924
1925
1926
1927
1928
1929
193
1930
1931
1932
1933
1934
1935
1936
1937
1938
1939
194
1940
1941
1942
1943
1944
1945
1946
1947
1948
1949
195
1950
1951
1952
1953
1954
1955
1956
1957
1958
1959
196
1960
1961
1962
1963
1964
1965
1966
1967
1968
1969
197
1970
1971
1972
1973
1974
1975
1976
1977
1978
1979
198
1980
1981
1982
1983
1984
1985
1986
1987
1988
1989
199
1990
1991
1992
1993
1994
1995
1996
1997
1998
1999
2
20
200
2000
2001
2002
2003
2004
2005
2006
2007
2008
2009
201
2010
2011
2012
2013
2014
2015
2016
2017
2018
2019
202
2020
2021
2022
2023
2024
2025
2026
203
2030
204
205
206
207
208
209
21
210
2100
211
212
213
214
215
216
217
218
219
22
220
2200
221
222
223
224
225
226
227
228
229
23
230
2300
231
232
233
234
235
236
237
238
239
24
240
2400
241
242
243
244
245
246
247
248
249
25
250
2500
251
252
253
254
255
256
257
258
259
26
260
2600
261
262
263
264
265
266
267
268
269
27
270
2700
271
272
273
274
275
276
277
278
279
28
280
2800
281
282
283
284
285
286
287
289
29
290
291
292
293
294
295
296
297
298
299
3
30
300
3000
301
302
303
304
305
306
307
308
309
31
310
311
312
313
314
315
316
3162
31635
3166
317
318
319
32
320
321
322
323
324
325
326
327
328
329
33
330
331
332
333
334
335
336
337
338
339
34
340
341
342
343
344
345
346
347
348
349
35
350
3500
351
352
353
354
355
356
357
358
359
36
360
361
362
363
364
365
366
367
368
369
37
370
371
372
373
374
375
376
378
38
380
381
382
383
384
385
386
387
388
389
39
390
391
392
393
394
395
396
397
399
4
40
400
4000
401
403
404
405
406
407
408
409
41
410
411
413
414
415
416
419
42
420
421
422
423
425
426
427
428
429
43
430
431
432
434
435
437
438
44
440
442
443
444
445
446
447
448
449
45
450
4500
451
452
453
454
455
456
457
458
459
46
460
461
462
463
464
465
467
468
469
47
470
471
472
474
475
476
477
478
479
48
480
481
483
484
485
486
487
488
489
49
490
491
493
495
496
497
498
499
5
50
500
5000
501
502
503
505
506
507
508
51
510
511
512
514
515
516
517
518
519
52
520
521
523
524
525
526
527
529
53
530
5300
532
533
535
537
538
539
54
540
541
542
543
545
546
547
548
549
55
550
551
552
553
554
555
556
557
558
56
560
561
562
563
565
566
568
57
570
575
576
577
578
58
580
581
582
583
584
585
586
59
590
591
593
594
595
596
597
598
599
6
60
600
6000
602
603
604
605
607
608
609
61
610
611
612
613
614
615
616
617
618
619
62
620
621
622
623
625
626
627
629
63
630
631
632
633
634
635
636
638
639
64
640
641
642
644
645
646
647
648
65
650
651
652
653
654
655
657
658
659
66
660
661
662
665
667
67
670
671
672
675
676
68
680
683
685
686
687
69
690
692
694
695
696
698
7
70
700
7000
701
702
703
705
707
708
71
710
713
715
718
72
720
725
727
73
730
735
737
74
740
741
742
745
747
748
75
750
751
753
754
755
757
759
76
760
762
765
766
767
768
77
770
771
772
773
775
777
779
78
780
788
79
790
793
795
796
8
80
800
8000
801
802
804
805
81
810
812
813
814
815
816
82
820
821
824
825
828
83
830
838
84
840
842
843
845
847
85
850
855
86
860
865
866
867
87
870
871
874
875
877
878
879
88
880
882
885
888
89
890
891
898
899
9
90
900
9000
905
907
91
910
912
914
915
92
920
923
925
93
930
935
94
940
941
945
946
95
950
953
954
955
959
96
960
962
963
965
969
97
970
971
972
973
974
975
976
978
98
980
985
987
988
99
990
996
999
:
;
<
=
>
?
@
\
^
_
`
a
aa
aachen
aachener
aad
aadgrieks
aadheid
aadingels
aadno
aadshaer
aadste
aaduding
aaf
aafbeelding
aafbeeldinge
aafbeilding
aafbraeke
aafdeiling
aafgebeeld
aafgebraoke
aafgebroke
aafgegrave
aafgeko
aafgelaenge
aafgelag
aafgelas
aafgele
aafgeleid
aafgeleide
aafgeleidj
aafgeleijd
aafgelope
aafgeloupe
aafgeno
aafgero
aafgesjaf
aafgesjlaote
aafgesjlote
aafgeslaote
aafgevaardigde
aafgevaerdigde
aafgeveurd
aafgezat
aafhankelek
aafhankelik
aafhenkelek
aafhenkelik
aafjes
aafko
aafkomstig
aafkorting
aafkump
aafkumstig
aafle
aaflevering
aafloup
aafmaetinge
aafnump
aafsjaffe
aafsjaffing
aafsjeid
aafsjeijing
aafsjied
aafsjtaand
aafsjtamme
aafsjtand
aafsjtandj
aafstandj
aafstenj
aaftraeje
aafval
aafwisselend
aafze
aai
aaj
aajd
aajdfrans
aajdfranse
aajdfries
aajdgermaanse
aajdgrieks
aajdgriekse
aajdheid
aajdhoegduits
aajdhoegduitse
aajdiers
aajdingels
aajdingelse
aajdlang
aajdlatien
aajdnederfrankisch
aajdnederfrankische
aajdnederlands
aajdnederlandse
aajdnederlandsen
aajdnoords
aajdperzisch
aajdsaksisch
aajdste
aajste
aal
aalburg
aals
aalsmeer
aalsmeers
aalst
aalten
aamper
aan
aanboew
aandach
aandeil
aander
aandere
aanderen
aanders
aandersj
aandersum
aanderszins
aandert
aandrieve
aandrieving
aanein
aangaeve
aangebaoje
aangebrach
aangedreve
aangeduid
aangeduud
aangeduudj
aangegaeve
aangegaove
aangegeve
aangehawwe
aangehouden
aangeko
aangekoch
aangelag
aangemaak
aangeno
aangenomme
aangepas
aangesjlaote
aangesjlote
aangesjte
aangespanne
aangetas
aangetro
aangetroffe
aangetrokke
aangeuf
aangevalle
aangeveurd
aangevo
aangeweze
aangezeen
aangrenzende
aangrenzendje
aanguuef
aanhandj
aanhang
aanhengers
aanko
aanlag
aanle
aanleiding
aanleiing
aanleijing
aanmerking
aanne
aanpak
aanpasse
aanpassing
aanpassinge
aanraking
aans
aanse
aansjlaag
aansjlaeg
aansjleting
aanslag
aantaal
aantal
aantre
aanval
aanvalle
aanvank
aanvankelik
aanve
aanvenkelik
aanveurder
aanveuring
aanvo
aanwaezig
aanwaezigheid
aanwezig
aanwezige
aanwezigheid
aanwiezinge
aanzeen
aanzeenlik
aanziee
aap
aapechtige
aar
aard
aardbaeving
aardbeving
aarde
aardenburg
aardewaerk
aardewerk
aarle
aaron
aart
aarts
aartsbiesjop
aartsbisdo
aartsbisjhop
aartsbisjop
aartshertog
aasj
aasjlaag
aasjlee
aasters
aat
aatal
ab
abba
abbas
abbaye
abbe
abbey
abc
abchaze
abchazie
abchazisch
abcoude
abd
abdel
abdelaziz
abdie
abdij
abdije
abdijke
abdis
abdoellah
abdul
abdullah
abe
abel
abenaki
aber
abir
ablatief
ablaut
ablautsrij
able
abn
aboriginals
abortus
about
aboutaleb
abraham
abrahamse
abrup
abschied
absolute
absolutief
absolutus
absoluut
abstract
abstracte
abstrak
abstrakte
abt
abu
ac
academie
academisch
academische
academy
accent
accente
acceptabel
acceptatie
accepteerde
accepteert
acceptere
access
accordeon
account
accu
accusatief
acd
ach
achel
acheron
achi
achilles
acholi
achste
achsten
acht
achteenden
achter
achteraaf
achteraan
achteraon
achterberg
achtere
achterein
achtereinvolges
achtergebleve
achtergelaote
achtergro
achtergrond
achtergroond
achterhook
achterhooks
achterin
achterkant
achterkantj
achterklinker
achterklinkers
achterland
achterlief
achternaam
achternaom
achteroet
achterop
achterveugsel
achterveugsele
achtervolging
achtervoogsel
achtervoogsels
achtiee
achtien
achtiende
achtienden
achttien
acre
across
act
acta
actaea
acte
acteur
acteurs
actie
actief
acties
actieve
actinide
action
activis
activist
activiste
activiteit
activiteite
acton
actor
actrice
actries
acts
actueel
ad
ada
adagio
adam
adams
adamsappel
add
adda
added
adder
additional
ade
adel
adelaar
adelaide
adele
adeleer
adelike
adellike
adenauer
adi
adjectief
adjectieve
administratie
administratief
administratieve
admiraal
admiraol
ado
adolf
adolphe
adonis
adres
adresse
adriaan
adriaen
adriaensz
adrianus
adriatische
adrien
adsj
advent
adventures
advies
adviseur
advocaat
ae
aee
aej
aek
aels
aelse
aen
aeneas
aer
aerd
aerdaolje
aerdbaeving
aerdgaas
aerdkoosj
aerdoppervlak
aerdsjo
aerpel
aert
aester
aete
aetenspot
aetes
aeteswaar
aeve
aevel
aevels
aevener
aevenes
aevewich
aezel
af
afar
afasie
afc
afd
afdeling
aff
affair
affaire
affaires
afferden
affiliate
afganistan
afghaanse
afghanistan
afl
africa
afrika
afrikaans
afrikaanse
afrikaansen
afrikaone
afrikaons
afrikaonse
afro
afroaziatische
afroinsectiphilia
afrosoricida
afrotheria
afscheid
afstand
after
ag
again
against
agatha
agder
age
aged
agency
agenda
agent
agente
agentsjap
agglomeratie
agglutinerend
agglutinerende
agl
agnes
agnus
agostino
agrarisch
agrarische
agressie
agressief
agricola
agt
ah
ahead
ahl
ahmad
ahmed
ahngere
ahoy
ahrweiler
ai
aid
aids
aigu
aime
ain
aina
air
airbus
aires
airlines
airport
airways
ais
aise
aisne
aix
aj
ajax
ajdheid
ajds
ajdste
aje
ajer
ak
aka
akademie
akbar
akershus
akihito
akkad
akkadisch
akkadische
akkaoe
akkaord
akkelej
akker
akkoord
akkoorde
akoestische
akt
akta
akte
aktief
aktinied
aktivis
aktiviteit
aktiviteite
aktueel
akır
al
ala
alaaf
alabama
alagoas
alain
alameda
alan
alaphilippe
alaska
alb
alba
alban
albanees
albanese
albaneze
albanie
albe
albers
albert
alberti
albertkanaal
albertkenaal
alberto
alberts
albertus
albion
alblas
alblasserdam
alblasserwaard
alblasserwaards
albrandswaard
albrecht
album
albums
alcohol
ald
aldao
alde
alden
alder
alderhenj
alderlei
aldo
aldrin
aldste
aldus
ale
alein
aleksander
aleksandr
aleksi
alemannisch
alessandro
alex
alexander
alexandra
alexandre
alexandrie
alexis
alfa
alfabe
alfabet
alfabetisch
alfabette
alfastraoling
alfons
alfonso
alfred
alfredo
algaw
alge
algebra
algeme
algemeen
algemein
algemeine
algemeiner
algemeinste
algemeint
algemene
algeriee
algerije
algerijnse
algiers
ali
alias
alice
alif
alighieri
align
alignbars
alina
alireza
alistadionsjeidsrechter
alkemade
alkmaar
all
alla
allaank
allah
allan
allang
allatief
alle
allebe
allebei
alledaagse
alledaogs
alledaogse
alledrei
alleen
allegro
allein
alleke
allemaol
alleminium
allemoal
allen
allenei
allenej
alleng
aller
alleree
allerheilige
alleriers
allerierste
allerle
allerlei
allermieste
alles
allet
alletwie
alleveer
allewaal
allewel
allewiel
allewiele
allewijl
allewijle
alley
allez
allezeleve
allgemeine
alliantie
alliantiewaope
allianz
allie
allien
allier
alling
allis
alliz
allman
allochtone
allochtoon
allofone
allofoon
allround
alma
almelo
almere
almkerk
alois
alonso
alpe
alpes
alpha
alphabet
alphen
alphons
alphonse
alpien
alpine
alre
already
als
alse
also
alsoe
alst
alsters
alsus
alt
altaar
altai
altaor
alte
altena
alter
alternatief
alternatieve
altie
altied
altiid
altijd
alto
altviool
alu
alum
aluminium
alva
alveolair
alveolaire
alveolairen
alveringem
alves
alvleiskleer
always
alweer
alzette
alzheimer
am
ama
amadeus
amador
amalia
amapa
amateur
amateurclub
amateurclubs
amateurs
amateurvoetbal
amay
amazonas
amazone
amazonegebeed
amb
ambach
ambacht
ambachte
ambassade
ambassades
ambassadeur
ambiorix
ambities
ambitieus
amble
amblysomus
ambo
ambrogio
ambt
ambteleke
ambtenaer
amby
ame
amel
ameland
amelands
amen
america
american
amerigo
amerika
amerikaan
amerikaans
amerikaanse
amerikaansen
amerikane
amerikanen
amerikaon
amerikaone
amerikaons
amerikaonse
amerindische
amerongen
amersfoort
amfibiee
amfibieje
amhaars
ami
amid
amie
amiens
amin
aminozoere
ammar
ammers
ammoniak
amnesty
among
amore
amour
amours
ampe
amper
ams
amsberg
amst
amstel
amstelveen
amstenrade
amsterdam
amsterdammers
amsterdams
amsterdamse
amtenere
amundsen
amusemintsmeziek
an
ana
analoge
analogie
analoog
analyse
analysere
analyses
analysis
analytisch
analytische
anarchie
anarchis
anarchisme
anatolie
anatolische
anatomie
anatoom
ancien
ancient
and
andalusie
andamanese
andante
andel
ander
andere
anderen
anderlech
anderlecht
anders
andersen
andersj
anderson
andersson
andert
andes
andijk
andonis
andorra
andre
andrea
andreas
andrej
andreus
andrew
andrews
andries
andriessen
andromeda
andrzej
andy
ane
anemone
anen
ang
angel
angela
angele
angeles
angelico
angelina
angelo
angels
angelsakse
angelsaksisch
angelsaksische
anger
angere
angeren
angers
angerzieds
anges
angesj
anglicaanse
anglicanisme
anglicaone
anglo
angola
angolese
angs
anguilla
anh
anhalt
anima
animalia
animatie
animatiefilm
animator
anita
anjou
ank
ankara
anker
anky
ann
anna
annales
annan
anne
anneke
annemarie
annemie
annemiek
annette
annexatie
annexaties
annexeerde
annexeert
annexere
anni
annie
anno
announced
announcement
annunciatie
anolis
anoniem
anorganische
another
ans
ansembourg
anser
answer
ant
antarctica
ante
anthisnes
anthonius
anthony
anti
antibiotica
antieke
antigone
antigua
antille
antilliaans
antilliaone
antiochie
antisemitisme
antje
antjwaord
anto
antoine
antoinette
anton
antoni
antonie
antonin
antonio
antonius
antonov
antony
antropologe
antropologie
antropoloog
antwerpe
antwerpen
antwerps
antwerpse
antwoord
anus
anwar
any
anzegem
ao
aoch
aod
aode
aodsher
aodste
aoe
aof
aofdeiling
aofgebeeld
aofgebroke
aofgeka
aofgekort
aofgelaope
aofgelas
aofgelege
aofgeleid
aofgeleide
aofgelos
aofgeloupe
aofgemaak
aofgenome
aofgeroond
aofgerund
aofgesjaf
aofgesjeie
aofgeslete
aofgeslote
aofgesplits
aofgesproke
aofgeveerdegde
aofgewe
aofgeweze
aofgezat
aofgezeen
aofhaankelek
aofhenkelek
aofka
aofkier
aofko
aofkoms
aofkomsteg
aofkomstig
aofkorting
aofkumsteg
aoflaop
aofle
aofleie
aofleiinge
aoflevering
aofloup
aofloupende
aofmetinge
aofnummende
aofsjaffing
aofsjeid
aofsjeide
aofsjeiing
aofspa
aofsplitsing
aofstamme
aofstammelinge
aofstamming
aofstand
aofsten
aofstoon
aoftrejje
aofval
aofwezeg
aofwezegheid
aofwiek
aofwieke
aofwiekend
aofwiekende
aofwiekinge
aofwisselend
aofze
aofzunderleke
aog
aoge
aoh
aoj
aoje
aoke
aokener
aokense
aokese
aolie
aolje
aom
aome
aomezeik
aomezeike
aon
aonbod
aondach
aondeil
aonein
aoneingegreujd
aoneingeslote
aongeboje
aongebrach
aongedoon
aongeduid
aongegeve
aongehawwe
aongekoume
aongekundeg
aongelag
aongenome
aongenomme
aongepas
aongepasde
aongesjreve
aongeslage
aongeslote
aongeste
aongetroffe
aongetrokke
aongetuind
aongevalle
aongeve
aongeveurd
aongevo
aongeweze
aongezeen
aongeziech
aongezien
aongief
aongrenzend
aongrenzende
aonhaank
aonhawwende
aonhe
aonhenger
aonhengers
aonkaom
aonkoms
aonlag
aonle
aonleiing
aonliere
aonligkende
aonluip
aonmerking
aonnumme
aonpak
aonpasse
aonraking
aonslaag
aonsleeg
aonslete
aonsleting
aonspraok
aontal
aontalle
aontre
aontrejje
aontro
aonval
aonvalle
aonvaller
aonvenkelek
aonvo
aonwezeg
aonwezegheid
aonwezig
aonwieze
aonwiezend
aonwiezende
aonwiezing
aonwiezinge
aonzeenlek
aonzeenleke
aonziech
aonzien
aop
aope
aopebaar
aopen
aopenbaar
aopgehaje
aor
aore
aoristus
aorlog
aorlogsmisdadiger
aos
aosem
aoseme
aosteriekse
aostrem
aove
aovend
aovende
aovendj
aovendklok
aovendmaol
aovends
aoventouw
aoves
aow
ap
apaart
apaarte
apache
apart
aparte
apartheid
ape
apebaar
apeldoorn
aphaove
aphrodite
apicaal
apocopaot
apocope
apocriefe
apollo
apologies
apologize
apostel
apostele
apostolisch
apostolische
apparaat
apparate
apparatuur
appartemente
appe
appel
appele
appenzell
appetiet
appetitieve
appingedam
apple
apply
approximant
approximante
apr
apre
april
aqaba
aqi
aquilegia
aquino
aquitanie
ar
ara
arab
arabeer
arabere
arabic
arabie
arabiere
arabisch
arabische
arafat
arago
aragon
aragonees
aramees
arawakse
arbeid
arbeiders
arbeiers
arbeierswieke
arbeit
arc
arcen
archaea
archai
archeologe
archeologie
archeologisch
archeologische
archeoloog
archetype
archief
archieve
archimedes
archipel
architec
architect
architecte
architectuur
architek
architekt
architekte
archive
arctic
ard
arde
ardennais
ardenne
ardennes
ardooie
are
area
arena
arenasjeidsrechter
arend
arends
arendt
arensgenhout
ares
aretai
arganaoe
argentiense
argentijnse
argentinie
argon
argumaent
argumint
arguminte
ari
aria
ariane
arie
ariel
arische
aristide
aristocratie
aristoteles
arizona
arjan
arjen
ark
arkansas
arkel
arm
armand
arme
armee
armeens
armeense
armen
armene
armenie
armin
arms
armstrong
army
arnem
arnemuiden
arnhem
arno
arnold
arnon
arnsberg
aroemeens
around
arowakke
arp
arrangeur
arras
arrendissement
arrendissemente
arrestatie
arrestaties
arrestere
arriveerde
arriveert
arrondissemaent
arrondissement
arrondissemente
arrondissemint
arrondisseminte
ars
arsenal
arsjief
arsjipel
arsjitectuur
arsjitek
arsjitekte
arsjitektuur
art
artagnan
arte
artemis
artesie
arthropoda
arthur
article
articles
articulatie
arties
artiest
artieste
artiesten
artikel
artikele
artikulaasje
artillerie
artistiek
artistieke
arts
artsach
artse
arturo
aruba
as
asbes
ash
asia
asiel
asielzeukers
ask
asp
aspe
aspecte
aspek
aspekte
asperen
asperges
aspx
assad
asse
assel
asselt
assemble
assemblee
assembly
assen
assimilatie
assisi
assistent
assistente
associatie
associaties
association
associeert
assyrie
aste
asten
asterisk
asterix
asteroi
aston
astrein
astrid
astrologie
astronaut
astronaute
astronome
astronomie
astronomisch
astronomische
astronoom
asturie
at
atatu
ate
atelier
ath
atheense
athei
athematisch
athematische
athene
atheners
atheneum
athletic
atjeh
atkinson
atlanta
atlantic
atlantis
atlantisch
atlantische
atlantischen
atlas
atleet
atlete
atletiek
atletiekwereld
atmosfeer
atmosferische
atoeam
atoeame
atoeamno
atol
atolle
atome
atonaol
atoom
atoombo
atoomno
atp
atrech
attack
attak
attigny
attika
attikel
attila
attisch
attractie
attribute
attributief
atuatuca
atypisch
au
aubel
auch
aud
audheid
audi
audio
audrey
audsberge
auf
aug
auge
augmint
augsburg
augus
august
augusta
auguste
augustin
augustinus
augusto
augustus
auk
aun
aung
aurelius
aurora
aus
auschwitz
auslautverha
aust
austerlitz
austin
australia
australian
australie
australis
australisch
australische
australischen
austroa
austronesie
austronesisch
austronesische
aut
auta
auteur
auteurs
auteursj
author
auto
autobaan
autobiografie
autobiografisch
autochtoon
autocoureur
automatisch
autonome
autonomie
autonoom
autorite
autoriteit
autoriteite
autosjnelwaeg
autosjport
autosnelwaeg
autowaeg
auw
auwe
auwt
aux
ava
available
avant
avatar
ave
avelgem
aventoe
avenue
avestisch
aveyron
avignon
aviv
avonture
avonturen
avontuur
avro
avvekaot
aw
awacs
awans
award
awards
away
awd
awdste
awste
awstrao
awstroa
awt
awtste
awwe
awwen
awwer
awwerdo
awwere
awwers
awwerwe
awwesj
axel
axels
ay
ayatollah
aymara
ayn
az
azerbaidzjaans
azerbaidzjan
azerbaijan
azerbeidzjaans
azerbeidzjaanse
azerbeidzjan
aziaot
aziaote
aziate
aziatisch
aziatische
azie
aziz
azore
azteekse
azteke
azuur
b
ba
baai
baal
baan
baank
baankbilje
baanke
baantjer
baar
baard
baarde
baarle
baarlo
baarn
baas
babel
baby
babylon
babylonie
babylonische
bac
bacchus
bach
back
bacon
bacteria
bacterie
bacterieel
bacterieje
bad
bade
baden
bae
baee
baeje
baek
baekapel
baekdale
baeke
baeker
baekske
baelen
baer
baere
baerg
baerge
baeter
baetere
baevaart
baevaartsoord
baexem
bagdad
bagge
baghdad
baghdadi
baha
bahama
bahia
bahrein
bai
bak
bakel
baker
bakke
bakker
bakkes
bakr
bakraoui
baksjtein
baksjteine
bakto
bal
balans
bald
balde
bale
bali
balk
balkan
balke
balkenende
balkon
ball
ballade
balle
ballet
ballingsjap
balsporte
balt
balte
balthasar
baltiese
baltisch
baltische
baltus
ban
band
banda
bande
bandj
bandkeramiekers
bandlede
bands
bane
bang
bangkok
bangladesh
banholt
bani
banjo
bank
banke
bankeer
banmeule
bannet
banneux
banska
bantoe
bantoes
bantoetaol
bantoetaole
bao
baoe
baog
baoge
baogsjo
baojem
baoksem
baolder
baom
baon
baonbrekend
baonbrekende
baone
baord
baore
baove
baovekantj
baoven
baovendeen
baovenop
baoveste
baovetenj
baptist
baptiste
bar
barack
barbacane
barbados
barbara
barbarossa
barbuda
barcelona
bare
barend
barendrecht
bargoens
bariton
barnabas
barneveld
barnsjte
barnsjtein
barok
barokke
barokmeziek
baroksjtiel
baron
barones
baronie
barra
barre
barrie
barrier
barroso
barry
bars
bart
barthe
bartholdi
baruch
bas
basalt
basaol
base
based
baseerde
baseert
basel
basement
basere
bases
basgitaar
basgitaris
bashir
basilica
basiliek
basilius
basis
basissjaol
basissjaole
basissjoal
basissjoale
baske
baskeland
basketbal
baskisch
baskische
basse
bassin
bassis
bassist
basso
basten
bastenake
bat
bataafs
bataafse
batavia
bath
batista
batterije
battista
battle
bau
baudrillard
bauer
bauhaus
bay
bayern
baytstadionsjeidsrechter
baz
bazel
bb
bbc
bbe
bbecke
bbel
bbele
bben
bbend
bbende
bbendj
bbendje
bbendjen
bbendjheid
bber
bbers
bd
be
beach
bean
beat
beater
beatles
beatrix
beatrixhave
beats
beaufort
beauharnais
beaumont
beautiful
beauvoir
beaver
bebo
beboewing
bebop
bebouwd
bebouwing
bec
because
beck
becker
beckers
beckett
becquerel
bed
bedach
bedacht
bedachte
bedankt
bedde
bede
bedeend
bedeende
bedeent
bedek
bedene
bedink
bedinke
bedinker
bedo
bedoei
bedoeld
bedoeldj
bedoele
bedoeling
bedoelt
bedra
bedraag
bedrage
bedreig
bedreigde
bedreiging
bedreiginge
bedreug
bedreve
bedrief
bedriefsleve
bedriefsterrein
bedrieve
bedriever
bedrieveterrein
bedrijf
bedroog
bedruueg
bedum
bee
beech
beeck
beeg
beej
beeje
beejt
beejveurbeeld
beek
beekdaelen
beekman
beekske
beekskes
beel
beeld
beelde
beeldend
beeldende
beelder
beeldhawwer
beeldhouwer
beeldhouwkuns
beeldhouwwerk
beeldje
beeldjhawwer
beeldsje
beeldsjes
beemde
beemster
been
beer
beerbroewerie
beerenbrouck
beernem
beers
beerta
bees
beesel
beet
beethoven
beets
before
began
begaon
bege
begeit
begeleid
begeleide
begeleiding
begeleiing
begijn
begin
beginjaore
beginne
beginnen
beginnend
beginnende
beginning
beginsel
beginsele
begint
begintj
bego
begoes
begon
begonne
begoons
begoosj
begos
begoste
begraafplaats
begrafenis
begraffenis
begraofplaots
begraove
begrave
begreep
begrens
begrenzing
begrepe
begreujd
begreujing
begriepe
begriepelek
begrip
begrippe
begroeting
begroting
begunde
begunden
behaajd
behaave
behaje
behalden
behalf
behalve
behandeld
behandele
behandeling
behandelt
behangkelt
behanjeling
behaold
behaolde
behaole
behaolt
behaordj
behaordje
behaowe
behauve
behave
behawwe
behe
behee
beheel
beheer
beheerd
beheers
beheerse
beheersing
behele
beheue
beheurde
beheure
behiee
behier
beho
behoee
behoefte
behole
behoud
behue
behulp
behure
behurend
behurende
behuuerdje
behuuere
behuuert
behuuertj
behuurde
behuurlek
behuurt
bei
beide
beids
beie
beier
beiere
beieren
beiers
beierse
beij
beije
beijerland
beijing
bein
being
beiroet
beit
beivuurbild
beizunger
bej
beja
bejaog
beje
bek
bekaand
bekaande
bekaandste
bekaans
bekandj
bekandje
bekandjste
bekangde
bekank
bekanke
bekans
beke
bekeke
bekend
bekende
beker
bekerwinner
bekie
bekiee
bekieke
bekiekenswaee
bekierd
bekierde
bekiere
bekind
bekinde
bekinden
bekinder
bekindgemaak
bekindheid
bekindj
bekindje
bekindste
bekinne
bekinste
bekint
bekke
bekker
bekle
bekleid
bekleide
beklemtoende
beklumme
beko
bekritiseerd
bekroend
bel
belaangriek
belaangrieke
belaangriekste
belaank
belaankriek
belaankrieke
belaankrieker
belaankriekste
belaankste
belaefde
belag
belaje
belang
belange
belangriek
belangrieke
belangrieker
belangriekste
belangsjte
belangsjtelling
belangste
belank
belaof
belaofde
belaoje
belas
belasting
belastinge
bele
beleechting
beleefheidsvo
belegerd
belegering
beleid
belemans
beleve
belfast
belfort
belgae
belge
belgian
belgica
belgie
belgique
belgisch
belgische
belgium
belgrado
believe
belize
bell
bella
bellamy
belle
bellini
bello
belo
belofte
bels
belsj
belsje
belt
beltjens
belve
belvend
belzebub
belzje
belzjen
belzjin
bem
bemande
bemanning
beme
bemele
bemelmans
bemiddeling
ben
benadering
benaming
benaminge
benaodering
benaodro
benaoming
bend
bende
bender
bene
beneden
benedict
benedictiener
benedictus
benelux
beneumd
beneumde
beneume
beneuming
beneump
beng
bengaals
bengale
benin
benito
benj
benjamin
benk
benno
benny
beno
benomen
benopat
benrather
bent
benthorn
benthuizen
bentinck
benton
benue
benz
benzien
beowulf
bep
bepaald
bepaalde
bepaalt
bepale
bepaold
bepaolde
bepaoldheid
bepaoldj
bepaoldje
bepaole
bepaoling
bepaolinge
bepaolt
bepaoltj
bepe
beperk
beperkde
beperke
beperking
beperkinge
bepirk
beppie
ber
beraden
beraekendj
berber
berbers
berberse
berbertaole
bere
bereid
bereijing
bereik
bereikbaar
bereikde
bereikdje
bereike
bereikt
berekend
berg
bergambacht
bergbusj
berge
bergechteg
bergechtig
bergen
berger
bergh
berghem
bergisch
bergischer
bergisches
bergland
bergman
bergop
bergs
bergschenhoek
bergse
bergsje
berhaup
berich
berichte
beriech
beriechte
beriek
berieke
beriev
beringe
berio
berkel
berkeley
berlage
berlaymont
berlien
berliense
berlijn
berlin
berlioz
berlusconi
bern
bernabe
bernadette
bernard
bernardino
bernardo
bernardus
bernd
berners
bernhard
bernie
bernisse
berns
bernstein
bero
beroemd
beroemde
beroep
beroepe
beroop
berry
bers
bert
bertha
bertholet
bertrand
bertus
beruch
beruchte
berwien
berwinne
bes
bescherming
besef
besjadig
besjajig
besjaoving
besjaving
besjavinge
besje
besjeftig
besjeie
besjermd
besjermde
besjerme
besjermheilige
besjerming
besjermp
besjetinge
besjik
besjikbaar
besjikke
besjikking
besjlaag
besjlaoe
besjlaote
besjleit
besjlis
besjlissing
besjloet
besjloot
besjlote
besjlut
besjluut
besjmettinge
besjo
besjoewd
besjoewe
besjouwd
besjouwe
besjouwt
besjraeve
besjreef
besjreve
besjrief
besjrieft
besjrieve
besjrieving
besjrievinge
besjrijf
besjtaet
besjtand
besjtange
besjtaon
besjtaond
besjtaonde
besjte
besjteet
besjteit
besjtek
besjteunt
besjto
besjtoa
besjtoee
besjtong
besjtoon
besjtudeerd
besjtudeert
besjtudere
besjtuitj
besjtuur
besjtuurd
besjtuurder
besjtuurlike
besjtuurslid
besjurme
besjurming
besjurmp
beslaag
beslaote
besleet
besleit
besleitj
beslete
beslis
beslissing
beslissinge
besloet
besloog
besloon
besloot
beslote
besluit
beslut
besluut
besmet
bespa
besproke
besse
best
besta
bestaan
bestaat
bestand
bestande
bestandj
bestaon
bestaond
bestaonde
bestaont
beste
besteie
besteit
besteitj
besteurleke
besting
besto
bestoon
bestoond
bestoonde
bestoont
bestoonte
bestrije
bestudeerd
bestudeerdj
bestudeertj
bestudere
bestudering
bestuit
bestumde
bestumdje
bestumming
bestump
besture
bestuur
bestuurd
bestuurlek
bestuurleke
bestuurlik
bet
beta
betaald
betaekenis
betale
betaling
betaold
betaolde
betaole
betaolmiddel
betaolt
betaome
betaomp
betee
beteikend
beteikende
beteikendj
beteikene
beteikenis
beteikenisse
beteikenisvol
beteikent
beteikentj
betekenis
betekent
beter
betere
bethlehem
beto
betoende
beton
betonne
betrach
betrachte
betrap
betre
betref
betreffe
betreffende
betrekking
betro
betroewbaar
betrof
betrokke
betrokkeheid
betruf
bette
better
betty
betuwe
between
betwis
beu
beujt
beuk
beuke
beukske
beukskes
beum
beuningen
beurs
beursj
beurskens
beurt
beusdael
beusj
bev
beva
bevaarbaar
bevalling
bevat
bevatde
bevatj
bevatte
beve
bevel
beveland
bevelands
bever
beveren
beverwijk
bevesteg
bevestegde
bevestig
bevestigt
beveurbeeld
beveurbeeldj
beveurbeild
beveurbeildj
beveurbild
bevind
bevinde
bevindelek
bevindj
bevindt
bevinge
bevingk
bevingt
bevinje
bevink
bevint
bevo
bevoegdhede
bevolk
bevolkde
bevolke
bevolking
bevolkingsaontal
bevolkingsdeechte
bevolkingsdichheid
bevolkingsdichte
bevolkingsdiechheid
bevolkingsdiechte
bevolkingsgreuj
bevolkingsgro
bevooghede
bevordere
bevordering
bevouking
bevoukingsdichheid
bevoukingsverangering
bevraore
bevried
bevriejd
bevriejing
bevrijd
bevrijde
bevrijding
bevrijing
bevro
bevrore
bevrund
bevundj
bevuurbeeld
bevuurbild
bewaard
bewaarde
bewaardj
bewaege
bewaeging
bewaeginge
bewaord
beware
bewaren
bewe
beweeg
beweert
bewege
bewegende
beweging
beweginge
beweuner
beweuners
beweunersj
beweuning
beweze
bewies
bewieze
bewijs
bewind
bewindj
bewirke
bewirking
bewo
bewoee
bewoend
bewoende
bewoene
bewoeners
bewoening
bewoerd
bewoerde
bewoere
bewoge
bewoner
bewoners
bewoning
bewoog
bewoond
bewoonde
bewoondering
bewoondj
bewus
bezat
bezatj
bezatte
beze
bezeen
bezeenswaerdig
bezeenswaerdighede
bezeenswaerdigheje
bezeensweerdeg
bezeensweerdeghede
bezeg
bezeghawwe
bezeghe
bezej
bezejd
bezel
bezetting
bezeuk
bezeuke
bezeukers
bezeunder
bezichtige
beziee
bezien
beziener
beziensweerdeghede
bezig
bezit
bezitj
bezitte
bezittelek
bezitteleke
bezittinge
bezo
bezoch
bezoonder
bezuie
bezunder
bezundere
bezunderhede
bezunderheid
bezuneginge
bezunjer
bezwoer
bezwoere
bh
bhutan
bhutto
bi
biamonti
bianche
biatlon
bibliofiel
bibliografie
bibliografische
bibliotheek
bid
bidden
biden
bie
biebehue
biebel
biebelbeuk
biebels
biebelse
biebelvertaoling
biech
biedraag
biedrage
biedrages
biee
biegeboewe
biehbel
biehj
biej
bieje
biejein
biejeinko
biejen
biejveurbeeld
biejveurbeeldj
bielefeld
bien
bienaam
bienao
bier
biervliet
bies
biesen
biesheuvel
biesjdo
biesjop
bieske
bieskes
biesland
bieste
biesterfeld
biete
bietje
bietsje
bieva
bieveurbeeld
bieze
biezo
biezoonder
biezunjer
big
bij
bijbehurend
bijbehurende
bijbel
bijdrage
bijdragen
bijdraog
bijdraoge
bijein
bijgehawwe
bijgenaomp
bijgevolg
bijhure
bijj
bijleveld
bijlmermeer
bijna
bijnao
bijnaom
bijnaome
bijns
bijveugelek
bijveugeleke
bijvogeleke
bijwa
bijwoord
bijzin
bijzinne
bik
bilabiaal
bilabiale
bilabiaol
bilateria
bilbao
bild
bilder
bilderdijk
bildt
bildts
biljendje
bill
billboard
billich
billy
biloba
bilt
bilthoven
bilze
bilzen
bin
binche
binde
bing
bingen
binne
binnehave
binnekant
binnekantj
binnekaome
binneland
binnelands
binnelandse
binnen
binnenin
binnenmaas
binneplei
binnesjtad
binnestad
binneste
binneveel
binnevele
bio
biochemicus
biodiversiteit
biografie
biologe
biologie
biologisch
biologische
bioloog
bioscoop
bioscope
biosjemicus
biotoop
biotope
bird
birds
birgele
birma
birmees
birmingham
birth
birthday
bis
bisdo
bisdom
bisdomme
bisjhop
bisjo
bisjop
bisjoppe
biskaje
bismarck
bissau
bisschop
bissjop
bist
biste
bit
bitje
bitsje
bitteke
bittekes
bitter
biz
bizet
bjo
bla
blaad
blaadroze
blaajer
blaak
blaank
blaanke
blaar
black
blackadder
blackmetal
blad
blaedsjes
blaee
blaeve
blair
blaise
blajer
blajjer
blanc
blanco
blank
blanke
blankenberg
blankenberge
blankenburg
blaos
blaosmuziek
blaoze
blasius
blauw
blauwdo
blauwe
blaw
blawwe
ble
bleef
bleek
blegny
bleiswijk
bleke
blekinge
blenco
blerick
bleskensgraaf
bleu
bleuen
bleuj
bleujde
bleuje
bleujende
bleujetege
bleujt
bleujtied
bleujwies
bleumke
bleumkes
bleus
bleutj
bleve
bleven
blica
blie
blieberig
bliee
blief
blieft
blieftj
bliej
bliek
blieke
bliekt
blierick
blierik
blieriks
blierikse
blieve
blieven
blievende
blif
blij
blijdorp
blijdorpse
blijf
blijft
blik
bliksem
blind
blinde
blindj
blitterswik
blo
block
bloeatligke
bloed
bloem
bloemen
bloemendaal
bloemendal
bloet
bloete
blog
blok
blokkere
blokland
blom
blome
blomlezing
blomme
blood
bloodbaad
bloodbad
blooddro
bloodso
bloodvater
bloom
bloomlaezing
bloomlezing
blow
blowwe
bloze
blozers
blu
blue
blues
bluesmuzikant
blueszenger
blut
blz
bløf
bm
bmw
bn
bnp
bo
boa
boaksum
boam
boanhei
board
boat
boave
boavedeen
bob
bobby
boch
boches
bocholtz
bock
bocket
bod
bode
bodegraven
boden
body
boe
boeat
boebij
boedapes
boedapest
boeddhisme
boeddhiste
boeddhistische
boedoor
boee
boeijen
boeing
boek
boekares
boeken
boekholte
boekoe
boel
boem
boeme
boemele
boenao
boeoonder
boer
boerderie
boerderiej
boerderieje
boerderij
boerderije
boere
boerebroelof
boereha
boergondie
boermans
boeroendi
boers
boerum
boesj
boesjerhei
boet
boete
boetedet
boetegebeed
boetegewoen
boetekant
boetekantj
boeteland
boetelandj
boetelandjse
boetelands
boetelandse
boetelenders
boeten
boetenaof
boetes
boeteste
boetewereld
boetewieke
boetouw
boevaan
boeveur
boew
boewde
boewdje
boewe
boewko
boewkunde
boewkuns
boewmateriaal
boewmateriale
boeworde
boewsjtiel
boewsjtiele
boewt
boewwerk
boewwerke
boewwirk
boewwirke
bogota
bohe
boheemse
boheme
bohr
boileau
bois
boixos
bojem
bok
boke
bokent
bokkeriejers
bokkeriejersj
bokma
boko
bokser
boksmaer
bol
boli
bolivia
bolland
bologna
bolsonaro
bolsward
bolvo
bolwerk
bom
bomans
bombardeert
bombardement
bombardemint
bombardeminte
bombardere
bombay
bomme
bommel
bompa
bon
bonaire
bonaparte
bond
bondskanseleer
bondssjtaat
bong
bongard
bonifatius
bonn
bonne
bonnefantemuseum
bonnie
bonobo
bonte
boo
boodsjap
booj
book
bookde
bookdro
books
boolder
boom
boon
boond
boondskanseleer
boont
boonte
boord
boors
boosten
boosters
boot
bop
bor
bord
bordeaux
bordele
border
borg
borger
borghare
borgharen
borgia
borgloon
boris
borken
born
borne
borneo
borre
borrell
bors
borsele
borst
borussia
bos
bosch
boschpoort
bosco
bose
bosj
boskoop
bosniakke
bosnie
bosnisch
bosnische
bosone
bosporus
bosse
boston
bot
botanicus
botanische
boter
both
botnische
botrange
bots
botsing
botswana
botte
botticelli
bottom
boudewijn
bouen
bougainville
bouillon
boulevard
boulez
boulogne
boum
bourbon
bourgeois
bourgondie
bourgondisch
bourgondische
bours
boutens
bouterse
bouvet
bouw
bouwde
bouwe
bouwkuns
bouwman
bouwt
bouwwerke
bove
bovedeen
bovegemiddeld
bovegeneumde
bovekant
bovelaog
boven
bovenaon
bovendeaard
bovenop
bovens
bovenste
boveste
bovestoonde
bowie
bowl
box
boxtel
boy
boyer
boys
br
bra
braaf
braak
braassem
brabant
brabants
brabantse
brach
bracht
brachte
brachten
bradley
braeke
braganc
brahma
brahms
brak
braken
bram
branco
brand
brande
brandeburg
branden
brandenburg
brandj
brandjsjtof
brandjstof
brandstof
brandt
brandwijk
brank
brant
braobant
braobantj
braobants
braobantse
braobantsen
braobent
braok
braoke
bras
brasi
brasil
bratislava
braun
braziel
brazil
braziliaans
braziliaanse
braziliaansen
braziliaone
brazilie
bre
break
brecht
breda
bredene
bredero
brederode
bredevoort
bree
breef
breefkes
breer
breggen
brehm
brei
breibere
breid
breide
breidte
breie
breier
breij
breije
breit
breite
breke
breken
breking
bremen
breng
brengen
brenne
brennende
brent
brentj
brentjens
bretagne
bretoens
bretons
brett
breuje
breujt
breuk
breukelen
breuker
breuls
breurs
breursj
breusel
breusels
breusj
breve
brevebo
brexit
breyell
breziel
brezjnev
brian
bridge
brief
briegel
briej
briek
brielle
brieven
brightgreen
brigida
brigitte
brik
brikke
brilon
bring
bringe
bringen
bringk
bringt
brink
brisbane
brit
britannie
british
britney
brits
britse
britsen
brittanie
brittannie
britte
britten
bro
broad
broadcasting
broadway
broe
broec
broed
broeder
broeders
broee
broek
broekbaar
broeke
broekhuizen
broelof
broen
broene
broensem
broensemerhei
broenssem
broenve
broers
broewerie
broeweriej
brojn
brojne
broke
brokem
broken
brokeze
broksele
bron
bronckhorst
bronk
bronkda
bronne
bronneberg
brons
bronte
bronze
brood
brook
brookhaove
brooklyn
broons
broonstied
broonze
broor
bros
brothers
broukzittert
brouns
brounts
brouwer
brouwerij
brouwers
brouwershaven
brown
brt
bru
bruce
bruckner
bruder
brue
brug
brugge
bruggen
brugs
bruins
bruinsma
bruk
brukske
brunei
bruno
brunssum
brunswiek
brussel
brussels
brusselse
bruto
bruxelles
bruyne
brych
bs
bste
bt
bu
buchte
buck
budapes
buddingh
buddy
budel
budget
buenos
buggenum
buigingsoetgaank
buildiere
building
buim
buiten
buitenland
bukske
bul
bulgaars
bulgaarse
bulgarije
bulger
bulk
bull
bulletin
buma
bun
bundel
bundels
bundesland
bundesliga
bung
bunjel
bunnik
bunschoten
buonarroti
burch
burcht
bureau
buren
burg
burgemeester
burgemeister
burger
burgeraorlog
burgerkreeg
burgeroorlog
burgers
burgesj
burke
burkina
burma
bursa
burton
burtscheid
burundi
bus
bush
business
busj
busjoppe
buskerud
busscop
bussum
buste
but
butelste
buten
butler
butte
buul
buuls
buun
buunsjriever
buunwerk
buunwerke
buurt
buurte
buurtschap
buurtsjap
buurtsjappe
buurtsje
buurtvereiniging
buus
buusjop
buut
buuttereedner
buxtehude
bv
bw
by
bynnen
byrd
byron
bystrica
byzantiens
byzantiense
byzantijne
byzantijns
byzantijnse
byzantium
c
ca
caballero
cabaretie
cabaretier
cabaretiers
cabral
cadens
cadenze
cadier
cadmium
cadzand
cadzands
caecilia
caesar
caestert
cafe
cage
cai
caicos
caicoseilen
caipira
calais
calcium
calciumcarbonaat
calcochloris
calcutta
caldera
caldero
cale
caledonie
california
californie
californische
call
cals
calvarie
calvijn
calvin
calvinisme
calviniste
calvinistisch
calvinistische
camargo
cambodja
cambre
cambridge
cambrium
cambuur
camelus
camera
cameron
camiel
camille
camp
campagne
campaign
campbell
campen
campert
camping
campings
campo
camps
campus
camu
camus
can
canada
canadees
canadese
canadesen
canal
canarische
cancer
candidate
candidates
canis
canisius
canon
canons
canta
cantaat
cantate
canterbury
canton
canvas
canyon
cap
capaciteit
cape
capelle
capellen
capitool
capittel
capitulatie
capituleert
capsule
captain
car
carai
caravaggio
carboon
card
care
carel
cargo
caribbean
caribe
caribisch
caribische
carignan
caris
carl
carla
carlo
carlos
carmen
carmina
carnaval
carnavalsvereiniging
carnavalsvereniging
carnegie
carnivora
carnivore
carnot
carol
carolina
caroline
carolus
caron
carre
carrie
carroll
carson
carter
carthago
cartils
cartograaf
cartoonis
cartoons
cas
casa
case
cases
cash
casimir
casino
caspar
casper
cassatie
cassini
cassius
castellum
castelo
castiliaans
castilie
castle
castor
castricum
castro
casus
cat
catacombe
catala
catalaans
catalaanse
catalaons
catalogus
catalonie
catarina
catechismus
categorie
categoriee
categorieje
category
catharina
cathedral
catherine
catilina
cats
cauberg
causa
cavendish
caverne
cavia
cayman
cbs
cc
cctld
cd
cda
cdh
cdl
cdot
cdu
ce
ceara
ceaus
cecil
cecilia
cees
cel
celebes
celkern
celle
celles
cellis
cello
cellosonnaat
celmembraan
celsius
celtic
celwand
cement
census
censuur
cent
center
centimaeter
centimeter
centra
centraal
central
centralbyra
centrale
centrales
centraol
centraole
centre
centro
centrum
centrumlinkse
centrumrechse
century
cercopithecus
ceremonie
ceremonieel
ceres
cerfontaine
cerium
cern
cerrado
cerro
cervantes
ceuta
ceylon
cf
cfa
cfsp
ch
cha
chaam
chad
chalifa
challenge
challenger
chambille
champagne
champagnois
champenois
champions
championship
champs
chan
chandler
chang
change
changed
changes
channel
chanson
chantal
chaos
chapelle
chaplin
chapman
charente
charkov
charleroi
charles
charleville
charlie
charlois
charlotte
charon
charpentier
charter
chateau
chatte
chatterjee
chaucer
chaudfontaine
chbaar
chbaarheid
chbare
chde
che
check
chef
chelsea
chemelot
chemicus
chemie
chemisch
chemische
chen
cher
cherokee
cherson
ches
chester
chez
chfoto
chfotografie
chhave
chi
chicago
chick
chie
child
children
chileense
chili
chimpansee
chimpansees
china
chinatown
chinees
chinese
chinesen
chineze
chinezen
ching
chios
chirac
chirurg
chlamydia
chlorotalpa
chmach
cho
cholera
chomsky
chopin
chor
chordabiee
chordata
choreograaf
chr
chriet
chris
christ
christchurch
christedom
christelek
christeleke
christelijke
christelik
christelike
christelikke
christen
christendemocrate
christendemocratische
christendo
christendom
christene
christenunie
christiaan
christian
christie
christina
christine
christmas
christoffel
christoph
christophe
christopher
christus
chroesjtsjov
chromatiek
chrome
chromosome
chromosoom
chronisch
chronologie
chronologisch
chrysochloridae
chrysochlorinae
chrysochloris
chrysospalax
chstroum
chstroummechanisme
cht
chte
chteg
chtege
chteling
chtelinge
chten
chter
chtig
chtige
chting
chu
chuck
church
churchill
chvaart
chvaartpioneer
chvaartpionier
ci
cia
cicero
ciconia
cie
ciefer
ciefers
cimicifuga
cindy
cineas
cinema
cio
circa
circle
circonflexe
circuit
circumfix
circus
cirkel
cis
cistercie
citadel
citaote
cite
citroe
city
citypopulation
civiel
civiele
civil
civilisatie
civitas
ck
cke
cken
cker
cl
cla
clackamas
claer
claes
claessens
clagen
claim
claimde
claime
claimp
claims
claire
clan
clans
clara
clark
clarke
class
classic
classicisme
classicistisch
classicistische
classificatie
claude
claudia
claudio
claudius
claus
clav
cle
clear
cleber
clemens
clement
cleopatra
clercq
clermont
clerus
clervaux
cleveland
cliche
click
clie
clifford
clijsters
clinton
clip
cloaca
cloacabieste
clock
cloester
close
clovis
clown
club
clubs
clubvoetbal
cluj
cluny
cluster
clusters
clyde
cm
cn
cnn
cnoops
co
coa
coach
coalitie
coat
cobben
cobbenhagen
cobra
coca
cocai
cock
cocker
cockerill
cockney
cockpit
coco
coda
code
codenaam
codes
codex
coe
coen
coenen
coerver
coesfeld
coeur
coevorden
coffeeshops
cognaote
cohen
cola
cole
coleman
colijn
colin
colla
collectie
collectief
collectieve
collection
collectivum
colleesj
collega
college
collins
colloredo
colmar
colobus
colombia
colombiaanse
colon
colonia
color
colorado
colors
coltrane
columbia
columbus
column
columnis
columnist
columniste
columns
colusa
com
coma
combinatie
combinaties
combineerde
combineert
combinere
come
comeback
comedy
comen
coming
comitatief
comite
command
commandant
commandeur
commando
comment
commentaar
comments
commercie
commercieel
commissair
commissaris
commissie
commission
committee
common
commons
commonwealth
commune
communes
communicatie
communicere
communie
communis
communisme
communiste
communistisch
communistische
communities
community
comore
compagnie
company
compass
compassie
compeneert
compenis
compensatie
compensere
competitie
competities
compilatie
compleet
complete
complex
complexe
complexiteit
complicaties
complot
componeerde
componeert
component
componente
componere
componint
componis
componist
componiste
composer
compositie
composities
compressie
compromis
computer
computers
comte
con
concacaf
concentratie
concentratiekamp
concentraties
concentreerde
concentreert
concentrere
concep
concept
concepte
conceptueel
concert
concertante
concerte
concerti
concerto
concessie
concessies
concilie
concludeerde
conclusie
conclusies
concorde
concordia
concours
concreet
concrete
concurrent
concurrente
concurrentie
concurrere
conde
condities
conditioneel
condroz
conduct
confederatie
confederations
conference
conferentie
conflict
conflicte
conflik
conflikte
confrontatie
confucianisme
confucius
congo
congolese
congospraok
congotale
congotaole
congre
congregatie
congres
coninck
conjugatie
conjunctief
conjunctiefvo
conmebol
connecticut
connie
conny
conrad
conscriptie
consecratie
consensus
consequent
consequint
conservatief
conservatieve
conservatiever
conservatisme
conservatorium
consider
consonant
consonante
constant
constante
constantien
constantijn
constantinopel
constitutie
constitutioneel
constructeurs
constructie
constructies
constructus
consul
consultation
consultations
consumptie
contact
contacte
contak
contakte
conte
conteks
contemporain
content
contest
contex
context
continent
continentaal
continentaol
continente
continu
continue
continui
continuo
continuu
contra
contrabas
contrak
contras
contribute
contributors
control
controle
controleert
controlere
controvers
controverse
controversieel
conventie
conventies
conventioneel
convergente
conversation
conversations
conway
coo
cook
cool
coolidge
coolsingel
cooper
copa
copacabana
copernicus
copperfield
cor
corbusier
cordang
core
corelli
coritiba
cork
corneille
cornelis
cornelissen
cornelisz
cornelius
cornisch
cornwall
corona
coronacrisis
coronavirus
corpora
corporation
corps
corpus
corre
correk
correspondeert
correspondentie
correspondere
corresponderend
corresponderende
corridor
corrup
corruptie
corry
corse
corsica
corsicaans
corte
cortenbach
corvus
cos
costa
coster
could
coulomb
council
countries
country
countrymeziek
countryzenger
county
coup
couperus
couple
couppoging
coupures
cour
courant
coureur
coureurs
course
court
couven
cover
covers
covid
cowboy
cox
cpn
cramer
cramers
cramignon
crash
cravate
crazy
cre
create
created
creatie
creatief
creative
credo
cree
creee
cremer
creole
creon
creool
creoolingels
creools
creoolse
creooltaol
creooltaole
creuse
crew
cricket
criens
criminaliteit
crimineel
criminele
crisis
cristal
criteria
criterium
critici
criticus
cro
cromwell
croo
crook
croonenberg
crooswijk
cross
cruciaol
crucifix
cruijff
cruijffsjaol
cruyff
cruz
cry
crypte
cryptochloris
crystal
cs
css
csu
ctie
cu
cuba
cubaanse
cuisine
culemborg
cultivatie
cultural
culture
cultureel
culturele
culturelen
cultus
cultuur
cultuurtaol
cum
cup
curac
curie
curiekardinaal
curitiba
current
currently
curry
cursief
cursus
curtis
cuypers
cv
cvp
cy
cyclocross
cycloon
cyclus
cynici
cynomys
cypriote
cypriotisch
cypriotische
cyprische
cyprus
cyril
cyrillisch
cyrus
cytoplasma
d
da
daa
daacheliks
daag
daagblaad
daagbook
daage
daagleech
daags
daaj
daak
daal
daaltj
daan
daank
daanke
daankzij
daar
daarde
daardemachswortel
daarden
daarteg
daartie
daartien
daartiende
daartienden
daartig
daat
dach
dachte
dadai
dade
dadelik
daden
dader
dadesj
dae
daee
dael
daen
daene
daenemarke
daens
daer
daes
daezelfde
daf
dag
dagblad
dagboek
dage
dageleks
dageliks
dagelikse
dagen
dai
daily
dakar
daker
dakota
dal
dalai
dalarnas
dale
dalek
dalen
dalhem
dali
daling
dallas
dalton
dam
damascus
dame
dames
damesvoetbal
damiaan
damir
damme
damp
dampkrink
dan
danach
dance
dander
dandy
danie
daniel
danig
daniil
dank
danke
dankzij
danne
dannen
danny
dans
danse
dansen
danser
danseres
dante
danzig
dao
daobeej
daobie
daobiej
daobij
daobinne
daoboete
daobove
daod
daodo
daodoor
daodwe
daoe
daog
daogeleks
daojer
daolde
daolgas
daolgaste
daome
daomit
daon
daonaeve
daonao
daoneve
daor
daorentege
daoro
daorom
daorop
daorum
daotaenge
daotege
daotegeneuver
daoto
daotouw
daova
daovaan
daovaandan
daovan
daoveur
daovo
dapperheid
dar
dare
darius
dark
darmstadt
darracq
darter
dartig
darts
darwin
darwinisme
das
dassen
dat
data
database
date
dateert
dateformat
datere
datering
datief
datmen
dats
datse
datsi
dattet
dattu
datum
datzelfde
dau
dauphin
dave
david
davide
davids
davies
davis
davy
dawn
day
days
daz
dbnl
dc
dde
ddel
ddele
dder
dding
ddr
de
dea
dead
deadline
deadly
deal
dean
death
deathmetal
debat
debie
debiet
debij
deborah
debove
debussy
debuteerde
debuut
debuutalbum
dec
december
decennia
decennium
decide
decke
declinatie
declinaties
deco
decor
decoratie
decoratief
decoratieve
decreet
decrete
dede
dedecker
deden
dedoor
dee
deechde
deed
deeg
deej
deejay
deel
deelder
deelgaard
deels
deen
deende
deendje
deenke
deens
deense
deenste
deenstesector
deent
deentj
deenzelfden
deep
deepde
deepdepunt
deepdje
deepste
deepte
deer
deerlijk
deerlik
deerlike
deersaorte
dees
deeskier
deet
default
defensie
defesche
definie
definitie
definitief
definities
definitieve
deg
dege
degene
deginnege
degradatie
degradeerde
degradeert
degradere
dehein
dei
deig
deignan
deil
deilbaar
deilde
deile
deiler
deilgemeinte
deilgemeintes
deiling
deilke
deilkes
deilname
deilnaome
deilnumme
deilnummende
deilnummer
deilnummers
deilraod
deils
deilsjtaat
deilsjtaot
deilstaot
deilstaote
deilt
deilwa
deilwoord
deimos
dein
deis
deit
deje
deken
dekker
dekolonisatie
deks
del
delahaye
delano
delaunesjeidsrechter
delaware
delden
dele
delegatie
deler
deletie
delf
delfland
delfshaven
delft
delftse
delfzijl
delhi
delivery
dell
della
delta
deltawerke
dem
deme
dementie
demer
demi
demissionair
democraat
democrate
democratie
democratiee
democratisch
democratische
demografie
demografisch
demografische
demonstrante
demonstratie
demonstraties
demonstrere
den
denaer
denao
dendermonde
dene
denekamp
denemarke
denemarken
denen
deneve
deng
denis
denk
denke
denne
dennis
denouch
dentaal
dentale
dentaol
dentaole
dentergem
denti
dentificeerd
deo
deodoro
departeme
departement
departemente
departementen
departemint
departeminte
department
depe
deper
depp
depressie
depute
der
derby
derde
derdje
dere
derek
dergelike
derheid
derks
derm
dermanlands
derre
dertiee
dertien
dertiende
dertienden
dertig
dertigjaorige
des
desastreus
descartes
deschutes
dese
desember
desen
deser
desi
desiderius
design
desire
deskundige
desmond
dessins
destieds
det
detail
details
detective
determinisme
detmold
deto
detouw
dette
deu
deuk
deunehe
deunt
deur
deure
deurne
deus
deuterocanonieke
deutsch
deutsche
deutschen
deutschland
deux
devaan
devan
developers
development
deventer
deveur
devies
devisie
devoon
devos
dewiel
dewijl
dez
deze
dezelfde
dezelfden
dezelfdje
dezelvendje
dezen
dh
dha
dhabi
dhtml
di
diacriete
diacritische
diafragma
diagonaal
diagram
diake
diale
dialect
dialecte
dialecten
dialecticon
dialectische
dialectologie
dialek
dialekcontinuu
dialekgebeed
dialekgro
dialekme
dialekoteur
dialeksjriever
dialekt
dialekte
dialekten
dialektische
dialekversje
dialoge
dialoog
diamaant
diamaante
diamaeter
diamant
diameter
diamond
diana
dianthus
dias
diaspora
diaz
dibbets
dic
dich
dichbundel
dichheid
dichotomie
dicht
dichte
dichter
dichteres
dichters
dick
dicke
dickens
dictator
dictatoriaal
dictature
dictatuur
dictee
dictionair
dictionaire
didier
dido
die
diech
diechbevolk
diechheid
diechte
diechter
diechteres
diechters
diechtersj
diechwerk
died
diederen
diederik
diee
dieet
dieg
diego
diej
diek
diekdje
dieke
diekirch
diekke
diekken
dieks
diemen
dien
diene
dienst
dienste
diep
dier
dierbaar
diere
dieren
diergaarde
diersoorte
dies
diese
diesel
dieskau
diest
diet
dietrich
diets
dietz
dieu
diezelfde
diffenisie
diffenitie
different
diftong
diftonge
diftongering
dig
digd
dige
diging
digitaal
digitale
digitaol
digraaf
dij
dijk
dijn
dik
dikke
diks
diksmuide
dilma
dilse
dimensie
dimensies
dimensionaal
diminutief
diminutieve
din
dina
dinant
dinc
ding
dinge
dingen
dinger
dinghen
dinghoes
dingo
dink
dinke
dinkelek
dinkelik
dinken
dinosaurie
dinosaurusse
dinsdag
dinsdig
dio
diogenes
dionysius
diploma
diplomaat
diplomaot
diplomatie
diplomatiek
diplomatieke
diptote
dir
dirck
dire
direc
direct
directe
directeur
direk
direkte
dirigent
dirigente
dirizje
dirizjent
dirk
dirks
dirksland
dirty
dirz
dis
disciplien
discipline
disciplines
disco
discografie
discours
discovery
discriminatie
discuss
discussie
discussies
discussion
discussions
diskette
diskjockey
disney
dispuut
dissemination
dissertatie
dissident
dissidente
dister
distortion
distributed
district
districte
distrik
distrikte
dit
diu
div
divers
diverse
diversiteit
divisie
divisies
divisio
dixieland
diz
dizze
dizzen
dj
django
dje
djen
djerba
djes
djibouti
djokovic
dl
dln
dmitri
dmitrij
dna
dnjepr
do
doa
doabei
doad
doadgesjaote
doadsjtraof
doadurch
doaje
doamit
doanee
doanoa
doar
doaro
doarum
doava
doavan
doavuur
dobbel
dobbelen
dobbelstaar
dobbelstartege
dobbeltwie
doc
docent
doch
docht
dochte
dochter
dochters
dochtertaole
doctor
document
documentair
documentaire
documente
documint
documinte
dode
doden
dodental
doe
doead
doeadstraof
doeaj
doeaje
doed
doedelzak
doedgesjote
doee
doef
doeg
doehw
doej
doeje
doel
doele
doeleinde
doelen
doelsaldo
doelwit
doen
doepvro
doer
doerde
doerdje
doere
doerende
doert
doertj
does
doesburg
doet
doetinchem
doeve
doew
doezend
doezende
dog
doge
dogma
doha
dohmen
dokkum
doksaal
dokter
dokters
dol
dolberg
dolen
dolfijn
dollar
dollars
dolle
dolly
dom
domain
domburg
domein
domeine
domenico
domesticatie
dominant
dominante
dominantie
domine
dominee
domineerde
domineert
dominere
domingo
dominica
dominicaanse
dominicaone
dominicus
dominion
dominique
domino
dommel
don
dona
donald
donato
donatus
donau
donaudelta
donaumonarchie
donbass
donderdag
done
donetsk
dong
dongen
dongeradeel
donizetti
donjon
donk
donker
donna
donner
doo
dood
doog
dooje
dook
doolaard
doon
doonder
doonderdag
doonker
doonkerblauw
doonkergreun
doonkerkleurende
door
doorbraak
doorbraok
doorbreke
doordat
doorde
doordet
doorein
doorgank
doorgaonde
doorgaons
doorgegeve
doorgeit
doorgemaak
doorgetrokke
doorgeveurd
doorgezat
doorgo
doorgoon
doorhaer
doorkruuts
doorleep
doorlo
doorloupe
doorloupend
doorloupende
doorn
doornik
doors
doorsjnee
doorsnee
doorsnei
doorsnoje
doort
doortot
doortre
doorze
doos
doot
dor
dora
dorado
dordogne
dordrech
dordrecht
dordts
dore
doren
doris
dorisch
dorische
dorothy
dorp
dorplein
dorpsstraat
dorren
dors
dorste
dortmund
doruske
dos
dossier
dostojevski
dot
dou
douane
douard
double
douf
douglas
doum
douve
douwe
douwes
dow
down
dr
dra
draag
draagbaar
draagtied
draak
draank
drach
drachter
draf
draft
drafting
drage
dragen
drager
draghi
dragon
drake
drama
dramafilms
dramatisch
dramatische
drang
drank
draod
draoge
draon
drastisch
dre
dream
dreef
dreej
drees
dreesj
drei
dreie
dreig
dreigde
dreige
dreiging
dreihook
dreij
drej
drejde
drejje
drejjing
drejt
drejtj
drek
drekke
drekskaters
dremmen
drente
drenthe
drents
drentse
dresden
dressuur
dreue
dreug
dreuver
dreyfus
drie
driebergen
driede
driee
driehook
driej
driejde
drieje
driek
driekeuninge
driel
drielandepunt
dries
driesjprunk
drieske
driessen
drieve
drimmelen
drin
drincken
dringe
drink
drinke
drinken
drinkwater
dro
droeg
droepele
droet
droeve
droge
dromen
dronten
droog
droom
droonder
drop
drosamb
droum
drs
dru
drue
drug
druge
druger
drugs
drui
druim
druime
druk
drukke
drum
drumband
drummer
drums
drupelkes
druue
druueg
druuege
druug
druugde
druuggelag
druugle
druyt
ds
dsdet
dsj
dsje
dsjes
dsjtried
dsm
dsmis
dstrijd
dstrije
dt
dte
du
dualis
dub
dubai
dubbel
dubbele
dublin
dubois
duc
duchte
duda
dudelek
dudeleke
dudeleker
dudelekste
dudelik
dudelike
dudok
due
duel
duette
duide
duie
duin
duine
duinkerke
duip
duipde
duipe
duiper
duis
duisburg
duisenberg
duit
duitj
duits
duitse
duitsen
duitser
duitsers
duitsland
duitslandj
duitstaoleg
duitstaolege
duiveland
duivelands
duiven
duizend
duizenden
duje
dujelek
dujeleke
duk
duke
dumas
dumoulin
dun
duna
dunant
dunbevolk
dunbevolkde
duncan
dune
dunne
dunnen
dunner
dunt
duo
dur
duran
durch
durchdat
durchgestrichen
durchgestrichenes
dure
during
durp
dus
dusseldo
dut
dutch
dutroux
duudelik
duuk
duunkirke
duur
duurstede
duusbo
duuster
duustere
duusternis
duut
duuts
duutse
duutsj
duutsje
duutsjen
duutsjer
duutsjers
duutsjlaand
duutsjland
duutsjlandj
duutsjtalige
duutsland
duutslandj
duutstaolege
duvel
dvd
dvor
dwars
dweers
dweersbalk
dweersj
dwerg
dwergplaneet
dwergsjtaat
dwergstaot
dwergstaote
dwest
dwight
dwinge
dwo
dwong
dy
dyck
dydo
dye
dylan
dynamiek
dynamisch
dynamische
dynastie
dz
dzjanoebstadionsjeidsrechter
dzje
dzjie
dztwo
dʒ
e
ea
each
eagles
earl
early
earring
earth
easier
east
eastern
easy
eau
eb
ebcd
eben
ebook
eburone
ecb
ech
echel
echgenote
echo
echpaar
echs
echt
echte
echteg
echtege
echten
echter
echterbo
echternach
echtige
eclectische
eco
ecolo
ecologie
ecologische
economic
economie
economisch
economische
economist
econoom
ecosysteem
ecr
ecrevisse
ecuador
ed
edam
eddie
eddy
ede
edel
edele
edelmaan
edelman
eder
edere
ederein
edereine
ederen
edersjaor
ederskier
edert
edgar
edge
edicions
edik
edinburgh
edison
edit
edith
editie
edities
editing
editor
editors
edmond
edmund
edouard
edt
eduard
educatie
educatief
education
edvard
edward
edwards
edwin
ee
eea
eecheltenrek
eed
eede
eeden
eeder
eedere
eederein
eeg
eege
eeges
eehne
eej
eeklo
eemsdelta
een
eendracht
eene
eenen
eenheed
eenheid
eenkel
eens
eenvoudige
eer
eerd
eerdbeving
eerde
eerden
eerder
eerdgaas
eerdolie
eerdse
eerdsjo
eerdsjok
eeren
eers
eersel
eerst
eerste
ees
eesjte
eethen
eeuw
eeuwe
eew
ef
effe
effect
effecte
effectief
effek
effekte
effeld
effen
efficie
efkes
eg
egaal
egan
egbert
ege
egei
egelig
egelik
egelike
egelze
eggen
eggink
egidius
egks
eglise
egmond
egmonds
egmont
ego
egypt
egypte
egyptenere
egyptisch
egyptische
egyptoloog
eh
ehrenstein
ei
eicel
eid
eide
eidos
eier
eifel
eiffel
eiffeltaore
eige
eigedo
eigedom
eigelek
eigeleke
eigelik
eigelike
eigen
eigenaer
eigenaere
eigendo
eigendom
eigeneer
eigenlek
eigensjap
eigensjappe
eigentlik
eigesjap
eigesjappe
eight
eijer
eijk
eijn
eijsde
eijsden
eik
eike
eikehout
eikel
eikes
eilaand
eiland
eilande
eilandegro
eilanders
eilandj
eilandje
eilandjgroep
eilandnatie
eilank
eilat
eilen
eilendjes
eilendsje
eilendsjes
eileng
eilengro
eilenj
eime
ein
einanger
eind
einde
eindege
eindelijk
eindelik
eindhove
eindhoven
eindig
eindigde
eindige
eindigt
eindj
eindjklasseme
eindjklassement
eindklassement
eindredactie
eine
eineg
einege
einegste
einem
einen
einentwintegsten
einentwintigste
einentwintigsten
einer
einerzieds
eines
einhede
einheid
einheidsmiervoud
einheidsstaot
einheje
einige
einja
einmaol
einmaoleg
eins
einsegste
einstein
eint
eintaoleg
eintracht
einveljig
einzijeg
eis
eisde
eise
eisenach
eisenhower
eist
eiwit
eiwitte
ej
ejn
ek
eke
eksel
el
elbe
elburg
eldere
elders
ele
election
elections
electric
elefante
elegant
elekom
elektricite
elektriciteit
elektrisch
elektrische
elektromagnetische
elektromagnetisme
elektron
elektrone
elektronica
elektronisch
elektronische
elektrotechnicus
elektrotechniek
elemaent
elemaente
eleme
element
elementair
elemente
elemint
eleminte
elf
elfdaals
elfde
elftal
eli
elias
eligible
elio
eliot
elisa
elisabeth
elisie
elitair
elite
elizabeth
elk
elkaar
elke
elkerao
elko
ell
ella
elle
ellef
ellen
ellington
elliptische
ellis
elon
elpee
els
else
elsene
elsevier
elsloo
elsschot
elst
elvis
elzas
elzassisch
elzenga
em
emael
email
emancipatie
emanuel
embleem
embraer
embryo
embryophyta
emeritus
emerson
emes
emfatische
emi
emigratie
emil
emile
emilia
emilio
emily
emir
emiraote
emirate
emma
emmanuel
emmeloord
emmen
emmer
emmy
emotie
emoties
emotioneel
emper
empire
empirische
ems
emu
en
enabled
enci
enclaaf
enclave
enclaves
enclitisch
enclitische
encourage
encycliek
encyclieke
encyclopedie
end
ende
endeavour
endemisch
endemische
endepols
endstra
endurance
ene
eneas
enease
enen
energie
enerzjie
enforcement
eng
engagement
enge
engel
engeland
engelbert
engelen
engelman
engels
engelsje
enghel
engineering
engis
england
english
engsteg
enig
enige
enigste
enisj
enisje
enj
enkel
enkele
enkhuizen
enne
ennen
ennepe
enorm
enorme
enormen
enosis
enque
enquist
enrico
ens
enschede
ense
ensemble
ensembles
ent
entaere
entans
entege
entente
enter
enterprise
enthousias
enthousiasme
entiteit
entomoloog
entree
enz
enzo
enzoewijer
enzym
enzyme
eo
eolisch
ep
epe
epen
epicentrum
epidemie
epiek
epifanie
epirus
episch
epische
episode
epistele
epos
eppel
equivalent
equivalente
equus
er
era
erasmus
erd
erde
erden
erdog
ere
erectus
eredivisie
eren
erens
erenstein
erf
erfde
erfenis
erfgoed
erfgood
erg
erga
ergatief
erger
ergste
eric
erica
erich
erik
eriksen
eriksson
eris
eritrea
erkaant
erke
erkende
erkenne
erkenning
erkens
erkind
erkinde
erkinne
erkinning
erkint
erko
erm
erme
ermer
ermeuj
ermooj
ermste
ernest
ernsjtig
ernst
ernstig
ernstige
erosie
erotische
erp
erpel
erreg
error
ers
erste
ert
erts
ervaoring
ervare
ervaring
ervaringe
erve
erwin
es
esa
escargot
esch
eschweiler
escu
esj
eskimo
esland
eslandj
eslandse
eslenjers
esmeralda
esneux
esnog
esof
esouch
esp
espan
esperanto
espi
essay
essayis
essayist
essays
esse
essen
essential
essentie
essentieel
essers
est
esta
estafe
este
esther
esthetiek
estisch
esttot
estuarium
estuariumingels
et
eta
etappe
etappes
etc
ete
eten
eters
ethanol
ethiek
ethiopie
ethiopisch
ethiopische
ethisch
ethische
ethnologue
etienne
etniciteit
etnisch
etnische
etruske
etten
etterbeek
etymologie
etymologiebank
etymologisch
etymologische
eu
euangelien
euch
eucharistie
eudaimonia
eufraat
euge
eugene
eugenius
euj
eukarya
eukaryote
eulalie
euler
eumetazoa
eupe
eupelek
eupen
eupener
eupening
eupent
eur
euratom
euraziatische
eurazie
eure
euregio
euregionaal
eureka
euripides
eurlings
euro
eurocent
eurocrisis
euromunte
europa
europacup
europarlemintarie
europe
europeaan
european
europeane
europeaon
europeaone
europees
europese
europesen
europium
euroscepticisme
eurovisie
eurovisiesongfestival
eurozone
eus
euskirchen
eussen
eustatius
euthanasie
eutheria
euthyphro
euver
euveral
euverbleef
euverbliefsel
euverbliefsele
euverblievende
euverblievendje
euverbojeg
euverbringe
euverbro
euverdaag
euverde
euverdeil
euverdosis
euverdrach
euverdrage
euverdreve
euvere
euverege
euveregens
euvereges
euverein
euvereinko
euvereinkoms
euvereinkomste
euvereinkump
euvereinstumming
euveren
euvergaaf
euvergaank
euvergaanksgebeed
euvergangsmetaal
euvergank
euvergaon
euvergebleve
euvergebrach
euvergedrage
euvergegaange
euvergegange
euvergeit
euvergeleverd
euvergelieverd
euvergeng
euvergeno
euvergenome
euvergenomme
euvergepak
euvergeslage
euvergewejd
euvergezat
euvergo
euvergoon
euvergroet
euvergroete
euverhand
euverhede
euverheen
euverheers
euverheerse
euverheersing
euverheid
euverhiee
euverhiers
euverhiersing
euveriessel
euverig
euverige
euverigens
euveriges
euverijssel
euverind
euverkant
euverkantj
euverkoepelende
euverkoume
euverlaef
euverlaeve
euverlas
euverle
euverleef
euverleefde
euverleej
euverleje
euverleve
euverlevende
euverlevering
euverlieje
euverliejt
euverlievering
euvermaas
euvermach
euvernaom
euvernaome
euvernumme
euvernump
euversjtruiminge
euverstap
euversteke
euverstruiminge
euvertuig
euvertuigend
euvervalle
euververhitte
euverwaegendj
euverwegend
euverwinne
euverwinning
euverwinninge
euverze
euverzich
euverzichskaart
euverziech
euverziechtelek
euverzies
euverziese
euze
euzen
ev
eva
evacuatie
evangelie
evangelies
evangelis
evangelisch
evangelische
evans
evas
eve
evegood
evehovege
evekes
evel
evels
even
evenaar
eveneer
eveneme
evenement
evenemente
evenemint
eveneminte
evenepoel
evenhuis
event
eventing
events
eventueel
eventuele
ever
everest
everhard
everly
evert
everton
every
everyone
everything
eveva
evewiech
evezoe
evic
evil
evo
evolueerde
evolutie
evolutietheorie
evolutionair
evp
evrm
evvel
ew
eweg
eweggehaold
eweggelaote
ewegvalle
ex
exacte
exactum
exak
exakte
exakter
exame
excelsior
exclave
exclaves
exclusief
excuses
executie
executieve
executive
exemplaar
exemplaire
exemplare
existentialisme
exodus
exoot
exoplanete
exote
exotische
expansie
expeditie
expedities
experience
experiment
experimente
experimenteel
experimentele
experimentere
experimint
experiminte
expertise
experts
expliciet
explodeert
exploitatie
exploitere
explosie
explosief
explosies
explosieve
export
exportprodukte
expositie
exposities
expres
express
expressie
expressief
expressionisme
expressionistische
extension
exterieur
extern
externe
externen
extra
extreem
extreemrechse
extreme
extremer
extremiste
extremistische
eyck
eye
eyes
eygelshoven
eyn
eyne
eynen
eys
ez
ezel
ezra
ezzebleef
f
fa
faas
fabel
faber
fabio
fabiola
fabriek
fabrieke
fabrikant
fabrikante
fac
face
facebook
facilite
faciliteite
faciliteitegemeinte
facties
facto
factor
factore
facultatief
faculteit
faero
faghani
fagot
fahd
fahrenheit
failliet
fair
falcon
faliskisch
falkland
falklandeilen
fall
falls
fame
famenne
famfaar
familie
families
family
fan
fanfaar
fanfare
fanklubs
fanny
fans
fantasie
fantasy
far
faraday
farao
faro
fascisme
fasciste
fascistisch
fascistische
fase
fases
faso
fastfood
fataal
fatima
fats
fauna
faure
faust
favoriet
favoriete
favorite
faz
fc
fdc
fde
fdp
fe
feature
features
febriek
febrik
febrikke
februari
february
federaal
federal
federale
federaol
federaole
federatie
federer
federico
fee
feedback
feel
fees
feest
feet
feguur
fehlen
fehlt
fei
feijenoord
feit
feite
feitelek
feiteleke
feitelik
feith
fel
feldberg
felipe
felis
felix
felle
fellow
femielie
femielies
femielje
femieljenaam
femieljename
femieljes
femilie
femilies
femiliewaope
feminisme
feministe
femke
femme
fenicie
fenicisch
fenomeen
fenomene
fens
feodaol
fer
ferdinand
ferenc
fermi
fermione
ferna
fernand
fernandes
fernando
ferrari
ferrie
ferry
ferus
festival
festivals
festiviteite
few
fexhe
fey
feyenoord
fez
ff
ffe
ffelse
ffen
ffende
fficie
ffing
fi
fia
fiat
fib
fibberwaar
fibberwari
fibberwarie
fibonacci
fictie
fictief
fictieve
fiction
fidderaal
fidderaol
fidderatie
fidel
fidelio
fidesz
fie
fiee
fieftig
field
fien
fiene
fies
fiesdaag
fieste
fiets
fietsde
fietse
fietsere
fietserenne
fietserenner
fietsers
fietsj
fietsrenne
fietsrenner
fietsrenners
fifa
fifi
figaro
fighters
figure
figuur
fiji
fijn
filantroop
file
files
filip
filipiene
filipiense
filipijne
filipijnse
filippo
filips
film
filmacteur
filme
filmindustrie
filmkes
filmmeziek
filmografie
filmproducent
filmregisseur
filmrezjiseur
films
filoloog
filosofe
filosofie
filosofisch
filosofische
filosoof
filter
fin
finaal
final
finale
finales
finalis
financie
financieel
financies
finaol
find
fine
finish
finlaand
finland
finlandj
finn
finnmark
finoegrische
fins
finse
fire
firma
first
fis
fischer
fit
fitserenne
fitserenner
fitzgerald
five
fix
fjodor
fjord
fjordane
fjorde
fke
fkes
fla
flaarisse
flagellae
flakkee
flakkees
flash
flat
flats
fle
flecterende
flectie
fleetwood
fleming
fles
flesj
flesje
fletcher
flevoland
flexibel
flexie
flink
flinke
flo
flodder
floor
flor
flora
flore
florence
flores
floriade
florida
floris
flot
floyd
flu
fluit
fluite
flush
fm
fo
focus
foebbeler
foetbal
foj
fokke
fokker
folk
folklore
folkloristische
following
fonds
foneem
foneme
fonetiek
fonetisch
fonetische
fonologie
fons
fontaine
fontainebleau
fontana
fontein
fontsize
football
for
force
forces
ford
foreign
forenze
forenzeplaots
forest
form
formaat
forman
formaot
format
formateur
formatie
formeel
formele
former
formulai
formule
formuleert
formuul
fors
forse
forsje
fort
forte
fortis
fortuna
fortuyn
forum
forward
fosfor
fossiel
fossiele
foster
foto
fotogalerie
fotograaf
fotografie
fotomodel
fotone
fotosynthees
fotosynthese
foucault
found
foundation
four
fourier
fout
foute
foutief
fox
fr
fra
fraanke
fraankriek
fraans
fraanse
fraanstalige
frac
fractie
fracties
fractieveurzitter
fragaria
fragmaent
fragment
fragmint
fragminte
frame
frameless
franc
franca
france
frances
francesca
francesco
francesjeidsrechter
francis
francisco
franciscus
francisturbine
franck
franco
franeker
franekeradeel
frang
frank
franke
frankfurt
frankfurter
frankisch
frankische
franklin
frankriek
frankriektot
frankrijk
franquinet
frans
franse
fransen
fransisco
fransman
fransoee
fransoos
fransoze
franssen
franstalig
franstalige
franstaoleg
franstaolege
frantis
franz
franzue
frappart
frase
frau
fraude
fre
fred
freddie
freddy
frederic
frederick
frederik
free
freedom
freeman
freemaps
freetown
freiburg
freie
french
frens
frequent
frequentie
frequint
frequinte
fresco
fresno
freud
freude
fricatief
fricatieve
frieda
friedrich
friends
fries
friese
friesen
friesland
frieslandj
friestaoleg
friet
friete
frieze
frings
fris
friso
frissen
frits
fritz
fro
from
frompos
front
frontex
fronton
froont
frowe
fru
fruit
fruitteelt
fryske
frysla
fs
fse
ft
fte
fteciefer
ftied
fu
fuga
fuhlrott
fulham
full
functie
functies
functioneel
functioneert
functionere
fundamente
fundamenteel
funds
fungeerde
fungeert
funk
funktie
funs
fuseerde
fusere
fusie
fusiegeme
fusiegemeinte
fusiepartners
fusies
fusionering
future
futurum
fvd
fylke
fysica
fysicus
fysiek
fysieke
fysiologie
fysioloog
fysisch
fysische
g
ga
gaaf
gaal
gaan
gaank
gaans
gaanse
gaar
gaard
gaaroet
gaas
gaasterland
gaasturbine
gaasturbines
gaasvo
gaaswinning
gaat
gabon
gabrie
gabriel
gabrielle
gadgets
gadj
gae
gaee
gaef
gael
gaeld
gaele
gaelic
gaelisch
gaen
gaer
gaerne
gaers
gaet
gaetano
gaeve
gaeven
gaf
gaff
gaga
gagarin
gahns
gair
gaius
gal
gala
galblaos
galen
galerie
galg
galgenwaard
galicie
galicisch
galilei
galileo
gallen
gallerie
gallery
gallia
gallie
gallisch
gallische
gallium
gallo
galop
gama
gambia
game
games
gamma
gammastraoling
gan
gandhi
gang
gangbaar
gangelt
ganges
gangeste
gank
gans
ganse
gansen
gansewinkel
gao
gaode
gaods
gaoe
gaof
gaoje
gaon
gaot
gaove
gap
gar
garantie
garci
garcia
gard
garda
garde
gardedans
garden
gare
gares
garfield
garibaldi
garin
garnizoen
garonne
garros
gary
gas
gasarbeiers
gashier
gashoes
gasland
gaslandj
gast
gaste
gasteiz
gastel
gastes
gaston
gat
gate
gater
gates
gau
gaudi
gauguin
gaulle
gauw
gaw
gay
gaza
gaze
gd
gde
gdebo
gdje
gduutsj
ge
gea
geaccepteerd
geach
geaf
geaffecteerd
geallieerd
geallieerde
geannexeerd
geannexeerde
gear
gearchiveerd
gearresteerd
gearticuleerd
geaspireerde
geassimileerd
geassocieerd
geassocieerde
geb
geba
gebak
gebakke
gebaoe
gebaordje
gebaore
gebaoren
gebaorte
gebare
gebaseerd
gebaseerde
gebaseerdj
gebasseerd
gebe
gebed
gebede
gebeder
gebeed
gebeeje
gebeie
gebeije
gebeje
gebejer
geben
gebergde
gebergte
gebeurd
gebeurde
gebeure
gebeurt
gebeurtenis
gebeurtenisse
gebeurtj
gebied
gebiede
gebieden
gebirgde
gebirgdes
gebleke
gebleve
geblokkeerd
geblokkeerdj
gebo
geboare
gebod
gebode
geboedj
geboew
geboewd
geboewde
geboewdj
geboewe
geboewer
gebojd
gebombardeerd
geboonde
geboorte
geboortehoes
geboorteplaats
gebore
geboren
gebouw
gebouwd
gebouwe
gebrach
gebraoke
gebrauk
gebrek
gebreurs
gebroe
gebroeders
gebroek
gebroekd
gebroekde
gebroekdje
gebroeke
gebroekelik
gebroeken
gebroeker
gebroekers
gebroekt
gebroektj
gebroke
gebrook
gebruik
gebruikt
gebruke
gebrukelek
gebrukeleke
gebrukeleker
gebrukelekste
gebrukelik
gebruker
gebrukers
gebruuk
gebruukd
gebruukde
gebruuke
gebruukt
gebue
gebundeld
gebuuwke
gecentraliseerdj
geciteerd
geclaimp
geclassificeerdj
gecombineerd
gecombineerde
gecompleceerde
gecompliceerd
gecompliceerde
gecompliceerder
gecomponeerd
gecomponeerde
geconcentreerd
geconcentreerdj
geconsacreerde
gecontroleerd
gecoo
gecorrigeerd
gecree
gecultiveerd
geda
gedaan
gedach
gedachte
gedachtegood
gedachten
gedachtenis
gedaen
gedan
gedaon
gedateerd
gede
gedechte
gedeelte
gedeend
gedefinieerd
gedefinieerde
gedegradeerd
gedeild
gedeilde
gedeildj
gedeilte
gedeiltelek
gedeilteleke
gedeiltelik
gedeiltelike
gedeiltes
gedemonstreerd
gedemp
gedeporteerd
gedeputeerde
gedetailleerde
gedeuns
gedich
gedicht
gedichte
gedichten
gedichter
gediech
gediechte
gediechter
gediffenieerdj
gediscrimineerd
gediskwalificeerd
gedo
gedoad
gedoan
gedocumenteerd
gedoed
gedoee
gedoerende
gedoerendje
gedolve
gedomesticeerd
gedomineerd
gedoon
gedoord
gedorende
gedraag
gedrag
gedrage
gedraoge
gedrejd
gedrejdj
gedreug
gedreve
gedro
gedroonke
gedrue
gedrukt
gedruueg
geduip
gedurende
geduujdj
gedwo
gedwonge
gedwoonge
gee
geef
geeft
geej
geel
geen
geer
geerlings
geert
geertruid
geertruidenberg
gees
geest
geet
geetiezere
gef
gefok
geformeerd
gefuseerd
gegaange
gegaee
gegaete
gegaeve
gegaeves
gegange
gegaon
gegaove
gege
gegee
gegete
gegeve
gegeven
gegeves
gego
gegoeid
gegraove
gegrave
gegreujd
gegro
gegrundj
geh
gehaaje
gehad
gehadj
gehaje
gehalde
gehalte
gehandhaaf
gehange
gehanteerd
gehaoje
gehaold
gehaoldj
gehaowe
gehauwe
gehawte
gehawwe
gehee
geheel
geheim
geheime
geheite
geheuge
gehie
gehiee
gehiel
gehiemeld
gehiemelde
geho
geholpe
gehoute
gehouwe
gehouwte
gehuch
gehuchske
gehucht
gehuchte
gehuchter
gehue
gehuur
gehuurd
gei
geiger
geilder
geilekirke
geilenkirchen
gein
geine
geinen
geis
geiselik
geiselike
geiste
geistelek
geisteleke
geistelik
geistelike
geistelikke
geister
geistere
geit
geite
geitj
gej
gek
gekald
gekaldj
gekanaliseerd
gekanteelde
gekaoe
gekaok
gekaoze
gekap
geke
gekeke
gekind
gekinmerk
gekke
geklasseerde
gekleid
gekleurd
gekleurde
gekloonke
geklop
gekluuerdj
geko
gekoch
gekoloniseerd
gekomme
gekopieerd
gekoppeld
gekos
gekoume
gekoze
gekozen
gekrege
gekrenkdje
gekrenkdjes
gekro
gekroand
gekroend
gekwartileerd
gekweek
gel
gelaank
gelaat
gelach
gelaee
gelaef
gelaege
gelaegeheid
gelaeje
gelaen
gelaenbaek
gelaenge
gelaengen
gelaens
gelaense
gelaeze
gelag
gelaje
gelanceerd
gelang
gelaoge
gelaoje
gelaote
geld
gelde
geldeg
gelder
geldere
gelderland
gelderlandj
geldermalsen
gelders
gelderse
geldgebrek
geldj
geldrop
geldt
gele
gelee
geleef
geleefde
geleen
gelege
gelegeheid
gelegenheid
geleid
geleidelek
geleidj
geleie
geleielik
geleijd
geleije
geleje
gelek
geleke
geleuf
geleverd
geleverdj
geleze
gelidpoetege
gelidpuuetige
gelie
geliee
geliek
geliekaardeg
geliekaardege
gelieke
geliekenis
geliekheid
gelieknamig
gelieknamige
gelieknaomeg
gelieknaomege
geliekspeul
geliektiejig
geliend
gelierd
gelierde
gelieverd
gelik
gelink
geliquideerd
gelitterdjheid
gelje
gelle
gelo
geloerd
gelof
gelofte
geloge
geloot
gelouf
geloupe
gelre
gelt
gelu
geluid
geluide
geluidloeze
geluif
geluifde
geluive
geluivege
geluivige
geluk
gelukkig
gemaak
gemaakde
gemaakt
gemaaktj
gemaete
gemak
gemakd
gemakt
gemale
gemaol
gemaole
gemaoteg
gemaotegde
gemaotigdje
gemarginaliseerd
gemarkeerd
geme
gemee
gemeenschap
gemeensjap
gemeensjappe
gemeente
gemeenten
gemeentewapen
gemein
gemeind
gemeinde
gemeinden
gemeindj
gemeindje
gemeine
gemeinebe
gemeinelek
gemeinelik
gemeingood
gemeinlik
gemeinsjap
gemeinsjappe
gemeinsjappelek
gemeinsjappeleke
gemeinsjappelik
gemeinsjappelike
gemeint
gemeinte
gemeinteatlas
gemeintebestuur
gemeintecode
gemeintegrenze
gemeintegrot
gemeintehoes
gemeintelek
gemeinteleke
gemeintelike
gemeinteraod
gemeinteraodslid
gemeinteraodsverkezinge
gemeintes
gemeintewaopes
gemejnte
gemekelek
gemekeleke
gemekeleker
gemekkelek
gemekkelik
gemeld
gemengde
gemert
gemete
gemetselde
gemiddeld
gemiddelde
gemiddeldj
gemiddeldje
gemiee
geminde
gemingde
gemingdes
gemingdje
gemingk
gemini
geminte
gemis
gemmenich
gemojld
gemonteerd
gen
genaamde
genaamp
genade
genaesko
genageld
genaome
genaomp
gend
gende
gendom
gene
geneeskunde
geneet
generaal
general
generaliteitslen
generaol
generatie
generaties
generatieve
generation
generator
genesen
genesis
genete
genetica
geneticus
genetisch
genetische
geneumd
geneumde
geneumden
geneumdje
geneump
geneze
genezing
genf
geng
genhout
geniaol
genie
geniee
genitief
genius
genk
genne
gennep
genneps
geno
genocide
genoeg
genoetsjap
genoetsjappe
genog
genome
genomen
genomineerd
genomineerde
genomme
genoog
genoom
genootschap
genormaliseerd
genot
genoteerd
genoveva
genre
genres
gent
gentiloni
gents
gentse
genua
genuch
genumd
genump
genumpdj
genumt
genus
genuuje
geo
geograaf
geografie
geografisch
geografische
geography
geologe
geologie
geologisch
geologische
geoloog
geometrische
geopend
geordend
georg
georganiseerd
georganiseerde
georganiseerdj
george
georges
georgi
georgia
georgie
georgisch
georgische
georie
gepaard
gepak
gepalataliseerd
gepalataliseerde
gepalataliseerdj
gepasseerd
geperbeerd
geperduceerdj
geplaats
geplaatsj
geplaatsjt
geplaeg
gepland
geplande
geplant
geplaog
geplaots
geplee
gepleeg
geplek
geplo
geplunderd
geplunjerd
gepraot
gepresenteerd
gepresteerd
gepreze
geprizzenteerd
geprobeerd
geproduceerd
geproduceerdj
gepromoveerd
gepubliceerd
ger
geraak
geraakde
geraekend
geraekendj
gerais
gerald
geraniejums
gerard
gerardus
gerbrand
gerd
gere
gerealiseerd
gerech
gerechshof
gerechte
gereconstrueerd
gered
gereduceerd
gereeje
gereemsel
gereformeerd
gereformeerde
geregeerd
geregeld
geregeldj
geregisseerd
geregistreerd
gereguleerd
gereid
gereidsjap
gereidsjappe
gereit
gereje
gerekend
gerelateerd
gerenoveerd
gerestaureerd
gerestereerd
gerhard
gerhardt
gerich
gerichde
geridduceerd
geriech
geriechde
geriee
geriegierd
gerifformeerd
gerifformeerde
gering
geringen
gerippereerd
gerlach
gerlache
gerlachus
gerlachuske
germaans
germaanse
germain
german
germane
germania
germaonse
gerne
gero
gerold
gerooide
gerope
gerretson
gerrit
gerry
gers
gershwin
gert
gertrudis
geruchte
gerund
gerunde
gerundium
gerwen
ges
gesach
gesagen
gesaneerd
gesang
gesant
geschichte
geschiedenis
geschreve
geschreven
gescoord
geseerd
geselecteerd
gesellen
geserveerd
gesitueerd
gesjaats
gesjaope
gesjape
gesjat
gesje
gesjeie
gesjeije
gesjichde
gesjiechte
gesjieddenis
gesjiedenis
gesjiedkundige
gesjik
gesjikde
gesjikt
gesjilderd
gesjlach
gesjlage
gesjlaoe
gesjlaote
gesjloate
gesjloop
gesjlote
gesjneje
gesjo
gesjors
gesjote
gesjpeeld
gesjpeld
gesjpeuld
gesjpraoke
gesjprek
gesjprekke
gesjproake
gesjproke
gesjraeve
gesjrap
gesjreve
gesjreven
gesjriee
gesjrif
gesjrifte
gesjtange
gesjtaon
gesjtart
gesjte
gesjteente
gesjteld
gesjteund
gesjtich
gesjticht
gesjtiech
gesjto
gesjtoke
gesjtop
gesjtorve
gesjtump
gesjtuurd
geslaag
geslach
geslachskrenkdes
geslachte
geslachtelek
geslage
geslaote
geslech
geslechte
gesloop
geslote
geslotener
gespa
gespanne
gespaord
gespe
gespecialiseerd
gespecialiseerde
gespeeldj
gespeld
gespeuld
gesplete
gesplits
gespot
gespraoke
gespraoken
gesprek
gesprekke
gesproke
gesproken
gestande
gestanderdiseerdje
gestart
geste
gestege
gesteinte
gesteund
gestich
gestiech
gestiedeg
gestiedegaon
gestif
gesto
gestoke
gestop
gestorve
gestump
get
getaal
getal
getale
getalle
getan
gete
geteeld
geteikend
geteikendj
getekend
getelands
getes
getiee
getiej
getieje
getiteld
geto
getongk
getraind
getransformeerd
getransporteerd
getro
getroffe
getroffen
getrojd
getrokke
getrouw
getrouwd
getrouwde
getrouwe
getuge
getuig
getuige
getuiges
getuind
getuug
geu
geuf
geujer
geul
geuldal
geulem
geulemerberg
geulle
geulrand
geun
geunt
geur
geurts
geus
geusselt
geuze
gevaange
gevaangene
gevaangenis
gevaar
geval
gevalle
gevallen
gevange
gevangene
gevangenis
gevangenissjtraof
gevangesjap
gevaor
gevare
gevarieerd
gevarieerde
geve
gevech
gevechte
geveerd
gevel
gevele
geven
geverendeild
geverik
gevesteg
gevestig
gevestigd
geveug
geveujd
geveul
geveuld
geveuleg
geveules
geveulig
geveurd
gevie
geviee
gevier
gevierd
gevierlek
gevierleke
gevlaoge
gevlo
gevlochte
gevo
gevocaliseerd
gevochte
gevoed
gevolg
gevolgd
gevolge
gevolgen
gevonden
gevonge
gevonje
gevoog
gevoonde
gevoonte
gevorderde
gevormd
gevormp
gevraog
gevraogd
gevu
gewaardeerd
gewach
gewaer
gewaes
gewaeze
gewalt
gewan
gewant
gewaopend
gewaore
gewaoren
gewas
gewasse
gewe
gewee
geweend
gewees
geweest
geweigerd
geweld
gewelddadige
geweldig
geweldj
gewervelde
gewerveldje
gewes
gewest
geweste
gewete
geweun
geweunlik
geweunte
geweure
geweustrao
geweze
gewich
gewiech
gewied
gewiedj
gewiejd
gewijd
gewinnen
gewirk
gewis
gewisseld
gewo
gewoare
gewoe
gewoee
gewoen
gewoend
gewoene
gewoenen
gewoente
gewond
gewonde
gewonden
gewone
gewonne
gewoon
gewoond
gewoorde
gewore
geworteld
gewunnen
gewuns
gewuuen
gewuuenlik
gewuunlik
gezaange
gezach
gezag
gezagd
gezagveurder
gezamelek
gezameleke
gezamelik
gezamelike
gezat
gezatj
gezatte
geze
gezeen
gezegend
gezelle
gezellig
gezelligheid
gezelsjap
gezet
gezete
gezich
gezicht
geziech
geziee
gezien
gezin
gezinne
gezinsgruutte
gezo
gezoch
gezond
gezonge
gezoond
gezoondheid
gezoondheidszo
gezoonge
gge
ggen
ggetj
gh
ghana
ghanese
ghe
ghebede
ghedaen
ghenade
ghenesen
gherne
ghesellen
ghetrouwe
gheuen
ghewalt
ghewan
ghi
ghij
ghijsen
ghilde
ghinck
gi
giacomo
gianluca
gianni
giant
gibbons
gibraltar
gids
gie
gied
giee
gief
gienc
giengen
gier
giessen
giessenburg
giessendam
giessenlanden
giet
gietere
giezeling
gif
gift
giftege
giftig
giftige
gigantisch
gigantische
gij
gijs
gijsbert
gijsen
gijzeling
gil
gilbert
gild
gilde
giles
gilgamesj
gill
gilles
gilliam
gillie
gillis
gilt
gilze
gime
gin
ginc
ging
ginge
gingelom
gingen
ginger
ginkgo
ginne
ginneken
ginneraal
ginneraol
ginneratie
gino
gion
giorgio
giorgos
giovanni
girl
girls
giro
girolamo
gironde
giroud
gis
gisach
gish
gistel
gister
gitaar
gitare
gitaris
gitarist
gitariste
giulio
giuseppe
give
givet
gje
gk
gkde
gkdes
gke
gkeme
gken
gker
gkers
gking
gl
glaas
glabbek
glad
gladde
glaeske
glamrock
glandj
glas
glasgow
glass
glaze
glazeneer
glazer
glazere
gleis
glen
glendale
glenn
gletsjer
gletsjers
gleuf
gleujlamp
gliek
gliese
glise
glitsjklank
globaal
global
globaol
globe
globo
gloria
glorie
glorietied
glose
glosse
glottaal
glottale
glottisslaag
glu
gne
gnu
go
goa
goaje
goal
goan
goat
god
goddeleke
goddelike
gode
godelieve
goden
godes
godfried
godin
godinne
gods
godsdeens
goe
goed
goede
goeden
goedere
goedereede
goee
goeje
goejt
goeree
goerees
goeroe
goeroes
goes
goet
goethe
goeverna
goeyvaerts
gogh
goia
goids
goje
gojekoupe
gojekouper
gojen
gol
gold
golde
golden
gole
golf
golfarabisch
golfbaon
golfoorlog
golle
golve
golvend
gombert
gon
gone
gong
gonge
gonza
goo
good
gooddeils
goodgeka
goodka
goof
google
gooi
gooie
gooise
gooj
gooje
gool
goon
goonsdag
goonsdig
goor
goossens
goot
gorbatsjov
gordel
gordon
gore
gorie
gorilla
gorinchem
gors
gorter
got
gote
gothic
gotiek
gotisch
gotische
gotlandj
gottfried
gottlieb
goud
gouda
gouden
goudkleurege
goudko
goudmo
goudriaan
goudsmit
gounod
gouverna
gouvernement
gouvernemint
gouverneur
gouw
gouwe
gouwen
gov
gove
governance
government
gowwe
goya
gp
gr
gra
graad
graaf
graaff
graafland
graafschap
graafsjap
graafstroom
graag
graan
graas
graaslandj
grace
grach
gracht
grachte
grachtegordel
grade
graf
graff
graffiaot
graffiti
graficus
grafiek
grafiet
grafisch
grafische
graft
graham
gram
grammair
grammaire
grammatica
grammaticaal
grammaticaol
grampeer
gran
granada
grand
grande
grane
grant
granth
grants
graod
graode
graof
graofsjap
graofsjappe
graoj
graoje
graote
graove
grap
grapperhaus
gras
grasbrook
grashook
grass
gratem
gratie
gratis
grauwert
grave
graveland
graven
gravenambacht
gravendeel
gravenhage
graver
gravin
gray
gre
great
greatest
grebbeberg
greek
greeks
greekse
green
greend
greene
greenwich
greep
greet
greetings
greg
gregoriaans
gregoriaanse
gregorius
gregory
grekelandj
grenada
grenadines
grens
grensgebeed
grenspaol
grenst
grenze
grenzen
grenzend
grenzendj
greta
greui
greuide
greuie
greuiende
greuit
greuj
greujciefer
greujde
greujden
greuje
greujend
greujende
greujt
greun
greune
greuninge
greunland
greunlandj
greunte
greuntes
greuntetuin
greutj
grevelingen
grevenmacher
grevors
grid
gridcolor
grie
grieke
griekeland
griekelandj
griekenland
grieks
griekse
grieksen
griekstaolege
griendsveen
griep
griepe
gries
grieze
griezelbus
griezmann
griffin
griffith
grijp
grijze
grimm
grind
grinsven
grip
gro
groat
groatdeils
groate
groatedeils
groatendeils
groater
groatere
groathertog
groatse
groatste
groe
groeat
groeate
groeaten
groeatendeils
groeatste
groede
groee
groen
groene
groenlinks
groenlo
groep
groepe
groesbeek
groet
groetdeils
groete
groeten
groetendeils
groeter
groetere
groethertog
groets
groetse
groetsjalige
groetsjaoleg
groetsjaolege
groetste
groetsten
groeve
groeves
grof
grond
grondj
groninge
groningen
groninger
gronings
groningse
gronsveld
groof
groond
groondgebeed
groondle
groondslaag
groondstoffe
groondtaol
groondvo
groondwe
groondwoord
groonsveld
groop
groot
groote
grootste
groove
grop
grope
groppe
gros
grossi
grosso
grot
grote
groten
groter
grotste
grotte
group
groups
grove
grover
groz
groze
grozen
große
gru
grubbenvorst
grue
grui
grun
grunberg
grunsven
grupke
grupkes
grus
gruue
gruuedje
gruuen
gruun
gruup
gruupke
gruutde
gruuts
gruß
grwat
gs
gske
gskes
gste
gt
gte
gu
guadeloupe
guam
guarani
guardian
guatemala
gubbels
gude
gue
guernsey
guerre
guevara
guez
guf
guglielmo
guide
guidelines
guido
guillaume
guinea
guinee
guinees
guinese
guitar
gulden
guldj
gulik
gulp
gulpe
gulpen
gulpener
gulperberg
guns
gunste
gunstige
gunt
gunther
gurevich
gussenhoven
gustaaf
gustav
gustave
gut
gutenberg
gutturalisering
guue
guuef
guuf
guus
guy
guyana
gwater
gyanendra
gymnasium
gymnaste
gyo
h
ha
haadbaar
haaf
haafbroor
haafope
haafroond
haafweeg
haag
haags
haagse
haaj
haaje
haakon
haaksbergen
haalder
haamsjeut
haan
haand
haange
haant
haar
haaren
haarlem
haarlemmerliede
haarlemmermeer
haarzuilens
haas
haasdal
haastrecht
haat
habe
haben
habermas
habets
habit
habitat
habsbo
habsburg
habsburgers
habsburgse
had
hadde
hadden
haddock
hadrianus
hae
haee
haej
hael
haeld
haelder
haelderees
haelen
haen
haer
haerle
haers
haerunge
haesen
haet
haetj
hafnium
hageland
hagen
hague
hai
haiku
haile
hainaut
hair
haj
hajding
haje
hajen
hak
hal
halde
halder
hale
halen
haley
half
halfro
hall
hallands
halle
halley
hallo
halloween
hallstatt
hallstein
halp
hals
halsema
halt
halte
halve
halveringstied
halverwaeges
ham
hamas
hamburg
hamburger
hamer
hamilton
hamlet
hammurabi
hamont
hampshire
hamz
hamza
han
hand
handbal
hande
handel
handelde
handele
handelere
handeling
handelinge
handelsblad
handelscentrum
handelsplaots
handelsstad
handelt
handen
handicap
handj
hands
handsjrif
handsjrifte
handves
handvest
hane
hange
hangen
hanjel
hanjele
hanjeling
hank
hanlo
hannah
hannes
hannibal
hannover
hanoi
hans
hansem
hansen
hant
hanteerde
hanteert
hantere
hanze
hao
haoe
haof
haog
haoj
haoje
haok
haoks
haol
haolde
haolden
haoldje
haole
haolt
haop
haor
haore
haors
haorster
haorsters
haos
haote
haove
haowe
happart
happen
happy
har
harald
haram
harari
harbor
hard
harde
hardenberg
harder
harderwijk
harding
hardinxveld
hardrock
hardy
hare
harelbeke
haren
hari
harie
harings
haringvliet
harlingen
harm
harmanec
harmelen
harmonie
harmonische
harney
harold
harp
harpe
harrie
harris
harrison
harry
hart
harte
hartog
hartsje
hartste
harvard
harvey
has
haspegouw
haspengouw
hassan
hasselt
hast
hastelder
hat
hatte
hattem
hauf
haufro
haus
hausa
haut
haute
hautes
hauts
hauve
hauw
hauwe
have
havegebeed
havel
havelaar
haven
haver
havert
haves
havesjtad
havestad
havo
havre
haw
hawai
hawaii
hawinkels
hawkins
hawt
hawwe
hawwen
hawwend
hawwing
hay
haydn
hayes
hazard
haze
hazebroek
hazel
hazes
hbo
hbs
hdi
he
hea
head
heads
health
hear
heard
heart
hearts
heat
heather
heaven
heavy
heb
hebbe
hebben
hebbet
hebe
hebreeuws
hebreeuwse
hebride
hebt
hechte
hectaar
hectare
hector
hed
hedde
heden
hedmark
hee
heeft
heeg
heej
heejvan
heel
heela
heelal
heelt
heem
heemkundevereiniging
heemkundige
heemskerk
heemstede
heen
heer
heerde
heere
heeren
heerenveen
heerhugowaard
heerkoms
heerle
heerlen
heerlens
heerles
heerlijkheid
heers
heersde
heerse
heersende
heerser
hees
heesj
heesjde
heesje
heesjt
heeswijk
heet
heeze
heffe
hefshuizen
heftig
heftige
hegel
hegemonie
hei
heibei
heibij
heibloom
heibove
heide
heidegger
heidelberg
heiden
heidense
heideroosjes
heidoor
heidurch
heie
height
heights
heij
heijenrath
heijmans
heijn
heijplaat
heil
heileg
heilege
heilegedaag
heilegeleve
heilegen
heilich
heilig
heilige
heiligedaag
heiligen
heilighe
heilighen
heilust
heim
heime
heimo
heimwee
hein
heinao
heine
heineken
heineve
heinric
heinrich
heinsberg
heintje
heinz
heioet
heioonder
heiop
heir
heisj
heisje
heist
heit
heite
heitse
heitzer
heivaan
heiveur
hej
heje
hejje
hek
heks
hekse
hektaar
hel
held
helde
helden
helder
heldere
helderheid
helderste
hele
helemaal
helemaol
helen
helena
helenaveen
helf
helft
helheid
helikopter
helikopters
helium
helje
helkijn
hell
hella
helle
helleense
hellen
hellenisme
heller
hellevoetsluis
helling
hellingbo
hellinge
hello
helm
helmond
helmut
help
helpe
helpen
helping
helsinki
helsjtein
helsjteine
helste
helt
hem
heme
hemel
hemelvaart
hemfelke
hemicentetes
hen
hendeg
hendege
henderson
hendig
hendrick
hendrik
hendriks
hendrikus
hendrix
henegouwe
heng
hengelo
henj
henjig
henk
hennie
henning
henny
henri
henric
henricus
henrie
henriette
henrik
henry
hensgens
hepatitis
hepburn
her
hera
heracles
heraldiek
heraldisch
heraldische
heraldry
heraldrywiki
herb
herberg
herberge
herbert
herboewd
herbouwd
hercegovina
hercules
herdach
herde
herder
herdisse
herdro
here
hereineging
heren
hereniging
herero
herf
herford
herfs
herfst
herge
herhaold
herhaolde
herhaoldelek
herhaoling
herhole
herindeiling
herindeilinge
herindeling
heringedeild
heringedeildj
herinnere
herinnering
herinnert
herk
herkansinge
herke
herkenbosch
herkenter
herkinbaar
herkinne
herko
herkomst
herkoze
hermalle
herman
hermann
hermans
hermenie
hermeniee
hermeniekes
hermitage
herna
herne
herneump
hero
heroes
heroi
heroontde
heroverd
herovere
herre
herren
herschel
hersene
herses
hersjte
herstal
herste
hert
herte
herten
hertigdo
hertog
hertogdo
hertogdom
hertoge
hertogenbosch
hertogh
hertogin
hertrich
hertz
herve
hervo
hervormde
herz
herze
herzeen
herzegovina
herzogenrath
hess
hesse
hessels
hessen
het
hete
heten
hethitisch
hette
heu
heue
heuet
heugde
heugem
heugte
heuj
heuk
heukelum
heur
heurde
heure
heures
heurt
heusden
heuvel
heuvele
heuvelechteg
heuvelechtig
heuvelland
heuvellandj
heuvelro
heuvelrug
heuvels
heuze
hevet
hevig
hevige
hey
heyden
heyendal
hezbollah
hfc
hg
hh
hi
hic
hidalgo
hiddink
hie
hiebaove
hiebie
hiebiej
hiedoor
hiee
hiej
hiejbiej
hiejdoor
hiejin
hiejmit
hiejnao
hiejvan
hiejveur
hiel
hielal
hiele
hielemaol
hielt
hieme
hiemel
hiemelde
hiemele
hiemelliechaam
hiemels
hiemelt
hiemit
hienao
hier
hiere
hierehoezer
hierevoetbal
hierevoetbale
hierevoetbalelftal
hiering
hierke
hierlekhede
hierlekheid
hierlekheidswaope
hieronymus
hiers
hiersde
hierser
hiersers
hiersj
hiersjappij
hiet
hievan
hieveur
hiez
high
highlands
hij
hijj
hijne
hijs
hijse
hijt
hilal
hilary
hilde
hildegard
hill
hillary
hillegersberg
hillegom
hillenraad
hillig
hillige
hills
hilt
hilvarenbeek
hilversum
him
himalaya
hin
hinault
hind
hindeloopen
hindeloopers
hindemith
hindenburg
hindernisse
hindi
hindoe
hindoei
hindoes
hindoestani
hingk
hink
hinne
hinnen
hinrik
hinsberg
hip
hiphop
hippique
his
hispanics
hispaniola
histoire
historic
historici
historicus
historie
histories
historisch
historische
historischen
history
hit
hitchcock
hitler
hitlieste
hitparaad
hits
hitte
hittesje
hittetegels
hittitisch
hiv
hk
hl
hle
hler
hm
hmel
hmme
hn
hne
hnge
ho
hoa
hoag
hoage
hoager
hoagfie
hoaglee
hoagste
hobby
hobo
hoch
hochheid
hochsauerlandkreis
hocht
hockey
hockeyer
hockeyster
hoe
hoeag
hoeage
hoeager
hoeagste
hoed
hoee
hoeg
hoegalemannisch
hoegbouw
hoegduits
hoegduitse
hoege
hoegen
hoeger
hoegere
hoegesjaol
hoeggerichshaof
hoegland
hoegoet
hoegs
hoegste
hoegsten
hoegte
hoei
hoeiselt
hoek
hoeke
hoeksche
hoekse
hoekstra
hoem
hoen
hoensbroeck
hoensbroek
hoera
hoert
hoes
hoeshauwe
hoesloze
hoesmo
hoessein
hoesves
hoeva
hoeve
hoeveelheid
hoeven
hoewaal
hoeze
hoezer
hof
hoff
hoffman
hoffmann
hoffnung
hofwegen
hoge
hogeboesj
hogeland
hogendorp
hoger
hogeschool
hohenzollern
hoi
hojt
hol
hold
holde
holden
hole
holiday
holland
hollande
hollander
hollandj
hollands
hollandsche
hollandse
hollandsen
holle
holleeder
hollender
hollenders
hollendsj
hollendsje
holles
hollese
hollesj
hollesje
hollogne
holly
hollywood
holocaust
holset
holst
holstein
holt
holten
holz
home
homepage
homerus
homme
hommerig
homo
homogeen
homohoewelik
homohouwelek
homoseksualiteit
homoseksueel
homoseksuele
hon
hond
honderd
honduras
honegger
hong
hongaars
hongaarse
hongaors
hongaorse
hongare
hongariee
hongarieje
hongarije
honger
honing
honore
hood
hoof
hoofartikel
hoofd
hoofde
hoofdialekte
hoofdplaatsj
hoofdstad
hoofeiland
hoofgeboew
hoofgemeinte
hoofgro
hoofkerteer
hoofketeer
hoofklas
hoofle
hoofpersoen
hoofpersonaasj
hoofplaats
hoofplaots
hoofplaotse
hoofredacteur
hoofrol
hoofrolle
hoofrolspeulers
hoofsjtad
hoofsjtaejelik
hoofstad
hoofste
hoofstei
hoofsto
hooft
hoofte
hoofteks
hoofzaak
hoofzin
hoog
hooge
hoogeveen
hoogezand
hooglede
hoogste
hoogstraten
hoogvliet
hook
hooktaores
hool
hooligans
hoolt
hoond
hoonder
hoonderd
hoonderddoezende
hoonderde
hoonderdjaoregen
hoonger
hoongersnoed
hoonsbaek
hoop
hoopde
hoorn
hoort
hoorte
hoosj
hoot
hoots
hoover
hop
hope
hopel
hopkins
hor
horace
hordaland
horde
hordes
hore
horeca
horen
hores
horizon
horizons
horizontaal
horizontal
horizonte
horloge
hormone
horn
horne
horror
hors
horse
horseball
horst
horster
horta
hortus
hosni
hospitaal
hospital
hospitaol
hostie
hosting
hot
hote
hotel
hotels
hotspur
hou
houben
houblierik
houden
houdt
houfplaats
houfsjtad
houfstad
houft
houfzakelik
houp
hour
hours
house
houston
hout
houte
houtem
houten
houtere
houthem
houthulst
houtskaol
houw
houwe
houwelek
hove
hoven
how
howard
however
howwe
hozelt
hp
hpv
hr
hrd
hre
hribik
hrk
hrung
hs
ht
hte
htm
html
http
https
hu
hua
huang
hub
hubbe
hubble
hubert
hubertus
hubertuske
hubs
hudige
hudson
hue
huegte
huet
hugenote
hugh
hughes
hugo
huhn
hui
huid
huidege
huidige
huidsjtad
huidsjtaej
huieg
huiege
huiegen
huig
huis
huiskes
huize
huizen
huizinga
huj
hujig
hujige
hukkelhaove
hulde
hulp
hulpe
huls
hulsberg
hulst
hum
human
humanis
humanisme
humanist
humaniste
humanitair
humboldt
humo
humor
humphrey
hun
hundertwasser
hunen
hungary
hunne
hunnekem
hunnen
hunsel
hunsru
hunt
hure
hus
hussein
hut
hutte
hutu
huub
huue
huuegdje
huuerdje
huuere
huuertj
huug
huugde
huugdepunt
huugdes
huuj
huur
huurbaar
huurde
huure
huurlinge
huurt
huus
huuske
huutsedaag
huwelek
huwelik
huy
huygens
huyn
huys
huysmans
hve
hwein
hy
hybride
hydra
hydrografie
hydrologie
hygie
hymn
hymnes
hypercorrectie
hypothees
hypotheses
hypothetische
hz
i
ia
ian
iana
iata
iau
iberie
iberisch
iberische
ibis
ibm
ibn
ibrahim
ibsen
ic
icao
ice
ich
ichtegem
ick
icon
icoon
id
ida
idaho
idd
idder
iddere
idderein
ide
idea
ideaal
ideale
idealisme
ideaol
ideaole
ideas
idee
ideee
ideeje
ideg
idem
identiek
identieke
identificeert
identificere
identite
identiteit
ideologie
ideologiee
ideologisch
ideologische
idi
idig
idiolek
idioom
idioticon
ido
idoch
idomeni
idstad
idstein
ie
iech
ieder
iedereen
iederien
iee
ieg
iejer
iemand
iemer
iemes
ien
iene
ieper
ier
ierbetuin
ierder
iere
ieredevisie
ierland
ierlandj
iers
ierse
iersjte
ierst
ierste
iersten
ierstens
ies
iesbein
ieshockey
ieshockeycentrumsjeidsrechters
iesjte
ieskap
ieskristalle
iesland
ieslandj
ieslandjs
ieslands
ieslandse
ieste
iestied
iestieje
iesziee
iet
ietot
iets
ieuw
iew
iewe
ieweg
iewege
iewelaank
iews
iewse
iezer
iezere
iezererts
iezertied
if
ig
iga
ignatius
ignaz
igor
ih
ii
iii
ij
ijmuiden
ijn
ijs
ijselstein
ijssel
ijsselmeer
ijsselmonde
ijsselmonds
ijsselstein
ijzer
ijzeren
ik
ikkelder
ikkenemie
ikkenomie
ikkenomisch
ikkenomische
il
ilias
ilja
iljitsj
iljoesjin
ille
illegaal
illegale
illegaol
illemint
illeminte
illinois
illustratie
illustraties
illustrator
im
image
images
imagesize
imaginair
imago
imdb
ime
imf
imkamp
immanuel
immer
immers
immersion
immigrante
immigratie
immiteert
immuniteit
imp
impact
impek
imperatief
imperfectum
imperial
imperialisme
imperium
implementation
import
important
importe
imposante
impressionisme
impressionistische
improve
improvements
improvisatie
improvisere
impuls
imre
in
ina
inbegrepe
inc
inca
incariek
incheon
incident
incidente
incidenteel
including
inclusief
incompleet
increment
ind
inde
indeg
indegde
indege
indeile
indeiling
indeilinge
indelek
indeling
indeloes
inden
indene
independence
inder
inderdaad
inderdaod
index
india
indiaans
indiaanse
indiaas
indian
indiana
indiane
indiaon
indiaone
indiaonevolker
indiaons
indiase
indiasen
indicatief
indicator
indicus
indie
indiemeziek
indig
indige
indirek
indisch
indische
indischen
individu
individual
individue
individueel
individuele
indj
indklaank
indo
indochina
indogermaans
indogermaanse
indogermane
indonesia
indonesie
indonesisch
indonesische
indoor
indpunt
indre
indro
indrunde
indusjtrie
indusjtrieel
industrie
industrieel
industriegebeed
industriestad
industrieterrein
indvo
ine
inein
inens
infectie
infecties
infermaasje
infermasie
infinitief
infinitieve
infinity
infix
inflatie
info
informatica
informaticus
informatie
information
informeel
infra
infraklas
infrasjtructuur
infrastructuur
ing
ingaank
ingank
ingaon
ingber
inge
ingebloze
ingebo
ingebrach
ingedeild
ingedeildj
ingehaold
ingeit
ingeklemp
ingel
ingeland
ingelandj
ingele
ingeleid
ingelief
ingels
ingelse
ingelsen
ingelsj
ingelsje
ingelsmaan
ingelstalige
ingelstaoleg
ingelstaolege
ingeng
ingenieur
ingenieurs
ingeno
ingenome
ingepolderd
inger
ingerich
ingeriech
ingesjreve
ingesjte
ingeste
ingestort
ingeteikend
ingetrokke
ingeveurd
ingeveurde
ingeveurdj
ingezat
ingezatj
ingo
ingrediaente
ingredie
ingrid
ingriepe
ingriepend
ingriepende
ingste
ingweoons
ingweoonse
inhaad
inhaajd
inhawd
inhe
inheems
inheemse
inheims
inheimse
inheimsj
inheimsje
inherent
inhoud
inins
initiale
initiatief
initiatieve
inj
ink
inkel
inkele
inkelvaad
inkelveljige
inkelvoud
inkelvoudeg
inko
inkomste
inkoume
inkoumes
inleiding
inleiing
inlieving
inmiddels
inminging
inn
inname
inne
innegste
innemee
innen
innerleke
innerzjie
innige
innings
innins
innocentius
innovatie
innovaties
innumme
inplaats
input
inquart
inquisitie
inrichting
inriechting
ins
inscriptie
inscripties
insecte
insegs
insegste
insekte
insight
insignes
insigste
insjpanninge
insjte
insjtillinge
insjtituut
inslaag
inslaagkraters
inspanninge
inspiratie
inspireerde
inspirere
instabiel
instabiliteit
installaasjes
installatie
instantie
instanties
inste
instink
institut
institute
institutioneel
instituut
instorte
instrument
instrumentaal
instrumentalis
instrumentaol
instrumente
instrumint
instruminte
int
intak
inte
integraol
integratie
integrere
intellectueel
intellectuele
intellek
intelligent
intelligentie
intens
intensief
intensieve
intensiteit
inter
interactie
interbellum
intercity
interessant
interessante
interesse
interested
interface
interieur
interim
interland
interlandjvoetbal
interlands
intermezzo
intern
internasjenaal
internationaal
international
internationale
internationaol
internationaole
interne
internet
interpretatie
interpretaties
interpretere
intersante
interval
interventie
interview
interviews
intimidatie
into
intoch
intre
introduceerde
introduceert
introducere
introductie
introduction
intui
inuit
inuktitut
inval
invalle
invasie
inversie
investeerder
investeringe
inveure
inveuring
invictus
invitation
invite
invited
invlode
invloed
invlood
invloodriek
invloodrieke
invloodriekste
invloodssfeer
invlooj
invlooje
invo
involved
inw
inwe
inwenjige
inweuners
inweunersj
inwoe
inwoeaners
inwoeanersaantaal
inwoee
inwoener
inwoeneraontal
inwoeners
inwoenertal
inwoenertalle
inwoners
inwoonders
inwue
inyo
inzake
inzat
inze
inzich
inzicht
inzichte
inziech
inziechte
inzittende
inzjenieur
io
ioannina
ioc
iomtbm
ion
ionisch
ionische
ioniserende
iowa
ip
ipa
ipod
ipv
iq
ir
ira
iraaks
iraakse
iraan
iraans
iraanse
irak
irakees
irakese
iran
ire
ireen
iren
irene
iridium
iris
irish
irl
irme
irmgard
irn
irnsteg
irnstege
iron
ironie
ironisch
irrationaol
irrigatie
irving
is
isaac
isabel
isabella
isabelle
isbn
ischa
ise
isi
isidorus
isil
isis
isl
islam
islamistische
islamitisch
islamitische
island
islands
isle
iso
isoglos
isoglosse
isolaot
isolatie
isolatiedekes
isolemint
isolere
isolerende
isotoeape
isotoop
isotope
israe
israel
israelische
iss
issue
issues
ist
istanboel
istanbul
iste
istrie
it
ita
italia
italiaan
italiaans
italiaanse
italiaansen
italiane
italiaone
italiaons
italiaonse
italie
italien
italisch
italische
its
itter
ittere
ittervoort
itu
iu
iv
ivan
ivlood
ivo
ivoorko
ivvels
iwue
ix
iz
iza
izegem
iə
j
ja
jaak
jaap
jaar
jaarboek
jabbeke
jac
jach
jachluipeerd
jack
jackie
jackson
jacob
jacoba
jacobs
jacobus
jacques
jaeger
jaer
jag
jage
jager
jagers
jaguar
jai
jair
jakarta
jakob
jakobsen
jalhay
jam
jamaica
jamaicaanse
jambes
james
jami
jan
jana
jane
janeiro
janne
jannewaar
jannewari
jannewarie
jans
janse
jansen
jansgelaen
janske
janssen
janssens
jansz
jantje
januari
january
janus
jao
jaobik
jaoge
jaokob
jaor
jaorbook
jaore
jaorege
jaorelaank
jaorelang
jaorelank
jaoren
jaorig
jaorige
jaorleks
jaorlekse
jaorliks
jaorlikse
jaortal
jaortalle
jaorte
japan
japaneze
japanners
japans
japanse
japansen
jar
jardin
jaren
jargon
jarige
jaroslav
jas
jason
jaspar
java
javaans
javier
jazeera
jazz
jazzmusicus
jazzmuzikant
jazzpianis
jc
jd
jde
je
jean
jeanne
jeannet
jeder
jedere
jederein
jee
jef
jeff
jefferson
jeffrey
jegers
jeh
jehova
jeker
jekerdal
jelle
jellekerke
jeltsin
jeme
jemen
jemingde
jen
jenkins
jennifer
jenny
jens
jer
jeremy
jeroen
jerome
jerry
jersey
jerusalem
jeruzalem
jesse
jessica
jesu
jesus
jet
jette
jeu
jeug
jeugd
jeugprins
jezui
jezus
jg
ji
jiddisch
jie
jiee
jige
jij
jim
jimi
jimmy
jin
jing
jinping
jje
jjende
jjer
jjing
jlabbach
jn
jo
joa
joachim
joadse
joan
joannes
joaqui
joaquin
joar
joare
joas
job
jobs
jocus
jode
joe
joeas
joed
joede
joededo
joededom
joeds
joedse
joegosjlavie
joegoslavie
joegoslavische
joeks
joenk
joep
joeri
joey
joezep
joh
johan
johann
johanna
johannes
johannesburg
johansson
john
johnnie
johnny
johnson
johnston
joik
join
joining
joke
joker
jokers
jom
jon
jona
jonas
jonathan
jones
jong
jonge
jongen
jongens
jonger
jongere
jonges
jongste
jonk
jonkhe
jood
joods
joodse
joonge
joonger
joongere
joonk
joonkste
joop
joosland
joost
joosten
joplin
jordaan
jordan
jordanie
jordi
jorge
joris
jos
jose
josef
josep
joseph
josephine
josephus
joshua
jou
joule
joules
journaal
journal
journalis
journalist
journaliste
journalistiek
jouw
joyce
jozef
jozua
jpeg
jpg
jr
jraat
jrens
jroee
js
jsjte
jt
ju
juan
juba
jubilea
jubileum
juche
juda
judas
jude
judicieel
judith
judo
judoka
juffrouw
jufvrouw
jugendstil
jul
jule
jules
juli
julia
juliaanse
julian
juliana
julianakanaal
julicher
julie
julien
julius
jullie
july
jummers
jun
juncker
junckers
june
jung
jungske
juni
junie
junior
juniore
juno
junta
jupiler
jupille
jupiter
jura
jure
juridisch
juridische
juris
jurisdictie
jurist
jury
jus
just
justice
justify
justin
justitie
justus
jutlandj
jutphaas
juudde
juuds
juudse
juus
juuste
juventus
jwiee
k
ka
kaad
kaag
kaaj
kaajd
kaak
kaal
kaalhei
kaam
kaampe
kaan
kaanker
kaankers
kaans
kaant
kaante
kaap
kaapkolonie
kaapse
kaapverdiaans
kaapverdie
kaar
kaardebol
kaart
kaarte
kaarten
kaas
kaat
kaatje
kabbine
kabeljauwse
kaberg
kabine
kabinet
kaboel
kabouter
kabylisch
kader
kaderverdrag
kaee
kael
kaereshei
kaersjmes
kaesing
kaetel
kaffee
kaffees
kafka
kai
kal
kalde
kaldekirke
kale
kalender
kalief
kalifaat
kalifaot
kaliningrad
kalium
kalk
kalksjte
kalksjtein
kalkstein
kallas
kalle
kallen
kalmar
kalt
kaltj
kam
kame
kamer
kamerik
kamerlid
kamermeziek
kamermuziek
kameroen
kamers
kamertemperatuur
kamerverkezinge
kamov
kamp
kampe
kampen
kampio
kampioen
kampioene
kampioensjap
kampioensjappe
kan
kanaa
kanaal
kanale
kanaleneiland
kanaol
kandidaat
kandidaatsjap
kandidaot
kandidaote
kandidate
kane
kanjel
kank
kanker
kanne
kannepee
kannibalisme
kano
kans
kansas
kanse
kanseleer
kansho
kant
kante
kantele
kantj
kantje
kanton
kantonees
kantons
kanunnik
kaod
kaoe
kaoke
kaokpuntj
kaole
kaom
kaome
kaoper
kaore
kap
kape
kapel
kapelke
kapelle
kapelmeister
kapitaal
kapitalisme
kapitalistisch
kapitalistische
kapitaol
kapiteel
kapitein
kapitejn
kapitele
kapittel
kapot
kappe
kapper
kaprizov
kaptein
kapteinsjap
kar
karaat
karabach
karachi
karakter
karakteristiek
karakteristieke
karakters
kardinaal
kardinale
kardinaol
karel
karelie
karen
karin
karinthie
karl
karlheinz
karlsruhe
karnaval
karneme
karneval
karolingisch
karolingische
karpate
karstversjiensele
kartel
karto
kas
kasjoebisch
kasjtiee
kaspische
kassel
kast
kasteel
kastelein
kastiee
kat
katalysator
kate
katechtige
kategorie
katendrecht
katendrechtse
kater
kateryna
kathare
katharina
kathedraal
kathedrale
kathedraol
kathelicisme
katheliek
kathelieke
katherine
kathmandu
katholicisme
katholiek
katholieke
katie
katoen
kats
katte
kattedraol
kattegaat
katteliek
kattelieke
katwijk
katwijks
katwijkse
kaukasische
kaukasus
kaumer
kaw
kawwe
kawwen
kawwer
kayak
kayser
kazachs
kazachstan
kazan
kazerne
kd
kde
kden
kdes
kdje
ke
kea
keats
kedraot
kee
keek
keel
keem
keend
keender
keeper
keer
keerde
keers
keertsje
kees
keesdistrik
keesrech
kefee
kei
kein
keine
keith
keizer
keizerin
keizerlek
keizerleke
keizerriek
keizers
keizersjap
kelch
kelchblajer
kelder
kelk
keller
kelly
kelment
kelmis
kelonie
kelpe
kelpen
kelt
kelte
keltisch
keltische
keltuur
kelvin
kemedie
kemiek
kemik
kemikken
kemissie
kemp
kempe
kempen
kemunie
ken
kenaal
kenaar
kenale
kend
kendall
kende
kene
kenia
keniaanse
kening
kenis
kenmaerke
kenmerke
kenne
kennedy
kennen
kenneth
kennis
kent
kentucky
kepe
kepel
keplaon
kepler
kepo
kepot
ker
kerbeek
kere
kerel
keren
kerensheide
kerk
kerke
kerken
kerkhof
kerkrade
kermis
kern
kerncentrale
kerne
kernel
kernenergie
kernfusie
kernfysica
kernwaopes
kerr
kers
kersten
kerstening
kerstmis
kerteer
kertiels
kes
kesjtee
kesjteel
kesjtie
kesjtiee
kesjtiel
kessel
kessels
kesteren
kestie
kestiee
kestiel
kestiele
ketel
kethel
ketoen
ketoer
keuj
keuk
keuke
keukegerei
keukekroed
keuken
keul
keule
keulen
keulse
keump
keumt
keuning
keuninge
keuningin
keuningshoes
keuninklek
keuninkleke
keuninklik
keuninklike
keuninklikke
keuninkriek
keuninkrieke
keuns
keunstenaer
keus
keuteberg
keuze
keuzes
keverberg
kevers
kevin
key
keyser
keze
kezer
kezerriek
kezers
kg
kgebrach
kgedrejd
kgeit
kgeloupe
kgoon
kh
khan
khatchimboe
khmer
khoisan
khoisantaole
ki
kid
kids
kie
kiee
kiek
kieke
kieks
kiekt
kiel
kiendj
kiendje
kienjer
kier
kierde
kiere
kierkegaard
kierkels
kiert
kies
kiev
kiezel
kijk
kik
kill
killed
kills
kilo
kilogram
kilomaeter
kilomaeters
kilometer
kilometers
kim
kin
kind
kinde
kinder
kinderbeuk
kinderdijk
kinderen
kinderjury
kinderko
kinders
kindj
kinetische
king
kingdom
kinger
kings
kinjer
kink
kinme
kinmerk
kinmerke
kinmerkend
kinmerkende
kinne
kinneke
kinnen
kinnes
kinnis
kins
kinshasa
kint
kintj
kip
kirch
kirche
kirchhoff
kirchro
kirchroa
kirgizie
kiribati
kirill
kirk
kirkdo
kirke
kirkelike
kirkevin
kirkhaof
kirkraoj
kirkroa
kis
kiss
kit
kitting
kitts
kitty
kitzen
kj
kke
kkeg
kkelek
kkeleke
kkeleker
kkelik
kkem
kken
kkend
kkende
kkendj
kker
kkerreet
kkers
kkersj
kkier
kkiere
kkig
kking
kkinge
kkingskrach
kkingsreize
kkingsreizeger
kkingsreiziger
kkingsreizigers
kko
kkoume
kkump
kla
klaad
klaank
klaanke
klaankkleur
klaanklier
klaankveranderinge
klaankversjuiving
klaankwe
klaas
klach
klachte
klamath
klank
klanke
klankversjuving
klante
klaog
klaor
klaore
klap
klappe
klarine
klas
klasse
klassementsproove
klassiek
klassieke
klassieken
klassieker
klassiekers
klaus
klavecimbel
klavecinis
klaveer
klaveerconcert
klaveermeziek
klaveersonnaat
klaveersonnate
klaveertrio
klaveerversie
klaveerwerke
klavere
klaveres
klaverjasse
klavierstu
klawwe
kle
klee
kleef
kleen
kleenkers
klei
kleiaasj
kleid
kleie
kleier
kleierdrach
kleifries
kleijer
klein
kleinder
kleindochter
kleine
kleinekes
kleinen
kleiner
kleinere
kleingladbach
kleinste
kleinzoon
klemtoen
klender
kleng
klenk
klep
klepperman
klere
klerk
kleur
kleure
kleve
kleverlands
kleverlandse
klie
kliee
kliffe
klik
klimaat
klimaatverangering
klimaot
klimaote
klimaotverandering
klimate
kling
klinge
klinger
klingon
klingons
klink
klinke
klinker
klinkers
klinkersj
klinkesj
klinkt
klinktj
klm
klo
kloar
kloaster
kloasterke
kloasterorde
kloastersj
kloe
kloeaster
kloee
kloeke
kloes
kloester
kloesterordes
kloesters
kloezenaer
klok
klokbekercultuur
klokke
klone
kloof
kloon
kloonk
kloos
klooster
kloosterrade
klop
klopde
kloppe
klopt
klub
klublogo
klubs
klumme
kluuer
kluuere
km
kna
knaagdiere
knaal
knaok
knap
knappe
knau
knech
knecht
knee
kneen
kneuk
knhs
knie
knien
knight
knijns
knipa
knmi
kno
knock
knoflook
knokke
knol
knooppunt
knoup
knouppunt
knouppuntj
know
knowledge
known
knox
knud
knuip
knuipe
knut
knuup
knvb
ko
koa
koad
koale
koam
koame
koar
kobalt
kobe
koblenz
koch
kockengen
kodak
koe
koed
koee
koej
koekelare
koel
koele
koelek
koeleko
koelik
koempel
koempels
koen
koenen
koepel
koer
koerde
koerdisch
koerdische
koere
koers
koerse
koes
koese
koesjitische
koesse
koeste
koetsjhoes
koeweit
koffie
kofi
kofschip
kogel
koggenland
kohl
koine
kojl
kojle
kok
koksijde
kol
kole
kolleberg
kolleesj
kollumerland
kolonel
koloniaal
kolonialisme
koloniaol
koloniaole
koloniaolen
kolonie
kolonies
kolonisatie
kolonisator
kolonisere
koloniste
kom
kome
komedie
komeet
komen
komete
komiek
komisch
komische
komma
komme
kommen
kommende
kompenis
komponis
komrij
koms
komt
kon
kondig
kondigt
konflik
kong
kongo
koning
koningin
koninklijk
koninklijke
koninkriek
koninkrijk
konkoer
konnen
konrad
konsep
konstantin
konstanz
kont
kontak
kontakte
konteks
konze
kooi
kooj
koojeme
kook
kool
kooldioxide
koolen
koolhaas
koolstof
koom
koompele
koopmans
koor
koors
koorts
koos
koosj
koosjte
kooten
kop
kopehage
kopenhage
koper
kopere
koperkleurege
kopgro
kopie
koppel
koppele
koppeling
koppels
koppien
kopsto
koptisch
koran
koraole
kore
korea
koreaans
koreaanse
koreaansen
korendijk
korewouf
korfoe
korrel
korsbie
kort
kortbie
kortbij
kortbijheid
korte
kortemark
korten
korter
kortere
kortooms
kortrijk
kortrijks
kortste
kos
kosbaar
kosde
kosmische
kosmonaut
kosmos
kosovaarse
kosovo
kost
koste
kou
koud
koum
koume
koumende
koup
koupe
kouw
kouwe
kouwenaar
kova
kovaltsjoek
kow
koze
kpeerd
kr
kra
kraag
kraan
kraank
krabbe
krabbendijke
krabechtige
krach
kracht
krachte
krachteg
krachtege
krachtige
kraeg
kraf
kraft
kraj
krakau
krake
kralingen
kralingse
kramer
krank
kranke
krankehoes
krans
krant
kraog
kraoge
kraom
kraonkel
krater
kraters
krawbich
kre
kredietcrisis
kreef
kreeg
kreegskunde
krege
kreis
kreise
kreisfrei
kreisfreie
krej
krejje
krek
kremlin
krengde
krenkde
krenkdes
krestovskistadionsjeidsrechter
kreta
kreuz
krevat
kri
krie
kriee
krieg
kriege
kriegen
kriegt
kriegtj
kries
kriet
krig
krijg
krijgen
krijgt
krim
krimgotisch
krimmeneel
krimmenele
krimp
krimpen
krimpenerwaard
kring
kringe
krink
krinkloes
kris
kristal
kristalle
kristel
kristelik
kristeva
krit
kritiek
kritieke
kritisch
kritische
kritsraoj
kro
kroan
kroaning
kroanlies
kroanprins
kroate
kroatie
kroatisch
kroatische
kroean
kroeanblajer
kroed
kroedechtige
kroedwo
kroee
kroeg
kroen
kroene
kroenkolonie
kroenprins
kroepe
kroes
krokette
kromme
kroniek
kronobergs
kroog
kroon
krop
kru
kruijsen
kruis
kruje
kruk
krupp
krusing
krusinge
kruus
kruusbeeld
kruuske
kruuspunt
kruustoch
kruustochte
kruusweeg
kruuts
kruutsing
kruutssjnelheid
kruzer
krypton
krzysztof
ks
ksdaag
kse
ksel
kser
kske
kskes
kste
kstiel
kt
kte
ktj
ktre
ku
kuala
kubitschek
kubus
kue
kuifje
kuijper
kuip
kuiper
kuipers
kuke
kultoer
kulture
kultureel
kulturkampf
kultuur
kump
kumps
kumpt
kumptj
kums
kumt
kumtj
kun
kunde
kundeg
kundegde
kundege
kunden
kunder
kundera
kundersjtein
kung
kuning
kunjig
kunne
kunnen
kunning
kuns
kunsacademie
kunsmaoteg
kunsmaotege
kunsmeziek
kunssje
kunssjilder
kunst
kunstaole
kunste
kunstenaar
kunstenaer
kunstenaere
kunstenaers
kunstenaersj
kunstenares
kunsteneer
kunsteneers
kunstenere
kunsvo
kunswerk
kunt
kurmandji
kurt
kurz
kus
kust
kuste
kusters
kuuj
kuuk
kuurne
kuuroord
kuus
kuusj
kuyper
kv
kvinde
kvp
kw
kwa
kwaam
kwaart
kwadrant
kwakker
kwakkers
kwalificatie
kwalificatierunde
kwalificeerde
kwalificere
kwalitatief
kwaliteit
kwaliteite
kwalle
kwam
kwame
kwantitatief
kwantiteite
kwantummechanica
kwaom
kwaome
kwart
kwarte
kwartfinaal
kwartfinales
kwarts
kwartsiet
kwe
kwek
kwestie
kwesties
kwiet
kwik
kwinte
kwo
kwoom
kyi
kyoto
kyrie
kza
kzak
l
la
laag
laak
laam
laan
laand
laandsjap
laanger
laank
laankdoreg
laankdorege
laanks
laankste
laankzaam
laankzaamaon
laankzaom
laar
laat
laatgotische
laatste
label
labiodentaal
labiodentale
laboratorium
labour
labrador
lac
lach
lache
lacht
laden
lady
lae
laee
laef
laefde
laefdje
laefgebied
laefgebiede
laeftied
laeftieje
laeg
laeger
laek
laer
laere
laesplenkske
laestig
laet
laeve
laeven
laevend
laevende
laevendj
laevendje
laever
laeveslang
laeveslank
laevesloop
laevesloup
laevetig
laeze
laezen
laezer
laezing
laezinge
lag
laga
lage
lagen
lager
lago
lagte
lahaut
lahn
lahoz
lai
lajing
lake
lakehal
lakes
lal
lam
lama
lambert
lambertus
lambertuske
lambrecht
lambriks
laminaal
lamoureux
lamp
lampe
lan
lanc
lancaster
lance
lanceerplatform
lanceert
lancere
lancering
lancia
land
landboew
landbouw
landbouwgroond
landde
lande
landelek
landeleke
landelijke
landelik
landen
lander
landes
landeteams
landgenoet
landgood
landgraaf
landhoes
landing
landingde
landinwaarts
landj
landjboew
landjboewgro
landjgood
landjgraaf
landjmassa
landjoppervlakdje
landjplantje
landjsdeil
landjsjap
landjsjappe
landjstitel
landjvoog
landjwaer
landkreis
landmassa
landraod
landrat
landschap
landsgrens
landsjap
landsjappe
landsjappelek
landsjapselemente
landskampio
landskampioen
landskrink
landstaol
landt
landvoog
landzicht
lane
lang
langbrook
lange
langedijk
langemark
langen
langenberg
langer
langerak
langere
langhe
langk
langlaufe
langs
langse
langste
language
languages
langue
langzaam
lanje
lanjing
lank
lanka
lanker
lankgraaf
lanksjap
lankstertsjaermoestenrek
lankzaam
lankzaamaon
lankzem
lanotte
lansingerland
lant
lanthanide
lanthanied
lao
laoe
laog
laoge
laojing
laok
laon
laoneke
laop
laope
laor
laos
laot
laote
laoten
laoter
lapland
lappe
lara
laren
larf
large
larisa
larnaca
larry
lars
larve
las
laser
lassen
last
laste
lat
lataster
late
laten
later
lateraal
laterale
lateralen
latere
lateren
latien
latiens
latiense
latijn
latijns
latijnse
latin
latino
latium
latour
lau
lauda
launch
laupe
laura
laurado
laureaot
laureaote
laurence
laurens
laurenske
laurent
laurentius
lausanne
laut
lauwers
lava
laval
lavendel
lavoisier
law
lawrence
layer
lazarus
lazen
lazuur
lbaar
lboerderie
lcomplex
ld
lde
ldeg
ldegde
ldege
ldeging
ldeginge
lden
lder
lderd
lderde
ldere
lderes
lderij
lderije
lderinge
lderkuns
lders
ldert
ldhawwers
ldig
ldige
ldiging
lding
ldj
ldje
ldmo
ldmol
ldpad
ldpadde
ldsje
le
lea
lead
leader
leaf
league
learn
learning
least
leave
leaves
lebaan
lebbe
leben
lech
lectuur
led
lede
ledegem
leden
leder
ledere
lee
leech
leechgreun
leechjaor
leechte
leed
leedje
leedjes
leedjessjriever
leedsje
leedsjes
leedsjessjriever
leedtekste
leef
leefbaar
leefde
leefgebeed
leefho
leefs
leefste
leeft
leeftied
leeftijd
leefwijs
leeg
leej
leejt
leek
leen
leende
leenk
leenke
leenks
leens
leep
leer
leerdam
leerde
leerlinge
leers
leerssen
lees
leet
leeuw
leeuwarden
leeuwen
leeuwenhoek
leeve
left
leg
lega
legaal
legal
legaol
lege
legend
legendarisch
legendarische
legende
legenden
legendes
leger
legere
legering
legeringe
legers
legge
legioen
legislatieve
legitimiteit
lehei
lei
leibniz
leid
leidde
leide
leiden
leider
leiderdorp
leiders
leiding
leidje
leidjes
leidmotieve
leids
leidschendam
leidse
leidt
leie
leiebrouk
leien
leiende
leier
leiers
leiersjap
leif
leiing
leijde
leije
leijer
leijers
leijing
leijt
leim
leipzig
leisjtee
leisjteen
leismaan
leisman
leit
leje
lejer
lek
leke
lekker
lekkerland
lektromagnetische
lelie
lely
lelystad
lemaire
lemaol
lemelin
lemiee
lemiers
lemmens
lemmer
lemsterland
lemy
len
lendelek
lendeleke
lendsje
leng
lengde
lengelig
lenger
lengte
leni
lenin
leningrad
lenitie
lenj
lenjelik
lenjelike
lenjer
lennep
lennon
lens
lente
lenze
leo
leon
leonard
leonardo
leone
leonhard
leonid
leonie
leonis
leonne
leonore
leopold
leopoldina
lepe
lepel
ler
leraar
lere
lermontov
lerop
les
lesbos
lesj
lesje
lesotho
lesse
leste
lesteg
lestege
lesteger
lestig
lestiger
let
lete
leterme
letien
letiens
letiense
letland
letlandj
lets
letse
letste
lett
letter
letteren
lettergreep
lettergrepe
letterkunde
letterlek
letterlik
letters
letzte
leudaal
leudal
leuen
leuk
leukemie
leukskes
leume
leur
leus
leusden
leuve
leuven
leuvense
lev
levant
leve
level
leven
levend
levende
levendeg
levens
levenslang
lever
leverde
levere
levert
levertj
levesleed
levesverwachting
levesvo
levi
lewandowski
lewie
lewis
lex
lexicaal
lexicaol
lexicon
leyen
leyt
lez
leze
lezen
lezer
lezers
lezing
lezinge
lf
lfde
lfden
lfsteidetoch
lftal
lftalle
lg
lgaars
lgaorse
lgaot
lgarije
lgde
lge
lgende
lgendje
lger
lges
lhaof
lhc
lheid
lheje
li
lia
liaison
libanese
libanon
libe
liber
liberaal
liberale
liberalisme
liberaol
liberaole
liberia
liberte
liberty
libie
libische
library
libre
libretto
libro
licentie
lich
lichaam
lichame
licht
lichte
lichtelik
lichtenberg
lichter
lichtervelde
lid
lidmaatsjap
lidmaotsjap
lidsjtaote
lidsjtate
lidstaot
lidstaote
lidwa
lidwaord
lidweurd
lidwoord
lie
liebe
lieben
liech
liechaam
liechame
liechaom
liechaome
liechgewiech
liechgreun
liecht
liechte
liechtenstein
liechter
lied
liederen
liedje
liedjes
liee
lief
liefde
liefelek
lieff
liefs
lieg
liege
lieger
liegerhoes
liegk
liegke
liegkend
liegkende
liegking
liegkt
liegland
liegste
lieje
liejt
liek
lieke
lieken
liekende
liekene
liekent
lieket
liekt
liektj
lielik
liem
liemers
lien
liendeens
liendeenste
liene
lienwa
lier
lieraar
lierbeuk
lierde
liere
lieren
lierer
lierling
lierlinge
liert
lies
liesbeth
lieste
liester
liestre
liesveld
liet
lieter
lieue
lieve
liever
lieverde
lievere
lievert
liew
liewe
liez
lif
life
lig
liga
lige
ligge
liggen
ligging
light
ligk
ligke
ligken
ligkend
ligkende
ligking
ligkt
ligktj
ligt
lije
lijend
lijf
lijff
lijk
lijn
lijne
lijst
lik
like
likt
liktj
lila
lilianne
lilili
lille
lillian
lilly
lima
limb
limbo
limbourg
limbricht
limburg
limburge
limburger
limburgers
limburgish
limburgs
limburgse
limburgsen
limburgstalige
limes
limiet
limmenaad
lin
lincoln
lind
linda
lindbergh
linde
linden
linders
line
lineair
linedata
ling
lingdje
linge
lingewaal
lingsfort
lingua
lingui
linie
link
linke
linked
linker
linkerhand
linkerkant
links
linkse
linn
linnaeus
linne
lint
lintbeboewing
lintbebouwing
lintdo
linus
linux
linz
lion
lionel
lip
lippe
lis
lisa
lisch
lische
lisieux
lissabon
lisse
list
liste
liszt
lit
litanie
liter
literair
literaire
literature
literatuur
literatuurpries
lith
lithium
litouwe
litouws
litouwse
lits
litste
litt
litte
littenseradiel
litteratuur
littergreep
littergrepe
litterlik
little
liturgie
liturgisch
liturgische
liu
live
liveblog
liveoetzenjing
liverpool
lix
lj
lje
ljig
ljige
lk
lkaan
lkanisch
lkanische
lkanisme
lkaon
lkaone
lke
lker
lkes
lking
lkingsgreuj
lkuns
lkweeg
ll
lla
lle
llef
lleg
lleka
llekes
llem
llen
llend
llende
llendje
llentrik
llentrikke
ller
llig
llige
lling
llinge
llingen
lloyd
llustreerd
lm
ln
lo
loa
load
loat
loate
local
locarno
locatie
locatief
locaties
loch
lochaonvalle
lochem
lochhave
lochmach
locht
lochvaart
lochvaartmaatsjappieje
lockdown
locomotief
lode
lodewiek
lodewijk
loe
loead
loed
loee
loehansk
loei
loeis
loek
loen
loenen
loep
loer
loerde
loere
loerjas
loert
loes
loestere
lof
loff
log
logan
logaritmische
loge
logica
logie
logisch
logische
logo
loi
loir
loire
loj
lokaal
lokale
lokaol
loker
lokke
lol
lom
lombard
lombardije
lombardijen
lombok
lommel
lommels
londe
londen
londes
london
lonely
long
longkaanker
longo
longobarde
lontzen
loo
loog
look
looking
loon
loontjens
loop
loopt
loos
loot
lope
lopen
lopez
lopik
loppersum
lord
lorenzo
lortie
los
losgekoppeld
losgelaote
losgemaak
losse
losser
lost
lot
lotharinge
lotharius
loting
lotte
lottem
lottum
lotus
lotz
lou
louis
louise
louisiana
loup
loupbaan
loupbaon
loupe
loupen
loupend
loupende
lourdes
lourdesgrot
louvre
love
loves
low
lower
lowie
loyola
loze
lp
lpe
lpf
lpmiddele
lptaole
lpuntj
lpwerkwa
lpwerkwoord
ls
lsberg
lsd
lse
lsel
lsele
lselkes
lsels
lser
lsj
lsje
lsjriever
lsjteine
lsjto
lstand
lste
lster
lt
lte
ltj
ltje
ltuin
lu
lubbe
lubbers
lublin
luc
luca
lucas
lucht
lucia
luciano
lucianus
lucien
lucifer
lucius
lucy
lude
luden
ludwig
lue
luej
luftwaffe
lui
luie
luigi
luij
luijten
luik
luiks
luikse
luip
luiper
luis
luit
luitenant
luj
lukaku
luke
lula
lully
lumie
lummel
luna
lund
lune
lup
luppe
luppen
lupt
lupus
lus
lusailstadionsjeidsrechter
lust
lute
lutenant
lutetia
luther
lutheraanse
lutheranisme
lutheraone
lutherse
luttel
lutz
luu
luue
luuj
luuk
luukse
luustere
luustereer
luutenant
luxe
luxembo
luxembourg
luxemburg
luxemburgs
luxemburgse
luxor
luzifer
luzifers
luzon
luzzel
lv
lvarez
lve
lver
lvere
lvermiew
lvk
lvo
lvoud
lwa
lwasse
lwoord
ly
lyceum
lynch
lynden
lyndon
lynn
lynx
lyon
lyriek
lyrisch
lyrische
lzer
m
ma
maache
maaf
maag
maagde
maagdenberg
maak
maakde
maakden
maakdje
maake
maaks
maakt
maakte
maaktj
maal
maan
maanden
maander
maansjlaag
maanslui
maar
maarsjalk
maarssen
maart
maarten
maartensdijk
maartenske
maas
maasbrach
maasbracht
maasbree
maasdal
maasdam
maasdriel
maasdune
maaseik
maasgoew
maasgotiek
maasgouw
maasland
maaslands
maaslandse
maasniel
maassen
maassluis
maastricht
maastrichts
maastrichtse
maasveld
maat
maatregele
maatschappij
maatsjappeleke
maatsjappie
maatsjappiej
maatsjappieje
mac
macaca
macau
macbeth
macbukkum
macdonald
macedonie
macedonisch
macedonische
mach
mache
machen
machho
machine
macht
machte
machtige
macro
macron
macroregio
mad
madagaskar
madame
made
madeira
madeleine
madera
madison
madonna
madrid
mae
maedje
maedjes
maedsje
maedsjes
maee
mael
maeldra
maels
maer
maere
maerem
maeren
maert
maes
maete
maeter
maeters
maetinge
maetko
mag
magazine
magdalena
mage
mager
maggiore
maghreb
magic
magie
magische
magma
magneet
magnesium
magnete
magnetisch
magnetische
magnificat
magnitude
magnitudesjaol
magnorde
magnum
magnus
magritte
mahal
maharishi
mahatma
mahler
mai
mail
mailing
main
maine
mains
mainstream
mainz
mais
maison
majoor
major
mak
makde
make
maken
maker
making
makkelie
makt
mal
mala
malakka
malaria
malawi
malayo
malcolm
maldegem
male
maledive
maleis
maleise
maleisie
maleisisch
malheur
mali
malik
malle
mallig
mallorca
malmedy
malmo
malt
malta
maltees
maltezer
mam
mama
mameles
mammalia
mammals
man
management
manager
manaus
mancha
manchester
mandaat
mandaot
mandaotgebeed
mandarijn
mande
mandela
mane
maneer
manegen
manere
manet
manfred
mangaan
manhattan
manic
manier
manieren
manifes
manifest
manifestere
mann
manne
mannekoar
mannelek
manneleke
mannelik
mannelike
mannelikke
mannen
mannheim
mans
mansardedaak
manskaerel
manskaerele
manslui
mansluuj
mantel
mantsjoerije
mantsjoes
manuel
manuscript
manuscripte
manx
many
mao
maog
maogdjelikheid
maoge
maoi
maoke
maol
maole
maon
maond
maondag
maonde
maondig
maondj
maondje
maone
maonje
maonlander
maor
maord
maorde
maordenaer
maori
maos
maoskant
maosmoond
maot
maote
maoteg
maotig
maotraegele
maotregel
maotregele
maotsjappeleke
maotsjappie
maotsjappij
map
maps
mar
maracana
maradona
maranha
marathon
marc
marcel
march
marchant
marche
marciniak
marck
marco
marconi
marcus
mare
maren
marga
margaret
margaretha
marginaol
margraten
margrethe
margriet
mari
maria
mariabeeld
mariaberg
mariakapel
mariake
mariane
marianne
mariano
marianum
maricopa
marie
marieke
marien
mariet
marij
marin
marina
marine
marinebasis
mariner
marino
marinus
mario
marion
maris
maritiem
maritime
marius
marjo
marjolein
mark
markant
markante
marke
markeert
markere
market
markies
marko
markt
marl
marlborough
marleen
marlene
marlowe
marlstone
marmer
marmere
marne
marnix
marokkaans
marokkaanse
marokkane
marokkaone
marokko
marotte
marrons
mars
marseillaise
marseille
marshall
marshalleilen
marsj
marsman
marta
martel
martelaer
martelaere
marten
martens
martha
marti
martijn
martin
martina
martineau
martinique
martinus
martinuske
martinuskerk
martinuskirk
marvin
marwijk
marx
marxisme
marxistische
mary
maryland
mas
mascotte
masjtrich
maske
maskes
mass
massa
massaal
massachusetts
massamedia
massaol
massastart
masse
massief
massieve
massy
master
masters
mastreecht
mastreechter
mastreeg
mastreegs
mat
mata
match
matche
matches
mate
maten
mater
materiaal
materiale
materiaol
materiaole
materie
materieel
mateu
math
mathenesse
mathias
mathieu
mathilde
mathrm
matisse
mato
matrix
matroze
matt
matterjaal
matterjale
mattheus
matthew
matthias
matthijs
mau
mauf
mauna
mauretanie
maurice
mauritanie
mauritius
maurits
mauritshoes
mauro
mausoleum
mauve
max
maxi
maxim
maxima
maximaal
maximaol
maxime
maximiliaan
maximum
maxwell
may
maya
mayen
mayer
mayonaise
mayotte
maz
mazurie
mb
mbappe
mbardeme
mbardere
mbie
mbies
mbinaasje
mbo
mbya
mc
mccarthy
mccartney
mcdonald
mcdonnell
mckinley
md
mdat
mde
mdet
mdje
me
mead
meander
means
mechanica
mechanisch
mechanische
mechanisme
mechanismes
mechele
mechelen
mechteg
mechtege
mechtegste
mecklenburg
medaaje
medaajes
medaille
medaje
medajel
medajele
medajes
medajje
medalje
mede
medemblik
media
mediaal
mediae
mediawiki
medici
mediciene
medicijne
medicine
medicus
medio
medisch
medische
mediterraan
mediterraonse
medium
medvedev
mee
meej
meer
meerdere
meerderheid
meere
meerlo
meern
meerse
meersje
meersjes
meerssen
meerssenhoven
meert
meertens
meervoud
meest
meeste
meester
meet
meeting
meetings
meeuwen
mega
megafauna
meh
mehmet
mei
meid
meidske
meidskes
meierij
meierijs
meierijstad
meijel
meijer
meijers
meijs
mein
meinde
meine
meining
meininge
meiningsuting
meint
meinweg
meis
meisje
meist
meistal
meiste
meisten
meistens
meister
meisters
meistes
meitske
meiza
mej
mekaar
mekander
mekka
mekkelik
mekkeliker
mel
melanesie
melbourne
melchior
melde
melderse
melding
meldje
mele
melick
melik
melissa
melle
melodie
melodiee
melt
members
membraan
meme
mement
memint
meminte
memoires
memorial
memoriam
memory
memphis
men
mende
mendelssohn
mendes
mendocino
mene
meneer
menen
menere
mengelberg
menghen
mengsel
menhier
menier
menippos
menke
menkes
menneke
mennekes
menneleke
mennelik
mennelike
mennich
menno
mens
mensche
menschen
mense
mensen
mensport
ment
menten
menu
menue
menute
menuut
meppel
mer
mera
merced
merckx
mercurius
mercury
mere
merel
meren
merge
mergel
mergelberg
mergele
mergelgrotte
mergelland
mergelsberg
mergelsjtein
mergelsjteine
mergraote
merie
merk
merkbaar
merkde
merke
merkel
merkelbek
merovingische
merret
merrete
mers
mersch
mert
merte
mertens
merwede
mes
mesa
mesdaet
mesen
mesjien
mesjiens
mesjtreech
mesjtreechse
mesohyl
mesone
mesopotamie
mesozoi
message
messenger
messi
messiaen
messiah
messias
messing
mesties
mestieze
mestreech
mestreechs
mestreechse
mestreechsen
mestreechteneer
mestreechtenere
mestreechter
met
meta
metaal
metabolisme
metafoor
metal
metalband
metalbands
metale
metallica
metalloi
metamodernisme
metaol
metaole
metaphysica
mete
metein
meteore
meteorezwerm
meteoriet
meteoriete
meteoroi
meteorologie
meteoroloog
meter
meters
methaan
methode
methodes
methodisme
methodiste
methood
metro
metropole
metropolis
metropolitan
metropool
metropoolregio
metrum
mets
metser
mette
metten
metternich
mettmann
metz
metze
meug
meugelek
meugeleke
meugelekhede
meugelekheid
meugelig
meugelik
meugelike
meugelikerwies
meugelikheid
meugelikheje
meuilek
meuje
meujelek
meujlik
meujte
meule
meulebaek
meulegeboew
meulenaer
meulenhoek
meuleraad
meules
meuletak
meunte
meus
meuse
mevrouw
mexicaans
mexicaanse
mexico
mey
meyer
mezeik
meziek
meziekgenres
meziekinstreme
meziekpedagoog
meziektheoreticus
meziektheorie
meziekwereld
mf
mg
mgaeve
mgaeving
mgaevinge
mgeboewd
mgeduip
mgeko
mgezatte
mgr
mgrachting
mh
mheer
mhoeag
mi
mia
miami
mic
mich
michae
michael
michaels
michail
michel
michelangelo
michele
michelle
michiel
michigan
mick
mickey
micro
microbiologie
microgale
micronesie
micronesische
micropotamogale
microregio
microscoop
microsoft
mid
midde
middeklinker
middel
middela
middelar
middelbaar
middelbare
middelburg
middelbuurt
middelduits
middele
middelee
middelfrankisch
middelfrankische
middelfrans
middelgroet
middelgroete
middelharnis
middelhoegduits
middelie
middeliee
middelieuwe
middeliewe
middeliews
middeliewse
middelingels
middelingelse
middelkerke
middellandjse
middellandse
middellien
middellimburgs
middelnederlands
middelnederlandse
middelpunt
middelpuntj
middels
middelste
midden
middenin
middereef
middig
middle
middlesbrough
midi
mie
miech
miedde
mieddelie
miede
miedelie
mieder
miee
miejer
miejerheid
mieke
miel
miele
mieljaar
mieljard
mieljarde
mieljoee
mieljoen
mieljoene
mieljoon
mien
mienboew
miene
mienen
mieng
miengde
mienge
miens
miense
miensj
miensje
miensjelek
miensjeleke
miensjelik
miensjelike
miensjerechte
miensjtreek
mienwaeg
mienwe
mienwirkers
mier
mierder
mierdere
mierderheid
mierendeil
mierlo
miert
miervoud
miervoude
miervoudeg
miervoudege
miervoudsvo
mies
miesjtal
miest
miestal
mieste
miestens
miet
miete
mieter
mievoud
mig
might
migrante
migrantecrisis
migranten
migrants
migratie
miguel
mihns
mij
mijl
mijn
mijnbouw
mijne
mijnen
mik
mike
mikoyan
mil
milaan
milan
mild
milde
mile
milennium
miles
milieu
milieus
militair
militaire
militairen
militante
military
milities
miljard
miljeu
miljo
miljoan
miljoee
miljoen
miljoene
milk
mill
mille
millen
millennium
miller
millimaeter
millimeter
millinge
million
milorad
milos
milsbik
miltj
milton
mimatie
mimi
min
mina
minas
minckelers
mind
minden
minder
mindere
mindergangelt
minderhe
minderhede
minderheden
minderheed
minderheid
minderheidstaol
minderheidstaole
minderheje
mine
minen
miner
mineraal
mineral
minerale
ming
mingde
minge
mingsel
mingvo
minh
mini
miniatuur
minimaal
minimal
minimaol
minimum
minister
ministerie
ministeries
ministerraod
ministers
ministersjap
minne
minnen
minnesota
minor
mins
minsape
minse
minsekinder
minselek
minseleke
minserechte
minsheid
minsj
minsje
minsjelike
minsjweitesjappe
minsk
minst
minste
minstens
minstes
minus
minute
minutes
minuut
miquelon
mir
mirakel
miranda
miro
mis
misbroek
misbruuk
misdaad
misdade
misdaod
misdaode
misde
misdrieve
misj
misjmasj
mislo
mispel
miss
missa
missaal
misschien
misse
missie
missies
missing
mission
missionaire
missionaris
mississippi
missouri
mit
mitchell
mite
mitein
mitgeno
mithras
mitigatie
mitklinker
mitklinkers
mitnaam
mits
mitstens
mitsubishi
mitte
mitten
mix
mk
mko
mladic
mligkendje
mloup
mm
mme
mmel
mmele
mmelinge
mmen
mmend
mmende
mmendj
mmendje
mmer
mmere
mmerich
mmerig
mmers
mmert
mmige
mming
mmunikaasje
mo
moan
moarend
moat
mobiel
mobile
mobutu
moch
mocht
mochte
mochten
modaol
mode
model
modelle
modeo
moder
moderkookbiee
modern
moderne
modernen
moderner
modernisere
modernisering
modernisme
modernistische
moderspraok
modertaal
modest
modi
modieus
modoc
modulatie
module
modus
moe
moebarak
moede
moeder
moeders
moee
moei
moel
moele
moelinge
moentjes
moer
moeras
moerasse
moerassig
moerdijk
moere
moeren
moerkapelle
moersjelt
moersjilderinge
moes
moeskroen
moesse
moesson
moest
moeste
moet
moete
moeten
moezel
mofers
moferse
mofert
moferter
moferts
mog
mogadishu
moge
mogelijk
mogen
moghen
mohamed
mohammed
mohammedaone
mohammedaonse
mohave
moi
mojer
mojerkookbieste
mojerland
mojertaol
mojertaolsprekers
mokerhei
mol
moldau
moldavie
moleculair
molecule
molecuul
molen
molenaar
molenbeek
molendatabase
molenlanden
molenwaard
molie
molin
molotov
mols
molukse
molybdeen
momaent
moment
momenteel
momint
mompach
momus
mon
mona
monaco
monarch
monarchie
monarchiee
mond
monde
mondriaan
monet
monetair
money
mongole
mongolie
mongools
mongoolse
monica
monikke
monique
monnet
monnik
monnike
mono
monoftong
monoftonge
monogram
monologue
monoloog
monopolie
monothei
monotremata
monroe
mons
monschau
monster
monstrans
mont
montagne
montana
monte
montenegro
monterey
montesquieu
monteverdi
montevideo
montfoort
montfort
month
monticola
montmorency
montre
montserrat
monumaent
monume
monument
monumentaal
monumentaol
monumente
monumint
monuminte
monzoel
mood
mooder
moog
mooge
mooi
mooie
mooijer
mooiste
moojer
moojertaol
moojertaolsprekers
mook
moon
moond
moontse
moor
moord
moordrecht
moore
moors
moorslede
moos
moosj
moosjte
mooste
moot
mora
moraal
morales
moraol
morata
moravie
more
moreau
moreel
moresent
moresnet
moretti
morfeem
morfologie
morfologische
morgan
morgen
mormone
morning
moro
morris
morrison
morrow
mort
mortel
morto
morton
mos
mosa
mosaiek
mosalect
mosasaurus
moselle
moser
moses
moskee
moskeee
moskou
moslim
moslims
mosoel
moss
mosse
most
moste
mosterd
mosul
moszkowicz
mot
mote
motette
motie
motief
motieve
motion
moto
motor
motorcoureur
motore
motors
motown
motte
motto
mouillering
moulin
mount
mountain
mountainbike
mountains
mouscron
mouse
mouvement
mouw
move
movement
movie
moyen
mozai
mozambique
mozart
mozes
mp
mpe
mpeld
mpele
mpelweeg
mpenis
mpetisie
mpetisies
mpleks
mplementeerd
mporteerd
mr
mringendje
mroop
ms
msa
msjrieving
msjtandighede
msjtreeks
msleitj
mste
mstenjigheje
mster
mstig
mstige
mt
mtieds
mtlands
mtre
mtv
mu
mubarak
much
mue
mugabe
mughalriek
muhammad
muibel
muibele
muiden
muidersjlot
muis
mulatte
mulder
mulhouse
mulier
mulisch
muller
mulo
multatuli
multi
multicultureel
multiple
mummies
mundart
mundi
munjing
munster
munstergelaen
munt
munte
munteinhede
munteinheid
mures
murray
muse
musea
museum
music
musica
musical
musicals
musici
musicoloog
musicus
musidora
musk
musketeers
mussert
mussolini
must
muste
musten
mut
mutandis
mutatie
mutaties
mutatis
mutsj
muue
muun
muur
muus
muz
muze
muziek
muzikaal
muzikale
muzikant
muzikante
muzikantj
muzikaol
mv
mvang
mvank
mvat
mvatj
mvatte
mvv
mw
mwiel
mwo
my
mynne
mynnen
myra
mysterie
mystery
mystica
mysticus
mystiek
mystieke
mythe
mythes
mythische
mythologie
mythologische
mze
mzelf
møre
n
na
naaf
naafhankelik
naafhankelike
naafhankelikheid
naafhenkelik
naafhenkelike
naafhenkelikheid
naaks
naam
naamgaever
naamgaeving
naamkunde
naamse
naamval
naamvalle
naamwa
naamwaord
naamwoord
naar
naarden
naas
naast
naat
nac
nach
nachgetragen
nachs
nacht
nachte
nachts
nacional
nad
nadal
nader
nadia
nae
naee
naef
naegel
naeme
naer
naerbaek
naerslaag
naeve
naeven
naevenein
nafta
nag
nagasaki
nagel
nagelsjrif
nagorno
nagy
nai
nairobi
nak
nam
nama
name
namelek
namelig
namelik
namen
names
namesdaag
namibie
nan
nancy
nanking
nantes
nao
naober
naoberdo
naoberland
naoberlen
naobers
naobersjap
naobersjappe
naobie
naobij
naocompetitie
naodat
naodeen
naodeil
naodeile
naoder
naoderhand
naodet
naodro
naodruk
naoe
naogedachtenis
naogelang
naogelaote
naojaor
naoko
naokoumelinge
naold
naom
naomaote
naome
naomelek
naomes
naomgeving
naomi
naomloes
naomsverandering
naomval
naomvalle
naomvalsoetgaank
naomvalssysteem
naomvalsversje
naomvalsvo
naomwa
naomwoord
naor
naord
naorde
naordelik
naordelike
naorderdeparteme
naordoeaste
naordoee
naordrien
naordwe
naordweste
naosjlaag
naoslaag
naotot
naovenant
naoventrint
naovolging
naozaote
nap
napa
napels
napole
napoleon
napoleontische
nappes
nar
narendra
nasa
nasaal
nasale
nasaol
nash
nashville
nasjenaal
nasjenale
nasjonaal
nassau
nasser
nat
natal
nate
nater
nathan
natie
naties
natiestaot
nation
nationaal
national
nationale
nationalisme
nationaliste
nationalistisch
nationalistische
nationalite
nationaliteit
nationaliteite
nationaol
nationaole
nationaolen
nationaolsocialisme
nations
native
nato
natrium
natura
naturalis
nature
natuur
natuurgebeed
natuurgebeje
natuurgebied
natuurhistorisch
natuurko
natuurkunde
natuurkundege
natuurkundige
natuurle
natuurlek
natuurleke
natuurlik
natuurlike
natuurlikke
natuurmonumenten
natuurrampe
natuurreservaat
natuursjte
natuursjtein
natuurwetensjappe
nauru
nauw
nauweliks
nauwkeurig
navajo
navarra
navigator
navo
naxos
nazareth
nazi
nazis
nazisme
nb
nbaar
nbc
nbeke
nbekindj
nberg
nbewo
nbewoond
nchen
nchengladbach
nchez
ncia
ncipe
nd
ndanks
nde
ndebele
ndeep
ndeg
ndege
ndel
nden
nder
nderd
nderde
nderdeil
nderdig
ndere
nderein
ndergro
ndering
ndersjte
nderverdeild
nderwerp
nderwerpe
nderwies
nderzeuk
ndez
ndgebeed
ndheid
ndig
ndigde
ndige
nding
ndj
ndje
ndjehoes
ndjen
ndjes
ndjgebeed
ndjgebied
ndjheid
ndjle
ndjo
ndjs
ndjscoach
ndjse
ndjskanseleer
ndjslaag
ndjste
ndjstof
ndjwater
ndjwe
ndle
nds
ndse
ndsjtuurbreef
ndssjtoat
ndste
ndum
ndwe
ne
nea
neanderthaler
neanderthalers
near
neave
nec
ned
nedcar
neder
nederduits
nederduutsj
nederfrankisch
nederfrankische
nederlaag
nederland
nederlande
nederlanden
nederlander
nederlanders
nederlandj
nederlandjs
nederlandjse
nederlandjsen
nederlands
nederlandsch
nederlandsche
nederlandse
nederlandsen
nederlandsj
nederlandstalig
nederlandstalige
nederlandstaoleg
nederlandstaolege
nederlanje
nederlanjer
nederlank
nederlaog
nederlek
nederlen
nederleng
nederlenj
nederrien
nederriense
nederrijn
nedersakse
nedersaksisch
nedersaksische
nederweert
nederze
nederzetting
nee
need
needed
neef
neejwiee
neel
neemt
neer
neerbaek
neercanne
neergesjlage
neergesjote
neergeslage
neergestort
neergezat
neerhaof
neerijnen
neeritter
neerkump
neerlandse
neersjlaag
neerslaag
neerze
neet
neettemin
negatief
negatieve
nege
negeert
negein
negel
negen
negende
negenden
negenteg
negentiende
negentienden
neger
negers
negeteg
negetiende
negetienden
negro
neht
nei
neig
neige
neigelike
neiging
neil
nein
neit
nej
nek
nel
nelissen
nellie
nelly
nelson
nelux
nem
neme
nemen
nemes
nemmermeer
nen
nenberg
neo
neoclassicisme
neoclassicistische
neogotiek
neogotisch
neogotische
neoklassieke
neolithicum
neolithische
neon
neoromaans
neoromaanse
neosjtiele
nep
nepal
neptunus
ner
nere
nerem
nero
nerotere
ners
nertalle
nerve
nes
nesj
nest
nestet
nestor
net
netanyahu
netherlands
nette
nettetal
netto
netty
netuur
netuurgebeed
netuurgebied
netuurko
netuurkundige
netuurlek
netuurleke
netuurlik
netuurlike
netwerk
network
neu
neubourg
neucha
neudig
neue
neuenkirchen
neufcha
neuge
neugende
neugentiee
neugeteenden
neugetie
neugetiee
neugetig
neumann
neumde
neumdje
neume
neump
neumt
neurenberg
neuroloog
neus
neushore
neuss
neutraal
neutralen
neutraol
neutrino
neutron
neutrone
neuville
nevada
nevado
neve
nevel
neven
nevenein
never
nevis
new
newcastle
newfoundland
newman
news
newsletter
newton
next
neyman
nez
nflik
nformeerd
ng
nga
ngaars
ngaarse
ngare
ngarije
ngblaad
ngc
ngd
ngde
ngdehoes
ngderaod
ngderwies
ngdes
nge
ngel
ngelandj
ngelder
ngelo
ngelsj
ngelsje
ngeluk
ngen
nger
ngerbenk
ngerd
ngerde
ngerdeel
ngerdeil
ngerdeile
ngerdeiler
ngerdj
ngerdro
ngere
ngerein
ngerfemielje
ngergank
ngergaon
ngergeslech
ngergro
ngerhanjelinge
ngerkantj
ngerkeuldje
ngerling
ngernummer
ngero
ngerorde
ngerrich
ngerriek
ngersje
ngersjeid
ngersjeie
ngersjeije
ngersjeijinge
ngersjied
ngerste
ngerteikend
ngerteikene
ngerteikening
ngerteikent
ngerto
ngerverdeild
ngerverdeildj
ngerwaeg
ngerwaeges
ngerwerp
ngerwerpe
ngerwiel
ngerwies
ngerwiezer
ngerwirp
ngerwirpe
ngerzee
ngerzeuk
ngerzeuke
ngerzeuker
ngerzeukers
ngerzo
nges
ngespre
ngevaer
ngeval
ngevee
ngeveer
ngevie
ngeviee
ngevier
ngk
ngo
ngruter
ngs
ngspits
ngste
ngt
nh
nhaaf
nhe
nhof
ni
nia
nibelungen
nicaragua
niccolo
nice
nich
niche
nichein
niches
nicholas
nichols
nicht
nick
nicky
nico
nicola
nicolaas
nicolae
nicolaes
nicolai
nicolas
nicolaus
nicole
nicoline
nicosia
nider
nie
niederkru
niedorp
niee
niej
nieje
nieks
niel
niels
nieman
niemand
niemes
niemeyer
niers
niesje
nieswiller
niet
nietelbieste
niets
nietzsche
nieuw
nieuwe
nieuwegein
nieuwenhuizen
nieuwer
nieuwerkerk
nieuwkoop
nieuwpoort
nieuws
nieuwsblad
niewiadoma
nig
nige
niger
nigeria
nigeriaanse
night
nights
niging
nigra
niht
nij
nijhoff
nijkerk
nijl
nijmege
nijmegen
nijssen
nijvel
nik
niki
nikita
nikkel
nikola
nikolaj
nikolaus
niks
nilo
nils
niman
nimbus
nimmer
nimmie
nimmiee
nimweegs
nimwege
nin
nina
nine
ning
ninge
ningshoes
ninkriek
nio
nirbik
nirm
nirvana
nirve
nis
nisberg
nissewaard
nit
nita
niveau
niveaus
nivo
niwet
nix
nixon
nizjni
nj
nje
njelik
njelo
njen
njer
njerbeuk
njig
njige
njing
njinge
njste
nk
nke
nkel
nkele
nkelik
nkelike
nker
nkgebeed
nkheid
nking
nko
nkroed
nks
nksje
nkste
nl
nleke
nlik
nlikke
nlo
nm
nmerk
nmerke
nmeugelik
nmirk
nmirke
nn
nne
nnelandjse
nnen
nneplaatsj
nner
nnewende
nnig
nnige
nning
nnis
no
noa
noadat
noah
noam
noar
noard
noarde
noardeast
noardelig
noardelige
noardoee
noardrien
noats
nobel
nobelcomite
nobelpries
nobelprieswinnaer
nobelprieswinner
nobelprieze
nobelprize
nobelstiechting
noc
noca
noch
nochtan
nodig
noe
noearje
noeatj
noeats
noed
noedzaak
noedzakelek
noee
noeit
noet
noets
noew
nog
nogal
noir
nois
nola
nolens
nom
nomade
nome
nomen
nomenclatuur
nominatie
nominatief
nominaties
nommer
nommers
nomos
non
none
nonne
noodtoestand
nooit
noom
noonk
noor
noorbeek
noord
noorde
noordelek
noordeleke
noordeleker
noordelekste
noordelik
noordelike
noordelikke
noorden
noordenveld
noorder
noordereiland
noordfries
noordgrens
noordhooks
noordkant
noordko
noordoas
noordoaste
noordoos
noordoospolder
noordoost
noordooste
noordoostelek
noordoosteleke
noordoostpolder
noordpool
noordrien
noordriens
noordse
noordvleugel
noordwes
noordwest
noordweste
noordwestelek
noordwijk
noordwijkerhout
noordwijks
noordzee
noordzie
noordziee
noormanne
noors
noorse
noorwaeg
noorwege
noot
nootdorp
noow
nor
nora
norbert
norbik
norbiks
nord
nordelik
nordland
nore
norfolk
norm
normaal
normal
normale
normaliter
norman
normandie
normandisch
normandische
normaol
normatief
norme
norrbottens
norte
north
northwest
norton
nos
nostratische
not
nota
notaris
notatie
note
noten
noteringe
notes
nothing
notie
notifications
notities
notoc
notre
notten
nottingham
nou
nous
nouveau
nov
nova
novak
novarum
nove
novel
novelle
november
novgorod
now
npo
nr
nrc
nro
nrw
ns
nsb
nsdap
nse
nsem
nsigste
nsj
nsjap
nsje
nsjes
nsjo
nsjte
nsmaesige
nsme
nspireerd
nspireerde
nssjilder
nssjiljer
nstalleerd
nste
nstenaer
nster
nstere
nstereifel
nstied
nt
ntaal
ntak
ntal
ntalle
ntatie
ntbraeke
ntde
ntdek
ntdekking
nte
nteerd
nteerde
ntegreerd
nteks
ntelik
ntelum
nten
nter
nterpreteerd
ntgen
ntgenstraoling
ntginning
nther
ntho
ntie
ntinent
ntinente
ntj
ntje
ntjelo
ntjer
ntjersjpele
ntliee
ntplof
ntploffing
ntra
ntraol
ntrasteertj
ntre
ntroduceerd
ntruump
ntsjlaag
ntsjlage
ntsjleit
ntsjnappe
ntsjprink
ntsjtaeking
ntsjtange
ntsjtaon
ntsjteit
ntsjto
ntsjtoon
ntstaeking
ntstange
ntstangen
ntstaon
ntsteit
ntsteitj
ntsting
ntsto
ntsverkezinge
ntvange
ntvangenis
ntvangs
ntveurd
ntving
ntvo
ntwerp
ntwerpe
ntwerper
ntwerpster
ntwiekkelde
ntwikkeld
ntwikkelde
ntwikkeldj
ntwikkeldje
ntwikkele
ntwikkelendj
ntwikkeling
ntwikkelinge
ntwikkelt
ntwo
ntworpe
nu
nuances
nuath
nucleair
nucleaire
nudeg
nudig
nue
nueva
nui
nuibouw
nuibouwwiek
nuibouwwieke
nuie
nuien
nuienhage
nuier
nuifrans
nuigrieks
nuij
nuis
nuit
nuits
nuj
nuje
nujeg
nujen
nujer
nul
num
number
numde
numeriek
numme
nummen
nummer
nummers
nummersj
nump
numt
numwaege
nuna
nunatie
nunavut
nunem
nunspeet
nuntius
nuo
nur
nurges
nus
nusra
nut
nuth
nuts
nuue
nuuedig
nuuj
nuujboew
nuuje
nuujjaor
nuujs
nuujsjtad
nuuts
nv
nva
nvermeljing
nversjil
nvleujd
nvleuje
nvloed
nvloede
nvlood
nvloojd
nwa
ny
nye
nyemant
nyet
nynorsk
nys
nze
nzt
o
oa
oach
oake
oan
oane
oara
oarsjpro
oarsjpronk
oarsjprunkelik
oas
oaste
oastelik
oastelike
oasteriek
oasterieks
oasteriekse
oasters
oasvleugel
oats
oavend
oaver
ob
obama
obbendorf
obbenu
obbenuits
obbenuujs
obbenuujts
obbicht
obdam
obe
obelix
oberbergischer
oberbruch
oberliga
obispo
obje
object
objecte
objectief
objek
objeksvo
objekte
oblas
oblast
oblaste
obliquus
obscura
observatie
observaties
observere
obstruent
oc
occitaans
occlusief
oce
oceaan
oceane
oceanie
oceanisch
oceanische
oceaon
och
oche
ockeghem
ockels
ocr
oct
octaaf
octave
octavianus
octe
october
octrooi
oda
ode
oder
odes
odessa
odijk
odilie
odoorn
odore
odste
odyssee
oe
oea
oeal
oeals
oeare
oearspro
oearsprunkelik
oearsprunkelike
oeas
oeaste
oeastelik
oeastelike
oeasteriek
oeasziee
oeatj
oeats
oec
oech
oecumenisch
oee
oefene
oefening
oefeninge
oefent
oeganda
oegaritisch
oege
oegstgeest
oeht
oeil
oej
oejevaar
oekrai
oeldere
oer
oeral
oeralische
oere
oeren
oergermaans
oergermaanse
oerknal
oerle
oerlog
oermunjige
oeroendi
oersjpro
oersjprunkelig
oersjprunkelik
oersprunk
oersprunkelek
oersprunkeleke
oerwoud
oerzaak
oerzake
oes
oest
oeste
oesteriek
oesters
oesterse
oet
oetbarsjting
oetbarsting
oetbarstinge
oetbeelde
oetbersting
oetboew
oetbraak
oetbrach
oetbraok
oetbreiding
oetbreie
oetbreiing
oetbreiinge
oetbreijing
oetbreke
oetbringe
oetbrook
oetdro
oete
oetein
oeteindelek
oeteindelik
oeten
oetentelik
oeterein
oetereinloupende
oetereinvalle
oeters
oetg
oetgaaf
oetgaank
oetgaever
oetgaeverie
oetgank
oetgave
oetgaves
oetgebeeld
oetgeboewd
oetgebouwd
oetgebrach
oetgebre
oetgebreid
oetgebreide
oetgebreider
oetgedro
oetgegaeve
oetgegange
oetgegeve
oetgegrave
oetgegreujd
oetgeit
oetgelag
oetgemaak
oetgeng
oetgeoefend
oetgepo
oetgereik
oetgereikt
oetgerekend
oetgereujd
oetgero
oetgerope
oetgesjakeld
oetgesjpraoe
oetgesjpraoke
oetgesjproke
oetgesjreve
oetgesjtorve
oetgeslote
oetgespraoke
oetgespraoken
oetgesproke
oetgeste
oetgesto
oetgestorve
oetgestre
oetgestrekde
oetgever
oetgeverij
oetgeveurd
oetgeveurdj
oetgevo
oetgevochte
oetgevoonde
oetgewe
oetgeweze
oetgezat
oetgezo
oetgezonde
oetgezoonde
oetgezunderd
oetgoon
oetgreujde
oetgreuje
oetheimse
oetindelek
oetindeleke
oetindelik
oetintelig
oetkaom
oetko
oetkoms
oetkoume
oetkump
oetle
oetloupe
oetluiper
oetluipers
oetmaak
oetmaakde
oetmake
oetmo
oetoefene
oetreiking
oetrope
oets
oetsjeie
oetsjeijing
oetsjlaag
oetsjlaeg
oetsjpraak
oetsjpraok
oetsjproak
oetsjrieve
oetslaag
oetsleeg
oetslete
oetsloetendj
oetspraak
oetspraok
oetspraoke
oetspraokplaats
oetspreke
oetsprik
oetstaekendj
oetste
oetsterve
oetstre
oetvalle
oetve
oetveure
oetveurend
oetveurende
oetveuring
oetveuringe
oetveurt
oetvinder
oetvinding
oetvindinge
oetvinger
oetvinjer
oetvinjing
oetwe
oetze
oetzende
oetzending
oetzendinge
oetzenjing
oetzich
oetziech
oetzien
oetzo
oetzoondering
oetzundering
oetzunderinge
oetzunderlek
oetzunjering
oetzunjeringe
oetzunjerlik
oetzuut
oeuvre
oever
oevers
oezbekistan
of
ofc
off
offenbach
offensief
offer
offere
offermans
offers
offesjeel
offesjele
office
officeer
official
officie
officieel
officiele
officier
officieus
officieuze
offisjeel
offs
ofsjoon
oft
ofte
oftewaal
oftewel
ofwaal
ofwel
og
ogen
oh
ohe
ohio
ohm
ohne
oi
oirschot
ois
oise
oisterwijk
ok
okkur
oklahoma
oksaal
okt
oktober
oktoberrevolutie
oktoeaber
ol
olaf
old
oldambt
oldebroek
oldenbarnevelt
oldenburg
oldenzaal
ole
oleg
olenin
oler
olga
olie
olieve
olifant
olifante
olinda
oliveira
oliver
olivia
olivier
olla
ollekebollekes
ollongren
olne
olof
olpe
ols
olst
olt
olterdissen
olympia
olympiquesjeidsrechter
olympisch
olympische
olympus
om
oma
omaan
omaha
oman
omar
ombudsperson
omdat
omdet
ome
omega
omgaeving
omgekomen
omgezatj
omhoog
omloop
omme
ommen
ommer
omnibus
omnium
omnivoor
omroep
omstreden
omtot
omtrent
omzetting
on
onaafhenkeleken
onbekinde
once
ond
ondanks
onder
onderdeil
onderwijs
onderzoek
one
ones
ongder
ongelo
ongeluk
onger
ongerdeil
ongernumming
ongerwies
ongerzeuk
ongevaer
ongeval
ongeveer
ongevier
online
only
onna
onnag
onno
ono
ons
onse
onsen
onser
ontario
ontde
ontdekking
ontdekt
ontfinck
ontsjtange
ontsjtaon
ontsjtong
ontslag
ontstaon
ontwerp
ontwerper
ontwikkeld
ontwikkelde
ontwikkeldj
ontwikkeldje
ontwikkele
ontwikkeling
ontworpe
onze
oo
ooch
oog
ooh
oohch
ooit
ooj
ook
ool
oon
oonafhankelekhe
oonaofgebroke
oonaofhaankelek
oonaofhaankeleke
oonaofhenkelek
oonaofhenkeleke
oonaofhenkelekheid
oonaofhenkelik
oonbekind
oonbekinde
oonbeklemtoende
oonbepaold
oonbepaolde
oonbepaoldheid
oonbestumde
oonbewoend
oonbewoende
oonbruuk
oondaanks
oondanks
oonder
oonderbroke
oonderdaak
oonderdeel
oonderdeil
oonderdeile
oonderdro
oonderein
oondergaange
oondergaank
oondergebrach
oondergesjove
oondergoon
oondergroond
oondergroonds
oonderhaaf
oonderhaand
oonderhandele
oonderhandelinge
oonderhawwe
oonderkant
oonderligkende
oonderling
oonderluip
oondernummer
oonderorde
oondersje
oondersjeid
oondersjeide
oondersjeie
oondersjeit
oondersoort
oondersoorte
oonderste
oondersteund
oondersteune
oonderstoonde
oonderteikend
oonderto
oonderverdeild
oonderverdeiling
oonderwaerp
oonderweeg
oonderwerp
oonderwerpe
oonderwerping
oonderwerpsvo
oonderwies
oonderwiesstadstadionsjeidsrechter
oonderwijl
oonderworpe
oonderzeuk
oonderzeuke
oonderzeukers
oonderzoch
oondudelek
oongebrukelek
oongebrukeleke
oongedoon
oongekind
oongeliek
oongelieke
oongeliekheid
oongelo
oongeluifelek
oongemarkeerd
oongemein
oongesjik
oongeveer
oongewervelde
oongewoen
oonindeg
oonke
oonmeugelek
oonmiddelek
oonmiddellek
oonofficieel
oonras
oonregelmaoteg
oonregelmaotege
oonro
oons
oonsjo
oonstande
oontboonde
oontbossing
oontbraok
oontbraoke
oontbreke
oontbrik
oontde
oontdek
oonterech
oontgonne
oontho
oontke
oontkinning
oontkint
oontkoume
oontliend
oontlient
oontploffing
oontrund
oontrunding
oontsjtande
oontsjte
oontsjtoee
oontslaag
oontsnappe
oontstande
oontsteit
oontstoon
oontstoond
oontstoont
oontstoonte
oontvaange
oontvange
oontving
oontvingk
oontvlo
oontvolk
oontwerp
oontwerpe
oontwerper
oontwikkeld
oontwikkelde
oontwikkele
oontwikkeling
oontwikkelinge
oontwikkelingsindex
oontwikkelingssamewe
oontwikkelt
oontworp
oontworpe
oontze
oonumstreje
oonveraanderd
oonveranderd
oonverminderd
oonverwach
oonvoltoejd
oonvoltoejde
oonvrei
oonvro
oonwe
oonzeker
oonzijeg
oonzijege
oor
oord
oorlog
oorloge
oorlogs
oorlogse
oorlogsen
oorsjpro
oorsjprong
oorsjpronkelek
oorsjpronkeleke
oorsjpronkelik
oorsjprunkelik
oorspro
oorsprong
oorsproonk
oorsprunkelek
oorsprunkeleke
oortsdeile
oortwolk
oorzaak
oorzake
oos
oosblok
oosgrens
ooskant
oosko
oospel
oost
oostburg
ooste
oostelek
oosteleke
oosteleker
oostelekste
oosten
oostende
oostendorp
oostenriek
oostenrijk
oosterhout
oosteriek
oosterieks
oosteriekse
oosters
oosterse
oostflakkee
oostkamp
oostvoorne
oostvoorns
oostzaan
ooswesthoesbes
ooszee
ooszie
oot
oow
op
opa
opaon
opbeech
opboew
opbouw
opbouwe
opbrings
opdeile
opdeiling
opdrach
opdrachte
opduke
ope
opebaar
opegedoon
opein
opeinvolgende
opeise
opel
opelochtheater
open
openbaar
openbaer
openbare
opende
opene
opener
opening
opera
operacomponis
operatie
operaties
operation
operationeel
operazangeres
operazenger
operazengeres
opere
operere
operette
opgaaf
opgebloze
opgeboedj
opgeboewd
opgebouwd
opgedeild
opgedeildj
opgedrage
opgee
opgegaange
opgegaeve
opgegange
opgegeve
opgegrave
opgegreujd
opgehaeve
opgehange
opgehaold
opgeheve
opgekoume
opgelag
opgeleid
opgeleverd
opgelieverd
opgelos
opgeloupe
opgeluf
opgelufde
opgemaak
opgemerk
opgenaome
opgeno
opgenome
opgenomme
opgepak
opgepakt
opgerich
opgericht
opgeriech
opgeriechte
opgerope
opgesjlage
opgesjreve
opgesjrik
opgesjte
opgeslage
opgesplits
opgestande
opgeste
opgeteikend
opgetraoje
opgetrejje
opgetrokke
opgevange
opgevat
opgeve
opgeveurd
opgevo
opgevolg
opgezat
opgezatte
opgo
opgraovinge
opgravinge
ophaove
ophef
opheffing
opho
opinie
opins
opium
opkaom
opkaome
opko
opkoms
opkoumende
opkump
ople
opleiding
opleiing
opleijing
opleving
oplieverde
oplosbaar
oplosse
oplossing
oplossinge
oploupe
opluffing
oplufting
opmake
opmars
opmarsj
opme
opmerkelek
opmerkeleke
opmerkelik
opmerking
opmerkinge
opmirke
opnaam
opname
opnames
opnaome
opnaomes
opniej
opnieuw
opnui
opnumme
opnuuj
oppe
oppen
opper
opperbevelho
oppernuuj
oppervlaak
oppervlaakde
oppervlaakdje
oppervlaakte
oppervlak
oppervlakde
oppervlakdje
oppervlakte
oppland
oppositie
oppositieleier
opre
oprichter
oprichting
opriechter
opriechting
oproop
oprope
opsjrifte
opsjtand
opsjtandj
opsjte
opslaag
opstand
opstandelinge
opstandj
opste
opstellen
opsten
opt
optatief
opte
opten
optica
optie
optimaal
optische
optoch
optocht
optochte
optraeje
optraejes
optre
optrejje
optrejt
optreujt
opus
opusnommer
opvallend
opvallende
opvallendj
opvallendste
opvarende
opvatting
opvattinge
opve
opveuring
opvo
opvolge
opvolgende
opvolgendje
opvolger
opvolgers
opvolging
opwe
opwekke
opwerming
opzat
opze
opzet
opzeuke
opzich
opzichte
opziech
opziechte
opzij
or
oraal
orale
orang
orange
oranje
oranjes
oratoria
oratorium
orba
orbiter
orchestra
orde
ordening
order
ordes
ordesjtichter
ordovicium
ore
oregon
orfeo
org
orgaan
orgaandere
organe
organelle
organis
organisaasje
organisasie
organisatie
organisaties
organisation
organisch
organische
organiseerde
organiseert
organisere
organisme
organismes
organist
organizing
orgaon
orgaone
orie
orientation
origanum
origin
original
origine
origineel
originele
orion
orizjien
orka
orkaan
orkane
orkes
orkesleijer
orkesmeziek
orkest
orkeste
orkeswerke
orle
orleans
orne
orphe
ors
orthedoxe
orthodox
orthodoxe
orthodoxie
oryzorictes
oryzorictinae
orzjineel
os
osaka
osama
osbourne
oscar
oscars
osdorp
osiris
oskar
oskisch
oslo
osmaans
osmaanse
osmium
oss
osse
ossetie
oswald
oterso
oteur
oteurs
other
oto
otochtoon
otocoureur
otomatisch
otoniem
otonomie
otonoom
otoritair
otoriteit
otosnelweeg
otten
otter
ottersjaermoes
ottersjaermuus
otto
ottoland
ottomaans
ottomaanse
ottomane
ottomaons
ou
ouch
ouchal
oud
ouddorp
oude
oudenburg
oudendijk
ouder
ouderkerk
oudewater
oudste
ouer
oug
ouge
ougen
ougenblik
ougpunt
ougs
ouk
oultremont
oupeye
our
ouro
ourthe
out
outfaas
outrunde
outsysteem
ouvertuur
ouw
ouwe
ouwer
ouwere
ouwersj
ov
ovaal
ove
ovele
over
overal
overflakkee
overheid
overleden
overleej
overlijdt
overmaas
overs
overschie
overzicht
ovidius
ow
owe
owen
owi
own
owwe
owwel
owwer
owwersj
oxford
oxied
oz
oze
ozon
ozonlaog
ozze
p
pa
paad
paar
paard
paarden
paars
paarse
paart
paartied
paasj
paat
pablo
pach
pachhaof
pacific
pacifische
pact
pad
padde
paddesteul
paderborn
padua
paee
paeper
paerd
paere
paersberich
paerse
pag
page
pages
pagina
pai
pak
pakde
pakistaanse
pakistan
pakke
paks
pakt
pal
palace
palais
palataal
palatale
palatalisatie
palataol
palau
palazzo
paleis
paleolithicum
paleontologie
paleontoloog
paleozoi
palestiense
palestijne
palestijns
palestijnse
palestina
palies
palindroom
palladium
pallandt
pallas
palm
palma
palmares
palme
palmen
palmer
palmyra
palts
pama
pamflet
pamplona
pampulha
pan
panama
panamakanaal
pand
pande
pandemie
pandj
panhael
paniek
panne
panneschopp
panningen
panninger
panorama
pantheon
panthera
pantser
paoe
paol
paolo
paor
paore
paort
paortgeboew
paose
paosje
paoter
pap
papa
papandreou
papendrecht
papenhaove
papers
papiaments
papier
papoea
papoulias
pappegejje
paprika
papua
papyrus
par
para
parabel
parachute
parade
paradies
paradigma
paradijs
paradise
paradiso
parafyletisch
paragogische
paragraaf
paraguay
parai
parallel
parallelle
paramaribo
parameters
parana
paranormale
parasiet
parasitair
parc
parcours
pardo
pardos
pare
paries
pariese
parijs
paring
paris
parishes
park
parke
parker
parkinson
parks
parksjeidsrechter
parksjtad
parkstad
parlemaent
parleme
parlement
parlementair
parlementaire
parlementarie
parlementsverkezinge
parlemint
parlemintair
parlemintarie
parleminte
parlemintsverkezinge
parliament
parma
parochie
parochieheilege
parochieke
parochiekirk
parochies
parodie
parool
parque
parsec
parsons
part
partei
parti
participants
participate
participation
participeert
participere
participia
participium
particulier
particuliere
partido
partie
partiee
partiej
partieje
partij
partije
partijgenoet
partijleier
partikele
partner
partners
parts
party
pas
pascal
pasde
pasgebore
pasjtoer
pasok
paspoort
passageers
passages
passagiers
passau
passe
passeert
passer
passere
passie
passief
passieve
passion
past
pasteur
pastoer
pastor
pastorie
pat
patent
pater
paters
patersj
paterskap
pathe
pathologie
patie
patriarch
patricia
patricie
patrick
patriotte
patro
patroee
patrones
patsj
paul
paula
pauli
pauline
paulista
paulo
paulowna
paulus
paumen
paus
pausaol
pause
pauseleke
pauw
pauze
pavarotti
pavel
pays
paz
pazjena
pboew
pc
pd
pde
pdf
pe
peace
peak
pearl
pebble
peble
pebliek
peblieke
pec
pech
pedagogiek
pedagoog
pedersen
pedro
pee
peel
peer
peerd
peerdsras
peerdssport
peers
peeters
peetjens
peetno
peijas
peil
peilinge
pej
pekela
peking
pekske
pekskes
pel
pele
pelgrims
pelgrimsoord
pelies
peliesie
peliesiefunctionaris
pelissie
pelitie
pelle
peloponnesos
peloton
pelt
pen
penantie
penanties
pend
pendant
pendj
pene
pening
peninge
penis
penn
penning
pennsylvania
penny
pensioen
pent
pentateuch
people
pepe
peper
pepier
pepijn
pepper
per
perbeerde
perbeert
perbere
perbleem
perbleme
perbliee
perce
perceel
perceis
perceizer
percent
percentaasj
percentage
perces
percesse
percessie
percies
percint
percinte
percy
perducere
perduk
perduksje
perdukte
perele
peres
perfect
perfecte
perfectum
perfectumstam
perfek
perfekte
pergram
peri
peries
perifeer
periferie
periferiee
period
periode
periodes
periodiek
periood
peris
perk
perm
permafros
permanent
permanente
pernambuco
pernis
pero
perron
perry
pers
persent
perseue
persies
persoan
persoean
persoeane
persoee
persoen
persoene
persoenelek
persoeneleke
persoenelekhede
persoenlek
persoenleke
persoensnaome
persoensverhierleking
persoensvo
personaasj
personage
personages
persone
personeel
personnages
persoon
perspectief
perspectieve
persue
persuuenlike
perth
peru
peruaanse
pervincie
pervinsje
perze
perzie
perzisch
perzische
perzischen
perzoee
perzuue
pes
pesjtoar
pet
pete
peter
peters
petersbo
petersburg
petit
petite
petra
petrarca
petri
petro
petroan
petroanheilige
petroen
petroene
petroenheilege
petrus
peul
peunt
peutz
pez
pezetig
pf
pgeboewd
pgepak
pgerich
ph
phanie
phase
phelps
phil
philadelphia
philip
philipp
philippe
philippeville
philippus
philips
philipsen
philipsland
phillip
phillips
phine
phobos
phocoena
phoebe
phoenix
photo
php
phu
pi
pianis
pianist
pianiste
piano
piaui
piazza
picardie
picardisch
picasso
pico
picture
pie
piee
piek
pieke
piel
piele
pien
piep
piepe
pier
pierce
piero
pierre
pies
piet
pieter
pieterpaad
pieters
pietersberg
pieterske
pieterszoon
pietro
pijn
pijnacker
pilere
piloot
pilote
pils
pim
pima
pin
pine
ping
pings
pink
pinkpop
pinkstere
pinkstergemeinte
pinkstergemeintes
pinochet
pinyin
pioneer
pioneerswerk
pionier
pipes
piquet
piraha
piramide
pirate
pirates
pireas
pis
pisa
pisse
pistols
pistool
pit
pitana
pitcairn
pitch
pitt
pittem
pittsburgh
pius
pizza
pjotr
pk
pka
pke
pkes
pkn
pko
pl
pla
plaank
plaant
plaante
plaat
plaats
plaatse
plaatselik
plaatselike
plaatsen
plaatsgevo
plaatsj
plaatsje
plaatsjke
plaatsjnaam
plaatsjname
plaatsnaam
plaatsnaambord
plaatsname
plaatsvindj
plaattektoniek
place
placentalia
placer
plach
plaetje
plaetjes
plaetske
plafo
plak
plakbieske
plakbieskes
plan
planck
plane
planeet
planet
planete
planetoi
planitia
plank
plankton
planne
planned
planning
plant
plantae
plantage
plantages
plantago
plante
plantegreuj
plantesoorte
plantinga
plantj
plantje
plantjen
plaog
plaoge
plaots
plaotsde
plaotse
plaotselek
plaotseleke
plaotseleken
plaotsgevoonde
plaotsnaome
plaotsvinde
plaotsvint
plas
plasterk
plastic
plat
plata
platbook
platdiets
platduutsj
plate
plateau
platform
platina
plato
platon
platonische
plats
platt
platte
platteland
plattelandj
plattelandsgemeinte
platwo
play
plaza
ple
please
plechtige
plee
pleeg
pleegde
pleetsje
pleetsjes
plege
plei
plein
pleistoceen
pleit
pleitde
pleite
plek
plekke
plenair
plenkert
plenkske
plestik
pletsjbaek
plezeer
plezier
plich
pliee
plinius
plo
ploefklank
ploge
plogeachtervolging
plogesprint
plombie
ploog
ploogleijer
plosief
plosieve
plot
plotarea
plotdata
plotseling
ploumen
plovdiv
plumas
plundere
plunderinge
plus
plusquamperfectum
pluto
plymouth
pm
pmc
png
po
podium
poe
poejer
poel
poelkapelle
poels
poems
poep
poes
poesjkin
poet
poetin
pogac
poging
poginge
point
pointer
points
poitiers
pojn
poker
pol
polder
polders
pole
polen
poletiek
poletieke
polfermeule
police
policy
poliep
poliepe
polies
polis
politeia
politica
political
politici
politician
politicologe
politicologie
politicoloog
politicus
politie
politiek
politieke
politieker
politisch
politische
polk
polka
poll
polletiek
polletieke
polletieker
pollux
polo
polonaise
polonium
polsbroek
polyfonie
polyfoon
polygoon
polymere
polynesie
polynesisch
polynesische
polythei
pommere
pommers
pompeii
pompeius
pompelmoes
pompidou
pondj
pont
ponte
pony
ponyras
pool
pools
poolse
poond
poor
poort
poorte
poortugaal
pop
poperinge
popfestival
popmeziek
popmuziek
popmuzikant
popmuzikante
popmuzikantj
popp
popper
poppodium
populac
populair
populairder
populaire
populairste
popular
populariteit
populatie
populaties
populistische
popzenger
popzengeres
por
porcien
porsche
porselen
port
porta
portal
porte
portefeuille
porter
porto
portrait
portre
portret
portsmouth
portugal
portugees
portugeestaoleg
portugeestaolege
portugese
portugesen
portugeze
pos
poscode
posiesje
positie
positief
posities
positieve
positivisme
posse
possible
post
poste
posted
posterholt
posters
postert
posting
postmodernisme
postuum
poszegel
pot
potentie
potentieel
potsdam
pottentaot
pottentaote
potter
potve
poule
poules
poulewe
poupehan
pour
powell
power
pp
ppb
ppe
ppeerd
ppel
ppeld
ppele
ppen
pper
ppervlak
ppervlakde
pping
ppm
ppt
pr
pra
praag
praagse
prachtig
prachtige
praesens
prager
praktiek
praktijk
praktisch
praktische
praog
praot
praotde
praote
pre
precies
precolumbiaansen
predikant
predikante
preens
preensbisdom
preensbisjop
preester
preesterkoar
preesters
prefecture
prefectuur
prefectuurniveau
preferences
prefix
prehistorie
prehistorisch
prehistorische
preke
prelude
premie
premier
premiers
premiersjap
pres
presens
present
presentatie
presentator
presentatrice
presentatries
presenteerde
presenteert
presentere
presidaent
preside
president
presidente
presidential
presidentieel
presidentj
presidentsjap
presidentskandidaot
presidentssjap
presidentsverkezinge
presint
presintie
presley
press
prestatie
prestaties
presteerde
prestiesj
prestigieus
prestigieuze
preto
pretty
preuve
pri
prie
pries
priester
prieze
priffereert
prijs
prijze
prima
primair
primaire
primaote
prime
primera
primitief
primitieve
primo
primoz
prince
princeps
princessjeidsrechter
princiep
principe
principes
principieel
prins
prinsbisdo
prinsbisdom
prinsbisjop
prinsdo
prinsdom
prinse
prinsen
prinsenland
prinses
prinsiep
prior
priori
priorie
prioriteit
prison
privacy
private
prive
privileges
prix
prize
prizzede
prizzedent
prizzende
prizzentator
prizzentere
pro
proate
probeerde
probeert
probere
probleem
problem
problematisch
probleme
problems
proce
procedure
procedures
proceduur
procent
proces
process
processe
processie
produceerde
produceert
producent
producente
producer
producere
product
producte
productie
productief
producties
produk
produksie
produkte
proej
proeve
prof
profclubs
profeet
professioneel
professionele
professor
profete
profiel
profs
profvoetbal
profvoetballer
program
programma
progressief
progressieve
progrock
proje
project
projecte
projectiele
projects
projek
projekte
prokaryote
prolongeert
proloog
prometheus
prominent
prominente
promote
promotie
promoveerde
promoveert
promovere
proms
pronome
pronoom
pronunciation
proof
proos
proosdie
propaganda
proporties
proposal
proposals
propose
proposed
prosodie
prost
prostitutie
protectoraat
protectoraot
protes
protest
protestante
protestantisme
protestants
protestantse
proteste
protestere
protiste
proto
protocol
proton
protone
protostomia
prototype
prottestante
prottestantisme
prottestantse
proust
provenc
provence
provide
province
provinciaal
provinciale
provinciaol
provincie
provinciegrens
provincies
provinciewaope
provins
provinse
provinsie
provinsje
provinsjes
proza
prozasjriever
pru
pruse
pruses
prusisch
prusische
pruus
pruusj
pruusje
pruusjes
pruusse
ps
psalm
psalme
psalmen
psalter
pseudoniem
psfaas
psjtand
psoe
psv
pswinners
psychiater
psychiatrie
psychiatrische
psychische
psychoanalyse
psychologie
psychologisch
psychologische
psycholoog
pt
ptoee
ptolemeus
pu
puberteit
public
publicatie
publicaties
publiceerde
publiceert
publicere
publicis
publicist
publiciste
publiciteit
publiek
publieke
publikaties
publique
published
puccini
puck
pue
puerto
puigdemont
puin
pukkel
pulmonisch
punk
punkband
punt
punte
puntj
puntje
puntsje
purcell
pure
purmerend
purple
purpose
puska
put
putin
puts
putte
putten
puuet
puur
puy
puydt
pvda
pvo
pvolger
pvv
px
pyongyang
pyre
pyreneee
pyreneje
pywikibot
q
qa
qaddhafi
qaeda
qaedah
qatar
qin
qing
qu
qua
quaet
quam
quame
quamen
quang
quarantainemaotraegele
quark
quarks
quasar
quasi
quatre
quattro
que
quebec
quechua
queen
queens
queensland
quentin
quenya
questions
qui
quick
quincy
quis
quito
quo
quod
r
ra
raad
raaf
raak
raakde
raakden
raakdje
raam
raan
raand
raar
raas
rabin
rabobank
rac
race
races
raceverloup
rachel
raciaol
racine
racing
racisme
racistisch
racistische
rad
radar
radboud
rade
rademacher
rademakers
radev
radiata
radicaal
radicale
radicaol
radikaal
radio
radioactief
radioaktief
radioaktieve
radiopresentator
radioprogramma
radium
rae
raee
raege
raej
raeje
raejene
raejes
raekene
raekening
raenger
raengerbaog
raengerwaad
raet
raf
rafae
rafael
rag
rage
rah
rai
rain
rainbow
rainer
rainier
rajer
rajjaan
rake
raken
raket
rakette
ral
ralf
rally
ralph
ram
rama
ramadan
rambo
rame
rameau
ramo
ramos
ramp
rampjaor
ramsay
ramses
ramsey
ran
rana
rance
rand
randerath
randj
randstad
randwiek
rang
range
rangers
ranglies
rank
ranke
ranonkelfemielie
ranonkelfemielje
ransdaal
ransdorp
rantala
ranunculaceae
ranunculus
ranzel
ranzels
raod
raodhoes
raodslid
raodspensionair
raodspresident
raodsverkezinge
raoe
raof
raoj
raoje
raojselcanon
raor
raore
raos
raotem
raove
rap
rapid
rappeleerde
rappeleert
rappelere
rapper
rapport
rarchie
rard
rare
ras
rasse
rat
rate
rathaus
ratificeert
ratificere
ration
rationaol
rationeel
ratte
rau
ravenna
ravesbo
ray
raymond
razzia
rbeeld
rbeelde
rbie
rboesj
rce
rch
rcher
rchte
rd
rdaag
rdat
rde
rdegen
rdelek
rdelik
rden
rder
rdere
rderhe
rderheed
rderheid
rdig
rdj
rdje
rdoba
rdsje
rdsvo
re
reactie
reacties
reactionair
read
readers
reading
ready
reagan
reageerde
reageert
reagere
real
realisatie
realisaties
realisere
realisme
realistisch
realistische
realiteit
rebecca
rebelle
rebellie
rebro
rec
rece
received
recensie
recensies
recent
recente
recentelek
recep
recept
receptie
rech
rechbank
rechheukige
rechhokig
rechhokige
rechhook
rechoet
rechop
rechs
rechse
rechsgelee
rechsjtreeks
rechspraok
rechstreeks
rechszaak
recht
rechte
rechten
rechter
rechterhand
rechterkant
rechterleke
rechters
rechts
rechveerdegheid
recife
recint
recinte
recintelek
recitatief
recklinghausen
reclaam
reclame
reconstructie
reconstruere
record
records
recreatie
recreatief
rect
rector
rectus
red
redacteur
redactie
redange
redd
redde
redding
rede
redeenste
redelek
redelik
redemptoriste
reden
reductie
reduplicatie
ree
reed
reeds
reej
reek
reeks
reekse
reem
reen
reep
rees
reet
reeuwijk
refereert
referenda
referendum
referentie
referenties
reflex
reflexief
reformatie
refrein
reg
regards
rege
regeerakkoord
regeerde
regeert
regel
regele
regeling
regelmaesig
regelmaot
regelmaoteg
regelmaotege
regelmaotig
regelmiee
regels
regelt
regen
regensburg
regent
regente
regentes
regentsjap
regere
regerend
regerende
regering
regeringe
regeringsleger
regeringsvo
regeval
regewoud
reggae
regie
regiering
regieringe
regierungbezirk
regierungsbezirk
regierungsbezirke
regime
regimes
regina
regio
region
regionaal
regionale
regionaol
regions
regisseur
regisseure
register
registratie
registrere
regout
regressief
regulering
regulier
reguliere
rehoes
rei
reich
reichswald
reiderland
reie
reies
reigel
reigelmaotig
reigels
reigelsbrook
reigelsj
reije
reijes
reik
reikde
reike
reimerswaal
reims
rein
reina
reinbert
reinders
reine
reinhard
reinhardt
reinier
reinoud
reis
reisde
reit
reize
reiziger
reje
reke
rekende
rekene
rekening
rekent
reklaam
relatie
relatief
relaties
relatieve
relativiteitstheorie
release
relevant
relie
relieke
religie
religies
religieus
religieuze
religion
relik
relikdialekte
relizjie
relizjies
relizjieus
relle
rellen
rem
rembetika
rembrandt
remco
remeinse
remember
remicourt
remigius
remix
remme
remonstrante
remouchamps
remun
remund
remunds
remung
remunj
remunjs
remunjse
remuunj
remy
ren
renaissance
renaissancemeziek
renaissancesjtiel
renate
renault
rend
rendabel
rende
rendement
rendje
rendsje
rene
renew
reninge
renj
renkum
renne
renner
renners
renoir
renovatie
rens
rensport
rente
rep
repe
repebliek
repertoire
repetitie
replaatsje
replica
report
reportage
representant
representatief
representatieve
reptiele
repu
repubblica
republic
republiek
republik
republikeine
reputatie
request
requests
requiem
rer
rerum
res
research
reserve
reservoir
residente
residentie
residentiestad
resolutie
resp
respectievelek
respectievelik
respek
rest
restant
restante
restaurant
restaurants
restauratie
restaurere
reste
resterende
resultaat
resultate
resulteerde
results
ret
rethel
reto
retorica
retour
retroflex
retroflexe
return
reu
reuk
reuland
reup
reure
reus
reut
reuters
reuver
reuze
reve
reveer
reveerke
revelatie
revere
revier
reviere
revierke
review
revival
revolutie
revoluties
revolution
revolutionair
revolutionaire
revue
rewien
rewiene
rex
rey
reykjavi
reykjavik
reyne
reynolds
rez
reza
rezje
rezjie
rezjiem
rezjiseur
rezjissa
rezjisseur
rf
rfde
rfgoodlies
rfwa
rfwinning
rg
rgank
rgb
rgd
rgde
rgdje
rge
rgel
rgeme
rgemeister
rgemeisters
rgemeistersj
rgen
rgens
rger
rgeraorlog
rgerd
rgerij
rgerkreeg
rgerkrieg
rgerlek
rgerleke
rgeroorlog
rgers
rgersjap
rges
rging
rgingscentrum
rgs
rgse
rgsen
rgstaolege
rgt
rgy
rhe
rhea
rhead
rheden
rhei
rhein
rheinisch
rheinische
rhenen
rhijnvis
rhin
rho
rhode
rhodes
rhodesie
rhoon
rhythm
ri
ria
ribbe
ribkwalle
ric
rica
ricardo
rice
rich
richard
richards
richardson
richde
richdje
riche
richelieu
riches
richmond
richte
richter
richtig
richtige
richting
richtinge
rick
ricksen
ricky
rico
ridder
ridderkerk
ridders
riden
rie
riech
riechde
riechte
riechteg
riechtege
riechting
riechtinge
riee
riej
rieje
riejt
riek
riekdo
riekdom
rieke
riekelt
rieker
rieksdaag
rieksdeens
riekskanseleer
rieksmonument
rieksmonumint
rieksmonuminte
rieksmuseum
riekste
riekswaeg
rieksweeg
riem
riems
riemst
rien
rienland
rienlandj
rienlands
rienlandse
riep
riepe
rierank
ries
riet
rietveld
rieu
rieure
rif
riffereert
rifferendum
rifferensie
rifferensies
rifferenties
rifferere
riffijns
rifformatie
rig
riga
rige
rigen
right
rightarrow
rights
rigord
rij
rijckholt
rije
rijen
rijk
rijke
rijkes
rijksmonument
rijm
rijmklaanke
rijn
rijneveld
rijnmond
rijnwaarden
rijnwoude
rijp
rijpeerd
rijssen
rijswijk
rijt
rik
rike
riky
rilland
rillatie
rillatief
rillaties
rilletief
rillevant
rimburg
rimmersjdel
rin
rind
ring
ringe
ringen
ringmoer
rings
ringvo
rink
rinus
rio
riot
rippebliek
rippeblieke
rippertoir
rippubliek
rippublieke
rippublikein
rippublikeinse
ripuarisch
ripuarische
ris
risico
rit
rita
rite
ritme
ritmes
ritmische
rito
rits
ritter
ritueel
rituele
rivaal
rivaliteit
rivaol
river
rivera
riverside
rivier
riviere
rivvelutie
rix
rizzeltaat
rizzeltaot
rizzeltaote
rizzeltate
rizzelteerde
rizzervaot
rizzervaote
rk
rkaome
rkc
rkde
rkden
rkdo
rke
rkebo
rkef
rkelek
rkeleke
rkelekheid
rkelik
rkelike
rkend
rkende
rker
rkers
rkes
rkeumt
rkgeboew
rkgeboewe
rkgelegeheid
rkgroep
rkh
rkhervo
rkhof
rkiee
rkieje
rkije
rking
rkinge
rkischer
rkmeziek
rkprovincie
rkrao
rkraoj
rkraojs
rks
rkse
rkske
rkskes
rkslavisch
rksp
rksv
rkt
rkwa
rkwaord
rkwoord
rkzaam
rle
rlik
rlike
rlikheid
rliks
rling
rlinge
rm
rmalige
rmd
rmde
rmdje
rme
rmechtige
rmeg
rmege
rmen
rmer
rmeriek
rmers
rmes
rmig
rmige
rming
rminge
rmke
rmkes
rmlands
rmlier
rmooj
rmp
rmt
rn
rna
rne
ro
roa
road
roaj
roaje
roald
roame
roams
roamse
roazekrans
rob
robbe
robbery
robbie
robert
roberto
roberts
robin
robinson
robot
robson
rocchi
roche
rochefort
rock
rockband
rockgitaris
rockmuzikant
rockmuzikantj
rocks
rocky
rockzenger
rococo
rocroi
roda
rode
rodenrijs
rodin
rodos
rodri
rodrigo
rodrigues
roe
roead
roeaj
roeaje
roeame
roeams
roeanda
roed
roee
roeie
roej
roeje
roel
roeland
roelofs
roem
roemaans
roemaanse
roeme
roemeens
roemeense
roemeine
roemeins
roemeinse
roemeinsen
roemene
roemenie
roemer
roems
roemse
roer
roerdale
roerdalen
roergebeed
roermond
roermonds
roerstreek
roes
roeselare
roet
roete
roetheens
roetheense
roethene
roew
roeze
rogaland
roger
roggel
rogier
rogkel
roglic
rogliefe
roi
roj
roje
rok
rol
roland
rolduc
role
rolf
roll
rolle
rolling
rom
roma
romaans
romaanse
romaansen
romagna
romain
roman
romance
romani
romano
romanov
romans
romansjriever
romantiek
romantisch
romantische
rome
romein
romeine
romeins
romeinse
romeinsen
romen
romeo
rommel
romp
rompuy
romsdal
romse
ron
ronald
ronaldo
rond
ronde
rondj
rondo
rondom
rondum
rongd
ronnie
ronymus
rood
rooj
rook
room
rooms
roond
roontelum
roop
roos
roosendaal
roosevelt
roostere
roosteren
root
rooy
rop
rope
roraima
ros
rosa
rose
rosen
rosenberg
rosetta
rosmalen
rosport
ross
rossetti
rossi
rossini
rossum
rostov
rot
rotatie
rote
roth
rotor
rots
rotse
rotte
rotterdam
rotterdammers
rotterdams
rotterdamsche
rotterdamse
rottumerplaat
roubaix
rouen
roufdere
roufdiere
rouge
rouk
rouke
round
rousseau
rousseff
route
routes
rouvroy
rouw
rouwe
rouwen
rover
rowan
rowwen
roy
royal
royale
royen
roz
roze
rozenburg
rozendaal
rp
rpe
rpel
rper
rpke
rpkes
rps
rpsbebouwing
rpsgezich
rpsgeziech
rpsgeziechter
rpske
rpskern
rpskerne
rpssjtraot
rpsvereiniginge
rpswaopes
rre
rrege
rrek
rreke
rrelkes
rrep
rriais
rs
rsc
rse
rsj
rsje
rsjer
rsjing
rsjte
rsjtraot
rst
rste
rstendo
rt
rtbie
rte
rtel
rten
rtenis
rtenisse
rter
rth
rtiee
rtig
rting
rtj
rtje
rtl
rts
rttemberg
rtung
rtv
ru
rubber
rubens
rubicon
rubinstein
rubriek
rubroek
ruby
rudi
rudimentair
rudolf
rudolph
rudy
rue
rug
rugby
ruhr
ruhrgebeed
rui
ruijs
ruil
ruim
ruimde
ruime
ruimte
ruimtesjeep
ruimtesonde
ruimtetelescoop
ruimtetuig
ruimtevaartuig
ruimtevaartuige
ruimtewandeling
ruiselede
ruiten
ruiter
ruiver
ruivers
ruizing
ruke
rule
rum
rume
rumen
run
runde
rundes
runding
rundsje
rune
runj
runje
running
runs
rup
rupo
rur
rurik
rus
rushdie
rusland
ruslandj
russe
russell
russia
russian
russisch
russische
russischen
rust
rustig
ruter
ruters
rutger
ruth
rutherford
rutte
rutten
ruud
ruuk
ruul
ruum
ruumde
ruumdesonde
ruumdetuug
ruumdevaarder
ruumdevaart
ruumdje
ruumte
ruys
ruyter
ruz
ruzie
rvan
rve
rveld
rven
rveur
rvie
rvors
rvoud
rwaeg
rwanda
rwerpe
ry
ryan
ryckeboer
rzelf
rzelfdertied
rziee
rzitter
rður
s
sa
saame
saami
saap
saarbru
saarland
saba
sabah
sabbat
sabbath
sabel
sach
sachs
sacrament
sacramente
sacramento
sacreminte
sad
saddam
saen
saer
saere
sag
sagan
sage
sagen
sages
saget
sagete
saghen
sagittarius
sahara
saharaans
saharaanse
sahel
sahib
sai
said
saint
sainte
sait
sakse
saksen
saksisch
saksische
sal
sala
saladin
salamis
salem
salemans
salieri
salische
sall
salland
sallands
salm
salman
salome
salomo
salomon
salomonseilen
salon
salt
salvador
salve
salveolair
salzburg
sam
samara
samaras
sambre
same
samegedro
samegesjte
samegeste
samegetro
samegevalle
samegevat
samegeveug
samegevoog
samehaank
sameko
samelaeving
sameleving
samen
samenwerking
samesjte
samesjtelling
sameste
sametre
samevalle
samevatting
sameve
sameveuging
samevleujing
samevoging
samewe
samewirking
samisch
samoa
samuel
san
sancties
sanctus
sand
sande
sander
sanderbout
sanders
sandhi
sandra
sandro
sandwicheilen
sanering
sang
sankt
sanne
sans
sanskriet
sant
santa
santana
santare
sante
santi
santiago
santo
santos
sao
saoe
saoedi
saoedische
saome
saort
saorte
saorten
saortgelieke
saos
saoves
sap
sapiens
sapmi
sappemeer
sar
sara
sarah
sarajevo
sarcofaag
sardiens
sardinie
sarkozy
sarolea
sart
sartre
sas
saskia
sat
satan
satdeep
satelliet
satelliete
satellietfoto
saterfries
satire
satirisch
satirische
saturnus
saudi
sauerland
saul
savanne
savanneklimaot
save
savelsbo
savoye
sax
saxofonis
saxofoon
say
says
saz
sbreef
sbs
sbv
sc
sca
scade
scala
scalemajor
scaleminor
scandinavie
scandinavisch
scandinavische
scaren
scarlatti
sce
scenario
scenariosjriever
scene
scepter
sch
scha
schade
schaduw
schaeken
schaesberg
schafhausen
schagen
schalke
schalken
schalkwijk
schandele
schaop
scharsterland
scharwoude
schat
sche
schedule
scheemda
scheffer
scheiden
schelde
schenck
schendel
schengen
schengenzone
schenk
schepen
scheres
schermer
schermerhorn
scherpenzeel
scheveningen
schevenings
schiaparelli
schie
schiebroek
schiedam
schiefergebirge
schier
schiere
schiermonnikoog
schiermonnikoogs
schiet
schiff
schijn
schijndel
schild
schilder
schiller
schimmelpenninck
schinderhannes
schinnen
schintaler
schip
schiphol
schipper
schippers
schire
schleicher
schleiden
schloss
schmerling
schmidt
schmitz
schneider
schnitzler
scho
schoee
schoen
schoenen
schoenmakers
schokland
scholtmeijer
schonauwen
schone
school
schoon
schoonebeek
schoonhoven
schouten
schouwen
schreef
schrei
schreuders
schreurs
schrieve
schrijven
schrijver
schrijvers
schro
schu
schubert
schulde
schultz
schulz
schumacher
schuman
schumann
schunck
schwa
schwarze
schwyz
science
sciencefiction
sciences
scone
scoorde
score
scores
scotia
scots
scott
scouting
scriptie
scripts
sculpture
sculptuur
scymnus
sdaag
sdap
sde
sden
sdje
sdu
se
sea
sean
search
sebastia
sebastiaan
sebastian
sebastianus
sebastopol
sec
sechtege
seco
second
seconde
secret
secretair
secretaris
sectie
section
sector
sectore
secularisme
seculier
secundair
secundaire
security
sedan
sedentair
sediminte
see
seel
seen
seent
seer
sef
seg
segede
segge
seggen
segghen
segmente
segminte
sei
seide
sein
seine
seipgens
seit
seitenlinie
seizoen
seizoene
sekke
seko
seks
seksualiteit
seksueel
seksuele
sekte
sel
selassie
selbe
selben
selber
seldaote
sele
select
selected
selectie
selectief
selection
seleke
selen
self
selma
selt
selue
seluen
seluer
selve
selven
selver
selvera
selzerbaek
sem
seme
semi
semiete
seminarie
semitisch
semitische
semois
sen
senaat
senaot
senate
senator
senatore
senden
seneca
senegal
seniore
senna
sensor
sent
sente
sentimint
sentiminte
seoel
seoul
sep
separatisme
separatiste
separatistische
sept
september
sequens
ser
sera
seraing
sere
serena
serenaad
serge
sergei
sergej
sergipe
sergius
seria
serialisme
serie
serieel
series
serieus
serieuze
serjeus
sermoen
serra
seruacium
seruacius
seruaes
servaas
servaes
servais
servaos
servas
servatius
serve
server
service
servie
servisch
servische
ses
sessions
set
sets
seuerijn
seuil
seven
sevenum
several
severin
severus
sevilla
sex
sexo
seychelle
seyde
seyss
sezo
sezoen
sezoene
sf
sfaalse
sfale
sfeer
sgebeed
sgebied
sgp
sgrabarczuk
shah
shakespeare
shakira
sham
shang
shanghai
share
sharon
shasta
shaw
she
sheffield
shell
shelley
shi
shift
shimon
shirt
shirts
sho
shona
short
should
show
shows
shuman
shuttle
si
siberie
siberische
sibilant
sibille
sic
sich
sicilie
sid
side
sident
sidney
sidra
sie
sieben
siee
sieg
siegen
siegfried
siemens
sien
siena
siera
sierra
siet
siez
sig
sigarette
sigismund
sigmund
sign
signaal
signale
significant
significante
signy
sigrid
sij
sijn
sijne
sijnen
sijnre
sijns
sijs
sijt
sikhs
sikkertaris
sikkretaoris
silex
silezie
silezisch
silicium
siluur
silva
silvia
silvio
sime
simenon
simeon
simo
simon
simone
simonis
simons
simpel
simpelveld
simple
simplex
simpson
sin
sinai
sinatra
since
sind
sinds
sindsdeen
sine
sinen
siner
sinfonia
sing
singapore
singel
singer
single
singles
sinn
sinne
sinnich
sino
sinopel
sins
sinsdeen
sint
sinte
sinterklaos
sinterklaoske
sintervaos
sintervaoske
sinti
sintruin
sintunnis
sio
sir
sire
sirius
sis
sisj
sisje
siskiyou
sisters
sit
site
sites
sittard
sittardia
sittards
sitten
situac
situatie
situaties
siu
six
sixtus
sj
sja
sjaaj
sjaak
sjaal
sjaan
sjaars
sjaasberg
sjaatsberg
sjaatse
sjaatser
sjaatsster
sjach
sjachte
sjael
sjaele
sjaepebank
sjaermoestenrek
sjaermoestenreks
sjaf
sjafde
sjaffe
sjah
sjake
sjakel
sjakele
sjakelt
sjaker
sjaloen
sjamanisme
sjan
sjandaal
sjandaol
sjang
sjanghai
sjans
sjanse
sjaoj
sjaoje
sjaol
sjaole
sjaop
sjarel
sjat
sjatte
sjatting
sjattinge
sjbik
sjbrich
sjch
sjde
sjdes
sje
sjedel
sjee
sjeem
sjeep
sjeepswerf
sjeepvaart
sjeersde
sjeerwallere
sjeet
sjeetpartie
sjef
sjei
sjeide
sjeidsrechter
sjeie
sjeiel
sjeif
sjeiing
sjeije
sjeijing
sjeik
sjeiko
sjeikunde
sjeikundige
sjeit
sjeivelder
sjel
sjelde
sjelname
sjelp
sjelpe
sjema
sjematische
sjeme
sjemicus
sjemie
sjemis
sjemisch
sjemische
sjen
sjendal
sjendale
sjeng
sjepe
sjepebaank
sjepebank
sjeper
sjer
sjerm
sjerme
sjerp
sjerpe
sjerpenheuvel
sjerplang
sjete
sjets
sjetse
sjeun
sjeut
sjevemet
sjeveninge
sji
sjibbolet
sjie
sjiee
sjief
sjiek
sjieke
sjien
sjiene
sjient
sjientj
sjiereiland
sjiereilandj
sjiete
sjieve
sjii
sjiitische
sjijf
sjijne
sjijns
sjijnt
sjik
sjikde
sjikke
sjilberg
sjild
sjilddaak
sjilder
sjilderde
sjildere
sjilderes
sjilderie
sjilderieje
sjilderinge
sjilderkuns
sjilders
sjildj
sjiljer
sjiljkro
sjilvend
sjin
sjina
sjinees
sjinese
sjineze
sjink
sjinke
sjins
sjip
sjiphol
sjipper
sjisma
sjke
sjkes
sjl
sjla
sjlaaf
sjlaag
sjlaagde
sjlachoffer
sjlachoffere
sjlachoffers
sjlachoffersj
sjlachoffesj
sjlager
sjlang
sjlaoe
sjlaon
sjlaope
sjlave
sjlaverniej
sjlavische
sjle
sjlech
sjlechs
sjlechte
sjlechter
sjlee
sjleeswiek
sjleie
sjleiptoan
sjleit
sjlek
sjlenake
sjlennich
sjlete
sjleting
sjlie
sjlo
sjloek
sjloekderm
sjloes
sjloete
sjloog
sjloot
sjlot
sjloveense
sjlovenie
sjlowaaks
sjlowake
sjlowakiee
sjlut
sjlute
sjluut
sjmaak
sjmaal
sjmeediezere
sjmeets
sjmo
sjmoutwo
sjnachs
sjnee
sjnel
sjnelheid
sjnelle
sjneller
sjnelste
sjnelwaeg
sjnelwee
sjnie
sjniee
sjnieje
sjnoeftoebak
sjo
sjoal
sjoale
sjoan
sjoane
sjoe
sjoeal
sjoean
sjoeane
sjoee
sjoekelaat
sjoel
sjoele
sjoelnaam
sjoen
sjoene
sjoenheid
sjoenste
sjoepe
sjoerd
sjoester
sjoew
sjok
sjool
sjoon
sjoonk
sjoot
sjop
sjoppem
sjors
sjostakovitsj
sjotland
sjotlandj
sjots
sjotse
sjotte
sjouw
sjouwburg
sjouwe
sjouwer
sjpa
sjpaans
sjpaanse
sjpaele
sjpang
sjpanjaarde
sjpanje
sjpanjool
sjpanning
sjpanninge
sjpaoe
sjpaor
sjpaore
sjpaorlien
sjpas
sjpawbik
sjpe
sjpeciaal
sjpeelde
sjpeelt
sjpegel
sjpek
sjpekhei
sjpeklaoge
sjpel
sjpele
sjpeler
sjpelers
sjpelle
sjpelling
sjpelt
sjpiee
sjpiesvertaering
sjpiets
sjpietse
sjpik
sjpits
sjplietsing
sjplitsing
sjpo
sjpontaan
sjpoor
sjpoorlien
sjpore
sjport
sjportbesjtuurder
sjportief
sjportversjlaaggaever
sjpot
sjpraee
sjpraeke
sjpraekweurd
sjprake
sjpraok
sjpraoke
sjpre
sjpree
sjpreke
sjpreuk
sjprik
sjpringe
sjproak
sjprook
sjpruk
sjra
sjraar
sjraom
sjraome
sjrappe
sjreef
sjreve
sjrie
sjriee
sjrief
sjriefsele
sjriefster
sjrieft
sjrieftaol
sjriefvo
sjriefvorm
sjriefwies
sjrien
sjrieve
sjriever
sjrievers
sjrieversj
sjriew
sjrif
sjrifcultuur
sjrifsysteem
sjrifte
sjrifteleke
sjriftraditie
sjrijf
sjrijver
sjrik
sjrikkeljaor
sjroap
sjroef
sjt
sjta
sjtaaf
sjtaak
sjtaal
sjtaand
sjtaart
sjtaat
sjtaats
sjtaatse
sjtaatsgreep
sjtaatshoof
sjtaatshoofde
sjtaatsman
sjtaatsmien
sjtaatsmiene
sjtaatssecretaris
sjtad
sjtadhawwer
sjtadhoes
sjtadion
sjtadsbeeld
sjtadscentrum
sjtadsdeel
sjtadsdistrikte
sjtadsfuncties
sjtadsmoer
sjtadsrechte
sjtae
sjtaej
sjtaeke
sjtaerk
sjtaet
sjtaking
sjtal
sjtam
sjtamme
sjtamp
sjtamt
sjtand
sjtandaard
sjtandaardtaal
sjtandbeeld
sjtandj
sjtank
sjtaol
sjtaon
sjtaonde
sjtaosie
sjtaot
sjtaote
sjtaotsgreep
sjtaotsman
sjtaotsvo
sjtap
sjtapde
sjtappe
sjtarrebilder
sjtart
sjtarte
sjtasie
sjtasies
sjtate
sjtatie
sjtation
sjtatus
sjte
sjtedje
sjtedsje
sjtee
sjteeds
sjteeg
sjteet
sjteets
sjtei
sjteil
sjtein
sjteine
sjteit
sjtek
sjtel
sjtelde
sjtelikke
sjtelle
sjtengel
sjter
sjterfdaag
sjterk
sjterke
sjterker
sjterre
sjtert
sjterve
sjteul
sjteun
sjteunde
sjteune
sjteunt
sjtich
sjtichde
sjtichte
sjtichter
sjtichting
sjtiechter
sjtiechting
sjtiee
sjtiel
sjtiele
sjtielperiode
sjtil
sjtille
sjtilt
sjting
sjtinge
sjto
sjtoa
sjtoan
sjtockholm
sjtoee
sjtof
sjtoffe
sjtong
sjtonge
sjtool
sjtoon
sjtoont
sjtop
sjtopde
sjtoppe
sjtorf
sjtort
sjtorve
sjtoum
sjtoumturbine
sjtoumturbines
sjtra
sjtraasburg
sjtraeve
sjtrand
sjtraobaek
sjtraof
sjtraot
sjtraote
sjtraotnaam
sjtraotname
sjtrategisch
sjtrategische
sjtreek
sjtreekgerechte
sjtreektaal
sjtreep
sjtreke
sjtreng
sjtreue
sjtreve
sjtried
sjtriedkrachte
sjtriee
sjtriethage
sjtrijd
sjtrik
sjtrip
sjtripteikenaer
sjtro
sjtroat
sjtroave
sjtroek
sjtroom
sjtroum
sjtructuur
sjtrue
sjtruim
sjtruime
sjtruimgebeed
sjtruiming
sjtruimp
sjtruimt
sjtruuk
sjtudaente
sjtudeerde
sjtudent
sjtudente
sjtudere
sjtudie
sjtudies
sjtudio
sjtuitj
sjtuk
sjtukke
sjtum
sjtumme
sjtumming
sjtump
sjtunt
sjturf
sjtuurt
sjtuw
sju
sjue
sjuive
sjum
sjummel
sjummele
sjummels
sjure
sjus
sjut
sjuue
sjuur
sjuus
sjuut
sjwa
sk
ska
ske
skele
skelet
skes
ski
skie
skip
sko
skomina
skroet
skull
skus
sky
sl
sla
slaaf
slaag
slaagmaan
slaagwerk
slach
slachoffer
slachoffers
slachte
slachtoffer
slag
slager
slalom
slam
sland
slandj
slang
slange
slaon
slaop
slaope
slaove
slaovehandel
slaovernij
slap
slapen
slav
slavante
slave
slavernij
slaviese
slavisch
slavische
slech
slechs
slecht
slechte
slechter
sleeg
sleen
sleep
sleeswiek
sleet
sleip
sleiptoean
sleiptoen
sleit
slek
slekke
slete
sleting
sleutel
slevevrouw
slevrouw
slevrouweke
sliedrecht
slijn
slikke
slo
slobodan
slochteren
sloete
slogan
sloge
sloog
sloon
sloop
sloot
slope
slot
slote
sloten
sloterdijk
sloveens
sloveense
slovene
slovenie
slowaaks
slowaakse
slowake
slowakiee
slowakieje
slowakije
slr
sluis
sluit
slum
slut
sluutj
sma
smaak
smaal
smake
small
sme
smeets
smes
smik
smit
smith
smits
sms
smultjpuntj
sn
sna
snaore
snavel
sne
sneek
snel
snelder
snelhede
snelheid
snelle
sneller
snellius
snelste
snelwaeg
snelweeg
snie
sniedersberg
sniee
snieje
sniekers
snus
so
soap
soares
sober
sociaal
sociaaldemocratische
social
sociale
socialis
socialisme
socialiste
socialistisch
socialistische
sociaol
sociaoldemocrate
sociaoldemocratische
socie
society
sociolek
sociolingui
sociologe
sociologie
sociologisch
sociologische
socioloog
socrates
soe
soedaan
soedan
soedanees
soedanese
soeharto
soekarno
soeker
soemerie
soemerisch
soemerische
soenniete
soennitisch
soennitische
soerabaja
soest
soeverein
soevereine
soevereiniteit
sofia
software
sogn
soir
soiron
soja
sojoez
sokkel
sokrates
sokratische
sol
solano
solar
soldaat
soldaot
soldaote
soldate
solde
solden
soldiers
soleerd
soleerde
soleil
solfer
soli
solidariteit
solide
solis
soliste
solitair
solo
solomon
solotentoansjte
solte
solz
som
somalie
somaliland
somalisch
somalische
some
somerset
something
somme
sommege
sommelsdijk
sommige
soms
son
sonate
sonates
sonde
sonden
sonder
sone
song
songfestival
songs
songwriter
sonnaat
sonnate
sonne
sonnet
sonnette
sonnetten
sonoma
sonorant
sonorante
sons
sont
soon
soort
soorte
soortenbank
soortgelieke
soortgelieks
sop
sophia
sophie
sophiste
sophocles
sopraan
sopraon
sopraone
sorani
sorghen
sorry
sotsji
soubirous
souburg
soude
souden
soufrie
soul
soulzenger
soulzengeres
sound
soundtrack
source
sous
south
southampton
southern
souvenir
souvenirs
souverein
sov
sovjet
sovjetrussische
sovjets
sovjetunie
sovon
sp
spa
spaan
spaanje
spaans
spaanse
spaarnwoude
space
spade
spalbeek
spangen
spanjaarde
spanje
spanjole
spanjool
spanning
spanninge
spaons
spaonse
spaonsen
spaor
spaore
spaorlien
spaorzaam
sparta
spd
spe
spears
specefiek
speciaal
special
speciale
specialiste
speciaol
species
specifiek
specifieke
specifieker
spectaculair
spector
spectrum
spee
speech
speed
speel
speeldje
speeltj
spegel
spek
spektakel
spel
spele
spelen
spelle
spelling
spellinge
spelt
spencer
sperma
spermatopsida
speul
speulde
speule
speulend
speuler
speulers
speult
sphinx
spice
spider
spiegel
spiegels
spier
spiere
spierweefsel
spiet
spijk
spijkenisse
spin
spinne
spinola
spinoza
spirit
spiritueel
spirituele
spits
spitsberge
spitse
spitsmuis
spitzenkandidat
splieting
split
splits
splitsde
splitse
splitsing
spo
spoere
spoetnik
spontaan
spontaon
spook
spookdierkes
spookstad
spoons
spoonze
spoor
spoorlijn
spoorweeg
sporadisch
spore
sport
sportbestuurder
sporte
sporters
sportief
sportpark
sportpeerd
sports
spot
sprac
sprach
sprachbund
sprack
spraeke
spraeker
spraekers
sprake
spraken
spraok
spraoke
spraoken
spraokfemielje
spraokfemieljes
spraokgebied
spraokgebruuk
spraokkenaal
spraokko
spraokstatus
spre
spreek
spreektaol
spreekwa
spreke
spreken
sprekend
sprekende
spreker
sprekers
sprengers
sprik
sprikt
sprimont
spring
springe
springen
springs
springsport
sprink
sprint
spro
spronck
sprong
sprook
sprooten
sprunk
spy
spyker
sqrt
square
sr
sranantongo
srebrenica
sri
ss
ssant
ssante
sse
ssedoor
ssel
sseldo
sseldorf
ssele
ssem
ssen
sser
sserij
ssers
ssersdialekte
ssetied
ssisch
ssische
ssise
ssisj
ssisje
ssje
ssjtoffe
ssr
sstreek
st
sta
staak
staal
staan
staar
staarspeuler
staartjes
staasje
staat
stabiel
stabiliteit
stad
stade
staden
stadhawwer
stadhawwerloes
stadhoes
stadia
stadion
stadions
stadionsjeidsrechter
stadium
stadiumsjeidsrechter
stads
stadsbebouwing
stadsbeeld
stadsbestuur
stadsbrand
stadscentrum
stadsdeil
stadsdeile
stadsdialekte
stadsdistrikte
stadsdreihook
stadsfries
stadsfuncties
stadsgebeed
stadsgeziech
stadskanaal
stadsmoer
stadsoetbreiing
stadspark
stadsraod
stadsrechte
stadsregio
stadsstaote
stadswiek
stadswieke
stadt
staej
staeke
staen
staet
staeveswaert
staff
stage
stagnatie
staking
stal
stalin
stalinisme
stalj
stam
stamde
stamhoof
stamme
stammen
stamp
stan
stand
standaard
standaardarabisch
standaarde
standaardfries
standaardingels
standaardnederlands
standaardnederlandse
standaardtaol
standard
standbeeld
standerd
standj
standpunte
stanislaus
stanley
staol
staon
staond
staonde
staot
staote
staotebiebel
staoten
staotevertaoling
staotkundeg
staotkundege
staots
staotsbo
staotse
staotsgreep
staotsgrepe
staotshoof
staotshoofde
staotsmaan
staotsman
staotsreligie
staotssecretair
staotsvo
staotus
stap
stapde
stapel
staphorst
stappe
stapt
star
stare
starebeeld
starebeelde
stareste
starfleet
stars
start
starte
started
starting
stasie
stat
state
statements
staten
states
statie
staties
station
statistiek
statistisch
statistische
statistiska
statline
status
statute
statuut
stavelot
stavoren
stay
ste
stede
steden
stedje
stedsje
stedsjes
steeds
steeg
steej
steel
steen
steenbeke
steenbergen
steenden
steenwijk
steeplechase
stef
stefan
steffeswert
steg
stege
steger
stei
steidelek
steideleke
steielike
steij
steil
stein
steine
steinfurt
steinmeier
steintied
steit
steitj
steivas
stej
stek
steke
stekele
stel
stelig
stelige
stelik
stelike
stella
stellendam
stellingwerfs
stelt
stem
stemmen
stempel
stemra
sten
stengel
stengele
step
stephan
stephanus
stephen
steppe
steps
ster
sterbottens
sterd
stere
stergo
steriek
sterk
sterkdje
sterke
sterken
sterker
sterksel
sterkste
sterling
sternorrlands
sterre
sterreko
sterren
sters
sterse
stert
stertaole
sterve
stet
steun
steunde
steune
steunt
steur
steusel
stevaert
steve
steven
stevens
stevig
stewart
steynebrugh
stichting
stichtse
stie
stiech
stiechde
stiechte
stiechter
stiechting
stiee
stief
stieg
stiek
stiekem
stiel
stien
stiende
stienden
stier
stiet
stif
stig
stige
stiger
stijg
stijl
stijle
stijn
stik
stikstof
stil
still
stille
stimulere
sting
stirling
stisch
stische
stivell
stmanlands
sto
stoan
stock
stockhausen
stockholm
stockholms
stoeattoean
stoel
stoet
stoete
stoettoen
stof
stoffe
stoi
stoke
stokkem
stolpersteine
stom
stompe
stond
stonden
stone
stones
stong
stont
stool
stoon
stoond
stoonde
stoont
stoonte
stop
stopde
stoppe
stopt
stor
storf
stories
storm
stort
stortde
storve
story
stoum
stoute
stra
straat
strabach
straeten
straight
strak
straks
stramproy
strand
strandj
strang
strao
straof
straofe
straol
straole
straoling
straot
straote
straoten
straotname
straottaol
strategie
strategisch
strategische
strategy
straten
strauss
strauß
stravinski
straße
stre
streefkerk
streek
streektaal
streektaalzang
streektaol
streektaole
streep
street
streik
streike
strek
streke
streng
strenger
streve
stried
strieke
striekers
striekkwarte
striekkwinte
striekorkes
striektrio
striep
striepe
striepke
strijd
strijen
strik
strikte
strindberg
strip
strips
stripteikeneer
stripverhaol
stripverhaole
strk
stro
stroat
strofe
stroum
stroume
structure
structureel
structuur
strue
struimde
struime
struiming
struiminge
struimp
struktuur
struuk
struusvogel
sts
stu
stuart
stude
studeerde
student
studente
studenten
studere
studie
studies
studio
stuit
stuk
stum
stumbenj
stumde
stumho
stumloeas
stumloeaze
stumloeazen
stumloes
stumme
stumming
stump
stunden
stunt
sturm
stuttgart
stuurmaan
stvv
style
su
sua
sub
subapicaal
subatomair
subcontinent
subgenres
subgroep
subgroepe
subjek
subjunctief
submission
submit
subsidie
subsp
substantief
substantieve
substraot
subtiel
subtop
subtroeapische
subtropisch
subtropische
succe
succes
successe
successieaorlog
successieoorlog
succesvo
succesvol
succesvolle
succesvoller
succesvolste
such
sud
sue
suezkanaal
suffices
suffix
suffixe
suggereert
suggerere
suggestie
sui
suite
suites
sujet
sukhoi
sukses
suksesse
sul
sullen
sullivan
sult
sultan
sultanaot
sum
sumatra
summary
summer
sumpel
sumpele
sumpeler
sumpelewaeg
sumpelste
sun
sunday
sunderland
sung
super
supercup
superfemilie
superieur
supermert
supernova
superorde
superstam
support
supporters
supranationaol
supreme
sur
sure
surinaams
surinaamse
suriname
surinamers
surrealisme
surrealistische
survey
sus
susan
susanna
suske
suster
susteren
sutherland
sutter
suu
suzanne
sv
sva
sven
svg
svk
svoj
swa
swahili
swalmen
swansea
swart
swaz
swaziland
sweelinck
sweeltje
sweet
swer
swert
swester
swie
swieten
swift
swing
swings
switch
sy
syde
sydney
syfilis
syllaab
syllabe
syllabes
sylvester
sylvia
symboeal
symbole
symbolen
symboliek
symbolisch
symbolische
symboliseert
symbolisere
symbool
symfonie
symfoniee
symfonieorkes
symfonische
symmetrie
symmetrisch
symmetrische
sympathie
symphonie
symptome
synagoge
synagoog
synchroon
syncoop
syndroom
synode
synoniem
synood
syntaxis
synthees
synthese
synthesizer
synthesizers
synthetisch
synthetische
syria
syrian
syrie
syrisch
syrische
systeem
system
systematiek
systematisch
systematische
systeme
sz
szymon
sør
søren
sørensen
t
ta
taai
taak
taal
taalbad
taalbeleid
taalgebied
taalgebroek
taalgrens
taalko
taalkunde
taalkundig
taalkundige
taalpolitiek
taalrieke
taalunie
taalwe
taalweitesjap
taam
tab
tabel
tabernakel
table
taboe
tach
tacheteg
tachetig
tachteg
tachtegers
tachtegjaoregen
tachtig
tachtigjaorige
tacitus
tadej
tadzjieks
tadzjikistan
taee
taege
taegen
taegeneuver
taegewoordig
taelsite
taenge
taengen
taengenein
taengeneuver
taengeneuvergeste
taengesjte
taengeste
taengeweurdig
taengewoordig
tag
tagalog
tage
tagore
tahiti
tai
taipei
taiwan
taize
tak
take
takes
takke
tal
talands
talbot
tale
talen
talent
talente
tales
taliban
talig
talige
talj
talk
talle
tallinn
talloes
talloze
talriek
talrieke
talrieker
tam
tamelik
tamil
tan
tand
tanden
tandj
tandjwal
tang
tango
tank
tankeldraod
tanks
tant
tante
tanzania
tao
taoe
taofel
taoi
taol
taolcontak
taole
taolfamilie
taolfases
taolfemilie
taolfemilies
taolgebeed
taolgebied
taolgebruuk
taolgrens
taolgro
taolgrope
taolkaart
taolko
taolkunde
taolkundeg
taolkundege
taollandsjap
taolnorm
taolvariante
taolveranderinge
taolvo
taolwetensjap
taolwetensjappers
taomelek
taore
taores
tap
tarantino
tarn
tarot
tartu
tas
tasman
tasmanie
tat
taten
tatoe
tatra
tau
taunus
tauri
taxa
taxi
taxon
taxonomie
taxonomische
taylor
tbei
tbook
tbrook
tbs
tde
tdeeg
tdege
tdeit
tdoen
te
teage
team
teams
teamverband
teau
tebannet
teborg
tech
technical
techniek
technieke
technisch
technische
techno
technologie
technologische
technology
ted
teddy
tee
teelt
teen
teentalle
tege
tegedeil
tegegehawwe
tegegeste
tegehenger
tegel
tegele
tegelen
tegeliek
tegeliekertied
tegels
tegeme
tegen
tegendeil
tegenein
tegeneuver
tegeneuverein
tegeneuvergeste
tegepaus
tegesjte
tegestand
tegestander
tegestanders
tegeste
tegestender
tegewa
tegewoordeg
tegewoordegen
tegewoordig
tegewoordige
teghen
tegooj
tehama
teheran
teike
teiken
teikenaer
teikende
teikene
teikeneer
teikening
teikeninge
teikent
teikes
teil
tein
teit
teite
tek
teke
tekening
tekeningen
teko
tekort
teks
tekscorpus
tekskes
tekssjriever
tekssjrievers
tekst
tekste
tekstkritische
tel
tele
telecommunicatie
telefoon
telegraaf
telemann
telemark
telenovela
telescoop
telescope
teleurste
televisie
televisiepresentator
televisiepresentatrice
television
televizier
tell
telstar
telt
telwa
tem
teminste
tempel
tempeleers
tempels
temperature
temperaturen
temperatuur
temperatuursjaol
template
templates
temple
tempo
temps
ten
tenake
tenao
tendeels
tendens
tenee
tenerife
teng
teniee
tenj
tenminste
tennessee
tennis
tennisser
tennisster
tenochtitlan
tenor
tenore
tenrecidae
tenrekechtige
tenrekfemielje
tenreks
tensjlotte
tenslotte
tent
tentakele
tentoansjte
tenue
tenues
tenzij
ter
terbliet
terbregge
tere
terech
terechgesjte
teresa
terf
tering
terlinne
term
termaar
terme
termien
termijn
terminal
terminologie
ternejje
terneuze
terneuzen
terp
terpstra
terra
terras
terrasse
terre
terrein
terreine
terreur
terreurgro
territoria
territoriaal
territoriaol
territorium
terroris
terrorisme
terroriste
terroristische
terroristischen
terry
ters
terschelling
terschellings
tersjtraote
tersloh
tertiair
tertiaire
terts
teru
terug
teruk
terwiel
terwijl
terwinsele
terworm
tes
tesame
teslotte
test
testamaent
testament
testamint
teste
testeme
tesvlo
tet
teugele
teuve
teuven
teva
teves
teveure
teweeg
texas
texel
text
textiel
textielindustrie
teyken
tgaeving
tgebrach
tgedoon
tgenome
tgerekend
tgete
tgevende
tgeving
tgv
th
thai
thailand
thailandj
thais
thaise
thales
than
thank
thanks
that
thatcher
thawwer
the
thea
theater
theaters
theatersto
theatre
thee
theems
thei
their
them
thema
thematiek
thematisch
thematische
then
theo
theodoor
theodor
theodore
theodorus
theodosius
theologe
theologie
theologisch
theologische
theoloog
theoretisch
theoretische
theorie
theoriee
theorieje
theory
therapie
there
theresa
theresia
theria
thermische
thermodynamica
these
thesis
thessalie
thessaloniki
theunissen
theunisz
theux
thewissen
they
thi
thierry
thijs
thijssen
thing
things
think
thinking
third
this
tho
thoe
thoemamastadionsjeidsrechter
thoes
tholen
thomas
thompson
thomson
thools
thor
thora
thorax
thorbecke
thorium
thorn
thornton
those
thou
thought
thracie
thrashmetal
three
thriller
through
thu
thuin
thuis
thumb
thunberg
thuus
thuuske
thuy
ti
tiaanse
tiberius
tibet
tibetaans
tibetaanse
tic
tica
tich
ticket
tie
tied
tiedelik
tiedens
tiedes
tiedgeis
tiedgenoete
tiedgenote
tiedje
tiedpe
tiedperk
tiedrit
tiedsje
tiedsjrif
tiedsjrifte
tiedvak
tiedzone
tiee
tieger
tiej
tieje
tiejes
tiel
tielt
tien
tiende
tienden
tiendere
tiendoezende
tiendsjuur
tiene
tiener
tienhoven
tienne
tienray
tientalle
tiesse
tiet
tifinagh
tig
tiger
tigris
tihange
tiid
tij
tijd
tijde
tijdelek
tijden
tijdens
tijdes
tijdschrift
tije
tijelek
tijens
tijes
tijt
tik
tikrit
tilburg
till
tillamook
tillevies
tillevisie
tillpos
tilly
tilman
tim
timberlake
timboektoe
time
timeaxis
times
timis
timmermans
timmers
timor
timothy
tin
tina
tinbergen
tineke
ting
tinne
tintin
tip
tiraspol
tirol
tis
tisch
tische
titaan
titan
titane
titanic
titanium
titel
titels
titelverdeideger
title
tito
titulaer
titus
tj
tje
tjes
tjeu
tland
tlands
tld
tm
tmael
tmz
tnam
to
toane
tobago
tobias
tocantins
toch
tochaars
tochaarse
tochte
tod
today
todd
toe
toean
toeane
toeanen
toeanhuuegdje
toear
toeareg
toebak
toee
toegang
toegank
toegankelik
toegeke
toegelaote
toegeno
toegepaotj
toegepas
toegepasde
toegesjraeve
toegesjreve
toegeveug
toegevoegd
toegevoog
toegeweze
toeko
toekoms
toekomst
toemeleer
toen
toenaam
toende
toendertied
toendra
toene
toenhuugde
toenle
toenmalige
toenmaolege
toensoort
toenversje
toep
toepasse
toepassing
toepassinge
toer
toere
toerisme
toeriste
toeristisch
toeristische
toernoje
toernooi
toernooj
toert
toerwages
toes
toesjpraak
toesjte
toesjtel
toesjtelle
toesjto
toesjtumming
toesland
toesmatche
toestandj
toeste
toet
toetdet
toete
toetse
toetsenis
toette
toeval
toeveuging
toew
toewe
toewen
toezich
tog
together
togo
tok
tokelau
tokio
tokyo
tol
tolkien
toll
tollens
tolstoj
tom
tomas
tomaso
tombe
tome
tommy
tomorrow
ton
tonaliteit
tonee
toneel
toneelsjriever
toneelsjto
toneelsjtuk
tong
tonga
tonge
tongere
tongeren
tongheren
tongval
toni
toniee
tony
too
toog
tool
tools
toon
toonder
toont
toontje
toorn
toos
toots
top
topclubs
topfavoriet
topics
topklas
topklasse
topleveldomein
topman
topografie
topografische
toponiem
toponieme
toponymie
toppe
tor
tora
tordesillas
tore
toren
tores
torhout
torie
tornado
toronto
torre
torres
torvalds
tos
toscaanse
toscane
tot
totaal
totale
totalitair
totaol
totdat
totnogtouw
toto
totten
tottenham
tou
toulouse
tour
tourdeilnames
toure
tournee
tours
tout
touw
touwbak
touwbedeild
touwgaank
touwgekind
touwgelaote
touwgenkelek
touwgenome
touwgepas
touwgero
touwgesjreve
touwgestande
touwgeveug
touwgeveugde
touwgevoog
touwgeweze
touwkinning
touwko
touwkoms
touwkoumenden
touwliet
touwnaom
touwnaome
touwnummend
touwnummende
touwpasse
touwpassing
touwpassinge
touwsjrieve
touwspraoke
touwstumming
touwtreijing
touwtrejjing
touwval
touwvalleg
touwveuging
touwveuginge
tow
tower
town
toyota
tr
tra
trace
trachypithecus
track
tracks
tractaat
trade
traditie
tradities
traditioneel
traditionele
traej
traeje
traejt
traener
tragedie
train
trainer
training
trajectum
trajek
tram
trams
tranen
trans
transavia
transcriptie
transcripties
transformatie
translate
translated
translation
translations
transnistrie
transport
transportation
transsylvanie
transvaal
trant
traoj
traoje
traon
traone
trap
trappe
trappist
traptaore
travertin
tre
treditie
tree
treedt
tref
treffe
treft
trein
treine
trejde
trejje
trejt
trek
trekent
trekke
trekken
trend
trends
trente
trentino
trepkes
tres
treujt
tri
triage
trial
trias
triatlon
tribbenaal
tribbenaol
tribunaal
tribunes
tribus
tricht
trie
triecht
triene
trier
trijn
tril
trille
trilling
trillinge
trilobiete
trilogie
trinidad
trinity
trio
trip
triple
tripoli
tripolitanie
triptote
tristan
triton
trivia
tro
troan
troean
troeapisch
troeapische
troee
troelstra
troen
troepe
troesfinaal
troew
trof
troffe
troie
trois
trojde
troje
trojt
trok
trokke
trol
trolle
trom
trommele
tromp
trompe
trompet
trompetter
trompettis
trompo
troms
trooj
troon
troost
trop
trope
tropisch
tropische
tros
trost
trots
trotski
troubadour
troubadours
trouf
trouve
trouw
trouwde
trouwe
trouwen
trouwens
trouwes
trouwt
troye
tru
true
truf
trui
truiden
trujillo
truk
trukkee
truman
trump
trumps
trustees
truuedj
truuk
truus
try
trøndelag
ts
tsaar
tsakonisch
tsberg
tsch
tsdet
tse
tsel
tsele
tsels
tsember
tsied
tsiet
tsj
tsjaad
tsjaikovski
tsje
tsjeche
tsjechie
tsjechisch
tsjechische
tsjecho
tsjechoslowakije
tsjen
tsjes
tsjetsjeense
tsjetsjenie
tsjland
tsjlank
tske
tskes
tssjtriejer
tst
tste
tstens
tstes
tsunami
tsveurste
tswana
tt
tte
tteg
ttekaove
ttel
ttelek
tteleke
ttelik
ttelike
tten
tter
tterao
tterblome
tterbloom
ttere
ttergreep
ttergrepe
tterie
tterkundige
tterlek
tterleke
tters
ttersj
ttes
ttig
ttige
tting
ttinge
ttir
ttis
ttoee
tu
tuba
tuberculose
tudder
tudor
tue
tuig
tuin
tuinbouw
tuinde
tuindo
tuine
tuint
tull
tulp
tummers
tun
tunesie
tunesisch
tungelder
tungers
tungrorum
tunis
tunnel
tunnels
tuolumne
tupi
tupisch
tupische
tupolev
tur
turbine
turbines
turbo
turbulens
turdus
turf
turien
turijn
turing
turke
turkey
turkiee
turkije
turkmenistan
turks
turkse
turn
turne
turner
turnhout
turnu
turpin
tus
tusje
tusse
tussen
tussje
tut
tutsi
tuue
tuug
tuup
tuvalu
tv
tvo
twain
twan
twe
twee
tweede
twei
twelf
twelfde
twelfden
twelfjaoreg
twellef
twellefvingerigen
twente
twents
twentse
twenty
twerk
twie
twiede
twieden
twiedens
twiedes
twiedetaolsprekers
twiee
twiefel
twiehieregheid
twiehoonderd
twieje
twieklaank
twieklaanke
twietaoleg
twietaolege
twievel
twievelechteg
twin
twinteg
twintegste
twintegsten
twintig
[...]
