!
"
#
##0
##1
##10
##11
##12
##13
##14
##15
##16
##17
##18
##19
##2
##20
##21
##22
##23
##24
##25
##26
##27
##28
##29
##3
##30
##31
##32
##33
##34
##35
##36
##37
##38
##39
##4
##40
##41
##42
##43
##44
##45
##46
##47
##48
##49
##5
##50
##51
##52
##53
##54
##55
##56
##57
##58
##59
##6
##60
##61
##62
##63
##64
##65
##66
##67
##68
##69
##7
##70
##71
##72
##73
##74
##75
##76
##77
##78
##79
##8
##80
##81
##82
##83
##84
##85
##86
##87
##88
##89
##9
##90
##91
##92
##93
##94
##95
##96
##97
##98
##99
$
%
&
'
(
)
*
+
,
-
.
/
0
00
000
01
02
03
04
05
06
07
08
09
1
10
100
1000
1001
101
102
103
104
105
1054
106
1066
107
1070
108
109
11
110
1100
111
112
1127
113
1130
1139
114
115
1150
1154
1155
116
117
1170
1174
1175
118
1180
1185
119
1190
12
120
1200
1204
121
1216
122
1220
1226
123
1230
124
1240
1243
1244
1248
125
1250
126
1260
1263
127
1270
1271
1275
1277
128
1280
1282
1285
1288
129
1290
13
130
1300
1304
131
1314
1316
132
1320
133
134
1340
1344
135
1350
136
137
1371
138
1380
1381
1389
139
14
140
1400
141
1410
1415
1418
142
1420
1421
1425
143
1430
1431
1435
144
1440
1441
1444
145
1450
1452
1453
1455
146
1460
1461
1462
1467
1468
1469
147
1470
1471
1472
1474
1475
1477
1478
148
1480
1482
1483
1485
149
1490
1492
1493
1494
1497
1498
1499
15
150
1500
1501
1502
1503
1504
1505
1506
1507
1508
1509
151
1510
1513
1515
1516
1517
1519
152
1520
1521
1523
1524
1525
1526
1528
153
1530
1532
1533
1534
1535
1536
1537
1539
154
1540
1542
1543
1545
1547
1548
155
1550
1554
1555
1556
1557
1558
1559
156
1560
1564
1565
1566
1567
1568
157
1570
1571
1572
1573
1574
1575
1576
1577
1578
1579
158
1580
1581
1582
1584
1585
1586
1587
1588
159
1590
1591
1594
1595
1596
1597
1598
1599
16
160
1600
1601
1602
1603
1604
1605
1606
1607
1608
1609
161
1610
1611
1612
1613
1614
1615
1616
1617
1618
1619
162
1620
1621
1622
1623
1624
1625
1626
1627
1628
1629
163
1630
1631
1632
1633
1634
1635
1636
1637
1638
1639
164
1640
1641
1642
1643
1644
1645
1646
1647
1648
1649
165
1650
1651
1652
1653
1654
1655
1656
1657
1658
1659
166
1660
1661
1662
1663
1664
1665
1666
1667
1668
1669
167
1670
1672
1673
1674
1675
1676
1677
1678
1679
168
1680
1681
1682
1683
1684
1685
1686
1687
1688
1689
169
1690
1691
1695
1697
1699
17
170
1700
1701
1702
1703
1704
1705
1706
1707
1708
1709
171
1710
1711
1712
1713
1714
1715
1716
1717
1718
1719
172
1720
1721
1722
1723
1724
1725
1726
1727
1728
1729
173
1730
1731
1732
1733
1734
1735
1736
1737
1738
1739
174
1740
1741
1742
1743
1744
1745
1746
1747
1748
1749
175
1750
1751
1752
1753
1754
1755
1756
1757
1758
1759
176
1760
1761
1762
1763
1764
1765
1766
1767
1768
1769
177
1770
1771
1772
1773
1774
1775
1776
1777
1778
1779
178
1780
1781
1782
1783
1784
1785
1786
1787
1788
1789
179
1790
1791
1792
1793
1794
1795
1796
1797
1798
1799
18
180
1800
1801
1802
1803
1804
1805
1806
1807
1808
1809
181
1810
1811
1812
1813
1814
1815
1816
1817
1818
1819
182
1820
1821
1822
1823
1824
1825
1826
1827
1828
1829
183
1830
1831
1832
1833
1834
1835
1836
1837
1838
1839
184
1840
1841
1842
1843
1844
1845
1846
1847
1848
1849
185
1850
1851
1852
1853
1854
1855
1856
1857
1858
1859
186
1860
1861
1862
1863
1864
1865
1866
1867
1868
1869
187
1870
1871
1872
1873
1874
1875
1876
1877
1878
1879
188
1880
1881
1882
1883
1884
1885
1886
1887
1888
1889
189
1890
1891
1892
1893
1894
1895
1896
1897
1898
1899
19
190
1900
1901
1902
1903
1904
1905
1906
1907
1908
1909
191
1910
1911
1912
1913
1914
1915
1916
1917
1918
1919
192
1920
1921
1922
1923
1924
1925
1926
1927
1928
1929
193
1930
1931
1932
1933
1934
1935
1936
1937
1938
1939
194
1940
1941
1942
1943
1944
1945
1946
1947
1948
1949
195
1950
1951
1952
1953
1954
1955
1956
1957
1958
1959
196
1960
1961
1962
1963
1964
1965
1966
1967
1968
1969
197
1970
1971
1972
1973
1974
1975
1976
1977
1978
1979
198
1980
1981
1982
1983
1984
1985
1986
1987
1988
1989
199
1990
1991
1992
1993
1994
1995
1996
1997
1998
1999
2
20
200
2000
2001
2002
2003
2004
2005
2006
2007
2008
2009
201
2010
2011
2012
2013
2014
2015
2016
2017
2018
2019
202
2020
2021
2022
2023
2024
2025
203
2030
204
205
206
207
208
209
21
210
2100
211
212
213
214
215
216
217
218
219
22
220
2200
221
222
223
224
225
226
227
228
229
23
230
2300
231
232
233
234
235
236
237
238
239
24
240
2400
241
242
243
244
245
246
247
248
249
25
250
2500
251
252
253
254
255
256
257
258
26
260
2600
261
262
264
265
266
267
268
269
27
270
271
272
273
274
275
276
277
278
279
28
280
281
282
283
284
285
287
289
29
290
291
292
293
294
295
296
297
298
299
3
30
300
3000
301
302
303
304
305
306
307
308
309
31
310
311
312
313
314
315
317
318
319
32
320
321
322
323
324
325
326
327
328
33
330
331
332
333
334
335
337
34
340
342
343
344
345
347
348
349
35
350
3500
352
353
354
355
358
36
360
361
364
365
366
368
369
37
370
375
376
38
380
381
382
384
385
389
39
390
392
393
395
397
399
4
40
400
4000
401
403
405
406
407
41
410
419
42
420
421
425
427
428
43
430
432
435
44
440
443
445
449
45
450
453
455
458
46
460
461
463
465
467
47
470
475
476
48
480
481
488
49
490
496
5
50
500
5000
505
51
52
520
525
526
529
53
530
54
540
541
545
55
550
555
556
56
560
562
565
57
570
575
58
580
581
585
59
590
595
597
6
60
600
6000
605
607
608
609
61
610
615
62
620
621
63
630
632
636
639
64
640
641
644
65
650
655
66
660
667
67
670
672
68
680
69
690
7
70
700
7000
701
705
707
71
715
72
720
727
73
730
735
737
74
740
745
747
75
750
755
757
76
760
766
767
768
77
770
771
775
777
78
780
79
790
795
8
80
800
8000
81
810
814
82
820
824
825
83
830
84
840
843
85
850
855
86
87
870
877
879
88
882
885
89
9
90
900
9000
91
92
93
94
940
945
95
950
953
955
96
960
97
970
974
975
976
978
98
980
985
988
99
999
:
;
<
=
>
?
@
[
\
]
^
_
`
a
aa
aaba
aachen
aad
aadgrieks
aadheid
aadingels
aadshaer
aadste
aaf
aafbeelding
aafbeeldinge
aafblajere
aafblieve
aafbraak
aafbraeke
aafbraeking
aafdaak
aafdampe
aafdanke
aafde
aafdeiling
aafdoon
aafdrage
aafdrieve
aafdro
aafgaeve
aafgaon
aafgebeeld
aafgebraoke
aafgebroke
aafgegaeve
aafgegrave
aafgeko
aafgekortj
aafgelaege
aafgelaenge
aafgelag
aafgele
aafgeleid
aafgeleijd
aafgelope
aafgeloupe
aafgeloupen
aafgemaak
aafgeno
aafgerakkerd
aafgeraoje
aafgero
aafgesjaf
aafgesjaote
aafgesjlaote
aafgesjlote
aafgeslaote
aafgespeeldj
aafgevaerdigde
aafgeveurd
aafgezat
aafgezatj
aafgro
aafgunstig
aafhange
aafhankelik
aafhaole
aafhenjig
aafhenkelek
aafhenkelik
aafhouwe
aafkeuring
aafkiee
aafko
aafkomstig
aafkorting
aafkump
aafkumstig
aaflaot
aafle
aafleie
aafleijing
aafleijinge
aaflevering
aafliee
aafligke
aaflo
aafloup
aafloupe
aafmaeting
aafmaetinge
aafmake
aafnaam
aafnumme
aafnump
aafpakke
aafrakkere
aaframmele
aafriete
aafsjaffe
aafsjaffing
aafsjeid
aafsjeijing
aafsjete
aafsjied
aafsjo
aafsjrieve
aafsjtand
aafsjtandj
aafsjuwelik
aafslaag
aafslaon
aafsloete
aafsloeting
aafsnieje
aafspeeltj
aafspele
aafspraeke
aafspraok
aafspraoke
aafstaeke
aafstamming
aafstandj
aafstaon
aafste
aafstenj
aafstenjig
aafte
aaftraeje
aaftre
aafvaege
aafval
aafvalle
aafvellig
aafveur
aafveure
aafwachte
aafwaeg
aafwe
aafwieke
aafwiekendj
aafwieking
aafwiekinge
aafwieze
aafze
aafzeen
aafzitte
aafzo
aafzunjere
aafzunjerlik
aafzunjerlike
aaj
aajd
aajdfrans
aajdfries
aajdgrieks
aajdgriekse
aajdheid
aajdhoegduits
aajdingels
aajdlatien
aajdnederfrankisch
aajdnederlands
aajdnoords
aajdste
aaje
aajer
aajste
aaki
aaks
aal
aalburg
aals
aalsmeer
aalst
aamper
aan
aanbaeje
aanbaejer
aanbaore
aanbeje
aanbevaele
aanblaoze
aanbod
aanboew
aanboewe
aanbraeke
aanbringe
aandach
aandechtig
aandeil
aandene
aander
aandere
aanderen
aanderre
aanders
aandersj
aandersum
aandert
aandeuning
aandieke
aandiekke
aando
aandoon
aandrieve
aandrieving
aandringe
aandro
aanduje
aanein
aangaeve
aangaon
aangaons
aangebaoje
aangebrach
aangedaon
aangedreve
aangeduud
aangeduudj
aangegaeve
aangegaeven
aangegaove
aangegeve
aangehaje
aangehajen
aangehouden
aangeko
aangekoch
aangelag
aangemaak
aangenaam
aangeno
aangepas
aangerich
aangesjlaote
aangesjte
aangespanne
aangetas
aangetro
aangetroffe
aangetroffen
aangevalle
aangevare
aangeveurd
aangevo
aangeweze
aangezeen
aangifte
aangrenzende
aangrenzendje
aanguuef
aanhaje
aanhajendj
aanhajendje
aanhajing
aanhandj
aanhange
aanhankelik
aanhenger
aanhengers
aanhenkelik
aanhitse
aanho
aankieke
aanko
aankoke
aankome
aankoupe
aankump
aanlag
aanle
aanleiding
aanleijing
aanliee
aanligk
aanligke
aanloupe
aanmake
aanmelle
aannaam
aanne
aanno
aannumme
aannummelik
aannummenswaerdig
aannummer
aanpak
aanpakke
aanpasse
aanpassen
aanpassing
aanrake
aanraking
aanraoje
aanrijding
aans
aansjlaag
aansjlaeg
aanslaag
aanslag
aansloete
aansloeting
aanspa
aanspra
aanspraok
aanspraokelik
aanstaeke
aanstaekelik
aanstaon
aanste
aanstoeatgaevendj
aantaal
aantal
aantalle
aantraeje
aantre
aanval
aanvalle
aanvange
aanvank
aanvankelik
aanvaring
aanve
aanvenkelik
aanveule
aanveurder
aanveure
aanveuring
aanvo
aanvraog
aanvraoge
aanwaezig
aanwaezigheid
aanwezig
aanwezige
aanwezigheid
aanwieze
aanwiezendj
aanwiezing
aanwiezinge
aanwinne
aanze
aanzeen
aanzeenlik
aanzitte
aap
aar
aard
aardbaeving
aardbeving
aarde
aardig
aarle
aaron
aart
aarts
aartsbisdo
aartsbisjhop
aartsbisjop
aartshertog
aartsliee
aasjlee
aat
aata
aatal
aati
aatiiba
aatiibi
aatiibo
aatiiboki
aatiibosa
aatiibosi
aatiiboso
aatiiboya
aatiiki
aatiiya
aatika
aatista
aato
aatoki
aatosa
aatosi
aatoso
aatoya
aaya
ab
aba
abacinare
abader
abaestuare
abaetere
abaisser
abalienare
abambulare
abandonner
abarcere
abba
abbacinare
abbatizare
abbaye
abbe
abbey
abbreviare
abc
abchazie
abcoude
abd
abdel
abdere
abdicere
abdie
abdij
abdiquer
abdis
abdoellah
abducere
abdullah
abe
abel
abenaki
abequitare
aber
abercere
aberrare
aberrer
abhibere
abhorrer
abhorrere
abi
abicere
abigere
abir
abitere
abjurer
ablatief
ablaut
abn
abominer
abonder
abonnement
abonner
aborder
aboriginals
abortus
aboucher
abouler
about
abraham
abrahamse
abre
abreuver
abriter
abroger
abschied
abseluut
absenter
absolute
absolutiser
absoluut
absorber
abstrak
abstrakte
abt
abu
abuser
ac
academie
academisch
academische
academy
accabler
accaparer
acce
accent
accentuer
acceptabel
accepteert
acceptere
accouder
accoupler
accu
accusatief
acerbare
ach
acha
achel
achho
achi
achilles
acho
achoki
achosa
achosi
achoso
achoya
achste
achsten
acht
achte
achter
achteraaf
achteraan
achterberg
achterblieve
achtere
achterein
achtereinvolges
achteren
achtereuver
achtergelaote
achtergro
achtergroond
achterhaole
achterhook
achterhooks
achterin
achterkant
achterkantj
achterklinker
achterklinkers
achterland
achterlaote
achterlief
achterlik
achternaam
achtero
achteroet
achteroetgaon
achterop
achterpuuet
achterro
achterveugsel
achterveugsele
achtervolging
achtervoogsel
achtiee
achtien
achtiende
achtienden
acma
acquiesc
acquiescer
acre
act
acta
acteur
acteurs
actie
actief
acties
actieve
action
actionner
activis
activist
activiste
activiteit
activiteite
actor
actrice
actries
acts
actueel
actuele
ad
ada
adam
adams
adamsappel
adanu
adbreviare
adder
addicere
additionner
ade
adel
adeleer
adelike
adellik
adellike
adenauer
adi
adjectief
adjectieve
administratie
administratief
administratieve
administration
admiraal
admirer
ado
adolf
adolphe
adonis
adopter
adorer
adportare
adres
adresse
adriaan
adrianus
adriatische
adrien
adsj
adspicere
advent
adverb
advies
adviseur
advocaat
ae
aedel
aedelstein
aee
aege
aej
aek
aeketig
aektes
aels
aelse
aen
aenj
aer
aerd
aerdaolje
aerdgaas
aerdkoosj
aerdliee
aerdsjo
aerpel
aester
aet
aetbaar
aete
aetelik
aeten
aetes
aeteswaar
aeve
aevel
aevenes
aeveva
aevewich
aevewiejig
aeveziee
aezel
aezelig
af
afar
afasie
afc
afd
aff
affa
affair
affaire
affaires
affiesj
affirmer
afganistan
afghaanse
afghan
afghanistan
afp
africa
african
afrika
afrikaans
afrikaanse
afrikaansj
afro
afroinsectiphilia
afrosoricida
afrotheria
afscheid
after
ag
again
against
agatha
agder
age
aged
agence
agency
agenda
agent
agente
agglomeratie
agglutinerende
agl
agnes
agrarisch
agrarische
agree
agressie
agressief
agt
ah
ahead
ahmad
ahmed
ai
aid
aider
aids
aiguillonner
aiguiser
aiki
aime
aimer
ain
air
airbus
aire
airer
aires
airlines
airport
airways
ais
aisa
aise
aiski
aisne
aiso
aissa
aissi
aisso
aissoki
aissosa
aissosi
aissoso
aissoya
aisya
aiya
aj
ajax
ajdste
aje
ajen
ajer
ajerdo
ajere
ajers
ajerwe
ajouter
ak
aka
akaaka
akaaki
akaako
akaakoki
akaakosa
akaakosi
akaakoso
akaakoya
akaaya
akademie
akbar
ake
akelig
akershus
aki
akkadisch
akkaord
akkelej
akker
akkerboew
akkere
akkers
akkoord
akkoorde
akkuzatief
akoestische
aksent
aksenttuup
akseptere
aksie
aksje
akt
akta
akte
aktief
aktivis
aktiviteit
aktiviteite
aktries
aktueel
akə
al
ala
alaaf
alabama
alabamisj
alagoas
alain
alan
alarm
alaska
alba
albanees
albanese
albanie
albe
albert
alberti
albertkanaal
alberto
alberts
alblasserwaard
albrecht
album
albums
alcohol
ald
aldaag
aldao
alde
alden
alder
alderhenj
alderiee
alderlei
aldo
aldus
aldusse
ale
alein
aleksandr
alert
alessandro
alex
alexander
alexandra
alexandre
alexandrie
alexis
alfa
alfabe
alfabet
alfons
alfonso
alfred
alge
algebra
algeme
algemeen
algemein
algemeine
algemeint
algemene
algerije
algerijnse
algiers
ali
alias
alice
alif
alifahaso
alifahi
alifaho
alifasi
alifaso
alifi
alifo
alihako
alihaso
alihi
alihik
alihin
aliho
alihoo
alik
alika
aliko
alin
alinea
alisik
aliso
alisoo
aljaors
alkehol
alkeholischen
alkmaar
all
alla
allaank
allah
allan
allang
alle
allebei
alledaagse
alledaogse
alledrei
alleen
allein
alleinhiee
alleinig
alleke
allemaol
alleminium
allemoal
allen
allenei
allenej
alleng
aller
alleriers
allerierste
allerle
allerlei
alles
allet
alletwie
allewaal
allewel
allewiel
allewiele
allewijl
allewijle
allez
allezeleve
allgemeine
alliantie
allien
alling
allium
alliz
allochtone
allochtoon
allofoon
alma
almelo
almere
alo
alois
aloki
alone
alonso
aloo
alosa
alosi
aloso
aloya
alpe
alpes
alpha
alphen
alphons
alphonse
alpien
alpine
alre
als
alse
alsjemie
also
alsoe
alsters
alsus
alt
altaar
altai
altaor
alte
altena
alternatief
alternatieve
altie
altied
altiid
altijd
altjaor
alto
altviool
alum
aluminium
alva
alvas
alveolair
alveolaire
alveolairen
alves
alvleiskleer
always
alweer
alzheimer
am
ama
amadeus
amalia
amanda
amapa
amateur
amateurs
amateurvoetbal
amay
amazonas
amazone
amazonegebeed
amb
ambach
ambacht
ambachte
ambassade
ambassadeur
ambiorix
ambitieus
amble
ambt
ambtenaer
ambteniee
ambulance
ambulare
amby
ame
ameland
amen
america
american
amerika
amerikaan
amerikaans
amerikaanse
amerikaansen
amerikane
amerikaone
amerikaons
amerikaonse
amersfoort
amfibiee
amfibieje
amie
amiens
amihako
amihasik
amihasin
amihaso
amihasoo
amika
amiko
aminozoere
amisin
amiso
ammar
ammoniak
amos
amour
ampe
amper
amst
amstel
amstelveen
amstenrade
amsterdam
amsterdams
amsterdamse
amundsen
amy
an
ana
analogie
analoog
analyse
analysere
analytische
anatolie
anatomie
anatoom
ancien
ancient
and
andalusie
ander
andere
anderen
anderlecht
anders
andersen
andersj
anderson
andes
andorra
andre
andrea
andreas
andrej
andreus
andrew
andries
andriessen
andy
ane
anemone
anen
ang
angel
angela
angeles
angelina
angels
angelsakse
angelsaksische
anger
angere
angeren
angers
angert
anges
angesj
angeso
angeszins
anglo
angola
angs
angst
angstig
anguilla
anh
anhalt
animal
animalia
animator
anita
anjou
ank
ankara
anker
ann
anna
annales
annan
anne
anneke
annemarie
annemie
annemiek
annexatie
annexeerde
annexeert
annexere
annie
anno
annoncer
ano
anoniem
another
ans
ansembourg
anser
ant
antarctica
ante
antes
anthonius
anthony
anti
antieke
antigone
antigua
antille
antiochie
antisemitisme
antj
antje
antjwa
antjwaord
antjwerpe
anto
antoine
antoinette
anton
antoni
antoniem
antonieme
antonio
antonius
antonov
antropologie
antropoloog
antwerpe
antwerpen
antwoord
anus
any
ao
aoch
aod
aodsher
aodste
aoe
aof
aofgebroke
aofgekort
aofgelaope
aofgelege
aofgeleid
aofgeleide
aofgeloupe
aofgeroond
aofgerund
aofgesjaf
aofgesjeie
aofgeslote
aofgesplits
aofgesproke
aofgeveerdegde
aofgewe
aofgeweze
aofgezat
aofgezeen
aofhaankelek
aofhenkelek
aofko
aofkoms
aofkomsteg
aofkomstig
aofkorting
aofkumsteg
aofle
aofnummende
aofsjaffing
aofsjeid
aofsjeiing
aofspa
aofstamme
aofstand
aofsten
aofstoon
aoftrejje
aofwieke
aofwiekende
aofze
aog
aoj
aoke
aol
aolie
aolje
aom
aome
aomezeik
aomezeike
aomhaoling
aon
aondach
aondeil
aonein
aongeboje
aongedoon
aongeduid
aongegeve
aongehawwe
aongelag
aongenome
aongenomme
aongepas
aongeslote
aongeste
aongetroffe
aongevalle
aongeve
aongevo
aongeweze
aongezeen
aongief
aonhaank
aonhengers
aonlag
aonle
aonleiing
aonligkende
aonmerking
aonnumme
aonpasse
aonraking
aonslaag
aonsleeg
aonslete
aonsleting
aonspraok
aontal
aontalle
aontre
aonval
aonvalle
aonvenkelek
aonwezeg
aonwezegheid
aonwezig
aonwiezende
aonwiezinge
aonzeenlek
aonziech
aonzien
aop
aope
aopebaar
aopen
aopenbaar
aopenhertig
aopgehaje
aor
aore
aoristus
aorlog
aos
aosem
aoseme
aostrem
aove
aovend
aovendj
aoves
aow
aoze
ap
apaart
apaarte
apache
apart
aparte
apartheid
ape
apeldoorn
aphaove
aphrodite
apicaal
apollo
apostel
apostele
apostolisch
apostolische
app
apparaat
apparate
apparatuur
apparteme
appartement
appartemente
appel
appele
apperaat
appetiet
appetietelik
appingedam
apple
apportare
appre
approximant
apre
april
apə
aqaba
aquilegia
aquino
aquitanie
ar
ara
arab
arabere
arabie
arabiere
arabisch
arabische
arago
aragon
aragonees
aramees
arbeid
arbeiders
arbeiers
arbeit
arc
arcen
arcere
archaea
archai
archeologe
archeologie
archeologisch
archeologische
archeoloog
archetype
archief
archieve
archimedes
archipel
architec
architect
architectuur
architek
archive
ard
ardenne
ardennes
ardere
are
area
arena
arensgenhout
ares
argentiense
argentijnse
argentinie
argon
argument
argumente
ari
aria
arie
arige
aristide
aristoteles
arizona
ark
arkansas
arkel
arm
armand
arme
armee
armeens
armeense
armen
armene
armenie
armin
arms
armstrong
army
arnem
arnhem
arno
arnold
arnsberg
aroemeens
around
arowakke
arp
arranger
arrangeur
arre
arrendissement
arrendissemente
arrestatie
arrested
arriva
arriveerde
arriveert
arriver
arrondissemaent
arrondissement
arrondissemint
arrondisseminte
ars
arse
arsjief
arsjipel
arsjitectuur
arsjitek
arsjitekte
arsjitektuur
art
artagnan
arte
arthur
article
artiekele
arties
artieste
artiesten
artikel
artikele
artikulaasje
artillerie
artistiek
artistieke
arts
artsach
aruba
as
asbes
asfaltj
ash
asi
asia
asiel
asielzeukers
asj
aspecte
aspek
aspekte
aspicere
aspx
assad
assange
asse
asselt
assemble
assen
assikchi
assimilatie
assisi
assistent
assister
associated
associatie
association
associeert
assyrie
aste
asterisk
asterix
asteroi
asteroid
astrangulare
astrein
astrid
astrologie
astronaut
astronaute
astronome
astronomie
astronomische
astronoom
asturie
at
atatu
ate
atelier
athei
athematische
athene
atkinson
atlanta
atlantis
atlantisch
atlantische
atlantischen
atlas
atleet
atlete
atletiek
atmosfeer
atoeam
atoeame
atoeamno
atol
atolle
atome
atoom
ats
atsə
attack
attacks
attak
attaque
attaquer
atte
attigny
attika
attikel
attirer
attisch
attractie
attribute
attributief
atʃə
au
aube
aubel
auch
aud
audrey
audsberge
auf
aug
auge
augus
august
augusta
auguste
augustes
augustin
augustinus
augusto
augustus
auk
aung
aurelius
aurora
aus
auschwitz
auslautverha
aust
austerlitz
austin
australian
australie
australis
australisch
australische
austroa
austronesie
austronesisch
austronesische
auta
auteur
auteurs
authority
auto
autobaan
autobenefaktief
autobiografie
autocoureur
automatisch
automobilist
autonome
autonomie
autonoom
autoriteit
autoriteite
auw
auwe
auwt
aux
av
avanc
avancer
avant
avatar
ave
avec
aventoe
aventuurlik
avenue
avignon
aviv
avontuur
avouer
avvekaot
aw
awacs
awans
award
awards
away
awd
awdste
awstrao
awstroa
awt
awtste
awwe
awwen
awwer
awwere
awwers
awwerwe
awwesj
ax
axel
axels
axtə
axtər
ay
aya
ayo
az
azeraoj
azerbaidzjaans
azerbaidzjan
azerbaijan
azerbeidzjaans
azerbeidzjaanse
azerbeidzjan
azerbeizjaans
aziaote
aziate
aziatisch
aziatische
azie
aziz
azore
azteeks
azteekse
azteke
að
aŋ
aɪ
aɾ
b
ba
baad
baai
baan
baandj
baank
baanke
baansto
baar
baard
baarle
baarlo
baarmoder
baarn
baars
baas
baat
baby
babylon
babylonie
babylonische
bach
back
bacon
bacterie
bacterieje
bad
bade
baden
badik
badimik
badkamer
bae
baedele
baedeliee
baee
baej
baeje
baek
baekdale
baeke
baeker
baekske
baer
baere
baerge
baeter
baetere
baeterkoup
baevaart
baevaartsoord
baever
baevers
baexem
bafouiller
bag
bagdad
bagere
baghdad
baghdadi
bagk
bagke
bah
baha
bahama
bahia
bahrein
bai
baia
baigner
bailidik
bainik
bainunik
baisaga
bak
baker
bakke
bakken
bakker
bakkes
bakr
baksel
baksjtein
baksjteine
bakstein
bakteerje
bakto
bal
balans
bald
balde
bali
balie
balk
balkan
balkenende
balkon
ball
balle
ballet
ballingsjap
baltische
baltus
bamboe
ban
band
banda
bandj
bands
bane
bang
bangkok
bangladesh
bangladesj
bani
banjo
bank
banke
bankeer
banks
banne
bannet
banska
bantoe
bao
baoe
baog
baoj
baoksem
baol
baolder
baom
baon
baone
baor
baord
baordj
baore
baort
baove
baoved
baovegro
baovekantj
baoven
baovenaan
baovenal
baovenatuurlik
baovenetuurlik
baovenop
baovetenj
baptist
baptiste
bar
barack
barbados
barbara
barbuda
barcelona
bare
barendrecht
bargoens
bariton
barneveld
barok
barokke
baron
barones
barre
barrie
barroso
barry
bars
bart
baruch
bas
base
baseerde
baseert
basel
bases
basgitaar
basiliek
basis
basissjoal
bask
baskeland
basketbal
baskisch
baskische
basse
bassin
bassis
basten
bastenake
bat
bataafse
batavia
bate
bath
bats
batterie
battista
battle
bau
bauer
bay
bayern
baz
bazel
bb
bbc
bbe
bbel
bbele
bben
bbend
bbende
bbendj
bbendje
bbendjen
bbendjheid
bber
bberie
bbers
bd
be
beach
bean
bear
beare
beat
beatles
beatrix
beaufort
beaumont
beautiful
beauvoir
bebo
beboewing
bebop
bebouwd
bebouwing
bec
because
bech
beck
becker
beckers
beckett
bed
bedach
bedacht
bedde
bede
bedeend
bedene
bederve
bedink
bedinke
bedirve
bedo
bedoei
bedoeld
bedoeldj
bedoele
bedoeling
bedoelt
bedra
bedraag
bedrage
bedrege
bedregelik
bedreig
bedreigde
bedreiging
bedreuf
bedreug
bedreuve
bedreve
bedrief
bedriefsmaotig
bedriefsmiee
bedriefsterrein
bedrieve
bedriever
bedrijf
bedroog
bedruueg
bee
beech
beeck
beeg
beej
beeje
beejt
beek
beekman
beel
beeld
beelde
beeldend
beeldende
beelder
beeldhouwer
beeldj
beeldje
beeldjer
beeldsje
beelje
beemde
beemster
been
beer
beerbroewerie
beerenbrouck
bees
beesel
beet
beethoven
beetje
beets
before
begaasj
begaerd
begaere
begaerlik
begaeve
begaje
began
begaon
bege
begeit
begeleid
begeleide
begiene
begin
beginjaore
beginne
beginnen
beginnend
beginnendj
begins
beginsel
beginsele
begint
begintj
bego
begoes
begonne
begoons
begoosj
begos
begoste
begraafplaats
begraefenis
begraove
begrave
begrens
begrepe
begreujing
begriep
begriepe
begrip
begrippe
begroeting
begroting
begrujjing
begunde
beha
behaajd
behaje
behalve
behandeld
behandele
behandeling
behandelt
behanjeldj
behanjele
behanjeling
behanjelinge
behaold
behaolde
behaole
behaolt
behaordj
behaordje
behaowe
behauve
behave
behawwe
behe
behee
beheer
beheers
behekse
beheue
beheurde
beheure
behiee
beho
behoee
behoefte
behoud
behue
behulp
behure
behurende
behuuerdje
behuuere
behuuerendj
behuuerlik
behuuert
behuuertj
behuurde
behuurt
bei
beide
beie
beiere
beieren
beiers
beierse
beij
beijerland
bein
being
beiroet
beit
beits
beivuurbild
bej
beje
bejje
bek
bekaand
bekaande
bekaans
bekalle
bekandj
bekandje
bekandjste
bekangde
bekank
bekanke
bekans
beke
bekeke
bekend
bekende
beker
bekiee
bekiek
bekieke
bekierde
bekiere
bekind
bekinde
bekinder
bekindgemaak
bekindheid
bekindj
bekindje
bekindste
bekinne
bekinste
bekint
bekke
bekker
bekkers
bekle
bekleid
bekleie
beklemtoende
beklieddere
beklumme
beko
bekob
bekobo
bekobs
bekobso
bekof
bekofs
bekofso
bekol
bekols
bekolso
bekom
bekoms
bekomso
bekon
bekons
bekonso
bekor
bekoro
bekors
bekorso
bekos
bekoso
bekoyo
bekoys
bekoyso
bekritiseerd
bekwaom
bel
belaangriek
belaangrieke
belaangriekste
belaank
belaankriek
belaankrieke
belaankrieker
belaankriekste
belaankste
belachelik
belaef
belaeve
belaeving
belag
belandt
belang
belange
belangriek
belangrieke
belangriekste
belangsjte
belangste
belank
belaof
belaofde
belaoje
belaove
belas
belasting
belastinge
belazere
beldje
bele
beleefheidsvo
belegerd
belegering
beleid
beleidige
belemans
belfast
belfeld
belfort
belg
belgica
belgie
belgique
belgisch
belgische
belgium
belgrado
believe
beligke
belize
belk
bell
bella
belle
belo
belofte
bels
belsj
belsje
belt
beltjens
belve
belvend
belzebub
belzje
belzjen
bem
bemande
bemanning
beme
bemelmans
bemiddeling
bemol
ben
bena
benaan
benaming
benaminge
benaodering
benaodro
benaoming
bend
bende
bene
beneden
benedictiener
benedictus
benelux
beneumd
beneumde
beneume
beneuming
beneump
beng
bengaals
benin
benito
benj
benjamin
benk
benkelik
benny
beno
benrather
bent
benthorn
benz
benzien
beowulf
bep
bepaald
bepaalde
bepale
bepaold
bepaolde
bepaoldj
bepaoldje
bepaole
bepaoling
bepaolinge
bepaolt
bepaoltj
bepe
beperk
beperkde
beperke
beperkinge
bepirk
bepirkdje
bepirke
beppie
ber
beraden
beraekendj
beraekene
beraoje
berbers
berbertaole
bere
bereid
bereik
bereikbaar
bereikde
bereikdje
bereike
bereiken
bereikt
berg
bergaaf
bergbusj
berge
bergechteg
bergen
berger
bergh
bergisch
bergland
bergman
bergop
bergs
bergschenhoek
bergse
bergsje
bergske
berhaup
berich
berichte
beriechte
beringe
berk
berkel
berlien
berliense
berlin
berlioz
berlusconi
berm
bern
bernadette
bernard
bernardino
bernardo
bernardus
berners
bernhard
bernisse
berns
bero
beroemd
beroemde
beroep
beroop
berope
berry
bert
bertha
bertrand
bertus
beruchte
berwien
bes
bescherming
besjadig
besjadige
besjaemp
besjajig
besjame
besjaoving
besjaving
besjavinge
besje
besjeftig
besjeftige
besjeid
besjeie
besjermd
besjermde
besjerme
besjerming
besjermp
besjete
besjiete
besjik
besjikbaar
besjikke
besjikking
besjlaag
besjlaote
besjleit
besjlete
besjloet
besjloot
besjlote
besjlut
besjluut
besjmet
besjmette
besjmetting
besjmettinge
besjo
besjoewd
besjouwd
besjouwe
besjouwt
besjraeve
besjreef
besjreve
besjriee
besjrief
besjrieft
besjrieve
besjrieving
besjrievinge
besjrijf
besjtange
besjtaon
besjtaond
besjtaonde
besjte
besjteet
besjteit
besjteunt
besjto
besjtoee
besjtong
besjtoon
besjtudeerd
besjtudeert
besjtudere
besjtuitj
besjtuur
besjtuurd
besjtuurder
besjurme
besjurming
besjurmp
beslaag
beslaon
beslaote
besleit
beslete
beslis
beslisse
beslissing
beslissinge
besloet
besloete
besloog
besloon
besloot
beslote
besluit
besluut
besme
besmetting
bespraeke
besproke
besse
bessem
besseme
bessems
best
besta
bestaan
bestaetige
bestaetiging
bestand
bestande
bestandj
bestandjsdeil
bestaon
bestaond
bestaonde
bestaont
beste
besteit
besteitj
bestenjig
besteurleke
besting
besto
bestoon
bestoond
bestoont
bestoonte
bestrieje
bestrieke
bestudeerd
bestudeertj
bestudere
bestuit
bestumdje
bestumme
bestumming
bestump
besture
bestuur
bestuurd
bestuurder
bestuurlek
bestuurleke
bet
beta
betaald
betaaldj
betale
betalen
betaling
betaold
betaolde
betaole
betaome
betaomp
betee
beteikend
beteikende
beteikene
beteikenis
beteikenisse
beteikent
beteikentj
betekenis
betekent
beter
bethlehem
beto
beton
betrach
betrachte
betre
betref
betreffe
betreffende
betrekking
betro
betroch
betroewbaar
betrof
betroffe
betrokke
betrokkeheid
betruf
bette
better
betty
betuwe
betwis
beu
beugel
beugele
beujt
beuk
beuke
beukske
beukskes
beum
beuningen
beur
beurdje
beure
beurs
beurskens
beurt
beurtj
beusdael
beusj
bev
beva
bevael
bevaele
bevalle
bevalling
bevare
bevat
bevatj
bevatte
beve
bevel
beveland
bevelands
bevesteg
bevestig
bevestige
beveurbeeld
beveurbeeldj
beveurbeild
beveurbeildj
beveurbild
bevind
bevinde
bevindj
bevindt
bevinge
bevingk
bevinje
bevink
bevint
bevo
bevolk
bevolking
bevolkingsaontal
bevolkingsdeechte
bevolkingsdichheid
bevolkingsdichte
bevolkingsdiechheid
bevolkingsdiechte
bevolkingsgro
bevooghede
bevordere
bevordering
bevouking
bevoukingsdichheid
bevoukingsverangering
bevraore
bevriejd
bevrieje
bevriejing
bevrijd
bevrijing
bevro
bevundj
bewa
bewaak
bewaard
bewaarde
bewaardj
bewaart
bewaeg
bewaege
bewaeging
bewaeginge
bewaere
bewaering
bewake
bewaord
beware
bewaren
bewe
bewege
beweging
beweginge
beweuner
beweuners
beweunersj
beweuning
beweze
bewies
bewieze
bewind
bewindj
bewirk
bewirke
bewirking
bewo
bewoee
bewoend
bewoende
bewoene
bewoeners
bewoening
bewoerd
bewoner
bewoners
bewoning
bewoond
bewoonde
bewoonder
bewoonders
bewus
bezaope
bezat
bezatj
bezatte
beze
bezeen
bezeenswaerdig
bezeg
bezeghe
bezeivere
bezej
bezel
bezeuk
bezeuke
bezeukers
bezichtige
beziee
bezien
beziener
bezig
bezit
bezitj
bezitte
bezittinge
bezittingsvo
bezo
bezoch
bezoonder
bezorge
bezunder
bezunderhede
bezunderheid
bezunjer
bezwieke
bg
bhutan
bi
bia
biamonti
bib
bibbere
bibliofiel
bibliotheek
bic
bid
bidden
biden
bie
bieb
biebbere
biebehuuerendje
biebel
biebels
biebelse
biech
biechte
biedraag
biedrage
biee
biehaje
biej
bieje
biejein
biejeinko
biejen
biejveurbeeld
biejveurbeeldj
biejzo
bieklank
bieko
biekumstig
biel
bielach
bielefeld
bieligke
bien
bienaam
bienao
bier
bies
biesen
biesheuvel
biesjop
biestandj
biestaon
bieste
biet
biete
bietje
bieva
bieveugelik
bieveugelike
bieveurbeeld
bievogelik
biewa
biewaord
biewaordj
biezats
biezitte
biezo
biezunjer
big
bij
bijbehurende
bijdrage
bijdragen
bijein
bijj
bijjingswies
bijna
bijnao
bijnaom
bik
bikini
bil
bilabiaal
bilabiale
bilateria
bilbao
bild
bilderdijk
bildt
bill
billig
billy
bilt
bilthoven
bilze
bin
bingen
binj
binje
binne
binnekantj
binneko
binnekort
binneland
binnelandj
binnelands
binnelandse
binnelste
binnen
binnesjtad
binnestad
binneste
binnevele
bino
binob
binobo
binobs
binobso
binofs
binofso
binol
binols
binolso
binom
binomo
binoms
binon
binons
binor
binoro
binors
binos
binoy
binoyso
bio
biodiversiteit
biografie
biologe
biologie
biologisch
biologische
bioloog
bioscoop
biosjemicus
biotoop
biotope
bipolaire
bipolar
birds
birgele
birma
birth
bis
bisdo
bisdom
bisjhop
bisjop
bisjoppe
biskaje
bismarck
bisschop
bissjop
biste
bit
bitje
bitsje
bitteke
bittekes
bitter
biz
bizet
bjo
bla
blaad
blaajer
blaank
blaanke
blaar
black
blackadder
blad
blaedje
blaedjes
blaffe
blair
blaise
blajer
blajere
blake
blanc
blanco
blank
blanke
blao
blaor
blaos
blaosinsterment
blaoze
blas
blast
blauw
blauwe
blaw
blawtsig
blawwe
ble
bleef
bleek
bleik
bleike
bleke
blenco
blerick
blet
bletsje
bleu
bleuj
bleujde
bleuje
bleujende
bleujt
bleujtied
bleujwies
bleumkes
bleus
bleutj
bleve
bleven
bli
blica
blie
blieberig
bliedsjap
bliee
blief
bliefs
blieft
bliej
bliek
bliekbaar
blieke
bliekt
blierik
blieriks
blieve
blieven
blievende
blievendj
blif
blij
blijdorp
blijf
blijft
blijven
blik
bliksem
blin
blind
blindj
blinj
blinjenderm
blinke
blinkendj
blo
block
bloeat
bloed
bloeffe
bloem
bloemen
bloemendaal
bloet
bloete
blog
bloje
blok
blokkaasj
blom
blome
blomen
blood
bloodbad
blooddro
blooddustig
bloodso
bloodvater
bloodzoeker
bloom
bloomlaezing
bloomlezing
blow
blowwe
blozers
blu
blue
blues
bluj
blujje
blut
blz
bløf
blɒ
blɛ
blɪ
bm
bmw
bn
bo
boa
board
boat
boave
boavedeen
bob
bobby
boch
bocholtz
bock
bod
bode
bodegraven
boden
body
boe
boean
boeane
boeat
boebij
boedapes
boedapest
boeddhisme
boeddhistische
boedoor
boee
boeijen
boeing
boek
boekares
boekketig
boekpien
boel
boeljo
boem
boeme
boen
boenao
boenze
boer
boerderie
boerderiej
boerderieje
boerderij
boerderije
boere
boerebedrief
boereha
boeren
boergondie
boermans
boers
boerum
boes
boesj
boesse
boet
boete
boetedet
boetedo
boetegebeed
boetegebied
boetegewoen
boetekant
boetekantj
boeteland
boetelandj
boetelandjs
boetelandjse
boetelands
boetelandse
boetelenders
boetelenjers
boetelo
boeten
boetenaaf
boetes
boeteste
boetewieke
boets
boetse
boetsing
boetsjdje
boetsjing
boevaan
boeveur
boew
boewde
boewdje
boewe
boewen
boewer
boewko
boewsel
boewt
boewwerk
boewwirke
boheemse
boheme
boileau
bois
bojem
bok
boke
bokelies
bokendj
bokkeriejersj
bokma
boko
bokser
boksmaer
bol
boli
bolivia
bologna
bolsonaro
bolsward
bolt
bolvo
bolwerk
bom
bomans
bomb
bombardemint
bombay
bommel
bon
bonaire
bonaparte
bond
bondskanseleer
bong
bongard
bonifatius
bonn
bonne
bonobo
boodsjap
booj
book
bookdro
books
boom
boon
boond
boor
boord
boors
boosten
boot
bor
bord
borde
bordeaux
border
borg
boris
borken
born
borne
borneo
borre
borrell
bors
borsele
borst
bos
bosch
bose
boskoop
bosnie
bosnisch
bosnische
bosone
bosporus
bosse
boston
bot
botanicus
botanische
bote
boter
both
botsing
botswana
botte
bou
boudewijn
bouger
bouillon
boulez
boulogne
boum
boumlaezing
bourbon
bourgondie
bourgondische
bout
boute
bouterse
bouw
bouwde
bouwe
bove
bovedeen
bovegeneumde
boven
bovenaon
bovenop
bovenste
boveste
bovestoonde
bowie
bowl
box
boxtel
boy
boys
br
bra
braaf
braak
brabant
brabants
brabantse
brach
bracht
brachte
brachter
bradley
brae
braed
braek
braeke
braganc
brahms
brak
bram
branco
brand
brande
brandeburg
branden
brandenburg
brandj
brandjsjtof
brandjstifting
brandjsto
brandjstof
brandjwaer
brandjwaermen
brandstof
brandt
brandweer
branj
branje
brank
brao
braobant
braobantj
braobantjs
braobants
braobantse
braoj
braoje
braok
braoke
bras
brasi
bratislava
braun
brave
braziel
brazielisj
brazil
braziliaans
braziliaanse
braziliaansen
brazilie
bre
break
brech
breda
bredero
bredevoort
bree
breef
breer
breggen
brei
breibere
breid
breide
breidte
breie
breier
breije
breit
breite
breke
breking
brengen
brenj
brenne
brent
brentj
brentjens
bretagne
breto
bretoens
bretons
breuje
breuk
breukelen
breuker
breurs
breursj
breusel
breusj
breustig
breve
brevebo
brexit
breziel
bri
brian
bridge
brie
briee
brief
briegel
briek
brielle
brieven
brigida
brigitte
brik
brikke
bril
bring
bringe
bringen
bringk
bringt
brink
brisbane
brit
british
brits
britse
britsen
brittanie
brittannie
britte
bro
broad
broadcasting
broadway
broder
broe
broead
broeadnuuedig
broed
broeder
broee
broek
broekbaar
broekdje
broeke
broeken
broekke
broen
broene
broensem
broensemerhei
broensig
broenssem
broenve
broers
broewe
broewerie
brok
brokem
broken
brokeze
bron
bronckhorst
bronk
bronne
brons
bronte
bronze
brood
brook
brooklyn
broons
broonstied
broonze
broor
brother
brothers
broukzittert
brouns
brounts
brouwers
brown
bru
bruce
bruckner
brug
brugge
bruins
bruk
brul
brulle
bruls
brunei
bruno
brunssum
brussel
brussels
brusselse
bruto
bruxelles
brø
brɒ
brɛ
brɪ
brʊ
bs
bste
bt
bu
buchte
buck
buddingh
buddy
budel
budget
buenos
bufet
buge
buging
bui
buige
buigzaam
buildiere
building
buim
buis
buit
buiten
buitenland
buize
bujel
buk
buks
bukske
bul
bulgaars
bulgaarse
bulgarije
bulger
bull
buma
bun
bundel
bundels
bundesliga
bung
bunjel
bunnik
burch
burcht
bureau
buren
burg
burgemeester
burgemeister
burger
burgeraorlog
burgeroorlog
burgers
burkina
burma
burn
burton
burtscheid
burundi
bus
bush
business
busj
buskerud
busscop
busse
bussum
bustel
bustele
but
butelste
butler
buuers
buugzaam
buul
buuls
buun
buurt
buurte
buurtschap
buurtsjap
buurtsjappe
buurtvereiniging
buus
buusjop
buut
buuttereedner
bv
by
byc
byron
bystrica
byzantiens
byzantijns
byzantijnse
byzantium
bæ
bæk
bø
bœ
bɑ
bɒ
bə
bədri
bəl
bər
bɛ
bɪ
bʉ
bʊ
c
ca
cabaretie
cabaretier
cache
cacher
cadier
cadzand
cadzands
caecilia
caelen
caesar
cafe
cage
cai
cain
calais
calare
calcare
calceare
calciare
calcium
calcutta
cale
california
californie
call
calls
cals
calvarie
calvin
calvinisme
calvinistische
cambodja
cambridge
cambrium
camera
cameron
camiel
camille
camp
campagne
campbell
campert
camping
campo
camps
campus
can
canada
canadees
canadese
canal
cancellare
canis
canisius
cannot
canon
canyon
cao
cap
capaciteit
cape
capelle
capellen
capital
capittel
capitulatie
captain
captare
car
carai
caravan
carboon
care
carel
cargo
caribe
caribisch
caribische
caris
carl
carla
carlo
carlos
carmen
carnaval
carnavalsvereiniging
carnivora
carol
carolina
caroline
carolus
caron
carre
carrie
carroll
carter
carthago
cartils
cartograaf
cas
casa
case
cases
cash
casimir
casino
caspar
casser
cassini
castelo
castiliaans
castilie
castrare
castrer
castro
casus
cat
catalaans
catalaanse
catalaons
catalonie
catarina
categorie
categoriee
category
catharina
cathedral
catherine
cats
cauberg
causa
cause
causer
cavare
caverne
cavia
cbs
cctld
cd
cda
cdh
cdl
cdot
cdu
ce
ceara
ceaus
cecil
cecilia
cees
cel
celebes
celebrare
celkern
celle
cello
celsius
cement
cen
censere
census
censuur
cent
center
centimaeter
centimeter
centra
centraal
central
centralbyra
centrale
centraol
centraole
centre
centro
centrum
centrumrechse
century
cer
cercopithecus
ceremonie
ceres
cern
cerrado
cerro
certare
cervantes
ces
ceylon
cf
cfsp
ch
cha
chai
challenge
challenger
chambille
champagne
champagnois
champenois
champions
change
changer
channel
chant
chantal
chantalle
chanter
chaos
chapelle
chaplin
charge
charger
charkov
charleroi
charles
charleville
charlie
charlois
charlotte
charon
chasser
chateau
chatte
chbaar
chbaarheid
chbare
chde
chdje
chdro
che
chef
chel
chelsea
chemelot
chemicus
chemie
chemisch
chemische
chen
cher
chercher
cherson
ches
chezer
chfotografie
chhave
chi
chicago
chie
child
children
chileense
chili
chimpansees
china
chinees
chinese
chinesen
chineze
ching
chiper
chirac
cho
choka
choki
chokka
chokkaa
chokkao
chokki
chokko
choko
chokya
cholera
chopin
chordabiee
chordata
choreograaf
choya
chr
chris
christ
christa
christchurch
christelek
christeleke
christelijke
christelik
christelike
christelikke
christen
christendemocratische
christendo
christendom
christene
christenunie
christiaan
christian
christina
christine
christmas
christoffel
christoph
christopher
christus
chro
chroeam
chroesjtsjov
chrome
chromosome
chromosoom
chrysochloridae
chrysochlorinae
chrysochloris
chs
chstroum
chstroummechanisme
cht
chte
chtelinge
chten
chter
chtig
chtige
chtigheid
chting
chu
chuck
church
churchill
chvaartpioneer
ci
cia
cicero
cie
ciefer
ciefers
cier
cifik
cifodik
cijfers
cinema
cio
circa
circuit
circus
cirkel
cistercie
citadel
citare
cite
citroe
city
citypopulation
civiel
civilians
ciəŋ
ck
cke
cken
cker
cl
cla
claer
claes
clagen
claim
claimde
claime
claimp
claims
claire
clan
clans
clara
clarer
clark
class
classic
classicisme
classicistische
classificatie
claude
claudia
claudio
claus
cle
cleber
clemens
cleopatra
clercq
clermont
clervaux
cleveland
clie
clijsters
cliner
clinton
clip
clock
close
clovis
clown
club
clubs
cluster
clusters
cm
cnn
cnoops
co
coach
coagulare
coalitie
cobra
cocai
cock
cockpit
code
codes
codex
coe
coen
coenen
coesfeld
coevorden
cogitare
cohen
col
cola
colare
cole
colijn
colin
colla
collaborer
colle
collectie
collectief
collection
colleesj
collega
college
coller
collins
colmar
colombia
colombiaanse
colonia
color
colorado
colorare
columbia
columbus
column
columnis
columnist
columns
com
coma
combinatie
combinaties
combineert
combinere
come
comeback
comedy
comen
comes
comite
comitiare
command
commandant
commander
commandeur
commando
commencer
commentaar
commercie
commercieel
commissaris
commissie
committee
common
commons
commonwealth
commune
communes
communicatie
communicere
communie
communisme
communiste
communistisch
communistische
comore
compagnie
company
compeneert
compenis
compensatie
competitie
competities
compleet
complete
complex
complexe
complicare
complicaties
compliquer
componeerde
componeert
component
componere
componis
componist
componiste
comporter
compositie
composities
compromis
compter
computare
computer
computers
comte
con
concacaf
concentratie
concentratiekamp
concentraties
concentreerde
concentreert
concentrer
concentrere
concep
concept
concern
concert
concerte
concerti
concessie
concilie
conclusie
concolor
concorde
concordia
concours
concreet
concurrent
concurrente
concurrentie
conde
condroz
confederations
conferentie
conflict
conflicte
conflik
conflikte
confrontatie
confucianisme
confucius
congo
congolese
congregatie
congres
coninck
conjunctief
connecticut
connie
conny
conplicare
conputare
conrad
consensus
consequent
conservatief
conservatieve
conservatiever
conservatorium
conside
considerer
consonant
consonante
constant
constante
constantien
constantijn
constantinopel
constitutie
constitutioneel
constructie
constructies
consul
consulter
consumptie
contact
contak
conte
conteks
content
contex
continent
continentaal
continentaol
continente
continere
continu
continue
continuer
contra
contrak
contras
contribuer
control
controle
controlere
controverse
controversieel
conventie
conventies
conventioneel
conway
coo
cook
cool
cooper
copa
copernicus
cor
corneille
cornelis
cornelius
cornisch
cornwall
corona
coronacrisis
coronapatie
coronavirus
corporation
corps
corpus
corresponderend
corresponderende
corruptie
corsica
corte
corvus
cos
costa
coucher
could
council
country
countryzenger
county
coup
coupe
couper
couperus
cour
courant
coureur
coureurs
course
court
couter
couven
cover
covers
covid
cox
cramignon
crash
cre
crear
creatie
creatief
cree
creole
creool
creoolingels
creools
creoolse
creooltaol
creooltaole
creuse
creuser
crew
cricket
criens
criminaliteit
crimineel
crisis
criteria
criterium
critici
criticus
cromwell
crooswijk
cross
crown
crucifix
cruijff
cruz
cry
crypte
crystal
cs
csu
ctie
cu
cua
cuba
cubaanse
cuisine
cuisiner
culemborg
culture
cultureel
culturele
cultus
cultuur
cultuurtaol
cum
cup
curac
curie
curiekardinaal
cursief
cursus
curtis
curvare
cut
cuypers
cv
cvp
cw
cy
cyclocross
cycloon
cyclus
cypriote
cypriotisch
cypriotische
cyprus
cyrillisch
cə
cɨn
cɪc
d
da
daa
daacheliks
daag
daagblaad
daagbook
daagleech
daags
daaj
daak
daal
daaltj
daan
daank
daanke
daankzij
daar
daarde
daarden
daarteg
daartien
daartiende
daartienden
daartig
dab
dach
dachte
dade
daden
dader
dae
daeke
dael
daen
daene
daenemarke
daens
daer
daes
daf
daftig
dag
dagblad
dage
dageleks
dageliks
dagelikse
dagen
dai
daily
dak
dakar
daker
dakota
dal
dalai
dalarnas
dale
dalek
dalen
dalhem
dali
dalik
dalilik
daling
dallas
dam
damascus
dame
dames
damesvoetbal
damme
damp
dampe
dampkrink
dan
danach
dance
danie
daniel
dank
dankbaar
dankbaarheid
danke
danne
dannen
danny
danouch
dans
danse
dansen
danser
danseres
dante
danu
danzig
dao
daobaove
daobie
daobiej
daobij
daobinne
daoboete
daobove
daod
daodo
daodoor
daodoorhaer
daoe
daog
daogeleks
daohaer
daojer
daome
daomit
daon
daonaeve
daonao
daoneer
daoneve
daor
daorentege
daoro
daorom
daorop
daorum
daotaenge
daotege
daotegeneuver
daoto
daova
daovaan
daovan
daoveur
daovo
daozeen
dapperheid
dar
dare
darius
dark
darmstadt
darwin
das
dasse
dassen
dat
data
database
datar
date
dateert
datere
datief
datmen
dats
datse
dattet
datum
datzelfde
dau
dave
david
davids
davis
daw
dawn
day
days
daz
dbnl
dbɒ
dc
dde
ddel
ddele
ddelen
ddeliee
dder
ddig
dding
ddr
de
dea
dead
deadly
deal
dean
death
debat
debie
debiet
debij
deborah
debuteerde
debuut
debuutalbum
dec
december
decennia
decennium
decimare
decke
declinatie
declinaties
deco
decor
decoratief
decreet
dede
dee
deechde
deed
deef
deefsmach
deefstal
deeg
deej
deejay
deel
deelder
deelgaard
deels
deen
deende
deendje
deenke
deens
deense
deensregeling
deenste
deenstesector
deent
deentj
deep
deepde
deepdje
deepste
deepziee
deer
deerlik
deerlike
dees
deesdig
deesdigtenaovendj
deeskier
deet
defendere
defensie
defesche
definie
definitie
definitief
definities
definitieve
deftig
deg
dege
degene
deginnege
degradatie
degradeerde
degradeert
degradere
deh
dehaene
dei
deig
deil
deilbaar
deilde
deile
deilen
deiler
deilgemeinte
deilgemeintes
deiling
deilke
deilkes
deilname
deilnaome
deilnumme
deilnummer
deilnummers
deils
deilsjtaat
deilsjtaot
deilstaot
deilstaote
deilt
deiltj
deilwaord
deilwoord
deimos
deis
deit
deivel
deje
dekker
dekkers
deks
del
delahaye
delano
delaware
dele
deler
delere
deletie
delf
delfshaven
delft
delfzijl
delhi
delik
della
delta
delve
dem
demander
deme
dementie
demer
demissionair
democraat
democracy
democrate
democratie
democratiee
democratisch
democratische
demografische
demonstrante
demonstratie
demonstraties
dempig
den
denaer
denao
dendermonde
dene
denemarke
denemarken
denen
deng
denis
denk
denke
denne
dennis
denouch
dentaal
dentaol
denti
dentificeerd
deo
departement
departemente
departementen
departemint
departeminte
depe
deper
depp
depressie
depressief
der
derby
derde
derdje
dere
dergelik
dergelike
derheid
derks
derm
derre
ders
dertiee
dertien
dertig
dertigste
des
descartes
dese
desember
desen
desi
design
desire
desmond
deso
dessiner
destieds
det
detail
details
detj
detmold
detouw
dette
deu
deug
deuk
deunehe
deur
deure
deuren
deurne
deus
deutsch
deutsche
deutschland
deux
devaan
devan
deve
deventer
deveur
devies
devisie
devoon
devos
dewiel
dewijl
dez
deze
dezelfde
dezelfden
dezelfdje
dezelvendje
dezen
dh
dha
di
dia
diafragma
diagonaal
diake
dialect
dialecte
dialecten
dialecticon
dialectologie
dialek
dialekcontinuu
dialekgro
dialekme
dialeksjriever
dialekt
dialekte
dialekten
dialekvariante
dialoge
dialoog
diamaant
diamaeter
diamant
diameter
diamond
diana
dianthus
dias
diaspora
dich
dichheid
dichotomie
dicht
dichte
dichter
dichteres
dichters
dichzelf
dick
dicke
dickens
dictator
dictature
dictatuur
dictee
dictionair
dictionaire
didier
dido
die
diech
diechbevolk
diechheid
diechte
diechter
diechteres
diechters
diechtersj
died
diederen
diederik
diee
dieet
diego
diej
diek
diekdje
dieke
dieken
diekirch
diekke
diekken
diekker
dieks
diemen
dien
diene
dienen
dienst
dient
diep
dier
diere
dieren
dies
diesel
diest
diet
dietrich
diets
dieu
diezelfde
diffenisie
diffenitie
diftong
diftonge
diftongering
dig
dige
diging
digitaal
digitale
digitaol
dii
dij
dijk
dik
dikke
diks
diksmuide
diku
dilse
dimensie
dimensionaal
diminutief
diminutieve
dimmekrasie
din
dinant
dinc
ding
dinge
dingemanse
dingen
dinger
dinghen
dings
dink
dinkbeeljig
dinke
dinkelek
dinkelik
dinken
dinosaurie
dinsdag
dinsdig
dio
diogenes
dionysius
diploma
diplomaat
diplomaot
diplomatie
diplomatieke
dir
dire
direc
direct
directe
directeur
direk
direkta
direkte
dirigent
dirizje
dirizjent
dirk
dirks
dirksland
dis
discipline
disciplines
disco
discours
discovery
discriminatie
discussie
discussies
diskette
diskjockey
disney
dispeniebel
displaystyle
dispute
disputer
disse
dissertatie
distribuer
district
districte
distrik
distrikte
dit
diu
divers
diverse
diversiteit
divisie
dix
diz
dizdaags
diznach
diznaovendj
dizze
dizzen
dj
dje
djen
djens
djes
djokovic
dju
dl
dln
dmitri
dna
dnjepr
dnʉ
do
doa
doad
doadgesjaote
doadurch
doaje
doamit
doanee
doanoa
doar
doaro
doarum
doava
doavuur
dob
dobbel
dobbele
dobbelstartege
dobo
dobs
dobso
doc
docent
docere
doch
dochte
dochter
dochters
dochtertaole
doctor
document
documentaire
documente
documinte
dode
doden
dodental
doe
doead
doeadgaon
doeadgebleve
doeadgelo
doeadmaeker
doeadmake
doeado
doeads
doeadstraof
doeaj
doeaje
doeajelik
doeajen
doeas
doeb
doebbere
doed
doedgesjote
doee
doef
doeg
doej
doeje
doejetal
doek
doel
doele
doelwit
doem
doeme
doen
doep
doer
doerde
doerdje
doere
doert
doertj
doerzaam
does
doesburg
doesje
doet
doetinchem
doeve
doeven
doew
doezend
doezende
doezjend
doezjendj
doezjendje
dof
dofo
dofs
dofso
dog
doge
dogma
doha
dohmen
dok
dokkum
doksaal
dokter
doktere
dokters
dokument
dol
dolfijn
dollar
dolly
dolo
dols
dolso
dom
domain
domburg
domein
domeine
domenico
dominant
dominante
dominantie
domine
dominee
domineert
dominere
dominica
dominicaanse
dominion
dominique
dommel
domo
doms
domso
don
donald
donatus
donau
donaumonarchie
donbass
donderdag
donderdig
donetsk
dong
dongeradeel
donjon
donk
donker
donna
donne
donner
dono
dons
donso
doo
dooch
dood
doodgeschoten
doog
dook
doolaard
doon
doonder
doonker
door
doorbaore
doorbraak
doorbraeke
doorbraok
doordat
doorde
doordet
doorein
doorgaeve
doorgank
doorgaon
doorgaons
doorgeit
doorgeveurd
doorgoon
doorhaer
doorho
doorleep
doorlo
doorloupe
doorn
doornik
doors
doorsjnee
doorslaag
doorsnei
doorsnoje
doort
doortot
doortre
doorze
doorzeuke
doorzichtig
doorzitte
doot
dop
dor
dordogne
dordrech
dordrecht
dore
doren
doris
dorisch
doro
dorp
dorplein
dorre
dorren
dors
dorso
dort
dortmund
dos
doso
dossier
dostojevski
dot
dou
douard
doucher
douf
doug
douge
douglas
douve
dowler
down
doy
doyo
doys
doyso
dozens
dr
dra
draag
draagbaar
draak
draan
draank
drach
drachter
draf
drage
dragen
drager
dragon
drake
drama
dramatisch
drang
drank
draod
draon
drastisch
drat
dratsjerig
dratʃə
drave
dre
dream
dredo
dreef
dreej
drees
drei
dreie
dreig
dreigde
dreige
dreigement
dreiging
dreij
dreise
drej
drejde
drejje
drejjendje
drejt
drejtj
drek
drekke
drente
drenthe
drents
drentse
dres
dresden
dressuur
dreu
dreue
dreug
dreuver
dreuvig
dreyfus
dri
drie
driede
driee
drief
driefs
drieheukig
drieho
driehook
driej
driejde
driek
driekentjig
driekeuninge
driel
dries
driesjprunk
driessen
drieve
drif
drin
dringe
dringendj
drink
drinke
drinken
drinkes
drinkwater
drive
dro
droet
droeve
droge
droog
drop
droum
droume
drs
dru
drue
druger
drugs
drui
druim
druime
druk
drum
drumband
drummer
drums
druue
druueg
druuegdje
druuege
druug
druugde
druuggelag
dry
dræ
drø
drœk
drɛ
drɪ
drʉ
ds
dsdet
dse
dsj
dsje
dsjes
dsjtried
dskantje
dsm
dstried
dstrijd
dstrije
dt
du
dualis
dubai
dubbel
dubbele
dublin
dubois
duc
duchte
duchtig
duchtige
duda
dudelek
dudeleke
dudelik
dudelike
due
duel
duie
duin
duine
duinkerke
duip
duipe
duiper
duis
duisenberg
duit
duitj
duits
duitse
duitsen
duitsers
duitsland
duitslandj
duitstaolege
duiveland
duiven
duizend
duje
dujelek
duk
duke
duker
dul
dumas
dumoulin
dun
dunant
dunbevolk
duncan
dune
dunne
dunnen
dunner
dunt
duo
dur
durch
durchgestrichenes
durchzettingssp
dure
durp
dus
duselig
dusseldo
dustig
dut
dutch
duudj
duuj
duuje
duujje
duuk
duur
duurder
duurstede
duus
duusbo
duuster
duustere
duut
duuts
duutse
duutsj
duutsje
duutsjen
duutsjer
duutsjers
duutsjlaand
duutsjland
duutsjlandj
duutsjtalige
duutsland
duutstaolege
duvel
duys
duzelig
dva
dvd
dvor
dvæ
dweers
dweersbalk
dweiele
dwerg
dwergplaneet
dwest
dwight
dwinge
dwo
dwæ
dy
dydo
dye
dylan
dynamiek
dynamisch
dynastie
dz
dztwo
dæ
dæc
dø
døc
dœ
dɒ
də
dər
dɛ
dɣlœ
dɪ
dɪc
dɪɣər
dɪʝər
dʉ
dʊ
e
ea
eagles
earl
earth
earthquake
east
eastern
eau
eb
ebcd
eben
eburone
ech
echelste
echgenoeat
echgenote
echo
echpaar
echs
echt
echte
echteg
echtege
echten
echter
echterbo
echternach
echters
echtig
echtige
ecologische
economic
economie
economisch
economische
econoom
ecosysteem
ecuador
ed
edam
edanu
eddie
eddy
ede
edel
edele
edelik
edelmaan
eder
edere
ederein
edereine
ederen
edersjaor
ederskiee
edert
edgar
edinburgh
edison
edith
editie
edities
edmond
edmund
edo
edouard
eduard
edvard
edward
edwin
ee
eed
eeden
eeder
eedere
eederein
eeg
eej
eemsdelta
een
eene
eenen
eenheid
eenkel
eens
eer
eerd
eerdbeving
eerde
eerden
eerder
eerdolie
eerdse
eerdsjo
eeren
eers
eerst
eerste
ees
eesjte
eet
eeuw
eew
ef
effacer
effe
effect
effecte
effectief
effek
effekes
effekte
effeld
effen
efficie
efkes
eg
egaal
egalig
ege
egei
egelike
egelze
egg
eggink
egks
egmond
egmont
ego
egoonsdig
egypt
egypte
egyptenere
egyptisch
egyptische
egyptoloog
eh
ehrenstein
ei
eid
eide
eidos
eier
eifel
eiffel
eige
eigedo
eigedom
eigelek
eigeleke
eigelik
eigen
eigenaam
eigenaardig
eigenaer
eigenaere
eigename
eigendo
eigendom
eigeneer
eigeniee
eigeno
eigensjap
eigensjappe
eigentlik
eigesjap
eigesjappe
eigewistig
eight
eijer
eijk
eijsde
eijsden
eik
eike
eikel
eikelkes
eikes
eikinnig
eikkets
eilaand
eiland
eilande
eilandj
eilandje
eilandjgroep
eilandnatie
eilen
eilendjes
eilendsje
eilendsjes
eileng
eilengro
eilenj
eimaol
eimel
ein
einanger
eind
einde
eindelijk
eindelik
eindhove
eindhoven
eindig
eindigde
eindige
eindigt
eindj
eindjklasseme
eindjklassement
eine
eineg
einege
einegste
einen
einentwintegsten
einer
eines
einha
einhede
einheid
einheidsmiervoud
einheje
einige
einja
einkinnig
einmaol
eins
einsegste
einstein
eint
einveljig
einziejig
eis
eisde
eisdje
eise
eisenhower
eisj
eist
eiveljig
eiwit
eiwitte
ej
ejn
ek
eke
ekstra
el
elastisch
elbe
elburg
ele
election
electric
elefant
elegant
elekom
elektricite
elektriciteit
elektrisch
elektrische
elektromagnetische
elektron
elektrone
elektronica
elektronisch
elektronische
elektrotechnicus
elemaente
eleme
element
elementair
elemente
elemint
eleminte
elf
elfde
eli
elias
elio
elisabeth
elitair
elite
elizabeth
eljer
eljers
elk
elkaar
elke
ella
ellef
ellen
ellenjig
ellis
elmp
els
else
elsloo
elvis
elzas
elzenga
em
emael
email
emanuel
emaondig
embleem
embraer
embryo
embryophyta
emerson
emes
emfatische
emigratie
emil
emile
emilia
emily
emir
emiraote
emirate
emma
emmanuel
emmeloord
emmen
emmer
emmy
emoties
emotioneel
empire
empirische
en
enamor
enamorarse
enchai
enci
enclaaf
enclave
enclaves
enclitisch
enclitische
encycliek
encyclopedie
end
ende
endeavour
endemisch
endemische
endepols
endj
ene
eneas
enen
energie
enfant
eng
engel
engeland
engels
enghel
engis
england
english
engstig
enig
enige
enigste
enj
enkel
enkele
enkhuizen
enn
enne
ennen
ennepe
enorm
enorme
enque
enrico
ens
enschede
ense
ensemble
ensembles
ent
entans
enter
enterprise
enthousias
entre
entrer
enz
enzowiejer
enzym
enzyme
eo
eod
ep
epaart
epicentrum
epidemie
epifanie
epirus
epische
epos
eppel
equitare
equivalent
equus
er
era
erasmus
erd
erde
erden
erdj
erdog
erdogan
ere
eredivisie
eren
erens
erf
erfde
erfenis
erfgood
erg
erga
ergatief
erger
ergere
ergernis
ergste
eric
erich
erie
erik
eris
eritrea
erkaant
erke
erkenning
erkens
erkind
erkinde
erkinne
erkinning
erkint
erko
erm
erme
ermer
ermeujig
ermood
ermooj
ermste
ermujjig
ermziee
ernest
ernst
ernstig
ernstige
erosie
erotische
errer
ers
erste
ert
erts
ervare
ervaring
ervaringe
erve
erwin
es
esa
esch
escroquer
escu
esj
eskimo
esland
eslandj
esnog
esof
esouch
esp
esperanto
espi
espres
essay
essayis
essayist
essays
esse
essen
essentie
essentieel
essers
est
esta
estafe
este
estebleef
esther
estisch
estuarium
et
eta
etaasj
etanol
etappe
etappes
etc
ete
eten
ethanol
ethiek
ethiopia
ethiopie
ethiopische
ethisch
ethische
ethnologue
etienne
etig
etmaal
etniciteit
etnisch
etnische
ett
etymologie
etymologiebank
etymologisch
etymologische
eu
euangelien
euch
eucharistie
euge
eugene
eukaryote
euler
eumetazoa
eupe
eupener
eupening
eur
euratom
euraziatische
eurazie
eure
euregio
eureka
eurlings
euro
eurocrisis
euromunte
europa
europacup
europarlemintarie
europe
europeaan
european
europeane
europeaone
europees
europese
europesen
eurovisie
eurozone
eus
euskirchen
eussen
eustatius
euthanasie
eutheria
euvel
euver
euveral
euverbleef
euverblief
euverbliefsel
euverbliefsele
euverblieve
euverblievendje
euverbringe
euverdaag
euverde
euverdeil
euverdoon
euverdosis
euverdrach
euverdrage
euverdrechtelik
euverdrechtelike
euverdreve
euverdrieve
euvere
euverege
euveregens
euvereges
euverein
euvereinko
euvereinkoms
euvereinkomste
euvereinkump
euvereinkumstig
euvereinstumming
euveren
euvergaaf
euvergaank
euvergaeve
euvergangsmetaal
euvergank
euvergaon
euvergebleve
euvergebrach
euvergedrage
euvergeit
euvergelieverd
euvergelo
euvergenkelik
euvergeno
euvergenome
euvergenomme
euvergeslage
euvergezat
euvergezatj
euverglo
euvergo
euvergroet
euvergroete
euverhaer
euverhaole
euverhede
euverheers
euverheerse
euverheersing
euverheid
euverhiee
euveriessel
euverige
euveriges
euverijssel
euverkant
euverkantj
euverko
euverlaef
euverlaeve
euverlas
euverle
euverleef
euverleefde
euverleej
euverleje
euverleve
euverlieje
euverliejt
euverligke
euverloupe
euvermach
euvernaom
euvernumme
euversjot
euversjtruiminge
euverslaon
euverstaeke
euverstruiminge
euvertalig
euvertraejing
euvertre
euvertuge
euvertuging
euverval
euvervalle
euvervleujig
euvervlood
euvervlujjig
euverwaeg
euverwaegendj
euverwe
euverwegend
euverwinne
euverwinning
euverwinninge
euverze
euverzeen
euverzich
euverzichskaart
euverziech
euverziese
euverzitte
euving
euzen
eva
evakkewere
evangelie
evangelies
evangelis
evangelische
evans
eve
evegood
evehovege
evel
evels
even
eveneer
eveneme
evenement
evenemente
evenemint
eveneminte
eventueel
ever
everest
evert
every
eveva
evic
evil
evo
evolutie
evp
evriedig
evrm
evvel
ewald
eweg
eweggaon
eweggehaoldj
eweggelaote
eweghaole
ewegko
ewegvalle
ex
exacte
exage
exak
exakte
exame
excelsior
exchange
exclusief
excuser
excuses
executie
executieve
execution
exemplaar
exemplare
exercer
exodus
exoplanete
exotische
expansie
expectare
expeditie
experiment
experimente
experimenteel
experiminte
expert
expliciet
exploitatie
exploitere
explosie
explosief
explosies
explosieve
explosion
export
exportare
exposer
expositie
expres
express
expressionistische
exspectare
extern
externe
extra
extreem
extreemrechse
extreme
extremistische
exululare
eyck
eye
eyes
eyn
eyne
eynen
eys
ez
ezaoterdig
ezel
ezo
ezzebleef
eɲɟ
eɲɟe
eɲɟen
eɾ
f
fa
faas
faber
fabriek
fabrieke
fabrikant
fac
face
facebook
facilite
faciliteite
facto
factor
factore
faculteit
faeler
faelers
faero
faeruuers
fagot
fahrenheit
failliet
fair
faith
falcon
falkland
falklandeilen
fall
falls
fame
famenne
famfaar
familie
families
family
fan
fanfaar
fanfare
fann
fanny
fans
fantasie
fantasy
far
faraday
farao
fascisme
fascistisch
fascistische
fase
fases
fasilik
faso
fast
fataal
father
faucher
fauna
favoriet
favoriete
favorite
fawŋ
faz
fc
fde
fdp
fe
fear
febriek
febrik
februari
federaal
federal
federaol
federatie
federer
fedor
fee
feel
fees
feest
feguur
fehlen
fehlt
fei
feijenoord
feit
feite
feitelek
feiteleke
feitelik
feith
fekansie
fel
fele
felis
felix
felke
felle
femielie
femielje
femieljen
femieljenaam
femieljename
femieljes
femilie
femilies
feministe
femme
fen
fenicie
fenomeen
fer
ferdinand
ferme
fermer
fermi
fernand
fernando
ferrari
ferry
festival
fet
fetsoen
fetsuundelik
fexhe
fey
feyenoord
ff
ffe
ffele
ffelike
ffen
ffende
ffer
fficie
ffie
ffing
fi
fia
fianc
fiancer
fiat
fibberwaar
fibberwari
fibberwarie
fictie
fictief
fiction
fidderaol
fidderatie
fidel
fidesz
fie
fiee
fieftig
fieftiger
fiel
field
fien
fiene
fiengeveulig
fier
fieri
fies
fiesdaag
fiet
fiets
fietse
fietser
fietsere
fietserenner
fietsers
fietsj
fietsje
fietsjepaad
fietsjer
fietsjerse
fietsrenne
fietsrenner
fifa
fight
fighters
figure
figuur
fiji
fijn
fik
fil
filantroop
files
filip
filipiene
filipijne
filipijnse
filips
fill
film
filmacteur
filme
filmkes
filmmaeker
filmmaker
filmproducent
filmregisseur
films
filoloog
filosofe
filosofie
filosofisch
filosofische
filosoof
filter
fin
finaal
final
finale
finales
finalis
financie
financieel
find
fine
finish
finland
finlandj
finnmark
finoegrische
fins
finse
finsj
fire
firma
first
fis
fischer
fit
fitserenne
fitserenner
fitzgerald
five
fj
fjo
fjodor
fjoeal
fjoeale
fjoenke
fjord
fjordane
fk
fke
fl
fla
flaaj
flaarisse
flaatse
flakkees
flanse
flat
flats
flatse
flatter
flaw
fle
fleming
fles
flesj
flesse
fletcher
flevoland
flexieadverbiaal
flight
flink
flinke
flitse
flo
flodder
floepdje
floeppe
floer
floetsje
floor
flor
flora
florence
florida
floris
flot
flotte
flotter
floyd
flu
fluit
fluite
fluor
fly
fm
fn
fo
focus
foe
foef
foek
foeksetig
foesj
foesje
foetbal
foetele
fok
fokke
fokker
folk
folklore
fonds
foneem
foneme
fonetiek
fonetisch
fonetische
fonologie
fons
fontaine
football
for
force
forces
ford
foreign
forenzeplaots
forest
form
formaat
formaot
formare
formateur
formatie
formeel
former
formule
formuleert
formuul
fors
forse
fort
forte
fortuna
fortuyn
forum
fosfor
fossiel
fossiele
foster
foto
fotograaf
fotografie
fotomodel
foucault
found
foundation
four
fout
foute
fox
fr
fra
fraanke
fraankriek
fraans
fraanse
fraanstalige
frac
fractie
fractieveurzitter
fraem
fraeze
fragaria
fragment
fragmint
fragminte
framboeas
frame
franc
franca
france
francesco
francis
francisco
franciscus
franck
franco
franeker
frang
frank
franke
frankfurt
frankfurter
frankisch
frankische
franklin
frankriek
frankrijk
franquinet
frans
franse
fransen
fransj
fransman
fransoos
fransoze
franssen
franstalige
franstaolege
franz
franzue
frapper
fraude
fre
fred
freddy
frederick
frederik
free
freedom
french
frequentie
frequint
fresco
fresno
fret
freud
fri
fricatief
fricatieve
friedrich
friends
fries
friese
friesland
frieslandj
friet
friete
frieze
frings
fris
friso
frissen
frits
fritz
fro
from
front
frontex
fronton
frotter
frowe
fru
fruit
frysla
fs
fsl
fsm
fstæ
ft
fte
ftr
fu
fuga
fukushima
full
fuller
funcionar
functie
functies
function
functioneel
functioneert
functionere
fundamente
fundamenteel
fundering
fungeert
funk
funktie
funs
fur
fuseerde
fusere
fusie
fusiegeme
fusiegemeinte
fusies
fusionering
fusionner
futurum
fvd
fw
fy
fylke
fysica
fysicus
fysiek
fysieke
fysioloog
fysische
fz
fæ
fɒ
fɔ
fə
fər
fɛ
fɣ
fɪ
fʉ
g
ga
gaaf
gaal
gaan
gaank
gaans
gaanse
gaar
gaard
gaaroet
gaas
gaasturbine
gaasvo
gaat
gabon
gabrie
gabriel
gaddafi
gadj
gae
gaederwaordj
gaee
gaef
gael
gaeld
gaele
gaelechtig
gaelic
gaelsig
gaen
gaer
gaers
gaes
gaestig
gaet
gaete
gaeten
gaeve
gaeven
gaevendj
gaeze
gaf
gaff
gaga
gagarin
gagner
gair
gaius
gal
gala
galblaos
galdere
galer
galerie
gales
galg
galgeberg
galicie
galicisch
galilei
galileo
galiser
galle
gallia
gallie
gallisch
gallische
gallo
galop
gama
gambia
game
gamma
gan
gandhi
gang
gangbaar
gangelt
ganges
gangneung
gank
gans
ganse
gansen
gansewinkel
gao
gaods
gaof
gaoje
gaon
gaontj
gaos
gaot
gaove
gape
gar
garci
garcia
garde
garden
gare
gares
garfield
garnizoen
garonne
garros
gary
gas
gashoes
gasland
gaslandj
gast
gaste
gastel
gastes
gaston
gat
gate
gater
gates
gaulle
gauw
gaw
gaws
gay
gaza
gd
gde
gdje
ge
gea
geaccepteerd
geach
geallieerde
geannexeerd
gearchiveerd
gearresteerd
geassimileerd
geassocieerd
geb
geba
gebak
gebakke
gebakken
gebaoe
gebaoge
gebaoje
gebaordje
gebaore
gebaoren
gebaorte
gebaseerd
gebaseerde
gebaseerdj
gebasseerd
gebed
gebede
gebeed
gebeeje
gebeet
gebeie
gebeje
gebejendje
gebejer
geben
gebeurd
gebeurde
gebeurdj
gebeurdje
gebeure
gebeuren
gebeurt
gebeurtenis
gebeurtenisse
gebeurtj
gebi
gebied
gebiede
gebieden
gebiee
gebirgde
gebirgdes
gebleke
gebleve
gebleven
geblokkeerd
gebo
geboare
gebod
gebode
geboedj
geboetsj
geboew
geboewd
geboewde
geboewdj
geboewe
geboewer
gebombardeerd
geboonde
geboorte
gebore
geboren
gebouw
gebouwd
gebouwe
gebrach
gebraek
gebraoje
gebraoke
gebrek
gebreurs
gebroe
gebroek
gebroekd
gebroekde
gebroekdje
gebroeke
gebroekelik
gebroekelike
gebroeken
gebroeker
gebroekers
gebroekersportaol
gebroekt
gebroektj
gebroke
gebrook
gebruik
gebruke
gebrukelek
gebrukeleke
gebrukelik
gebruker
gebruuk
gebruukde
gebruukt
gebue
gebundeld
gebuuwke
gechte
geciteerd
geclaimp
geclassificeerdj
gecombineerd
gecomponeerd
geconcentreerd
gecontroleerd
gecoo
gecorrigeerd
gecree
geda
gedach
gedachte
gedachtegood
gedachten
gedachtenis
gedan
gedaon
gedateerd
gede
gedeelte
gedeend
gedeenstig
gedefinieerd
gedefinieerde
gedeild
gedeilde
gedeildj
gedeilte
gedeiltelek
gedeiltelik
gedeiltes
gedemonstreerd
gedeputeerde
gedetailleerde
gedich
gedicht
gedichte
gedichten
gediech
gediechte
gediechter
gedinke
gedo
gedoad
gedoan
gedoed
gedoee
gedoerende
gedoerendje
gedomineerd
gedoon
gedoons
gedraag
gedrag
gedrage
gedragen
gedrejd
gedrejdj
gedreve
gedro
gedroonke
gedrue
gedruueg
gedruuegdje
geduip
gedurende
geduujdj
gedwo
gedwonge
gedwoonge
gee
geef
geeft
geej
geel
geen
geer
geert
gees
geest
geet
geetiezere
gef
gefok
geformeerd
gefuseerd
gegaange
gegaete
gegaeve
gegaeven
gegaeves
gegange
gegangen
gegaon
gegaove
gegee
gegete
gegeve
gegeven
gegeves
gegraove
gegrave
gegreujd
gegro
gegrundj
geh
gehaaje
gehad
gehadj
gehaje
gehajen
gehak
gehalde
gehandjhaaf
gehange
gehanteerd
gehaold
gehaoldj
gehaowe
gehauwe
gehawte
gehawwe
gehee
geheel
geheim
geheime
geheimsa
geheimzinnig
geheite
geheuge
gehie
gehiee
gehiel
gehiemeld
gehiemelde
gehinjerd
geho
geholpe
gehoute
gehouwe
gehouwte
gehuch
gehuchske
gehucht
gehuchte
gehuchter
gehuuer
gehuuerd
gehuuerdj
gehuuere
gehuur
gehuurd
gei
geilekirke
geilik
gein
geine
geinen
geis
geisdriftig
geiselik
geiselike
geiste
geistelek
geisteleke
geistelik
geistelike
geistelikke
geister
geit
geite
geiteme
geiten
geiter
geitj
gej
gejaag
gek
geka
gekald
gekaldj
gekaok
gekaoze
gekap
geke
gekeke
gekind
gekinmerk
gekinmirk
gekke
gekle
gekleid
gekleurd
gekleurde
gekluuerdj
gekluuerdje
geko
gekoch
gekoloniseerd
gekomme
gekopieerd
gekoppeld
gekos
gekoume
gekoze
gekrege
gekregen
gekrenkdje
gekrenkdjes
gekroand
gekroend
gekruje
gekweek
gel
gelaank
gelaat
gelach
gelaeg
gelaege
gelaegen
gelaeje
gelaen
gelaenbaek
gelaenge
gelaengen
gelaens
gelaense
gelaeze
gelag
gelaje
gelanceerd
gelangentied
gelaoge
gelaote
geld
gelde
gelder
gelderland
gelderlandj
geldermalsen
gelders
gelderse
geldj
geldjbedraag
geldt
gele
gelee
geleef
geleefde
geleefdje
geleen
gelege
gelegeheid
gelegenheid
geleid
geleidelek
geleie
geleielik
geleije
geleje
gelek
geleuf
geleverd
geleze
gelidpuuetige
gelie
geliee
geliek
gelieke
geliekenis
geliekheid
gelieknamig
gelieknamige
gelieknaomeg
gelieknaomege
gelieksa
geliekspeul
geliend
gelierd
gelierde
gelieverd
gelik
gelink
gelitterdjheid
gelje
geljig
gelle
gelo
gelouf
geloupe
gelre
gelt
gelu
geluid
geluide
geluif
geluifde
geluive
geluivege
geluivige
geluk
gelukkig
gemaak
gemaakdje
gemaakt
gemaaktj
gemaete
gemak
gemakd
gemakt
gemaldj
gemale
gemaoteg
gemaotegde
geme
gemeensjap
gemeente
gemeenten
gemein
gemeind
gemeinde
gemeindje
gemeine
gemeinebe
gemeinelek
gemeinelik
gemeinlik
gemeinsjap
gemeinsjappe
gemeinsjappelek
gemeinsjappeleke
gemeinsjappelik
gemeinsjappelike
gemeint
gemeinte
gemeinteatlas
gemeintecode
gemeintegrenze
gemeintehoes
gemeinteleke
gemeintelike
gemeinteraod
gemeinteraodsverkezinge
gemeintes
gemeintesgewijs
gemejnte
gemekelek
gemekeleker
gemekkelik
gemeld
gemert
gemete
gemiddeld
gemiddelde
gemiddeldj
gemiddeldje
gemiee
geminde
gemingde
gemingdes
gemingk
gemini
gemis
gemmenich
gemood
gen
gena
genaamp
genade
genadig
genaesko
genaeze
genageld
genaome
genaomp
gendj
gene
geneeskunde
geneet
gener
generaal
general
generaol
generar
generatie
generaties
generation
generator
genersval
genesen
genesis
genete
geneticus
genetisch
genetische
geneumd
geneumde
geneumdje
geneump
geneze
geng
genhout
genie
geniee
genitief
genius
genk
genketig
genne
gennep
genneps
geno
genocide
genoea
genoeg
genoetsjappe
genog
genome
genomen
genomineerd
genomme
genoog
genoom
genootschap
genot
genoteerd
genoveva
genp
genre
genres
gent
genua
genumd
genump
genumpdj
genumt
genus
geo
geograaf
geografie
geografisch
geografische
geography
geologie
geologisch
geologische
geoloog
geopend
georg
georganiseerd
georganiseerde
georganiseerdj
george
georges
georgia
georgie
georgisch
georgische
georie
gepak
gepaotj
gepas
geperbeerd
geperduceerdj
geplaats
geplaatsj
geplaeg
gepland
geplande
geplant
geplaog
geplaots
gepleeg
geplek
gepliee
geplo
geplunderd
gepraot
gepresenteerd
gepreze
geprobeerd
geproduceerd
geproduceerdj
gepromoveerd
gepubliceerd
ger
geraak
geraekend
geraekendj
gerais
gerald
geraniejums
gerard
gerardus
gerd
gere
gerealiseerd
gerech
gerechshof
gerechte
gereconstrueerd
gered
gereduceerd
gereformeerde
geregeerd
geregeld
geregeldj
geregistreerd
gereguleerd
gerei
gereid
gereidsjap
gereit
gereje
gerekend
gerelateerd
gerenoveerd
gerestaureerd
gerete
gerhard
gerhardt
gerich
geriech
geriee
geriegierd
gering
gerippereerd
gerlach
gerlachus
germaans
germaanse
german
germane
germania
germanium
germer
gerne
gero
gerope
gerrit
gers
gert
gertj
gertrudis
geruchte
gerund
gerunde
gerundium
ges
gesach
gesagen
gesant
geschichte
geschiedenis
geschreve
geschreven
geselecteerd
gesellen
gesitueerd
gesjaope
gesjaote
gesjat
gesje
gesjef
gesjeie
gesjeije
gesjiechte
gesjiedenis
gesjiee
gesjik
gesjilderd
gesjink
gesjlach
gesjlage
gesjlaoe
gesjlaote
gesjloop
gesjlote
gesjo
gesjors
gesjote
gesjpeeld
gesjpeld
gesjpraoke
gesjproke
gesjraeve
gesjreve
gesjreven
gesjriee
gesjrif
gesjrifte
gesjro
gesjtange
gesjtart
gesjte
gesjteente
gesjtege
gesjteund
gesjtich
gesjticht
gesjtiech
gesjto
gesjtop
gesjtorve
gesjtump
geslach
geslachte
geslage
geslagen
geslaote
gesle
geslech
geslechte
geslechtelike
gesloop
geslote
gesmete
gesmo
gesneje
gespa
gespanne
gespaord
gespe
gespecialiseerd
gespecialiseerde
gespeeldj
gespeuld
gesplete
gesplits
gespraek
gespraoke
gespraoken
gespre
gesprek
gesprekke
gespro
gesproke
gestaldj
gestande
gestanderdiseerdje
gestaoke
gestaole
geste
gestege
gesteund
gestich
gestiech
gestiedeg
gestiedegaon
gestif
gesto
gestop
gestorve
gestra
gestump
get
getaal
getal
getale
getalle
getan
gete
geteeld
geteikend
geteikendj
getes
getieje
getiteld
geto
getongk
getraoje
getro
getroch
getroffe
getroffen
getrojd
getrokke
getrouwd
getrouwdj
getuge
getuige
getuind
getuug
geu
geuf
geujer
geul
geuldal
geulem
geunt
geur
geure
geurts
gevaange
gevaangenis
gevaar
geval
gevalle
gevallen
gevang
gevange
gevangen
gevangene
gevangenis
gevangenissjtraof
gevangesjap
gevaor
gevare
gevaren
geve
gevech
gevechte
geveerd
gevel
geven
gevesteg
gevestig
gevestigd
geveug
geveujd
geveul
geveuleg
geveules
geveulig
geveulsmiee
geveurd
geviee
gevierd
gevierlek
gevlaoge
gevlo
gevlochte
gevo
gevochte
gevoed
gevolg
gevolgd
gevolge
gevolgen
gevonden
gevonge
gevonje
gevoog
gevoonde
gevoonte
gevra
gevraog
gewaardeerd
gewach
gewaer
gewaere
gewaes
gewaeze
gewaldj
gewan
gewant
gewaore
gewaoren
gewas
gewasse
gewassen
gewe
gewee
gewees
geweest
geweigerd
geweld
gewelddadige
geweldig
geweldj
gewerf
gewervelde
gewes
geweste
gewete
geweun
geweunlik
geweure
geweze
gewich
gewichtig
gewiech
gewied
gewiedj
gewiejd
gewijd
gewindj
gewinnen
gewins
gewirk
gewo
gewoare
gewoee
gewoen
gewoene
gewond
gewonde
gewonden
gewone
gewonne
gewoon
gewoond
gewore
geworen
gewuuen
gewuuendje
gewuuene
gewuuenlik
gezach
gezaete
gezag
gezameleke
gezamelik
gezamelike
gezat
gezatj
gezatte
geze
gezeen
gezellig
gezelsjap
gezet
gezete
gezich
gezicht
geziech
geziee
gezien
gezin
gezinne
gezinsgruutte
gezo
gezoch
gezonge
gezoond
gezoondheid
gezoonge
gezwank
gezwo
gg
ggd
gge
ggele
ggen
ghana
ghe
ghedaen
ghenade
gherne
ghesellen
gheuen
ghewalt
ghi
ghij
ghijsen
ghilde
ghinck
gi
gia
giacomo
gian
giant
gibraltar
gids
gie
giee
gief
gienc
gier
gierig
giessendam
giessenlanden
giet
gietere
gietsig
gif
gift
giftig
giftige
gigantische
gij
gijs
gijsen
gik
gil
gilbert
gilde
gilles
gilt
gilze
gime
gin
ginc
ging
ginge
gingen
ginkgo
ginne
ginneken
ginneraal
ginneraasje
ginneraol
gio
gion
giorgio
giorgos
giovanni
girl
girls
giro
gis
gish
gistel
gister
gitaar
gitaris
gitarist
giulio
giuseppe
give
givet
gk
gkde
gke
gkeme
gken
gker
gkestrank
gkgaon
gking
gkko
gks
gktre
gla
glaad
glaas
glabbek
glad
glaeske
glandj
glans
glanze
glanzendj
glas
glasgow
glass
glaze
glazer
glazere
gle
gled
gledsig
gleis
glen
glenn
gletsjer
gletsjers
gleuf
glich
gliek
gliese
glo
globaal
global
globaol
globe
gloria
glorie
glose
glosse
glottaal
glottisslaag
glouf
glu
glui
gluif
gluive
gluivig
gn
gne
gnu
go
goa
goal
goan
goat
god
goddeleke
gode
goden
godes
godfried
godin
gods
godsdeens
godsdeenstig
godsdeenstige
goeaj
goeaje
goed
goede
goeden
goedere
goedereede
goee
goeje
goeree
goeroe
goes
goet
goethe
goetsje
goeverna
goeyvaerts
goezze
gogh
goia
goids
goje
gojekoup
gojen
gojendaag
gokke
gol
gold
golde
golden
goldj
gole
golf
golflingdje
golfoorlog
golje
golve
golvend
gombert
gon
gone
gong
gonge
good
gooddeils
goodgeka
goodgluivig
goodka
goodkinne
goods
goof
google
gooi
gooie
gooise
gooj
gooje
gool
goon
goonsdag
goonsdig
goonsdigtemiddig
goonsdigtenaovendj
goor
goossens
goot
gorbatsjov
gordel
gordon
gore
gorilla
gorinchem
gorter
gosiller
got
gote
gothic
gotiek
gotisch
gotische
gottfried
gou
goud
gouda
gouden
gould
gouverna
gouvernement
gouvernemint
gouverneur
gouw
gouwe
gov
gove
government
goya
gp
gr
gra
graad
graaf
graafland
graafschap
graafsjap
graafstroom
graag
graan
graas
graasj
graaslandj
graat
grace
grach
grachte
grade
graf
graff
graficus
grafiek
grafisch
graft
graham
gram
grammair
grammatica
grammaticaal
grammaticaol
grammatikaal
gran
granaat
granada
grand
grande
graniet
grant
graod
graode
graof
graofsjap
graofsjappe
graoje
graot
graove
grap
gras
grass
gratem
gratigner
gratis
grauwert
grave
graven
graver
gravin
graw
grawwert
gray
graze
gre
great
greatest
greek
greekse
green
greep
greet
greg
gregoriaanse
gregorius
gregory
grei
grekelandj
grel
grelletig
grellig
grenada
grenadines
grens
grensgebeed
grenst
grenze
grenzend
grenzendj
greui
greuide
greuj
greujciefer
greujde
greuje
greujende
greujt
greun
greune
greuninge
greunland
greunlandj
greunsig
greunte
greutj
grevenmacher
grevors
gri
grie
grieke
griekeland
griekelandj
griekenland
griekkelandj
grieks
griekse
grieksen
griekstaolege
griendsveen
griene
griep
griepe
gries
grieze
griffith
grika
grimm
grindj
grip
gro
groat
groatdeils
groate
groatendeils
groater
groatere
groathertog
groatse
groatste
groe
groeasmechtig
groeat
groeate
groeaten
groeatheid
groeatmechtig
groeatste
groeatvader
groee
groen
groene
groenlinks
groep
groepe
groesbeek
groet
groetdeils
groete
groeten
groetendeils
groeter
groetere
groets
groetse
groetsjaolege
groetste
groetsten
groeve
grof
grond
gronder
grondj
groninge
groningen
groninger
gronings
groningse
gronsveld
groof
groond
groondgebeed
groondle
groondslaag
groondwe
groonsveld
groop
groot
groote
grootste
grope
gros
grosso
grot
grote
groten
groter
grotste
grotte
group
groz
groze
gru
grue
gruj
grujje
grujtj
grun
grunberg
grunj
grunjig
grus
gruuedje
gruuen
gruuetdje
gruuets
gruup
gruus
gruutde
gs
gske
gskes
gste
gt
gte
gu
gua
guadeloupe
guam
guarani
guardian
guatemala
gubernare
gude
gudik
gue
guf
guido
guillaume
guilty
guinea
guinee
gulden
guldj
gulik
gulp
gulpe
gulpen
gulpener
gulpesj
gum
gun
gunne
guns
gunste
gunstig
gunstige
gunther
gur
gussenhoven
gustaaf
gustare
gustav
gustave
gut
gutturalisering
guue
guuef
guuf
guus
guy
guyana
gymnasium
gyo
gyrare
h
ha
haa
haachel
haad
haadbaar
haaf
haafroond
haag
haags
haagse
haaj
haaje
haam
haamsjeut
haan
haand
haange
haant
haar
haard
haaren
haarlem
haarlemmermeer
haarzuilens
haas
haasdal
haasse
haat
habe
haben
habermas
habets
habit
habsbo
habsburg
habsburgers
habsburgse
had
hadde
hadden
hadj
hadrianus
hads
hae
haee
haej
hael
haeld
haelder
haels
haemb
haen
haer
haerle
haerlen
haers
haervoge
haes
haesitare
haet
haetj
haezelig
hafnium
hagel
hagen
hai
haiku
hainaut
hair
haj
hajding
haje
hajen
hajendj
hajing
hajje
hak
haki
hakke
hal
halde
hale
halen
hales
half
halfro
hall
halle
hallstein
halm
hals
halt
halte
halve
halven
halveringstied
halverwaeges
ham
hamas
hambo
hamburg
hamburger
hamer
hamilton
hampele
hampshire
hamster
han
hand
hande
handel
handele
handelere
handeling
handelinge
handelsblad
handelsplaots
handelt
handen
handj
handjteikening
handjvat
hands
handsjrif
handves
hane
hang
hange
hangen
hangendj
hanj
hanjel
hanjeldje
hanjele
hanjelen
hanjeliee
hanjeling
hanjelinge
hanjelingen
hanjeltj
hank
hannes
hannese
hannibal
hannover
hans
hansen
hant
hanteerde
hanteert
hantere
hanze
hao
haoe
haof
haog
haoj
haoje
haok
haol
haolde
haolden
haoldje
haole
haolen
haolt
haoltj
haop
haope
haor
haore
haoren
haors
haorster
haorsters
haos
haowe
hap
happart
happe
happy
har
harald
haram
harbor
hard
harde
hardenberg
harderwijk
hardinxveld
hardrock
hardy
hare
haren
harie
harings
harm
harmonie
harold
harp
harrie
harris
harrison
harry
hart
harte
hartsje
harvard
harvey
has
hasa
hasi
haso
hasoki
hasosa
hasosi
hasoso
hasoya
haspegouw
haspengouw
hassan
hasselt
hast
hat
hate
hauf
haus
haut
haute
hauts
hauve
hauw
hauwe
have
havegebeed
havel
havelaar
haven
haver
havert
haves
havesjtad
havestad
havo
haw
hawai
hawaii
hawk
hawwe
hawwen
hawwend
hawwing
hay
haya
haydn
haze
hazel
hazes
hbo
hbs
hdi
he
hea
head
health
heart
heat
heavy
heb
hebbe
hebben
hebbet
hebreeuws
hebreeuwse
hebriee
hebt
hech
hechte
hectaar
hectare
hector
hedde
heden
hedmark
hee
heeft
heeg
heej
heel
heela
heelt
heem
heemkundevereiniging
heemskerk
heemstede
heen
heer
heere
heeren
heerenveen
heerle
heerlen
heerles
heers
heersde
heerser
hees
heesj
heet
heeze
heffe
heftig
heftige
hegel
heh
hei
heibei
heibij
heibloom
heibove
heid
heide
heiden
heidense
heideroosjes
heidoor
heie
heights
heij
heijenrath
heijmans
heijn
heil
heile
heileg
heilege
heilegedaag
heilig
heilige
heiligedaag
heiligen
heilighe
heilighen
heim
heime
heimko
hein
heinao
heine
heineken
heineve
heinric
heinrich
heinsberg
heintje
heinz
heioonder
heir
heis
heisj
heisje
heist
heit
heite
heitse
heivaan
heives
heiveur
hej
hejje
hek
heks
hekse
hektaar
hel
held
helde
helden
helder
helderheid
heldj
hele
helemaal
helen
helena
helenaveen
helf
helft
helheid
helikopter
helikopters
helium
helje
heljer
hell
hella
helle
hellen
heller
helling
hellingbo
hellinge
hells
helm
helmond
helmut
help
helpe
helpen
helper
hels
helsinki
helsjtein
helsjteine
helste
helt
hem
heme
hemel
hemellief
hemelvaart
hemfelke
hen
hendeg
hendig
hendrick
hendrik
hendriks
hendrix
henegouwe
heng
hengelo
henj
henjig
henk
henny
henri
henricus
henrie
henriette
henrik
henry
heppetig
her
hera
herald
heraldisch
heraldische
heraldry
heraldrywiki
herberg
herbert
herboewd
hercegovina
herdach
herde
herder
herdisse
here
heren
herf
herfs
herfst
herge
herhaold
herindeiling
herindeilinge
herinjere
herinjering
herinnere
herinnering
herinnert
herk
herke
herkinbaar
herkinne
herko
herkriege
herman
hermann
hermans
hermenie
hermeniekes
herneump
hero
heroes
heroi
herre
herren
herrevleeso
herrie
herschel
herses
hersjte
herstal
herste
hert
hertdriftig
herte
herten
hertigdo
hertog
hertogdo
hertogdom
hertoge
hertogenbosch
hertogh
hertogin
hertz
herve
hervo
herz
herze
herzeen
herzegovina
herzogenrath
hess
hesse
hessels
hessen
het
hete
heten
hette
heu
heue
heuet
heugde
heugem
heugte
heuj
heuje
heuk
heur
heurde
heure
heures
heurt
heusden
heuvel
heuvele
heuvelland
heuvellandj
heuvelro
heuvels
hevig
hevige
hg
hh
hi
hie
hiebaove
hiebie
hiebiej
hiedoor
hiee
hiej
hiejbiej
hiejdoor
hiejin
hiejmit
hiejnao
hiejvan
hiejveur
hiel
hielal
hielemaol
hieme
hiemel
hiemelde
hiemele
hiemelliechaam
hiemit
hienaeve
hienao
hieo
hier
hiere
hierevoetbal
hierevoetbale
hierke
hierlekhede
hierlekheid
hiero
hierop
hiers
hiersjappij
hiet
hievan
hieveur
hiez
high
hij
hijj
hijs
hijse
hijt
hik
hikke
hildegard
hill
hillary
hillegersberg
hillige
hills
hilt
hilversum
him
himalaya
hin
hindbe
hindeloopers
hindenburg
hindi
hindoei
hindoes
hing
hinge
hingk
hings
hinj
hinjere
hinjerlik
hink
hinne
hinnen
hinrik
hinsberg
hip
hipulik
hirkebo
hirs
hirt
his
hispaniola
histoire
historic
historici
historicus
historie
historisch
historische
history
hit
hitler
hits
hitsig
hitte
hittitisch
hiəŋ
hja
hjo
hki
hl
hla
hle
hlen
hler
hli
hlo
hloki
hlosa
hlosi
hloso
hloya
hma
hmel
hmi
hmiha
hmihaka
hmihako
hmihasi
hmihaso
hmihi
hmiho
hmika
hmiko
hmisi
hmiso
hmme
hmo
hn
hne
hnge
ho
hoa
hoag
hoage
hoager
hoagfie
hoaglee
hoagste
hobby
hobo
hoch
hockey
hockeyer
hoe
hoeag
hoeage
hoeagen
hoeager
hoeaghertig
hoeaghollandjs
hoeagle
hoeagnuuedig
hoeagste
hoeagwater
hoeb
hoebbelig
hoed
hoee
hoeg
hoegduits
hoegduitse
hoege
hoegen
hoeger
hoegere
hoegland
hoegoet
hoegs
hoegste
hoegte
hoei
hoek
hoeke
hoeksche
hoekse
hoekstra
hoem
hoen
hoensbroeck
hoensbroek
hoera
hoert
hoes
hoesdeer
hoeshaje
hoeshajes
hoesmo
hoessein
hoeva
hoeve
hoeveelheid
hoeven
hoewaal
hoeze
hoezer
hof
hoff
hoffman
hoffmann
hoge
hogeland
hoger
hogere
hoi
hoj
hok
hol
hold
holde
holden
hole
holla
holland
hollande
hollander
hollandj
hollandjs
hollands
hollandsche
hollandse
hollandsen
holle
holleeder
hollenders
hollendsj
hollendsje
hollenjer
holles
hollese
hollesj
hollesje
hollywood
holocaust
holst
holstein
holt
holten
home
homepage
homerus
homme
hommerig
homo
homofoon
homogeen
homohoewelik
homohouwelek
homoseksualiteit
homoseksueel
homoseksuele
hon
hond
honderd
honduras
hong
hongaars
hongaarse
hongare
hongariee
hongarieje
hongarije
hongkong
honing
honkbal
hood
hoof
hoofartikel
hoofd
hoofde
hoofdialekte
hoofdje
hoofdstad
hoofeiland
hoofgeboew
hoofkerteer
hoofle
hoofplaats
hoofplaots
hoofrol
hoofrolle
hoofs
hoofsjtad
hoofsjtaejelik
hoofstad
hoofste
hoofstei
hoofsto
hooft
hoog
hoogeveen
hoogste
hoogvliet
hook
hool
hoon
hoond
hoonder
hoonderd
hoonderde
hoongersnoed
hoop
hoor
hoorn
hoort
hoorte
hoos
hooste
hoot
hoover
hop
hope
hoppe
hor
hordaland
horde
hore
horeca
horen
hores
horetig
horizon
horizons
horizontaal
horizonte
horloge
horn
horne
horrichs
hors
horse
horst
horta
hortatief
hortig
hosni
hospitaal
hospital
hospitaol
hostie
hot
hote
hotel
hotels
hotspur
hou
houben
houblierik
houden
houdt
houf
houfke
houfle
houfplaats
houfsjtad
houfstad
houfte
houfzakelik
houfzats
houp
house
houston
hout
houte
houtechtig
houtem
houtems
houten
houtere
houthem
houtskaol
houtsniejkuns
houw
houwe
houwelek
hove
hoven
how
howard
howwe
hr
hrd
hre
hren
hro
hrung
hs
ht
hte
htm
html
http
https
hu
hua
hub
hubbe
hubble
hubers
hubert
hubertus
hubə
hudige
hudson
hue
huegte
huffington
hugenote
hugh
hughes
hugo
huhn
hui
huid
huidege
huidige
huidsjtad
huieg
huiege
huipe
huis
huitj
huizen
huj
hujig
hujige
hujigen
hukke
hukkelhaove
hulde
hule
hulp
hulpdeenste
hulpdeensten
hulpe
hulpmiddel
huls
hulsberg
hulst
hum
human
humanis
humboldt
humor
humoristisch
hun
hundred
hunen
hung
hungerig
hunne
hunnen
hunsel
hunsru
hunt
hup
hure
hus
hut
hutu
huub
huud
huue
huuegdje
huuege
huuer
huuerbaar
huuerdje
huuere
huueren
huuers
huuert
huuertj
huug
huugde
huugdepunt
huuj
huur
huurbaar
huurde
huure
huurt
huus
huuske
huutsedaag
huvere
huwelik
huy
huygens
huyn
huys
huysmans
hve
hy
hya
hybride
hygie
hypothees
hæ
hæpe
hær
hø
hœ
hɒ
hɒr
hɛ
hɪ
hʉ
hʊ
i
ia
iacere
ian
iana
iberisch
ibn
ibrahim
ic
ice
ich
ick
id
ida
idaho
idanu
idder
idderein
ide
ideaal
ideale
ideaol
ideaole
idee
ideee
ideeje
ideg
idem
identiek
identificere
identite
identiteit
ideologie
ideologische
idig
idioom
ido
idoch
idstad
ie
iech
ieder
iedere
iedereen
iederien
iee
ieferig
iefrig
iejer
iel
iemand
iemes
ien
iene
ieper
ier
ierder
iere
ieredevisie
ierland
ierlandj
iers
ierse
iersjte
ierst
ierste
iersten
ierstens
ies
iesberg
ieshockey
ieshockeycentrum
ieskap
ieskas
iesland
ieslandj
ieslandjs
ieslandjsj
ieslands
ieslandse
ieste
iestied
iesziee
ietot
iets
ieuw
iew
iewe
iewelaank
iews
iewse
iezer
iezerbaan
iezere
iezertied
iezig
if
ig
ignorer
igor
ii
iii
iiii
ij
ijmuiden
ijs
ijssel
ijsselmeer
ijsselmonde
ijsselstein
ijzer
ik
ikkenemie
ikkenomie
ikkenomisch
ikkenomische
il
iljitsj
ille
illegaal
illegale
illegaol
illeminte
illinois
illuminare
illustraties
illustrator
im
imaaba
image
imaginair
imago
ime
imf
imiter
imkamp
immanuel
immer
immigrante
immigratie
imp
imperatief
imperfectum
import
importare
importe
impressionisme
imprio
impuls
in
ina
inaome
inbele
inbringe
incident
incidente
incidenteel
inclusief
incompleet
ind
inde
indeg
indegde
indege
indeile
indeiling
indeilinge
indeks
indelek
indeling
inden
indene
independence
independent
inder
inderdaad
inderdaod
index
india
indiaanse
indiaas
indiana
indiane
indiaone
indiase
indicatief
indie
indiekke
indig
indiquer
indirek
indisch
indische
indischen
individu
individue
individueel
individuele
indj
indjhaove
indo
indochina
indogermaans
indogermaanse
indonesia
indonesie
indonesisch
indonesische
indro
indus
industrie
industrieel
industriegebeed
industriestad
industrieterrein
ine
inein
ineinvalle
ineinzitte
infectie
infecties
infermaasje
infermasie
infinitief
inflatie
info
informatica
informaticus
informatie
information
informeel
informer
infraklas
infrastructuur
ing
ingaank
ingank
ingaon
ingber
inge
ingedeild
ingedeildj
ingeit
ingeklemp
ingel
ingeland
ingelandj
ingele
ingelechtig
ingelief
ingels
ingelse
ingelsen
ingelsj
ingelsje
ingelstaoleg
ingelstaolege
ingenieur
ingeno
ingenome
inger
ingerich
ingeriech
ingesjreve
ingesjte
ingeste
ingeveurd
ingewikkeldj
ingezat
ingezatj
ingredie
ingrid
ingriepe
ingriepend
ingriepende
ingste
ingweoons
ingweoonse
inhaad
inhaajd
inhaje
inhaole
inhawd
inhe
inheemse
inheims
inheimse
inheimsj
inheimsje
inhoud
initiale
initiatief
inj
injig
injured
ink
inkel
inkele
inkelvaad
inkelvaadj
inkelvaaje
inkelveljig
inkelveljige
inkelveljigen
inkelvoud
inko
inkomste
inleiding
inleiing
inlichte
inmake
inmiddels
inn
inname
inne
innegste
innemee
innen
inner
innerlik
innerzjie
innig
innige
innocentius
innovatie
innumme
inonder
inplaats
inrichting
ins
inscriptie
inscripties
insecte
insegs
insegste
insek
insekte
inside
insight
insigste
insister
insjrieve
insjte
inslaag
inspanning
inspanninge
inspecter
inspiratie
inspirere
instabiel
instansje
instantie
inste
insterment
institut
institute
instituut
insto
instrieke
instrument
instrumentalis
instrumint
instruminte
instumme
int
intak
inte
integraol
integratie
integrere
intellectueel
intellectuele
intelligent
intelligentie
intens
intensief
intensiteit
inter
interbellum
intercity
interessant
interesse
interieur
interim
interland
intern
internasjenaal
internasjonalspelling
internationaal
international
internationale
internationaol
internationaole
interne
internet
interpretatie
intersant
interventie
interview
interviews
intimidatie
intjhaove
into
intre
intresse
introduceerde
introduceert
introductie
intui
inuit
inuktitut
inval
invalle
invasie
inve
inversie
investeerder
investeringe
inveure
inveuring
invlode
invloed
invlood
invlooj
invo
inw
inwe
inweuners
inweunersj
inwoe
inwoeaners
inwoeanersaantaal
inwoee
inwoener
inwoeneraontal
inwoeners
inwoenertal
inwoenertalle
inwoners
inwoonder
inwoonders
inwue
inzake
inzat
inze
inzeen
inzich
inzicht
inziech
inziechte
inzitte
inzittende
inzittendje
inzjenieur
ioc
ion
ionisch
ionische
iowa
ip
ipa
ipv
iq
ir
ira
iraakse
iraan
iraans
iraanse
irak
irakese
iran
iraq
ire
iren
irene
iridium
iris
irish
irma
irn
iron
ironie
ironisch
is
isa
isaac
isabel
isabella
isbn
isch
ise
isi
isidorus
isil
isis
isla
islam
islamic
islamistische
islamitisch
islamitische
island
islands
iso
isoglos
isoglosse
isolatie
isolere
isotoeape
isotoop
isotope
israe
israel
israelische
iss
ist
istanboel
istanbul
it
ita
itaalje
italia
italiaans
italiaanse
italiaansen
italiane
italiaone
italiaons
italiaonse
italie
italien
italische
iteljaans
itj
its
itter
ittere
ittervoort
itu
itʃe
iu
iv
iva
ivan
ivo
ivvels
iwue
ix
iz
iŋ
iəŋ
j
ja
jaap
jaar
jaarboek
jac
jach
jack
jackie
jackson
jacob
jacobs
jacobus
jacques
jaeger
jaer
jage
jagen
jager
jaguar
jah
jailed
jak
jakarta
jakkere
jakob
jakə
jamaica
james
jan
jane
janeiro
janke
janna
jannewaar
jannewari
jannewarie
jans
janse
jansen
janssen
januari
janus
jao
jaobik
jaoge
jaomer
jaor
jaorbook
jaore
jaorege
jaorelaank
jaorelang
jaorelank
jaoren
jaorig
jaorige
jaorleks
jaorlekse
jaorliks
jaorlikse
jaors
jaortal
jaorte
japan
japanners
japans
japanse
japansen
japansj
jar
jaren
jarige
jas
jason
jasse
jat
jatse
java
jazeera
jazz
jazzmusicus
jazzmuzikant
jazzpianis
jc
jd
jde
je
jean
jeanne
jeannet
jecter
jeder
jedere
jederein
jee
jef
jeff
jefferson
jeffrey
jegers
jeh
jehova
jeikik
jeker
jel
jeleide
jelle
jellekerke
jellekerker
jeltsin
jeme
jemen
jemingde
jen
jendj
jenj
jennifer
jenny
jens
jeppe
jer
jeremy
jero
jeroen
jerome
jerry
jers
jersey
jerusalem
jeruzalem
jes
jesse
jessy
jesu
jesus
jet
jeu
jeug
jeugd
jeugprins
jeuk
jeuke
jeuner
jezes
jezui
jezus
jeɲɟ
jeɲɟe
jg
ji
jia
jiddisch
jie
jiee
jig
jige
jij
jim
jimmy
jin
jing
jiəŋ
jje
jjen
jjendj
jjendje
jjer
jjing
jn
jo
joa
joachim
joadse
joan
joannes
joar
joare
joasters
job
jobs
jochem
jocus
jode
joe
joeas
joed
joeddasse
joede
joededom
joeds
joedse
joegoslavie
joegoslavische
joeks
joen
joep
joeri
joets
joetse
joezep
joh
johan
johann
johanna
johannes
john
johnny
johnson
joint
joke
joker
jokers
jon
jonas
jonathan
jones
jong
jonge
jongen
jonger
jongere
jonges
jongste
jonk
jonkhe
jood
joods
joodse
joonge
joonger
joongere
joonk
joop
joost
joosten
jordaan
jordan
jordanie
jordi
jorge
joris
jos
jose
josef
joseph
josephine
joshua
jou
jouer
joule
jour
journaal
journal
journalis
journalist
journaliste
journalists
joyce
jozef
joʊ
jpg
jr
jroee
jt
ju
juan
jubileum
judas
jude
judith
judoka
juffrouw
jufvrouw
jui
juito
juitob
juitobo
juitobs
juitobso
juitof
juitofs
juitofso
juitol
juitolo
juitols
juitolso
juitom
juitomo
juitoms
juitomso
juiton
juitono
juitons
juitonso
juitor
juitors
juitorso
juitos
juitoso
juitoy
jules
juli
julia
juliaanse
julian
juliana
julianakanaal
julie
julien
julius
jullie
july
jummers
juncker
june
jung
jungske
juni
junie
junior
juniore
juno
junta
jupiter
jura
juridisch
juridische
juris
jurisdictie
jurist
jury
jus
just
justice
justin
justine
justitie
justus
juudde
juudse
juus
juuste
jwiee
jæ
jæc
jø
jœ
jɑŋ
jɑʊ
jɒ
jə
jək
jəm
jən
jər
jəɲɟ
jɛ
jɛn
jɪc
jɪŋ
jɪɣər
jɪʝər
jʉ
jʊ
k
ka
kaa
kaad
kaaf
kaag
kaaj
kaajd
kaak
kaal
kaalhei
kaam
kaampe
kaan
kaanker
kaans
kaant
kaante
kaap
kaapkolonie
kaar
kaart
kaarte
kaarten
kaartspeel
kaas
kaat
kaatje
kabbine
kabel
kaberg
kabine
kabinet
kaboel
kabouter
kabul
kader
kae
kaee
kael
kaer
kaere
kaerel
kaersjmes
kaertje
kaes
kaesing
kaetel
kaf
kaffe
kaffee
kaffees
kafte
kai
kaje
kak
kake
kakke
kal
kalde
kaldje
kale
kalender
kalf
kalief
kalifaat
kalifaot
kaliningrad
kalium
kalk
kalksjtein
kalkstein
kallas
kalle
kallen
kalm
kalmar
kals
kalt
kaltj
kam
kamb
kame
kamer
kamerberg
kamerik
kamerlid
kameroen
kamers
kamertemperatuur
kamerverkezinge
kamp
kampe
kampen
kampio
kampioen
kampioene
kampioensjap
kampioensjappe
kan
kanaa
kanaal
kanale
kandidaat
kandidaot
kandidaote
kandidate
kane
kank
kanker
kankere
kanne
kannepee
kannibalisme
kano
kans
kansas
kanse
kanseleer
kant
kante
kantj
kantje
kanton
kantonees
kantons
kanunnik
kao
kaod
kaoe
kaok
kaoke
kaoken
kaokkuns
kaokpuntj
kaol
kaole
kaolemien
kaolsto
kaolzoer
kaom
kaome
kaoper
kaord
kaore
kaoren
kap
kape
kapel
kapelke
kapelle
kapelmeister
kapitaal
kapitalisme
kapiteel
kapitein
kapittel
kapot
kappe
kapper
kappes
kappetaal
kapsel
kaptein
kapteinsjap
kar
karabach
karakter
karakteristiek
karakteristieke
karakters
kardinaal
kardinale
karel
karen
karin
karl
karlheinz
karnaval
karneme
karneval
karolingische
karpate
karre
kas
kasjtiee
kaspische
kassa
kassel
kast
kasteel
kastelein
kat
katalysator
kate
katendrecht
kater
kathare
kathedraal
kathedrale
kathedraol
kathelicisme
katheliek
kathelieke
katherine
katholicisme
katholiek
katholieke
katoen
kats
katte
kattedraol
kattegorie
katteliek
kattelieke
katten
katwijk
katwijks
kaukasische
kaukasus
kaumer
kaw
kawwe
kawwen
kazachstan
kazan
kbaar
kc
kd
kde
kden
kdje
kdjen
ke
keats
kedo
kee
keek
keel
keem
keen
keend
keender
keep
keeper
keer
keerde
keertsje
kees
keesrech
kefee
kefees
kei
kein
keine
keith
keizer
keizerin
keizerlek
keizerriek
keizers
keke
kel
kelchblajer
kelder
kelders
kele
kelik
kelk
kelly
kelmis
kelonie
kelpe
kelpen
kelt
kelte
keltisch
keltische
kelvin
kem
kemiek
kemik
kemissie
kemp
kempe
kempen
kemper
kemperkes
kemping
kempkwiee
kemune
ken
kenaal
kenale
kend
kende
kendj
kene
kenia
keniaanse
keniee
kening
kenne
kennedy
kennen
kenneth
kennis
kent
kentoear
kentucky
kenya
kepe
kepel
keplaon
kepler
kepo
kepot
kepotgaon
kepotmake
kepotte
ker
kerakter
kerd
kerdj
kere
keren
kerie
kerk
kerke
kerken
kerkener
kerkrade
kermis
kern
kerncentrale
kerne
kernel
kerre
kers
kersmis
kert
kerteer
kertj
kes
kesjtee
kesjtie
kesjtiee
kesjtiel
kessel
kessels
kestie
kestiee
kestiel
kestiele
ket
keteer
ketig
ketoen
ketoer
ketrien
kets
ketse
keu
keugel
keuj
keuk
keuke
keukekroed
keuken
keul
keule
keulen
keump
keumt
keuning
keuninge
keuningin
keuninklek
keuninkleke
keuninklik
keuninklike
keuninklikke
keuninkriek
keuninkrieke
keuns
keure
keus
keuteberg
keutel
keutele
keuze
keverberg
kevere
kevin
key
keyser
keze
kezers
kg
kgebrach
kgeit
kh
kha
khan
khatchimboe
khe
khi
khmer
kho
khoa
khoisan
ki
kid
kiddelorig
kie
kiebaord
kiebig
kiech
kiechere
kiee
kiek
kieke
kieken
kieker
kieks
kiel
kien
kiendje
kiendjes
kienne
kiep
kieppe
kier
kierde
kiere
kierkegaard
kiert
kies
kiesse
kiev
kieve
kiezel
kig
kijk
kile
kill
kille
killed
kills
kilo
kilogram
kilomaeter
kilomaeters
kilometer
kilometers
kim
kimberly
kin
kind
kinde
kinder
kinderen
kinderjury
kinders
kindj
kinetische
king
kingdom
kinger
kings
kinj
kinjer
kinjerechtig
kink
kinme
kinmerk
kinmerke
kinmerkend
kinmirk
kinmirke
kinmirkendj
kinne
kinneke
kinnen
kinnes
kinnis
kins
kinshasa
kint
kintj
kip
kir
kirche
kirchro
kirchroa
kirgizie
kiribati
kirk
kirkdo
kirke
kirkelik
kirkelike
kirkevin
kirkhaof
kirkra
kirkraoj
kirkroa
kirmes
kis
kiss
kit
kitskesberg
kitting
kitts
kitty
kke
kkeg
kkele
kkelek
kkelik
kken
kkend
kkende
kkendj
kkendje
kker
kkere
kkerie
kkerreet
kkers
kkier
kkiere
kkig
kkiger
kkigste
kking
kkinge
kkingsreizeger
kkingsreiziger
kko
kkok
kkon
kkoo
kkot
kkoya
kl
kla
klaad
klaag
klaank
klaanke
klaanklier
klaankwe
klaar
klaas
klaats
klaatse
klach
klachte
klad
kladdig
klae
klaerig
klage
klan
klank
klanke
klankversjuving
klante
klantj
klantje
klantjere
klaor
klaore
klaormake
klaos
klap
klappe
klar
klarine
klarke
klas
klasse
klassiek
klassieke
klassieken
klassieker
klassiekers
klats
klatse
klatsje
klaus
klavecimbel
klaveer
klaveerconcert
klaveermeziek
klaveersonnaat
klaw
klawwe
kle
klee
kleef
kleen
kleer
klei
kleiaasj
kleid
kleie
kleier
kleiersto
kleifries
kleigeldj
kleikindj
klein
kleinder
kleindochter
kleine
kleinen
kleiner
kleinere
kleingeistig
kleingladbach
kleinste
kleinzoon
klem
klemtoean
klemtoen
klemzig
klen
klender
klenk
klentjere
klep
klerk
klet
klets
kletse
kleur
kleure
kleve
kleverlands
kleverlandse
klie
klied
kliee
kliek
klik
klimaat
klimaatverangering
klimaot
kling
klingon
klink
klinke
klinker
klinkers
klinkt
klinktj
klip
klm
klo
kloar
kloaster
kloasterke
kloastersj
kloe
kloeaster
kloeat
kloeate
kloee
kloek
kloeke
kloekke
kloes
kloester
kloezenaer
klok
klokke
kloof
kloon
kloonk
kloos
klooster
klop
kloppe
klotere
klub
klubs
klumme
klummesj
klump
klun
kluntjere
kluue
kluuer
kluuere
kluuerloos
km
kn
kna
knaagdiere
knaal
knaeje
knage
knak
knakke
knal
knalle
knaok
knap
knappe
knau
knawwele
kne
knech
knecht
knee
kneen
kneep
kneuk
knie
knien
kniep
kniepe
knies
kniestere
knikke
knip
knipa
knippe
knippere
knmi
kno
knock
knoeaje
knoemele
knoep
knokke
knol
knooppunt
knotere
knoup
knouppunt
knouppuntj
know
knuip
knuipe
knuup
knvb
ko
koam
koame
koar
kobe
koblenz
koch
koe
koeaj
koear
koears
koed
koee
koel
koele
koelek
koem
koempel
koempels
koen
koenen
koepel
koer
koerde
koerdisch
koerdische
koers
koes
koese
koesj
koeste
koet
koetsj
koetsje
koetsjhoes
koeweit
koeyvoets
koffie
kofi
kofo
kofob
kofobo
kofobs
kofobso
kofof
kofofo
kofofs
kofol
kofolo
kofols
kofolso
kofom
kofomo
kofoms
kofon
kofono
kofons
kofor
kofors
koforso
kofos
kofoso
kofoy
kofoyo
kofoys
kogel
koggenland
kohl
koine
kojl
kok
koksijde
kol
kole
kolleesj
kolonel
koloniaal
kolonialisme
koloniaol
koloniaolen
kolonie
kolonies
kolonisatie
kolonisere
koloniste
kom
kome
komedie
komeet
komen
komete
komiek
komische
komma
komme
kommen
kompenis
komrij
koms
komt
kon
kondig
konflik
kong
kongo
koning
koningin
koninklijk
koninklijke
konkoer
konrad
konstantin
kont
kontak
konze
kooj
kook
kool
kooldioxide
koolen
koolstof
koom
koon
koopmans
koor
koors
koorts
koos
koosj
koosjte
kooten
kop
kopenhage
koper
kopere
kopie
koppel
koppele
koppeling
koppelwirkwaord
koppien
kor
koran
korea
koreaans
koreaanse
korf
korps
korrel
korsbie
kort
kortbie
kortbij
korte
korten
korter
korterbie
kortere
kortooms
kortrijk
kortste
kos
kosbaar
kosde
kosmische
kosmos
kosovo
kost
koste
kotava
kou
koud
koum
koume
koumende
koup
koupe
koupman
kow
koze
kpeerd
kr
kra
kraag
kraan
kraank
krab
krabbe
krabechtige
krach
kracht
krachte
krachtig
krachtige
krachwaord
kraf
kraft
kraj
krake
kralingen
kralingse
kramer
kramp
kranig
krank
kranke
krankegestich
krankehoes
krankehoesopnames
krankehoezer
krankenhoes
krankewage
krankewagen
krans
kraog
kraoge
kraom
kraonkel
krat
krater
kraters
kratse
kre
krech
krechtig
kreef
kreeg
kreftig
krege
kregen
kreis
kreisfrei
krej
krejje
krek
krenkde
krenkdes
krenkdje
krenkdjes
kreta
krevat
krie
kriee
krieg
kriegdriftig
kriege
kriegen
krieger
kriegs
kriegsveuring
kries
kriet
krig
krijg
krijgen
krijgt
krim
krimmeneel
krimp
krimpen
krimpenerwaard
kring
kringe
krink
krinkloes
krinte
kris
kristal
kristeliee
kristelik
kristelike
kristen
kristendo
kristene
krit
kritiek
kritieke
kritisch
kritische
kro
kroan
kroanprins
kroate
kroatie
kroatisch
kroatische
kroe
kroean
kroeanblajer
kroed
kroedechtige
kroedwe
kroedwo
kroee
kroeg
kroek
kroen
kroenekraan
kroenprins
kroepe
kroes
kroet
krol
krolle
kromme
kroog
kroon
krop
kru
kruis
kruje
krumpe
krunkelig
krusing
krusinge
kruus
kruuspunt
kruustoch
kruusweeg
kruuts
kruutse
kruutsing
kruutspuntj
kruutssjnelheid
kruzer
ks
kse
ksel
ksele
kser
ksk
kske
kskes
kste
kstiel
kt
kte
ktj
ktre
ku
kubus
kue
kui
kuifje
kuijpers
kuip
kuiper
kuiperreem
kuipers
kuke
kul
kultefatere
kulture
kultureel
kultuur
kum
kume
kummere
kump
kumps
kumpt
kumptj
kums
kumt
kumtj
kun
kunde
kundeg
kunder
kundera
kundersjtein
kundig
kunjig
kunne
kunnen
kunning
kuns
kunsacademie
kunsmaotig
kunssjilder
kunst
kunste
kunstenaar
kunstenaer
kunstenaersj
kunsteneer
kunsteneers
kunstenere
kunstig
kunswerk
kunt
kur
kure
kurt
kurz
kus
kust
kuste
kusters
kut
kuuel
kuuj
kuuk
kuul
kuup
kuus
kuusj
kuut
kv
kvp
kw
kwa
kwaad
kwaam
kwaart
kwake
kwakkers
kwalificatie
kwalificere
kwalitatief
kwaliteit
kwalle
kwam
kwame
kwandong
kwantiteite
kwaod
kwaoj
kwaol
kwaolik
kwaom
kwaome
kwart
kwartfinaal
kwartfinales
kwarts
kwas
kwatsj
kwatsje
kwe
kwebbelig
kwegkelig
kwek
kweke
kwekkerd
kwerk
kwestie
kwesties
kwetsbaar
kwiee
kwiet
kwik
kwo
kwoom
ky
kyi
kyoto
kza
kzak
kø
kœ
kɒ
kɒr
kɔ
kɔs
kə
kəl
kəlɪk
kən
kər
kəs
kəɲɟ
kəɲɟə
kɯ
kʉ
kʊ
l
la
laag
laaj
laak
laam
laan
laand
laandsjap
laanger
laank
laanks
laankzaam
laankzaamaon
laankzaom
laar
laarman
laat
laatste
label
labeurer
labialiser
labiodentale
laboratorium
laborer
labour
labourer
lac
lace
lacer
lach
lache
lacht
laden
ladva
lady
lae
laee
laef
laefde
laefdje
laefgebied
laefgebiede
laeftied
laeftieje
laeg
laege
laeger
laegmake
laek
laeke
laen
laepel
laer
laere
laes
laet
laeve
laeven
laevende
laevendj
laevendje
laevendjig
laever
laeves
laeveslang
laevesliee
laeveso
laevetig
laeze
laezen
laezer
laezing
lag
lage
lagen
lager
lagte
lahn
lai
laisser
laje
lajing
lak
lake
lakes
lal
lalbana
lam
lama
lambert
lambertus
lambrisser
lame
lamenter
lamer
laminaal
laminer
lamlenjig
lamp
lampe
lan
lanc
lance
lanceert
lancer
lancering
land
landboew
landbouw
landbouwgroond
landde
lande
landelek
landeleke
landelik
landen
lander
landes
landeteams
landgood
landgraaf
landhoes
landing
landingde
landinwaarts
landj
landjboew
landjboewgro
landjboewkundig
landjgood
landjgraaf
landjhoes
landjmassa
landjnaam
landjname
landjplantje
landjs
landjsdeil
landjsjap
landkreis
landraod
landrat
lands
landschap
landsjap
landsjappe
landskampioen
landskrink
lane
lang
langbrook
lange
langedijk
langen
langer
langerak
langere
langeren
langhe
langk
langlaufe
langs
langste
language
languages
langue
langzaam
lanje
lanjing
lank
lanka
lanker
lankgere
lankgraaf
lanks
lanksjap
lankwerpig
lankwerpige
lankzaam
lankzaamaon
lankzem
lanotte
lansaam
lansaamaan
lant
lao
laog
laoge
laojing
laok
laon
laoneke
laop
laor
laos
laot
laote
laoten
laoter
laoterie
laotj
lap
lapland
lappe
laps
laren
larf
large
larry
lars
larve
las
lasse
last
lat
lataster
late
laten
later
lateraal
laterale
lateralen
latere
lateren
latien
latiens
latiense
latijns
latijnse
latik
latin
latino
latte
lau
lauda
launch
laura
laurens
laurent
laurentius
lausanne
laut
lava
laver
law
lawrence
lay
lazuur
lba
lbaar
lbo
lboerderie
ld
lde
ldeg
ldege
lden
lder
lderd
lderde
ldere
lderij
lderije
lderkuns
lders
ldhawwers
ldig
ldige
lding
ldj
ldje
ldmo
ldmol
ldpad
ldpadde
ldə
ldər
le
lead
leader
league
learn
least
leave
leaves
leb
lebbe
leben
lebendig
lech
lectrifier
lectriser
led
lede
leden
lee
leech
leechjaor
leechte
leechter
leed
leedje
leedjes
leedjessjriever
leedsje
leedsjes
leedsjessjriever
leef
leefde
leefdje
leefdjesverhajing
leefho
leefs
leefste
leeft
leeftied
leeftijd
leeg
leegste
leej
leejt
leek
leem
leen
leende
leep
leer
leerdam
leerde
leers
leerssen
lees
leet
leeuw
leeuwarden
leeuwen
leeve
lef
left
leg
legaal
lege
legend
legendarische
legende
legendes
leger
legere
legering
legeringe
legers
legislatieve
lehei
lei
leid
leidde
leide
leiden
leider
leiders
leiding
leidje
leidschendam
leidse
leidt
leie
leien
leiende
leier
leiers
leiersjap
leihertig
leiing
leijde
leije
leijer
leijers
leijing
leijt
leim
lein
leipzig
leis
leismaan
leisman
leiste
leit
lej
leje
lejer
lejjer
lek
leke
lekke
lekker
leksetig
lektrik
lektrisch
lektrische
lektrisseteit
lektromagnetische
lekø
lelie
lelystad
lem
lemaire
lemiee
lemiers
lemma
lemmens
lemsterland
len
lendelek
lendeleke
lendj
lendsje
leng
lengde
lengelig
lenger
lengte
leni
lenig
lenin
leningrad
lenj
lenjelik
lenjelike
lenjer
lennon
lens
lente
leo
leon
leonard
leonardo
leone
leonie
leopold
lepe
ler
leraar
lermontov
les
lesbos
lesj
lesje
lesse
leste
lesteg
lesteger
lestig
lestige
lestiger
let
lete
leterme
letien
letiens
letiense
letientj
letland
letlandj
lets
letse
letste
letter
letteren
letterkunde
letterlek
letterlik
letters
leu
leudaal
leudal
leuen
leuk
leukemie
leur
leus
leusden
leuve
leuven
lev
levant
leve
level
leven
levend
levende
levenslang
lever
leverde
levere
levering
levert
levertj
levi
lewej
lewejjerig
lewie
lewis
lex
lexicaal
leyen
lez
leze
lezer
lezing
leɲɟ
lf
lfde
lfden
lfdje
lfs
lfsteidetoch
lfstenjigem
lfstenjigs
lftal
lftalle
lfur
lg
lgaars
lgarije
lgde
lge
lgendaag
lgende
lgendje
lger
lges
lhaof
lhc
lheid
lheje
li
lia
liaison
liaisonvo
liaisonvorm
libanese
libanon
libe
liberaal
liberale
liberalisme
liberaol
liberaole
liberare
liberia
liberte
liberty
libie
libische
librare
libre
libretto
libro
libya
libyan
licentie
lich
lichaam
lichame
licht
lichte
lichtelik
lichten
lichtenberg
lichter
lichvaerdig
lid
lidmaatsjap
lidmaotsjap
lidsjtate
lidstaot
lidstaote
lidwa
lidwaord
lidwoord
lie
liebe
liech
liechaam
liechaom
liecht
liechte
liechtenstein
lied
liedjes
liee
lief
liefde
liefdeil
liefelik
liefelike
liefs
lieg
liege
lieger
liegerhoes
liegk
liegke
liegkende
liegkt
liegland
liegste
lieje
liejendj
liejer
liejingsvo
liejt
liek
lieke
lieken
liekende
liekene
liekent
lieket
liekt
liem
lieme
lien
liene
lienen
lienwa
lier
lieraar
lierde
liere
lierling
lierlinge
liert
lies
lieste
liester
liestre
liesveld
liet
lieter
lieue
lieve
liever
lieverde
lievere
lievert
liew
liewe
liez
lif
life
lig
liga
lige
ligge
liggen
light
ligk
ligke
ligken
ligkend
ligkende
ligkendj
ligkendje
ligking
ligks
ligkt
ligktj
ligt
lije
lijend
lijff
lijk
lijn
lijne
lijst
lik
like
likt
lilili
lille
lillian
lim
lima
limare
limb
limbo
limbourg
limburg
limburge
limburger
limburgers
limburgia
limburgish
limburgs
limburgse
limburgsen
limburgstalige
limmenaad
lin
lincoln
lind
linda
linde
linden
linder
linderwaeg
line
lineair
linear
lineare
ling
lingdje
linge
lingla
lingua
lingui
linie
linj
link
linke
linker
linkerhand
linkerkant
links
linkse
linnaeus
linne
lins
lint
lintbeboewing
lintbebouwing
lintj
linus
linux
lio
lion
lionel
lip
lippe
lis
lisa
lisch
lische
lisieux
lissabon
list
liszt
lit
litaliya
liter
literair
literaire
literature
literatuur
literatuurpries
lithium
litouwe
litouws
litouwse
lits
litse
litste
litt
litte
litteratuur
littergreep
littergrepe
little
liturgie
liturgische
liu
liv
live
liverpool
living
livrer
livvenhiee
lix
lj
lja
lje
ljen
ljer
ljig
ljige
ljiging
ljo
lk
lkaan
lkaon
lkaone
lke
lker
lkes
lki
lking
lko
lkweeg
ll
lla
lle
llef
lleg
lleka
llem
llen
llend
llende
llendj
llendje
ller
lles
lletiek
llig
llige
lling
llinge
llingen
lloyd
lm
lma
ln
lo
loa
load
loat
loate
locare
locatie
locatief
locaties
loch
lochhave
lochmach
locht
lockdown
lodewiek
lodewijk
lody
loe
loea
loead
loeads
loeaje
loean
loeane
loee
loehansk
loei
loeje
loek
loen
loenen
loep
loeppetig
loer
loere
loerjas
loes
loesje
loester
loestere
loesteriee
loestig
loetsj
loetsje
lof
log
loge
logica
logie
logisch
logische
logo
loi
loire
loj
lokaal
lokale
lokaol
loker
lokke
lol
lollig
lombard
lombok
lommel
lon
londe
londen
london
long
loo
loods
loog
look
loon
loop
loopt
loos
loot
lope
lopen
loppersum
lord
lorenzo
los
lose
losgelaote
loslaote
losmake
losse
losser
lost
lot
lotharinge
lotharius
loting
lotte
lottem
lottum
lotz
lou
louf
louis
louise
louisiana
louk
loup
loupbaan
loupe
loupen
loupende
loupendj
lourdes
lourdesgrot
louvre
love
lovea
low
lower
lowie
lp
lpa
lpdeenste
lpe
lpf
lpo
lpoki
lposa
lposi
lposo
lpoya
lpsdeilsval
ls
lsberg
lse
lsel
lsele
lsels
lsgelo
lsj
lsje
lsjriever
lsjteine
lstand
lste
lster
lt
lte
ltj
ltje
lu
lua
lubbers
luc
lucas
luch
lucht
luchte
luchtepaol
lucia
luciano
lucianus
lucien
lucifer
lucius
lude
luden
ludo
ludwig
luej
lui
luif
luigi
luij
luijten
luik
luip
luiper
luips
luis
luit
luitenant
luiter
luiterke
luj
lul
lulle
lum
lumie
lummel
luna
lune
lup
luppe
luppen
lupt
lupus
lupə
lus
lust
lut
lute
lutenant
luther
lutheranisme
lutherse
luttel
luu
luue
luuet
luuetj
luuj
luuk
luuks
luukse
luuksembo
luus
luustere
lux
luxe
luxembo
luxembourg
luxemburg
luxemburgs
luxemburgse
lv
lve
lver
lvere
lvk
lvo
lwa
lwaord
lwasse
ly
lya
lyceum
lynch
lyndon
lynx
lyon
lyriek
lyrisch
lyrische
lzer
lzig
læ
læc
lækse
lø
lœ
lœk
lɐ
lɒ
lɔ
lə
lən
ləvər
ləɲɟ
ləɲɟə
lɛ
lɪ
lɪc
lɪg
lɪk
lɪkste
lɪŋ
lɪɣər
lɪɣərə
lɪɣərən
lɪʝər
lɪʝərə
lɪʝərən
lʉ
lʊ
m
ma
maa
maache
maad
maaf
maag
maagde
maags
maak
maakde
maakden
maakdje
maake
maaks
maakt
maakte
maaktj
maal
maan
maanden
maansjlaag
maar
maarsjalk
maarssen
maart
maarten
maas
maasbracht
maasbree
maasgoew
maasgouw
maasland
maaslandse
maassluis
maastricht
maastrichts
maastrichtse
maat
maatschappij
maatsjappie
maatsjappiej
mac
macaca
macau
macbukkum
macedonie
macedonisch
macedonische
mach
mache
machen
machho
machine
macht
machte
macro
macron
mad
madagaskar
madame
made
madeira
madeleine
madonna
madrid
maduro
mae
maedje
maedjes
maedsje
maedsjes
maee
maeker
mael
maeldra
maelig
maels
maer
maere
maersje
maert
maes
maete
maeter
maeters
maetinge
maetko
mag
magazine
magdalena
mage
mager
magere
maghreb
magie
magische
magma
magneet
magnesium
magnetisch
magnetische
magnificare
magnitude
magnitudesjaol
magnorde
magnus
maharishi
mahatma
mahler
mai
mail
main
maine
mainstream
mainz
mais
maison
majoor
major
mak
makde
make
maken
makendj
maker
making
makt
mal
mala
malaria
malawi
malayo
malcolm
male
maleis
maleise
maleisie
mali
malmedy
malmo
malta
maltees
mam
mama
mammalia
man
management
manager
manaus
manchester
mandarijn
mandela
mane
maneer
manegen
manfred
mangaan
manger
manhattan
manifes
manifest
manifester
manj
mank
mankaasje
mankaasjen
mankere
mann
manne
mannelek
manneleke
mannelik
mannelike
mannen
manquer
mans
manskaerel
manskaerele
manskaerelen
manslui
mansluuj
mantel
mantjel
manuel
manuscript
manx
many
manzjare
mao
maog
maoge
maogs
maol
maole
maon
maond
maondag
maonde
maondig
maondigtemiddig
maondigtenaovendj
maondj
maondje
maone
maor
maord
maorde
maordenaer
maore
maos
maoskant
maot
maote
maoteg
maotig
maotregel
maotregele
maotsjappelike
maotsjappie
maotsjappij
map
mar
maranha
marathon
marc
marcel
march
marchant
marche
marcher
marck
marco
marcus
mare
marechaussee
marga
margaret
margaretha
margrethe
margriet
mari
maria
mariakapel
marianne
maricopa
marie
marien
marin
marina
marine
mariner
marino
marinus
mario
marion
maritiem
maritime
marius
marjo
marjolein
mark
markante
marke
markeert
markere
market
markies
marl
marleen
marlstone
marmer
marmere
marne
marokkaans
marokkaanse
marokko
marotte
mars
marseille
marshall
marsj
martel
martelaer
martelaere
marten
martens
martha
marti
martijn
martin
martina
martineau
martinique
martinus
martinuske
marvin
marwijk
marx
marxisme
marxistische
mary
mas
maske
mass
massa
massaal
massachusetts
massacre
massacrer
massaol
masse
massief
maste
master
mastiquer
mastreecht
mastreechter
mastreegs
mat
mata
match
matche
matches
mate
mater
materiaal
materiale
materiaol
materie
materieel
math
mathematik
mathenesse
mathias
mathieu
mathilde
mathrm
mato
matroze
matsj
matt
matter
matterjaal
matterjale
matterjeel
mattheus
matthew
matthias
matthijs
mau
mauna
maura
maurice
mauritanie
mauritius
maurits
mauro
max
maximaal
maximaol
maxime
maximiliaan
maximum
maxwell
may
maya
mayen
mayonaise
mayotte
mb
mbardeme
mbardere
mbenaasje
mber
mbie
mbinaasje
mbo
mbringe
mbœ
mccartney
mcdonald
md
mdat
mde
mdet
mdje
mdoon
mdrejje
me
mech
mechanisch
mechanische
mechanisme
mechele
mechelen
mechels
mechteg
mechtege
mechtegste
mechtig
mecklenburg
med
medaalje
medaille
medaje
medajel
medajele
medajje
medalje
mede
medel
medemblik
medern
media
medicare
medici
mediciene
medicus
medio
medisch
medische
medium
medvedev
mee
meej
meek
meekdriftig
meer
meerdere
meerderheid
meerse
meersje
meersjes
meerssen
meert
meertens
meest
meeste
meester
meet
meeuwen
meh
mehr
mei
meid
meidske
meidskes
meierij
meijel
meijer
meijers
mein
meinde
meine
meining
meininge
meint
meis
meisj
meisje
meist
meistal
meiste
meisten
meistens
meister
meistere
meisters
meistes
meitske
mej
meje
mejje
mekaar
meke
mekka
mekkelik
mekkeliker
mel
melanesie
melbourne
melchior
meldde
melde
melding
meldj
meldje
meldt
mele
melick
melik
melj
melje
meljing
meljinge
melle
melodie
melodiee
melt
membraan
meme
mement
memint
memory
men
mendelssohn
mene
meneer
menen
menere
menghen
menhier
menier
menister
menke
menkes
menkig
menneke
mennekes
mennelik
mennelike
mennich
menno
mens
menschen
mensen
ment
mentaal
menu
menue
menute
menuut
mep
mer
merckx
mercurius
mercury
merd
mere
merel
meren
merge
mergel
mergele
mergelgrotte
mergelland
mergelsberg
mergelsjtein
mergraote
merie
merijn
merk
merkbaar
merke
merkel
merkelbek
merret
mers
mert
merte
mertens
merwede
mes
mesj
mesjien
mesjiender
mesjiens
mesjtreech
mesjtreechse
mesopotamie
messi
messiaen
messing
mestreech
mestreechs
mestreechse
mestreechsen
mestreechtenere
mestreechter
met
metaal
metabolisme
metafoor
metal
metale
mete
metein
meteore
meteoriet
meteoriete
meter
methaan
methode
methodes
meties
metro
metropole
metropolis
metropool
mets
metsele
metselwerk
metsemakers
metser
metsetre
metten
mettmann
metz
meu
meug
meugelek
meugeleke
meugelekhede
meugelekheid
meugelig
meugelik
meugelike
meugelikerwies
meugelikheid
meugelikheje
meuilek
meuje
meujte
meule
meulenaer
meules
meulestein
meuletak
meuse
meute
mevrouw
mexicaans
mexicaanse
mexico
mey
meyer
mezeik
meziek
meziekpedagoog
mezieksto
meziektheoreticus
mfaar
mg
mgaeve
mgaeving
mgaevinge
mgank
mgaon
mgedrejdj
mgeko
mgezatj
mgezatte
mgr
mhaer
mheer
mho
mhoeag
mhouwe
mi
mia
miami
mic
mich
michae
michael
michail
michel
michelangelo
michele
michelle
michiel
michigan
mickey
micro
microgale
micronesie
microscoop
microsoft
mid
midd
midde
middeklinker
middel
middela
middelar
middelbaar
middelbare
middelburg
middele
middelee
middelgroeate
middelgroet
middelgroete
middelharnis
middelie
middeliee
middelieuwe
middeliewe
middeliews
middeliewse
middelingels
middellandjse
middellandse
middellien
middelma
middelnederlands
middelnederlandse
middelpunt
middelpuntj
middels
middelste
midden
middenin
middereef
middernach
middig
middle
midi
mie
miech
miedde
mieddelie
miede
miedelie
miee
mieje
miejer
mieke
miel
mieljard
mieljoee
mieljoen
mieljoene
mieljoon
mien
mienboew
miene
mienen
miens
miense
mienselik
mienselike
miensen
miensj
miensje
miensjeleke
miensjelik
miensjelike
miensjerechte
miensjtreek
mienwaeg
mienwe
mienwirkers
mier
mierder
mierdere
mierderheid
mierendeil
mierlo
miert
miervoud
miervoude
miervoudsvo
mies
miestal
mieste
miestens
miet
miete
mievoud
mig
migrante
migrantecrisis
migratie
miguel
mihns
mij
mijl
mijn
mijnbouw
mijne
mijnen
mik
mike
mikke
mil
milaan
milan
mile
miles
milieu
militair
militaire
militairen
militante
military
milities
miljaar
miljard
miljeu
miljo
miljoan
miljoee
miljoen
miljoene
miljoenste
milk
mill
mille
millen
millennium
miller
millesien
millesiene
milletaer
millimaeter
millimeter
millinge
million
milos
milsbik
miltj
milton
min
mina
minas
mind
minden
minder
mindere
minderhe
minderhede
minderheden
minderheed
minderheid
minderheidstaole
minderheje
minderja
minderwaerdig
mindestes
mine
minen
miner
mineraal
minerale
ming
minge
mingsel
minh
mini
minimaal
minimaol
minimum
minister
ministerie
ministerraod
ministers
ministersjap
minne
minnen
minnesota
minor
mins
minsape
minse
minsekinder
minselek
minseleke
minserechte
minsheid
minsj
minsje
minsjelike
minste
minstens
minsters
minstes
minute
minuut
miquelon
mir
miranda
mirk
mirke
mis
misbroek
misdaod
misdrief
misj
misjmasj
mislo
mismeujig
mismujjig
mispel
miss
missa
missaal
misschien
misse
misselik
misselike
missie
missies
missing
mission
missionaire
missionaris
mississippi
missouri
mist
mistig
mistruuestig
mit
mitbringe
mitchell
mitdoon
mite
mitein
mitgaeve
mitgaon
mitgemaak
mitgeno
mithras
mitklinker
mitklinkers
mitlieje
mitliejenswaerdig
mitmake
mitnaam
mitnumme
mits
mitsubishi
mitte
mitten
mittertied
mitwe
mitwirker
mitwirkers
mix
mjo
mk
mkes
mko
mkrink
mliee
mligkendje
mloup
mm
mma
mme
mmel
mmele
mmelig
mmelinge
mmelkroed
mmen
mmend
mmende
mmendj
mmendje
mmendjen
mmer
mmere
mmerich
mmerig
mmerik
mmers
mmert
mmig
mmige
mming
mmunikaasje
mo
moan
moarend
mobiel
mobile
mobilis
moch
mocht
mochte
mochten
modaal
mode
model
modelle
modeo
moder
modergaods
moderkookbiee
modern
moderne
modernen
moderner
modernisering
modernisme
modernistische
moderspraok
modertaal
modi
module
moe
moear
moeater
moebarak
moede
moeder
moee
moei
moel
moele
moelinge
moentjes
moer
moeras
moerasse
moerassig
moerdijk
moere
moereflaaj
moeren
moersjilderinge
moes
moeste
moet
moete
moeten
moew
moewe
moeze
moezel
mofers
moferse
mofert
moferter
moferts
mogadishu
moge
mogelijk
mogen
moghen
mohamed
mohammed
mohammedaone
mohammedaonse
moi
mojer
mojertaol
mojertaolsprekers
mokerhei
mol
molar
moldau
moldavie
moleculair
molecule
molecuul
molen
molenwaard
molie
molin
mollig
mols
molukse
molybdeen
momaent
moment
momenteel
momint
momus
mon
mona
monaco
monarch
monarchie
monarchiee
mond
monde
monere
monet
monetair
money
mongole
mongolie
mongools
mongoolse
monica
monique
monnik
monnike
mono
monoftong
monoftonge
monopolie
monroe
mons
monschau
monster
mont
monte
montenegro
monteverdi
montfort
monticola
montre
montrer
montserrat
monume
monument
monumentaal
monumentaol
monumente
monumint
monuminte
mood
mooder
moodwillig
moog
moogs
mooi
mooie
mooijer
moojer
moojertaol
mook
moon
moond
moor
moord
moore
moos
moosj
mooste
moot
mor
mora
moraal
morales
mordiller
more
moreel
moresnet
morfologie
morgan
morge
morgen
mormone
morning
morris
morrison
mort
mortel
morton
mos
mosa
mosalect
moselle
moses
moskee
moskeee
moskou
moslim
moslims
mosoel
most
moste
mosul
moszkowicz
mot
mote
moter
mother
motie
motief
motieve
motion
motor
motorcoureur
motore
motors
motte
motto
mouillering
moulin
mount
mountain
mountainbike
mountains
mouse
mouvement
move
movie
moyen
mozai
mozambique
mozart
mozes
mp
mparatief
mpasje
mpe
mpel
mpele
mpelweeg
mpenis
mpestein
mpet
mpetig
mpetisie
mpjoeter
mpjoeters
mpleks
mpliee
mplo
mploeffing
mr
mroop
mrs
ms
msa
msjreve
msjreven
msjrieve
msjrieving
msjtreeks
mslaag
mslaote
msleitj
mste
mstenj
mstenjigheid
mstenjigheje
mster
mstig
mstige
msval
mt
mta
mtieds
mtre
mu
mubarak
much
mue
mugabe
muhammad
muibel
muibele
muiden
muis
muj
mujje
mulder
mulhouse
mulisch
multatuli
multi
multiplicare
mummie
mun
mundare
munj
munjig
munniksbo
munster
munstergelaen
munt
munte
munteinheid
muntj
mur
murder
murdoch
murray
muse
musea
museum
music
musical
musicals
musici
musicoloog
musicus
mussert
mussolini
must
muste
musten
mut
mutatie
mutaties
mutsj
mutter
muue
muur
muus
muz
muze
muziek
muzikaal
muzikale
muzikant
muzikante
muzikaol
mv
mvank
mvat
mvatj
mvv
mwaeg
mwiel
mwonendje
my
myanmar
mynne
mynnen
myra
mysticus
mystiek
mythe
mythes
mythisch
mythische
mythologie
mythologische
mze
mzelf
mzitte
mzɪ
mæ
mæc
mø
møre
mœ
mɑ
mɒ
mɔ
mə
məl
mən
mər
mɛ
mɪ
mɪdelmœ
mɪdɪc
mɪs
mɪstr
mɪtl
mɪŋ
mʉ
mʊ
n
na
naaf
naafbraekbaar
naafhankelik
naafhankelike
naafhankelikheid
naafhenkelik
naafhenkelike
naafhenkelikheid
naaki
naaks
naakse
naam
naamval
naamvalle
naamwa
naamwaord
naana
naangenaam
naani
naano
naanoki
naanosa
naanosi
naanoso
naanoya
naar
naarden
naas
naasha
naast
naat
naatrel
naaya
nach
nachs
nacht
nachte
nachts
nacional
nadal
nae
naee
naef
naegel
naeme
naer
naerbaek
naers
naerslaag
naetsig
naeve
naeven
naevenein
naevesjikkendj
naevezats
nag
nagel
nagelsjrif
nagorno
nah
nahuatl
nai
nairobi
nak
nalgemein
nam
nama
name
namelek
namelik
namen
names
namesdaag
namibie
nammeh
nammiee
nan
nancy
nanneet
nannieks
nannoeatj
nans
nantes
nao
naoape
naober
naoberdo
naoberland
naoberlen
naobers
naobersjap
naobersjappe
naobie
naoblo
naocompetitie
naod
naodat
naodeil
naodeilig
naodet
naodinke
naodoon
naodro
naoe
naogaon
naogelaote
naogerech
naojaor
naoko
naolaotig
naolestig
naoliee
naolj
naom
naomaote
naome
naomelek
naomes
naomi
naomiddig
naomsverandering
naomswaordjs
naomswaorje
naomval
naomvalle
naomwa
naomwoord
naor
naord
naorde
naordelik
naordelike
naordoeaste
naordrien
naordwe
naordweste
naordziee
naoslaag
naotot
naovenant
naoventrint
naovolging
nap
napels
napoleon
napoleonsbaan
napoleontische
napu
nar
nas
nasa
nasaal
nasale
nashville
nasjenaal
nasjenale
nasjonaal
nassau
nat
nate
natie
naties
nation
nationaal
national
nationale
nationalisme
nationaliste
nationalistisch
nationalistische
nationalite
nationaliteit
nationaol
nationaole
nations
nato
natrium
natura
natural
nature
natuur
natuurgebeed
natuurgebied
natuurko
natuurkunde
natuurkundege
natuurkundige
natuurlek
natuurleke
natuurlik
natuurlike
natuurmonumenten
natuursjtein
nauru
nauw
navajo
navarra
navel
navigare
navo
nazareth
nazi
nb
nbaar
nbe
nbekandj
nbekandje
nbeke
nbekind
nbekindj
nbeklemtoeandje
nbenaodro
nbepaoldj
nberaekenbaar
nberg
nbestump
nbetroewbaar
nbewo
nbeziee
nbɒ
nchen
nchez
ncia
ncipe
nd
nda
ndanks
nde
ndeep
ndeg
ndege
ndel
nden
nder
nderd
nderde
nderdeil
nderdig
nderdigs
nderdigtemiddig
nderdigtenaovendj
nderdis
ndere
nderein
ndergro
ndering
nderjœ
nders
ndersjte
nderwies
nderwɛ
nderzeuk
ndez
ndgebeed
ndheid
ndi
ndief
ndig
ndigde
ndige
ndiging
ndigs
nding
ndj
ndje
ndjen
ndjens
ndjeraod
ndjes
ndjgebeed
ndjgebied
ndjheid
ndjle
ndjloupe
ndjo
ndjs
ndjscoach
ndjslaag
ndjste
ndjsto
ndjwater
ndjwe
ndo
nds
ndse
ndsjtuurbreef
ndste
ndudelik
ndum
ndwe
ndæc
ndə
ndər
ndərwɛ
ndɛ
ndɪ
ndɪc
ndɪɣər
ndɪʝər
ne
nea
neanderthaler
neanderthalers
near
ned
neda
nedcar
neder
nederduits
nederduutsj
nederfrankisch
nederfrankische
nederland
nederlande
nederlanden
nederlander
nederlanders
nederlandj
nederlandjs
nederlandjse
nederlandjsen
nederlandjsje
nederlands
nederlandsche
nederlandse
nederlandsen
nederlandsj
nederlandstalig
nederlandstalige
nederlandstaoleg
nederlandstaolege
nederlanje
nederlanjer
nederlank
nederlaog
nederlen
nederleng
nederlenj
nederlenjers
nederrien
nedersakse
nedersaksisch
nedersaksische
nederweert
nederze
nederzetting
nee
need
neef
neejwiee
neel
neemt
neer
neergezat
neerhaof
neerijnen
neerkump
neerligke
neerslaag
neerze
neerzitte
nees
neeste
neet
neettemin
negalig
negatief
negatieve
nege
negen
negende
negenden
negenteg
negentiende
negentienden
neger
negere
negers
negeteg
negetiee
negetiende
negro
neht
nei
neig
neige
neigeno
neiging
neil
nein
neit
nej
nejje
nek
nel
nelissen
nelovea
nelson
nem
neme
nemen
nemes
nemmermeer
nen
nendj
neo
neogotiek
neogotisch
neogotische
neolithicum
neon
neoromaanse
nepal
neptunus
ner
nere
nero
nerotere
ners
nerve
nervetig
nes
nesj
nest
net
netanyahu
nete
nette
netuur
netuurgebied
netuurko
netuurkundige
netuurleke
netuurlik
netuurlike
netwerk
network
neu
neubourg
neuchter
neudig
neue
neufcha
neuge
neugende
neugendje
neugenho
neugentiee
neugetiee
neugetig
neumann
neumde
neumdje
neume
neump
neumt
neuroloog
neus
neuss
neut
neutraal
neutralen
neutraol
neutrino
neutron
neutrone
neuvergenkelik
neuville
nevada
neve
nevel
neven
nevenein
never
nevis
new
newcastle
newfoundland
news
newton
next
nez
neɣa
nflik
nfuus
ng
nga
ngaars
ngaarse
ngare
ngarije
ngblaad
ngc
ngd
ngde
ngdehoes
ngderaod
ngdes
nge
ngebroekelik
ngebroekelike
ngedo
ngel
ngelandj
ngelder
ngele
ngeliek
ngeljig
ngelo
ngelsj
ngelsje
ngeluk
ngen
ngena
ngenadig
nger
ngeraan
ngerbenk
ngerbo
ngerbraeke
ngerbraeking
ngerd
ngerdaak
ngerddoezjend
ngerddriee
ngerde
ngerdeel
ngerdeil
ngerdeile
ngerdeiler
ngerdet
ngerdj
ngerdje
ngerdro
ngerdste
ngerdstens
ngerdtwiee
ngerdze
ngere
ngerein
ngeren
ngerfemielje
ngergank
ngergaon
ngergro
ngerhaad
ngerhaje
ngerhandj
ngerhanjelaere
ngerhanjele
ngerhanjelinge
ngerin
ngerkantj
ngerko
ngerling
ngerno
ngernumme
ngernummer
ngernumming
ngero
ngeroet
ngerorde
ngerrich
ngerrichte
ngerriek
ngersje
ngersjeid
ngersjeie
ngersjeije
ngersjeijing
ngersjied
ngersjikkendj
ngerste
ngerteikene
ngerteikening
ngerto
ngerverdeildj
ngervinje
ngerwaeg
ngerwaeges
ngerwerp
ngerwerpe
ngerwiel
ngerwies
ngerwieze
ngerwiezer
ngerzee
ngerzeuk
ngerzeuke
ngerzeuker
ngerzeukers
ngerzo
ngerzoch
nges
ngesjik
ngespre
ngevaer
ngeval
ngevee
ngeveer
ngeviee
ngevier
ngewins
ngewinsdje
ngezo
nghi
nghie
ngk
nglo
ngluivig
ngo
ngruter
ngs
ngspits
ngste
ngt
ngu
ngunstig
nguye
ngval
nh
nha
nhe
nhenjig
nhi
nhie
nho
nhu
ni
nia
nicaragua
niccolo
nice
nich
nichein
nicholas
nichols
nicht
nick
nicky
nico
nicola
nicolaas
nicolae
nicolai
nicolas
nicolaus
nicole
nicosia
nictare
nider
nie
niedorp
niee
niege
niej
nieje
nieks
niel
niels
nieman
niemand
niemes
niemeyer
niers
nieswiller
niet
nietelbieste
niets
nietzsche
nieuw
nieuwe
nieuwegein
nieuwenhuizen
nieuwerkerk
nieuwkoop
nieuwpoort
nieuws
nieuwsblad
nig
nige
niger
nigeria
nigeriaanse
night
niht
nij
nijkerk
nijl
nijmege
nijmegen
nijssen
nik
nikita
nikkel
nikolaj
niks
nilo
nils
nim
nimbus
nimmie
nimmiee
nimwaege
nimwege
nin
nina
nine
ning
ninge
ninjig
ninkriek
nio
nirbik
nis
nisch
nit
nita
niveau
niveaus
nivo
niwet
nixon
nj
nja
nje
njelik
njeling
njelo
njen
njer
njerbeuk
njerd
njere
njerhede
njering
njig
njige
njigtemiddig
njigtemorgen
njigtenaovendj
njing
njinge
njis
njs
njse
njunktief
nk
nka
nke
nkel
nkele
nkelik
nkelike
nken
nker
nkgebeed
nkheid
nki
nking
nko
nkoer
nkoki
nkosa
nkosi
nkoso
nkoya
nkriee
nkroed
nks
nksje
nl
nleech
nlik
nlɪk
nm
nma
nme
nmerk
nmerke
nmeugelik
nmiddellik
nmirk
nmirke
nmunjig
nmø
nmœ
nn
nna
nne
nnen
nnendjem
nneplaatsj
nner
nnes
nnig
nnige
nnik
nning
nnis
nnuuedig
nnuuezel
no
noa
noadat
noam
noard
noarde
noardelig
noardoee
noardrien
noats
nobel
nobelcomite
nobelpries
nobelprieswinnaer
nobelprize
noch
nodig
noe
noead
noeadwenjig
noeadzaak
noeardj
noeat
noeatj
noeats
noed
noedzaak
noedzakelek
noee
noegkele
noeit
noet
noetied
noets
noew
nog
nogal
noir
nol
nolens
nom
nome
nominatie
nominatief
nommer
nommers
nomos
non
nooit
noom
noonk
noor
noord
noorde
noordelek
noordeleke
noordeleker
noordelekste
noordelik
noordelike
noordelikke
noorden
noorder
noordgrens
noordkant
noordko
noordoas
noordoaste
noordoos
noordooste
noordoostelek
noordoosteleke
noordpool
noordrien
noordriens
noordse
noordwes
noordweste
noordwestelek
noordwijk
noordwijks
noordzee
noordzie
noormanne
noors
noorse
noorwaeg
noorwege
noot
noow
nor
norbert
norbik
norbiks
nord
nordland
nore
norganisch
norm
normaal
normale
normaliter
norman
normandie
normandisch
normandische
norte
north
northern
northwest
nos
not
nota
notaris
note
noten
nothing
notre
notten
nou
nouveau
nov
nova
novak
novel
novelle
november
novgorod
now
npersuuenlik
npo
nr
nras
nrc
nre
nrechvaerdig
nregelmaotig
nrestig
nro
nroewig
nru
nrw
nræc
ns
nsa
nsb
nsdap
nse
nsem
nsep
nsigste
nsj
nsjap
nsje
nsjo
nslaagmiee
nsmaesig
nsmaesige
nsmaotig
nsmiee
nso
nsopko
nspireerd
nstalleerd
nstant
nste
nsteniee
nster
nstere
nstruksje
nstruksjes
nsuccesvol
nt
nta
ntaal
ntak
ntal
ntalle
ntbo
ntbraeke
ntde
ntdek
ntdoon
nte
nteerd
ntegreerd
nteks
ntelik
nten
ntent
nter
nterech
nterleerd
nterlere
ntginning
nthaad
nthaje
ntho
ntie
ntinent
ntinente
ntinu
ntj
ntje
ntjelik
ntjelo
ntjer
ntjig
ntke
ntko
ntliee
ntligk
ntloupe
ntploffing
ntrak
ntraol
ntras
ntre
ntrinne
ntroduceerd
ntrol
ntruump
ntsjlaag
ntsjlage
ntsjleit
ntsjo
ntsjprink
ntsjtange
ntsjtaon
ntsjteit
ntsjto
ntsme
ntspanne
ntspringk
ntstaeking
ntstange
ntstangen
ntstaon
ntsteit
ntsteitj
ntsting
ntsto
ntsverkezinge
ntvange
ntvangs
ntvenger
ntving
ntvingk
ntvo
ntwerp
ntwerpe
ntwerper
ntwieke
ntwikkeld
ntwikkelde
ntwikkeldj
ntwikkeldje
ntwikkele
ntwikkelendj
ntwikkeling
ntwikkelinge
ntwikkeltj
ntwintjig
ntwo
ntworpe
nu
nuath
nucleair
nucleaire
nuclear
nudeg
nue
nui
nuibouw
nuie
nuien
nuienhaags
nuienhage
nuier
nuigrieks
nuij
nuit
nuits
nuj
nuje
nujeg
nujen
nujer
nujere
nul
num
numde
numeriek
numme
nummen
nummer
nummers
nump
numt
numwaege
nunem
nuo
nur
nus
nusra
nut
nuth
nuts
nuu
nuue
nuuedig
nuuedige
nuuedzakelik
nuueje
nuuj
nuujboew
nuuje
nuujjaor
nuujnoors
nuujs
nuujsberichte
nuujseuverzich
nuujsjtad
nuusjiee
nuuts
nv
nva
nval
nve
nverho
nverlets
nversjillig
nverstenjig
nverwach
nverwachs
nverzichtig
nveurzichtig
nvi
nviejenjig
nvleujd
nvleuje
nvloed
nvlood
nvloojd
nvo
nvro
nvruntjelik
nvæ
nvø
nvə
nwa
nwaer
nwe
nwichtig
nwillekeurig
nwɪ
nwɪc
ny
nya
nye
nyemant
nyet
nynorsk
nys
nz
nze
nzeker
nzekerheid
nzi
nziejig
nziejige
nzunig
nzɪ
nzɪc
nzʉ
næ
nø
nœ
nɒ
nɔ
nə
nən
nəs
nɛ
nɣlœ
nɣlœk
nɣø
nɣɒ
nɣədœ
nɣəlœk
nɣəna
nɣənœ
nɣəvø
nɪ
nɪc
nɪs
nɪŋ
nɪɣər
nɪʝər
nʉ
nʊ
nʝɛ
o
oa
oake
oan
oane
oarsjpro
oarsjpronk
oarsjprunkelik
oas
oaste
oastelik
oasteriek
oasterieks
oasteriekse
oasters
oasvleugel
oats
oavend
oaver
ob
obama
obbenuits
obbenuujs
obbenuujts
obelix
oberbergischer
oberbruch
obje
object
objecte
objectief
objek
objeksvo
objeksvorm
objekte
oblas
oblast
oblaste
obliquus
observer
obstruent
occitaans
occlusief
occuper
occupy
oce
oceaan
ocean
oceane
oceanie
oceanisch
oceanische
oceaon
och
ockels
octaaf
octave
octavianus
october
octrooi
odanu
ode
oder
odessa
odijk
odilie
odore
odste
odyssee
oe
oea
oeal
oeals
oear
oeare
oearen
oearspro
oearsprunkelik
oearsprunkelike
oearzaak
oeas
oeaste
oeastelik
oeastelike
oeasteriek
oeasziee
oeatj
oeats
oec
oed
oedgank
oee
oefene
oefening
oeganda
oegaritisch
oege
oeht
oej
oekrai
oer
oeral
oeralische
oere
oeren
oergermaans
oergermaanse
oermunjige
oersjprunkelig
oersprunk
oersprunkelek
oersprunkeleke
oerzaak
oerzake
oes
oeste
oesteriek
oesters
oesterse
oet
oetaete
oetbaore
oetbarsjting
oetbarsting
oetbinjel
oetboew
oetbraak
oetbraok
oetbreiding
oetbreie
oetbreiing
oetbreijing
oetbreke
oetbringe
oetbrook
oetdeile
oetdoon
oetdro
oetduujje
oete
oetein
oeteindelek
oeteindelik
oeten
oetentelik
oeterein
oetereingaon
oetereinloupende
oetereinvalle
oetg
oetgaaf
oetgaank
oetgaeve
oetgaever
oetgank
oetgaon
oetgave
oetgaves
oetgebeeld
oetgebouwd
oetgebrach
oetgebraoke
oetgebre
oetgebreid
oetgebreide
oetgebreider
oetgedro
oetgegaeve
oetgegeve
oetgegrave
oetgegreujd
oetgeit
oetgeko
oetgelag
oetgelaote
oetgemaak
oetgeng
oetgepo
oetgereik
oetgereujd
oetgero
oetgerope
oetgesjakeld
oetgesjpraoe
oetgesjpraoke
oetgesjproke
oetgesjreve
oetgesjtorve
oetgeslote
oetgespraoke
oetgespraoken
oetgesproke
oetgeste
oetgesto
oetgestorve
oetgestre
oetgever
oetgeveurd
oetgeveurdj
oetgevo
oetgevoonde
oetgeweze
oetgezat
oetgezo
oetgezonde
oetgezunderd
oetgezunjerd
oetgoon
oetgreujde
oetgreuje
oetha
oethaole
oetindelek
oetinj
oetintelig
oetintelik
oetintjelik
oetkaom
oetkeze
oetkiee
oetkiek
oetkieke
oetko
oetkoms
oetkoume
oetkump
oetlaote
oetle
oetligk
oetligke
oetloupe
oetluiper
oetluipers
oetmaak
oetmaakde
oetmake
oetmo
oetmoele
oetmoeling
oetoefene
oetpo
oetreike
oetrein
oetro
oetroop
oetrope
oets
oetsje
oetsjeie
oetsjeijing
oetsjelje
oetsjlaag
oetsjpraak
oetsjpraok
oetsjrieve
oetslaag
oetsloetendj
oetspraeke
oetspraok
oetspraoke
oetspraokplaats
oetsprik
oetstaeke
oetstaekendj
oetstalle
oetstaon
oetste
oetsterve
oetstik
oetstoeat
oetstoeate
oetstre
oette
oettre
oetube
oetvaart
oetvalle
oetve
oetveur
oetveure
oetveurende
oetveuring
oetveuringe
oetveurt
oetvinder
oetvinding
oetvindinge
oetvinger
oetvinje
oetvinjer
oetvinjing
oetwaasj
oetwe
oetwirking
oetze
oetzeen
oetzending
oetzendinge
oetzenjing
oetzeuke
oetzich
oetziech
oetzitte
oetzo
oetzoondering
oetzundering
oetzunderinge
oetzunderlek
oetzunjering
oetzunjeringe
oetzunjerlik
oetzuut
oetzuutj
oeuvre
oever
oevers
oezbekistan
of
off
offeceer
offensief
offer
offere
offermans
offers
offeseer
offesjeel
offesjele
office
officeer
official
officials
officie
officieel
officiele
officier
officieus
officieuze
offs
ofs
oft
ofte
oftewaal
oftewel
ofwaal
ofwel
ofwen
og
ogen
oh
ohio
ohm
oi
oil
oirschot
ois
oise
oje
ok
oka
oki
okiiki
okiima
okiimi
okiimo
okiimoki
okiimosa
okiimosi
okiimoso
okiimoya
okiiya
oklahoma
oko
okoki
okosa
okosi
okoso
okoya
oktober
oktoeaber
oktoeber
ol
olaf
old
oldenbarnevelt
oldenzaal
ole
oler
olie
olieve
olifant
olifante
oliveira
oliver
olivier
ollongren
ols
olterdissen
olympia
olympisch
olympische
om
oma
omaan
oman
omar
omdat
omdet
ome
omgaeving
omgekomen
omgezatj
ommen
ommer
omroep
on
once
ondanks
onder
onderzoek
one
ongder
ongeluk
onger
ongerdeil
ongerzeuk
ongevaer
ongeval
ongeveer
ongevier
online
only
onna
onnag
onneet
onno
ons
onse
onsen
onser
ontario
ontde
ontdekt
ontfinck
ontsjtange
ontsjtong
ontslag
ontwerp
ontwikkeldj
ontwikkeldje
ontwikkeling
ontworpe
onze
oo
ooch
oog
oohch
ooit
ooj
ook
ool
oonaofgebroke
oonaofhaankelek
oonaofhenkelek
oonaofhenkeleke
oonaofhenkelekheid
oonbekind
oonbekinde
oonbeklemtoende
oonbewoend
oonbruuk
oondaanks
oondanks
oonder
oonderdeil
oonderdeile
oonderdro
oonderein
oondergaange
oondergroond
oonderhaaf
oonderhandelinge
oonderhawwe
oonderling
oonderluip
oondernummer
oonderorde
oondersje
oondersjeid
oondersjeie
oondersjeit
oondersoort
oondersoorte
oonderste
oondersteune
oonderteikend
oonderto
oonderverdeild
oonderweeg
oonderwerp
oonderwerpe
oonderwies
oonderwijl
oonderworpe
oonderzeuk
oonderzeuke
oonderzeukers
oonderzoch
oondudelek
oongebrukelek
oongedoon
oongelo
oongeveer
oongewoen
oonindeg
oonmeugelek
oonmiddellek
oonofficieel
oonras
oonregelmaoteg
oonregelmaotege
oonro
oons
oontboonde
oontbossing
oontbreke
oontbrik
oontde
oontgonne
oontkinning
oontliend
oontlient
oontrunding
oontsjtande
oontsjte
oontslaag
oontstande
oontsteit
oontstoon
oontstoond
oontstoont
oontstoonte
oontvaange
oontwerp
oontwerpe
oontwerper
oontwikkeld
oontwikkelde
oontwikkele
oontwikkeling
oontwikkelinge
oontwikkelingsindex
oontwikkelt
oontworp
oontworpe
oonveranderd
oonverwach
oonvoltoejd
oonvrei
oonzeker
oonzijeg
oonzijege
oor
oord
oordeil
oorlog
oorloge
oorlogs
oorlogse
oorlogsen
oorsjpro
oorsjprong
oorsjpronkelek
oorsjpronkeleke
oorsprunkelek
oortsdeile
oortwolk
oorzaak
oos
ooskant
oosko
oost
oostburg
ooste
oostelek
oosteleke
oostende
oostendorp
oosteriek
oosterieks
oosteriekse
oosters
oosterse
oostvoorne
ooszee
ooszie
oot
op
opa
opaalsig
opaan
opaete
opbeech
opboew
opboewe
opbouw
opbringe
opbrings
opdeile
opdenacker
opdoon
opdrach
opdrachte
ope
opebaar
opein
opeinvolgende
opeise
open
openbaar
openbaer
openbare
opening
opentaal
opera
operaasje
operatie
operation
operazengeres
opere
operere
operette
opgaaf
opgaeve
opgaon
opgeboedj
opgeboewd
opgeboewdj
opgebouwd
opgedaon
opgedeild
opgedrage
opgee
opgegaeve
opgegange
opgegeve
opgegrave
opgehaeve
opgehange
opgehaoldj
opgeheve
opgekoume
opgelag
opgeleid
opgelieverd
opgelos
opgeloupe
opgeloupen
opgeluf
opgelufde
opgemaak
opgemerk
opgenaome
opgeno
opgenome
opgenomme
opgepak
opgepakt
opgerich
opgericht
opgeriech
opgeriechte
opgerope
opgeruump
opgesjlage
opgesjreve
opgesjte
opgeslage
opgeste
opgeteikend
opgetrokke
opgevange
opgevat
opgevatj
opgeve
opgeveurd
opgevo
opgevolg
opgezat
opgezatj
opgezatte
opgo
opgravinge
ophaje
ophange
ophaole
ophaove
ophe
opheffing
ophitse
opho
opins
opium
opkaom
opknappe
opko
opkoms
opkump
ople
opleiding
opleiing
opleijing
oplevere
opligke
oplo
oplosse
oplossing
oplossinge
oploupe
oplufting
opmaak
opmake
opmars
opmarsj
opme
opmerkelek
opmerking
opmerkinge
opmirke
opmirkelik
opmirking
opnaam
opname
opnames
opnieuw
opnumme
opnump
opnuuj
oppakke
oppasse
oppe
oppen
opper
opperbevelho
oppernuuj
oppertied
oppervlaak
oppervlaakde
oppervlaakdje
oppervlaakte
oppervlak
oppervlakde
oppervlakdje
oppervlakte
oppland
oppo
opposer
oppositie
opposition
oprichte
oprichter
oprichting
opriechter
opriechting
oprit
opro
oproop
oprope
oprume
opsjo
opsjrieve
opsjtand
opsjtandj
opsjtaon
opsjte
opslaag
opslaon
opstand
opstandj
opstaon
opstappe
opste
opsten
opte
opten
optie
optische
optoch
optocht
optraeje
optraejes
optre
optrejje
optreujt
optruuedj
opus
opvalle
opvallend
opvallende
opvallendj
opvallendje
opvallendste
opvange
opvarende
opvatting
opvattinge
opve
opveuring
opvo
opvolge
opvolgende
opvolgendj
opvolgendje
opvolger
opvolgers
opvolging
opwe
opwerming
opzat
opze
opzet
opzeuke
opzich
opzichte
opziech
opziechte
opzitte
or
oraal
oraanje
oraansig
orale
orange
oranje
oratorium
orba
orchestra
orde
ordening
order
ordes
ordesjtichter
ore
oregon
org
orgaan
orgaandere
organe
organis
organisaasje
organisatie
organisaties
organisation
organisch
organische
organiseerde
organiseert
organisere
organisme
organismes
organist
organizaasje
organizere
orgaone
orgel
orie
origin
original
origine
origineel
originele
orion
orka
orkaan
orkes
orkest
orkeste
orle
orleans
orphe
orthedoxe
orthodox
orthodoxe
orthodoxie
oryzorictinae
orzjineel
os
osaka
oscar
oser
osi
oskar
oskisch
oslo
osmaans
osmaanse
osmium
oss
ossetie
oswald
oterso
oteur
oteurs
other
oti
otifahi
otifaho
otifi
otifo
otihi
otihik
otihin
otiho
otihoo
otik
otika
otin
oto
otochtoon
otocoureur
otomatisch
otonomie
otonoom
otoo
otoritair
otter
otterdijk
ottersjaermuus
otto
ottomaans
ottomaanse
ottomane
ottomaons
ou
oublier
ouch
ouchal
oud
ouddorp
oude
ouder
ouderkerk
oudewater
oudste
ouer
oug
ouge
ougen
ougs
ougsbraoj
ouk
oultremont
our
ourthe
ous
ouste
out
outside
ouvertuur
ouw
ouwe
ouwer
ov
ovaal
ove
over
overflakkee
overleden
overmaas
overschie
ow
owe
owen
own
owwe
owwel
owwer
oxford
oxied
oze
ozze
oʊ
p
pa
paad
paaf
paal
paar
paard
paars
paarse
paart
paas
paasj
pablo
pach
pacific
pacifier
pactiser
pad
padanu
paderborn
padua
pae
paee
paeper
paer
paerd
paere
paers
paersberich
paerse
pag
page
pagina
paginer
pai
pailler
pain
pak
pakde
pakistaanse
pakistan
pakke
pakken
paks
pakt
pal
palace
palancrer
palangrer
palataal
palatale
palatalisatie
palau
palavere
pale
paleis
paleolithicum
paleontologie
paleontoloog
paleozoi
palestiense
palestijnse
palestina
palies
palladium
pallas
pallier
palm
palme
palmen
palmer
palmyra
palper
palpiter
palts
pamflet
pamplona
pan
panacher
panama
pand
pandemie
pandj
panhael
paniek
panne
panninger
panorama
panthera
pao
paoe
paol
paolo
paort
paortgeboew
paos
paose
paosje
paote
paoter
pap
papa
papandreou
papenhaove
paper
papiaments
papier
papoea
par
para
parabel
parade
paradies
paradigma
parafyletisch
paragogische
paragraaf
paraguay
parai
parallel
parallelle
paramaribo
parana
parc
parcours
pardo
pare
parer
paries
pariese
parijs
paris
park
parke
parkeerd
parker
parkere
parksjtad
parkstad
parlemaent
parleme
parlement
parlementair
parlementaire
parlementarie
parlementsverkezinge
parlemint
parlemintair
parlemintarie
parlemintsverkezinge
parler
parliament
parma
parochie
parochieheilege
parochieke
parochies
parodie
parool
parren
part
partager
partei
parti
participatorische
participium
particulier
particuliere
partido
partie
partiee
partiej
partieje
partij
partije
partitief
partner
partners
party
pas
pascal
pasde
pass
passage
passageers
passagiers
passe
passeert
passen
passendj
passer
passere
passie
passief
passieve
passion
past
pasteur
pastoer
pastor
pastorie
pat
patent
pater
paters
paterskap
patie
patient
patriarch
patrick
patriotte
patsj
paul
paula
pauline
paulo
paulowna
paulus
paus
pausaol
pause
pauseleke
pauw
pavarotti
pave
pavel
pavimentare
paw
pay
pays
paz
pazjena
pc
pdatum
pde
pdf
pe
peace
peak
pearl
pebliek
peblieke
pec
pech
pechte
ped
pedanu
peddere
pedro
pee
peek
peel
peer
peerd
peerdssport
peers
pees
peeters
peetjens
peitsje
pej
peke
peking
pekske
pekskes
pel
pele
pelgrims
pelies
peliesie
pelik
pelissie
pelitie
peloponnesos
pelt
pen
penantie
penanties
pend
pendant
pendj
pendje
pene
pening
peninge
penis
penn
penning
pennsylvania
pens
pense
penser
pensioen
pensjoen
pent
people
pepier
pepiere
pepperig
per
perbeer
perbeerde
perbeerdje
perbeert
perbere
perbleem
perbleme
perblemen
perbliee
perc
perce
perceel
perceis
percent
percentaasj
percer
perces
percesse
percessie
percies
percint
percy
perducere
perduk
perduksje
perdukte
perele
perfect
perfectum
perfek
pergram
peries
periferie
periode
periodes
periodiek
periood
perje
perjek
perk
perm
permanent
permanente
permantig
pernambuco
pernecare
pernegare
pernis
pero
perry
pers
perse
perseniee
perses
persesse
perseue
persies
persieze
persoan
persoean
persoeane
persoeansnaam
persoeansvorm
persoeanswage
persoee
persoen
persoene
persoenelek
persoeneleke
persoenlek
persoenleke
persoensvo
person
personage
personages
persone
personeel
persoon
perspectief
persuuenlik
persuuenlike
pertie
pertieje
peru
pervincie
pervinsie
pervinsienaam
pervinsje
pervinsjes
perze
perzent
perzie
perzisch
perzische
perzoee
pes
pese
pesjtoar
peste
pestoear
pestuur
pet
pete
peter
peters
petersbo
petersburg
petit
petite
peto
petra
petrarca
petro
petroanheilige
petroean
petroenheilege
petrus
peu
peul
peutz
pez
peze
pezetig
peziesie
peziesje
peɪ
pf
pgepak
pgerich
ph
pha
phe
phi
phil
philadelphia
philip
philipp
philippe
philips
phillips
pho
phobos
phoenix
phone
phoner
phong
photo
php
phu
pi
pia
pianis
pianist
pianiste
piano
piaui
picardie
picardisch
picasso
pick
pico
picture
pidanu
pie
piee
piek
pieke
piel
pien
pienlik
pienlike
piep
piepe
pieppe
pier
pierce
pierre
pies
piet
pieter
pieters
pietersberg
pieterske
pietro
piezzel
pig
pijn
pik
pikke
pil
pilere
piloot
pils
pilske
pim
pin
pine
ping
pings
pink
pinkpop
pinkstere
pioneer
pionier
pipe
pipes
piramide
pis
pisa
pisse
pistols
pit
pitch
pits
pitse
pittsburgh
pius
pizza
piɬɬawaka
pjano
pjotr
pk
pke
pkes
pko
pl
pla
plaa
plaanjere
plaank
plaant
plaante
plaat
plaats
plaatse
plaatselik
plaatselike
plaatsen
plaatsgebo
plaatsgevo
plaatsho
plaatsing
plaatsj
plaatsje
plaatsjke
plaatsjname
plaatsnaam
plaatsnaambord
plaatsname
plaatsvindj
plac
place
placentalia
placer
plach
plaetje
plaetjes
plaetske
plafo
plagik
plak
plakbieskes
plan
planck
plane
planeet
planet
planete
planetoi
plank
planne
planning
plant
plantaasj
plantae
plantage
plantages
plantago
plante
planter
plantj
plantje
plantjen
plaog
plaoge
plaots
plaotsde
plaotse
plaotselek
plaotseleke
plaotsgebo
plaotsgevoonde
plaotsnaome
plaotsvinde
plas
plasterk
plastic
plat
platbook
platduutsj
plate
plateau
platform
platina
plato
plats
platt
platte
platteland
plattelandj
plattelandsgemeinte
platwo
play
ple
plechtig
plechtige
pleeg
pleegde
pleetsje
pleetsjes
plefo
plege
plei
pleidik
plein
pleit
pleite
plek
plekke
plekkerig
plenk
plenkert
plenkske
plenning
plestiek
plestiekke
plestik
pletsjbaek
plezeer
plezerig
plich
pliee
plier
plies
pliesie
pliesse
pliessebero
pliessen
plinius
pliquer
plo
ploe
ploenjere
ploge
plombie
plonger
ploog
ploogleijer
plosief
plosieve
plot
plotseling
ploumen
plundere
plus
pluto
pm
po
podanu
podium
poe
poeake
poeat
poef
poejer
poejjer
poekkelig
poel
poels
poep
poepe
poeppe
poes
poet
poetin
poets
poetse
poging
poginge
poh
poignarder
point
poitiers
poker
pol
polder
polders
pole
polen
poletiek
poletieke
polfer
poli
police
policy
polies
polis
politeia
politica
political
politici
politicologie
politicoloog
politicus
politie
politiek
politieke
politieker
politisch
politische
polk
polka
polletiek
polletieke
polletieker
polls
pollux
polo
polonaise
polonium
pols
polsbroek
polygoon
polynesie
polynesisch
polynesische
pommere
ponere
pont
pony
ponyras
pool
poolihchiha
pools
poolse
poor
poort
poorte
pop
pope
poperinge
popmeziek
popmuziek
popmuzikant
popmuzikante
popper
populair
populairder
populaire
populairste
popular
populariteit
populatie
populaties
population
populistische
popzenger
popzengeres
por
porcien
port
portaol
portare
porte
portegal
portegees
porter
porto
portre
portret
portugal
portugees
portugeestaoleg
portugese
portugeze
pos
poscode
positie
positief
posities
positieve
post
poste
postelein
posterholt
posters
postert
postuum
poszegel
pot
potentie
potentieel
potloead
pottentaot
pottentaote
potter
poule
poules
pour
pourchasser
pouser
pousser
poutzer
powell
power
pp
ppe
ppel
ppele
ppen
pper
ppervlakde
ppes
ppig
pping
pr
pra
praag
prach
prachtig
prachtige
praebere
praehibere
praek
praeke
prak
prakkezere
praktiek
praktijk
praktisch
praktische
praoper
praot
praote
pratsj
pratsje
pre
prebere
precies
predikant
predikatief
predikatieve
preens
preensbisdom
preensbisjop
preester
preesters
prefecture
prefectuur
prefectuurniveau
prefix
prehistorie
prehistorische
premie
premier
premiersjap
prengel
pres
presens
present
presentatie
presentator
presentatrice
presenteerde
presenteert
presentere
presidaent
preside
president
presidente
presidential
presidentieel
presidentj
presidentsjap
presidentssjap
presidentsverkezinge
presint
presley
press
presse
presser
prestatie
prestaties
presteerde
prestere
prestiesj
prestige
prestigieus
preuve
pri
prie
pries
priester
prietsj
prietsje
prietsjerig
prieze
priezig
prijs
prijze
prik
prikke
prima
primair
primaire
prime
primera
primitief
primitieve
primo
prin
prince
princes
princiep
principe
principes
prins
prinsbisdo
prinsbisdom
prinsdom
prinse
prinsen
prinses
prinsiep
print
printe
printje
prior
priorie
prioriteit
prison
privaat
private
prive
privileges
prix
prize
prizzede
prizzedent
prizzende
prizzendent
prizzentator
prizzentere
pro
proate
probeerde
probeert
probere
probleem
probleme
proce
procedure
procent
proces
processe
processie
produceert
producent
producer
producere
producte
productie
productief
produk
produkte
produktief
proeaj
proem
proeme
proeve
prof
profeet
professioneel
professor
profiel
profvoetbal
program
programma
progressief
progressieve
proje
project
projectiele
projek
projekte
prokaryote
prominent
prominente
promote
promotie
promoveerde
promoveert
promovere
pronoom
proof
proos
propaganda
proposer
prorail
protectoraat
protectoraot
protes
protest
protestante
protestantisme
protestants
protestantse
proteste
protestere
proto
protocol
proton
protone
protostomia
prototype
prottestante
prottestantisme
prottestantse
prove
provence
province
provinciaal
provinciale
provinciaol
provincie
provincies
provins
provinsie
provinsje
provinsjes
proza
pru
prul
prulle
pruse
pruses
prusische
pruuk
pruus
pruusj
pruusje
pruusjes
pruusse
ps
psalm
psalme
pse
pseudoniem
psfaas
psoe
psv
psychiater
psychiatrische
psychische
psychologie
psychologische
psycholoog
pt
ptj
pu
puberteit
public
publicatie
publicaties
publiceerde
publiceert
publicere
publicis
publicist
publiciteit
publiek
publieke
publique
pudanu
pudding
puerto
pugnare
puin
puis
pukə
pulmonisch
puma
pungel
punk
punkband
punt
punte
puntj
puntje
puntjig
puntsje
pupil
pur
pure
purmerend
purple
push
put
putin
putte
putten
puuet
puun
puur
pvda
pvo
pvoging
pvv
pyre
pyreneee
pyreneje
pz
pæ
pæpe
pø
pœ
pɒ
pɒr
pɔ
pə
pən
pənæ
pər
pəɲɟ
pɛ
pɪ
pɪc
pɪɣər
pɪʝər
pʉ
pʊ
q
qa
qaddhafi
qaeda
qaedah
qatar
qi
qia
qu
qua
quadrare
quake
quam
quamen
quang
quarks
quasi
quatre
que
quechua
queen
queensland
quentin
quenya
quereller
qui
quinquiplicare
quitter
quo
r
ra
raad
raaf
raak
raakde
raakden
raakdje
raakt
raam
raan
raand
raar
raas
raat
rabobank
race
races
rachel
rachter
racine
racing
racisme
raconter
rad
radboud
rade
rademacher
rademakers
radev
radiare
radiata
radicaal
radicaol
radikaal
radio
radioactief
radioaktief
radiopresentator
radium
rae
raee
raege
raej
raeje
raejen
raejene
raejes
raeke
raekene
raekening
raenge
raengen
raengenechtig
raenger
raengerbaog
raengere
raengerig
raengert
raet
raf
rafae
rafael
rai
rain
rajer
rajjaan
rak
rake
raken
raket
rakkere
rakə
ral
ralf
rally
ralph
ram
rama
ramadan
rambo
rame
ramen
ramos
ramp
rampziee
ran
rana
rand
randerath
randj
randstad
randwiek
randy
rang
range
rank
ranonkelfemielje
rant
ranunculaceae
ranunculus
ranzel
ranzels
rao
raod
raodhoes
raodsel
raodselechtig
raodslid
raoe
raof
raoj
raoje
raore
raos
raotem
raoze
rap
rape
rappeleert
rappelere
rapper
rapport
rarchie
rard
rare
ras
rasj
rasjelik
rasp
raspe
rasse
rat
rate
ratificeert
ration
ratte
rau
ravesbo
ravo
ravob
ravobs
ravobso
ravof
ravofo
ravofs
ravofso
ravolo
ravols
ravolso
ravom
ravomo
ravoms
ravomso
ravon
ravono
ravons
ravonso
ravor
ravoro
ravors
ravorso
ravos
ravoyo
ravoys
ravoyso
raw
ray
raymond
razele
razzia
rb
rbeeld
rbeelde
rbie
rbɒ
rch
rche
rcher
rchte
rd
rda
rdaag
rdat
rde
rdelik
rdelike
rden
rder
rdere
rderheed
rderheid
rdes
rdig
rdj
rdje
rdjen
rdjes
rdo
rdoba
rdoor
rds
rdsje
rdə
rdən
rdəs
rdɛ
rdɪc
rdɪɣər
rdɪʝər
re
reactie
reacties
reagan
reageerde
reageert
reagere
reaksie
reaksje
real
realisatie
realisere
realisme
realistisch
realistische
realiteit
rebecca
rebel
rebelle
rebels
rebo
rebro
rec
rece
recensere
recent
recente
recep
rech
rechbank
rechheukig
rechheukige
rechhook
rechoet
rechop
rechs
rechse
rechsjtreeks
rechspraok
rechsspraok
rechsta
rechstreeks
rechszaak
recht
rechte
rechten
rechter
rechterhand
rechterkant
rechts
rechvaerdig
recint
recinte
recklinghausen
reclame
reconstructie
reconstruere
record
records
rector
red
redacteur
redactie
redange
redde
redding
rede
redeenste
redelik
reden
reductie
ree
reed
reej
reek
reeks
reekse
reem
reen
reep
rees
reet
reeuwijk
referendum
reflexief
reformatie
refrein
reg
rege
regeerakkaord
regeerde
regeert
regel
regele
regeling
regelmaesig
regelmaot
regelmaoteg
regelmaotege
regelmaotig
regels
regelt
regen
regensburg
regent
regente
regere
regerend
regerende
regering
regeringe
regeringsvo
regewoud
reggae
regie
regiee
regiering
regieringe
regierungsbezirk
regime
regiment
regina
regio
region
regionaal
regionale
regionaol
regisseur
register
registratie
registrere
regnare
regout
regul
regular
regulier
rehaer
rehe
rehoes
rei
reich
reie
reies
reigel
reigelmaotig
reigels
reigelsbrook
reigelsj
reiger
reije
reijes
reik
reikde
reike
reims
rein
reinders
reine
reinier
reinoud
reis
reisde
reistied
reit
reize
reizendje
reiziger
reizigers
rejaal
reje
rek
reke
rekene
rekening
rekent
reklaam
rel
relatie
relatief
relaties
release
relie
relieke
religie
religies
religieus
religieuze
religion
relik
relizjie
relizjieus
relle
rem
rembrandt
remco
remeens
remeinse
remicourt
remigius
remme
rempig
remund
remung
remunj
remunjs
remunjse
remy
ren
renaissance
renate
renault
rend
rendabel
rende
rendement
rendj
rendje
rendjs
rene
renew
renj
renne
renner
renners
rennes
renovatie
rens
rensport
rent
rente
rep
repe
repebliek
repertoire
replica
report
reposer
representant
reptiele
repu
repubblica
republic
republiek
reputatie
requiem
rer
rerum
res
research
reserve
reservoir
residentie
reskaasje
resolutie
resp
respectievelek
respectievelik
respek
respirer
resserrer
rest
restant
restante
restaurant
restaurants
restauratie
reste
rester
resterant
restig
resultaat
resultate
rete
rethel
reto
retour
retourner
retroflexe
return
reu
reuk
reup
reur
reure
reus
reut
reuters
reuver
revaasj
reve
reveer
reveerke
rever
revere
revier
reviere
revierke
revival
revolutie
revoluties
revolution
revolutionair
revolutionaire
revolver
revue
rewien
rex
rey
reykjavi
reyne
rez
rezjiem
rezjiseur
rezjissa
rezjisseur
reɲ
reɲɟ
reɲɟe
reɲɟen
rf
rfde
rfenis
rfgevalle
rfs
rg
rgde
rgdje
rge
rgel
rgeme
rgemeister
rgemeisters
rgen
rger
rgeraorlog
rgerij
rgerlek
rgerleke
rgermeister
rgeroorlog
rgers
rgersjap
rges
rging
rgingscentrum
rgs
rgse
rgsen
rgsj
rhaer
rhe
rhea
rhein
rheinisch
rheinische
rhenen
rhin
rho
rhodesie
rhythm
ri
ria
ribkwalle
ric
rica
rice
rich
richard
richde
richdje
riche
richt
richte
richter
richtig
richtige
richting
richtinge
richtingsval
rick
rico
ridder
ridderkerk
ridders
rie
riech
riechde
riechte
riechteg
riechtege
riechting
riedj
riee
rief
riej
riejbewies
rieje
riejere
riejerechtig
riejt
riek
riekdo
riekdom
rieke
riekelik
rieker
rieksdaag
riekskanseleer
rieksmonument
rieksmonuminte
rieksmuseum
riekste
riekswaeg
riekswaterstaot
rieksweeg
riem
riems
rien
rienland
rienlandj
rienlands
rienlandse
riep
riepe
rierank
ries
riet
riete
rietjens
rietveld
rieu
rieze
rif
riffereert
rifferendum
rifformatie
rig
riga
rige
rigen
right
rights
rigord
rij
rijdt
rije
rijen
rijk
rijke
rijm
rijn
rijp
rijpeerd
rijssen
rijswijk
rik
rike
rillatief
rilletief
rimburg
rimmersjdel
rin
rindj
ring
ringe
ringen
ringmoer
rings
rink
rinne
rinus
rio
rip
riposter
rippebliek
ripperere
rippubliek
rippublieke
rippublikein
ripuarisch
ripuarische
rique
ris
rise
risico
rit
rita
ritchie
rite
ritme
rito
rits
ritter
ritueel
rituele
rivaal
rivaliteit
river
rivier
riviere
rivm
rivvelutie
rix
rizzeltaat
rizzeltaot
rizzeltaote
rizzeltate
rizzelteerde
rj
rja
rk
rka
rkaome
rkc
rkde
rkdje
rkdo
rke
rkebo
rkelek
rkeleke
rkelekheid
rkelik
rkelike
rkelikheid
rken
rkend
rkende
rker
rkers
rkes
rkgelegeheid
rkhof
rkiee
rkieje
rkije
rking
rkinge
rkischer
rkrao
rkraoj
rks
rkse
rkske
rksp
rkswaordjs
rkt
rkwa
rkwaord
rkwaordj
rkwaordjs
rkzaam
rle
rlik
rlike
rlikheid
rliks
rling
rlinge
rlœ
rlɪk
rm
rma
rmalige
rmd
rmde
rmdje
rme
rmeg
rmege
rmen
rmer
rmes
rmig
rmige
rming
rminge
rmis
rmit
rmke
rmkes
rmlands
rmo
rmp
rmt
rmə
rn
rna
rnaeve
rnao
rne
ro
roa
road
roaj
roaje
roald
roame
roams
roamse
rob
robbe
robert
roberto
roberts
robin
robinson
robot
rock
rockband
rockgitaris
rockmuzikant
rocks
rocky
rococo
roda
rode
rodenrijs
rodin
rodos
roe
roea
roead
roeaj
roeaje
roeajen
roeame
roeams
roeas
roeaze
roeazendaal
roeb
roebbelig
roed
roee
roej
roeje
roelofs
roem
roemaans
roemaanse
roeme
roemeens
roemeense
roemeine
roemeins
roemeinse
roemene
roemenie
roemer
roems
roeps
roer
roerdale
roerdalen
roergebeed
roermond
roermonds
roerstreek
roes
roese
roeselare
roespelechtig
roet
roete
roetsj
roetsje
roew
roewig
roewvogel
rogaland
roger
roggel
rogier
rogkel
rogkels
roi
roj
rok
rol
roland
rolduc
roll
rolle
rolling
rom
roma
romaans
romaanse
romaji
roman
romance
romani
romans
romansjriever
romantiek
romantisch
romantische
rome
romein
romeine
romeins
romeinse
romeinsen
romen
romeo
rommel
romp
rompuy
romsdal
ron
ronald
ronaldo
rond
ronde
rondj
rondo
rondum
rood
roof
rooj
rook
room
rooms
roond
roontelum
roop
roos
roosendaal
roosevelt
roostere
root
rooy
rop
rope
roraima
ros
rosa
rosalia
rose
ross
rossi
rossini
rossum
rostov
rot
rotatie
rote
rotonde
rots
rotse
rotte
rotterdam
rotterdams
rotterdamse
rotzooj
rou
roubaix
rouen
rouf
roufbiee
roufdeer
roufdere
rouge
rouk
rouke
roum
rousseau
route
routes
rouve
rouw
rouwe
rouwen
rowwen
roy
royal
roze
rozenburg
rozendaal
rp
rpe
rpel
rper
rpke
rpkes
rps
rpse
rpsgezich
rpsgeziech
rpsgeziechter
rpske
rpskern
rpskerne
rr
rre
rrek
rreke
rrelkes
rriais
rs
rse
rser
rsing
rsj
rsjappie
rsje
rsjer
rsjing
rsjte
rsker
rso
rst
rste
rt
rtbie
rte
rtel
rten
rtenis
rtenisse
rter
rtiee
rtig
rtigste
rting
rtj
rtje
rtl
rts
rttemberg
rtung
ru
rubber
ruben
rubens
rubicon
rubriek
rubə
rudimentair
rudolf
rudolph
rue
ruf
rug
rugby
ruhr
ruhrgebeed
rui
ruijs
ruike
ruil
ruim
ruimde
ruimte
ruimtesjeep
ruimtesonde
ruimtetelescoop
ruimtetuig
ruimtevaartuig
ruimtewandeling
ruiten
ruiter
ruiver
ruivers
ruizing
ruke
rule
rum
ruma
rume
rumen
run
runde
rundes
rundje
rune
rung
runj
rupert
rupo
rur
rus
rusa
rush
rusland
ruslandj
ruspə
russe
russell
russia
russian
russisch
russische
russischen
rust
ruter
ruters
rutger
ruth
rutherford
rutte
rutten
ruud
ruuedsele
ruues
ruug
ruuk
ruul
ruum
ruumde
ruumdetuug
ruumdevaarder
ruumdje
ruumdjes
ruumte
ruz
ruzie
ruzing
rva
rvan
rve
rvel
rvele
rven
rveur
rvie
rvol
rvoud
rvø
rvə
rwa
rwaeg
rwanda
rwe
rwi
rwien
ry
ryan
ryckeboer
rze
rzelf
rzitter
rzɪc
ræ
ræc
rð
rður
rø
rœ
rɒ
rə
rən
rəvər
rəɲ
rəɲɟ
rəɲɟə
rəɲɟən
rɛ
rɟ
rɟe
rɟen
rɟes
rɟə
rɟən
rɟəs
rɣa
rɣə
rɣəs
rɪ
rɪc
rɪŋ
rɪɣər
rɪɣərə
rɪɣərən
rɪʝər
rɪʝərə
rɪʝərən
rʉ
rʊ
rʝe
s
sa
saame
saami
saanen
saap
saba
sabel
sach
sachereinig
sacrament
sacramente
sacramento
sacrer
sacrificare
sad
saddam
sae
saepig
saer
saere
sag
sagan
sage
sagen
sages
saget
saghen
sagittare
sagittarius
sahara
sai
said
saigner
saint
sainte
sak
sake
sakse
saksen
saksisch
saksische
sal
sala
salem
salemans
salische
sall
sallands
salm
salomonseilen
salon
salt
salutare
salvador
salveolair
salzburg
sam
samara
samaras
same
samegaon
samegedro
samegesjte
samegeste
samegetro
samegevalle
samegeveug
samegevoog
sameko
samelaeving
sameleving
samen
samenhank
samesjte
samespeel
sameste
sametre
samevalle
sameveuge
sameveuging
samevoging
samewe
samewirke
samewirking
samisch
samoa
samuel
san
sancties
sand
sande
sander
sandra
sang
sankt
sans
sanskriet
sant
santa
santana
sante
santi
santiago
santo
santos
sao
saoe
saoedi
saoedische
saort
saorte
saorten
saortgelieke
saoterdigs
saoterdis
saoves
sap
sapiens
sar
sara
sarah
sardinie
sarkozy
sarolea
sartre
sas
saskia
sat
sataki
satan
satana
satani
satano
satanoki
satanosa
satanosi
satanoso
satanoya
sataya
satelliet
satelliete
satire
satirisch
saturnus
sau
saudi
sauerland
saus
sauter
savanne
savoye
sax
saxofoon
saxon
saxə
say
says
sbreef
sc
sca
scala
scandinavie
scandinavische
sce
scenario
scene
scepter
sch
scha
schade
schafhausen
schagen
schandele
schat
sche
scheffer
schelde
schengen
schepen
scheres
schermer
scherpenzeel
scheveningen
schie
schiebroek
schiedam
schiere
schiermonnikoog
schiermonnikoogs
schiet
schietpartij
schiff
schilder
schimmelpenninck
schinderhannes
schinnen
schintaler
schip
schiphol
schire
schizofrenie
schleiden
schloss
schmerling
schmid
schmidt
schmitz
schneider
scho
schoee
schoen
schoenmakers
schokland
scholtmeijer
schone
school
schoon
schoonhoven
schouten
schouwen
schreef
schreurs
schrijven
schrijver
schro
schu
schubert
schultz
schulz
schuman
schumann
schwa
schwarze
science
sciencefiction
sciences
scone
scoorde
scooter
score
scott
scouting
sdaag
sde
sden
sdje
sdu
se
sea
sean
search
sebastia
sebastiaan
sebastian
sebastianus
sec
secare
sechtege
seco
second
seconde
seconder
secret
secretair
secretaris
sectie
sector
sectore
secundair
security
sedan
sedere
sediment
see
seel
seent
seer
sef
seggen
segghen
sei
seide
seil
sein
seine
seipgens
seit
seitenlinie
seizoen
seko
sekond
seks
seksualiteit
seksueel
sel
selben
selber
seldaot
seldaote
sele
selectie
selen
self
selt
selue
seluen
selzerbaek
sem
seme
semi
semitisch
semitische
sen
senaat
senaot
senator
senatore
senden
senegal
seniore
senna
sens
sense
sensor
sent
sente
sentemaeter
sep
separatisme
separatiste
separatistische
sept
september
ser
seraing
sere
serena
serge
sergej
sergipe
serialisme
serie
series
serieus
serjeus
sermoen
serra
serrer
seruacium
seruacius
seruaes
servaas
servaes
servais
servaos
servatius
serve
server
service
servie
servies
servisch
servische
ses
set
sets
seuerijn
seuil
seven
sevenum
severin
sevetig
sevilla
sex
seychelle
sezoen
sezoene
sfaalse
sfale
sfeer
sfriedigs
sfriedis
sgebeed
sgebied
sgoonsdigs
sgoonsdis
sgp
sha
shabaab
shah
shakespeare
shanghai
sharon
shaw
she
sheffield
sheid
shell
shelley
shi
shirt
sho
shooting
short
shot
should
show
shows
shu
shuman
shuttle
si
sia
siam
siamees
siberie
siberische
sibilant
sibille
sic
sich
sicilie
sid
side
sie
sieben
siee
siefer
sieg
siegen
siegfried
siemens
sien
sier
siera
sieraod
siere
sierra
sies
siet
siez
siezig
siezzig
sig
sige
sigismund
sign
signaal
signale
significant
signy
sigre
sigret
sij
sijn
sijne
sijnen
sijnre
sijns
sijs
sijt
sik
silbe
silezie
silicium
silva
silvio
simenon
simo
simon
simone
simons
simple
simpson
sin
sinai
sinatra
sind
sinds
sindsdeen
sine
sinen
siner
sing
singapore
singel
singer
singh
single
singles
sinh
sinneniem
sinnich
sino
sinopel
sins
sinsdeen
sint
sinte
sinterklaos
sintervaos
sintruin
sio
sir
sire
sirius
sirte
sis
sisj
sisje
sit
site
siter
sittard
sittards
situaasje
situatie
situaties
siu
six
sj
sja
sjaaf
sjaaj
sjaak
sjaal
sjaan
sjaap
sjaar
sjaars
sjaasberg
sjaatsberg
sjaatse
sjaatser
sjaatsster
sjab
sjabbetig
sjabloon
sjach
sjae
sjael
sjaele
sjaer
sjaere
sjaermoestenrek
sjaermoestenreks
sjaf
sjaffe
sjafte
sjah
sjake
sjakel
sjakele
sjaker
sjaloen
sjame
sjan
sjandaal
sjang
sjanghai
sjanj
sjans
sjanse
sjao
sjaoj
sjaol
sjaole
sjaop
sjaor
sjaorstein
sjap
sjape
sjapingsliee
sjarel
sjat
sjatte
sjattig
sjatting
sjattinge
sjave
sjbik
sjde
sjdes
sje
sjebbetig
sjedel
sjeem
sjeen
sjeep
sjeepvaart
sjees
sjeet
sjeetpartie
sjef
sjefuuer
sjefuuerse
sjei
sjeibaar
sjeide
sjeidsrechter
sjeidsrechters
sjeie
sjeiel
sjeif
sjeiing
sjeije
sjeijing
sjeik
sjeiko
sjeikundige
sjeit
sjejjelik
sjek
sjekkisch
sjel
sjelde
sjele
sjelje
sjelp
sjelpe
sjema
sjemicus
sjemie
sjemisch
sjemische
sjen
sjendal
sjendale
sjendalig
sjeng
sjenjig
sjepe
sjepebaank
sjepebank
sjeper
sjer
sjerm
sjerp
sjerpe
sjerpenheuvel
sjerplang
sjete
sjeter
sjets
sjetse
sjeu
sjeun
sjeure
sjeut
sjeutig
sjeveninge
sjeze
sji
sjie
sjiech
sjiee
sjief
sjiek
sjiekke
sjien
sjienbaar
sjiene
sjienheilig
sjientj
sjiereiland
sjiereilandj
sjiet
sjiete
sjieve
sjijne
sjijns
sjijnt
sjik
sjikde
sjikke
sjil
sjild
sjilder
sjilderde
sjildere
sjilderes
sjilderie
sjilderieje
sjildj
sjilfere
sjilj
sjiljer
sjiljere
sjiljkro
sjille
sjilvend
sjin
sjina
sjinees
sjinese
sjineze
sjink
sjinke
sjins
sjiphol
sjirvele
sjisma
sjit
sjittere
sjke
sjkes
sjlaaf
sjlaag
sjlaagde
sjlachoffer
sjlachoffers
sjlachoffersj
sjlager
sjlaon
sjlaope
sjlave
sjlaverniej
sjlech
sjlechs
sjlechte
sjleit
sjlennich
sjlete
sjleting
sjloek
sjloes
sjloot
sjlot
sjloveense
sjlowaaks
sjlut
sjmaak
sjmaal
sjmeets
sjmo
sjmoutwo
sjnachs
sjnee
sjnel
sjnelheid
sjneller
sjnelwaeg
sjnelwee
sjnie
sjnieje
sjnoeftoebak
sjo
sjoal
sjoale
sjoan
sjob
sjoe
sjoea
sjoeaje
sjoeal
sjoeale
sjoean
sjoeane
sjoeanheid
sjoeanmake
sjoeans
sjoee
sjoef
sjoeffel
sjoeffele
sjoegkel
sjoekelaat
sjoel
sjoele
sjoelnaam
sjoem
sjoen
sjoene
sjoenste
sjoepe
sjoerd
sjoere
sjoes
sjoester
sjoeverechtig
sjoew
sjoewe
sjole
sjool
sjoon
sjoonder
sjoot
sjop
sjors
sjot
sjotland
sjotlandj
sjots
sjotse
sjotte
sjoud
sjouf
sjouw
sjouwburg
sjouwe
sjouwer
sjouwers
sjpa
sjpaans
sjpaanse
sjpaele
sjpanjaarde
sjpanje
sjpanning
sjpanninge
sjpaor
sjpaore
sjpaorlien
sjpas
sjpawbik
sjpe
sjpeciaal
sjpeelde
sjpeelt
sjpegel
sjpek
sjpekhei
sjpeklaoge
sjpel
sjpele
sjpeler
sjpelers
sjpelling
sjpelt
sjpiee
sjplietsing
sjplitsing
sjpo
sjpoor
sjport
sjportbesjtuurder
sjportversjlaaggaever
sjpraee
sjpraeke
sjprake
sjpraok
sjpraoke
sjpre
sjpree
sjpreke
sjprik
sjpriks
sjpringe
sjproak
sjprook
sjpruk
sjra
sjraar
sjraom
sjraome
sjravele
sjre
sjreef
sjreve
sjrie
sjriee
sjrief
sjriefster
sjrieft
sjrieftaol
sjriefvo
sjriefvorm
sjriefwies
sjrien
sjrieve
sjrieven
sjriever
sjrievers
sjrieversj
sjrif
sjrifte
sjriftelik
sjriftelike
sjriftraditie
sjrijf
sjrijver
sjrik
sjrikke
sjrikkelik
sjrikkeljaor
sjro
sjroap
sjroeap
sjroef
sjroeve
sjrump
sjt
sjta
sjtaak
sjtaat
sjtaats
sjtaatse
sjtaatsgreep
sjtaatsman
sjtad
sjtadhawwer
sjtadhoes
sjtadion
sjtadsmoer
sjtadsrechte
sjtae
sjtaej
sjtaeke
sjtaerk
sjtaet
sjtaking
sjtal
sjtam
sjtamme
sjtamp
sjtamt
sjtand
sjtandaard
sjtandj
sjtank
sjtaon
sjtaonde
sjtaosie
sjtaot
sjtaote
sjtaotsman
sjtap
sjtapde
sjtappe
sjtart
sjtasie
sjtasies
sjtate
sjtatie
sjtation
sjtatus
sjte
sjtedje
sjtedsje
sjtee
sjteeds
sjteeg
sjteet
sjteets
sjteil
sjtein
sjteine
sjteit
sjtek
sjtel
sjtengel
sjter
sjterfdaag
sjterk
sjterke
sjterker
sjterre
sjtert
sjterve
sjteun
sjteunt
sjtich
sjtichde
sjtichte
sjtichter
sjtichting
sjtiechter
sjtiechting
sjtiee
sjtieg
sjtieging
sjtiel
sjtiele
sjtil
sjtille
sjtilt
sjting
sjto
sjtoan
sjtoee
sjtof
sjtoffe
sjtong
sjtool
sjtoon
sjtop
sjtopde
sjtoppe
sjtorf
sjtort
sjtorve
sjtoum
sjtoumturbine
sjtra
sjtraasburg
sjtrand
sjtraobaek
sjtraof
sjtraot
sjtraote
sjtrategisch
sjtreek
sjtreektaal
sjtreke
sjtreng
sjtried
sjtriedkrachte
sjtriee
sjtriejers
sjtriethage
sjtrik
sjtrip
sjtripteikenaer
sjtro
sjtroat
sjtroek
sjtroum
sjtructuur
sjtruimp
sjtruimt
sjtruuk
sjtudeerde
sjtudent
sjtudente
sjtudere
sjtudie
sjtudies
sjtuitj
sjtuk
sjtukke
sjtum
sjtumme
sjtump
sjtumpke
sjturf
sjtuurt
sju
sjue
sjum
sjummel
sjummele
sjure
sjus
sjut
sjuue
sjuuf
sjuuns
sjuur
sjuus
sjuut
sjuve
sjwa
sjɔ
sk
ska
skafahi
skafaho
skafi
skafo
skahi
skahik
skahin
skaho
skahoo
skaka
ske
skele
sken
skes
ski
skie
skik
skin
sko
skoo
sku
sky
sl
sla
slaaf
slaag
slaagmaan
slaagmiee
slaagwerk
slaaj
slaat
slach
slachoffer
slachoffers
slachte
slachtoffer
slachtoffers
slaeg
slag
slage
slak
slam
sland
slandj
slang
slange
slank
slao
slaon
slaop
slaope
slaopkamer
slaot
slaove
slaovernij
slap
slapen
slave
slavernij
slavisch
slavische
slaw
sle
slech
slechoffer
slechoffers
slechs
slecht
slechte
slechten
slechter
sleeg
sleep
sleet
slei
sleip
sleipe
sleiptoean
sleiptoen
sleiptuuenig
sleit
slek
slekke
slete
sleutel
slevevrouw
slevrouw
slevrouweke
sli
slie
sliedrecht
sliee
sliem
sliep
sliepe
slietaasj
sliete
slijn
slik
slikke
slinger
slingere
slintjere
slo
slobodan
slochteren
sloe
sloeffe
sloes
sloet
sloete
sloeting
sloge
sloog
sloon
sloop
sloot
slope
slordig
slot
slote
sloten
sloterdijk
sloveens
sloveense
slovene
slovenie
slowaaks
slowaakse
slowake
slowakije
sluis
sluit
slum
slut
sluutj
sm
sma
smaak
smaal
smake
smale
smalen
smalik
small
smaondigs
smaondis
smart
sme
smeed
smeelj
smeer
smeet
smeets
smeichele
smeje
smere
smerig
smi
smid
smiddigs
smiddis
smie
smiet
smiete
smik
smiltje
smit
smith
smo
smor
smorges
sms
smultjpuntj
sn
sna
snachs
snammedaags
snaor
snaore
snap
snappe
snaps
snavel
sne
snebbele
sneej
sneek
snel
snelder
snelheid
sneller
snelwaeg
sni
snie
snieder
sniee
sniej
snieje
sniekers
sno
snoef
snoeve
snor
snorre
snoter
snotere
snup
snuppere
so
soa
soap
sociaal
sociaaldemocratische
social
sociale
socialisme
socialiste
socialistisch
socialistische
sociaol
sociaoldemocratische
socie
society
sociolek
sociolingui
sociologie
socioloog
soe
soedaan
soedan
soeker
soemerie
soemerisch
soemerische
soen
soep
soest
soeverein
soevereiniteit
sofia
software
sogn
soir
soiron
soja
sojoez
sokrates
sol
solar
soldaat
soldaot
soldaote
soldate
solde
solden
soldiers
soleerd
soleerde
soleil
soleimani
solfer
solis
soliste
solitair
solo
solomon
solte
som
somalia
somalie
somaliland
somalische
some
somers
somme
sommege
sommige
soms
son
sonde
sonden
sonder
sone
song
songer
songfestival
songs
songwriter
sonnaat
sonne
sonorant
sonorante
sont
soort
soorte
soortgelieke
sop
sophia
sophie
sopraan
sotsji
sou
soude
souden
souffler
souhaiter
soul
soulzenger
sound
soundtrack
sous
south
southampton
southern
souvenir
sovjet
sovjetunie
sp
spa
spaan
spaanje
spaans
spaanse
spaarnwoude
space
spade
spaer
span
spang
spanjaarde
spanje
spanjole
spanne
spanning
spanninge
spaons
spaonse
spaonsen
spaor
spaorlien
spaorwaeg
spare
sparta
spas
spat
spatsiere
spatte
spd
spe
spears
specefiek
specefieke
speciaal
special
speciale
specialiste
speciaol
species
specifiek
specifieke
spectare
spectrum
speech
speed
speel
speelder
speeldje
speelgood
speelkaart
speeltj
spegel
spek
spektakel
spel
spele
spelen
speler
spelling
spellingsho
spencer
spermatopsida
sperves
speul
speulde
speule
speuler
speulers
speult
sphinx
spi
spicere
spider
spie
spiee
spiegel
spiegels
spieje
spier
spiere
spieretig
spies
spiet
spietenswaerdig
spietig
spijkenisse
spik
spin
spinne
spinola
spinoza
spirit
spiritueel
spirituele
spits
spitsberge
spitse
spl
spleet
spliete
splieting
split
splitsde
splitse
splitsing
spo
spoeake
spoere
spoje
spontaan
spookdierkes
spookstad
spool
spoonze
spoor
spoorlijn
spoorweeg
sporadisch
spore
sport
sporte
sportief
sports
spot
spotte
spr
spra
sprac
sprach
sprack
sprae
spraek
spraeke
spraeken
spraeker
spraekers
spraekwa
sprake
spraken
spraok
spraoke
spraoken
spraokfemielje
spraokgebroek
spraokkenaal
spraokko
spraokliee
spraoknaam
spraokname
spraokstatus
spre
spreek
spreektaol
sprei
spreie
spreke
spreken
sprekend
sprekende
spreker
sprekers
spreuk
sprik
spring
springe
sprinkele
spro
sprook
sprunk
sprunklebendig
spuit
spuite
spy
spæ
spœ
spɪ
sq
sqrt
square
sr
sri
ss
ssa
ssant
sse
sseko
ssel
sseldo
sseldorf
ssele
sseling
ssem
ssen
ssentied
sser
sserie
sserij
ssers
ssig
ssisch
ssische
ssise
ssisj
ssisje
ssje
st
sta
staad
staaf
staags
staak
staal
staan
staar
staasje
staasjeswaeg
staat
stabiel
stabiliteit
stad
stade
stadhawwer
stadhoes
stadion
stadions
stadium
stads
stadsbestuur
stadscentrum
stadsdeil
stadsdeile
stadsdialekte
stadsdistrikte
stadsfries
stadsgebeed
stadsgeziech
stadsmoer
stadspark
stadsraod
stadsrechte
stadsregio
stadswiek
stadt
stae
staej
staek
staeke
staeken
staele
staen
staeveswaert
staff
stake
staking
stal
stale
stalin
stalle
stam
stamhoof
stamme
stammen
stamp
stampe
stan
stand
standaard
standaardarabisch
standaarde
standaardfries
standaardnederlands
standaardtaol
standard
standbeeld
standerd
standj
standjpuntj
stang
stange
stank
stanley
stao
staof
staok
staoke
staol
staole
staon
staot
staote
staoten
staots
staotsbo
staotsgreep
staotshoof
staotsmaan
staotssecretair
staotsvo
staotus
stap
stapde
stapel
stapele
staphorst
stappe
stapt
star
stare
starebeeld
starebeelde
stareste
stark
start
starte
stasie
stat
state
statement
staten
states
statie
staties
station
statisch
statistiek
statistisch
statistische
statistiska
statline
status
statuut
stavelot
stay
ste
stede
stedje
stedsje
stedsjes
steech
steeds
steef
steeg
steek
steekpartij
steel
steen
steenbergen
steet
stef
stefan
steffeswert
steg
stege
stei
steidelek
steideleke
steiger
steigood
steij
steil
stein
steine
steinfurt
steinkaol
steinmeier
steins
steintied
steis
steit
steitj
stej
stek
steke
stekele
stekker
stekske
stel
stele
stelig
stelige
stelik
stelike
stella
stellen
stellingwerfs
stelt
stem
stemmen
stemoder
stempel
stemra
sten
stendig
stengel
stengele
stenj
stens
stense
step
stephanie
stephanus
stephen
steppe
ster
sterbottens
sterd
stere
stergo
steriek
sterk
sterkdje
sterke
sterken
sterker
sterkste
sterre
sterreko
sterreze
sters
sterse
stert
sterve
sterven
stet
steuke
steul
steun
steunde
steune
steunt
steur
stevader
stevaert
steve
steven
stevens
stevig
stevige
stewart
sti
stich
stichte
stichting
stichtse
stick
stie
stiech
stiechde
stiechte
stiechter
stiechting
stiee
stief
stiefko
stieg
stiege
stieging
stiek
stiel
stielvoller
stien
stiende
stienden
stiep
stiepe
stier
stiere
stieve
stif
stifting
stig
stige
stiger
stigste
stijl
stijle
stijn
stik
stikke
stiksto
stikstof
stil
still
stille
stilstandj
sting
stink
stinke
stinsdigs
stisch
stische
stj
stje
sto
stoan
stock
stockhausen
stockholm
stockholms
stoea
stoeat
stoeate
stoeattoean
stoeattuuenig
stoek
stoekke
stoekkerig
stoep
stoet
stoettoen
stof
stoffe
stok
stokkem
stolle
stols
stond
stonden
stone
stones
stong
stont
stoof
stook
stool
stoon
stoond
stoonde
stoont
stoonte
stop
stopde
stoppe
stopper
stopt
stor
store
storf
stork
storm
stort
stortde
storte
storve
story
stoum
stout
stoute
stove
str
stra
straat
straeten
straeve
straight
strak
straks
strand
strandj
strang
strange
strank
strao
straof
straol
straole
straoling
straot
straote
straoten
straotnaam
straove
strategisch
strategische
straten
strauss
stravinski
straße
stre
streek
streektaal
streektaalzang
streektaol
streektaole
streep
streepke
street
streik
strek
streke
streng
strepe
stress
strie
stried
strieje
striek
strieke
striekers
striekkwarte
striep
strijd
strijen
strik
strikke
strikte
strindberg
string
strip
strips
stripteikeneer
stro
stroek
stroum
stroume
strouming
stroump
structure
structureel
structuur
strui
struie
struimde
struime
struiming
struiminge
struimp
struip
struipe
struktuur
struue
struuk
sts
stu
stuart
stude
studeerde
student
studente
studere
studie
studies
studio
study
stuit
stuk
stukə
stum
stumbenj
stumde
stumho
stumloeas
stumloeaze
stumloeazen
stumloze
stumme
stumming
stump
stunden
stunt
sture
sturm
stuttgart
stuuerendj
stuuering
stuuert
stuur
stvv
style
stæ
stø
stœk
stɒ
stə
stən
stər
stɛ
stɪ
stɪc
stɪk
stɪɣər
stɪʝər
stʉ
stʊ
su
sua
sub
subatomair
subjek
submurmurare
subsidie
subsp
substantief
substantieve
substraot
subtiel
subtroeapische
subtropisch
succe
succes
successe
successieaorlog
successieoorlog
succesvo
succesvol
succesvolle
succesvolste
sud
sue
suezkanaal
sufferd
suffix
suggereert
sui
suicide
sukses
sul
sullen
sullivan
sult
sultan
sultanaot
sum
sumatra
summer
summurmurare
sumpel
sumpele
sumpelewaeg
sumpeleweg
sun
sunday
sung
super
superfemilie
superieur
superlatief
supermert
supernova
superorde
superstam
supinum
support
supporters
supposer
supprimer
supranationaol
supreme
sur
surinaams
surinaamse
suriname
surinamers
surveiller
sus
susan
suske
suspect
suster
susteren
suu
suy
sv
sva
sven
sw
swa
swaeg
swahili
swalmen
swaziland
swedish
sweet
swer
swester
swie
swift
swing
sy
syde
sydney
syfilis
syllaab
syllabe
syllabes
sylvia
symboeal
symbole
symboliek
symbolisch
symbolische
symboliseert
symbool
symfonie
symfoniee
symmetrie
symptome
synagoge
synchroon
syndroom
synoniem
synonieme
syntaxis
synthese
synthesizer
synthesizers
synthetisch
synthetische
syria
syrian
syrie
syrisch
syrische
systeem
system
systematisch
systematische
systeme
sz
szeen
sæ
sør
søren
sœ
sɒ
sə
sɛ
sɣ
sɨ
sɪ
sɪc
sɪɣər
sɪʝər
sʉ
sʊ
t
ta
taai
taak
taal
taalgebroek
taalgrens
taalko
taalkunde
taalkundige
taam
tabel
table
taboe
tach
tachetig
tachteg
tachtegjaoregen
tachtig
tachtigjaorige
tacitus
tadzjieks
tadzjikistan
tae
taege
taegeneuver
taenge
taengegaon
taengekiee
taengeko
taengen
taengenaan
taengenein
taengeneuver
taengeneuvergeste
taengenhaje
taengenhenger
taengeslaag
taengespraeke
taengestandj
taengeste
taengestenjer
taengeweurdig
taengewirke
taengewoordig
taengewuuerdig
taengezin
taer
taere
tag
tagalog
tage
tagke
tai
taiwan
taj
tak
take
takes
taks
tal
tala
talands
tale
talen
talent
taler
taliban
talig
talige
talj
talk
talloes
talriek
talrieke
tam
tamelik
tamil
tan
tanden
tandj
tandjwal
tang
tango
tank
tanks
tant
tante
tanzania
tao
taoe
taofel
taoi
taol
taole
taolgebeed
taolgebruuk
taolgrens
taolkaart
taolko
taolkunde
taolkundeg
taolkundege
taore
taores
tap
tappe
tar
tarantino
tarot
tartrer
tas
tasman
tasmanie
tasse
taste
tat
tau
taunus
taxa
taxi
taxon
taxonomie
taxonomische
tay
taylor
tbei
tbook
tbrook
tbs
tde
tdoen
te
teage
team
teams
teau
tebak
tebannet
techniek
technieke
technisch
technische
technologie
ted
tee
teelt
teen
teentalle
teer
tege
tegedeil
tegele
tegelen
tegeliek
tegeliekertied
tegels
tegen
tegendeil
tegenein
tegeneuver
tegestand
tegeste
tegewoordegen
tegewoordig
tegewoordige
teghen
tegkelig
tegooj
teheran
tei
teike
teiken
teikenaer
teikende
teikene
teikening
teikeninge
teikent
teikes
teil
tein
teit
teite
tej
tejjer
tek
teke
teko
tekort
teks
tekskes
tekssjriever
tekst
tekste
tekstiel
tekstkritische
tel
tele
telefoon
telegraaf
telegraph
telemark
telenovela
telescoop
telescope
teleurste
televisie
televisiepresentator
televisiepresentatrice
television
telketig
tell
telstar
telt
tem
teminste
tempel
tempeleers
temperature
temperaturen
temperatuur
temperatuursjaol
temple
tempo
temps
ten
tenao
tendens
tendj
tenee
teniee
tenj
tenk
tenminste
tennessee
tennis
tennisse
tennisser
tennisster
tenor
tenrecidae
tenrekechtige
tenrekfemielje
tenreks
tenslotte
tent
tentakele
tente
tentoansjte
tenzij
ter
terbliet
terd
terdj
tere
terech
terechgeko
terechko
teresa
terf
tering
term
termaar
terme
termien
termijn
ternejje
terneuzen
ternuer
terpstra
terra
terras
terrasse
terre
terrein
terreine
terrere
territoria
territorium
terror
terroris
terrorisme
terrorist
terroriste
terroristische
terry
ters
terschelling
terschellings
tersloh
tert
terts
teru
terug
terwiel
terwijl
terworm
tes
tesj
teslotte
test
testament
testamint
teste
tester
tet
teuve
teva
tever
teves
teveure
texas
texel
text
texte
texter
textiel
textielindustrie
teyken
teɲɟ
teɲɟe
tg
tgaeving
tgedoon
tgenome
tgerekend
tgete
tgevende
tgeving
th
tha
thai
thailand
thailandj
thaise
thajer
tham
than
thanh
that
thatcher
thawwer
the
thea
theater
theaters
theatre
thee
thei
their
them
thema
thematisch
thematische
then
theo
theodoor
theodor
theodore
theodorus
theologe
theologie
theologische
theoloog
theoretisch
theoretische
theorie
theoriee
theorieje
theory
there
theresa
theresia
thermische
thesis
thessalie
thessaloniki
theunisz
they
thi
thie
thierry
thijs
thing
things
think
thinking
this
tho
thoa
thoe
thoes
tholen
thomas
thompson
thomson
thorbecke
thorn
thornton
thornversjuving
those
thought
thracie
three
through
thu
thua
thuin
thuis
thuuske
thuy
ti
tia
tibet
tibetaans
tibetaanse
tic
tich
ticket
tico
tid
tie
tied
tiedelik
tiedens
tiedes
tiedig
tiedje
tiedlank
tiedpe
tiedperk
tiedrit
tieds
tiedsdoer
tiedsje
tiedsjrif
tiedsjrifte
tiedspuntj
tiedssjrif
tiedsvak
tiedvak
tiedverdrief
tiee
tief
tieger
tiej
tieje
tiejelik
tiejes
tiejig
tiek
tiel
tielt
tiem
tiems
tien
tiende
tienden
tiendoezende
tiendsjuur
tiene
tienne
tientalle
tientallen
ties
tiesse
tiet
tif
tig
tige
tiger
tigris
tihange
tij
tijd
tijde
tijdelek
tijden
tijdens
tijdes
tijdschrift
tije
tijens
tijes
tik
tikfout
tikke
til
tilburg
till
tillefoon
tillevies
tillevisie
tim
timberlake
time
timere
times
timmermans
timo
timor
timothy
tin
tina
tineke
ting
tintin
tip
tippe
tippele
tir
tirar
tirer
tirol
tis
tisch
tische
tit
titan
titanic
titanium
titel
titels
title
tito
titse
titulaer
titus
tj
tje
tjen
tjer
tjes
tk
tl
tland
tlands
tld
tm
tmael
tnam
tnamees
to
toane
tobago
tocantins
toch
tochaars
today
toe
toean
toeane
toeanhuuegdje
toear
toeareg
toears
toebak
toedoon
toedrach
toee
toegank
toegankelik
toegeke
toegelaote
toegenkelik
toegeno
toegepaotj
toegepas
toegesjreve
toegestange
toegeveug
toegevoog
toek
toekke
toeko
toekoms
toekomst
toelaote
toemake
toen
toenaam
toendertied
toendra
toene
toenmalige
toenumme
toep
toepasse
toepassing
toepassinge
toeppe
toer
toere
toerisme
toeriste
toeristisch
toeristische
toernoje
toernooi
toernooj
toerre
toert
toes
toese
toesj
toesje
toesjte
toesjtel
toesjto
toespraok
toestandj
toestaon
toeste
toestenj
toestumming
toet
toetaan
toetane
toetdet
toete
toetse
toette
toetten
toeval
toevallig
toeveuge
toeveuging
toew
toewe
toewen
toezich
tog
togo
tok
tokio
tokyo
tol
tolkien
toll
tom
tomas
tomate
tombe
tomber
tome
tommy
ton
tonee
toneel
toneelsjriever
toneelsjto
tong
tonga
tonge
tongere
tongeren
tongheren
tongval
toniee
tonnag
tonneet
tony
too
toog
toon
toonder
toos
toosje
top
topklasse
topleveldomein
topografie
topografische
toponiem
toponieme
toponymie
tor
tore
toren
tores
torie
tornado
toronto
torres
toscane
tot
totaal
totale
totaol
totdat
toter
totten
tottenham
tou
toucher
touffer
toulouse
toum
tour
tourner
tours
tout
touveniee
touw
touwbak
touwbedeild
touwgaank
touwgekind
touwgelaote
touwgenkelek
touwgenome
touwgepas
touwgesjreve
touwgestande
touwgeveug
touwgevoog
touwgeweze
touwkoms
touwnummende
touwpassing
touwpassinge
touwstumming
touwval
touwveuging
tow
tower
town
tr
tra
trabaj
trabajar
trace
trach
trachte
track
tractaat
trade
traditie
tradities
traditioneel
traditionele
trae
traej
traeje
traetere
train
trainer
training
traje
trajek
tram
tranquillare
trans
transcriptie
transfer
transformatie
transitief
transnistrie
transport
transportare
transsylvanie
transvaal
trao
traog
traoj
traon
traone
trap
trappe
tras
tratsje
traumahelikopter
travailler
travertin
tre
tree
treedt
treffe
treft
trein
treine
treinen
treins
treinsverkiee
treinverkeer
trej
trejje
trejt
trek
trekke
trema
trend
trends
trente
trepels
trepkes
tres
treu
treujt
treure
treurig
tri
trial
trias
triatlon
tribbenaal
tribbenaol
trie
triecht
triek
trien
triene
trienke
trier
trijn
tril
trille
trilling
trillinge
trinidad
trinity
trio
trip
tripoli
tripolitanie
tristan
tro
troan
troch
troe
troean
troeapisch
troeapische
troeas
troee
troef
troen
troep
troepe
troeve
troew
troewe
trof
troffe
troie
trois
trojde
troje
trok
trokke
trol
trom
trompe
tromper
trompet
trompettis
trompo
troms
trooj
troops
troost
trop
trope
tropisch
tropische
trots
trotski
trou
troubadour
troubadours
trouble
trouf
trouw
trouwde
trouwe
trouwen
trouwens
trouwes
trouwt
trouwtj
troy
tru
truck
true
truf
trui
truk
truman
trump
truuedj
truues
truueste
truuj
truuk
truus
truye
try
trøndelag
ts
tsaar
tsberg
tsberger
tsch
tsdet
tse
tsel
tsele
tsels
tsember
tsen
tsig
tsj
tsjaad
tsje
tsjeche
tsjechie
tsjechisch
tsjechische
tsjecho
tsjechoslowakije
tsjes
tsjetsjenie
tsjland
tsjlank
tske
tskes
tsl
tslig
tsn
tsoekke
tssjtriejer
tst
tste
tsten
tstens
tstes
tstɛ
tsunami
tsyega
tsə
tt
tta
ttahako
ttahasik
ttahaso
ttahasoo
ttaka
ttako
ttaso
tte
tteg
ttel
ttele
ttelek
tteleke
ttelik
ttelike
tten
ttendj
tter
tterao
tterbloom
tterd
ttere
ttergreep
ttergrepe
tterie
tterkundige
tterlek
tterlik
tters
ttersj
ttestere
ttig
ttige
ttigheid
tting
ttinge
ttis
ttur
tu
tuba
tuchtig
tue
tuer
tuge
tuin
tuinde
tuindo
tuine
tuint
tuintj
tuk
tum
tummere
tummerman
tump
tun
tunesie
tung
tungelder
tungers
tunis
tunisia
tunk
tunnel
tupi
tupisch
tupolev
tur
turbine
turbulens
turdus
turf
turien
turke
turkey
turkiee
turkije
turkish
turkmenistan
turks
turkse
turn
turner
tus
tusje
tusse
tussen
tussje
tut
tutsi
tutu
tuuen
tuug
tuunt
tuup
tuur
tuvalu
tuy
tuye
tv
tva
tvo
tw
twaalf
twe
twee
tweede
twei
twelf
twelfde
twelfden
twellef
twente
twents
twenty
twerk
twie
twiede
twieden
twiedens
twiedes
twiee
twiefel
twiefele
twiefelechtig
twieklaank
twieklaanke
twietaoleg
twievel
twin
twinteg
twintegste
twintegsten
twintig
twintigste
twintigsten
twintjig
twintjigste
twintjigsten
twiste
twitter
twitty
two
ty
tyfoon
tyler
typ
type
typerend
types
typisch
typische
tz
tzelfde
tzelfdje
tzelvendje
tzu
tæ
tæg
tø
tøc
tœ
tœc
tɒ
tɔ
tɔs
tə
təl
tən
tər
tɛ
tɣ
tɨ
tɪ
tɪc
tɪŋ
tɪɣər
tɪɣərə
tɪɣərən
tɪʝər
tɪʝərə
tɪʝərən
tʃ
tʃi
tʃə
tʉ
tʊ
u
ubachsberg
ube
uber
uc
uch
udanu
uden
ue
uefa
uerdinger
uff
ui
uige
uit
uitg
uitgave
uitgegeven
uitgeverij
uitgevers
uk
ukraine
ul
ule
ulesjtraote
ulespegel
ulrich
ulysses
um
umbe
umberto
umdat
umdet
umgaeving
umgebrach
umgeduip
umgee
umgekierd
umgekierde
umgeve
umgeving
umgezat
umheen
umhoeg
umlaut
umlieg
umligkende
umm
umme
ummer
ummertoe
ummertouw
umringende
umroop
umsjreve
umsjrieve
umstreje
umstrejje
umtot
umtre
umtrint
umvaank
umvat
umvatde
umvatte
un
una
unaniem
und
undare
unde
under
underground
une
unesco
ungelste
unger
ungevee
unie
uniek
unieke
uniform
union
united
universeel
universitair
universite
universiteet
universiteit
universiteite
university
universum
unj
unjere
unna
unne
uns
unterbruch
uo
up
upend
upp
upper
uppsala
ur
uranium
uranus
urbanus
urdu
urges
urk
urkers
urks
ursidae
ursjte
ursula
ursus
uruguay
us
usa
user
uss
ussr
ustulare
ut
utah
utc
ute
uterlek
uterlik
uterlike
uters
uterste
uting
utopia
utrech
utrechs
utrechse
utrechsen
utrecht
utrechts
utrechtse
utrei
uu
uuch
uue
uuemeujig
uuemujjig
uuever
uuj
uul
uur
uut
uv
uvulair
uvulaire
uvulairen
uvver
uw
uwe
uwer
uws
uwse
uyl
uz
v
va
vaad
vaadj
vaadsvo
vaadsvorm
vaag
vaahder
vaaj
vaaje
vaajer
vaak
vaal
vaals
vaam
vaan
vaanaajds
vaanajds
vaanaof
vaandan
vaandao
vaandaog
vaanein
vaange
vaanoet
vaanwege
vaanzelf
vaar
vaarder
vaart
vaartuug
vaas
vaat
vaccin
vach
vacueerd
vacuer
vacuu
vader
vaderland
vaderlandj
vae
vaee
vaeg
vaege
vaer
vaerder
vaerdig
vaerdigheid
vaere
vaert
vaes
vagevuur
vagina
vaje
vajer
vak
vakantie
vakbo
vakgebied
vakke
vakwerk
vakwerkhoes
vakwerkhoezer
val
valbro
vale
valencia
valk
valkeberg
valkebergs
valkebergse
valkenburg
valle
vallei
vallen
vallendje
valley
valois
vals
valse
valsj
valt
valuta
van
vanaaf
vanaf
vanallein
vanaof
vandaag
vandaan
vandan
vandao
vande
vandekerckhove
vanden
vander
vanein
vang
vange
vangen
vanne
vannen
vanoet
vanoete
vanoeten
vant
vanuatu
vanuit
vanwaege
vanwaenge
vanwege
vanzelf
vaols
vaort
var
vara
vare
varen
varf
variaasje
variant
variante
variantj
variatie
variaties
varie
varieert
varieertj
varn
varrejasie
varsj
vart
vas
vasco
vasgegreujd
vasgelag
vasgemaak
vasgesjte
vasgesjteld
vasgeste
vashaje
vasle
vasligke
vasmake
vaspakke
vasste
vast
vaste
vasteland
vastelandj
vastelaovend
vastelaovendj
vastelaoves
vastelaovesgeze
vastelaovesleedjes
vastelaovesvereiniging
vasteloavend
vasten
vastenaovend
vaster
vasval
vaszitte
vat
vater
vaticaan
vaticaans
vaticaanstad
vaux
vawee
vazalstaot
vbɛ
vc
vda
vdl
ve
vec
vech
vecht
vechte
vechtig
vee
veee
veehawwerij
veel
veen
veende
veendel
veenkolonie
veer
veerde
veerdeg
veerden
veerdje
veere
veerho
veerkante
veerkantj
veerkantje
veerkentege
veerkentige
veerkentjig
veers
veerteg
veertiee
veertien
veertiende
veertienden
veerveutig
veerze
vees
vega
vegas
vegetatie
veghel
veil
veileg
veilegheid
veilegheidsraod
veilig
veilige
veiligheid
veiligheidsraod
veiller
vel
velair
velaire
velbru
veld
velde
veldeke
veldekespelling
velden
velder
veldhoven
veldj
veldjnaam
veldjslaag
vele
velj
veljelike
veljer
veljig
veljige
veljigen
velopper
velsen
velste
velt
veluwe
veluws
ven
vend
vendaog
vende
vendj
venetiaanse
venetie
venetisch
venezolaanse
venezuela
veng
venienig
venlo
venloos
venlose
venne
venray
venrods
venroj
vent
venus
veolia
ver
vera
veraanderd
veraanderde
veraandere
veraandering
veraanderinge
veraandert
verachte
verajerd
verajerdje
verajere
veranda
veranderd
veranderde
verandere
verandering
veranderinge
verandert
verangerd
verangerde
verangerdj
verangerdje
verangere
verangering
verangeringe
verangert
verangertj
verankere
verantjwa
verantjwuuerdelik
verantjwuuerdelikheid
verantweurdelek
verantwoordelek
veraordeild
verawwerd
verb
verbaal
verbaand
verbaeterde
verbaetere
verbaetering
verband
verbandj
verbandsvrie
verbanne
verbanning
verbao
verbaoge
verbaoje
verbastering
verbe
verbeek
verbeelding
verbeje
verbele
verberge
verbeterde
verbetere
verbeujt
verbiesen
verbinde
verbinding
verbindinge
verbindj
verbingk
verbinje
verbinjing
verbinjinge
verbint
verbleef
verblief
verbliefplaats
verblieve
verbo
verboaje
verbod
verboden
verboedj
verboewd
verboewdj
verboewe
verboewing
verboewinge
verboge
verboje
verbooj
verboond
verboonde
verborg
verborge
verbouwd
verbraeke
verbrandj
verbranje
verbranjing
verbre
verbroek
verbroeke
verbuging
verbuiging
verd
verdach
verdachdje
verdachte
verdaejige
verdaejiging
verde
verdediging
verdeeld
verdeende
verdeenste
verdeent
verdeidige
verdeild
verdeilde
verdeildj
verdeile
verdeiling
verdeilt
verdene
verdeping
verdepinge
verder
verdi
verdinking
verdo
verdomme
verdomp
verdonk
verdraag
verdrag
verdrage
verdreet
verdretig
verdreve
verdrieve
verdrinke
verdro
verdroonge
verdruuege
verdudelikingspazjena
verdun
verdween
verdwene
verdwiene
verdwient
verdwijne
verdwijnt
vere
veree
verein
vereineg
vereinegde
vereinege
vereineging
vereinig
vereinigd
vereinigde
vereinigdje
vereinige
vereiniging
vereiniginge
vereis
verenigd
verenigde
vereniging
verere
vererving
vereuverd
vereuverde
vereuvere
vereuvering
vereuvert
verf
vergadere
vergadering
vergaet
vergaete
vergaeve
vergange
vergangen
vergangene
vergaon
vergaoring
verge
vergeet
vergeit
vergelek
vergeleke
vergeliek
vergeliekbaar
vergeliekbare
vergelieke
vergelieking
vergeliekinge
vergete
vergeten
vergeuje
vergeujing
vergeze
vergif
vergiftig
vergissing
vergliek
vergliekbaar
verglieke
verglieking
vergo
vergreudj
vergriezing
vergroee
vergruuete
vergunning
verha
verhaal
verhagen
verhajding
verhajing
verhalen
verhange
verhaol
verhaole
verhaolebundel
verhe
verhelpe
verheve
verhiee
verho
verhoeg
verhoes
verhoesde
verhoeze
verhofstadt
verhuisde
verhuueg
verhuuegdje
verhuuege
verhuueging
verhuusde
verie
veriee
vering
verinneweerd
verinnewere
verinnewering
verja
verjage
verjaordaag
verka
verkaad
verkaadj
verkaadjigheid
verkaajdjhed
verkaoze
verke
verkes
verkeze
verkeziginge
verkezing
verkezinge
verkezingsprogram
verkie
verkiee
verkiensje
verkier
verkierd
verkierde
verkiezinge
verkiezingen
verklaord
verklaorde
verklaordj
verklaore
verklaoring
verklaoringe
verklaort
verkleie
verkleine
verkleinvorm
verkleinwa
verkleinwaord
verkleinwoord
verknoeaje
verko
verkoch
verkochte
verkort
verkorte
verkorting
verkoup
verkoupe
verkoze
verkrachting
verkraog
verkrege
verkrieg
verkriege
verkriet
verlaege
verlag
verlange
verlaore
verlaoren
verlaote
verle
verleden
verlee
verleechte
verleechting
verleef
verleep
verleerders
verlees
verleet
verlege
verleie
verleien
verleje
verlengde
verlenging
verlengk
verlere
verlete
verlets
verletsdje
verleze
verlichte
verlichting
verliee
verliend
verliest
verliet
verligke
verlingdje
verlinge
verlingk
verlo
verloare
verloeste
verloor
verlore
verloren
verlos
verlossing
verloup
verloupe
verluf
verluip
verluis
verlus
verluus
vermaak
vermake
vermaord
vermaorde
vermaore
verme
vermeer
vermeinigvo
vermeld
vermelding
vermeldj
vermelje
vermeljenswaerdig
vermeljing
vermeuge
vermieje
verminderd
vermindere
verminge
verminging
vermingk
vermis
vermiste
vermoard
vermoedelik
vermoge
vermoord
verna
vernagere
vernam
vernamen
verne
vernejjing
vernele
vernetig
vernetige
verneumdje
verneump
vernomen
vernuiing
vernuje
vernujing
vernurftig
vernuujd
vero
veroarzaak
veroeardeildj
veroearzaak
veroearzake
veroearzakendj
veroerdeild
veroerdeilt
veroerzaak
veroerzake
veronica
veroonderste
veroordeeld
veroordeild
veroorzaak
veroorzaakt
veroverd
veroverde
verovere
verovert
verpak
verplaats
verplaatse
verplaatsing
verplaatsj
verplaots
verplaotse
verpleegster
verplich
verplichte
verplichting
verpliech
verraengere
verrakkere
verraod
verraoje
verrasse
verrassing
verre
verrich
verrichte
verriech
verrinneweert
verro
verroewige
verrotte
verrundj
vers
versa
versailles
verschil
verschillende
verse
verseerd
versie
versielink
versierd
versiere
versiering
versies
versjaove
versje
versjeen
versjeie
versjeien
versjeienheid
versjendeleerd
versjene
versjet
versjiene
versjiening
versjiensel
versjiensele
versjient
versjijne
versjijnsel
versjijnt
versjik
versjikke
versjil
versjille
versjillen
versjillend
versjillende
versjillendje
versjillig
versjillige
versjilt
versjiltj
versjlaag
versjlage
versjlaon
versjleit
versjo
versjoele
versjpre
versjpreid
versjrikke
versjrikkelik
versjro
versjterk
versjterkde
versjuuf
versjuve
verslaaf
verslaag
verslage
verslakkere
verslaon
versleit
verslete
versliete
versloog
versloon
verspe
verspre
verspreid
verspreide
verspreie
verspreiing
verspreijing
verstaeke
verstaen
verstand
verstande
verstandj
verstange
verstaoke
verstaon
verstaonbaar
verstappen
verste
versteidelek
versteit
verstenjig
versterk
versterke
versterking
verstoon
versumpeldj
versumpeldje
vert
vertaald
vertaalde
vertaaldj
vertaengewuuerdiger
vertaere
vertale
vertaler
vertaling
vertalinge
vertaold
vertaolde
vertaoling
vertaolinge
verte
vertegewoordeg
verticaal
vertikaal
vertraging
vertraoging
vertre
vertrejt
vertreujt
vertro
vertroewe
vertroewen
vertrok
vertrokke
vertrooje
vertrouwe
vertuine
vertuint
vertuuene
vervaange
vervaele
vervaelendj
vervaelendje
vervaeling
vervaerdig
verval
vervalle
vervange
vervanger
vervanging
verve
verveel
vervenger
verveug
verveuging
verveur
verveurd
verveure
verveurmiddel
verveursmiddel
verviers
vervingk
vervo
vervoeling
vervolg
vervolge
vervolgens
vervolges
vervolging
vervreugde
verwaant
verwach
verwachde
verwachte
verwachting
verwachtinge
verwaege
verwaere
verwaltungssitz
verwant
verwante
verwantj
verwantje
verwantjsjap
verwantsjap
verward
verwarre
verwarrendj
verwarring
verwe
verwees
verweike
verwerme
verwete
verweus
verweze
verwies
verwiest
verwiet
verwiete
verwieze
verwiezing
verwiezinge
verwijs
verwirk
verwirke
verwo
verwoes
verwoest
verworpe
verworve
very
verzameld
verzamelde
verzamele
verzameling
verzamelnaam
verzaomelnaom
verzat
verze
verzeen
verzekere
verzekering
verzen
verzet
verzeuk
verzeuke
verzichtig
verziee
verzinne
verzitte
verzo
verzoepe
verzorg
verzorge
verzwake
verzwinje
verzwo
ves
vesder
vest
vesta
vestdijk
veste
vestegde
vestege
vesteging
vestfold
vestigde
vestige
vestiging
vestigt
vesting
vestingstad
vesuvius
vet
vetare
veu
veug
veuge
veugel
veugelke
veuj
veuje
veul
veulde
veuldje
veule
veulen
veuls
veult
veultj
veur
veuraaf
veuraafga
veuraafgegange
veuraafgeit
veuraan
veural
veuraovendj
veurawwer
veurawwers
veurbeeld
veurbeelde
veurbeelder
veurbeeldj
veurbeildjsval
veurbie
veurbiegengers
veurbij
veurbild
veurbiljer
veurblaad
veurbo
veurdat
veurde
veurdeil
veurdeile
veurdeilig
veurder
veurdet
veurdeur
veurdje
veurdoon
veurdrach
veurduit
veure
veureg
veurege
veureljer
veuren
veurgedaon
veurgeko
veurgenger
veurgengers
veurgesjreve
veurgeste
veurgevel
veurgood
veurgoonde
veurhaer
veurhaof
veurheer
veurhenj
veurig
veurige
veurjaor
veurka
veurkantj
veurkaom
veurkeur
veurklinker
veurklinkers
veurko
veurkomme
veurkop
veurkoume
veurkoumende
veurkump
veurle
veurluipeg
veurluipege
veurluiper
veurluipig
veurluipige
veurmaan
veurmalig
veurmalige
veurman
veurmaoleg
veurmaolege
veurmaolig
veurmaolige
veurnaam
veurnaamste
veurnaamwa
veurnaamwaord
veurname
veurnamelik
veurnaom
veurnaomelek
veurnaomste
veurnaomwa
veurnaomwoord
veurne
veuroet
veuroetgank
veuroetko
veurop
veurpagina
veurplantje
veurraod
veurrundes
veurs
veursjrif
veursjte
veurslaag
veurspe
veurspood
veurspraok
veursprunk
veurstad
veurste
veurstei
veurt
veurtaan
veurtaol
veurtaon
veurtj
veurtot
veurtplantjing
veurtre
veurtuger
veurtuug
veurval
veurveugsel
veurveugsele
veurwaarde
veurwaerd
veurwe
veurwerp
veurwerpe
veurwerpen
veurwirp
veurwirpe
veurze
veurzeen
veurzeninge
veurzichtig
veurziechteg
veurzien
veurzitsel
veurzitte
veurzitter
veurzittersjap
veurzo
veurzuut
veut
vewi
vez
vezele
veɲɟ
vgl
vi
via
viaj
viajar
vianen
vic
vice
vicente
vicepremier
vicepresident
vichy
vicia
vicious
victor
victoria
vide
video
vider
videre
vie
viee
vief
viefde
viefdje
viefho
vieftalle
viefteg
vieftiee
vieftien
vieftiende
vieftienden
vieftig
viejenjig
viel
viele
vielender
vienne
vier
vierde
viere
viering
viert
vies
vietnam
vietnamees
vietnamese
vietnamoorlog
viever
vieversj
view
vieze
viezigheid
vig
vii
viii
vijand
vijande
vijf
vijfde
vik
vikinge
viktor
vil
vila
vild
villa
village
ville
villers
vilt
viltj
vilvoorde
vin
vinas
vincent
vinci
vind
vinde
vinden
vindj
vindt
ving
vinge
vinger
vingere
vingk
vinj
vinje
vinjen
vinjs
vink
vinke
vinlo
vinloos
vinnig
vinraoj
vinster
vint
viola
violence
violis
violist
viool
vioolconcert
virgin
virginia
virtueel
virus
virusse
vis
visa
vise
visere
visie
visitatie
visj
visschers
visse
visser
vista
vit
vita
vitamine
vite
vitesse
vith
vitoria
vitsje
viva
vivaldi
vk
vla
vlaak
vlaams
vlaamse
vlaandere
vlaanderen
vlaardingen
vladimir
vlag
vlagge
vlak
vlakbie
vlake
vlaker
vlakere
vlakke
vlakkere
vlam
vlaminge
vlamme
vlammen
vlamsj
vlamsje
vlaoms
vlaomse
vlaondere
vlaot
vlas
vld
vle
vleeg
vleegbereik
vleege
vleegmachien
vleegmesjien
vleegtuge
vleegtuug
vleegtuuge
vleegveld
vleegveldj
vleermuis
vlees
vlege
vlegen
vlegendje
vleger
vleis
vleisj
vlek
vlekke
vleugel
vleugele
vleugels
vleujbaar
vleujsto
vleujstof
vleuten
vliegen
vlies
vliet
vlindersjlaag
vlissinge
vlissingen
vlist
vlo
vlodrop
vloearep
vloeibaar
vloer
vloke
vlood
vloog
vlook
vloot
vlorp
vlot
vluch
vluchde
vlucht
vluchte
vluchtelingen
vlug
vluig
vluj
vlujbaar
vlujje
vlujsto
vluue
vluug
vlø
vmbo
vn
vo
voc
vocaal
vocabulair
vocale
vocaol
vocaole
vocare
vocatief
voch
vochteg
vochtig
voe
voeagel
voeding
voedsel
voel
voele
voelender
voer
voere
voeren
voeres
voert
voerwaer
voes
voet
voetbal
voetbalboond
voetbalclub
voetbalclubs
voetbalcoach
voetbale
voetbalkeeper
voetballe
voetballen
voetballer
voetballers
voetbalmatche
voetbaltrainer
voeten
voge
vogel
vogels
vogelsoorte
voging
voice
vojvodina
vokaalhuuegdje
vokaalposiesje
vol
volapu
volare
volck
voldoen
voldoende
voldoon
volendam
volg
volga
volgde
volgdje
volge
volgelinge
volgen
volgend
volgende
volgenden
volgendj
volgendje
volgens
volges
volgorde
volgrie
volgt
volk
volke
volkebo
volker
volkerbo
volkere
volks
volkscultuur
volksgeluif
volkskrant
volksleed
volksleedsjes
volksmeziek
volksmo
volksmoond
volksname
volkspartij
volksrepubliek
volksrippubliek
volkstaol
volkste
volkstelling
volkstsello
volksverhaole
volksverhuizinge
volle
volledig
volledige
vollek
vollen
volleybal
volmake
voloet
volop
vols
volstenjig
volstenjige
volt
volta
voltaire
voltoeadj
voltoejd
voltrokke
volueerd
volume
volwasse
volwassen
volwassene
volweerdeg
volweerdege
vom
von
vond
vondel
vonden
vondst
vong
vonj
vonnis
voog
voogwaord
vool
voolt
voolte
voond
voonde
voondste
voont
voonte
voor
vooral
voorburg
voormalig
voorman
voorne
voors
voorst
voorste
voorstedo
voort
voorzitter
voot
vootbal
vootballer
vor
vora
vorchte
vore
voren
vorm
vormde
vorme
vors
vorsjing
vorst
vorste
vort
vos
vosges
vot
vote
voter
votes
votlaok
voud
vouk
vouksmo
vouksname
voukspartie
vous
vouziers
voyage
voyager
vra
vrach
vrachwage
vrachwages
vrae
vraej
vraem
vraemb
vraemdje
vraemp
vraet
vraete
vragen
vrao
vraog
vraoge
vraogen
vraogendj
vraogsto
vre
vrech
vrede
vredig
vree
vreej
vreem
vreemde
vreemp
vrei
vreidespries
vreis
vreje
vrek
vrere
vres
vreu
vreug
vreuge
vreugen
vreuger
vreugere
vreugeroet
vreugjaor
vreugmodern
vreugmodernen
vreugste
vreujaor
vreze
vri
vrie
vriedag
vriedig
vriedigtenaovendj
vriee
vriegaevig
vriegeko
vriegelaote
vriehe
vrieheid
vriej
vrieje
vriejheidsbeeld
vriejwaal
vrieko
vriekump
vriend
vriendin
vrienten
vries
vriesta
vriethof
vriewaal
vriewillig
vriewilligers
vrij
vrijdag
vrije
vrijen
vrijgelaote
vrijhede
vrijheid
vrijstaot
vrijwe
vrijwel
vritj
vro
vroag
vroage
vroe
vroeg
vroeger
vroenhof
vroenhove
vroew
vroge
vroog
vroom
vrou
vroude
vrouw
vrouwe
vrouwelek
vrouweleke
vrouwelik
vrouwelike
vrouwen
vrouwevoetbal
vrouwlje
vrouwljen
vrouwlui
vrouwluuj
vrouwmis
vrow
vrowe
vrowen
vrt
vru
vruch
vruchte
vruike
vruikes
vruiwke
vruiwkes
vrun
vrund
vrundin
vrundj
vrundjsjap
vrundsjappeleke
vrunj
vruntjelik
vruueg
vruueger
vrø
vrɒ
vrɛ
vs
vu
vuch
vue
vught
vul
vulgair
vulgaris
vulkaan
vulkane
vulkanische
vulnerare
vulpes
vum
vun
vunden
vundj
vunnef
vuno
vunzig
vur
vurbeej
vure
vuren
vurge
vurig
vurm
vurrig
vurrige
vurste
vus
vut
vuue
vuuel
vuuer
vuul
vuur
vuural
vuurko
vuurmalig
vuurmalige
vuurnamelig
vuursjte
vuurstein
vuurwaope
vuurwe
vuurwerk
vv
vvd
vvel
vver
vvv
vy
væ
væc
vø
vœ
vɒ
və
vəl
vən
vər
vərɣə
vəs
vəɲɟ
vɛ
vɪ
vɪc
vɪŋ
vɪɣər
vɪʝər
vʉ
w
wa
waak
waal
waals
waalse
waalwijk
waan
waar
waard
waarde
waardering
waare
waarnumme
waarom
waarsjienlik
waas
waasten
waat
waatfer
wach
wacht
wachte
wachten
wad
wadde
waddezie
waddeziee
wade
wae
waee
waefsel
waeg
waegbrei
waege
waeges
waegkruus
waegkruzer
waek
waekblaad
waeke
waeken
waekinj
wael
waelig
waelj
waelt
waeltkre
waeltkreeg
waeltwied
waem
waer
waerd
waerde
waerdig
waerdj
waerdje
waerdjen
waere
waereld
waereldaorlog
waereldj
waereldkampio
waereldkampioen
waereldkampioensjap
waereldkampioensjappe
waereldoorlog
waereldrecord
waereldtentoansjte
waereldtitel
waereldwied
waeren
waerendj
waerheit
waerk
waerke
waers
waerso
waerstandj
waert
waertj
waerwouf
waes
waeve
waeze
waezes
waffel
waffele
wage
wagen
wageningen
wages
wageveurder
wagner
wahlwiller
wai
waje
wake
waken
wakker
wal
walchere
walcheren
wald
waldenrath
wale
walem
wales
walk
walker
wall
wallace
walle
wallis
wallonie
walmo
walram
wals
walse
walt
walter
walther
walve
wan
wandj
wang
wanj
wanjele
wanjeliee
wanjeling
wanne
wanneer
want
wao
waodoor
waoe
waog
waoge
waol
waolelandj
waols
waolse
waonao
waope
waopes
waor
waord
waordebook
waordgeslach
waordj
waordveurder
waore
waoren
waorgeno
waorheid
waoro
waorsjienlik
waorsjijnlik
waort
waorze
waos
waovan
wape
wapen
wapens
wapes
war
ward
ware
waregem
waren
warendorf
warheit
warhol
waring
warm
warn
warner
warren
wars
warschau
warschaupact
wart
was
wasem
washington
wasj
wasje
wasse
wasseberg
wassen
wassenaar
wasser
wat
watch
water
waterbo
waterdamp
watere
watereuverlas
waterig
waterkantj
waterland
waterloo
waterluip
watermeule
watermeules
waternaam
waterpo
waterraad
waterratte
waters
watersjap
watersjappe
waterstandj
watersto
waterstof
waterval
waterwaeg
watsje
watson
watt
wave
waver
waw
wawwele
way
wayne
waz
wc
wd
wdj
we
wea
wear
web
webb
weber
webern
webpagina
website
websites
weder
wedsjtried
wedsjtrieje
weduwe
wee
weefsel
weeg
weej
week
weekblaad
weekend
weekers
weelen
weense
weenter
weer
weerd
weerde
weerden
weerdes
weergegeve
weersjtandj
weerstand
weert
wees
weesp
weet
weg
wegberg
wege
wegen
wegens
weges
weggaon
weggelaote
weghaole
wegsmiete
wei
weie
weier
weigerde
weigere
weigert
weij
weijer
weik
weikdere
weike
weil
weilandj
weimar
weineg
weinig
weinige
weirigs
weis
weit
weite
weitensjap
weitesjap
weitesjappe
weitesjappeleke
weitesjappelik
weitesjappelike
weitesjapper
weitesjappers
weiz
wej
wejje
wejtj
weke
weken
wel
welank
welch
welche
welins
welk
welke
welken
welkom
well
welsh
welsj
welsje
welt
welte
weltkreeg
weltwied
welvaart
welzje
wen
wene
wenj
wens
went
wer
werd
werde
werden
were
wereld
werelde
wereldkampioen
wereldkampioensjap
wereldleke
wereldoorlog
wereldraanklies
wereldtitel
wereldwied
wereldwij
werelt
weren
werk
werke
werken
werkhoven
werkmiee
werkwa
werkwoord
werkwoordsvo
werm
wermblood
wermde
werme
wermer
wermste
wermte
werner
werre
werreld
werrelddeil
werreldkrieg
werreldwied
wersjienlik
wert
wes
wesel
wesen
wesfaals
wesfaalse
wesfale
wesfries
wesfriesland
wesgrens
wesj
weskant
wesko
wesley
wessem
wessex
west
westbroek
weste
westelek
westeleke
westelig
westelik
westelike
westen
wester
westerbork
westerlauwers
western
westers
westerse
westerwald
westkapelle
westland
westminster
wet
wete
weten
wetensjap
wetensjappe
wetensjappelek
wetensjappeleke
wetensjapper
wetensjappers
wetering
wetesjap
wette
weujt
weuning
weuninge
weuningen
weur
weurd
weurde
weurdj
weure
weurt
weurtj
weuste
weustenraad
wevelgem
wever
weze
wezel
wezelek
wezen
wezes
weɪ
what
when
where
which
whisky
white
whitney
who
whois
why
wi
wic
wich
wichtig
wichtige
wichtigheid
wichtigste
wicket
wid
widder
wide
widvrouw
wie
wiechtig
wiechtige
wied
wiedaaf
wiedet
wiedeweg
wiedoet
wieds
wiedveljig
wiedverbreid
wiedverspre
wiee
wief
wiej
wieje
wiejer
wiejerd
wiejerdoor
wiejere
wiejergaon
wiejerop
wiejing
wiek
wieke
wiekse
wiel
wielaat
wielang
wielder
wiele
wielrenner
wien
wieneg
wienege
wiener
wienesrao
wiengaard
wiengood
wienie
wieniee
wienig
wier
wieringen
wiert
wiertz
wies
wiesbaden
wiesheid
wiesvinger
wiesvrouw
wiet
wiete
wiets
wiette
wieva
wievelike
wiever
wiewaal
wieze
wiezen
wieziee
wiezigingsdatum
wiezoea
wif
wig
wigheid
wij
wije
wijer
wijere
wijers
wijf
wijff
wijk
wijl
wijn
wijngaard
wijs
wijze
wik
wiki
wikibeuk
wikibro
wikicitaat
wikileaks
wikimedia
wikinuujs
wikipedia
wikiquote
wikiwaorsbook
wiks
wikse
wiktionair
wiktionary
wil
wild
wilde
wilder
wilders
wildj
wile
wilfried
wilhelm
wilhelmina
wilhelmus
wilj
wilje
wiljevlo
wilkes
wilko
will
wille
willeka
willekeurig
willem
willems
willemstad
willen
willendj
willet
william
williams
willig
williram
willy
wilma
wils
wilson
wilt
wiltj
wim
wimbledon
win
wind
winde
windj
windmeule
windmeules
windows
windsor
winj
winje
wink
winke
winkel
winkelcentrum
winkele
winkels
winkler
winnaar
winnaer
winne
winnen
winnende
winner
winners
winning
wins
winschoten
winse
winst
winston
winsum
wint
winter
winters
winterspeule
wintj
wintjer
wintjers
wip
wir
wird
wirk
wirkde
wirkdje
wirke
wirkelik
wirkelikheid
wirken
wirker
wirkers
wirking
wirkplaats
wirksto
wirktuug
wirkwa
wirkwaord
wirkzaam
wirkzaamheje
wirt
wis
wisconsin
wise
wiske
wisko
wiskunde
wiskundege
wiskundige
wisse
wissel
wisselde
wissele
wisselend
wissen
wist
wiste
wit
with
without
witj
witness
witro
witrussisch
wits
witt
witte
wittem
witten
wittgenstein
wk
wld
wmc
wo
woa
woabie
woad
woadoor
woame
woanao
woar
woare
woavan
wobie
wobiej
wodka
wodoor
woe
woeane
woeaning
woebie
woebij
woedoor
woee
woenao
woende
woene
woenhoezer
woening
woeninge
woeningte
woenplaots
woensdrecht
woent
woer
woerd
woerde
woerden
woergenome
woerheid
woeringe
woersjienelek
woersjijnelek
woersjijnlek
woert
woerte
woestijn
woevaan
woevan
woh
wohaer
wohlf
woiwodsjap
woj
wojewo
wol
wolde
wolden
wolder
wolf
wolff
wolfgang
wolfraam
wolfs
wolfsberg
wolga
wolk
wolke
wolkers
wolle
wolof
woluwe
woman
women
womit
won
wonao
wonde
wonder
wonderland
wone
wonen
woning
wonne
woo
wood
woodrow
wool
woon
woonde
woonhoes
woonplaats
woonsdig
woont
woontj
woonwiek
woor
woord
woordebook
woorden
woordenboek
woordesjat
woordind
woort
woorte
woorten
woots
wor
woraan
word
worden
words
wordt
wore
woren
woreuver
worin
work
world
worm
worms
woro
woroet
worop
worre
wort
wortel
wortelconsonante
wortele
wou
woud
woude
woudfries
woudrichem
wouf
would
wounded
wout
wouter
wouve
wouw
wouwe
wovan
wovanoet
woveur
wraak
wragkelig
wreef
wriee
wrieve
wrieving
wright
wringe
wro
ws
wse
wt
wtj
wu
wue
wuhan
wuilese
wuis
wulfila
wullem
wunder
wuns
wunsj
wunsje
wuo
wuppertal
wurd
wurden
wurmdje
wurre
wurt
wuue
wuuerd
wuuerdj
wuuers
wuuert
wuuertj
wuurd
wuurt
wwe
wwen
www
wz
wæ
wæc
wæɣ
wœ
wɒ
wɔ
wə
wən
wər
wɛ
wɪ
wɪc
wʊ
x
xa
xang
xanten
xavier
xe
xecuteerd
xenon
xhosa
xi
xia
xie
xii
xiii
xiv
xl
xn
xo
xr
xs
xtc
xu
xv
xvi
xwa
xx
xxiii
xæ
y
ya
yak
yakovlev
ye
year
years
yemen
yen
yes
yi
yka
yki
yko
ykoki
ykosa
ykosi
ykoso
ykoya
yn
yo
york
yorkshire
you
young
your
youtube
yu
yuba
yue
yufik
yululik
yuri
yves
yvonne
yya
z
za
zaach
zaachte
zaachter
zaag
zaajt
zaak
zaal
zaaldaak
zaam
zaank
zaankveugel
zaat
zaate
zaatwater
zabbele
zach
zachte
zada
zadik
zae
zaee
zaeg
zaege
zaegs
zaeker
zaenste
zaerem
zaerems
zaes
zaet
zaeve
zag
zage
zagswies
zagte
zai
zak
zakde
zake
zakelik
zakelike
zakemaan
zakeman
zaken
zakes
zakevrouw
zakke
zal
zale
zalf
zalig
zalige
zalle
zalm
zalt
zambia
zamen
zamenhof
zand
zandj
zandjbak
zandjwaeg
zandvoort
zang
zanger
zangeres
zangveugel
zangvogel
zanik
zanike
zank
zanne
zanzibar
zao
zaod
zaodlobbige
zaodplantje
zaog
zaoge
zaoke
zaol
zaon
zaot
zaote
zaoterdag
zaoterdig
zaoterdigtemiddig
zaoterdigtenaovendj
zat
zate
zats
zatsdeil
zatse
zatselik
zatte
zavel
zaw
zawwe
ze
zebra
zedele
zederik
zee
zeef
zeej
zeek
zeel
zeeland
zeelandj
zeelen
zeen
zeendje
zeentj
zeer
zeet
zeeuws
zeeuwse
zefke
zeg
zege
zegel
zegele
zegge
zeggen
zegke
zegt
zei
zeik
zeike
zeil
zeile
zeip
zeist
zeit
zeitung
zeiver
zeivere
zej
zejje
zek
zekel
zeker
zekere
zekeren
zekerheid
zel
zelde
zeldjzaam
zeldzaam
zeldzame
zeldzaom
zelem
zelf
zelfde
zelfdje
zelfkantj
zelfkantjs
zelfmaord
zelfmaordaansjlaag
zelfmoord
zelfs
zelfsjtendig
zelfsjtendige
zelfstandeg
zelfstandege
zelfstendeg
zelfstendege
zelfstendegheid
zelfstenjig
zelfstenjige
zelje
zellef
zellefs
zelvendje
zelvendjen
zen
zender
zenders
zenewechtig
zenger
zengeres
zengerin
zengers
zeppelin
zer
zes
zesde
zesteg
zestiee
zestien
zestiende
zestienden
zestig
zet
zetel
zetele
zetels
zette
zeu
zeuk
zeukde
zeuke
zeuken
zeuktoch
zeumere
zeuns
zeunt
zeure
zeus
zeut
zeute
zeutwater
zeuve
zeve
zeven
zevende
zevenden
zevendendaagsadventiste
zevenho
zevenhuizen
zeventeg
zeventiende
zeventienden
zeveteg
zevetiee
zevetig
zgn
zh
zha
zhe
zhi
zho
zi
zich
zichbaar
zichem
zichze
zichzelf
zie
ziech
ziechbaar
ziechzelf
ziee
zieg
ziej
zieje
ziejkantj
ziejkantje
ziek
ziekehoes
ziekenhuis
zieklimaot
ziekte
ziel
zieland
zielandj
ziele
zielen
ziellig
zien
ziene
zienen
zieng
zieniveau
ziep
ziepe
zier
ziereveer
zierikzee
ziespiegel
ziet
ziews
ziewse
zifik
zig
zigke
ziin
zij
zijlstra
zijn
zijne
zikker
zilver
zilvere
zilverwit
zimbabwe
zin
zine
zing
zinge
zingen
zingk
zingt
zink
zinke
zinne
zint
zirkonium
zit
zitj
zits
zitte
zitten
zittende
zitterd
zittert
zittesj
zittesje
zitting
zj
zje
zjenever
zjezeke
zjezus
zjoee
zjuris
zjus
zjuste
zjustitie
zjuus
zjwaam
zjwaams
zjwaedse
zjwame
zjwaor
zjwaore
zjwaorgewo
zjwaorste
zjwart
zjwarte
zjwede
zjweedse
zjwier
zjwitserland
zjwitserlandj
zjwitsers
zjwitserse
zjwo
zjwoar
zjwolle
zmæc
zn
zo
zoa
zoadanig
zoadat
zoaes
zoagenaamde
zoageneumde
zoaget
zoals
zoan
zoane
zoas
zoava
zoawaal
zoawie
zoch
zochte
zodet
zoe
zoea
zoeadet
zoeageneumdje
zoeaget
zoeawaal
zoeawie
zoebbele
zoedaoneg
zoedat
zoedoende
zoee
zoegenaamde
zoegenaomde
zoegenaomp
zoegeneumde
zoegeneump
zoeget
zoek
zoeke
zoekke
zoel
zoeloe
zoemer
zoen
zoep
zoepe
zoer
zoere
zoermoos
zoersig
zoersto
zoerstof
zoetot
zoeva
zoew
zoewaal
zoewal
zoewel
zoewie
zoewied
zoewiezoe
zoezjus
zoge
zoget
zolang
zolder
zomer
zomers
zomerspeule
zomertied
zon
zondag
zonder
zone
zones
zong
zonger
zonne
zonneste
zoo
zoog
zoogdiere
zooj
zoom
zoon
zoondag
zoonder
zoot
zoothera
zorg
zorge
zot
zote
zou
zougdere
zout
zouw
zouwe
zova
zoveul
zow
zowaal
zowie
zowied
zowiezoea
zowwe
zoziee
zu
zuch
zude
zudelig
zudelik
zudelike
zudelikke
zuge
zui
zuid
zuide
zuidelek
zuideleke
zuiden
zuiderzie
zuidkant
zuidoos
zuidooste
zuidoostelek
zuidpool
zuidwes
zuidweshooks
zuidweste
zuidwestelek
zuie
zuielek
zuieleke
zuigbiee
zuige
zuje
zujelik
zujelike
zujeliker
zujen
zule
zulle
zullen
zult
zum
zump
zumpe
zumpelveld
zumpelveldj
zumpelvelds
zun
zung
zunig
zunj
zunjig
zunt
zur
zuru
zus
zuster
zusters
zutphen
zuuch
zuud
zuudkantj
zuudoaste
zuudoeas
zuudoeaste
zuudoee
zuudoes
[...]
