!
"
#
##0
##1
##10
##11
##12
##13
##14
##15
##16
##17
##18
##19
##2
##20
##21
##22
##23
##24
##25
##26
##27
##28
##29
##3
##30
##31
##32
##33
##34
##35
##36
##37
##38
##39
##4
##40
##41
##42
##43
##44
##45
##46
##47
##48
##49
##5
##50
##51
##52
##53
##54
##55
##56
##57
##58
##59
##6
##60
##61
##62
##63
##64
##65
##66
##67
##68
##69
##7
##70
##71
##72
##73
##74
##75
##76
##77
##78
##79
##8
##80
##81
##82
##83
##84
##85
##86
##87
##88
##89
##9
##90
##91
##92
##93
##94
##95
##96
##97
##98
##99
$
%
&
'
(
)
*
+
,
-
.
/
0
00
000
001
003
008
01
010
011
013
017
02
020
021
023
03
032
04
040
05
050
051
053
058
06
07
072
073
08
080
083
086
087
088
089
09
090
096
099
1
10
100
1000
1001
1002
1003
1004
1005
1006
1007
1008
1009
101
1010
1011
1012
1013
1014
1015
1016
1017
1018
1019
102
1020
1021
1022
1023
1024
1025
1026
1027
1028
1029
103
1030
1031
1032
1033
1034
1035
1036
1037
1038
1039
104
1040
1041
1042
1043
1044
1045
1046
1047
1048
1049
105
1050
1051
1052
1053
1054
1055
1056
1057
1058
1059
106
1060
1061
1062
1063
1064
1065
1066
1067
1068
1069
107
1070
1071
1072
1073
1074
1075
1076
1077
1078
1079
108
1080
1081
1082
1083
1084
1085
1086
1087
1088
1089
109
1090
1091
1092
1093
1094
1095
1096
1097
1098
1099
11
110
1100
1101
1102
1103
1104
1105
1106
1107
1108
1109
111
1110
1111
1112
1113
1114
1115
1116
1117
1118
1119
112
1120
1121
1122
1123
1124
1125
1126
1127
1128
1129
113
1130
1131
1132
1133
1134
1135
1136
1137
1138
1139
114
1140
1141
1142
1143
1144
1145
1146
1147
1148
1149
115
1150
1151
1152
1153
1154
1155
1156
1157
1158
1159
116
1160
1161
1162
1163
1164
1165
1166
1167
1168
1169
117
1170
1171
1172
1173
1174
1175
1176
1177
1178
1179
118
1180
1181
1182
1183
1184
1185
1186
1187
1188
1189
119
1190
1191
1192
1193
1194
1195
1196
1197
1198
1199
12
120
1200
1201
1202
1203
1204
1205
1206
1207
1208
1209
121
1210
1211
1212
1213
1214
1215
1216
1217
1218
1219
122
1220
1221
1222
1223
1224
1225
1226
1227
1228
1229
123
1230
1231
1232
1233
1234
1235
1236
1237
1238
1239
124
1240
1241
1242
1243
1244
1245
1246
1247
1248
1249
125
1250
1251
1252
1253
1254
1255
1256
1257
1258
1259
126
1260
1261
1262
1263
1264
1265
1266
1267
1268
1269
127
1270
1271
1272
1273
1274
1275
1276
1277
1278
1279
128
1280
1281
1283
1284
1285
1286
1287
1288
129
1290
1291
1292
1293
1294
1295
1296
1297
1298
13
130
1300
1303
1304
1305
1306
1307
1308
1309
131
1310
1311
1312
1313
1314
1315
1316
1317
1318
1319
132
1320
1321
1322
1323
1324
1325
1326
1327
1328
1329
133
1330
1331
1332
1333
1334
1335
1336
1337
1338
1339
134
1340
1341
1342
1343
1345
1346
1347
1348
1349
135
1350
1351
1352
1353
1354
1355
1356
1357
1359
136
1360
1361
1362
1363
1364
1365
1366
1367
1368
1369
137
1370
1371
1372
1373
1374
1375
1377
1378
138
1380
1382
1383
1385
1386
1389
139
1390
1391
1392
14
140
1400
1402
1404
1405
1406
1408
1409
141
1410
1412
1415
1416
1417
1418
142
1420
1421
1425
143
1430
1431
1433
1435
144
1440
1444
1448
1449
145
1450
1452
1453
1457
1458
1459
146
1460
1461
1462
1464
1465
1467
1469
147
1470
1471
1472
1473
1474
1475
1476
1477
1478
1479
148
1480
1482
1483
1484
1485
1488
1489
149
1490
1491
1492
1493
1494
1495
1496
1497
1498
1499
15
150
1500
1501
1502
1503
1504
1505
1506
1507
1508
1509
151
1510
1511
1512
1513
1514
1515
1516
1517
1518
1519
152
1520
1521
1522
1523
1524
1525
1526
1527
1528
1529
153
1530
1531
1532
1533
1534
1535
1536
1537
1538
1539
154
1540
1541
1542
1543
1544
1545
1546
1547
1548
1549
155
1550
1551
1552
1553
1554
1555
1556
1557
1558
1559
156
1560
1561
1562
1563
1564
1565
1566
1567
1568
1569
157
1570
1571
1572
1573
1574
1575
1576
1577
1578
1579
158
1580
1581
1582
1583
1584
1585
1586
1587
1588
1589
159
1590
1591
1592
1593
1594
1595
1596
1597
1598
1599
16
160
1600
1601
1602
1603
1604
1605
1606
1607
1608
1609
161
1610
1611
1612
1613
1614
1615
1616
1617
1618
1619
162
1620
1621
1622
1623
1624
1625
1626
1627
1628
1629
163
1630
1631
1632
1633
1634
1635
1636
1637
1638
1639
164
1640
1641
1642
1643
1644
1645
1646
1647
1648
1649
165
1650
1651
1652
1653
1654
1655
1656
1657
1658
1659
166
1660
1661
1662
1663
1664
1665
1666
1667
1668
1669
167
1670
1671
1672
1673
1674
1675
1676
1677
1678
1679
168
1680
1681
1682
1683
1684
1685
1686
1687
1688
1689
169
1690
1691
1692
1693
1694
1695
1696
1697
1698
1699
17
170
1700
1701
1702
1703
1704
1705
1706
1707
1708
1709
171
1710
1711
1712
1713
1714
1715
1716
1717
1718
1719
172
1720
1721
1722
1723
1724
1725
1726
1727
1728
1729
173
1730
1731
1732
1733
1734
1735
1736
1737
1738
1739
174
1740
1741
1742
1743
1744
1745
1746
1747
1748
1749
175
1750
1751
1752
1753
1754
1755
1756
1757
1758
1759
176
1760
1761
1762
1763
1764
1765
1766
1767
1768
1769
177
1770
1771
1772
1773
1774
1775
1776
1777
1778
1779
178
1780
1781
1782
1783
1784
1785
1786
1787
1788
1789
179
1790
1791
1792
1793
1794
1795
1796
1797
1798
1799
18
180
1800
1801
1802
1803
1804
1805
1806
1807
1808
1809
181
1810
1811
1812
1813
1814
1815
1816
1817
1818
1819
182
1820
1821
1822
1823
1824
1825
1826
1827
1828
1829
183
1830
1831
1832
1833
1834
1835
1836
1837
1838
1839
184
1840
1841
1842
1843
1844
1845
1846
1847
1848
1849
185
1850
1851
1852
1853
1854
1855
1856
1857
1858
1859
186
1860
1861
1862
1863
1864
1865
1866
1867
1868
1869
187
1870
1871
1872
1873
1874
1875
1876
1877
1878
1879
188
1880
1881
1882
1883
1884
1885
1886
1887
1888
1889
189
1890
1891
1892
1893
1894
1895
1896
1897
1898
1899
19
190
1900
1901
1902
1903
1904
1905
1906
1907
1908
1909
191
1910
1911
1912
1913
1914
1915
1916
1917
1918
1919
192
1920
1921
1922
1923
1924
1925
1926
1927
1928
1929
193
1930
1931
1932
1933
1934
1935
1936
1937
1938
1939
194
1940
1941
1942
1943
1944
1945
1946
1947
1948
1949
195
1950
1951
1952
1953
1954
1955
1956
1957
1958
1959
196
1960
1961
1962
1963
1964
1965
1966
1967
1968
1969
197
1970
1971
1972
1973
1974
1975
1976
1977
1978
1979
198
1980
1981
1982
1983
1984
1985
1986
1987
1988
1989
199
1990
1991
1992
1993
1994
1995
1996
1997
1998
1999
2
20
200
2000
2001
2002
2003
2004
2005
2006
2007
2008
2009
201
2010
2011
2012
2013
2014
2015
2016
2017
2018
2019
202
2020
2021
2022
203
204
205
206
207
208
209
21
210
211
212
213
214
215
216
217
218
219
22
220
221
222
223
224
225
226
227
228
229
23
230
2307
231
232
233
234
235
236
237
238
239
24
240
241
242
243
244
245
246
247
248
249
25
250
251
252
253
254
255
256
257
258
259
26
260
261
262
263
264
265
266
267
268
269
27
270
271
272
273
274
275
276
277
278
279
28
280
281
282
283
284
285
286
287
288
289
29
290
291
292
293
294
295
296
297
298
299
3
30
300
3000
301
302
303
304
305
306
307
308
309
31
310
311
312
313
314
315
316
317
318
319
32
320
321
322
323
324
325
326
327
328
329
33
330
331
332
333
334
335
336
337
338
339
34
340
341
342
343
344
345
346
347
348
349
35
350
351
352
353
354
355
356
357
358
359
36
360
361
362
363
364
365
366
367
368
369
37
370
371
372
373
374
375
376
377
378
379
38
380
381
382
383
384
385
386
387
388
389
39
390
391
392
393
394
395
396
397
398
399
4
40
400
4000
401
402
403
404
405
406
407
408
409
41
410
411
412
413
414
415
416
417
418
419
42
420
421
422
423
424
425
426
427
428
429
43
430
431
432
433
434
435
436
437
438
439
44
440
441
442
443
444
445
446
447
448
449
45
450
451
452
453
454
455
456
457
458
459
46
460
461
462
463
464
465
466
467
468
469
47
470
471
472
473
474
475
476
477
478
479
48
480
481
482
483
484
485
486
487
488
489
49
490
491
492
493
494
495
496
497
498
499
5
50
500
501
502
503
504
505
506
507
508
509
51
510
511
512
513
514
515
516
517
518
519
52
520
521
522
523
524
525
526
527
528
529
53
530
531
532
533
534
535
536
537
538
539
54
540
541
542
543
544
545
546
547
548
549
55
550
551
552
553
554
555
556
557
558
559
56
560
561
562
563
564
565
566
567
568
569
57
570
571
572
573
574
575
576
577
578
579
58
580
581
582
583
584
585
586
587
588
589
59
590
591
592
593
594
595
596
597
598
599
6
60
600
601
602
603
604
605
606
607
608
609
61
610
611
612
613
614
615
616
617
618
619
62
620
621
622
623
624
625
626
627
628
629
63
630
631
632
633
634
635
636
637
638
639
64
640
641
642
643
644
645
646
647
648
649
65
650
651
652
653
654
655
656
657
658
659
66
660
661
662
663
664
665
666
667
668
669
67
670
671
672
673
674
675
676
677
678
679
68
680
681
682
683
684
685
686
687
688
689
69
690
691
692
693
694
695
696
697
698
699
7
70
700
701
703
704
705
706
707
708
709
71
710
711
712
713
714
715
716
717
718
719
72
720
721
722
724
725
726
728
729
73
730
731
732
733
734
735
736
737
739
74
740
741
742
743
744
745
747
748
749
75
750
751
752
753
754
755
756
757
759
76
760
761
762
763
764
765
767
768
769
77
770
771
772
773
774
775
776
777
778
779
78
780
781
782
783
784
785
786
787
788
789
79
790
792
793
794
795
796
797
798
799
8
80
800
801
8018
802
803
804
805
806
807
808
809
81
810
811
814
815
816
817
82
820
825
826
827
828
829
83
830
832
833
835
839
84
840
841
842
843
844
845
847
85
850
852
855
86
860
862
863
864
865
866
867
868
87
870
871
875
876
877
878
879
88
880
881
882
88309
885
886
888
889
89
890
891
893
895
9
90
900
901
902
903
904
905
906
907
908
909
91
910
911
912
913
914
915
916
917
918
919
92
920
921
923
924
925
93
930
94
940
945
95
950
951
955
96
960
963
965
97
970
973
975
978
98
980
987
99
990
999
:
;
<
=
>
?
@
[
\
]
^
_
`
a
aa
aaa
aaron
aas
aavv
ab
abate
abb
abba
abbas
abbate
abbatem
abbates
abbati
abbatia
abbatiae
abbatiam
abbatibus
abbatis
abbatissa
abbatissae
abbatissam
abbatiæ
abbatum
abbaye
abbreviatio
abbreviatur
abc
abd
abdicare
abdicavit
abdita
abditis
abdito
abducere
abduxit
abecedarium
abel
abellinas
abellinati
abellinum
aberat
abesse
abesset
abest
abeunt
abeuntes
abfuit
abhinc
abhorret
abi
abiens
abiero
abierunt
abies
abii
abiit
abimelech
abire
abiret
abiron
abit
abjecit
abjecta
abjectus
abjicere
abl
ablata
ablatas
ablatis
ablativo
ablativus
ablato
ablatum
ablatus
abluat
abluit
abluti
abneget
abner
abnuit
abolere
aboleri
abolita
abominatio
abominationem
abominationes
about
above
abr
abrahae
abraham
abram
abrogata
abrogatam
abrupta
abs
absalom
absalon
abscedat
abscedere
abscessit
abscidit
abscondat
abscondere
absconderunt
abscondi
abscondisti
abscondit
abscondita
absconditi
abscondito
absconditum
absconditur
absconditus
absens
absente
absentem
absentes
absenti
absentia
absentiam
absentibus
absentis
absentium
absint
absit
absoluta
absolutam
absolute
absoluti
absolutio
absolutione
absolutionem
absolutionis
absolutis
absoluto
absolutos
absolutum
absolutus
absolvat
absolvere
absolvi
absolvimus
absolvit
absolvitur
absorbuit
absorpta
absque
abstineant
abstineat
abstinendum
abstinens
abstinent
abstinentes
abstinentia
abstinentiae
abstinentiam
abstinere
abstinet
abstinuit
abstracta
abstracto
abstractum
abstractus
abstrahere
abstulerat
abstulerit
abstulerunt
abstulit
absunt
absurda
absurde
absurdum
abu
abundans
abundant
abundanter
abundantes
abundanti
abundantia
abundantiam
abundantius
abundare
abundaret
abundat
abundavit
abunde
abundet
abusive
abusus
abuti
abyssi
abysso
abyssum
abyssus
ac
acacii
acacium
acacius
acade
academia
academiae
academiam
academic
academica
academici
academicis
academicos
academicus
academy
acc
accademia
accedamus
accedant
accedat
accede
accedebat
accedens
accedente
accedentes
accedentibus
accedere
accederent
accederet
accedet
accedit
accedite
accedunt
accendat
accendere
accendi
accendit
accenditur
accendunt
accensa
accensi
accensis
accensus
accentu
accentus
acceperant
acceperat
acceperint
acceperis
acceperit
acceperunt
accepi
accepimus
accepisse
accepissent
accepisset
accepisti
accepistis
accepit
accepta
acceptabile
acceptae
acceptam
acceptas
accepti
acceptio
acceptione
acceptionem
acceptis
accepto
acceptum
accepturi
accepturus
acceptus
accesserat
accesserint
accesserit
accesserunt
accessi
accessio
accessisse
accessissent
accessisset
accessit
accessu
accessum
accessus
accidat
accidens
accidentalis
accidentaliter
accidente
accidenti
accidentia
accidentibus
accidentis
accidentium
acciderat
accidere
accideret
acciderit
acciderunt
accidisse
accidisset
accidit
accidunt
accincti
accinctus
accingere
accipe
accipere
acciperent
acciperet
accipi
accipiam
accipiamus
accipiant
accipiantur
accipias
accipiat
accipiatur
accipiebant
accipiebat
accipienda
accipiendam
accipiendi
accipiendo
accipiendum
accipiens
accipient
accipientes
accipientis
accipies
accipiet
accipietis
accipimus
accipio
accipis
accipit
accipite
accipiter
accipitis
accipitur
accipiunt
accipiuntur
accius
accola
accommodare
accommodata
account
accurate
accuratius
accurrit
accus
accusandi
accusant
accusare
accusari
accusas
accusat
accusati
accusatio
accusatione
accusationem
accusationes
accusationis
accusativo
accusativus
accusator
accusatore
accusatorem
accusatores
accusatoribus
accusatum
accusatur
accusatus
accusavit
accuset
acer
acerba
acerbitate
acerbius
acerbo
acerbum
acerrime
acerrimus
acervum
acervus
aceti
aceto
acetum
achab
achaia
achaiae
achaz
achievement
achille
achillem
achilles
achillis
achis
acidi
acidum
acie
aciem
acies
acleris
acmaeodera
acolythi
acquiescere
acquievit
acquirat
acquirere
acquiri
acquirit
acquiritur
acquisita
acquisivit
acraea
acre
acres
acri
acrior
acris
acriter
acrius
act
acta
actae
actam
actes
acti
actibus
actinopterygii
actio
action
actione
actionem
actiones
actioni
actionibus
actionis
actionum
actis
actiua
actiuum
activa
activae
activam
activum
acto
actor
actores
actoribus
actoris
actorum
actress
actrix
actu
actualis
actum
acturi
acturus
actus
actutum
actuum
acu
aculeis
aculeos
aculeus
acumen
acumine
acus
acuta
acutae
acute
acuti
acutis
acuto
acutum
acutus
ad
ada
adae
adam
adami
adams
adamus
add
addam
addas
addat
addatur
adde
addenda
addendo
addendum
addens
addere
adderet
addi
addicti
addictus
addiderunt
addidit
addimus
addis
addiscere
addison
addit
addita
additae
additamento
additamentum
additio
additione
additis
addito
additum
additur
additus
addo
adducam
adducat
adducere
adducet
adduci
adducit
adducitur
adducta
adducti
adductus
adducunt
addunt
adduntur
adduxerat
adduxerunt
adduxit
adeat
ademarus
ademit
adempta
adenauer
adeo
adeodatus
adeoque
adepta
adepti
adeptum
adeptus
aderant
aderat
aderit
ades
adesse
adessent
adesset
adest
adesto
adeunt
adfectus
adferre
adfert
adfirmat
adfuerunt
adfuisse
adfuit
adgressus
adhaereat
adhaerebit
adhaerens
adhaerent
adhaerentes
adhaerere
adhaeret
adhaeserunt
adhaesit
adhibe
adhibeat
adhibeatur
adhibenda
adhibent
adhibentur
adhibere
adhiberi
adhibet
adhibetur
adhibita
adhibitae
adhibitis
adhibito
adhibitum
adhibitus
adhibuit
adhuc
adi
adiacens
adiacet
adicit
adiecit
adiect
adiecta
adiectivo
adiectivum
adiecto
adierunt
adiit
adimit
adimplere
adimpleri
adinvicem
adipe
adipem
adipisci
adire
adit
aditu
aditum
aditus
adiuncta
adiunctis
adiunctum
adiungere
adiungit
adiungitur
adiunxit
adiutor
adiutores
adiutorio
adiutorium
adiutus
adiuvante
adiuvare
adiuvat
adiuvet
adiuvit
adj
adjacentibus
adjacentiis
adjacet
adjecit
adject
adjecta
adjiciens
adjicientes
adjuncta
adjunctis
adjunctum
adjungere
adjungit
adjungitur
adjunxit
adjuro
adjuti
adjutor
adjutorem
adjutores
adjutorio
adjutorium
adjutus
adjuva
adjuvante
adjuvare
adjuvari
adjuvat
adjuvet
adminiculo
adminiculum
administer
administerio
administrabat
administrare
administrat
administratio
administration
administratione
administrationem
administrationi
administrationis
administrativa
administrativae
administrative
administrator
administratur
administravit
administri
admirabile
admirabilem
admirabili
admirabilis
admiranda
admirans
admirantes
admirari
admirati
admiratio
admiratione
admirationem
admirationis
admiratus
admiror
admiserit
admisit
admissa
admissi
admissis
admissum
admissus
admittantur
admittat
admittatur
admittere
admitti
admittit
admittitur
admittunt
admittuntur
admodum
admoneat
admonemur
admonemus
admonendi
admonens
admonent
admoneo
admonere
admoneri
admonet
admonetur
admoniti
admonitio
admonitione
admonitionem
admonitionis
admonitus
admonuit
admota
adnotatio
adnotatione
adolescens
adolescentem
adolescentes
adolescentia
adolescentiae
adolescentibus
adolescentis
adolevit
adolf
adolphus
adonai
adoptatus
adoptavit
adoptio
adoptione
adoptionem
adoptionis
adoptivum
adoptivus
adorabis
adorabunt
adoramus
adorandum
adorant
adorantes
adorare
adorari
adorat
adorate
adorationem
adoratur
adoraverunt
adoravit
adoremus
adorent
adoret
adoro
adortus
adque
adriani
adriano
adrianus
adsidue
adsint
adsit
adsum
adsunt
aduentu
aduentum
aduersa
aduersum
aduersus
adulatione
adulescens
adulescentem
adulescentes
adulescentia
adulta
adulter
adultera
adulterae
adulteram
adulteri
adulteria
adulterii
adulteriis
adulterio
adulteris
adulterium
adultero
adulteros
adulterum
adulti
adultis
adultus
adv
advena
advenae
advenerat
advenerit
advenerunt
adveniat
adveniens
adveniente
advenientes
advenientibus
adveniet
advenire
advenis
advenisse
advenisset
advenit
adventare
adventu
adventum
adventus
adverbia
adverbium
adversa
adversae
adversam
adversantur
adversari
adversarii
adversariis
adversario
adversariorum
adversarios
adversarium
adversarius
adversatur
adversi
adversis
adversitas
adversitate
adversitatibus
adversitatis
adverso
adversos
adversum
adversus
advertat
adverte
advertendum
advertere
advertimus
advertit
advertite
advocati
advocatis
advocato
advocatum
advocatus
ae
aecclesia
aecclesiae
aecclesiam
aede
aedem
aedes
aedi
aedibus
aedificabo
aedificandi
aedificant
aedificantes
aedificare
aedificari
aedificat
aedificata
aedificatio
aedificatione
aedificationem
aedificationis
aedificatum
aedificatur
aedificaverunt
aedificavit
aedificet
aedificia
aedificii
aedificiis
aedificio
aedificiorum
aedificium
aedilis
aedis
aedium
aegaei
aeger
aegidii
aegidius
aegirtii
aegra
aegre
aegri
aegris
aegritudine
aegritudinem
aegritudines
aegritudinis
aegritudo
aegro
aegros
aegrotare
aegroti
aegrotos
aegrotum
aegrotus
aegrum
aegypti
aegyptia
aegyptiae
aegyptii
aegyptiis
aegyptio
aegyptiorum
aegyptios
aegyptium
aegyptius
aegypto
aegyptum
aegyptus
aelia
aeliano
aelius
aemilia
aemiliam
aemiliano
aemilianus
aemilii
aemilio
aemilius
aemula
aemulari
aemulatio
aemulatione
aemulationem
aemuli
aemulis
aemulum
aemulus
aen
aenea
aeneae
aeneam
aenean
aeneas
aeneid
aeneis
aeneum
aenigma
aenigmata
aenigmate
aequa
aequale
aequalem
aequales
aequali
aequalia
aequalibus
aequalis
aequalitas
aequalitate
aequalitatem
aequalitatis
aequaliter
aequanimiter
aequare
aequari
aequat
aequatio
aequationes
aequatoria
aeque
aequi
aequinoctialis
aequinoctio
aequinoctium
aequis
aequitas
aequitate
aequitatem
aequitatis
aequiuoce
aequiuocum
aequo
aequor
aequora
aequore
aequoris
aequos
aequum
aequus
aer
aera
aerarii
aerario
aerarium
aere
aerea
aereas
aerem
aereum
aeri
aeria
aeris
aeroportus
aerugo
aerumna
aerumnas
aerumnis
aes
aeschylus
aesernina
aestas
aestate
aestatem
aestatis
aestibus
aestimanda
aestimandum
aestimans
aestimant
aestimantes
aestimantur
aestimare
aestimari
aestimat
aestimatio
aestimatione
aestimationem
aestimatur
aestimavit
aestimet
aestimo
aestiva
aestivis
aestivo
aestivum
aestu
aestuat
aestum
aestus
aetas
aetate
aetatem
aetates
aetati
aetatibus
aetatis
aetatum
aeterna
aeternae
aeternaliter
aeternam
aeternas
aeterne
aeterni
aeternis
aeternitas
aeternitate
aeternitatem
aeternitatis
aeterno
aeternorum
aeternos
aeternum
aeternus
aether
aethera
aethere
aetheris
aethiopes
aethiopia
aethiopiae
aethiopiam
aethiops
aethiopum
aetius
aetna
aevi
aevo
aevum
af
afar
afer
affaires
affairs
affatim
affecit
affecta
affecti
affectibus
affectio
affectione
affectionem
affectiones
affectionibus
affectionis
affectu
affectum
affectus
affectuum
affer
afferant
afferat
afferens
afferre
afferret
afferri
affert
afferte
afferunt
afficere
affici
afficit
afficitur
afficiunt
affines
affinis
affinitate
affinitatem
affinitatis
affirmans
affirmant
affirmare
affirmat
affirmatio
affirmatione
affirmationem
affirmationes
affirmationis
affirmatiua
affirmativa
affirmavit
affixa
affixus
afflatu
afflicta
afflicti
afflictio
afflictione
afflictionem
afflictionibus
afflictionis
afflictis
afflictum
afflictus
affligere
affligi
affligit
affligitur
affligunt
afflixit
affluenter
affluentia
affuit
afri
africa
africae
africam
african
africana
africanae
africani
africanis
africano
africanum
africanus
afrique
afrorum
afros
after
ag
against
agam
agamemnon
agamus
agant
agantur
agar
agas
agat
agatha
agathae
agatur
age
agebant
agebantur
agebat
agebatur
agenda
agendae
agendam
agendas
agendi
agendis
agendo
agendum
agens
agent
agente
agentem
agentes
agenti
agentibus
agentis
agentium
ager
agere
agerem
agerent
agerentur
ageret
ageretur
ages
aget
agger
aggere
aggerem
aggravat
aggredi
aggreditur
aggressi
aggressus
agi
agimus
agis
agit
agitare
agitari
agitat
agitata
agitatur
agitatus
agite
agitis
agitur
aglaia
agmen
agmina
agmine
agminibus
agminis
agnes
agnetis
agni
agnis
agnita
agnitio
agnitione
agnitionem
agnitus
agno
agnos
agnoscamus
agnoscant
agnoscas
agnoscat
agnoscatur
agnosce
agnoscens
agnoscentes
agnoscere
agnoscerent
agnosceret
agnosci
agnoscimus
agnoscis
agnoscit
agnoscitur
agnosco
agnoscunt
agnoscuntur
agnoverunt
agnovi
agnovimus
agnovit
agnum
agnus
ago
agobardus
agone
agonem
agor
agostini
agostino
agrestes
agresti
agrestibus
agrestis
agri
agricola
agricolae
agricolam
agricolarum
agricolas
agricolis
agricultura
agriculturae
agricultural
agriculturam
agriculture
agrippa
agrippae
agrippina
agrippinae
agris
agro
agrorum
agros
agrum
agunt
aguntur
ah
ai
aiax
aiebant
aiebat
aim
aimerici
aimericus
ain
aio
air
ais
aise
ait
aiunt
aiþþau
ak
akademie
akademiska
al
ala
alabamae
alacer
alacres
alacri
alacritate
alacriter
alae
alain
alan
alani
alanus
alarum
alas
alb
alba
albae
albam
albanensis
albani
albania
albaniae
albano
albanum
albanus
albedine
albedinem
albedinis
albedo
albensium
albericus
albert
alberti
alberto
albertus
albi
albienſis
albini
albino
albinus
albiol
albis
albo
albrecht
album
albus
alcover
alcuini
alcuinus
aldea
alea
alere
ales
alessandro
alex
alexander
alexandra
alexandre
alexandri
alexandria
alexandriae
alexandriam
alexandrina
alexandrinae
alexandrinam
alexandrini
alexandrino
alexandrinum
alexandrinus
alexandro
alexandrum
alexii
alexio
alexis
alexius
alfonso
alfred
alfredo
alfredus
algebra
algeria
algerii
ali
alia
aliae
aliaeque
aliam
aliaque
aliarum
aliarumque
alias
aliasque
alibi
alice
alicia
alicubi
alicui
alicuius
alicujus
alie
aliena
alienae
alienam
alienare
alienarum
alienas
alienata
alienati
alieni
alienigena
alienigenae
alienigenarum
alienigenas
alienigenis
alienis
alieno
alienora
alienorum
alienos
alienum
alienus
alii
aliique
aliis
aliisque
alij
alijs
alimenta
alimentis
alimento
alimentorum
alimentum
alimonia
alimoniam
alio
alioqui
alioquin
aliorum
aliorumque
alios
aliosque
aliqua
aliquae
aliqualiter
aliquam
aliquamdiu
aliquandiu
aliquando
aliquanta
aliquantisper
aliquanto
aliquantulum
aliquantum
aliquas
aliquatenus
aliquem
aliqui
aliquibus
aliquid
aliquis
aliquo
aliquod
aliquorum
aliquos
aliquot
aliquotiens
aliquoties
alis
alit
aliter
alitur
aliud
alium
aliunde
alius
aliæ
all
alla
allai
allan
allata
allatum
alle
allectus
allegationibus
allegoria
allegoriae
allegoriam
allegorice
allel
alleluia
alleluja
allen
allgemeine
alligat
alligata
alligati
alligatus
alligavit
allium
allocutus
allodium
alloqui
alloquio
alloquitur
alma
almae
alme
almi
almus
alodem
aloisius
aloysius
alpes
alpha
alphabeti
alphabetico
alphabetum
alpheus
alphonsus
alpibus
alpinia
alpis
alpium
als
alsatia
alsatiae
also
alta
altae
altam
altare
altari
altaria
altaribus
altario
altaris
altarium
altas
alte
alten
alter
altera
alteram
alteratio
alteratum
alteri
alteris
alterius
alterna
alternatim
alternis
altero
altertumswissenschaft
alterum
alterutra
alterutro
alterutrum
alti
altior
altiora
altiorem
altiores
altiori
altioris
altis
altissima
altissime
altissimi
altissimis
altissimo
altissimum
altissimus
altitudine
altitudinem
altitudines
altitudinis
altitudo
altius
alto
altos
altre
altrinsecus
altro
altum
altus
aluit
alumna
alumni
alumnis
alumnos
alumnus
aluntur
alveo
alveum
alvi
alvo
alvum
alvus
am
ama
amabat
amabilem
amabili
amabilis
amabo
amadeus
amalec
amalech
amamus
aman
amanda
amandi
amando
amandum
amandus
amans
amant
amantem
amantes
amanti
amantibus
amantis
amantissime
amantium
amara
amare
amaret
amari
amaris
amaritudine
amaritudinem
amaritudinis
amaritudo
amaro
amarum
amarus
amas
amat
amata
amate
amato
amator
amatorem
amatores
amatoria
amatoribus
amatum
amatur
amatus
amavit
amazon
ambabus
ambae
ambages
ambagibus
ambarum
ambas
ambassador
ambigat
ambigere
ambigit
ambigitur
ambigua
ambiguis
ambiguitas
ambiguitate
ambiguitatem
ambiguo
ambiguum
ambire
ambit
ambitio
ambitione
ambitionem
ambitionis
ambitu
ambitum
ambitus
ambiunt
ambo
ambobus
amborum
ambos
ambrogio
ambrosii
ambrosio
ambrosium
ambrosius
ambula
ambulabat
ambulabunt
ambulamus
ambulans
ambulant
ambulantem
ambulantes
ambulare
ambulat
ambulate
ambulaverunt
ambulavit
ambulemus
ambulet
ambuletis
ame
amemus
amen
amens
ament
amentia
amentiam
america
americae
americam
american
americana
americanae
americanarum
americane
americani
americanis
americano
americanorum
americanum
americanus
ames
amet
ametlla
ametur
ami
amica
amicae
amicam
amice
amici
amicis
amicissimo
amicitia
amicitiae
amicitiam
amicitias
amicitiis
amico
amicorum
amicos
amictu
amictum
amictus
amicum
amicus
amiserat
amiserit
amiserunt
amisisse
amisit
amissa
amissam
amissione
amissionem
amissis
amisso
amissum
amita
amittant
amittat
amittere
amitteret
amittit
amittitur
amittunt
ammianus
ammon
amne
amnem
amnes
amniota
amnis
amo
amodo
amoena
amoenitate
amomum
amon
among
amor
amore
amorem
amores
amori
amoribus
amoris
amorrhaeorum
amorum
amos
amoto
amovere
ampla
amplam
amplectens
amplecti
amplectimur
amplectitur
amplector
amplectuntur
amplexa
amplexibus
amplexu
amplexus
amplior
ampliora
ampliorem
ampliores
ampliori
amplis
amplissima
amplissimae
amplissimi
amplissimis
amplissimo
amplissimum
amplitudine
amplitudinem
amplitudo
amplius
amplo
amplum
amposta
amputatis
amputavit
amstelodami
amstelodamum
amsterdam
an
ana
anagniae
analogia
analogiam
analysis
ananias
anarchismus
anas
anastasiae
anastasii
anastasio
anastasium
anastasius
anathema
anathemate
anathematis
anathematizamus
anathematizat
anatolii
anatolio
anatolium
anatolius
anatomia
anatomica
anatomical
anatomy
anaunia
anceps
anche
ancienne
ancient
ancilla
ancillae
ancillam
ancillarum
ancillas
ancillis
ancipiti
anconitana
ancora
ancyra
and
andegavensis
anderson
andorra
andra
andrae
andre
andrea
andreae
andream
andreas
andrew
andrews
andreæ
andronicus
anes
angela
angeles
angeli
angelica
angelicae
angelicam
angelici
angelicis
angelico
angelicum
angelicus
angelis
angelo
angelopoli
angelopolis
angelorum
angelos
angelum
angelus
angiospermae
angius
angl
angli
anglia
angliae
angliam
anglica
anglicae
anglicam
anglicana
anglicanae
anglice
anglici
anglicis
anglico
anglicum
anglicus
anglis
angliæ
anglo
anglorum
anglos
anglus
angues
anguis
angularis
anguli
angulis
angulo
angulorum
angulos
angulum
angulus
angusta
angustam
angustia
angustiae
angustiam
angustias
angustiis
angustis
angusto
angustum
angustus
anhelat
ani
aniciensis
anicius
anima
animabus
animadversione
animadversionis
animadvertendum
animadvertere
animadverti
animadvertit
animae
animal
animale
animales
animali
animalia
animalibus
animalis
animalium
animals
animam
animantia
animantibus
animantis
animantium
animarum
animas
animata
animati
animator
animatum
animatus
anime
animi
animique
animis
animo
animoque
animorum
animos
animositate
animosque
animum
animumque
animus
animæ
anjou
ann
anna
annae
annaeus
annal
annales
annalibus
annalium
annals
annam
anne
annexa
annexae
anni
annibal
annis
anniversario
anniversarium
anniversary
anno
annon
annona
annonae
annonam
annonas
annoque
annorum
annos
annot
annotated
annotatio
annotationes
annua
annuae
annual
annuatim
annuente
annuentes
annuere
annui
annuimus
annuis
annuit
annuli
annulo
annulum
annulus
annum
annuntiabit
annuntiabo
annuntians
annuntiant
annuntiare
annuntiat
annuntiavit
annuo
annus
annuum
ano
anomalia
anonymus
ans
anscharius
anselmi
anselmus
anser
ant
antarctica
ante
antea
antecedens
antecedente
antecedenti
antecedentibus
antecedentis
antecedit
antecessor
antecessore
antecessores
antecessoribus
antecessorum
antehac
antequam
anterior
anteriora
anteriore
anteriorem
anteriores
anteriori
anterioribus
anthemio
anthemius
anthologia
anthology
anthony
anthropologia
anthropologus
anthropology
anti
antica
antichristi
antichristo
antichristum
antichristus
antico
antigoni
antigonos
antigonus
antike
antiochena
antiochenae
antiocheni
antiocheno
antiochenum
antiochenus
antiochi
antiochia
antiochiae
antiochiam
antiocho
antiochum
antiochus
antipapa
antiph
antiphona
antiphonae
antiphonam
antiq
antiqua
antiquae
antiquam
antiquarum
antiquas
antique
antiqui
antiquior
antiquiora
antiquiores
antiquioribus
antiquis
antiquissima
antiquissimis
antiquissimum
antiquissimus
antiquitas
antiquitate
antiquitatem
antiquitates
antiquitatis
antiquitatum
antiquite
antiquities
antiquitus
antiquity
antiquius
antiquo
antiquorum
antiquos
antiquum
antiquus
antistes
antistite
antistitem
antistites
antistiti
antistitis
antistitum
anto
antoine
anton
antoni
antonia
antonii
antonini
antonino
antoninus
antonio
antonium
antonius
antra
antris
antro
antrum
antverpiae
anuli
anulo
anulum
anulus
anum
anus
anxia
anxie
anxietas
anxietate
anxius
any
ao
ap
aper
aperi
aperiam
aperiat
aperiatur
aperiens
aperietur
aperire
aperiret
aperiri
aperit
aperite
aperitur
aperiunt
aperiuntur
aperta
apertae
apertam
apertas
aperte
aperti
apertis
apertissime
apertius
aperto
apertos
apertum
apertus
aperuerunt
aperui
aperuit
apes
apex
api
apibus
apice
apicem
apices
apicibus
apis
apium
apo
apoc
apocalypsi
apocalypsis
apocrypha
apollinaris
apolline
apollinem
apollini
apollinis
apollo
apollodori
apollonius
apologia
apost
apostata
apostolatui
apostolatum
apostolatus
apostoli
apostolic
apostolica
apostolicae
apostolicam
apostolicas
apostolice
apostolici
apostolicis
apostolico
apostolicorum
apostolicos
apostolicum
apostolicus
apostolicæ
apostolis
apostolo
apostolorum
apostolos
apostolum
apostolus
app
apparatu
apparatum
apparatus
appareant
appareat
apparebat
apparebit
apparens
apparent
apparente
apparere
appareret
apparet
apparuerit
apparuerunt
apparuisse
apparuit
appellabant
appellabantur
appellabat
appellabatur
appellamus
appellandum
appellans
appellant
appellantur
appellare
appellaretur
appellari
appellarunt
appellasse
appellat
appellata
appellatae
appellatam
appellati
appellatio
appellatione
appellationem
appellationes
appellationi
appellationibus
appellationis
appellatis
appellato
appellatos
appellatum
appellatur
appellatus
appellaverit
appellaverunt
appellavit
appellentur
appellet
appelletur
appello
append
appendice
appendiciis
appenditiis
appendix
appetant
appetat
appetenda
appetens
appetere
appetit
appetitu
appetitum
appetitur
appetitus
appetunt
appia
appianus
appius
apple
appleton
applicare
applicari
applications
applicatur
applicuit
apponere
apponi
apponit
apponitur
apponuntur
apposita
appositis
appositum
apposuit
apprehendat
apprehendens
apprehendere
apprehenderunt
apprehendi
apprehendit
apprehensum
appresso
apprime
approach
approbamus
approbante
approbare
approbari
approbat
approbata
approbatione
approbatur
approbavit
appropinquant
appropinquante
appropinquare
appropinquat
appropinquavit
apr
apre
apri
april
apriles
aprili
aprilis
aprilium
aprum
aprutio
aprutium
apta
aptae
aptam
aptare
aptari
aptatur
apte
aptensis
apti
aptior
aptissime
aptius
apto
aptum
aptus
apud
apulei
apuleius
apulia
apuliae
apuliam
aput
aqua
aquae
aquam
aquarium
aquarius
aquarum
aquarumve
aquas
aquatica
aque
aquensi
aquensis
aquila
aquilae
aquilam
aquilana
aquileia
aquileiensis
aquilo
aquilone
aquilonem
aquilonis
aquinas
aquinassumma
aquino
aquis
aquisgrani
aquitania
aquitaniae
aquitaniam
aquitaniæ
aquitanorum
aquitanus
aquæ
ar
ara
arab
arabes
arabia
arabiae
arabiam
arabica
arabice
arabici
arabicis
arabico
arabicum
arabs
arabum
arae
aragonesa
aragoniae
aram
aranea
araneae
aranearum
araris
aras
arat
arator
aratro
aratrum
aratus
arauris
arbiter
arbitrabantur
arbitrabatur
arbitramur
arbitrantes
arbitrantur
arbitrarentur
arbitraretur
arbitrari
arbitraris
arbitrati
arbitratu
arbitratur
arbitratus
arbitremur
arbitrentur
arbitretur
arbitri
arbitrii
arbitrio
arbitris
arbitrium
arbitror
arbitros
arbitrum
arboc
arbor
arbore
arborem
arborensi
arborensis
arbores
arbori
arboribus
arboris
arborum
arbusta
arc
arca
arcad
arcadia
arcadii
arcadio
arcadius
arcae
arcam
arcana
arcanis
arcano
arcansiae
arcanum
arce
arcem
arcere
arces
arch
archa
archaeologia
archaeological
archaeologicus
archaeologus
archaeology
archangeli
archangelus
archbishop
arche
archelaus
archi
archidiaconi
archidiacono
archidiaconum
archidiaconus
archidioecesem
archidioecesis
archiep
archiepisc
archiepiscopalis
archiepiscope
archiepiscopi
archiepiscopis
archiepiscopo
archiepiscoporum
archiepiscopos
archiepiscopum
archiepiscopus
archimedis
archipelago
archipelagus
archipresbyter
archipresbytero
architecti
architecto
architectura
architecturae
architecture
architectus
archiv
archive
archives
archivis
archivo
archivum
arcibus
arcis
arcs
arcta
arctic
arctius
arctos
arcu
arcum
arcus
ardeam
ardeat
ardebat
ardebit
ardens
ardent
ardentem
ardenter
ardentes
ardenti
ardentibus
ardentis
ardentius
ardere
ardescae
ardet
ardor
ardore
ardorem
ardoribus
ardoris
ardua
arduenna
arduennae
arduum
arduus
are
area
areae
aream
areas
areis
arelat
arelate
arelatensem
arelatensi
arelatensis
arena
arenae
arenam
arenas
arenis
arescit
arg
argentaria
argentariae
argentarius
argentea
argenteam
argenteas
argentei
argenteis
argenteo
argenteos
argentera
argenteum
argenteus
argenti
argentina
argentinae
argentinus
argentique
argento
argentorati
argentum
argis
argivorum
argo
argos
arguas
arguat
arguatur
argue
arguebat
arguendi
arguendo
arguens
arguere
arguet
argui
arguis
arguit
arguitur
argumenta
argumentatio
argumentatione
argumentationem
argumentationes
argumentationis
argumenti
argumentis
argumento
argumentorum
argumentum
arguo
arguunt
arguuntur
ari
ariana
arianae
ariani
arianis
arianorum
arianos
arianum
arianus
arida
aridam
ariditate
arido
aridum
ariel
aries
ariete
arietem
arietes
arietis
arietum
arigiae
arii
ariminensis
ariminum
ario
aris
aristophanes
aristotele
aristotelem
aristoteles
aristotelis
aristotiles
arithmetica
arithmeticae
arium
arius
arizona
arma
armandus
armata
armati
armatis
armatorum
armatos
armatum
armatura
armatus
armavit
armed
armenia
armeniae
armeniam
armeniorum
armenta
armentera
armentis
armiger
armis
armorum
armstrong
army
arnaldi
arnaldo
arnaldus
arnes
arnobius
arnold
arnoldus
arnulfus
aromata
aromatibus
aromatum
around
arrepto
arretina
arripere
arripuit
arrogans
arrogantes
arrogantia
arrogantiae
arrogantiam
arrondissement
ars
arsit
art
arta
artaxerxes
arte
artem
artemis
arteria
arteriae
artes
arthropoda
arthur
arthurus
arti
artibus
article
articuli
articulis
articulo
articulos
articulum
articulus
artifex
artifice
artificem
artifices
artifici
artificia
artificialis
artificibus
artificio
artificis
artificium
artificum
artis
artist
artium
arts
artubus
arturus
artus
aruit
arum
arundinem
arundo
arva
arvernia
arvernorum
arvis
arx
arxiv
as
asa
asaph
ascanius
ascendam
ascendamus
ascendat
ascende
ascendebat
ascendendo
ascendens
ascendente
ascendentem
ascendentes
ascendere
ascenderet
ascenderit
ascenderunt
ascendet
ascendi
ascendimus
ascendisse
ascendisset
ascendisti
ascendit
ascendunt
ascensio
ascensione
ascensionem
ascensionis
ascensu
ascensum
ascensus
asco
ascribi
ascribitur
aser
ashgate
asia
asiae
asiam
asian
asina
asinae
asinam
asini
asino
asinos
asinum
asinus
aspectibus
aspects
aspectu
aspectum
aspectus
asper
aspera
aspere
asperis
asperitas
asperitate
asperitatem
aspero
asperum
aspexit
aspice
aspicere
aspiciat
aspiciens
aspicientes
aspicimus
aspicit
aspiciunt
aspidum
aspirare
ass
asse
assecutus
assembly
assensu
assensum
assensus
assentior
assequi
asserant
asserat
asserebant
asserebat
asserens
asserentes
asserere
asserimus
asseris
asserit
asseritur
assertio
assertione
assertionem
assertionibus
assertor
asseruit
asserunt
asseverat
assidua
assidue
assiduis
assiduitate
assiduo
assiduus
assignare
assignari
assignat
assignata
assimilatur
assis
assistens
assistere
assistit
assistunt
associated
association
associationis
assolet
assumat
assume
assumens
assumere
assumeret
assumi
assumit
assumitur
assumpserat
assumpserit
assumpsisse
assumpsit
assumpta
assumptae
assumptam
assumpti
assumptio
assumptione
assumptionem
assumptionis
assumptis
assumpto
assumptum
assumptus
assumunt
assumuntur
assur
assurgere
assyrii
assyriis
assyriorum
assyrios
ast
asta
astantibus
astensi
astensis
astensium
asteridae
asteroides
asteroidibus
asteroidum
astiterunt
astitit
astra
astragalus
astricti
astrictus
astris
astrologia
astrologus
astronomi
astronomia
astronomiae
astronomica
astronomicae
astronomical
astronomicarum
astronomicas
astronomico
astronomicum
astronomis
astronomo
astronomus
astronomy
astrophysicum
astrorum
astruere
astu
astutia
astutiam
asylum
at
atacis
ate
ater
athanasii
athanasio
athanasium
athanasius
athe
atheismus
athenae
athenaei
athenaeus
athenarum
athenas
athenienses
atheniensibus
atheniensis
atheniensium
athenis
athens
athesia
athleta
athletae
atilius
atis
atlantic
atlantici
atlantico
atlanticorum
atlanticum
atlantis
atlas
atomicus
atomis
atq
atque
atqui
atquin
atra
atramento
atrebatensi
atri
atria
atrii
atriis
atrio
atris
atrium
atro
atrocitate
atrociter
atropatene
atrox
atta
attalus
attamen
attempt
attendamus
attendant
attendas
attendat
attende
attendendum
attendens
attendentes
attendere
attendi
attendimus
attendis
attendit
attendite
attenditur
attendunt
attentare
attentari
attentatum
attente
attentius
attestante
attestatione
attestationes
attestationibus
attestatur
atti
attica
atticae
attici
attico
atticum
atticus
attigit
attila
attinet
attingat
attingere
attingit
attingunt
attollere
attollit
attollitur
attoniti
attonitus
attrahere
attrahit
attribui
attribuit
attribuitur
attributa
attributum
attributus
attribuuntur
attulerat
attulerit
attulerunt
attulisse
attulit
au
aucta
aucto
auctor
auctore
auctorem
auctores
auctori
auctoribus
auctoris
auctoritas
auctoritate
auctoritatem
auctoritates
auctoritati
auctoritatibus
auctoritatis
auctorum
auctum
auctus
audaces
audaci
audacia
audaciae
audaciam
audacius
audacter
audax
aude
audeant
audeas
audeat
audebant
audebat
audebit
audemus
audent
audeo
audere
auderent
auderet
audes
audet
audi
audiam
audiamus
audiant
audiantur
audias
audiat
audiatis
audiatur
audiebant
audiebat
audiebatur
audienda
audiendas
audiendi
audiendo
audiendum
audiens
audient
audiente
audientem
audientes
audientia
audientiam
audientibus
audientis
audientium
audierant
audierat
audierint
audieris
audierit
audieritis
audierunt
audies
audiet
audietis
audimus
audio
audire
audirent
audiret
audiri
audis
audisse
audissent
audisset
audisti
audistis
audit
audita
audite
auditis
audito
auditor
auditorem
auditores
auditoribus
auditorio
auditoris
auditorum
auditu
auditui
auditum
auditur
audituri
auditus
audiuit
audiunt
audiuntur
audivi
audivimus
audivit
aues
auf
aufer
auferam
auferantur
auferas
auferat
auferatur
auferens
auferet
auferetur
auferre
auferret
auferri
aufert
auferte
aufertur
auferunt
aufugit
aug
auge
augeat
augeatur
augent
augentur
augere
augeret
augeri
auget
augetur
augmenta
augmentis
augmento
augmentum
augur
augures
auguria
augurium
august
augusta
augustae
augustam
augustana
augustanae
auguste
augusti
augustin
augustine
augustini
augustiniani
augustino
augustinum
augustinus
augustinusde
augustis
augusto
augustorum
augustum
augustus
auis
auk
aula
aulae
aulam
aulus
aura
aurae
auram
auras
aure
aurea
aureae
auream
aureas
aurei
aureis
aurelia
aurelianensis
aureliani
aureliano
aurelianus
aurelii
aurelio
aurelium
aurelius
aurem
aureo
aureorum
aureos
aures
aureum
aureus
auri
auribus
auriga
auris
aurium
auro
aurora
aurorae
aurum
aus
ausa
ausculta
ausfu
ausi
ausim
ausonii
ausonius
auspicem
auspicia
auspiciis
auspicio
auspicium
auster
austin
australem
australes
australi
australia
australiae
australian
australiana
australianus
australis
austri
austria
austriaca
austriacus
austriae
austriam
austro
austrum
ausu
ausum
ausus
aut
autem
authentica
authenticis
authentico
author
authoritate
autobiographus
autobiography
autocinetorum
automatice
autonoma
autonomae
autoraedarum
autore
autoritate
autumant
autumni
autumno
autumnus
aux
auxilia
auxiliante
auxilii
auxiliis
auxilio
auxilium
auxit
av
avant
avari
avarionis
avaritia
avaritiae
avaritiam
avarum
avarus
ave
avec
avem
avena
avenion
avenionensis
aversa
aversi
aversus
avertas
avertat
averte
avertere
averteret
averti
avertit
aves
avi
avia
avibus
avida
avide
aviditate
avidius
avidus
avis
avitus
avium
avo
avum
avunculi
avunculo
avunculum
avunculus
avus
award
awards
ax
axe
axem
axioma
axis
axonae
ay
az
azarias
azyma
azymorum
aþþan
b
ba
baal
baalim
babel
babylon
babylone
babylonem
babylonia
babyloniae
babyloniam
babylonis
bacchi
baccho
bacchus
bach
back
bacon
bacteria
baculo
baculum
baculus
bad
baden
badenia
badeniae
badense
baeda
bagdatum
bai
bailey
bains
baixa
baker
bal
balaam
balac
balbinus
balbus
baldewinus
balduini
balduino
balduinus
baldus
baldwin
ball
balnea
balneis
balneo
balneum
balthasar
baltimorae
baltimore
baluz
baluzius
bam
ban
band
bank
banner
bannum
bant
bantam
baptisma
baptismate
baptismatis
baptismi
baptismo
baptismum
baptismus
baptista
baptistae
baptistam
baptiste
baptisterium
baptizandi
baptizandis
baptizandos
baptizant
baptizantes
baptizantur
baptizare
baptizaretur
baptizari
baptizat
baptizati
baptizatis
baptizato
baptizatos
baptizatum
baptizatur
baptizatus
baptizavit
baptizentur
baptizetur
bar
barba
barbam
barbara
barbarae
barbaras
barbari
barbaria
barbaris
barbaro
barbarorum
barbaros
barbarum
barbarus
barbera
barcelona
barcinone
barcinonensi
barensis
baretium
bari
barium
barker
barnabae
barnabas
barnes
baro
baron
barones
baronibus
baronis
baronius
baronum
barry
bartholomaei
bartholomaeus
baruch
bas
basan
base
based
basel
bases
basi
basic
basileae
basiliae
basilica
basilicae
basilicam
basilicarum
basilicas
basilicis
basilii
basilio
basilium
basilius
basim
basis
bassa
bassi
basso
bassus
bat
batav
batava
batave
batavice
batavorum
bates
bath
battista
battle
bauer
bautz
bauzanensi
bauzanensis
bauzanum
bavaria
bavariae
bavaricum
bay
bayer
bb
bbc
bc
bd
be
beach
bear
beat
beata
beatae
beatam
beate
beati
beatior
beatis
beatissima
beatissimae
beatissimam
beatissime
beatissimi
beatissimo
beatissimum
beatissimus
beatitudine
beatitudinem
beatitudini
beatitudinis
beatitudo
beatius
beato
beatorum
beatos
beatrix
beatum
beatus
beatæ
beaumont
beausobre
beck
becker
beda
bedae
beelzebub
been
beer
beethoven
before
begin
behavior
behind
bei
beic
being
beitra
bel
belfortii
belgarum
belgia
belgica
belgicae
belgicus
belgium
belial
bell
bella
bellamy
bellandi
bellator
bellatores
bellatorum
belle
belles
belli
bellica
bellicis
bellis
bello
belloque
bellorum
bellua
bellum
bellunensi
bellunensis
bellus
belua
bemardus
ben
bene
bened
benedic
benedicam
benedicat
benedicens
benedicentur
benedicere
benedicetur
benedici
benedicimus
benedicit
benedicite
benedicitur
benedict
benedicta
benedicti
benedictini
benedictio
benedictione
benedictionem
benedictiones
benedictioni
benedictionibus
benedictionis
benedicto
benedictum
benedictus
benedixit
benefacere
beneficia
beneficii
beneficiis
beneficio
beneficiorum
beneficium
beneplacito
beneplacitum
beneventana
beneventi
beneventum
benevolentia
benevolentiae
benevolentiam
beniamin
beniaminus
benigna
benigne
benigni
benignissime
benignitas
benignitate
benignitatem
benignitatis
benigno
benignum
benignus
benjamin
bennett
ber
bera
berengarius
berg
bergamo
berger
bergomas
bergomati
bergomum
berkeleiae
berkeley
berlin
berna
bernae
bernard
bernardi
bernardo
bernardum
bernardus
bernhard
bernhardus
berolinensis
berolini
berolinum
bersabee
bertrand
bertrandi
bertrando
bertrandus
berytus
best
bestia
bestiae
bestiam
bestiarum
bestias
bestiis
beta
beth
bethania
bethel
bethleem
bethlehem
between
beyond
bf
bg
bi
bianchi
bibam
bibamus
bibant
bibat
bibcode
bibe
bibebant
bibendi
bibendo
bibendum
bibens
bibentes
bibere
biberent
biberet
biberint
biberit
biberunt
bibet
bibi
bibimus
bibit
bibite
bibitur
bibl
bible
biblia
biblica
bibliis
bibliographia
bibliographisches
bibliography
bibliorum
biblioteca
biblioth
bibliothe
bibliotheca
bibliothecae
bibliothecam
bibliothecarii
bibliothecarius
bibliothecas
bibliothecis
bibunt
biduo
biduum
bien
biennio
biennium
big
bilateria
bilis
bill
billy
bin
bina
binae
binarium
binarius
binas
bingensis
bini
binis
binomen
binos
biodiversity
biographia
biographical
biographicum
biographie
biographisch
biography
biologia
biologica
biological
biologus
biology
bipes
bird
birds
birgitta
birmania
birmaniae
birotarius
birth
bis
bisbal
bisextilibus
bishop
bissaviensis
bit
bithynia
bithyniae
bituric
bituricensi
bituricensis
biturigum
bivalvia
bl
black
blackwell
blair
blanc
blanca
blancafort
blanda
blande
blandimenta
blandimentis
blandis
blanditiis
blanditur
blandiuntur
blando
blandus
blasii
blasphemant
blasphemare
blasphemat
blasphemia
blasphemiae
blasphemiam
blasphemias
blasphemiis
blasphemus
blesensis
blius
blog
blood
bloom
bloomsbury
blue
bner
bo
boamundus
board
bob
bobus
body
boeotia
boethius
boetius
bohemia
bohemiae
bohemica
bohemice
bois
boisduval
bolivia
bologna
bolton
bon
bona
bonae
bonam
bonaparte
bonarum
bonas
bond
bone
boni
bonifacii
bonifacio
bonifacium
bonifacius
bonis
bonitas
bonitate
bonitatem
bonitati
bonitatis
bonnae
bono
bononia
bononiae
bononiam
bononiensem
bononiensi
bononiensis
bonorum
bonos
bonum
bonus
bonæ
book
books
booz
bor
borea
boreali
borealis
boream
boreas
boreo
borges
borgo
boris
born
borussia
borussiae
borussiam
bos
bosco
bosnia
bosniae
boso
bosonis
boston
bostoniae
bot
botanica
botanical
botanicis
botanicus
botanista
botany
boum
bouquet
bourbon
bourg
bove
bovem
boves
bovi
bovis
bowell
bowie
boy
boyer
br
bra
bracarensis
bracchia
brachia
brachii
brachiis
brachio
brachium
bradley
brai
brain
brandt
brasilia
brasiliae
brasilianus
brasiliensis
brassica
braun
bravium
bre
bremae
brescia
bretagne
breui
breuis
breuiter
breve
brevem
breves
brevi
brevia
breviarium
brevibus
brevior
brevique
brevis
brevissima
brevissime
brevitas
brevitate
brevitatem
brevitatis
breviter
brevium
brevius
brian
bridge
brie
brief
brigantia
brigantina
brill
brisgoviae
britain
britanni
britannia
britanniae
britanniam
britanniarum
britannica
britannicae
britannicam
britannici
britannicis
britannico
britannicum
britannicus
britannis
britannorum
britannos
british
britonice
britonum
brixia
brixiae
brixiana
brockhaus
bronze
brooks
brothers
brown
bru
bruce
bruma
brundisium
bruni
bruno
brunsvici
brunsvicum
brunus
bruta
bruti
brutis
bruto
bruttio
bruttium
brutum
brutus
bruxellae
bruxelles
bruxellis
bu
bubus
bucaresta
bucarestae
buch
budapestinum
buddhismus
buffalo
bugellensis
building
bulgaria
bulgariae
bulgarice
bulgaricus
bulgarorum
bulla
bullam
bullas
bulletin
bullis
bunt
buprestoidea
bur
burdegalensi
burdegalensis
burdigal
burdigalensis
bureau
burgi
burgo
burgum
burgundia
burgundiae
burgus
burkina
burma
burmann
bursa
burton
bus
bush
business
busta
but
butler
butterflies
by
bysso
byzantina
byzantine
byzantini
byzantinus
byzantium
c
ca
cabra
cacumen
cacumina
cacumine
cadant
cadat
cadaver
cadavera
cadaveribus
cadens
cadent
cadente
cadentem
cadentes
cadentibus
cadere
caderent
caderet
cades
cadet
cadit
caduca
caducis
cadunt
cae
caeca
caeci
caecilia
caeciliae
caeciliani
caeciliano
caecilianum
caecilianus
caecilius
caecina
caecis
caecitas
caecitate
caecitatem
caecitatis
caeco
caecorum
caecos
caecum
caecus
caede
caedem
caedere
caedes
caedi
caedibus
caedis
caedit
caeditur
caeleste
caelestem
caelestes
caelesti
caelestia
caelestibus
caelestis
caelestium
caeli
caelis
caelius
caelo
caelorum
caelos
caelum
caeremonias
caeremoniis
caerula
caerulea
caeruleo
caeruleum
caeruleus
caes
caesa
caesar
caesare
caesarea
caesareae
caesaream
caesarem
caesares
caesari
caesaribus
caesariensis
caesarii
caesaris
caesarius
caesarum
caesi
caesis
caeso
caesum
caesus
caetera
caeterae
caeteraque
caeterarum
caeteras
caeteri
caeterique
caeteris
caeterisque
caetero
caeterorum
caeterorumque
caeteros
caeterosque
caeterum
cahiers
cai
cain
caiphas
cairus
caius
cal
calabria
calabriae
calami
calamitas
calamitate
calamitatem
calamitates
calamitatibus
calamitatis
calamitatum
calamo
calamos
calamum
calamus
calcaneum
calcare
calcat
calcata
calce
calceamenta
calceamentum
calcem
calculi
calculo
calculum
calculus
calcutta
cale
calend
calendarii
calendario
calendarium
calendarum
calendas
calendis
calice
calicem
calices
calicis
calida
calidae
calidi
calidis
calido
calidum
calidus
california
californiae
californiense
californiensis
caligine
caliginem
caliginis
caligo
caligula
calisii
calix
calixti
calixtus
call
calle
called
callicratis
callida
callide
callidi
calliditate
callidus
calor
calore
calorem
caloris
calpurnius
calumnia
calumniae
calumniam
calumniantibus
calumniantur
calumniari
calumnias
calumniis
calvariae
calvi
calvinus
calvo
calvorum
calvum
calvus
cam
cambria
cambriae
cambridge
cameli
camelorum
camelos
camelum
camera
camerae
cameram
camerarius
cameron
camillo
camillus
camino
caminum
camp
campagna
campana
campanella
campania
campaniae
campaniam
campanis
campbell
campestria
campestribus
campi
campis
campo
campobassensis
camporum
campos
campum
campus
camunnorum
can
cana
canada
canadae
canadensis
canadian
canadiensis
canale
canalem
canales
canali
canalibus
canalis
canam
canapicensium
canapisium
cancellarii
cancellario
cancellarium
cancellarius
cancer
cancri
cancro
cancrum
candela
candelabra
candelabrum
candida
candidae
candidam
candidatus
candidi
candido
candidum
candidus
candor
candore
candorem
cane
canebat
canem
canens
canentes
canere
canes
cange
cani
canibus
canis
canit
canitur
cano
canon
canone
canonem
canones
canonibus
canonica
canonicae
canonicam
canonicas
canonice
canonici
canonicis
canonico
canonicorum
canonicos
canonicum
canonicus
canonis
canonum
canos
cant
cantabo
cantabrigia
cantabrigiae
cantabrigiensis
cantando
cantant
cantantes
cantare
cantat
cantate
cantatur
cantavit
cantemus
cantet
cantibus
cantica
cantici
canticis
cantico
canticorum
canticum
canto
canton
cantor
cantores
cantoribus
cantorum
cantrix
cantu
cantuariensem
cantuariensi
cantuariensis
cantum
cantus
canum
canunt
cap
capacem
capaces
capacitate
capacitatem
capax
cape
capella
capellae
capellam
capellani
capellano
capellanum
capellanus
capellas
capellis
capere
caperent
caperet
caperetur
capharnaum
capi
capiamus
capiant
capiantur
capiat
capiatur
capiebat
capienda
capiendo
capiendum
capiens
capientes
capiet
capilli
capillis
capillo
capillorum
capillos
capillum
capillus
capio
capit
capita
capital
capitale
capitalem
capitales
capitali
capitalis
capite
capiti
capitibus
capitis
capito
capitolinus
capitolio
capitolium
capitula
capitulare
capituli
capitulis
capitulo
capitulorum
capitulum
capitum
capitur
capiunt
capiuntur
capo
capp
cappadocia
cappadociae
capra
caprae
caprarum
capreae
capricorni
capris
capsa
capsae
capsam
capsicum
capta
captae
captam
captare
captas
captat
capti
captis
captiva
captivam
captivi
captivis
captivitas
captivitate
captivitatem
captivitatis
captivorum
captivos
captivum
captivus
capto
captos
captu
captum
captus
capua
capuae
capuam
caput
caputque
car
cara
carabus
caracalla
caralitana
carantoni
carantonis
caraphaeus
carbo
carbone
carbones
carbonibus
carbonii
carbonis
carcer
carcere
carcerem
carceres
carceri
carceribus
carceris
card
cardin
cardinal
cardinale
cardinalem
cardinales
cardinali
cardinalibus
cardinalis
cardinalium
cardine
cardines
cardinibus
care
careant
careat
carens
carent
carentes
carentia
carentibus
carere
careret
caret
carex
cari
carina
carinae
carinus
carior
carissima
carissime
carissimi
caritas
caritate
caritatem
caritati
caritatis
carius
carl
carles
carlo
carlos
carm
carmelitae
carmen
carmina
carmine
carminibus
carminis
carminum
carnale
carnalem
carnales
carnali
carnalia
carnalibus
carnalis
carnaliter
carnalium
carne
carnem
carnes
carni
carnibus
carnifex
carnis
carnium
carnotensis
caro
carol
carola
caroli
carolina
carolinae
caroline
carolo
carolum
carolus
carpenter
carpere
carpit
carroll
carta
carter
cartesius
carthag
carthagine
carthaginem
carthaginensi
carthaginensis
carthaginienses
carthaginiensibus
carthaginiensium
carthaginis
carthago
cartulaire
caruisse
caruit
carum
carus
cas
casa
casae
casale
casalis
casam
casas
case
casei
caseo
casertana
caseum
caseus
casibus
casimirus
casinensis
casis
caspium
cass
cassa
cassell
cassiani
cassianus
cassii
cassini
cassio
cassiodorus
cassium
cassius
cassum
cast
casta
castae
castam
caste
castel
castella
castellae
castellana
castelli
castellio
castellis
castello
castellum
casti
castigare
castigat
castigatione
castiglioni
castillio
castis
castitas
castitate
castitatem
castitatis
castle
casto
castor
castra
castrametati
castrensis
castri
castris
castro
castrorum
castrum
castum
castus
casu
casula
casum
casus
casuum
cat
cata
catacensis
catalana
catalane
catalanice
catalauniae
catalog
catalogi
catalogo
catalogue
catalogum
catalogus
catechumeni
catechumenis
catechumenus
categoria
categorias
categorica
catena
catenae
catenam
catenas
catenis
caterva
catervae
catervas
catervis
catharina
catharinae
cathedra
cathedrae
cathedral
cathedralem
cathedrali
cathedralis
cathedram
cathedras
catherine
catholic
catholica
catholicae
catholicam
catholice
catholici
catholicis
catholicismus
catholico
catholicorum
catholicos
catholicum
catholicus
catilina
catilinae
catilinam
catinensis
catinum
catllar
cato
catocala
catone
catonem
catonis
catuli
catulli
catullus
catulos
catulus
caucasi
caucasus
cauda
caudae
caudam
caulas
caule
caulis
causa
causae
causam
causamque
causari
causarum
causas
causat
causatum
causatur
cause
causidicus
causis
caussa
caussae
caussam
caussas
caussis
cauta
caute
cautela
cautelam
cautio
cautione
cautionem
cautius
cautum
cautus
cav
cava
cave
cavea
caveamus
caveant
caveat
cavenda
cavendum
cavere
caverna
cavernis
cavet
cavete
cavum
cawley
cb
cc
ccc
cccc
cd
cdot
cdu
ce
cechia
ceciderat
cecidere
ceciderit
ceciderunt
cecidi
cecidisse
cecidisset
cecidit
cecinerunt
cecinit
cedant
cedar
cedat
cede
cedens
cedere
cederent
cederet
cedit
cedo
cedri
cedros
cedrus
cedunt
celare
celat
celeber
celeberrima
celeberrimi
celeberrimum
celeberrimus
celebramus
celebranda
celebrandam
celebrandis
celebrandum
celebrans
celebrant
celebrantes
celebrantur
celebrare
celebraret
celebraretur
celebrari
celebrat
celebrata
celebratae
celebratam
celebrati
celebratione
celebrationem
celebratis
celebrato
celebratum
celebratur
celebratus
celebravit
celebre
celebrem
celebremus
celebrent
celebrentur
celebres
celebret
celebretur
celebri
celebris
celebritate
celer
celerem
celeres
celeri
celeritas
celeritate
celeritatem
celeriter
celerius
celerrime
celesti
celestia
celestibus
celestis
celi
celis
cell
cella
cellae
cellam
cellas
cellis
cellula
cellulae
cellulam
cellularum
cellulas
cellulis
celo
celorum
celsa
celsi
celsitudine
celsitudinem
celsitudinis
celsitudo
celso
celsum
celsus
celtorum
celum
cem
cemetery
cen
cena
cenae
cenam
cenodoxus
cenomanensis
cenomannicae
censebat
censemus
censent
censentur
censeo
censeri
censes
censet
censetur
censor
censores
censu
censuerunt
censui
censuimus
censuit
censum
censura
censurae
censuram
census
centauri
centena
center
centesimae
centesimas
centesimis
centesimo
centesimum
centesimus
centies
centimetra
centra
central
centrale
centrali
centralis
centre
centri
centro
centrum
centum
centuplum
centuries
centurio
centuriones
centurionis
century
ceperant
ceperat
ceperit
ceperunt
cepi
cepisse
cepisset
cepit
cera
cerae
ceram
cere
cerebri
cerebro
cerebrum
cereis
cererem
cereris
ceres
cernat
cerne
cernebat
cernens
cernentes
cernere
cernerent
cerneret
cerni
cernimus
cernis
cernit
cernitis
cernitur
cerno
cernunt
cernuntur
certa
certae
certam
certamen
certamina
certamine
certamini
certaminibus
certaminis
certaminum
certant
certantes
certare
certas
certat
certatim
certatum
certavit
certe
certi
certior
certiorem
certiores
certis
certissima
certissime
certissimum
certitudine
certitudinem
certius
certo
certos
certum
certus
cervantes
cervi
cervice
cervicem
cervices
cervicibus
cervicis
cervix
cervorum
cervus
ces
cesar
cesare
cesarem
cesaris
cessabat
cessabit
cessabunt
cessant
cessante
cessantibus
cessare
cessaret
cessat
cessatione
cessavit
cessent
cessere
cesserit
cesserunt
cesset
cessisse
cessit
cet
cetera
ceterae
ceteraque
ceterarum
ceteras
ceteri
ceteris
ceterisque
cetero
ceterorum
ceteros
ceterum
ceti
ceu
cf
cfa
cfr
ch
cha
chairperson
chalcedonense
chalcedonensem
chalcedonensi
chalcedonensis
chalcographia
chaldaei
chaldaeis
chaldaeorum
chaldaeos
cham
chamber
champion
chan
chanaan
chang
change
chaos
chapel
chapelle
chapman
char
chara
character
charactere
characterem
characteres
characteribus
charaxes
charismata
charismatum
charissime
charissimi
charissimo
charissimum
charissimus
charitas
charitate
charitatem
charitati
charitatis
charles
charlotte
charon
charraire
chart
charta
chartae
chartam
chartarum
chartas
chartis
chartula
chartulario
chartæ
charus
che
checklist
chelsea
chem
chemia
chemiae
chemica
chemical
chemicum
chemicus
chemistry
chen
cheney
cher
chernykh
cherub
cherubim
cherubin
chez
chi
chicago
chief
chiesa
child
childeberti
childebertus
children
chile
chilia
chiliae
chiliometra
chiliometrorum
chiliometrum
chilperici
chilpericus
chimaera
china
chinese
chirographo
chirographum
chirurgus
chiusole
chm
chomsky
chorda
chordarum
chordata
chordonia
chori
choris
choro
chorog
chorographia
choros
chorum
chorus
chr
chrifti
chris
chrisma
chrismate
chrismatis
christ
christe
christi
christian
christiana
christianae
christianam
christianarum
christianas
christiane
christiani
christianis
christianitas
christianitatem
christianitatis
christianity
christiano
christianorum
christianos
christianum
christianus
christie
christina
christinae
christine
christo
christoph
christophe
christopher
christophori
christophoro
christophorus
christos
christum
christus
chron
chronica
chronicis
chronicle
chronico
chronicon
chronicorum
chronologia
chronology
chrys
chrysanthemum
chrysippus
chrysogoni
chrysostomus
church
churchill
chus
ci
cia
cibaria
cibi
cibis
cibo
ciborum
cibos
cibum
cibus
cic
cicatricem
cicatrices
cicatrix
cicero
cicerone
ciceronem
ciceroni
ciceronis
cidob
cie
ciet
cii
ciii
cil
cilicia
ciliciae
ciliciam
cilicio
cilicium
cincta
cinctus
cinematographica
cinematographico
cinematographicus
cinere
cinerem
cineres
cineribus
cinerum
cingar
cingit
cingitur
cinguli
cingulo
cingulum
cinis
cinna
cinnamomum
cio
circa
circe
circi
circiter
circo
circuit
circuitu
circuitum
circuitus
circularis
circuli
circulis
circulo
circulorum
circulos
circulum
circulus
circum
circumcidi
circumcisi
circumcisio
circumcisione
circumcisionem
circumcisionis
circumcisus
circumdabit
circumdarium
circumdat
circumdata
circumdatum
circumdatur
circumdatus
circumdederunt
circumdedit
circumferentia
circumfusa
circumiecta
circumiectis
circumire
circumquaque
circumstances
circumstantes
circumstantia
circumstantiae
circumstantibus
circumstantiis
circumstantium
circumventus
circus
cis
cisterciensis
cisterna
cit
cita
citat
citata
citationes
citatis
citato
citatus
cite
cithara
citharae
citharam
citharista
cities
citissime
citius
citizen
cito
citra
citroque
citrus
citta
city
ciues
ciuibus
ciuitas
ciuitate
ciuitatem
ciuitates
ciuitatibus
ciuitatis
ciuium
civ
cive
civem
cives
civi
civibus
civica
civici
civil
civile
civilem
civiles
civili
civilia
civilibus
civilis
civilium
civilization
civis
civitas
civitate
civitatem
civitates
civitati
civitatibus
civitatis
civitatum
civitella
civium
cix
cj
ck
cl
cla
clade
cladem
clades
cladibus
cladis
cladotheria
cladus
clam
clama
clamabant
clamabat
clamabo
clamabunt
clamamus
clamans
clamant
clamante
clamantem
clamantes
clamantis
clamare
clamaret
clamas
clamat
clamaverunt
clamavi
clamavit
clamet
clamor
clamore
clamorem
clamores
clamoribus
clamoris
clara
clarae
claraevallensis
claram
clare
clarendon
claret
clari
clarifica
clarificatus
clarior
clariorem
claris
clarissima
clarissime
clarissimi
clarissimis
clarissimo
clarissimorum
clarissimum
clarissimus
claritas
claritate
claritatem
claritatis
clarius
clark
clarke
claro
clarom
claromont
claros
claruit
clarum
clarus
class
classe
classem
classes
classi
classibus
classica
classicae
classical
classicis
classics
classicum
classicus
classificatio
classification
classificationis
classis
classischen
classium
claud
claudat
claudatur
claude
claudere
claudi
claudia
claudii
claudio
claudit
clauditur
claudium
claudius
claudum
claudunt
clauduntur
claudus
clausa
clausae
clausam
clausas
clausi
clausis
clausit
clauso
clausos
claustra
claustris
claustro
claustrum
clausula
clausulam
clausum
clausus
clavem
claves
clavi
clavile
clavilista
clavis
clavorum
clavum
cle
clemens
clemente
clementem
clementer
clementi
clementia
clementiae
clementiam
clementina
clementis
clementissime
clementissimus
cleopatra
cleopatrae
cleri
clericali
clericalis
clericatus
clerici
clericis
clerico
clericorum
clericos
clericum
clericus
clero
clerum
clerus
cles
cliens
clientes
clima
climate
clinical
clio
clipeum
clivi
clodius
club
cluniacensi
cluniacensis
clusius
clx
clypeo
clypeum
cm
cn
co
coacta
coacti
coactis
coacto
coactum
coactus
coaeterna
coaeternum
coaeternus
coast
cocco
cocta
coctum
cod
codd
code
codex
codice
codicem
codices
codicibus
codicis
codicum
coe
coegerunt
coegit
coeleste
coelestem
coelestes
coelesti
coelestia
coelestibus
coelestii
coelestini
coelestinus
coelestis
coelestium
coelestius
coeli
coelis
coelitus
coelo
coelorum
coelos
coelum
coemeterio
coemeterium
coena
coenae
coenam
coeno
coenobii
coenobiis
coenobio
coenobium
coeperam
coeperant
coeperat
coepere
coeperimus
coeperint
coeperis
coeperit
coeperunt
coepi
coepimus
coepiscopi
coepiscopis
coepiscopo
coepiscoporum
coepiscopos
coepiscopum
coepiscopus
coepisse
coepissent
coepisset
coepisti
coepistis
coepit
coepta
coeptis
coepto
coeptum
coercere
coerceri
coercet
coetibus
coetu
coetum
coetus
coeunt
cogantur
cogat
cogatur
cogebat
cogente
cogere
cogerentur
cogeret
cogeretur
cogi
cogimur
cogis
cogit
cogita
cogitabant
cogitabat
cogitamus
cogitandi
cogitando
cogitandum
cogitans
cogitant
cogitantem
cogitantes
cogitanti
cogitare
cogitaret
cogitari
cogitas
cogitat
cogitata
cogitate
cogitatio
cogitatione
cogitationem
cogitationes
cogitationi
cogitationibus
cogitationis
cogitationum
cogitatis
cogitatum
cogitatur
cogitaverunt
cogitavi
cogitavit
cogitemus
cogitent
cogites
cogitet
cogito
cogitur
cognata
cognatae
cognati
cognatio
cognatione
cognationem
cognationes
cognationis
cognatis
cognatos
cognatum
cognatus
cognita
cognitae
cognitam
cogniti
cognitio
cognitione
cognitionem
cognitioni
cognitionis
cognitis
cognitive
cognito
cognitor
cognitum
cognitus
cognomen
cognomento
cognominatur
cognominatus
cognomine
cognoscam
cognoscamus
cognoscant
cognoscas
cognoscat
cognoscatis
cognoscatur
cognosce
cognoscenda
cognoscendam
cognoscendi
cognoscendo
cognoscendum
cognoscens
cognoscent
cognoscentes
cognoscere
cognoscerent
cognosceret
cognosceretur
cognosces
cognoscet
cognoscetis
cognosci
cognoscimus
cognoscis
cognoscit
cognoscite
cognoscitis
cognoscitur
cognosco
cognoscunt
cognoscuntur
cognoverat
cognoverint
cognoveris
cognoverit
cognoverunt
cognovi
cognovimus
cognovisse
cognovissent
cognovisset
cognovisti
cognovistis
cognovit
cogor
cogunt
coguntur
cohaeredes
cohaerent
cohaerere
cohaeret
cohen
cohibere
cohibet
cohors
cohorte
cohortem
cohortes
cohortibus
cohortis
coi
coinage
coire
coit
coitu
coitum
coitus
col
colant
colat
cold
cole
colebant
colebat
colebatur
colenda
colendi
colendo
colendum
colentes
coleoptera
coleopterorum
colere
colerent
coli
colias
colimus
colin
colis
colit
colitis
colitur
coll
colla
collar
collata
collatae
collatam
collatio
collatione
collationem
collationes
collationis
collatis
collatum
colle
collect
collecta
collectae
collectam
collectas
collected
collecti
collectio
collection
collectione
collectionem
collectiones
collectionibus
collectionis
collections
collectis
collecto
collector
collectum
collectus
collega
collegae
collegam
collegarum
collegas
college
collegerunt
collegia
collegii
collegiis
collegio
collegiorum
collegis
collegit
collegium
collem
colles
colli
collibus
colligat
colligatur
collige
colligens
colligere
colligi
colligimus
colligit
colligitur
colligunt
colliguntur
collins
collis
collium
collo
collocantur
collocare
collocari
collocat
collocata
collocati
collocatio
collocatum
collocatur
collocatus
collocavit
colloque
colloqui
colloquia
colloquiis
colloquio
colloquium
colluctatio
collum
colo
coloma
coloni
colonia
coloniae
colonial
coloniam
coloniarum
colonias
coloniensi
coloniensis
coloniis
colonis
colonorum
colonos
colonus
color
coloratum
colore
colorem
colores
coloribus
coloris
colorum
coloss
colossenses
coluber
coluerunt
coluit
columba
columbae
columbam
columbani
columbarum
columbas
columbi
columbia
columbiae
columbus
columella
columellae
columna
columnae
columnam
columnarum
columnas
columnis
colunt
coluntur
com
coma
comae
comam
comas
combussit
come
comedat
comede
comedendum
comedent
comedere
comederit
comederunt
comedet
comedetis
comedi
comedit
comedite
comedunt
comedy
comensis
comes
comi
comicus
cominus
comis
comitante
comitantibus
comitantur
comitata
comitatu
comitatum
comitatur
comitatus
comite
comitem
comiter
comites
comitetur
comiti
comitia
comitibus
comitiis
comitiorum
comitis
comitissa
comitissae
comitum
comm
commander
comme
commeatu
commeatum
commeatus
commemorans
commemorant
commemorantur
commemorare
commemoras
commemorat
commemorata
commemoratio
commemoration
commemoratione
commemorationem
commemoratis
commemoratum
commemoratur
commemoravi
commemoravimus
commemoravit
commendabat
commendamus
commendans
commendant
commendantes
commendare
commendaret
commendari
commendat
commendata
commendatio
commendatione
commendationem
commendatum
commendatur
commendatus
commendavit
commendet
commendo
comment
commenta
commentaria
commentarii
commentariis
commentario
commentariorum
commentarios
commentarium
commentarius
commentary
commentatio
commentationes
commentator
commento
commentum
commercia
commerciale
commercii
commercio
commercium
commilitones
comminatur
comminatus
comminus
commiserat
commiserit
commiserunt
commisi
commisimus
commisisse
commisit
commissa
commissae
commissam
commissi
commissio
commission
commissione
commissionis
commissis
commisso
commissum
commissus
committat
committee
committendam
committendum
committere
committeret
committi
committimus
committit
committitur
committunt
committuntur
commixtio
commixtione
commixtionem
commoda
commode
commodi
commodis
commodius
commodo
commodum
commodus
common
commonere
commonet
commonita
commoniti
commonitionem
commonitorium
commonitus
commorantes
commorantur
commorari
commoratus
commota
commoti
commotio
commotione
commotionem
commotum
commotus
commovebitur
commovere
commoveri
commovet
commovetur
commovit
commune
communem
communes
communi
communia
communibus
communicant
communicantes
communicare
communicat
communicatio
communicatione
communicationem
communicationis
communications
communicato
communicavit
communicent
communicet
communimus
communinatis
communio
communione
communionem
communioni
communionis
communis
communistarum
communistica
communisticae
communitas
communitate
communitatem
communitates
communitatis
communiter
community
communium
commutare
commutari
commutat
commutata
commutatio
commutatione
commutationem
commutationes
commutationis
commutatur
commutavit
comnenus
como
comoedia
comoediae
comoedus
comp
compage
compago
companion
company
comparanda
comparantur
comparare
comparari
comparat
comparata
comparati
comparatio
comparatione
comparationem
comparationis
comparatis
comparative
comparativus
comparatum
comparatur
comparatus
comparavit
comparentur
comparet
comparetur
comparuit
compassione
compassionem
compati
compedes
compedibus
compellantur
compellas
compellat
compellere
compelli
compellimur
compellit
compellitur
compellunt
compendia
compendio
compendium
comperi
comperimus
comperisset
comperit
comperta
comperto
compertum
compescere
compescuit
competat
competens
competentem
competenter
competentes
competenti
competentibus
competere
competit
competunt
complacui
complacuit
compleantur
compleat
compleatur
complectens
complecti
complectitur
complectuntur
complementum
complendum
complent
complentur
complere
compleretur
compleri
complet
completa
completam
complete
completis
completo
completum
completur
completus
complevit
complex
complexa
complexi
complexu
complexum
complexus
complices
complura
complures
compluribus
componat
componenda
componens
componere
componi
componit
componitur
componunt
componuntur
compos
composita
compositae
compositam
compositi
compositio
compositione
compositionem
compositiones
compositionis
compositis
composito
compositor
compositores
compositorum
compositos
compositum
compositus
composto
composuit
compotes
comprehendat
comprehendens
comprehendere
comprehenderunt
comprehendi
comprehendit
comprehenditur
comprehendunt
comprehenduntur
comprehensa
comprehensi
comprehensorialis
comprehensum
comprehensus
compressa
comprobare
comprobata
comprobatum
comprobatur
comprobavit
compulit
compulsi
compulsus
compuncti
compunctio
compunctione
compunctionem
compunctionis
compunctus
computantur
computare
computari
computatralis
computatur
computer
comtat
comte
comum
comune
comuni
con
conabantur
conabatur
conamine
conamur
conantur
conarentur
conaretur
conari
conaris
conata
conati
conatibus
conatu
conatum
conatur
conatus
conc
conca
concatenate
concedam
concedamus
concedant
concedas
concedat
concedatur
concede
concedenda
concedendum
concedente
concedere
concederet
concedi
concedimus
concedis
concedit
conceditur
concedo
concedunt
conceduntur
concentus
conceperat
conceperit
concepit
concepta
conceptam
concepti
conceptio
conceptione
conceptionem
conceptionis
concepto
concepts
conceptu
conceptum
conceptus
concerning
concessa
concessae
concessam
concessas
concesserat
concesserit
concesserunt
concessi
concessimus
concessio
concessione
concessionem
concessionis
concessis
concessisse
concessit
concesso
concessum
concessus
concha
concidit
concil
concilia
conciliare
conciliat
concilii
conciliis
concilio
conciliorum
concilium
concione
concipere
concipi
concipit
concipitur
concipiunt
concise
concitat
conclave
conclavi
concludat
concludens
concludere
concludi
concludit
concluditur
concludunt
conclusa
conclusi
conclusio
conclusione
conclusionem
conclusiones
conclusionis
conclusit
conclusum
conclusus
concordant
concordare
concordat
concordes
concordi
concordia
concordiae
concordiam
concorditer
concors
concreta
concretum
concubina
concubinam
concubitu
concubitum
concubitus
concupiscat
concupiscendum
concupiscentia
concupiscentiae
concupiscentiam
concupiscentias
concupiscentiis
concupiscere
concupisces
concupiscibilis
concupiscit
concupiscunt
concupivit
concurrant
concurrentes
concurrentibus
concurrere
concurrit
concurrunt
concursu
concursum
concursus
concussa
concutit
concutitur
conde
condecet
condemnare
condemnari
condemnat
condemnatione
condemnationem
condemnatur
condemnatus
condemnavit
condemnet
condere
conderet
condi
condicio
condicione
condicionem
condiciones
condicionibus
condicionis
condiderat
condiderunt
condidisse
condidit
condigna
condignae
condignam
condimentum
condit
condita
conditae
conditam
conditi
conditio
conditione
conditionem
conditiones
conditioni
conditionibus
conditionis
conditis
condito
conditor
conditore
conditorem
conditores
conditori
conditoribus
conditoris
conditum
conditur
conditus
conducere
conducit
conductor
conduxit
conentur
conesa
conetur
conf
confecit
confecta
confectae
confecti
confectis
confecto
confectum
confectus
confer
conferamus
conferant
conferantur
conferas
conferat
conferatur
conference
conferenda
conferendum
conferens
conferentes
conferre
conferret
conferri
confert
confertur
conferunt
conferuntur
confessa
confessi
confessio
confessione
confessionem
confessiones
confessioni
confessionibus
confessionis
confessor
confessorem
confessores
confessoris
confessorum
confessum
confessus
confestim
conficere
confici
conficit
conficitur
conficiunt
conficiuntur
confidat
confidens
confidenter
confidentes
confidentia
confidentiam
confidere
confidimus
confidit
confido
confidunt
confinia
confinio
confinium
confirma
confirmamus
confirmandam
confirmandum
confirmans
confirmant
confirmantes
confirmantur
confirmare
confirmaret
confirmari
confirmasse
confirmat
confirmata
confirmati
confirmatio
confirmatione
confirmationem
confirmationis
confirmatum
confirmatur
confirmatus
confirmavit
confirmet
confirmetur
confirmo
confisi
confisus
confiteamur
confiteantur
confiteatur
confitebitur
confitebor
confitemini
confitemur
confitendo
confitendum
confitens
confitentem
confitentes
confitentibus
confitentur
confiteor
confitere
confiteretur
confiteri
confiteris
confitetur
conflict
conflictu
conflictum
conflictus
confligere
conflixit
confluentes
confluit
confoederatio
confoederationis
conformes
confortamini
confortare
confortat
confortatus
confregit
confringet
confugere
confugit
confugiunt
confundantur
confundar
confundat
confundentur
confundere
confundetur
confundi
confundit
confunditur
confundunt
confusa
confuse
confusi
confusio
confusione
confusionem
confusionis
confusum
confusus
congensis
congeries
congesta
congo
congredi
congregabo
congregabuntur
congregans
congregant
congregantur
congregare
congregari
congregat
congregata
congregatae
congregati
congregatio
congregatione
congregationem
congregationes
congregationi
congregationibus
congregationis
congregatis
congregato
congregatos
congregatum
congregavit
congress
congressi
congressione
congressu
congressum
congressus
congrua
congruam
congruat
congrue
congruebat
congruens
congruentem
congruenter
congruentia
congruentius
congruere
congruis
congruit
congruo
congruum
congruunt
coniectura
coniecturam
coniectus
coniugali
coniugalis
coniuge
coniugem
coniuges
coniugi
coniugia
coniugibus
coniugii
coniugio
coniugis
coniugium
coniugum
coniuncta
coniunctae
coniunctam
coniuncti
coniunctim
coniunctio
coniunctione
coniunctionem
coniunctiones
coniunctionis
coniunctis
coniunctum
coniunctus
coniungere
coniungi
coniungit
coniungitur
coniunguntur
coniunx
coniunxit
coniuratio
coniuratione
coniurationem
coniurationis
coniux
conj
conjectura
conjicere
conjugali
conjugalis
conjuge
conjugem
conjuges
conjugia
conjugibus
conjugii
conjugio
conjugis
conjugium
conjugum
conjuncta
conjuncti
conjunctio
conjunctione
conjunctionem
conjunctis
conjunctum
conjunctus
conjungere
conjungi
conjungit
conjungitur
conjunxit
conjux
connecticutae
connexa
connexio
connexione
connubia
connubii
connubio
connubium
conqueri
conqueritur
conquest
conquestus
conrad
conradi
conrado
conradus
cons
consanguinei
consanguineis
consanguineus
consanguinitatis
conscendere
conscendit
conscia
conscientia
conscientiae
conscientiam
conscientias
conscii
conscios
conscium
conscius
conscivit
conscribere
conscripsit
conscripta
conscriptae
conscriptam
conscripti
conscriptis
conscriptum
conscriptus
consecrare
consecrari
consecrata
consecrati
consecratio
consecratione
consecrationem
consecrationes
consecrationis
consecratum
consecratur
consecratus
consecravit
consecuta
consecuti
consecutum
consecutus
consedit
consenserint
consenserit
consenserunt
consensi
consensio
consensione
consensionem
consensisse
consensit
consensu
consensum
consensus
consentanea
consentaneum
consentia
consentiant
consentiat
consentiendo
consentiens
consentiente
consentientes
consentientibus
consentina
consentio
consentire
consentit
consentiunt
consepulti
consequamur
consequantur
consequatur
consequens
consequente
consequenter
consequenti
consequentia
consequentiae
consequentiam
consequentibus
consequentis
consequentur
consequetur
consequi
consequitur
consequuntur
conserva
conservanda
conservandam
conservantur
conservare
conservari
conservat
conservata
conservation
conservationem
conservationis
conservativa
conservativae
conservatum
conservatur
conservavit
conserventur
conservet
conservetur
considera
consideranda
considerandum
considerans
considerant
considerantes
considerantur
considerare
considerari
consideras
considerat
considerata
considerate
consideratio
consideratione
considerationem
considerationis
consideratis
consideratur
consideravit
consideremus
considerent
consideres
consideret
consideretur
considero
consili
consilia
consiliarii
consiliariis
consiliariorum
consiliarios
consiliarius
consilii
consiliis
consilio
consiliorum
consilium
consimiles
consimili
consimilis
consistant
consistat
consistens
consistentes
consistentibus
consistere
consisteret
consistit
consistorio
consistorium
consistunt
consobrinus
consociata
consociatio
consociationis
consolari
consolatio
consolatione
consolationem
consolationes
consolationis
consolator
consolatur
consolatus
consoletur
consona
consonans
consonantem
consonantes
consonantia
consonantiam
consonantibus
consonat
consors
consortem
consortes
consortia
consortibus
consortio
consortium
conspecta
conspectibus
conspectu
conspectui
conspectum
conspectus
conspexit
conspicere
conspiceret
conspici
conspiciens
conspicimus
conspicis
conspicit
conspicitur
conspiciunt
conspiciuntur
conspicua
conspicuum
conspicuus
conspiratione
conss
const
constabat
constabit
constans
constant
constante
constantem
constanter
constantes
constanti
constantia
constantiae
constantiam
constantiensi
constantiensis
constantii
constantine
constantini
constantino
constantinople
constantinopoleos
constantinopoli
constantinopolim
constantinopolis
constantinopolitana
constantinopolitanae
constantinopolitanam
constantinopolitani
constantinopolitano
constantinopolitanum
constantinopolitanus
constantinum
constantinus
constantio
constantis
constantissime
constantium
constantius
constare
constaret
constat
constellatio
constellationes
constellationis
constellations
constet
constiterit
constitit
constituam
constituant
constituantur
constituat
constituatur
constitue
constituens
constituentes
constituerat
constituere
constitueret
constituerit
constituerunt
constitues
constitui
constituimus
constituiret
constituisse
constituisti
constituit
constituitur
constituta
constitutae
constitutam
constitutas
constituti
constitutio
constitutionalis
constitutione
constitutionem
constitutiones
constitutioni
constitutionibus
constitutionis
constitutionum
constitutis
constituto
constitutos
constitutum
constitutus
constituunt
constituuntur
constrictus
constringit
constringitur
constructa
constructam
constructio
construction
constructione
constructionem
constructionis
constructum
constructus
construere
construi
construitur
construxerat
construxit
consubstantialem
consubstantialis
consuerunt
consueta
consuetis
consueto
consuetudine
consuetudinem
consuetudines
consuetudini
consuetudinibus
consuetudinis
consuetudo
consuetum
consueverant
consueverat
consueverunt
consuevit
consul
consularem
consulares
consulari
consularibus
consularis
consulat
consulatu
consulatum
consulatur
consulatus
consule
consulem
consulendum
consulens
consulentes
consulere
consuleret
consules
consuli
consulibus
consulis
consulit
consulitur
consulta
consultato
consulti
consulto
consultum
consultus
consuluit
consulum
consulunt
consumat
consumens
consumere
consumi
consumit
consumitur
consummare
consummata
consummati
consummatio
consummatione
consummationem
consummationis
consummato
consummatum
consummatur
consummatus
consummavit
consumpsit
consumpta
consumpti
consumptis
consumptum
consumptus
consumunt
consurgens
consurgere
consurget
consurgit
consurgunt
contactu
contactum
contactus
contagia
contagio
contagione
contagium
conte
contemnant
contemnat
contemnenda
contemnens
contemnentes
contemnere
contemneret
contemni
contemnis
contemnit
contemnitur
contemnunt
contemplari
contemplatio
contemplatione
contemplationem
contemplationis
contemplativa
contemplativae
contemplatur
contemplatus
contemporary
contempserint
contempserit
contempserunt
contempsit
contempta
contemptis
contempto
contemptor
contemptores
contemptu
contemptui
contemptum
contemptus
contendant
contendat
contendens
contendere
contenderent
contenderet
contendimus
contendis
contendit
contenditis
contendunt
contenta
contenti
contentio
contentione
contentionem
contentiones
contentionibus
contentionis
contentis
contentum
contentus
conteret
contermina
contestata
context
contexta
contextu
contextum
contextus
contigerat
contigerit
contigerunt
contigisse
contigisset
contigit
contigua
contineant
contineat
contineatur
continebant
continebantur
continebat
continebatur
continens
continent
continente
continentem
continenter
continentes
continenti
continentia
continentiae
continentiam
continentibus
continentis
continentium
continentur
continere
contineret
contineri
continet
continetur
contingant
contingat
contingens
contingenter
contingenti
contingentia
contingere
contingeret
continget
contingit
contingunt
continua
continuae
continuam
continuas
continuata
continuatio
continuatione
continuatur
continue
continui
continuis
continuit
continuo
continuos
continuum
continuus
contione
contionem
contra
contracta
contractibus
contractis
contractu
contractum
contractus
contradicat
contradicere
contradicit
contradictio
contradictione
contradictionem
contradictiones
contradictionis
contradictores
contradictoria
contradicunt
contrahere
contrahi
contrahit
contrahitur
contrahunt
contraire
contraque
contraria
contrariae
contrariam
contrarias
contrarie
contrarietas
contrarietate
contrarietatem
contrarii
contrariis
contrario
contrariorum
contrarios
contrarium
contrarius
contraxerat
contraxit
contremuit
contribuit
contributa
contristare
contristari
contristati
contristatus
contrita
contriti
contritio
contritione
contritionem
contrito
contritum
contritus
contrivit
control
controversia
controversiae
controversiam
controversias
controversiis
contubernio
contubernium
contulerat
contulerit
contulerunt
contuli
contulimus
contulisse
contulisti
contulit
contumaces
contumacia
contumaciam
contumaciter
contumax
contumelia
contumeliae
contumeliam
contumelias
contumeliis
conturbat
conturbata
conturbati
conturbatus
conueniat
conueniens
conuenienter
conuenire
conuenit
conueniunt
conuersa
conuersio
conuersionem
conuerso
conuerti
conuertit
conuertitur
conuertuntur
conv
convalle
convaluit
convellere
convenarum
convenerant
convenerat
convenerint
convenerit
convenerunt
conveniant
conveniat
conveniebant
conveniens
convenientem
convenienter
convenientes
convenientia
convenientiam
convenientibus
convenientius
conveniet
convenimus
convenire
convenirent
conveniret
conveniri
convenisse
convenissent
convenit
conveniunt
conventibus
conventicula
conventio
conventione
conventionem
conventu
conventui
conventum
conventus
conversa
conversae
conversam
conversari
conversatio
conversatione
conversationem
conversationis
conversatus
conversi
conversio
conversione
conversionem
conversionis
conversis
converso
conversos
conversum
conversus
convertam
convertantur
convertar
convertat
convertatur
converte
convertens
convertentur
convertere
converteret
converterit
convertetur
converti
convertimini
convertit
convertitur
convertunt
convertuntur
convexa
convicia
conviciis
convicium
convicti
convictum
convictus
convincere
convinci
convincit
convincitur
conviva
convivia
convivii
conviviis
convivio
convivium
convocat
convocatis
convocato
convocavit
cook
cookery
cooper
cooperante
cooptatus
copia
copiae
copiam
copiarum
copias
copiis
copiosa
copiosam
copiose
copiosius
copiosum
copula
copulae
copulam
copulantur
copulare
copulari
copulat
copulata
copulatione
copulatur
copulavit
coquina
coquinaria
coquitur
coquus
cor
coram
corbera
corda
corde
cordi
cordibus
cordis
cordium
corduba
core
corea
coreae
coreana
coreane
corinth
corinthi
corinthii
corinthiis
corinthiorum
corinthios
corinthum
corio
corium
corne
cornelia
cornelii
cornelio
cornelium
cornelius
cornell
cornibus
cornu
cornua
cornubiae
cornus
cornwall
corol
corollarium
corona
coronae
coronam
coronari
coronas
coronat
coronati
coronatur
coronatus
coronavit
coronis
corpora
corporale
corporalem
corporales
corporali
corporalia
corporalibus
corporalis
corporaliter
corporalium
corporation
corpore
corporea
corporeae
corpoream
corporeas
corporei
corporeis
corporeo
corporeum
corporeus
corpori
corporibus
corporis
corporisque
corporum
corpus
corpusculum
corpusque
correcta
correcti
correctio
correctione
correctionem
correctionis
corrector
correctum
correctus
correpta
correpti
correptio
correptione
correptionem
correptionis
correptus
correxerit
correxit
corrigantur
corrigat
corrigatur
corrige
corrigenda
corrigendi
corrigendum
corrigere
corrigi
corrigiam
corrigit
corrigitur
corripe
corripere
corripi
corripit
corripitur
corripuit
corruerunt
corruit
corrumpat
corrumpatur
corrumpere
corrumpi
corrumpit
corrumpitur
corrumpunt
corrupit
corrupta
corruptae
corruptam
corruptela
corrupti
corruptibile
corruptibilem
corruptibili
corruptibilis
corruptio
corruptione
corruptionem
corruptioni
corruptionis
corruptis
corrupto
corruptum
corruptus
corruunt
corsa
corsica
corsicae
corte
cortex
cortice
corticem
corticis
corum
coruscat
corvi
corvus
cos
cosa
cose
cosi
cosmae
cosmedin
coss
costa
cotidiana
cotidie
cotta
cottidie
could
council
counties
country
county
course
court
cox
cp
cr
craig
cramer
crane
crapula
cras
crassa
crassi
crassitudine
crassitudo
crasso
crassum
crassus
crastina
crastino
crastinum
crater
crates
crawford
crc
cre
crea
creando
creans
creant
creantur
creare
crearetur
creari
creasse
creasti
creat
creata
creatae
creatam
creati
creatio
creation
creatione
creationem
creationis
creatis
creato
creator
creatore
creatorem
creatori
creatoris
creatos
creatum
creatur
creatura
creaturae
creaturam
creaturarum
creaturas
creaturis
creatus
creauit
creaverunt
creavit
crebra
crebras
crebris
crebrius
crebro
credam
credamus
credant
credantur
credas
credat
credatis
credatur
crede
credebant
credebat
credebatur
credenda
credendi
credendo
credendum
credendus
credens
credent
credentem
credentes
credenti
credentibus
credentis
credentium
credere
crederem
crederemus
crederent
crederes
crederet
crederetis
crederetur
credet
credi
credibile
crediderant
crediderat
crediderim
crediderint
credideris
crediderit
credideritis
crediderunt
credidi
credidimus
credidisse
credidissent
credidisset
credidisti
credidistis
credidit
credimus
credis
credit
credita
credite
creditis
creditor
creditori
creditoribus
creditum
creditur
credituri
creditus
credo
credulitas
credulitate
credulitatem
credulitatis
credunt
creduntur
cremona
cremonensi
cremonensis
crescant
crescat
crescebat
crescendo
crescens
crescente
crescentem
crescentibus
crescere
cresceret
crescit
crescite
crescunt
creta
cretae
cretam
creverit
creverunt
crevisse
crevit
crimaeae
crimen
crimina
crimine
crimini
criminibus
criminis
criminum
crine
crinem
crines
crinibus
crisis
crispinus
crispo
crispus
cristi
cristo
critica
critical
critico
criticus
critique
croatia
croatiae
croatice
croce
croix
crosae
cross
crown
cruce
crucem
cruces
cruci
cruciat
cruciatibus
cruciatu
cruciatum
cruciatur
cruciatus
crucibus
crucifige
crucifigi
crucifixerunt
crucifixi
crucifixissent
crucifixo
crucifixum
crucifixus
crucis
cruda
crudele
crudelem
crudeles
crudeli
crudelia
crudelis
crudelitas
crudelitate
crudelitatem
crudelitatis
crudeliter
crudelius
cruenta
cruentis
cruento
cruentum
cruentus
cruor
cruore
cruorem
cruoris
crura
crure
cruribus
crus
crustacea
crux
cruz
crypta
crystallum
cs
cst
csu
ct
ctenus
cth
ctum
cu
cuba
cubiculi
cubiculo
cubiculum
cubile
cubili
cubilia
cubilibus
cubita
cubiti
cubitis
cubito
cubitorum
cubitos
cubitum
cucurrerunt
cucurri
cucurrit
cui
cuicumque
cuicunque
cuidam
cuilibet
cuipiam
cuiquam
cuique
cuisine
cuius
cuiuscumque
cuiuscunque
cuiusdam
cuiuslibet
cuiusmodi
cuiusquam
cuiusque
cuiusvis
cuivis
cujus
cujuscumque
cujuscunque
cujusdam
cujuslibet
cujusmodi
cujusquam
cujusque
culinaria
culmen
culmina
culmine
culminis
culo
culpa
culpabilis
culpae
culpam
culparum
culpas
culpis
culta
cultibus
cultis
cultor
cultores
cultoribus
cultro
cultu
cultui
cultum
cultura
culturae
cultural
culturalis
culturam
culture
cultures
culturis
cultus
culum
cum
cumcathedralis
cumque
cumulo
cumulum
cumulus
cunabula
cunabulis
cuncta
cunctae
cunctam
cunctaque
cunctarum
cunctas
cunctatione
cuncti
cunctis
cunctisque
cuncto
cunctorum
cunctos
cunctus
cuneensi
cuneensis
cuneos
cuneum
cuneus
cuniculi
cuniculis
cuniculos
cuniculum
cuniculus
cunis
cupere
cuperet
cupiant
cupiat
cupide
cupidi
cupidine
cupidinem
cupidinis
cupiditas
cupiditate
cupiditatem
cupiditates
cupiditati
cupiditatibus
cupiditatis
cupiditatum
cupido
cupidum
cupidus
cupiebant
cupiebat
cupiens
cupientes
cupientibus
cupimus
cupio
cupis
cupit
cupiunt
cur
cura
curabat
curabimus
curabo
curae
curalii
curam
curamus
curanda
curandum
curans
curant
curante
curantur
curare
curarent
curaret
curari
curarum
curas
curat
curata
curate
curatio
curatione
curationem
curationis
curationum
curator
curatores
curatur
curatus
curaverit
curaverunt
curavi
curavimus
curavit
curcuma
cure
curemus
curent
cures
curet
curetis
curia
curiae
curiam
curie
curio
curiose
curiositas
curiositate
curiosius
curis
curo
curramus
currant
currat
curre
currens
current
currente
currentem
currentes
currentis
currere
curretiae
curribus
curricula
curriculo
curriculum
currit
currite
curro
curru
currum
currunt
currus
cursibus
cursim
cursor
cursu
cursum
cursus
curte
curtem
curtes
curtii
curtis
curtius
curva
cus
cusiana
cuspide
custode
custodem
custodes
custodi
custodia
custodiae
custodiam
custodiant
custodias
custodiat
custodiatur
custodibus
custodienda
custodiendam
custodiendum
custodiens
custodientes
custodierit
custodierunt
custodiet
custodiis
custodire
custodiret
custodiri
custodis
custodit
custodita
custodite
custoditur
custodiunt
custodivi
custodivit
custodum
custos
cut
cute
cutem
cutis
cuvaitum
cv
cvi
cvii
cviii
cx
cxcvii
cxi
cxii
cxiii
cxiv
cxix
cxl
cxli
cxlii
cxliii
cxliv
cxlix
cxlv
cxlvi
cxlvii
cxlviii
cxv
cxvi
cxvii
cxviii
cxx
cxxi
cxxii
cxxiii
cxxiv
cxxix
cxxv
cxxvi
cxxvii
cxxviii
cxxx
cxxxi
cxxxii
cxxxiv
cxxxix
cxxxv
cxxxvi
cxxxvii
cxxxviii
cy
cyathea
cycli
cyclo
cyclum
cyclus
cynthia
cypri
cypriani
cypriano
cyprianum
cyprianus
cypro
cyprum
cyprus
cyri
cyrilli
cyrillo
cyrillum
cyrillus
cyro
cyrum
cyrus
cæli
cælo
cælum
cæteris
cœnobii
cœnobio
cœnobium
cœpit
d
da
dabant
dabat
dabatur
dabimus
dabis
dabit
dabitur
dabo
dabunt
dacia
dacoromane
dacoromanica
dacoromanice
dacoromanicus
dacoromanus
dae
daemon
daemone
daemonem
daemones
daemonia
daemonibus
daemoniis
daemonio
daemoniorum
daemonis
daemonium
daemonum
dagoberti
dagobertus
daily
dal
dalby
dall
dalla
dalle
dalmatia
dalmatiae
dalmatica
dam
dama
damascenus
damasci
damascum
damascus
damasi
damaso
damasus
dame
damiani
damianus
damna
damnabitur
damnamus
damnanda
damnandum
damnant
damnantur
damnare
damnaret
damnaretur
damnari
damnat
damnata
damnatae
damnati
damnatio
damnatione
damnationem
damnationi
damnationis
damnatis
damnato
damnatorum
damnatos
damnatum
damnatur
damnatus
damnaverunt
damnavit
damnentur
damnet
damnetur
damni
damnis
damno
damnum
damus
dan
dana
dance
danda
dandam
dandi
dando
dandum
dania
daniae
danica
danice
danicus
daniel
daniele
danielem
danieli
danielis
danorum
dans
dant
dante
dantem
dantes
dantis
dantur
danubii
danubium
dapes
daphne
dapibus
dare
darem
darent
darentur
dares
daret
daretur
dari
darii
dario
darius
dark
darmstadii
darwin
das
dat
data
database
datae
datam
datas
date
dathan
dati
datis
dativo
dativus
dato
dator
datorem
datorum
datos
datum
datur
daturum
daturus
datus
dauid
david
davide
davidis
davidson
davies
davis
dawn
day
days
db
dc
dcc
dci
dd
de
dea
dead
deae
deam
dean
deas
death
debeam
debeamus
debeant
debeas
debeat
debeatis
debeatur
debebant
debebat
debebatur
debebis
debebit
debebunt
debemus
debent
debentur
debeo
debere
deberem
deberemus
deberent
deberes
deberet
deberi
debes
debet
debetis
debetur
debilem
debiles
debilis
debilitas
debilitate
debilitatem
debita
debitae
debitam
debitas
debiti
debitis
debito
debitor
debitorem
debitores
debitoribus
debitorum
debitum
debitus
debuerant
debueras
debuerat
debuerit
debuerunt
debui
debuimus
debuisse
debuissent
debuisset
debuisti
debuit
dec
decalogi
decani
decano
decanum
decanus
decapoda
deceat
decebat
decedente
decedere
decem
decemb
december
decembri
decembris
decennio
decennium
decens
decent
decenter
decentramento
decepit
decepta
decepti
deceptio
deceptionis
deceptum
deceptus
decere
deceret
decernentes
decernere
decerni
decernimus
decernit
decernitur
decernunt
decesserit
decessit
decessor
decessore
decessores
decessoris
decessorum
decessum
decet
decidat
decidere
decidit
decidunt
decies
decima
decimae
decimam
decimarum
decimas
decimi
decimis
decimo
decimum
decimus
decio
decipere
decipi
decipiant
decipiat
decipit
decipitur
decipiunt
decius
declaramus
declarant
declarare
declarat
declarata
declaratio
declaratione
declarationem
declarationis
declaratum
declaratur
declaratus
declaravit
declina
declinans
declinant
declinantes
declinantur
declinare
declinat
declinatio
declinatione
declinationem
declinationis
declinatur
declinaverunt
declinavit
declines
declinet
decocta
decor
decora
decorata
decoratum
decoratus
decoravit
decore
decorem
decori
decoris
decorum
decorus
decrescit
decreta
decretalium
decreti
decretis
decreto
decretorum
decretum
decreverat
decreverit
decreverunt
decrevi
decrevimus
decrevit
decuit
decurio
decurrens
decurrere
decurrit
decursibus
decursu
decursus
decus
dedecore
dedecoris
dedecus
dederant
dederat
dedere
dederint
dederis
dederit
dedero
dederunt
dedi
dedicata
dedicatio
dedicatione
dedicationem
dedicationis
dedicatoria
dedicatum
dedicavit
dedignatur
dedignatus
dedimus
dedisse
dedissent
dedisset
dedisti
dedistis
dedit
dedita
dediti
deditione
deditionem
deditos
deditque
deditum
deditus
deduc
deducat
deducere
deducet
deduci
deducit
deducitur
deducta
deducti
deductis
deductum
deductus
deducunt
deducuntur
deduxerunt
deduxit
deep
deerant
deerat
deerit
deesse
deessent
deesset
deest
defecerant
defecerat
defecerit
defecerunt
defecisse
defecit
defectio
defectione
defectionem
defectionis
defectu
defectum
defectus
defence
defendant
defendat
defendatur
defende
defendebat
defendenda
defendendam
defendendo
defendendum
defendere
defenderent
defenderet
defendi
defendimus
defendit
defenditur
defendunt
defensa
defensare
defensio
defensione
defensionem
defensionis
defensor
defensorem
defensores
defensori
defensoribus
deferat
deferatur
deferendum
deferens
deferentes
deferre
deferri
defert
defertur
deferunt
deferuntur
deficere
deficerent
deficeret
deficiant
deficiat
deficiens
deficient
deficiente
deficientes
deficientibus
deficiet
deficit
deficitur
deficiunt
definiendum
definiens
definimus
definire
definiri
definit
definita
definite
definitio
definitione
definitionem
definitiones
definitionibus
definitionis
definitionum
definitis
definito
definitum
definitur
definiunt
definivit
defluens
defluit
defluxit
deforme
deformis
deformitate
defuerint
defuerit
defuerunt
defuisse
defuit
defuncta
defuncti
defunctis
defuncto
defunctorum
defunctos
defunctum
defunctus
degebat
degener
degeneres
degens
degentes
degentibus
degere
degit
degli
degunt
dehinc
dei
deiecit
deiectus
dein
deinceps
deinde
deiparae
deipnosophistas
deique
deis
deitas
deitate
deitatem
deitatis
dejecit
dejectus
dejicit
del
delata
delatum
delatus
dele
deleantur
deleatur
delectabatur
delectabile
delectabilis
delectant
delectantur
delectare
delectari
delectat
delectatio
delectatione
delectationem
delectationes
delectationibus
delectationis
delectatur
delectatus
delectet
delectetur
delectu
delectus
delegata
delegati
delegatis
delegatum
delegatus
delegavit
delegit
delere
deleret
deleri
delet
deleta
deletum
delevit
delias
deliberare
deliberatione
deliberationem
deliberationis
deliberaverint
deliciae
deliciarum
delicias
deliciis
delicta
delicti
delictis
delicto
delictorum
delictum
delineator
delinquendi
delinquentes
delinquentibus
delinquentium
delinquere
delinquit
deliquerit
deliquisse
deliquit
deliramenta
dell
della
delle
dellii
dello
delphini
delphinus
delphis
dels
delta
delubra
dem
demens
dementia
dementiae
dementiam
demersus
demetrii
demetrio
demetrium
demetrius
demi
demissa
demisso
democracy
democratia
democratiae
democratic
democratica
democraticae
democritus
demon
demones
demonstrabat
demonstrandum
demonstrans
demonstrant
demonstrantur
demonstrare
demonstraret
demonstrari
demonstrat
demonstrata
demonstratio
demonstratione
demonstrationem
demonstrationes
demonstrationis
demonstratum
demonstratur
demonstravimus
demonstravit
demonstret
demonstretur
demonum
demosthenes
dempta
demum
demus
den
dena
denarii
denariis
denario
denariorum
denarios
denarium
denarius
denegare
denegat
denegatur
denegavit
denegetur
denique
denis
dennis
denominatiue
denotat
denotatur
dens
densa
densis
densitas
densitate
dent
dente
dentem
dentes
dentibus
dentium
dentur
denuntiat
denuo
deo
deoque
deorsum
deorum
deos
department
dependent
dependet
deperdita
deperire
deperit
depicta
deplorat
deponat
deponatur
depone
deponentes
deponere
deponi
deponit
deponitur
deponunt
deposcit
deposita
depositi
depositio
depositione
depositionem
depositiones
depositionis
depositis
deposito
depositum
depositus
deposuerunt
deposuit
depravata
deprecamur
deprecans
deprecantes
deprecari
deprecatio
deprecationem
deprecatur
deprecatus
deprecemur
deprecor
deprehendere
deprehendi
deprehendimus
deprehendit
deprehenditur
deprehensa
deprehensi
deprehensum
deprehensus
deprimit
depulsa
deputantur
deputare
deputari
deputat
deputata
deputati
deputatis
deputatorum
deputatum
deputatur
deputatus
deputetur
deputies
deputy
deque
der
dere
derelicta
derelictis
derelicto
derelictum
derelictus
derelinquas
derelinquat
derelinquens
derelinquere
derelinquet
derelinquit
dereliquerunt
dereliquisti
dereliquit
derivata
derivatum
derivatur
derogare
des
descendant
descendat
descende
descendebat
descendendo
descendens
descendente
descendentem
descendentes
descendentibus
descenderat
descendere
descenderet
descenderit
descenderunt
descendet
descendi
descendisse
descendisset
descendit
descendunt
descensu
descensum
descensus
describatur
describens
describere
describi
describit
describitur
describunt
describuntur
descripsimus
descripsit
descripta
descriptae
descripti
descriptio
description
descriptione
descriptionem
descriptiones
descriptionis
descriptum
descriptus
descrizione
deserat
deserens
deserentes
deserere
desereret
deseri
deserit
deseritur
deserta
desertae
desertam
deserti
desertis
deserto
desertum
desertus
deseruit
deserunt
deservire
deserviunt
desiderabat
desiderabilis
desideramus
desiderans
desiderant
desiderantes
desiderantibus
desiderantur
desiderare
desiderari
desideras
desiderat
desiderata
desiderati
desideratis
desideratum
desideratur
desideravit
desiderent
desideret
desideria
desiderii
desideriis
desiderio
desideriorum
desiderium
desiderius
desidero
desides
desidia
desidiae
desidiam
desierit
design
designans
designant
designantur
designare
designari
designat
designata
designati
designatione
designationibus
designatum
designatur
designatus
designavit
designet
desiit
desinant
desinas
desinat
desine
desinere
desinet
desinit
desint
desinunt
desistant
desistat
desistere
desistit
desit
desolata
desolationem
desolationis
despecta
despectum
despectus
desperare
desperata
desperatio
desperatione
desperationem
desperationis
desperatis
desperet
despexit
despicere
despicias
despiciat
despiciens
despicit
despiciunt
desponsata
destinare
destinata
destinati
destinatis
destinatum
destinatus
destinavit
destitit
destituta
destituti
destitutum
destitutus
destruat
destruatur
destructa
destructione
destructionem
destructo
destructum
destruere
destrueret
destruet
destruetur
destrui
destruit
destruitur
destruunt
destruxerunt
destruxit
desunt
desuper
desursum
det
detecta
detenti
detentus
deterior
deteriora
deteriorem
deteriores
deterius
determinare
determinat
determinata
determinatam
determinate
determinatio
determinatione
determinationem
determinatum
determinatur
detestabilis
detestanda
detestatur
detinent
detinentur
detinere
detineri
detinet
detinuit
detis
detracta
detractione
detrahere
detrahit
detrahunt
detraxit
detrimenta
detrimenti
detrimento
detrimentum
detulerunt
detulit
detur
deum
deumque
deus
deut
deuteronomii
deuteronomio
deuterostomia
deutsch
deutsche
deutschen
deutscher
deutsches
deutschland
deux
development
devenit
deversorium
devia
deviare
devicit
devicta
devictis
devicto
devictus
devisa
devita
devorabit
devorant
devorare
devorat
devoravit
devoret
devota
devotae
devotam
devote
devoti
devotio
devotione
devotionem
devotioni
devotionis
devotis
devotissime
devoto
devotos
devotum
devotus
dexter
dextera
dexterae
dexteram
dextra
dextrae
dextram
dextras
dextris
dextro
dextrum
di
dia
diaboli
diabolica
diabolicae
diabolo
diabolum
diabolus
diac
diacon
diaconatus
diacones
diaconi
diaconibus
diaconis
diacono
diaconorum
diaconos
diaconum
diaconus
diadema
diademate
dialecti
dialectica
dialecticae
dialecticam
dialecticis
dialecto
dialectos
dialectus
dialogi
dialogo
dialogus
diametri
diametro
diametrum
diana
dianae
dianam
diane
diapason
diapente
diapsalma
diaria
diarii
diario
diarium
diatessaron
dic
dicam
dicamus
dicant
dicantur
dicas
dicat
dicata
dicatas
dicatis
dicatum
dicatur
dicatus
dicavit
diccionario
dicebam
dicebant
dicebantur
dicebas
dicebat
dicebatur
dicemus
dicenda
dicendi
dicendo
dicendum
dicendus
dicens
dicent
dicente
dicentem
dicentes
dicenti
dicentibus
dicentis
dicentium
dicentur
dicere
dicerem
diceremus
dicerent
dicerentur
diceres
diceret
diceretur
diceris
dices
dicet
dicetis
dicetur
dici
dicimur
dicimus
dicione
dicionem
dicis
dicit
dicite
dicitis
dicito
dicitur
dico
dicta
dictae
dictam
dictante
dictarum
dictas
dictat
dictator
dictatore
dictatorem
dictatoris
dictatura
dictaturam
dicte
dicti
dictio
dictionarium
dictionary
dictione
dictionem
dictiones
dictionibus
dictionis
dictionnaire
dictionum
dictis
dicto
dictorum
dictos
dictu
dictum
dicturi
dicturum
dicturus
dictus
dictæ
dicunt
dicuntur
did
didacus
didicerant
didicerat
didicerit
didicerunt
didici
didicimus
didicisse
didicisset
didicisti
didicistis
didicit
didius
dido
didot
didymus
die
diebus
diego
diei
diem
dieque
dierum
dies
diesque
dieta
dietae
dietam
dieter
dietmar
dietrich
dieu
dif
differant
differas
differat
differens
different
differentes
differentia
differentiae
differentiam
differentiarum
differentias
differentibus
differentiis
differre
differret
differri
differt
differtur
differunt
difficile
difficilem
difficiles
difficili
difficilia
difficilior
difficilis
difficilius
difficillima
difficillimum
difficultas
difficultate
difficultatem
difficultates
difficultatibus
difficultatis
difficulter
diffidentia
diffidentiae
diffinitio
diffinitione
diffinitionem
diffinitionis
diffundit
diffunditur
diffusa
diffusae
diffusam
diffusum
diffusus
dig
digeruntur
digesta
digestae
digital
digitalis
digiti
digitis
digito
digitorum
digitos
digitum
digitus
digna
dignabitur
dignae
dignam
dignanter
dignare
dignaremur
dignaretur
dignaris
dignas
dignata
dignatio
dignatione
dignationis
dignatur
dignatus
digne
dignemini
digneris
dignetur
digni
dignior
dignis
dignissima
dignissimum
dignitas
dignitate
dignitatem
dignitates
dignitati
dignitatibus
dignitatis
dignitatum
dignius
digno
dignos
dignosceris
dignoscitur
dignum
dignus
digressi
digressus
dii
diis
dijudicat
dilata
dilatat
dilatata
dilatatur
dilatavit
dilatio
dilatione
dilationem
dilationis
dilecta
dilectae
dilectam
dilecte
dilecti
dilectio
dilectione
dilectionem
dilectioni
dilectionis
dilectis
dilectissime
dilectissimi
dilectissimis
dilectissimo
dilecto
dilectorum
dilectos
dilectum
dilectus
dilexerit
dilexerunt
dilexi
dilexisti
dilexit
diligam
diligamus
diligant
diligas
diligat
diligatis
diligatur
dilige
diligebat
diligendo
diligendum
diligens
diligentem
diligenter
diligentes
diligenti
diligentia
diligentiae
diligentiam
diligentibus
diligentissime
diligentius
diligere
diligeret
diliges
diliget
diligi
diligimus
diligis
diligit
diligite
diligitis
diligitur
diligo
diligunt
dilucide
diluculo
diluit
diluvii
diluvio
diluvium
dimensiones
dimicans
dimicare
dimidia
dimidiam
dimidio
dimidium
diminutione
diminutionem
dimiserat
dimiserit
dimiseritis
dimiserunt
dimisi
dimisit
dimissa
dimissi
dimissionem
dimissis
dimisso
dimissum
dimissus
dimittam
dimittantur
dimittas
dimittat
dimittatur
dimitte
dimittere
dimitteret
dimittet
dimittetur
dimitti
dimittimus
dimittis
dimittit
dimittite
dimittitur
dimitto
dimittunt
dimittuntur
din
dinarios
dinoscitur
dio
diocese
diocesi
diocesis
diocl
diocletiani
diocletiano
diocletianus
diodorus
dioecesani
dioecesano
dioecesanus
dioecesem
dioeceseos
dioeceses
dioecesi
dioecesibus
dioecesim
dioecesis
diogenes
dion
dione
dionysii
dionysio
dionysium
dionysius
dioscori
dioscorides
dioscoro
dioscorum
dioscorus
diplom
diploma
diplomata
diplomate
dira
dirae
dire
directa
directam
directe
directi
directione
directionem
directions
directis
directo
director
directum
directus
direpta
direxerunt
direxi
direximus
direxit
dirigantur
dirigat
dirigatur
dirige
dirigens
dirigere
dirigi
dirigimus
dirigit
dirigitur
dirigunt
diriguntur
dirimit
diripere
diripiunt
diris
diritto
dirum
diruta
dis
discamus
discant
discat
disce
discedant
discedat
discedens
discedere
discederent
discederet
discedit
discedite
discedunt
discendi
discendo
discendum
disceptatio
disceptatione
discere
discerent
disceret
discernat
discerne
discernens
discernere
discerni
discernit
discernitur
discernuntur
discesserit
discesserunt
discessit
discessum
disci
discimus
disciplina
disciplinae
disciplinam
disciplinarum
disciplinas
disciplinis
discipuli
discipulis
discipulo
discipulorum
discipulos
discipulum
discipulus
discit
discite
discitur
disco
discordes
discordia
discordiae
discordiam
discordias
discovery
discrepant
discrepare
discrepat
discreta
discrete
discreti
discretio
discretione
discretionem
discretioni
discretionis
discretis
discretiva
discretivam
discretum
discretus
discrevit
discrimen
discrimina
discrimine
discriminis
discumbere
discunt
discurrens
discurrere
discurrit
discurrunt
discursus
discus
discussa
discussione
discutere
discutienda
discutit
disease
diserte
disertus
disney
dispar
dispares
dispari
dispendia
dispendio
dispendium
dispensare
dispensat
dispensatio
dispensatione
dispensationem
dispensationis
dispensator
dispensatorem
dispensatores
disperdam
disperdet
dispersa
dispersi
dispersis
dispersit
dispersos
displaystyle
displiceat
displicent
displicere
displiceret
displicet
displicuit
disponat
disponens
disponente
disponere
disponit
disponitur
disponunt
disponuntur
disposita
dispositi
dispositio
dispositione
dispositionem
dispositiones
dispositioni
dispositionibus
dispositionis
dispositis
dispositor
dispositum
dispositus
disposui
disposuit
disputandi
disputando
disputandum
disputans
disputant
disputare
disputat
disputata
disputatio
disputatione
disputationem
disputationes
disputationibus
disputationis
disputationum
disputatum
disputatur
disquisitiones
dissensio
dissensione
dissensionem
dissensiones
dissensionis
dissentire
dissentiunt
disseramus
disserendi
disserendum
disserens
disserentibus
disserere
disserit
dissertatio
dissertatione
dissertationem
dissertationes
disseruimus
disseruit
dissidentes
dissimile
dissimilem
dissimiles
dissimili
dissimilia
dissimilibus
dissimilis
dissimiliter
dissimilitudo
dissimulare
dissimulat
dissimulatione
dissipat
dissipata
dissipavit
dissoluta
dissolutionem
dissolutum
dissolutus
dissolvere
dissolvi
dissolvit
dissolvitur
dist
distabat
distans
distant
distantes
distantia
distantiam
distare
distat
distenditur
distent
distet
distincta
distinctae
distinctam
distinctas
distincte
distinctio
distinctione
distinctionem
distinctiones
distinctis
distinctum
distinctus
distinguenda
distinguendum
distinguens
distinguere
distingui
distinguit
distinguitur
distinguunt
distinguuntur
distinxit
distribuere
distribuit
distribuitur
distributa
distributio
distribution
distributione
distributionem
distributum
district
districta
districtae
districte
districti
districtione
districtionem
districtionis
districtius
districto
districtu
districtum
districtus
distulerit
distulit
dit
ditatus
ditavit
dition
ditione
ditionem
ditioni
ditionis
ditions
ditior
ditis
diu
diuersa
diuersae
diuersarum
diuersas
diuersi
diuersis
diuersitas
diuersitate
diuersitatem
diuersorum
diuersos
diuersum
diues
diuidi
diuidit
diuiditur
diuina
diuinae
diuinam
diuine
diuini
diuinis
diuinitatis
diuinitus
diuino
diuinum
diuisa
diuisio
diuisione
diuisionem
diuisionis
diuites
diuitias
diuque
diurna
diurnaria
diurnarius
diurnis
diurno
diurnum
diutina
diutissime
diutius
diuturna
diuturnitate
diuturno
diuturnum
div
diva
divae
diversa
diversae
diversam
diversarum
diversas
diverse
diversi
diversimode
diversis
diversitas
diversitate
diversitatem
diversitates
diversitatis
diversity
diverso
diversorium
diversorum
diversos
diversum
diversus
divertit
dives
divi
dividant
dividantur
dividat
dividatur
divide
dividendo
dividens
dividentes
dividere
dividet
dividi
dividit
dividitur
dividunt
dividuntur
divina
divinae
divinam
divinarum
divinas
divinatio
divinatione
divine
divini
divinis
divinitas
divinitate
divinitatem
divinitati
divinitatis
divinitus
divino
divinorum
divinos
divinum
divinus
divisa
divisae
diviserunt
divisi
divisio
division
divisione
divisionem
divisiones
divisionibus
divisionis
divisis
divisit
diviso
divisum
divisus
divite
divitem
divites
diviti
divitiae
divitiarum
divitias
divitibus
divitiis
divitis
divitum
divo
divortium
divos
divulgata
divulgatum
divulgatus
divulgavit
divum
divus
dixeram
dixerant
dixerat
dixere
dixerim
dixerimus
dixerint
dixeris
dixerit
dixeritis
dixero
dixerunt
dixeruntque
dixi
diximus
dixisse
dixissem
dixissent
dixisset
dixisti
dixistis
dixit
dixitque
dizionario
diœc
diœcesi
diœcesis
djvu
dm
dn
dna
do
doc
doce
doceamus
doceant
doceantur
doceas
doceat
doceatur
docebat
docebit
docebo
docemur
docemus
docendi
docendo
docendum
docens
docent
docente
docentem
docentes
docentur
doceo
docere
docerent
doceret
doceri
doces
docet
docete
docetur
doct
docta
docte
docti
doctior
doctis
doctissimi
doctissimo
doctissimus
docto
doctor
doctorate
doctore
doctorem
doctores
doctori
doctoribus
doctoris
doctorum
doctos
doctrina
doctrinae
doctrinam
doctrinarum
doctrinas
doctrine
doctrinis
doctum
doctus
docuerat
docuerit
docuerunt
docui
docuimus
docuisse
docuisti
docuit
documenta
documentis
documento
documentorum
documents
documentum
dogma
dogmata
dogmate
dogmatibus
dogmatis
dogmatum
doi
dolabella
doleat
dolebat
dolemus
dolendum
dolens
dolensis
dolent
dolentes
doleo
dolere
dolet
doli
dolia
dolichoderus
dolis
dolium
dolo
dolor
dolore
dolorem
dolores
dolori
doloribus
doloris
dolorum
dolos
dolosa
dolose
doluit
dolum
dolus
dom
domare
domat
domesday
domestica
domesticae
domesticam
domestication
domestici
domesticis
domestico
domesticorum
domesticos
domesticum
domesticus
domi
domibus
domicilia
domicilio
domicilium
domina
dominabitur
dominae
dominam
dominandi
dominante
dominantium
dominantur
dominari
dominatio
dominatione
dominationem
dominationes
dominationis
dominator
dominatu
dominatum
dominatur
dominatus
domine
dominetur
domini
dominica
dominicae
dominicam
dominici
dominicis
dominico
dominicum
dominicus
dominii
dominio
dominique
dominis
dominium
domino
dominorum
dominos
dominum
dominus
domitiano
domitianus
domitio
domitius
domna
domni
domno
domnum
domnus
domo
domorum
domos
domu
domui
domuit
domum
domus
don
dona
donald
donaldus
donamus
donante
donantur
donare
donaret
donari
donaria
donat
donata
donati
donatio
donatione
donationem
donationes
donationi
donationibus
donationis
donatistae
donatistarum
donatistas
donatistis
donato
donatum
donatur
donatus
donaverit
donavit
donec
donet
donetur
doni
donis
donne
dono
donorum
donum
dor
doris
dormi
dormiat
dormiebat
dormiens
dormiente
dormientem
dormientes
dormienti
dormientibus
dormientis
dormientium
dormierit
dormierunt
dormire
dormis
dormit
dormiunt
dormivi
dormivit
dorothea
dorsa
dorso
dorsorum
dorsum
dos
dote
dotem
dotes
dotibus
dotis
double
doubleday
douglas
dover
down
dpr
dr
dra
draco
dracone
draconem
dracones
draconis
draconum
drama
dream
dresdae
dro
dronae
drusus
ds
dt
du
duabus
duae
duarum
duas
dubai
dubia
dubiae
dubiam
dubie
dubii
dubiis
dubio
dubis
dubitabat
dubitamus
dubitandum
dubitans
dubitant
dubitare
dubitaret
dubitari
dubitas
dubitat
dubitatio
dubitatione
dubitationem
dubitationis
dubitatur
dubitaverit
dubitavit
dubitemus
dubitent
dubites
dubitet
dubito
dubium
dubius
duc
ducam
ducant
ducantur
ducas
ducat
ducato
ducatu
ducatum
ducatur
ducatus
duce
ducebant
ducebat
ducebatur
ducem
ducenda
ducens
ducenta
ducente
ducentem
ducentes
ducenti
ducentis
ducentorum
ducentos
ducere
ducerent
duceret
duceretur
duces
ducet
duci
ducibus
ducimus
ducis
ducissa
ducit
ducitur
duco
ducta
ductae
ducti
ductis
ducto
ductor
ductores
ductu
ductum
ductus
ducum
ducunt
ducuntur
dudum
due
duellis
duke
dulce
dulcedine
dulcedinem
dulcedinis
dulcedo
dulcem
dulces
dulci
dulcia
dulcibus
dulcior
dulcis
dulcissima
dulcissime
dulciter
dulcius
dum
dumiatis
dummodo
dumque
dumtaxat
duncan
duncker
duntaxat
duo
duobus
duodecim
duodecima
duodecimo
duodecimum
duodecimus
duodeviginti
duorum
duos
dupla
duplex
dupli
duplicata
duplicem
duplices
duplici
duplicia
duplicis
dupliciter
duplo
duplum
dura
durae
duram
durandus
duranii
durante
durare
duras
durat
duravit
durch
dure
duri
during
durior
duris
duritia
duritiam
durius
duro
duros
durum
durus
dus
dutch
duum
dux
duxerat
duxerimus
duxerint
duxerit
duxerunt
duxi
duximus
duxisse
duxisset
duxit
duæ
dx
dyabolus
dynamics
dynastia
dynasty
dæmon
dæmones
dæmonum
e
ea
eadem
eademque
eae
eaedem
eagle
eam
eamdem
eamdemque
eamque
eamus
eandem
eandemque
eant
eapropter
eaque
earl
earliest
early
earth
earum
earumdem
earumque
earundem
eas
easdem
easque
east
eastern
easy
eat
eatenus
eb
ebbe
ebert
ebook
eboracensi
eboracensis
eboraci
eboraco
eboracum
ebraldi
ebre
ebrietas
ebrietate
ebrietatem
ebrietatis
ebrii
ebriosus
ebrius
ebur
eburae
ec
ecce
eccentricitatem
eccl
eccle
ecclefia
ecclefiam
ecclefix
eccles
ecclesia
ecclesiae
ecclesiam
ecclesiarum
ecclesias
ecclesiastes
ecclesiastica
ecclesiasticae
ecclesiasticam
ecclesiasticarum
ecclesiasticas
ecclesiastici
ecclesiasticis
ecclesiastico
ecclesiasticorum
ecclesiasticos
ecclesiasticum
ecclesiasticus
ecclesie
ecclesiensis
ecclesiis
ecclesiæ
eccleſia
eccleſiæ
eccli
ecdesia
ecdesiæ
ecdesue
echo
eciam
eclipsis
ecology
economic
economics
economy
econtra
econtrario
ecquid
ecquis
ed
edam
edant
edat
edax
edd
edebat
eden
edendi
edendo
edendum
edepol
edere
ederet
edgar
edi
edicta
edicti
edictis
edicto
edictum
ediderunt
edidimus
edidisse
edidit
edimburgi
edinburgh
edit
edita
editae
editam
edited
editi
editio
edition
editione
editionem
editiones
editionibus
editionis
editions
editis
edito
editor
editore
editores
editoria
editorial
editos
editum
editur
editus
edixit
edizioni
edmund
edmundi
edmundus
edoceri
edocet
edocti
edoctus
edocuit
edom
edouardus
eds
edu
eduardi
eduardo
eduardus
educ
educatio
education
educatione
educationem
educationis
educatus
educere
educit
eductus
edunt
eduxi
eduxisti
eduxit
edward
edwardi
edwardo
edwards
edwin
ee
ef
effecerunt
effecit
effecta
effecti
effectibus
effectis
effects
effectu
effectui
effectum
effectus
efferre
effert
efficacem
efficaces
efficacia
efficaciam
efficaciter
efficacius
efficax
efficere
efficeret
effici
efficiamur
efficiant
efficiantur
efficiat
efficiatur
efficiens
efficientem
efficiet
efficimur
efficit
efficitur
efficiunt
efficiuntur
effigie
effigiem
effigies
effluit
effudit
effugere
effugiet
effugit
effundam
effunde
effundere
effundit
effunditur
effusa
effusi
effusio
effusione
effusionem
effuso
effusum
effusus
efi
eft
eg
egeat
egenis
egenos
egens
egent
egentem
egentes
egentibus
egenum
egenus
egerat
egere
egerint
egeris
egerit
egerunt
egestas
egestate
egestatem
eget
egger
egi
egidio
egimus
egisse
egissent
egisset
egisti
egit
ego
egomet
egon
egredere
egrederetur
egredi
egrediatur
egrediebatur
egrediens
egredientes
egredietur
egreditur
egrediuntur
egregia
egregiae
egregiam
egregie
egregii
egregiis
egregio
egregios
egregium
egregius
egressa
egressi
egressum
egressus
egypt
egyptian
ehess
ei
eia
eidem
eiecit
eiectus
ein
eine
einer
eines
einfu
einstein
eique
eis
eisdem
eisque
eius
eiusdem
eiusdemque
eiusmodi
eiusque
ejecit
ejectus
ejice
ejicere
ejicit
ejufdem
ejus
ejusdem
ejusdemque
ejusilem
ejusmodi
ejusque
ek
el
elaborata
elaboratus
elaboraverunt
elapsis
elapso
elapsus
elata
elati
elatio
elatione
elationem
elationis
elatum
elatus
elaveris
eleazar
electa
electae
electam
electi
electio
electione
electionem
electiones
electioni
electionibus
electionis
electis
electo
elector
electores
electorum
electos
electra
electrica
electronic
electronica
electum
electus
eleemosyna
eleemosynae
eleemosynam
eleemosynarum
eleemosynas
eleemosynis
elegans
eleganter
eleganti
elegantia
elegantiam
elegerat
elegerint
elegerit
elegerunt
elegi
elegisse
elegisti
elegistis
elegit
eleison
elementa
elementi
elementis
elemento
elementorum
elements
elementum
elena
elephanti
elephantis
elephantos
elevans
elevare
elevat
elevata
elevatio
elevatis
elevatum
elevatur
elevatus
elevavit
eli
elia
eliae
eliam
elias
elicere
eligant
eligantur
eligat
eligatur
elige
eligendi
eligendo
eligendum
eligens
eligere
eligerent
eligeret
eligi
eligit
eligitur
eligius
eligunt
eliguntur
eliot
elisabeth
elisabetha
elisabethae
elisaeus
eliu
elizabeth
elizabetha
elliott
ellis
elogio
elogium
eloquens
eloquentia
eloquentiae
eloquentiam
eloqui
eloquia
eloquii
eloquiis
eloquio
eloquiorum
eloquium
els
elsa
elsevier
elst
elucet
em
emanuel
emendare
emendari
emendat
emendata
emendatio
emendatione
emendationem
emendationis
emendaverit
emendet
ementes
emere
emergere
emeritus
emerserit
emersit
emi
emicat
emicuit
emil
eminens
eminent
eminenti
eminentia
eminentiam
eminet
eminus
emisit
emissa
emissum
emissus
emit
emitte
emittere
emittit
emittitur
emittunt
emma
emmanuel
emolumenta
emolumento
emolumentum
emperor
empire
emporium
empta
empti
emptor
emus
en
enarrabit
enarrant
enarrare
enarrat
enarratio
enarrationes
enarravit
enchiridion
enciclopedia
encoded
encomium
encycl
encyclica
encyclicae
encyclopaedia
encyclopaediae
encyclopedia
encyclopædia
end
endate
endemica
endemicae
endemicus
endocrineum
energia
energiae
energiam
energy
engineering
england
english
eni
enim
enimvero
enituit
enixa
enixe
enko
ennius
ennodius
enoch
enos
ens
ense
ensem
enses
ensis
ent
ente
entia
entis
entium
entomology
entre
enumerantur
enumerare
enumerat
enumeratae
enumeratio
enumeratione
enumerationem
enumeratis
enuntiare
enuntiat
enuntiatio
environment
environmental
enzyklopa
eo
eod
eodem
eodemque
eoque
eorum
eorumdem
eorumque
eorundem
eos
eosdem
eosque
ep
epacta
epactae
eparchii
eph
ephemeris
ephes
ephesi
ephesina
ephesios
epheso
ephesum
ephod
ephraem
ephraim
ephrata
epi
epic
epicum
epicuri
epicurus
epigramma
epigrammata
epilc
epiphania
epiphaniae
epiphanius
epiri
epis
episc
episco
episcop
episcopale
episcopalem
episcopales
episcopali
episcopalibus
episcopalis
episcopatu
episcopatum
episcopatus
episcope
episcopi
episcopis
episcopo
episcoporum
episcopos
episcopum
episcopus
episeopi
episodium
epist
epistola
epistolae
epistolam
epistolarum
epistolas
epistole
epistolis
epistolæ
epistula
epistulae
epistulam
epistularum
epistulas
epistulis
epitaphio
epitaphium
epitheton
epitome
epiſcopi
epiſcopo
epiſcopus
epocha
epochae
epub
epulae
epulas
epulis
epulum
equa
eque
eques
equestri
equestris
equi
equidem
equis
equitatu
equitatum
equitatus
equite
equitem
equites
equitibus
equitis
equitum
equiv
equo
equorum
equos
equum
equus
er
era
eram
eramus
erant
eras
erasmi
erasmus
erat
eratis
eratque
ere
erecta
erecti
erectis
erecto
erectum
erectus
eremi
eremita
eremo
eremum
eremus
erepta
ereptum
ereptus
erexit
erfordiae
erga
ergo
ergone
eri
eric
erich
erico
ericus
erigat
erigens
erigere
erigi
erigit
erigitur
erigunt
erimus
eripe
eripere
eriperet
eripi
eripiat
eripit
eripuit
eris
erit
eritis
eritque
erivanum
ernest
ernesto
ernestus
ernst
ero
erogare
erra
errans
errant
errantem
errantes
errantibus
errantium
errare
erras
errasse
errat
errata
erratis
erraverunt
erravit
erret
error
errore
errorem
errores
errori
erroribus
erroris
errorum
eruat
erubescant
erubescat
erubescere
erubescit
erubescunt
erubuit
eructavit
erudire
erudiri
erudit
erudita
eruditi
eruditio
eruditione
eruditionem
eruditionis
eruditis
erudito
eruditorum
eruditos
eruditum
eruditus
erudivit
erue
eruere
erui
eruit
erumpat
erumpere
erumpit
erumpunt
erunt
erupit
eruptione
erythraea
es
esa
esai
esaia
esaiae
esaiam
esaias
esau
esca
escae
escam
escarum
escas
escis
escornalbou
esdr
esdrae
esdras
esiae
espan
espanyol
esperantica
esperanticae
esperantice
esperantista
esperanto
espluga
essai
essay
essayist
essays
esse
essem
essemus
essendi
essent
essentia
essentiae
essentialis
essentialiter
essentiam
essere
esses
esset
essetis
est
este
esther
estiennot
estis
estne
esto
estonia
estonice
estote
estque
esu
esum
esuriens
esurientem
esurientes
esurienti
esurientibus
esurire
esurit
esuriunt
esurivi
esus
et
etas
etate
etatem
etatis
etc
etenim
eterna
eternam
eterne
eternum
ethic
ethica
ethicorum
ethics
ethnici
ethnicis
ethnicorum
ethnologue
etia
etiam
etiamne
etiamnum
etiamnunc
etiamsi
etis
etruria
etruscis
etsi
etymologia
etymologiam
etymologiarum
etymology
eu
euangelio
euangelium
eucaryota
eucharistia
eucharistiae
eucharistiam
eucoelomata
eudicotyledones
euenire
euenit
euentus
euge
eugene
eugenia
eugenii
eugenio
eugenium
eugenius
eukaryota
eum
eumdem
eumdemque
eumenes
eumetazoa
eumque
eundem
eundemque
eundi
eundo
eundum
eunt
euntem
euntes
euntibus
eunuchi
eunuchus
euphemiae
euphratem
euphraten
euripide
euripides
euripidis
euro
europa
europae
europaea
europaeae
europaeam
europaearum
europaei
europaeis
europaeorum
europaeum
europaeus
europam
europe
european
eusebii
eusebio
eusebium
eusebius
eustachii
eustathius
eustochium
eutocii
eutropius
eutychen
eutyches
eutychetis
eutychis
ev
eva
evadat
evadere
evaderet
evadit
evae
evam
evang
evangelia
evangelica
evangelicae
evangelicam
evangelici
evangelicis
evangelico
evangelicum
evangelicus
evangelii
evangeliis
evangelio
evangeliorum
evangelista
evangelistae
evangelistam
evangelistarum
evangelistas
evangelistis
evangelium
evangelizare
evans
evanuerunt
evanuit
evaserit
evaserunt
evasisse
evasit
evectus
evelinarum
evellere
evenerit
eveniat
evenire
evenisse
evenit
eveniunt
eventa
eventibus
eventu
eventum
eventus
eversa
eversionem
evertere
evertit
evidence
evidens
evidenter
evidenti
evidentia
evidentiam
evidentissime
evidentius
evitare
evo
evocat
evocatus
evocavit
evolutio
evolution
evolutionary
evolutione
evolutionem
evolutionis
evolvere
evolvit
ex
exacta
exacte
exactione
exactionem
exactiones
exactionibus
exactis
exacto
exactor
exactum
exagitat
exaltabitur
exaltabo
exaltare
exaltari
exaltat
exaltata
exaltatione
exaltationem
exaltatum
exaltatur
exaltatus
exaltavit
examen
examina
examinare
examinata
examinatione
examinationem
examinatum
examine
examini
examinis
exanimis
exarata
exaravit
exarsit
exaudi
exaudiam
exaudiat
exaudies
exaudiet
exaudire
exaudiri
exaudisti
exaudit
exauditus
exaudivit
excedat
excedens
excedere
excederet
excedit
excedunt
excellens
excellenti
excellentia
excellentiae
excellentiam
excellentissima
excellentissime
excellentissimo
excellentius
excellere
excellit
excellunt
excelsa
excelsi
excelsis
excelso
excelsum
excelsus
excepit
excepta
exceptio
exceptione
exceptionem
exceptiones
exceptis
excepto
exceptum
exceptus
excerpta
excerptas
excessibus
excessit
excessu
excessum
excessus
excidere
exciderunt
excidio
excidit
excidium
excipere
exciperet
excipiat
excipiens
excipit
excipitur
excipiunt
excisa
excita
excitant
excitantur
excitare
excitari
excitat
excitata
excitati
excitatur
excitatus
excitavit
excitet
excitetur
exclamat
exclamavit
excludat
excludere
excludi
excludit
excluditur
excluduntur
exclusa
exclusi
exclusis
exclusit
excluso
exclusus
excogitare
excogitata
excogitatum
excogitavit
excolere
excommunicare
excommunicati
excommunicatione
excommunicationem
excommunicationi
excommunicationis
excommunicatis
excommunicatos
excommunicatum
excommunicatus
excrevit
excubias
excubiis
excudit
excusare
excusari
excusat
excusatio
excusatione
excusationem
excusationes
excusationis
excuset
excussit
excutere
excutit
exeant
exeat
exegerit
exegit
exempla
exemplar
exemplari
exemplaria
exemplaribus
exemplaris
exempli
exemplis
exemplo
exemplorum
exemplum
exempta
exequi
exerce
exerceant
exerceat
exercebat
exercenda
exercendo
exercens
exercent
exercentes
exercentur
exercere
exerceret
exerceri
exercet
exercetur
exercitatio
exercitatione
exercitationem
exercitationes
exercitationis
exercitatus
exercitia
exercitibus
exercitiis
exercitio
exercitium
exercitu
exercitui
exercitum
exercitus
exercituum
exercuit
exeunt
exeunte
exeuntes
exeuntibus
exeuntis
exhausta
exhibeant
exhibeas
exhibeat
exhibeatis
exhibebat
exhibemus
exhibenda
exhibendum
exhibens
exhibent
exhibentes
exhibentur
exhibere
exhiberet
exhiberi
exhibet
exhibetur
exhibita
exhibitio
exhibitione
exhibuit
exhortamur
exhortari
exhortatio
exhortatione
exhortationem
exhortationibus
exhortationis
exhortatur
exi
exibit
exibunt
exiens
exierat
exierit
exierunt
exiet
exigat
exigatur
exigebat
exigenda
exigente
exigentibus
exigere
exigeret
exigi
exigis
exigit
exigitur
exigua
exiguam
exigui
exiguis
exigunt
exiguo
exiguum
exiguus
exiit
exilio
exilis
exilium
eximia
eximiae
eximiam
eximie
eximii
eximio
eximium
eximius
exin
exinanivit
exinde
exire
exiret
exisse
existant
existat
existens
existente
existentem
existentes
existentia
existentiam
existentibus
existentium
existere
existeret
existimabant
existimabat
existimamus
existimans
existimant
existimantes
existimantur
existimare
existimari
existimas
existimat
existimatio
existimatione
existimationem
existimationis
existimatur
existimavi
existimavit
existiment
existimes
existimet
existimo
existis
existit
existunt
exit
exite
exitio
exitium
exitu
exitum
exitus
exivi
exivit
exod
exodi
exodo
exonae
exoramus
exorare
exordia
exordiis
exordio
exordium
exoritur
exorsus
exorta
exorti
exortu
exortum
exortus
expandit
expavit
expectant
expectare
expectat
expectatione
expediat
expedire
expediret
expediri
expedit
expedita
expeditio
expeditione
expeditionem
expeditiones
expeditionibus
expeditionis
expeditis
expediunt
expellere
expelli
expellit
expendere
expendit
expensas
expensis
expergefactus
experience
experientia
experientiae
experientiam
experimenta
experimental
experimentis
experimento
experimentum
experimur
experiri
expers
experta
expertem
expertes
experti
expertus
expetenda
expetere
expetiit
expetit
expetunt
explanare
explanatio
explanatione
explere
expleta
expletis
expleto
expletum
explevit
explicanda
explicantur
explicare
explicari
explicat
explicata
explicatio
explicationem
explicatur
explicavit
explicet
explicit
explicuit
explorare
explorata
exploration
explorator
exploratores
exploratorii
exploratum
exponam
exponat
exponenda
exponendo
exponens
exponentes
exponere
exponeret
exponi
exponit
exponitur
exponunt
exponuntur
expos
exposcit
exposit
exposita
expositio
expositione
expositionem
expositiones
expositionis
expositis
expositum
expositus
exposui
exposuimus
exposuit
expressa
expressam
expresse
expressis
expressit
expressius
expresso
expressum
expressus
exprimatur
exprimenda
exprimens
exprimere
exprimi
exprimit
exprimitur
exprimunt
exprimuntur
exprobrat
expugnare
expugnat
expugnata
expugnaverunt
expugnavit
expulit
expulsa
expulsi
expulsis
expulso
expulsus
exquirere
exquisita
exquisivi
exsecutione
exsecutionem
exsecutioni
exsecutor
exsecutus
exsequendum
exsequi
exsequias
exsequiis
exsequitur
exsilii
exsilio
exsilium
exsistat
exsistens
exsistente
exsistentia
exsistere
exsistit
exsistunt
exsolvere
exspecta
exspectabant
exspectabat
exspectamus
exspectans
exspectant
exspectantes
exspectantibus
exspectare
exspectat
exspectata
exspectatio
exspectatione
exspectationem
exspectatur
exspectavit
exspectet
exspecto
exstant
exstantibus
exstare
exstat
exstincta
exstincti
exstinctis
exstincto
exstinctum
exstinctus
exstinguere
exstinguetur
exstingui
exstinguit
exstinguitur
exstinxit
exstiterat
exstiterint
exstiterit
exstiterunt
exstitisse
exstitisset
exstitit
exstructa
exstruxit
exsul
exsules
exsultabit
exsultabunt
exsultans
exsultant
exsultare
exsultat
exsultate
exsultatio
exsultatione
exsultationis
exsultavit
exsultemus
exsultent
exsultet
exsuperat
exsurge
exsurgens
exsurgere
exsurgit
exta
extant
extat
extemplo
extendat
extende
extendens
extendere
extendi
extendit
extenditur
extensa
extensione
extensionem
extensis
extensum
extenta
exterarum
exteras
exterior
exteriora
exteriore
exteriorem
exteriores
exteriori
exterioribus
exterioris
exteriorum
exteris
exterius
externa
externae
externarum
externas
externi
externis
externo
externorum
externos
externum
extincta
extinctus
extinguere
extingui
extinguitur
extis
extiterit
extiterunt
extitisse
extitit
extollat
extollatur
extollere
extolli
extollit
extollitur
extollunt
extorquere
extra
extrahere
extranea
extranei
extraneis
extraneos
extraneum
extraneus
extrema
extremae
extremam
extremas
extremi
extremis
extremitas
extremitate
extremitates
extremo
extremorum
extremos
extremum
extremus
extrinsecus
extulit
extunc
exuere
exuit
exul
exules
exultatione
exutus
ez
ezech
ezechiae
ezechias
ezechiel
ezechiele
ezechielem
ezechielis
eſt
eſſe
f
fa
faba
faber
fabio
fabium
fabius
fabri
fabrica
fabricae
fabricam
fabricare
fabricata
fabricator
fabricavit
fabricius
fabula
fabulae
fabulam
fabularum
fabulas
fabulis
fabulosa
fac
face
facem
facere
facerem
faceremus
facerent
faceres
faceret
faces
faciam
faciamus
faciant
facias
faciat
faciatis
facibus
facie
faciebant
faciebat
faciei
faciem
faciemus
facienda
faciendae
faciendam
faciendas
faciendi
faciendis
faciendo
faciendum
faciens
facient
faciente
facientem
facientes
facienti
facientibus
facientis
facies
faciet
facietis
facile
facilem
faciles
facili
facilia
facilior
facilis
facilitas
facilitate
facilitatem
faciliter
facilius
facillime
facillimum
facimus
facinora
facinore
facinoribus
facinoris
facinorum
facinus
facio
facis
facit
facite
facitis
facito
faciunt
facsimile
fact
facta
factae
factam
factaque
factas
facti
factio
factione
factionem
factiones
factioni
factionibus
factionis
factionum
factis
facto
factor
factorem
factores
factorum
factos
facts
factu
factum
factumque
factura
facturam
facturi
facturos
facturum
facturus
factus
factæ
facultas
facultate
facultatem
facultates
facultatibus
facultatis
facultatum
facundia
facundiae
facundus
faece
fairs
fait
faith
falce
falcem
falco
fall
fallaces
fallaci
fallacia
fallaciae
fallaciam
fallacias
fallacibus
fallaciis
fallaciter
fallat
fallax
fallendi
fallere
falli
fallit
fallitur
fallor
fallunt
falluntur
falsa
falsae
falsam
falsas
false
falset
falsi
falsis
falsitas
falsitate
falsitatem
falsitatis
falso
falsorum
falsos
falsum
falsus
fama
famae
famam
fame
famem
fames
familia
familiae
familiam
familiare
familiarem
familiares
familiari
familiaria
familiaribus
familiaris
familiaritas
familiaritate
familiaritatem
familiaritatis
familiariter
familiarium
familiarius
familiarum
familias
families
familiis
family
famis
famosa
famosum
famosus
famula
famulae
famulantur
famulari
famulatum
famuli
famulis
famulo
famulorum
famulos
famulum
famulus
fan
fana
fancti
fandi
fando
fani
fano
fantasy
fanum
far
fara
farae
fare
fari
farina
farinae
farinam
fas
fasc
fasce
fasces
fascia
fasciae
fascibus
fasciculus
faso
fassus
fasti
fastidia
fastidio
fastidium
fastigia
fastigio
fastigium
fastis
fastu
fastus
fata
fatalis
fateamur
fateantur
fatearis
fateatur
fatebatur
fatemur
fatendum
fatentur
fateor
fateretur
fateri
fateris
fatetur
father
fatherland
fati
fatigare
fatigari
fatigat
fatigati
fatigatione
fatigatur
fatigatus
fatis
fato
fatorum
fatuae
fatui
fatum
fatur
fatus
fatuus
fauces
faucibus
fauna
faur
faura
fausta
fausti
faustinus
fausto
faustum
faustus
fautor
fautores
fautoribus
favebat
favens
favent
favente
faventes
favere
favet
favilla
favit
favor
favore
favorem
favoribus
favoris
favre
favum
fax
fc
fcru
fcrup
fdp
fe
feb
febr
febre
febrem
febribus
febris
febrium
februarias
februarii
februario
februarius
february
fecerant
fecerat
fecere
fecerim
fecerimus
fecerint
feceris
fecerit
feceritis
fecero
fecerunt
feci
fecimus
fecisse
fecissent
fecisset
fecisti
fecistis
fecit
fecitque
fecunda
fecunditas
fecunditate
fecunditatem
fecunditatis
fecundo
fecundum
fed
federal
federation
federative
federico
fefellit
fel
felder
feles
felice
felicem
felices
felici
felicia
felicianus
felicibus
felicior
felicis
felicitas
felicitate
felicitatem
felicitatis
feliciter
felicius
felis
felix
felle
fellis
fellow
fellowship
fem
female
femina
feminae
feminam
feminarum
feminas
feminea
femineo
feminina
feminini
feminino
femininum
feminis
femore
femoris
femur
fenestra
fenestrae
fenestram
fenestras
fenestris
feni
fenore
fenum
fenus
fer
fera
ferae
feram
ferant
ferantur
ferarum
feras
ferat
feratur
ferax
fercula
ferculis
ferculum
ferdinand
ferdinandi
ferdinando
ferdinandus
fere
ferebant
ferebantur
ferebat
ferebatur
ferenda
ferendam
ferendo
ferendum
ferens
ferente
ferentem
ferentes
ferentini
feres
feret
feri
feria
feriae
feriam
ferias
feriat
feriatur
feriis
ferire
feris
ferit
feritas
feritate
feriunt
feriuntur
ferme
fermento
fermentum
ferna
fernando
fero
feroces
ferox
ferrari
ferraria
ferrariae
ferrariensis
ferre
ferrea
ferream
ferreis
ferrent
ferreo
ferret
ferretur
ferreum
ferreus
ferri
ferrivia
ferriviae
ferriviaria
ferro
ferroque
ferrum
fert
ferte
fertilis
fertur
ferula
ferum
ferunt
feruntur
ferup
ferus
fervens
ferventes
ferventi
fervere
fervet
fervor
fervore
fervorem
fessa
fessi
fessis
fessos
fessus
fest
festa
festi
festina
festinabat
festinans
festinant
festinanter
festinantes
festinare
festinat
festinatione
festinavit
festinemus
festinet
festinus
festis
festival
festivis
festivitas
festivitate
festivitatem
festivitates
festivitatibus
festivitatis
festo
festos
festucam
festum
festus
fetibus
fetorem
fetu
fetum
fetus
feu
feudum
ff
fg
fi
fiam
fiant
fias
fiat
fibrae
fibris
fibula
fic
fici
fico
ficta
fictae
fictilia
fictilibus
fictio
fiction
fictis
ficto
fictum
fictus
ficum
ficus
ficut
fida
fide
fidei
fideique
fidejussores
fidele
fidelem
fideles
fideli
fidelia
fidelibus
fidelis
fidelissimum
fidelissimus
fidelitate
fidelitatem
fidelitatis
fideliter
fidelium
fidem
fidemque
fidens
fidenter
fidere
fides
fidibus
fidis
fiducia
fiduciae
fiducialiter
fiduciam
fidum
fidus
fiebant
fiebat
field
fient
fierent
fieret
fieri
fiet
fifa
fig
figere
figit
figitur
figmenta
figmentis
figmentum
figuerola
figuli
figulus
figura
figurae
figuraliter
figuram
figurantur
figurari
figurarum
figuras
figurata
figurate
figuratum
figuratur
figuravit
figuris
fil
fila
file
fili
filia
filiabus
filiae
filiam
filiarum
filias
filie
filii
filiique
filiis
filio
filioli
filioque
filiorum
filios
filippo
filium
filiumque
filius
filiæ
film
filo
filu
filum
fim
fimbriam
fimbrias
fimo
fin
final
finali
finalis
finaliter
finance
fine
finem
fines
fingere
fingi
fingis
fingit
fingitur
fingunt
fini
finiatur
finibus
finire
finiri
finis
finit
finita
finitam
finitima
finitimis
finitimos
finitis
finito
finitum
finitur
finitus
finium
finiuntur
finivit
finland
finnia
finniae
finnica
finnice
finnico
finnicum
finnicus
finno
finxerunt
finxit
fire
firenze
firma
firmam
firmamenti
firmamento
firmamentum
firmamus
firmana
firmare
firmaret
firmari
firmas
firmat
firmata
firmati
firmatum
firmatur
firmaverunt
firmavimus
firmavit
firmi
firmior
firmis
firmissima
firmissimam
firmissime
firmissimum
firmitas
firmitate
firmitatem
firmitatis
firmiter
firmius
firmo
firmum
firmus
first
fis
fischer
fisci
fisco
fiscum
fiscus
fish
fishbase
fisher
fishes
fisico
fistula
fistulam
fit
fitque
fiunt
five
fixa
fixis
fixit
fixum
fixus
fl
flacci
flacco
flaccus
flagella
flagellat
flagellatus
flagellis
flagello
flagellum
flagitat
flagitia
flagitii
flagitiis
flagitio
flagitiorum
flagitium
flagrans
flamen
flaminio
flamma
flammae
flammam
flammarum
flammas
flammis
flandria
flandriae
flante
flatibus
flatu
flatum
flatus
flauto
flava
flavia
flaviani
flaviano
flavianum
flavianus
flavio
flavius
flavum
flavus
fle
flebat
flectatur
flectere
flecti
flectit
flectitur
fleming
flendo
flens
flentem
flentes
flentibus
flere
flet
fletibus
fletu
fletum
fletus
flevit
flexis
flexit
flexo
flexus
flora
florae
flore
floreat
florebat
florem
florence
florens
florent
florentem
florentes
florentia
florentiae
florentina
florentini
florentino
florentinus
florentium
florentius
florere
flores
floret
flori
florianus
floribus
florida
floridae
floris
floruerunt
floruit
florum
florus
flos
flu
fluant
fluctibus
fluctu
fluctuat
fluctus
fluctuum
fluens
fluent
fluenta
fluentem
fluentis
fluere
fluit
flumen
flumina
flumine
fluminensis
flumini
fluminibus
fluminis
fluminum
fluuium
fluunt
fluvii
fluvio
fluviorum
fluvios
fluvium
fluvius
fluxa
fluxerunt
fluxit
fluxu
fluxum
fluxus
fmg
fo
focis
foco
focum
focus
fodere
foderunt
fodinarum
fodit
foeda
foedera
foederalem
foederales
foederali
foederalis
foederalium
foederatae
foederatarum
foederatas
foederati
foederatio
foederationis
foederatis
foederativa
foedere
foederis
foeditate
foedum
foedus
foemina
foenum
foetus
fol
folia
foliis
folio
foliorum
foliot
folium
folk
follis
fomenta
fomite
fomitem
fons
font
fontaine
fontana
fonte
fontem
fontes
fonti
fontibus
fontis
fontium
food
football
for
fora
foramen
foramina
foramine
foraminibus
foras
forbes
force
forcellini
forces
ford
fore
foreign
forent
fores
forest
foret
fori
foribus
forinsecus
foris
form
forma
formae
formale
formalem
formali
formalis
formaliter
formam
formans
formant
formantur
formare
formari
formarum
formas
format
formata
formatio
formation
formatione
formationem
formatum
formatur
formatus
formavit
forme
formetur
formica
formidant
formidare
formidat
formidine
formidinem
formidinis
formido
formis
formosa
formosus
formula
formulae
formulam
formulas
formulis
fornace
fornacem
fornacis
fornax
fornicari
fornicata
fornicatio
fornicatione
fornicationem
fornicationes
fornicationis
fornicatur
foro
fors
forsan
forsitan
forster
fort
fortasse
fortassis
forte
fortem
fortes
forti
fortia
fortibus
fortior
fortiorem
fortiores
fortis
fortissima
fortissime
fortissimi
fortissimis
fortissimo
fortissimos
fortissimum
fortissimus
fortiter
fortitudine
fortitudinem
fortitudinis
fortitudo
fortium
fortius
fortuita
fortuito
fortuna
fortunae
fortunam
fortunas
fortunati
fortunato
fortunatum
fortunatus
fortune
fortunis
forum
forza
fossa
fossae
fossam
fossas
fossil
fossilia
fossis
foster
found
foundation
foundations
four
fourth
fovea
foveam
foveas
foveat
fovere
fovet
fox
fr
fra
frac
fracta
fracti
fractio
fractis
fracto
fractum
fractus
fragile
fragiles
fragili
fragilis
fragilitas
fragilitate
fragilitatem
fragilitatis
fragmenta
fragmentis
fragmentorum
fragments
fragmentum
fragor
fragore
fragrantia
fram
framea
fran
franc
franca
france
frances
francesco
franci
francia
franciae
franciam
francica
francicae
francicam
francicarum
francice
francici
francicis
francico
francicum
francicus
francis
francisca
francisci
francisco
franciscopoli
franciscopolis
franciscum
franciscus
franciæ
franco
francofurti
francogallica
francogallicae
francogallicam
francogallice
francogallicus
francoli
francorum
francos
francum
francus
frangat
frangatur
frange
frangere
frangi
frangit
frangitur
franguntur
frank
frankfurt
franklin
franz
frater
fraterna
fraternae
fraternam
fraternitas
fraternitate
fraternitatem
fraternitati
fraternitatis
fraterno
fratre
fratrem
fratres
fratri
fratribus
fratris
fratrum
fraudare
fraude
fraudem
fraudes
fraudibus
fraudis
fraudulenta
fraudulenter
frauja
fraus
fre
fred
freda
frederick
fredericus
free
freedom
freeman
fregit
fremit
fremitu
fremitus
frena
french
frenis
freno
frenum
frequens
frequentabat
frequentare
frequentavit
frequenter
frequentes
frequenti
frequentia
frequentiam
frequentibus
frequentissime
frequentius
freta
freti
freto
fretum
fretus
freud
freund
friburgi
friderici
friderico
fridericum
fridericus
friedrich
friends
friendship
frigida
frigidae
frigidam
frigidi
frigidis
frigido
frigidum
frigidus
frigora
frigore
frigoribus
frigoris
frigus
fritz
from
fronde
frondes
frondibus
frons
front
fronte
frontem
frontibus
frontis
fronto
frost
fru
fruantur
fruatur
fructibus
fructifera
fructu
fructum
fructuosa
fructus
fructuum
fruendum
frueretur
fruge
frugem
fruges
frugi
frugibus
frugum
fruhstorfer
frui
fruit
fruitur
frumenta
frumenti
frumentis
frumento
frumentum
frusinas
frusta
frustra
frutex
frutices
fruuntur
fu
fub
fuco
fuderunt
fudit
fueram
fuerant
fueras
fuerat
fuere
fuerim
fuerimus
fuerint
fueris
fuerit
fueritis
fuero
fuerunt
fug
fuga
fugae
fugam
fugat
fugati
fugatis
fugato
fugatus
fugavit
fuge
fugerat
fugere
fugerent
fugeret
fugerit
fugerunt
fugi
fugiam
fugiamus
fugiant
fugiat
fugienda
fugiendo
fugiendum
fugiens
fugientem
fugientes
fugientibus
fugiet
fugio
fugis
fugisse
fugit
fugite
fugiunt
fui
fuimus
fuisse
fuissem
fuissemus
fuissent
fuisses
fuisset
fuisti
fuistis
fuit
fulco
fulgeat
fulgebat
fulgebunt
fulgens
fulgent
fulgentem
fulgentes
fulgentius
fulgere
fulget
fulgor
fulgore
fulgorem
fulgoris
fulgur
fulgura
full
fuller
fulmen
fulmina
fulmine
fulminis
fulsit
fulta
fulti
fultus
fulvius
fumi
fumo
fumum
fumus
functio
functionem
functiones
functionibus
functionis
functus
funda
fundamenta
fundamenti
fundamentis
fundamento
fundamentum
fundantur
fundasti
fundat
fundata
fundatae
fundatam
fundati
fundatione
fundationis
fundator
fundatores
fundatum
fundatur
fundatus
fundavit
fundens
fundere
fundi
fundis
fundit
funditur
funditus
fundo
fundos
fundum
fundunt
fundus
fune
funem
funera
funere
funeribus
funeris
funes
funesta
funet
fungebatur
fungeretur
fungi
fungimur
fungitur
funguntur
funibus
funiculus
funis
funt
funus
fur
furantur
furatus
furem
furens
furentem
furentes
furentis
fures
furias
furiis
furioso
furit
furius
furor
furore
furorem
furores
furori
furoris
furta
furti
furtim
furtis
furto
furtum
fusa
fusca
fusco
fuscus
fusi
fusis
fusius
fuso
fustibus
fusum
fusus
fut
futura
futurae
futuram
futurarum
futuras
future
futuri
futuris
futuro
futurorum
futuros
futurum
futurus
g
ga
gabaa
gabriel
gabriele
gabrielis
gad
gai
gaia
gaii
gaio
gaium
gaius
gal
galaad
galat
galatas
galatiae
galba
galea
galeam
galera
galerius
galfridus
galilaea
galilaeae
galilaeam
galilaei
galilaeus
galileo
gall
galla
gallaeciae
gallaice
gallery
galli
gallia
galliae
galliam
galliarum
gallias
gallica
gallicani
gallice
gallici
gallico
gallicum
gallien
gallienus
galliis
gallimard
gallina
gallis
galliæ
gallo
gallonice
gallorum
gallos
gallum
gallus
gambia
game
games
gamma
gana
gandhi
garci
garcia
garcias
garda
garde
garden
gardner
garland
garumnae
garunnae
gary
gas
gasconice
gaude
gaudeamus
gaudeant
gaudeat
gaudebant
gaudebat
gaudebit
gaudebunt
gaudemus
gaudens
gaudent
gaudentes
gaudentibus
gaudeo
gaudere
gauderet
gaudes
gaudet
gaudete
gaudia
gaudii
gaudiis
gaudio
gaudiorum
gaudium
gaufridus
gavisi
gavisus
gay
gaza
gazam
gazetteer
gazophylacium
gc
ge
gedeon
gehenna
gehennae
gehennam
gehrels
gel
gelasii
gelasius
gellii
gellius
gelu
gemellae
gemens
gementes
gemere
gemina
geminae
geminam
geminas
geminata
gemini
geminis
gemino
geminorum
geminos
geminum
geminus
gemit
gemitibus
gemitu
gemitum
gemitus
gemma
gemmae
gemmarum
gemmas
gemmis
gemunt
gen
genae
genas
genavae
gene
genealogia
gener
genera
general
generale
generalem
generales
generali
generalia
generalibus
generalis
generalissimum
generaliter
generalium
generandi
generans
generant
generantur
generare
generaret
generari
generat
generata
generati
generatim
generatio
generation
generatione
generationem
generationes
generationi
generationibus
generationis
generationum
generatum
generatur
generatus
generavit
genere
generet
generetur
generi
generibus
generis
genero
generosa
generum
genes
geneseos
genesi
genesii
genesim
genesis
genetic
genetica
genetics
genetricis
genetrix
genibus
genio
genis
genita
genitalia
genitalibus
genitalium
geniti
genitivo
genitivus
genito
genitor
genitore
genitorem
genitores
genitoris
genitos
genitrice
genitricem
genitricis
genitrix
genitum
genitura
geniturae
genitus
genium
genius
gennadius
gens
gent
gente
gentem
gentes
genti
gentibus
gentilem
gentiles
gentili
gentilibus
gentilis
gentilitas
gentilitatis
gentilium
gentis
gentium
genu
genua
genuae
genuensi
genuensis
genuerat
genuerit
genuerunt
genui
genuisse
genuit
genus
geoffrey
geografia
geografici
geografico
geographia
geographic
geographica
geographicae
geographicum
geographus
geography
geologia
geological
geology
geometria
geometriae
geometrica
geopoliticum
geoponica
georg
george
georges
georgia
georgiae
georgica
georgii
georgio
georgium
georgius
ger
gerald
geraldi
geraldo
geraldus
gerant
gerard
gerardi
gerardo
gerardus
gerat
gerebant
gerebantur
gerebat
gerebatur
gerenda
gerendae
gerendi
gerendis
gerendum
gerens
gerentes
gerere
gereret
gerhard
gerhardus
geri
gerimus
geris
gerit
geritur
germ
germain
german
germana
germanae
germanam
germani
germania
germaniae
germaniam
germanica
germanicae
germanicam
germanice
germanici
germanicis
germanico
germanicum
germanicus
germanis
germano
germanorum
germanos
germanum
germanus
germany
germen
germina
germine
germinet
gero
gerundensi
gerunt
geruntur
gervasii
ges
geschichte
gesellschaft
gesserat
gesserit
gesserunt
gessimus
gessisse
gessit
gesta
gestabat
gestae
gestam
gestans
gestare
gestarum
gestas
gestat
gestio
gestis
gestit
gesto
gestorum
gestu
gestum
gestus
get
geta
geth
getty
gf
gi
gia
giacomo
giambattista
giangrisostomo
gigantes
gigas
gignat
gignendo
gignere
gigni
gignit
gignitur
gignunt
gignuntur
gil
gilbert
gilbertus
gill
gilles
ginsberg
ginta
giordano
giorgio
giovanni
girl
girolamo
girundiae
gis
giulini
giuseppe
gl
glacialis
glacie
glaciei
glaciem
glacies
gladiatores
gladii
gladiis
gladio
gladiolus
gladios
gladium
gladius
glandula
glandulae
glass
glenn
gli
glise
glo
global
globe
globi
globo
globos
globum
globus
gloria
gloriabitur
gloriae
gloriam
gloriamur
gloriantes
gloriantur
gloriari
gloriaris
gloriatio
gloriatur
glorie
gloriemur
glorientur
glorietur
glorificat
glorificatus
glorificaverunt
glorificavit
glorificent
glorificetur
gloriosa
gloriosae
gloriosam
gloriose
gloriosi
gloriosis
gloriosissime
gloriosissimi
gloriosissimo
gloriosissimus
gloriosius
glorioso
gloriosos
gloriosum
gloriosus
gloss
glossa
glossarium
gmelin
gn
gnaeus
gnarus
gnathostomata
go
god
godefridi
godefridus
gods
goethe
goffredo
gold
golden
gonza
good
google
gord
gordiano
gordianus
gordon
goth
gothi
gothic
gothica
gothicae
gothis
gothorum
gothos
gothus
gott
gottfried
gottingae
gould
gov
government
governo
governor
governors
gr
gra
grabatum
gracchi
gracchus
grace
gracia
graciam
gracilis
gradatim
gradibus
gradiens
gradientes
graditur
gradu
gradum
gradus
graduum
graeca
graecae
graecam
graecarum
graecas
graece
graeci
graecia
graeciae
graeciam
graecis
graeco
graecorum
graecos
graecum
graecus
graesse
graevius
graham
gramina
gramine
grammar
grammatica
grammaticae
grammaticam
grammatici
grammaticis
grammaticos
grammaticum
grammaticus
grammy
gran
grana
granata
grand
grande
grandem
grandes
grandi
grandia
grandibus
grandine
grandinis
grandis
grando
granis
grano
grant
granum
grat
grata
gratae
gratam
gratanter
grates
grati
gratia
gratiae
gratiam
gratiani
gratiano
gratianum
gratianus
gratiarum
gratias
gratie
gratiis
gratior
gratis
gratissima
gratissimum
gratius
gratiæ
grato
gratuita
gratuito
gratulamur
gratulari
gratulatione
gratulatur
gratulor
gratum
gratus
graue
graues
graui
grauis
grauiter
grauius
gravamen
gravamine
gravare
gravari
gravat
gravati
gravatur
gravatus
grave
gravem
graves
gravi
gravia
gravibus
gravida
gravior
graviora
graviore
graviorem
graviores
gravioribus
gravis
gravissima
gravissimam
gravissimas
gravissime
gravissimi
gravissimis
gravissimo
gravissimum
gravitas
gravitate
gravitatem
gravitatis
graviter
gravium
gravius
gray
gre
great
greatest
grece
greci
grecia
grecis
greco
grecorum
greece
greek
green
greene
greenwood
greg
grege
gregem
greges
gregi
gregibus
gregis
gregor
gregoriano
gregorii
gregorio
gregorium
gregorius
gregory
gregum
gremio
gremium
gressibus
gressu
gressum
gressus
grex
griechischen
grimm
grimod
gro
groeneveld
group
grove
growth
gru
gruyter
gu
gualterio
gualterius
gualterus
guardia
guardian
gubernacula
gubernans
gubernante
gubernare
gubernari
gubernat
gubernatio
gubernatione
gubernationem
gubernationis
gubernator
gubernatore
gubernatorem
gubernatores
gubernatoribus
gubernatoris
gubernatorum
gubernii
gubernio
gubernium
gue
guerra
guerre
guez
guglum
guide
guido
guidone
guidonis
guilielmum
guilielmus
guillaume
guillelmi
guillelmo
guillelmum
guillelmus
guinea
guineae
gula
gulae
gulam
gulielmi
gulielmo
gulielmum
gulielmus
gurgite
gurgitis
gustare
gustate
gustav
gustavit
gustavo
gustavus
gustu
gustum
gustus
gutenberg
gutta
guttae
guttis
guttur
gutture
guy
guþ
guþa
guþs
gymnasio
gymnasium
gyro
gyrum
h
ha
habac
habacuc
habe
habeam
habeamus
habeant
habeantur
habeas
habeat
habeatis
habeatur
habebam
habebamus
habebant
habebantur
habebas
habebat
habebatur
habebimus
habebis
habebit
habebitis
habebitur
habebo
habebunt
habemus
habenas
habenda
habendam
habendi
habendo
habendum
habendus
habenis
habens
habent
habente
habentem
habentes
habenti
habentia
habentibus
habentis
habentium
habentur
habeo
habere
haberem
haberemus
haberent
haberentur
haberes
haberet
haberetur
haberi
habes
habet
habete
habetis
habeto
habetur
habilis
habita
habitabant
habitabat
habitabit
habitabunt
habitacula
habitaculo
habitaculum
habitae
habitam
habitandum
habitans
habitant
habitantes
habitantibus
habitantium
habitare
habitaret
habitas
habitasse
habitat
habitatio
habitatione
habitationem
habitationes
habitationibus
habitationis
habitatis
habitator
habitatorem
habitatores
habitatoribus
habitaverunt
habitavit
habitent
habitet
habiti
habitis
habito
habitu
habitudine
habitudinem
habitudo
habitum
habitura
habituri
habituros
habiturum
habiturus
habitus
habuerant
habuerat
habuere
habuerint
habueris
habuerit
habueritis
habuero
habuerunt
habui
habuimus
habuisse
habuissent
habuisset
habuisti
habuistis
habuit
hac
hactenus
had
hadriani
hadriano
hadrianus
hadriaticum
hae
haec
haedi
haedos
haereat
haeredem
haeredes
haeredibus
haereditario
haereditas
haereditate
haereditatem
haereditatis
haerent
haerere
haeres
haereseos
haereses
haeresi
haeresibus
haeresim
haeresis
haeresum
haeret
haeretica
haereticae
haereticam
haeretice
haeretici
haereticis
haeretico
haereticorum
haereticos
haereticum
haereticus
haesit
hafniae
hagae
haines
hal
halitus
hall
hamburg
hamburgi
hamilton
hammonae
hamo
han
hanc
hand
handbook
handbuch
handwo
hannibal
hannibale
hannibalem
hannibalis
hanno
hannover
hannoverae
hannoveranum
hanoi
hans
hansen
harcourt
hard
hardy
harena
harenae
harmonia
harmonices
harold
haroldus
harper
harris
harrison
harrius
harry
hart
hartley
harum
harvard
harvardiana
harvardianae
harvey
has
hasce
hasdrubal
hassiae
hasta
hastae
hastam
hastas
hastis
hat
haud
haudquaquam
haurire
hausit
haustu
haut
haute
have
haven
hawaii
hd
he
head
health
heart
heb
hebdomada
hebdomadae
hebdomadam
hebdomadarum
hebdomadas
hebdomadibus
hebdomadis
heber
hebes
hebr
hebraea
hebraei
hebraeis
hebraeo
hebraeorum
hebraeos
hebraeum
hebraeus
hebraica
hebraicae
hebraicam
hebraice
hebraicis
hebraico
hebraicum
hebron
hec
hector
hectoris
hegel
hei
heiberg
heic
heidelbergae
heinemann
heinrich
heinricus
heinz
helen
helena
helenae
helenam
heli
helia
heliae
heliam
helias
helimutus
helin
hell
hellenistic
hellinsia
helmut
helsinki
helvetia
helvetiae
helvetica
helveticae
helveticus
hem
hemisphaerio
hen
hendecas
henri
henrici
henrico
henricum
henricus
henry
her
heraclius
herae
herald
heraldica
herba
herbae
herbam
herbarium
herbarum
herbas
herbert
herbertus
herbis
hercle
hercule
herculem
hercules
herculi
herculis
herder
here
herede
heredem
heredes
heredibus
heredis
hereditas
hereditate
hereditatem
hereditatis
heres
heri
heritage
herman
hermann
hermannus
hermes
hero
herode
herodem
herodes
herodis
herodotus
heroes
herois
heros
heroum
herzberg
herzegovina
herzegovinae
hesiodus
hesperia
hesterna
hesterno
het
heu
heus
hi
hiatu
hiatus
hiberna
hibernia
hiberniae
hiberniam
hibernice
hibernicus
hibernis
hic
hieme
hiemem
hiemes
hiemis
hiems
hier
hieracium
hierarchia
hierarchy
hieremiam
hieremias
hieron
hieronymi
hieronymo
hieronymum
hieronymus
hierosolyma
hierosolymae
hierosolymam
hierosolymis
hierosolymitanae
hierosolymitani
hierosolymitano
hierosolymitanum
hierosolymitanus
hierosolymorum
hierusalem
high
higher
hii
hiis
hilaire
hilarem
hilares
hilari
hilarii
hilario
hilaris
hilaritate
hilariter
hilarium
hilarius
hildegardis
hill
hills
him
hinc
hincmarus
hippolyti
hippolytus
hipponensis
hiram
hircorum
hircos
hircus
hirundo
his
hisce
hisp
hispalensis
hispani
hispania
hispaniae
hispaniam
hispaniarum
hispanias
hispanica
hispanicae
hispanicam
hispanice
hispanici
hispanico
hispanicum
hispanicus
hispaniis
hispanis
hispano
hispanorum
hispanos
hispanus
hisque
hist
histo
histoire
historia
historiae
historiam
historian
historiarum
historias
historic
historica
historicae
historical
historicam
historici
historicis
historico
historicorum
historicum
historicus
historie
histories
historiis
historique
historiques
historisches
historiæ
history
histria
histrio
histriones
hitchcock
hitler
hl
hler
hludowicus
ho
hoc
hocque
hodie
hodieque
hodierna
hodiernae
hodiernam
hodiernarum
hodierni
hodiernis
hodierno
hodiernum
hodiernus
hoffmann
hofmann
hofmannus
holland
hollywood
holmes
holmia
holmiae
holocausta
holocausti
holocaustum
holotheria
holt
holy
hom
homagium
home
homer
homeri
homero
homerum
homerus
homicida
homicidae
homicidam
homicidia
homicidii
homicidio
homicidium
homil
homilia
homiliae
homiliam
homiliarum
homilias
homine
hominem
homines
hominesque
homini
hominibus
hominis
hominium
hominum
hominumque
homme
homo
homonymam
homousion
honesta
honestae
honestam
honestas
honestate
honestatem
honestati
honestatis
honeste
honesti
honestis
honestius
honesto
honestum
honestus
hong
honolulu
honor
honora
honorabiles
honorabili
honorabilis
honorare
honorari
honorary
honorat
honorati
honorato
honoratum
honoratur
honoratus
honoravit
honore
honorem
honores
honori
honoribus
honorificat
honorifice
honorificentia
honorificentiam
honorii
honorio
honoris
honorisque
honorius
honorum
honos
honour
hope
hopkins
hor
hora
horace
horae
horam
horaria
horarum
horas
horatii
horatius
hordei
hordeo
hordeum
horis
hormisda
hormisdae
horn
horologium
horoscopo
horoscopum
horrea
horreis
horrenda
horrendum
horreo
horret
horreum
horribili
horribilis
horrida
horror
horrore
horrorem
horst
horta
hortabatur
hortamur
hortante
hortari
hortatu
hortatur
hortatus
hortensius
horti
hortis
horto
hortor
hortorum
hortos
hortum
hortus
horum
hos
hosce
hospes
hospita
hospitale
hospitalet
hospitali
hospitalis
hospitalitatem
hospitalitatis
hospite
hospitem
hospites
hospitia
hospitibus
hospitii
hospitio
hospitis
hospitium
hospitum
hoste
hostem
hostes
hosti
hostia
hostiae
hostiam
hostiarum
hostias
hostibus
hostiis
hostilem
hostiles
hostili
hostilia
hostilis
hostiliter
hostis
hostium
hot
houghton
house
hout
houten
how
howard
hr
href
hrliches
hrsg
hrung
hs
htm
html
http
https
hu
hubaldus
huber
hubert
hubertus
huc
hucusque
hudson
hugh
hughes
hugo
hugone
hugonem
hugoni
hugonis
hui
huic
huius
huiusce
huiuscemodi
huiusmodi
hujus
hujusce
hujuscemodi
hujusmodi
human
humana
humanae
humanam
humanarum
humanas
humane
humani
humanis
humanista
humanitas
humanitate
humanitatem
humanitati
humanitatis
humanities
humano
humanorum
humanos
humanum
humanus
humbertus
humblot
humboldt
humeris
humero
humeros
humerum
humi
humida
humidum
humile
humilem
humiles
humili
humilia
humiliabitur
humiliare
humiliari
humiliat
humiliata
humiliate
humiliati
humiliatum
humiliatus
humiliavit
humilibus
humilior
humilis
humilitas
humilitate
humilitatem
humilitatis
humiliter
humilium
humilius
humo
humor
humore
humorem
humores
humoris
humum
humus
hunc
hundred
hungari
hungaria
hungariae
hungariam
hungarica
hungarice
hungarici
hungaricum
hungaricus
hungarorum
hungary
hunnorum
hunt
hunter
hus
hxc
hyacintho
hyacinthus
hydria
hyeme
hyginus
hymen
hymenoptera
hymni
hymnis
hymno
hymnorum
hymnos
hymnum
hymnus
hypocrisis
hypocrita
hypocritae
hypothesis
hypothetica
hæ
hæc
hæresi
i
ia
iacebat
iacens
iacent
iacentem
iacentes
iacentis
iacere
iacet
iacit
iacob
iacobi
iacobo
iacobum
iacobus
iacta
iactare
iactat
iactura
iacturam
iactus
iacuit
iaculis
iam
iamdiu
iamdudum
iampridem
iamque
iamvero
ian
iani
ianua
ianuam
ianuarias
ianuarii
ianuariis
ianuario
ianuarius
ianus
iaponia
iaponiae
iaponiam
iaponica
iaponicae
iaponice
iaponicus
iaponiensis
iason
iau
ib
ibae
ibam
ibant
ibas
ibat
ibi
ibid
ibidem
ibimus
ibique
ibis
ibit
ibn
ibo
ibunt
ibus
ic
icaunae
iccirco
ice
ich
icta
ictibus
ictu
ictum
ictus
id
ida
idcirco
ide
idea
ideae
ideam
idearum
ideas
idem
idemque
identidem
identification
identitas
identitate
identitatem
identitatis
identity
ideo
ideoque
idest
idibus
idioma
idiota
idipsum
ido
idola
idoli
idolis
idolo
idololatria
idololatriae
idololatriam
idolorum
idolum
idonea
idoneam
idonei
idoneis
idoneo
idoneos
idoneum
idoneus
idque
idus
ie
iecur
ieiunia
ieiuniis
ieiunio
ieiunium
ienae
ier
ieremias
ierit
ierusalem
iesu
iesuita
iesuitae
iesuitarum
iesum
iesus
if
igitur
ignara
ignari
ignaris
ignaros
ignarum
ignarus
ignatii
ignatio
ignatium
ignatius
ignavia
ignaviam
igne
ignea
igneis
ignem
igneo
ignes
igneum
igneus
igni
ignibus
ignis
ignita
ignium
ignobiles
ignobilis
ignominia
ignominiae
ignominiam
ignorabant
ignorabat
ignoramus
ignorans
ignorant
ignorante
ignoranter
ignorantes
ignorantia
ignorantiae
ignorantiam
ignorantibus
ignorare
ignoraret
ignoras
ignorasse
ignorat
ignoratis
ignoratur
ignoravit
ignoret
ignoro
ignoscat
ignosce
ignoscere
ignosci
ignoscit
ignota
ignoti
ignotis
ignoto
ignotos
ignotum
ignotus
ihesu
ihesus
ihre
ii
iiae
iidem
iii
iiii
iiij
iij
iis
iisdem
iisque
iit
ij
il
ilia
ilias
ilico
ilium
ill
illa
illac
illae
illaesa
illaesus
illam
illarum
illas
illata
illatam
illatas
illatis
illatum
ille
illecebra
illecebras
illecebris
illectus
illi
illibata
illic
illicita
illicitas
illicite
illicitis
illicito
illicitum
illico
illinc
illinoesiae
illinois
illis
illisque
illius
illo
illorum
illos
illuc
illucque
illud
illudere
illudque
illum
illumina
illuminabit
illuminans
illuminantur
illuminare
illuminari
illuminat
illuminata
illuminati
illuminatio
illuminatione
illuminationem
illuminationis
illuminatur
illuminatus
illuminavit
illuminet
illustrare
illustrat
illustrata
illustrated
illustratur
illustravit
illustre
illustrem
illustres
illustri
illustribus
illustris
illustrissimi
illustrium
illuxit
illyrici
illyrico
illyricum
illæ
im
ima
image
images
imaginari
imaginatio
imaginatione
imaginationem
imagine
imaginem
imagines
imagini
imaginibus
imaginis
imaginum
imago
imbecillitas
imbecillitate
imbecillitatem
imber
imbre
imbrem
imbres
imbribus
imbrium
imbuit
imbuti
imbutus
imis
imitanda
imitando
imitandum
imitantes
imitantur
imitare
imitari
imitata
imitati
imitatio
imitatione
imitationem
imitationis
imitator
imitatores
imitatur
imitatus
imitemur
imitentur
imitetur
immaculata
immaculatae
immaculatam
immaculati
immaculatum
immaculatus
immane
immanem
immani
immanis
immanitate
immanuel
immatura
immediata
immediate
immemor
immemores
immensa
immensae
immensam
immensas
immensi
immensis
immensitate
immenso
immensum
immensus
immeriti
immerito
immineat
imminebat
imminens
imminente
imminentem
imminentibus
imminentis
imminere
imminet
immisit
immittere
immittit
immo
immobile
immobilem
immobiles
immobili
immobilia
immobilibus
immobilis
immobiliter
immoderata
immolandum
immolant
immolare
immolatur
immolatus
immolavit
immorari
immortale
immortalem
immortales
immortali
immortalia
immortalibus
immortalis
immortalitas
immortalitate
immortalitatem
immortalitatis
immortalium
immunda
immundi
immundis
immunditia
immunditiae
immunditiam
immundo
immundorum
immundos
immundum
immundus
immunem
immunes
immunis
immunitate
immunitatem
immunitates
immunitatis
immutabilem
immutabilis
immutabimur
immutare
immutari
immutata
immutatio
immutatione
imo
imp
impact
impar
imparem
impares
impari
imparibus
impassibilis
impatiens
impatientia
impe
impediat
impediatur
impedimenta
impedimentis
impedimento
impedimentum
impedire
impediret
impediri
impedit
impedita
impeditur
impeditus
impediunt
impedivit
impellit
impellitur
impendant
impendat
impendere
impendi
impendit
impenditur
impendunt
impensa
impensis
impensius
imper
impera
imperabat
imperandi
imperant
imperante
imperare
imperaret
imperat
imperata
imperator
imperatore
imperatorem
imperatores
imperatori
imperatoria
imperatoribus
imperatoris
imperatorum
imperatricis
imperatrix
imperatum
imperatur
imperavit
imperet
imperfecta
imperfecti
imperfecto
imperfectum
imperfectus
imperi
imperia
imperial
imperiale
imperialem
imperiales
imperiali
imperialibus
imperialis
imperii
imperiis
imperio
imperiti
imperitia
imperitiae
imperitiam
imperitis
imperitorum
imperitos
imperitus
imperium
impertimus
impertire
impertiri
impetitione
impetrare
impetrat
impetrata
impetratis
impetratum
impetravit
impetu
impetum
impetus
impia
impiae
impiam
impias
impie
impietas
impietate
impietatem
impietates
impietatibus
impietatis
impiger
impigre
impii
impiis
impio
impiorum
impios
impium
impius
imple
impleant
impleantur
impleat
impleatur
implebitur
implenda
implendum
implens
implent
implentur
implere
impleret
impleretur
impleri
implet
impleta
implete
impleti
impleto
impletum
impletur
impletus
impleverit
impleverunt
implevit
implicat
implications
implorare
implorat
imponat
imponatur
imponens
imponentes
imponere
imponeret
imponi
imponit
imponitur
imponunt
important
importat
importuna
importune
imposita
impositione
impositionem
impositionis
impositis
imposito
impositum
impositus
impossibile
impossibili
impossibilia
impossibilis
imposuerunt
imposuit
impotens
impotentia
impotentiam
impp
imppp
impraesentiarum
impressa
impressio
impressione
impressionem
impressis
impressum
imprimerie
imprimis
improba
improbat
improbe
improbi
improbis
improbitas
improbitate
improbo
improborum
improbos
improbum
improbus
improprie
improviso
imprudens
imprudenter
imprudentes
impudens
impudenter
impudentia
impudentiam
impugnant
impugnare
impugnat
impugnatione
impulit
impulsu
impulsus
impune
impunita
impunitum
imputare
imputari
imputatur
imum
imus
in
ina
inaccessibilem
inaequales
inaequalis
inaequalitas
inaestimabilis
inane
inanem
inanes
inani
inania
inanibus
inanis
inaniter
inaudita
inauditum
inc
incarn
incarnat
incarnati
incarnatio
incarnatione
incarnationem
incarnationis
incarnatum
incarnatus
incassum
incauta
incaute
incautos
incautum
incautus
incedens
incedentes
incedere
incedit
incedunt
incendere
incendia
incendii
incendiis
incendio
incendit
incendium
incensa
incensi
incenso
incensum
incensus
incentiva
incepit
incepta
inceptio
incepto
inceptum
incerta
incertae
incerti
incertis
incerto
incertum
incertus
incessanter
incessit
incessu
incessus
incesti
incestum
inchoat
inchoata
inchoatum
inchoatur
inchoavit
incidat
incidens
incidere
inciderit
inciderunt
incidi
incidisse
incidisset
incidit
incidunt
incipe
incipere
inciperent
inciperet
incipiam
incipiamus
incipiant
incipias
incipiat
incipiebat
incipiens
incipiente
incipientes
incipientibus
incipiet
incipimus
incipit
incipiunt
incisa
incitare
incitat
inclina
inclinans
inclinare
inclinari
inclinat
inclinata
inclinati
inclinatio
inclinatione
inclinationem
inclinato
inclinatur
inclinatus
inclinavit
inclinet
inclita
includere
includi
including
includit
includitur
includunt
includuntur
inclusa
inclusi
inclusis
inclusit
inclusum
inclusus
inclyta
inclytae
inclyti
inclytus
incognita
incognito
incognitum
incognitus
incola
incolae
incolarum
incolas
incolatus
incolebant
incolis
incolumem
incolumes
incolumi
incolumis
incolumitate
incolumitatem
incolunt
incommoda
incommodi
incommodis
incommodo
incommodum
incommutabile
incommutabilem
incommutabili
incommutabilis
incommutabiliter
incomparabilis
incomparabiliter
incomposita
incomprehensibilis
inconcussa
incongrue
incongruum
inconstantia
inconsulte
inconsulto
incontinentiam
inconueniens
inconveniens
inconvenienter
incorporat
incorporea
incorporeum
incorporeus
incorrupta
incorruptibile
incorruptibilem
incorruptibilis
incorruptione
incorruptionem
incorruptionis
incorruptum
incredibile
incredibilem
incredibili
incredibilia
incredibilis
increduli
incredulis
incredulitate
incredulitatem
incredulitatis
incredulos
incredulus
incrementa
incrementi
incrementis
incremento
incrementum
increpa
increpans
increpare
increpat
increpatio
increpatione
increpationem
increpationis
increpavit
incubuit
inculta
incultis
incumbens
incumbere
incumbit
incumbunt
incunctanter
incuria
incuriam
incurrant
incurrat
incurrere
incurrisse
incurrit
incurrunt
incursibus
incursione
incursionibus
incursu
incursurum
incursus
ind
indagare
inde
indebita
indebite
indecens
indecl
indecorum
indefessa
indeficiens
indefinita
independence
independent
indeque
indesinenter
index
indi
india
indiae
indiam
indian
indiana
indianae
indica
indicae
indicans
indicant
indicare
indicaret
indicari
indicat
indicatur
indicavit
indice
indicem
indices
indicet
indici
indicia
indicibus
indiciis
indicio
indicis
indicit
indicium
indico
indict
indicta
indictione
indictionem
indictiones
indictionis
indicto
indictum
indicum
indicus
indidit
indifferens
indifferenter
indigeat
indigemus
indigena
indigenae
indigenarum
indigenas
indigenis
indigens
indigent
indigentia
indigentiam
indigentibus
indigere
indigeret
indiget
indigna
indignam
indignatio
indignatione
indignationem
indignationis
indignatus
indigne
indigni
indignis
indigno
indignos
indignum
indignus
indirecte
indis
indiscreta
indiscrete
indita
inditum
indiuidua
indiuiduis
indiuiduum
individua
individuae
individuis
individuum
indivisa
indixit
indo
indocti
indoctus
indoeuropaea
indole
indolem
indoles
indolis
indonesia
indorum
indos
induat
indubitanter
indubitata
inducam
inducas
inducat
inducere
induci
inducias
inducit
inducitur
inducta
inducti
inductio
inductum
inductus
inducunt
induere
induerit
indui
induit
induite
induitur
indulge
indulgeat
indulgemus
indulgens
indulgentia
indulgentiae
indulgentiam
indulgentias
indulgere
indulget
indulsit
indulta
indultum
indumenta
indumentis
indumento
indumentum
indus
industria
industriae
industriam
industry
induta
induti
indutias
indutum
indutus
induxit
ine
inebriari
inedia
ineffabile
ineffabilem
ineffabili
ineffabilia
ineffabilis
ineffabiliter
inepta
inepte
ineptias
ineptum
inerant
inerat
inermes
inermis
iners
inertes
inertia
inesse
inesset
inest
ineunt
ineunte
infames
infamia
infamiae
infamiam
infamis
infans
infant
infante
infantem
infantes
infantia
infantiae
infantiam
infantibus
infantis
infantium
infantum
infecta
infectum
infelicem
infelices
infelici
infelicitas
infeliciter
infelix
inferant
inferas
inferat
inferatur
inferendum
inferens
inferes
inferi
inferior
inferiora
inferiore
inferiorem
inferiores
inferiori
inferioribus
inferioris
inferiorum
inferis
inferius
inferna
inferni
inferno
infernorum
infernum
infernus
inferorum
inferos
inferre
inferret
inferri
infert
infertur
inferunt
inferuntur
infesta
infestatione
infestis
infesto
infestum
infestus
inficit
infidelem
infideles
infideli
infidelibus
infidelis
infidelitas
infidelitate
infidelitatem
infidelitatis
infidelium
infima
infimae
infimis
infimo
infimum
infinita
infinitae
infinitam
infinitas
infinitatem
infinite
infiniti
infinitis
infinito
infinitum
infinitus
infirma
infirmam
infirmari
infirmata
infirmatur
infirmatus
infirmi
infirmior
infirmiores
infirmis
infirmitas
infirmitate
infirmitatem
infirmitates
infirmitati
infirmitatibus
infirmitatis
infirmo
infirmor
infirmorum
infirmos
infirmum
infirmus
infit
infixa
inflammat
inflammatio
inflammatus
inflat
inflati
inflatur
inflatus
inflr
influence
influit
info
informare
informat
informatio
information
informationem
informationis
informem
informis
infra
infraclassis
infraordo
infraphylum
infraregnum
infringere
infructuosa
inftr
infudit
infundat
infundere
infundit
infunditur
infusa
infusione
infusum
ingemiscimus
ingemuit
ingeni
ingenia
ingeniaria
ingeniariae
ingeniarius
ingenii
ingeniis
ingenio
ingeniorum
ingeniosus
ingenita
ingenitum
ingenitus
ingenium
ingens
ingentem
ingentes
ingenti
ingentia
ingentibus
ingentis
ingenui
ingenuos
ingenuus
ingerere
ingerit
ingerunt
ingessit
ingrata
ingrati
ingratis
ingratos
ingratum
ingratus
ingredere
ingrederetur
ingredi
ingrediantur
ingrediar
ingrediatur
ingrediens
ingredientes
ingredietur
ingreditur
ingrediuntur
ingressa
ingressi
ingresso
ingressu
ingressum
ingressus
ingrid
inhabitant
inhabitantem
inhabitantes
inhabitare
inhabitat
inhabitet
inhaereat
inhaerendo
inhaerens
inhaerent
inhaerentes
inhaerentia
inhaerere
inhaeret
inhibemus
inhibere
inhonesta
inhonestum
inibi
iniecit
iniecta
inierunt
iniit
inimica
inimicam
inimici
inimicis
inimicitiae
inimicitiam
inimicitias
inimicitiis
inimico
inimicorum
inimicos
inimicum
inimicus
iniqua
iniquae
iniquam
inique
iniqui
iniquis
iniquitas
iniquitate
iniquitatem
iniquitates
iniquitati
iniquitatibus
iniquitatis
iniquitatum
iniquo
iniquorum
iniquos
iniquum
iniquus
inire
inis
init
inita
initia
initiis
initio
initium
inito
initum
iniuria
iniuriae
iniuriam
iniuriarum
iniurias
iniuriis
iniusta
iniuste
iniustitia
iniustitiam
iniustum
iniustus
injuncta
injuncto
injunctum
injuria
injuriae
injuriam
injuriarum
injurias
injuriis
injusta
injuste
injusti
injustis
injustitia
injustitiae
injustitiam
injustos
injustum
injustus
inlatio
inllr
innata
innititur
innocens
innocentem
innocentes
innocenti
innocentia
innocentiae
innocentiam
innocentibus
innocentii
innocentio
innocentis
innocentium
innocentius
innotescat
innotescere
innotescit
innotuit
innoxium
innuit
innuitur
innumera
innumerabiles
innumerabilia
innumerabilibus
innumerabilis
innumerabilium
innumerae
innumeras
innumeri
innumeris
innumeros
innupta
ino
inobediens
inobedientes
inobedientia
inobedientiae
inobedientiam
inopem
inopes
inopi
inopia
inopiae
inopiam
inopinata
inops
inordinata
inordinate
inordinatum
inpraesentiarum
inprimis
inquam
inquantum
inque
inquiens
inquies
inquietare
inquietudine
inquietudinem
inquirat
inquirendum
inquirentes
inquirere
inquiri
inquirit
inquirunt
inquis
inquisita
inquisitio
inquisitione
inquisitionem
inquisitioni
inquisitionis
inquisitor
inquit
inquiunt
ins
insana
insani
insania
insaniae
insaniam
insanire
insanis
insano
insanum
insanus
inscitia
inscius
inscribitur
inscripsit
inscripta
inscriptio
inscriptione
inscriptionem
inscriptiones
inscriptionibus
inscriptions
inscriptionum
inscriptum
inscriptus
inscrutabilia
insecta
insectorum
insects
insecutus
insedit
inseparabile
inseparabilem
inseparabilis
inseparabiliter
insequenti
insequentibus
insequi
insequitur
insere
inserere
inseri
inserit
inseritur
inserta
insertum
insertus
inseruit
inservire
insidiae
insidiari
insidiarum
insidias
insidiatur
insidiis
insigne
insignem
insignes
insigni
insignia
insignibus
insignis
insigniter
insimul
insinuans
insinuant
insinuare
insinuat
insinuatione
insinuatur
insinuet
insipiens
insipientes
insipientia
insipientiae
insipientiam
insipientibus
insistens
insistentes
insistere
insistit
insistunt
insit
insita
insitum
insolens
insolenter
insolentia
insolentiam
insolita
insolitum
insontem
insontes
inspecta
inspectione
inspectis
inspector
inspectum
inspice
inspicere
inspicit
inspirante
inspirat
inspirata
inspiratione
inspirationem
inspiratus
inspiravit
inst
instabat
instabilis
instans
instant
instante
instanter
instantes
instanti
instantia
instantiae
instantiam
instantibus
instantis
instantius
instar
instare
instaret
instat
instaurare
instigante
instinctu
institit
instituendis
instituerat
instituere
instituerunt
institui
instituimus
instituisse
instituit
instituitur
institut
instituta
institutae
institutam
institute
instituti
institutio
institution
institutione
institutionem
institutiones
institutionibus
institutionis
institutionum
institutis
instituto
institutorum
institutum
institutus
instr
instruat
instructa
instructam
instructi
instructio
instructione
instructionem
instructos
instructum
instructus
instruere
instrui
instruit
instruitur
instrumenta
instrumenti
instrumentis
instrumento
instrumentorum
instrumentum
instruunt
instruxit
insufflavit
insula
insulae
insulam
insularum
insulas
insulis
insultare
insunt
insuper
insurgere
insurgunt
insurrexerunt
int
intacta
intactum
intantum
integer
integra
integrae
integram
integras
integrated
integre
integri
integris
integritas
integritate
integritatem
integritatis
integro
integros
integrum
intellecta
intellectis
intellectiva
intellecto
intellectu
intellectualem
intellectuales
intellectuali
intellectualis
intellectui
intellectum
intellectus
intellegamus
intellegant
intellegas
intellegat
intellegatur
intellegenda
intellegendum
intellegens
intellegentia
intellegentiae
intellegentiam
intellegere
intellegi
intellegimus
intellegis
intellegit
intellegitur
intellego
intellegunt
intelleguntur
intellexerit
intellexerunt
intellexi
intelleximus
intellexisse
intellexit
intelligam
intelligamus
intelligant
intelligantur
intelligas
intelligat
intelligatis
intelligatur
intellige
intelligebant
intelligebat
intelligence
intelligenda
intelligendi
intelligendo
intelligendum
intelligendus
intelligens
intelligentes
intelligentia
intelligentiae
intelligentiam
intelligentibus
intelligere
intelligeremus
intelligerent
intelligeret
intelligeretur
intelliges
intelliget
intelligetis
intelligi
intelligibile
intelligibilem
intelligibiles
intelligibili
intelligibilia
intelligibilis
intelligimus
intelligis
intelligit
intelligite
intelligitis
intelligitur
intelligo
intelligunt
intelliguntur
intemerata
intemperantia
intemperantiam
intempesta
intendant
intendat
intende
intendebat
intendens
intendentes
intendere
intendimus
intendit
intendite
intenditur
intendunt
intenta
intente
intenti
intentio
intentione
intentionem
intentiones
intentionis
intento
intentos
intentum
intentus
inter
interamna
interamnana
intercedente
intercedere
intercedit
intercessione
intercessionem
intercessionibus
intercessit
interdicimus
interdicta
interdicti
interdictis
interdicto
interdictum
interdiu
interdixit
interdum
interea
intereat
interemit
interemptus
intererat
interesse
interesset
interest
interfecerunt
interfecit
interfecta
interfecti
interfectis
interfecto
interfectores
interfectorum
interfectos
interfectum
interfectus
interficere
interficerent
interficeret
interfici
interficiam
interficiat
interficiet
interficit
interficitur
interficiunt
interfuerunt
interfui
interfuisse
interfuit
interiit
interim
interior
interiora
interiore
interiorem
interiores
interiori
interioribus
interioris
interire
interitu
interitum
interitus
interius
interlocutio
intermissione
interna
internae
internam
internarum
international
internationale
internationalem
internationales
internationali
internationalis
internecionem
internet
interni
internis
interno
internum
interpellat
interposita
interpositam
interpositione
interpositis
interposito
interpositum
interpr
interpres
interpretandi
interpretantur
interpretari
interpretati
interpretatio
interpretation
interpretatione
interpretationem
interpretationes
interpretationibus
interpretationis
interpretatum
interpretatur
interpretatus
interprete
interpretem
interpretes
interpretibus
interpretum
interque
interrete
interreti
interretiale
interretialem
interretiales
interretiali
interretialis
interrog
interroga
interrogabant
interrogabat
interrogans
interrogant
interroganti
interrogantibus
interrogare
interrogas
interrogat
interrogata
interrogate
interrogati
interrogatio
interrogatione
interrogationem
interrogationibus
interrogatur
interrogatus
interrogaverunt
interrogavit
interrogemus
interroget
interrogo
interrupta
intersit
intersunt
intervalla
intervallis
intervallo
intervallum
interveniente
intervenientibus
intervenit
interventu
intervici
interview
intestato
intestina
intestinis
intestinum
intima
intimae
intimare
intimatum
intimavit
intimis
intimo
into
intolerabili
intolerabilis
intonat
intonuit
intra
intrabit
intrabunt
intrans
intrant
intrantes
intrare
intraret
intrasse
intrasset
intrat
intraverit
intraverunt
intravit
intrent
intrepidus
intres
intret
intretis
intrinsecus
intro
introducere
introducit
introducta
introductio
introduction
introductum
introductus
introduxit
introibit
introibo
introierunt
introire
introitu
introitum
introitus
introivit
introrsus
intueamur
intuemur
intuendum
intuens
intuentes
intuentibus
intuentur
intueor
intuere
intueri
intuetur
intuitu
intuitum
intuitus
intulerat
intulerit
intulerunt
intulisse
intulit
intus
inuenire
inueniri
inuenit
inuenitur
inueniuntur
inuenta
inuentum
inuentus
inuicem
inuidia
inultum
inundatione
inusitata
inutile
inutilem
inutiles
inutili
inutilia
inutilis
inutiliter
invadere
invaderet
invadit
invadunt
invaluit
invaserat
invaserunt
invasionem
invasit
invectus
invenerat
invenerint
inveneris
invenerit
inveneritis
invenerunt
inveni
inveniam
inveniamur
inveniamus
inveniant
inveniantur
invenias
inveniat
inveniatur
inveniebatur
inveniemus
inveniendi
inveniens
invenient
invenientes
invenies
inveniet
invenietis
invenietur
invenimus
invenio
invenire
invenirent
inveniret
inveniretur
inveniri
invenis
invenisse
invenisset
invenisti
invenit
invenitur
inveniunt
inveniuntur
inventa
inventae
inventam
inventi
inventio
invention
inventione
inventionem
inventionis
inventis
invento
inventor
inventum
inventus
investigabiles
investigare
investigat
investigatio
investigatione
investigationes
investigationis
invexit
invia
invicem
invicta
invicti
invictum
invictus
invida
invident
invidere
invidet
invidi
invidia
invidiae
invidiam
invidit
invidus
inviolabilem
inviolabilis
inviolabiliter
inviolata
invisa
invisibilem
invisibiles
invisibili
invisibilia
invisibilibus
invisibilis
invisibiliter
invisibilium
invisum
invisus
invita
invitare
invitat
invitati
invitatus
invitavit
inviti
invitis
invito
invitos
invitum
invitus
invocabo
invocant
invocantibus
invocare
invocat
invocatione
invocationem
invocato
invocatum
invocavi
invocavit
involuta
involutum
involutus
involvit
io
ioachim
ioachimus
ioan
ioanna
ioanne
ioannem
ioannes
ioanni
ioannis
iob
ioc
ioco
iocos
iocum
ioh
iohanne
iohannem
iohannes
iohanni
iohannis
ion
ionas
ionathan
ionium
ior
iordani
iordanus
ioseph
iosephi
iosepho
iosephum
iosephus
iosue
ioue
iouem
ioui
iouis
iove
iovem
iovi
iovianus
iovis
ip
ipa
ipfi
ipfius
ipni
ipsa
ipsae
ipsam
ipsamque
ipsaque
ipsarum
ipsas
ipse
ipsemet
ipseque
ipsi
ipsique
ipsis
ipsius
ipsiusque
ipso
ipsorum
ipsos
ipsosque
ipsum
ipsumque
ir
ira
iracundia
iracundiae
iracundiam
iracundus
irae
iram
iran
irania
iraniae
iranica
iras
irascatur
irasceris
irasci
irascimini
irascitur
irata
irati
irato
iratum
iratus
ire
ireland
irenaeus
irene
irent
iret
iri
iris
irish
iron
irrationabiliter
irrationale
irrationalis
irrita
irritam
irritum
irrogare
irruens
irruentes
irruentibus
irruerunt
irruit
irrumpere
is
isa
isaac
isaacus
isabella
isabellae
isai
isaia
isaiae
isaiam
isaias
isarae
isbn
isdem
isidori
isidoro
isidorus
isis
islam
islamic
islamica
islamicae
islamus
island
islandia
islandice
islands
isle
ismael
iso
isola
isque
israe
israel
israelem
israeli
israelis
israelita
israelitae
israelitarum
israelitas
israelitis
israhel
issachar
isse
isset
issn
ist
ista
istae
istaec
istam
istarum
istas
iste
isti
istic
istis
istituto
istius
istiusmodi
isto
istorico
istorum
istos
istuc
istud
istum
it
ita
itali
italia
italiae
italiam
italian
italiana
italianae
italiane
italiani
italiano
italianus
italiapedia
italica
italicae
italicas
italice
italici
italicis
italico
italicum
italicus
italie
italis
italo
italorum
italos
italus
italy
itane
itaque
ite
item
itemque
iter
iterare
iterata
iterato
iterum
iterumque
itidem
itinera
itineraria
itinerarium
itinere
itineribus
itineris
itinerum
itis
ito
its
itum
itur
iturum
iturus
iu
iuba
iubar
iube
iubeat
iubebat
iubemus
iubent
iubente
iubentur
iubeo
iubere
iuberet
iubes
iubet
iubetur
iucn
iucunda
iucundius
iucundum
iud
iuda
iudae
iudaea
iudaeae
iudaeam
iudaei
iudaeis
iudaeo
iudaeorum
iudaeos
iudaeus
iudaica
iudaicae
iudaico
iudas
iudex
iudicabit
iudicamus
iudicandi
iudicandum
iudicant
iudicare
iudicaret
iudicari
iudicas
iudicat
iudicatum
iudicatur
iudicatus
iudicavit
iudice
iudicem
iudices
iudicet
iudicetur
iudici
iudicia
iudicibus
iudicii
iudiciis
iudicio
iudiciorum
iudicis
iudicium
iudico
iudicum
iuga
iugera
iugerum
iugi
iugis
iugiter
iugo
iugum
iul
iulia
iuliae
iuliam
iuliani
iuliano
iulianum
iulianus
iulii
iulio
iulium
iulius
ium
iumenta
iumentis
iumentorum
iun
iuncta
iuncti
iunctis
iunctum
iunctus
iungere
iungi
iungit
iungitur
iunguntur
iuni
iunii
iunio
iunior
iuniores
iunius
iuno
iunonem
iunonis
iunxit
iupiter
iuppiter
iura
iurae
iuramento
iuramentum
iurare
iuravit
iure
iureiurando
iurgia
iuri
iuribus
iuris
iurisconsultus
iurisdictio
iurisdictione
iurisdictionem
iurisdictionis
iurisprudentiae
iuro
iurum
ius
iusiurandum
iussa
iusserat
iusserit
iusserunt
iussi
iussimus
iussione
iussionem
iussis
iussisset
iussit
iussu
iussum
iussus
iust
iusta
iustae
iustam
iuste
iusti
iusticia
iusticiam
iustificationem
iustiniani
iustiniano
iustinianus
iustinus
iustis
iustitia
iustitiae
iustitiam
iustius
iusto
iustorum
iustos
iustum
iustus
iuuat
iuuenem
iuuenes
iuuenis
iuvante
iuvare
iuvat
iuvenalis
iuvenem
iuvenes
iuveni
iuvenibus
iuvenis
iuventa
iuventus
iuventute
iuventutem
iuventutis
iuvenum
iuxta
iv
ivan
ivanovna
ivi
ivit
ivo
ix
j
ja
jabai
jac
jacebat
jacens
jacent
jacentem
jacere
jaceret
jacet
jack
jackson
jacob
jacobi
jacobo
jacobum
jacobus
jacques
jacta
jactant
jactantia
jactantiae
jactantiam
jactare
jacturam
jacuit
jacula
jaculis
jah
jahrbuch
jahre
jahrhundert
jahrhunderts
jakarta
jakob
jam
jamdudum
james
jampridem
jamque
jan
jane
janet
janua
januam
januarii
januario
januarium
januarius
january
januas
januis
japan
japanese
japhet
jason
jaume
jay
jazz
je
jean
jefferson
jeffrey
jehu
jejunare
jejunavit
jejunet
jejunia
jejunii
jejuniis
jejunio
jejuniorum
jejunium
jennifer
jer
jerem
jeremia
jeremiae
jeremiam
jeremias
jeremy
jericho
jeroboam
jerosolymam
jerosolymis
jerry
jerusalem
jesse
jesu
jesum
jesus
jewish
jezabel
ji
jim
jn
jo
joa
joab
joachim
joacim
joan
joanne
joannem
joannes
joanni
joannis
joas
job
joe
joel
johan
johann
johanna
johanne
johannem
johannes
johanni
johannis
john
johns
johnson
jon
jona
jonae
jonam
jonas
jonathan
jonathas
jones
joram
jordan
jordane
jordanem
jordanis
jordanus
jorge
jos
josaphat
jose
josef
joseph
josephi
josephus
josiae
josias
josue
journal
journey
jove
jovem
jovis
joyce
jpl
jr
jstor
ju
juan
jubar
jube
jubeas
jubeat
jubeatis
jubemur
jubemus
jubente
jubentis
jubentur
jubeo
jubere
juberet
jubes
jubet
jubetur
jubilate
jubilee
jucunda
jucunditas
jucunditate
jucundum
jud
juda
judae
judaea
judaeae
judaeam
judaei
judaeis
judaeo
judaeorum
judaeos
judaeum
judaeus
judaica
judaicae
judaici
judaico
judaicum
judaicus
judam
judas
judex
judic
judica
judicabit
judicabitur
judicamus
judicandi
judicando
judicandum
judicandus
judicans
judicant
judicantes
judicantis
judicantur
judicare
judicaret
judicari
judicas
judicat
judicata
judicate
judicatis
judicatum
judicatur
judicaturus
judicatus
judicavi
judicavit
judice
judicem
judicent
judicentur
judices
judicet
judicetur
judici
judicia
judiciaria
judicibus
judicii
judiciis
judicio
judiciorum
judicis
judicium
judico
judicum
judith
juga
jugi
jugis
jugiter
jugo
jugum
jul
jules
julia
julian
juliani
juliano
julianum
julianus
julien
julii
julio
julium
julius
july
jumenta
jumentis
jumentorum
jumentum
jun
juncta
juncti
junctis
june
jung
jungatur
junge
jungi
jungit
jungitur
junguntur
junii
junio
junior
juniorem
juniores
junioris
junius
junxit
jupiter
jura
juramenta
juramenti
juramento
juramentum
jurare
jurat
juravi
juravit
jure
jurejurando
jurgia
juri
juribus
juris
jurisdictione
jurisdictionem
jus
jusjurandum
jussa
jusserat
jusserit
jussi
jussimus
jussio
jussione
jussionem
jussionibus
jussionis
jussis
jussisti
jussit
jussu
jussum
jussus
just
justa
justae
justam
juste
justi
justice
justificabitur
justificari
justificat
justificati
justificationem
justificationes
justificationibus
justificatur
justificatus
justificavit
justificeris
justiniani
justinianus
justinus
justis
justissime
justitia
justitiae
justitiam
justitias
justius
justo
justorum
justos
justum
justus
juvante
juvare
juvat
juvenem
juvenes
juvenis
juventus
juventute
juventutem
juventutis
juvenum
juxta
k
ka
kai
kaiser
kaj
kal
kalend
kalendae
kalendarum
kalendas
kalendis
kansiae
kant
karen
karl
karoli
karolus
kazachstania
kazuro
ke
keith
kelly
ken
kenia
kennedy
kenneth
kent
kentukiae
kepler
kevin
key
kg
khan
ki
kim
kin
king
kingdom
kings
kiovia
kioviae
kioviensis
kirby
kirche
kirchenlexikon
kircher
kirk
kirpicznikov
kitami
kl
klaus
klein
kleine
klet
klimii
km
knight
knopf
know
knowledge
known
ko
kobayashi
koch
kohl
kong
konigstulae
konrad
korea
kotapedia
kotavica
kramer
ku
kultur
kunst
kurt
kyoto
kyrie
l
la
laban
labe
labem
labentibus
labes
labi
labia
labiis
labiorum
labitur
labium
labo
labor
laborabant
laborabat
laboramus
laborandum
laborans
laborant
laborantem
laborantes
laboranti
laborantibus
laborantium
laborare
laboraret
laborasse
laborat
laboratis
laboraverunt
laboravi
laboravit
labore
laborem
laborent
labores
laboret
labori
laboribus
laboriosa
laboriosum
laboris
laboro
laborum
labour
labra
labris
labrum
labuntur
lac
lacedaemonii
lacedaemoniis
lacedaemoniorum
lacedaemonios
lacerare
lacertis
lacertos
lacessere
lacrimae
lacrimarum
lacrimas
lacrimis
lacrymae
lacrymarum
lacrymas
lacrymis
lactantius
lacte
lactea
lacticiniis
lactis
lacu
lacubus
lacum
lacuna
lacus
lacuum
lady
laedere
laedi
laedit
laeditur
laelius
laesa
laesae
laesi
laesione
laesionem
laesit
laesus
laeta
laetabitur
laetabuntur
laetamini
laetantes
laetantur
laetare
laetari
laetati
laetatur
laetatus
laetemur
laetentur
laetetur
laeti
laetificat
laetior
laetis
laetitia
laetitiae
laetitiam
laeto
laetos
laetum
laetus
laeva
laevam
laevaque
lago
lai
laici
laicis
laico
laicorum
laicos
laicum
laicus
lake
lam
lama
lamb
lambert
lambertus
lamech
lamenta
lamentis
lamina
laminis
lampade
lampades
lampadibus
lampadii
lampadio
lampas
lana
lanae
lanam
lancastriae
lance
lancea
lanceam
lanceis
land
landarum
lands
lane
lang
langenscheidt
langobardi
langobardia
langobardis
langobardorum
language
languages
langue
languida
languor
languore
languorem
languores
languoribus
languoris
lapide
lapidea
lapideis
lapidem
lapides
lapideum
lapidi
lapidibus
lapidis
lapidum
lapis
lapsa
lapsi
lapsis
lapsos
lapsu
lapsum
lapsus
laquei
laqueis
laqueo
laqueos
laqueum
laqueus
lares
larga
large
largiatur
largiente
largire
largiri
largitas
largitate
largitatem
largitatis
largiter
largitione
largitor
largitur
largitus
largiuntur
largius
largo
largus
larousse
larry
larvae
las
lascivia
lasciviam
lassus
last
lat
lata
latae
latam
latas
late
lateat
latebat
latebras
latebris
latein
lateinisch
lateinischen
latens
latent
latentem
latenter
latentes
lateque
later
latera
lateranense
lateranensi
lateranensis
laterani
latere
lateres
lateret
lateri
lateribus
lateris
laterum
laterza
latet
lati
latibulum
latices
latii
latin
latina
latinae
latinam
latinarum
latinas
latine
latini
latinis
latinitas
latinitate
latinitatis
latino
latinorum
latinos
latinska
latinum
latinus
latio
latior
latis
latissime
latitudine
latitudinem
latitudinis
latitudo
latium
latius
lato
lator
latorem
latreille
latro
latrocinia
latrocinio
latrone
latronem
latrones
latroni
latronibus
latronis
latronum
latuit
latum
latus
lau
lauda
laudabile
laudabilem
laudabiles
laudabili
laudabilis
laudabiliter
laudabit
laudabo
laudabunt
laudamus
laudanda
laudando
laudandum
laudandus
laudans
laudant
laudantes
laudantium
laudantur
laudare
laudari
laudas
laudat
laudata
laudate
laudati
laudatio
laudatis
laudato
laudatum
laudatur
laudatus
laudaverunt
laudavit
laude
laudem
laudemus
laudensis
laudent
laudes
laudet
laudetur
laudi
laudibus
laudis
laudo
laudum
laudunensis
laura
laurae
laurea
laureatus
laurent
laurenti
laurentii
laurentio
laurentium
laurentius
lauri
lauro
laurus
laus
lava
lavacri
lavacro
lavacrum
laval
lavare
lavari
lavat
lavi
lavit
law
lawrence
lazari
lazaro
lazarum
lazarus
lc
ldots
le
leader
leaena
league
learning
leben
lecta
lecti
lectio
lectione
lectionem
lectiones
lectioni
lectionibus
lectionis
lectionum
lectis
lecto
lector
lectorem
lectores
lectori
lectoribus
lectoris
lectorum
lectos
lectulo
lectulum
lectum
lecture
lectures
lectus
ledain
lee
left
leg
legacy
legali
legalibus
legalis
legaliter
legamus
legant
legantur
legas
legat
legata
legati
legatio
legatione
legationem
legationes
legationibus
legationis
legatis
legato
legatorum
legatos
legatum
legatur
legatus
legavit
lege
legebat
legebatur
legem
legend
legenda
legendi
legendo
legendum
legens
legentes
legenti
legentibus
legentis
legentium
legerat
legere
legerentur
legeret
legeretur
legeris
legerit
legerunt
leges
legi
legibus
legimus
legio
legion
legione
legionem
legiones
legionibus
legionis
legionum
legis
legislator
legisse
legisset
legisti
legistis
legit
legite
legitima
legitimae
legitimam
legitimas
legitime
legitimi
legitimis
legitimo
legitimos
legitimum
legitimus
legitur
lego
legum
legumina
legunt
leguntur
leiden
leipzig
lem
lemma
lemov
lemovic
lemovicensi
lemovicensis
lena
lene
leni
lenin
leninopoli
lenis
lenitate
lenitatem
lenitatis
leniter
lenius
leno
lenta
lente
lento
lentulo
lentulus
lentus
leo
leodegarii
leodiensis
leon
leonard
leonardi
leonardo
leonardus
leone
leonem
leones
leoni
leonibus
leonidas
leonis
leontio
leontius
leonum
leopold
leopoldi
leopoldus
lepidi
lepido
lepidoptera
lepidum
lepidus
lepore
leporem
lepores
lepra
leprae
lepram
leprosi
leprosus
lepus
les
leslie
lesson
let
leti
leto
letter
lettere
letters
lettonia
lettres
letum
leucensis
leui
leuis
leur
lev
leva
levant
levare
levat
levate
levatus
levavi
levavit
leve
level
levem
leves
levi
levia
leviathan
levibus
levior
leviora
levioribus
levis
levit
levita
levitae
levitarum
levitas
levitate
levitatem
levitatis
leviter
levitico
levitis
levius
lewis
lex
lexico
lexicon
lexikon
lez
li
lia
liae
liam
lib
libamina
libani
libano
libanum
libanus
libeat
libell
libelli
libellis
libello
libellorum
libellos
libellum
libellus
libens
libenter
libenti
libentissime
libentius
liber
libera
liberabit
liberabitur
liberae
liberal
liberalem
liberales
liberali
liberalibus
liberalis
liberalitas
liberalitate
liberalitatem
liberalitatis
liberaliter
liberalium
liberam
liberandum
liberantur
liberare
liberaret
liberaretur
liberari
liberas
liberasti
liberat
liberata
liberati
liberatio
liberatione
liberationem
liberationis
liberator
liberatos
liberatum
liberatur
liberatus
liberaverit
liberavit
libere
liberemur
liberentur
liberet
liberetur
liberi
liberior
liberis
liberius
libero
liberorum
liberos
libertas
libertate
libertatem
libertates
libertati
libertatibus
libertatis
liberti
libertis
libertus
liberty
liberum
libet
libidine
libidinem
libidines
libidini
libidinibus
libidinis
libidinum
libido
libitu
libitum
libr
libra
librae
libram
librarum
library
libras
libre
libri
libris
libro
librorum
libros
librum
libuerit
libuit
liburia
libya
libyae
libyam
liceat
licebat
licebit
licent
licenter
licentia
licentiae
licentiam
licentius
licere
liceret
licet
licinio
licinius
licita
licite
licitis
licitum
lictor
licuerit
licuisset
licuit
liderici
lie
lieu
lieux
life
liga
ligandi
ligare
ligari
ligat
ligata
ligatis
ligatum
ligatur
ligatus
ligaveris
ligavit
liger
ligerim
ligeris
ligerulae
light
ligna
lignea
ligneis
ligneum
ligni
lignis
ligno
lignorum
lignum
ligures
liguria
ligurum
ligusticum
lii
liii
like
lilia
lilium
lim
lima
limae
limen
limes
limina
limine
liminibus
limite
limitem
limites
limitibus
limitis
limo
limus
lin
lincoln
linda
line
linea
lineae
lineam
lineamenta
linearum
lineas
lineis
lingua
linguae
linguam
linguarum
linguas
lingue
linguis
linguista
linguistic
linguistica
linguisticae
linguistics
linguæ
lini
link
linnaeo
linnaeus
lino
linquere
linteo
linteum
linum
linus
lio
lion
lips
lipsiae
liquamen
liquet
liquida
liquido
liquidum
liquor
liquore
liquorem
liquoris
lirica
lis
lisa
lisaire
list
lit
litaniae
lite
litem
literae
literarum
literary
literas
literatur
literature
literis
lites
litibus
litigare
litis
litium
litora
litoralis
litore
litoribus
litoris
litorum
litt
litte
littera
litterae
litteram
litteraria
litterarum
litteras
litteraturae
litteris
litteræ
little
littora
littore
littus
lituania
lituaniae
liturgia
liturgiae
litus
liu
lium
lius
liv
live
lives
livii
living
livio
livius
livor
livore
livoris
livre
lix
ll
lla
ller
llorenc
lloyd
ln
lo
loc
loca
local
localem
locali
localis
localiter
locare
locat
locata
locatum
locatus
locavit
loci
locis
loco
locorum
locos
locum
locumque
locuples
locupletes
locus
locusta
locustae
locuta
locuti
locutio
locutione
locutionem
locutiones
locutionis
locutionum
locutum
locuturus
locutus
locutusque
loeb
logic
logica
logicae
logicam
logos
loire
londini
londiniensis
londinii
londinio
londinium
londinum
london
long
longa
longae
longam
longas
longe
longeque
longi
longinqua
longinquam
longinquis
longinquo
longinus
longior
longiore
longiorem
longiores
longis
longissima
longissime
longissimum
longitudine
longitudinem
longitudinis
longitudo
longius
longman
longo
longobardorum
longos
longum
longus
loqua
loquacitate
loquamini
loquamur
loquantur
loquar
loquaris
loquatur
loquebantur
loquebar
loquebatur
loquela
loquendi
loquendo
loquendum
loquens
loquente
loquentem
loquentes
loquenti
loquentibus
loquentis
loquentium
loquentur
loquere
loquerentur
loqueretur
loqueris
loquetur
loqui
loquimini
loquimur
loquitur
loquor
loquuntur
lora
lord
lorenzo
lorica
loricam
loris
loro
los
losarae
lost
lot
lota
loth
lotharii
lotharingia
lotharingiae
lothario
lotharium
lotharius
lotis
lotus
louis
louise
louisiana
lovaniensis
lovanii
love
low
lowell
lower
ls
ltd
lu
lua
lubens
lubet
lubrica
lubrico
lubricum
luc
luca
lucae
lucam
lucania
lucanus
lucas
luce
luceant
luceat
lucem
lucens
lucensis
lucent
lucere
lucerna
lucernae
lucernam
lucernas
lucet
luci
lucia
luciae
luciani
luciano
lucianus
lucida
lucidum
lucifer
luciferum
lucii
lucilium
lucilius
lucina
lucio
lucis
lucium
lucius
luco
lucos
lucra
lucrari
lucratus
lucretia
lucretius
lucretur
lucri
lucris
lucro
lucrum
luctu
luctum
luctus
luculenter
lucullus
lucum
lucus
lud
ludens
ludere
ludi
ludibria
ludibrio
ludibrium
ludicra
ludis
ludit
ludmila
ludo
ludorum
ludos
ludovica
ludovici
ludovicianae
ludovico
ludovicum
ludovicus
ludum
ludunt
ludus
ludwig
lues
lugdunensi
lugdunensis
lugduni
lugduno
lugdunum
lugens
lugent
lugentes
lugere
luget
lui
luigi
luis
luit
lum
lumbi
lumbis
lumbos
lumen
lumina
luminare
luminaria
luminaribus
lumine
lumini
luminibus
luminis
luminum
luna
lunae
lunam
lunares
lunari
lunaris
lundstro
luneburgensis
lunæ
lupanar
lupi
lupiensi
lupis
lupo
luporum
lupos
lupum
lupus
lus
lusice
lusit
lusitana
lusitane
lusitania
lusitaniae
lusitanice
lusitanus
lusor
lusores
lustra
lusus
lutetia
lutetiae
lutetiam
luther
lutheranismus
lutheri
lutherus
luti
luto
lutum
lutz
lux
luxemburgi
luxemburgum
luxit
luxu
luxum
luxuria
luxuriae
luxuriam
luxus
lv
lvi
lvii
lviii
lx
lxi
lxii
lxiii
lxiv
lxix
lxv
lxvi
lxvii
lxviii
lxx
lxxi
lxxii
lxxiii
lxxiv
lxxix
lxxv
lxxvi
lxxvii
lxxviii
lxxx
lxxxi
lxxxii
lxxxiii
lxxxiv
lxxxix
lxxxv
lxxxvi
lxxxvii
lxxxviii
ly
lycaenidae
lydia
lynn
lyon
lyra
lyrica
lyrici
lys
lysons
lyudmila
lætitia
m
ma
mab
mabill
mabillonius
mac
macarii
macarius
macdonald
macedones
macedonia
macedoniae
macedoniam
macedonibus
macedonum
macerata
maceria
maceriae
machabaeorum
machina
machinae
machinam
machinamenta
machinarum
machinas
machinator
machine
machinis
macmillan
macrinus
macrobius
macropus
macula
maculae
maculam
maculas
maculis
madagascaria
madame
made
madian
madison
madonna
madrid
mae
maecenas
maerore
maesta
mag
magazine
magdalena
magdalenae
magdalene
mage
magi
magia
magic
magica
magicae
magicis
magis
magisque
magister
magisterii
magisterio
magisterium
magistra
magistram
magistratibus
magistratu
magistratum
magistratus
magistratuum
magistri
magistris
magistro
magistrorum
magistros
magistrum
magna
magnae
magnalia
magnam
magnanimus
magnaque
magnarum
magnas
magne
magnes
magni
magnifica
magnificat
magnificavit
magnifice
magnificentia
magnificentiam
magnificentissimo
magnifici
magnificis
magnifico
magnificum
magnificus
magnis
magnisque
magnitudine
magnitudinem
magnitudines
magnitudini
magnitudinis
magnitudo
magno
magnolia
magnoliophyta
magnoliopsida
magnopere
magnoque
magnorum
magnos
magnum
magnus
mago
magorum
magos
magum
magus
mahometus
mai
maia
maias
maier
maiestas
maiestate
maiestatem
maiestati
maiestatis
maii
main
maio
maior
maiora
maiore
maiorem
maiores
maiori
maioribus
maioris
maiorum
mais
maison
maius
maj
majestas
majestate
majestatem
majestati
majestatis
major
majora
majore
majorem
majores
majori
majoribus
majoris
majorum
majus
make
making
mal
mala
malach
malae
malaesia
malam
malarum
malas
malcolm
male
maledicere
maledici
maledicta
maledicti
maledictio
maledictione
maledictionem
maledictionis
maledictis
maledicto
maledictum
maledictus
malefica
maleficarum
malefici
maleficia
maleficio
maleficis
maleficium
maleficorum
maleficos
mali
malicia
maligna
malignantium
maligni
malignis
malignitate
malignitatis
maligno
malignorum
malignos
malignum
malignus
malim
malis
malit
malitia
malitiae
malitiam
malitiose
malle
mallem
mallent
malleo
mallet
malleus
malo
malorum
malos
maluerint
maluerit
malueritis
maluerunt
malui
maluit
malum
malunt
malus
mam
mammal
mammalia
mammaliaformes
mammalium
mammals
mammona
man
management
manager
manare
manasse
manasses
manat
manavit
manchester
mancipati
mancipia
mancipiis
mancipium
mandamus
mandans
mandantes
mandare
mandasse
mandasti
mandat
mandata
mandati
mandatis
mandato
mandatorum
mandatum
mandatur
mandaverat
mandavi
mandavimus
mandavit
mando
manduca
manducandum
manducant
manducare
manducat
manducaverit
manducaverunt
manducavit
manducet
mane
maneant
maneat
manebant
manebat
manebit
manens
manent
manente
manentem
manentes
manentibus
manere
manerent
maneret
manes
manet
manete
manfred
manfredus
manibus
manibusque
manicae
manichaei
manichaeis
manichaeo
manichaeorum
manichaeos
manichaeum
manichaeus
manifesta
manifestae
manifestam
manifestare
manifestari
manifestat
manifestata
manifestatio
manifestatione
manifestationem
manifestatum
manifestatur
manifestavit
manifeste
manifestetur
manifesti
manifestis
manifestissime
manifestius
manifesto
manifestum
manifestus
manila
manilius
manipulos
manius
manlio
manlius
mann
manna
manning
mans
manserit
manserunt
mansi
mansio
mansione
mansionem
mansiones
mansionibus
mansis
mansisse
mansit
mansos
mansueti
mansuetudine
mansuetudinem
mansuetudinis
mansuetudo
mansuetus
mansum
mansura
mansurum
mantua
mantuana
manu
manual
manuel
manum
manus
manuscripta
manuscriptis
manuscripto
manuscripts
manuscriptum
manusque
manuum
many
map
maps
mar
mara
maranum
marc
marca
marcel
marcelli
marcellini
marcellino
marcellinus
marcello
marcellum
marcellus
march
marche
marchia
marchio
marchionis
marci
marciani
marciano
marcianus
marcion
marcius
marco
marcum
marcus
mare
marem
mares
marg
margalef
margaret
margareta
margarita
margaritae
margaritam
margaritas
margaritis
margine
marginem
mari
maria
mariae
mariam
mariana
marianus
maribus
mariculi
marie
marii
marina
marinae
marine
marini
marinis
marino
marinorum
marinum
marinus
mario
marion
mariotti
marique
maris
mariti
maritima
maritimae
maritimam
maritimarum
maritimi
maritimis
maritimum
maritimus
maritis
marito
maritos
maritum
maritus
marium
marius
marix
mariæ
mark
market
markets
marmor
marmora
marmore
marne
maro
marocum
maronis
mars
marshall
marsupialia
marsupialium
mart
marte
martem
martha
marthae
marthe
marti
martia
martialis
martias
martii
martiis
martin
martini
martino
martinum
martinus
martio
martis
martium
martius
martyr
martyre
martyrem
martyres
martyri
martyria
martyribus
martyrii
martyrio
martyris
martyrium
martyrum
marx
mary
marzo
mas
masc
masculi
masculina
masculini
masculino
masculinum
masculos
masculum
masculus
maso
mason
maspero
mass
massa
massachusetta
massachusettae
massachusetts
massae
massam
masseria
massilia
massiliae
massiliam
massiliensi
massiliensis
massimo
master
mat
mata
mater
materia
materiae
materiale
materialem
materiales
materiali
materialis
materialiter
materiam
materias
materie
materiem
materies
materiis
materna
maternae
materni
maternis
materno
maternum
mathbb
mathbf
mathematica
mathematicae
mathematical
mathematici
mathematicis
mathematics
mathematicus
mathildis
mathrm
matre
matrem
matres
matri
matribus
matricis
matrimonia
matrimonii
matrimonio
matrimonium
matris
matriti
matritum
matrix
matrona
matronae
matronam
matronarum
matrum
matt
matth
matthaei
matthaeo
matthaeum
matthaeus
matthew
matthias
matura
mature
maturitate
maturitatem
maturitatis
maturius
maturum
matutina
matutinis
matutino
matutinum
mauri
maurice
mauricii
mauricio
mauricius
maurini
mauris
mauritania
mauritaniae
mauritii
mauritius
mauro
maurorum
mauros
maurus
mausoleum
mavis
mavult
max
maxdubium
maxentii
maxentius
maxilla
maxillam
maxim
maxima
maximae
maximam
maximarum
maximas
maxime
maximeque
maximi
maximiani
maximiano
maximianum
maximianus
maximiliani
maximiliano
maximilianus
maximini
maximinus
maximis
maximo
maximorum
maximos
maximum
maximus
maxume
may
mayer
mayor
mayr
mc
mcgraw
mckenna
mcmlxviii
md
mdcccliv
mdccclix
me
mea
mead
meae
meam
meaning
mearum
meas
meatu
meatus
mechanica
mechanicae
mecum
med
medal
medardi
medea
medela
medelam
medendi
mederi
medetur
medi
media
mediae
mediaevali
mediaevalis
mediam
mediante
mediantibus
medias
mediator
mediatore
mediatorem
mediatoris
medica
medicae
medical
medicamenta
medicamentis
medicamento
medicamentorum
medicamentum
medicamina
medicamine
medices
medici
medicina
medicinae
medicinam
medicine
medicis
medico
medicorum
medicos
medicum
medicus
medietas
medietate
medietatem
medieval
medii
mediis
medina
medio
mediocre
mediocrem
mediocres
mediocri
mediocribus
mediocris
mediocriter
mediolanensem
mediolanenses
mediolanensi
mediolanensis
mediolanensium
mediolani
mediolano
mediolanum
mediorum
medios
meditabitur
meditari
meditati
meditatio
meditatione
meditationem
meditationes
meditatur
meditatus
mediterranea
mediterranean
mediterranei
mediterraneo
mediterraneum
medium
medius
medorum
medos
meduanae
medulla
medullam
medullas
medullis
mee
mehercule
mehercules
mei
mein
meipso
meipsum
meis
mel
mela
melchior
melchisedech
melicope
melior
meliora
meliore
meliorem
meliores
meliori
melioribus
melioris
meliorum
melissa
melita
melius
mella
melle
mellis
melos
mem
member
membra
membrana
membri
[...]
