!
"
#
##0
##1
##10
##11
##12
##13
##14
##15
##16
##17
##18
##19
##2
##20
##21
##22
##23
##24
##25
##26
##27
##28
##29
##3
##30
##31
##32
##33
##34
##35
##36
##37
##38
##39
##4
##40
##41
##42
##43
##44
##45
##46
##47
##48
##49
##5
##50
##51
##52
##53
##54
##55
##56
##57
##58
##59
##6
##60
##61
##62
##63
##64
##65
##66
##67
##68
##69
##7
##70
##71
##72
##73
##74
##75
##76
##77
##78
##79
##8
##80
##81
##82
##83
##84
##85
##86
##87
##88
##89
##9
##90
##91
##92
##93
##94
##95
##96
##97
##98
##99
$
%
&
'
(
)
*
+
,
-
.
/
0
00
000
001
002
003
004
01
013
017
02
020
021
023
03
04
040
05
050
06
07
072
08
080
083
086
087
089
09
090
096
1
10
100
1000
1001
1002
1003
1004
1005
1006
1007
1008
1009
101
1010
1011
1012
1013
1014
1015
1016
1017
1018
1019
102
1020
1021
1022
1023
1024
1025
1026
1027
1028
1029
103
1030
1031
1032
1033
1034
1035
1036
1037
1038
1039
104
1040
1041
1042
1043
1044
1045
1046
1047
1048
105
1050
1051
1052
1053
1054
1055
1056
1057
1058
1059
106
1060
1061
1063
1065
1066
1067
1068
107
1070
1071
1072
1073
1074
1075
1076
1077
1078
1079
108
1080
1081
1084
1085
1086
1087
1088
1089
109
1090
1093
1094
1095
1096
1097
1098
1099
11
110
1100
1101
1102
1103
1104
1105
1106
1107
1108
1109
111
1110
1111
1112
1113
1114
1115
1116
1117
1118
1119
112
1120
1121
1122
1123
1124
1125
1126
1127
113
1130
1131
1132
1133
1134
1135
1136
1137
1138
1139
114
1140
1141
1142
1143
1144
1145
1146
1147
1148
1149
115
1150
1151
1152
1153
1154
1155
1156
1157
1158
1159
116
1160
1165
117
1170
1175
1176
1177
1179
118
1180
1181
1182
1183
1184
1185
1186
1187
1188
1189
119
1190
1191
1192
1194
1195
1197
1198
1199
12
120
1200
1202
1203
1204
1205
1206
1207
1208
1209
121
1210
1211
1212
1213
1214
1215
1216
1217
1218
1219
122
1220
1223
1225
1226
1227
123
1230
1231
1234
1235
1237
124
1240
1241
1245
125
1250
1253
1254
126
1260
1261
1265
1266
127
1270
1274
1275
1276
1277
128
1280
1285
129
1290
1291
13
130
1300
1305
131
132
1325
1326
133
1330
134
1340
1342
1348
1349
135
1350
1355
136
137
1370
1371
1377
1378
138
1380
139
1390
14
140
1400
141
1410
1415
142
143
1430
1431
144
1440
145
1450
1453
1458
146
1460
1469
147
1470
1471
1474
1475
1477
1478
1479
148
1480
1483
1484
1485
149
1490
1492
1493
1494
1495
1497
1498
1499
15
150
1500
1501
1502
1503
1504
1505
1506
1507
1508
1509
151
1510
1511
1512
1513
1514
1515
1516
1517
1518
1519
152
1520
1521
1522
1523
1524
1525
1526
1527
1528
1529
153
1530
1531
1532
1533
1534
1535
1536
1537
1538
1539
154
1540
1541
1542
1543
1544
1545
1546
1547
1548
1549
155
1550
1551
1552
1553
1554
1555
1556
1557
1558
1559
156
1560
1561
1562
1563
1564
1565
1566
1567
1568
1569
157
1570
1571
1572
1573
1574
1575
1576
1577
1578
1579
158
1580
1581
1582
1583
1584
1585
1586
1587
1588
1589
159
1590
1591
1592
1593
1594
1595
1596
1597
1598
1599
16
160
1600
1601
1602
1603
1604
1605
1606
1607
1608
1609
161
1610
1611
1612
1613
1614
1615
1616
1617
1618
1619
162
1620
1621
1622
1623
1624
1625
1626
1627
1628
1629
163
1630
1631
1632
1633
1634
1635
1636
1637
1638
1639
164
1640
1642
1643
1644
1645
1646
1647
1648
1649
165
1650
1651
1652
1653
1654
1655
1656
1657
1658
1659
166
1660
1661
1662
1663
1664
1665
1666
1667
1668
1669
167
1670
1671
1672
1673
1674
1675
1676
1677
1678
1679
168
1680
1681
1682
1683
1684
1685
1686
1687
1688
1689
169
1690
1691
1692
1693
1694
1695
1696
1697
1698
1699
17
170
1700
1701
1702
1703
1704
1705
1706
1707
1708
1709
171
1710
1711
1712
1713
1714
1715
1716
1717
1718
1719
172
1720
1721
1722
1723
1724
1725
1726
1727
1728
1729
173
1730
1731
1732
1733
1734
1735
1736
1737
1738
1739
174
1740
1741
1742
1743
1744
1745
1746
1747
1748
1749
175
1750
1751
1752
1753
1754
1755
1756
1757
1758
1759
176
1760
1761
1762
1763
1764
1765
1766
1767
1768
1769
177
1770
1771
1772
1773
1774
1775
1776
1777
1778
1779
178
1780
1781
1782
1783
1784
1785
1786
1787
1788
1789
179
1790
1791
1792
1793
1794
1795
1796
1797
1798
1799
18
180
1800
1801
1802
1803
1804
1805
1806
1807
1808
1809
181
1810
1811
1812
1813
1814
1815
1816
1817
1818
1819
182
1820
1821
1822
1823
1824
1825
1826
1827
1828
1829
183
1830
1831
1832
1833
1834
1835
1836
1837
1838
1839
184
1840
1841
1842
1843
1844
1845
1846
1847
1848
1849
185
1850
1851
1852
1853
1854
1855
1856
1857
1858
1859
186
1860
1861
1862
1863
1864
1865
1866
1867
1868
1869
187
1870
1871
1872
1873
1874
1875
1876
1877
1878
1879
188
1880
1881
1882
1883
1884
1885
1886
1887
1888
1889
189
1890
1891
1892
1893
1894
1895
1896
1897
1898
1899
19
190
1900
1901
1902
1903
1904
1905
1906
1907
1908
1909
191
1910
1911
1912
1913
1914
1915
1916
1917
1918
1919
192
1920
1921
1922
1923
1924
1925
1926
1927
1928
1929
193
1930
1931
1932
1933
1934
1935
1936
1937
1938
1939
194
1940
1941
1942
1943
1944
1945
1946
1947
1948
1949
195
1950
1951
1952
1953
1954
1955
1956
1957
1958
1959
196
1960
1961
1962
1963
1964
1965
1966
1967
1968
1969
197
1970
1971
1972
1973
1974
1975
1976
1977
1978
1979
198
1980
1981
1982
1983
1984
1985
1986
1987
1988
1989
199
1990
1991
1992
1993
1994
1995
1996
1997
1998
1999
2
20
200
2000
2001
2002
2003
2004
2005
2006
2007
2008
2009
201
2010
2011
2012
2013
2014
2015
2016
2017
2018
2019
202
2020
2021
2022
203
204
205
206
207
208
209
21
210
211
212
213
214
215
216
217
218
219
22
220
221
222
223
224
225
226
227
228
229
23
230
2307
231
232
233
234
235
236
237
238
239
24
240
241
242
243
244
245
246
247
248
249
25
250
251
252
253
254
255
256
257
258
259
26
260
261
262
263
264
265
266
267
268
269
27
270
271
272
273
274
275
276
277
278
279
28
280
281
282
283
284
285
286
287
288
289
29
290
291
292
293
294
295
296
297
298
299
3
30
300
3000
301
302
303
304
305
306
307
308
309
31
310
311
312
313
314
315
316
317
318
319
32
320
321
322
323
324
325
326
327
328
329
33
330
331
332
333
334
335
336
337
338
339
34
340
341
342
343
344
345
346
347
348
349
35
350
351
352
353
354
355
356
357
358
359
36
360
361
362
363
364
365
366
367
368
369
37
370
371
372
373
374
375
376
377
378
379
38
380
381
382
383
384
385
386
387
388
389
39
390
391
392
393
394
395
396
397
398
399
4
40
400
4000
401
402
403
404
405
406
407
408
409
41
410
411
412
413
414
415
416
417
418
419
42
420
421
422
423
424
425
426
427
428
429
43
430
431
432
433
434
435
436
437
438
439
44
440
441
442
443
444
445
446
447
448
449
45
450
451
452
453
454
455
456
457
458
459
46
460
461
462
463
464
465
466
467
468
469
47
470
471
472
473
474
475
476
477
478
479
48
480
481
482
483
484
485
486
487
488
489
49
490
491
492
493
494
495
496
497
498
499
5
50
500
5000
501
502
503
504
505
506
507
508
509
51
510
511
512
513
514
515
516
517
518
519
52
520
521
522
523
524
525
526
527
528
529
53
530
531
532
533
534
535
536
537
538
539
54
540
541
542
543
544
545
546
547
548
549
55
550
551
552
553
554
555
556
557
558
559
56
560
561
562
563
564
565
566
567
568
569
57
570
571
572
573
574
575
576
577
578
579
58
580
581
582
583
584
585
586
587
588
589
59
590
591
592
593
594
595
596
597
598
599
6
60
600
601
602
603
604
605
606
607
608
609
61
610
612
613
614
615
616
617
618
619
62
620
621
622
623
624
625
626
627
628
629
63
630
631
632
633
634
635
636
638
639
64
640
641
642
643
645
646
65
650
651
652
653
654
655
656
658
659
66
660
661
663
664
665
668
67
670
671
672
673
674
675
676
679
68
680
684
685
687
688
69
690
691
695
697
7
70
700
701
703
704
705
706
707
708
709
71
710
711
713
715
718
72
720
721
725
73
730
731
735
74
740
741
743
745
75
750
751
753
755
76
760
765
768
77
770
774
775
779
78
780
781
785
788
789
79
790
792
794
795
796
8
80
800
8018
803
805
809
81
810
811
814
815
817
82
820
825
83
830
832
835
84
840
845
85
850
855
86
860
862
863
864
865
866
867
87
870
875
876
877
878
879
88
880
881
882
89
890
9
90
900
902
905
909
91
910
912
915
92
920
924
925
93
930
94
95
950
96
960
965
97
970
975
978
98
980
99
:
;
<
=
>
?
@
\
^
_
`
a
aa
aaa
aaron
aas
aavv
ab
abate
abba
abbas
abbate
abbatem
abbates
abbati
abbatia
abbatiae
abbatiam
abbatibus
abbatis
abbatissa
abbatissae
abbatissam
abbatum
abbaye
abbreviatur
abc
abd
abdicare
abdicavit
abdita
abditis
abdito
abducere
abduxit
abecedario
abecedarium
abel
abellinati
aberat
abesse
abesset
abest
abeunt
abeuntes
abhinc
abhorret
abi
abia
abiens
abiero
abierunt
abies
abii
abiit
abimelech
abire
abiret
abiron
abit
abjecit
abjecta
abjectus
abjicere
ablata
ablatas
ablatis
ablativo
ablativus
ablato
ablatum
ablatus
abluat
abluit
abluti
abneget
abner
abnuit
abolere
aboleri
abolita
abominatio
abominationem
abominationes
about
above
abr
abrahae
abraham
abrahamus
abram
abrogata
abrogatae
abrogatam
abrupta
abruzzo
abs
absalom
absalon
abscedere
abscessit
abscidit
abscondat
abscondere
absconderunt
abscondi
abscondisti
abscondit
abscondita
absconditi
abscondito
absconditum
absconditur
absconditus
absens
absente
absentem
absentes
absenti
absentia
absentiae
absentiam
absentibus
absentis
absentium
absit
absoluta
absolutae
absolutam
absolute
absoluti
absolutio
absolutione
absolutionem
absolutionis
absolutis
absoluto
absolutos
absolutum
absolutus
absolvat
absolvere
absolvi
absolvimus
absolvit
absolvitur
absorbuit
absorpta
absque
abstineant
abstineat
abstinendum
abstinens
abstinent
abstinentes
abstinentia
abstinentiae
abstinentiam
abstinere
abstinet
abstinuit
abstracta
abstracto
abstractum
abstrahere
abstrahit
abstulerat
abstulerit
abstulerunt
abstulisse
abstulit
absunt
absurda
absurde
absurdum
abu
abundans
abundant
abundanter
abundantes
abundanti
abundantia
abundantiam
abundantius
abundare
abundaret
abundat
abundavit
abunde
abundet
abusive
abusus
abuti
abyssi
abysso
abyssum
abyssus
ac
acacia
acacium
acacius
acade
academia
academiae
academiam
academic
academica
academici
academicis
academicos
academicus
academy
acc
accademia
accedamus
accedant
accedat
accede
accedebat
accedens
accedente
accedentes
accedentibus
accedere
accederent
accederet
accedet
accedit
accedite
accedunt
accendat
accendere
accendi
accendit
accenditur
accendunt
accensa
accensi
accensis
accensus
accentus
acceperant
acceperat
accepere
acceperint
acceperis
acceperit
acceperunt
accepi
accepimus
accepisse
accepissent
accepisset
accepisti
accepistis
accepit
accepta
acceptabile
acceptae
acceptam
acceptas
accepti
acceptio
acceptione
acceptionem
acceptis
accepto
acceptum
accepturi
accepturus
acceptus
accesserat
accesserit
accesserunt
accessi
accessio
accessisse
accessissent
accessisset
accessit
accessu
accessum
accessus
accidat
accidens
accidentalis
accidente
accidenti
accidentia
accidentibus
accidentis
accidentium
acciderat
accidere
accideret
acciderit
acciderunt
accidisse
accidisset
accidit
accidunt
accincti
accinctus
accingere
accipe
accipere
acciperent
acciperet
accipi
accipiam
accipiamus
accipiant
accipiantur
accipias
accipiat
accipiatur
accipiebant
accipiebat
accipienda
accipiendam
accipiendi
accipiendo
accipiendum
accipiens
accipient
accipientes
accipientis
accipies
accipiet
accipietis
accipimus
accipio
accipis
accipit
accipite
accipiter
accipitis
accipitur
accipiunt
accipiuntur
accola
accommodare
accommodata
account
accurate
accuratius
accurrit
accus
accusandi
accusant
accusare
accusari
accusas
accusat
accusati
accusatio
accusatione
accusationem
accusationes
accusationis
accusativo
accusativum
accusativus
accusator
accusatore
accusatorem
accusatores
accusatoribus
accusatum
accusatur
accusatus
accusavit
accuset
acer
acerba
acerbam
acerbitate
acerbius
acerbum
acerrime
acerrimus
acervum
acervus
aceti
aceto
acetum
achab
achaia
achaiae
achaz
achille
achillem
achilles
achillis
achis
acida
acidi
acidum
acie
aciem
acies
acleris
acmaeodera
acolythi
acquiescere
acquievit
acquirat
acquirere
acquiri
acquirit
acquiritur
acquisita
acquisivit
acraea
acre
acres
acri
acrior
acris
acriter
acrius
act
acta
actae
actam
actes
acti
actibus
actio
action
actione
actionem
actiones
actioni
actionibus
actionis
actionum
actis
actiua
actiuum
activa
activae
activam
activista
activum
acto
actor
actores
actoribus
actoris
actorum
actrix
actu
actualis
actum
acturi
acturus
actus
actutum
actuum
acu
aculeis
aculeos
aculeus
acumen
acumine
acus
acuta
acutae
acute
acuti
acutis
acuto
acutum
acutus
ad
ada
adae
adam
adami
adams
adamus
add
adda
addam
addas
addat
addatur
adde
addenda
addendo
addendum
addens
addentes
addere
adderet
addi
addicti
addictus
addiderunt
addidit
addimus
addis
addiscere
addit
addita
additae
additamento
additio
additione
additis
addito
additum
additur
additus
addo
adducam
adducat
adducere
adducet
adduci
adducit
adducitur
adducta
adducti
adductus
adducunt
addunt
adduntur
adduxerat
adduxerunt
adduxit
adeat
ademit
adempta
adenauer
adeo
adeodatus
adeoque
adepta
adepti
adeptum
adeptus
aderant
aderat
aderit
ades
adesse
adessent
adesset
adest
adesto
adeunt
adfectus
adferre
adfert
adfirmat
adfuerunt
adfuit
adgressus
adhaereat
adhaerebit
adhaerens
adhaerent
adhaerentes
adhaerere
adhaeret
adhaeserunt
adhaesit
adhibeat
adhibeatur
adhibebatur
adhibenda
adhibent
adhibentur
adhibere
adhiberi
adhibet
adhibetur
adhibita
adhibitae
adhibitis
adhibito
adhibitum
adhibitus
adhibuit
adhuc
adiacens
adiacet
adicit
adiecit
adiect
adiecta
adiectiva
adiectivo
adiectivum
adiecto
adiit
adimit
adimplere
adimpleri
adinvicem
adipe
adipem
adipisci
adire
adit
aditu
aditum
aditus
adiuncta
adiunctis
adiunctum
adiunctus
adiungere
adiungit
adiungitur
adiunxit
adiutor
adiutorem
adiutores
adiutorio
adiutorium
adiutus
adiuvante
adiuvare
adiuvat
adiuvet
adiuvit
adjacentibus
adjacentiis
adjacet
adjecit
adject
adjecta
adjiciens
adjicientes
adjuncta
adjunctis
adjunctum
adjungere
adjungit
adjungitur
adjunxit
adjuti
adjutor
adjutorem
adjutores
adjutorio
adjutorium
adjutus
adjuva
adjuvante
adjuvare
adjuvari
adjuvat
adjuvet
adminiculo
adminiculum
administer
administerio
administerium
administrabat
administrare
administrat
administratio
administratione
administrationem
administrationes
administrationi
administrationis
administrativa
administrativae
administrator
administratur
administravit
administri
admirabile
admirabilem
admirabili
admirabilis
admiranda
admirans
admirantes
admirari
admirati
admiratio
admiratione
admirationem
admirationis
admiratus
admiror
admiserit
admisit
admissa
admissi
admissis
admisso
admissum
admissus
admittantur
admittat
admittatur
admittere
admitti
admittit
admittitur
admittunt
admittuntur
admodum
admoneat
admonemur
admonemus
admonendi
admonens
admonent
admoneo
admonere
admoneri
admonet
admonetur
admoniti
admonitio
admonitione
admonitionem
admonitionis
admonitus
admonuit
admota
adnotatio
adnotationes
adolescens
adolescentem
adolescentes
adolescentia
adolescentiae
adolescentibus
adolescentis
adolevit
adolf
adolfus
adolphe
adolphi
adolpho
adolphus
adonai
adonis
adoptatus
adoptavit
adoptio
adoptione
adoptionem
adoptionis
adoptivum
adoptivus
adorabis
adorabunt
adoramus
adorandum
adorant
adorantes
adorare
adorari
adorat
adorate
adorationem
adoratur
adoraverunt
adoravit
adoremus
adorent
adoret
adoro
adortus
adque
adriani
adriano
adrianus
adsidue
adsint
adsit
adsum
adsunt
aduentu
aduentum
aduersa
aduersum
aduersus
adulatione
adulescens
adulescentem
adulescentes
adulescentia
adulescentis
adulta
adulter
adultera
adulterae
adulteram
adulteri
adulteria
adulterii
adulterio
adulteris
adulterium
adultero
adulteros
adulterum
adulti
adultis
adultus
adv
advena
advenae
advenerat
advenerit
advenerunt
adveniat
adveniens
adveniente
advenientes
advenientibus
adveniet
advenire
advenis
advenisse
advenisset
advenit
adveniunt
adventare
adventu
adventum
adventus
adverb
adverbia
adverbium
adversa
adversae
adversam
adversantur
adversari
adversarii
adversariis
adversario
adversariorum
adversarios
adversarium
adversarius
adversatur
adversi
adversis
adversitas
adversitate
adversitatibus
adversitatis
adverso
adversos
adversum
adversus
advertat
adverte
advertere
advertimus
advertit
advertite
advocati
advocatis
advocato
advocatum
advocatus
ae
aecclesia
aecclesiae
aecclesiam
aede
aedem
aedes
aedibus
aedificabo
aedificandi
aedificant
aedificantes
aedificare
aedificari
aedificat
aedificata
aedificatae
aedificatio
aedificatione
aedificationem
aedificationis
aedificatum
aedificatur
aedificatus
aedificaverunt
aedificavit
aedificet
aedificia
aedificii
aedificiis
aedificio
aedificiorum
aedificium
aedilis
aedis
aedium
aegaei
aegaeum
aeger
aegidii
aegidius
aegircii
aegirtii
aegra
aegre
aegri
aegris
aegritudine
aegritudinem
aegritudines
aegritudinis
aegritudo
aegro
aegros
aegrotare
aegroti
aegrotos
aegrotum
aegrotus
aegrum
aegypti
aegyptia
aegyptiae
aegyptii
aegyptiis
aegyptio
aegyptiorum
aegyptios
aegyptium
aegyptius
aegypto
aegyptum
aegyptus
aelius
aemilia
aemiliae
aemiliam
aemilianus
aemilii
aemilio
aemilius
aemula
aemulari
aemulatio
aemulatione
aemulationem
aemuli
aemulum
aemulus
aen
aenea
aeneae
aeneam
aenean
aeneas
aeneid
aeneis
aeneum
aenigma
aenigmata
aenigmate
aequa
aequale
aequalem
aequales
aequali
aequalia
aequalibus
aequalis
aequalitas
aequalitate
aequalitatem
aequalitatis
aequaliter
aequanimiter
aequare
aequari
aequat
aequatio
aequationes
aequatoria
aequatoriae
aeque
aequi
aequinoctialis
aequinoctio
aequinoctium
aequis
aequitas
aequitate
aequitatem
aequitatis
aequiuoce
aequiuocum
aequo
aequor
aequora
aequore
aequoris
aequos
aequum
aequus
aer
aera
aerarii
aerario
aerarium
aere
aerea
aereas
aerem
aereum
aeri
aeria
aeris
aeroportus
aerumna
aerumnas
aerumnis
aes
aeschylus
aesculapius
aesernina
aestas
aestate
aestatem
aestatis
aestibus
aestimanda
aestimans
aestimant
aestimantes
aestimantur
aestimare
aestimari
aestimat
aestimata
aestimatio
aestimatione
aestimationem
aestimatur
aestimatus
aestimavit
aestimet
aestimetur
aestimo
aestiva
aestivis
aestivo
aestivum
aestu
aestuat
aestum
aestus
aetas
aetate
aetatem
aetates
aetati
aetatibus
aetatis
aetatum
aeterna
aeternae
aeternales
aeternaliter
aeternam
aeternas
aeterne
aeterni
aeternis
aeternitas
aeternitate
aeternitatem
aeternitatis
aeterno
aeternorum
aeternos
aeternum
aeternus
aether
aethera
aethere
aetheris
aethiopes
aethiopia
aethiopiae
aethiopiam
aethiops
aethiopum
aetius
aetna
aevi
aevo
aevum
af
afar
afer
affaires
affairs
affatim
affecit
affecta
affecti
affectibus
affectio
affectione
affectionem
affectiones
affectionibus
affectionis
affectionum
affectu
affectum
affectus
affectuum
affer
afferant
afferat
afferens
afferre
afferret
afferri
affert
afferte
afferunt
afficere
affici
afficit
afficitur
afficiunt
affines
affinis
affinitate
affinitatem
affinitatis
affirmans
affirmant
affirmare
affirmat
affirmatio
affirmatione
affirmationem
affirmationes
affirmationis
affirmatiua
affirmativa
affirmavit
afflatu
afflicta
afflicti
afflictio
afflictione
afflictionem
afflictionibus
afflictionis
afflictis
afflictum
afflictus
affligi
affligit
affligitur
affligunt
afflixit
affluenter
affluentia
affuit
afri
africa
africae
africam
african
africana
africanae
africani
africanis
africano
africanum
africanus
africo
afrique
afrorum
afros
after
aftra
ag
against
agam
agamemnon
agamus
agant
agantur
agar
agas
agat
agatha
agathae
agatur
age
agebant
agebantur
agebat
agebatur
agenda
agendae
agendam
agendas
agendi
agendis
agendo
agendum
agens
agente
agentem
agentes
agenti
agentibus
agentis
agentium
ager
agere
agerem
agerent
agerentur
ageret
ageretur
ages
aget
agger
aggere
aggerem
aggravat
aggredi
aggreditur
aggressi
aggressus
agi
agimus
agis
agit
agitare
agitari
agitat
agitata
agitatur
agite
agitis
agitur
aglaia
agmen
agmina
agmine
agminibus
agminis
agnes
agnetis
agni
agnita
agnitae
agnitio
agnitione
agnitionem
agnitus
agno
agnos
agnoscamus
agnoscant
agnoscas
agnoscat
agnosce
agnoscens
agnoscentes
agnoscere
agnoscerent
agnosceret
agnosci
agnoscimus
agnoscis
agnoscit
agnoscitur
agnosco
agnoscunt
agnoscuntur
agnoverunt
agnovi
agnovimus
agnovit
agnum
agnus
ago
agone
agonem
agor
agostini
agostiniwww
agostino
agrestes
agresti
agrestis
agri
agricola
agricolae
agricolarum
agricolis
agricultura
agriculturae
agricultural
agriculturam
agriculture
agrippa
agrippae
agrippina
agrippinae
agris
agro
agrorum
agros
agrum
agunt
aguntur
ah
ahmed
ai
aiax
aiebant
aiebat
aim
ain
ains
ainshun
aio
air
ais
aise
ait
aiunt
aiþþau
ak
akademie
akademiska
akei
al
ala
alabamae
alacer
alacres
alacri
alacritate
alacriter
alae
alain
alan
alani
alanus
alarum
alas
alba
albae
albam
albanensis
albani
albania
albaniae
albanice
albano
albanus
albedine
albedinem
albedinis
albedo
albericus
albert
alberti
alberto
albertus
albi
albini
albino
albinus
albis
albo
albrecht
albulae
album
albus
alc
alcibiades
alcides
alcuini
alcuinus
aldus
alea
alere
ales
alessandro
alex
alexander
alexandra
alexandre
alexandri
alexandria
alexandriae
alexandriam
alexandrina
alexandrinae
alexandrinam
alexandrini
alexandrino
alexandrinum
alexandrinus
alexandro
alexandrum
alexii
alexio
alexis
alexius
alfred
alfredo
alfredus
algebra
algerii
ali
alia
aliae
aliaeque
aliam
aliaque
aliarum
aliarumque
alias
aliasque
alibi
alice
alicia
alicubi
alicui
alicuius
alicujus
alie
aliena
alienae
alienam
alienare
alienarum
alienas
alienati
alieni
alienigena
alienigenae
alienigenarum
alienigenas
alienigenis
alienis
alieno
alienora
alienorum
alienos
alienum
alienus
alii
aliique
aliis
aliisque
alij
alijs
alimenta
alimentis
alimento
alimentorum
alimentum
alimonia
alimoniam
alio
alioqui
alioquin
aliorum
aliorumque
alios
aliosque
aliqua
aliquae
aliqualiter
aliquam
aliquamdiu
aliquandiu
aliquando
aliquanta
aliquantisper
aliquanto
aliquantulum
aliquantum
aliquas
aliquatenus
aliquem
aliqui
aliquibus
aliquid
aliquis
aliquo
aliquod
aliquorum
aliquos
aliquot
aliquotiens
aliquoties
alis
alit
aliter
alitur
aliud
alium
aliunde
alius
all
alla
allai
allaim
allan
allata
allatum
alle
allegationibus
allegoria
allegoriae
allegoriam
allegorice
allel
alleluia
alleluja
allen
allgemeine
alligat
alligata
alligati
alligatus
alligavit
allis
allium
allocutus
alloqui
alloquio
alloquitur
alma
almae
alme
almus
alodem
aloisius
aloysius
alpes
alpha
alphabetum
alpheus
alphonsus
alpi
alpibus
alpina
alpinia
alpis
alpium
als
alsatia
alsatiae
also
alt
alta
altae
altam
altare
altari
altaria
altaribus
altario
altaris
altarium
altas
alte
alten
alter
altera
alteram
alteratum
alteri
alteris
alteritate
alterius
alterna
alternis
altero
alterum
alterutra
alterutro
alterutrum
alti
altior
altiora
altiorem
altiores
altiori
altioris
altis
altissima
altissime
altissimi
altissimis
altissimo
altissimum
altissimus
altitudine
altitudinem
altitudines
altitudinis
altitudo
altius
alto
altorum
altos
altrinsecus
altum
altus
aluit
alumna
alumni
alumnis
alumnos
alumnus
aluntur
alveo
alveum
alvo
alvum
alvus
alypius
am
ama
amabat
amabilem
amabili
amabilis
amabo
amadeus
amalec
amalech
amamus
aman
amanda
amandi
amando
amandum
amandus
amans
amant
amantem
amantes
amanti
amantibus
amantis
amantissime
amantium
amara
amare
amaret
amari
amaris
amaritudine
amaritudinem
amaritudinis
amaritudo
amaro
amarum
amarus
amas
amat
amata
amate
amato
amator
amatorem
amatores
amatoribus
amatum
amatur
amatus
amavi
amavit
amazon
amazonum
ambabus
ambae
ambages
ambagibus
ambarum
ambas
ambigat
ambigere
ambigit
ambigitur
ambigua
ambiguis
ambiguitas
ambiguitate
ambiguitatem
ambiguo
ambiguum
ambire
ambit
ambitio
ambitione
ambitionem
ambitionis
ambitu
ambitum
ambitus
ambiunt
ambo
ambobus
amborum
ambos
ambrosii
ambrosio
ambrosium
ambrosius
ambula
ambulabat
ambulabunt
ambulamus
ambulans
ambulant
ambulantem
ambulantes
ambulare
ambulat
ambulate
ambulaverunt
ambulavit
ambulemus
ambulet
ambuletis
ame
amemus
amen
amens
ament
amentia
amentiam
america
americae
americam
american
americana
americanae
americanarum
americani
americanis
americano
americanorum
americanum
americanus
ames
amet
ametur
amica
amicae
amicam
amice
amici
amicis
amicissimo
amicitia
amicitiae
amicitiam
amicitias
amicitiis
amico
amicorum
amicos
amictu
amictum
amictus
amicum
amicus
amiserat
amiserit
amiserunt
amisisse
amisit
amissa
amissae
amissam
amissio
amissione
amissionem
amissis
amisso
amissum
amittant
amittat
amittere
amitteret
amittit
amittitur
amittunt
ammianus
ammon
amne
amnem
amnes
amniota
amnis
amo
amodo
amoena
amoenitate
amomum
amon
among
amor
amore
amorem
amores
amori
amoribus
amoris
amorum
amos
amoto
amour
amovere
amph
amphitheatrum
ampla
amplam
amplectens
amplecti
amplectimur
amplectitur
amplector
amplectuntur
amplexibus
amplexu
amplexus
amplificata
amplior
ampliora
ampliorem
ampliores
ampliori
amplissima
amplissimi
amplissimis
amplissimo
amplissimum
amplitudine
amplitudinem
amplitudo
amplius
amplum
amputatis
amstelodami
amsterdam
an
ana
anagniae
analogia
analogiam
analysis
ananias
anas
anastasiae
anastasii
anastasio
anastasium
anastasius
anathema
anathemate
anathematis
anathematizamus
anathematizat
anatoliae
anatolii
anatolius
anatomia
anatomica
anatomical
anatomy
anaunia
anceps
anche
ancienne
anciens
ancient
ancilla
ancillae
ancillam
ancillarum
ancillas
ancillis
ancipiti
ancona
anconitana
and
andegavensis
anderson
andra
andrae
andre
andrea
andreae
andream
andreas
andrew
andrews
andronicus
andvairþja
angela
angeles
angeli
angelica
angelicae
angelicam
angelici
angelicis
angelico
angelicum
angelicus
angelis
angelo
angelopoli
angelorum
angelos
angelum
angelus
angius
angl
angli
anglia
angliae
angliam
anglica
anglicae
anglicam
anglicana
anglicanae
anglice
anglici
anglicis
anglico
anglicum
anglicus
anglie
anglis
anglo
anglorum
anglos
anglus
angues
anguis
angularis
anguli
angulis
angulo
angulorum
angulos
angulum
angulus
angusta
angustam
angustia
angustiae
angustiam
angustias
angustiis
angustis
angusto
angustum
anhelat
ani
anicius
anima
animabus
animadversione
animadversionis
animadvertendum
animadvertere
animadverti
animadvertit
animae
animaeque
animal
animale
animales
animali
animalia
animalibus
animalis
animalium
animals
animam
animantia
animantibus
animantis
animantium
animarum
animas
animata
animatae
animati
animatum
animatus
anime
animi
animique
animis
animo
animoque
animorum
animos
animositate
animum
animumque
animus
animæ
ann
anna
annae
annal
annales
annalibus
annalium
annals
annam
anne
annexa
anni
annis
anniversario
anno
annon
annona
annonae
annonam
annonas
annoque
annorum
annos
annot
annotatio
annotationes
annua
annuae
annual
annuatim
annuente
annuentes
annuere
annuimus
annuis
annuit
annuli
annulo
annulum
annum
annuntiabit
annuntiabo
annuntians
annuntiant
annuntiare
annuntiat
annuntiaverunt
annuntiavit
annuo
annus
annuum
ano
anomalia
anonymus
ans
anscharius
anselmi
anselmus
anser
ant
antarctica
ante
antea
antecedens
antecedente
antecedenti
antecedentibus
antecedentis
antecedit
antecessor
antecessore
antecessores
antecessoribus
antecessorum
antehac
antequam
anterior
anteriora
anteriore
anteriorem
anteriores
anteriori
anterioribus
anterioris
anterius
anthemio
anthologia
anthology
anthony
anthropologi
anthropologia
anthropologiae
anthropologus
anthropology
anti
antica
antichristi
antichristo
antichristum
antichristus
antico
antigoni
antigonus
antike
antiochena
antiochenae
antiocheni
antiocheno
antiochenum
antiochenus
antiochi
antiochia
antiochiae
antiochiam
antiocho
antiochum
antiochus
antipapa
antipater
antiph
antiphona
antiphonae
antiphonam
antiqua
antiquae
antiquam
antiquarum
antiquas
antique
antiqui
antiquior
antiquiora
antiquiores
antiquioribus
antiquis
antiquissima
antiquissimis
antiquissimum
antiquitas
antiquitate
antiquitatem
antiquitates
antiquitatis
antiquitatum
antiquite
antiquities
antiquitus
antiquity
antiquius
antiquo
antiquorum
antiquos
antiquum
antiquus
antistes
antistite
antistitem
antistites
antistiti
antistitis
antistitum
antoine
anton
antoni
antonia
antonii
antonini
antonino
antoninus
antonio
antonium
antonius
antra
antris
antro
antrum
antverpiae
anuli
anulo
anulum
anulus
anum
anus
anxia
anxie
anxietas
anxietate
anxius
any
anþar
ao
ap
aper
aperi
aperiam
aperiat
aperiatur
aperiens
aperietur
aperire
aperiret
aperiri
aperit
aperite
aperitur
aperiunt
aperiuntur
aperta
apertae
apertam
apertas
aperte
aperti
apertis
apertissime
apertius
aperto
apertos
apertum
apertus
aperuerunt
aperui
aperuit
apes
apex
apibus
apice
apicem
apices
apicibus
apis
apium
apo
apoc
apocalypsi
apocalypsis
apocrypha
apocryphus
apollinaris
apolline
apollinem
apollini
apollinis
apollo
apollodori
apollonius
apologia
apost
apostata
apostolatui
apostolatum
apostolatus
apostoli
apostolica
apostolicae
apostolicam
apostolicas
apostolice
apostolici
apostolicis
apostolico
apostolicorum
apostolicos
apostolicum
apostolicus
apostolis
apostolo
apostolorum
apostolos
apostolum
apostolus
app
apparatu
apparatum
apparatus
appareant
appareat
apparebat
apparebit
apparens
apparent
apparente
apparere
appareret
apparet
apparuerit
apparuerunt
apparuisse
apparuit
appellabant
appellabantur
appellabat
appellabatur
appellamus
appellandum
appellans
appellant
appellantur
appellare
appellaretur
appellari
appellarunt
appellasse
appellat
appellata
appellatae
appellatam
appellati
appellatio
appellatione
appellationem
appellationes
appellationi
appellationibus
appellationis
appellatis
appellato
appellatos
appellatum
appellatur
appellatus
appellaverunt
appellavit
appellentur
appellet
appelletur
appello
append
appendice
appendiciis
appenditiis
appendix
appetant
appetat
appetenda
appetens
appetere
appetit
appetitu
appetitum
appetitur
appetitus
appetunt
appia
appianus
appius
apple
applicare
applicari
applicatur
applicuit
apponere
apponi
apponit
apponitur
apponuntur
apposita
appositis
appositum
apposuit
apprehendat
apprehendens
apprehendere
apprehenderunt
apprehendi
apprehendit
apprehensum
appresso
apprime
approach
approbamus
approbante
approbare
approbari
approbat
approbata
approbatione
approbatum
approbatur
approbavit
appropinquant
appropinquante
appropinquare
appropinquat
appropinquavit
apr
apre
apri
april
apriles
aprili
aprilis
aprilium
aprum
aprutio
aprutium
apta
aptae
aptam
aptare
aptari
aptatur
apte
apti
aptior
aptissime
aptius
apto
aptum
aptus
apud
apuleius
apulia
apuliae
apuliam
aput
aqua
aquae
aquam
aquarii
aquarium
aquarius
aquarum
aquarumve
aquas
aquatica
aque
aquensis
aquila
aquilae
aquilam
aquilana
aquileia
aquileiensis
aquilo
aquilone
aquilonem
aquilonis
aquinas
aquis
aquisgrani
aquitania
aquitaniae
aquitaniam
aquitanus
aquæ
ar
ara
arabes
arabia
arabiae
arabiam
arabica
arabicae
arabice
arabici
arabicis
arabico
arabicum
arabum
arae
aragoniae
aram
aranea
araneae
aranearum
araris
aras
arator
aratro
aratrum
araurae
arauris
arbiter
arbitrabantur
arbitrabatur
arbitramur
arbitrantes
arbitrantur
arbitrarentur
arbitraretur
arbitrari
arbitraris
arbitrati
arbitratu
arbitratur
arbitratus
arbitremur
arbitrentur
arbitretur
arbitri
arbitrii
arbitrio
arbitris
arbitrium
arbitro
arbitror
arbitros
arbitrum
arbor
arbore
arborem
arborensi
arborensis
arbores
arbori
arboribus
arboris
arborum
arbusta
arc
arca
arcad
arcadia
arcadio
arcadius
arcae
arcam
arcana
arcanis
arcano
arcansiae
arcanum
arce
arcem
arcere
arces
archa
archaeologi
archaeologia
archaeologica
archaeological
archaeologici
archaeologicus
archaeologus
archaeology
archangeli
archangelus
arche
archelaus
archi
archidiaconi
archidiacono
archidiaconum
archidiaconus
archidioecesem
archidioecesis
archiepiscopalis
archiepiscope
archiepiscopi
archiepiscopis
archiepiscopo
archiepiscoporum
archiepiscopos
archiepiscopum
archiepiscopus
archipelagi
archipelago
archipelagus
archipresbyter
archipresbytero
architecti
architecto
architectura
architecturae
architecture
architectus
archiv
archivatum
archive
archives
archivo
archivum
arcis
arcta
arctius
arcu
arcum
arcus
ardeam
ardeat
ardebat
ardebit
ardens
ardent
ardentem
ardenter
ardentes
ardenti
ardentibus
ardentis
ardentius
ardere
ardescae
ardet
ardor
ardore
ardorem
ardoribus
ardoris
ardua
arduenna
arduennae
arduum
arduus
are
area
areae
aream
areas
areis
arelatensi
arelatensis
arena
arenae
arenam
arenas
arescit
arg
argentaria
argentariae
argentarii
argentarius
argentea
argenteam
argenteas
argentei
argenteis
argenteo
argenteos
argenteum
argenteus
argenti
argentina
argentinae
argentinus
argentique
argento
argentorati
argentum
argilla
argis
argivorum
argo
argos
arguas
arguat
arguatur
argue
arguebat
arguendi
arguendo
arguens
arguere
arguet
argui
arguit
arguitur
argumenta
argumentatio
argumentatione
argumentationem
argumentationes
argumentationis
argumenti
argumentis
argumento
argumentorum
argumentum
arguo
arguunt
arguuntur
ariana
arianae
ariani
arianis
arianorum
arianos
arianum
arianus
arida
aridam
ariditate
arido
aridum
ariel
aries
ariete
arietem
arietes
arietis
arietum
arigiae
arii
ariminum
ario
aris
aristianis
aristides
aristophane
aristophanes
aristotele
aristotelem
aristoteles
aristotelis
arithmetica
arithmeticae
arium
arius
arizona
arma
armandus
armata
armatae
armati
armatis
armatorum
armatos
armatum
armatura
armatus
armavit
armenia
armeniace
armeniae
armeniam
armeniorum
armenta
armentis
armiger
arminius
armis
armorum
arms
armstrong
army
arn
arni
arnobius
arnold
arnoldus
aromata
aromatibus
aromatum
around
arrepto
arretina
arripere
arripuit
arrogans
arrogantes
arrogantia
arrogantiae
arrogantiam
ars
arsit
art
arta
artaxerxes
arte
artem
arteria
arteriae
artes
arthur
arthuri
arthurus
arti
artibus
article
articuli
articulis
articulo
articulos
articulum
articulus
artifex
artifice
artificem
artifices
artifici
artificia
artificialis
artificibus
artificio
artificis
artificium
artificum
artis
artium
arts
artubus
arturus
artus
aruit
arum
arundinem
arva
arvernia
arvis
arx
arxiv
as
asa
asaph
ascanius
ascendam
ascendamus
ascendat
ascende
ascendebat
ascendendo
ascendens
ascendente
ascendentem
ascendentes
ascendere
ascenderet
ascenderit
ascenderunt
ascendet
ascendi
ascendimus
ascendisse
ascendisset
ascendisti
ascendit
ascendunt
ascensio
ascensione
ascensionem
ascensionis
ascensu
ascensum
ascensus
ascribi
ascribitur
aser
ashgate
asia
asiae
asiam
asian
asina
asinae
asini
asino
asinos
asinum
asinus
aspectibus
aspects
aspectu
aspectum
aspectus
asper
aspera
aspere
asperis
asperitas
asperitate
asperitatem
aspero
asperum
aspexit
aspice
aspicere
aspiciat
aspiciens
aspicientes
aspicimus
aspicit
aspiciunt
aspidum
aspirare
aspiratione
ass
asse
assecutus
assensu
assensum
assensus
assentior
assequi
asserant
asserat
asserebant
asserebat
asserens
asserentes
asserere
asserimus
asseris
asserit
asseritur
assertio
assertione
assertionem
assertionibus
assertor
asseruit
asserunt
asseverat
assidua
assidue
assiduis
assiduitate
assiduo
assiduus
assignare
assignari
assignat
assignata
assimilatur
assis
assistat
assistens
assistere
assistit
assistunt
association
associationis
assolet
assumat
assumens
assumere
assumeret
assumi
assumit
assumitur
assumpserat
assumpserit
assumpsisse
assumpsit
assumpta
assumptae
assumptam
assumpti
assumptio
assumptione
assumptionem
assumptionis
assumptis
assumpto
assumptum
assumptus
assumunt
assumuntur
assur
assurgere
assyrii
assyriis
assyriorum
assyrios
ast
asta
astantibus
astensi
astensis
asteroides
asteroidibus
asteroidum
asti
astiterunt
astitit
astra
astragalus
astrictus
astris
astrologia
astronomi
astronomia
astronomiae
astronomica
astronomicae
astronomicarum
astronomico
astronomicum
astronomis
astronomo
astronomus
astronomy
astrophysicum
astrorum
astruere
astu
asturiarum
asturice
astutia
astutiam
asylum
at
atacis
ataxis
atc
ater
athanasii
athanasio
athanasium
athanasius
athe
athenae
athenaeus
athenarum
athenas
athenienses
atheniensibus
atheniensis
atheniensium
athenis
athens
athesia
athleta
athletae
athletica
athleticae
atilius
atis
atlantic
atlantici
atlantico
atlanticorum
atlanticum
atlantis
atlas
atmosphaera
atomi
atomis
atq
atque
atqui
atquin
atra
atramento
atri
atria
atrii
atriis
atrio
atris
atrium
atro
atrocitate
atrociter
atropatene
atrox
att
atta
attalus
attamen
attendamus
attendant
attendas
attendat
attende
attendendum
attendens
attendentes
attendere
attendi
attendimus
attendis
attendit
attendite
attenditur
attendunt
attentare
attentari
attentatum
attente
attentius
attestante
attestatione
attestationes
attestationibus
attestatur
atti
attica
atticae
attice
attici
attico
atticum
atticus
attigit
attila
attinet
attingat
attingere
attingit
attingunt
attollere
attollit
attollitur
attoniti
attonitus
attrahere
attrahit
attraxit
attribui
attribuit
attribuitur
attributa
attributum
attributus
attribuuntur
attulerat
attulerit
attulerunt
attulit
au
aubin
aucta
auctor
auctore
auctorem
auctores
auctori
auctoribus
auctoris
auctoritas
auctoritate
auctoritatem
auctoritates
auctoritati
auctoritatibus
auctoritatis
auctorum
auctum
auctus
audaces
audaci
audacia
audaciae
audaciam
audacius
audacter
audax
aude
audeant
audeas
audeat
audebant
audebat
audebit
audemus
audent
audeo
audere
auderent
auderet
audes
audet
audi
audiam
audiamus
audiant
audiantur
audias
audiat
audiatis
audiatur
audiebam
audiebant
audiebat
audiebatur
audienda
audiendas
audiendi
audiendo
audiendum
audiens
audient
audiente
audientem
audientes
audientia
audientiam
audientibus
audientis
audientium
audierant
audierat
audierint
audieris
audierit
audieritis
audierunt
audies
audiet
audietis
audimus
audio
audire
audirent
audiret
audiri
audis
audisse
audissent
audisset
audisti
audistis
audit
audita
audite
auditis
audito
auditor
auditorem
auditores
auditoribus
auditorio
auditoris
auditorium
auditorum
auditu
auditui
auditum
auditur
audituri
auditus
audiuit
audiunt
audiuntur
audivi
audivimus
audivit
aues
auf
aufer
auferam
auferas
auferat
auferatur
auferens
auferet
auferetur
auferre
auferret
auferri
aufert
auferte
aufertur
auferunt
auflage
aufugit
aug
auge
augeat
augeatur
augent
augere
augeret
augeri
auget
augetur
augmenta
augmentis
augmento
augmentum
augur
augures
auguria
augurium
august
augusta
augustae
augustam
augustana
augustanae
auguste
augusti
augustin
augustine
augustini
augustino
augustinum
augustinus
augustis
augusto
augustodunensis
augustorum
augustum
augustus
auis
auk
aula
aulae
aulam
aulo
aulus
aura
aurae
auram
auras
aure
aurea
aureae
auream
aureas
aurei
aureis
aurelia
aurelianensis
aureliani
aureliano
aurelianus
aurelii
aurelio
aurelium
aurelius
aurem
aureo
aureorum
aureos
aures
aureum
aureus
auri
auribus
auriga
aurigerae
auris
aurium
auro
aurora
aurorae
aurum
aus
ausa
ausculta
ausi
ausim
ausonius
auspicem
auspicia
auspiciis
auspicio
auspicium
auster
austin
australe
australem
australes
australi
australia
australiae
australian
australiana
australianus
australis
austri
austria
austriaca
austriacae
austriaci
austriacus
austriae
austriam
austro
austrum
ausu
ausum
ausus
aut
autem
authentica
authentico
author
authoritate
autobiographi
autobiography
autocineti
autocinetorum
autocinetum
autonoma
autonomae
autonomiae
autoritate
autumant
autumni
autumno
autumnus
aux
auxilia
auxiliante
auxilii
auxiliis
auxilio
auxilium
auxit
av
avant
avari
avarionis
avaritia
avaritiae
avaritiam
avarum
avarus
ave
avec
avem
avena
aversa
aversi
aversus
avertas
avertat
averte
avertere
averteret
averti
avertit
aves
aveyronis
avi
avia
avibus
avida
avide
aviditate
avidius
avidus
avis
avitus
avium
avo
avum
avunculi
avunculo
avunculus
avus
ax
axe
axem
axioma
axis
axonae
ay
az
azarias
azyma
azymis
azymorum
aþþan
b
ba
baal
baalim
babylon
babylone
babylonem
babylonia
babyloniae
babyloniam
babylonii
babylonis
bacchi
baccho
bacchus
bach
back
bacon
bacteria
baculo
baculum
baculus
bad
bada
baden
badenia
badeniae
badense
badia
bai
bailey
bains
baker
bal
balaam
balbus
baldewinus
balduini
balduino
balduinus
baldus
baldwin
ball
balnea
balneis
balneo
balneum
balthasar
baltimorae
baltimore
baluz
baluzius
band
bank
bannum
bantam
baptisma
baptismate
baptismatis
baptismi
baptismo
baptismum
baptismus
baptista
baptistae
baptistam
baptiste
baptisterium
baptizandi
baptizandis
baptizandos
baptizant
baptizantes
baptizantur
baptizare
baptizaretur
baptizari
baptizat
baptizati
baptizatis
baptizato
baptizatos
baptizatum
baptizatur
baptizatus
baptizavit
baptizentur
baptizetur
bar
barba
barbam
barbara
barbarae
barbaras
barbari
barbaria
barbaris
barbaro
barbarorum
barbaros
barbarum
barbarus
barcinone
barcinonensi
barensis
bari
barnabae
barnabas
barnes
baro
baron
barones
baronibus
baronius
baronum
barry
bartholomaei
bartholomaeus
baruch
bas
basan
base
based
basel
bases
basi
basic
basileae
basiliae
basilica
basilicae
basilicam
basilicarum
basilicas
basilicata
basilicis
basilii
basilio
basilium
basilius
basim
basis
bassa
bassi
basso
bassus
batav
batava
batave
batavia
batavorum
bates
battle
bauer
bauzanensi
bauzanensis
bauzanum
bavaria
bavariae
bavaricum
bay
bb
bbc
bc
bd
be
beach
beat
beata
beatae
beatam
beate
beati
beatior
beatis
beatissima
beatissimae
beatissimam
beatissime
beatissimi
beatissimo
beatissimum
beatissimus
beatitudine
beatitudinem
beatitudini
beatitudinis
beatitudo
beato
beatorum
beatos
beatrix
beatum
beatus
beaumont
beausobre
beck
becker
beda
bedae
beelzebub
been
beer
beethoven
before
begin
behavior
behind
bei
being
beitra
bel
belfortii
belga
belgarum
belgiae
belgica
belgicae
belgicus
belial
bell
bella
bellamy
bellandi
bellarum
bellator
bellatores
bellatorum
belle
belles
belli
bellica
bellicae
bellicis
bellis
bello
belloque
bellorum
bellum
bellunensi
bellunensis
bellus
belua
ben
bene
benedic
benedicam
benedicat
benedicens
benedicentur
benedicere
benedicetur
benedici
benedicimus
benedicit
benedicite
benedicitur
benedict
benedicta
benedicti
benedictini
benedictio
benedictione
benedictionem
benedictiones
benedictioni
benedictionibus
benedictionis
benedicto
benedictum
benedictus
benedixit
benefacere
beneficia
beneficii
beneficiis
beneficio
beneficiorum
beneficium
beneplacito
beneplacitum
beneventana
beneventi
benevento
beneventum
benevolentia
benevolentiae
benevolentiam
beniamin
beniaminus
benigna
benigne
benigni
benignitas
benignitate
benignitatem
benignitatis
benigno
benignum
benignus
benjamin
bennett
ber
berg
bergamo
berger
bergomas
bergomati
bergomi
bergomum
berkeleiae
berkeley
berlin
berna
bernae
bernard
bernardi
bernardo
bernardum
bernardus
bernhard
bernhardus
bernstein
berolinensis
berolinensium
berolini
berolinum
bersabee
bertrand
bertrandus
best
bestia
bestiae
bestiam
bestiarum
bestias
bestiis
beta
beth
bethania
bethel
bethleem
bethlehem
between
beyond
bi
bianchi
bibam
bibamus
bibant
bibat
bibcode
bibe
bibebant
bibendi
bibendum
bibens
bibentes
bibere
biberit
biberunt
bibit
bibite
bibitur
bibl
bible
biblia
biblica
bibliis
bibliographia
bibliography
bibliorum
biblioteca
bibliothe
bibliotheca
bibliothecae
bibliothecam
bibliothecarii
bibliothecarius
bibliothecis
bibunt
biduo
biduum
bien
biennio
biennium
big
bilateria
bill
billy
bin
bina
binae
binarium
binarius
binas
bini
binis
binomen
binos
biochemicus
biodiversity
biographia
biographica
biographical
biographicum
biographie
biography
biologi
biologia
biologica
biological
biologicum
biologus
biology
biota
bipes
bird
birds
birgitta
birmania
birmaniae
birotarii
birotarius
birth
bis
bisextilibus
bishop
bithynia
bithyniae
bituricensis
biþe
bl
black
blackwell
blanc
blanda
blande
blandimenta
blandimentis
blandis
blanditiis
blanditur
blandiuntur
blando
blandus
blank
blasii
blasius
blasphemare
blasphemat
blasphemia
blasphemiae
blasphemiam
blasphemias
blasphemiis
blasphemus
blesensis
bloch
blog
blood
bloom
blue
blues
bner
bo
boamundus
bob
bobus
body
boeotia
boethius
boetius
bohemia
bohemiae
bohemica
bohemice
bois
boisduval
bolivia
bologna
bolton
bon
bona
bonae
bonam
bonaparte
bonarum
bonas
bond
bone
boni
bonifacii
bonifacio
bonifacium
bonifacius
bonis
bonitas
bonitate
bonitatem
bonitati
bonitatis
bonnae
bono
bononiae
bononiam
bononiensem
bononiensi
bononiensis
bonorum
bonos
bonum
bonus
book
books
booz
bopp
border
boreali
borealis
boream
boreas
boreo
borgo
boris
born
borussia
borussiae
borussiam
bos
bosco
bosnia
bosniae
boso
boston
bostoniae
botanica
botanical
botanicus
botanista
botanistae
botany
bouguereau
boum
bouquet
bove
bovem
boves
bovis
bowell
bowie
boy
br
bra
bracarensis
bracchia
brachia
brachii
brachiis
brachio
brachium
bradley
brain
brandt
brasilia
brasiliae
brasilianus
brasiliensis
brassica
braun
bravium
bre
bremae
brescia
bretagne
breui
breuis
breuiter
breve
brevem
breves
brevi
brevia
breviarium
brevibus
brevior
brevis
brevissime
brevitas
brevitate
brevitatem
brevitatis
breviter
brevium
brevius
brian
bridge
brie
brief
brigantia
brigantina
brill
brisgoviae
britain
britanni
britannia
britanniae
britanniam
britanniarum
britannica
britannicae
britannicam
britannici
britannicis
britannico
britannicum
britannicus
britannis
britannorum
britannos
british
britones
britonice
britonum
brixia
brixiae
brixiam
brixiana
brockhaus
bronze
brooks
brothers
brown
bru
bruce
bruma
brundisium
bruno
brunsvici
brunsvicum
bruta
bruti
brutis
bruto
bruttio
bruttium
brutum
brutus
bruxelles
bruxellis
bu
bubus
bucarestae
bucarestensis
buch
buddhismus
buffalo
building
bulgaria
bulgariae
bulgarice
bulgaricus
bulgarorum
bulla
bullae
bullam
bulletin
bureau
burgenses
burgi
burgo
burgum
burgundia
burgundiae
burgus
burma
burmann
bursa
burton
bus
bush
business
busta
but
butler
butterflies
butyrum
bw
by
bysso
byzantina
byzantinae
byzantine
byzantini
byzantinum
byzantinus
byzantium
c
ca
cacumen
cacumina
cacumine
cadant
cadat
cadaver
cadavera
cadaveribus
cadens
cadent
cadentem
cadentes
cadentibus
cadere
caderent
caderet
cades
cadet
cadit
caduca
caducis
cadunt
caeca
caeci
caecilia
caeciliae
caeciliani
caeciliano
caecilianum
caecilianus
caecilius
caecina
caecinae
caecis
caecitas
caecitate
caecitatem
caecitatis
caeco
caecorum
caecos
caecum
caecus
caede
caedem
caedere
caedes
caedi
caedibus
caedis
caedit
caeditur
caeleste
caelestem
caelestes
caelesti
caelestia
caelestibus
caelestis
caelestium
caeli
caelis
caelius
caelo
caelorum
caelos
caelum
caeremonias
caeremoniis
caerula
caerulea
caerulei
caeruleo
caeruleum
caeruleus
caes
caesa
caesar
caesare
caesarea
caesareae
caesaream
caesarem
caesares
caesari
caesaribus
caesariensis
caesarii
caesaris
caesarius
caesarum
caesi
caesis
caesum
caesus
caetera
caeterae
caeteraque
caeterarum
caeteras
caeteri
caeterique
caeteris
caeterisque
caetero
caeterorum
caeterorumque
caeteros
caeterosque
caeterum
cahiers
caietanus
cain
caiphas
cairi
caius
cal
calabria
calabriae
calami
calamitas
calamitate
calamitatem
calamitates
calamitatibus
calamitatis
calamitatum
calamo
calamos
calamum
calamus
calcaneum
calcare
calcat
calcata
calce
calceamenta
calceamentum
calcem
calculi
calculo
calculum
calculus
cale
calendarii
calendario
calendarium
calendarum
calendas
calice
calicem
calices
calicis
calida
calidae
calidi
calidis
calido
calidum
calidus
california
californiae
californiensis
caligine
caliginem
caliginis
caligo
caligula
calisii
calix
calixti
calixtus
call
calle
called
callicratis
callida
callide
callidi
calliditate
callidus
calor
calore
calorem
caloris
calpurnius
calumnia
calumniae
calumniam
calumniantibus
calumniantur
calumniari
calumnias
calumniis
calvadosiae
calvariae
calvinus
calvorum
calvum
calvus
cambria
cambriae
cambridge
cameli
camelorum
camelos
camelum
camena
camera
camerae
cameram
camerarius
cameron
camillo
camillus
camino
camp
campagna
campana
campania
campaniae
campaniam
campanis
campbell
campestria
campestribus
campi
campidanus
campis
campo
camporum
campos
campum
campus
camunnorum
can
cana
canada
canadae
canadensis
canadian
canadiensis
canal
canale
canalem
canales
canalibus
canalis
canapicensium
canapisium
canariae
cancellaria
cancellarii
cancellario
cancellarium
cancellarius
cancer
cancri
cancro
cancrum
candelabra
candelabrum
candida
candidae
candidam
candidati
candidatus
candidi
candido
candidum
candidus
candor
candore
candorem
cane
canebant
canebat
canem
canens
canentes
canere
canes
cange
cani
canibus
canis
canit
canitur
cannabis
cano
canon
canone
canonem
canones
canonibus
canonica
canonicae
canonicam
canonicas
canonice
canonici
canonicis
canonico
canonicorum
canonicos
canonicum
canonicus
canonis
canonum
cant
cantabo
cantabrigiae
cantabrigiensis
cantalini
cantando
cantant
cantantes
cantare
cantat
cantate
cantatur
cantavit
cantemus
cantet
cantibus
cantica
cantici
canticis
cantico
canticorum
canticum
canto
cantor
cantores
cantoribus
cantorum
cantrix
cantu
cantuariae
cantuariensem
cantuariensi
cantuariensis
cantum
cantus
canum
canunt
cap
capacem
capaces
capacitatem
capax
cape
capella
capellae
capellam
capellani
capellanus
capellis
capere
caperent
caperet
caperetur
capharnaum
capi
capiamus
capiant
capiat
capiatur
capiebat
capienda
capiendo
capiendum
capiens
capientes
capiet
capilli
capillis
capillo
capillorum
capillos
capillum
capillus
capit
capita
capital
capitale
capitalem
capitales
capitali
capitalis
capite
capiti
capitibus
capitis
capitolinus
capitolio
capitolium
capitula
capitulare
capituli
capitulis
capitulo
capitulorum
capitulum
capitum
capitur
capiunt
capiuntur
capo
capp
cappadocia
cappadociae
cappella
capra
caprae
caprarum
capreae
capricorni
capris
capsicum
capta
captae
captam
captare
captas
capti
captis
captiva
captivam
captivi
captivis
captivitas
captivitate
captivitatem
captivitatis
captivorum
captivos
captivum
captivus
capto
captos
captu
captum
captus
capua
capuae
capuam
caput
caputque
car
cara
carabus
caralis
caralitana
carantoni
carantonis
carbo
carbone
carbones
carbonii
carbonis
carcer
carcere
carcerem
carceres
carceri
carceribus
carceris
card
cardin
cardinal
cardinale
cardinalem
cardinales
cardinali
cardinalibus
cardinalis
cardinalium
cardine
cardines
cardinibus
care
careant
careat
carens
carent
carentes
carentia
carentibus
carere
careret
caret
carex
cari
carina
carinae
carior
carissime
carissimi
caritas
caritate
caritatem
caritati
caritatis
carius
carl
carlo
carlos
carmen
carmina
carmine
carminibus
carminis
carminum
carnale
carnalem
carnales
carnali
carnalia
carnalibus
carnalis
carnaliter
carnalium
carne
carnem
carnes
carni
carnibus
carnifex
carnifices
carnis
carnium
carnotensis
caro
carol
carola
caroli
carolina
carolinae
carolo
carolum
carolus
carpere
carpit
carroll
carta
carter
cartesius
carthag
carthagine
carthaginem
carthaginensi
carthaginensis
carthaginienses
carthaginiensibus
carthaginiensium
carthaginis
carthago
cartina
caruisse
caruit
carum
carus
cas
casa
casae
casale
casalis
casam
casas
case
casei
caseo
caserta
casertana
caseum
caseus
casibus
casimirus
casis
caspar
caspium
cassa
cassiani
cassianus
cassii
cassini
cassio
cassiodorus
cassium
cassius
cassum
cast
casta
castae
castam
caste
castel
castella
castellae
castellana
castelli
castellio
castellis
castello
castellum
casti
castigare
castigat
castigatione
castiglione
castigo
castillio
castis
castitas
castitate
castitatem
castitatis
castle
casto
castor
castra
castrametati
castrensis
castri
castris
castro
castrorum
castrum
castum
castus
casu
casum
casus
casuum
cat
cata
catalana
catalane
catalanice
catalauniae
catalogi
catalogo
catalogue
catalogum
catalogus
catalonia
catechumeni
catechumenis
catechumenus
categoria
categorias
categorica
category
catena
catenae
catenam
catenas
catenis
caterva
catervae
catervas
catervis
catharina
catharinae
cathedra
cathedrae
cathedral
cathedralem
cathedrali
cathedralis
cathedram
cathedras
catherine
catholic
catholica
catholicae
catholicam
catholice
catholici
catholicis
catholico
catholicorum
catholicos
catholicum
catholicus
catilina
catilinae
catilinam
cato
catocala
catone
catonem
catonis
catuli
catullus
catulus
caucasi
caucasus
cauda
caudae
caudam
caulas
causa
causae
causalis
causam
causamque
causarum
causas
causat
causatum
causatur
cause
causidici
causidicus
causis
caussa
caussam
caussis
cauta
caute
cautela
cautelam
cautio
cautione
cautionem
cautius
cautum
cautus
cava
cave
cavea
caveamus
caveant
caveat
caveatur
cavenda
cavendum
cavere
caverna
cavernis
cavet
cavete
cc
ccc
cccc
cd
cdot
cdu
ce
cechiae
ceciderat
cecidere
ceciderit
ceciderunt
cecidi
cecidisse
cecidisset
cecidit
cecinerunt
cecinit
cedant
cedar
cedat
cede
cedens
cedere
cederet
cedit
cedo
cedri
cedros
cedrus
cedunt
celare
celat
celeber
celeberrima
celeberrimum
celeberrimus
celebramus
celebranda
celebrandam
celebrandum
celebrans
celebrant
celebrantes
celebrantur
celebrare
celebraret
celebrari
celebrat
celebrata
celebratae
celebratam
celebratio
celebratione
celebrationem
celebratis
celebrato
celebratum
celebratur
celebratus
celebravit
celebre
celebrem
celebremus
celebrentur
celebres
celebret
celebretur
celebri
celebris
celebritate
celer
celerem
celeres
celeri
celeritas
celeritate
celeritatem
celeriter
celerius
celerrime
celesti
celestia
celestis
celi
celis
cella
cellae
cellam
cellas
cellis
cellula
cellulae
cellulam
cellularum
cellulas
cellulis
celo
celorum
celsa
celsitudine
celsitudinem
celsitudinis
celsitudo
celso
celsum
celsus
celtorum
celum
cena
cenae
cenam
cenodoxus
cenomanensis
cenomannicae
censeat
censeatur
censebat
censemus
censent
censentur
censeo
censeri
censes
censet
censetur
censor
censores
censu
censuerunt
censuimus
censuit
censum
censura
censurae
censuram
censuris
census
centauri
centena
center
centesimae
centesimas
centesimis
centesimo
centesimum
centesimus
centies
centimetra
central
centrale
centrali
centralis
centre
centri
centro
centrum
centum
centuplum
centuries
centurio
centuriones
centurionis
century
ceperant
ceperat
ceperit
ceperunt
cepi
cepisse
cepisset
cepit
cera
cerae
ceram
cerebri
cerebro
cerebrum
cererem
cereris
ceres
cernat
cerne
cernebat
cernens
cernentes
cernere
cernerent
cerneret
cerni
cernimus
cernis
cernit
cernitis
cernitur
cerno
cernunt
cernuntur
certa
certae
certam
certamen
certamina
certamine
certamini
certaminibus
certaminis
certaminum
certant
certantes
certare
certas
certat
certatim
certatum
certavit
certe
certi
certior
certiorem
certiores
certis
certissima
certissime
certissimum
certitudine
certitudinem
certitudo
certius
certo
certos
certum
certus
cervantes
cervi
cervice
cervicem
cervices
cervicibus
cervicis
cervix
cervorum
cervus
ces
cesar
cesare
cesarem
cesaris
cessabit
cessabunt
cessant
cessante
cessantibus
cessare
cessaret
cessat
cessatione
cessavit
cessent
cesserit
cesserunt
cesset
cessisse
cessit
cetera
ceterae
ceteraque
ceterarum
ceteras
ceteri
ceteris
ceterisque
cetero
ceterorum
ceteros
ceterum
ceti
ceu
cf
cfa
cfr
ch
cha
chalcedonense
chalcedonensem
chalcedonensi
chalcedonensis
chalcographia
chaldaei
chaldaeis
chaldaeorum
chaldaeos
cham
chan
chanaan
chang
change
chaos
chapelle
chapman
char
chara
character
charactere
characterem
characteres
charaxes
charismata
charismatum
charissime
charissimi
charissimo
charissimum
charissimus
charitas
charitate
charitatem
charitati
charitatis
charles
charlotte
charon
charta
chartae
chartam
chartarum
chartas
chartis
chartula
charus
che
chelsea
chemia
chemiae
chemica
chemical
chemici
chemicum
chemicus
chemistry
chen
cher
chernykh
cherub
cherubim
cherubin
chez
chi
chicago
chiesa
child
childeberti
childebertus
children
chilia
chiliae
chiliometra
chiliometris
chiliometrorum
chilperici
chilpericus
chimaera
china
chinese
chirographo
chirographum
chiusole
chm
chomsky
chorda
chordarum
chordata
chordonia
chori
choris
choro
chorog
chorographia
choros
chorum
chorus
chr
chre
chris
chrisma
chrismate
chrismatis
christ
christe
christi
christian
christiana
christianae
christianam
christianarum
christianas
christiane
christiani
christianis
christianitas
christianitatem
christianitatis
christianity
christiano
christianorum
christianos
christianum
christianus
christie
christina
christinae
christine
christo
christoph
christophe
christopher
christophori
christophoro
christophorus
christos
christum
christus
chronica
chronicle
chronico
chronicon
chronologia
chronology
chrys
chrysogoni
chrysostomus
church
churchill
ci
cia
cibaria
cibi
cibis
cibo
ciborum
cibos
cibum
cibus
cic
cicatricem
cicatrices
cicatrix
cicero
cicerone
ciceronem
ciceroni
ciceronis
ciet
cii
ciii
cil
cilicia
ciliciae
ciliciam
cilicio
cilicium
cincta
cinctus
cinematographia
cinematographica
cinematographici
cinematographico
cinematographicus
cinere
cinerem
cineres
cineribus
cinerum
cingar
cingit
cingitur
cinguli
cingulo
cingulum
cinis
cinna
cinnamomum
circa
circe
circi
circiter
circo
circuit
circuitu
circuitum
circuitus
circuli
circulis
circulo
circulorum
circulos
circulum
circulus
circum
circumcidi
circumcisi
circumcisio
circumcisione
circumcisionem
circumcisionis
circumcisus
circumdabit
circumdat
circumdata
circumdatum
circumdatur
circumdatus
circumdederunt
circumdedit
circumfusa
circumiecta
circumiectis
circumire
circumquaque
circumscriptio
circumstantes
circumstantia
circumstantiae
circumstantibus
circumstantiis
circumstantium
circumventus
circus
cis
cisterciensis
cisterna
cit
citat
citata
citatio
citatis
citato
citatur
citatus
cite
citerioris
cithara
citharae
citharam
citharista
citius
cito
citra
citrus
citta
city
ciues
ciuibus
ciuitas
ciuitate
ciuitatem
ciuitates
ciuitatibus
ciuitatis
ciuium
civ
cive
civem
cives
civi
civibus
civica
civicae
civil
civile
civilem
civiles
civili
civilia
civilibus
civilis
civilitas
civilium
civilization
civis
civitas
civitate
civitatem
civitates
civitati
civitatibus
civitatis
civitatum
civitella
civium
cix
cj
ck
cl
clade
cladem
clades
cladibus
cladis
cladotheria
cladus
clam
clama
clamabant
clamabat
clamabo
clamabunt
clamamus
clamans
clamant
clamante
clamantem
clamantes
clamantis
clamare
clamaret
clamas
clamat
clamaverunt
clamavi
clamavit
clamet
clamor
clamore
clamorem
clamores
clamoribus
clamoris
clara
clarae
claraevallensis
claram
clare
clarendon
claret
clari
clarifica
clarificatus
clarior
clariorem
claris
clarissima
clarissime
clarissimi
clarissimis
clarissimo
clarissimorum
clarissimum
clarissimus
claritas
claritate
claritatem
claritatis
clarius
clark
clarke
claro
clarorum
claros
claruit
clarum
clarus
class
classe
classem
classes
classi
classibus
classica
classicae
classical
classicarum
classici
classicis
classico
classics
classicum
classicus
classificatio
classification
classificationis
classis
classium
claudat
claudatur
claude
claudere
claudi
claudia
claudii
claudio
claudit
clauditur
claudium
claudius
claudum
claudunt
clauduntur
claudus
clausa
clausae
clausam
clausas
clausi
clausis
clausit
clauso
clausos
claustra
claustris
claustro
claustrum
clausula
clausulam
clausulas
clausum
clausus
clavem
claves
clavi
clavile
clavilista
clavis
clavista
clavorum
clavum
cle
clemens
clemente
clementem
clementer
clementi
clementia
clementiae
clementiam
clementina
clementis
clementissime
clementissimus
cleopatra
cleopatrae
cleri
clericali
clericalis
clericatus
clerici
clericis
clerico
clericorum
clericos
clericum
clericus
clero
clerum
clerus
cles
cliens
clientes
clima
climate
clinton
clio
clipeo
clipeum
clivi
clodius
club
cluniacensi
cluniacensis
clusius
clypeum
cm
cn
co
coacta
coacti
coactis
coacto
coactum
coactus
coaeterna
coaeternum
coaeternus
coast
coat
cocco
cocta
coctum
cod
codd
code
codex
codice
codicem
codices
codicibus
codicis
codicum
coe
coegerunt
coegit
coeleste
coelestem
coelestes
coelesti
coelestia
coelestibus
coelestii
coelestini
coelestinus
coelestis
coelestium
coelestius
coeli
coelis
coelitus
coelo
coelorum
coelos
coelum
coemeterio
coemeterium
coena
coenae
coenam
coeno
coenobii
coenobio
coenobium
coeperam
coeperant
coeperat
coepere
coeperimus
coeperint
coeperis
coeperit
coeperunt
coepi
coepimus
coepiscopi
coepiscopis
coepiscopo
coepiscoporum
coepiscopos
coepiscopum
coepiscopus
coepisse
coepissent
coepisset
coepisti
coepistis
coepit
coepta
coeptis
coepto
coeptum
coercere
coerceri
coercet
coetibus
coetu
coetum
coetus
coeunt
cogantur
cogat
cogatur
cogebat
cogente
cogere
cogerentur
cogeret
cogeretur
cogi
cogimur
cogis
cogit
cogita
cogitabant
cogitabat
cogitamus
cogitandi
cogitando
cogitandum
cogitans
cogitant
cogitantem
cogitantes
cogitanti
cogitare
cogitaret
cogitari
cogitas
cogitat
cogitata
cogitate
cogitatio
cogitatione
cogitationem
cogitationes
cogitationi
cogitationibus
cogitationis
cogitationum
cogitatis
cogitatum
cogitatur
cogitaverunt
cogitavi
cogitavit
cogitemus
cogitent
cogites
cogitet
cogito
cogitur
cognata
cognati
cognatio
cognatione
cognationem
cognationes
cognationis
cognatis
cognatos
cognatum
cognatus
cognita
cognitae
cognitam
cogniti
cognitio
cognitione
cognitionem
cognitioni
cognitionis
cognitis
cognitiva
cognito
cognitor
cognitum
cognitus
cognomen
cognomento
cognomina
cognominatur
cognominatus
cognomine
cognoscam
cognoscamus
cognoscant
cognoscas
cognoscat
cognoscatis
cognoscatur
cognosce
cognoscenda
cognoscendam
cognoscendi
cognoscendo
cognoscendum
cognoscens
cognoscent
cognoscentes
cognoscere
cognoscerent
cognosceret
cognosceretur
cognosces
cognoscet
cognoscetis
cognosci
cognoscimus
cognoscis
cognoscit
cognoscite
cognoscitis
cognoscitur
cognosco
cognoscunt
cognoscuntur
cognouit
cognoverat
cognoverint
cognoveris
cognoverit
cognoverunt
cognovi
cognovimus
cognovisse
cognovissent
cognovisset
cognovisti
cognovistis
cognovit
cogor
cogunt
coguntur
cohaeredes
cohaerent
cohaerere
cohaeret
cohen
cohibere
cohibet
cohors
cohorte
cohortem
cohortes
cohortibus
cohortis
coinage
coire
coit
coitu
coitum
coitus
col
colant
colat
cold
cole
colebant
colebat
colebatur
colenda
colendi
colendo
colendum
colentes
coleoptera
coleopterorum
colere
colerent
coli
colias
colimus
colin
colis
colit
colitis
colitur
coll
colla
collapsa
collata
collatae
collatam
collatio
collatione
collationem
collationis
collatis
collatum
colle
collect
collecta
collectae
collectam
collectas
collected
collecti
collectio
collection
collectione
collectionem
collectiones
collectionibus
collectionis
collections
collectis
collecto
collectum
collectus
collega
collegae
collegam
collegarum
collegas
college
collegerunt
collegia
collegii
collegiis
collegio
collegiorum
collegis
collegit
collegium
collem
colles
colli
collibus
colligat
collige
colligens
colligere
colligi
colligimus
colligit
colligitur
colligunt
colliguntur
collins
collis
collium
collo
collocantur
collocare
collocari
collocat
collocata
collocati
collocatio
collocatum
collocatur
collocatus
collocavit
colloque
colloqui
colloquia
colloquii
colloquiis
colloquio
colloquium
colluctatio
collum
colo
coloni
colonia
coloniae
colonial
coloniam
coloniarum
colonias
coloniensi
coloniensis
coloniis
colonis
colonorum
colonos
colonus
color
colorati
coloratum
colore
colorem
colores
coloribus
coloris
colorum
coloss
colossenses
coluber
coluerunt
coluit
columba
columbae
columbam
columbani
columbarum
columbas
columbia
columbiae
columbus
columella
columna
columnae
columnam
columnarum
columnas
columnis
colunt
coluntur
com
coma
comae
comam
comas
combussit
come
comedat
comede
comedendum
comedent
comedere
comederit
comederunt
comedet
comedetis
comedi
comedit
comedite
comedunt
comes
comi
comicus
cominus
comis
comitante
comitantibus
comitantur
comitata
comitatu
comitatum
comitatur
comitatus
comite
comitem
comiter
comites
comitetur
comiti
comitia
comitibus
comitiis
comitiorum
comitis
comitissa
comitissae
comitum
commeatu
commeatum
commeatus
commemorans
commemorant
commemorantur
commemorare
commemoras
commemorat
commemorata
commemoratio
commemoratione
commemorationem
commemoratum
commemoratur
commemoravi
commemoravimus
commemoravit
commendabat
commendamus
commendans
commendant
commendantes
commendare
commendaret
commendari
commendat
commendata
commendatio
commendatione
commendationem
commendatum
commendatur
commendavit
commendet
commendo
comment
commenta
commentaria
commentarii
commentariis
commentario
commentariorum
commentarios
commentarium
commentarius
commentary
commentatio
commentationes
commentator
commento
commentum
commercia
commercialis
commercii
commercio
commercium
commilitones
comminatur
comminatus
comminus
commiserat
commiserit
commiserunt
commisimus
commisisse
commisit
commissa
commissae
commissam
commissi
commissio
commission
commissione
commissionis
commissis
commisso
commissum
commissus
committat
committee
committendam
committere
committeret
committi
committimus
committit
committitur
committunt
committuntur
commixtio
commixtione
commixtionem
commoda
commode
commodi
commodis
commodius
commodo
commodum
commodus
common
commonet
commonita
commoniti
commonitionem
commonitorium
commonitus
commorantes
commorantur
commorari
commoratur
commoratus
commota
commoti
commotio
commotione
commotionem
commotum
commotus
commovebitur
commovere
commoveri
commovet
commovetur
commovit
commune
communem
communes
communi
communia
communibus
communicant
communicantes
communicare
communicat
communicatio
communicatione
communicationem
communicationis
communicato
communicavit
communicent
communicet
communimus
communinatis
communio
communione
communionem
communioni
communionis
communis
communistarum
communisticae
communitas
communitate
communitatem
communitates
communitatibus
communitatis
communiter
community
communium
commutare
commutari
commutata
commutatio
commutatione
commutationem
commutationes
commutatur
commutavit
comnenus
como
comoedia
comoediae
comoedus
compage
compago
companion
company
compar
comparanda
comparandum
comparantur
comparare
comparari
comparat
comparata
comparati
comparatio
comparatione
comparationem
comparationis
comparatis
comparativa
comparative
comparatum
comparatur
comparatus
comparavit
comparentur
comparet
comparetur
comparuit
compassione
compassionem
compati
compatitur
compedes
compedibus
compellantur
compellat
compellatur
compellere
compelli
compellimur
compellit
compellitur
compellunt
compendia
compendio
compendium
comperi
comperimus
comperisset
comperit
comperta
comperto
compertum
compescere
compescuit
competat
competens
competentem
competenter
competentes
competenti
competentibus
competere
competit
competunt
complacui
complacuit
compleantur
compleat
compleatur
complectens
complecti
complectitur
complectuntur
complementum
complendum
complent
complentur
complere
complerentur
compleretur
compleri
complet
completa
completam
complete
completis
completo
completum
completur
completus
complevit
complexa
complexi
complexu
complexum
complexus
complices
complura
complures
compluribus
componat
componenda
componens
componere
componi
componit
componitur
componunt
componuntur
compos
composita
compositae
compositam
compositi
compositio
composition
compositione
compositionem
compositiones
compositionis
compositis
composito
compositor
compositores
compositorum
compositos
compositum
compositus
composto
composuerunt
composuit
compotes
comprehendat
comprehendens
comprehendere
comprehenderunt
comprehendi
comprehendit
comprehenditur
comprehendunt
comprehenduntur
comprehensa
comprehensi
comprehensorialis
comprehensum
comprehensus
compressa
comprobare
comprobata
comprobatur
comprobavit
compulit
compulsi
compulsus
compuncti
compunctio
compunctione
compunctionem
compunctionis
compunctus
computantur
computare
computari
computatralis
computatrum
computatur
computer
comte
comum
comune
comuni
comunita
con
conabantur
conabatur
conamine
conamur
conantur
conarentur
conaretur
conari
conaris
conata
conati
conatibus
conatu
conatum
conatur
conatus
conc
concedam
concedamus
concedas
concedat
concedatur
concede
concedenda
concedendum
concedente
concedere
concederet
concedi
concedimus
concedis
concedit
conceditur
concedo
concedunt
conceduntur
concentus
conceperat
conceperit
concepit
concepta
conceptam
concepti
conceptio
conceptione
conceptionem
conceptionis
concepto
conceptu
conceptum
conceptus
concerning
concessa
concessae
concessam
concessas
concesserat
concesserit
concesserunt
concessi
concessimus
concessio
concessione
concessionem
concessionis
concessis
concessisse
concessit
concesso
concessum
concessus
concidit
concil
concilia
conciliabulum
conciliare
conciliat
concilii
conciliis
concilio
conciliorum
concilium
concione
concipere
concipi
concipit
concipitur
concipiunt
concise
concitat
concitavit
conclave
conclavi
concludat
concludens
concludere
concludi
concludit
concluditur
concludunt
conclusa
conclusi
conclusio
conclusione
conclusionem
conclusiones
conclusionis
conclusit
conclusum
conclusus
concordant
concordare
concordat
concordes
concordi
concordia
concordiae
concordiam
concorditer
concors
concreta
concreto
concretum
concubina
concubinae
concubinam
concubitu
concubitum
concubitus
concupiscat
concupiscendum
concupiscentia
concupiscentiae
concupiscentiam
concupiscentias
concupiscentiis
concupiscere
concupisces
concupiscibilis
concupiscit
concupiscunt
concupivit
concurrant
concurrentes
concurrentibus
concurrere
concurrit
concurrunt
concursu
concursum
concursus
concussa
concutit
concutitur
conde
condecet
condemnare
condemnari
condemnat
condemnatione
condemnationem
condemnatur
condemnatus
condemnavit
condemnet
condere
conderet
condi
condicio
condicione
condicionem
condiciones
condicionibus
condicionis
condiderat
condiderunt
condidisse
condidit
condigna
condignae
condignam
condit
condita
conditae
conditam
conditi
conditio
conditione
conditionem
conditiones
conditioni
conditionibus
conditionis
conditis
condito
conditor
conditore
conditorem
conditores
conditori
conditoribus
conditoris
conditum
conditur
conditus
conducere
conducit
conductor
conduxit
conentur
conetur
conf
confecit
confecta
confectae
confectam
confecti
confectis
confecto
confectum
confectus
confer
conferamus
conferant
conferantur
conferas
conferat
conferatur
conference
conferenda
conferendum
conferens
conferentia
conferre
conferret
conferri
confert
confertur
conferunt
conferuntur
confessa
confessi
confessio
confessione
confessionem
confessiones
confessioni
confessionibus
confessionis
confessor
confessorem
confessores
confessoris
confessorum
confessum
confessus
confestim
conficere
confici
conficit
conficitur
conficiunt
confidat
confidens
confidenter
confidentes
confidentia
confidentiam
confidere
confidimus
confidit
confido
confidunt
confinia
confinio
confinium
confirma
confirmamus
confirmandam
confirmandum
confirmans
confirmant
confirmantes
confirmantur
confirmare
confirmaret
confirmari
confirmasse
confirmat
confirmata
confirmati
confirmatio
confirmatione
confirmationem
confirmationis
confirmatum
confirmatur
confirmatus
confirmavit
confirmet
confirmetur
confirmo
confisi
confisus
confiteamur
confiteantur
confiteatur
confitebitur
confitebor
confitemini
confitemur
confitendo
confitendum
confitens
confitentem
confitentes
confitentibus
confitentur
confiteor
confitere
confiteretur
confiteri
confiteris
confitetur
conflict
conflictu
conflictum
conflictus
confligere
conflixit
confluentes
confluit
confoederatio
confoederationis
conformes
confortamini
confortare
confortat
confortatus
confracta
confregit
confringet
confugere
confugit
confugiunt
confundantur
confundar
confundat
confundentur
confundere
confundetur
confundi
confundit
confunditur
confundunt
confusa
confuse
confusi
confusio
confusione
confusionem
confusionis
confusum
confusus
congensis
congeries
congesta
congredi
congregabo
congregabuntur
congregans
congregant
congregantur
congregare
congregari
congregat
congregata
congregatae
congregati
congregatio
congregatione
congregationem
congregationes
congregationi
congregationibus
congregationis
congregatis
congregato
congregatos
congregatum
congregavit
congress
congressi
congressione
congressu
congressum
congressus
congrua
congruam
congruat
congrue
congruebat
congruens
congruentem
congruenter
congruentia
congruentius
congruere
congruis
congruit
congruo
congruum
congruunt
coniectura
coniecturam
coniectus
coniugali
coniugalis
coniuge
coniugem
coniuges
coniugi
coniugia
coniugibus
coniugii
coniugio
coniugis
coniugium
coniugum
coniuncta
coniunctae
coniunctam
coniuncti
coniunctim
coniunctio
coniunctione
coniunctionem
coniunctiones
coniunctionis
coniunctis
coniunctum
coniunctus
coniungere
coniungi
coniungit
coniungitur
coniunguntur
coniunx
coniunxit
coniuratio
coniuratione
coniurationem
coniurationis
coniux
conj
conjectura
conjicere
conjugali
conjugalis
conjuge
conjugem
conjuges
conjugia
conjugibus
conjugii
conjugio
conjugis
conjugium
conjugum
conjuncta
conjuncti
conjunctio
conjunctione
conjunctionem
conjunctis
conjunctum
conjunctus
conjungere
conjungi
conjungit
conjungitur
conjunxit
conjux
connecticutae
connexa
connexio
connexione
connubii
connubio
connubium
conqueri
conqueritur
conquest
conquestus
conrad
conradi
conrado
conradus
cons
consanguinei
consanguineis
consanguinitatis
conscendere
conscendit
conscia
conscientia
conscientiae
conscientiam
conscientias
conscii
conscios
conscium
conscius
consciverunt
conscivit
conscribere
conscripsit
conscripta
conscriptae
conscripti
conscriptis
conscriptum
conscriptus
consecrare
consecrari
consecrata
consecrati
consecratio
consecratione
consecrationem
consecrationes
consecrationis
consecratum
consecratur
consecratus
consecravit
consecuta
consecuti
consecutum
consecutus
consedit
consenserint
consenserit
consenserunt
consensi
consensio
consensione
consensionem
consensisse
consensit
consensu
consensum
consensus
consentanea
consentaneum
consentia
consentiant
consentiat
consentiendo
consentiens
consentiente
consentientes
consentientibus
consentina
consentio
consentire
consentit
consentiunt
consepulti
consequamur
consequantur
consequatur
consequens
consequente
consequenter
consequenti
consequentia
consequentiae
consequentiam
consequentibus
consequentis
consequentur
consequetur
consequi
consequitur
consequuntur
conserva
conservanda
conservandam
conservantur
conservare
conservari
conservat
conservata
conservation
conservationem
conservativae
conservatum
conservatur
conservavit
conserventur
conservet
conservetur
consessu
considera
consideranda
considerandum
considerans
considerant
considerantes
considerantur
considerare
considerari
considerat
considerata
considerate
consideratio
consideratione
considerationem
considerationis
consideratis
consideratur
consideravit
consideremus
considerent
consideres
consideret
consideretur
considero
consili
consilia
consiliarii
consiliariis
consiliariorum
consiliarios
consiliarius
consilii
consiliis
consilio
consiliorum
consilium
consimiles
consimili
consimilis
consistant
consistat
consistens
consistentes
consistentibus
consistere
consisteret
consistit
consistorio
consistorium
consistunt
consobrinus
consociata
consociatio
consociatione
consociationem
consociationis
consolari
consolatio
consolatione
consolationem
consolationes
consolationis
consolator
consolatur
consolatus
consoletur
consona
consonans
consonantem
consonantes
consonantia
consonantiam
consonantibus
consonat
consors
consortem
consortes
consortia
consortibus
consortio
consortium
conspecta
conspectibus
conspectu
conspectui
conspectum
conspectus
conspexit
conspicere
conspiceret
conspici
conspiciens
conspicimus
conspicis
conspicit
conspicitur
conspiciunt
conspiciuntur
conspicua
conspicuum
conspicuus
conspiratione
conss
const
constabat
constabit
constans
constant
constante
constantem
constanter
constantes
constanti
constantia
constantiae
constantiam
constantiensis
constantii
constantini
constantino
constantinople
constantinopoleos
constantinopoli
constantinopolim
constantinopolis
constantinopolitana
constantinopolitanae
constantinopolitanam
constantinopolitani
constantinopolitano
constantinopolitanum
constantinopolitanus
constantinum
constantinus
constantio
constantis
constantissime
constantium
constantius
constare
constaret
constat
constellatio
constellatione
constellationes
constellationis
constellations
constet
constiterit
constitit
constituam
constituant
constituantur
constituat
constituatur
constitue
constituendae
constituens
constituentes
constituerat
constituere
constitueret
constituerit
constituerunt
constitues
constitui
constituimus
constituiret
constituisse
constituisti
constituit
constituitur
constituta
constitutae
constitutam
constitutas
constituti
constitutio
constitutione
constitutionem
constitutiones
constitutioni
constitutionibus
constitutionis
constitutionum
constitutis
constituto
constitutos
constitutum
constitutus
constituunt
constituuntur
constrictus
constringit
constringitur
constructa
constructae
constructio
constructione
constructionem
constructionis
constructum
constructus
construere
construi
construitur
construxerat
construximus
construxit
consubstantialem
consubstantialis
consuerunt
consueta
consuetis
consueto
consuetudine
consuetudinem
consuetudines
consuetudini
consuetudinibus
consuetudinis
consuetudo
consuetum
consueverant
consueverat
consueverunt
consuevit
consul
consularem
consulares
consulari
consularibus
consularis
consulat
consulatu
consulatum
consulatur
consulatus
consule
consulem
consulendum
consulens
consulentes
consulere
consuleret
consules
consuli
consulibus
consulis
consulit
consulitur
consulta
consultato
consulti
consulto
consultum
consultus
consuluit
consulum
consulunt
consumat
consumens
consumere
consumi
consumit
consumitur
consummare
consummata
consummati
consummatio
consummatione
consummationem
consummationis
consummato
consummatum
consummatur
consummatus
consummavit
consumpsit
consumpta
consumpti
consumptis
consumptum
consumptus
consurgens
consurgere
consurget
consurgit
consurgunt
contactu
contactus
contagia
contagio
contagione
contagium
conte
contemnant
contemnat
contemnenda
contemnens
contemnentes
contemnere
contemneret
contemni
contemnis
contemnit
contemnitur
contemnunt
contemplari
contemplatio
contemplatione
contemplationem
contemplationis
contemplativa
contemplativae
contemplatur
contemplatus
contemporary
contempserint
contempserit
contempserunt
contempsit
contempta
contemptis
contempto
contemptor
contemptores
contemptu
contemptui
contemptum
contemptus
contendant
contendat
contendens
contendere
contenderet
contendimus
contendis
contendit
contenditis
contendunt
contenta
contenti
contentio
contentione
contentionem
contentiones
contentionibus
contentionis
contentis
contentum
contentus
conteret
contermina
contestata
context
contexta
contextu
contextum
contextus
contigerat
contigerit
contigerunt
contigisse
contigisset
contigit
contigua
contineant
contineat
contineatur
continebant
continebantur
continebat
continebatur
continens
continent
continentalis
continente
continentem
continenter
continentes
continenti
continentia
continentiae
continentiam
continentibus
continentis
continentium
continentur
continere
contineret
contineri
continet
continetur
contingant
contingat
contingens
contingenter
contingenti
contingentia
contingere
contingeret
continget
contingit
contingunt
continua
continuae
continuam
continuas
continuata
continuatio
continuatione
continuationem
continuatur
continue
continui
continuis
continuit
continuo
continuos
continuum
continuus
contione
contionem
contra
contracta
contractibus
contractis
contractu
contractum
contractus
contradicat
contradicere
contradicit
contradictio
contradictione
contradictionem
contradictiones
contradictionis
contradictores
contradictoria
contradicunt
contrahere
contrahi
contrahit
contrahitur
contrahunt
contraire
contraque
contraria
contrariae
contrariam
contrarias
contrarie
contrarietas
contrarietate
contrarietatem
contrarii
contrariis
contrario
contrariorum
contrarios
contrarium
contrarius
contraxerat
contraxit
contremuit
contribuit
contributa
contristare
contristari
contristati
contristatus
contrita
contriti
contritio
contritione
contritionem
contrito
contritum
contritus
contrivit
control
controversia
controversiae
controversiam
controversias
controversiis
contubernio
contubernium
contulerat
contulerit
contulerunt
contulimus
contulisse
contulisti
contulit
contumacem
contumaces
contumacia
contumaciam
contumaciter
contumax
contumelia
contumeliae
contumeliam
contumelias
contumeliis
conturbant
conturbat
conturbata
conturbati
conturbatus
conueniat
conueniens
conuenienter
conuenire
conuenit
conueniunt
conuersa
conuersio
conuersionem
conuerso
conuersus
conuerti
conuertit
conuertitur
conuertuntur
conv
convalle
convaluit
convellere
convenerant
convenerat
convenerint
convenerit
convenerunt
conveniant
conveniat
conveniebant
conveniens
convenientem
convenienter
convenientes
convenienti
convenientia
convenientiam
convenientibus
convenientius
conveniet
convenimus
convenire
convenirent
conveniret
conveniri
convenisse
convenissent
convenit
conveniunt
conventibus
conventicula
conventio
conventione
conventionem
conventu
conventui
conventum
conventus
conversa
conversae
conversam
conversari
conversatio
conversatione
conversationem
conversationis
conversatus
conversi
conversio
conversione
conversionem
conversionis
conversis
converso
conversos
conversum
conversus
convertam
convertantur
convertar
convertat
convertatur
converte
convertens
convertentur
convertere
converteret
converterit
convertetur
converti
convertimini
convertit
convertitur
convertunt
convertuntur
convicia
conviciis
convicium
convicti
convictum
convictus
convincere
convinci
convincit
convincitur
conviva
convivia
convivii
conviviis
convivio
convivium
convocat
convocatis
convocato
convocavit
cook
cookery
cooper
cooperante
cooptatus
copia
copiae
copiam
copiarum
copias
copiis
copiosa
copiosam
copiose
copiosius
copiosum
copula
copulae
copulam
copulantur
copulare
copulari
copulat
copulata
copulatione
copulatur
copulavit
coqui
coquina
coquinaria
coquitur
coquus
cor
coram
corda
corde
cordi
cordibus
cordis
cordium
cordubensis
core
corea
coreae
coreana
coreanae
coreane
corinth
corinthi
corinthii
corinthiis
corinthiorum
corinthios
corinthum
corio
corium
cornelia
cornelii
cornelio
cornelium
cornelius
cornell
cornibus
cornu
cornua
cornubiae
cornus
corollarium
corona
coronae
coronam
coronari
coronas
coronat
coronata
coronati
coronatur
coronatus
coronavit
coronis
corpora
corporale
corporalem
corporales
corporali
corporalia
corporalibus
corporalis
corporaliter
corporalium
corporation
corpore
corporea
corporeae
corpoream
corporeas
corporei
corporeis
corporeo
corporeum
corporeus
corpori
corporibus
corporis
corporisque
corporum
corpus
corpusculum
corpusque
correcta
correcti
correctio
correctione
correctionem
correctionis
correctus
correpta
correpti
correptio
correptione
correptionem
correptionis
correptus
correspondens
correspondet
correxerit
correxit
corrigantur
corrigat
corrigatur
corrigenda
corrigendi
corrigendum
corrigere
corrigi
corrigiam
corrigit
corrigitur
corripe
corripere
corripi
corripias
corripit
corripitur
corripuit
corruat
corruerunt
corruit
corrumpat
corrumpere
corrumpi
corrumpit
corrumpitur
corrumpunt
corrupit
corrupta
corruptae
corruptam
corruptela
corrupti
corruptibile
corruptibilem
corruptibili
corruptibilis
corruptio
corruptione
corruptionem
corruptioni
corruptionis
corruptis
corrupto
corruptum
corruptus
corruunt
corsica
corsicae
corte
cortex
cortice
corticem
corticis
corum
coruscat
corvi
corvus
cos
cosmae
cosmedin
coss
costa
cotidiana
cotidie
cotta
cottidie
could
council
country
county
course
court
cp
cracoviae
craig
cramer
crane
crapula
cras
crassa
crassi
crassitudine
crassitudo
crasso
crassum
crassus
crastina
crastino
crastinum
crater
crates
crawford
crc
cre
crea
creando
creans
creant
creantur
creare
crearetur
creari
creasse
creasti
creat
creata
creatae
creatam
creati
creatio
creatione
creationem
creationis
creatis
creato
creator
creatore
creatorem
creatori
creatoris
creatum
creatur
creatura
creaturae
creaturam
creaturarum
creaturas
creaturis
creatus
creauit
creaverunt
creavit
crebra
crebras
crebris
crebrius
crebro
credam
credamus
credant
credantur
credas
credat
credatis
credatur
crede
credebant
credebat
credebatur
credenda
credendi
credendo
credendum
credendus
credens
credent
credentem
credentes
credenti
credentibus
credentis
credentium
credere
crederem
crederemus
crederent
crederes
crederet
crederetis
crederetur
credet
credi
credibile
crediderant
crediderat
crediderim
crediderint
credideris
crediderit
credideritis
crediderunt
credidi
credidimus
credidisse
credidissent
credidisti
credidistis
credidit
credimus
credis
credit
credita
credite
creditis
creditor
creditori
creditoribus
creditum
creditur
credituri
creditus
credo
credulitas
credulitate
credulitatem
credulitatis
credunt
creduntur
cremona
cremonae
cremonam
cremonensi
cremonensis
crescant
crescat
crescebat
crescendo
crescens
crescente
crescentem
crescentes
crescentibus
crescentis
crescere
cresceret
crescit
crescite
crescunt
creta
cretae
cretam
creverit
creverunt
crevisse
crevit
crimaeae
crimen
crimina
criminalibus
crimine
crimini
criminibus
criminis
criminum
crine
crinem
crines
crinibus
crisis
crispinus
crispus
cristi
cristo
critica
critical
criticism
critico
criticus
critique
croatia
croatiae
croatice
croce
croix
crosae
cross
crown
cruce
crucem
cruces
cruci
cruciat
cruciatibus
cruciatu
cruciatum
cruciatur
cruciatus
crucibus
crucifige
crucifigi
crucifixerunt
crucifixi
crucifixissent
crucifixo
crucifixum
crucifixus
crucis
cruda
crudele
crudelem
crudeles
crudeli
crudelia
crudelis
crudelitas
crudelitate
crudelitatem
crudelitatis
crudeliter
crudelius
cruenta
cruentis
cruento
cruentum
cruentus
cruor
cruore
cruorem
cruoris
crura
cruribus
crus
crux
cruz
crypta
cs
csu
ct
ctenus
cth
cu
cuba
cubae
cubiculi
cubiculo
cubiculum
cubile
cubili
cubilia
cubilibus
cubiti
cubitis
cubito
cubitorum
cubitos
cubitum
cucurrerunt
cucurrit
cui
cuicumque
cuicunque
cuidam
cuilibet
cuipiam
cuiquam
cuique
cuisine
cuius
cuiuscumque
cuiuscunque
cuiusdam
cuiuslibet
cuiusmodi
cuiusquam
cuiusque
cuiusvis
cuivis
cujus
cujuscumque
cujuscunque
cujusdam
cujuslibet
cujusmodi
cujusquam
cujusque
culinaria
culmen
culmina
culmine
culminis
culpa
culpabilis
culpae
culpam
culparum
culpas
culpis
culta
cultibus
cultis
cultor
cultores
cultoribus
cultro
cultu
cultui
cultum
cultura
culturae
cultural
culturalis
culturam
culturas
culture
cultures
culturis
cultus
cum
cumcathedralis
cumque
cumulo
cumulum
cumulus
cunabula
cunabulis
cuncta
cunctae
cunctam
cunctaque
cunctarum
cunctas
cunctatione
cuncti
cunctis
cunctisque
cuncto
cunctorum
cunctos
cunctus
cuneensi
cuneensis
cunei
cuneo
cuneos
cuneum
cuneus
cuniculus
cunis
cunta
cupere
cuperet
cupiant
cupiat
cupide
cupidi
cupidine
cupidinem
cupidinis
cupiditas
cupiditate
cupiditatem
cupiditates
cupiditati
cupiditatibus
cupiditatis
cupiditatum
cupido
cupidum
cupidus
cupiebant
cupiebat
cupiens
cupientes
cupientibus
cupimus
cupio
cupis
cupit
cupiunt
cupri
cur
cura
curabat
curabo
curae
curalii
curam
curamus
curanda
curandi
curandum
curans
curant
curante
curantur
curare
curarent
curaret
curari
curarum
curas
curat
curata
curatio
curatione
curationem
curationis
curationum
curator
curatores
curatur
curatus
curaverit
curaverunt
curavi
curavimus
curavit
curcuma
cure
curemus
curent
cures
curet
curetis
curia
curiae
curiam
curie
curio
curiose
curiositas
curiositate
curiosius
curis
curo
curramus
currant
currat
currens
current
currente
currentem
currentes
currentis
currere
curretiae
curribus
curricula
curriculo
curriculum
currit
currite
curro
curru
currum
currunt
currus
cursibus
cursim
cursor
cursu
cursum
cursus
curte
curtem
curtes
curtis
curtius
curva
cusiana
cuspide
custode
custodem
custodes
custodi
custodia
custodiae
custodiam
custodiant
custodias
custodiat
custodiatur
custodibus
custodienda
custodiendam
custodiendum
custodiens
custodientes
custodierit
custodierunt
custodiet
custodiis
custodire
custodiret
custodiri
custodis
custodit
custodita
custodite
custoditur
custodiunt
custodivi
custodivit
custodum
custos
cut
cute
cutem
cutis
cv
cvi
cvii
cviii
cw
cx
cxi
cxii
cxiii
cxiv
cxix
cxl
cxli
cxlii
cxliii
cxliv
cxlv
cxlvi
cxlviii
cxv
cxvi
cxvii
cxviii
cxx
cxxi
cxxii
cxxiii
cxxiv
cxxix
cxxv
cxxvi
cxxvii
cxxviii
cxxx
cxxxi
cxxxii
cxxxiv
cxxxix
cxxxv
cxxxvi
cxxxvii
cxxxviii
cyathea
cycli
cyclo
cyclum
cyclus
cynthia
cyp
cypri
cypriani
cypriano
cyprianum
cyprianus
cypro
cyprum
cyprus
cyri
cyrilli
cyrillo
cyrillum
cyrillus
cyro
cyrum
cyrus
cæli
cælo
cælum
d
da
dabant
dabat
dabatur
dabimus
dabis
dabit
dabitur
dabo
dabunt
dacia
dacoromanica
dacoromanice
dacoromanicus
dacoromanus
dacorum
daemon
daemone
daemonem
daemones
daemonia
daemonibus
daemoniis
daemonio
daemoniorum
daemonis
daemonium
daemonum
dag
daga
dagoberti
dagobertus
daily
dal
dalby
dall
dalla
dalle
dalmatia
dalmatiae
dalmatiam
dam
dama
damascenus
damasci
damascum
damascus
damasi
damaso
damasus
dame
damiani
damianus
damna
damnabitur
damnamus
damnanda
damnandum
damnant
damnantur
damnare
damnaret
damnaretur
damnari
damnat
damnata
damnatae
damnatam
damnati
damnatio
damnatione
damnationem
damnationi
damnationis
damnatis
damnato
damnatorum
damnatos
damnatum
damnatur
damnatus
damnaverunt
damnavit
damnentur
damnet
damnetur
damni
damnis
damno
damnum
damus
dan
dana
dance
danda
dandam
dandi
dando
dandum
dania
daniae
danica
danice
danicus
daniel
daniele
danielem
danieli
danielis
danorum
dans
dant
dante
dantem
dantes
dantis
dantur
danubii
danubium
dapes
dapibus
dare
darem
darent
darentur
dares
daret
daretur
dari
darii
dario
darium
darius
dark
darmstadii
darwin
das
dat
data
database
datae
datam
datas
date
dathan
dati
datis
dativo
dativum
dativus
dato
dator
datorem
datorum
datos
datum
datur
daturum
daturus
datus
dauid
david
davide
davidis
davidson
davies
davis
dawn
day
days
dc
dd
ddja
de
dea
dead
deae
deal
dealbata
deam
dean
deas
death
debeam
debeamus
debeant
debeas
debeat
debeatis
debeatur
debebant
debebat
debebatur
debebis
debebit
debebunt
debemus
debent
debentur
debeo
debere
deberem
deberemus
deberent
deberes
deberet
deberi
debes
debet
debetis
debetur
debilem
debiles
debilis
debilitas
debilitate
debilitatem
debita
debitae
debitam
debitas
debiti
debitis
debito
debitor
debitorem
debitores
debitoribus
debitorum
debitum
debitus
debuerant
debueras
debuerat
debuerit
debuerunt
debui
debuimus
debuisse
debuissent
debuisset
debuisti
debuit
dec
decalogi
decani
decano
decanum
decanus
deceat
decebat
decedente
decedere
decem
decemb
december
decembri
decembris
decennia
decennio
decennium
decens
decenter
decepit
decepta
decepti
deceptionis
deceptum
deceptus
decere
deceret
decernentes
decernere
decerni
decernimus
decernit
decernitur
decernunt
decesserit
decessit
decessor
decessore
decessores
decessoris
decessorum
decessum
decet
decidat
decidit
decies
decima
decimae
decimam
decimarum
decimas
decimi
decimis
decimo
decimum
decimus
decio
decipere
decipi
decipiant
decipiat
decipit
decipitur
decipiunt
decius
declaramus
declarant
declarare
declarat
declarata
declaratio
declaratione
declarationem
declarationis
declaratum
declaratur
declaratus
declaravit
declinans
declinant
declinantes
declinantur
declinare
declinat
declinatio
declinatione
declinationem
declinationis
declinatur
declinaverunt
declinavit
declines
declinet
decocta
decor
decora
decorata
decoratum
decoratus
decoravit
decore
decorem
decori
decoris
decorum
decorus
decrescit
decreta
decreti
decretis
decreto
decretorum
decretum
decreverat
decreverit
decreverunt
decrevi
decrevimus
decrevit
decuit
decurio
decurrens
decurrere
decurrit
decursibus
decursu
decursus
decus
dedecore
dedecoris
dedecus
dederant
dederat
dedere
dederint
dederis
dederit
dedero
dederunt
dedi
dedicata
dedicatio
dedicatione
dedicationem
dedicationis
dedicatoria
dedicatum
dedicavit
dedignatur
dedignatus
dedimus
dedisse
dedissent
dedisset
dedisti
dedistis
dedit
dedita
dediti
deditione
deditionem
deditos
deditque
deditum
deditus
deduc
deducat
deducere
deducet
deduci
deducit
deducitur
deducta
deducti
deductis
deductum
deductus
deducunt
deducuntur
deduxerunt
deduxit
deep
deerant
deerat
deerit
deesse
deessent
deesset
deest
defecerant
defecerat
defecerit
defecerunt
defecisse
defecit
defectio
defectione
defectionem
defectionis
defectu
defectum
defectus
defendant
defendat
defendatur
defende
defendebat
defendenda
defendendam
defendendo
defendendum
defendens
defendere
defenderent
defenderet
defendi
defendimus
defendit
defenditur
defendunt
defensa
defensare
defensio
defensione
defensionem
defensionis
defensor
defensorem
defensores
defensori
defensoribus
defensoris
deferat
deferatur
deferendum
deferens
deferentes
deferre
deferri
defert
defertur
deferunt
deferuntur
deficere
deficerent
deficeret
deficiant
deficiat
deficiens
deficient
deficiente
deficientes
deficientibus
deficiet
deficit
deficiunt
definiendum
definiens
definimus
definire
definiri
definit
definita
definite
definitio
definitione
definitionem
definitiones
definitionibus
definitionis
definitionum
definitis
definito
definitum
definitur
definiunt
definivit
defluens
defluit
defluxit
deforme
deformis
defuerint
defuerit
defuerunt
defuisse
defuit
defuncta
defuncti
defunctis
defuncto
defunctorum
defunctos
defunctum
defunctus
degebat
degener
degeneres
degens
degentes
degentibus
degere
degit
degli
degunt
dehinc
dei
deiecit
deiecta
deiectus
dein
deinceps
deinde
deiparae
deique
deis
deitas
deitate
deitatem
deitatis
dejecit
dejectus
dejicit
del
delata
delatum
delatus
dele
deleantur
deleatur
delectabatur
delectabile
delectabilis
delectant
delectantur
delectare
delectari
delectat
delectatio
delectatione
delectationem
delectationes
delectationibus
delectationis
delectatur
delectatus
delectet
delectetur
delectus
delegata
delegati
delegatis
delegato
delegatum
delegatus
delegit
delere
deleret
deleri
delet
deleta
deletis
deletum
delevit
delias
deliberare
deliberatio
deliberatione
deliberationem
deliberationis
deliberaverint
deliciae
deliciarum
delicias
deliciis
delicta
delicti
delictis
delicto
delictorum
delictum
delinquendi
delinquentes
delinquentibus
delinquentium
delinquere
delinquit
deliquisse
deliquit
deliramenta
dell
della
delle
dellii
dello
delphis
delta
delubra
dem
demens
dementia
dementiae
dementiam
demersus
demetrii
demetrio
demetrium
demetrius
demi
demissa
demisso
democracy
democratia
democratiae
democratica
democraticae
democritus
demographia
demonstrabat
demonstrandum
demonstrans
demonstrant
demonstrantur
demonstrare
demonstraret
demonstrari
demonstrat
demonstrata
demonstratio
demonstratione
demonstrationem
demonstrationes
demonstrationis
demonstratum
demonstratur
demonstravimus
demonstravit
demonstret
demonstretur
demosthenes
demum
demus
den
denarii
denariis
denario
denariorum
denarios
denarium
denarius
denegare
denegat
denegatur
denegavit
denegetur
denique
denis
dennis
denominatiue
denotat
denotatur
dens
densa
densis
densitas
densitate
dent
dente
dentem
dentes
dentibus
dentium
dentur
denuntiat
denuo
deo
deoque
deorsum
deorum
deos
department
dependens
dependent
dependet
deperdita
deperditi
deperit
depicta
deplorat
deponat
deponatur
depone
deponentes
deponere
deponi
deponit
deponitur
deponunt
deposcit
deposita
depositi
depositio
depositione
depositionem
depositiones
depositionis
depositis
deposito
depositum
depositus
deposuerunt
deposuit
depravata
deprecamur
deprecans
deprecantes
deprecari
deprecatio
deprecationem
deprecationis
deprecatur
deprecatus
deprecemur
deprecor
deprehendere
deprehendi
deprehendit
deprehenditur
deprehensa
deprehensi
deprehensum
deprehensus
depressio
deprimit
depulsa
deputantur
deputare
deputari
deputat
deputata
deputati
deputatis
deputatum
deputatur
deputatus
deputetur
deque
der
derelicta
derelictis
derelicto
derelictum
derelictus
derelinquas
derelinquat
derelinquens
derelinquere
derelinquet
derelinquit
dereliquerunt
dereliquisti
dereliquit
derivantur
derivata
derivatum
derivatur
derogare
des
descendant
descendat
descende
descendebat
descendens
descendente
descendentem
descendentes
descendentibus
descenderat
descendere
descenderet
descenderit
descenderunt
descendet
descendi
descendisse
descendisset
descendit
descendunt
descensum
descensus
describens
describere
describi
describit
describitur
describunt
describuntur
descripsit
descripta
descriptae
descripti
descriptio
description
descriptione
descriptionem
descriptiones
descriptionis
descriptum
descriptus
descrizione
deserat
deserens
deserentes
deserere
desereret
deseri
deserit
deseritur
deserta
desertae
desertam
deserti
desertis
deserto
desertores
desertum
desertus
deseruit
deserunt
deservire
deserviunt
desiderabat
desiderabilis
desideramus
desiderans
desiderant
desiderantes
desiderantibus
desiderantur
desiderare
desiderari
desideras
desiderat
desiderata
desideratis
desideratum
desideratur
desideratus
desideravit
desiderent
desideret
desideria
desiderii
desideriis
desiderio
desideriorum
desiderium
desiderius
desidero
desides
desidia
desidiae
desidiam
desierit
design
designans
designant
designantur
designare
designari
designat
designata
designati
designatio
designatione
designationibus
designatum
designatur
designatus
designavit
designet
desiit
desinant
desinat
desine
desinere
desinet
desinit
desint
desinunt
desistant
desistat
desistere
desistit
desit
desolata
desolationem
desolationis
despecta
despectum
despectus
desperare
desperata
desperatio
desperatione
desperationem
desperationis
desperatis
desperet
despexit
despicere
despicias
despiciat
despiciens
despicit
despiciunt
desponsata
destinare
destinata
destinati
destinatis
destinatum
destinatus
destinavit
destitit
destituta
destituti
destitutum
destitutus
destruat
destruatur
destructa
destructione
destructionem
destructo
destructum
destruere
destrueret
destruet
destruetur
destrui
destruit
destruitur
destruunt
destruxerunt
destruxit
desunt
desuper
desursum
det
detecta
detenti
detentus
deterior
deteriora
deteriorem
deteriores
deterius
determinare
determinat
determinata
determinatam
determinate
determinatio
determinatione
determinationem
determinationes
determinatum
determinatur
detestabilis
detestanda
detestatur
detinent
detinentur
detinere
detineri
detinet
detinuit
detis
detracta
detrahere
detrahit
detrahunt
detraxit
detrimenta
detrimenti
detrimento
detrimentum
detulerunt
detulit
detur
deum
deumque
deus
deut
deuteronomii
deuteronomio
deuterostomia
deutsch
deutsche
deutschen
deutscher
deutsches
deutschland
deuve
deux
development
devenire
devenit
deversorium
devia
deviare
devicit
devicta
devictis
devicto
devictus
devita
devoniae
devorabit
devorant
devorare
devorat
devoravit
devoret
devota
devotae
devotam
devote
devoti
devotio
devotione
devotionem
devotioni
devotionis
devotis
devotissime
devoto
devotos
devotum
devotus
dewey
dexter
dextera
dexterae
dexteram
dextra
dextrae
dextram
dextras
dextris
dextro
dextrum
di
dia
diaboli
diabolica
diabolicae
diabolo
diabolum
diabolus
diac
diacon
diaconatus
diacones
diaconi
diaconibus
diaconis
diacono
diaconorum
diaconos
diaconum
diaconus
diadema
diademate
dialecti
dialectica
dialecticae
dialecticam
dialecticis
dialectis
dialecto
dialectos
dialectus
dialogi
dialogo
dialogus
diametro
diametrum
diana
dianae
dianam
diapason
diapente
diapsalma
diaria
diarii
diario
diarium
diatessaron
dic
dicam
dicamus
dicant
dicantur
dicas
dicat
dicata
dicatam
dicatas
dicatis
dicatum
dicatur
dicatus
dicavit
dicebam
dicebant
dicebantur
dicebas
dicebat
dicebatur
dicemus
dicenda
dicendi
dicendo
dicendum
dicendus
dicens
dicent
dicente
dicentem
dicentes
dicenti
dicentibus
dicentis
dicentium
dicentur
dicere
dicerem
diceremus
dicerent
dicerentur
diceres
diceret
diceretur
diceris
dices
dicet
dicetis
dicetur
dici
dicimur
dicimus
dicione
dicionem
dicis
dicit
dicite
dicitis
dicito
dicitur
dick
dickinson
dico
dicta
dictae
dictam
dictante
dictas
dictator
dictatore
dictatorem
dictatoris
dictatura
dictaturam
dicte
dicti
dictio
dictionarium
dictionary
dictione
dictionem
dictiones
dictionis
dictionnaire
dictionum
dictis
dicto
dictorum
dictos
dictu
dictum
dicturi
dicturum
dicturus
dictus
dicunt
dicuntur
did
didacus
didicerat
didicerit
didicerunt
didici
didicimus
didicisse
didicisset
didicisti
didicistis
didicit
dido
didymus
die
diebus
diego
diei
diem
dieque
dierum
dies
diesque
dieta
dietae
dietam
dieter
dietrich
dieu
differant
differas
differat
differens
differentes
differentia
differentiae
differentiam
differentiarum
differentias
differentibus
differentiis
differre
differret
differri
differt
differtur
differunt
difficile
difficilem
difficiles
difficili
difficilia
difficilior
difficilis
difficilius
difficillima
difficillimum
difficultas
difficultate
difficultatem
difficultates
difficultatibus
difficultatis
difficulter
diffidentia
diffidentiae
diffinitio
diffinitione
diffinitionem
diffinitionis
diffundit
diffunditur
diffusa
diffusae
diffusam
diffusum
diffusus
dig
digeruntur
digesta
digestae
digital
digitalis
digiti
digitis
digito
digitorum
digitos
digitum
digitus
digna
dignabitur
dignae
dignam
dignanter
dignare
dignaremur
dignaretur
dignaris
dignas
dignata
dignatio
dignatione
dignationis
dignatur
dignatus
digne
dignemini
digneris
dignetur
digni
dignior
dignis
dignissima
dignissimum
dignitas
dignitate
dignitatem
dignitates
dignitati
dignitatibus
dignitatis
dignitatum
dignius
digno
dignos
dignosceris
dignoscitur
dignum
dignus
digressus
dii
diis
dilata
dilatata
dilatatur
dilatavit
dilatio
dilatione
dilationem
dilationis
dilecta
dilectae
dilectam
dilecte
dilecti
dilectio
dilectione
dilectionem
dilectioni
dilectionis
dilectis
dilectissime
dilectissimi
dilectissimis
dilectissimo
dilecto
dilectorum
dilectos
dilectum
dilectus
dilexerit
dilexerunt
dilexi
dilexisti
dilexit
diligam
diligamus
diligant
diligas
diligat
diligatis
diligatur
dilige
diligebat
diligendo
diligendum
diligens
diligentem
diligenter
diligentes
diligenti
diligentia
diligentiae
diligentiam
diligentibus
diligentissime
diligentius
diligere
diligeret
diliges
diliget
diligi
diligimus
diligis
diligit
diligite
diligitis
diligitur
diligo
diligunt
dilucide
diluculo
diluit
diluvii
diluvio
diluvium
dimensiones
dimicans
dimicare
dimidia
dimidiam
dimidio
dimidium
diminutione
diminutionem
dimiserat
dimiserit
dimiseritis
dimiserunt
dimisi
dimisit
dimissa
dimissi
dimissionem
dimissis
dimisso
dimissum
dimissus
dimittam
dimittantur
dimittas
dimittat
dimittatur
dimitte
dimittens
dimittere
dimitteret
dimittet
dimittetur
dimitti
dimittimus
dimittis
dimittit
dimittite
dimittitur
dimittunt
dimittuntur
din
dinoscitur
dio
diocesi
diocesis
diocl
diocletiani
diocletiano
diocletianus
diodorus
dioecesani
dioecesano
dioecesem
dioeceseos
dioeceses
dioecesi
dioecesibus
dioecesim
dioecesis
diogenes
dion
dionysii
dionysio
dionysium
dionysius
dioscori
dioscorides
dioscoro
dioscorum
dioscorus
diplom
diploma
diplomata
diplomatica
dira
dirae
dire
directa
directam
directe
directi
directione
directionem
directions
directis
directo
director
directum
directus
direpta
direxerunt
direxi
direximus
direxit
dirigantur
dirigat
dirigatur
dirige
dirigens
dirigere
dirigi
dirigimus
dirigit
dirigitur
dirigunt
diriguntur
dirimit
diripere
diripiunt
diris
diruit
dirum
diruta
dis
discamus
discant
discat
disce
discedant
discedat
discedens
discedere
discederent
discederet
discedit
discedite
discedunt
discendi
discendo
discendum
disceptatio
disceptatione
discere
discerent
disceret
discernat
discerne
discernens
discernere
discerni
discernit
discernitur
discernuntur
discesserit
discesserunt
discessit
discessum
disci
discimus
disciplina
disciplinae
disciplinam
disciplinarum
disciplinas
disciplinis
discipuli
discipulis
discipulo
discipulorum
discipulos
discipulum
discipulus
discit
discite
discitur
disco
discographia
discordes
discordia
discordiae
discordiam
discordias
discovery
discrepant
discrepare
discrepat
discreta
discrete
discreti
discretio
discretione
discretionem
discretioni
discretionis
discretis
discretiva
discretum
discretus
discrevit
discrimen
discrimina
discrimine
discriminis
discumbere
discunt
discurrens
discurrere
discurrit
discurrunt
discursus
discus
discussa
discussione
discutere
discutienda
discutit
disease
diserte
disertus
disney
dispar
dispares
dispendia
dispendio
dispendium
dispensare
dispensat
dispensatio
dispensatione
dispensationem
dispensationis
dispensator
dispensatorem
dispensatores
disperdam
disperdet
dispersa
dispersi
dispersis
dispersit
dispersos
displiceat
displicent
displicere
displiceret
displicet
displicuit
disponat
disponens
disponente
disponere
disponit
disponitur
disponunt
disponuntur
disposita
dispositi
dispositio
dispositione
dispositionem
dispositiones
dispositioni
dispositionibus
dispositionis
dispositis
dispositum
dispositus
disposui
disposuit
disputandi
disputando
disputandum
disputans
disputant
disputare
disputat
disputata
disputatio
disputatione
disputationem
disputationes
disputationibus
disputationis
disputationum
disputatum
disputatur
disputavit
disquisitiones
dissensio
dissensione
dissensionem
dissensiones
dissensionis
dissentire
dissentiunt
disseramus
disserendi
disserendum
disserens
disserere
disserit
dissertatio
dissertatione
dissertationem
disseruimus
disseruit
dissidentes
dissimile
dissimilem
dissimiles
dissimili
dissimilia
dissimilibus
dissimilis
dissimiliter
dissimilitudo
dissimulare
dissimulat
dissimulatione
dissipat
dissipata
dissipavit
dissoluta
dissolutio
dissolutionem
dissolutis
dissolutum
dissolutus
dissolvere
dissolvi
dissolvit
dissolvitur
dist
distans
distant
distantes
distantia
distantiam
distantibus
distare
distat
distenditur
distet
distincta
distinctae
distinctam
distinctas
distincte
distincti
distinctio
distinctione
distinctionem
distinctiones
distinctis
distinctum
distinctus
distinguenda
distinguendum
distinguere
distingui
distinguit
distinguitur
distinguunt
distinguuntur
distinxit
distribuere
distribuit
distribuitur
distributa
distributio
distribution
distributione
distributionem
distributum
districta
districtae
districte
districti
districtione
districtionem
districtionis
districtius
districto
districtu
districtum
districtus
distulerit
distulit
ditavit
dition
ditione
ditionem
ditioni
ditionis
ditions
ditior
ditis
diu
diuersa
diuersae
diuersas
diuersi
diuersis
diuersitas
diuersitate
diuersitatem
diuersorum
diuersos
diuersum
diues
diuidi
diuidit
diuiditur
diuina
diuinae
diuinam
diuini
diuinis
diuinitatis
diuinitus
diuino
diuinum
diuisa
diuisio
diuisione
diuisionem
diuisionibus
diuisionis
diuites
diuitias
diuque
diurna
diurnaria
diurnarii
diurnarius
diurnis
diurnum
diutina
diutissime
diutius
diuturna
diuturnitate
diuturno
diuturnum
div
diva
divae
diversa
diversae
diversam
diversarum
diversas
diverse
diversi
diversimode
diversis
diversitas
diversitate
diversitatem
diversitates
diversitatis
diversity
diverso
diversorum
diversos
diversum
diversus
divertit
dives
divi
dividant
dividat
dividatur
divide
dividendo
dividens
dividentes
dividere
dividet
dividi
dividit
dividitur
dividunt
dividuntur
divina
divinae
divinam
divinarum
divinas
divine
divini
divinis
divinitas
divinitate
divinitatem
divinitati
divinitatis
divinitus
divino
divinorum
divinos
divinum
divinus
divisa
divisae
diviserunt
divisi
divisio
division
divisione
divisionem
divisiones
divisionibus
divisionis
divisis
divisit
diviso
divisum
divisus
divite
divitem
divites
diviti
divitiae
divitiarum
divitias
divitibus
divitiis
divitis
divitum
divo
divortium
divos
divulgata
divulgatum
divulgatus
divulgavit
divum
divus
dixeram
dixerant
dixerat
dixere
dixerim
dixerimus
dixerint
dixeris
dixerit
dixeritis
dixero
dixerunt
dixeruntque
dixi
diximus
dixisse
dixissem
dixissent
dixisset
dixisti
dixistis
dixit
dixitque
dizionario
dn
dna
dnvp
do
doce
doceamus
doceant
doceantur
doceas
doceat
doceatur
docebant
docebat
docebit
docebo
docemur
docemus
docendi
docendo
docendum
docens
docent
docente
docentem
docentes
docentis
docentur
doceo
docere
docerent
doceret
doceri
doces
docet
docete
docetur
doct
docta
docte
docti
doctior
doctis
doctissimi
doctissimus
docto
doctor
doctore
doctorem
doctores
doctori
doctoribus
doctoris
doctorum
doctos
doctrina
doctrinae
doctrinam
doctrinarum
doctrinas
doctrine
doctrinis
doctum
doctus
docuerat
docuerit
docuerunt
docui
docuimus
docuisse
docuisti
docuit
documenta
documenti
documentis
documento
documentorum
documents
documentum
dogma
dogmata
dogmate
dogmatibus
dogmatis
dogmatum
doi
dolabella
doleat
dolebat
dolemus
dolendum
dolens
dolent
dolentes
doleo
dolere
dolet
doli
dolichoderus
dolis
dolium
dollariorum
dolo
dolor
dolore
dolorem
dolores
dolori
doloribus
doloris
dolorum
dolos
dolosa
dolose
doluit
dolum
dolus
dom
domare
domestica
domesticae
domesticam
domestication
domestici
domesticis
domestico
domesticorum
domesticos
domesticum
domesticus
domi
domibus
domicilia
domicilio
domicilium
domin
domina
dominabitur
dominae
dominam
dominandi
dominante
dominantium
dominantur
dominari
dominatio
dominatione
dominationem
dominationes
dominationis
dominator
dominatu
dominatum
dominatur
dominatus
domine
dominetur
domini
dominica
dominicae
dominicam
dominicana
dominicas
dominici
dominicis
dominico
dominicum
dominicus
dominii
dominio
dominique
dominis
dominium
domino
dominorum
dominos
dominum
dominus
domitiano
domitianus
domitio
domitius
domna
domni
domno
domnum
domnus
domo
domorum
domos
domu
domui
domuit
domum
domus
don
dona
donald
donaldus
donamus
donante
donantur
donare
donaret
donari
donaria
donat
donata
donati
donatio
donatione
donationem
donationes
donationibus
donationis
donatistae
donatistarum
donatistas
donatistis
donato
donatum
donatur
donatus
donaverit
donavit
donec
donet
donetur
doni
donis
donne
dono
donorum
donum
dor
dordoniae
doris
dormiat
dormiebat
dormiens
dormientem
dormientes
dormienti
dormientibus
dormientis
dormientium
dormierit
dormierunt
dormire
dormis
dormit
dormiunt
dormivi
dormivit
dorothea
dorsa
dorso
dorsorum
dorsum
dos
dote
dotem
dotes
dotibus
dotis
doubleday
douglas
dover
down
dr
dra
draco
dracone
draconem
dracones
draconis
draconum
drama
dramata
dramatis
dream
dresdae
dro
dromo
dronae
drumae
drusus
ds
dt
du
duabus
duae
duarum
duas
dubia
dubiae
dubiam
dubie
dubii
dubiis
dubio
dubis
dubitabat
dubitamus
dubitandum
dubitans
dubitant
dubitare
dubitaret
dubitari
dubitas
dubitat
dubitatio
dubitatione
dubitationem
dubitationis
dubitatur
dubitaverit
dubitavit
dubitemus
dubitent
dubites
dubitet
dubito
dubium
dubius
duc
ducam
ducant
ducantur
ducas
ducat
ducato
ducatu
ducatum
ducatur
ducatus
duce
ducebant
ducebat
ducebatur
ducem
ducenda
ducens
ducenta
ducente
ducentem
ducentes
ducenti
ducentis
ducentorum
ducentos
ducere
ducerent
duceret
duceretur
duces
ducet
duci
ducibus
ducimur
ducimus
ducis
ducissa
ducit
ducitur
duco
ducta
ductae
ducti
ductis
ducto
ductor
ductores
ductu
ductum
ductus
ducum
ducunt
ducuntur
dudum
due
duke
dulce
dulcedine
dulcedinem
dulcedinis
dulcedo
dulcem
dulces
dulci
dulcia
dulcibus
dulcior
dulcis
dulcissima
dulcissime
dulciter
dulcius
dum
dumae
dumiatis
dummodo
dumque
dumtaxat
duncan
duntaxat
duo
duobus
duodecim
duodecima
duodecimo
duodecimum
duodecimus
duodevicensimo
duodeviginti
duorum
duos
dupla
duplex
duplicem
duplices
duplici
duplicia
duplicis
dupliciter
duplo
duplum
dura
durae
duram
duranii
durante
durare
duras
durat
duravit
durch
dure
duri
during
durior
duris
duritia
duritiam
durius
duro
durum
durus
dutch
dux
duxerat
duxerimus
duxerint
duxerit
duxerunt
duxi
duximus
duxisse
duxisset
duxit
dx
dy
dyabolus
dynastia
dæmon
dæmones
dæmonum
e
ea
eadem
eademque
eae
eaedem
eam
eamdem
eamdemque
eamque
eamus
eandem
eandemque
eant
eapropter
eaque
earl
earliest
early
earth
earum
earumdem
earumque
earundem
eas
easdem
easque
east
eastern
eat
eatenus
ebbe
ebook
eboracensi
eboracensis
eboraci
eboraco
eboracum
ebrietas
ebrietate
ebrietatem
ebrietatis
ebrii
ebriosus
ebrius
ebur
eburae
eburnei
ec
ecce
eccentricitatem
eccl
eccle
eccles
ecclesia
ecclesiae
ecclesiam
ecclesiarum
ecclesias
ecclesiastes
ecclesiastica
ecclesiasticae
ecclesiasticam
ecclesiasticarum
ecclesiasticas
ecclesiastici
ecclesiasticis
ecclesiastico
ecclesiasticorum
ecclesiasticos
ecclesiasticum
ecclesiasticus
ecclesie
ecclesiensis
ecclesiis
ecclesiæ
eccli
eciam
eclipsis
ecology
economic
economics
economy
econtra
econtrario
ecquid
ecquis
ed
edat
edax
edd
edebat
eden
edendi
edendum
edepol
edere
ederet
edes
edgar
edgarus
edi
edicta
edicti
edictis
edicto
edictum
ediderunt
edidisse
edidit
edimburgi
edinburgh
edit
edita
editae
editam
edited
editi
editio
edition
editione
editionem
editiones
editionibus
editionis
editions
editis
edito
editor
editore
editores
editoria
editorial
editos
editum
editur
editus
edixit
edizioni
edmund
edmundi
edmundus
edoceri
edocet
edocti
edoctus
edocuit
edom
edouardus
eds
edu
eduardi
eduardo
eduardus
educ
educatio
education
educatione
educationem
educationis
educatus
educere
educit
eductus
edunt
eduxi
eduxisti
eduxit
edward
edwardi
edwardo
edwards
edwin
ee
effecerunt
effecit
effecta
effecti
effectibus
effectis
effects
effectu
effectui
effectum
effectus
effectuum
effert
efficaces
efficacia
efficaciam
efficaciter
efficacius
efficax
efficere
efficeret
effici
efficiamur
efficiant
efficiantur
efficiat
efficiatur
efficiens
efficientem
efficiet
efficimur
efficit
efficitur
efficiunt
efficiuntur
effigie
effigiem
effigies
effudit
effugere
effugiet
effugit
effundam
effunde
effundere
effundit
effunditur
effusa
effusi
effusio
effusione
effusionem
effuso
effusum
effusus
egeat
egenis
egenos
egens
egent
egentem
egentes
egentibus
egenum
egenus
egerat
egere
egerint
egeris
egerit
egerunt
egestas
egestate
egestatem
eget
egi
egimus
egisse
egissent
egisset
egisti
egit
ego
egomet
egon
egredere
egrederetur
egredi
egrediatur
egrediebatur
egrediens
egredientes
egredietur
egreditur
egrediuntur
egregia
egregiae
egregiam
egregie
egregii
egregiis
egregio
egregios
egregium
egregius
egressa
egressi
egressum
egressus
egypt
egyptian
ehess
ei
eia
eidem
eidemque
eiecit
eiectus
ein
eine
einer
eines
einfu
einstein
eique
eis
eisdem
eisque
eius
eiusdem
eiusdemque
eiusmodi
eiusque
ejecit
ejectus
ejice
ejicere
ejicit
ejus
ejusdem
ejusdemque
ejusmodi
ejusque
ek
el
elaborata
elapsis
elapso
elapsus
elata
elati
elatio
elatione
elationem
elationis
elatum
elatus
elaveri
elaveris
eleazar
electa
electae
electam
electi
electio
electione
electionem
electiones
electioni
electionibus
electionis
electis
electo
elector
electoralem
electores
electorum
electos
electra
electrica
electricae
electricum
electronica
electum
electus
eleemosyna
eleemosynae
eleemosynam
eleemosynarum
eleemosynas
eleemosynis
elegans
eleganter
elegantia
elegerat
elegerint
elegerit
elegerunt
elegi
elegisse
elegisti
elegistis
elegit
eleison
elementa
elementi
elementis
elemento
elementorum
elements
elementum
elephanti
elephantis
elephantos
elevans
elevare
elevat
elevata
elevatis
elevatum
elevatur
elevatus
elevavit
eli
elia
eliae
eliam
elias
elicere
eligant
eligantur
eligat
eligatur
elige
eligendi
eligendo
eligendum
eligens
eligere
eligerent
eligeret
eligi
eligit
eligitur
eligunt
eliguntur
eliot
elisabeth
elisabetha
elisabethae
elisaeus
eliu
elizabeth
elizabetha
ellae
elliott
ellis
elogium
eloquens
eloquentia
eloquentiae
eloquentiam
eloqui
eloquia
eloquii
eloquiis
eloquio
eloquiorum
eloquium
elsa
elsevier
elst
elucet
em
emanuel
emendare
emendari
emendat
emendata
emendatio
emendatione
emendationem
emendationis
emendaverit
emendet
emere
emeritus
emerserit
emersit
emi
emicat
emicuit
emilia
eminens
eminent
eminentia
eminentiam
eminet
eminus
emisit
emissa
emissum
emissus
emit
emitte
emittere
emittit
emittitur
emittunt
emma
emmanuel
emolumenta
emolumento
emolumentum
empire
emporia
emporium
empta
empti
emptor
en
enarrabit
enarrant
enarrare
enarrat
enarratio
enarravit
enchiridion
encoded
encycl
encyclica
encyclicae
encyclopaedia
encyclopaediae
encyclopedia
encyclopædia
end
endate
endemica
endemicae
endemicus
energia
energiae
energiam
energy
engels
engineering
england
english
enim
enimvero
enituit
enixa
enixe
enko
enlightenment
ennius
ennodius
enoch
enos
ens
ense
ensem
enses
ensis
ente
entia
entis
entitas
entium
entomology
entre
enumerantur
enumerare
enumerat
enumeratio
enumeratione
enumerationem
enumeratis
enuntiare
enuntiat
enuntiatio
enuntiationem
environment
environmental
eo
eod
eodem
eodemque
eoque
eorum
eorumdem
eorumque
eorundem
eos
eosdem
eosque
ep
epactae
epaminondas
eparchia
eph
ephemerides
ephemeris
ephes
ephesi
ephesina
ephesios
epheso
ephesum
ephod
ephraem
ephraim
ephrata
epic
epica
epicum
epicuri
epicurus
epigramma
epigrammata
epiphania
epiphaniae
epiphanius
epiri
epirum
episc
episcopale
episcopalem
episcopales
episcopali
episcopalibus
episcopalis
episcopatu
episcopatum
episcopatus
episcope
episcopi
episcopis
episcopo
episcoporum
episcopos
episcopum
episcopus
episode
episodium
epist
epistola
epistolae
epistolam
epistolarum
epistolas
epistole
epistolis
epistula
epistulae
epistulam
epistularum
epistulas
epistulis
epitaphium
epitheton
epitome
epocha
epochae
epulae
epularum
epulas
epulis
epulum
equa
eque
eques
equestri
equestris
equi
equidem
equis
equitatu
equitatum
equitatus
equite
equitem
equites
equitibus
equitis
equitum
equo
equorum
equos
equum
equus
er
era
eram
eramus
erant
eras
erasmi
erasmus
erat
eratis
eratque
ere
erecta
erectae
erecti
erectis
erecto
erectum
erectus
eremi
eremita
eremo
eremum
erepta
ereptum
ereptus
erexit
erfordiae
erga
ergo
ergone
eric
erich
erico
ericus
erigat
erigens
erigere
erigi
erigit
erigitur
erigunt
erimus
eripe
eripere
eriperet
eripi
eripiat
eripit
eripuit
eris
erit
eritis
eritque
ernest
ernesto
ernestus
ernst
ero
erogare
errans
errant
errantem
errantes
errantibus
errantium
errare
erras
errasse
errat
errata
erratis
erraverunt
erravit
erret
error
errore
errorem
errores
errori
erroribus
erroris
errorum
eruat
erubescant
erubescat
erubescere
erubescit
erubescunt
erubuit
eructavit
erudire
erudiri
erudit
erudita
eruditi
eruditio
eruditione
eruditionem
eruditionis
eruditis
erudito
eruditorum
eruditos
eruditum
eruditus
erudivit
erue
eruere
erui
eruit
erumpere
erumpit
erumpunt
erunt
erupit
eruptione
erythraea
es
esa
esai
esaia
esaiae
esaiam
esaias
esau
esca
escae
escam
escarum
escas
escis
esdr
esdrae
esdras
esiae
espan
esperantica
esperanticae
esperantici
esperanticis
esperanto
essai
essay
essays
esse
essem
essemus
essendi
essent
essentia
essentiae
essentialis
essentialiter
essentiam
essere
esses
esset
essetis
est
estder
este
esther
estis
estne
esto
estonia
estoniae
estonice
estote
estque
esu
esum
esuriens
esurientem
esurientes
esurienti
esurientibus
esurire
esurit
esuriunt
esurivi
esus
et
eta
etas
etate
etatis
etc
etenim
eterna
eternam
eterne
eternum
eternus
ethic
ethica
ethicam
ethicorum
ethics
ethnici
ethnicis
ethnicorum
ethnologue
etiam
etiamne
etiamnum
etiamnunc
etiamsi
etruria
etruscis
etsi
etymologia
etymologiam
eu
euangelio
euangelium
eucaryota
eucharistia
eucharistiae
eucharistiam
eucoelomata
euenire
euenit
euentus
euge
eugene
eugenia
eugenii
eugenio
eugenium
eugenius
eum
eumdem
eumdemque
eumenes
eumetazoa
eumque
eundem
eundemque
eundi
eundo
eundum
eunt
euntem
euntes
euntibus
eunuchi
eunuchus
euphratem
euphraten
euripide
euripides
euripidis
euro
europa
europae
europaea
europaeae
europaeam
europaearum
europaei
europaeis
europaeo
europaeorum
europaeum
europaeus
europam
europe
european
eusebii
eusebio
eusebium
eusebius
eustachii
eustathius
eustochium
eutropius
eutychen
eutyches
eutychetis
eutychis
euvenavice
euxini
euxinum
ev
eva
evadat
evadere
evaderet
evadit
evae
evam
evang
evangelia
evangelica
evangelicae
evangelicam
evangelici
evangelicis
evangelico
evangelicum
evangelicus
evangelii
evangeliis
evangelio
evangeliorum
evangelista
evangelistae
evangelistam
evangelistarum
evangelistas
evangelistis
evangelium
evangelizare
evans
evanuerunt
evanuit
evaserit
evaserunt
evasisse
evasit
evcl
evectus
evelinarum
evenerit
eveniat
evenire
evenisse
evenit
eveniunt
eventa
eventibus
eventu
eventum
eventus
eversa
eversionem
evertere
evertit
evic
evidence
evidens
evidenter
evidenti
evidentia
evidentiam
evidentissime
evidentius
evitare
evo
evocat
evocatus
evocavit
evoluta
evolutio
evolution
evolutionary
evolutione
evolutionem
evolutionis
evolvere
evolvit
ex
exacta
exacte
exactione
exactiones
exactionibus
exactis
exacto
exactor
exactum
exagitat
exaltabitur
exaltabo
exaltare
exaltari
exaltat
exaltata
exaltatione
exaltationem
exaltatum
exaltatur
exaltatus
exaltavit
examen
examina
examinare
examinat
examinata
examinatione
examinationem
examine
examini
examinis
exanimis
exarata
exaravit
exarsit
exaudi
exaudiam
exaudiat
exaudies
exaudiet
exaudire
exaudiri
exaudisti
exaudit
exauditus
exaudivit
excedat
excedens
excedere
excederet
excedit
excedunt
excellens
excellenti
excellentia
excellentiae
excellentiam
excellentissimo
excellentius
excellere
excellit
excellunt
excelsa
excelsi
excelsis
excelso
excelsum
excelsus
excepit
excepta
excepti
exceptio
exceptione
exceptionem
exceptiones
exceptis
excepto
exceptum
exceptus
excerpta
excessibus
excessit
excessu
excessum
excessus
excidere
exciderunt
excidio
excidit
excidium
excipere
exciperet
excipiat
excipiens
excipit
excipitur
excipiunt
excita
excitant
excitantur
excitare
excitari
excitat
excitata
excitati
excitatur
excitatus
excitavit
excitet
excitetur
exclamat
exclamavit
excludat
excludere
excludi
excludit
excluditur
excluduntur
exclusa
exclusi
exclusis
exclusit
excluso
exclusus
excogitare
excogitata
excogitatum
excogitavit
excolere
excommunicare
excommunicati
excommunicatione
excommunicationem
excommunicationi
excommunicationis
excommunicatis
excommunicatos
excommunicatum
excommunicatus
excrevit
excubias
excubiis
excudit
excusare
excusari
excusat
excusatio
excusatione
excusationem
excusationes
excusationis
excuset
excussit
excutere
excutit
exeant
exeat
exegerit
exegit
exempla
exemplar
exemplari
exemplaria
exemplaribus
exemplaris
exemplarium
exempli
exemplis
exemplo
exemplorum
exemplum
exempta
exequi
exerce
exerceant
exerceat
exercebat
exercenda
exercendo
exercens
exercent
exercentes
exercentur
exercere
exerceret
exerceri
exercet
exercetur
exercitatio
exercitatione
exercitationem
exercitationes
exercitationis
exercitatus
exercitia
exercitibus
exercitiis
exercitio
exercitium
exercitu
exercitui
exercitum
exercitus
exercituum
exercuit
exeunt
exeunte
exeuntem
exeuntes
exeuntibus
exeuntis
exhibeant
exhibeas
exhibeat
exhibeatis
exhibebat
exhibemus
exhibenda
exhibens
exhibent
exhibentes
exhibentur
exhibere
exhiberet
exhiberi
exhibet
exhibetur
exhibita
exhibitio
exhibitione
exhibuit
exhortamur
exhortari
exhortatio
exhortatione
exhortationem
exhortationibus
exhortationis
exhortatur
exi
exibit
exibunt
exiens
exierat
exierit
exierunt
exiet
exigat
exigatur
exigebat
exigenda
exigente
exigentibus
exigere
exigeret
exigi
exigis
exigit
exigitur
exigua
exiguam
exigui
exiguis
exigunt
exiguo
exiguum
exiguus
exiit
exilii
exilio
exilium
eximia
eximiae
eximiam
eximii
eximium
eximius
exin
exinanivit
exinde
exire
exiret
exisse
existant
existat
existens
existente
existentem
existentes
existentia
existentiam
existentibus
existentium
existere
existeret
existimabant
existimabat
existimamus
existimans
existimant
existimantes
existimantur
existimare
existimari
existimas
existimat
existimatio
existimatione
existimationem
existimatur
existimavi
existimavit
existiment
existimes
existimet
existimo
existis
existit
existunt
exit
exite
exitio
exitium
exitu
exitum
exitus
exivi
exivit
exod
exodi
exodo
exodus
exonae
exoramus
exorare
exordia
exordiis
exordio
exordium
exoritur
exorsus
exorta
exorti
exortu
exortum
exortus
expandit
expavit
expectant
expectare
expectat
expectatione
expediat
expedire
expediret
expediri
expedit
expedita
expeditio
expeditione
expeditionem
expeditiones
expeditionibus
expeditionis
expeditis
expediunt
expellere
expelli
expellit
expendere
expendit
expensas
expensis
expergefactus
experience
experientia
experientiae
experientiam
experimenta
experimentis
experimento
experimentum
experimur
experiri
expers
experta
expertem
expertes
experti
expertus
expetenda
expetere
expetiit
expetit
expetunt
explanare
explanatio
explanatione
explanationem
explere
expleta
expletis
expleto
expletum
explevit
explicanda
explicantur
explicare
explicari
explicat
explicata
explicatio
explicationem
explicatur
explicavit
explicet
explicit
explorare
explorata
explorator
exploratores
exploratorii
exploratum
exponam
exponat
exponendo
exponens
exponentes
exponere
exponeret
exponi
exponit
exponitur
exponunt
exponuntur
expos
exposcit
exposit
exposita
expositio
expositione
expositionem
expositiones
expositionis
expositis
expositum
expositus
exposui
exposuimus
exposuit
expressa
expressam
expresse
expressis
expressit
expressius
expresso
expressum
expressus
exprimat
exprimatur
exprimenda
exprimens
exprimere
exprimi
exprimit
exprimitur
exprimunt
exprimuntur
exprobrat
expugnare
expugnat
expugnata
expugnaverunt
expugnavit
expulit
expulsa
expulsi
expulsis
expulso
expulsus
exquirere
exquirit
exquisita
exquisivi
exsecutione
exsecutionem
exsecutioni
exsecutus
exsequendum
exsequi
exsequias
exsequiis
exsequitur
exsilii
exsilio
exsilium
exsistat
exsistens
exsistente
exsistentia
exsistentiam
exsistere
exsistit
exsistunt
exsolvere
exspecta
exspectabant
exspectabat
exspectamus
exspectans
exspectant
exspectantes
exspectantibus
exspectare
exspectat
exspectatio
exspectatione
exspectationem
exspectatur
exspectavit
exspectet
exspecto
exstant
exstantibus
exstare
exstat
exstincta
exstinctae
exstincti
exstinctis
exstincto
exstinctum
exstinctus
exstinguere
exstinguetur
exstingui
exstinguit
exstinguitur
exstinxit
exstiterat
exstiterint
exstiterit
exstiterunt
exstitisse
exstitisset
exstitit
exstructa
exstruxit
exsul
exsules
exsultabunt
exsultans
exsultant
exsultare
exsultat
exsultate
exsultatio
exsultatione
exsultationis
exsultavit
exsultemus
exsultent
exsultet
exsuperat
exsurgat
exsurge
exsurgens
exsurgere
exsurgit
exta
extant
extat
extemplo
extendat
extende
extendens
extendere
extendi
extendit
extenditur
extensa
extensionem
extensis
extensum
extenta
exterarum
exteras
exterior
exteriora
exteriore
exteriorem
exteriores
exteriori
exterioribus
exterioris
exteriorum
exteris
exterius
externa
externae
externarum
externas
externi
externis
externo
externorum
externos
externum
externus
extincta
extinctus
extinguere
extingui
extinguitur
extiterit
extiterunt
extitisse
extitit
extollat
extollere
extolli
extollit
extollitur
extollunt
extorquere
extra
extrahere
extranea
extranei
extraneis
extraneos
extraneum
extraneus
extrema
extremae
extremam
extremas
extremi
extremis
extremitas
extremitate
extremitates
extremo
extremorum
extremos
extremum
extremus
extrinsecus
extulit
extunc
exuere
exuit
exul
exules
exultatione
exutus
ez
ezech
ezechiae
ezechias
ezechiel
ezechiele
ezechielem
ezechielis
ezra
eſt
eſſe
f
fa
faba
faber
fabio
fabium
fabius
fabri
fabrica
fabricae
fabricam
fabricare
fabricata
fabricator
fabricavit
fabricius
fabula
fabulae
fabulam
fabularum
fabulas
fabulis
fabulosa
fac
face
facem
facere
facerem
faceremus
facerent
faceres
faceret
faces
faciam
faciamus
faciant
facias
faciat
faciatis
facibus
facie
faciebant
faciebat
faciei
faciem
faciemus
facienda
faciendae
faciendam
faciendas
faciendi
faciendis
faciendo
faciendum
faciens
facient
faciente
facientem
facientes
facienti
facientibus
facientis
facies
faciet
facietis
facile
facilem
faciles
facili
facilia
facilior
facilis
facilitas
facilitate
facilitatem
faciliter
facilius
facillime
facimus
facinora
facinore
facinoribus
facinoris
facinorum
facinus
facio
facis
facit
facite
facitis
facito
faciunt
facta
factae
factam
factaque
factas
facti
factio
factione
factionem
factiones
factioni
factionibus
factionis
factionum
factis
facto
factor
factorem
factores
factorum
factos
facts
factu
factum
factumque
factura
facturam
facturi
facturos
facturum
facturus
factus
facultas
facultate
facultatem
facultates
facultatibus
facultatis
facultatum
facundia
facundiae
facundus
faece
fairs
faith
falce
falcem
falco
fall
fallaces
fallaci
fallacia
fallaciae
fallaciam
fallacias
fallacibus
fallaciis
fallaciter
fallat
fallax
fallendi
fallere
falli
fallit
fallitur
fallor
fallunt
falluntur
falsa
falsae
falsam
falsas
false
falsi
falsis
falsitas
falsitate
falsitatem
falsitatis
falso
falsorum
falsos
falsum
falsus
fama
famae
famam
fame
famem
fames
familia
familiae
familiam
familiare
familiarem
familiares
familiari
familiaribus
familiaris
familiaritas
familiaritate
familiaritatem
familiaritatis
familiariter
familiarium
familiarius
familiarum
familias
familie
families
familiis
family
famis
famosa
famosi
famosus
famula
famulae
famulantur
famulari
famulatum
famuli
famulis
famulo
famulorum
famulos
famulum
famulus
fana
fando
fani
fano
fantasy
fanum
far
fara
farae
fari
farina
farinae
farinam
fas
fasc
fasce
fasces
fascia
fascibus
fasciculum
fasciculus
fascista
fassus
fasti
fastidia
fastidio
fastidium
fastigia
fastigio
fastigium
fastis
fastu
fastus
fata
fatalis
fateamur
fateantur
fatearis
fateatur
fatebatur
fatemur
fatendum
fatentur
fateor
fateretur
fateri
fateris
fatetur
father
fati
fatigare
fatigari
fatigat
fatigati
fatigatione
fatigatur
fatigatus
fatis
fato
fatorum
fatum
fatur
fatus
fatuus
fauces
faucibus
fauna
faur
faura
fausta
fausti
faustinus
fausto
faustum
faustus
fautor
fautores
fautoribus
favebant
favebat
favens
favent
favente
faventes
favere
favet
favilla
favit
favor
favore
favorem
favoribus
favoris
favum
fax
fayard
fc
fdp
fe
feb
febr
febre
febrem
febribus
febris
februarias
februarii
februario
fecerant
fecerat
fecere
fecerim
fecerimus
fecerint
feceris
fecerit
feceritis
fecero
fecerunt
feci
fecimus
fecisse
fecissent
fecisset
fecisti
fecistis
fecit
fecitque
fecunda
fecunditas
fecunditate
fecunditatem
fecunditatis
federico
fefellit
fel
felder
feles
felice
felicem
felices
felici
felicia
felicianus
felicibus
felicior
felicis
felicitas
felicitate
felicitatem
felicitatis
feliciter
felicius
felis
felix
felle
fellis
fem
female
femina
feminae
feminam
feminarum
feminas
feminea
femineo
femineum
feminina
feminini
feminino
femininum
feminis
femore
femoris
femur
fenestra
fenestrae
fenestram
fenestras
fenestris
feni
feno
fenore
fenum
fenus
fer
fera
ferae
feram
ferant
ferantur
ferarum
feras
ferat
feratur
ferax
fercula
ferculis
ferculum
ferdinand
ferdinandi
ferdinando
ferdinandus
fere
ferebant
ferebantur
ferebat
ferebatur
ferenda
ferendam
ferendo
ferendum
ferens
ferentem
ferentes
ferentini
feres
feret
feretrum
feri
feria
feriae
feriam
feriarum
ferias
feriat
feriatur
feriis
ferire
feris
ferit
feritas
feritate
feritatem
feriunt
feriuntur
ferme
fermento
fermentum
ferna
fernando
fero
feroces
ferox
ferrari
ferraria
ferrariae
ferrariensis
ferre
ferrea
ferream
ferreis
ferrent
ferret
ferretur
ferreum
ferreus
ferri
ferrivia
ferriviae
ferriviaria
ferro
ferroque
ferrum
fert
ferte
fertilis
fertur
ferum
ferunt
feruntur
ferus
ferveat
fervens
ferventes
ferventi
fervere
fervet
fervor
fervore
fervorem
fessa
fessi
fessis
fessos
fessus
festa
festi
festina
festinabat
festinans
festinant
festinanter
festinantes
festinare
festinat
festinatione
festinavit
festinemus
festinet
festinus
festis
festival
festivitas
festivitate
festivitatem
festivitates
festivitatibus
festivitatis
festo
festorum
festos
festucam
festum
festus
fetibus
fetu
fetum
fetus
feudum
ff
fi
fiam
fiant
fias
fiat
fibrae
fibris
fici
ficta
fictae
ficti
ficticia
ficticiae
fictile
fictilia
fictilibus
fictio
fiction
fictionis
fictis
ficto
fictum
fictus
ficum
ficus
fida
fide
fidei
fideicommissum
fideique
fidejussores
fidele
fidelem
fideles
fideli
fidelia
fidelibus
fidelis
fidelissimus
fidelitate
fidelitatem
fidelitatis
fideliter
fidelium
fidem
fidemque
fidens
fidenter
fides
fidibus
fiducia
fiduciae
fiducialiter
fiduciam
fidum
fidus
fiebant
fiebat
field
fields
fient
fierent
fieret
fieri
fiet
fifa
figere
figit
figitur
figlar
figmenta
figmentum
figuli
figulus
figura
figurae
figuraliter
figuram
figurantur
figurari
figurarum
figuras
figurata
figuratae
figurate
figuratum
figuratur
figuravit
figuris
fila
file
fili
filia
filiabus
filiae
filiam
filiarum
filias
filie
filii
filiique
filiis
filio
filioli
filioque
filiorum
filios
filippo
filium
filiumque
filius
film
filo
filu
filum
fimbriam
fimbrias
fin
final
finali
finalis
finaliter
fine
finem
finemque
fines
fingere
fingi
fingis
fingit
fingitur
fingunt
fini
finiatur
finibus
finire
finiri
finis
finit
finita
finitam
finitima
finitimae
finitimis
finitimos
finitis
finito
finitum
finitur
finitus
finium
finiuntur
finivit
finnia
finniae
finnica
finnice
finnico
finnicum
finnicus
finno
finxerunt
finxit
fire
firma
firmam
firmamenti
firmamento
firmamentum
firmamus
firmare
firmaret
firmari
firmas
firmat
firmata
firmati
firmatum
firmatur
firmaverunt
firmavimus
firmavit
firmi
firmior
firmis
firmissima
firmissimam
firmissime
firmissimum
firmitas
firmitate
firmitatem
firmitatis
firmiter
firmius
firmo
firmum
firmus
first
fischer
fisci
fisco
fiscum
fiscus
fish
fisher
fishes
fisico
fistula
fit
fitque
fiunt
five
fixa
fixis
fixit
fixum
fixus
fl
flacci
flacco
flaccus
flag
flagella
flagellat
flagellatus
flagellis
flagello
flagellum
flagitat
flagitia
flagitii
flagitiis
flagitio
flagitiorum
flagitium
flagrans
flamen
flaminio
flamma
flammae
flammam
flammarum
flammas
flammis
flandria
flandriae
flante
flatibus
flatu
flatum
flatus
flava
flavia
flaviani
flaviano
flavianum
flavianus
flavio
flavium
flavius
flavum
flavus
flebat
flectatur
flectere
flecti
flectit
flectitur
flendo
flens
flentem
flentes
flentibus
flere
flet
fletibus
fletu
fletum
fletus
flevit
flexis
flexit
flexo
flexus
flor
flora
florae
flore
floreat
florebat
florem
florence
florens
florent
florentem
florentes
florentia
florentiae
florentina
florentini
florentino
florentinus
florentium
florentius
florere
flores
floret
floribus
florida
floridae
floris
floruerunt
floruit
florum
florus
flos
floyd
fluant
fluctibus
fluctu
fluctuat
fluctus
fluctuum
fluens
fluent
fluenta
fluentem
fluentis
fluere
fluit
flumen
flumina
flumine
flumini
fluminibus
fluminis
fluminum
fluuium
fluunt
fluvii
fluvio
fluviorum
fluvios
fluvium
fluvius
fluxa
fluxerunt
fluxit
fluxu
fluxum
fluxus
fm
fo
focis
foco
focum
focus
fodere
foderunt
fodiana
fodit
foeda
foedera
foederalem
foederales
foederali
foederalis
foederalium
foederatae
foederatarum
foederatas
foederati
foederatio
foederationis
foederatis
foedere
foederibus
foederis
foeditate
foedum
foedus
foemina
foenum
fol
folia
foliis
folio
foliorum
folium
folk
follis
fomenta
fomite
fomitem
fons
fontaine
fontana
fonte
fontem
fontes
fonti
fontibus
fontis
fontium
food
football
for
fora
foramen
foramina
foramine
foraminibus
foras
force
ford
fore
foreign
forent
fores
forest
foret
fori
foribus
forinsecus
foris
form
forma
formae
formale
formalem
formali
formalis
formaliter
formam
formans
formant
formantur
formare
formari
formarum
formas
format
formata
formatam
formatio
formation
formatione
formationem
formationis
formatum
formatur
formatus
formavit
forme
formetur
formica
formidant
formidare
formidat
formidine
formidinem
formidinis
formido
formis
formosa
formosus
formula
formulae
formulam
formulas
formulis
fornace
fornacem
fornacis
fornax
fornicari
fornicata
fornicatio
fornicatione
fornicationem
fornicationes
fornicationis
fornicator
fornicatur
foro
fors
forsan
forsitan
forster
fort
fortasse
fortassis
forte
fortem
fortes
forti
fortia
fortibus
fortior
fortiorem
fortiores
fortis
fortissima
fortissime
fortissimi
fortissimis
fortissimo
fortissimum
fortissimus
fortiter
fortitudine
fortitudinem
fortitudinis
fortitudo
fortium
fortius
fortuita
fortuito
fortuna
fortunae
fortunam
fortunas
fortunati
fortunato
fortunatum
fortunatus
fortune
fortunis
forum
forza
fossa
fossae
fossam
fossas
fossil
fossilia
fossis
foster
found
foundation
foundations
four
fovea
foveam
foveas
foveat
fovere
fovet
fox
fr
fra
frac
fracta
fracti
fractio
fractiones
fractis
fracto
fractum
fractus
fragile
fragiles
fragili
fragilis
fragilitas
fragilitate
fragilitatem
fragilitatis
fragmenta
fragmentis
fragmentorum
fragments
fragmentum
fragor
fragore
fragrantia
fram
framea
franc
franca
france
frances
francesco
franci
francia
franciae
franciam
francica
francicae
francicam
francicarum
francice
francici
francicis
francico
francicum
francicus
francigena
francis
francisca
francisci
francisco
franciscopoli
franciscum
franciscus
franco
francofurti
francogallica
francogallicae
francogallicam
francogallice
francogallici
francogallicum
francogallicus
francomurarii
francorum
francos
francum
francus
frangat
frangatur
frange
frangere
frangi
frangit
frangitur
franguntur
frank
frankfurt
franklin
franz
frater
fraterna
fraternae
fraternam
fraternitas
fraternitate
fraternitatem
fraternitati
fraternitatis
fraterno
fratre
fratrem
fratres
fratri
fratribus
fratris
fratrum
fraudare
fraude
fraudem
fraudes
fraudibus
fraudis
fraudulenta
fraudulenter
frauja
fraujin
fraujins
fraus
fre
fred
freda
frederick
fredericus
free
freedom
freeman
fregit
fremit
fremitu
fremitus
frena
french
frenis
freno
frenum
frequens
frequentabat
frequentare
frequentavit
frequenter
frequentes
frequenti
frequentia
frequentiam
frequentibus
frequentissime
frequentius
freta
freti
freto
fretum
fretus
freud
friburgensis
friburgi
friderici
friderico
fridericum
fridericus
friedrich
friends
frigida
frigidae
frigidam
frigidi
frigidis
frigido
frigidum
frigidus
frigora
frigore
frigoris
frigus
fritz
friuli
from
fronde
frondes
frondibus
frons
fronte
frontem
frontibus
frontis
fronto
frost
fru
fruantur
fruatur
fructibus
fructifera
fructu
fructum
fructuosa
fructus
fructuum
fruendum
frueretur
fruge
frugem
fruges
frugi
frugibus
frugum
frui
fruit
fruitur
frumenta
frumenti
frumentis
frumento
frumentum
frusinati
frusta
frustra
frutices
fruuntur
ft
fu
fuchsia
fuco
fudit
fueram
fuerant
fueras
fuerat
fuere
fuerim
fuerimus
fuerint
fueris
fuerit
fueritis
fuero
fuerunt
fuga
fugae
fugam
fugat
fugati
fugatis
fugato
fugatus
fugavit
fuge
fugerat
fugere
fugerent
fugeret
fugerit
fugerunt
fugiam
fugiamus
fugiant
fugiat
fugienda
fugiendo
fugiendum
fugiens
fugientem
fugientes
fugientibus
fugiet
fugis
fugisse
fugit
fugite
fugiunt
fui
fuimus
fuisse
fuissem
fuissemus
fuissent
fuisses
fuisset
fuisti
fuistis
fuit
fulgeat
fulgebat
fulgebunt
fulgens
fulgent
fulgentem
fulgentes
fulgentius
fulgere
fulget
fulgor
fulgore
fulgorem
fulgoris
fulgur
fulgura
full
fulmen
fulmina
fulmine
fulminis
fulsit
fulta
fultus
fulvio
fulvius
fumi
fumo
fumum
fumus
functa
functi
functio
functionem
functiones
functionibus
functionis
functionum
functus
fundamenta
fundamentalis
fundamenti
fundamentis
fundamento
fundamentum
fundasti
fundat
fundata
fundatae
fundatam
fundati
fundationis
fundator
fundatum
fundatur
fundatus
fundavit
fundens
fundere
fundi
fundis
fundit
funditur
funditus
fundo
fundos
fundum
fundunt
fundus
fune
funem
funera
funere
funeribus
funeris
funes
funesta
funet
fungebatur
fungeretur
fungi
fungimur
fungitur
funguntur
funibus
funiculus
funis
funus
fur
furantur
furari
furatus
furem
furens
furentem
furentes
furentis
fures
furias
furiis
furioso
furit
furius
furor
furore
furorem
furores
furori
furoris
furta
furti
furtim
furtis
furto
furtum
fusa
fusca
fuscus
fusi
fusis
fusius
fuso
fustibus
fusum
fusus
futura
futurae
futuram
futurarum
futuras
future
futuri
futuris
futuro
futurorum
futuros
futurum
futurus
g
ga
gabaa
gabriel
gabriele
gabrielis
gad
gaddafi
gaggan
gai
gaii
gaio
gaium
gaius
gal
galaad
galat
galatae
galatas
galatiae
galba
galea
galeam
galerius
galfridus
galilaea
galilaeae
galilaeam
galilaei
gall
galla
gallaecia
gallaeciae
gallery
galli
gallia
galliae
galliam
galliarum
gallias
gallica
gallici
gallico
gallicum
gallien
gallienus
galliis
gallimard
gallina
gallis
gallo
gallonice
gallorum
gallos
gallum
gallus
gambia
game
games
gamma
gandhi
garci
garcia
gard
garda
garde
garden
gardi
gardner
garland
garumnae
garunnae
gary
gas
gasconice
gastronomia
gaude
gaudeamus
gaudeant
gaudeat
gaudebant
gaudebat
gaudebit
gaudebunt
gaudemus
gaudens
gaudent
gaudentes
gaudentibus
gaudeo
gaudere
gauderet
gaudes
gaudet
gaudete
gaudia
gaudii
gaudiis
gaudio
gaudiorum
gaudium
gaulle
gavisi
gavisus
gay
gaza
gazam
gazetteer
gazophylacium
ge
gedeon
gehenna
gehennae
gehennam
gehrels
gelasii
gelasius
gellius
gelu
gemens
gementes
gemere
gemina
geminae
geminam
geminas
geminata
gemini
geminis
gemino
geminorum
geminos
geminum
geminus
gemit
gemitibus
gemitu
gemitum
gemitus
gemma
gemmae
gemmarum
gemmas
gemmis
gemunt
gen
gena
genae
genas
genavae
gender
gene
genealogia
gener
genera
general
generale
generalem
generales
generali
generalia
generalibus
generalis
generalissima
generalissimum
generaliter
generalium
generandi
generans
generant
generantur
generare
generaret
generari
generat
generata
generati
generatim
generatio
generation
generatione
generationem
generationes
generationi
generationibus
generationis
generationum
generatum
generatur
generatus
generavit
genere
generet
generetur
generi
generibus
generis
genero
generosa
generum
genes
geneseos
genesi
genesim
genesis
genetic
genetica
geneticae
genetricis
genetrix
geni
genibus
genio
genis
genit
genita
genitalia
genitalibus
genitalium
geniti
genitivo
genitivus
genito
genitor
genitore
genitorem
genitoris
genitos
genitrice
genitricem
genitricis
genitrix
genitum
genitura
geniturae
genitus
genium
genius
gennadius
gens
gente
gentem
gentes
genti
gentibus
gentilem
gentiles
gentili
gentilibus
gentilis
gentilitas
gentilitatis
gentilitia
gentilium
gentis
gentium
genu
genua
genuae
genuensi
genuensis
genuerat
genuerit
genuerunt
genui
genuisse
genuit
genum
genus
geoffrey
geografia
geografico
geographia
geographic
geographica
geographicae
geographicum
geographus
geography
geologia
geologica
geological
geology
geometria
geometriae
geometrica
geoponica
georg
george
georges
georgia
georgiae
georgica
georgii
georgio
georgium
georgius
ger
gerald
geraldus
gerant
gerard
gerardi
gerardo
gerardus
gerat
gerebant
gerebantur
gerebat
gerebatur
gerenda
gerendae
gerendi
gerendis
gerendum
gerens
gerentes
gerere
gereret
gerhard
gerhardus
geri
gerimus
geris
gerit
geritur
germ
germain
german
germana
germanae
germanam
germani
germania
germaniae
germaniam
germanica
germanicae
germanicam
germanice
germanici
germanicis
germanico
germanicum
germanicus
germanis
germano
germanorum
germanos
germanum
germanus
germany
germen
germina
germinare
germine
germinet
gerundensi
gerunt
geruntur
gervasii
geschichte
gesellschaft
gesserat
gesserit
gesserunt
gessimus
gessisse
gessit
gesta
gestabat
gestae
gestam
gestans
gestare
gestarum
gestas
gestat
gestis
gestit
gesto
gestorum
gestu
gestum
gestus
get
geta
geth
getty
gf
giacomo
giambattista
giangrisostomo
gif
gigantes
gigas
gignat
gignendo
gignens
gignere
gigni
gignit
gignitur
gignunt
gignuntur
gil
gilbert
gilbertus
ginsberg
giorgio
giovanni
girl
girolamo
girumnae
girundiae
giulia
giulini
giuseppe
gl
glacialis
glacie
glaciei
glaciem
glacies
gladiatores
gladii
gladiis
gladio
gladiolus
gladios
gladium
gladius
glandulae
glarea
glass
glenn
gli
glise
global
globi
globo
globos
globum
globus
gloria
gloriabitur
gloriae
gloriam
gloriamur
gloriantes
gloriantur
gloriari
gloriaris
gloriatio
gloriatur
glorie
gloriemur
glorientur
glorietur
glorificat
glorificatus
glorificaverunt
glorificavit
glorificent
glorificetur
gloriosa
gloriosae
gloriosam
gloriose
gloriosi
gloriosis
gloriosissime
gloriosissimi
gloriosissimo
gloriosissimus
gloriosius
glorioso
gloriosos
gloriosum
gloriosus
gloss
glossa
glossarium
gmelin
gn
gnaeus
gnathostomata
go
god
godefridi
godefridus
gods
goethe
goffredo
gogh
gold
golden
gonza
good
google
gord
gordianus
gordon
goth
gothi
gothic
gothica
gothicae
gothice
gothico
gothicum
gothis
gothorum
gothos
gothus
gottfried
gottingae
gould
gov
government
governo
governors
gr
gra
grabatum
gracchi
gracchus
grace
gracia
gracilis
gradatim
gradibus
gradiens
graditur
gradu
gradum
gradus
graduum
graeca
graecae
graecam
graecarum
graecas
graece
graeci
graecia
graeciae
graeciam
graecis
graeco
graecoromanae
graecorum
graecos
graecum
graecus
graesse
graevius
graham
gramina
gramine
grammar
grammatica
grammaticae
grammaticam
grammatici
grammaticis
grammatico
grammaticos
grammaticum
grammaticus
gran
grana
granata
grand
grande
grandem
grandes
grandi
grandia
grandibus
grandine
grandinis
grandis
grando
granis
grano
grant
granum
grat
grata
gratam
gratanter
grates
grati
gratia
gratiae
gratiam
gratiano
gratianum
gratianus
gratiarum
gratias
gratie
gratiis
gratior
gratis
gratissima
gratissimum
gratius
grato
gratuita
gratuito
gratulamur
gratulari
gratulatione
gratulatur
gratulor
gratum
gratus
graue
graues
graui
grauis
grauiter
grauius
gravamen
gravare
gravari
gravat
gravati
gravatur
gravatus
grave
gravem
graves
gravi
gravia
gravibus
gravida
gravior
graviora
graviore
graviorem
graviores
gravioribus
gravis
gravissima
gravissimam
gravissimas
gravissime
gravissimi
gravissimis
gravissimo
gravissimum
gravitas
gravitate
gravitatem
gravitatis
graviter
gravium
gravius
gray
gre
great
grece
greci
grecia
grecis
greco
grecorum
grecos
grecques
greece
greek
green
greene
greenwood
greg
grege
gregem
greges
gregi
gregibus
gregis
gregor
gregoriano
gregorianum
gregorii
gregorio
gregorium
gregorius
gregory
gregum
gremio
gremium
gressibus
gressu
gressum
gressus
grex
griechischen
grimm
grimod
gro
groeneveld
group
grove
growth
gru
gruyter
gu
gualterio
gualterius
gualterus
guardia
guardian
gubernacula
gubernare
gubernari
gubernat
gubernatio
gubernatione
gubernationem
gubernationis
gubernator
gubernatore
gubernatorem
gubernatores
gubernatoribus
gubernatoris
gubernatorum
gubernii
gubernio
gubernium
gue
guerra
guerre
guez
guglum
guiana
guide
guido
guidonis
guilielmus
guillaume
guillelmi
guillelmo
guillelmus
guinea
guineae
gula
gulae
gulam
gulielmi
gulielmo
gulielmum
gulielmus
gurgite
gurgitis
gustare
gustate
gustav
gustavit
gustavo
gustavus
gustu
gustum
gustus
gutenberg
gutta
guttae
guttis
guttur
gutture
guy
guþ
guþa
guþs
gymnasii
gymnasio
gymnasium
gyro
gyrum
h
ha
habac
habacuc
habaiþ
haban
habe
habeam
habeamus
habeant
habeantur
habeas
habeat
habeatis
habeatur
habebam
habebant
habebantur
habebas
habebat
habebatur
habebimus
habebis
habebit
habebitis
habebitur
habebo
habebunt
habemus
habenas
habenda
habendam
habendi
habendo
habendum
habendus
habenis
habens
habent
habente
habentem
habentes
habenti
habentia
habentibus
habentis
habentium
habentur
habeo
habere
haberem
haberemus
haberent
haberentur
haberes
haberet
haberetur
haberi
habes
habet
habete
habetis
habeto
habetur
habilis
habita
habitabant
habitabat
habitabit
habitabunt
habitacula
habitaculo
habitaculum
habitae
habitam
habitandum
habitans
habitant
habitantes
habitantibus
habitantium
habitare
habitaret
habitas
habitasse
habitat
habitata
habitati
habitatio
habitatione
habitationem
habitationes
habitationibus
habitationis
habitatis
habitator
habitatorem
habitatores
habitatoribus
habitaverunt
habitavit
habitent
habitet
habiti
habitis
habito
habitu
habitudine
habitudinem
habitudo
habitum
habitura
habituri
habituros
habiturum
habiturus
habitus
habuerant
habuerat
habuere
habuerint
habueris
habuerit
habueritis
habuero
habuerunt
habui
habuimus
habuisse
habuissent
habuisset
habuisti
habuistis
habuit
hac
hactenus
had
hadriani
hadriano
hadrianus
hadriaticum
hae
haec
haeckel
haedi
haedos
haereat
haeredem
haeredes
haeredibus
haereditario
haereditas
haereditate
haereditatem
haereditatis
haerent
haerere
haeres
haereseos
haereses
haeresi
haeresibus
haeresim
haeresis
haeresum
haeret
haeretica
haereticae
haereticam
haeretice
haeretici
haereticis
haeretico
haereticorum
haereticos
haereticum
haereticus
haesit
hafniae
hagae
hal
hall
hamburgensis
hamburgi
hamilton
hamo
han
hanc
hand
handbook
handbuch
hanibal
hannibal
hannibale
hannibalem
hannibali
hannibalis
hanno
hannoverae
hannoveranum
hans
hansen
hantoniae
harcourt
hard
hardy
harena
harenae
harmattan
harmonia
harmoniae
harmoniam
harold
haroldus
harper
harris
harrison
harrius
harry
hart
hartley
harum
harvard
harvardiana
harvardianae
harvey
has
hasce
hasdrubal
hassiae
hasta
hastae
hastam
hastas
hastis
hat
haud
haudquaquam
haurire
hausit
haustu
haut
haute
havaiorum
have
haven
hawaii
he
head
health
heart
heb
hebdomada
hebdomadae
hebdomadam
hebdomadarum
hebdomadas
hebdomades
hebdomadibus
hebdomadis
heber
hebes
hebr
hebraea
hebraei
hebraeis
hebraeo
hebraeorum
hebraeos
hebraeum
hebraeus
hebraica
hebraicae
hebraicam
hebraice
hebraicis
hebraico
hebraicum
hebron
hec
hector
hectoris
hegel
hei
heidegger
heidelbergae
heinemann
heinrich
heinricus
heinz
helen
helena
helenae
helenam
heli
heliae
helias
helimutus
helin
hell
hellinsia
helmut
helsinki
helvetia
helvetiae
helvetica
helveticae
helveticus
hem
hemisphaerio
hen
hendecas
henri
henrici
henrico
henricum
henricus
henry
her
heraclius
herae
herald
herba
herbae
herbam
herbarum
herbas
herbert
herbertus
herbis
hercle
hercule
herculem
hercules
herculi
herculis
herder
here
herede
heredem
heredes
heredibus
heredis
hereditas
hereditate
hereditatem
hereditatis
heres
heri
heritage
herman
hermann
hermannus
hermes
hermon
hero
herode
herodem
herodes
herodis
herodotus
heroes
herois
heros
heroum
herzegovina
herzegovinae
hesiodus
hesterna
hesterno
het
heu
heus
hi
hiatu
hiatus
hiberna
hibernia
hiberniae
hiberniam
hibernica
hibernice
hibernicus
hibernis
hic
hieme
hiemem
hiemes
hiemis
hiems
hier
hieracium
hierarchia
hierarchy
hieremiam
hieremias
hieron
hieronymi
hieronymo
hieronymum
hieronymus
hierosolyma
hierosolymae
hierosolymam
hierosolymis
hierosolymitanae
hierosolymitani
hierosolymitano
hierosolymitanum
hierosolymitanus
hierosolymorum
hierusalem
high
hii
hiis
hilaire
hilarem
hilari
hilarii
hilario
hilaris
hilaritate
hilariter
hilarium
hilarius
hill
hills
himina
hinc
hincmarus
hippolyti
hippolytus
hipponensis
hiram
hircorum
hircos
hircus
hirundo
his
hisce
hispalensis
hispani
hispania
hispaniae
hispaniam
hispaniarum
hispanias
hispanica
hispanicae
hispanicam
hispanice
hispanici
hispanico
hispanicum
hispanicus
hispaniis
hispanis
hispano
hispanorum
hispanos
hispanus
hisque
hist
histo
histoire
historia
historiae
historiam
historiarum
historias
historic
historica
historicae
historical
historicam
historice
historici
historicis
historico
historicorum
historicum
historicus
historie
histories
historiis
historiography
historique
historiques
historische
history
histria
histrio
histriones
hitchcock
hitler
hl
hler
hludowicus
ho
hoc
hocque
hodie
hodieque
hodierna
hodiernae
hodiernam
hodiernarum
hodierni
hodiernis
hodierno
hodiernum
hodiernus
hoffmann
hofmann
holera
holland
holmes
holmiae
holocausta
holocausti
holocaustum
holotheria
holt
holy
hom
home
homer
homeri
homero
homerum
homerus
homicida
homicidae
homicidam
homicidia
homicidii
homicidio
homicidium
homil
homilia
homiliae
homiliam
homilias
homine
hominem
homines
hominesque
homini
hominibus
hominis
hominum
hominumque
homme
homo
homosexualitas
homousion
honesta
honestae
honestam
honestas
honestate
honestatem
honestati
honestatis
honeste
honesti
honestis
honestius
honesto
honestum
honestus
hong
honolulu
honor
honora
honorabiles
honorabili
honorabilis
honorare
honorari
honorat
honorati
honorato
honoratum
honoratur
honoratus
honoravit
honore
honorem
honores
honori
honoribus
honorificat
honorifice
honorificentia
honorificentiam
honorii
honorio
honoris
honorisque
honorius
honorum
honos
hope
hopkins
hor
hora
horace
horae
horam
horarum
horas
horatii
horatius
hordei
hordeo
hordeum
horis
hormisda
hormisdae
horn
horologium
horoscopo
horoscopum
horrea
horreis
horrenda
horrendum
horreo
horret
horreum
horribili
horribilis
horrida
horror
horrore
horrorem
horst
hortabatur
hortamur
hortari
hortatu
hortatur
hortatus
hortensius
horti
hortis
horto
hortor
hortorum
hortos
hortum
hortus
horum
hos
hospes
hospita
hospitale
hospitali
hospitalis
hospitalitatem
hospitalitatis
hospite
hospitem
hospites
hospitia
hospitibus
hospitii
hospitio
hospitis
hospitium
hospitum
hoste
hostem
hostes
hosti
hostia
hostiae
hostiam
hostiarum
hostias
hostibus
hostiis
hostilem
hostiles
hostili
hostilia
hostilibus
hostilis
hostiliter
hostis
hostium
hot
hotel
houghton
house
houten
how
howard
hrsg
hrung
hs
htm
html
http
https
hu
hubaldus
huber
hubert
hubertus
huc
hucusque
hudson
hugh
hughes
hugo
hugone
hugonem
hugoni
hugonis
hui
huic
huius
huiusce
huiuscemodi
huiusmodi
hujus
hujusce
hujuscemodi
hujusmodi
human
humana
humanae
humanam
humanarum
humanas
humane
humani
humanis
humanista
humanistae
humanitas
humanitate
humanitatem
humanitati
humanitatis
humanities
humano
humanorum
humanos
humanum
humanus
humbertus
humboldt
humeris
humero
humeros
humerum
humi
humida
humidum
humile
humilem
humiles
humili
humilia
humiliabitur
humiliare
humiliari
humiliat
humiliata
humiliate
humiliati
humiliatum
humiliatus
humiliavit
humilibus
humilior
humilis
humilitas
humilitate
humilitatem
humilitati
humilitatis
humiliter
humilium
humilius
humo
humor
humore
humorem
humores
humoris
humum
humus
hunc
hundred
hungari
hungaria
hungariae
hungariam
hungarica
hungarice
hungarici
hungaricum
hungaricus
hungarorum
hunnorum
hunt
hunter
hus
hyacintho
hyacinthus
hydria
hydrographia
hyeme
hyginus
hymen
hymni
hymnis
hymno
hymnorum
hymnos
hymnum
hymnus
hypocrisis
hypocrita
hypocritae
hypothesis
hypothetica
hypotheticis
hæc
i
ia
iacebat
iacens
iacent
iacentem
iacentes
iacentis
iacere
iacet
iacit
iacob
iacobi
iacobo
iacobum
iacobus
iacta
iactare
iactat
iactura
iacturam
iactus
iacuit
iaculis
iam
iamdiu
iamdudum
iampridem
iamque
iamvero
ian
iani
ianua
ianuam
ianuarias
ianuarii
ianuariis
ianuario
ianus
iaponia
iaponiae
iaponiam
iaponica
iaponicae
iaponice
iaponicum
iaponicus
iaponiensis
iason
ib
ibae
ibam
ibant
ibas
ibat
ibi
ibid
ibidem
ibimus
ibique
ibis
ibit
ibn
ibo
ibunt
ic
icaunae
ice
ich
icta
ictibus
ictu
ictum
ictus
id
ida
idani
idcirco
ide
idea
ideae
ideam
ideas
ideis
idem
idemque
identidem
identification
identitas
identitate
identitatem
identitatis
identity
ideo
ideoque
idest
idibus
idioma
idiota
idipsum
ido
idola
idoli
idolis
idolo
idololatria
idololatriae
idololatriam
idolorum
idolum
idonea
idoneam
idonei
idoneis
idoneo
idoneos
idoneum
idoneus
idque
idumaea
idus
ie
iecur
ieiunia
ieiuniis
ieiunio
ieiunium
ienae
ier
ieremias
ierit
ierusalem
iesu
iesuita
iesuitae
iesuitarum
iesum
iesus
if
igitur
ignara
ignari
ignaris
ignaros
ignarum
ignarus
ignatii
ignatio
ignatium
ignatius
ignavia
ignaviam
igne
ignea
igneis
ignem
igneo
ignes
igneum
igneus
igni
ignibus
ignis
ignita
ignium
ignobiles
ignobilis
ignominia
ignominiae
ignominiam
ignorabant
ignorabat
ignoramus
ignorans
ignorant
ignorante
ignoranter
ignorantes
ignorantia
ignorantiae
ignorantiam
ignorantibus
ignorare
ignoraret
ignoras
ignorasse
ignorat
ignoratis
ignoratur
ignoravit
ignoret
ignoro
ignoscat
ignosce
ignoscere
ignosci
ignoscit
ignota
ignotae
ignoti
ignotis
ignoto
ignotos
ignotum
ignotus
ihesu
ihre
ii
iiae
iidem
iii
iiii
iiij
iis
iisdem
iisque
iit
ij
il
ilia
ilias
ilico
ilium
ill
illa
illac
illae
illaesa
illam
illarum
illas
illata
illatam
illatas
illatis
illatum
ille
illecebra
illecebras
illecebris
illectus
illi
illibata
illic
illicita
illicitas
illicite
illicitis
illicito
illicitum
illico
illinc
illinoesia
illinoesiae
illinois
illis
illisque
illius
illo
illorum
illos
illuc
illucque
illud
illudere
illudque
illum
illumina
illuminabit
illuminans
illuminantur
illuminare
illuminari
illuminat
illuminata
illuminati
illuminatio
illuminatione
illuminationem
illuminationis
illuminatur
illuminatus
illuminavit
illuminet
illustrare
illustrat
illustrata
illustrated
illustratur
illustravit
illustre
illustrem
illustres
illustri
illustribus
illustris
illustrissimi
illustrium
illuxit
illyrici
illyrico
illyricum
im
ima
image
images
imaginari
imaginatio
imaginatione
imaginationem
imagine
imaginem
imagines
imagini
imaginibus
imaginis
imaginum
imago
imbecillitas
imbecillitate
imbecillitatem
imber
imbre
imbrem
imbres
imbribus
imbrium
imbuit
imbuti
imbutus
img
imi
imis
imitanda
imitando
imitandum
imitantes
imitantur
imitare
imitari
imitata
imitati
imitatio
imitatione
imitationem
imitationis
imitator
imitatores
imitatur
imitatus
imitemur
imitentur
imitetur
immaculata
immaculatae
immaculatam
immaculati
immaculatum
immaculatus
immane
immanem
immani
immanis
immanitate
immanuel
immatura
immediata
immediate
immemor
immemores
immensa
immensae
immensam
immensas
immensi
immensis
immensitate
immenso
immensum
immensus
immerito
immineat
imminebat
imminens
imminente
imminentem
imminentibus
imminentis
imminere
imminet
immisit
immittere
immittit
immo
immobile
immobilem
immobiles
immobilibus
immobilis
immobiliter
immoderata
immolandum
immolant
immolare
immolatur
immolatus
immolavit
immorari
immortale
immortalem
immortales
immortali
immortalia
immortalibus
immortalis
immortalitas
immortalitate
immortalitatem
immortalitatis
immortalium
immunda
immundi
immundis
immunditia
immunditiae
immunditiam
immundo
immundorum
immundos
immundum
immundus
immunem
immunes
immunis
immunitate
immunitatem
immunitates
immunitatis
immutabilem
immutabilis
immutabimur
immutare
immutari
immutata
immutatio
imo
imp
impact
impar
imparem
impares
impari
imparibus
impassibilis
impatiens
impatientia
impe
impediat
impediatur
impedimenta
impedimentis
impedimento
impedimentum
impedire
impediret
impediri
impedit
impedita
impeditur
impeditus
impediunt
impedivit
impellit
impendant
impendat
impendere
impendi
impendit
impenditur
impendunt
impensa
impensis
impensius
imperabat
imperandi
imperant
imperante
imperare
imperaret
imperat
imperata
imperator
imperatore
imperatorem
imperatores
imperatori
imperatoria
imperatoribus
imperatoris
imperatorum
imperatricis
imperatrix
imperatum
imperatur
imperavit
imperet
imperfecta
imperfecti
imperfectum
imperfectus
imperi
imperia
imperial
imperiale
imperialem
imperiales
imperiali
imperialibus
imperialis
imperialium
imperii
imperiis
imperio
imperiti
imperitia
imperitiae
imperitiam
imperitis
imperitorum
imperitos
imperitus
imperium
impertimus
impertire
impertiri
impetrare
impetrat
impetrata
impetratis
impetratum
impetravit
impetu
impetum
impetus
impia
impiae
impiam
impias
impie
impietas
impietate
impietatem
impietates
impietatibus
impietatis
impiger
impigre
impii
impiis
impio
impiorum
impios
impium
impius
imple
impleant
impleantur
impleat
impleatur
implebitur
implenda
implendum
implens
implent
implentur
implere
impleret
impleretur
impleri
implet
impleta
implete
impleti
impleto
impletum
impletur
impletus
impleverit
impleverunt
implevit
implicat
implorare
implorat
imponat
imponatur
imponens
imponentes
imponere
imponeret
imponi
imponit
imponitur
imponunt
important
importat
importuna
importune
imposita
impositione
impositionem
impositionis
impositis
imposito
impositum
impossibile
impossibili
impossibilia
impossibilis
imposuerunt
imposuit
impotens
impotentia
impp
imppp
impraesentiarum
impressa
impressio
impressione
impressionem
impressis
impressum
impressus
imprimerie
imprimis
improba
improbat
improbe
improbi
improbis
improbitas
improbitate
improbo
improborum
improbos
improbum
improbus
improprie
improviso
imprudens
imprudenter
imprudentia
impudens
impudenter
impudentia
impudentiam
impudicitia
impugnant
impugnare
impugnat
impugnatione
impulit
impulsu
impulsus
impune
impunita
impunitum
imputare
imputari
imputatur
imum
imus
in
ina
inaccessibilem
inaequalitas
inaestimabilis
inane
inanem
inanes
inani
inania
inanibus
inanimatum
inanis
inaniter
inaudita
inauditum
inaugurata
inc
incarceratus
incarnatio
incarnatione
incarnationem
incarnationis
incarnatum
incarnatus
incassum
incauta
incaute
incautos
incautum
incautus
incedens
incedentes
incedere
incedit
incedunt
incendere
incendia
incendii
incendiis
incendio
incendit
incendium
incensa
incensi
incenso
incensum
incensus
incentiva
incepit
incepta
inceptis
incepto
inceptum
incerta
incertae
incerti
incertis
incerto
incertum
incertus
incessanter
incessit
incessu
incessus
incesti
incestum
inchoat
inchoata
inchoatum
inchoatur
inchoavit
incidat
incidens
incidere
inciderit
inciderunt
incidi
incidisse
incidisset
incidit
incidunt
incipe
incipere
inciperent
inciperet
incipiam
incipiamus
incipiant
incipias
incipiat
incipiebat
incipiens
incipiente
incipientes
incipientibus
incipiet
incipimus
incipit
incipiunt
incisa
incitamenta
incitat
incitati
incitavit
inclina
inclinans
inclinare
inclinari
inclinat
inclinata
inclinati
inclinatio
inclinatione
inclinationem
inclinato
inclinatur
inclinavit
inclita
includat
includere
includi
includit
includitur
includunt
includuntur
inclusa
inclusi
inclusis
inclusit
inclusum
inclusus
inclyta
inclytae
inclytus
incognita
incognitum
incognitus
incola
incolae
incolarum
incolas
incolatus
incolebant
incolis
incolumem
incolumes
incolumi
incolumis
incolumitate
incolumitatem
incolunt
incommoda
incommodi
incommodis
incommodo
incommodum
incommutabile
incommutabilem
incommutabili
incommutabilis
incommutabiliter
incomparabilis
incomparabiliter
incomposita
incomprehensibilis
inconcussa
incongrue
incongruum
inconstantia
inconsulte
inconsulto
incontinentiam
inconueniens
inconveniens
inconvenienter
incorporea
incorporeum
incorporeus
incorrupta
incorruptibile
incorruptibilem
incorruptibilis
incorruptione
incorruptionem
incorruptionis
incorruptum
incredibile
incredibilem
incredibili
incredibilia
incredibilis
increduli
incredulis
incredulitate
incredulitatem
incredulitatis
incredulos
incredulus
incrementa
incrementi
incrementis
incremento
incrementum
increpa
increpans
increpare
increpat
increpatio
increpatione
increpationem
increpationis
increpavit
incubuit
inculta
incultis
incumbens
incumbere
incumbit
incumbunt
incunctanter
incuria
incuriam
incurrant
incurrat
incurrere
incurrisse
incurrit
incurrunt
incursibus
incursione
incursiones
incursionibus
incursu
incursurum
incursus
ind
indagare
inde
indebita
indebite
indecens
indecl
indefessa
indeficiens
indefinita
independence
independent
indeque
indesinenter
index
indi
india
indiae
indiam
indian
indiana
indianae
indiarum
indica
indicans
indicant
indicare
indicaret
indicari
indicat
indicatur
indicavit
indice
indicem
indices
indicet
indici
indicia
indiciis
indicio
indicis
indicit
indicitur
indicium
indico
indict
indicta
indictione
indictionem
indictiones
indictionis
indicto
indictum
indicum
indicus
indidit
indifferens
indifferenter
indigeat
indigebat
indigemus
indigena
indigenae
indigenarum
indigenas
indigenis
indigens
indigent
indigentia
indigentiam
indigentibus
indigere
indigeret
indiget
indigna
indignam
indignatio
indignatione
indignationem
indignationis
indignatus
indigne
indigni
indignis
indigno
indignos
indignum
indignus
indirecte
indis
indiscreta
indiscrete
indita
inditum
indiuidua
indiuiduis
indiuiduum
individua
individuae
individuis
individuum
indivisa
indixit
indo
indocti
indoctus
indole
indolem
indoles
indolis
indonesia
indonesiae
indorum
indos
induat
indubitanter
indubitata
inducam
inducas
inducat
inducere
induci
inducias
inducit
inducitur
inducta
inducti
inductio
inductum
inductus
inducunt
induere
induerit
indui
induit
induite
induitur
indulgeat
indulgemus
indulgens
indulgentia
indulgentiae
indulgentiam
indulgentias
indulgere
indulget
indulsit
indulta
indulto
indultum
indumenta
indumentis
indumento
indumentum
indus
industria
industriae
industrialis
industriam
induta
induti
indutias
indutum
indutus
induxit
ine
inebriari
inebriatus
inedia
ineffabile
ineffabilem
ineffabili
ineffabilia
ineffabilis
ineffabiliter
inepta
inepte
ineptias
ineptum
inerant
inerat
inermes
inermis
iners
inertes
inertia
inesse
inesset
inest
ineunt
ineunte
infames
infamia
infamiae
infamiam
infamis
infans
infante
infantem
infantes
infantia
infantiae
infantiam
infantibus
infantis
infantium
infantum
infecta
infectio
infectum
infelicem
infelices
infelici
infelicis
infelicitas
infeliciter
infelix
inferant
inferas
inferat
inferatur
inferendum
inferens
inferes
inferi
inferior
inferiora
inferiore
inferiorem
inferiores
inferiori
inferioribus
inferioris
inferiorum
inferis
inferius
inferna
inferni
inferno
infernorum
infernum
infernus
inferorum
inferos
inferre
inferret
inferri
infert
infertur
inferunt
inferuntur
infesta
infestatione
infestis
infesto
infestum
infestus
infidelem
infideles
infideli
infidelibus
infidelis
infidelitas
infidelitate
infidelitatem
infidelitatis
infidelium
infima
infimae
infimis
infimo
infimum
infinita
infinitae
infinitam
infinitas
infinitatem
infinite
infiniti
infinitis
infinito
infinitum
infinitus
infirma
infirmam
infirmari
infirmata
infirmatur
infirmatus
infirmi
infirmior
infirmiores
infirmis
infirmitas
infirmitate
infirmitatem
infirmitates
infirmitati
infirmitatibus
infirmitatis
infirmo
infirmor
infirmorum
infirmos
infirmum
infirmus
infit
infixa
inflammat
inflammatio
inflammatus
inflat
inflati
inflatur
inflatus
influence
influit
influunt
info
informat
informatica
informatio
information
informationem
informationis
informem
informis
infortunium
infra
infraclassis
infralegio
infraphylum
infraregnum
infringere
infructuosa
infty
infudit
infundat
infundere
infundit
infunditur
infusa
infusione
infusum
ingemiscimus
ingemuit
ingeni
ingenia
ingeniaria
ingeniariae
ingeniarius
ingenii
ingeniis
ingenio
ingeniorum
ingenitum
ingenitus
ingenium
ingens
ingentem
ingentes
ingenti
ingentia
ingentibus
ingentis
ingenuos
ingenuus
ingerere
ingeris
ingerit
ingerunt
ingessit
ingrata
ingrati
ingratis
ingratos
ingratum
ingratus
ingredere
ingrederetur
ingredi
ingrediantur
ingrediar
ingrediatur
ingrediens
ingredientes
ingredietur
ingreditur
ingrediuntur
ingressa
ingressi
ingresso
ingressu
ingressum
ingressus
ingrid
inhabitant
inhabitantem
inhabitantes
inhabitare
inhabitat
inhabitet
inhaereat
inhaerens
inhaerent
inhaerentes
inhaerentia
inhaerere
inhaeret
inhibemus
inhibere
inhibitores
inhonesta
inhonestum
inibi
iniecit
iniecta
inierunt
iniit
inimica
inimicam
inimici
inimicis
inimicitia
inimicitiae
inimicitiam
inimicitias
inimicitiis
inimico
inimicorum
inimicos
inimicum
inimicus
iniqua
iniquae
iniquam
inique
iniqui
iniquis
iniquitas
iniquitate
iniquitatem
iniquitates
iniquitati
iniquitatibus
iniquitatis
iniquitatum
iniquo
iniquorum
iniquos
iniquum
iniquus
inire
init
inita
initia
initiis
initio
initium
inito
initum
iniuria
iniuriae
iniuriam
iniuriarum
iniurias
iniuriis
iniusta
iniuste
iniustitia
iniustitiam
iniustum
iniustus
injuncta
injunctum
injuria
injuriae
injuriam
injuriarum
injurias
injuriis
injusta
injuste
injusti
injustis
injustitia
injustitiae
injustitiam
injustos
injustum
injustus
inlatio
innata
innititur
innocens
innocentem
innocentes
innocenti
innocentia
innocentiae
innocentiam
innocentibus
innocentii
innocentio
innocentis
innocentium
innocentius
innotescat
innotescere
innotescit
innotuit
innoxium
innuit
innuitur
innumera
innumerabiles
innumerabilia
innumerabilibus
innumerabilis
innumerabilium
innumerae
innumeras
innumeri
innumeris
innumeros
innupta
inobediens
inobedientes
inobedientia
inobedientiae
inobedientiam
inopem
inopes
inopi
inopia
inopiae
inopiam
inopinata
inops
inordinata
inordinate
inpraesentiarum
inprimis
inpune
inquam
inquantum
inque
inquiens
inquies
inquietare
inquietudine
inquietudinem
inquirat
inquirendum
inquirentes
inquirere
inquiri
inquirit
inquirunt
inquis
inquisita
inquisitio
inquisitione
inquisitionem
inquisitionis
inquisitor
inquit
inquiunt
insana
insani
insania
insaniae
insaniam
insanire
insanis
insano
insanum
insanus
inscitia
inscius
inscribitur
inscripsit
inscripta
inscriptio
inscriptione
inscriptionem
inscriptiones
inscriptionibus
inscriptions
inscriptionum
inscriptum
inscriptus
inscrutabilia
insecta
insectorum
insects
insecutus
insedit
inseparabile
inseparabilem
inseparabilis
inseparabiliter
insequenti
insequentibus
insequi
insequitur
insere
inserere
inseri
inserit
inseritur
inserta
insertum
insertus
inseruit
inservire
inserviunt
insidiae
insidiari
insidiarum
insidias
insidiatur
insidiis
insigne
insignem
insignes
insigni
insignia
insignibus
insignis
insigniter
insimul
insinuans
insinuant
insinuare
insinuat
insinuatione
insinuatur
insinuet
insipiens
insipientes
insipientia
insipientiae
insipientiam
insipientibus
insistens
insistentes
insistere
insistit
insistunt
insit
insita
insitum
insolens
insolenter
insolentia
insolentiam
insolita
insolitum
insontem
insontes
inspecta
inspectione
inspectis
inspector
inspectum
inspice
inspicere
inspicit
inspirante
inspirat
inspirata
inspiratione
inspirationem
inspiratus
inspiravit
inst
instabat
instabiles
instabilis
instans
instant
instante
instanter
instantes
instanti
instantia
instantiae
instantiam
instantibus
instantis
instantius
instar
instare
instaret
instat
instaurare
instigante
instinctu
instituendis
instituerat
instituere
instituerunt
institui
instituimus
instituisse
instituit
institut
instituta
institutae
institutam
institute
instituti
institutio
institution
institutione
institutionem
institutiones
institutionibus
institutionis
institutionum
institutis
instituto
institutorum
institutum
institutus
instruat
instructa
instructam
instructi
instructio
instructione
instructionem
instructos
instructum
instructus
instruere
instrui
instruit
instruitur
instrumenta
instrumenti
instrumentis
instrumento
instrumentorum
instrumentum
instruunt
instruxit
insufflavit
insula
insulae
insulam
insularum
insulas
insulis
insultare
insunt
insuper
insurgentes
insurgentibus
insurgere
insurrexerunt
int
intacta
intactum
intantum
integer
integra
integrae
integram
integras
integre
integri
integris
integritas
integritate
integritatem
integritatis
integro
integros
integrum
intellecta
intellectis
intellectiva
intellecto
intellectu
intellectualem
intellectuales
intellectuali
intellectualis
intellectui
intellectum
intellectus
intellegamus
intellegant
intellegas
intellegat
intellegatur
intellegenda
intellegendum
intellegens
intellegentia
intellegentiae
intellegentiam
intellegere
intellegi
intellegimus
intellegis
intellegit
intellegitur
intellego
intellegunt
intelleguntur
intellexerit
intellexerunt
intellexi
intelleximus
intellexisse
intellexit
intelligam
intelligamus
intelligant
intelligantur
intelligas
intelligat
intelligatur
intellige
intelligebant
intelligebat
intelligence
intelligenda
intelligendi
intelligendo
intelligendum
intelligendus
intelligens
intelligentes
intelligentia
intelligentiae
intelligentiam
intelligentibus
intelligere
intelligeremus
intelligerent
intelligeret
intelligeretur
intelliges
intelliget
intelligetis
intelligi
intelligibile
intelligibilem
intelligibiles
intelligibili
intelligibilia
intelligibilis
intelligimus
intelligis
intelligit
intelligite
intelligitis
intelligitur
intelligo
intelligunt
intelliguntur
intemerata
intemperantia
intemperantiam
intempesta
intendat
intende
intendebat
intendens
intendentes
intendere
intendimus
intendit
intendite
intenditur
intendunt
intenta
intente
intenti
intentio
intentione
intentionem
intentiones
intentionis
intento
intentos
intentum
intentus
inter
intercedente
intercedere
intercedit
intercessione
intercessionem
intercessionibus
intercessit
interdicimus
interdicta
interdicti
interdictis
interdicto
interdictum
interdiu
interdixit
interdum
interea
intereat
interemit
interemptus
intererat
interesse
interesset
interest
interfecerunt
interfecit
interfecta
interfecti
interfectis
interfecto
interfectores
interfectorum
interfectos
interfectum
interfectus
interficere
interficerent
interficeret
interfici
interficiam
interficiat
interficiet
interficit
interficitur
interficiunt
interfuerunt
interfui
interfuisse
interfuit
interiit
interim
interior
interiora
interiore
interiorem
interiores
interiori
interioribus
interioris
interire
interitu
interitum
interitus
interius
interlocutio
intermissa
intermissione
interna
internae
internam
internarum
international
internationale
internationalem
internationales
internationali
internationalibus
internationalis
internationalium
internecionem
internet
interni
internis
interno
internum
internus
interpellat
interponere
interposita
interpositam
interpositione
interpositis
interposito
interpositum
interpr
interpres
interpretandi
interpretantur
interpretari
interpretati
interpretatio
interpretation
interpretatione
interpretationem
interpretationes
interpretationibus
interpretationis
interpretatum
interpretatur
interpretatus
interprete
interpretem
interpretes
interpretibus
interpretis
interpretum
interprr
interque
interrete
interreti
interretiale
interretialem
interretiales
interretiali
interretialis
interroga
interrogabant
interrogabat
interrogans
interrogant
interroganti
interrogantibus
interrogare
interrogas
interrogat
interrogata
interrogate
interrogati
interrogatio
interrogatione
interrogationem
interrogationibus
interrogationis
interrogatur
interrogatus
interrogaverunt
interrogavit
interrogemus
interroget
interrogo
interrupta
intersit
intersunt
intervalla
intervallis
intervallo
intervallum
interveniente
intervenientibus
intervenit
interventu
interview
intestato
intestina
intestinis
intestinum
intima
intimae
intimare
intimatum
intimavit
intimis
intimo
into
intolerabili
intolerabilis
intonat
intonuit
intra
intrabit
intrabunt
intrans
intrant
intrantes
intrare
intraret
intrasse
intrasset
intrat
intrauit
intraverit
intraverunt
intravit
intrent
intrepidus
intres
intret
intretis
intrinsecus
intro
introducere
introduci
introducit
introducta
introductio
introduction
introductum
introductus
introduxit
introibit
introibo
introierunt
introire
introitu
introitum
introitus
introivit
introrsus
intueamur
intuemur
intuendum
intuens
intuentes
intuentibus
intuentur
intueor
intuere
intueri
intuetur
intuitu
intuitum
intuitus
intulerat
intulerit
intulerunt
intulisse
intulit
intus
inuenire
inueniri
inuenit
inuenitur
inueniuntur
inuenta
inuentum
inuentus
inuicem
inuidia
inuidiam
inundatione
inusitata
inutile
inutilem
inutiles
inutilia
inutilis
inutiliter
invadere
invaderet
invadit
invadunt
invaserat
invaserunt
invasionem
invasit
invectus
invenerat
invenerint
inveneris
invenerit
inveneritis
invenerunt
inveni
inveniam
inveniamur
inveniamus
inveniant
inveniantur
inveniar
invenias
inveniat
inveniatur
inveniebatur
inveniemus
inveniendi
inveniens
invenient
invenientes
invenies
inveniet
invenietis
invenietur
invenimus
invenio
invenire
invenirent
inveniret
inveniretur
inveniri
invenis
invenisse
invenisset
invenisti
invenit
invenitur
inveniunt
inveniuntur
inventa
inventae
inventam
inventi
inventio
invention
inventione
inventionem
inventiones
inventionis
inventis
invento
inventor
inventores
inventum
inventus
investigabiles
investigare
investigat
investigatio
investigatione
investigationes
investigationis
investigator
invexit
invia
invicem
invicta
invicti
invictum
invictus
invida
invident
invidere
invidet
invidi
invidia
invidiae
invidiam
invidit
invidus
inviolabilem
inviolabilis
inviolabiliter
inviolata
invisa
invisibilem
invisibiles
invisibili
invisibilia
invisibilibus
invisibilis
invisibiliter
invisibilium
invisum
invisus
invita
invitare
invitat
invitati
invitatus
invitavit
inviti
invitis
invito
invitos
invitum
invitus
invocabo
invocant
invocantibus
invocare
invocat
invocatione
invocationem
invocato
invocatum
invocavi
invocavit
involuta
involutum
involutus
involvit
io
ioachim
ioachimus
ioan
ioanna
ioannae
ioanne
ioannem
ioannes
ioanni
ioannis
iob
ioco
iocos
iocum
iohanne
iohannem
iohannes
iohanni
iohannis
ion
ionas
ionathan
ionium
ioseph
iosephi
iosepho
iosephum
iosephus
iosue
ioue
iouem
ioui
iouis
iove
iovem
iovi
ioviani
iovis
ipa
iphigenia
ipsa
ipsae
ipsam
ipsamque
ipsaque
ipsarum
ipsas
ipse
ipsemet
ipseque
ipsi
ipsique
ipsis
ipsius
ipsiusque
ipso
ipsorum
ipsos
ipsosque
ipsum
ipsumque
ir
ira
iracundia
iracundiae
iracundiam
iracundus
irae
iram
irania
iraniae
iranica
irarum
iras
irascatur
irasceris
irasci
irascimini
irascitur
irata
irati
irato
iratum
iratus
ire
ireland
irenaeus
irene
irent
iret
iri
iris
iron
irrationabiliter
irrationale
irrationalis
irrita
irritam
irritum
irrogare
irruens
irruentes
irruentibus
irruerunt
irruit
irrumpere
is
isa
isaac
isaacus
isabella
isai
isaia
isaiae
isaiam
isaias
isarae
isbn
isdem
isidori
isidoro
isidorus
isis
islam
islamic
islamica
islamicae
island
islandia
islandiae
islands
ismael
iso
isola
isque
israe
israel
israelem
israeli
israelis
israelita
israelitae
israelitarum
israelitas
israelitis
israhel
issachar
isse
issn
ist
ista
istae
istaec
istam
istarum
istas
iste
isti
istic
istis
istituto
istius
istiusmodi
isto
istorico
istorum
istos
istuc
istud
istum
it
ita
itali
italia
italiae
italiaedpr
italiam
italian
italiana
italianae
italiane
italiani
italiano
italianus
italiapedia
italica
italicae
italicam
italicas
italice
italici
italicis
italico
italicum
italicus
italie
italis
italo
italorum
italos
italus
italy
itane
itaque
ite
item
itemque
iter
iterare
iterata
iterato
iterum
iterumque
ithacae
itidem
itinera
itineraria
itinerario
itinerarium
itinere
itineribus
itineris
itinerum
itis
its
itur
iturum
iturus
iu
iuba
iubar
iube
iubeat
iubebat
iubemus
iubent
iubente
iubentur
iubere
iuberet
iubes
iubet
iubetur
iucn
iucunda
iucundius
iucundum
iud
iuda
iudae
iudaea
iudaeae
iudaeam
iudaei
iudaeis
iudaeo
iudaeorum
iudaeos
iudaeus
iudaica
iudaicae
iudaico
iudas
iudex
iudicabit
iudicamus
iudicandi
iudicandum
iudicant
iudicare
iudicaret
iudicari
iudicas
iudicat
iudicatum
iudicatur
iudicatus
iudicavit
iudice
iudicem
iudices
iudicet
iudicetur
iudici
iudicia
iudicialis
iudicibus
iudicii
iudiciis
iudicio
iudiciorum
iudicis
iudicium
iudico
iudicum
iuga
iugera
iugi
iugis
iugiter
iugo
iugum
iul
iulia
iuliae
iuliam
iuliani
iuliano
iulianum
iulianus
iulii
iulio
iulium
iulius
iumenta
iumentis
iumentorum
iun
iuncta
iunctae
iuncti
iunctis
iunctum
iunctus
iungere
iungit
iungitur
iunguntur
iunias
iunii
iunio
iunior
iuniores
iunioris
iunium
iunius
iuno
iunonem
iunonis
iunxit
iupac
iupiter
iuppiter
iura
iurae
iuramento
iuramentum
iurando
iurandum
iurare
iuravit
iure
iureiurando
iurgia
iuri
iuribus
iuris
iurisconsultus
iurisdictio
iurisdictione
iurisdictionem
iurisdictionis
iurisprudentia
iurisprudentiae
iurium
iuro
iurum
ius
iusiurandum
iussa
iusserat
iusserit
iusserunt
iussi
iussimus
iussione
iussionem
iussis
iussisset
iussit
iussu
iussum
iussus
iust
iusta
iustae
iustam
iuste
iusti
iusticia
iusticiam
iustificationem
iustiniani
iustinianus
iustinus
iustis
iustitia
iustitiae
iustitiam
iustius
iusto
iustorum
iustos
iustum
iustus
iuuat
iuuenem
iuuenes
iuuenis
iuvante
iuvare
iuvat
iuvenalis
iuvenem
iuvenes
iuveni
iuvenibus
iuvenis
iuventa
iuventus
iuventute
iuventutem
iuventutis
iuvenum
iuxta
iv
ivan
ivanovna
ivit
ivo
ix
j
ja
jabai
jac
jacebat
jacens
jacent
jacentem
jacere
jaceret
jacet
jack
jackson
jacob
jacobi
jacobo
jacobum
jacobus
jacques
jacta
jactant
jactantia
jactantiae
jactantiam
jactare
jacturam
jacuit
jacula
jaculis
jah
jahrbuch
jahre
jahrhundert
jahrhunderts
jam
jamdudum
james
jampridem
jamque
jan
jane
janua
januam
januarii
januario
januarium
januarius
januas
januis
japan
japanese
japhet
jason
jay
jazz
je
jean
jefferson
jeffrey
jehu
jejunare
jejunavit
jejunet
jejunia
jejunii
jejuniis
jejunio
jejuniorum
jejunium
jennifer
jer
jerem
jeremia
jeremiae
jeremiam
jeremias
jericho
jeroboam
jerosolymam
jerosolymis
jerry
jerusalem
jesse
jesu
jesum
jesus
jewish
jezabel
ji
jia
jim
jo
joab
joachim
joacim
joan
joanne
joannem
joannes
joanni
joannis
joas
job
joe
joel
johann
johannem
johannes
johannis
john
johns
johnson
jon
jona
jonae
jonam
jonas
jonathan
jonathas
jones
joram
jordan
jordane
jordanem
jordanis
jos
josaphat
jose
josef
joseph
josephus
josiae
josias
josue
journal
journey
jove
jovem
jovis
joyce
jpg
jr
jstor
ju
juan
jubar
jube
jubeas
jubeat
jubemur
jubemus
jubente
jubentur
jubere
juberet
jubes
jubet
jubetur
jubilate
jucunda
jucunditas
jucunditate
jucundum
jud
juda
judae
judaea
judaeae
judaeam
judaei
judaeis
judaeo
judaeorum
judaeos
judaeum
judaeus
judaica
judaicae
judaici
judaico
judaicum
judaicus
judam
judas
judex
judic
judica
judicabit
judicabitur
judicabo
judicamus
judicandi
judicando
judicandum
judicandus
judicans
judicant
judicantes
judicantis
judicantur
judicare
judicaret
judicari
judicas
judicat
judicata
judicate
judicatis
judicatum
judicatur
judicaturus
judicatus
judicaverunt
judicavi
judicavit
judice
judicem
judicent
judicentur
judices
judicet
judicetur
judici
judicia
judiciaria
judicibus
judicii
judiciis
judicio
judiciorum
judicis
judicium
judico
judicum
judith
juga
jugi
jugis
jugiter
jugo
jugum
jul
jules
julia
julian
juliani
juliano
julianum
julianus
julien
julii
julio
julius
jumenta
jumentis
jumentorum
jumentum
jun
juncta
juncti
junctis
june
jung
junge
jungi
jungit
jungitur
junguntur
junii
junior
juniorem
juniores
junioris
junius
junxit
jupiter
jura
juramenta
juramenti
juramento
juramentum
jurare
jurat
juravi
juravit
jure
jurejurando
jurgia
juri
juribus
juris
jurisdictione
jurisdictionem
jus
jusjurandum
jussa
jusserat
jusserit
jussi
jussimus
jussione
jussionem
jussionibus
jussionis
jussis
jussisti
jussit
jussu
jussum
jussus
just
justa
justae
justam
juste
justi
justice
justificabitur
justificari
justificat
justificati
justificatio
justificationem
justificationes
justificationibus
justificationum
justificatur
justificatus
justificavit
justificeris
justiniani
justiniano
justinianus
justinus
justis
justissime
justitia
justitiae
justitiam
justitias
justius
justo
justorum
justos
justum
justus
juvante
juvare
juvat
juvenem
juvenes
juvenis
juventus
juventute
juventutem
juventutis
juvenum
juxta
k
ka
kai
kaiser
kaj
kal
kalend
kalendae
kalendarum
kalendas
kalendis
kansia
kansiae
kant
karen
karl
karoli
karolus
kazuro
ke
keith
kelly
ken
kennedy
kenneth
kent
kentukiae
kevin
key
kg
khan
ki
kim
kin
king
kingdom
kings
kioviae
kioviensis
kirby
kirche
kirk
kitami
kl
klaus
klein
kleine
klet
km
knight
knopf
know
knowledge
ko
kobayashi
koch
kong
konigstulae
konrad
kpd
ku
kultur
kunst
kurt
kyrie
l
la
laban
labe
labem
labentibus
labes
labi
labia
labiis
labiorum
labitur
labium
labor
laborabant
laborabat
laboramus
laborandi
laborandum
laborans
laborant
laborantem
laborantes
laboranti
laborantibus
laborantium
laborare
laboraret
laborasse
laborat
laboratis
laboraverunt
laboravi
laboravit
labore
laborem
laborent
labores
laboret
labori
laboribus
laboriosa
laboriosum
laboris
laboro
laborum
labra
labris
labuntur
lac
lacedaemonii
lacedaemoniis
lacedaemoniorum
lacedaemonios
lacerare
lacerta
lacertis
lacertos
lacessere
lacrimae
lacrimarum
lacrimas
lacrimis
lacrymae
lacrymarum
lacrymas
lacrymis
lactantius
lacte
lactea
lacticiniis
lactis
lacu
lacum
lacuna
lacus
lacuum
lady
laedere
laedi
laedit
laeditur
laelius
laesa
laesae
laesi
laesione
laesionem
laesit
laesus
laeta
laetabitur
laetabuntur
laetamini
laetantes
laetantur
laetare
laetari
laetatur
laetatus
laetemur
laetentur
laetetur
laeti
laetificat
laetior
laetis
laetitia
laetitiae
laetitiam
laeto
laetos
laetum
laetus
laeva
laevam
laevaque
lago
laguna
laici
laicis
laico
laicorum
laicos
laicum
laicus
lake
lam
lama
lambert
lambertus
lamech
lamenta
lamentis
lamina
lampades
lampadibus
lampas
lana
lanae
lanam
lance
lancea
lanceam
lanceis
land
landarum
lane
lang
langobardi
langobardia
langobardiae
langobardis
langobardorum
language
languages
langue
languida
languor
languore
languorem
languores
languoribus
languoris
lapide
lapidea
lapideis
lapidem
lapides
lapideum
lapidi
lapidibus
lapidis
lapidum
lapis
lapsa
lapsi
lapsis
lapsos
lapsu
lapsum
lapsus
laquearia
laquei
laqueis
laqueo
laqueos
laqueum
laqueus
lares
larga
large
largiatur
largiente
largire
largiri
largita
largitas
largitate
largitatem
largitatis
largiter
largitione
largitionum
largitor
largitur
largitus
largiuntur
largius
largo
largus
larry
larvae
las
lascivia
lasciviam
lassus
last
lat
lata
latae
latam
latas
late
lateat
latebat
latebras
latebris
lateinischen
latens
latent
latentem
latenter
latentes
lateque
later
latera
lateralis
lateranensi
lateranensis
laterani
latere
lateret
lateri
lateribus
lateris
laterum
latet
lati
latibulum
latices
latii
latin
latina
latinae
latinam
latinarum
latinas
latine
latini
latinis
latinitas
latinitate
latinitatis
latino
latinorum
latinos
latinska
latinum
latinus
latio
latior
latis
latissime
latitudine
latitudinem
latitudinis
latitudo
latium
latius
lato
lator
latorem
latreille
latro
latrocinia
latrocinio
latrone
latronem
latrones
latroni
latronibus
latronis
latronum
latuit
latum
latus
lau
lauda
laudabile
laudabilem
laudabiles
laudabili
laudabilis
laudabiliter
laudabit
laudabo
laudabunt
laudamus
laudanda
laudando
laudandum
laudandus
laudans
laudant
laudantes
laudantium
laudantur
laudare
laudari
laudas
laudat
laudata
laudate
laudati
laudatio
laudatis
laudato
laudatum
laudatur
laudatus
laudaverunt
laudavit
laude
laudem
laudemus
laudensis
laudent
laudes
laudet
laudetur
laudi
laudibus
laudis
laudo
laudum
laura
laurea
laureati
laureatus
laurent
laurenti
laurentii
laurentio
laurentium
laurentius
lauri
lauro
laurus
laus
lava
lavacri
lavacro
lavacrum
lavare
lavari
lavat
lavi
lavit
lavoro
law
lawrence
lazari
lazaro
lazarum
lazarus
lazio
lazuli
lc
le
leaena
league
learning
leben
lecta
lecti
lectio
lectione
lectionem
lectiones
lectioni
lectionibus
lectionis
lectionum
lectis
lecto
lector
lectorem
lectores
lectori
lectoribus
lectoris
lectorum
lectos
lectulo
lectulum
lectum
lectures
lectus
ledain
lee
left
leg
legacy
legales
legali
legalibus
legalis
legaliter
legamus
legant
legantur
legas
legat
legata
legati
legatio
legatione
legationem
legationes
legationibus
legationis
legatis
legato
legatorum
legatos
legatum
legatur
legatus
lege
legebat
legebatur
legem
legend
legenda
legendi
legendo
legendum
legens
legentes
legenti
legentibus
legentis
legentium
legerat
legere
legerentur
legeret
legeretur
legeris
legerit
legerunt
leges
legi
legibus
legimus
legio
legione
legionem
legiones
legionibus
legionis
legionum
legis
legislator
legisse
legisset
legisti
legistis
legit
legite
legitima
legitimae
legitimam
legitimas
legitime
legitimi
legitimis
legitimo
legitimos
legitimum
legitimus
legitur
lego
legum
legumina
legunt
leguntur
leiden
leika
leipzig
lemma
lemovicensi
lena
lene
leni
lenis
lenitate
lenitatem
lenitatis
leniter
lenius
leno
lenta
lente
lento
lentulo
lentulus
leo
leodiensis
leon
leonard
leonardi
leonardo
leonardus
leone
leonem
leones
leoni
leonibus
leonidas
leonis
leontio
leontius
leonum
leopoldus
lepidi
lepido
lepidoptera
lepidum
lepidus
leporem
lepra
leprae
lepram
leprosi
leprosus
lepus
les
leslie
lesurae
let
leti
leto
letter
letters
lettres
letum
leucensi
leui
leuis
leur
lev
leva
levant
levare
levat
levate
levatus
levavi
levavit
leve
level
levem
leves
levi
levia
leviathan
levibus
levior
leviora
levioribus
levis
levit
levita
levitae
levitarum
levitas
levitate
levitatem
levitatis
leviter
levitico
levitis
levius
lewis
lex
lexico
lexicon
lexikon
lez
li
lia
lib
libamina
libani
libano
libanum
libanus
libeat
libell
libelli
libellis
libello
libellorum
libellos
libellum
libellus
libens
libenter
libenti
libentissime
libentius
liber
libera
liberabit
liberabitur
liberae
liberalem
liberales
liberali
liberalibus
liberalis
liberalitas
liberalitate
liberalitatem
liberalitatis
liberaliter
liberalium
liberam
liberandum
liberantur
liberare
liberaret
liberaretur
liberari
liberas
liberasti
liberat
liberata
liberati
liberatio
liberatione
liberationem
liberationis
liberator
liberatos
liberatum
liberatur
liberatus
liberaverit
liberavit
libere
liberemur
liberentur
liberet
liberetur
liberi
liberis
liberius
libero
liberorum
liberos
libertas
libertate
libertatem
libertates
libertati
libertatibus
libertatis
liberti
libertis
libertus
liberty
liberum
libet
libidine
libidinem
libidines
libidini
libidinibus
libidinis
libidinum
libido
libitum
libr
libra
librae
libram
librarii
librarum
library
libras
libre
libri
libris
libro
librorum
libros
librum
libuit
liburia
libya
libyae
libyam
lic
liceat
licebat
licebit
licent
licenter
licentia
licentiae
licentiam
licentius
licere
liceret
licet
licinio
licinius
licita
licite
licitis
licitum
licuerit
licuisset
licuit
liderici
lie
lieux
life
liga
ligandi
ligare
ligari
ligat
ligata
ligatis
ligatum
ligatur
ligatus
ligaveris
ligavit
ligerim
ligeris
ligerulae
light
ligna
lignea
ligneis
ligneum
ligni
lignis
ligno
lignorum
lignum
ligure
ligures
liguria
ligurum
ligusticum
lii
liii
like
lilia
lilium
lima
limae
limen
limes
limina
limine
liminibus
limite
limitem
limites
limitibus
limitis
limo
limus
lin
lincoln
linda
line
linea
lineae
lineam
lineamenta
linearum
lineas
lineis
lingua
linguae
linguam
linguarum
linguas
lingue
linguis
linguista
linguistae
linguistic
linguistica
linguisticae
linguistics
lini
link
linnaei
linnaeo
linnaeus
lino
linquere
linteo
linteum
linum
linus
lion
lips
lipsiae
lipsiensis
liquamen
liquet
liquida
liquidis
liquido
liquidum
liquor
liquore
liquorem
liquores
liquoris
lis
lisa
lisaire
list
lit
litania
lite
litem
literae
literarum
literary
literas
literatur
literatura
literature
literis
lites
litibus
litigare
litis
litium
litora
litoralis
litore
litoribus
litoris
litorum
litt
litte
littera
litterae
litteram
litteraria
litterariae
litterarius
litterarum
litteras
litteratura
litteraturae
litteris
little
littora
littore
littus
lituaniae
liturgia
liturgiae
litus
liu
liv
live
lives
livii
living
livio
livius
livor
livore
livoris
livre
lix
ll
ller
lloyd
ln
lo
loc
loca
localem
locales
locali
localis
localiter
locat
locata
locatum
locatus
locavit
loci
locis
loco
locorum
locos
locum
locuples
locupletes
locus
locusta
locustae
locustarum
locuta
locuti
locutio
locutione
locutionem
locutiones
locutionis
locutionum
locutorum
locutum
locuturus
locutus
locutusque
loeb
logic
logica
logicae
logicam
logos
loire
lombardy
londini
londiniensis
londinii
londinium
londinum
london
long
longa
longae
longam
longas
longe
longeque
longi
longinqua
longinquam
longinquis
longinquo
longinus
longior
longiore
longiorem
longiores
longis
longissima
longissime
longissimum
longitudine
longitudinem
longitudinis
longitudo
longius
longman
longo
longobardorum
longos
longum
longus
loquacitate
loquamini
loquamur
loquantur
loquar
loquaris
loquatur
loquebantur
loquebar
loquebatur
loquela
loquelae
loquendi
loquendo
loquendum
loquens
loquente
loquentem
loquentes
loquenti
loquentibus
loquentis
loquentium
loquentur
loquere
loquerentur
loqueretur
loqueris
loquetur
loqui
loquimini
loquimur
loquitur
loquor
loquuntur
lora
lord
lorenzo
lorica
loricam
loris
loro
los
losarae
lost
lot
lota
loth
lotharii
lotharingia
lotharingiae
lothario
lotharium
lotharius
lotis
lotus
louis
louisiana
lovaniensis
lovanii
love
low
lowell
lr
ltd
lu
lubet
lubrica
lubrico
lubricum
luc
luca
lucae
lucam
lucania
lucanus
lucas
luce
luceant
luceat
lucem
lucens
lucensi
lucensis
lucent
lucere
lucerna
lucernae
lucernam
lucernas
lucet
luci
lucia
luciae
lucianus
lucida
lucidum
lucifer
luciferum
lucii
lucilius
lucina
lucio
lucis
lucium
lucius
luco
lucos
lucra
lucrari
lucratus
lucretia
lucretius
lucretur
lucri
lucris
lucro
lucrum
luctu
luctum
luctus
luculenter
lucullus
lucus
ludens
ludere
ludi
ludibria
ludibrio
ludibrium
ludicra
ludis
ludit
ludmila
ludo
ludorum
ludos
ludovica
ludovici
ludoviciana
ludovicianae
ludovico
ludovicum
ludovicus
ludum
ludunt
ludus
ludwig
lues
lugdunensi
lugdunensis
lugduni
lugduno
lugdunum
lugens
lugent
lugentes
lugere
luget
lui
luigi
luis
luit
lumbi
lumbis
lumbos
lumen
lumina
luminare
luminaria
luminaribus
lumine
lumini
luminibus
luminis
luminum
luna
lunae
lunam
lunares
lunari
lunaris
luneburgensis
lunæ
lupi
lupiensi
lupis
lupo
luporum
lupos
lupum
lupus
lusice
lusit
lusitana
lusitane
lusitani
lusitania
lusitaniae
lusitanice
lusitanus
lusor
lusores
lustra
lusum
lusus
lutetia
lutetiae
lutetiam
luther
lutheranus
lutheri
lutherus
luti
luto
lutum
lutz
lux
luxemburgi
luxit
luxu
luxuria
luxuriae
luxuriam
luxus
lv
lvi
lvii
lviii
lx
lxi
lxii
lxiii
lxiv
lxix
lxv
lxvi
lxvii
lxviii
lxx
lxxi
lxxii
lxxiii
lxxiv
lxxix
lxxv
lxxvi
lxxvii
lxxviii
lxxx
lxxxi
lxxxii
lxxxiii
lxxxiv
lxxxix
lxxxv
lxxxvi
lxxxvii
lxxxviii
ly
lyc
lycei
lyceum
lycia
lyciae
lydia
lynn
lyon
lyra
lyrica
lyrici
lys
lyudmila
lætitia
m
ma
mab
mabillonius
mac
macarius
macdonald
macedones
macedonia
macedoniae
macedoniam
macedonibus
macedonum
macerata
maceriae
machabaeorum
machina
machinae
machinam
machinamenta
machinarum
machinas
machinator
machinatores
machine
machinis
macmillan
macrobius
macropus
macula
maculae
maculam
maculare
maculas
maculis
madame
made
madian
madison
madonna
madrid
maecenas
maerore
maesta
mag
magazine
magdalena
magdalenae
magdalene
mage
magi
magia
magiae
magic
magica
magicae
magicis
magis
magisque
magister
magisterii
magisterio
magisterium
magistra
magistram
magistratibus
magistratu
magistratum
magistratus
magistratuum
magistri
magistris
magistro
magistrorum
magistros
magistrum
magna
magnae
magnalia
magnam
magnanimus
magnaque
magnarum
magnas
magne
magni
magnifica
magnificat
magnifice
magnificentia
magnificentiae
magnificentiam
magnificentissimo
magnifici
magnificis
magnifico
magnificum
magnificus
magnis
magnisque
magnitudine
magnitudinem
magnitudines
magnitudini
magnitudinis
magnitudo
magno
magnolia
magnopere
magnoque
magnorum
magnos
magnum
magnus
mago
magorum
magos
magum
magus
mahometi
mahometus
mai
maia
maias
maier
maiestas
maiestate
maiestatem
maiestati
maiestatis
maii
main
maio
maior
maiora
maiore
maiorem
maiores
maiori
maioribus
maioris
maiorum
mais
maison
maius
majestas
majestate
majestatem
majestati
majestatis
major
majora
majore
majorem
majores
majori
majoribus
majoris
majorum
majus
make
making
mal
mala
malach
malae
malaesia
malam
malarum
malas
malcolm
male
maledicere
maledici
maledicta
maledicti
maledictio
maledictione
maledictionem
maledictionis
maledictis
maledicto
maledictum
maledictus
malefica
maleficarum
malefici
maleficia
maleficio
maleficis
maleficium
maleficos
mali
maligna
malignantium
maligni
malignis
malignitate
malignitatis
maligno
malignorum
malignos
malignum
malignus
malim
malis
malit
malitia
malitiae
malitiam
malitiose
malle
mallem
mallent
mallet
malleus
malo
malorum
malos
maluerint
maluerit
malueritis
maluerunt
malui
maluit
malum
malunt
malus
mammal
mammalia
mammaliaformes
mammalium
mammals
mammona
man
managai
managein
management
manare
manasse
manasses
manat
manavit
manchester
mancipati
mancipia
mancipiis
mancipium
mandamus
mandans
mandantes
mandare
mandasse
mandasti
mandat
mandata
mandati
mandatis
mandato
mandatorum
mandatum
mandatur
mandaverat
mandavi
mandavimus
mandavit
mandela
mando
manduca
manducandum
manducant
manducare
manducat
manducaverit
manducaverunt
manducavit
manducet
mane
maneamus
maneant
maneat
manebant
manebat
manebit
manens
manent
manente
manentem
manentes
manentibus
manere
manerent
maneret
manes
manet
manete
manfred
manfredus
manibus
manibusque
manicae
manichaei
manichaeis
manichaeo
manichaeorum
manichaeos
manichaeum
manichaeus
manifesta
manifestae
manifestam
manifestare
manifestari
manifestat
manifestata
manifestatio
manifestatione
manifestationem
manifestatum
manifestatur
manifestavit
manifeste
manifestetur
manifesti
manifestis
manifestissime
manifestius
manifesto
manifestum
manifestus
manipulos
manius
manlio
manlius
mann
manna
manne
manning
mans
manserit
manserunt
mansi
mansio
mansione
mansionem
mansiones
mansionibus
mansis
mansisse
mansisset
mansit
mansos
mansueti
mansuetudine
mansuetudinem
mansuetudinis
mansuetudo
mansuetus
mansum
mansura
mansurum
mantua
mantuae
mantuana
manu
manual
manuel
manum
manus
manuscripta
manuscripti
manuscriptis
manuscripto
manuscripts
manuscriptum
manusque
manuum
many
mao
map
maps
mar
mara
marc
marca
marcel
marcelli
marcellini
marcellino
marcellinum
marcellinus
marcello
marcellum
marcellus
march
marche
marchia
marchiae
marchio
marchionis
marci
marciano
marcianus
marcion
marcius
marco
marcum
marcus
mare
maredut
marem
mares
marg
margaret
margarita
margaritae
margaritam
margaritas
margaritis
margine
marginem
mari
maria
mariae
mariam
mariana
marianus
maribus
mariculi
marie
marii
marina
marinae
marine
marini
marinis
marino
marinorum
marinum
marinus
mario
marion
marique
maris
mariscus
mariti
maritima
maritimae
maritimam
maritimarum
maritimi
maritimis
maritimum
maritis
marito
maritos
maritum
maritus
marium
marius
mark
market
markets
marmilla
marmor
marmora
marmore
maro
maroci
mars
marshall
marsupialia
marsupialium
mart
marte
martem
martha
marthae
marti
martia
martialis
martias
martii
martiis
martin
martini
martino
martinum
martinus
martio
martiris
martis
martium
martius
martyr
martyre
martyrem
martyres
martyri
martyria
martyribus
martyrii
martyrio
martyris
martyrium
martyrum
marx
mary
mas
masc
masculi
masculina
masculini
masculino
masculinum
masculos
masculum
masculus
mason
mass
massa
massachusetta
massachusettae
massachusettensium
massachusetts
massae
massam
masseria
massiliae
massiliam
massiliensis
massimo
master
mat
mata
mater
materia
materiae
materiale
materialem
materiales
materiali
materialis
materialiter
materiam
materias
materie
materiem
materies
materiis
materna
maternae
materni
maternis
materno
mathbb
mathbf
mathematica
mathematicae
mathematical
mathematici
mathematicis
mathematics
mathematicus
mathildis
mathrm
matre
matrem
matres
matri
matribus
matricis
matrimonia
matrimonii
matrimonio
matrimonium
matris
matriti
matrix
matrona
matronae
matronam
matronarum
matrum
matt
matth
matthaei
matthaeo
matthaeum
matthaeus
matthew
matthias
matura
mature
maturitate
maturitatem
maturitatis
maturius
maturum
matutina
matutinis
matutino
matutinum
mauri
maurice
mauricii
mauricio
mauricius
maurini
mauris
mauritania
mauritaniae
mauritii
mauritius
mauro
maurorum
mauros
maurus
mavis
mavult
max
maxilla
maxillam
maxim
maxima
maximae
maximam
maximarum
maximas
maxime
maximeque
maximi
maximiani
maximiano
maximianum
maximianus
maximiliani
maximiliano
maximilianus
maximini
maximinus
maximis
maximo
maximorum
maximos
maximum
maximus
maxume
may
maya
mayer
mayr
mc
mcgraw
mckenna
md
me
mea
mead
meae
meam
meaning
mearum
meas
meatu
meatus
mechanica
mechanicae
mecum
med
medal
medea
medela
medelam
medendi
mederi
medetur
medi
media
mediae
mediaevales
mediaevali
mediaevalis
mediam
mediante
mediantibus
medias
mediator
mediatore
mediatorem
mediatoris
medica
medicae
medical
medicamenta
medicamentis
medicamento
medicamentorum
medicamentum
medicamina
medicamine
medices
medici
medicina
medicinae
medicinales
medicinam
medicine
medicis
medico
medicorum
medicos
medicum
medicus
medietas
medietate
medietatem
medieval
medii
mediis
medio
mediocre
mediocrem
mediocres
mediocri
mediocribus
mediocris
mediocriter
mediolanensem
mediolanenses
mediolanensi
mediolanensis
mediolanensium
mediolani
mediolano
mediolanum
mediorum
medios
meditabitur
meditari
meditati
meditatio
meditatione
meditationem
meditationes
meditatur
meditatus
mediterranea
mediterranean
mediterranei
mediterraneo
mediterraneum
medium
medius
medorum
medos
meduanae
medulla
medullam
medullas
medullis
mee
meg
mehercule
mei
mein
meina
meipso
meipsum
meis
mel
mela
melchior
melchisedech
melicope
melior
meliora
meliore
meliorem
meliores
meliori
melioribus
melioris
meliorum
melissa
melissae
melitae
melius
mella
melle
mellis
melos
mem
membra
membrana
membri
membris
membro
membrorum
membrum
memento
mementote
meminerimus
meminerint
memineris
meminerit
meminerunt
memini
meminimus
meminisse
meministi
meministis
meminit
memoirs
memor
memorabile
memorabilis
memoranda
memorant
memorantur
memorare
memorat
memorata
memoratae
memoratam
memorati
memoratis
memorato
memoratos
memoratu
memoratum
memoratur
memoratus
memoravi
memoravimus
memoravit
memorem
memores
memoria
memoriae
memoriale
memoriam
memorias
memorie
memoriter
memory
memphis
men
menander
mendacem
mendaces
mendacia
mendacii
mendaciis
mendacio
mendaciorum
mendaciter
mendacium
mendax
mendicus
menelaus
mens
mensa
mensae
mensam
mensas
menschen
mense
mensem
menses
mensi
mensibus
mensis
mensium
mensura
mensurae
mensuram
mensuras
mensuris
mensus
ment
mente
mentem
mentes
menti
mentiatur
mentibus
mentiendo
mentio
mentione
mentionem
mentior
mentiri
mentiris
mentis
mentita
mentiti
mentitum
mentitur
mentitus
mentium
mentiuntur
mentum
meo
meorum
meos
meque
mer
mera
merc
mercator
mercatores
mercatoria
mercatoriae
mercatoribus
mercatoris
mercatorum
mercatu
mercatum
mercatura
mercaturae
mercatus
mercede
mercedem
mercedes
mercedis
mercenarii
mercenarius
merces
mercibus
merciorum
mercium
mercurii
mercurio
mercurium
mercurius
mere
mereamini
mereamur
mereantur
merear
merearis
mereatur
merebatur
meremur
merentur
mererentur
mereretur
mereri
meret
meretricem
meretrices
meretricis
meretrix
meretur
mergi
mergitur
meri
meridiana
meridianae
meridianam
meridiani
meridianis
meridiano
meridianum
meridie
meridiem
meridies
meridio
meridionale
meridionalem
meridionali
meridionalis
merita
meriti
meritis
merito
meritoque
meritorum
meritum
meritus
mero
mersa
meruerat
meruere
meruerint
meruerit
meruerunt
merui
meruisse
meruisset
meruisti
meruit
merum
mes
mesa
meschita
mesnil
meson
mesopotamia
mesopotamiae
mesopotamiam
messala
messalla
messana
messanensi
messanensis
messe
messem
messes
messis
met
meta
metalla
metalli
metallis
metallo
metallorum
metallum
metam
metamorphoses
metaph
metaphys
metaphysica
metaphysicae
metas
metazoa
metelli
metello
metellus
metensis
metet
methodo
methods
methodum
methodus
metiri
metis
metitur
metiuntur
metra
metri
metrica
metris
metro
metropoli
metropolim
metropolis
metropolita
metropolitae
metropolitan
metropolitana
metropolitanae
metropolitanam
metropolitani
metropolitanis
metropolitano
metropolitanum
metropolitanus
metrorum
metrum
metu
metuant
metuat
metuebat
metuenda
metuendum
metuens
metuentes
metuere
metuis
metuit
metum
metuo
metus
metuunt
meum
meus
mexicana
mexicanus
mexici
mexico
mexicopoli
mexicum
meyer
meyrick
mez
meæ
mg
mi
mia
mica
micat
mich
michae
michael
michaela
michaele
michaelem
michaeli
michaelis
michel
michele
michi
michigan
michiganiae
microsoft
middle
midi
mie
mifflin
migne
migrare
migraverunt
migravit
miguel
mihi
mihique
mik
mike
mil
milan
milano
mile
miles
milia
miliaria
miliaribus
milibus
milies
miliones
militans
militant
militare
militarem
militares
militari
militaria
militaribus
militaris
militarium
military
militat
militavit
milite
militem
milites
militi
militia
militiae
militiam
militibus
militis
militum
milium
mill
mille
millennio
millennium
miller
millesimo
millia
milliario
millibus
millies
milliones
millionum
millium
milo
milone
milton
min
mina
minabatur
minaci
minae
minantur
minas
minatur
minatus
mind
minerva
minervae
minervam
minima
minimae
minimam
minime
minimi
minimis
minimo
minimum
minimus
minis
minister
ministeria
ministerii
ministeriis
ministerio
ministerium
ministra
ministrabant
ministrabat
ministrant
ministrare
ministraret
ministrari
ministrat
ministratur
ministravit
ministrent
ministret
ministri
ministris
ministro
ministrorum
ministros
ministrum
minnesota
minnesotae
minor
minora
minore
minorem
minores
minori
minoribus
minoris
minorum
minos
minuatur
minucius
minuere
minui
minuit
minuitur
minus
minusque
minusve
minuta
minutatim
minutis
minutum
mira
mirabantur
mirabile
mirabilem
mirabiles
mirabili
mirabilia
mirabilibus
mirabilis
mirabiliter
mirabilium
mirabilius
miracula
miraculi
miraculis
miraculo
miraculorum
miraculum
mirae
miram
miramur
miranda
mirandum
mirantibus
mirantur
mirari
miraris
mirati
miratur
miratus
mire
miremur
mireris
miretur
mirifica
mirifice
miris
miro
miror
mirum
mis
misceatur
miscent
miscentur
miscere
misceri
miscet
miscetur
mische
mischen
miscuit
miser
misera
miserabile
miserabilem
miserabili
miserabilis
miserabiliter
miserae
miseram
miseranda
miserante
miseras
miserat
miseratio
miseratione
miserationes
miserationis
miserationum
miserator
miseratus
misere
misereatur
miserebitur
miserebor
miserentis
miserere
misereri
miseretur
miseri
miseria
miseriae
miseriam
miseriarum
miserias
misericordem
misericordes
misericordia
misericordiae
misericordiam
misericordiarum
misericordias
misericordie
misericorditer
misericors
miseriis
miseris
miserit
misero
miserorum
miseros
misertus
miserum
miserunt
misi
misimus
misisse
misisset
misisti
misistis
misit
misitque
missa
missae
missam
missarum
missas
missi
missio
missione
missionem
missiones
missionis
missis
mississippiae
misso
missos
missum
missuriae
missurum
missurus
missus
mit
mitchell
mite
mitem
mites
mithridates
mitigare
mitigat
mitior
mitis
mitius
mitra
mitram
mittam
mittamus
mittant
mittantur
mittas
mittat
mittatur
mitte
mittebantur
mittebat
mittelalter
mittelalters
mittendi
mittens
mittentes
mittere
mitterent
mitterentur
mitteret
mitteretur
mittet
mittetur
mitti
mittimus
mittis
mittit
mittite
mittitur
mitto
mittunt
mittuntur
mixta
mixti
mixtio
mixtis
mixto
mixtum
mixtura
[...]
