!
"
#
##0
##1
##10
##11
##12
##13
##14
##15
##16
##17
##18
##19
##2
##20
##21
##22
##23
##24
##25
##26
##27
##28
##29
##3
##30
##31
##32
##33
##34
##35
##36
##37
##38
##39
##4
##40
##41
##42
##43
##44
##45
##46
##47
##48
##49
##5
##50
##51
##52
##53
##54
##55
##56
##57
##58
##59
##6
##60
##61
##62
##63
##64
##65
##66
##67
##68
##69
##7
##70
##71
##72
##73
##74
##75
##76
##77
##78
##79
##8
##80
##81
##82
##83
##84
##85
##86
##87
##88
##89
##9
##90
##91
##92
##93
##94
##95
##96
##97
##98
##99
$
%
&
'
(
)
*
+
,
-
.
/
0
00
000
0000
001
002
003
008
01
012
016
017
018
019
02
020
021
022
024
028
029
03
030
032
032900
037
039
04
040
047
049
05
055
06
062
069
07
075
08
081
085
088
089
09
091
096
1
10
100
1000
10000
100000
1001
1003
1004
1005
1006
1007
1008
1009
101
1010
10100
1011
1012
1013
1014
1015
1016
1017
1018
102
1020
102000
1021
1022
1023
1023000
1024
1025
1026
1027
1029
103
1030
1031
1032
1033
1035
1036
1037
1038
1039
104
1040
1041
1042
1043
1044
1045
1046
1047
1048
1049
105
1050
105000
1052
1053
1054
1055
1056
1057
1058
106
1060
106000
1061
1062
1063
1064
1065
1066
1067
1068
1069
107
1070
107000
1071
1072
1074
1075
1077
1078
1079
108
1080
108000
1081
1082
1083
1084
1085
1086
10860
1088
1089
109
1090
10903
1091
1092
1092000
1093
1094
1095
1096
1097
1098
1099
11
110
1100
11000
110000
1101
1103
1104
1105
1106
1107
1108
1109
111
1110
1111
1112
1113
1114
1115
1116
1118
1119
112
1120
1122
1123
1124
1125
1127
1128
1129
113
1130
1131
1132
1133
1134
1135
1136
1137
1138
1139
114
11400
114000
1141
11411
1143
1144
1145
1146
1147
1148
1149
115
1150
115000
1151
1152
1153
1155
1156
1157
1159
116
1160
1161
1162
1163
1164
1165
1166
1167
1168
1169
117
1170
1171
1172
1173
1174
1175
1176
1177
1178
1179
118
1180
118000
1181
1182
1184
11849
1185
1186
1187
1188
1189
11892
119
1190
119000
1191
1192
1193
1194
1195
1196
1197
1198
1199
12
120
1200
12000
120000
1201
1203
1204
1205
1206
1207
1208
1209
121
1210
121000
1211
1212
1213
1214
1215
1217
1218
1219
122
1220
122000
1221
1222
1223
1224
1225
1226
1227
1228
1229
123
1230
12300
123000
1231
1232
1233
1234
1235
1236
1237
1238
1239
124
1240
12400
1241
1242
1244
1245
1246
1247
1248
1249
125
1250
125000
1251
1252
1253
1254
1255
1256
1257
1258
1259
126
1260
12600
1261
1262
1264
1265
1266
1267
1268
1269
127
1270
1271
1272
1273
1274
1275
1276
1277
1278
1279
128
1280
12800
1281
1282
1283
1284
1285
1286
1287
1288
129
1290
12900
1291
1292
1293
1295
1296
1297
1298
1299
13
130
1300
13000
130000
1301
1302
1303
1304
1305
1306
1307
1308
1309
131
1310
1311
1312
1313
1314
1315
1316
1317
1318
132
1320
13200
1321
1323
1324
1325
1326
1327
1328
1329
133
1330
1331
1332
1333
1334
1335
1336
1337
1338
1339
134
1340
1341
1343
1344
1345
1346
1348
1349
135
1350
1351
1352
1353
1354
1355
1356
1357
1358
136
1360
1361
1362
1363
1364
1365
1366
1368
1369
137
1370
137000
1372
1373
1374
1375
1376
1378
138
1380
1382
1383
1384
1385
1386
1387
1388
1389
139
1391
1392
1393
1394
1395
1396
1397
14
140
1400
14000
140000
1401
1402
1403
1404
1405
1406
1407
1409
141
1410
1411
1412
1413
1415
1417
1418
1419
142
1420
142000
1421
1422
1423
1424
1425
1428
1429
143
1430
1431
1432
1433
1434
1435
1436
1437
1438
1439
144
1440
14400
1444
1445
1447
1448
1449
145
1450
14500
145000
1451
1453
1454
1455
1456
1457
1459
146
1460
1461
1462
1464
1465
1466
1467
1468
1469
147
1470
14700
1471
1472
1473
1474
1475
1476
1477
1478
1479
148
1480
1481
1483
1484
1485
1487
1488
1489
149
1490
1491
1492
1493
1494
1495
1496
1497
1498
1499
15
150
1500
15000
150000
1501
1502
1504
1505
1506
1507
1508
1509
151
1510
15100
151000
1511
1513
1514
1515
1516
1517
1518
1519
152
1520
1521
1523
1524
1525
1526
1527
1528
1529
153
1530
1532
1533
1534
1535
1536
1538
154
1540
154000
1541
1542
1543
1544
1546
1547
1548
1549
155
1550
15500
1551
1552
1553
1555
1556
1557
1558
1559
156
1560
15600
156000
1562
15623
1563
1564
1565
156500
1566
1567
1568
1569
157
1570
157000
1571
1572
1573
1574
1575
1576
1577
1578
1579
158
1580
15800
158000
1581
1582
1584
1585
1587
1589
159
1590
1591
1592
1593
1594
1595
1596
1597
1598
1599
16
160
1600
16000
1601
1602
1603
1604
1605
1606
1607
1608
1609
161
1610
161000
1611
1612
1613
1614
1615
1616
1617
1618
1619
162
1620
162000
1621
1622
1623
1624
1625
1626
1627
1628
1629
163
1630
1631
1632
1633
1634
1635
1636
1637
1638
1639
164
1640
164000
1641
1642
1643
1644
1645
1646
1647
1648
1649
165
1650
16500
165000
1651
1652
1653
1654
1655
1656
1657
1658
1659
166
1660
166000
1661
1662
1663
1664
1665
1666
1667
1668
1669
167
1670
167000
1671
1672
1673
1674
1675
1676
1677
1678
1679
168
1680
16800
1681
1682
1683
1684
1686
1688
1689
169
1690
1691
1692
1693
1694
1695
1696
1697
1698
1699
17
170
1700
17000
170000
1701
1702
1703
1704
1705
1706
1707
1708
1709
171
1710
1711
1712
1713
1714
1715
1716
1717
1718
1719
172
1720
1721
1722
1723
1724
1725
1726
1727
1728
1729
173
1730
1731
1732
1733
1734
1735
1736
1737
1738
1739
174
1740
174000
1741
1742
1743
1744
1745
1746
1747
1748
1749
175
1750
1751
1752
1753
1754
1755
1756
1757
1758
1759
176
1760
17600
1761
1762
1763
1764
1765
1766
1767
1768
1769
177
1770
1771
1772
1773
1774
1775
1776
1777
1778
1779
178
1780
178000
1781
1782
1783
1784
1785
1786
1787
1788
1789
179
1790
179000
1791
1792
1793
1794
1795
1796
1797
1798
1799
18
180
1800
18000
1801
1802
1803
1804
1805
1806
1807
1808
1809
181
1810
1811
1812
1813
1814
1815
1816
1817
1818
1819
182
1820
1821
1822
1823
1824
1825
1826
1827
1828
1829
183
1830
183000
1831
1832
1833
1834
1835
1836
1837
1838
1839
184
1840
1841
1842
1843
1844
1845
1846
1847
1848
1849
185
1850
1851
1852
1853
1854
1855
1856
1857
1858
1859
186
1860
1861
1862
1863
1864
1865
1866
1867
1868
1869
187
1870
1871
1872
1873
1874
1875
1876
1877
1878
1879
188
1880
1881
1882
1883
1884
1885
1886
1887
1888
1889
189
1890
1891
1892
1893
1894
1895
1896
1897
1898
1899
19
190
1900
19000
1901
1902
1903
1904
1905
1906
1907
1908
1909
191
1910
1911
1912
1913
1914
1915
1916
1917
1918
1919
192
1920
19200
192000
1921
1922
1923
1924
1925
1926
1927
1928
1929
193
1930
1931
1932
1933
1934
1935
1936
1937
1938
1939
194
1940
194000
1941
1942
1943
1944
1945
1946
1947
1948
1949
195
1950
1951
1952
1953
1954
1955
1956
1957
1958
1959
196
1960
196000
1961
1962
1963
1964
1965
1966
1967
1968
1969
197
1970
1971
1972
1973
1974
1975
1976
1977
1978
1979
198
1980
198000
1981
1982
1983
1984
1985
1986
1987
1988
1989
199
1990
1991
1992
1993
1994
1995
19954077001
1996
1997
1998
1999
2
20
200
2000
20000
200000
2001
2002
2003
2004
2005
2006
2007
2008
2009
201
2010
2011
2012
2013
20130417204741
2014
2015
2016
2017
2018
2019
202
2020
20200
202000
2021
2022
2023
2024
2025
2026
2027
2028
2029
203
2030
2032
2035
2036
2037
2039
204
2040
2042
2043
2047
2048
2049
205
2050
2051
2053
2054
2056
2058
206
2063
2066
207
2070
207000
2071
2072
2073
2074
2077
2078
2079
208
2080
208000
2082
2083
2085
2086
2087
2088
209
209000
2091
2094
2095
2096
2098
2099
21
210
2100
21000
2104
2105
2109
211
2110
211000
2113
2114
2115
2116
212
2120
2121
2122
2123
2124
2125
2127
2128
2129
213
2131
2132
2134
2135
2137
2139
214
2140
214000
2141
2142
2144
2147
215
2150
215000
2153
216
2161
2162
2164
2165
2167
2169
217
2173
2174
2176
2177
2178
218
2180
2188
2189
219
219000
2191
2195
2196
22
220
2200
22000
220000
2205
221
2210
2212
2214
2215
2217
2219
222
2220
222000
2222
2224
2228
223
2231
2233
2234
2237
224
224000
2241
2246
2248
2249
225
2250
2251
2254
2256
2257
2258
226
2260
226000
2264
2266
2267
227
2272
2274
2276
2277
2278
2279
228
2280
22800
228000
2281
2282
2285
2286
2287
2288
229
2290
2291
2292
2293
2294
2295
2298
23
230
2300
23000
2301
2302
2303
2304
2306
231
2310
23100
231000
2313
2314
2316
232
2320
232000
2321
2322
2324
233
2330
2332
2334
2336
2338
234
2340
23400
234000
2341
2342
2344
235
2351
2357
2359
236
2360
236000
2361
2363
2364
2366
2368
237
2370
2371
2373
2375
2376
2378
238
2381
2385
2386
239
2390
239000
2391
2393
2398
24
240
2400
240000
2402
2405
2406
2407
241
241000
2411
2415
2417
2418
2419
242
2423
2424
2427
243
2431
2433
244
2442
2444
2447
2449
245
245000
2453
2458
2459
246
24600
2462
2463
2464
2466
2467
247
2470
2474
2475
2478
2479
248
248000
2481
249
24900
2499
25
250
2500
25000
2506
251
251000
2512
2518
252
252000
2522
2529
253
254
2544
2548
255
2550
2553
2555
2559
256
256000
2562
2563
2567
2568
257
2574
2575
258
2580
2583
2588
259
2595
2596
2597
2598
26
260
2600
26000
2604
2608
261
2612
2613
2616
262
2625
263
264
2640
265
26500
265000
2656
2659
266
267
267000
2677
268
2683
2684
2687
269
2693
27
270
2700
270000
2706
2708
271
272
2721
2722
2723
2724
2728
273
2731
274
2744
2746
2749
275
27500
2757
276
2760
276000
2763
2764
2765
277
2772
2773
2779
278
2785
2786
2788
279
279000
2799
28
280
2800
2801
2803
2804
2805
2806
281
28100
281000
2813
2814
282
2820
282000
2823
2824
2825
2827
2828
2829
283
2838
284
2842
2843
2844
2846
285
2850
2854
2858
286
286000
2864
287
288
2880
2889
289
2890
289000
2895
29
290
2900
290000
2901
2903
2909
291
2915
2918
292
2923
293
293000
2935
2939
294
2948
295
2950
2955
296
296000
2964
2969
297
297000
2972
2976
2978
298
2986
2989
299
2993
2999
3
30
300
3000
30000
300000
3004
3005
301
3011
3012
3013
3015
302
3025
3026
303
3032
304
3043
3046
3049
305
3053
3057
3059
306
3066
307
308
3087
309
3093
3099
31
310
3100
31000
310000
3104
3107
3109
311
311000
3116
31167
31181
312
3128
313
313000
3131
314
3142
315
315000
316
3160
316000
3165
3166
317
3171
318
318000
3182
3188
319
319000
3196
32
320
3200
32000
320000
3208
321
3215
3216
32172
322
3220
322000
3223
3224
323
3232
3238
324
3249
325
326
3260
3261
3262
3263
3264
327
3270
327000
3271
3276
328
3285
3289
329
3296
33
330
3300
330000
3303
331
3319
332
3327
333
333000
3336
334
3342
335
3352
3359
336
3362
3366
3368
337
33700
3372
338
338000
339
34
340
3400
341
34100
3412
3414
3417
342
34200
343
343000
3433
344
3446
345
345000
3456
346
3462
3464
3469
347
347000
3471
348
349
3498
35
350
3500
35000
3508
351
3511
352
3520
3522
3523
3525
353
35300
353000
3533
3537
3539
354
3547
355
3554
3555
356
3565
3567
357
3570
358
35800
359
3592
3593
3594
3597
36
360
3600
36000
361
361000
3612
362
3620
363
363000
3632
3638
364
3647
365
365000
3654
3658
366
3666
367
3675
368
368607
368608
3687
368870
369
3694
3695
3697
3699
37
370
3700
3702
371
372
3724
373
3731
3736
374
3743
375
3752
3753
3755
376
3763
377
377000
3771
3774
378
3781
3783
3789
379
38
380
3800
381
382
3820
3826
383
384
385
386
386000
3861
3863
3867
387
3877
388
389
3892
39
390
3900
3905
391
3913
3916
392
3925
3926
393
3932
3938
3939
394
3944
395
396
3967
397
398
399
3995
4
40
400
4000
40000
400000
401
4014
402
4020
4022
403
4031
4035
404
4041
4043
4045
405
406
407
407000
4071
408
408000
409
4090
41
410
4100
4109
411
4114
412
4127
413
4132
414
4142
415
4151
416
4165
417
418
419
42
420
4200
420000
4202
4208
421
4217
422
4226
423
424
4241
4243
4245
425
426
426000
4262
4267
4269
427
4273
428
4280
4282
4285
4289
429
4299
43
430
4300
43000
430000
431
4313
4317
4319
432
4320
432000
4328
433
4331
4337
434
435
435000
4354
4359
436
437
4376
438
439
4392
44
440
4400
441
442
4423
443
444
4440
4443
445
4450
446
4466
447
448
449
4490
449000
4493
45
450
4500
451
452
452000
453
4537
454
454000
455
455000
4552
456
456000
4562
457
458
458000
459
46
460
4600
461
4617
462
463
4634
464
464000
465
465000
4654
466
4661
467
4677
468
469
47
470
4700
47000
471
472
473
473000
474
475
4751
476
4766
4769
477
478
478000
4788
479
48
480
4800
4808
481
4816
482
483
4835
484
485
4851
4855
486
486000
487
4872
488
489
4890
4893
49
490
491
491000
492
493
494
495
496
4967
497
498
499
4994
5
50
500
5000
50000
500000
501
5016
502
502000
503
5033
504
505
505000
506
507
508
508000
509
509000
51
510
5100
510000
5105
511
512
513
514
515
516
516000
517
518
519
52
520
5200
521
521000
522
523
524
525
525000
5252
526
52600
527
528
529
529000
53
530
531
532
5327
533
534
535
535000
536
537
538
539
54
540
5400
5406
5409
541
5410
542
5421
5424
543
544
545
546
5464
547
548
549
5493
55
550
5500
55000
551
552
5522
5526
553
554
555
556
557
558
559
56
560
5600
56000
561
562
563
564
5642
5648
565
566
567
568
569
57
570
5700
57000
571
572
573
574
575
576
576000
5767
577
578
579
58
580
5800
58000
581
582
583
584
585
5850
5851582170
586
587
588
589
5892
5895
59
590
5900
59000
591
591000
592
5922
593
594
595
596
597
598
599
5994
5999
6
60
600
6000
601
6019
602
603
604
605
606
607
608
609
61
610
6100
61000
611
612
613
614
615
615000
616
617
618
619
62
620
621
622
623
623000
624
625
626
6260
627
628
629
63
630
6300
63000
631
631000
632
633
634
635
636
637
638
639
639000
64
640
6400
640000
641
642
643
644
645
646
647
648
649
65
650
6500
65000
651
652
653
654
654000
655
656
657
658
659
66
660
6600
661
662
663
6632
664
665
666
667
668
669
67
670
6700
6705
671
672
673
6733
674
675
676
677
678
679
68
680
6800
681
682
683
6838
684
685
686
6862
687
688
689
69
690
6900
691
692
693
694
695
6959
696
697
6979
698
6983
699
7
70
700
7000
70000
701
702
703
704
705
706
7060
707
708
709
71
710
711
712
713
714
715
716
717
718
719
72
720
72000
721
722
723
724
725
726
727
7277
728
729
7292
73
730
7300
731
7314
732
7327
733
734
735
736
737
738
739
74
740
7400
74000
741
742
743
7437
744
745
746
747
748
749
75
750
7500
75000
751
752
753
754
755
7556
756
757
758
759
76
760
76000
761
762
763
764
765
766
767
768
769
77
770
7700
77000
771
772
773
7737
774
775
776
777
778
779
78
780
78000
781
782
783
784
785
786
787
788
789
79
790
79000
791
792
793
794
795
796
797
798
799
8
80
800
8000
801
802
803
804
805
806
807
808
809
81
810
811
8112027
812
813
814
815
816
817
818
819
82
820
82000
821
822
823
824
825
826
827
828
829
82900
83
830
83000
831
832
833
834
835
836
837
838
839
84
840
841
842
843
844
845
846
847
848
849
8497
85
850
8500
851
852
853
854
855
856
857
858
859
86
860
86000
8601
861
862
863
864
865
866
867
868
869
87
870
8700
871
872
873
874
87444
875
876
877
878
879
88
880
881
882
883
884
885
886
887
888
889
89
890
8900
891
892
893
894
895
896
897
898
899
9
90
900
9000
90000
900000
901
902
903
904
9043
905
906
907
908
909
91
910
91000
911
912
913
914
915
916
917
918
919
92
920
9200
92000
9201
921
922
9223372036854775808
923
924
925
926
927
928
929
93
930
93000
931
932
933
934
935
936
937
938
939
94
940
9400
941
942
94278
943
944
945
946
947
948
949
95
950
9500
95000
951
952
953
954
955
956
957
958
959
96
960
9600
961
962
963
964
965
966
967
968
969
97
970
9700
97000
971
972
973
974
975
976
977
978
979
98
980
98000
981
982
983
9838
984
985
986
987
988
989
99
990
991
992
993
994
995
995344
996
997
9971
998
999
9999
:
;
<
=
>
?
@
\
^
_
`
a
aa
aaa
aakhmedova
aaude
ab
aba
abba
able
ablo
ablon
ablona
ablono
about
above
abraham
abs
absolute
absolutely
abtei
abusefilter
ac
academia
academic
acb
accepted
accepting
accepts
access
accessdate
accessed
accipiter
accipitridae
account
accounts
ace
acebot
achieve
achieved
across
act
action
active
activeusers
activity
actm
actualdate
actualdateboundariesproperties
actually
ad
adac
add
addclass
added
adding
addison
addition
additional
addres
address
adjacentnumbers
adm
admin
administrator
administrators
admins
adminship
adustus
ady
aene
aepyceros
aerial
af
afar
affairs
affect
affected
affects
afghanistan
africa
african
africana
africano
africanus
after
ag
again
against
agapornis
age
ago
ah
aharoni
ahtna
ai
ailuropoda
ain
air
airport
ak
akhty
ako
al
alaska
alaskool
albert
albicilla
album
alcelaphus
alemania
alexander
ali
aliaseslist
align
alisterus
all
alla
allmovie
allmusic
allocine
allows
allpropertyclaims
allsnaks
almost
alopex
alpha
alphabet
already
alright
als
also
alt
altaicus
altar
although
altstadt
alutiiq
always
am
amazon
amazona
ambassador
ambassadors
amber
amendment
america
american
amir
amk
among
amount
amsterdam
an
ana
anadolu
anchor
ancient
and
anfiteatro
angle
anidb
animal
animenewsnetwork
ankara
anlc
anna
anniversary
anno
announcement
announcing
annual
anodorhynchus
another
ansicht
answer
anthem
antilope
any
ao
aonb
ap
api
apodora
apologies
apologize
appeal
appear
appendimpl
appendmainsnaks
appendqualifiers
appendsnaks
appendtocategory
apple
applications
applied
apply
appreciate
appreciated
approval
approved
approximate
april
aprosmictus
apsnyteka
aqpk
aquila
ar
ara
arab
arabic
aralam
aramaic
aratinga
araz
arbitrary
arc
arcdate
archive
archives
arclink
arctic
arctos
are
area
areas
aren
arg
argentina
argname
argnumber
args
argsarg
argsi
argsname
argtables
argtableval
argument
arguments
aria
arini
armenia
armenian
army
arodbiedri
around
arpanet
array
art
artemisia
arthur
article
articles
articlestsaritsyn
artist
arts
arxiv
as
asgroups
asiatic
ask
asking
aslan
asp
aspekt
aspidites
aspx
assembly
assessment
assigned
assume
ast
astranet
astrolab
astrology
astronomy
astrophysical
astrophysics
asv
at
ateles
athabascan
athabaskan
athlete
athletes
athletics
atlantic
atlas
atp
attention
attr
au
auf
august
aurora
australia
australian
australis
austria
author
authority
authoritycontrol
authoritycontrolelements
authorlink
authormain
authors
auto
automatic
automatically
av
available
avoid
avril
award
aware
ax
axa
axtypara
ay
ayuntamiento
az
azdır
azerbaijan
azerbaijani
azerbaiya
azərbaycan
b
ba
baby
back
background
backgroundcolor
backtranslate
bad
badtwin
baffin
baghdad
bahi
bahn
bahrain
baikal
baku
bakı
bal
balance
ball
band
bangladesh
bank
banner
bar
barbara
barcelona
barchart
barclaycard
barclays
bardata
barheight
barnardius
barwidth
bas
base
baseball
based
baseresult
basestyle
bashstat
basic
basilika
basis
baskervill
basketball
bass
bassel
bastun
battle
bay
bb
bbc
bc
bd
bdfutbol
be
beach
bear
beat
beatles
because
become
becoming
bee
been
before
begin
beginning
begun
behalf
behavior
behind
bei
being
beinn
belarus
believe
bell
below
belt
ben
ber
bergtocht
berigora
beringei
berli
berlin
bernhardt
best
beta
better
between
bf
bg
bh
bi
bibcode
biblioteca
big
billed
bin
bingen
biography
birds
bit
bitstream
bj
bk
bl
black
blackwell
blank
blica
blick
blitz
block
bloem
blog
blue
bm
bms
bn
bnf
bo
board
boat
body
bodyclass
boeing
bolbopsittacus
bolborhynchus
bolivia
bonn
book
books
booksite
boolean
bora
border
boselaphus
bosnia
boston
bot
botanic
both
bots
botsuana
bottom
boundaries
box
bp
bprecision
bq
br
brackets
branch
brasil
brazil
break
brezno
bri
bridge
brief
brighton
bring
britannica
british
brotogeris
brown
bru
bs
bstructure
bt
btable
bu
bua
bubalus
buddha
budukh
bufo
bug
bugs
bugzilla
building
bulgaria
burg
burn
business
but
buteogallus
button
buzau
bv
bvalue
bw
bx
bxor
by
byzantium
bz
bələdiyyələrin
bəsi
c
ca
cabo
cacatua
cacatuidae
cacatuinae
cached
cafe
caffer
cah
calatayud
calculatedage
calculateenddatetimestamp
california
call
called
calling
callocephalon
callparserfunction
calvin
calyptorhynchinae
calyptorhynchus
cambridge
campaign
campestris
campo
can
canada
canadian
canal
candidates
canis
cant
canterbury
cap
capacity
cape
capital
capitalid
caracara
carciofi
card
caricyna
carling
carolina
carroll
carsrac
carsracbot
carter
cas
casa
case
cases
cask
cast
castle
cat
catalog
catalogue
catedral
categori
categoria
categorie
categories
category
categorylinkstoentitieswithmissinglabel
categorynameprefix
cathedral
cattleya
caucasian
caucasus
cavendish
cb
cc
ccc
cd
cdot
ce
cebus
cekli
census
center
central
centralnotice
centre
centro
century
cephalophus
cercopithecidae
cervicapra
cf
cg
cgi
ch
cha
chalcopsitta
chameleon
championship
chance
change
changed
changer
changes
channel
chapter
character
characters
charaxes
charles
charmosyna
chartheight
chartwidth
chase
chat
chay
che
chechen
check
checkaliases
checktype
cheers
chelictinia
chemical
chemistry
cherrug
chess
chevak
chicago
child
chile
china
chislennost
chislennosti
chobe
choose
chosen
christchurch
christmas
christopher
chronology
chrysomelas
chu
chugach
church
ci
cia
cid
circa
circles
circumstances
cita
citation
cite
cities
citoid
city
cityes
ciudad
civilisition
cke
ckt
cl
claim
claims
claimspropertyid
class
classes
classical
clear
click
clifton
clima
cloneoptions
close
closing
clouds
club
cm
cmp
cn
co
coach
coaches
coast
cochrane
code
codes
collaboration
colleagues
collection
collections
collectlinks
college
colombia
colon
color
colorarg
colors
colspan
columbia
column
columns
com
comata
come
comedy
comet
comets
coming
comma
commands
commas
comment
commentary
comments
committee
common
commons
commonsmedia
communities
community
comoros
compact
company
compare
compat
competitorid
complaints
complete
completed
completion
complexdate
composite
composition
concat
concatenated
concatstyles
concerns
conduct
conference
config
configuration
congo
congratulations
congress
conjunction
connect
connochaetes
consensus
consider
consultation
contact
containing
contains
contemporary
content
contents
contenttranslation
contest
context
continue
contrast
contraststyle
contribute
contribution
contributions
contributors
conuropsis
conversation
convert
converted
coo
cook
coord
coordinate
coordinates
coordinatespec
coordinator
coords
coordscale
copernicus
copper
copy
copyto
coracopsis
core
corporation
correct
cos
cosmic
could
council
count
countries
country
countryentity
countryentityid
countryflags
countryoptions
county
course
courvoisier
covid
cow
cp
cpic
cq
cquote
cr
cra
create
created
creation
creator
credo
creek
crh
cristatus
cristo
croacia
croatia
crop
cropped
cross
crossing
cruyff
cruz
crystal
cs
css
csstext
ctat
cu
cucl
cugtun
cultural
culture
cumberland
cuo
cup
cupiik
cupiit
curitiba
curr
current
currententity
currentindex
currently
cuso
custom
cut
cv
cw
cx
cy
cyanoliseus
cyanopsitta
cyanoramphus
cyberleninka
cyclopsitta
cyclopsitticini
cygnus
cyprus
cyrillic
cz
czech
d
da
dabbed
dag
dagestan
dagestana
daily
dakota
dallol
damaliscus
damselfly
dar
dark
darwin
das
data
database
datalength
dataresourceid
datatype
datavalue
date
dateclaims
daten
datenbanken
dateofbirth
dateofdeath
datepart
dates
datesi
david
day
days
db
dbinet
dbscripts
dc
dd
de
dead
deal
dealing
dear
death
dec
december
decide
decimal
decision
decisions
deckinga
decode
decrease
deep
deepcopy
deezer
default
defaults
defcolor
deg
degrees
degruyter
del
delimiter
delink
delivered
delivery
della
delmar
dem
demo
democratic
demograficheskiy
demonstrates
demoscope
den
dena
denali
dene
denmark
departamentos
department
depending
deployed
deployment
deprecated
depth
der
derbent
deroptyus
des
desc
description
desde
desierto
design
desktop
det
detail
detailed
details
deutschland
developed
developers
development
devices
devonshire
dewitt
df
dg
dh
dhaka
di
dia
dialect
dialects
dialog
diamonds
dictionaries
dictionary
did
die
diego
diff
different
difficult
digital
dil
diliff
dinamika
dinghausen
dio
diopsittaca
dir
direct
direction
directly
dis
disable
disabled
discogs
discovery
discuss
discussion
discussions
disk
display
displayed
displayspan
dissemination
distributed
distribution
district
districts
dition
div
diversity
division
dixi
diz
dj
dk
dm
dms
do
doc
docs
document
documentation
documents
does
doesn
dog
doi
doing
dom
domain
dome
domini
don
donald
donation
donations
done
dorset
double
down
downarrow
dp
dprecision
dq
dr
draft
drafting
drawing
dream
driscoll
dropdown
drums
ds
dsb
dsc
dstructure
dt
dtable
du
dual
due
duisburg
dummy
duna
during
dusk
duyma
dv
dvalue
dw
dwarf
dz
e
ea
each
eagle
eao
earlier
early
earth
easier
east
eastern
easy
eb
ebsco
ec
echo
eclectus
economist
ecuador
ed
edilməsi
edinburgh
edit
edited
editing
edition
editions
editor
editors
edits
edu
edward
edwards
edłoga
edłoha
ee
een
ef
egypt
eh
ehem
eight
einer
einstein
either
ek
el
elanoides
elanus
election
elections
elementid
elements
elf
elib
elibrary
eligible
elite
elitre
else
elseif
elves
em
email
emaus
emirates
empire
empty
en
enable
enabled
enciclopedia
encourage
encyclopedia
encyclopædia
end
endangered
enddatetimestamp
engagement
engine
england
english
enhance
enicognathus
enjoy
enough
ensign
entertainment
entities
entity
entityid
entriestolookupcategory
entry
enwikisource
eo
eolophus
eos
epidendrum
eps
equus
erdene
erik
ermita
ernst
error
errors
es
escape
escapepattern
eskimo
espan
especially
espn
estadi
estados
estatal
et
eta
etc
etecsa
ethiopia
ethnic
ethno
ethnologue
etna
etnic
etniska
eu
eudorcas
eunymphicus
euro
eurobasket
euroleague
europa
europe
european
eurovision
even
evenodd
event
events
eventually
ever
every
everyone
everything
evolution
ew
ex
example
examples
except
excude
exist
existing
exists
expand
expandspecialsqualifiers
expandtemplate
expected
experience
experienced
experiments
explorer
export
express
ext
extension
external
extra
exxonmobil
eye
ezh
f
fa
faber
facade
facebook
fact
factbook
factor
failed
faktory
falco
falcon
falconidae
false
fame
family
fantlab
faq
far
fargs
farm
faroesoccer
farvel
fasciatus
fashion
faster
fc
fdc
fe
fear
feat
feature
featured
features
february
federal
federation
feedback
feel
feels
feinstein
felder
fellow
female
femlabels
femoralis
feriados
fevral
few
ff
fg
fi
ficha
field
fields
fifa
fifpro
fifth
figure
file
files
filled
film
filter
filterbyrank
filtered
final
finally
finals
finch
find
finds
fine
fire
first
firstchar
fis
fish
five
fix
fixing
fj
flag
flagbegindate
flagimage
flagimagestatement
flags
flashscore
flight
float
floor
florida
flowers
flu
fm
fmt
fn
fo
focused
fog
folk
follow
following
font
fontcolor
fontsize
food
fooentity
football
footballdatabase
footballfacts
for
foradejogo
forbes
force
ford
foreign
forest
forever
forlan
form
format
formatdateimpl
formation
formatnum
formatproperty
formatpropertydefault
formatpropertywithmostrecentclaimandindicator
formatrefs
formats
formatsnak
formatstatement
formatstatementdefault
formatted
formattedclaim
formattedclaims
formattedstatement
formatter
formatting
formdate
forpus
fort
fortress
forum
forward
found
foundation
four
fox
fr
frac
fractal
frame
frameless
france
francis
francisco
free
french
frhdkazan
frica
friday
friends
fritillary
from
front
fru
fu
fuente
fulgens
full
fulltext
fulvio
fun
func
function
functions
functiontocall
fund
funding
fundraising
funds
fur
further
fussballdaten
futbol
future
fw
fy
fz
g
ga
gabriela
gadgets
gag
gala
galactic
galaxies
galaxy
galileo
gallery
gallus
gambler
game
games
gamma
gampsonyx
garden
gardens
garin
garni
gate
gazella
gazeteer
gazetteer
gb
gc
ge
gedawy
gedawybot
gelaltar
gen
gender
general
generally
generate
geo
geoffroyus
geographical
geoinfobox
geophysics
george
georgia
georgian
german
germany
geschichte
get
getarg
getargs
getboolean
getcategory
getcontentlanguage
getcurrentframe
getcurrenttitle
getdata
getdate
getentity
getentityobject
getflag
getlabel
getmetatable
getparameters
getparent
getparentsinboundariessnakimpl
getqualifiersinglevalue
getqualifiervalues
getsingle
getsisterprojectlink
getsitelink
getsourcingcircumstances
getting
gettitle
getuserfunction
gg
ghaziabad
gi
giant
gif
girl
give
given
gives
gje
gks
gl
glaciar
global
globalframe
globe
glossary
glossopsitta
gmatch
gn
gnd
go
goal
god
gody
goes
gogh
going
gold
golden
golesta
gone
good
goodflag
google
gorilla
goroda
gorodov
got
gouba
gov
government
gp
gq
gr
graeme
grammar
gran
grande
grant
grants
grateful
grave
gravity
gray
graydidascalus
grc
great
greater
greatest
greece
greek
green
greenlandic
greetings
gregory
grey
grid
gridcolor
grifom
griseus
grosso
ground
group
groupname
groupnames
groups
groupschildaliases
groupstyle
gruber
grup
grupo
gs
gsub
gt
gu
guardian
guarouba
guide
guinea
gutenberg
gv
gwich
gypopsitta
gyps
gəncə
h
ha
hack
had
haines
haisma
hakimiyyətinin
haliaeetus
haliastur
hall
hallstatt
haltern
hamdan
hamirostra
hand
handball
handle
hangout
hapalopsittaca
happen
happening
happy
haqqında
harassment
harbour
hard
hardcore
harold
harpagus
harper
harris
harvard
harvnb
haryana
has
hasadditionalqualifiers
hash
haus
hausdu
have
haven
having
hawk
hawking
hb
hc
hcl
hcucl
hd
hdr
he
head
header
headers
health
hear
heard
hearing
heide
height
heiligengrabe
helen
helicolestes
hello
help
helped
helper
helping
hep
her
herbst
here
heritage
herzegovina
herzfeld
hesperia
het
hh
hi
hidden
hiddencat
hidegrouplegends
hieraaetus
high
highbeam
hill
him
hinglish
hippotragus
his
histo
historical
history
hlist
hno
ho
hockey
hole
holes
holy
home
homo
hope
horizontal
horse
hortus
hosei
host
hostdelimeterposition
hoststartposition
hotel
hour
hours
house
how
however
hozyaystvo
hq
hr
hsb
ht
htm
html
http
https
hu
hubble
huddersfield
hugo
human
humanities
hundreds
hungarian
hunu
hy
hyper
həmzəli
i
ia
iaith
iarticles
iat
ibdb
ic
icar
icarus
ice
iceland
icon
iconn
icons
ictinaetus
ictinia
id
idarəc
idea
idealab
ideas
identical
identity
idioma
idr
ie
if
ifexists
iffhs
ifredirect
ig
iglesia
ignore
ii
iii
ik
il
ilc
illhkomisc
im
image
imageleft
imagemap
images
imagesize
imagestyle
imberbis
imdb
img
immediately
impact
implemented
important
imported
impression
improve
improved
improving
in
ina
inactive
inanıram
inc
incertae
include
includemetatable
includes
including
increment
incubator
independent
index
india
indian
indiana
indicating
indigenous
individual
indonesia
infinity
info
infoboks
infobox
infoboxes
infocardclass
infocards
infocardtemplate
infokas
infopolje
inform
information
informed
informkesto
infotaula
infty
initpos
inlet
inline
innenansicht
innenraum
input
insee
insert
inserter
insertfromsnak
inspire
instead
institute
instituto
instructions
int
integer
intended
interactive
interested
interface
interim
interior
interlanguage
internal
international
internationale
internet
interwiki
into
introduction
inuit
inuktitut
inuttitut
inuttut
inuvialuktun
invariant
inversed
inversion
invisible
invitation
invite
invited
inviting
invoke
invoked
involved
inyear
io
iof
ip
ipairs
ir
ira
iran
iraq
irc
ireland
irises
is
isaac
isblank
isbn
iscountry
isempty
isfaha
isfdb
isfemale
isinversed
isite
isla
island
islandia
islands
islas
isn
isnotempty
iso
israel
issn
issue
issues
ist
istanbul
istat
istmat
isunion
isurl
isyear
it
italia
italian
italy
item
itemid
items
iterator
itf
its
itself
iu
iv
ivanovo
ix
j
ja
jaguar
jakarta
jam
james
jane
janeiro
january
japan
japanese
jazyk
je
jean
jem
jersey
jethrobt
jewish
jews
ji
jigga
joe
johan
johann
johannesburg
johanntalk
john
join
joshuaproject
joueur
journal
journals
journey
jp
jpeg
jpg
jpmorgan
jr
js
jsp
juan
jukoff
juliancomment
july
jump
jumping
jun
june
junonia
jupiter
just
juvenile
jv
k
ka
kab
kadavoor
kaiyr
kak
kap
karakorum
karel
karta
kartposisjon
kashan
kastanje
katego
kategori
kategoria
kategorie
kategorija
kategorio
kath
kavkaz
kavkaze
ke
keegan
keep
kefermarkt
kenai
kept
kestrel
key
keyboard
keyword
keywords
kg
ki
kicker
kilde
kill
kind
king
kingdom
kingfisher
kip
kirche
kirchspiel
kirovskoy
kittelsen
kk
kli
kloster
kluane
klub
km
know
knowledge
known
ko
kobus
koh
koi
koniag
kopenhagen
korea
kowloon
krc
kremlin
kruger
ks
kt
ku
kuala
kuiper
kumin
kuwait
kv
kwa
ky
kyoto
kz
l
la
label
labelallocine
labelanimenewsnetwork
labelclass
labeldeezer
labeldiscogs
labelencyclopaediametallum
labelibdb
labelisfdb
labelmusicbrainz
labels
labelstyle
labrador
lady
lago
laguna
lake
lakin
lalique
lambda
lancashire
landing
landscape
landschaftspark
lang
langcode
langs
language
languagecode
languages
languagescode
laos
laq
lar
large
largest
las
last
lastrecord
lat
latest
lathamus
latin
latitude
latvia
latvijas
laugh
launch
laura
lavender
law
layer
lb
lbas
lbe
ldots
le
leading
league
learn
learning
least
leave
lecture
left
legal
legend
legends
leipzig
len
length
lenta
leo
leptodon
leptosittaca
ler
les
lesbian
lesotho
less
let
letter
letters
leucocephalus
leucophaeus
levison
levskisofia
lez
lezgi
lezgian
lezgichal
lezgiman
lezgin
lezgins
lezginskie
lezgisport
lezgistxa
lfp
lg
lguitar
li
lib
libera
library
libraryutil
lichen
licmetis
life
light
lightning
like
likely
limit
limitdouble
limited
limits
lincoln
line
lines
lingua
linguistics
link
linked
linkedin
linkf
links
linktitle
linz
lion
lions
lisa
list
listclass
listed
listening
listofprofessions
listpadding
lists
liststyle
listtotext
lit
literature
lithuania
little
littoralis
live
liverpoolfc
ll
lmen
lmener
ln
lng
lngstr
lnsa
lo
loadcachesafe
loaddata
loaded
loc
local
localizable
localizzazione
locally
locatie
location
locmap
lodo
log
logo
lokacijska
lokalizacyjna
lon
london
long
longer
longitude
longrightarrow
look
looking
lophaetus
lophocroa
lophoictinia
lophopsittacus
loriculus
loriinae
lorius
los
louis
love
low
lower
lowland
loxodonta
lr
lt
ltd
lu
lua
luaargs
lucht
luck
ludwig
luis
lum
lumpur
lupus
lv
lvm
lycalopex
lydia
m
ma
macaca
macallan
macedonia
machaerhamphus
macmillan
madagascar
made
madonna
madoqua
madrid
magazine
magazines
magomed
mailing
main
mainly
mainsnak
mainsnakclass
maintext
major
make
makedata
makeinvokefunction
makes
maketitle
makgadikgadi
making
mal
malaysia
male
mali
mall
malline
mallnitz
man
manager
manhattan
mannheim
many
map
mapa
mapo
mappa
maps
maqivi
mar
marca
marcel
march
margin
mari
maria
maritime
maritimus
mark
marker
market
mars
marshall
martes
marti
martin
mary
mascarinus
masjid
mass
massmessage
master
match
matches
material
materials
math
mathematical
mathematics
mathsf
mating
mato
matter
max
maxnumber
may
mbox
mdennis
mdf
me
meadow
means
med
media
mediawiki
medical
melalophos
melampus
melanoleuca
meles
melia
melopsittacus
member
members
memo
memoized
memorial
menu
menyalas
merchant
merfeld
merseyside
message
messages
met
meta
metaargs
metaargskey
metal
metallica
metatable
metawiki
meteorite
meteorites
methods
metro
mexico
mezquita
mf
mg
mhnt
mhr
mi
michael
michigan
microglossinae
micropsitta
micropsittinae
micropsittini
microsoft
middle
midnight
might
migraghvi
migrans
migration
mike
military
milky
million
milvus
min
mini
ministry
minor
minut
minutes
mis
missing
mission
mistakes
mit
mitte
mitterbach
mix
mk
ml
mlb
mm
mn
mo
mobile
mobygames
mod
mode
model
modelo
modern
module
modulelanguages
mohamed
mojgorod
moment
monasterio
monastery
mongolia
monitor
monolingualtext
montagne
month
monthgm
months
montreal
moon
morbidelli
more
morgan
morning
morrison
moscow
moscu
mosque
most
moth
motorsportstats
mount
mountain
mountains
move
moved
movement
movie
moz
mp
mr
mrəli
ms
msg
msk
mt
mu
much
mud
mugerganets
mulstatement
mult
multimedia
multiple
mundo
munich
municipal
munst
muse
museo
museum
music
musicbrainz
muslim
must
mw
mwlang
my
myanmar
myiopsitta
myspace
myv
n
na
naar
nach
nacional
nagar
nah
name
named
names
namesnum
namespace
namibia
namik
nan
nandayus
nanger
nannopsittaca
naoh
napoleon
narhoz
naro
narod
narodnoe
nasa
naselenie
naseleniya
nasledie
nat
nation
national
nationalmannschaft
nations
native
nato
natsilik
natural
nature
nauseef
nav
navbar
navbox
navboxdata
navigation
navy
nazca
nb
nbg
ncbi
nchen
nd
ndefaultlanguage
ndn
nds
ne
near
neas
necessary
necropsittacus
nee
need
needed
needs
negative
neil
neophema
neopsephotus
neopsittacus
neotragus
nepal
neptune
nessaja
nestor
nestorinae
nestorini
net
netherlands
network
networks
neutral
new
newclaims
newparentsnaks
news
newsletter
newspaper
newspapers
newton
next
nextlabel
nez
ng
nh
ni
nich
nicholas
niger
nigeria
night
niklem
nil
nilargs
nilargskey
niłk
nl
nlr
nm
nn
nnn
no
nocat
node
nodyn
nolinks
nominations
nominativemonthesnm
nominativemonthesom
nominativeyear
non
none
nor
nord
normal
north
northern
northiella
northumberland
norton
norway
not
note
notes
nothing
notice
notification
notifications
notified
notify
notoc
nova
novalue
november
now
np
npage
ns
nster
nt
nth
nu
nuestra
nulorwhitespace
num
number
numberof
numberofloops
numbers
numeric
numgroups
numrecord
numvalues
nunivak
nv
nvolume
ny
nya
nymphicinae
nymphicus
o
oak
object
obl
oblasti
oc
ocaasi
occupation
oclc
october
od
odd
oddeven
odnoselchane
of
off
offer
offered
office
official
og
ogg
ognorhynchus
oh
ohio
oj
ojkum
ol
old
olo
olor
olympic
olympics
om
ombudsperson
omega
on
once
oncolor
one
ones
online
only
ontoi
onze
open
opera
operations
operator
opinions
oppenheimer
opportunities
oppose
opt
option
optional
optionalarg
options
optionscopy
or
ora
orange
orchidaceae
order
ordered
oreopsittacus
org
organizacije
organizing
orgel
orientation
orig
origin
original
orthopsittaca
oryx
os
osaka
osmanlı
otchet
otechestvennoy
other
others
otherwise
otvetstv
otvetstvennye
our
ourebi
ourebia
out
outer
output
outreach
outside
outtype
over
override
overview
owl
own
ox
oxford
oy
p
pa
paamiut
padding
page
pageid
pages
pagos
pairs
pais
paisaje
pakistan
palace
palacio
pallida
pan
pano
panorama
panoramic
pans
pantas
panthera
paper
papers
papilio
para
param
parameter
parameters
params
parana
paranoia
pardo
parent
parentargs
parententityids
parentid
parentoptions
parentsnak
parentsnaks
pargs
paris
parish
park
parliament
parm
parque
parseddate
parsedec
parsedms
parsedtime
parseiso
parser
parsetimefromsnak
part
participants
participate
partners
partnerships
passed
password
passwords
past
path
patrick
patrono
pattern
paul
paulo
paulus
pavilion
pcall
pcsoport
pdf
pe
peace
peak
peakware
peel
pele
peninsula
people
per
percent
percussion
peregrinus
perepisi
performance
perio
period
perl
permanent
permanente
permsk
pernambuco
persian
person
personal
persons
perspective
peru
peter
petr
pezoporus
pfarrkirche
pfg
pframe
ph
phabricator
phacochoerus
phase
phigys
philantomba
philosophy
photo
photography
photos
php
physical
physics
pi
pica
picture
pid
piece
piechart
pied
pink
pintscher
pionites
pionopsitta
pionus
pipe
pithecia
pk
pl
placar
place
placedatanumrecord
placename
places
plain
plan
planet
planets
planned
plantilla
platanista
platnick
platycercini
platycercus
play
player
playerid
players
playmarkerstats
plaza
please
ploceus
plotarea
plotdata
png
po
poicephalus
point
pol
polar
polemaetus
policy
polis
politics
polonia
polveka
poly
polytelis
pomarina
pont
pop
popular
population
port
portal
portrait
portugal
portus
pos
positiekaart
position
positionskarte
possible
possibleage
possibledatestring
post
posted
postfix
posting
potenziani
povliyavshie
power
pp
pr
prag
prague
praha
pravda
pre
precision
predefinic
predloga
predloz
preference
preferences
preferids
preferred
prefix
premier
premiership
prepared
preprocess
presbytis
present
preserve
preset
press
presumably
prev
preview
previous
prevlabel
prey
prezidentinin
primstat
prince
princeton
principal
prioniturus
privacy
prlib
pro
problem
problems
probosciger
procapra
process
processed
product
production
prof
professionslist
profil
profile
program
programming
project
projectcode
projectname
projects
promoted
propclaim
proper
properties
property
propertyid
propertyselector
proposal
proposals
proposed
propyrrhura
prosopeia
prospects
provide
provided
provides
prunus
ps
psephotus
pseudeos
psilopsiagon
psittacella
psittacidae
psittacinae
psittacini
psittacula
psittaculini
psittaculirostris
psittacus
psitteuteles
psittinus
psittrichadini
psittrichas
pt
public
publication
publications
published
publisher
publishers
publishing
puerto
pula
pump
punta
puppets
purple
purpose
purpureicephalus
puzzle
puzzling
px
pygargus
pyrrhura
python
pywikibot
pywikipedia
q
qabala
qanunu
qatar
qikiqtaaluk
qnotlaterthan
qnotsoonerthan
qu
qualag
qualifier
qualifierentityid
qualifierid
qualifiers
qualifiersqualifiername
qualifiervalue
quality
quantity
quba
que
queen
question
questions
quick
quipe
quito
quote
r
ra
raa
racing
rad
radio
radius
railway
rainbow
raj
ralfr
ramsayi
range
ranges
rank
rankbyindex
rankbysite
rankin
raphicerus
rar
rather
ratio
rave
rawbase
rawrule
rayon
rb
rd
re
reach
read
readers
reading
ready
real
really
rebel
receive
recent
recently
recommended
record
records
rect
red
redirect
redirects
redunca
ref
referee
reference
references
reflecting
reg
regards
regex
region
regiondata
regionpage
regions
registered
regular
reich
reign
reina
related
relative
release
released
relevant
reliable
remaining
remove
renderdocumentationcategory
rendered
renderline
renderlink
rep
replace
replacement
report
reports
repository
repu
republic
republik
republiky
request
requesting
requests
requiem
require
required
res
research
reserva
reserve
resource
resourcedata
resourcedatas
resourceid
resourcelabel
resources
respublikası
respublikasının
rest
restoration
result
resultclaims
resultproperty
results
ret
retrieved
return
returns
reverse
reverseorder
review
reviewing
revision
rez
rgb
rguitar
rhein
rhynchopsitta
ri
ria
rib
ribbon
rica
richard
rico
ride
rider
ridge
right
rightarrow
rightleftarrows
rights
ring
rio
river
rk
rkc
rkiye
rm
rmy
rnste
ro
roa
road
robert
robin
rock
roger
role
roll
rolling
roma
roman
romana
rome
ros
rose
rosstat
rostrhamus
round
routledge
row
rowindex
rows
royal
rriyet
rsfsr
rsllink
rsssf
ru
rubicunda
rudis
rue
rueppelli
rufus
rugby
rui
rule
rules
rumani
run
running
rup
rus
rusia
russia
russian
rusticolus
ruwikisource
s
sa
saaid
sabah
sablon
sah
saint
sakhalinstat
salar
salmon
salvador
salvatore
salvatoria
same
samur
samurskaya
san
santa
santo
santorin
santos
sarah
satellite
save
savieni
say
says
sbornik
scale
scalemajor
scalepergroup
scalewidth
schedule
scheme
schemedelimeterposition
schloss
scholarship
scholarships
school
schuster
science
sciences
scientific
scn
sco
scooter
scope
scoresway
scotland
scots
scott
scottish
screen
screenshot
scripts
scriptus
sd
se
sea
sean
search
seattle
sec
second
seconds
section
sectorcode
secttitlestyle
securepoll
security
sedis
see
seeking
seems
seen
sekretno
sela
select
selectclaims
selected
selection
selector
self
selskoe
sen
sensu
sent
sep
separator
september
serbia
series
service
session
set
setmetatable
setoffset
settings
settlement
setwidth
several
sevilla
sex
sfsr
sg
sh
sha
shadow
shah
shake
share
sharepoint
she
sheet
sheffield
sherdog
shift
ship
shiraz
shl
short
should
show
showing
shown
shr
shtml
si
siamensis
siberian
siconversion
side
sidebar
sidney
sign
signs
signup
signups
sil
silent
silk
silver
similar
simon
simple
sin
since
singapore
single
sir
sister
sisterlinks
sit
site
sitelink
sitelinks
sites
situation
situo
sivasdin
six
size
sjabloon
sk
ska
skabelon
skater
skazki
ski
skin
skupina
sky
skyline
sl
slice
slices
slideshare
slovenia
small
snak
snaks
snaktype
snið
snow
snowolf
so
soauthors
soccer
soccerbase
soccerdonna
soccerway
social
society
sociolinguistic
software
sol
solar
solid
some
somebody
someone
something
sometimes
somevalue
song
sons
soon
soria
sorry
sossusvlei
soul
soule
sound
soundcloud
souness
source
sourcedata
sourceid
sources
sourcetoelementlinksresourceid
south
southern
soviet
sp
space
spacecraft
spain
span
spanish
sparts
sparverius
spb
speak
speaker
special
species
specific
specified
spider
spiders
spit
spizaetus
split
splitcoord
sport
sportbox
sports
spotify
spotted
spravkasavino
spring
springer
spumans
spx
sq
sqrt
square
sr
src
ss
ssp
ssr
sssr
sstyle
st
stack
stadium
staff
stalingrad
stamp
stampa
stan
stanbul
standard
standards
star
stars
start
started
starting
state
statement
statements
statementvalue
states
statesstate
static
station
statistical
statisticheskih
statistics
stats
statue
status
stay
steele
stefano
stellar
step
stephanoaetus
stephen
steward
stewards
stica
stift
stiftskirche
still
stokkermans
stone
stop
store
story
str
strategy
street
strepsiceros
stricto
strigopinae
strigopini
strigops
string
strings
strip
stripped
strong
strongly
structure
sts
studies
study
stuff
style
styleratio
styles
su
sua
sub
subbuteo
subdialect
subfamily
subgroup
subject
subjects
submit
subpage
subrule
subrules
subscribe
subscribed
substring
subway
success
such
suda
suffix
sul
sum
summary
summer
sun
sunrise
sunset
super
supermassive
support
sur
sure
survey
sutherland
sv
svedeniy
svg
svk
sw
swan
sweet
switch
sword
sydney
synagogue
syncerus
sys
sysop
sysops
system
systems
szablon
sərəncamı
t
ta
taamu
tab
tabeira
table
tables
tabletostr
tablevalue
tabs
tag
tags
tai
tail
tailed
taiwan
take
taken
takes
taking
tale
talk
tamara
tan
tanana
tanygnathus
tara
target
tarixi
tarixli
taskforce
tat
taurinus
taurotragus
taxobox
taxonomy
taylor
tbl
td
te
teach
team
teams
tech
technical
technology
tehera
tel
telecommunications
telescope
tell
templat
template
templatedata
templates
temple
templo
temporada
temporary
temprow
terms
terra
territories
test
tested
testing
tetlin
texas
text
tf
tff
tfrac
tg
th
thai
thaler
than
thank
thanks
that
thatta
the
theatre
their
them
then
theodor
theory
there
these
they
thimphu
things
think
third
this
tho
thorne
those
though
thoughts
thread
three
through
throwerror
thudufushi
thumb
thumbnail
thumbnails
thursday
ti
tidal
tidyval
tie
tiessen
tiger
tilastopaja
till
time
timeaxis
timeiso
times
tin
tina
tinnunculus
title
titlearea
titledelimeterposition
titleobj
titles
titlestyle
tk
tl
tlingit
tln
tmp
tn
tnico
to
toboolean
today
todo
together
tokyo
tonumber
tool
tools
tooltip
top
topic
topics
torino
toronto
torpaqları
tostring
total
touit
tour
tourism
tournament
towards
tower
town
towns
tp
tr
track
tracking
trade
trademark
tragelaphus
trailing
train
transfermarkt
transform
translate
translated
translatedate
translatewiki
translathon
translating
translation
translations
translators
transport
travel
tree
trees
trichoglossus
trick
triclaria
trier
trim
trimarg
trimmed
trimstr
triplet
tripletpos
tripletstr
true
trust
trustees
trustworthy
try
ts
tt
tte
tu
turkey
turkish
turn
turning
tuttocalciatori
tv
tw
twice
twitter
twl
two
txantiloi
txt
type
typing
typography
təcru
təyin
u
ua
uaf
uboundary
ucfirst
ucoc
ucoz
udm
uefa
ufc
ug
ui
uk
ukraine
ukrainian
ul
ulrich
uls
ume
un
und
under
underside
understand
understanding
unesco
unfortunately
uni
unicode
unidos
union
unit
united
unitplural
unitsprefix
unitssuffix
universal
universe
university
unixavailable
unixdateofdeath
unknown
unnamed
unpack
unregistered
unstripnowiki
until
up
uparrow
upcoming
update
updated
updates
upiaq
upload
uploads
uploadwizard
upper
upright
ur
urban
uri
uricomponents
url
ursus
uruguay
us
usa
usage
use
used
user
users
uses
using
ussr
ustinova
ustring
utc
utitle
uuq
uyuni
uz
v
va
vago
vagobot
val
valerytishkov
valid
validate
valle
valley
value
values
valuetoparse
van
vandal
vandalism
vandam
vangogh
var
variables
vcard
ve
vec
veidne
velikoy
venezuela
venice
vep
verde
verlag
version
versions
vertical
very
vespertinus
vesti
vi
via
viaf
victor
victoria
vid
video
vienna
vietnam
view
viewer
views
vii
viii
viki
viktor
village
villas
ville
vincent
vinci
vini
virginia
virtual
visit
visitors
vista
visual
visualeditor
vlei
vlət
vo
vocals
voice
vol
volcanes
volgograda
volume
volumes
volunteer
volunteering
volunteers
vom
von
vorlage
voronov
vote
votes
voting
voyage
voyny
vro
vs
vue
vugar
vulpes
və
w
wa
wagner
wald
wales
wall
wan
want
wantcomma
wanted
war
was
washington
watch
water
way
ways
wcm
wcos
wd
wds
we
weather
web
webkit
webm
website
week
weekly
weeks
weibchen
welcome
well
were
wesley
west
western
whale
what
wheeler
when
where
whether
which
while
whisky
white
whitespace
who
why
wide
widely
width
wien
wiesbaden
wiki
wikibase
wikicode
wikidata
wikigap
wikimania
wikimedia
wikimedians
wikipedia
wikipedians
wikipedias
wikiquote
wikis
wikisource
wikitext
wikivoyage
wikivoyages
wild
wildpark
wiley
will
willem
william
williams
willing
willow
win
wing
winter
wishlist
with
within
without
wmde
wmf
wmflabs
wmru
wo
wolfgang
woman
women
wonder
word
work
working
works
world
worldcat
worldfootball
worry
would
wp
wps
wrangell
wrappers
write
writing
written
wroclaw
wrong
ws
wsin
wsource
wu
wunenh
www
x
xa
xi
xico
xii
xiii
xiv
xix
xmf
xn
xrightarrow
xv
xvi
xvii
xviii
xx
xxi
xxx
y
ya
yakutii
yandex
yaquboglu
yar
yc
year
yearform
years
yellow
yeni
yerevan
yes
yesno
yet
yi
yo
york
yorkshire
you
your
youtube
yscales
yscalesi
yu
yue
yuko
yukon
yup
yupik
yurik
yyyy
z
za
zaman
zambia
zanda
zaragoza
ze
zealand
zentrale
zero
zh
zhiromskaya
zhrii
zikr
zip
zira
zn
zo
zone
zoo
zoom
zum
zur
{
|
}
~


£
§
©
«
¬
­
°
±
²
³
¶
·
¹
º
»
¼
¿
×
æ
ø
ı
ım
ına
ısı
ızları
ĸ
ł
ła
ŋ
ə
əhəri
əraziləri
əzizovun
ʉ
ʔ
ʰ
ʷ
ʻ
ʼ
ʿ
ˈ
ˌ
ː
̀
́
̂
̃
̄
̆
̇
̈
̉
̊
̋
̌
̓
̔
̛
̜
̣
̦
̧
̨
̯
̱
̲
͂
ͳ
α
β
γ
δ
ε
ζ
η
θ
ι
κ
κασος
καυ
λ
μ
ν
ξ
ο
π
προ
ρ
ς
σ
τ
της
τυπο
υ
φ
χ
ψ
ω
ϕ
ϙ
ϝ
ϻ
а
аасс
аб
аба
абад
абадвал
абазин
абазинар
абаи
абакаров
абасов
абасоло
абасрин
аббас
аббаса
аббасов
аббат
аббревиатура
абваб
абд
абдал
абдул
абдулаев
абдулазиз
абдулатипов
абдулбари
абдулвагьид
абдулгьамид
абдулгьамидан
абдулкъадир
абдулла
абдуллагь
абдуллагьан
абдуллагьахъ
абдуллаев
абдулмалик
абдулманапова
абдулмуслимов
абдулмут
абдулмуталибов
абдурагьман
абдурашид
абдуррагьман
абдуррагьмана
абдусамад
абдуселим
аби
абидин
абилов
абилова
абилован
абрам
абруз
абсолют
абсолютно
абстракт
абу
абубакаран
абугерден
абукар
абукевсер
абулеи
абумуслиман
абур
абура
абураи
абурал
абури
абурикаи
абуру
абурув
абуруваи
абуруз
абурузни
абурук
абурукаи
абурулаи
абурун
абурухъ
абхаз
абхазар
абхазия
абхазиядин
абхазиядихъ
ав
ава
авадан
аваз
авазар
авазва
аваи
авалаи
авалди
аван
авангард
авантюрист
авар
авара
аваран
аварани
аварар
аварви
аварган
аваргандал
аваргандин
аварилаи
аварин
авария
аварри
аварриз
аваррилаи
аваррин
аварскии
аварское
аварскои
авасловарь
ават
аватаи
аватзава
аватзаваи
аватна
аватнаи
аватун
аватунин
аватӏа
аватӏани
авахь
авахьдаи
авахьзава
авахьзаваи
авахьзваи
авахьна
авахьун
авахьунар
авахьундиз
авахьундин
авахьунин
авахьунра
авахьунри
авахьунрин
авач
авачиз
авачир
авачирбур
авачирвал
авачирвилелди
авачирвили
авачирвилин
авачирвиляи
авачирдаз
авачирди
август
августа
августди
августдиз
августдилаи
августдин
августин
авеи
авиа
авиаагрегат
авиация
авиациядин
авив
авраам
аврелии
авсиятда
австралии
австралия
австралияда
австралиядин
австралияни
австрални
австрии
австрия
австрияда
австрияди
австриядин
австриядинни
австриядихъ
австро
авт
авто
автобус
автобусдин
автогонщик
автомагистраль
автоматически
автомобил
автомобилар
автомобилдин
автомобилрин
автомобиль
автомобильрин
автомобиляр
автоном
автономдин
автономидин
автономии
автономия
автономиядин
автономная
автономныи
автономных
автор
автора
авторди
автордин
авторекьел
авторекьер
авторекьин
автореф
авторитет
авторри
авторрикаи
авторрин
авторучка
авторы
авуз
авузни
авун
авуна
авунаи
авуналди
авунар
авунач
авунва
авунваи
авуни
авунивди
авуниз
авуник
авуникаи
авунин
авур
авурвал
авурвили
авурвиляи
авурдалаи
авурди
авурдилаи
авурла
авурт
авуртӏа
аг
ага
агаев
агаева
агаж
агаи
агакь
агакьаи
агакьана
агакьариз
агакьарна
агакьарнаи
агакьарун
агакьда
агакьзава
агакьзаваи
агакьзавач
агакьна
агакьнава
агакьнаваи
агакьнавачир
агакьнаи
агакьнач
агакьначир
агакьриз
агакьун
агалар
агалкьун
агалкьунар
агалкьунраи
агалкьунралди
агалкьунриз
агалкьунрин
агална
агалтдаи
агата
агатадин
агатна
агатнаи
агачаул
агачкала
агвали
агван
агент
агентство
агентстводин
агитатор
агитация
агитациядин
аглоби
агломерация
агломерациядин
агния
агнияди
аграрныи
аграхан
агрегат
агрегатрин
агроном
агрономвиле
агрономиядин
агуа
агула
агулов
агульская
агульскии
агульско
агульского
агуэро
агъ
агъа
агъавал
агъавац
агъавацӏ
агъавацӏар
агъавердиев
агъавилик
агъада
агъадиз
агъадин
агъадихъ
агъаев
агъаева
агъаеван
агъазваи
агъаи
агъалар
агъамирзоев
агъана
агъанваи
агъаниз
агъаокругдиз
агъасии
агъауба
агъаформа
агъаширинуба
агъдам
агъдаш
агъжабеди
агъз
агъзур
агъзурав
агъзуралаи
агъзурдав
агъзурдал
агъзурдалаи
агъзурдилаи
агъзурни
агъзурралди
агъзурхъанар
агълаб
агъмедова
агъсакъал
агъстафа
агъсу
агъу
агъуз
агъузарзава
агъул
агъулар
агъулрин
агъун
агъунваз
агъур
агъухъ
агъчаи
агъязи
агьаи
агьали
агьалиди
агьалидиз
агьалидикаи
агьалидин
агьалидихъ
агьалии
агьалияр
агьалиярни
агьан
агьвал
агьвалатриз
агьед
агьзур
агьзурдав
агьлии
агьлияр
агьмад
агьмадан
агьмадулина
агьмадулинади
агьмед
агьмеда
агьмедан
агьмедов
агьмедова
агьмедпашаева
агьмедрин
агьмедуба
агьмедуллагь
агьмедхан
агьулриз
ад
ада
адав
адаваи
адавал
адавилелди
адаз
адаи
адак
адакаи
адал
адалаи
адалат
адалди
адам
адамс
адан
аданак
адани
адаптация
адахъ
адвентистрин
адвокат
аддала
аддис
адербаи
адет
адетар
адетарни
адетдалди
адетдин
адетдиндилаи
адетрив
адетриз
адетрикаи
адетрин
аджарар
аджария
аджариядин
аджи
аджидада
аджимажагатюрт
ади
адигъ
адигъар
адигъея
адигъеядин
адиевич
адиз
адил
адиль
адин
админ
админа
админами
админах
административ
административвилелди
административни
административно
административное
административных
администратор
администратора
администраторам
администраторар
администраторвилин
администратордин
администраторов
администратором
администраторы
администрации
администрация
администрациядин
администрациярин
админов
админом
админы
адмирал
аднан
адольф
адр
адрес
адресов
адриана
адриатик
адриатикадин
адыг
адыгар
адыгеи
адыгея
адыгскои
ае
ажаи
ажам
аждагьан
ажугъ
ажуз
аз
азабар
азад
азадвал
азадвилер
азадвилин
азаддиз
азадугъли
азан
азар
азарар
азардик
азардикаи
азардин
азарлу
азархана
азарханада
азарханадин
азбука
азгъун
азер
азерб
азербажан
азербажандин
азербаи
азиадин
азиз
азизан
азизбекован
азизов
азизрин
азизуба
азизханов
азии
азим
азия
азияда
азиядаи
азиядиз
азиядин
азиядинни
азиядихъ
азият
азов
азор
азот
азотдин
азраил
азых
аи
аист
аиша
ак
акад
академии
академик
академика
академия
академияда
академиядиз
академиядин
акадзава
акадрунин
акаи
акална
акат
акатаи
акатда
акатдаи
акатзава
акатзаваи
акатзавач
акатзва
акатзваи
акатиз
акатлан
акатна
акатнава
акатнаваи
акатнаи
акатун
акатуниз
акатунин
акахь
акахьаи
акахьзава
акахьзаваи
акахьна
акахьнава
акахьнаваи
акахьнаи
акахьун
акахьунал
акахьунин
акбар
акбулатюрт
аквада
аквадаи
акваз
акваза
аквазва
аквазваи
аким
акиман
акимов
акимова
акиф
акка
акнада
акри
аксаи
акси
аксивал
аксидаказ
аксиз
аксина
аксиниз
акт
акташ
акте
актер
актерар
актердин
актеррин
актив
активвал
активдаказ
активист
активно
активности
активность
активные
активным
активных
актопан
актриса
актуальные
актунин
акула
акун
акуна
акунаи
акунар
акунваи
акунраи
акур
акурди
акурла
акуша
акушали
акушаяр
акушервилин
акушинскии
акушинского
акцияяр
акъажунар
акъажунра
акъажунрин
акъалтвал
акъат
акъата
акъатаи
акъатда
акъатдаи
акъатзава
акъатзаваи
акъатиз
акъатна
акъатнава
акъатнаваи
акъатнаи
акъатун
акъатуниз
акъваз
акъвазаи
акъвазар
акъвазарна
акъвазарнава
акъвазарнаваи
акъвазарнаи
акъвазарун
акъваздаи
акъваззаваи
акъвазиз
акъвазна
акъвазнава
акъвазнаваи
акъвазнаи
акъвазрун
акъвазун
акъуд
акъудаи
акъуддаи
акъудзава
акъудзаваи
акъудиз
акъудна
акъуднава
акъуднаваи
акъуднаи
акъудун
акъудунар
акъудуниз
акъудунин
акъужунар
акъуша
акьазва
акьазвач
акьазвачир
акьалждаи
акьалт
акьалтаи
акьалтдаи
акьалтзаваи
акьалтна
акьалтунин
акьалтӏ
акьалтӏаи
акьалтӏараи
акьалтӏарна
акьалтӏарнаваи
акьалтӏарнаи
акьалтӏдаи
акьалтӏна
акьалтӏнамазди
акьалтӏун
акьалтӏунар
акьахал
акьахьунар
акьван
акьванни
акьул
акьулдин
акьуллу
акьун
акьуна
акьунар
акӏ
акӏидаи
акӏуррин
ал
ала
алабама
алабаш
алабна
алабнаи
алабуналди
алава
алаваи
аладаи
аладардаи
аладаш
аладна
алаз
алазан
алазани
алаи
алак
алакаи
алакъа
алакъада
алакъадин
алакъаи
алакъалу
алакъаяр
алакь
алакьа
алакьадин
алакьаяр
алакьдаи
алакьзава
алакьна
алакьнаи
алакьнар
алакьун
алакьунар
алакьунин
алал
алалаи
алалди
алални
алам
алама
аламаз
аламаи
аламат
аламатар
аламукьдаи
алан
алани
алания
аланни
алар
алара
алараи
аларал
аларалди
алари
алариз
аларик
аларикаи
аларилаи
аларин
аларинни
алариха
аларихан
аларихъ
аларни
алат
алатаи
алатар
алатдалаи
алатзава
алатна
алатнаи
алатрин
алатуниваи
алахъ
алахъаваи
алахъаи
алахъдаи
алахъзава
алахъзаваи
алахъзваи
алахъиз
алахъна
алахънава
алахънаваи
алахънаи
алахъун
алахъунар
алахъунрин
алахьаи
алачиз
алачир
алачирт
алачух
алб
албан
албанви
албании
албания
албанияда
албаниядин
албомар
албрехт
албум
албумар
албумдин
алвар
алгавре
алгебра
алгебрадин
алгъаи
алда
алдал
алдатмишун
алди
алдиз
алдик
алдин
але
алеи
александр
александра
александран
александрди
александрии
александриядин
александро
александров
александрович
александровка
александровск
александровскии
алексеев
алексеевич
алексеевка
алексеевскии
алексеи
алексеян
алем
алемдин
алемни
алентежу
алеут
алеф
алжир
алжирдин
али
алибег
алибек
алибекотар
алибил
аливердиев
аливердии
алиди
алидиз
алидин
алидихъ
алидхуьр
алиев
алиева
алиеваз
алиеван
алиевич
алик
аликазган
алим
алиман
алимар
алимвилин
алимди
алимдин
алимирзе
алимирзоев
алимни
алимов
алимова
алимпашаюрт
алимри
алимрикаи
алимрин
алимурад
алини
алирза
алискеров
алискерово
алискеррин
алисово
алиханмахи
алиханов
алишверишдин
алияр
алк
алкадари
алкадарскии
алкьвадар
алкьвадари
алкьвадаридин
алкӏурзаваи
алла
аллагь
аллагьверди
аллагьди
аллагьдиз
аллагьдин
аллагьу
аллагьяран
алладин
аллотропдин
алма
алмак
алмало
алмас
ални
алонсо
алонсоди
алпан
алпанар
алпанда
алпандин
алпандихъ
алпания
алпанрин
алра
алриз
алрин
алт
алтаи
алту
алтыпара
алтыпарадин
алтӏушунин
алуб
алубар
алуван
алуд
алудиз
алудна
алуднаваи
алуднаи
алудун
алук
алукьаи
алукьдалди
алукьзава
алукьун
алукьунар
алукӏунар
алуча
алфавит
алфавитар
алфавитда
алфавитдал
алфавитдив
алфавитдиз
алфавитдикаи
алфавитдин
алфиб
алц
алцум
алцумар
алцумдаи
алцумдин
алцурарун
алчуд
алчударна
аль
альба
альберт
альберта
альберто
альбион
альбом
альбомар
альбомда
альборан
альварес
альдер
альенде
альманах
альманахдин
альп
альпаи
альпар
альпаяр
альприн
альт
альтернативная
альтернативнои
альтернативную
альтернативные
альтернативныи
альто
альфа
альфвендин
альфред
альфредо
алюминии
аляска
аляскада
аляскадин
ам
ама
амадаг
амадеус
амадора
амаз
амазма
амазонас
амазония
амазониядин
амазонка
амазун
амаи
амал
амалдарвал
аман
аманат
амар
амач
амачиз
амачир
амаяр
амбарцум
амбарчаи
амбролаури
амбулатория
амвросиян
америго
америка
америкада
америкадаи
америкади
америкадиз
америкадин
америкадинни
америкадихъ
американ
америки
аметеркмахи
ами
амидов
амина
аминова
аминрин
амир
амирханов
амирханова
амма
аммар
аммед
амни
аморфдин
амр
амри
амсар
амстердам
амузги
амукь
амукьаи
амукьаяр
амукьда
амукьдаи
амукьзава
амукьзаваи
амукьзваи
амукьиз
амукьна
амукьнава
амукьнаваи
амукьнаи
амукьнач
амукьначир
амун
амур
амурдин
амурскои
амух
амущи
амхар
ан
ана
анаваи
анаг
анадихъ
анадолудин
анаи
анакостия
анал
анализ
анализу
аналог
аналогар
аналогично
аналогичные
анан
анар
анархизм
анархист
анастасия
анат
анатдин
анатолии
анатолиядин
анатомия
анва
анваи
ангара
ангида
ангилья
англ
англарни
англи
англивии
англивияр
англии
англикан
англия
англияда
англиядиз
англиядин
англиядинни
ангола
ангур
ангьу
ангьум
анд
анда
андаи
андалал
андаман
андар
андаяр
андерсен
анджелес
анджелесдиз
анджелесдин
анджело
анди
андии
андин
андияр
андорра
андоррадин
андраде
андре
андреас
андреевка
андреи
андрес
андреян
андроново
андуз
андуник
андых
ане
анжах
анжи
анз
анзава
анзаваи
ани
анив
анивал
анивиликаи
анивилин
аниз
ании
аник
аникаи
анин
анихъ
анкара
анкета
анклав
анклавар
анклух
анлаи
анна
анне
анны
аноа
анова
анонимныи
анра
анраи
анри
анрин
ансалта
ансамблди
ансамблдик
ансамблдин
ансамбль
ансамбльда
ансарар
ансельм
антантадин
антарктида
антарктидадин
антарктикадин
антверпен
антигуа
антигуани
антик
антил
антилопа
антилопаи
антилопаяр
антология
антон
антонио
антониу
антрополог
антропология
антропологиядин
антропонимика
антуан
ануширвана
анхвала
анхель
анхо
анцух
анчик
анчих
ао
ап
апаи
апар
апариз
апарин
апаче
апеннин
апостол
апостолрин
аппарат
аппаратдин
аппенинар
аппер
апрел
апрелдиз
апрелдилаи
апрель
апрельда
апрельдиз
апреля
аптека
апшерон
апши
ар
ара
араб
арабаи
арабар
араби
арабизмар
арабист
арабистан
арабистандин
араблинскии
араблинское
арабляр
арабри
арабриз
арабрин
арабринни
арабские
арабскии
арабских
арабского
аравилин
аравиядин
арагац
арагацотн
арагон
арагъ
арада
арадаваи
арадаи
арадал
арадиз
арадилаи
арадин
арадирих
арадлаи
араз
араи
арак
аракани
аракс
аракул
арал
аралди
арам
арамеи
аран
аранар
аранда
арандал
арандиз
арандин
арани
аранрин
арар
арара
арарат
арасдин
арассамахи
арат
арахуьр
арачанамахи
арачивиливди
араяр
арбедиз
арбен
арвал
арвилин
арвияр
аргвани
аргентина
аргентинада
аргентинадин
аргентинадихъ
аргумент
аргументов
аргументы
аргун
аргъал
аргъивал
ардагьан
ардаи
ардин
ареал
ареални
арена
аренадал
аренда
арешевка
арза
арзамас
ари
арив
ариг
ариз
арии
арикаи
арикъат
арикъатдин
арилаи
арин
аристократ
аристократиядин
аристократрин
аристотель
ариф
арифдар
арифметика
ария
ариядин
арка
аркас
аркит
арктик
арктика
арктикадин
арм
армавир
арменихьан
армения
арменияда
армениядаи
армениядиз
армениядин
армениядинни
армениядихъ
арменоид
армии
армия
армияда
армияди
армиядиз
армиядин
армстронг
армудпадар
армян
армянар
арна
арнаваи
арнаи
арода
арпа
арпи
арри
арриага
аррин
арс
арсен
арсугъ
арт
арташес
артезиан
артель
артем
артиллерия
артиллериядин
артист
артистар
артистдин
артистка
артистри
артишокар
артлух
артмишун
артур
артух
артухан
артухарна
артухарун
ару
аруба
архангельск
архангельское
археи
археолог
археологические
археология
археологиядин
археологри
археяр
архив
архивдин
архивные
архивныи
архивра
архиепископ
архимед
архипелаг
архипелагда
архит
архитектор
архитекторар
архитектура
архитектурадин
архитектурадинни
арц
арцалу
арцахдин
арцӏах
арчан
арчи
арчиб
арчибальд
арчии
арчин
арчияр
арчо
арчуг
арш
арши
арыхкент
ас
асадуллаевич
асадхуьр
асалдхуьр
асан
асант
асар
асари
асасдиз
асах
асвт
асеф
асир
асирдин
асирра
аскар
аскер
аскерар
аскервилиз
аскервилин
аскеров
аскерри
аскерриз
аскеррин
аскорбин
аскӏан
аслан
асланов
аслануба
асланханова
аслу
аслувал
аслувилик
аслудаказ
аслутушир
аслутуширвал
аслутуширвилин
аспект
аспирант
аспирантура
аспирантурада
аспирантурадиз
аспирантурадик
асса
ассаб
ассаламу
ассам
ассамблея
ассамблеяди
ассимиляция
ассирии
ассириядин
ассирияр
ассистент
ассоциация
ассоциациядин
асср
ассрдик
ассрдин
аст
аста
астана
астара
астероид
астероидар
астероиддиз
астероидрин
астон
астра
астрахан
астраханда
астрахандин
астрахань
астраханьдин
астрель
астроном
астрономар
астрономия
астрономиядин
астрофизика
асул
асулдаи
асфальт
асш
асшда
асшдаи
асшди
асшдилаи
асшдин
ат
ата
атабаск
атазваи
атаи
атана
атанаи
атанатӏани
атанач
атанва
атанваи
атанват
атар
ататуьрк
ататуьркди
атв
атеизм
атеистар
атланаул
атлантик
атлантика
атлантикадин
атлантикни
атлас
атлетик
атлетика
атлетико
атлухан
атмосфера
атмосферада
атмосферадин
атна
атом
атомдин
атомныи
атомрин
атрибуту
атрик
атропатена
атропатенадин
аттестат
аттракционар
атуи
атун
атуна
атунар
атуниз
атуникаи
атунин
атунихъ
атунрин
атӏаи
атӏана
атӏанва
атӏанваи
атӏудаи
атӏун
ауданы
аудио
аудитор
аул
ауф
ауфа
ауфан
аух
афанасии
афанди
афар
афарар
афганистандин
афганистандихъ
афгъандин
афгъанистан
афгъанистандин
афинар
афинаяр
афна
афни
афразии
афри
африка
африкави
африкада
африкадаи
африкадин
африки
аффан
афшар
афшарар
афшаррин
ах
ахаи
ахар
ахвар
ахвах
ахвахар
ахвахрин
ахкент
ахлакь
ахли
ахмад
ахмакь
ахматова
ахматовадин
ахматовои
ахмед
ахмедов
ахмедуба
ахмета
ахнигар
ахпа
ахпана
ахпани
ахсакадамахи
ахсу
ахтармиш
ахтармишдаи
ахтармишзаваи
ахтармишиз
ахтармишна
ахтармишун
ахтармишунар
ахтармишунин
ахтармишунрин
ахтачикан
ахты
ахтынскии
ахтынского
ахтыпаринского
ахур
ахурар
ахурдин
ахурри
ахуррикаи
ахуррин
ахурян
ахцагь
ахцегь
ахцегьа
ахцегьаз
ахцегьан
ахцегьар
ахцегьвацӏ
ахцегьви
ахцегьвии
ахцегьвияр
ахцегьда
ахцегьдаи
ахцегьдиз
ахцегьдин
ахцегьни
ахцегьпара
ахцегьпарадик
ахцегьпарадин
ахцегьра
ахцегьраи
ахцегьриз
ахцегьрин
ахцугъ
ахъа
ахъавал
ахъагъаи
ахъадаказ
ахъаз
ахъаи
ахъана
ахъаюн
ахъаюнин
ахъаюнрин
ахъаяи
ахьтин
ац
ацтекрин
ацукьаи
ацукьарзаваи
ацукьарнаваи
ацукьарнаи
ацукьдаи
ацукьзава
ацукьзаваи
ацукьиз
ацукьна
ацукьнава
ацукьнаваи
ацукьнаи
ацукьун
ацӏаи
ацӏана
ацӏанва
ацӏанваи
ацӏур
ацӏурзава
ач
ачи
ачикулак
ачух
аш
ашага
ашали
ашамиш
ашап
ашар
ашахуьр
ашахуьруьн
ашильта
ашино
ашкара
ашкъ
ашкъи
ашпаз
ашпазвилин
ашти
ашты
ашуг
ашукь
ашукьбаи
ашукьри
ашукьрин
ашурбеков
аь
аэродром
аэроплан
аэропорт
аэропортди
аэропортрин
аэропортунал
аэропортунин
аю
аюки
аюн
ая
аяз
аязар
аякс
аял
аялар
аяларни
аялатдин
аялвал
аялвилин
аялдиз
аялизимахи
аялри
аялриз
аялрикаи
аялрин
аялринни
аям
аямахи
аямда
аямдани
аямдин
аяр
аят
аятар
б
ба
баб
баба
бабаев
бабаева
бабастанан
бабаханан
бабаханов
бабаюрт
бабаюртовскии
бабаюртовского
бабуино
бавария
бавариядиз
бавариядин
бавтугаи
багалулар
багамар
багдад
багратидрин
багулалар
багъ
багъар
багъбанвал
багъдад
багъдади
багъдин
багъиш
багъишна
багълама
багъшна
багьа
багьавал
багьадин
багьна
багьрам
бадамжан
баде
баден
бадминтон
бадр
бадрда
бажарах
бажино
бажиханум
база
базар
базардин
базаяр
базель
базилика
базиликадиз
баи
баия
бак
бака
бакиханов
бакиханова
бакр
бакра
бакрди
бактерии
бактерия
бактерияр
бактлук
баку
бакуда
бакудиз
бакудилаи
бакудин
бал
бала
балабан
балабеков
баладикаи
баладин
балаев
балакен
балакъардаш
баланс
баласма
балахани
балеар
балерина
балетдин
бали
балк
балкан
балканар
балкар
балкарар
балкария
балкъар
балкъариядин
балкіан
балкӏан
балкӏанар
балкӏандал
балкӏандин
балкӏанрин
балкӏанхьтин
балл
балла
баллады
баллов
баллон
балт
балтамахи
балтии
балтик
балтика
балтикадин
балугъ
балугъар
балхар
балыкесир
бальнеологиядин
бамбукдин
бамматюрт
банаи
бангкок
бангладеш
бангладешдин
банд
банда
бандеи
бандит
банк
банка
банкар
банкгородов
банкдин
банкет
банкунин
баннер
баннернои
банникова
банска
банту
бану
баоан
баптистар
барабар
барабарвал
барабарвилерин
барабардаказ
барановка
бараново
барафтау
барахум
барбадос
барбара
барбат
барбатӏ
барбатӏна
барбатӏнаваи
барбатӏнаи
барбатӏун
барбуда
барда
бардымскии
баренц
баркаллу
баркаллувилин
бармак
барокко
барометр
баррикада
барриос
барселона
барселонада
барселонадин
барсук
бартелеми
барто
бартольд
бартольда
барчхои
баршамаи
барьердин
барятинская
барятинскии
бас
баск
баскал
баскетбол
баскетболдаи
баскетболдин
баскрин
баскӏум
баскӏумдиз
басма
басмадаи
басмадин
басмахъан
басмишун
басрух
бассеи
бат
батальон
батальондин
батарея
баташюрт
батлу
батлувал
батлух
батор
батрак
батуми
батыр
батыраян
батӏрак
бах
баха
бахмахи
бахреи
бахт
бахтавар
бахтлу
бахтлувал
бахтсуз
бахтунин
баху
бахцугъ
бахча
бахчасараи
бахчахъанвал
бахчахъанвилив
бахчаяр
бахшна
бахшнаваи
бацбияр
бачелис
баш
башкатовское
башкир
башкирар
башкирская
башкортостан
башкъортостан
башламиш
башламишна
башламишун
башлыкент
башуьсте
бащунаяр
баябан
баябанар
баябанра
баян
баянар
баят
бе
бег
бега
бегар
бегвал
бегди
бегдиз
бегдин
бегенмиш
бегрин
бегьем
бегьемардаи
бегьемарна
бегьемдаказ
бегьемдиз
бегьемрунин
бегьер
бегьерар
бегьердин
бегьерлу
бегьерлувал
беделов
беден
беденда
бедендикаи
бедендин
бедуьхъ
бежта
бежтаи
бежтаяр
бежтинскии
без
безусловно
безыменскии
беи
бек
бека
беквалдик
беккенбауэр
бел
беларус
беларусия
беларусиядин
белая
белген
белгенар
белгенда
белгендиз
белгендик
белгендин
белгород
белград
беледи
белен
белиджи
белиз
белки
белла
белоевское
белокан
белокандин
белорусар
белорусиядин
белорусрин
белоруссия
белоруссиядин
белорусскии
белыи
бельгия
бельгиядин
бельскии
белья
бен
бенг
бенгал
бенгалар
бенгалдин
бенгали
бенедикт
бензин
бенин
бениндин
бенито
берг
бергеинзи
берда
берданка
бере
берег
береда
бередилаи
бередин
березина
березник
березники
березовая
береи
берекат
берикеи
беринг
берлин
берлиндиз
берлиндин
бермудар
бернар
бернерс
бернли
бес
беседы
бет
бета
бетховен
би
биатлон
биатлондаи
биб
библиография
библиотека
библиотекарь
бигер
бидиркъеле
бидон
бизнес
бизнесдин
бизнесмен
бии
бикаламахи
билал
билалов
билбил
билбилахуьруьн
билдинг
билет
билиж
билисан
билистан
бильгади
билясувар
бин
бине
бинеда
бинедал
бинедаллаз
бинедиз
бинедилаи
бинедин
бинеи
бинеламиш
бинелу
бинеяр
бинт
биньямин
био
биоген
биографическии
биография
биографиядин
биолог
биология
биологиядин
биотехнологиядин
биофизика
биохимия
биохимиядин
бир
биринджи
бирман
бисау
бисмарк
бисмаркахъ
битавар
битмиш
битмишзава
биц
бицӏи
биши
благовещенск
благодарим
благодарность
бланк
блас
ближаи
блика
блог
блок
блока
блокдин
блокировать
блокнот
блушка
блэкберн
блэкпул
бо
бобби
бобровка
бог
богдан
богемиядиз
богородицкое
богородское
богос
богота
бое
бои
бока
бокарев
бокс
боксдаи
боксе
бокситар
бол
болг
болгария
болгариядин
болгарскии
более
боливар
боливия
боливиядин
боливиядихъ
болонья
болото
болтон
болхов
болховскии
больница
большая
больше
большевик
большевиков
большевикрин
большедербет
большеи
большесосновскии
большие
большинства
большинство
большое
большои
бомба
бомбардир
бомбардирар
бомбардиррин
бонаи
бонапарт
бонго
бор
борагангечув
боргезе
борго
бордо
боржоми
борис
борисовка
боро
бортэ
боруссия
боруссияди
борхес
борч
борщ
борьба
босния
боснияни
бостон
бот
бота
ботам
ботаник
ботаника
ботаникадин
ботар
ботафого
ботинка
ботлих
ботлихар
ботлихрин
ботлихскии
ботов
ботом
ботсвана
боты
браво
брагино
браззавиль
бразил
бразилиа
бразилия
бразилиядиз
бразилиядин
бразилиядихъ
браи
брак
бранденбург
бранденбургдин
бранку
братислава
братиславада
братиславадин
брать
браун
брахмапутра
брезент
бреи
брест
бригада
бригададин
бригадир
брильянт
британ
британия
британияда
британиядиз
британиядин
британника
британрин
брод
бродское
брокгауза
брокгаузан
бромвич
броневскии
бронь
броня
брошюра
брун
брунеи
брчко
брюссель
брянск
бсэ
бу
буба
бубавилин
бубади
бубадиваи
бубадиз
бубадикаи
бубадин
бубадихъ
бубаи
бубал
бубани
бубаяр
бубуяр
буглен
бугъ
бугъа
бугъадал
бугъадин
бугъда
бугъдиз
будаи
будапешт
будда
буддизм
буддизмдин
буддистар
буде
будем
буденного
будет
будка
буду
будугъ
будугъар
будугъвияр
будугълу
будугърин
будут
будухскии
будущее
будь
буи
бук
букар
букаран
буква
букву
буквы
буккамахи
бул
булат
булатово
булах
булахар
булахдин
булвилиз
булгакова
бульвар
бум
бумажник
бумазея
бундесланддин
бундеслига
бундеслигада
бундеслигадин
бунт
бунтар
бунтара
бунтарин
бур
буран
бурганкент
бургимакмахи
бургимахи
бургундиядин
бурдеки
бурж
буржар
буржи
буркина
буркихан
бурни
буровдал
бурса
буртунаи
буру
бурув
буруваи
буруз
бурук
бурукаи
бурулаи
бурун
бурунди
бурунни
буруны
бурухъ
бурхимахи
буршагь
бурши
бурят
бурятар
бурятия
бурятриз
бурятскои
бус
бустанчи
бут
бутан
бутандин
бутахуьр
бутахуьруьн
бути
бутова
бутовская
бутри
бутса
бутуш
бухара
бухах
бухгалтер
бухгалтерия
бухты
буцра
буш
бушкъаб
буьркьуь
буьруьнж
буэнавентура
буэнос
буюр
буюрмишун
бы
бывает
был
была
были
былинаи
было
бырма
быстро
быть
бышево
бэи
бэк
бэнтли
бюджет
бюллетень
бюллетеня
бюро
бюрократизм
бюст
бягьс
бязи
бязибур
бязибуру
бязибуруз
в
ва
ваба
вавилово
вагнер
вагон
вагонрин
вагьабов
вагьши
вад
ваде
вадим
вадлагьаи
вадра
важиб
важибвал
важиблу
ваз
вазелин
ваи
вак
вакуумда
вакъиа
вакъиадиз
вакъиаи
вакъиаяр
вакъиф
вакъияр
вакъкъас
вакъкъасас
вакӏан
вал
валар
валари
валарикаи
валарин
валах
валахаи
валахар
валахарзава
валахарзаваи
валахдаи
валахдар
валахдаррин
валахзава
валахзаваи
валахзваи
валахиз
валахна
валахнава
валахнаи
валахра
валахун
валахунин
валдаи
вале
валенсия
валентин
валентина
валентинан
валентиниан
валер
валера
валерии
валерикаи
валерин
вали
валид
вализ
валин
валишевскии
валленштаи
вални
валчагъ
валье
вальпараисо
вальтер
валюта
валютадин
вам
вами
ван
вана
ванар
ванашимахи
вандаи
вандализма
вандализме
вандалри
вандам
вандерлоо
вандиз
вандин
ванер
ванерикаи
ванерин
ванино
ванкувер
ванрал
ванри
ванрин
ванринни
вануату
вануатудин
ванцин
вань
вар
варар
варараи
варариз
варарикаи
варарин
варархъан
варварар
варваррин
варданлы
вардар
варденис
варз
вари
вариант
варианта
варианты
варисар
варна
варнаи
варни
варс
варташен
варуник
варунихъ
варц
варцар
варцара
варцарин
варцин
варчагъ
варчагърин
варшава
варьировать
вас
василии
василиса
васильев
васильева
васильевич
васильевича
васильевка
васильевское
васко
вассал
ват
ватан
ватанда
ватандал
ватандиз
ватандикаи
ватандин
ватандихъ
ватанперес
ватанпересвилин
ватанэгьлии
ватанэгьлияр
ватикан
ватиканда
ватикандиз
ватикандин
вафа
вафалу
вафалувал
вах
ваха
вахаз
вахан
вахарин
вахкун
вахт
вахтанг
вахтар
вахтара
вахтарал
вахтарилаи
вахтарин
вахтуна
вахтуналди
вахтунда
вахтундилаи
вахтундин
вахтуниз
вахтунилаи
вахтунин
вахтунлаи
вахчаг
вахчагар
вахчуз
вахчун
вахчуна
вац
вацра
вацраз
вацрал
вацралаи
вацралди
вацран
ваці
вацӏ
вацӏа
вацӏаи
вацӏал
вацӏалаи
вацӏар
вацӏарал
вацӏари
вацӏарив
вацӏариз
вацӏарик
вацӏарикаи
вацӏарилаи
вацӏарин
вацӏни
вацӏран
вацӏу
вацӏуз
вацӏук
вацӏун
вацӏунни
вацӏухъ
вачел
вачер
вачи
вачин
ваш
ваше
вашем
ваши
вашингтон
вашингтонда
вашингтондин
ваших
ваъ
ваяр
вв
вверх
вверху
ввести
ввиду
вводить
ввц
вгтрк
вдруг
ве
веб
вебсаи
вегьезваи
вегьеи
вегьен
вегьена
вегьенаи
вегьер
вегьин
ведения
ведено
ведомости
ведомость
ведомстводин
ведро
ведущивиле
ведущии
ведь
везивадал
везифа
везифадал
везифадилаи
везифаи
везифаяр
веи
век
века
веке
векил
векилар
векилвал
векилвилин
векилди
векилри
векилриз
векилрикаи
векилрин
вексель
вектор
векъи
векь
векьел
векьелар
векьелрин
векьер
векьерин
векьин
вел
веласкес
велаят
велаятар
велаятда
велаятди
велаятдин
велаятрикаи
велед
веледри
велес
вели
велиди
велиев
велии
великая
великент
великии
великобритании
великобритания
великого
великои
велиуба
велихан
велиханви
веллингтон
велосипед
велосипедрин
велоспорт
велс
велсдин
вена
венадин
венг
венгер
венгр
венграми
венграр
венгрия
венгриядин
венгриядинни
венгриядихъ
венера
венерадин
венесуэла
венесуэладин
венет
венеция
венециядин
венк
венлок
венустиано
вепс
вер
вера
вергилии
верде
верди
вердиш
веревирд
веревирдер
веревирдзаваи
веревирдрин
верем
верещагино
верещагинскии
верин
вермонт
вернуть
версальда
версии
версию
версия
версиядаи
версиядалди
версиядив
версиядиз
версиядин
версиядихъаи
версияр
вертил
вертоле
верх
верхер
верхне
верхнее
верхнеи
верхнем
верхние
верхнии
верхняя
верховны
верховскии
верховье
верхососенье
верхьин
верч
верчер
верю
весе
веси
весидин
весият
весна
вест
вести
вестник
вестфалия
вестфалиядин
весь
ветеран
ветеранов
ветеринар
ветеринариядин
вех
вечер
вешает
вещеи
веществ
вещество
веществодин
веществои
веществояр
вещь
взаг
взаимодеи
взгляд
взглядам
взглядов
взрывы
ви
виа
вигьин
вигьинар
вигьиндаи
вигьинрик
вигьинрикаи
вигьинрин
вид
вида
видади
виде
видео
видеть
видин
видит
виды
виже
вижевии
вижу
византии
византия
византиядин
византияни
визир
вии
вик
вики
викиданные
викиданных
викидиз
викимания
викимарафоне
викимедиа
викимедии
викингар
википедиеи
википедии
википедистов
википедию
википедия
википедияда
википедиядиз
википедиядин
википедиях
википроект
викисклад
викискладе
викитека
викри
виктор
виктория
викӏегь
викӏегьвал
вил
вила
вилаи
виланова
вилаят
вилаятар
вилаятда
вилаятди
вилаятдиз
вилаятдик
вилаятдикаи
вилаятдилаи
вилаятдин
вилаятдихъ
вилаятни
вилаятра
вилаятрал
вилаятриз
вилаятрин
вилгьелм
виле
вилегар
вилел
вилелди
вилер
вилери
вилерив
вилериз
вилерикаи
вилерин
вили
вилиам
вилиамс
вилиамсди
вилив
вилиз
вилик
виликаи
виликамаз
виликамазди
виликан
виликдаи
виликди
виликни
виликпатан
виликра
виликфинин
вилин
вилини
вилла
виллаи
виль
вильва
вильгьельм
вильнюс
вилья
вильягран
вильям
виляи
вине
винеи
винел
винелаи
вини
винивал
винидихъ
виниз
винизвал
винихъ
винихъаи
виноградная
винсент
винсентни
винстон
винт
винтовка
винчи
вир
виргин
виргиния
вире
вирез
вирелаи
вирен
вирер
вирериз
вирерин
вирерни
вири
вирибуруз
вирибурулаи
вирида
виридаз
виридал
виридалаи
виридалани
виридан
виридахъ
виридлаи
виридуьньядин
виридуьнядин
вириз
вирииндиядин
вирин
вирина
вирини
вириниз
виринра
виринриз
вирисоюздин
вириурусатдин
виришураи
вирт
виртуал
виртуальные
виртӏ
вирус
вирусдин
висенте
вискоза
висконсин
виталии
витамин
витаминар
витория
витрина
витторио
вихли
виц
вице
вицхи
вич
виче
вичел
вичелаи
вичи
вичиваи
вичиз
вичик
вичикаи
вичин
вичини
вичихъ
вични
виш
вишекаи
вишелаи
вишералди
виши
вишлагьаи
вишни
вишсан
вияр
вка
вклад
вклеи
включает
включать
включая
включе
включен
включения
вкп
вкпб
владеет
владению
владею
владеющие
влади
владивосток
владикъавкъаз
владикъавкъазда
владимир
владимира
владимиран
владимирдин
владимирович
владислав
властдин
власти
власть
влиятельные
влксм
вместе
вместо
вне
внести
внешние
внешнии
внизу
внимание
вновь
вносить
внуково
внутреннего
внутренние
внутренних
внутренняя
внутри
во
вод
вода
водные
водных
водород
водороддин
водохранилище
воды
воениздат
военком
военкомат
военно
военное
военныи
вожатыи
возврат
возвращает
возглавил
возможно
возможности
возможность
возраста
возрождения
вои
вокал
вокалист
вокзал
вокзальная
вокруг
воксхолл
волга
волгадин
волгоград
волгограда
волгоградда
волгограддин
волеги
волеи
воли
волк
волков
волкова
волна
вологда
вологодскои
волонте
волостяр
вольт
вольтер
вольфганг
вольфрам
вон
вообще
вооруже
вопрос
вопроса
вопросам
вопросах
вопросов
вопросом
вопросу
вопросы
воробье
воробьевы
воронеж
воронов
воронцова
воротандин
воскресенское
воспоминания
восстановил
восток
востока
восточная
восточно
восточного
восточнои
восточныи
восточных
восход
вот
вп
впервые
впере
впн
вполне
впоследствии
впредь
враждебно
време
времен
времени
временник
временного
время
вроде
вручную
вруш
вряд
вс
все
всегда
всего
всеи
вселеннои
всем
всемирная
всему
всеобщая
всероссии
всесоюзная
всех
вские
вскии
вское
вставить
вставки
вставлять
встреча
встрече
встречи
вступ
вступительнои
всю
вся
вторая
второго
второе
второи
втором
вугана
вуганаи
вуганваи
вугудаи
вугуз
вугузва
вугузваи
вугун
вугунин
вуж
вуз
вулкан
вулканар
вулкандин
вулканик
вулканов
вулканрин
вулканы
вун
вуна
вурвар
вурварин
вуч
вучиз
входит
вцик
вцспс
вч
вы
выберите
выборам
выборах
выборов
выборы
выбрали
выбрать
вывода
выводит
выводится
выглядит
выговор
выдае
выдачу
выдвигаться
выдвигаю
вызов
вызова
вызове
вызывает
выи
выиграл
вымер
вымирание
вып
выписка
выпуск
выпускники
выселки
выскажите
высказались
высказаться
выслушать
высоких
высокое
высоком
высота
высоты
выстав
выставка
выставления
выстроить
выходит
выше
выяснилось
вьетнам
вьетнамда
вьетнамдин
вьетнаме
вьетнамскои
вяде
вязер
вячеслав
г
га
гаага
габон
габриэль
гав
гаваи
гавань
гавдиш
гавдишан
гавриил
гага
гагарин
гагарина
гагатли
гагауз
гагь
гагьда
гагьди
гад
гада
гадади
гададин
гадаи
гадани
гадарзава
гадари
гадарна
гадарнаваи
гадац
гадаяр
гаджет
гаджиев
гаджиева
гадин
гадни
гадрунар
газ
газар
газардк
газдив
газдикаи
газдин
газел
газет
газета
газетадин
газетар
газетда
газетдаи
газетди
газетдиз
газетдин
газетжемиятдинни
газетра
газетриз
газетризни
газетрин
газетринни
газеты
гази
газон
газрин
гаи
гаити
гак
гаквари
гакко
гакъудна
гал
гала
галагагь
галагъан
галаз
галазни
галаи
галактикаи
галанчож
галапагосс
галат
галатасараи
галачиз
галачир
галерея
галереяррин
гали
галилеи
галилео
галина
галисии
галичинское
галк
галкӏ
галкӏанаваи
галкӏанва
галкӏанваи
галкӏар
галкӏда
галкӏди
галкӏдик
галкӏдин
галкӏур
галкӏурзаваи
галкӏурна
галкӏурнаваи
галкӏурунар
галлар
галло
галстук
галтад
галтадзава
галудиз
галукьаи
галукьзава
галукьзаваи
галукьна
галукьнаваи
галукьнаи
галукьунин
галукьунрин
галынчаг
гама
гамар
гамарин
гамбия
гамбург
гамзатов
гамидов
гамиш
гамишар
гамиях
гамри
гамсутль
гана
ганаи
ганач
ганва
ганваи
ганг
гангдин
гандарамахи
гандбол
ганди
гандурар
гаошан
гапур
гапурар
гапурдив
гапцах
гапшима
гар
гарагъар
гарагърин
гараи
гарар
гарари
гарарин
гарбутль
гардабани
гардан
гардероб
гари
гарик
гармония
гармониядин
гарна
гарнизон
гарнизонар
гарнизондин
гарнир
гарринча
гарсия
гарун
гарь
гасан
гасанов
гасанова
гастроном
гат
гатадаи
гаталди
гатана
гатанваи
гатар
гатуз
гатун
гатунни
гатфар
гатфаралди
гатфариз
гатфарин
гатфаринни
гатфарни
гатӏум
гатӏумаи
гатӏумдалди
гатӏумзава
гатӏумзаваи
гатӏумна
гатӏумнаваи
гатӏумнаи
гатӏумун
гатӏунна
гатӏуннаи
гаф
гафалаг
гафар
гафара
гафарал
гафаралди
гафарган
гафарганар
гафарганда
гафаргандиз
гафаргандин
гафари
гафарив
гафариз
гафарикаи
гафарилаи
гафарин
гафарихъ
гафарни
гафба
гафни
гафун
гафуналди
гафуни
гафуниз
гафуникаи
гафунилаи
гафунин
гафунихъ
гацалух
гачал
гачалар
гачалхуьр
гашаров
гашарова
гва
гвадалахара
гваделупа
гваз
гваи
гвардиоладин
гвардия
гвардиядин
гватемала
гвачир
гвердцители
гвердцӏители
гвечӏи
гвиана
гвианадин
гвинея
гвинеядин
гвичин
гг
гггг
где
гдр
гдым
ге
геба
гебрид
гевара
гевгьер
гегам
гегаркуник
гегьенш
гегьеншар
гегьеншарзаваи
гегьеншарун
гегьеншвал
гегьеншдаказ
гегьеншдиз
гегьеш
геджух
геж
геждалди
гежух
геи
геккернан
гектар
гектардилаи
гекъиг
гекъигаи
гекъигиз
гекъигна
гекъигун
гекъигунар
гекъигунин
гекьигаи
гел
гелар
геле
гелеваз
гележег
гелер
гели
гелии
гелиосфера
гелкъведаи
гелкъвезваи
геллегь
гелмец
гелхен
гелхенвии
гелхенвияр
гелхенрин
гельбах
гельмец
геметюбе
генани
генгвал
генгвилин
генгеи
генерал
генерала
генералар
генералди
генетик
генетикадин
генже
генжевидин
генжедин
геничутль
генко
генкоди
геннадии
геноцид
генри
генрих
генриха
гента
географ
географии
географические
географическии
географических
географическое
география
географиядалди
географиядикаи
географиядин
геодезия
геокчаи
геоло
геолог
геологар
геология
геологиядин
геологри
геомет
геометрия
геометриядин
георг
георгиевск
георгиевскии
георгии
георгия
георгиян
геофизикадин
геральдикадин
геран
геранбои
герб
герба
гербдал
гербдин
герга
гергебиль
гергентала
гергер
гереи
герек
герекзава
герекзаваи
герен
геренвал
геренвилерин
геренук
герм
герман
германар
германжув
германии
германия
германияда
германияди
германиядиз
германиядин
германиядинни
германиядихъ
германрин
германринбур
герменчик
гернси
герои
героя
герреро
гертма
герхмахи
герц
герцеговина
герценан
герцог
герцогвал
герцогвалар
герцогвилин
герцогди
герцогдин
гехаркуник
гехи
гзаф
гзафарун
гзафбаран
гзафбур
гзафбуру
гзафбуруз
гзафбурун
гзафбуруна
гзафвилерин
гзафвилин
гзафи
гзафмиллетрин
гзафни
гибралтар
гигиена
гигинилаи
гидатли
гидридар
гидрография
гидролиз
гидрология
гидроним
гидростанция
гидросфера
гидротехник
гии
гила
гилалди
гилан
гилани
гилиг
гилигзава
гилигзаваи
гилигна
гилигнава
гилигнаваи
гилигнаи
гилигун
гилигунивди
гилии
гилияр
гильяр
гилян
гималаи
гималаяр
гиман
гиманар
гимандалди
гимеи
гимел
гими
гимидин
гимии
гимиш
гимишдин
гимияр
гимн
гимназия
гимназияда
гимназиядиз
гимназиядин
гимнастика
гимндин
гимры
гиннесса
гинта
гинух
гинухар
гипербола
гипноз
гипнотизер
гипотезаи
гипс
гирдыманчаи
гириш
гиромагнитдин
гисма
гитара
гитарадал
гитарист
гитин
гитис
гишила
гишин
гишинвилин
гия
гиягарамахи
гко
гкои
гл
глава
главная
главного
главное
главныи
главных
главои
главы
глагол
глаголар
глаголдин
глаголрин
глазами
глазуновка
глазуново
глазуновскии
глебово
гли
глинка
глинки
глобал
глобализация
глобальное
глобальные
глобальныи
глобус
глюкоза
гнесинрин
гну
го
гоа
гобустан
говор
говорит
говорить
говорю
говоря
говорят
гог
гоган
гоголь
гоготль
год
года
годобери
годоберии
годоберинскии
годоберияр
годов
годовщине
году
годунов
годы
гои
гол
гола
голар
голдин
голландви
голландия
голландиядин
голль
голни
головин
голос
голоса
голосов
голосование
голосовании
голосования
голосовать
голосует
голосуют
голосующим
голосующих
голотль
голы
гомер
гомес
гондвана
гондурас
гонконг
гонода
гонолулу
гонории
гонсалес
гоор
гор
гора
горах
горда
гордон
гори
горида
горилла
горка
горки
горнозаводск
горнозаводскии
горномарии
горныи
город
города
городах
городище
городов
городские
городским
городских
городского
городское
городскои
горская
горские
горско
горцев
горчица
горы
горькидин
горькии
горького
гос
госдумадин
гослитиздат
госпиталь
гост
гостала
государств
государства
государственная
государственного
государственное
государственнои
государственныи
государственных
государство
гот
готар
готлиб
готов
готовальня
готфрид
гоцатль
гоцоб
гравитация
гравитациядин
градин
градус
градусах
градусник
градусрин
градусы
граждан
гражданвилин
гражданская
граматикадин
грамм
грамматика
грамматикадикаи
грамматикадин
грамматики
грамматическии
граммофон
грамота
гран
гранат
гранде
гранди
границ
границах
границаяр
границы
грановскии
грант
грар
грасия
граф
графа
графвал
графвилер
графвилин
график
графикадал
графикадалди
графикадиз
графикадикаи
графикадин
графин
графрин
графство
грац
граче
грек
грекар
грекарни
грекни
грекри
грекрин
гренада
гренадинар
гренланд
гренландидин
гренландия
греция
грецияда
грециядин
грибоедова
григориан
григорианар
григории
григорисан
григориян
григорьевич
гринвич
грипп
грисбок
грифом
грозного
грозныи
гронинген
гросу
грузии
грузин
грузия
грузияда
грузиядин
групаи
групп
группа
группади
группадиз
группадик
группадин
группадихъ
группаи
группаяр
группе
группировка
группои
группы
грэмми
гу
гуадалупе
гуам
гуаякиль
губ
губахинскии
губден
губернатор
губернаторар
губернатордин
губернии
губерния
губернияда
губерниядик
губерниядин
губкинан
гугарк
гугл
гугурт
гугуртдин
гугуртдихъ
гугъри
гугърияр
гуда
гудаи
гудач
гудермес
гудило
гуж
гужалди
гужлу
гужуналди
гуз
гузава
гузаваи
гузва
гузваи
гузвач
гузвачир
гузвачирвиляи
гукасян
гуладты
гуладтымахи
гулебки
гулли
гульельмо
гум
гумадин
гуманитар
гумбет
гуми
гуммель
гумрагь
гумрамахи
гун
гуналди
гунгар
гунгара
гунзиб
гунзибар
гуни
гуниб
гунибскии
гунивди
гуниз
гуникаи
гунин
гуннамахи
гуннар
гуннри
гунуг
гунугар
гунугин
гунугрин
гунха
гуп
гур
гура
гурар
гурбуки
гургаон
гурж
гуржи
гуржии
гуржистан
гуржистанда
гуржистандин
гуржистандинни
гуржистандихъ
гуржияр
гуржу
гуржуи
гурзуфда
гурии
гурик
гурия
гуриядин
гусаев
гусак
гусеи
гусман
гусмана
густав
гутанг
гутенберг
гутум
гутумрин
гучко
гуьг
гуьгъуьна
гуьгъуьнаваз
гуьгъуьнаи
гуьгъуьнал
гуьгъуьналлаз
гуьгъуьниз
гуьгъуьнилаи
гуьгъуьнин
гуьгъуьнинбур
гуьгъуьнлаи
гуьгьуьл
гуьгьуьллувилелди
гуьгьуьниз
гуьзгуь
гуьзгуьдин
гуьзел
гуьзетмишун
гуьзетнаи
гуьзлемишун
гуьзпарах
гуьи
гуьл
гуьлбес
гуьлгери
гуьлези
гуьлле
гуьллеи
гуьлмегьамед
гуьлмегьамедан
гуьлмегьамедов
гуьлмегьамедова
гуьлнара
гуьлуьн
гуьлуьстандин
гуьлуьтар
гуьмбет
гуьмбетар
гуьнгуьна
гуьндуьзк
гуьне
гуьнеда
гуьнедал
гуьнеди
гуьнедин
гуьнеи
гуьнеяр
гуьрз
гуьрметдаи
гуьрчег
гуьрчекхъан
гуьт
гуьтӏуь
гуя
гфр
гъ
гъавурда
гъазават
гъазиабад
гъаи
гъак
гъал
гъалар
гъалат
гъалатӏ
гъалиб
гъалибар
гъалибвал
гъалибвили
гъалибвилин
гъалибна
гъалибнаваи
гъам
гъамбар
гъамбарди
гъамбардиз
гъамбардилаи
гъамбардин
гъана
гъанаи
гъанах
гъанва
гъанваи
гъаниева
гъаниевади
гъвандик
гъверши
гъвеч
гъвечи
гъвечіи
гъвечӏи
гъебцегь
гъед
гъедер
гъедерин
гъедни
гъеи
гъенел
гъенер
гъенервац
гъери
гъеридин
гъетер
гъетерин
гъетеринни
гъетерхъанвилин
гъетре
гъетрен
гъидаи
гъиз
гъизава
гъизва
гъизваи
гъил
гъиле
гъилелди
гъилер
гъилера
гъилераи
гъилериз
гъилибанар
гъилив
гъиливкхьинар
гъиливкхьинра
гъилиз
гъилик
гъиликаи
гъилин
гъиляи
гъин
гъу
гъугъан
гъугъанар
гъугъанвии
гъугъандал
гъугъанрин
гъул
гъулгъула
гъулцин
гъун
гъуникаи
гъунин
гъур
гъурар
гъурбатда
гъурбатдиз
гъурбатдин
гъуц
гъуцар
гъуцариз
гъуцарин
гъуцран
гъуьгъвез
гъуьгъвезар
гъуьгъвезрин
гъуьгъуьнин
гъуьгъуьнлаи
гъуьл
гъуьлни
гъуьлуьз
гъуьлуьк
гъуьлягъ
гъуьлягъар
гъуьр
гъуьрч
гъуьрчехъан
гъуьрчехъанвал
гъэкъечӏдаи
гымылхъишлах
гь
гьа
гьабиб
гьабибов
гьабибуллагь
гьабрин
гьабрук
гьабрукаи
гьабсбургрин
гьабур
гьабурук
гьабурукаи
гьабурулаи
гьабурун
гьабурухъ
гьава
гьавада
гьавадиз
гьавадин
гьаваи
гьавана
гьаваяр
гьавиз
гьавизда
гьавиздин
гьавизриз
гьавиляи
гьавурда
гьада
гьадаз
гьадаи
гьадалаи
гьадан
гьадахъ
гьадж
гьадждин
гьаджиева
гьадлаи
гьаж
гьажи
гьажиалибег
гьажибег
гьажибегов
гьажибегова
гьажибекова
гьажибугъда
гьажигьатемли
гьажиди
гьажидиз
гьажидин
гьажиев
гьажиева
гьажиеван
гьажиисауба
гьажикъулиев
гьажикьабул
гьажикӏа
гьажимет
гьажимурад
гьажимурадан
гьажимурадов
гьажимурат
гьажияр
гьазур
гьазурвилер
гьазурдаи
гьазурзава
гьазурзаваи
гьазуриз
гьазурна
гьазурнаваи
гьазурун
гьазурунин
гьаи
гьак
гьаким
гьакимар
гьакиматди
гьакиматдин
гьакимвал
гьакимвилин
гьакимри
гьакимрикаи
гьакимрин
гьакъикъат
гьакъикъатда
гьакъикъатдани
гьакъикъатдив
гьакъикъатдин
гьакъикъи
гьакъиндаи
гьакъисагъ
гьакьар
гьакьарзаваи
гьакьван
гьакьзава
гьакӏ
гьакӏа
гьакӏан
гьакӏани
гьакӏни
гьал
гьалаи
гьалар
гьалара
гьалараи
гьалариз
гьаларикаи
гьаларин
гьалда
гьалдаи
гьалдив
гьалдиз
гьалдикаи
гьалдин
гьалзава
гьалзаваи
гьализ
гьалкъа
гьалкъаяр
гьална
гьалнаваи
гьалнаи
гьални
гьалра
гьалт
гьалтаи
гьалтда
гьалтдаи
гьалтзава
гьалтзаваи
гьалтзамачаз
гьалтиз
гьалтна
гьалтнава
гьалтнаи
гьалтун
гьалтунин
гьалун
гьалуниз
гьалунин
гьам
гьамам
гьамамар
гьамамриз
гьамамрин
гьамбархана
гьамбарханадин
гьамбарханаи
гьамбарханаяр
гьамбург
гьамза
гьамзатан
гьамзатов
гьамзатован
гьамзатрин
гьамид
гьамидан
гьамидов
гьамиша
гьамишалух
гьамишан
гьамни
гьана
гьанаи
гьаниз
гьанлаи
гьанс
гьапут
гьапутар
гьапутлу
гьапутрин
гьапшима
гьар
гьараи
гьарам
гьарарат
гьарда
гьардаз
гьари
гьарисан
гьарнихъ
гьарри
гьарун
гьарф
гьарфар
гьарфаралди
гьарфарикаи
гьарфарин
гьарфуналди
гьарфуникаи
гьарфунлаи
гьасан
гьасана
гьасанан
гьасанов
гьасанова
гьасанован
гьасил
гьасилдаи
гьасилзава
гьасилзаваи
гьасилун
гьасилунин
гьасрет
гьасятда
гьат
гьатаи
гьатдаи
гьатзава
гьатзаваи
гьатиз
гьатна
гьатнава
гьатнававиляи
гьатнаваи
гьатнавач
гьатнаи
гьатта
гьаттаб
гьатунин
гьафте
гьафтеда
гьафтедин
гьахъ
гьахъвал
гьахъвилин
гьахълу
гьахъсузвилер
гьахъсузвилерикаи
гьахь
гьахьаи
гьахьдаи
гьахьзава
гьахьиз
гьахьна
гьахьнаваи
гьахьнаи
гьахьтин
гьахьун
гьахьунин
гьашарат
гьашаратар
гьашаров
гьашим
гьая
гьаят
гьверши
гьевенг
гьевес
гьевесдалди
гьевескаррин
гьезерчи
гьеи
гьеким
гьекь
гьелбетда
гьеле
гьелелиг
гьелени
гьелии
гьемзет
гьемзетов
гьемпшир
гьер
гьердиз
гьерекат
гьерекатар
гьерекатда
гьерекатдин
гьерен
гьерцеговина
гьерцеговинадин
гьесенкъеле
гьефер
гьефери
гьеч
гьи
гьидроген
гьидрогендин
гьижра
гьиз
гьик
гьикая
гьикаяи
гьикаяр
гьикаят
гьикаятар
гьикаятдин
гьикаятчи
гьикаяяр
гьикьван
гьикӏ
гьил
гьилерин
гьилпе
гьилуба
гьималаяр
гьина
гьинаи
гьинд
гьинди
гьиндистан
гьиндистандин
гьиниз
гьис
гьисаб
гьисаба
гьисабаи
гьисабдаи
гьисабдал
гьисабдалди
гьисабдиз
гьисабдик
гьисабдикаи
гьисабдин
гьисабзава
гьисабзаваи
гьисабзваи
гьисабиз
гьисабна
гьисабнаваи
гьисабнаи
гьисабрин
гьисабун
гьисабунар
гьисабунин
гьисабунралди
гьисс
гьиссер
гьиссерив
гьитлер
гьихьтин
гьихьтинди
гьич
гьлаь
гьольштаи
гьольштеи
гьу
гьужет
гьужетар
гьужум
гьужумдаи
гьужумдикаи
гьукум
гьукумат
гьукуматар
гьукуматардин
гьукуматарни
гьукуматвилин
гьукуматда
гьукуматдаи
гьукуматдал
гьукуматди
гьукуматдиз
гьукуматдик
гьукуматдин
гьукуматдинди
гьукуматдинни
гьукуматдихъ
гьукуматни
гьукуматра
гьукуматралди
гьукуматри
гьукуматриз
гьукуматрик
гьукуматрикаи
гьукуматрин
гьукуматрихъ
гьукумвал
гьукумдал
гьукумдар
гьукумди
гьукумдиз
гьукумдик
гьукумдикаи
гьукумдин
гьулдан
гьулдандин
гьулуьз
гьулуьн
гьумбет
гьумьбет
гьунар
гьурмет
гьурметдин
гьусеи
гьуссеи
гьуш
гьуьжет
гьуьжетар
гьуьжетдин
гьуьжетрин
гьуьжре
гьуьжреда
гьуьл
гьуьлдин
гьуьле
гьуьлел
гьуьлелаи
гьуьлер
гьуьлера
гьуьлерал
гьуьлерилаи
гьуьлерин
гьуьлерихъ
гьуьлуь
гьуьлуьв
гьуьлуьз
гьуьлуьк
гьуьлуькаи
гьуьлуьн
гьуьлуьнни
гьуьлуьхъ
гьуьлуьхъан
гьуьляи
гьуьрият
гьуьрмет
гьуьрметдаи
гьуьрметдалди
гьуьрметдин
гьуьрметлу
гьуьсеи
гьяд
гьяддиз
гьял
гьялна
гьялун
гьяркьу
гьяркьувал
гьяркьуь
гьяркьуьвал
гьяркьуьвалра
гьяркьуьвилел
гьяркьуьвилив
гьяркьуьвилин
гьяркьуьвилихъди
гэлакси
гэри
гэс
гэсар
гюго
гюлистан
гюльмагомедов
гюхряг
гянджа
гянжа
гӏакуьмет
д
да
дабакь
дабан
дав
дава
даваи
давам
давамарда
давамарзава
давамарзаваи
давамариз
давамарна
давамарнаваи
давамарнаи
давамарун
давамзава
давдакь
давдакьан
давид
давидан
давидович
давление
давно
давуд
давуда
давудан
давыдово
даг
дагбаш
даггиз
дагдизель
дагест
дагестан
дагестана
дагестане
дагестанская
дагестанские
дагестанскии
дагестанских
дагестанского
дагестанское
дагестанскои
дагиров
дагучпедгиз
дагцик
дагъ
дагъви
дагъдин
дагълар
дагълара
дагълараи
дагъларин
дагъустадин
дагъустан
дагъустанви
дагъустанвии
дагъустанвияр
дагъустанда
дагъустандаваи
дагъустандаи
дагъустандал
дагъустандани
дагъустанди
дагъустандиз
дагъустандин
дагъустандинни
дагъустандихъ
дагъустанрин
дагьустан
дагьустандин
дагэлектромаш
дад
дада
дадал
дадалди
дадиани
дадиз
дадик
дадикаи
дадин
дадлух
дадмишун
дае
даев
даже
даз
даи
даим
даир
дак
дакаи
дакар
дакка
даккада
даккадин
дакота
дакӏан
дакӏар
дакӏур
дал
далагь
далаи
далгата
далдам
далдамар
далдамхъан
далди
далее
дали
даллал
далу
далыкъая
дальнего
дальше
дам
дамар
дамарар
дамаск
дамах
дамахар
дамахзава
дамбаяр
дамвал
дан
дана
данар
данда
дандаи
дандал
данди
дандиз
дандик
дандикаи
дандилаи
дандин
данелия
данелияди
дани
данилов
даниловское
даниэль
дания
данияди
даниядин
даниядинни
даниял
данная
данного
данное
даннои
данном
данному
данные
данныи
данным
данных
данра
данское
данте
дантеса
данух
даосизм
дапур
дар
дарабад
дарада
дарамат
дараматар
дараматда
дараматри
дараматрикаи
дараматрин
дарваг
дарвагчаи
дарвин
дарвишаи
дарг
дарган
дарги
даргии
даргинскии
даргинского
даргияр
дарго
дардархуьр
дарк
дарман
дарманар
дармандин
дарманри
дарманрин
дарманрихъ
дарманхана
даров
дарова
дарьял
дасмал
дасср
дассрдин
даст
дасхуьруьнви
дат
дата
дату
датуна
датч
даты
дать
датӏана
дауд
дафтардин
дах
дахада
дахадаева
дахар
дахдиз
дахдин
дахо
дахрин
дахъ
дахьаи
дача
даш
дашагъыл
даши
дашкесан
дашнакрин
даяр
даях
два
дважды
две
движение
движением
движения
движка
движке
движок
двии
двина
двои
дворец
дворецда
дворы
дворян
дворянрин
двул
двумя
двух
двуязычие
двуязычия
дгу
дгьу
дд
ддт
де
дебаи
дебед
дебернардидин
дебют
дев
деве
девебатан
деведин
девердин
девечи
девеяр
девиз
девир
девирар
девирда
девирдал
девирдани
девирдиз
девирдикаи
девирдилаи
девирдин
девирра
девирриз
девиррин
девлет
девлетар
девлетлу
девлетлубур
девлетлувал
девлетлуди
девлетлуи
девоншир
девран
девяти
девять
дегва
дегиш
дегишардаи
дегишарзаваи
дегишарна
дегишарнаваи
дегишарнаи
дегишвилер
дегишвилери
дегишвилерин
дегишзава
дегишна
дегишрун
дегишун
дегь
дегьвал
дегьвилин
дегьлиз
дегьне
дегьневал
дегьневилел
дегьнедаи
дегьнеи
дегьре
дегьчӏаван
дедели
дежурныи
дез
дезге
дезертир
деи
декабрдал
декабрдиз
декабрдилаи
декабрдин
декабристрин
декабрь
декабрьда
декабрьдиз
декабрьдихъ
декабря
декады
декан
декламация
деклара
декларация
декора
декрет
декьикьа
декьикьадал
дел
дела
делавэр
делает
делается
делам
делами
делать
деле
делегат
делегация
деление
делении
деления
дели
делил
делилар
делилраи
делилралди
делилри
делилриз
деличобан
делла
дело
деловои
делфин
дель
дельта
дельтада
демирар
демобилизация
демографическии
демография
демографиядин
демократ
демократизм
демократик
демократия
демократиядин
демонстрация
демоскоп
ден
дена
денаи
дене
деникин
деникинан
день
департамент
департамента
департаментар
департаментди
департаментдин
депо
депортация
депортациядилаи
депрессии
депрессия
депутат
депутатар
депутатвиле
депутатдин
депутатов
депутатрин
дер
дербенд
дербент
дербента
дербентда
дербентдиз
дербентдилаи
дербентдин
дербенте
дербентские
дербентскии
дербентского
дервиш
дервишаи
дерди
дере
деревня
дереда
дередин
дережа
дережада
дережадал
дережадив
дережадиз
дережадикаи
дережадилаи
дережадин
дережаи
дережаяр
дереи
дерин
деринвал
деринвилер
дериндаи
дерт
десте
дестедин
дестек
дестеяр
десятилетия
десятичном
дет
детали
детеи
дети
детрои
дефис
дехме
дециметр
дешериев
деятель
деятельности
деятельность
дж
джабаль
джавагьарлал
джаванкент
джавахети
джаджар
джаи
джакарта
джалган
джалма
джамбои
джамбул
джамбулатован
джамна
джан
джана
джангамахи
джандин
джане
джанец
джанская
джанскии
джанских
джанскои
джанском
джану
джанцев
джанцы
джар
джафаров
джеи
джем
джембои
джемикент
дженгутаи
джеррарда
джеррарди
джерси
джибути
джилихуьр
джин
джинаби
джиных
джиорс
джипар
джо
джованни
джозефина
джои
джокович
джомолунгма
джон
джона
джордж
джорджия
джоржтаун
джуан
джуанг
джугут
джузеппе
джули
джульджаг
джульярд
джунгар
джуфудагъ
дзава
дзаваи
дзержинское
дзин
дзинпо
дзонг
дзонгхагдин
дзор
дзорагет
дзюдо
дзюдодаи
дзюдоист
ди
диабет
диабетдин
диаграмма
диалект
диалектдик
диалектов
диалектологии
диалекты
диалог
диаметр
диаспора
диаспораяр
диб
дибар
дибвилин
дибгалик
дибгаши
дибда
дибдикаи
дибдин
дибчилин
див
диваи
диван
дивани
дивизии
дивизион
дивизионда
дивизиондин
дивизия
дивизияда
дивизияди
дивизиядин
дигагь
диге
дигедиз
дигидаи
дид
диде
дидед
дидеди
дидедиз
дидедин
дидедихъ
дидеи
дидени
дидо
дидои
дидояр
диего
диз
дизаи
дизахлы
диин
дик
дикаи
диклосмта
дикобраз
диктант
диктатор
диктату
диктатура
диктор
дикъет
дилаи
дилбер
дили
дилчу
дин
дина
динамика
динамо
динамодин
динар
династия
династиядаи
династияди
династиядиз
династиядин
дингер
динго
динда
диндаи
диндал
диндар
диндаррин
динди
диндиз
диндик
диндикаи
диндилаи
диндин
диндинни
диндихъ
дини
динни
динрин
динэгьли
диплом
дипломат
дипломатиядин
дипломдалди
директива
директор
директора
директорар
директорвал
директорвиле
директордин
директоррин
дириже
дирижер
дирин
диринвал
дирр
дирра
дис
диск
дискография
дискуссии
диснеи
дисс
диссертаци
диссертация
диссертацияда
диссертацияр
дисциплинаяр
дите
дитрих
дифференциал
дихъ
дишегьли
дишегьлидин
дишегьлии
дишегьлияр
диши
дишиди
дишии
дияр
дка
длаи
длина
длину
длится
для
дмитриевич
дмитриевка
дмитриевна
дмитриевскии
дмитрии
дмитриян
дмитровск
дмитровскии
дна
дневник
днеи
днепр
днепрдин
дни
днц
дня
до
добавил
добавить
добавляет
добавлять
добавьте
добро
добровольно
добровольскии
доброго
добруджа
добрые
добрыи
добрыня
добрянскии
доведе
довести
доводить
довольно
договор
дои
док
доклад
доктор
доктора
докторар
докторвилин
доктордин
доку
докуз
докузпаринскии
докузпаринского
документ
документа
документар
документах
документации
документация
документов
документра
документраи
документрин
докъузпара
докъузпарадин
долгое
долгота
долготы
должанскии
должен
должна
должно
должность
должны
долина
долинади
доллар
доломит
дом
дома
домен
доминго
доминика
доминикадин
домино
домкрат
домодедово
дон
донбасс
дондин
донецк
донскои
дону
доп
дополнение
дополнительного
дополнительную
дополнительные
дополнительных
допускает
допускаются
допустимые
дор
доработки
доргели
дорни
доров
дорович
доровка
дороги
дорогушеи
дортмунд
дору
доска
достаточно
достоевскии
достоевского
доступен
доступных
дотягивает
дофин
доха
доход
доцент
др
дра
драм
драма
драмадин
драматург
драматургар
драматургия
драматургиядин
драмкружок
драп
древнего
древнеи
древнии
древняя
дрезден
дреи
дрк
дробь
дроздов
друг
другая
друге
другие
другим
другими
других
другое
другои
другом
другу
другую
дружба
дружинник
друзья
дсср
ду
дубаи
дубки
дублин
дубна
дубовая
дубовик
дубрава
дубримахи
дубровка
дуброво
дубровское
дуван
дуванар
дуванбег
дувандин
дуванхана
дуванханадин
дуванханаи
дуванханаяр
дувул
дувулар
дувулрикаи
дугун
дугуна
дугунал
дугунар
дугунда
дугундал
дугундин
дугунин
дугунриз
дугурнаи
дугъри
дудергофдин
дуи
дукъузпара
дукъузпарадин
дуланажах
дулдугскии
дулдугъ
дулдурма
дуллагь
дулма
думадиз
думадин
думал
думаю
думов
думы
дун
дунаи
дунбег
дунг
дуньядин
дуранги
дуркӏунрин
дурна
дуружа
дуруштул
дусахриз
дусрах
дуст
дустагъ
дустагъда
дустагъра
дустар
дустариз
дустарин
дустарихъ
дуствал
дуствилин
дустуниз
духтур
духтурар
духтурдин
духтурриз
духтуррин
душман
душманар
душманвал
душманди
душмандиваи
душмандиз
душмандикаи
душмандин
душманрикаи
душманрин
душманрихъ
дуьа
дуьгме
дуьгуь
дуьз
дуьзар
дуьзвал
дуьздаказ
дуьздал
дуьздиз
дуьзен
дуьзендал
дуьзлер
дуьм
дуьнеда
дуьнедин
дуьнья
дуьньяда
дуьньядаи
дуьньядал
дуьньяди
дуьньядиз
дуьньядикаи
дуьньядилаи
дуьньядин
дуьньядинни
дуьнядиз
дуьнядин
дуьрдуьнжуь
дуьрер
дуьшлуьк
дуьшуьш
дуьшуьшарни
дуьшуьшдик
дуьшуьшра
дуэль
дуэльдиз
дылым
дыры
дышнинскии
дье
дьяконов
дьяконова
дэ
дэвид
дэн
дюбек
дюма
дюнья
дюньядин
дюсш
дяве
дявевилин
дявед
дяведа
дяведаи
дяведал
дяведалди
дяведани
дяведар
дяведарар
дяведиз
дяведик
дяведикаи
дяведилаи
дяведин
дявединни
дявеи
дявени
дяверин
дявеяр
е
ебиат
ебиатдикаи
ебиатдин
ебии
ебиятдин
ев
евал
евгении
евгения
еви
евиз
евилик
евклид
евлах
евразида
евразии
евразия
евразияда
евразиядин
евреи
евро
евровидение
еврогалк
евродин
европа
европавии
европавияр
европада
европадаи
европадал
европадани
европадиз
европадизни
европадилаи
европадин
европадинни
европани
европе
европеи
европеоид
европоид
европы
евфронан
ег
егвинское
египет
египетвии
египетдин
его
егорлык
егъерхъан
егь
егьвилив
егьрен
един
единая
единиц
единица
единицы
единогласно
единои
единственныи
единыи
едисан
ее
ежегодник
ежедневных
ежемесячно
езидар
езне
еи
еирид
еиридлагьаи
ек
екар
екатеринади
екатеринбург
екатериновка
еке
екебур
екевал
екевиляи
ел
елаи
елгава
елдаи
елди
еле
елегуьн
елед
елеи
елена
елены
елзаваи
елиз
елизавета
елизаветполь
елкендин
елна
елнава
еловскии
елун
елунар
елунин
ельское
ем
емен
емиш
емишар
емишрин
ему
емуьжуьд
емуьжуьдлагьаи
ен
енвал
енвилер
ендаказ
ени
енин
енисеи
енот
ео
епархиальные
епархиядиз
епископ
епископал
епископар
ер
ера
ерал
ергуьж
ергуьжар
ергуьжрин
ереван
ереванда
еревандин
ерет
ери
еридиз
еридин
ерин
ерли
ермолова
ермолован
ерси
ес
есир
есирар
есирвиле
есирда
если
есть
ет
етим
етима
етнічна
ефимовка
ефрона
ефронан
ехи
ехибритания
ехибританияда
ехибританиядин
ехибур
ехивал
ехивилел
ехивилиз
ехиди
ехуьл
ехуьлуба
ехуьр
ехуьре
еще
ея
ж
жабраил
жабраилан
жабраилов
жаваб
жавабвилиз
жавабдар
жавабдарвал
жавагьир
жавагьирар
жаваншир
жавид
жагъаи
жагъана
жагъанаи
жагъанва
жагъанваи
жагъанвач
жагъур
жагъурзава
жагъурзаваи
жагъуриз
жагъурна
жагъурнава
жагъурнаваи
жагъурнавач
жагъурнаи
жагъурун
жагъурунар
жагъурунин
жагъурунраи
жагъурунри
жагъурунрин
жаза
жазадин
жазаяр
жак
жакет
жал
жалгъан
жалилабад
жалилов
жалилова
жаллатӏ
жамал
жамалдин
жамалдинан
жамидина
жамиля
жан
жанаби
жанавур
жанавурар
жаназа
жанар
жанари
жанариз
жанарилаи
жанарин
жанаринни
жанарихъ
жанарни
жанахир
жанви
жанвияр
жанда
жандаи
жандал
жанди
жандиз
жандин
жандинни
жандихъ
жанеи
жанна
жанни
жанр
жанраи
жанрар
жанрдин
жанри
жанриз
жанрикаи
жанрин
жар
жаррагьа
жаруллагь
жасад
жасус
жданова
же
жегьеннем
жегьил
жегьилар
жегьилвал
жегьилвилин
жегьилди
жегьилзамаз
жегьилри
жегьилриз
жегьилрин
жегьре
жеда
жедаи
жедалди
жедат
жедач
жедачир
жеди
жез
жезава
жезаваи
жезва
жезваи
жезвач
жезвачир
жезмаи
жеи
жек
жекар
жекни
жекрин
желательно
желаю
желающие
желб
железнодорожная
железнодорожнои
железнодорожныи
железные
жем
жемикент
жемият
жемиятар
жемиятда
жемиятдиз
жемиятдик
жемиятдин
жемиятдинни
жемиятрикаи
жемиятрин
жемят
жемятар
жемятда
жемятди
жемятдиз
жемятдик
жемятдин
жемятдинни
жемятрин
жен
женг
женгдаррин
женгер
женгера
женгериз
женгерин
женгина
женгиниз
женгинилаи
женгинин
женгчи
женгчии
жендек
женева
женжел
женнет
женнетдин
жераи
жерге
жергеда
жергедик
жергедин
жергеи
жергеяр
жердаваи
жерме
жермедаи
жерягь
жеч
жзл
жибин
жив
живе
живедин
живер
живери
живописныи
живопись
животные
животных
живут
жигер
жигерар
жигеррин
жигъираи
жигъирарни
жигьет
жигьетдаи
жигьетраи
жигьиз
жида
жизви
жизни
жизнь
жик
жил
жилд
жимжимах
жими
жин
жинс
жинсерин
жинсиниз
жинсиникаи
жинсинин
жирасан
жителеи
жители
жозе
жозеф
жохар
жув
жува
жуваз
жуван
жувар
жуввал
жугъурзаваи
жугъурна
жугъурун
жугъурунрин
жугьури
жузунаи
жуков
жуковскии
жум
журе
журнал
журнала
журналар
журналда
журналди
журналдиз
журналдин
журнале
журналист
журналистар
журналистика
журналистикадин
журналистни
журналистрин
журналра
журналриз
журналрин
жуьльян
жуьме
жуьмя
жуьмядиз
жуьре
жуьреба
жуьревал
жуьревилив
жуьревилиз
жуьреда
жуьредаи
жуьредиз
жуьредикаи
жуьредин
жуьрединбур
жуьрединди
жуьреи
жуьреяр
жуьрэт
жуьрэтвал
жуьт
жьуре
жюри
жюридин
з
за
забаи
забастовка
забгпу
забит
забитан
забитов
забитого
заблокировать
заборье
забываи
забыт
зава
заваи
завал
заведиш
заведующии
завершится
зависимости
завод
заводар
заводда
заводди
заводдин
заводри
заводская
завтра
завут
завуч
загиров
заглавие
заглавия
заглавнои
заглавную
заголовка
заголовки
заголовков
заголовок
заготовка
загреб
задавал
задае
задана
заданного
задано
задать
задаются
заде
задеи
зажигает
заз
заи
заимствование
заимствовании
заира
закавказье
заказник
закат
закатала
закаталадин
закон
закона
законов
законченности
закончилось
законы
закрывать
закрыта
закрытие
закъатала
зал
залан
заланвал
заланвилин
заланди
залда
залдик
залегощенскии
залегощь
залив
заливар
заливда
заливдиз
заливдин
заливка
заливрин
залогиниванию
залогиниться
залум
зальцбург
зам
заман
замана
заманада
заманадин
заманаи
заманарилаи
заманда
замандин
заманра
заманрилаи
замбия
замбиядин
заменил
заменить
замену
заместител
заместителвиле
заместитель
заместительвиле
замин
замир
заммер
замыкает
заната
зангезур
заниматься
зао
заозерье
западная
западного
западнои
западныи
запасар
записеи
записи
записка
записки
записывается
запись
записью
заповедник
заполненности
заполнив
заполнить
заполняется
заполье
запорожье
запрос
запроса
запросы
запун
зара
заработал
заработало
зарар
зарафат
зарб
зарбвал
зарбвилиз
зарбвилин
заргар
зарезервирован
зарезервировано
заречная
заречье
зари
зариди
заридиз
заридин
зарии
зарини
зарияр
зарият
зариятда
зариятдин
зарубежных
заря
заряд
заседаниедал
заслуги
зат
затем
зато
затор
затӏ
затӏар
затӏарал
затӏарив
затӏариз
затӏарикаи
затӏарин
затӏаринни
затӏарихъ
затӏарни
затӏни
затӏунин
захаров
захит
заходят
захъ
заче
зачем
заявка
заявки
заявку
заявление
заявлении
заявления
заявок
зва
зваи
звание
зве
звезда
здесь
здныи
здочкои
здравствуи
зебра
зеведиш
зегьем
зегьемвал
зегьер
зегьмет
зегьметар
зегьметдал
зегьметдалди
зегьметдикаи
зегьметдин
зегьметрин
зегьметхъанрин
зегьметчи
зегьметчии
зеи
зек
зеландия
зеландиядин
зеле
зеленоморск
земли
земля
зенах
зер
зердаб
зеркало
зерре
зи
зибил
зибирхали
зигмунд
зигьин
зид
зидьян
зиза
зизик
зикир
зилдик
зиллет
зило
зиль
зильбачи
зильмукмахи
зимбабве
зинданмуругъ
зирдаг
зито
зия
зияда
зиян
зиянар
зиярат
зияратдин
зияудин
змие
знает
знак
знака
знал
знаменка
знаменскии
знаменское
знамя
знание
знании
знания
знать
значение
значении
значения
значениями
значит
значительно
значки
значок
знаю
знают
знающии
зове
зовка
зовскии
зовское
золотая
золото
золотои
зона
зонада
зонадаи
зонадиз
зонадин
зонаи
зонаяр
зонд
зоны
зороастризм
зрения
зрых
зс
зсфср
зтӏар
зтӏарикаи
зубаи
зубанчи
зубутли
зугдиди
зугьрабхуьр
зугьрабхуьруьнжемятдик
зудин
зуево
зул
зулал
зулар
зуларал
зуларикаи
зулу
зулуз
зулумар
зулумат
зулумдикаи
зулумрикаи
зулун
зулухъаи
зулфикъаров
зуль
зун
зунни
зур
зураб
зуралаи
зурба
зурбадаказ
зурбади
зурзун
зурзунар
зурзунрилаи
зурзунрин
зуростров
зуростровар
зуростровда
зуростровдал
зуростровдиз
зуростровдин
зуростровдинни
зуростровдихъ
зуростроври
зуртухудаи
зурхуьдаи
зырян
зюкаи
и
иа
иб
ибадат
ибадатдин
ибадатхана
ибан
ибарат
ибаратдик
ибаратдикаи
иберии
иберия
ибериядин
иберни
ибил
ибн
ибне
ибнедиз
ибо
ибрагим
ибрагимов
ибрагимотар
ибрагьим
ибрагьиман
ибрагьимов
ибрагьимова
ибур
ибуру
ибуруз
ибурукаи
ибурулаи
ибурун
ив
ивал
иван
ивана
иванан
иванов
иванова
иванован
иванович
ивановка
иваново
ивановскии
ивановское
иви
ивигар
ивидаи
ивидик
ивидин
ивилер
ивили
ивиляи
ивин
ивиндин
ивияр
ивка
ивуар
игали
игин
игинвал
игинвилелди
игинвилин
игиндаказ
игиндиз
игит
игнасио
игнорируются
игорь
игр
играми
играх
игрок
игры
игуасу
игъ
игъир
игъирар
игъирра
игъиррин
игь
игьирар
игьиржал
игьиржалрин
игьсан
игьтияж
игьтияжар
игьтияжриз
игьтият
игьтиятар
ид
ида
идаваи
идаз
идаи
идаказ
идакаи
идалаи
идалди
идальго
идан
идар
идара
идарада
идаради
идарадин
идараи
идараяр
идатӏа
идахъ
иде
идентификатор
идентификатора
идеология
идеологиядин
идея
иди
идилаи
идин
идлаи
идликенти
идмет
идрис
идрисан
идрисуба
идти
идут
иеговадин
иена
иер
иервал
иервили
иердаказ
иероглифар
иерусалим
иеси
иесивал
иесии
иесияр
ижара
ижир
ижирди
из
изабелла
изава
изаваи
изано
избежание
избербаш
избербашдин
избирательных
избирателя
избран
избрания
избранная
избранное
избраннои
избранные
избранных
изва
изваи
известия
известно
известны
извинения
извинился
извините
изд
издание
издании
издания
изданные
издательская
издательскии
издательство
издательствода
излучение
изменение
изменении
изменения
изменениях
изменится
изменить
измерения
измир
изначально
изобр
изображение
изображением
изображении
изображения
изобретатель
изотопдин
израилдин
израиль
израильдин
изучения
ии
иисус
иисусан
ик
ика
икаи
икбал
ике
икинджи
икра
икрагь
икрам
икъа
икъал
икъалаи
икъалди
икъан
икъар
икъара
икъаралди
икъарани
икъарив
икъарин
икърар
икь
икьван
икьвед
икьведлагьаи
икьрар
икьрарар
икьрардалди
икьрардив
икьрардиз
икьрардин
икьраррин
икьуд
икьудлагьаи
икӏ
икӏа
икӏни
ил
ила
илани
илвал
илгьам
илгьамдин
илдегизидрин
или
илиада
иливрун
илим
илимар
илимда
илимдал
илимдар
илимди
илимдиз
илимдик
илимдин
илимдинни
илимра
илимраи
илимрал
илимри
илимриз
илимрин
илимрихъ
илису
илисудин
илисуи
илисун
илифаи
илихъ
илихъар
илл
иллаки
иллинои
иллюстрация
илхичи
илчи
иль
ильинскии
ильинское
ильич
ильти
илья
им
имам
имама
имаман
имамар
имамат
имаматдин
имамдин
имамрин
иман
имани
имарат
имаратар
имаратрин
име
имеет
имеется
имел
имели
имена
именем
имени
именно
именование
именовании
именования
именовать
имерети
имеретия
имеретиядин
иметь
имею
имеют
имеющие
имжин
ими
имидин
имил
имишли
иммануил
иммигрантар
иммигрантрин
имни
импала
император
императорар
императорди
императордиваи
императордиз
императордин
императординни
императорри
императорриз
императоррин
императорское
императрица
импердиядин
империализм
империи
империя
империяда
империяди
империядиваи
империядиз
империядик
империядикаи
империядин
империядихъ
империяни
империяр
импорт
имтигьан
имтук
имунныи
имэмо
имя
ин
ина
инаг
инаи
инал
иналук
инанмишзаваи
инар
инарзава
инарзаваи
инариз
инарна
инарнаваи
инарнаи
инарнариа
инарнаэрменистан
иначе
инвалид
инвестиции
инг
ингердах
ингилис
ингилои
ингиши
ингл
инглис
инглисрин
ингури
ингуш
ингушар
ингушетия
ингушетиядин
ингушри
ингушрин
ингье
ингьул
ингьулдин
инд
индеи
индекс
индексар
индексарбанк
индии
индин
индира
индия
индияда
индиядаи
индиядин
индиядихъ
индоарии
индоевропадин
индокитаи
индонезия
индонезиядин
индонезиядинни
индостандин
индуизм
индустриал
индустрия
индустрияда
индустриядин
инесса
инженер
инженервиле
инженердин
инженериядин
инжил
инзимахи
ини
инид
иниз
инин
инит
инихъ
инициативе
инияр
инк
инка
инкар
инкарвилин
инкубаторе
инкъилаб
инкъилабдилаи
инкъилабдин
инкъилабчи
инлаи
иногда
иностранных
инс
инсан
инсанар
инсанвилин
инсандал
инсанди
инсандиз
инсандин
инсандинни
инсандихъ
инсаният
инсаниятдин
инсанри
инсанриз
инсанрикаи
инсанрин
инсанрихъ
инсаф
инсбрук
инспектор
институт
института
институтар
институтда
институтди
институтдиз
институтдик
институтдин
институтни
институтра
инструктор
инструкторвиле
инструкция
инструмент
инструментрин
интеллигенция
интервик
интервиками
интервики
интервью
интересар
интересные
интерконтиненталдин
интернат
интернационал
интернационала
интернационалдин
интернационале
интернет
интернетда
интернетдиз
интернетдин
интерфеи
инуит
инуктитут
инфекция
инфо
инфокутија
информатика
информациеи
информации
информационного
информационные
информационныи
информацию
информация
информациядин
инфраструктура
инфратуьк
инфратуькӏуьрун
инфратуькӏуьрунар
инхело
инхо
инхоквари
инчха
инчхон
иньвенское
инюпиак
иоана
иоанн
иоганн
иогьанн
ион
иондин
ионрин
иордания
иосиф
ип
ипуд
ипудлагьаи
ипута
ир
ирак
иракдин
ираклии
ирам
иран
иранви
иранвии
иранвияр
иранда
ирандаи
иранди
ирандиз
ирандин
ирандихъ
иранизмаяр
ирар
ирганаи
иргъ
иргъер
иргъини
иргъинилаи
иргъинин
ирдиз
ирел
ирен
ирер
ирериз
ири
ириб
ирид
иридвишни
иридлагьаи
иридра
ирин
иркутск
иркъулууба
ирл
ирланд
ирландия
ирландиядин
ирни
ирс
ирсдар
ирсинин
иртижи
иртыш
иругуд
иругудлагьаи
ирчи
ис
иса
исаак
исабелино
исав
исаврии
исадин
исаев
исаева
исаз
исаи
исакьов
исал
исалаи
исалди
исан
исандаваи
исандиваи
исани
исанни
исар
исара
исарал
исаралди
исарани
исардиз
исариз
исарикаи
исарилаи
исарин
исарра
исаррин
исат
исинбаева
исинбаевадин
искажения
искандер
искать
искендеров
иски
исключение
исключительно
искра
искусства
искусство
искусстводин
искусствои
исла
ислагьвилин
ислам
исламдин
исламе
исландия
ислендиз
ислягь
ислягьвал
ислягьвилелди
ислягьвилин
исмаил
исмаилан
исмаилдин
исмаилли
исмаиллы
исмаилов
исмаилова
исни
исп
испан
испанар
испанви
испанвии
испанвияр
испаниадин
испании
испания
испаниявии
испанияда
испанияди
испаниядиз
испаниядин
испаниядинни
испаниядихъ
испанри
испанрин
испанринни
испик
испикрин
испир
исполкомдин
исполнительнои
использовался
использован
использование
использовании
использованию
использования
использовать
использоваться
используемых
использует
используется
используи
используют
используются
использующих
используя
исправить
исправьте
исрафилрин
исскустводин
исследование
исследовании
исследования
ист
истамбул
истамбулда
истамбулди
истамбулдин
истисмар
истису
истлан
исток
истока
истории
историко
историческая
исторические
историческии
исторических
историческое
историческои
история
источник
источника
источниками
источнике
источники
источников
исуз
исузни
исун
исчезновения
исятда
исятдани
ит
итал
италии
италия
италияда
италиядал
италияди
италиядиз
италиядин
италиядихъ
италияни
итальян
итальянви
итальянвии
итальянская
итар
итемрин
итим
итимар
итимвал
итимдал
итимди
итимдин
итимри
итимриз
итимрин
итог
итогам
итогах
итоги
итогов
иттифакь
итту
итум
итӏа
итӏани
иудаизм
иудаизма
иудаизму
иудеи
иудеяр
иф
ифа
ифади
ифадиз
ифадикаи
ифадин
ифаи
ифариз
ифарикаи
ифаяр
ифеи
ифен
иферар
ифиз
ифин
ифлис
ифлисда
ифлисдин
их
иха
ихвал
ихвилер
ихвилиз
ихилов
ихилова
ихлу
ихлувилин
ихрек
ихтибар
ихтии
ихтилат
ихтилатар
ихтияр
ихтиярар
ихтиярда
ихтиярдалди
ихтиярдиз
ихтиярдик
ихтиярдин
ихтиярни
ихтияррин
ихуьр
ихъ
ихьтин
ихьтинбур
ихьтинди
иц
ицари
ици
ицӏи
ич
ичер
ичерин
ичин
ичичали
ичкерия
ичӏи
ичӏивилер
ичӏизва
иш
ишара
ишат
ишатар
ишатда
ишатдал
ишатди
ишатдин
ишатдинни
ишатра
ишатриз
ишатрин
ишдин
ишел
ишемишзава
ишкарты
ишлемишдаи
ишлемишзава
ишлемишзаваи
ишлемишиз
ишлемишна
ишлемишун
иштагь
иштараквал
иштирак
иштиракаи
иштираквал
иштиракдалди
иштиракдар
иштиракзава
иштиракзаваи
иштиракна
иштиракнаваи
иштиракнаи
иштиракхъан
иштиракхъанар
иштиракчи
иштиракчии
иштиракчияр
июлдал
июлдиз
июлдин
июль
июльдиз
июля
июн
июндиз
июндилаи
июндин
июнь
июньдиз
июньдилаи
июньдин
июня
ия
ияли
ияр
к
ка
кааба
каабедин
кабаб
кабан
кабардадин
кабардинар
кабардино
кабардинскои
кабинет
кабир
кабкан
кабо
кавалар
кавалер
кавалерар
кавк
кавказ
кавказа
кавказда
кавказдин
кавказе
кавказовед
кавказская
кавказские
кавказскии
кавказских
кавказского
кавказскои
кавказскіи
кавказцы
кавказѣ
кавкамахи
кавкасион
кавха
кавхадиз
кавхаи
кавхаяр
кага
каганат
кагьраба
кадар
каддамахи
кадереи
кади
кадин
кадыке
кадыров
кадьяк
каждого
каждыи
кажется
казак
казакар
казакова
казаковадин
казаковои
казакрин
казан
казанище
казанскии
казанское
казань
казаньдин
казарма
казах
казахстан
казахстана
казбек
казбековскии
казвин
кази
казиев
казим
казимов
казинка
казиюрт
казмаляр
казмалярскии
каи
каиди
каинатда
каир
каирдин
как
кака
какадарнаваи
какаду
какамахи
какао
какаозень
какатзава
какахьна
какахьнаваи
какая
какаяр
какие
каким
какими
каких
какмахи
какого
какое
какои
кал
кала
калал
калаус
калдиз
калдик
калдин
кале
каледония
каледониядин
календардин
календарь
календарьдал
календаря
калер
кали
калии
калиматов
калинина
калининаул
калининград
калинино
калино
калиновка
калиновская
калифорния
калифорнияда
калифорниядин
калкни
каллиграфия
калмык
калмыкар
калмыкия
калмыкияда
калмыкиядин
калмыкиядихъ
калмыкри
калмыкриз
калмыкрин
калуга
калук
калукрин
калунхуьр
калып
калькутта
кальции
калья
кальял
кам
кама
камадин
камал
камаллу
камалэгьли
камар
камаралди
камарван
камарго
камархуьр
камберленд
камбоджа
камбулат
каменец
каменка
каменныи
камерун
камилов
камиль
камкадамахи
камкамахи
кампании
кампания
кампус
камчатка
камчаткадин
камыш
кан
кана
канаб
канада
канадада
канададилаи
канададин
канададинни
канаи
канал
каналда
каналди
каналдин
каналрин
канасираги
канваи
канвондо
канд
канда
кандаураул
канделаки
кандидат
кандидата
кандидатам
кандидатар
кандидатвилин
кандидатдин
кандидатов
кандидату
кандидатура
кандидатураяр
кандидатуру
кандидатуры
кандидаты
кандитатар
канзас
кани
каникулар
канкун
канна
каннада
кант
кантон
кантонар
кантондин
кантонриз
кантонрикаи
кантонрин
канцлер
кап
капан
капиева
капиеван
капитал
капитализм
капитализмдин
капиталист
капитан
капитолии
капитуляция
капкаи
каплановка
капучи
капы
капӏ
кар
кара
карабахская
карабудахкент
караван
карагаи
караим
каракара
каракас
каракюре
карамахи
каранаи
караногаи
караозек
карата
каратаи
каратаяр
каратэ
карах
карачаевар
карачи
караша
карашимахи
караямахи
карбон
карбондин
карванд
карвандин
кард
карда
кардал
кардар
карденас
карди
кардиз
кардик
кардикаи
кардин
кардихъ
кардмахи
кардрин
карекадани
карел
карелия
карелияда
кариб
карибрин
кариера
карикатура
каркиофи
карл
карла
карлабко
карланюрт
карлик
карло
карловское
карлос
карнеги
карни
каролин
каролина
карпатар
карранса
карраско
карс
карстдин
карт
карта
картада
картадал
картадин
картаи
картал
картар
картах
картаяр
карте
картинка
картинки
картка
картли
картлидин
картограф
картография
картои
карточек
карточка
карточках
карточке
карточки
карту
картуф
картуфар
карты
картье
карфаген
карфагендин
кархана
карханаи
карханаяр
кархъан
карце
карч
карчарин
карчунин
карша
каршли
карьер
карьера
карьерадин
кас
касается
касар
касардин
касас
касающихся
касбуба
касдал
касди
касдив
касдиваи
касдиз
касдикаи
касдилаи
касдин
касдихъ
каскад
касни
каспи
каспидин
каспии
кассагумахи
касср
кастилия
кастилиядин
кастро
касумкент
кат
катаз
катаи
катакомбаяр
каталан
каталанская
каталанскои
каталог
каталонскои
катана
катанваи
катастрофа
категории
категорически
категорию
категория
категорияда
категориядиз
категориядин
категорияр
категориях
категорияяр
категорија
категорія
катенина
катзаваи
катиб
катиз
каткана
катманду
катмахи
катна
катнаваи
катнаи
католик
католикар
католиквал
католиквилин
католикос
католикри
католикриз
католикрин
католицизм
каторые
катрух
катун
катэгорыя
каучук
каф
кафе
кафедра
кафедрада
кафедрадин
кафыр
ках
кахети
кахетия
кахиб
кахиров
каховская
кац
кацер
качал
качалаи
качества
качестве
качественные
качество
качкалык
качкилик
кашанхуьр
кашуб
каэтано
кая
каякент
каякентскии
кб
кв
ква
квадар
квадараи
квадарзава
квадарна
квадарнава
квадарнаваи
квадарнаи
квадратдин
квадратных
кваз
квазва
кваи
квалификациядин
кваме
кванада
кванджу
кванкеро
квантдин
квантовая
кванхидатли
кванъе
кварар
квардал
квартира
кваса
квасаяр
кватернионар
квахь
квахьда
квахьзава
квахьзаваи
квахьиз
квахьна
квахьнава
квахьнаваи
квахьнаи
квахьун
квахьунин
квач
квачиз
квачир
квебек
квеваи
квез
квекаи
квелди
квемо
квестар
квехъ
квиринал
квн
квт
кг
кгб
кдж
ке
кевин
кегер
кедабек
кезенои
кеи
кек
келем
келентер
келентеров
келт
кельт
кельтар
кельтрин
кемах
кемен
кемерово
кен
кения
кениядин
кент
кентукки
кепекар
кепке
кепкеди
кепкир
кеплер
кер
керекул
керекулар
керекулди
керекулдин
керекулри
керекулрин
керемали
керен
керетаро
керим
кериман
керимов
керимова
керимовади
керимовадин
керимован
керимрин
керимхан
керимханар
керки
кертукмахи
кесер
кесиб
кесибар
кесибвилин
кесибрин
кеспи
кеспидин
кеспии
кеспияр
кеспият
кеспиятар
кеспиятдин
кеспиятдинни
кетен
кеф
кефер
кеферда
кефердин
кефердинни
кефердихъ
кеферни
кеферпата
кеферпатан
кеферпатанни
кеферпатахъ
кефир
кечмиш
кечуа
ки
кибрик
кибрикан
кидеро
киев
киевда
киевдиз
киевдин
киж
кижани
кизилюрт
кизляр
кизлярдин
кизлярскии
кикабидзе
кикер
кикуни
кил
кила
килаб
килиг
килига
килигаи
килигдаи
килигзава
килигзаваи
килигиз
килигна
килигун
килигуниз
килигунин
килигунралди
килиманджаро
килобаи
килограмм
километр
километрах
километрдал
километрдиз
километрдилаи
километрдин
килятль
ким
кимел
кимихуьр
киммерияр
кина
кинг
кинематограф
кинематографиядин
кинетик
кино
киноакте
кинода
кинодин
кинои
киноиндустрия
кинорежиссе
кинорежиссер
киностудияда
киносценарист
кинотеатр
кинояр
киншаса
кипр
кипрда
кипрдиз
кипрдин
киприотар
киприотрин
кипчак
кипчакар
кир
кирам
кирамди
кирамри
кирамрин
киргизар
киргизия
киргизиядин
киреждин
киржниц
кирзан
кирибати
кирибатидин
киривии
киривияр
киригар
кирида
кириенко
кирил
кирилл
кириллица
кириллицадал
кириллицы
киркар
киркарин
киров
кирова
кирован
кироваул
кировская
кировскии
кировскои
кирпич
кирпичар
кирпичдикаи
кирпичрикаи
кис
кисе
киселев
киселево
кисель
кислород
кислороддин
кислота
кислотадихъ
кисриев
кисриева
кит
китаб
китае
китаи
китая
китс
китсни
киц
кицӏ
кицӏеринбур
кич
кича
киче
кичи
кичӏ
кичӏе
кичӏевал
кичӏевилик
кичӏен
киш
кишдиз
кишертскии
кишертского
кишине
кишпир
кишпирдин
кища
кияр
кк
ккал
ккам
кктр
ккуни
ккӏанваи
кл
клавдии
клавдияр
кламп
класс
классар
классда
классдаи
классдал
классдик
классдилаи
классдин
классик
классика
классикадин
классификатор
классификация
классификациядалди
классификациядиз
классическая
классра
классриз
классрин
клаус
клеенка
клеи
клеткадин
клеткаи
климат
климатдиз
климатдин
климатик
климатрин
клиса
клисада
клисади
клисадиз
клисадин
клисаи
клисаяр
клифф
кличхан
клуб
клуба
клубар
клубда
клубди
клубдиз
клубдин
клубра
клубри
клубриз
клубрикаи
клубрин
клумба
ключ
ключи
ключики
км
кн
кнессетдин
книг
книга
книгах
книге
книги
книжка
книжное
кнопка
кнопки
кнопку
княгиня
князвал
князвилин
князь
князьвилин
князьдин
князьрикаи
князьрин
князяр
ко
коалициядин
коб
кобальт
кобе
кобрин
ков
ковентри
ково
ковскии
когда
кого
когуре
код
кода
коддиз
кодекс
кодекса
кодзасов
кодов
коды
кое
кожл
козлова
козловка
козубскии
кои
коимбра
кокаиндин
кокос
кокрек
кокс
коктюбеи
кокуи
кокула
колизеи
количества
количество
количеством
количеству
колкер
коллег
коллеги
колледж
колледжда
колледждин
коллектив
коллективар
коллективизация
коло
колоб
колодезь
колодец
колон
колониал
колониалвилин
колонизация
колонии
колония
колониядаи
колониядиз
колониядин
колонияр
колониярин
колонияяр
колорадо
колпино
колпна
колпнянскии
колумб
колумба
колумбан
колумбдилаи
колумбия
колумбиядин
колумбиядихъ
колхид
колхидадин
колхоз
колхозар
колхозда
колхоздиз
колхоздин
колхозная
колхозник
колхозриз
колхозрин
колхозчи
ком
кома
команда
командада
командади
командадиз
командадин
командадихъ
командаи
командир
командирар
командирдин
командои
команды
комаров
комарова
комарово
комбаи
комбинат
комбинезон
комдин
комедия
комендантвилин
комета
кометаяр
коми
комик
комиссар
комиссаррин
комиссии
комиссия
комиссиядин
комитет
комитета
комитетар
комитетда
комитетди
комитетдик
комитетдин
комитетриз
комментариев
комментарии
комментария
комментариями
коммерсантъ
коммерциядин
коммуна
коммунал
коммунизм
коммунизмдин
коммунист
коммуниствилин
коммунистрин
компании
компания
компанияди
компаниядин
компанияр
компартиядин
компас
компаса
компасом
компенсацию
комплекс
комплексдаказ
комплексдин
композитор
композиторар
композиторни
композиторри
композиторрин
композициядин
компонент
компонентар
компот
компресс
компромисс
компьютер
компьютердин
комсомол
комсомолдин
комсомолец
комсомолу
комсомольская
комсомольскии
комсомольское
конвекцияди
конвентди
конго
конгодин
конгресс
конгрессда
конгрессди
конгрессдин
кондуктор
конец
конечно
кони
конимар
конимрин
коническои
конкистадор
конкордия
конкурс
конкурса
конкурсар
конкурсда
конкурсдин
конкурсе
конкурсы
конмебол
коннектикут
конрад
консервар
консерватив
консерватория
консерваторияда
консерваяр
консервияр
консерврин
конспект
константин
константина
константиндин
константинов
константинова
константинович
константиновка
константинополь
константинопольдин
констанца
конституции
конституция
конституциядив
конституциядиз
конституциядин
конструктор
конструкция
консул
консулвал
консультации
континент
континентал
континенталвилин
континентар
континентда
континентдин
континентрин
контора
контракт
контролвал
контролдик
контролер
контроль
конур
конура
конфедерация
конфедерациядин
конференции
конференция
конфирмация
конфликт
конфликтдин
конфуцианвал
конфуции
конца
конце
концентрироватнаваи
концепции
концепция
концерн
концерт
концертар
концертда
концертдин
концертра
коньки
коньшинское
коньяк
кооператив
кооперативдин
координат
координатам
координатами
координатар
координаты
координировать
коп
коперник
копирования
копия
коптар
кор
кораб
корабляр
коралл
кораллрин
корбюзье
кордова
кордон
коре
кореи
коренные
корею
корея
кореяда
кореядиз
кореядин
кореяр
коридор
коркмас
коркмаскъала
коркмасова
корнями
корода
корол
королвал
королвалдин
королвилин
королдин
короле
королева
король
корона
короткии
корпорация
корпус
корпусдин
корректно
корреспондент
коррупция
коррупциядиз
коррупциядихъ
корсак
корсаков
корсаково
корсаковскии
корсика
кортес
корш
коряков
кос
коса
косинскии
косметологияда
космонавт
космонавтика
космос
космосдаи
космосдиз
космосдин
косово
косоводин
косогор
коста
костек
кострома
костюм
кот
котаи
котлет
которая
которого
которое
которои
котором
которую
которые
которыи
которым
которых
котур
коулун
кофе
кофта
кохоздин
коче
кочегар
кочегарка
кочубеи
кошанапу
кошеле
коэффициент
коэффициентов
кп
кпрф
кпсс
кпссдин
кпул
крае
краи
кран
крар
крара
крарал
крарив
крариз
крарик
крарикаи
крарилаи
крарин
крарихъ
крархъан
красивыи
красная
красноармеи
красновишерск
красновишерскии
краснодар
краснодардин
красное
краснозоренскии
краснокамскии
краснояр
красноярск
красноярского
красную
красные
красныи
крат
краткая
краткии
краткое
крахмал
краю
края
краям
краяр
краях
кремле
кремль
кремльдин
кремнии
креол
кресс
кривцово
кризисдин
крик
крикет
крис
кристалл
кристи
кристиан
кристофер
крит
критериев
критерии
критериям
критик
критика
критикадин
критикри
криштиану
кровать
крои
крокодил
крокус
кроме
кромскои
кромы
кронштадт
кросс
круглица
кругосвет
кружка
круифф
крунг
крупнеи
крус
крутовское
крутое
крчар
крыз
крызскии
крызском
крылов
крылова
крым
крымдин
крымско
крымчак
крю
ксар
ксарал
ксаран
ксари
ксариваи
ксариз
ксарикаи
ксарин
ксарихъ
ксарни
кси
кстати
кт
ктаб
ктабар
ктабарни
ктабда
ктабдаи
ктабди
ктабдиз
ктабдик
ктабдикаи
ктабдин
ктабра
ктабрикаи
ктабрин
ктабхана
ктабханада
ктабханаяр
кто
ктуна
ктунваи
ктӏуна
ктӏунваи
ку
куала
куаниб
куаутла
куб
куба
кубада
кубадиз
кубадин
кубань
кубаньдин
кубачи
кубачивии
кубачии
кубачинскии
кубачияр
кубе
кубка
кубок
кубокда
кубокдин
кубримахи
кувеи
кувиг
куда
кудаи
кудали
кудиябросо
кудрявцев
куду
кудутль
кудымкар
кудымкарскии
куеда
куединскии
кужник
кузваи
кузнецов
кузун
куи
кук
кукваз
кукдин
куколивка
кукӏвар
кукӏварин
кукӏварна
кукӏушар
кула
кулакар
кулаквал
кулецма
кули
кулига
кулиев
кулик
куликово
кулиямахи
куллар
кульзеб
кулькибекмахи
культур
культура
культурада
культуради
культурадидин
культурадиз
культурадин
культурадинни
культураи
культуре
культурная
культурно
культурное
культуры
кум
кума
кумаз
кумазни
кумена
кумли
кумпилов
кумторкъала
кумукьзваи
кумукьна
кумух
кумухъ
кумык
кун
кунбатар
кунгур
кунгурскии
кунды
кунки
куппа
купросское
купул
кура
курагъ
куратор
курах
курахскии
курахского
курахское
курбанов
курбанова
курган
курд
курдар
курдистан
курдри
курдул
курил
куримахи
курк
куркаби
куркак
куркимахи
куркли
курми
курнаи
курорт
курортдин
курс
курсар
курсара
курсариз
курск
курсуна
куруш
курфюрст
курхуьр
курхуьруьн
курхуьруьнви
кусаи
кусары
куско
кусур
кут
кутада
кутадаи
кутаз
кутазава
кутазва
кутазваи
кутаиси
кутан
кутанар
кутандин
кутиша
кутлаб
кутугаи
кутугзаваи
кутуз
кутузва
кутузваи
кутузвач
кутузован
кутул
кутун
кутуна
кутунаи
кутунва
кутунваи
кутунивди
кутуниз
кутунин
кутур
кутурбур
кутурбурукаи
кутурди
кутурла
кутӏунна
кутӏуннаваи
куфа
куфи
кухтуна
кухтунаи
кухтунваи
куч
кучудзаваи
кучуднава
кучуднаваи
кучуднаи
кучудунар
кучудунин
кучукна
кучукнава
кучукнаваи
кучун
кучунрин
кучь
кушан
куь
куьгьне
куьзек
куьлуь
куьмек
куьмекар
куьмекархъан
куьмекда
куьмекдаи
куьмекдалди
куьмекдиз
куьмекдин
куьмекзава
куьмекзаваи
куьмекна
куьмекнаи
куьмекни
куьмекун
куьмекхъан
куьмекчи
куьми
куьн
куьне
куьр
куьрд
куьрдамир
куьрдер
куьре
куьреда
куьредин
куьрединни
куьрелди
куьрен
куьруь
куьснет
куьсри
куьтягь
куьтягьаи
куьтягьарна
куьтягьдаи
куьтягьна
куьтягьнаваи
куьтягьнаи
куьтягьун
куьтяхьна
куьч
куьчарна
куьчарнаи
куьчарун
куьчарунин
куьче
куьчеда
куьчедал
куьчедиз
куьчедин
куьчеи
куьчери
куьчеяр
куьчнаваи
куяда
кфил
кхаж
кхдр
кхираг
кхр
кхрдин
кхьеи
кхьена
кхьенаи
кхьенва
кхьенваи
кхьида
кхьидаи
кхьиз
кхьизва
кхьизваи
кхьин
кхьинал
кхьиналди
кхьинар
кхьинивди
кхьиникаи
кхьинин
кхьинра
кхьинраи
кхьинри
кхьинрикаи
кхьинрин
кхьираг
кхьирагар
кхьирагди
кхьирагдиз
кхьирагдин
кхьирагри
кхьирагрин
кц
кціар
кцӏар
кцӏара
кцӏарвияр
кцӏарин
къ
къаб
къабан
къабарда
къабах
къабул
къабулнаваи
къав
къаваларин
къавах
къавкъаз
къавкъазда
къавкъаздаи
къавкъаздал
къавкъаздиз
къавкъаздилаи
къавкъаздин
къавкьаз
къавхавилин
къавхаи
къавхаяр
къагьве
къагьведин
къагьриман
къад
къадагъа
къадар
къадарда
къадим
къадир
къадирован
къадлагьаи
къажар
къажарар
къажгъанар
къаз
къазадик
къазакъстан
къазакъстанда
къазакъстандин
къазакьстан
къазандин
къазанкулак
къазанмиш
къазанмишаи
къазанмишна
къазанмишнаваи
къазанмишнаи
къазанмишун
къазанфар
къазах
къазахар
къазахдин
къазахстан
къазахстандиз
къазахстандин
къазбек
къази
къазивал
къазивиле
къазиди
къазидин
къазиев
къазикъумугьдин
къазикъумух
къазикъумухдин
къазимегьамед
къазма
къазмаи
къазмаяр
къаи
къакъатаи
къакъатзава
къакъатна
къакъатнаваи
къакъатнаи
къакъатунин
къакъудиз
къакъудна
къакъуднаваи
къакъудун
къакъудунин
къал
къала
къалабулух
къалабулухар
къалавии
къаладин
къалажух
къалажухви
къалал
къалар
къаларин
къалаяр
къалаярни
къалин
къалинвал
къалинвилилаи
къалиндаказ
къалпагъ
къалур
къалураи
къалурдаи
къалурзава
къалурзаваи
къалуриз
къалурна
къалурнава
къалурнаваи
къалурнаваслова
къалурнавач
къалурнаи
къалурун
къалурунин
къалхан
къалхандин
къалчах
къамат
къаматда
къамуг
къамчи
къан
къанав
къанажагъсуз
къанал
къаних
къанни
къанникьудлагьаи
къаннипудлагьаи
къанниц
къанницӏуд
къанун
къанунар
къанунарни
къанундалди
къанундив
къанундин
къанунрал
къанунралди
къанунри
къанунрив
къанунриз
къанунрин
къаншардиз
къапар
къапарин
къар
къара
къарабагъ
къарабагъда
къарабагъдаи
къарабагъдиз
къарабагъдин
къарабагълы
къарабудагъкент
къарабудахкент
къарабулах
къаравулдин
къарагаш
къарагашар
къарагъаж
къарагъаи
къарагъарна
къарагъарнаваи
къарагъарнаи
къарагъна
къарагънаваи
къарагънаи
къарагъун
къарагъунар
къарагъунда
къарагъуниз
къарагъунин
къарадагъ
къарадагълы
къаражик
къаракуьре
къаракъудурлу
къаракъыз
къаралту
къарамат
къаранугъаи
къарар
къараралди
къарарар
къарардал
къарардалди
къарардив
къарардиз
къаратуба
къарачаево
къарачаи
къарачи
къарачияр
къардаш
къардашан
къардашев
къардашуба
къари
къариб
къариба
къарибов
къарникъуз
къартас
къартасрин
къарши
къасида
къасс
къаст
къастар
къат
къатан
къатар
къатара
къатардин
къатари
къатариз
къатарилаи
къатарин
къатда
къатдин
къати
къатидаказ
къатиз
къаткаи
къатламишун
къатунин
къатух
къафкъаз
къафкъаздин
къафкъазия
къафланан
къафланов
къах
къахчуз
къахчузваи
къахчун
къахчуна
къахчунаи
къацаз
къацу
къачу
къачудаи
къачуз
къачузава
къачузаваи
къачузва
къачузваи
къачун
къачуна
къачунаи
къачунва
къачунваи
къачуниз
къачунин
къачунра
къачунрин
къачур
къачурдаз
къачурдалаи
къачурди
къачурла
къачурт
къачуртӏа
къаш
къашар
къашарин
къаюм
къаякент
къбр
къвадаи
къвазва
къвазваи
къвал
къвалав
къвалаг
къвалан
къвалар
къвалара
къваларив
къвалариз
къваларикаи
къваларин
къвалив
къван
къвана
къванваи
къвандзин
къванер
къванерал
къванерикаи
къванерин
къванкчечихгалеи
къванцел
къванцикаи
къванцин
къванцӏин
къвб
къвбдин
къвед
къведа
къведаи
къведалди
къведач
къвез
къвезаваи
къвезва
къвезваи
къвезвач
къвезвачир
къвезмаи
къвердаваи
къе
къегьал
къедалди
къеди
къезил
къеи
къекъведаи
къекъвез
къекъвезва
къекъвезваи
къекъвена
къекъечӏзава
къекъуьн
къекъуьнар
къекъуьник
къекъуьнин
къекъуьнрин
къеле
къеледа
къеледаи
къеледиз
къеледин
къеледихъ
къелем
къелемдиз
къелемдикаи
къелеяр
къемер
къен
къене
къенез
къенен
къенени
къенепатан
къени
къенин
къеняи
къепи
къерех
къерехал
къерехар
къерехда
къерехдаи
къерехдал
къерехдив
къерехдиз
къерехдилаи
къерехдин
къерехдихъ
къерехра
къерехраи
къерехрал
къерехрив
къерехриз
къерехрин
къерехрихъ
къет
къетӏъ
къеце
къецепатан
къецепатанбуруз
къецихъ
къецяи
къзикъумух
къиб
къизил
къизилд
къизилдере
къизилдин
къилих
къилихар
къилихрин
къимет
къиметар
къиметдин
къиметлу
къиметриз
къирим
къириц
къирицӏ
къирицӏви
къирицӏвии
къирхаягъ
къисена
къишлах
къияс
къкм
къои
кърабагъдин
кърыз
кърызар
къуба
къубада
къубадаи
къубадин
къубачияр
къубба
къубу
къубудал
къубуди
къуват
къуватар
къуватда
къуватдалди
къуватди
къуватдик
къуватдикаи
къуватдин
къуватлу
къуватлувал
къуватралди
къуватри
къуватриз
къуватрин
къугъвадаи
къугъваз
къугъвазва
къугъвазваи
къугъваи
къугъвана
къугъванаи
къугъванваи
къугъун
къугъуна
къугъунар
къугъунин
къугъунра
къугъунрал
къугъунрикаи
къугъунрин
къудрат
къужа
къуз
къуза
къузгъун
къуи
къул
къулаи
къулар
къуллугъ
къуллугъар
къуллугъдаи
къуллугъдал
къуллугъдиз
къуллугъдикаи
къуллугъдилаи
къуллугъдин
къуллугъзаваи
къуллугъиз
къуллугъна
къуллугърал
къуллугърилаи
къуллугърин
къуллугъхъан
къуллугъчи
къуллугъчии
къуллугъэгьли
къуллугъэгьлии
къуллугъэгьлияр
къулугъчи
къулухъ
къум
къумад
къумадин
къумар
къумлух
къумлухар
къумлухра
къумпилов
къумрал
къумукъ
къумукь
къумукьар
къумукьри
къумукьриз
къумукьрин
къумух
къунши
къуншивал
къуншивилин
къуншидал
къураи
къурамат
къураматда
къураматдин
къурбан
къурбана
къурбанан
къурбанд
къурбанова
къурбанрин
къуреи
къуру
къурукал
къурулуш
къуруш
къурушар
къурушдал
къурушрин
къуръан
къуръандин
къусар
къутунхъ
къутунхъар
къутургъан
къучагъар
къушаба
къушт
къушунар
къушунри
къушунрик
къушунрин
къуьл
къуьлуьн
къуьн
къуьр
къуьрер
къуюнлу
къуюнлуи
къырхларуба
кыпчак
кырджали
кь
кьабгъанар
кьабул
кьабулаи
кьабулдаи
кьабулзава
кьабулзаваи
кьабулзавачир
кьабулиз
кьабулна
кьабулнава
кьабулнаваи
кьабулнаи
кьабулнач
кьабулун
кьабулуникаи
кьабулунин
кьада
кьадаи
кьадар
кьадарар
кьадарбур
кьадарвал
кьадарда
кьадардаи
кьадардал
кьадардалди
кьадарди
кьадардиз
кьадардик
кьадардикаи
кьадардилаи
кьадардин
кьадардинбур
кьадарни
кьадарра
кьадарралди
кьажар
кьажарар
кьаз
кьазаваи
кьазва
кьазваи
кьазвач
кьазвачир
кьаи
кьак
кьакьан
кьакьанвал
кьакьанвалрин
кьакьанвиле
кьакьанвилел
кьакьанвилер
кьакьанвилин
кьакьанда
кьакьандал
кьакьандиз
кьакіар
кьакіарин
кьамал
кьамуг
кьамугдиз
кьан
кьант
кьантӏар
кьар
кьарадин
кьарар
кьардин
кьаркьулув
кьасум
кьасумтала
кьасумхуьр
кьасумхуьре
кьасумхуьрел
кьасумхуьрелаи
кьасумхуьруьз
кьасумхуьруьн
кьасумхуьруьнсовет
кьат
кьатӏ
кьатӏанаи
кьатӏар
кьатӏуз
кьатӏузвач
кьатӏун
кьатӏунар
кьатӏуниз
кьац
кьацӏ
кьацӏаи
кьацӏанваи
кьацӏурзава
кьашкьа
кьблединни
кьвал
кьвалар
кьван
кьванди
кьванни
кьванц
кьве
кьвевар
кьвевардиз
кьвевардин
кьвед
кьведан
кьведлагьаи
кьведлаи
кьведни
кьведра
кьвезва
кьвенал
кьвепеле
кьвепеледин
кьвет
кьветӏ
кьветӏера
кьеан
кьебле
кьеблесудан
кьегьал
кьегьалар
кьегьалвал
кьегьалвилелди
кьегьалвилераи
кьегьалвилин
кьегьалдин
кьегьалрин
кьеж
кьезил
кьеи
кьел
кьелер
кьелерин
кьелерихъ
кьелечӏ
кьена
кьенаи
кьенва
кьенваи
кьенерар
кьенин
кьеп
кьепӏир
кьепӏирви
кьепӏирдин
кьер
кьере
кьереи
кьерел
кьерелаи
кьерерал
кьерех
кьери
кьеридиз
кьериз
кьерин
кьеркь
кьеркьер
кьет
кьетӏен
кьетӏенвал
кьетӏенвилелди
кьетӏенвилер
кьетӏенвилерикаи
кьетӏендаказ
кьетӏендиз
кьетӏъ
кьефес
кьехуьл
кьец
кьибле
кьибледа
кьибледин
кьиблединни
кьибледихъ
кьиблени
кьиблепад
кьиблепата
кьиблепатан
кьиблепатахъ
кьизил
кьии
кьил
кьилди
кьилдиз
кьилдин
кьилдинбур
кьилдинди
кьиле
кьилеваи
кьилегь
кьилегьуба
кьилел
кьилелаи
кьилелни
кьилер
кьилера
кьилераи
кьилерал
кьилериз
кьилерикаи
кьилерин
кьилехъан
кьили
кьилив
кьиливал
кьилиз
кьилик
кьилин
кьилинбур
кьилинди
кьилинни
кьилихъ
кьиляи
кьин
кьинаи
кьинваи
кьиникаи
кьиникь
кьиникьал
кьиникьалди
кьиникьар
кьиникьиз
кьиникьикаи
кьиникьилаи
кьиникьин
кьиникьрин
кьиса
кьисади
кьисадив
кьисадиз
кьисаи
кьисас
кьисасар
кьисаяр
кьисмет
кьисметар
кьисметдикаи
кьисметдин
кьиспес
кьиспесда
кьит
кьитвал
кьифер
кьле
кьу
кьуват
кьуд
кьуда
кьудаи
кьудан
кьудар
кьудкъад
кьудкъанни
кьудкъанниц
кьудлагьаи
кьудра
кьукь
кьул
кьула
кьулавиле
кьулаи
кьулан
кьулани
кьулу
кьулувал
кьулувалар
кьулувалда
кьулувалдиз
кьулувалдин
кьулувалрин
кьулувиле
кьулувилел
кьулувилер
кьулувилерал
кьулувилериз
кьулувилерин
кьулувилиз
кьулувилин
кьулусуван
кьулухъ
кьулухъан
кьулухъди
кьумекдалди
кьун
кьуна
кьунаи
кьунар
кьунач
кьунва
кьунваи
кьуникаи
кьунин
кьункьи
кьунукьин
кьур
кьурагь
кьурагьвал
кьурагьви
кьурагьдиз
кьурагьдин
кьурагьрин
кьуразваи
кьураи
кьураматдин
кьурана
кьурбан
кьурвал
кьуркьушум
кьурла
кьуртӏа
кьуру
кьурураи
кьурурда
кьурурнаваи
кьуршахар
кьуршунар
кьуръан
кьуръандин
кьусуи
кьуч
кьушун
кьушунар
кьушунарни
кьушунди
кьушундин
кьушундихъ
кьушунра
кьушунри
кьушунрив
кьушунриваи
кьушунриз
кьушунрик
кьушунрикаи
кьушунрин
кьушунрихъ
кьуьгъверар
кьуьгъуьр
кьуьд
кьуьзуь
кьуьзуьбурун
кьуьл
кьуьлдаи
кьуьлер
кьуьлерин
кьуьлзаваи
кьуьхуьр
кьуьхуьруба
кьуьчхуьр
кьуьчхуьрви
кьуьчхуьрвии
кьуьчхуьре
кьуьчхуьруьн
кэ
кюрасао
кюсю
кіаник
кіелна
кіерет
кіеретірин
кӏ
кӏалуб
кӏалубар
кӏалубда
кӏалубдин
кӏам
кӏама
кӏамаи
кӏамар
кӏамара
кӏамун
кӏан
кӏанда
кӏандаи
кӏане
кӏанера
кӏанз
кӏанзава
кӏанзаваи
кӏанзва
кӏанзваи
кӏани
кӏанивал
кӏанивиликаи
кӏанивилин
кӏаник
кӏаникаи
кӏанин
кӏантӏани
кӏаняи
кӏапӏалдин
кӏарабар
кӏарабрин
кӏарасар
кӏарасдин
кӏарна
кӏартӏвел
кӏвагъ
кӏвал
кӏвалах
кӏвалахаи
кӏвалахал
кӏвалахар
кӏвалахарзава
кӏвалахарзаваи
кӏвалахариз
кӏвалахарни
кӏвалахда
кӏвалахдаи
кӏвалахдал
кӏвалахдар
кӏвалахди
кӏвалахдив
кӏвалахдиз
кӏвалахдик
кӏвалахдин
кӏвалахзава
кӏвалахзаваи
кӏвалахзва
кӏвалахзваи
кӏвалахиз
кӏвалахна
кӏвалахнава
кӏвалахнаваи
кӏвалахнаи
кӏвалахни
кӏвалахра
кӏвалахрал
кӏвалахри
кӏвалахриз
кӏвалахрин
кӏвалахун
кӏвалахунин
кӏвалаххъан
кӏвалаххъандин
кӏвале
кӏвалер
кӏвалера
кӏвалерани
кӏвалериз
кӏвалерин
кӏвализ
кӏвалин
кӏвалихъ
кӏвални
кӏваляи
кӏватӏ
кӏватӏал
кӏватӏалар
кӏватӏалда
кӏватӏалдал
кӏватӏалди
кӏватӏалдиз
кӏватӏалдик
кӏватӏалдин
кӏватӏалдихъ
кӏватӏалра
кӏватӏалриз
кӏватӏалрин
кӏватӏдаи
кӏватӏзава
кӏватӏзаваи
кӏватӏиз
кӏватӏна
кӏватӏнаваи
кӏватӏнаи
кӏватӏун
кӏватӏунин
кӏватӏур
кӏватӏурди
кӏватӏурдиз
кӏватӏурдин
кӏватӏурдихъ
кӏватӏуррин
кӏвач
кӏвачел
кӏвачер
кӏвачерал
кӏвачи
кӏвачин
кӏвачихъ
кӏвенкӏве
кӏвенкӏвечил
кӏвенкӏчивилин
кӏев
кӏевера
кӏеви
кӏевивал
кӏевидаказ
кӏевиз
кӏевирзава
кӏевирнаваи
кӏевирнаи
кӏел
кӏелаи
кӏелдаи
кӏеле
кӏелезхев
кӏелзава
кӏелзаваи
кӏелзваи
кӏелиз
кӏелна
кӏелнаи
кӏелун
кӏелунар
кӏелунин
кӏенин
кӏеретӏ
кӏеретӏар
кӏеретӏда
кӏеретӏди
кӏеретӏдик
кӏеретӏдин
кӏеретӏри
кӏеретӏрин
кӏиви
кӏивиз
кӏили
кӏиливал
кӏиливилин
кӏилияр
кӏир
кӏири
кӏмаш
кӏокӏов
кӏу
кӏудна
кӏук
кӏукӏ
кӏукӏвар
кӏукӏварна
кӏунтӏ
кӏунтӏал
кӏунтӏар
кӏунтӏарал
кӏунтӏарикаи
кӏунтӏарилаи
кӏунтӏарин
кӏунчӏ
кӏус
кӏусар
кӏусарин
кӏута
кӏуф
кӏуьд
кӏуьдлагьаи
л
ла
лабан
лабкомахи
лаборант
лаборатория
лабораторияда
лабрадор
лавразия
лаврова
лаг
лагаьи
лагерра
лагерь
лагодехи
лагос
лагуна
лагь
лагьа
лагьаи
лагьана
лагьанаи
лагьанва
лагьанваи
лагьи
лагьиж
ладзар
ладно
ладога
лаз
лазареван
лазим
лаи
лак
лака
лакар
лакарин
лакз
лакзан
лакздин
лаки
лакскии
лакун
лакунк
лакъан
лакӏаб
лал
лам
ламу
ламувал
лан
ланда
ландшафтар
лани
ланка
ланкадин
ланова
ланрин
лао
лаос
лап
лапаг
лапагар
лапагрин
лапни
лар
лариса
лармордин
ларс
ларсенан
лас
ласвилин
ласокеандин
лат
латар
латвия
латвияда
латвиядин
латеран
латин
латиница
латинни
латиноамерикадин
латинскои
латинскую
латун
латыш
лауреат
лауреатар
лах
лахта
лацар
лацио
лацу
лацубур
лацӏу
лачин
лая
лгар
лгарви
лди
лдин
лдпр
ле
лебединскии
лев
леван
леваши
левашинскии
левино
левитан
левого
левои
левон
левыи
лег
легар
леген
легенда
легион
легиондин
легко
легче
легъв
леди
лежбер
лежберар
лежбервал
лежбервални
лежбервилел
лежбервилив
лежбервилин
лежбервилинни
лежбердин
лежберри
лежберриз
лежберрин
лез
лезвики
лезг
лезгандинни
лезги
лезгивал
лезгивалин
лезгидал
лезгидалди
лезгиди
лезгидин
лезгии
лезгин
лезгинка
лезгинкадал
лезгинов
лезгинская
лезгински
лезгинские
лезгинскии
лезгинским
лезгинских
лезгинско
лезгинского
лезгинскои
лезгинском
лезгинскому
лезгинскую
лезгинцев
лезгинцеван
лезгины
лезгири
лезгириз
лезгирин
лезгистан
лезгистанда
лезгистандин
лезгияр
лезгиярни
леи
леке
лекит
лексемар
лексемрин
лексика
лексикада
лексикадани
лексикадиз
лексикадикаи
лексикадин
лексикадинни
лексикология
лекции
лекъве
лекъвер
лекь
лекьен
лекьендиз
лекьер
лекьрен
лелев
лена
ленд
ленин
ленина
ленинан
ленинаул
ленинград
ленинградда
ленинграддин
ленине
ленино
ленинские
ленинскии
ленинское
ленкаран
ленкоран
ленкорандин
лента
леодин
леон
леонадин
леонард
леонардо
леоне
леонид
лепе
лепедин
лепеи
лепеяр
лер
лерик
лермонтова
лермонтован
лес
лески
лесная
лесничество
лесов
лесото
лестер
леся
лесяди
лесядиз
лет
летие
летию
летнии
летчик
лех
лечет
лечхуми
лечхумини
леш
ли
лиана
либерия
либертадорес
либо
ливан
ливенскии
ливерпул
ливерпулдиз
ливерпулдин
ливерпуль
ливия
ливны
лига
лигада
лигади
лигадиз
лигадин
лигаи
лидер
лидера
лидеров
лидерства
лидеры
лидже
лидс
лиз
лилар
лилдин
лимон
лин
лина
линбур
лингала
лингва
лингвист
лингвистар
лингвистика
лингвистикадин
лингвистри
линии
линия
линк
линкольн
линц
липецк
липецкда
липӏлипӏ
лирик
лирика
лирикадин
лирин
лирлияр
лиссабон
лиссабонда
лиссабондин
лист
лису
лит
литва
литвадин
литератор
литература
литературада
литературадал
литературади
литературадиз
литературадикаи
литературадин
литератураи
литературани
литературе
литературная
литературныи
литературовед
литературы
литии
литинин
литр
лиф
лифер
лихтенштеи
лица
лице
лицеи
личи
лично
личности
личность
лишан
лишанар
лишанарни
лишандал
лишандиз
лишандин
лишанрикаи
лишанрин
лише
лишние
лишь
лка
лкжг
лки
лков
лкс
лл
ло
лоб
лобачевскии
лов
лович
ловка
ловна
лово
ловскии
лог
логика
логикадин
логотип
логотипа
логотипар
лок
локар
локда
локдиз
локдин
локомотив
лологонитль
лома
ломбардия
ломбардиядин
ломеки
ломовское
ломоносов
ломоносован
лонга
лондон
лондонда
лондондин
лопес
лорд
лоренцо
лорето
лори
лос
лотос
лошади
лошадь
лу
луба
лубянка
лув
лувак
луван
лувар
луварин
луг
луговая
лугувалу
лугъузва
лугьанскдин
лугьуда
лугьудаи
лугьуди
лугьуз
лугьузава
лугьузаваи
лугьузва
лугьузваи
лугьузвач
лугьун
лугьуникаи
лугьунин
луж
лужков
лузитанар
луи
луиджи
луизиана
луис
луиш
лук
лука
лукино
лукреция
лукьман
лукьманан
лукӏ
лукӏар
лукӏарни
лукӏвал
лукӏвилин
лумпур
луне
лункӏ
луны
луткун
луткунрин
луф
лух
лучек
лучше
лучшии
лучших
луьле
луьтеран
лы
лыжаи
лыи
лыково
лысьва
лысьвенскии
ль
львов
львович
львовскии
львовское
льси
любви
любимом
любит
любляна
любовь
любое
любои
любом
любые
людвиг
людеи
люди
людмила
людовик
люкс
люксембург
люсия
лютер
лютеранар
лягушино
лякалізацыи
ляметов
лянет
ляхля
м
ма
маали
маариф
маарифдин
маарифдинни
мавзолеи
мавлуд
маврикии
мавритания
мавританиядин
маг
магадан
магадандин
магал
магалдиз
магарамкентскии
магарамкентского
магваи
магдалена
магдебург
магеллан
магеллана
магелландин
магитль
магнии
магнит
магнитдин
магомед
магомедов
магомедова
магомедович
магомедсалам
магомедсалих
магометов
магометова
магъриб
магьал
магьалда
магьалдиз
магьалдик
магьалдин
магьарам
магьарамдхуьруьн
магьарамов
магьатма
магьач
магьачкъала
магьачкъалада
магьачкъаладилаи
магьачкъаладин
магьачкъаладихъ
магьир
магьмуд
магьмуда
магьмудан
магьмудов
магьрум
магьсимов
магьсулар
магьсулрикаи
магьут
магьшур
мад
мадагаскар
мадагаскардин
мадам
мадеи
маджалис
мадни
мадрид
мадриддин
мадьяр
маеса
мажал
мажбур
мажбури
мажбурна
мажиб
мажонц
мажусивилин
маза
мазада
мазан
мазанаев
мазанар
мазанрин
мазендеран
маи
мак
макан
макао
макаодин
макаревич
макаревича
макарово
македон
македонжув
македония
македониядин
македониядихъ
маки
макит
макитдин
макитис
макка
маккартни
маклая
маклорин
макратели
макс
максвеллдин
максим
максимал
максиман
максимум
максимумдив
макферрина
макъала
макъалада
макъаладаи
макъаладин
макъалаи
макъалаяр
макъалаярни
макъам
макъаматдинни
макъун
макьам
макьамар
макьар
макьарин
макьсад
мал
мала
малабек
малави
малаи
малаик
малаикрин
малар
маларин
маларни
малах
малахова
малая
малдарвал
малдарвилел
малдарвилив
малдарвилин
малдарвилихъ
малдин
мали
малидин
малик
маликум
малиновка
малла
мало
малоархангельск
малоархангельскии
малое
малоизвестные
малум
малумарзава
малумарзаваи
малумариз
малумарна
малумарнаваи
малумарнаи
малумат
малуматар
малуматарни
малуматда
малуматра
малуматраи
малуматралди
малуматри
малуматрив
малуматриз
малуматрикаи
малуматрилаи
малуматрин
малумдаи
малые
малыи
малых
мальвин
мальдини
мальта
мальтадин
малярия
мамаи
мамед
мамедбекова
мамедкала
мамедкъала
мамедов
мамедова
мамедрин
мамлюкри
мамнун
мамрач
мамрух
ман
мана
манада
манадиз
манадин
маназ
манаи
манан
манас
манасаул
манаскент
манат
манатни
манаф
манаяр
манга
мангышлак
мандевиль
мандела
манджурар
мани
манидар
манидарар
манидиз
манидин
мании
манила
манифест
маничи
маничияр
манияр
маниярни
манкъули
манкъулидхуьр
манкъулидхуьре
манкъулидхуьруьн
манкъулидхуьруьнсовет
манов
манси
мансии
мансур
мантикеи
мантия
мантиядин
мантиядихъ
мануэль
манчестер
маныч
маньчжур
маньчжуриядин
мао
мапа
мар
мара
марагъ
марадиз
марадона
мараза
маракаи
марат
марафон
марафона
марвар
марганец
марганецдин
маргарита
маргъалрин
марда
мардали
марз
марзар
марзди
марздин
марздихъ
марзеева
мари
мариан
марии
марина
маринади
марино
марио
марифат
марифатдин
мария
марк
марка
маркера
маркес
марко
марково
маркос
маркс
маркса
марксан
марксизм
маркус
марлен
мармар
марнеули
марокко
мароккодин
мароньяс
марс
марсдиз
марсдин
марсел
марсель
март
марта
мартан
мартда
мартдиз
мартдилаи
мартдин
мартен
мартин
мартина
мартинан
мартиника
маруф
марф
марфа
марфад
марфадин
марфар
марфарикаи
марфарин
марфорио
марчелло
марш
маршал
маршалл
маршаллдин
маршрутар
маршрутдин
мас
маса
масабдур
масабрув
масабур
масабурни
масабуру
масабурукаи
масабурун
масабурухъ
масад
масадаз
масадалаи
масадан
масадбур
масадбуру
масадбуруз
масадбурун
масак
масакӏа
масакӏавилер
масакӏавилерин
масакӏаяр
масан
масанаи
масаниз
масатлан
маскутрин
маслово
масса
массагетрин
массади
массадиз
массадин
массаи
массачусетс
массачусетсдин
массаяр
массив
маст
мастер
масти
масуди
масштаб
масштабдин
мат
матаморос
матевосян
математик
математика
математикадаи
математикадин
математикар
математики
математикни
материал
материалар
материализм
материалов
материалри
материалрин
материалы
материк
материкда
материкдал
материкдин
материкрин
материя
маттиас
мату
матург
матч
матчар
матчда
матчдин
матчра
маула
маумахи
маунтин
мах
маха
махар
махара
махаргимахи
махарин
махач
махачкала
махачкалинская
махачкалинскии
махачкъала
махачкъалада
махачкъаладин
махи
махмуд
махмудова
махпур
махсудов
махсус
махсусвал
мацар
мацарин
мачада
машаер
машах
машахар
машгуьр
машгъул
машгъулардаи
машгъулат
машгъулатар
машгъур
машгьур
машгьурбур
машгьурвал
машгьурди
машин
машина
машинар
машиндин
машинрал
машинрин
машиуба
маштада
маэстра
мая
маяк
маяковскии
мб
мв
мвд
мвт
мгимо
мгу
мгьу
мда
ме
мебелрин
мевланова
мевлид
мегафон
мегеб
мегрел
мегъуьн
мегьамед
мегьамеда
мегьамедаз
мегьамедан
мегьамедов
мегьамедова
мегьамедович
мегьаммед
мегьарамдхуьр
мегьарамдхуьре
мегьарамдхуьрелаи
мегьарамдхуьруьн
мегьди
мегьемед
мегьман
мегьманан
мегьти
мегьтиев
мегьтиханрин
медал
медалар
медалдин
медалриз
медалрин
медаль
медведев
медведева
меденият
медениятда
медениятдиз
медениятдин
медениятдинни
меджидов
медиа
медина
мединада
мединадиз
мединиятдин
медицина
медицинада
медицинадин
медицинская
медичи
медпункт
медреса
медресада
медресадиз
медресаи
медресе
медресеяр
межгуьл
между
междугороднеи
международная
международнои
международные
международныи
межеяр
межид
межидов
межидова
межидован
межлис
мез
мезгьеб
мезгьебар
мезгьебдиз
мезгьебдин
мезелияр
мезлум
мезозои
меи
мекеги
мекка
меккада
меккадиз
меккадин
меккедиз
меконг
мексика
мексикадин
мексико
мектеб
мектебар
мектебарни
мектебда
мектебдал
мектебдиз
мектебдик
мектебдилаи
мектебдин
мектебни
мектебра
мектебриз
мектебрикаи
мектебрин
мекьи
мекьивал
мекьивилин
мел
мелентьевна
мелик
мелика
меликан
меликли
меликмамедов
меликмамедова
меликмамедован
меликмегьеммедов
меликов
меликова
мелилья
мелу
мельбурн
мельница
мельничная
мемеи
мемориал
мемуары
менделеев
менделеева
менделееван
менее
менжеруба
мензилда
менфят
менфятлу
меньше
меня
менялась
меняю
мератх
мергьемет
мерд
мердали
мере
мерида
меридиан
меридиана
меркез
меркездин
меркосур
меркурии
мероприятии
мероприятия
мерсисаи
мертеба
меря
мес
месала
месела
меселаяр
меслят
меслятар
меслятдалди
месси
мест
места
месте
местерух
местиа
местное
местности
место
местоположение
месхетинар
месхетияр
месэла
месэлада
месэладикаи
месэлаи
месэлаяр
месяц
месяца
месяцев
месяцы
мета
метал
металдин
металл
металлар
металлдин
металликаи
металлолом
металлрин
металлрихъ
металлургия
металлургиядин
мете
метеостанциядал
метерал
метка
метки
метлеб
метлебар
метлебвиляи
метлебдиз
метлебдин
метлеблу
метод
методикадин
методист
меток
метр
метрада
метрах
метрдал
метрдилаи
метрдин
метро
метродин
метрополитен
метрополитенди
метрополитендин
метрополиядин
мету
меты
метягьарни
меусиша
мефтӏ
механизм
механик
механика
механикадин
мехел
мехелар
мехельта
мехетури
мехико
мехикодин
мехкергъ
мехтули
мехъер
мехъерик
меце
мецел
меценат
мецерал
мецин
мечта
мешверада
мешлеш
ми
миарсо
миатли
мигель
миглакасимахи
миграгъ
миграгъа
миграгъар
миграгъви
миграгъдиз
миграгъдин
миграгърин
миграция
миграциядин
мигьии
мидгьед
мидлсбро
мии
микеланджело
микелон
микитис
миких
миклухо
микрах
микрахскии
микронезиядин
микрораи
микроскопик
микьдад
микьи
мил
милаи
милан
миландин
милион
милициядин
миллер
миллет
миллетар
миллетдаи
миллетди
миллетдиз
миллетдик
миллетдикаи
миллетдин
миллетдинбур
миллетдинни
миллетдихъ
миллетри
миллетриз
миллетрикаи
миллетрин
миллетрихъ
миллетчивал
милли
миллиард
миллиардер
миллиметр
миллион
миллиондал
миллиондалаи
миллиондив
миллиондилаи
миллионер
миллионралди
мимино
мин
мина
минара
минараяр
минас
мингечевир
мингьажев
минданао
минди
минерал
минералар
минералри
минералрин
мини
минимал
минимальныи
минимальным
минимум
министерства
министерство
министерстводи
министерстводин
министерствои
министр
министра
министрадин
министрар
министрвиле
министрвилин
министрди
министрдин
министрин
миннесота
минорскии
минск
минстрои
минус
минута
минуты
минь
мир
мира
миран
миранд
миранда
миранчук
мирас
мирг
миргер
мире
миресар
мирза
мирзабек
мирзабеков
мирзабекова
мирзе
мирзебегли
мирзебегов
мирзебегова
мирзебутаи
мирзеханов
мирзеханова
мирзеяр
мирзоев
мирзяли
мирныи
мировая
мировои
мисал
мисалар
мисалрикаи
миск
мискин
мискинджа
мискинжви
мискискар
мискискарин
мискьи
мискӏи
мискӏин
мискӏинар
мискӏинда
мискӏиндин
мислимат
миср
мисри
мисрида
мисридаи
мисридиз
мисридин
мисс
мисси
миссисипи
миссисипидин
миссия
миссиядин
миссури
митаги
митагивии
мифологиядин
мих
михаи
михаил
михаилан
михаэль
михьи
михьивал
михьиз
михьна
михьунал
михьунин
мич
мичегь
мичиган
мичигандин
мичик
мичурина
мичӏи
миш
мишел
мишель
мишкино
мишлеш
мишустин
мишустина
мкрат
млн
млрд
мм
мммм
мне
мнение
мнением
мнения
многие
многих
много
мнои
мо
мобил
мобильнои
мова
мовсес
мог
могиле
могли
моготес
могох
могу
могут
мода
модада
модадин
моделар
модели
модель
модификацияр
модуль
модуля
мое
моего
моеи
может
можете
можно
мозаика
мозамбик
моздок
моздокского
мои
моисеи
моисеян
мокок
моксоб
молдаванар
молдавия
молдавиядин
молдова
молекула
молекуляр
молибдендин
молла
моллабуьргьанлы
молодая
молодежи
молодежная
молочные
молукк
мольер
момент
монако
монархия
монархиядин
монастырь
монастырьда
монах
монгол
монголар
монголия
монголиядин
монголри
монголрин
монография
монографияр
монографияяр
монорельс
монро
монтана
монте
монтевидео
монтерреи
монтсеррат
монументар
морган
мордва
мордехаи
мордовия
море
морелос
морж
морк
моркдин
морское
морфология
морфологиядин
моря
мосино
москва
москвада
москвадаи
москвадани
москвади
москвадиз
москвадин
москве
москвы
московскии
московского
московскои
московском
мост
мостовая
мосты
моторс
моховое
моховское
моцарт
моцарта
мочох
мошево
моя
мпрдин
мр
мс
мсб
мтар
мтианети
му
муавия
муавияди
муавиядин
муаи
муалим
муалимар
муалимвиле
муаллим
муаллимар
муаллимвал
муаллимвиле
муаллимвилин
муаллимди
муаллимдин
муаллимри
муаллимрин
мубарак
мублагъ
мублагъвал
мублагь
муг
мугарты
муги
муглах
мугри
мугурух
мугъан
мугъарты
мугъул
мугъулар
мугъулрин
мугьаджирар
мугьаджирриз
мугьажир
мугьажирар
мугьамед
мугьаммад
мугьаммада
мугьаммадали
мугьаммадан
мугьаммадов
мугьаммед
мугьи
мугьман
мугьманар
мугьманхана
мудрыи
мужукаи
мужчина
музаим
музеи
музеяр
музика
музыка
музыкадал
музыкадиз
музыкадин
музыкадинни
музыкадихъ
музыкант
музыкантар
музыкантрин
муи
мук
мукаил
мукални
мукар
мукь
мукьа
мукьал
мукьан
мукьар
мукьарра
мукьва
мукьвабур
мукьвабуруз
мукьвавал
мукьвавални
мукьвавилин
мукьвади
мукьвал
мукьвара
мукьварал
мукьвуг
мукьдин
мукьтадир
мукьув
мукьуваи
мукьуг
мулджам
мулджама
мулебки
мулк
мулкар
мулкарин
мулкарихъ
мулкдар
мулкдаррин
мулкуна
мулкуник
мулкунин
мулла
муллаисакьлы
муллахуьр
мумбаи
мумкин
мумкинвал
мумкинвилер
мумкинвилерикаи
мумкинвилерин
мун
мунар
муни
муниципал
муниципалетдик
муниципалитет
муниципалитетар
муниципалитетда
муниципалитетдал
муниципалитетди
муниципалитетдик
муниципалитетдин
муниципалитетрин
муниципалитеты
муниципального
муниципальное
муниципальным
муниципальных
муниципияр
мунрин
мур
мура
мурад
мурада
мурадар
мураддалди
мурадов
мурадова
мурадхан
мурат
муратово
мургук
мурдар
мурк
муркар
муркӏад
муркӏади
муркӏадикаи
муркӏадин
муркӏар
муркӏари
муркӏарин
мурлатинамахи
мурманск
мурманскдин
мурсал
муругъ
мус
муса
мусаев
мусаи
мусибат
мусибатар
муслах
муслим
муслиман
муслимов
мусор
муссон
мустафа
мустафадин
мустафаевич
мусульман
мусурман
мусурманар
мусурманарни
мусурманвал
мусурманвилиз
мусурманвилин
мусурманри
мусурманриз
мусурманрин
мут
мутталиб
мух
мухад
мухаммад
мухаммед
мухах
мухтар
муцалаул
муч
мучугъ
мучугърин
мучугъуба
мушули
муъмин
муьгъ
муьгъвер
муьгъверган
муьгьлет
муьгьлетдиз
муьгьлетдин
муьгьтеж
муьгьуьббат
муьгьуьббатдикаи
муьгьуьббатдин
муьгьуьдин
муьжуьд
муьжуьдвишни
муьжуьдлагьаи
муьзеффер
муьзефферуба
муьква
муькуь
муькуьбур
муькуьбуру
муькуьбурув
муькъвел
муькъвер
муькъверин
муьнхен
муьнхендин
муьрид
муьридвал
муьт
муьтквер
муьтӏуьгъ
муьтӏуьгъарзаваи
муьфтехур
муьхрек
муьшкуьр
муьшкуьрви
муьшкуьрдин
мфа
мцд
мценск
мценски
мценскии
мцхета
мы
мыгра
мыколаи
мырз
мыс
мысдал
мысдилаи
мысли
мысль
мысы
мыхлыкъовакъ
мьянма
мэи
мэн
мэр
мэри
мэриленд
мэрилин
мюллер
мюнхен
мюрего
мягкии
мягко
мягькем
мягьле
мягьледа
мягьледиз
мягьледин
мягьлеи
мягьлеяр
мягьтел
мяден
мяденар
мядендин
мяденра
мяденрив
мяденрин
мяо
мярекат
мярекатра
мяъли
н
на
наб
набатат
набататар
набататарни
набататдин
набататри
набататрив
набататрикаи
набататрин
набататринни
набережная
набережныи
набирает
набирается
наблюдать
набран
набрать
нава
навадиз
наваи
навальныи
навахо
наверное
навигация
навигациядин
наврузбеган
нагаи
нагиев
нагорная
нагорно
нагоя
наградами
награды
награждении
нагъиев
нагъиева
нагъиеван
нагъиуба
нагьакьан
над
надежда
надеюсь
надеяться
надинж
надир
надо
надписи
надпись
нажать
нажмите
нажмуддин
нажмудин
наз
назад
название
названием
названии
названия
названиями
названиях
назвать
назик
назим
назир
назначен
назу
называть
называют
наи
наиб
наибвал
наибвалдиз
наибвалдик
наибвалдин
наибвалриз
наибвиле
наибвилер
наибвилиз
наибвилик
наибвилин
наиболее
наибольшее
наибольшие
наибства
наибство
наименование
наименования
накитль
наклонение
наконец
накск
накскдин
накскии
накского
накъ
накъвар
накь
накьв
накьвад
накьвадин
накьвар
накьвара
накьварин
нал
наличие
наличии
наличного
налог
налогар
налогдикаи
налогрикаи
налогрин
нальчик
нам
намдо
наме
намерд
намерении
намерения
намерениях
нами
намибия
намибиядин
намус
нан
нанаяр
нанибика
нанотехнология
нань
наоборот
напак
написал
написание
написании
написанию
написано
написать
напишите
наподобие
наполеон
наполеона
наполеондин
напоминаем
напоминаю
например
напрямую
нар
нарази
наразивилер
нарат
наратт
наречие
наречиеяр
наречиеярни
нариман
народ
народа
народная
народного
народное
народностеи
народности
народныи
народов
народы
нарыш
нарышкино
нас
населе
население
населением
населения
населенных
наси
насир
наска
наскент
насколько
наследие
наследия
насрулла
насруллагь
наставники
настоящее
настрои
насх
насче
насьональ
наталья
нато
натрии
наук
наука
науки
наур
науру
науч
научная
научно
научныи
нафт
нафта
нафтадин
нафтадинни
нафтдин
нафтӏ
нафтӏадин
нафтӏадинни
нах
нахада
нахимова
нахичеван
нахки
находится
находятся
нахско
нахуш
нахчиван
нахчивандин
нац
наци
национального
национальное
национальном
национальному
национальности
национальныи
национальных
нач
начагъ
начагъвал
начагъвилерин
начагъхана
начагьвалдикаи
начагьвалрикаи
начал
начала
начале
начало
началось
начальник
начертание
начиная
начне
наш
наша
наше
нашего
нашеи
наши
наших
ная
нваи
нгидо
нда
ндал
ндебеле
нджерс
нди
ндик
ндин
не
неактивного
неактивных
неаполь
небольшое
небраска
нева
невадин
неве
неверен
невеяр
невис
невозможно
невскии
невское
неглинная
него
неграс
недаи
недели
неделю
неделя
недостаток
недостаточно
нее
нежели
нежефхуьр
нез
незачем
незваи
неи
неизвестно
неизвестныи
неименованным
неинки
нек
некоторое
некоторые
некоторым
некоторыми
некоторых
некрасова
некхвазаи
некхъвадаи
некӏедин
нельзя
нельсон
нем
немец
немецар
немецви
немецкая
немецкии
немецком
немецни
немецри
немецрин
немного
немножко
немцар
немцари
немцарин
немцев
немцер
немцери
немцерикаи
немцерин
немцы
ненец
необходим
необходимо
необходимости
необязательные
необязательныи
неоклассицизм
непал
неплохо
непомук
непонятно
неправильныи
неправильными
нептун
нер
нервии
нердвинское
нерман
нерон
нерона
неронан
неру
неруди
нерусских
несиб
несигьат
несил
несилар
несилдаи
несилдиз
несилдикаи
несилдин
несилри
несилриз
несилрикаи
несилрин
нескольких
несколько
несмотря
нет
нетижа
нетижада
нетижаи
нетижариз
нетижаяр
нефес
нефтечала
нехаи
нехишар
ни
нибудь
нива
ниваи
нигер
нигерия
нигериядин
нигсберг
нид
нидерландар
нидерландриз
нидерландрин
нидерланды
ниж
ниже
нижне
нижнее
нижнеи
нижние
нижнии
нижняя
низ
низам
низаман
низами
низамидин
низкая
нии
ник
ника
никаб
никабмахи
никагь
никак
никаких
никакого
никарагуа
никель
никея
никеядин
никитино
никколо
никогда
никола
николаевич
николаевнадин
николаевнадихъ
николаи
николас
николаян
никольскии
никольское
николя
никто
никьягьдилаи
никягь
никягьар
никӏ
никӏе
никӏел
никӏер
никӏин
нил
нилтон
ним
нин
нини
ниньо
нисбивилин
ниси
нисинихъ
нитаб
ниуэ
них
нихъ
нихь
ниц
нице
ницше
ничего
ничхир
нишапур
ния
нияз
ният
нка
нквд
нная
нни
нного
нном
нному
нные
нныи
нным
нных
но
нобелдин
нобельдин
нов
нова
новак
нован
новая
новгород
новгороддин
новеи
новиков
нович
новка
ново
новогвинеи
новогеоргиевка
нового
новодеревеньковскии
новодмитриевка
новое
новокаре
новолакскии
новолакское
новомихаи
новониколаевка
новоромановка
новосе
новоселы
новосибирск
новосиль
новосильскии
новосинецкое
новосокольники
новостеи
новости
новость
новоукраи
новоукраинка
новочуртах
новую
новые
новыи
новым
новых
ногаи
ного
ногъаи
ногъаяр
ное
нои
нок
номер
номерами
номерар
номердин
номеров
номинация
норвег
норвегия
норвегиядин
норма
нормадилаи
нормал
нормально
нормального
норманн
норманнрин
норматив
нормы
норт
норте
норфолк
нос
носил
носителеи
носителем
ночь
ноябр
ноябрдиз
ноябрдилаи
ноябрдин
ноябрь
ноябрьда
ноябрьдиз
ноябрьдин
ноября
нравится
нрин
нс
нсан
нскии
нтв
ну
нубат
нубатда
нубатдалди
нубатдин
нуг
нугъ
нугъаи
нугъат
нугъатар
нугъатда
нугъатдал
нугъатдалди
нугъатдиз
нугъатдик
нугъатдикаи
нугъатдин
нугъатни
нугъатра
нугъатрал
нугъатри
нугъатриз
нугъатрикаи
нугъатрин
нугъаяр
нугьат
нугьатра
нуждается
нуждаются
нужен
нужна
нужно
нужны
нужныи
нукьсан
нулдилаи
нумра
нумрадиз
нумрадин
нумраяр
нунавут
нунавутда
нунивакдин
нур
нурадилово
нурали
нурар
нурбимахи
нуреддин
нури
нуридин
нуристан
нурмугьамадов
нурсултӏан
нуфуз
нуфус
нуфусдик
нуфусдин
нуфуслу
нух
нуха
нуцал
нуьк
нуькӏ
нуькӏвер
нуькӏвери
нуькӏверин
нуьрнберг
нуьсрет
нуьц
нуэва
нуэво
нц
нштеи
ны
ные
ныи
нытва
нытвенскии
ных
нью
ньюкасл
ньютон
ньянджа
нюгди
нямет
няне
няни
нянин
нянихъ
о
оао
об
оба
обвинять
обелиск
обелискар
обеспечен
обеспечение
обеспечению
обеспечения
обеспечить
обещать
обзор
обкомда
обкомдин
обл
област
областар
областда
областдин
областеи
области
областного
область
областьда
областьдин
областям
областях
обновле
обновление
обновления
обновляется
обозначения
обозрение
обох
образ
образар
образование
образованием
образовании
образования
образованиям
образовательные
образом
образцово
обратился
обратиться
обратнои
обратную
обращение
обрезки
обсе
обстоятельства
обсудить
обсуждать
обсуждение
обсуждении
обсуждению
обсуждения
обсуждениях
обучения
общая
общего
общее
общежитие
общеи
общем
общеобразоват
обществ
общества
общественная
общественно
общественное
общество
общие
община
общины
общую
объе
объединении
объект
объекта
объектар
объектдин
объектив
объектов
объектрин
объекты
объем
объявление
объявления
обычно
обычного
обычнои
обычные
обычным
обязанности
обязательно
обязательного
обязательные
обязательныи
обязательных
ова
оваджык
овчинников
огаи
оглы
огни
огонек
огородная
огпу
огромное
огузер
огъуз
огьан
огьаннесбург
од
одеколон
одесса
одессадин
один
одина
одинцово
одна
однако
одним
одних
одно
одного
однозначно
однои
одном
односельчане
одну
оз
озе
озера
озерки
озеро
озеф
ознакомиться
ознакомьтесь
означеннои
ои
ок
ока
оказывается
окампо
окато
океан
океанар
океанда
океандаи
океанди
океандиз
океандик
океандин
океандинни
океандихъ
океания
океаниядин
океанри
океанрин
окенадин
окисламиш
оккупация
оккупациядин
оклахома
окленд
около
окончание
округ
округа
округам
округар
округарни
округда
округдиз
округдик
округдикаи
округдин
округдихъ
округе
округов
округриз
округрикаи
округрин
оксиген
оксигендин
оксид
оксиддив
оксидрихъ
октавиан
октябрдал
октябрдиз
октябрдилаи
октябрдин
октябрь
октябрьда
октябрьдиз
октябрьдилаи
октябрьдин
октябрьскии
октябрьское
октября
окуджава
ола
олег
оливеи
олимп
олимпиада
олимпиададин
олимпиадин
олимпии
олимпик
олимпия
олимпиядадин
олимпиядин
оловянникова
олтменан
ольга
ольденбург
ольденбургда
ольденбургдин
ольховка
ольхон
оман
омандин
омар
омаров
омарова
омбудсмен
оме
омега
омск
он
она
онам
онар
онарни
онда
ондаи
ондал
онди
ондиз
ондик
ондикаи
ондилаи
ондин
ондинни
ондихъ
оне
онега
онегин
они
онлаи
онни
онныи
онных
оно
онов
оном
ономастика
онра
онраи
онриз
онризни
онрикаи
онрин
онрихъ
онтарио
оны
оон
ооо
оп
опасения
опера
операдин
оператор
операторы
операция
операциядин
оперетта
описание
описании
описания
определе
определением
определиться
определять
опрос
оптика
опубликован
опустилась
опыт
опыта
опять
ор
орада
оразгулаул
оран
оранжерея
оратор
орбита
орбитадин
орган
органар
органди
организаторов
организации
организация
организациядин
организмар
организмрин
организовать
органик
органра
органри
органриз
органрин
оргкомитет
орда
ордади
ордадиз
ордадин
орден
орденар
орденарни
ордендиз
ордендин
орденриз
орденрин
орджоникидзе
орджоникидзедин
ордин
ординскии
оре
орегон
оренбург
оригинал
оригинала
ориентироваться
орикс
ория
орк
оркачи
оркда
оркдин
оркестр
оркшир
орла
орловская
орловские
орловскии
орловскои
оро
орота
орт
орта
ортаколо
оруба
оружие
орфография
орфографиядин
освоение
осетинар
осетия
осетияда
осетиядин
осиновка
осинскии
осипова
оскар
оскардиз
осман
османов
османрин
осн
основание
основании
основания
основе
основнои
основном
основные
основных
основы
ост
оставить
остае
осталась
осталось
остальные
остальных
остен
остриковка
остров
острова
островар
островарни
островда
островдал
островдиз
островдикаи
островдин
островни
островра
островрал
островри
островриз
островрикаи
островрин
островрихъ
островскии
остроградскии
ось
от
отар
отбору
отв
ответили
ответить
ответственно
ответственность
ответственные
ответы
отвечает
отвечают
отвечу
отд
отдае
отдел
отдела
отделдиз
отделдин
отделение
отделениядин
отделенияр
отделом
отдельно
отдельныи
отдельных
отдых
отдѣл
оте
отечественнои
отечество
отзывами
отзывов
отзывом
отзывы
открывать
открылась
открыли
открыт
открытия
открытым
откуда
отличается
отличник
отлично
отметить
относительно
относительности
относиться
отношение
отношении
отношению
отношения
отображаемое
отображаемыи
отображает
отображается
отображаться
отображение
отображения
отобразится
отправить
отправлено
отрада
отрицательными
отряд
отслеживающая
отставкада
отставкадиз
отступ
отсутствие
отсутствует
отта
оттал
отто
оттодиз
оттон
отче
отчество
отьеди
офиц
офицал
офицер
офицерар
официал
официалвилелди
официалвилин
официалдаказ
официального
официальные
официальныи
оформление
оформлению
оформления
оформленного
оформлять
охан
оханскии
охли
охотск
охраны
оц
оценить
оценка
оче
очевидно
очень
очередь
очерк
очеркар
очерки
очеркрин
очко
ош
ошибка
ошибками
ошибки
ошибок
ошибское
ошкар
оь
п
па
паб
пабло
пабни
павел
павелан
павелдин
павленко
павлиашвилиди
павлович
павловка
павлово
пагьливан
пад
падана
падар
падарар
падеж
падежар
падежда
падеже
падежриз
падежрин
падержиз
падни
паи
пак
пака
пакаман
пакамахъ
пакистан
пакистанда
пакистандаи
пакистанди
пакистандин
паласа
палата
палатадин
палау
палаццо
палеолитдин
палестина
палестинадин
палестрина
палочка
палочки
палочку
палчухуба
пальник
памбаг
памбак
памяти
памятная
памятник
памятникар
памятники
памятников
память
пан
панам
панама
панамадин
панахмахи
панда
панели
панель
паниковец
панипат
панорама
пантеон
паньково
паоло
папа
папавилин
папади
пападин
папаз
папаи
папан
папар
папари
папариз
папарин
папуа
пар
пара
парабур
парабуру
паравилин
парагваи
парад
параиба
параллели
параллельно
параметр
параметра
параметрам
параметрами
параметрах
параметре
параметров
параметром
параметру
параметры
парана
паранадин
паранаэнсе
парани
парар
парарин
параул
паргар
париж
парижда
париждиз
париждилаи
париждин
паринское
парк
паркар
паркарин
паркарни
паркдин
паркуна
парламент
парламентвилин
парламентди
парламентдин
парнаиба
парни
паровоз
пароход
парсера
партал
парталар
парталриз
парталрин
партизанрин
партии
партия
партияда
партияди
партиядик
партиядин
партияр
партияррин
партне
парча
парчаяр
пас
пасквино
пасо
паспорт
паспортра
пассажирар
пассат
пассатар
пассатди
пассатдин
пассив
пата
патав
патаваи
патаг
патаз
патаи
патал
паталаи
паталди
патални
патан
патандаз
патани
патанни
патаннини
патар
патара
патараи
патарал
патарив
патариз
патарикаи
патарилаи
патарин
патарихъ
патарихъаи
патарни
патах
патахъ
патахъаи
патахъди
патент
патриарх
патриотвилин
паулиста
паулу
паулудин
пауль
пахарь
пахлаи
пахлахан
пахомово
пахун
пахундиз
пацукаи
пачагь
пачагьар
пачагьвал
пачагьвалдин
пачагьвилер
пачагьвилиз
пачагьвилик
пачагьвиликаи
пачагьвилин
пачагьди
пачагьдиз
пачагьдин
пачагьдихъ
пачагьлугъ
пачагьлугъар
пачагьри
пачагьрилаи
пачагьрин
паччагь
паччагьвал
паччагьвилин
паччагьди
паша
пашадин
пашаев
пашково
пашман
пашня
пашстан
паюн
паюна
паюнал
паюнар
паюни
паюниз
паюник
паюникаи
паюнилаи
паюнин
паяр
паяриз
паярикаи
паярин
паяц
пвс
пе
певица
педагог
педагогвилин
педагогикадин
педагогики
пединститут
пединститутда
педро
педроса
педтехникум
педучилище
пеи
пек
пекдин
пекер
пекин
пекинда
пекиндин
пекинин
пел
пелагония
пеле
пелел
пелелаи
пелен
пеленг
пелер
пелеяр
пеналти
пеналтии
пенальти
пенджаб
пенжер
пенза
пенсильвания
пенсиядиз
пеньяроль
пепе
пепеи
пепеяр
пер
первая
первого
первое
первои
первом
первомаи
первому
первую
первые
первыи
первым
первых
перев
переве
переведе
перевести
перевод
перевода
переводами
переводе
переводит
переводится
переводить
переводчика
переводы
перевыборы
перед
передае
передача
передачада
передачаяр
передачи
передовая
переи
переименовании
переименовать
перем
перенаправление
перенаправлении
перенесено
перепелятник
переписи
перепись
перес
пересмотра
пересмотреть
пересмотру
перестрои
переход
перечень
перечисляются
перечнями
пери
период
периода
периодика
периодике
периодики
перишан
пермдин
пермскии
пермского
пермь
пермяк
перпендикуляр
персидских
персия
персиядиз
персиядин
персона
персоналии
перспектива
перспективах
перу
перуан
перудинни
перудихъ
перуни
песец
песни
песня
песнях
песьянка
петербург
петербургда
петербургдиз
петербургдин
петр
петра
петран
петргу
петрдин
петрович
петровка
петровна
петрово
петровск
петровскии
петровское
петроград
петрозаводск
петропавловск
петропавловскии
петросян
петь
пехлевии
пехъи
пехъивал
печ
печатдаи
печатдиз
печатдин
печора
пеш
пеше
пешегалкӏрин
пешедаи
пешедин
пешеи
пешекар
пешекарвилин
пешекаррин
пешер
пешерин
пешеяр
пи
пианист
пиаф
пиво
пии
пик
пикассо
пико
пикселях
пилек
пилюля
пинар
пинг
пиньинь
пионер
пип
пиперхуьр
пипетка
пипин
пипӏен
пипӏерин
пир
пирал
пирамида
пиратвал
пиренеи
пиренеяр
пирогова
пис
писателеи
писатели
писателрин
писатель
писательрин
писать
письменность
письмо
пит
питер
питун
питунар
пич
пишет
пишется
пиши
пишите
пишкеш
пишкешар
пишкешдин
пишкешна
пишкешнаваи
пишу
пишут
пияда
пк
пкс
плазма
плазмадин
плазмадинни
план
плана
планар
пландиз
пландин
плане
планет
планета
планетадаи
планетадал
планетадин
планетаи
планетарии
планетаяр
планетаярни
планетдин
планетрин
планетринарадин
планирования
планирует
планк
планра
планрикаи
плантация
пластырь
плата
платини
плато
платодин
платои
платон
плая
плеи
плинии
плита
плитади
плитадин
плитаи
плитаяр
плоское
плота
плохо
площадь
плутон
плюс
пляж
пляжар
по
победа
победителеи
победителем
победитель
победы
побратимов
поведения
поверхностных
повестар
повестрин
повесть
повидло
повлиявшие
поводу
поволжьедин
погода
под
подать
подвал
подвиг
подгорная
подготовка
поддержать
поддерживает
поддерживать
поддерживаю
поддержку
поделились
поделитесь
поделиться
подзаголовок
подкантон
поднялась
поднялся
подождать
подписи
подпись
подполковник
подробнее
подробности
подробную
подстраницы
подсче
подтвердили
подход
поезд
поездар
поезддин
поездрин
пожаловать
пожалуи
пожва
позволяет
поздравить
поздравления
поздравляю
позже
позиции
позиционная
позиционнои
позиционные
позиционных
позицию
позиция
позициядин
позкарт
позкарта
познер
пои
поиск
поиска
поисках
пока
покажите
показ
показатель
показателю
показателя
показывает
покровка
покровская
покровскии
покровское
пол
полвека
полгода
поле
полинезия
политехникадин
политехническии
политик
политика
политикада
политикади
политикадиз
политикадин
политикадинни
политикар
политиквилин
политикни
политические
политическии
политическои
полиции
полиция
полициядин
полк
полкдин
полковник
полководец
полкунин
полная
полного
полное
полномочии
полномочия
полностью
полную
полныи
поло
половине
половины
полог
положение
положения
положительныи
полтава
полу
получается
получать
получение
получения
полученных
получится
получить
полушария
поль
польза
пользователь
пользу
польша
польшада
польшадин
полюс
полюса
полюсдин
поля
поляк
полякар
полякрин
поляна
померания
помераниядин
помешает
помидор
помимо
помните
помогать
помочь
помощи
помощь
помощью
понедельник
понимаю
понравилось
понтии
понял
понятия
понятно
поп
попаи
попечителеи
поповка
попросить
попугаи
популярная
пор
пора
порог
порт
портал
портар
портда
портленд
портни
портр
портрет
портретом
порту
португал
португали
португалии
португалия
португалияда
португалиядаи
португалияди
португалиядиз
португалиядин
португалияни
португалрин
португальскии
портунин
портфель
порядка
порядке
порядок
посад
посадов
посадского
посвяще
посе
поселение
поселении
поселения
поселка
поселкада
поселок
поселокда
посему
посетите
поскольку
послание
после
последнего
последнеи
последние
последнии
последних
посмотреть
посмотрите
пособие
посол
посольство
посредством
пост
постановление
постараюсь
постоянного
постояннои
постоянныи
пострадавших
потенциал
потенциалдин
поти
потом
потомак
потому
потребуется
поу
поход
похоже
почему
почитать
почта
почтадин
почти
почтунин
поше
поэзии
поэзия
поэзияда
поэзиядин
поэма
поэмадин
поэмаи
поэмаяр
поэмы
поэта
поэтесса
поэтов
поэтому
поэты
появилась
появляется
появляются
появятся
пояс
пр
прав
права
правда
правды
праве
правил
правила
правилам
правилен
правило
правильно
правительства
правительство
правительстводин
править
правка
правками
правках
правки
право
правого
праводин
правои
правок
правом
правоприменения
православ
православар
православие
православиедин
православиядин
прага
прагьа
прадеш
прадешдин
праи
практика
практикадин
преамбула
превышает
преданность
предлагается
предлагаю
предложение
предложении
предложения
предложил
предмет
предметар
предназначен
предназначена
предоставить
предоставление
предполагать
предприниматель
предприятие
председателдин
председатель
председательвиле
председательдин
председателя
председателяр
представителеи
представители
представитель
представителя
представлены
представляется
предупреждение
предъявляются
предыдущими
президент
президента
президентар
президентвиле
президентвилин
президентди
президентдиз
президентдин
президентдихъ
президиуман
президиумди
президиумдин
преимущество
премиер
премиердин
премии
премия
премиядиз
премиядин
премияррин
премьер
премьера
премьердин
преображенская
пресли
пресня
пресс
пресса
престолдал
престон
претензии
префект
при
прибалтикадин
приведены
привели
привет
приволжскдин
приволжскии
приглашаем
приглашение
пригодится
приде
придерживаться
прие
приз
призе
призер
призерар
призером
призываю
приказ
прикаспии
прилагательное
прилепы
приложение
примаков
применению
применяется
пример
примера
примерно
примеров
примеру
примеры
примеч
примечание
примечания
приморск
приморскии
приморье
принадлежал
принимает
принимать
принимаются
принсипи
принц
принцип
принципдалди
принципе
принципы
принял
приняли
принята
принятии
принятия
принято
принять
приобретают
приобретут
приоритет
приоритетные
природа
природе
природы
присвоен
присвоением
присвоении
присвоения
присвоить
присоединиться
присоединяи
приставствои
приставствояр
присутствовать
присутствующих
прицеп
приче
причинам
пришло
про
пробел
пробелов
пробка
пробкадин
проблем
проблема
проблемаи
проблемаяр
проблемрин
проблемы
проведе
проведение
проведении
проведению
проведения
провели
проверено
проверить
проверка
проверки
проверяет
проверять
провести
провинции
провинция
провинцияда
провинциядиз
провинциядик
провинциядин
провинцияни
провинцияр
провинциярриз
провоцировать
проголосовал
проголосовали
проголосовать
проголосуи
программа
программадин
программаяр
программировании
прогресс
продолжение
продолжить
продольная
продуктар
продуктрин
продукция
продукциядин
продюсер
продюсерни
проезд
проект
проекта
проектар
проектах
проектда
проектдин
проекте
проектов
проекту
проекты
проекции
проекция
проживающего
проза
прозада
прозадин
прозаик
прои
произведении
произведения
произведенияр
производство
происхождение
происхождении
прокуратурадин
прокурор
прокурордин
пролив
проливар
проливдаи
проливдин
проливрин
промышленное
промышленностдин
промышленность
промышленностьдин
пронина
пропаганда
прописать
пропущен
проработанная
проработаннои
проработанные
пророка
просвещение
просит
проставить
проставляется
проставлять
просто
пространства
пространстве
пространство
просьба
протасово
протекторат
протестантар
протестантри
протестантрин
против
протии
протокол
протоколар
протон
протондин
проф
профессионал
профессор
профессорар
профил
профиль
проходить
проходят
прохоров
процент
процентах
процентов
процесс
процесса
процессар
процессда
процессдин
процессе
процессрин
процессы
прочее
прочитаи
прочитать
прочих
прошедшее
прошедшии
прошла
прошло
прошлого
прошлое
прошлом
прошу
проще
проявил
пруды
пруссия
пруссияди
пруссиядиз
пруссиядин
прямо
прямои
прямом
псахе
пси
психолог
психология
психологиядикаи
психологиядин
псков
псковдин
пт
птаун
птидхуьр
птолемеи
птул
публикации
публикация
публицист
публицистар
публицистика
публицистикадин
пугаче
пугачева
пугачевади
пуд
пудаи
пудан
пудкъад
пудкъанни
пудкъанниц
пудлагьаи
пудра
пукто
пуку
пул
пулар
пуларин
пулгалачиз
пулеме
пулуналди
пулунин
пулунихъ
пун
пуна
пунар
пункт
пункта
пунктар
пунктах
пункте
пунктов
пункту
пунктуация
пункты
пунта
пурар
пурарин
пурнии
пурнияр
пусан
пустои
пустые
пустыня
пусть
путеводитель
путеи
путешествие
пути
путин
путина
путь
пуч
пушкаш
пушкин
пушкина
пушкиназ
пушкинан
пуэбла
пуэрто
пфа
пхальгонсан
пхеньян
пциг
пытаетесь
пьедрас
пьер
пьерлуиджи
пьерни
пьеса
пьесада
пьесаяр
пьяцца
пэгунсан
пятигорск
пять
пӏ
пӏатӏар
пӏатӏарин
пӏипӏдин
пӏир
пӏирер
пӏирмегьамедов
р
ра
рабиа
работа
работает
работать
работают
работающими
работе
работои
работу
работы
рабочеи
рабочии
равен
равно
равнопромежуточнои
равносильна
раг
рагал
рагар
рагарин
рагъ
рагъак
рагъакъатдаи
рагъакӏ
рагъакӏида
рагъакӏидаи
рагъаэкъечӏдаи
рагъул
рагъэкечӏдаи
рагъэкъеч
рагъэкъечдаи
рагъэкъечӏдаи
рагъэкъчӏдаи
рагъэкъэч
рагъэкъэчӏдаи
рагъэкьечӏдаи
рагъэкӏидаи
рагьимат
рагьимрин
рагьманова
рагьмет
рагьметдиз
рагьметлу
рад
рада
радаи
раджастхан
радиаллагьу
радик
радикал
радин
радио
радиовещаниедин
радиода
радиодаи
радиодин
радиостанции
радиостанцияда
радиус
раевскии
ражаб
ражабан
ражабов
ражидин
раз
раза
разбирается
разве
развитие
развитии
развитию
развития
разговорник
разград
раздан
раздел
раздела
разделам
разделах
разделе
разделов
разделом
разделу
разделы
раздолье
рази
разивал
разивиле
разивилелди
разивили
разивилин
разивиляи
различных
размер
размера
размере
размером
разметки
размещать
размещение
размещения
разница
разнообразие
разных
разработке
разряд
разумеется
разъезд
раи
рак
ракетаи
ракетка
ракъини
ракъиниз
ракъинилаи
ракъинин
ракъураи
ракъурдаи
ракъурзаваи
ракъуриз
ракъурна
ракъурнаваи
ракъурнаи
ракъурун
ракъуруник
ракъурунин
ракь
ракьар
ракьинин
ракьни
ракьукаи
ракьун
ракьуникаи
ракьунни
рал
ралди
рам
рамазан
рамазана
рамазанан
рамазанов
рамазанова
рамазанрин
рамалью
рамзан
рамлы
рамов
рамон
рамсес
ран
ранг
рангадин
рангар
рангарин
рангдин
рангни
рангуналди
рангуни
рангунин
ранда
рандадикаи
рандиз
ранее
рани
раньше
рапак
рар
рарат
рарни
рас
раса
расадин
расаи
расзава
расзаваи
расим
расми
расна
раснаваи
расписка
расположение
распоряжение
распоряжению
рассвет
рассказы
рассмотрение
расстановку
растении
растения
расу
расул
расула
расулан
расун
расунин
расче
расширение
расширения
расширенными
рат
ратар
ратара
ратарин
ратификации
ратлуб
рауль
раунд
раух
рафаэль
рафтар
рафтарвал
рафтарвилер
рафтарвилерин
рафтарвилин
рах
рахадаи
рахаз
рахазава
рахазаваи
рахазаи
рахазва
рахазваи
рахаи
рахана
рахата
рахман
рахун
рахуна
рахунар
рахуниз
рахунин
рахунриз
рахунрин
рационал
рацитль
рача
рачабулда
раш
рашид
рашидов
раятвал
раятвилиз
рвилин
рг
ргазваи
рд
рдин
ре
реактив
реактор
реакции
реакция
реакцияда
реакциядиз
реакциядин
реакцияр
реал
реалди
реализации
реализацию
ревари
ревизия
револьвер
революции
революционер
революция
революциядилаи
революциядин
регби
регент
регион
региона
регионал
региональнои
региональные
региональных
регионам
регионар
регионда
регионди
региондиз
региондик
региондин
регионов
регионра
регионраи
регионриз
регионрикаи
регионрин
регионы
регистрации
регистрация
регистрациядин
регъ
регъв
регъпатан
регъуьн
регьбер
регьберар
регьбервал
регьбервалдик
регьбервиле
регьбервили
регьбервилик
регьбервилин
регьбердин
регьберри
регьберрикаи
регьберрин
регьебервал
регьетдаказ
регьим
регьимвал
регьимлу
регьметдиз
регьят
регьятарнаваи
регьятдаказ
регьятдиз
ред
редактирования
редактор
редакторар
редакторвал
редакторвиле
редактордин
редакциеи
редакции
редакция
редакцияда
редакциядин
редколлегиядин
реестр
режеб
режим
режимдиз
режиссе
режиссер
реза
резиденция
резин
резник
результат
результатам
результатах
результате
результаты
реи
река
реквием
реки
рекомендательныи
рекомендации
рекомендация
рекомендуется
реконструкции
реконструкция
рекорд
рекордар
рекорддин
рекордов
рекордсмен
рекреацион
ректор
рекъяи
рекь
рекье
рекьекьул
рекьекьуьл
рекьел
рекьелаи
рекьелди
рекьер
рекьера
рекьераи
рекьералди
рекьерикаи
рекьерин
рекьи
рекьидаи
рекьиз
рекьизаваи
рекьизва
рекьизваи
рекьикаи
рекьин
рекьяи
религии
религиозные
религиозныи
религия
рельеф
рельефдин
рельс
рем
рембрандт
рен
рена
ренат
рене
ренессанс
реннесанс
рентген
репертуарда
репортаж
рептилияр
рес
респу
республик
республика
республикада
республикади
республикадиз
республикадик
республикадин
республикадинни
республикадихъ
республикаи
республикам
республиках
республикаяр
республики
республикои
ресторан
ресурс
ресурсар
ресурсов
ресурсрин
ресурсы
реформа
реформаи
реформация
реформациядин
реформаяр
рехи
рехне
рехъ
рецептар
речка
речь
решение
решении
решения
решил
решило
реюньон
ржавец
рзаева
ри
риа
рив
риваи
риван
риваятар
ривер
рига
риз
ризаев
ризван
ризванов
ризванова
ризванован
ризни
рик
рика
рикадин
рикаи
риквани
рико
рикӏ
рикӏе
рикӏел
рикӏелаи
рикӏера
рикӏериз
рикӏиваи
рикӏиз
рикӏин
рилаи
рим
рима
риман
римви
римвии
римвияр
римда
римдаи
римди
римдиз
римдин
римдинни
римма
римскии
рин
ринго
ринди
рини
ринкон
ринни
рио
риони
рисер
ритм
риу
риф
рифтерин
рихъ
рихъаи
рихъни
рихьард
рича
ричард
риш
ришелье
рия
рк
рки
рная
рни
рное
рные
рныи
ро
робби
роберт
роберто
роби
робин
робина
робиназ
робинан
ров
ровд
роверс
ровно
рог
род
рода
роджер
родина
роднои
родном
родригес
родриго
рождения
рождественское
роза
розташування
рок
рол
ролар
ролди
ролдин
роли
роль
роляр
ром
рома
роман
романа
романар
романдин
романеско
романо
романовка
романрин
романс
ромул
роналду
рондония
ронни
роном
рораи
росалес
росарио
россадин
россии
россию
россия
россияда
россиядиз
россиядин
росстатдин
роста
ростов
ростовдин
ротадин
роттердам
роща
рскии
рских
рсфср
рт
ру
руанда
рубаии
рубаияр
рубас
рубен
рубинштеи
рубл
рубль
руг
ругуд
ругудвишни
ругуджа
ругудлагьаи
ругун
ругъ
ругъунар
ругьани
ругьтак
рудин
рудольф
руз
рузвельт
руи
рук
рукель
руководства
руководстве
руководство
руководством
руководству
руль
рум
рума
румажувар
румажувари
руман
румар
румдал
румдин
румуния
румынар
румыния
румынияда
румыниядин
румыниядихъ
румянцево
руниверс
рупалан
рус
русвагьарзава
руслан
русская
русски
русские
русскии
русским
русских
русско
русского
русское
русскои
русском
русскоязычного
русскоязычныи
руссо
рустави
руставида
руставидин
рустам
рустаман
рустамов
русь
русьда
русьдин
рут
рутул
рутулар
рутуларни
рутулви
рутулвии
рутулдаи
рутулдин
рутулри
рутулрин
рутульскии
рутульского
руфун
руфуна
рух
рухваи
рухваяр
рухун
рухунрин
руш
руша
рушаз
рушан
рушар
рушари
рушариз
рушарин
рушни
рушуха
руьгь
руьгьдин
руьхъ
рф
ры
рыбзавод
рыбников
рыбникова
рыбница
рыжково
рычал
рэи
рюриковичар
рягьметдиз
ряд
рядом
ряду
рязань
с
са
саад
саадиева
саам
саб
саба
сабинас
сабир
сабирабад
сабируба
сабли
сабнова
сабунчу
сабур
савад
савадлу
саваннадин
саваннаяр
савда
савдавал
савдавиле
савдавилин
савдагар
савдагарар
савдагарвилин
савдагаррин
савдадин
савино
савинском
савкьатар
савкьватар
саву
сагаси
сагъ
сагъар
сагъардаи
сагъарзаваи
сагъвал
сагъвалдин
сагъдиз
сагъламвал
сагъраи
сагърунин
сагьиб
сад
сада
садав
садаваи
садаз
садазни
садак
садакаи
садакьа
садал
садалаи
садан
садани
садахъ
садахъаи
садбур
садбуру
садбуруз
садбурун
садвал
садвалда
садвалдик
садвалдин
садвилин
садикь
садикьан
садко
садлагьаи
садлагьана
садлаи
садни
садовая
садовое
садовыи
садра
садрани
садхьанваи
садхьун
садыкъиди
сажда
сажидин
сажидов
саи
саид
саида
саидагьмедан
саидан
саидгьасанов
саидов
саидова
саимат
сак
саки
саклеткадин
саксар
саксен
саксония
саксониядин
саксонрин
сакӏани
сакӏус
сал
сала
салаам
салават
салаватни
салагь
салагьаз
салагьуба
салаи
салам
саламни
саламу
салан
салар
салара
саларбанвал
саларьево
саласа
саласадиз
салат
салатав
салвадор
салигь
салигьов
салик
салим
салимова
салинас
салихов
салихрин
салиян
салли
салман
салта
салфетека
сальвадор
сальтильо
сальто
салютдин
сам
самагон
самалчияр
самар
самара
самарканд
самая
самбо
самбодаи
самбодин
самбохъанар
самегрело
сами
самим
само
самоа
самовар
самого
самое
самои
самоле
самолет
самом
самоназвание
самостоятельно
сампдория
самсадин
самсам
самсамди
самур
самурви
самурдин
самури
самурского
самух
самую
самцхе
самыи
самым
самых
сан
санал
саналди
санани
санатории
сангар
сандин
санжи
санитар
саният
санкт
санлаи
санскрит
сант
санта
санти
сантиметрдив
санто
сантос
санту
сантьяго
санчес
санчи
сапата
сапсан
сапунчи
сар
сара
сараг
сарагоса
сараи
саралух
сарар
сарат
саратов
саратовдин
сардархуьр
сардиния
сариз
сарикаи
сарир
сарирдин
саркисян
сарматри
сарраф
сарс
сарубугъда
саруханов
сарыбаш
сарыджа
сас
сасанидрин
саситли
сассари
сатин
сатира
сатирадин
сатирик
сатурн
сауди
саудии
саутгемптон
сафаралиев
саха
сахалин
сахалинские
сахалинстат
сахара
сахарадин
саше
саягъ
саягъни
саяд
саянар
сб
сбол
сбор
сборник
св
сван
сванар
сванети
сванетия
свас
сведении
сведения
свердлова
свердлово
свердловск
свердловскии
сверху
света
свете
свидетельствующии
свобода
свободен
свободная
свободного
свободное
свободныи
свободных
свободы
свод
сводешан
свое
своеи
свои
своим
своих
свою
свыше
свяжитесь
связанные
связанных
связи
связь
свято
святого
святои
священная
свѣдѣніи
сгкп
сделал
сделанные
сделать
сдин
се
сеа
себастьян
себе
себеб
себебар
себебдаи
себебдалди
себебдилаи
себебралди
себебрикаи
себио
себя
сев
севан
севастополь
север
северная
северного
северном
северныи
северо
северокавказского
северянар
сегелер
сегодня
сегьне
сегьнеда
сегьнедал
сегьнедилаи
сегьнедин
сегьнеи
сегьнеламишна
седакъет
седреддин
сезон
сезонар
сезонда
сезондиз
сезондилаи
сезондин
сезонра
сеи
секин
секинардаи
секинвилин
секретар
секретарвиле
секретардин
секретарь
секретарьвиле
секретно
секс
секунд
секундах
секунды
секции
секция
сел
села
селе
селевкидрин
селении
селения
селер
селжукрин
селим
селиман
селимов
селимрин
село
сельскии
сельских
сельского
сельское
сельском
сельсовет
семгамахи
семе
семеи
семен
семенов
семинар
семитрин
семьи
семья
сен
сена
сенат
сенатдиз
сенатдин
сенгер
сенегал
сенжефил
сент
сентер
сентро
сентябр
сентябрдал
сентябрдиз
сентябрдилаи
сентябрдин
сентябрь
сентябрьда
сентябрьдиз
сентябрьдин
сентября
сенят
серам
серб
сербия
сербиядин
сербиядихъ
сервер
сервии
сервис
сервисар
сергеева
сергеевич
сергеевка
сергеи
сергея
сергиевское
сергино
серго
сергокалинскии
сергокъала
сергьят
сергьятар
сергьятарзава
сергьятда
сергьятдал
сергьятдилаи
сергьятдин
сергьятзава
сергьятра
сергьятрал
сергьятрив
сергьятриз
сергьятрик
сергьятрилаи
сергьятрин
сердер
сердца
сере
серебряковка
серебряныи
серенжемда
серенжемрин
сержант
сериал
серии
серин
серия
серияда
сериядин
серкер
серра
серро
сертация
серхио
серыи
серье
сес
сесар
сесер
сесерин
сессии
сессия
сессияди
сессиядин
сетдин
сети
сеть
сетӏренжар
сеул
сефевидрин
сефевии
сефер
сеферда
сефердани
сефердилаи
сефердин
сефереда
сефигь
си
сиань
сиб
сибир
сибирда
сибирдиз
сибирдин
сибирь
сибирьда
сибирьдиз
сибирьдин
сибо
сив
сиве
сивел
сивелаи
сивер
сивера
сивераи
сивериз
сивиз
сивик
сивин
сивинскии
сивяи
сигизмунд
сигнал
сидань
сидкьидаи
сиднеи
сидорова
сидоровка
сиерра
сии
сик
сикӏ
сикӏер
сикӏерин
сил
сила
силикатрикаи
силисдин
силла
силуэт
сильва
сильди
сим
символ
символар
символдалди
символика
символические
символов
символрикаи
симер
симметрия
симонята
симптомар
симсир
симфониядин
син
сина
синагога
синагъдин
синалоа
сингапур
сингапурдин
синглар
синд
синдром
синел
синер
синиф
синифриз
сино
синонимрин
синт
синтаксис
синтаксисдиз
синтез
синхронныи
синьцзян
синьцзяне
сир
сираги
сиражудин
сиражудинан
сиреникдин
сирер
сирии
сирия
сирияда
сириядаи
сириядиз
сириядин
сирнавун
сиртич
систем
система
системада
системадаи
системадал
системади
системадиз
системадик
системадилаи
системадин
системаи
систематика
системаяр
систему
системы
сити
сиух
сифет
сифетарни
сифетра
сифетрин
сифте
сифтегьан
сифтедаи
сифтеди
сифтедин
сифтеи
сифтени
сиффина
сих
сихил
сихилар
сихилдаи
сихилди
сихилдиз
сихилдик
сихилдикаи
сихилдин
сихилри
сихилриз
сихилрикаи
сихилрин
сицилия
сиягъ
сиягь
сиягьар
сиягьат
сиягьатхъан
сиягьатчи
сиягьатчияр
сиягьда
сиягьди
сиягьдиз
сиягьдик
сиягьра
сиягьриз
сиягьрин
сиякат
сиясат
сиясатда
сиясатдик
сиясатдин
сиясатдинни
ск
скажем
скажу
сказал
сказать
скаи
скала
скандинав
скандинавиядин
скароне
ская
скда
скдин
ские
скии
ским
скифар
скифри
скифрин
ских
ско
скобках
ского
ское
скои
сколько
ском
скончался
скопье
скорее
скорость
скрытую
скульптор
скульптура
скульптурадин
скульптураи
скульптураяр
скумбрия
скую
скъао
скър
слава
славъян
славы
славься
славян
славянрин
слева
следить
следователь
следствиедин
следует
следующем
следующие
следующии
следующим
следующих
следующую
слеи
слитно
слобода
слободка
слов
слова
словак
словакар
словакии
словакия
словакияда
словакиядин
словаре
словари
словарь
слове
словен
словения
словениядин
словио
слово
слову
слог
сложилось
сложно
слудка
служба
службы
служебная
случае
случаи
случаях
см
смерти
смерть
сми
смик
смиквал
смит
смо
смогу
смогут
смоленск
смомпк
смотрите
смт
смугъул
смугъулар
смугъулрин
смысла
сначала
снг
снежная
снизу
снимать
сноска
сноски
сносок
со
соавторы
собака
собираюсь
собои
собор
соборда
собрание
собраниедин
собрания
собранная
собственно
собственныи
событии
сов
совет
совета
советди
советдиз
советдик
советдин
советник
советрин
советринни
советская
советскии
советского
советское
советскои
совместимости
совместно
совпадает
совпадать
современник
современного
современных
совсем
совхоз
совхозда
совхоздиз
совхоздин
совхозныи
согласен
согласно
соглашаюсь
согратль
сода
содержанию
содержать
содержимое
содержит
сожалению
создавать
создае
создал
создали
создан
создана
создание
созданием
создании
созданию
создания
созданным
созданных
создано
созданы
создать
сои
сокол
соколе
соколов
соколова
сокольники
сокольническая
сократ
сократес
сокращения
солдат
солдатар
солдатдин
солдатрин
солидарен
соликамск
соликамскии
солистка
солнечное
солнечнои
соло
соловье
соломон
соль
сомали
соматических
сомневаюсь
сомован
сомово
сон
сообщение
сообщении
сообщения
сообществ
сообщества
сообществе
сообщество
сообществом
соответственно
соответствии
соответствует
соответствуют
соответствующеи
соответствующие
соответствующии
соответствующих
соотношение
сороконожка
сортар
сортировки
соседних
сосково
сосковскии
соснова
сосновка
сосновское
сосновыи
сосо
сост
состав
состава
составдиз
составдик
составе
составил
составления
составленные
составляет
составу
состоит
состоится
состоянии
соткилава
сото
сотовои
сотрудник
сотрудничества
соул
софии
софия
софокл
сохранить
социал
социалвилин
социализм
социализмдин
социалист
социалиствилин
социални
социально
социальные
социальныи
социолог
соч
соча
сочи
сочинении
сочинения
сош
союз
союза
союзда
союздик
союздин
союзных
соя
спагетти
спартакиада
спасибо
спасское
спб
спектакль
спенсер
специализированных
специалист
специалистар
специалистри
специально
спид
спирт
спиртовка
списка
списке
списки
списков
список
спичка
сплошных
сподвижнике
спокои
спонсорар
спорстмен
спорт
спорта
спортдин
спортзал
спортивная
спортин
спортсмен
спортсменар
спортсменри
способ
справа
справедливая
справка
справочник
спрингбок
спутник
спутникар
ср
сравнению
сравнения
сравнительная
сравнительно
сразу
сред
среда
среде
среди
среднии
средняя
срок
сроки
сс
сср
ссрг
сссг
ссср
сссрди
сссрдин
ссылка
ссылками
ссылке
ссылки
ссылкои
ссылку
ссылок
ст
ста
стабам
стабгьаб
стабы
ставрополдин
ставрополь
ставропольдин
ставропольскии
стадион
стадионар
стадиондал
стадионрал
стаж
стал
стала
сталин
сталина
сталиназ
сталинан
сталинград
сталине
сталинскои
стало
стальскии
стальского
стамбул
стамбулдин
стан
стандарт
стандартные
стандарту
станислав
станица
станицада
становился
становится
становление
становлении
становое
станок
станции
станция
станциядаи
станциядал
станциядиз
станциядилаи
станциядин
старая
старое
старостин
старостина
старые
старыи
стат
статеи
статистика
статистикадиз
статистикадин
статистике
статистики
статистические
статистическии
статистических
статистического
статистическое
статус
статуса
статусдин
статусе
статусом
статуя
статуяди
статуярив
статуяяр
стать
статье
статьеи
статьи
статью
статья
статьям
статьях
стб
ств
ства
ствие
ствии
ствительно
ствия
ство
стводин
ствуют
ствующих
стд
сте
стеи
стекловолокно
стенбок
степан
степановка
степени
степень
степное
степнои
степь
стер
стерлитамак
стефан
стефано
стив
стивен
стилда
стилдин
стили
стилихон
стиль
стильда
стильдин
стильра
стиля
стипендия
стихи
стихов
стихотворения
стоит
стокилобаи
столбецкое
столдин
столица
столыпинан
столь
стороны
стр
стравинскии
стран
страна
странах
стране
страниц
страница
страницах
странице
страницу
страницы
страничку
страну
страны
стратегии
стратегия
стратегиядин
страховка
стрела
стрелнадин
стрелу
строк
строка
строке
строки
строку
строчку
структура
структурадин
структураяр
стс
студе
студент
студентар
студентди
студентри
студентриз
студентрин
студиядин
стул
стунар
стха
стхавилин
стхади
стхадин
стхаи
стхани
стхаяр
стэнли
стюардам
стӏал
стӏалар
стӏалрин
су
суал
суалар
суалдиз
суалдин
суарес
суахили
субарктик
субдиалект
субешх
субтропик
субтропиквилин
субтропикдин
субтропикрин
субут
субутарзава
субутарзаваи
субутзава
субутзаваи
субъект
субъектар
субъектов
субъектра
субъектриз
субъектрикаи
субъектрин
субэкваториал
субэтник
субэтнос
субэтносар
сув
сува
суваб
сувави
сувавии
сувавилин
сувавияр
сувагел
сувагил
суважал
суваз
суваи
сувал
сувалаи
суван
суванни
сувар
сувара
сувараи
суварал
суварар
суварарни
сувари
суварив
сувариз
суварикаи
суварилаи
суварин
суварни
суварра
суваррин
сувахъанрин
суваяр
сувдин
суверенитет
суворова
суворован
суву
сувуз
сувун
суд
судан
суданда
судандин
судандихъ
судди
суддин
судно
судьба
судьбы
судьи
судья
судя
суз
суксун
суксунскии
сул
сулавеси
сулак
сулевкент
сулеи
султ
султан
султанан
султандин
султаннуха
султанов
султӏан
султӏанан
султӏанат
сулу
сулюс
сум
сумбатль
сумгаит
сумпанго
сун
суна
сунжа
суни
сунипат
сунияр
сунна
сунни
сунрин
суперзвезду
суперкубок
суперкубокдин
супик
сур
сура
сурал
сурар
сурара
сурарал
сурари
сурарин
сурарни
суринам
сурун
сурхаи
сурьянинское
сусаи
сускент
сутбук
суток
суфии
суфра
суффикс
суффиксар
суффиксрин
сухая
сухокумск
сухта
сухтаи
сухум
сущевского
существительныи
существования
существует
сущности
сущность
суьгут
суьгьбет
суьгьбетар
суьзек
суьзме
суьник
суьннет
суьнни
суьргуьндиз
суьрет
суьретар
суьрме
суьрсетар
суьрсетрин
суьруь
суэц
сфера
сферада
сфи
схема
сценадал
сценарии
сценарист
сценаристар
сценарияр
сче
считается
считать
считаю
сша
сшадин
сын
сьерра
сьюдад
сэмюэл
сэр
сюда
сюрги
ся
сяопина
сят
сятда
сятдиз
сятдилаи
сятдин
сятерин
сятинин
т
та
таалядин
таб
табасаран
табасарана
табасаранар
табасаранви
табасаранвии
табасаранвияр
табасаранда
табасарандин
табасаранри
табасаранрин
табасаранрихъ
табасаранскии
табасаранского
табасаранское
табасараншагь
табии
табл
таблигъат
таблиц
таблица
таблицада
таблицадаи
таблицадик
таблицаяр
таблице
таблицу
таблицы
табнугъат
тав
тава
тавакъу
таваспор
таврида
тавун
тавуна
тавунваи
тавунин
тавунмаз
тавур
тавураи
тавуртӏа
тавуш
тавхана
тавханаяр
тагаи
таганрог
таганрогдин
таги
тагиева
тагиркент
тагскии
тагское
тагудаи
тагуз
тагузваи
тагун
тагъ
тагъар
тагъдин
тагърин
тагьир
тагьира
тагьиран
тад
тада
тадж
таджикар
таджикистан
тади
тадиз
таж
таждин
тажидин
тажикар
тажикистан
тажуб
таз
таза
тазият
таи
таиланд
так
такабур
такалаи
такая
также
таки
такие
таким
таких
такого
такое
такои
таком
такси
таксон
таксономия
такур
такьат
такьатар
такьатра
такьатралди
такьатрин
такьун
такьуна
такьурвал
тала
талант
талантдин
талгьа
талгьадин
талер
талибов
талибова
талик
талица
талишрин
таллин
таловка
талукь
талукьарзава
талукьарзаваи
талукьарна
талукьарнаваи
талукьарнаи
талукьбур
талукьвал
талукьвилин
талыш
талышар
там
тама
тамазатюбе
тамам
тамамарзаваи
тамамарна
тамамвилелди
тамамдаказ
тамар
тамара
тамари
тамарив
тамариз
тамарин
тамасула
тамаша
тамашаи
тамашаяр
тамбов
тамерлан
тамерлана
тамерланан
таможнядин
таму
тамун
тан
танана
танганьика
тандал
тандо
танзания
таниш
танк
танкар
танкрин
танты
тануси
танца
тапан
тапанчи
тапарарун
тапшурмишнаи
тапшурмишун
тапшуругъ
тар
таран
тарар
тарари
тарарин
тарашзаваи
тарашна
тарашнаи
тарашун
тарашхъанрин
таржума
таржумахъан
таржумачи
таржумаяр
тариф
тарих
тарихар
тарихвилелди
тарихвилин
тарихда
тарихдаи
тарихдал
тарихдалди
тарихдар
тарихдарри
тарихдаррин
тарихди
тарихдиз
тарихдикаи
тарихдин
тарихдинни
тарихдихъ
тарихи
тарихни
тарихрин
тариххъан
тариххъанари
тариххъанни
тарихчи
тарихчии
тарихъан
тарки
тарлан
тарланов
тарс
тарсар
тарсарган
тарсарин
тарсуна
тарумовка
тарумовскии
тархуьр
тарцин
тасман
тасс
тасута
тат
татам
татар
татарар
татарарни
татарни
татарри
татарриз
татаррин
татарстан
татарстанда
татархан
татарханрин
татаюрт
татляр
татри
татрин
татугаи
татун
таты
татьяна
тау
таун
тафават
тафаватвал
тафаватдиз
тафаватлу
тафаватлувилелди
тах
тахаи
тахминан
тахо
тахсир
тахсирар
тахсиркарвал
тахт
тахта
тахтунал
тахтунин
тахьаи
тахьана
тахьанваи
тахьун
тахьунин
таш
ташир
ташкент
таъмин
таъминарзава
таъминарзаваи
таъминвал
таъминрунин
таъсир
таъсирдаи
таъсирдалди
таъсирдиз
таъсирдик
таъсирдикаи
таъсирдин
таъсирзава
таъсирзаваи
таъсирлу
таъсирна
тб
тбилиси
тбилисида
тбилисидиз
тбилисидилаи
тбилисидин
тв
твадаи
тваз
твазва
твазваи
тванаи
твар
тварар
тварунихъ
тварцин
тве
твен
тверь
твики
творец
творчество
творчестводин
тда
тдал
тдин
те
театр
театрада
театрадиз
театрадин
театрар
театрда
театрди
театрдиз
театрдин
театрдинни
театрра
тебекмахи
тебриз
тебриздин
тебрик
тебя
тегеран
тегьер
тегьерар
тегьерда
тегьердалди
тегьерди
тегьердив
тегьердиз
тегьердин
тегьран
тед
тедбирра
тедди
теддиз
теди
тежедаи
тежез
тежезваи
тежер
тежриба
тежрибадикаи
тежрибаяр
тежу
теи
тек
текар
теквал
текдиз
текипиркент
теклиф
теклифдалди
теклифзава
теклифна
теклифнаваи
теклифнаи
теклифуналди
текриз
текрихъ
текст
текста
тексте
текстов
текстом
тексту
тексты
тектоник
тектоникадин
текущеи
текущии
текъвер
тел
тела
телави
теле
телевидение
телевидениеда
телевидениедин
телевидениядин
телеканал
телеканалар
телеканалдин
телекомпания
телерадиокомпания
телеф
телефвилер
телефнаи
телефон
телефондин
телешоу
тело
телодин
телои
телояр
телугу
тель
тем
тема
темадаи
темаи
темам
тематика
тематикадин
тематические
темаяр
теме
темза
темир
темиргое
темирхан
температура
температурада
температурадал
температурадилаи
температурадин
температураи
температураяр
темрезов
тему
темы
темягь
тенант
тенбек
тенна
теннесси
теннис
теннисдаи
теннисдин
теннисхъан
теночтитлан
теологиядин
теоретик
теории
теория
теориядин
тепе
теперь
тер
теракт
терактар
тербия
терг
тергна
тергнаи
терджан
терез
терек
терекдин
терекеме
терекемеяр
терекли
тереф
терефдарар
терефдарри
теречное
терии
терлик
термин
терминал
терминар
термини
терминология
терминологияда
термины
термодинамика
термохвехуьнин
терра
терракотадин
территориал
территориального
территориальное
территориальном
территориальных
территории
территория
территорияда
территориядаи
территориядал
территориядин
территорияр
территориярда
терроризм
террорхъан
тертер
тесла
тесниф
теснифаи
теснифзава
теснифзаваи
теснифиз
теснифна
теснифнава
теснифнаваи
теснифунал
тест
тестикь
тестикьарзава
тестикьарзаваи
тестикьарна
тестикьарнаваи
тестикьарнаи
тестикьун
тесь
тефеи
тефир
тех
техас
техил
техилдин
техника
техникадин
техники
техникум
техникумда
техничекадин
техническая
технические
техническии
техническим
технических
технического
техническои
технолог
технологии
технология
технологиядин
технологияр
технуцал
течении
тешвиш
тешкил
тешкилат
тешкилатар
тешкилатди
тешкилатдин
тешкилатра
тешкилатри
тешкилатрик
тешкилатрин
тешкилдаи
тешкилзава
тешкилзаваи
тешкилна
тешкилнаваи
тешкилнаи
тешкилунин
тешпигь
ти
тиб
тибет
тибетдин
тибр
тигьиржал
тигьирхуьр
тигьирхуьруьн
тидиб
тии
тик
тиканлы
тикрар
тикрарзаваи
тикрариз
тилитль
тилли
тим
тимор
тимур
тимура
тина
тинг
тингда
тинге
тиндалар
тинди
тиндияр
тинидикаи
тинит
тип
типа
типдиз
типдин
типография
тир
тирагъул
тираж
тираждалди
тиражралди
тирана
тирасполь
тирбур
тирвал
тирвили
тирвилиз
тирвиляи
тирди
тирла
тирмегьарамдхуьруьн
тиррен
тирт
тиртаблица
тиртӏа
тиртӏани
тис
тисси
тистикьар
тител
тито
титово
титул
титулар
тифлис
тифлисда
тифлисдин
тихии
тки
тлаи
тлакотепек
тлибишо
тлингит
тлиси
тлондода
тлох
тлядал
тлянуб
тлярата
тляратинскии
тно
тныи
тных
то
тобаго
тов
товарище
товарищества
товуз
тогда
того
тогох
тоже
тои
ток
токарева
токио
токсинар
толедо
толковыи
толкуновади
толстого
толстои
толстоян
только
том
томас
томат
томах
томени
томов
томск
тому
тон
тонга
тонн
топ
топи
топографические
топографиядин
топология
топологиядин
топольскои
топоним
топонимар
топонимрин
топономика
тор
тормоз
торрес
торф
тот
тоттенхэм
тотурбии
тох
точек
точка
точки
точкои
точку
точнее
точно
точности
тпиг
тпк
тр
травмадин
традиции
трактат
трал
тралвал
трален
тралка
тральности
тральныи
трамваи
транзит
транскрипция
транслеи
транслитерация
транспорт
транспортдин
транспортная
трансферрин
трапезунд
трасса
трассадал
трассадин
трастевере
траян
траянан
траяндин
трди
трдин
тре
требовании
требования
требованиям
требуется
треи
тренер
тренерар
тренервиле
тренервилин
тренердин
тренировкаяр
трес
третии
третье
третьего
третьем
три
триатлон
триглав
тригонометрия
трин
тринидад
тринидадни
трир
трисанчи
тритии
тркал
трои
троицк
троицкое
троллеи
трондал
тропарево
тропик
тропикдин
тропикра
тропикрин
тросна
троснянскии
тротуар
трофеи
трофеяр
трубецкои
труд
труды
трэш
тсвана
тся
тт
ттар
ттарар
ттарарикаи
ттарарин
ттарцин
ттун
ттунваи
ту
туба
туберкуле
туберкулез
тува
тувалу
тувуна
туда
тузламахи
тукита
тула
туладин
тульскои
тум
тумаж
тумаждин
тумар
тун
туна
тунаи
тунал
тунва
тунваи
тунгус
тунд
тундрада
тундраяр
тунец
тунзи
тунин
тунис
тунисдин
туп
тупар
тупунин
тупӏал
тупӏалдиз
тупӏалдин
тур
тураг
туракь
турар
тургенев
турдин
турзин
туризм
туризмдин
турист
туристар
туриствилин
туристдин
туристрин
турка
туркестан
туркмения
турник
турнир
турнира
турнирар
турнирда
турнирдал
турнирдин
турнирра
турп
турции
турция
турцияда
турциядаи
турцияди
турциядиз
турциядин
турциядихъ
туршунаи
туспан
тустла
тут
тутчоне
туф
тух
тухвазваи
тухваи
тухвана
тухванаи
тухванваи
тухудаи
тухуз
тухузава
тухузаваи
тухузва
тухузваи
тухузвач
тухул
тухум
тухумдаи
тухумдикаи
тухумдин
тухун
тухунар
тухунваи
тухуниз
тухуник
тухунин
тухур
тухчар
туч
тучир
туш
тушиз
тушиловка
тушир
туширвал
туширвилин
туширвиляи
туширди
тушни
туьк
туьквен
туьквенар
туьквер
туькьуьл
туькӏвеи
туькӏуьр
туькӏуьраи
туькӏуьрдаи
туькӏуьрзава
туькӏуьрзаваи
туькӏуьриз
туькӏуьрна
туькӏуьрнава
туькӏуьрнаваи
туькӏуьрнаваэрменистан
туькӏуьрнаи
туькӏуьрун
туькӏуьрунар
туькӏуьруникаи
туькӏуьрунин
туькӏуьрунра
туькӏуьрунриз
туькӏуьрунрин
туьмен
туьр
туьрк
туьрквал
туьрквер
туьркверал
туьрквери
туьрквериз
туьркверин
туьркверинни
туьркверихъ
туьркер
туьркери
туьркерин
туьркизмар
туьркия
туьркияда
туьркиядин
туьркиядихъ
туьркмен
туьркменистан
туьркни
туьрколог
туьтуькъуш
туьтуьн
туьтуьндин
туьхк
туьхкӏуьр
туьхкӏуьрунин
тфенг
тфенгар
тфф
тхан
тхеп
тхимпху
тхун
тхыкпе
тхэквондодин
тчик
ты
тыва
тыс
тысяч
тысячелетие
тысячи
тьерра
тэгу
тэджон
тэи
тэмуджин
тэмуджинан
тэфи
тюбе
тюмень
тюрингия
тюрколог
тядивал
тяньцзинь
тіа
тівар
тіимиларна
тӏ
тӏа
тӏавус
тӏазваи
тӏал
тӏалаб
тӏалабзава
тӏалабзаваи
тӏалабна
тӏалабнаи
тӏалабун
тӏалабуналди
тӏалабунар
тӏалабунриз
тӏалакь
тӏалиб
тӏан
тӏани
тӏаратӏ
тӏаратӏар
тӏаратӏдин
тӏач
тӏвал
тӏвалунихъ
тӏвар
тӏварар
тӏварари
тӏварарик
тӏварарикаи
тӏварарин
тӏварарихъ
тӏварарни
тӏварни
тӏварунихъ
тӏварунихь
тӏварцикаи
тӏварцин
тӏварцихъ
тӏварцӏел
тӏварцӏелаи
тӏварцӏелди
тӏварцӏи
тӏварцӏиз
тӏварцӏикаи
тӏварцӏин
тӏварцӏихъ
тӏебиат
тӏебиатда
тӏебиатдикаи
тӏебиатдин
тӏебиатдихъ
тӏебиатрин
тӏебии
тӏебиятдин
тӏегъерхъан
тӏегъуьн
тӏеквенар
тӏем
тӏехв
тӏи
тӏигьиржал
тӏигьиржалви
тӏилисимар
тӏимил
тӏимилдаи
тӏимилдаказ
тӏинкӏ
тӏинкӏер
тӏифлис
тӏифлисда
тӏифлисдин
тӏуз
тӏул
тӏулар
тӏулдиз
тӏулуз
тӏури
тӏурфан
тӏурфанар
тӏуьн
тӏуьнар
тӏуьнарни
тӏуьнин
тӏуьнрин
тӏуьр
тӏям
тӏямдиз
тӏят
у
уб
уба
убаи
убедились
убеждениям
убекимахи
убрать
убых
убыхар
убыхри
убыхриз
убыхрин
увад
увадлагьаи
уважаемые
уважаемыи
уважением
уверен
увидеть
уганда
угвадаи
угваз
угвазва
угвазваи
угвар
угварар
углерод
углероддин
углу
угодно
угор
угуда
угуна
угунаи
угунваи
угунин
угур
угъ
угълангерек
угърин
угъуз
угъузар
угьуд
уд
удав
удаи
удаление
удаления
удалить
удалять
ударение
удахар
удачи
удельныи
уди
удии
удин
удинар
удинрин
удины
удияр
удлагьаи
удмурт
удмуртия
удобно
удобном
удобства
удралди
удэ
уезд
уезда
уездар
уездда
уезддик
уезддин
уездин
уездра
уездрин
уефа
уефадин
уж
ужар
уже
уз
узбек
узбекар
узбекистан
узбекистандин
узваи
узел
узнаи
узнать
узнимахи
узор
узун
узунуба
уи
уиа
уиган
уикипедиэ
уильям
уильямс
уильямсди
уильямсдиз
уильямсдикаи
уильямсдин
уимблдондин
уинскии
уинское
ук
укажите
указ
указали
указан
указанием
указания
указаннои
указано
указать
указом
указывает
указывается
указывать
указываются
укаи
укп
укр
украи
украин
украина
украинада
украинадиз
украинадик
украинадин
украинадихъ
украинар
украинвияр
украинка
украинрин
украины
украі
укуз
укьан
укьанни
укьван
укьуд
ул
улав
улавар
улакь
улакьар
улакьдин
улакьрин
улан
улар
улица
улквеи
уллу
уллуая
уллубии
уллугъетягъ
уллугъетягърин
уллукимахи
уллутеркеме
уллучаи
уллучара
улу
улуб
улубар
улубда
улубдаи
улубдин
улубдихъ
улубра
улубрин
улубхана
улубханаи
улубханаяр
улуз
улус
улусар
улусрин
улусс
улусскии
улучшать
улучшение
улучшению
улучшения
улучшить
улыбка
ульрих
ульсан
ульянов
ульяновск
ум
умада
умаи
умар
умара
умаран
уменьшить
умер
умм
умма
уммадин
умна
умнаи
умолчанию
умуд
умудар
умуман
умуми
ун
уна
унаи
унар
универсал
универсального
универсальныи
университет
университетар
университетда
университетди
университетдиз
университетдик
университетдин
университетдихъ
университетра
университетрин
униз
уникаи
уникум
унин
унитар
унна
уннаи
унни
унрик
унрилаи
унсатлен
унт
унцукул
унцукуль
унцукульскии
унчукатль
уньон
упа
управление
управлениедин
управлению
управления
управлениядин
упц
ур
ура
ураб
ураба
ураги
урада
ураи
урал
урала
уралдин
уран
урар
урара
урари
урарин
урартские
урахи
урахивияр
урбанизациядин
урви
урга
ургани
ургубамахи
ургур
урдаи
урдин
урду
уржагимахи
урзава
ури
уриб
урин
урицкии
уркарах
уркутамахи
урлагьаи
урма
урмия
урна
урнаваи
урнаи
урни
урник
урниц
уровень
уровне
уровня
уроки
уррин
урсс
урсун
урт
уртах
уртахар
уртахдин
уртахрин
уртил
уру
уругваи
уругвая
уругуд
[...]
