!
"
#
##0
##1
##10
##11
##12
##13
##14
##15
##16
##17
##18
##19
##2
##20
##21
##22
##23
##24
##25
##26
##27
##28
##29
##3
##30
##31
##32
##33
##34
##35
##36
##37
##38
##39
##4
##40
##41
##42
##43
##44
##45
##46
##47
##48
##49
##5
##50
##51
##52
##53
##54
##55
##56
##57
##58
##59
##6
##60
##61
##62
##63
##64
##65
##66
##67
##68
##69
##7
##70
##71
##72
##73
##74
##75
##76
##77
##78
##79
##8
##80
##81
##82
##83
##84
##85
##86
##87
##88
##89
##9
##90
##91
##92
##93
##94
##95
##96
##97
##98
##99
$
%
&
'
(
)
*
+
,
-
.
/
0
00
000
00718
01
017
02
020
029
03
037
04
040
047
05
055
06
062
07
08
081
088
089
09
091
092
1
10
100
1000
10000
101
102
103
104
105
106
1066
107
108
1080
109
11
110
1100
111
112
113
114
115
116
117
118
119
12
120
1200
1204
121
122
123
1239
124
1240
125
1250
126
1260
127
128
129
13
130
1300
131
132
133
134
135
136
137
138
139
1395
14
140
1400
141
142
1428
143
144
145
1450
1453
146
147
1475
148
1480
1483
1485
149
1492
1498
15
150
1500
1507
151
1519
152
1521
153
1533
154
1542
155
1555
1557
1558
156
1564
1569
157
15732482
1577
1578
158
159
16
160
1600
1601
1603
1604
1605
1606
1607
1609
161
1610
1614
1616
1618
162
1620
1621
1622
1623
1624
1627
1628
163
1630
1631
1632
1634
1635
1636
1637
1638
1639
164
1640
1641
1642
1643
1644
1646
1648
1649
165
1650
1656
166
167
168
1699
17
170
1700
1701
1703
1704
1706
1707
171
1710
1711
1712
1714
1715
1716
1717
1718
172
1720
1721
1722
1723
1724
1725
1727
1728
1729
173
1730
1731
1732
1733
1734
1735
1736
1737
17378135
1738
1739
174
1740
1741
1743
1744
1747
1749
175
1750
1752
1755
1756
1757
176
1760
1761
1762
1763
1765
1766
1767
1769
177
1770
1771
1772
1773
1774
1775
1776
1777
1778
1779
178
1780
1783
1784
1785
1786
1787
1788
1789
179
1790
1791
1792
1793
1794
1795
1796
1797
1798
1799
18
180
1800
1801
1802
1803
1804
1805
1806
1807
1808
1809
181
1810
1811
1812
1813
1814
1815
1816
1817
1818
1819
182
1820
1821
1822
1823
1824
1825
1826
1827
1828
1829
183
1830
1831
1832
1833
1834
1835
1836
1837
1838
1839
184
1840
1841
1842
1843
1844
1845
1846
1847
1848
1849
185
1850
1851
1852
1853
1854
1855
1856
1857
1858
1859
186
1860
1861
1862
1863
1864
1865
1866
1867
1868
1869
187
1870
1871
1872
1873
1874
1875
1876
1877
1878
1879
188
1880
1881
1882
1883
1884
1885
1886
1887
1888
1889
189
1890
1891
1892
1893
1894
1895
1896
1897
1898
1899
19
190
1900
1901
1902
1903
1904
1905
1906
1907
1908
1909
191
1910
1911
1912
1913
1914
1915
1916
1917
1918
1919
192
1920
1921
1922
1923
1924
1925
1926
1927
1928
1929
193
1930
1931
1932
1933
1934
1935
1936
1937
1938
1939
194
1940
1941
1942
1943
1944
1945
1946
1947
1948
1949
195
1950
1951
1952
1953
1954
1955
1956
1957
1958
1959
196
1960
1961
1962
1963
1964
1965
1966
1967
1968
1969
1970
1971
1972
1973
1974
1975
1976
1977
1978
1979
198
1980
1981
1982
1983
1984
1985
1986
1987
1988
1989
199
1990
1991
1992
1993
1994
1995
1996
1997
1998
1999
2
20
200
2000
2001
2002
2003
2004
2005
2006
2007
2008
2009
201
2010
2011
2012
2013
2014
2015
2016
2017
2018
2019
202
2020
2021
2022
203
204
205
206
207
208
209
21
210
2100
211
212
213
214
21401824
215
216
217
218
219
22
220
2200
221
222
223
224
225
226
227
228
229
23
230
2300
231
232
234
235
236
237
237227
238
239
24
240
241
242
243
244
245
246
247
248
249
25
250
2500
251
252
253
254
255
256
257
258
259
26
260
261
262
263
264
265
266
267
268
269
27
270
271
272
273
274
275
276
277
278
279
28
280
2800
28025983
281
282
284
285
286
287
288
289
29
290
291
293
294
295
296
297
298
299
3
30
300
3000
301
302
303
304
305
306
307
308
309
31
310
311
312
313
314
316
317
318
319
32
320
321
322
323
324
325
326
327
328
329
33
330
331
332
333
334
335
336
337
339
34
340
341
342
343
345
346
347
348
349
35
350
3500
351
3518
352
353
354
355
356
357
358
359
36
360
361
362
363
364
365
36578
366
367
368
368608
368870
369
37
370
371
372
373
374
375
376
377
378
379
38
380
381
382
384
385
387
39
390
391
392
394
395
396
398
399
4
40
400
4000
401
402
403
406
407
408
409
41
410
412
413
415
416
417
419
42
420
421
422
423
424
425
427
428
429
43
430
431
432
433
434
437
438
439
44
440
441
442
443
444
4466
448
449
45
450
451
452
453
455
458
459
46
460
465
469
47
470
475
476
477
478
48
480
481
483
484
487
488
49
492
494
496
499
5
50
500
5000
501
502
503
504
505
506
507
508
509
51
510
5100
512
514
515
516
52
520
521
522
523
524
525
526
527
528
53
530
531
532
533
534
535
537
539
54
540
541
542
543
544
546
55
550
551
552
555
556
559
56
560
561
562
563
565
568
57
570
571
572
573
574
575
576
579
58
580
587
588
589
59
591
592
593
594
596
598
599
6
60
600
6000
601
603
604
605
607
608
609
61
610
612
615
617
619
62
620
622
623
624
626
629
63
630
631
632
634
636
637
639
64
640
642
643
644
645
647
649
65
650
651
652
653
655
656
657
659
66
660
661
667
67
670
671
673
674
675
676
679
68
680
681
683
687
69
690
691
692
695
697
699
7
70
700
7000
701
704
705
707
71
710
713
715
716
717
718
72
720
721
724
725
73
730
731
734
735
74
740
742
744
746
747
75
750
753
754
755
758
76
760
765
766
767
77
770
774
777
78
784
785
79
794
796
797
799
8
80
800
8000
801
802
803
804
805
806
808
809
81
814
817
819
82
820
823
826
827
83
830
84
842
843
845
8497
85
850
85270
854
855
859
86
862
865
867
868
87
870
87444
878
88
880
882
883
884
89
891
897
899
9
90
900
9000
904
907
91
910
913
92
926
93
932
939
94
940
95
950
96
960
962
965
966
97
972
973
975
976
977
978
979
98
984
985
98624
988
99
994
999
:
;
<
=
>
?
@
[
\
]
^
_
`
a
about
above
abraham
abs
academia
academic
academy
accipiter
according
act
ad
administrative
adustus
affairs
africa
african
africana
after
ag
age
agency
agglomerations
agree
ahtna
ailuropoda
al
alan
alaska
albert
album
alcelaphus
ali
alkindi
all
alla
allmusic
alonso
alopex
also
altaicus
alutiiq
am
america
american
an
ana
ancient
and
angeles
animal
animals
ankara
anna
anniversary
anno
announce
annuaire
annual
anpfiff
antilope
ap
apodora
appoint
april
aquila
arabic
archive
archives
archivio
arctos
are
area
areas
argentina
argentine
armenia
army
arsenal
art
artemisia
article
articles
artist
as
asia
aspidites
aspx
astronomy
astrophysical
at
ateles
athabaskan
atlas
atp
au
august
australia
australian
austria
authority
aviation
avril
award
awards
ax
axa
ay
az
azerbaijan
azərbaycan
b
ba
babelio
bach
back
baffin
baghdad
baku
bakı
bale
band
bangladesh
bank
barbara
barcelona
barclays
bas
base
based
bay
bb
bbc
bd
be
beatles
belt
berlin
bernhardt
bertrand
best
between
bevo
beweb
bf
bibliography
big
biographique
biography
black
blackwell
blica
bnf
bo
book
books
box
br
brasi
bratislava
britain
britannica
british
bu
bubalus
budukh
bureau
burnley
business
but
by
byzantium
bələdiyyələrin
bələdiyyəsi
bələdiyəsi
c
ca
california
calvin
cambridge
can
canada
canadian
canis
cap
cape
capital
caribbean
carling
cask
catalog
catalogue
caucasian
caucasus
cdot
cebus
census
center
central
centre
century
cephalophus
cercopithecidae
cervicapra
ch
championship
channel
charles
chase
che
chelsea
cherrug
chevak
chicago
china
christopher
chugach
church
ci
cia
cidades
cite
cities
city
ciudad
cl
claims
classical
clifton
club
cm
cnn
co
collection
college
columbia
columbus
com
comedy
comets
committee
commonwealth
community
company
comparison
complete
composition
confirm
congo
connochaetes
constitution
contempora
contemporary
content
copa
copernicus
corporation
council
countries
country
county
courvoisier
cruyff
crystal
cu
cucl
cugtun
cultural
culture
cuo
cup
current
cuso
cz
czech
d
da
dag
daily
damaliscus
darwin
das
data
database
david
day
de
dead
deal
death
december
deckinga
deep
default
del
delhi
della
deloitte
demo
demographic
den
dena
dene
departamento
departamentos
department
der
des
deutsche
development
dhaka
di
dia
dialect
diario
dictionary
die
diego
dies
digital
dili
discogs
displaystyle
district
districts
diversity
division
do
doc
dog
doi
du
e
ea
early
earth
east
eastern
economic
ed
edilməsi
edited
edition
eds
edu
einstein
el
elanus
elements
elf
elves
emin
empire
en
enciclope
encyclopedia
encyclopædia
endangered
england
english
ensiklopedik
ensiklopediyası
entertainment
entry
equus
es
eskimo
espan
espn
est
estadi
estimates
et
ethnic
ethno
ethnologue
eu
eudorcas
euro
europa
europe
european
eurovision
everton
evolution
ex
exploration
express
exxonmobil
f
fa
fact
factbook
falco
fall
fame
family
fantastic
fasciatus
fbref
fc
fe
feat
features
february
federal
federation
fembio
femoralis
fico
fiction
fifa
fifpro
figures
files
filmportal
final
find
first
five
flight
football
for
forbes
foreign
former
foundation
fr
frac
franc
france
francis
francisco
free
from
fu
full
fund
future
g
ga
gabriela
galaxies
galaxy
galileo
gallery
gallus
gandhi
gareth
gazella
gazeteer
gazetteer
gdp
ge
genealogics
geneastar
general
geographical
geography
geonet
george
georgia
georgian
geral
german
germany
gerrard
geschichte
gest
ghaziabad
gks
global
gnd
go
goal
gold
golden
google
gorilla
gov
government
grammar
grave
gravity
great
greatest
greece
greek
greenlandic
griseus
group
groups
gru
gu
guardian
guevara
guide
gwich
h
haliaeetus
hall
haqqında
hardcore
hardy
harry
haryana
has
hcl
he
head
her
heritage
hieraaetus
high
hinduism
hippotragus
his
histo
historic
historical
history
hno
ho
hole
holes
home
honorary
hosei
hotspur
house
housing
how
htm
html
http
https
hu
human
i
ia
icarus
ice
icon
id
idade
iffhs
ig
ii
iii
ik
il
illustrated
im
images
imberbis
imperial
in
ina
inc
independent
index
india
indian
info
information
infty
inlet
institute
instituto
interactive
interior
international
internet
introduction
inuit
inuktitut
iranica
iraq
is
isbn
island
islands
iso
issn
issue
istanbul
istat
it
italian
itau
itemid
its
iv
ix
j
jakarta
james
january
jawaharlal
jews
johan
johannesburg
john
jonathan
jose
joshua
joshuaproject
journal
jpg
jpmorgan
juilliard
july
june
jupiter
justice
k
ka
kaiserreich
karel
kavkaz
kenai
ki
king
kingdom
kit
ko
kobus
komitəsi
kryz
kt
ku
kuiper
kwa
kz
kərimov
l
la
labrador
lake
lambda
lang
language
languages
laq
largest
las
last
latvijas
launch
launches
laura
law
lda
le
league
lecture
left
leksikon
lenta
leo
les
letters
leucocephalus
lezginskie
lgu
li
lia
library
life
limits
lincoln
line
linguistics
link
list
literature
little
littoralis
live
liverpool
liverpoolfc
living
ln
local
log
london
long
longrightarrow
los
love
lower
loxodonta
ltd
lu
lucht
luis
lupus
lycalopex
m
ma
macaca
macallan
made
madoqua
madrid
magazine
mail
major
makes
mali
man
manager
manchester
manhattan
manuel
map
maps
march
marco
mari
maritime
mark
market
marriage
mars
martes
marti
martin
martins
mary
master
match
mathematics
mathsf
may
mayors
mbox
mcdowell
me
medal
media
medical
melalophos
melanoleuca
meles
mem
members
mestska
metal
metallica
meteorite
metropolitan
milky
milli
million
milvus
ministry
mission
mo
mobile
modern
moderna
monetary
mongolia
month
months
more
morgan
moscow
most
mountain
move
movie
mu
municipal
municipality
munzinger
museum
music
my
n
na
nach
nacional
nagar
name
named
names
naoh
napoleon
narod
nasa
nation
national
nationalencyklopedin
nationalmannschaft
nations
native
natural
nature
nchen
nd
ndez
ne
nea
nehru
nelson
neotragus
net
network
new
newcastle
news
newton
next
ng
nh
ni
nigeria
night
nike
nl
no
noaa
norske
north
northern
norton
not
notes
november
now
nu
nuclear
number
nunivak
ny
nytimes
o
obecna
ocean
october
odnoselchane
of
office
official
oficial
og
oh
old
olympic
omega
on
one
online
ontology
or
org
origin
oryx
other
our
ourebi
ourebia
out
over
oxford
p
pa
page
pages
pakistan
palace
pallida
paris
partnership
past
paul
pdf
pe
peakbagger
peerage
people
per
peregrinus
permanent
permanente
persian
personen
peter
petersburg
pg
ph
philosophy
photos
php
phys
physical
physics
pi
pilkington
pithecia
pl
planet
platina
platnick
player
players
policy
politics
popular
population
port
portal
portugal
portuguesa
post
power
pp
praha
pre
premier
premierleague
presbytis
president
press
prezidentinin
prince
princeton
profile
program
project
proleksis
proper
prosopographique
prospects
province
prunus
pu
public
publications
publique
published
publishing
puma
puppets
purple
putin
puzzling
q
qatar
qikiqtaaluk
qu
qualag
quality
queen
qusar
r
ra
rad
rainhas
ranked
ranking
raphicerus
rar
rayonu
re
real
rec
record
records
red
redunca
ref
region
regions
regnum
reich
reis
release
religion
report
repu
republic
republik
republika
republiky
research
resident
resources
respublikası
respublikasının
results
retrieved
review
revision
ri
ria
rica
richard
ricordi
ride
right
rightarrow
rightleftarrows
rio
rise
river
rk
rkdartists
ro
robert
robin
roger
roglo
rolling
roma
roman
rome
routledge
royal
rsssf
ru
rubicunda
rueppelli
rus
russia
russian
s
sa
sack
salah
salmon
sam
san
santa
santos
sarah
savante
school
sci
science
scientific
scooter
scoreboard
scriptus
se
sea
search
season
selection
sensu
seoul
september
series
server
service
services
settlement
sex
sfd
sg
she
sheet
shirt
si
siamensis
sign
sil
silva
simon
sin
sir
sister
site
sites
situation
sivasdin
skazki
sky
slovenskej
snac
so
soccer
social
society
sociolinguistic
solar
song
sound
sousa
south
southamerican
southampton
southern
space
spacecraft
spain
speaking
special
species
speculative
spiders
spizaetus
sponsor
sponsorship
sporpress
sport
sportbox
sports
springer
sqrt
sri
st
stanbul
star
stars
state
states
statistical
statistics
statistik
statistika
statistisches
stats
stephen
steve
steven
stica
stoke
stokkermans
stone
store
storico
story
strepsiceros
stricto
structure
studies
study
su
subdialect
subfamily
suicide
sum
summer
sun
survey
sydney
system
sərəncamı
t
ta
tabeira
table
tanana
tandfonline
tarixi
tarixli
tat
tatistika
taurinus
taurotragus
te
team
teams
technology
telegraph
terra
territorial
tetlin
text
tfrac
th
that
the
their
theory
this
three
ti
tiessen
time
times
title
tl
tlingit
to
today
top
topic
toponimlərinin
torpaqları
total
tottenham
tour
tourism
town
towns
trade
tragelaphus
transfer
transfermarkt
tria
ts
tu
turkish
tv
two
u
ua
uaf
uefa
uk
ulrich
un
und
under
unesco
union
united
universe
university
up
uparrow
upiaq
upper
urban
urbanization
ursus
us
usa
usaf
utc
v
va
van
ve
vegetti
vehicle
vi
video
vienna
view
vii
viii
virtual
vlət
vol
volume
von
vulpes
və
w
wa
wagner
wales
war
was
washington
water
watford
way
wayback
we
web
webarchive
website
week
weekly
welcome
west
western
what
which
who
wien
wikipedia
wiley
will
william
williams
winners
wins
winston
with
wonder
word
work
world
written
www
x
xa
xabi
xi
xico
xii
xiii
xiv
xix
xls
xrightarrow
xv
xvi
xvii
xviii
xx
xxi
xxiv
xxx
y
ya
yc
year
years
yeni
york
you
your
youtube
yu
yukon
yup
yupik
yuxarı
z
za
zambia
zhrii
zikr
zur
{
|
}
~
£
§
©
«
¬
­
°
±
²
³
·
¹
º
»
¼
×
æ
ı
ł
ŋ
ə
əraziləri
əti
ʉ
ʰ
ʷ
ʼ
ʿ
ˈ
ˌ
ː
̀
́
̂
̃
̄
̆
̇
̈
̊
̋
̌
̓
̔
̜
̣
̦
̧
̨
̯
̱
̲
͂
͡
ͳ
α
β
γ
γος
δ
ε
ζ
η
θ
ι
κ
κασος
καυ
λ
λο
μ
ν
ξ
ο
π
ρ
ς
σ
τ
τα
υ
φ
χ
ψ
ω
ϕ
ϙ
ϝ
ϻ
а
аб
абад
абазин
абазинар
абакаров
абарников
абасов
аббас
аббасов
абд
абдул
абдулаев
абдулатипов
абдулбари
абдулвагьид
абдулгьамид
абдулгьамидан
абдулкъадир
абдулла
абдуллагь
абдуллагьан
абдуллаев
абдулмалик
абдулманапова
абдулмуслимов
абдурагимов
абдурагьман
абдурашид
абдуррагьман
абдуррагьмана
абдусамад
аби
абилов
абилова
абилован
абруз
абстракт
абу
абукар
абумуслиман
абур
абура
абураи
абурал
абуру
абуруваи
абуруз
абурук
абурукаи
абурулаи
абурун
абурухъ
абхаз
абхазия
абшерон
ав
ава
авадан
аваз
авазар
авазва
аваи
авалаи
аван
авар
авара
аваран
аварар
аварви
аваргандал
аварилаи
аварин
аварри
аварриз
аваррин
аварскии
аварцы
ават
аватаи
аватзава
аватзаваи
аватна
аватнаи
аватун
аватӏа
аватӏани
авахь
авахьдаи
авахьзава
авахьзаваи
авахьна
авахьун
авахьунин
авахьунрин
авач
авачиз
авачир
авачирбур
авачирвал
авачирвилелди
авачирвилин
авачирвиляи
авачирди
август
августа
августдиз
августдилаи
августдин
авиациядин
авив
авсиятда
австралия
австралиядин
австрии
австрия
австриядин
австриядихъ
австро
авто
автомобил
автомобилдин
автомобиль
автомобиляр
автоном
автономдин
автономия
автономиядин
автономному
автономныи
автономных
автор
авторди
автордин
авторекьер
автореф
авторри
авуз
авузни
авун
авуна
авунаи
авуналди
авунар
авунач
авунва
авунваи
авуни
авунивди
авуниз
авуникаи
авунин
авур
авурвал
авурвиляи
авурдалаи
авурди
авурдилаи
авурла
авурт
авуртӏа
ага
агаев
агаева
агаж
агаи
агакь
агакьаи
агакьана
агакьда
агакьзава
агакьзаваи
агакьна
агакьнава
агакьнаваи
агакьнаи
агакьнач
агакьун
агалкьун
агалкьунар
агалкьунралди
агалкьунриз
агалкьунрин
агалтдаи
агата
агатнаи
агвали
агван
агеева
агентство
агломерация
агломерациядин
агния
аграрныи
аграхан
агроном
агульскии
агульского
агъ
агъа
агъавал
агъавацӏар
агъада
агъадин
агъадихъ
агъаев
агъаева
агъазваи
агъалар
агъана
агъанваи
агъаниз
агъаширинуба
агъдам
агъдаш
агъжабеди
агъз
агъзур
агъзурав
агъзуралаи
агъзурдав
агъзурдал
агъзурдалаи
агъзурдилаи
агъзурни
агъзурралди
агълаб
агъстафа
агъсу
агъу
агъуз
агъул
агъулар
агъулрин
агъун
агъунваз
агъур
агъухъ
агъчаи
агъязи
агьаи
агьали
агьалиди
агьалидиз
агьалидикаи
агьалидин
агьалидихъ
агьалии
агьалияр
агьан
агьвал
агьед
агьмад
агьмадан
агьмадулина
агьмадулинади
агьмед
агьмедан
агьмедов
агьмедова
агьмедуллагь
агьмедхан
ад
ада
адав
адаваи
адавал
адаз
адаи
адак
адакаи
адал
адалаи
адалат
адам
адан
адани
адахъ
адвокат
адет
адетар
адетарни
адетдалди
адетдин
адетрикаи
адетрин
аджария
ади
адигъ
адигъар
адигъея
адигъеядин
адил
адиль
адин
адм
административ
административвилелди
административни
административно
административное
администрации
администрация
администрациядин
администрациярин
адмирал
адольф
адр
адрес
адриатик
адриатикадин
адыгеи
ажам
ажуз
аз
азабар
азад
азадвал
азадвилин
азадугъли
азар
азарар
азардик
азардин
азарлу
азархана
азарханада
азарханадин
азбука
азер
азерб
азербажан
азербажандин
азербаи
азернешр
азиз
азизов
азизрин
азизханов
азии
азим
азия
азияда
азиядаи
азиядиз
азиядин
азиядинни
азиядихъ
азов
азор
азот
азотдин
азәрбајҹан
аи
ак
академии
академик
академия
академияда
академиядиз
академиядин
акадрунин
акаи
акат
акатаи
акатзава
акатзаваи
акатзавач
акатзваи
акатна
акатнава
акатнаваи
акатнаи
акатун
акатунин
акахь
акахьаи
акахьзава
акахьзаваи
акахьна
акахьнаваи
акахьнаи
акахьун
акахьунин
акбар
аквада
аквадаи
акваз
аквазва
аквазваи
акимов
акимова
акнада
акри
аксаи
акси
аксивал
аксидаказ
аксина
аксиниз
акт
акташ
акте
актер
актив
активдаказ
актриса
акун
акуна
акунаи
акунар
акунваи
акур
акурди
акурла
акуша
акушервилин
акушинскии
акушинского
акъажунар
акъажунра
акъажунрин
акъат
акъатаи
акъатда
акъатдаи
акъатзава
акъатзаваи
акъатиз
акъатна
акъатнава
акъатнаваи
акъатнаи
акъатун
акъваз
акъвазаи
акъвазар
акъвазарна
акъвазарнаи
акъваздаи
акъвазиз
акъвазна
акъвазнава
акъвазнаваи
акъвазнаи
акъвазун
акъуд
акъудаи
акъуддаи
акъудзава
акъудзаваи
акъудиз
акъудна
акъуднава
акъуднаваи
акъуднаи
акъудун
акъудуниз
акъудунин
акъуша
акьазва
акьазвач
акьалт
акьалтзаваи
акьалтна
акьалтӏ
акьалтӏаи
акьалтӏараи
акьалтӏарна
акьалтӏарнаваи
акьалтӏарнаи
акьван
акьванни
акьул
акьулдин
акьуллу
акьунар
акӏ
акӏидаи
ал
ала
алава
алаваи
аладаи
аладардаи
аладаш
алаз
алазан
алазани
алаи
алак
алакаи
алакъа
алакъада
алакъадин
алакъаи
алакъалу
алакъаяр
алакьа
алакьдаи
алакьна
алакьун
алакьунар
алакьунин
алал
алалаи
алалди
алални
алам
алама
аламаз
аламаи
аламат
алан
алания
аланни
алар
алара
алараи
аларал
аларалди
алариз
аларик
аларикаи
аларилаи
аларин
аларихъ
аларни
алат
алатаи
алатар
алатзава
алатна
алатнаи
алатрин
алахъ
алахъаваи
алахъаи
алахъзава
алахъзаваи
алахъзваи
алахъиз
алахъна
алахънава
алахънаваи
алахънаи
алахъун
алахъунар
алахъунрин
алахьаи
алачиз
алачир
алачирт
алб
албанви
албания
албаниядин
албум
алгебра
алгебрадин
алгоритм
алгъаи
алда
алдал
алди
алдик
алдин
алеи
александр
александра
александран
александров
александрович
алексеев
алексеева
алексеевич
алексеевка
алексеи
алем
алентежу
алеут
алжир
алжирдин
али
алибег
аливердии
алиди
алидиз
алидин
алидхуьр
алиев
алиева
алиеван
алиевич
алиевои
алик
аликберов
алим
алимар
алимди
алимдин
алимирзоев
алимпашаюрт
алимри
алимрикаи
алимрин
алимурад
алирза
алискеров
алискерово
алиханмахи
алиханов
алишверишдин
алияр
алкадари
алкадарскии
алкьвадар
алла
аллагь
аллагьди
аллагьдиз
аллагьдин
аллагьу
аллагьяран
алма
алмас
алматы
ални
алонсо
алонсоди
алпан
алпанар
алпандин
алпанрин
алра
алрин
алтаи
алтыпарадин
алтӏушунин
алуван
алуд
алудиз
алудна
алуднаваи
алуднаи
алудун
алук
алуча
алфавит
алфавитар
алфавитда
алфавитдал
алфавитдикаи
алфавитдин
алц
алцум
алцумар
алцумдин
аль
альберт
альберто
альбом
альбомар
альдер
альманахдин
альп
альфа
альфредо
алюминии
аляска
аляскадин
ам
ама
амадаг
амадора
амаз
амазма
амазонка
амазун
амаи
амал
амар
амач
амачиз
амачир
амбулатория
америка
америкада
америкадаи
америкадиз
америкадин
америкадинни
американ
америки
аметеркмахи
ами
аминат
амирханов
амма
амни
амр
амри
амсар
амстердам
амукь
амукьаи
амукьаяр
амукьзава
амукьзаваи
амукьиз
амукьна
амукьнава
амукьнаваи
амукьнаи
амукьнач
амун
амур
амух
ан
ана
анадолудин
анаи
анал
анализ
анан
анар
анат
анатдин
анатолии
анатомия
анва
анваи
англ
англи
англивии
англивияр
англии
англия
англияда
англиядиз
англиядин
англиядинни
ангола
анд
анда
андаи
андалал
анджелес
анджелесдин
анди
андии
андияр
андорра
андраде
андре
андреас
андреевич
андреевка
андреевна
андреи
андреян
андуз
андуник
андых
ане
анжах
анжи
анзава
анзаваи
ани
анив
анивал
анивиликаи
анивилин
аниз
аник
анин
анихъ
анкара
анклав
анклух
анлаи
анна
анне
анны
анра
ансалта
ансамблдин
ансамбль
ансарар
антантадин
антарктида
антарктидадин
антарктикадин
антверпен
антик
антил
антилопа
антилопаяр
антология
антон
антонио
антониу
антрополог
антропология
антропологиядин
анхвала
анхель
анхо
анцух
анчик
ао
ап
апаи
апар
апариз
апарин
апостол
аппаратар
аппаратдин
апрел
апрелдиз
апрелдилаи
апрель
апрельдиз
апреля
аптека
апшерон
апши
ар
ара
араб
арабар
арабист
арабистан
арабистандин
араблинскии
араблинское
арабляр
арабри
арабриз
арабрин
арабские
арабского
аравилин
аравиядин
арагац
арагацотн
арагъ
арада
арадаи
арадал
арадиз
арадилаи
арадин
арадлаи
араз
араи
арак
аракс
аракул
арал
аран
аранда
арандал
арандиз
арандин
аранрин
арар
арарат
арасдин
арассамахи
арат
арахуьр
арачанамахи
араяр
арбедиз
арбен
арвал
арвилин
арвияр
аргентина
аргентинада
аргентинадин
аргун
аргъивал
ардин
ареал
арена
арза
ари
ариз
арикаи
арикъатдин
арилаи
арин
аристотель
ариф
арифдар
ария
аркас
аркит
арктикадин
арм
армавир
армения
арменияда
армениядаи
армениядин
армениядихъ
армии
армия
армияда
армияди
армиядиз
армиядин
армян
арна
арнаи
арода
арри
арс
арсугъ
арташес
артем
артиллериядин
артист
артистдин
артистка
артистри
артур
артух
артухан
ару
аруба
арх
архангельск
археолог
археологии
археологические
археология
археологиядин
архив
архивация
архивдин
архивировано
архивные
архивныи
архипелаг
архит
архитектор
архитектура
архитектурадин
арц
арчан
арчи
арчии
арчин
арчияр
арчо
арчуг
арш
ас
асадхуьр
асалдхуьр
асан
асар
асари
асах
асе
асеф
асирдин
аскар
аскер
аскерар
аскервилин
аскеров
аскерри
аскерриз
аскеррин
аскӏан
аслан
асланов
асланханова
аслу
аслувилик
аслутушир
аслутуширвал
аспирантура
аспирантурада
ассаб
ассамблея
ассимиляция
ассириядин
ассоциация
ассоциациядин
асср
ассрдик
ассрдин
аст
аста
астана
астара
астероид
астероидар
астероидрин
астон
астрахандин
астрахань
астраханьдин
астрель
астроном
астрономии
астрономия
астрономиядин
асул
асулдаи
асфальт
асш
асшда
асшди
асшдин
ат
ата
атабаск
атаи
атана
атанаи
атанва
атанваи
атеизм
атеистар
атланаул
атлантик
атлантика
атлантикадин
атлас
атлетик
атлетика
атлетико
атлухан
атмосфера
атмосферада
атмосферадин
атна
атом
атомдин
атомрин
атрик
атун
атуниз
атуникаи
атунин
атӏаи
атӏана
атӏанва
атӏанваи
атӏудаи
атӏун
ауданы
аудио
аул
аух
афанасии
афанди
афар
афгъанистан
афинар
афинаяр
африка
африкада
африкадаи
африкадин
африканскии
аффан
афшарар
ах
ахаи
ахвар
ахвах
ахвахар
ахлакь
ахматова
ахматовадин
ахматовои
ахмед
ахмедов
ахпа
ахпана
ахпани
ахтармишдаи
ахтармишзаваи
ахтармишиз
ахтармишна
ахтармишун
ахтармишунар
ахтармишунин
ахтармишунрин
ахты
ахтынскии
ахтынского
ахтыпаринского
ахур
ахурар
ахурдин
ахурри
ахуррин
ахурян
ахцагь
ахцегь
ахцегьа
ахцегьар
ахцегьвацӏ
ахцегьви
ахцегьвии
ахцегьвияр
ахцегьдиз
ахцегьдин
ахцегьпара
ахцегьпарадин
ахцегьра
ахцегьраи
ахцегьриз
ахцегьрин
ахцугъ
ахъа
ахъавал
ахъагъаи
ахъаи
ахъана
ахъаюн
ахъаюнин
ахъаюнрин
ахъаяи
ахьтин
ац
ацтекрин
ацукьаи
ацукьарнаи
ацукьзава
ацукьзаваи
ацукьиз
ацукьна
ацукьнаваи
ацукьнаи
ацукьун
ацӏаи
ацӏанваи
ацӏур
ач
ачи
ачух
аш
ашага
ашали
ашамиш
ашар
ашахуьр
ашино
ашкара
ашти
ашты
ашукь
ашукьбаи
ашукьрин
аэропорт
аюн
ая
аязар
аякс
аял
аялар
аяларни
аялвал
аялвилин
аялдиз
аялри
аялриз
аялрин
аялринни
аямда
аямдин
аяр
аят
аятар
б
ба
баб
бабаев
бабаева
бабаханов
бабаюрт
бабаюртовскии
бавария
бавариядин
багамар
багирзаде
багулалар
багъ
багъар
багъдад
багъдин
багъиш
багьа
багьрам
баде
база
базар
базардин
базаяр
базе
базилика
баи
бак
бакинская
бакиханов
бакиханова
бакр
бакрди
бактерии
бактерияр
бактлук
баку
бакуда
бакудиз
бакудилаи
бакудин
бала
баладикаи
балакен
баланс
балахани
балеар
балетдин
балк
балкан
балкъар
балкіан
балкӏан
балкӏанар
балкӏандал
балкӏандин
балтии
балтик
балтикадин
балугъ
балугъар
балхар
бангкок
бангладеш
бангладешдин
банд
банк
банка
банкгородов
банкунин
банска
бану
барабар
барабарвал
барбадос
барбат
барбатӏ
барбатӏнаваи
барбуда
барда
баренц
баркаллу
баркаллувилин
барокко
барселона
барселонада
барселонадин
барсук
барто
бартольд
бартольда
бас
баскаков
баскал
баскетбол
баскетболдаи
баскетболдин
баскрин
баскӏум
басма
басмадаи
бассеи
бат
батальондин
батлух
батыраян
бах
баха
бахмахи
бахрам
бахт
бахтавар
бахтлу
бахтунин
бахцугъ
бахча
бахчахъанвал
бахчахъанвилив
бахчаяр
бахшнаваи
бацбияр
баш
башкирар
башкортостан
башкъортостан
башламиш
башламишна
бащунаяр
баябан
баян
баянар
баят
бд
бе
бег
бега
бегар
бегдин
бегенмиш
бегьем
бегьемардаи
бегьемдиз
бегьемрунин
бегьер
бегьерар
беделов
беден
беденда
бедендин
бедуьхъ
бежта
бежтаяр
бежтинскии
без
беи
бек
беккенбауэр
бел
беларус
беларусия
беларусиядин
беларусь
белая
белген
белгенар
белгенда
белгендин
белгород
беледи
белиджи
белиз
белки
белла
белокан
белокандин
белорусар
белоруссия
белыи
бельгия
бельгиядин
бен
бенгали
бере
береда
бередилаи
бередин
береи
берикеи
беринг
берлин
берлиндин
бернли
бес
бета
бетховен
би
биатлондаи
библиография
библиотека
бигер
бидиркъеле
бизнес
бизнесдин
бизнесмен
бии
бикаламахи
билалов
билбил
билбилахуьруьн
билиж
бильгади
билясувар
бин
бине
бинедал
бинедаллаз
бинедилаи
бинедин
бинеламиш
бинеяр
бинт
биографии
биографическая
биографическии
биография
биология
биологиядин
биохимия
бисау
бисмарк
биц
бицӏи
блика
блок
бо
бобби
богдан
богос
богота
боевому
бои
бокс
боксе
бол
болг
болгария
болгариядин
более
боливия
большая
большевик
большевикрин
большои
бомбардир
бомбардирар
бонапарт
бордо
боржоми
борис
бортэ
борч
борьба
борьбе
боснияни
бостон
ботаника
ботафого
ботлих
ботлихар
бразил
бразилиа
бразилия
бразилиядин
бразилиядихъ
браи
бранденбург
бранденбургдин
братислава
брест
бригададин
британ
британия
британиядиз
британиядин
британника
британрин
брокгауз
брокгауза
брокгаузан
брокгауздин
броневскии
брунеи
брюссель
брянск
бсэ
буба
бубади
бубадиваи
бубадиз
бубадикаи
бубадин
бубадихъ
бубаи
бубани
бубаяр
буглен
бугъ
бугъда
будапешт
буддизм
буде
будугъ
будугъар
будугълу
будугърин
будут
будухскии
будущее
буи
букар
бул
булат
булах
булахар
булахдин
бум
бундесланддин
бунт
бунтар
бунтара
бур
бургимакмахи
бурдеки
бурж
буржар
буржи
буркихан
бурни
буровдал
буру
бурув
буруз
бурук
бурукаи
бурулаи
бурун
бурухъ
бурхимахи
буршагь
бурши
бурят
бурятия
бут
бутан
бутахуьр
бутахуьруьн
бутри
бутса
бутусов
буьркьуь
буьруьнж
буэнос
был
было
быт
бэи
бэк
бюджет
бюро
бюст
бязи
бязибур
бязибуру
бязибуруз
в
ва
вавилово
вагьабов
вагьши
вад
вадим
вадлагьаи
вадра
важиб
важибвал
важиблу
ваз
ваи
вак
вакъиа
вакъиаи
вакъиаяр
вакъиф
вал
валар
валари
валарин
валах
валахар
валахарзава
валахдаи
валахдар
валахзава
валахзаваи
валахиз
валахна
валахнава
валахнаи
валахра
валахун
валахунин
вале
валенсия
валентин
валентина
валер
валера
валерии
валерин
вали
вализ
валин
вални
валчагъ
вам
ван
ванар
ванашимахи
вандам
вандерлоо
ванер
ванерин
ванрин
ванринни
ванцин
вань
вар
варар
варариз
варарин
варархъан
варденис
варз
вари
вариант
варна
варни
варташен
варунихъ
варц
варцар
варцара
варцарин
варцин
варчагъ
варчагърин
варшава
василии
васильев
васильева
васильевич
вассал
ват
ватан
ватанда
ватандал
ватандиз
ватандикаи
ватандин
ватандихъ
ватанперес
ватанэгьлии
ватанэгьлияр
ватикан
ватикандин
вафа
вафалу
вафалувал
вах
ваха
вахаз
вахт
вахтанг
вахтар
вахтара
вахтарилаи
вахтарин
вахтуна
вахтуналди
вахтунда
вахтундилаи
вахтунилаи
вахтунин
вахчаг
вахчагар
вахчуз
вац
вацра
вацраз
вацрал
вацралаи
вацран
вацӏ
вацӏаи
вацӏал
вацӏалаи
вацӏар
вацӏари
вацӏарик
вацӏарикаи
вацӏарилаи
вацӏарин
вацӏни
вацӏу
вацӏуз
вацӏун
вачел
вачер
вачи
вачин
вашингтон
вашингтонда
вашингтондин
ваъ
ваяр
вв
ве
веб
вегьезваи
вегьеи
вегьен
вегьена
вегьер
вегьин
ведено
ведомости
везифа
везифадал
везифадилаи
везифаи
везифаяр
веи
век
века
веке
векил
векилар
векилвал
векилвилин
векилри
векилриз
векилрикаи
векилрин
веков
вектор
векъи
векь
векьелар
векьер
векьин
велаят
велаятда
велаятди
велаятдин
велед
веледри
вели
велиев
великая
великент
великии
великои
велихан
веллингтон
велс
вена
венадин
венгр
венгрия
венгриядин
венгриядихъ
венера
венесуэла
венесуэладин
венеция
венециядин
венк
вер
вергилии
верде
вердиш
веревирдер
версия
версиядаи
версиядалди
версиядив
версиядиз
версияр
вертил
верхер
верхнии
верховны
верч
веси
вест
вести
вестник
весь
ветеран
ветеринариядин
вех
вечер
вещество
веществои
веществояр
взгляд
ви
вигьин
вигьинар
вигьиндаи
вигьинрикаи
вигьинрин
видади
видео
виже
византии
византия
византиядин
вии
вик
викигафалаг
викигьамбарда
викиктаб
викикӏеллух
википедия
викицитатаяр
викицӏии
викичешме
виктор
виктория
викӏегь
вил
вилаи
виланова
вилаят
вилаятар
вилаятда
вилаятди
вилаятдиз
вилаятдик
вилаятдин
вилаятдихъ
вилаятра
вилаятриз
вилаятрин
вилгьелм
виле
вилер
вилериз
вилерикаи
вилерин
вили
вилив
вилиз
вилик
виликаи
виликамаз
виликан
виликди
виликпатан
виликра
виликфинин
вилин
вилини
вилла
вильгьельм
вильнюс
вилья
виляи
вине
винеи
винел
винелаи
вини
винидихъ
виниз
винизвал
винихъ
винихъаи
винсент
вир
виргин
вирелаи
вирен
вирер
вирерин
вири
вирибурулаи
вирида
виридаз
виридалаи
виридан
виридахъ
виридлаи
виридуьньядин
вирииндиядин
вирин
вирина
вирини
вириниз
виринра
виринриз
вириурусатдин
вирт
виталии
виц
вице
вицхи
вич
виче
вичел
вичелаи
вичи
вичиз
вичик
вичикаи
вичин
вичини
вичихъ
вични
виш
вишекаи
вишелаи
вишералди
виши
вишни
вишсан
вияр
включен
вкп
вкпб
владению
влади
владикъавкъаз
владимир
владимира
владимиран
владимирович
властдин
власти
власть
влиятельные
влксм
во
вод
водород
водороддин
воды
воениздат
военно
военныи
возглавил
возрождение
возрождения
вои
вокал
вокзал
вокруг
волга
волгадин
волгоград
волгограддин
волеи
волк
волкова
волостяр
вопросу
вопросы
воронеж
воронов
воскресенское
воспоминания
восток
востока
востоковедения
восточная
восточного
восточнои
восточныи
восточных
впн
времен
времени
время
вруш
вс
все
всего
всемирная
всеобщая
всероссии
всесоюзная
всесоюзнои
всесоюзных
всеукраинская
вступ
вся
вт
вторая
второи
вугана
вуганаи
вуганваи
вугузва
вугузваи
вугун
вугунин
вуж
вулкан
вулканар
вулкандин
вулканов
вулканрин
вулканы
вун
вуна
вурвар
вурварин
вуч
вучиз
вцик
вы
выборов
выиграл
вып
выпуск
высшии
вьет
вьетнам
вьетнамдин
вязер
вячеслав
г
га
габулов
гав
гаваи
гавдиш
гавдишан
гагарин
гагатли
гагауз
гагь
гагьди
гад
гада
гадади
гададин
гадаи
гадарна
гадарнаваи
гадац
гаджи
гаджиев
гаджиева
газ
газар
газардк
газдив
газдикаи
газдин
газел
газет
газета
газетадин
газетар
газетда
газетдаи
газетди
газетдиз
газетдин
газетра
газетриз
газетризни
газетрин
газетринни
гази
гаи
гаити
гак
гаквари
гал
гала
галагагь
галаз
галазни
галаи
галактикаи
галат
галачиз
галачир
галерея
галилеи
галилео
галк
галкӏ
галкӏанва
галкӏанваи
галкӏдин
галкӏур
галкӏурзаваи
галлар
галтад
галукьаи
галукьзава
галукьна
галукьнаваи
галукьнаи
галынчаг
гамар
гамарин
гамзатов
гамзатова
гамидов
гамиш
гамри
гана
ганаи
ганач
ганва
ганваи
ганг
гангдин
гандурар
ганиева
гапур
гапурар
гапшима
гар
гарагъар
гараи
гарар
гарари
гарарин
гарб
гарбутль
гардан
гарик
гарнизон
гарринча
гарсия
гарун
гасан
гасанов
гасанова
гат
гатана
гатар
гатуз
гатун
гатфар
гатфариз
гатфарин
гатӏум
гатӏумна
гатӏумнаваи
гатӏумнаи
гатӏунна
гаф
гафалаг
гафар
гафара
гафаралди
гафарган
гафарганар
гафарганда
гафари
гафарив
гафариз
гафарикаи
гафарилаи
гафарин
гафарихъ
гафарни
гафба
гафни
гафун
гафуналди
гафуни
гафуниз
гафуникаи
гафунилаи
гафунин
гафунихъ
гачалхуьр
гашаров
гашарова
гва
гваделупа
гваз
гваи
гвардия
гвардиядин
гватемала
гвачир
гвердцители
гвиана
гвинея
гвинеядин
гвичин
гг
где
гдр
ге
геба
гегам
гегаркуник
гегьенш
гегьеншар
гегьеншарун
гегьеншдаказ
гегьеншдиз
геж
гежух
геи
гектар
гектардилаи
гекъигаи
гекъигна
гекъигун
гекъигунар
гекъигунин
гекьигаи
гел
геле
гелеваз
гелер
гелмец
гелхен
гелхенвии
гелхенвияр
гельмец
геметюбе
генани
генгвал
генеалогия
генерал
генерала
генетик
генетикадин
генже
генжедин
геннадии
генрих
геогр
географ
географии
географические
географическии
географических
географическое
география
географиядин
геокчаи
геолог
геология
геологиядин
геометрия
геометриядин
георгии
геранбои
герб
гербдал
гербдин
герга
гергебиль
гереи
герек
геренвал
герман
германии
германия
германияда
германияди
германиядиз
германиядин
германиядинни
германиядихъ
германрин
герменчик
герои
героя
герреро
гертма
герхмахи
герцеговина
герцог
герцогвал
гзаф
гзафбур
гзафбуру
гзафбуруз
гзафбурун
гзафбуруна
гзафвилин
гзафи
гзафмиллетрин
гзафни
гибралтар
гидатли
гидроним
гии
гила
гилалди
гилан
гилани
гилиг
гилигзава
гилигзаваи
гилигна
гилигнаваи
гилигнаи
гилигун
гилигунивди
гилии
гилияр
гималаи
гималаяр
гиман
гимеи
гими
гимидин
гимии
гимиш
гимишдин
гимияр
гимн
гимназия
гимназияда
гимнастика
гимндин
гимры
гинта
гинух
гинухар
гирдыманчаи
гитара
гитарадал
гитарист
гитис
гишила
гия
гко
гл
глава
главная
главныи
главои
главы
глагол
глаголрин
глобал
глюкоза
гну
го
гоа
гобустан
гоган
гоготль
год
года
годобери
годоберияр
годов
году
годы
гол
гола
голар
голдикаи
голландиядин
голотль
гомер
гондурас
гонконг
гонсалес
гор
горах
гори
город
города
городам
городами
городов
городским
городских
городского
горцев
горы
горькии
горького
гос
госдумадин
госкомстат
госкомстата
гослитиздат
государств
государства
государственная
государственного
государственное
государственнои
государственныи
государство
готар
готфрид
гравитациядин
градин
градоначелник
градус
граждан
гражданвилин
гражданская
гражданство
грамм
грамматика
грамматикадин
грамматики
грамматическии
грамота
гран
границ
граница
границах
грановскии
грар
граф
графвал
графвилин
график
графикадал
графикадалди
графикадин
грек
грекар
грекри
грекрин
гренада
гренландидин
гренландия
греция
грецияда
грециядин
григориан
григории
григорьевич
грозныи
грузии
грузия
грузияда
грузиядин
групп
группа
группади
группадиз
группадик
группадин
группаи
группаяр
группировка
группы
гуам
губден
губернатор
губернии
губерния
губернияда
губерниядик
губерниядин
гугурт
гугуртдин
гуда
гудаи
гудермес
гуж
гужалди
гужлу
гужуналди
гуз
гузава
гузаваи
гузва
гузваи
гузвач
гузвачир
гузвачирвиляи
гулебки
гулијевин
гум
гуманитар
гун
гуналди
гунгар
гунзиб
гунзибар
гуниб
гунивди
гуниз
гуникаи
гунин
гунрин
гунуг
гунугар
гунугин
гунугрин
гунха
гуп
гур
гурар
гурж
гуржи
гуржии
гуржистан
гуржистанда
гуржистандин
гуржистандинни
гуржистандихъ
гуржияр
гуржу
гурия
гусаев
гусеи
гусман
гусмана
густав
густерин
гутум
гутумрин
гуьгъуьна
гуьгъуьнаи
гуьгъуьналлаз
гуьгъуьниз
гуьгъуьнилаи
гуьгъуьнин
гуьгъуьнлаи
гуьгьуьл
гуьгьуьллувилелди
гуьзел
гуьи
гуьлгери
гуьлези
гуьлмегьамедов
гуьлуьн
гуьлуьтар
гуьмбет
гуьмбетар
гуьнгуьна
гуьндуьзк
гуьне
гуьнеда
гуьнедал
гуьнедин
гуьнеи
гуьнеяр
гуьрметдаи
гуьрчег
гуьт
гуьтӏуь
гфр
гъ
гъавурда
гъазиабад
гъаи
гъалат
гъалатӏ
гъалиб
гъалибвал
гъалибвилин
гъалибна
гъамбар
гъамбарди
гъамбардиз
гъамбардин
гъана
гъанаи
гъанва
гъанваи
гъаниева
гъвандик
гъвеч
гъвечи
гъвечӏи
гъебцегь
гъед
гъедер
гъеи
гъенел
гъенер
гъенервац
гъери
гъетер
гъетерин
гъетрен
гъидаи
гъиз
гъизва
гъизваи
гъил
гъиле
гъилелди
гъилер
гъилера
гъилериз
гъилив
гъиливкхьинра
гъилиз
гъилик
гъилин
гъиляи
гъин
гъу
гъугъанар
гъугъанвии
гъугъандал
гъугъанрин
гъулцин
гъун
гъурбатда
гъурбатдиз
гъуц
гъуцар
гъуцариз
гъуцран
гъуьгъвез
гъуьгъвезар
гъуьгъвезрин
гъуьгъуьнин
гъуьл
гъуьлуьз
гъуьлягъ
гъуьлягъар
гъуьр
гъуьрч
гь
гьа
гьабиб
гьабрук
гьабсбургрин
гьабур
гьабурук
гьабурукаи
гьабурулаи
гьабурун
гьава
гьавада
гьавадин
гьаваи
гьавана
гьаваяр
гьавизда
гьавиздин
гьавиляи
гьавурда
гьадаз
гьадалаи
гьадан
гьадж
гьадлаи
гьаж
гьажи
гьажибег
гьажибегов
гьажибегова
гьажибугъда
гьажигьатемли
гьажиди
гьажидин
гьажиев
гьажиева
гьажиеван
гьажикьабул
гьажимет
гьажимурадан
гьажимурадов
гьажияр
гьазур
гьазурвилер
гьазурдаи
гьазурзава
гьазурзаваи
гьазуриз
гьазурна
гьазурнаваи
гьазурун
гьазурунин
гьаи
гьак
гьаким
гьакимар
гьакиматди
гьакиматдин
гьакимвал
гьакимвилин
гьакимрин
гьакъикъат
гьакъикъатда
гьакъикъатдив
гьакъикъи
гьакъиндаи
гьакьар
гьакьарзаваи
гьакьван
гьакӏ
гьакӏа
гьакӏан
гьакӏни
гьал
гьалаи
гьалар
гьалара
гьалараи
гьалариз
гьаларикаи
гьаларин
гьалда
гьалдаи
гьалдив
гьалдиз
гьалдин
гьалзава
гьалзаваи
гьализ
гьална
гьалнаваи
гьалнаи
гьалт
гьалтаи
гьалтда
гьалтзава
гьалтзаваи
гьалтна
гьалтнаи
гьалтун
гьалун
гьалунин
гьам
гьамамар
гьамбархана
гьамбарханадин
гьамбарханаи
гьамбург
гьамза
гьамзатан
гьамзатован
гьамзатрин
гьамид
гьамидан
гьамидов
гьамиша
гьамишан
гьамни
гьана
гьанаи
гьаниз
гьанлаи
гьапут
гьапутар
гьапутлу
гьапутрин
гьар
гьараи
гьарам
гьарда
гьардаз
гьари
гьарнихъ
гьарри
гьарф
гьарфар
гьарфаралди
гьарфарин
гьарфуникаи
гьасан
гьасана
гьасанан
гьасанов
гьасанова
гьасанован
гьасил
гьасилдаи
гьасилзаваи
гьасилун
гьасилунин
гьасрет
гьасятда
гьат
гьатаи
гьатзава
гьатзаваи
гьатна
гьатнава
гьатнававиляи
гьатнаваи
гьатнаи
гьатта
гьафтеда
гьафтедин
гьахъ
гьахълу
гьахъсузвилер
гьахьаи
гьахьдаи
гьахьзава
гьахьна
гьахьнаи
гьахьтин
гьахьун
гьашаратар
гьашаров
гьашим
гьаят
гьевес
гьевескаррин
гьезерчи
гьеи
гьеким
гьекь
гьелбетда
гьеле
гьелелиг
гьелени
гьемзет
гьер
гьердиз
гьерекат
гьерекатар
гьерекатдин
гьерен
гьесенкъеле
гьефер
гьи
гьидрогендин
гьижра
гьиз
гьик
гьикая
гьикаяи
гьикаяр
гьикаят
гьикаятар
гьикаятдин
гьикаятчи
гьикаяяр
гьикьван
гьикӏ
гьил
гьилерин
гьилуба
гьина
гьинаи
гьинд
гьиндистан
гьиниз
гьисаб
гьисаба
гьисабаи
гьисабдаи
гьисабдал
гьисабдалди
гьисабдиз
гьисабдик
гьисабдикаи
гьисабдин
гьисабзава
гьисабзаваи
гьисабиз
гьисабна
гьисабнаваи
гьисабнаи
гьисабун
гьисабунин
гьисс
гьиссер
гьихьтин
гьич
гьольштаи
гьужумдаи
гьукум
гьукумат
гьукуматар
гьукуматда
гьукуматди
гьукуматдиз
гьукуматдик
гьукуматдин
гьукуматдинни
гьукуматдихъ
гьукуматра
гьукуматри
гьукуматриз
гьукуматрик
гьукуматрикаи
гьукуматрин
гьукуматрихъ
гьукумвал
гьукумдал
гьукумдиз
гьукумдик
гьукумдин
гьулуьн
гьумбет
гьумьбет
гьунар
гьурметдин
гьусеи
гьуьжет
гьуьжетар
гьуьжетрин
гьуьжре
гьуьжреда
гьуьл
гьуьлдин
гьуьле
гьуьлел
гьуьлелаи
гьуьлер
гьуьлера
гьуьлерал
гьуьлерилаи
гьуьлерин
гьуьлуь
гьуьлуьв
гьуьлуьз
гьуьлуьк
гьуьлуькаи
гьуьлуьн
гьуьлуьхъ
гьуьляи
гьуьрмет
гьуьрметдаи
гьуьрметдин
гьуьрметлу
гьуьсеи
гьяддиз
гьял
гьяркьуь
гьяркьуьвал
гэс
гюго
гюльмагомедов
д
да
дав
дава
давам
давамарзава
давамарзаваи
давамариз
давамарна
давамарнаи
давамарун
давдакьан
давид
давление
давуд
даг
даггиз
дагдизель
дагестан
дагестана
дагестане
дагестанская
дагестанские
дагестанскии
дагестанских
дагестанского
дагестанское
дагестанскои
дагучпедгиз
дагцик
дагъ
дагъдин
дагълар
дагълара
дагъларин
дагъустадин
дагъустан
дагъустанви
дагъустанвии
дагъустанда
дагъустандаи
дагъустандал
дагъустандани
дагъустанди
дагъустандиз
дагъустандин
дагъустандинни
дагъустандихъ
дагьустандин
дад
дада
дадиани
дадиз
дадин
даев
даз
даи
даим
дак
дакаи
дакар
дакка
даккада
даккадин
дакота
дакӏан
дакӏар
дал
далагь
далаи
далдам
далдамар
далдамхъан
далди
дали
далу
дам
дамаск
дамах
дамахзава
дан
данар
данда
дандал
данди
дандиз
дандикаи
дандин
данелия
дани
дания
даниядин
даниял
данные
данным
данных
данра
дар
дарабад
дарада
дарамат
дараматар
дараматрин
дарбеков
дарваг
дарвагчаи
дарвишаи
дарг
дарги
даргии
даргинскии
даргинского
даргияр
дарго
дардархуьр
дарк
дарман
дарманар
дармандин
даров
дарова
дасср
дассрдин
дасхуьруьнви
дат
датч
датӏана
дауд
дах
дахада
дахдин
дахъ
дахьаи
дашкесан
даяр
даях
две
дворец
дворян
дворянрин
двул
двух
дгу
дгьу
ддт
де
дебют
деве
девечи
девиз
девир
девирда
девирдал
девирдани
девирдиз
девирдикаи
девирдилаи
девирдин
девирра
девирриз
девиррин
девлет
девлетар
девлетлу
дегва
дегиш
дегишарна
дегишарнаи
дегишвилер
дегишрун
дегишун
дегь
дегьвал
дегьлиз
дегьне
дегьневал
дегьнедаи
дегьнеи
дедели
деи
декабрдиз
декабрдилаи
декабрдин
декабрь
декабрьдиз
декабря
декан
декларация
декьикьа
делегат
деление
делении
деления
дели
делил
делилар
делилраи
делилри
деличобан
дело
дель
дельта
демирар
демографиядин
демократик
демократия
демократиядин
демоскоп
ден
денаи
дене
деникин
день
департамент
департаментар
департаментди
департаментдин
депортация
депрессия
депутат
депутатвиле
депутатов
депутатрин
дер
дербенд
дербент
дербента
дербентда
дербентдиз
дербентдин
дербентскии
дербентского
дервишаи
дерди
дере
дереда
дережа
дережада
дережадал
дережадив
дережадиз
дережадилаи
дережадин
дережаи
дережаяр
дереи
дерин
деринвал
дериндаи
десте
дестедин
дестек
дешериев
деятель
деятельности
деятельность
дж
джабаль
джабраил
джавахети
джаджар
джакарта
джалган
джалма
джамна
джан
джана
джандин
джане
джанская
джанскии
джанскои
джану
джанцы
джафаров
джеи
дженгутаи
джерси
джилихуьр
джиных
джипар
джо
джон
джона
джордж
джугут
джули
джульярд
дзава
дзаваи
дзонгхагдин
дзор
дзорагет
дзюдо
дзюдодаи
дзюдоист
ди
диабет
диабетдин
диалект
диаметр
диаспора
диаспораяр
диб
дибар
дибвилин
дибдикаи
дибдин
див
диваи
диван
дивизион
дивизионда
дивизиондин
дивизия
дивизиядин
дигагь
диге
дигидаи
дид
диде
дидед
дидеди
дидедиз
дидедин
дидеи
дидени
дидо
дидои
дидояр
диего
диз
дизаи
дизахлы
дик
дикаи
диклосмта
диктатор
диктатура
дикъет
дилаи
дилбер
дили
дин
дина
динамика
динамо
динар
династии
династия
династиядаи
династиядин
динда
диндаи
диндал
диндар
динди
диндиз
диндик
диндикаи
диндилаи
диндин
диндинни
диндихъ
дини
динни
динрин
динэгьли
диплом
дипломат
дипломатиядин
дипломдалди
директор
директорвал
директорвиле
директордин
директоррин
дириже
дирин
диринвал
дирр
дис
дискография
дисс
диссертаци
диссертация
диссертацияда
диссертацияр
дифференциал
дихъ
дишегьли
дишегьлидин
дишегьлии
дишегьлияр
диши
дишиди
для
дмитриевич
дмитрии
дна
днаваи
днеи
днепр
дни
днц
дня
до
договор
дои
доклад
доктор
доктора
докторвилин
доктордин
докуз
докузпаринского
документар
документра
докъузпара
докъузпарадин
должность
долина
долинади
доллар
доломит
дом
дома
домен
доминика
доминикадин
доминиканского
дон
дондин
донскои
дону
доп
дополненное
дор
доров
дору
дофин
доцент
др
дра
драм
драма
драмадин
драматург
драматургиядин
древнего
древнеи
древнии
дрезден
дреи
дроздов
другие
других
дружба
дсср
ду
дубаи
дубна
дубримахи
дуван
дуванбег
дувандин
дуванхана
дуванханадин
дуванханаи
дуванханаяр
дувул
дувулар
дугун
дугуна
дугунал
дугунар
дугунда
дугундал
дугундин
дугурнаи
дугъри
дуи
дукъузпара
дукъузпарадин
дулдугъ
думадиз
думадин
думов
думы
дунаи
дуранги
дуружа
дуруштул
дуст
дустагъ
дустагъда
дустагъра
дустар
дустариз
дустарин
дуствал
дуствилин
дустуниз
духтур
духтурдин
душман
душманар
душманвал
душмандиз
душмандин
душманрикаи
душманрин
дуьгуь
дуьз
дуьзар
дуьзвал
дуьздаказ
дуьздал
дуьздиз
дуьзен
дуьзендал
дуьзлер
дуьнеда
дуьнья
дуьньяда
дуьньядал
дуьньядиз
дуьньядикаи
дуьньядин
дуьнядиз
дуьнядин
дуьшуьш
дуьшуьшдик
дуьшуьшра
дф
дьяконов
дэвид
дяве
дявевилин
дявед
дяведа
дяведаи
дяведал
дяведалди
дяведиз
дяведик
дяведикаи
дяведилаи
дяведин
дявединни
дявеи
дяверин
дявеяр
е
ебиат
ебиатдикаи
ебиатдин
ебии
ебиятдин
ев
евгении
еви
евиз
евилик
евлах
евразида
евразия
евразияда
евразиядин
евреи
евро
евровидение
европа
европавии
европавияр
европада
европадаи
европадани
европадиз
европадин
европадинни
европе
европеи
европы
ег
египет
египетдин
его
егъерхъан
егь
егьрен
един
единая
единиц
единыи
ее
ежегодник
езне
еи
еирид
еиридлагьаи
ек
екатеринбург
еке
екевал
ел
елаи
елдаи
елди
еле
елегуьн
елед
елена
елзаваи
елиз
елизаветполь
елизаветпольская
елна
елун
елунар
елунин
ельское
емен
емишар
емишрин
емуьжуьд
емуьжуьдлагьаи
ен
енвал
енвилер
ендаказ
ени
енисеи
енсиклопедијасы
епископ
ер
ера
ерал
ергуьж
ергуьжар
ергуьжрин
ереван
ереванда
еревандин
ерет
ери
еридин
ерин
ерли
ерси
есир
есирда
если
есть
етим
етима
ефрона
ефронан
ефрондин
ехи
ехибритания
ехибританиядин
ехибур
ехивилел
ехиди
ехуьл
ехуьлуба
ехуьр
еще
ж
жабраил
жаваб
жавабдар
жаваншир
жагъаи
жагъанаи
жагъанва
жагъанваи
жагъурзаваи
жагъуриз
жагъурна
жагъурнаваи
жагъурун
жагъурунар
жагъурунри
жагъурунрин
жаза
жазадин
жазаяр
жал
жалгъан
жалилабад
жалилов
жамал
жамалдин
жамалдинан
жан
жанавур
жанавурар
жанар
жанари
жанариз
жанарилаи
жанарин
жанаринни
жанарихъ
жанарни
жанахир
жанви
жанда
жандаи
жандал
жанди
жандиз
жандин
жандинни
жандихъ
жанеи
жанр
жанраи
жанри
жанриз
жанрин
жар
жаруллагь
жегьил
жегьилар
жегьилди
жегьилзамаз
жегьилри
жегьилриз
жегьилрин
жегьре
жеда
жедаи
жедалди
жедач
жеди
жез
жезава
жезва
жезваи
жезвач
жезвачир
жезмаи
жеи
жек
жекар
желб
железнодорожныи
жем
жемикент
жемият
жемиятар
жемиятда
жемиятдиз
жемиятдик
жемиятдин
жемиятдинни
жемиятрикаи
жемиятрин
жемят
жемятар
жемятди
жемятдиз
жемятдик
жемятдин
жемятдинни
жемятрин
жен
женг
женгер
женгера
женгериз
женгерин
женгина
женгиниз
женгинин
женгчи
женгчии
жендек
женева
жерге
жергеда
жергедин
жергеи
жеч
жзл
жив
живе
живедин
живер
живери
животные
животных
жигъираи
жигъирарни
жигьетдаи
жизви
жизни
жизнь
жик
жими
жинс
жинсерин
жинсиникаи
жинсинин
жителеи
жители
жозе
жув
жува
жуваз
жуван
жугъурзаваи
жугъурна
жугъурунрин
жугьури
жуковскии
журе
журнал
журнала
журналар
журналда
журналди
журналдиз
журналдин
журнале
журналист
журналистар
журналистикадин
журналистрин
журналра
журналриз
журналрин
жуьме
жуьмя
жуьмядиз
жуьре
жуьреба
жуьревал
жуьревилив
жуьреда
жуьредаи
жуьредиз
жуьредикаи
жуьредин
жуьрединди
жуьреи
жуьреяр
жюридин
з
за
забаи
забит
зава
заваи
заведиш
завод
заводар
заводда
заводдин
завуч
заде
заз
заи
закавказье
заказник
закатала
закаталадин
закатальскии
закон
законов
зал
залан
заланвал
заланвилин
заланди
залда
залив
заливда
заливдиз
заливдин
залум
заман
замана
заманада
заманадин
заманаи
заманарилаи
заманда
замандин
заманрилаи
замбия
замбиядин
заместител
заместителвиле
заместитель
заметки
замир
заммер
зангезур
зао
запад
западная
западного
западнои
записки
заповедник
запун
зарар
зарафат
зарб
зарбвал
зарбвилин
зарезервировано
зари
зариди
заридиз
заридин
зарии
зарияр
зарият
зариятда
зариятдин
заря
заряд
заслуги
заслуженныи
зат
затор
затӏ
затӏар
затӏарикаи
затӏарин
затӏарихъ
затӏни
захит
зва
зваи
звание
зве
звезда
звезды
здунов
зегьем
зегьмет
зегьметар
зегьметдал
зегьметдикаи
зегьметдин
зегьметрин
зегьметхъанрин
зегьметчи
зегьметчии
зеи
зеландия
зеландиядин
земель
земли
земля
зенах
зердаб
зи
зибирхали
зигмунд
зигьин
зидьян
зиза
зизик
зилдик
зило
зиль
зильмукмахи
зимбабве
зинданмуругъ
зирдаг
зия
зияда
зиян
зиянар
зиярат
зияратдин
зияудин
золото
золотои
зона
зонада
зонадиз
зонадин
зонаи
зонаяр
зоны
зтӏар
зубаи
зугдиди
зугьрабхуьр
зугьрабхуьруьнжемятдик
зудин
зул
зулал
зулар
зуларикаи
зулуз
зулумар
зулумрикаи
зулун
зун
зур
зураб
зуралаи
зурба
зурбадаказ
зурзун
зурзунар
зурзунрилаи
зурзунрин
зуростров
зуростровда
зуростровдал
зуростровдин
зуростровдинни
зырян
и
иа
иб
ибадат
ибадатхана
ибарат
ибаратдик
ибаратдикаи
иберии
ибериядин
ибн
ибне
ибнедиз
ибрагим
ибрагимов
ибрагьим
ибрагьиман
ибрагьимов
ибрагьимова
ибур
ибуру
ибурукаи
ибурун
ив
ивал
иван
иванан
иванов
иванович
иви
ивигар
ивидик
ивидин
ивилер
ивили
ивиляи
ивияр
игин
игинвал
игинвилелди
игиндаказ
игит
игорь
игр
играми
играх
игъ
игъир
игъирар
игъирра
игъиррин
игьиржал
игьтияжар
игьтияжриз
игьтиятар
ид
ида
идаз
идаи
идаказ
идакаи
идалаи
идалди
идальго
идан
идар
идара
идарада
идарадин
идараи
идараяр
идахъ
идентификатор
иди
идилаи
идин
идлаи
идликенти
идрис
иер
иерусалим
иеси
иесии
иесияр
ижир
из
изава
изаваи
изано
избербаш
избербашдин
избран
избранные
изва
изваи
известия
изд
издание
издательскии
издательство
издательствода
изменения
изменениями
изменениях
изобразительного
израиль
израильдин
изучение
изучению
изучения
ии
ииаэ
иисус
ииял
ик
икаи
ике
икра
икрам
икъал
икъалаи
икъалди
икъан
икъар
икъара
икъарин
икьван
икьвед
икьведлагьаи
икьрар
икьрардалди
икьрардив
икьрардиз
икьрардин
икьуд
икьудлагьаи
икӏ
икӏа
икӏни
ил
ила
илани
илвал
илгьам
илгьамдин
или
илим
илимар
илимда
илимдал
илимдиз
илимдин
илимдинни
илимрал
илимрин
илису
илисудин
илихъ
илихъар
иллаки
иллинои
илхичи
иль
ильич
илья
илә
им
имам
имаман
имаматдин
иман
имарат
имаратар
имена
имени
имерети
имеретия
имеретиядин
ими
имил
имишли
иммигрантрин
имни
император
императорди
императордиз
императордин
императординни
императорри
императоррин
императорское
империи
империя
империяда
империяди
империядиз
империядик
империядикаи
империядин
империядихъ
импорт
ин
ина
инаг
инаи
инал
инар
инарзава
инарзаваи
инариз
инарна
инарнаваи
инарнаи
инг
ингердах
ингилис
ингл
инглис
ингуш
ингушар
ингушетия
ингушетиядин
ингье
ингьул
инд
индеи
индекс
индексар
индии
индин
индира
индия
индияда
индиядин
индоевропадин
индокитаи
индонезия
индонезиядин
индуизм
индустриал
индустрия
индустриядин
инженер
инженервиле
ини
иниз
инин
инит
инихъ
инк
инкар
инкъилаб
инкъилабдилаи
инкъилабдин
инлаи
инс
инсан
инсанар
инсанди
инсандиз
инсандин
инсаниятдин
инсанри
инсанриз
инсанрикаи
инсанрин
инсанрихъ
инсбрук
институт
института
институтар
институтда
институтди
институтдик
институтдин
институтра
инструкторвиле
интервью
интернат
интернет
интернетда
интерфакс
инуит
инф
информации
информационные
информационныи
информация
информациядин
инхело
инхо
инюпиак
иоанн
иоганн
ион
иондин
иордания
иосиф
ип
ипуд
ипудлагьаи
ир
ирак
иракдин
ираклии
ирам
иран
иранви
иранвии
иранда
ирандаи
ирандин
ирандихъ
ирар
ирганаи
иргъ
иргъинилаи
иргъинин
ирдиз
ирен
ирер
ири
ирид
иридвишни
иридлагьаи
иридра
ирина
иркутск
иркъулууба
ирл
ирландия
ирландиядин
ирс
ирсинин
иртижи
иругудлагьаи
ис
иса
исаак
исабелино
исав
исадин
исаев
исаева
исаз
исаи
исакьов
исал
исалаи
исалди
исан
исандаваи
исандиваи
исар
исара
исарал
исаралди
исарани
исариз
исарилаи
исарин
исарра
исаррин
исинбаева
искандер
иски
искра
искусства
искусство
искусстводин
ислагьвилин
ислам
исламдин
исландия
ислендиз
ислягь
ислягьвал
ислягьвилин
исмаил
исмаилан
исмаилли
исмаиллы
исмаилов
исмаилова
исни
исп
испан
испанви
испании
испания
испанияда
испанияди
испаниядиз
испаниядин
испанрин
испик
испикрин
исполкомдин
исследование
исследовании
исследования
ист
истамбул
истису
истории
историко
историческая
исторические
историческии
исторических
историческои
история
исуз
исузни
исун
исятда
исятдани
ит
итал
италия
италияда
италиядиз
италиядин
итальянви
итар
итемрин
итим
итимар
итимдал
итимдин
итимрин
итогах
итоги
итӏа
итӏани
иудаизм
иудеи
иудеяр
иф
ифа
ифади
ифадикаи
ифадин
ифаи
ифаяр
ифен
иферар
ифиз
их
ихвилер
ихилов
ихилова
ихлу
ихлувилин
ихрек
ихтибар
ихтии
ихтилат
ихтияр
ихтиярар
ихтиярда
ихтиярдалди
ихтиярдиз
ихтиярдик
ихтиярдин
ихтияррин
ихуьр
ихъ
ихьтин
иц
ич
ичер
ичерин
ичин
ичкерия
ичӏи
ичӏизва
иш
ишат
ишатар
ишатда
ишатдал
ишатдин
ишатра
ишатрин
ишдин
ишел
ишкарты
ишлемишзава
ишлемишзаваи
ишлемишиз
ишлемишна
иштирак
иштиракаи
иштираквал
иштиракдалди
иштиракдар
иштиракзава
иштиракзаваи
иштиракна
иштиракнаваи
иштиракнаи
иштиракхъан
иштиракчи
иштиракчияр
июлдал
июлдиз
июль
июльдиз
июля
июндиз
июндилаи
июндин
июнь
июньдиз
июня
ияли
ияр
к
ка
кабардинар
кабардино
кабинет
кабир
кабо
кавалер
кавк
кавказ
кавказа
кавказдин
кавказе
кавказовед
кавказская
кавказские
кавказскии
кавказских
кавказского
кавказскои
кавказскіи
кавказѣ
кавкамахи
кавха
кавхаи
кавхаяр
каганат
кадар
каддамахи
кади
кадин
каждому
казак
казакар
казакова
казакрин
казан
казанище
казань
казаньдин
казахстан
казахстана
казбек
кази
казиев
казим
казимов
казиюрт
казмаляр
казмалярскии
каи
каиди
каир
как
кака
какадарнаваи
какамахи
какатзава
какаяр
кал
кала
калаус
кале
календардин
календарь
календарьдал
калер
калии
калиматов
калининаул
калининград
калиновка
калифорния
калифорниядин
калмык
калмыкар
калмыкия
калмыкияда
калмыкиядин
калмыкрин
калуга
калук
калукрин
калунхуьр
кальции
кальял
кам
кама
камадин
камал
камалэгьли
камар
камаралди
камарван
камархуьр
камбоджа
камилов
камиль
кампания
камчатка
кан
кана
канаб
канада
канадада
канададин
канададинни
канаи
канал
каналда
канваи
канд
канда
канделаки
кандидат
кандидатар
кандидатвилин
кандидатдин
кандидатура
кандидатуру
кани
канна
кант
кантон
кантонар
кантондин
кантонриз
кантонрикаи
кап
капиева
капитан
капучи
капӏ
кар
кара
каракюре
карамахи
каранаи
караозек
карата
каратаяр
каратинского
карах
карванд
кард
карда
кардал
кардар
карди
кардиз
кардик
кардикаи
кардин
кардмахи
кардрин
карелия
кариб
карл
карла
карлик
карлос
карнеги
каролина
карранса
карс
карта
картаи
картас
картаяр
картли
картографии
картография
картуфар
карты
карфаген
карханаи
карханаяр
кархъан
карч
карчарин
каршли
карьера
карьерадин
кас
касардин
касбуба
касдал
касди
касдиваи
касдиз
касдикаи
касдилаи
касдин
касдихъ
касни
каспи
каспидин
каспии
кассагумахи
кастилия
кастилиядин
кастро
касумкент
кат
катаз
катаи
каталанская
каталог
катана
категории
категорияда
категориядин
каткана
катна
катнаваи
катнаи
католик
католикар
католиквал
католиквилин
католикрин
католицизм
катрух
катун
кафедра
кафедрада
кафедрадин
кафыр
кахети
кахетия
кахиб
кац
качалаи
кашанхуьр
кашуб
кая
каякент
кв
ква
квадарзава
квадарна
квадарнаи
квадратдин
кваз
кваи
квантовая
кванхидатли
кванъе
квардал
квартира
квасаяр
квахьда
квахьзава
квахьзаваи
квахьна
квахьнава
квахьнаи
квач
квачиз
квачир
квебек
квез
квекаи
квемо
квн
кг
кгб
ке
кедабек
кеи
кек
кельтрин
кемах
кения
кент
кепке
керекул
керекулар
керен
керим
кериман
керимов
керимова
керимовади
керимовадин
керимован
керимрин
керимхан
керимханар
кесиб
кесибрин
кеспи
кеспияр
кеспият
кеспиятдин
кефер
кеферда
кефердин
кефердинни
кеферни
кеферпата
кеферпатан
кеферпатахъ
кечмиш
ки
кидеро
киев
киевдин
кижани
кизилюрт
кизляр
кизлярдин
кикабидзе
кикуни
килиг
килига
килигаи
килигдаи
килигзава
килигзаваи
килигиз
килигна
килигун
килигуниз
килигунин
километр
километрдал
километрдиз
километрдилаи
километрдин
ким
кимел
кимихуьр
кина
кинематографиядин
кино
кинода
кинодин
кинои
кинотеатр
киншаса
кипр
кипрда
кипрдин
киприотар
кирам
кирамди
кирамри
кирамрин
киргизар
киргизия
киреждин
кирибати
киривии
киривияр
кириенко
кирил
кирилл
кириллицадал
киркар
киркарин
киров
кирован
кирпич
кирпичрикаи
кислород
кислороддин
кислота
кислотадихъ
кисриев
кит
китаб
китаи
китс
киц
кицӏ
кич
кича
кичи
кичӏ
кичӏе
кичӏевал
кичӏевилик
кичӏен
кишдиз
кишине
кишпир
кишпирдин
киі
кк
кктр
ккӏанваи
кл
клавдии
кладбище
класс
классда
классдаи
классдилаи
классдин
классик
классикадин
классификация
классификациядиз
классра
классрин
клеткаи
климат
климатдиз
климатдин
климатрин
клиса
клисади
клисадин
клисаи
клисаяр
клуб
клуба
клубар
клубда
клубди
клубдин
клубра
клубрикаи
клубрин
км
кн
книга
книге
книги
книжное
князвал
князь
князьдин
ко
коалициядин
кобе
ковскии
код
коды
кои
коимбра
коктюбеи
колизеи
колледж
колледжда
колледждин
коллектив
коллективизация
коло
колоб
колон
колониал
колониалвилин
колонизация
колонии
колония
колониядиз
колониядин
колонияр
колонияяр
колорадо
колпино
колумб
колумба
колумбия
колумбиядин
колумбиядихъ
колхидадин
колхоз
колхозар
колхозда
колхоздиз
колхоздин
колхозник
колхозриз
колхозрин
колхозчи
кома
команда
командада
командади
командадиз
командадин
командадихъ
командаи
командир
командирдин
комбинат
комдин
комедия
кометаяр
коми
комик
комиссии
комиссиядин
комитет
комитетди
комитетдин
коммерсант
коммерсантъ
коммерциядин
коммуна
коммунизм
коммунист
коммунистрин
компании
компания
компанияди
компаниядин
компартиядин
комплекс
композитор
композиторри
композиторрин
композициядин
компьютердин
комсомолдин
комсомолец
комсомольская
конго
конгодин
конгресс
конгрессди
конгрессдин
конимар
конкурсда
конкурсдин
конмебол
коннектикут
консерваторияда
консерврин
константин
константина
константинополь
константинопольдин
конституции
конституция
конституциядив
конституциядин
конструктор
консулвал
континент
континентал
континентар
континентда
континентдин
континентрин
контракт
контролвал
контроль
конфедерация
конференции
конфуции
концентрироватнаваи
концепция
концерт
концертар
концертда
кооператив
коп
коперник
копия
кор
кораб
корабляр
коралл
кореи
корея
кореяда
кореядин
кореяр
корол
королвал
королвилин
королдин
короле
королева
король
корреспондент
корш
коряков
коса
космонавт
космос
космосдиз
космосдин
косово
коста
костек
кот
котаи
которые
которыи
которых
котур
кохоздин
кочубеи
кошанапу
коэффициент
кп
кпсс
кпул
крае
краев
краи
кран
крар
крара
крарал
крариз
крарик
крарикаи
крарин
крархъан
красная
красноармеи
краснодар
краснодардин
красное
красноярск
красноярского
красныи
краткая
краткии
края
краям
кремнии
кресс
кривоногов
кристи
кристиан
кристофер
критик
критика
критикри
криштиану
крои
кроме
кронштадт
кругосвет
круифф
крунг
крупнеи
крупных
крус
крыз
крызскии
крызском
крым
крымдин
ксар
ксари
ксариз
ксарикаи
ксарин
ксарни
ксения
кси
ктаб
ктабар
ктабда
ктабдаи
ктабди
ктабдиз
ктабдин
ктабра
ктабрикаи
ктабрин
ктабхана
ктабханада
кто
ктӏуна
ку
куала
куаниб
куб
куба
кубада
кубадиз
кубадин
кубань
кубаньдин
кубачи
кубачии
кубачинскии
кубачияр
кубинскии
кубка
кубок
кубокда
кубокдин
кувеи
кувиг
кудаи
кудиябросо
кудрявцев
куду
кудутль
кузваи
кузнецов
кузун
куи
кук
кукваз
куколивка
кукӏвар
кукӏварин
кукӏварна
кулакар
кулаквал
кули
кулиев
кулик
куллар
культур
культура
культурада
культуради
культурадиз
культурадин
культурадинни
культураи
культуре
культурная
культурные
культуры
кум
кума
кумпилов
кумторкъала
кумукьна
кумух
кумухъ
кумык
кумыкскии
кун
купул
кура
курагъ
курах
курахскии
курахское
курбанов
курган
курд
курдар
курдул
курк
куркаби
куркимахи
курми
курнаи
курорт
курортдин
курс
курсар
курсара
курск
куруш
курфюрст
курхуьр
кусаи
кусарскии
кусары
кусур
кут
кутада
кутадаи
кутаз
кутазва
кутазваи
кутаиси
кутан
кутандин
кутугаи
кутуз
кутузва
кутузваи
кутул
кутун
кутуна
кутунаи
кутунва
кутунваи
кутуниз
кутунин
кутур
кутурбур
кутурбурукаи
кутурди
кутурла
кутӏунна
кутӏуннаваи
куфа
кухтуна
кухтунаи
кухтунваи
кучуднаваи
кучуднаи
кучудунар
кучукна
кучукнава
кучун
кушан
куь
куьгьне
куьлуь
куьмек
куьмекар
куьмекда
куьмекдаи
куьмекдалди
куьмекдиз
куьмекдин
куьмекзава
куьмекна
куьмекхъан
куьмекчи
куьн
куьне
куьр
куьрдамир
куьре
куьреда
куьредин
куьрелди
куьруь
куьтягь
куьтягьаи
куьтягьна
куьтягьнаваи
куьтягьнаи
куьтягьун
куьтяхьна
куьч
куьчарна
куьчарнаи
куьчарун
куьчарунин
куьче
куьчеда
куьчедал
куьчедиз
куьчедин
куьчеи
куьчери
куьчеяр
куяда
кхаж
кхдр
кхр
кхрдин
кхьеи
кхьена
кхьенаи
кхьенва
кхьенваи
кхьидаи
кхьиз
кхьизва
кхьизваи
кхьин
кхьинал
кхьинар
кхьинин
кхьинра
кхьинри
кхьинрикаи
кхьинрин
кхьираг
кхьирагди
кхьирагдин
кхьирагрин
кц
кціар
кцӏар
кцӏарин
къ
къаб
къабарда
къабул
къав
къавах
къавкъаз
къавкъазда
къавкъаздиз
къавкъаздин
къагьве
къагьриман
къад
къадагъа
къадар
къадарда
къадим
къадир
къадлагьаи
къаз
къазадик
къазакъстан
къазакъстандин
къазанмишаи
къазанмишна
къазанмишнаваи
къазанмишнаи
къазанфар
къазах
къазахар
къазахстан
къазахстандиз
къазахстандин
къазбек
къази
къазиев
къазикъумух
къазикъумухдин
къазимегьамед
къазма
къазмаи
къазмаяр
къаи
къакъатаи
къакъатзава
къакъатна
къакъатнаваи
къакъатнаи
къакъатунин
къакъудиз
къакъудна
къакъуднаваи
къал
къала
къалабулух
къалабулухар
къалажух
къалажухви
къалин
къалинвал
къалиндаказ
къалур
къалураи
къалурдаи
къалурзава
къалурзаваи
къалуриз
къалурна
къалурнава
къалурнаваи
къалурнаи
къалурун
къалхандин
къамат
къамуг
къан
къанни
къанниц
къанун
къанунар
къанундалди
къанундив
къанундин
къанунралди
къанунри
къанунрив
къанунриз
къанунрин
къапар
къапарин
къара
къарабагъ
къарабагъдаи
къарабагъдин
къарабагълы
къарабудагъкент
къарабудахкент
къаравулдин
къарагашар
къарагъаи
къарагъарнаваи
къарагъна
къарагънаваи
къарагънаи
къарагъун
къарагъунар
къарагъунда
къарагъунин
къарадагъ
къарадагълы
къаражик
къаракъыз
къарамат
къаранугъаи
къарар
къараралди
къарарар
къарардалди
къарардив
къарардиз
къарачаи
къарачи
къардаш
къариб
къарибов
къартас
къартасрин
къаст
къастар
къат
къатан
къатар
къатара
къатардин
къатариз
къатарилаи
къатарин
къатда
къати
къаткаи
къафкъаз
къафкъаздин
къафланов
къах
къахчуз
къахчун
къахчуна
къацу
къачудаи
къачуз
къачузава
къачузва
къачузваи
къачун
къачуна
къачунаи
къачунва
къачунваи
къачуниз
къачунин
къачунрин
къачур
къачурди
къачурла
къачурт
къачуртӏа
къаякент
къвадаи
къвазва
къвазваи
къвал
къвалав
къвалаг
къвалар
къваларив
къваларин
къван
къванер
къванерал
къванерикаи
къванерин
къванкчечихгалеи
къванцел
къванцикаи
къванцин
къвб
къведа
къведаи
къведалди
къвез
къвезва
къвезваи
къвезмаи
къвердаваи
къе
къегьал
къедалди
къезил
къеи
къекъведаи
къекъвез
къекъвезваи
къекъвена
къекъуьн
къекъуьнар
къекъуьнин
къеле
къеледа
къеледиз
къеледин
къелем
къелемдиз
къелемдикаи
къелеяр
къемер
къен
къене
къенез
къенен
къенепатан
къени
къенин
къеняи
къерех
къерехал
къерехар
къерехда
къерехдаи
къерехдал
къерехдив
къерехдиз
къерехдилаи
къерехдин
къерехдихъ
къерехра
къерехрал
къерехрив
къерехрин
къетӏъ
къеце
къецепатан
къецихъ
къецяи
къзикъумух
къизил
къизилдере
къизилдин
къилих
къилихар
къилихрин
къимет
къиметар
къиметлу
къиметриз
къирим
къириц
къирицӏ
къисена
къияс
къкм
къои
кърабагъдин
кърыз
къуба
къубада
къубадин
къубу
къубудал
къуват
къуватар
къуватда
къуватдалди
къуватдик
къуватдин
къуватлу
къуватралди
къуватри
къуватрин
къугъвадаи
къугъваз
къугъвазва
къугъвазваи
къугъваи
къугъвана
къугъванаи
къугъванваи
къугъун
къугъуна
къугъунар
къугъунин
къугъунра
къугъунрин
къудрат
къуз
къуза
къуи
къул
къулаи
къуллугъ
къуллугъар
къуллугъдаи
къуллугъдал
къуллугъдиз
къуллугъдилаи
къуллугъдин
къуллугъзаваи
къуллугъна
къуллугърал
къуллугъчи
къуллугъчии
къуллугъэгьли
къулухъ
къум
къумадин
къумлух
къумлухар
къумукъ
къумукь
къумукьар
къумукьри
къумукьриз
къумукьрин
къумух
къунши
къуншивал
къуншидал
къураи
къураматдин
къурбан
къурбанан
къурбанд
къурукал
къурулуш
къуруш
къурушар
къурушрин
къуръан
къуръандин
къусар
къутунхъар
къутургъан
къучагъар
къушт
къушунар
къушунри
къуьл
къуьлуьн
къуьр
къуюнлуи
кыпчак
кь
кьабгъанар
кьабул
кьабулаи
кьабулзава
кьабулзаваи
кьабулиз
кьабулна
кьабулнава
кьабулнаваи
кьабулнаи
кьабулнач
кьабулун
кьадаи
кьадар
кьадарар
кьадарбур
кьадарда
кьадардаи
кьадардал
кьадардиз
кьадардик
кьадардикаи
кьадардилаи
кьадардин
кьадарни
кьажар
кьаз
кьазва
кьазваи
кьазвач
кьаи
кьак
кьакьан
кьакьанвал
кьакьанвилел
кьакьанвилер
кьакьанвилин
кьакьанда
кьакьандал
кьакьандиз
кьакіар
кьакіарин
кьамуг
кьамугдиз
кьант
кьантӏар
кьар
кьарадин
кьарар
кьасум
кьасумхуьр
кьасумхуьре
кьасумхуьрел
кьасумхуьрелаи
кьасумхуьруьз
кьасумхуьруьн
кьасумхуьруьнсовет
кьат
кьатӏ
кьатӏун
кьац
кьацӏаи
кьацӏурзава
кьвал
кьвалар
кьван
кьванни
кьванц
кьве
кьвевар
кьвед
кьведлагьаи
кьведлаи
кьведни
кьведра
кьвенал
кьвепеле
кьвепеледин
кьвет
кьветӏ
кьеан
кьебле
кьеблесудан
кьегьал
кьегьалар
кьегьалвилелди
кьегьалвилераи
кьегьалвилин
кьегьалдин
кьеж
кьезил
кьеи
кьел
кьелер
кьена
кьенаи
кьенва
кьенваи
кьеп
кьепӏир
кьер
кьере
кьерел
кьерерал
кьери
кьеридиз
кьериз
кьерин
кьеркь
кьет
кьетӏен
кьетӏенвал
кьетӏенвилер
кьетӏенвилерикаи
кьетӏендаказ
кьетӏендиз
кьехуьл
кьец
кьибле
кьибледа
кьибледин
кьиблединни
кьибледихъ
кьиблени
кьиблепата
кьиблепатан
кьиблепатахъ
кьии
кьил
кьилди
кьилдиз
кьилдин
кьиле
кьилеваи
кьилегь
кьилегьуба
кьилел
кьилелаи
кьилелни
кьилер
кьилера
кьилераи
кьилериз
кьилерикаи
кьилерин
кьили
кьилив
кьиливал
кьилиз
кьилик
кьилин
кьилинни
кьилихъ
кьиляи
кьин
кьинаи
кьиникь
кьиникьалди
кьиникьар
кьиникьикаи
кьиникьилаи
кьиникьин
кьиникьрин
кьиса
кьисади
кьисадив
кьисадиз
кьисаи
кьисас
кьисаяр
кьисмет
кьисметар
кьисметдикаи
кьиспес
кьиспесда
кьит
кьуд
кьудаи
кьудан
кьудкъанни
кьудкъанниц
кьудлагьаи
кьудра
кьул
кьула
кьулаи
кьулан
кьулу
кьулувал
кьулувалдиз
кьулувалдин
кьулувиле
кьулувилел
кьулувилер
кьулувилин
кьулусуван
кьулухъ
кьулухъан
кьулухъди
кьумекдалди
кьун
кьуна
кьунаи
кьунва
кьунваи
кьуникаи
кьунин
кьункьи
кьур
кьурагь
кьурагьвал
кьурагьви
кьурагьрин
кьуразваи
кьураи
кьурвал
кьуркьушум
кьурла
кьуру
кьурурда
кьуршахар
кьуръан
кьуръандин
кьусуи
кьушун
кьушунар
кьушунди
кьушундин
кьушундихъ
кьушунра
кьушунри
кьушунриз
кьушунрин
кьуьгъверар
кьуьд
кьуьзуь
кьуьзуьбурун
кьуьл
кьуьлдаи
кьуьлер
кьуьлерин
кьуьхуьр
кьуьхуьруба
кьуьчхуьр
кьуьчхуьрвии
кьуьчхуьре
кюрасао
кюринскии
кюринского
кӏалуб
кӏалубда
кӏам
кӏама
кӏамар
кӏамара
кӏан
кӏанда
кӏандаи
кӏане
кӏанз
кӏанзава
кӏанзаваи
кӏанзваи
кӏани
кӏанивал
кӏаник
кӏанин
кӏаняи
кӏарабар
кӏарасдин
кӏарна
кӏартӏвел
кӏвал
кӏвалах
кӏвалахаи
кӏвалахал
кӏвалахар
кӏвалахарзава
кӏвалахарзаваи
кӏвалахда
кӏвалахдаи
кӏвалахдар
кӏвалахдиз
кӏвалахдин
кӏвалахзава
кӏвалахзаваи
кӏвалахзваи
кӏвалахиз
кӏвалахна
кӏвалахнава
кӏвалахнаи
кӏвалахни
кӏвалахра
кӏвалахрал
кӏвалахрин
кӏвалахун
кӏвалахунин
кӏвалаххъан
кӏвале
кӏвалер
кӏвалера
кӏвалериз
кӏвалерин
кӏвализ
кӏвалин
кӏваляи
кӏватӏ
кӏватӏал
кӏватӏалар
кӏватӏалда
кӏватӏалди
кӏватӏалдиз
кӏватӏалдик
кӏватӏалдин
кӏватӏалра
кӏватӏалрин
кӏватӏдаи
кӏватӏзава
кӏватӏзаваи
кӏватӏиз
кӏватӏна
кӏватӏнаваи
кӏватӏнаи
кӏватӏунин
кӏватӏур
кӏватӏурди
кӏватӏурдиз
кӏватӏурдин
кӏватӏуррин
кӏвачел
кӏвачер
кӏвачи
кӏвачин
кӏвачихъ
кӏвенкӏве
кӏвенкӏвечил
кӏевера
кӏеви
кӏевидаказ
кӏевиз
кӏел
кӏелаи
кӏелдаи
кӏеле
кӏелзава
кӏелзаваи
кӏелзваи
кӏелиз
кӏелна
кӏелун
кӏелунар
кӏелунин
кӏенин
кӏеретӏ
кӏеретӏар
кӏеретӏди
кӏеретӏдик
кӏеретӏдин
кӏеретӏри
кӏеретӏрин
кӏили
кӏилияр
кӏири
кӏудна
кӏук
кӏукӏ
кӏукӏвар
кӏукӏварна
кӏунтӏ
кӏунтӏал
кӏунтӏар
кӏунтӏарин
кӏус
кӏусар
кӏусарин
кӏуф
кӏуьд
кӏуьдлагьаи
л
ла
лабрадор
лагерь
лагос
лагуна
лагьа
лагьаи
лагьана
лагьанаи
лагьанва
лагьанваи
лагьи
лагьиж
ладзар
лаз
лазим
лаи
лак
лака
лакар
лакз
лаки
лакскии
лакун
лакъан
лакӏаб
лал
лам
ламу
ламувал
лани
ланка
ланова
ланрин
лап
лапаг
лапагар
лар
лариса
ларс
лас
ласокеандин
лат
латар
латвии
латвия
латвиядин
латин
латун
латыш
лауреат
лах
лацар
лацио
лацу
лацубур
лачин
лгар
ле
лев
леваши
легенда
легенды
легиондин
леди
лежбер
лежберар
лежбервал
лежбервилел
лежбервилив
лежбервилин
лежбердин
лежберри
лежберрин
лез
лезг
лезги
лезгивал
лезгидал
лезгидалди
лезгиди
лезгидин
лезгии
лезгин
лезгинка
лезгинская
лезгинские
лезгинскии
лезгинских
лезгинско
лезгинского
лезгинскои
лезгинском
лезгинцев
лезгинцеван
лезгины
лезгири
лезгирин
лезгистан
лезгистанда
лезгистандин
лезгияр
лезгиярни
леи
лексика
лексикада
лексикадиз
лексикадин
лекции
лекь
лекьен
лекьер
лекьрен
лелев
ленд
лениздат
ленин
ленина
ленинан
ленинград
ленинградда
ленинграддин
лениндин
ленкаран
ленкоран
ленкорандин
лента
лео
леон
леонардо
леонид
лепедин
лепеи
лепеяр
лер
лерик
лермонтован
лестер
леся
лесяди
лесядиз
лет
летие
летию
летнии
летопись
летчик
лечет
ли
либерия
либертадорес
ливан
ливерпулдин
ливерпуль
ливия
лига
лигада
лигади
лигадиз
лигадин
лигаи
лидер
лиз
лин
лингва
лингвист
лингвистикадин
лингвистри
линия
липецк
липӏлипӏ
лирика
лирикадин
лирлияр
лиссабон
лиссабондин
лист
лит
литва
литвадин
литератор
литература
литературада
литературадиз
литературадин
литератураи
литературная
литературныи
литературовед
литературы
лиф
лихтенштеи
лицеи
лишан
лишанар
лишандал
лишандиз
лишанрикаи
лишанрин
лкам
лков
лкс
лобачевскии
лов
лович
ловна
логика
логотип
лок
локар
локда
локдиз
локдин
лологонитль
ломбардия
ломбардиядин
ломоносов
ломоносован
лондон
лондонда
лондондин
лоренцо
лори
лос
лу
лув
лувак
луван
лувар
луварин
лугьуда
лугьудаи
лугьуди
лугьуз
лугьузава
лугьузаваи
лугьузва
лугьузваи
лугьун
лугьуникаи
лугьунин
лужков
луи
луис
лук
лукьман
лукьманан
лукӏар
лумпур
луткун
луткунрин
лучек
лы
лыжаи
ль
львов
львовскии
львовское
любви
любляна
любовь
людвиг
людеи
люди
людмила
людовик
люкс
люксембург
люсия
лютеранар
лянет
ляхля
м
ма
маали
маарифдин
мавзолеи
маврикии
мавритания
мавританиядин
магадан
магадандин
магал
магалдиз
магарамкентского
магваи
магдалена
магдебург
магитль
магнии
магнитдин
магомед
магомедов
магомедович
магомедфазил
магьал
магьалда
магьалдиз
магьалдин
магьарам
магьарамдхуьруьн
магьачкъала
магьачкъалада
магьачкъаладилаи
магьачкъаладин
магьмуд
магьмуда
магьмудан
магьсулар
магьсулрикаи
магьшур
мад
мадагаскардин
мадеи
маджалис
мадни
мадрид
мадриддин
мажбур
мажбури
мажусивилин
маза
мазан
мазанаев
маи
мак
мака
макан
макао
макаревич
макаревича
македония
македониядин
маки
макит
макитис
макка
маклая
макс
максим
максимум
макъала
макъалада
макъалаи
макъалаяр
макъаматдинни
макьам
макьамар
макьар
макьарин
мал
малаи
малар
маларин
малах
малдарвал
малдарвилел
малдарвилив
малдарвилин
малдин
мали
малик
малла
малум
малумарзава
малумарзаваи
малумарна
малумарнаи
малумат
малуматар
малуматра
малуматралди
малуматри
малуматрив
малуматриз
малуматрикаи
малуматрилаи
малуматрин
малыи
малых
мальвин
мальта
мамаи
мамед
мамедкала
мамедкъала
мамедов
мамедова
мамнун
мамрач
ман
мана
манада
манадин
манан
манасаул
манат
манаф
манаяр
манаярни
мани
манидар
манидарар
манидиз
манидин
мании
маничи
манияр
маниярни
манкъулидхуьр
манкъулидхуьре
манкъулидхуьруьн
манов
мансур
мануэль
манчестер
маныч
мао
мар
мара
марадиз
марадона
марганецдин
маргъалрин
мардали
марз
марздин
марздихъ
мари
мариан
марии
марина
маринади
марино
марио
марифатдин
мария
марк
марка
марко
маркс
маркса
марксан
мармар
марокко
марс
марсдин
марсел
март
марта
мартдиз
мартдилаи
мартдин
мартин
мартинан
мартиника
мартиросян
маруф
марф
марфад
марфадин
марфар
марфарин
маршал
маршрутар
мас
маса
масабдур
масабур
масабуру
масабурун
масад
масадаз
масадан
масадбур
масадбуру
масак
масакӏа
масакӏавилер
масан
масаниз
масса
массадиз
массадин
массаи
массив
мастер
математик
математика
математикадин
математики
математическая
материал
материалар
материалов
материалрин
материалы
материк
материкдин
материков
маттиас
матч
матчар
матчда
матчдин
матчрин
маумахи
мах
маха
махар
махаргимахи
махач
махачкала
махачкалинские
махачкъала
махачкъаладин
махи
махмуд
махмудова
махсудов
махсус
мацар
машах
машахар
машгуьр
машгъул
машгъулат
машгъулатар
машгьур
машгьурвал
машгьурди
машин
машина
машинар
машинрал
маштада
мая
маяк
маяковскии
мвд
мвт
мгимо
мгу
мгьу
ме
мегъуьн
мегьамед
мегьамеда
мегьамедаз
мегьамедан
мегьамедов
мегьаммед
мегьарамдхуьр
мегьарамдхуьре
мегьарамдхуьрелаи
мегьарамдхуьруьн
мегьди
мегьман
мегьманан
мегьти
медал
медалар
медалдин
медалриз
медаль
медведев
меденият
медениятда
медениятдиз
медениятдин
медениятдинни
меджидов
медиа
медина
мединадиз
мединиятдин
медицина
медицинада
медицинадин
медпункт
медреса
медресада
медресадиз
медресаи
медресе
межгуьл
между
международнои
международные
международныи
межид
межидов
межидова
межидован
межлис
мез
мезгьеб
мезгьебдиз
мезгьебдин
меи
мекеги
мекка
меккада
меккадиз
меккадин
меккедиз
мексика
мексикадин
мектеб
мектебар
мектебда
мектебдиз
мектебдик
мектебдилаи
мектебдин
мектебни
мектебра
мектебрин
мекьи
мелик
мелика
меликан
меликмамедов
меликмамедова
меликмегьеммедов
меликов
меликова
мелилья
мемеи
мемориал
менделеев
менделеева
мензилда
менфят
меня
мератх
мерд
мердали
меркез
меркездин
меркурии
мерсисаи
мес
месала
месела
меселаяр
меслят
меслятар
мест
места
местерух
местиа
место
месэла
месэлаи
месэлаяр
метал
металл
металлар
металликаи
металлрин
метлеб
метлебдин
метлеблу
методикадин
метр
метрдал
метрдилаи
метрдин
метро
метрополитен
метрополитендин
метрополиядин
механик
механика
механикадин
мехел
мехельта
мехетури
мехико
мехикодин
мехкергъ
мехтули
мехъер
меце
мецин
мешверада
ми
миарсо
миатли
миглакасимахи
миграгъ
миграгъар
миграгърин
миграциядин
мигьии
мидгьед
мии
микеланджело
миких
миклухо
микрах
микрораи
микьи
мил
милан
милициядин
миллер
миллет
миллетар
миллетдаи
миллетди
миллетдиз
миллетдик
миллетдикаи
миллетдин
миллетдинни
миллетри
миллетрикаи
миллетрин
милли
миллиард
миллиардер
миллион
миллиондал
миллиондилаи
миллионер
мин
мина
минара
минараяр
мингечевир
минерал
минералар
мини
министерства
министерство
министерстводи
министерстводин
министр
министра
министрвилин
министрдин
министрин
минорскии
минск
мир
мира
миранд
миранчук
мирас
мирг
миргер
мире
мирза
мирзабек
мирзабеков
мирзе
мирзебегли
мирзебегов
мирзебегова
мирзебутаи
мирзеханов
мирзеханова
мирзоев
мировая
мирового
мировои
мисал
мисалар
мисалрикаи
миск
мискинжви
мискискар
мискискарин
мискӏин
мискӏинар
мискӏинда
мискӏиндин
мислимат
мисри
мисрида
мисридин
мисси
миссисипи
миссиядин
митаги
михаи
михаил
михаилан
михьи
михьиз
михьна
мич
мичегь
мичурина
мичӏи
мишель
мишлеш
мишустин
мишустина
млн
млрд
мм
мне
мо
мобил
могох
модель
мозамбик
моздок
мои
моисеи
моисеян
молдаванар
молдавия
молдова
молекуляр
молла
молодая
молодежи
молодежь
момент
монако
монархия
монг
монгол
монголар
монголия
монголиядин
монголри
монголрин
монография
монте
монтевидео
мордовия
море
морфология
морфологиядин
моря
москва
москвада
москвадаи
москвади
москвадиз
москвадин
москве
москвы
московская
московскии
московского
московскои
моцарт
моя
мр
мс
мсб
мтианети
му
муавияди
муавиядин
муаи
муалим
муаллим
муаллимар
муаллимвал
муаллимвиле
муаллимвилин
муаллимди
муаллимдин
муаллимрин
мублагъ
муг
мугарты
муги
муглах
мугри
мугъан
мугъарты
мугъул
мугъулар
мугьажир
мугьамед
мугьаммад
мугьаммада
мугьаммадали
мугьаммадан
мугьи
мугьман
мугьманхана
мужукаи
музаим
музеи
музеяр
музыка
музыкадал
музыкадин
музыкант
муи
мук
мукар
мукь
мукьал
мукьан
мукьар
мукьва
мукьвабур
мукьвавал
мукьвавилин
мукьвади
мукьвал
мукьвара
мукьварал
мукьвуг
мукьтадир
мукьув
мукьуваи
мукьуг
мулебки
мулк
мулкар
мулкарин
мулкдар
мулкунин
мулла
муллахуьр
мумбаи
мумкин
мумкинвал
мумкинвилер
мун
муни
муниципал
муниципалитет
муниципалитетар
муниципалитетдал
муниципалитетдик
муниципалитетдин
муниципалитетрин
муниципального
муниципальное
муниципальным
муниципальных
мур
муравьи
мурад
мурада
мурадар
мураддалди
мурадов
мурадова
мурадхан
мурат
мурк
муркӏад
муркӏади
муркӏадин
муркӏар
муркӏарин
мурманск
мурсал
муругъ
мус
муса
мусаев
мусаи
мусибатар
муслах
муслим
муслиман
муссон
мустафа
мустафаевич
мусурман
мусурманар
мусурманарни
мусурманвал
мусурманвилиз
мусурманри
мусурманриз
мусурманрин
мут
мух
мухаммад
мухах
мухтар
мучугъ
мучугърин
муъмин
муьгъ
муьгъвер
муьгъверган
муьгьлетдин
муьгьуьббат
муьгьуьббатдикаи
муьгьуьббатдин
муьгьуьдин
муьжуьд
муьжуьдвишни
муьжуьдлагьаи
муьзеффер
муькуь
муькуьбур
муькъвел
муькъвер
муьнхен
муьрид
муьт
муьтӏуьгъ
муьхрек
муьшкуьр
муьшкуьрви
мценски
мцхета
мы
мыгра
мысль
мэн
мэр
мэра
мэриленд
мэром
мюнхен
мягьле
мягьледа
мягьлеи
мягьлеяр
мягьтел
мяден
мяденар
мяденра
мярекат
мярекатра
н
на
наб
набатат
набататар
набататдин
набататри
набататрикаи
набататрин
набран
нава
навадиз
наваи
навальныи
нагиев
награждении
нагъиева
нагъиеван
нагьакьан
над
надежда
надир
нажмудин
название
названии
названия
назим
назир
назначен
назначил
наи
наиб
наибвал
наибвалдиз
наибвалдик
наибвалдин
наибвалриз
наибвилер
наибвилиз
наибвилик
наибвилин
наибства
наибство
наиля
накитль
накск
накскдин
накскии
накьв
накьвад
накьвадин
накьвар
нал
наличного
налогар
налогрин
нальчик
нам
намдо
наме
намибия
намус
нан
наполеон
наполеона
нар
нарази
нарат
наречия
нариман
народа
народная
народное
народности
народныи
народов
народы
нас
населе
население
населением
населения
населенному
населенных
насир
наследие
наследия
насруллагь
настоящее
насьональ
наталья
нато
натрии
наук
наука
науки
наур
науру
науч
научно
научныи
нафт
нафта
нафтадин
нафтӏ
нафтӏадин
нах
нахада
нахичеван
нахки
нахско
нахчивандин
нац
наци
национальная
национально
национального
национальнои
национальному
национальности
национальность
национальныи
нач
начагъ
начагъхана
начала
начале
начало
начальник
наш
наша
наших
ная
нда
ндал
нджерс
нди
ндик
ндин
не
неаполь
нева
неве
неверныи
невис
невскии
недаи
недоступная
нежефхуьр
нез
неи
неинки
нек
некхъвадаи
некӏедин
нельсон
нем
немец
немецар
немецви
немецкии
немецри
немецрин
немцар
немцари
немцарин
немцев
немцери
немцерин
немцы
ненец
неоклассицизм
непал
нептун
нер
нервии
нерман
неру
несил
несилар
несилдаи
несилдиз
несилдин
несилри
несилриз
несилрикаи
несилрин
несколько
нетижа
нетижада
нетижаи
нетижариз
нетижаяр
нефес
нефтечала
нехишар
ни
ниваи
нигер
нигерия
нигериядин
нид
нидерландар
нидерландриз
нидерландрин
ниж
нижне
нижнее
нижнии
низ
низам
низами
низамидин
нии
ник
ника
никабмахи
никарагуа
никола
николаевич
николаи
николаян
никягьар
никӏел
никӏер
никӏин
нил
нилтон
нин
ниси
нисинихъ
нихъ
нихь
нице
нишапур
ният
нквд
нни
нные
нныи
нных
но
нобелдин
нов
нова
новак
нован
новая
новгород
новгороддин
новеи
ново
новогеоргиевка
нового
новодмитриевка
новое
новои
новокаре
новому
новосибирск
новосибирска
новости
новоукраи
новоукраинка
новые
новыи
новых
ногаи
ногъаи
ногъаяр
нои
нок
номер
номердин
норвегия
норвегиядин
норма
нормадилаи
нормал
норманн
нормативныи
нохчии
ноябр
ноябрдиз
ноябрдилаи
ноябрдин
ноябрь
ноябрьда
ноябрьдиз
ноябрьдин
ноября
нрин
нсан
нтв
ну
нубатда
нубатдалди
нубатдин
нугъ
нугъаи
нугъат
нугъатар
нугъатдал
нугъатдиз
нугъатдик
нугъатдин
нугъатни
нугъатра
нугъатриз
нугъатрикаи
нугъатрин
нугъаяр
нумра
нумрадин
нумраяр
нунавутда
нунивакдин
нур
нурали
нурар
нурбимахи
нуреддин
нури
нуфуз
нуфус
нуфуслу
нуха
нуцал
нуьк
нуькӏ
нуькӏвер
нуькӏверин
нуьсрет
нуьц
нуэва
нштеи
ны
ныи
нын
ных
нью
ньюкасл
ньютон
нюгди
нямет
нянин
о
оао
об
обелиск
обелискар
обзор
обкомда
обкомдин
обл
област
областар
областда
областдин
областеи
области
область
областьдин
областям
обозрение
образ
образар
образование
образовании
образования
образованиям
образовательные
общ
общая
общеи
обществ
общества
общественная
общественно
общественных
общество
общии
община
объединении
объект
объектар
объектрин
ова
оглы
огни
огонек
огпу
огъуз
огьан
огьаннесбург
одесса
один
одна
односельчане
озера
ои
ока
окато
океан
океана
океанар
океанда
океандаи
океанди
океандиз
океандин
океандинни
океандихъ
океания
океанография
океанология
океанрин
оккупациядин
окончательных
округ
округа
округам
округар
округарни
округда
округдиз
округдик
округдин
округдихъ
округе
округов
округриз
округрин
округу
оксид
октавиан
октябрдиз
октябрдилаи
октябрдин
октябрь
октябрьда
октябрьдиз
октябрьдин
октябрьскии
октября
окуджава
олег
олимп
олимпиада
олимпиададин
олимпиадин
олимпии
олимпия
олимпиядин
олма
ольга
ольденбург
ольденбургда
ольденбургдин
оман
омар
омара
омаров
омарова
омск
он
она
онам
онар
онарни
онда
ондаи
ондал
онди
ондиз
ондик
ондикаи
ондин
ондихъ
оне
онированию
онированныи
онлаи
онных
онов
ономастика
онра
онраи
онриз
онрикаи
онрин
онрихъ
ону
оны
оон
ооо
оп
опера
операдин
операция
описание
описания
определено
определитель
оптика
опыт
ор
оразгулаул
орбитадин
орган
органар
организации
организация
организациядин
организмрин
органра
органри
органрин
оргкомитет
орготд
орда
ордади
ордадин
орден
орденар
ордендиз
ордендин
орденриз
орденрин
орджоникидзе
орджоникидзедин
оре
орк
оркда
оркдин
орла
орловскои
оро
ортаколо
орфографиядин
осетии
осетинар
осетия
осетияда
осетиядин
осипов
оскар
осман
османов
османрин
основные
основы
остров
острова
островар
островарни
островда
островдал
островдиз
островдин
островра
островрал
островриз
островрикаи
островрин
от
отар
отв
отдел
отдела
отделдиз
отделдин
отделение
отделениядин
отдѣл
отечественнои
открыли
открытия
отличник
отношении
отта
оттал
отто
офицал
офицер
официал
официалвилелди
официалвилин
официалдаказ
официально
официальные
официальныи
охан
оц
оценка
очерк
очеркар
очерки
очеркрин
очко
ошибка
п
па
паб
пабло
пабни
павел
павелдин
павленко
павлиашвили
павлиашвилиди
павлович
пагьливан
пад
падана
падар
падарар
падеж
падежар
падежриз
падни
паи
пак
пака
пакамахъ
пакистан
пакистандин
паласа
палатадин
палау
палестина
палчухуба
памяти
памятник
памятники
память
панам
панама
панда
пандж
панипат
паоло
папа
папавилин
пападин
папаз
папаи
папан
папар
папари
папариз
папарин
папуа
пар
пара
парабур
парабуру
парагваи
парана
парани
парар
париж
парижда
париждиз
париждин
паринское
парк
паркар
паркдин
паркуна
парламент
парламентвилин
парламентди
парламентдин
парни
парталар
парталрин
партизанрин
партии
партия
партиядин
партне
парча
парчаяр
пас
паспортра
пассажирар
пассат
пата
патав
патаваи
патаг
патаз
патаи
патал
паталаи
паталди
патални
патан
патани
патанни
патар
патара
патараи
патарал
патарив
патариз
патарикаи
патарин
патарихъ
патарихъаи
патахъ
патахъаи
патриарх
паулу
паулудин
пахлахан
пахун
пахундиз
пацукаи
пачагь
пачагьар
пачагьвал
пачагьвалдин
пачагьвилиз
пачагьвилик
пачагьвилин
пачагьди
пачагьдиз
пачагьдин
пачагьри
пачагьрин
паччагьвал
паччагьди
пашаев
паюн
паюна
паюнал
паюнар
паюни
паюниз
паюник
паюникаи
паюнилаи
паюнин
паяр
паяриз
паярикаи
пвс
пе
певица
педагог
педагогвилин
педагогикадин
педагогики
пединститут
пединститутда
педро
педроса
педтехникум
педучилище
пеи
пек
пекдин
пекер
пекин
пекиндин
пел
пеле
пелел
пелен
пенджаб
пенза
пенсильвания
пенсиядиз
пеньяроль
пепе
пепеи
пепеяр
пер
первая
первенства
первого
первои
первоисточника
первом
первомаи
первыи
перев
перевод
переводы
перед
передача
передачада
передачаяр
перем
перепелятник
переписеи
переписи
перепись
перераб
перес
перечень
перечнями
пери
период
пермдин
пермскии
пермского
пермь
пермяк
персия
персиядиз
персиядин
перу
перуан
перудихъ
песни
песня
петербург
петербурга
петербургда
петербургдин
петербурге
петр
петра
петран
петрдин
петрович
петровск
петроград
петрозаводск
петросян
пехъи
печатдаи
печатдиз
пеш
пеше
пешегалкӏрин
пешедаи
пешекар
пешекарвилин
пешер
пешерин
пи
пианист
пиво
пии
пик
пилек
пилотри
пиньинь
пип
пиперхуьр
пипин
пипӏен
пипӏерин
пирал
пиренеи
пис
писателрин
писатель
писательрин
пит
питер
пишкеш
пишкешар
пишкешдин
пишкешнаваи
плазма
плазмадин
план
планар
планет
планета
планетадин
планетаи
планетаяр
планетаярни
планирования
плата
платина
платини
плато
платон
плеи
плита
плитаяр
площадь
пмо
по
победа
победителем
победы
побратимами
побратимы
повестар
повестрин
повесть
поволжьедин
поволжья
погода
погрешность
под
подвиг
подготовка
подполковник
поезд
поездар
познер
показателеи
показатели
покровскии
покровское
пол
поле
политехникадин
политехническии
политик
политика
политикада
политикадиз
политикадин
политикадинни
политике
политикни
политическая
политическии
политических
политическои
полиция
полициядин
полковник
полкунин
полная
полное
поло
полу
польша
польшада
польшадин
полюсдин
поляк
полякар
полякрин
поляна
поп
порт
портал
порту
португал
португалия
португалияда
португалияди
португалиядиз
португалиядин
португалрин
посвяще
посе
поселение
поселении
поселения
поселениям
поселка
поселкам
поселков
после
последнии
пособие
посол
посольство
поспелов
пост
постановление
постоянного
потенциал
поти
поход
почему
почтадин
почтунин
поэзии
поэзия
поэзиядин
поэма
поэмаи
поэмаяр
поэмы
поэта
поэтесса
права
правда
правил
правительства
правительство
правительстводин
право
праводин
православ
православие
православиедин
православиядин
прага
прагьа
прадеш
практикадин
председателдин
председатель
председательвиле
председательдин
председателя
президент
президента
президентвилин
президентди
президентдин
президентдихъ
президиумди
президиумдин
премиер
премии
премия
премиядиз
премиядин
премьер
премьера
премьердин
преобладающая
пресс
престолдал
при
прибалтикадин
приз
призе
призер
прикаспии
приложение
примаков
приморье
принадлежал
принц
принцип
природа
природе
природы
присвоении
про
проблема
проблемаяр
проблемы
проверено
провинции
провинция
провинциядиз
провинциядик
провинциядин
провинцияни
провинцияр
программа
программадин
программаяр
прогресс
продуктар
продукция
продукциядин
продюсер
проезд
проект
проекта
проектар
проектдиз
проектдин
проза
прозадин
прозаик
происхождение
проливдаи
проливдин
промышленностдин
промышленность
промышленностьдин
просвещение
протестантар
против
протокол
протоколра
проф
профессионал
профессор
профил
профиль
прохоров
процент
процесс
процессар
процессдин
процессрин
процессы
прошел
пруссия
пруссияди
пруссиядин
пси
психология
психологиядин
псков
псковдин
птидхуьр
публицист
публицистикадин
пугаче
пугачева
пуд
пудаи
пудан
пудкъад
пудкъанниц
пудлагьаи
пудра
пукто
пул
пулар
пуларин
пулунин
пулунихъ
пункт
пунктар
пунктов
пункту
пунта
пурар
пурнии
пурнияр
пусан
путеводитель
путешествие
путешествия
путин
путина
путь
пушкаш
пушкин
пушкина
пушкиназ
пушкинан
пуэрто
пфа
пхеньян
пциг
пьер
пьеса
пьесада
пьесаяр
пэгунсан
пятигорск
пӏир
пӏирер
р
ра
работы
рабочии
рагар
рагъ
рагъак
рагъакӏидаи
рагъул
рагъэкъеч
рагъэкъечӏдаи
рагъэкъэч
рагъэкъэчӏдаи
рагъэкӏидаи
рагьимат
рагьметдиз
рада
радиаллагьу
радик
радикал
радио
радиодаи
радиодин
радиус
ражаб
ражабов
раз
развитие
развития
разговорник
раздел
рази
разивал
разивилелди
разивили
разивиляи
различного
размещение
разрезе
разряд
раи
рак
ракъиниз
ракъинилаи
ракъинин
ракъунрин
ракъураи
ракъурдаи
ракъурзаваи
ракъуриз
ракъурна
ракъурнаваи
ракъурнаи
ракъурун
ракъурунар
ракъуруник
ракъурунин
ракь
ракьинин
ракьун
рал
ралди
рам
рамазан
рамазана
рамазанан
рамазанов
рамазанова
рамазанрин
рамлы
ран
ранг
рангар
рангарин
рангни
рангуналди
рангунин
рани
рар
рарат
раса
расадин
расаи
расзаваи
расим
расна
раснаваи
распоряжение
распределение
рассказы
растении
расу
расул
расула
расулан
расун
расунин
расширенными
рат
ратар
ратара
ратарин
рауль
рафиков
рахадаи
рахаз
рахазаи
рахазва
рахазваи
рахаи
рахана
рахата
рахун
рахуна
рахунар
рахуниз
рахунин
рахунриз
рахунрин
рацитль
рача
рачабулда
раш
рашид
рашидов
раятвал
раятвилиз
рајону
рбк
рвилин
ргвк
ргжт
рд
ре
реакции
реакция
реакциядиз
реакцияр
реал
ревари
революции
революционер
революция
революциядилаи
революциядин
регби
регион
региона
регионал
регионам
регионар
регионда
региондиз
региондик
региондин
регионов
регионра
регионрикаи
регионрин
регионы
регъв
регъуьн
регьбер
регьберар
регьбервал
регьбервиле
регьбервилик
регьбервилин
регьбердин
регьберри
регьберрикаи
регьберрин
регьебервал
регьим
регьметдиз
регьят
регьятдаказ
регьятдиз
ред
редаксијасы
редактор
редакторвал
редакторвиле
редактордин
редакциеи
редакции
редакция
редакцияда
редакциядин
редкол
реестр
режеб
режим
режиссе
режиссер
резиденция
резник
реи
река
реквием
реконструкции
рекорд
ректор
рекъяи
рекье
рекьекьуьл
рекьел
рекьелаи
рекьелди
рекьер
рекьера
рекьераи
рекьералди
рекьерикаи
рекьерин
рекьидаи
рекьиз
рекьизва
рекьизваи
рекьин
рекьяи
религии
религия
рельеф
рельефдин
рен
рена
ренат
ренессанс
реннесанс
репертуарда
рес
респу
республик
республика
республикада
республикади
республикадиз
республикадик
республикадин
республикадихъ
республикаи
республикам
республиканское
республикаяр
республике
республики
ресурс
ресурсар
ресурсы
реформа
реформаи
реформаяр
рехи
рехъ
речь
ри
риа
рив
риваи
риваятар
ривер
рига
риз
ризаев
ризван
ризванов
ризванова
ризни
рик
рика
рикаи
риквани
рико
рикӏ
рикӏе
рикӏел
рикӏелаи
рикӏиз
рикӏин
рилаи
рим
рима
риман
римви
римвии
римда
римди
римдиз
римдин
римдинни
римма
римскии
рин
рини
ринни
рио
риони
ритм
риу
рихъ
рихъни
рича
ричард
рк
рни
ро
роберт
роберто
робин
робина
робинан
ров
роверс
ровно
род
роджер
роднои
родному
родригес
рождения
роза
рок
рол
ролар
роль
ром
рома
роман
романар
романдин
романеско
романо
романс
ромул
роналду
росарио
россии
россия
россияда
россиядин
росстат
ростов
ростовдин
ротадин
роттердам
рскд
рсфср
ру
руанда
рубаи
рубаияр
рубас
рубинштеи
рубль
руг
ругуд
ругудвишни
ругуджа
ругудлагьаи
ругун
ругъ
ругьани
ругьтак
рудин
руз
руи
рук
рукель
руководство
рукописныи
рум
рума
руман
румар
румыния
румынияда
румыниядин
румыниядихъ
руниверс
руслан
русская
русские
русскии
русским
русских
русско
русского
русское
русскои
рустави
руставида
рустам
рустаман
рустамов
русь
русьдин
рут
рутул
рутулар
рутулви
рутулдин
рутулри
рутулрин
рутульскии
рутульского
руфун
рух
рухваи
рухваяр
рухун
руш
руша
рушан
рушар
рушариз
рушарин
рушни
руьгь
руьгьдин
рф
ры
рыбзавод
рыбников
рычал
рэи
рязань
с
са
саад
саадиев
сабир
сабирабад
сабнова
савад
савадлу
савдавал
савдавилин
савдагар
савдагарвилин
савдагаррин
савдадин
савкьватар
сагъ
сагъар
сагъардаи
сагъвал
сагъдиз
сагъламвал
сагъраи
сагьиб
сад
сада
садав
садаваи
садаз
садазни
садак
садакаи
садал
садалаи
садан
садани
садахъ
садбур
садбуру
садбуруз
садвал
садвалдик
садвалдин
садвилин
садикь
садикьан
садлагьаи
садлагьана
садни
садра
садрани
садхьанваи
садхьун
садыкъиди
сажидин
саи
саид
саида
саидан
саидгьасанов
саидов
саидова
саимат
сак
саки
сакинат
саксония
саксониядин
сакӏус
сал
салават
салагьуба
салаи
салам
саламни
салан
салар
салара
саларбанвал
саласадиз
салат
салигь
салик
салим
салиян
салли
салман
салта
сальвадор
салютдин
сам
самара
самарканд
самбо
самбодаи
самегрело
самоа
самои
самоле
самолет
самсам
самур
самурдин
самури
самурскии
самурского
самух
самцхе
самых
сан
санал
санани
санатории
санжи
саният
санкт
санлаи
сант
санта
сантиметрдив
сантос
санту
сантьяго
санчес
сар
сара
сараг
сарагоса
сараи
сарар
сарат
саратов
саратовдин
сардархуьр
сардиния
сариз
сарир
саркисян
саруханов
сас
сасанидрин
сатира
сатирадин
сатирик
сатурн
сауди
сафаралиев
сафарли
саха
сахалин
сахара
саягъ
саяд
сб
сборник
св
сван
сванар
сванети
сванетия
свас
сведении
сведения
свердловск
света
свете
свобода
свободен
свод
своеи
свои
свыше
связеи
связи
святои
священная
свѣдѣніи
се
себастьян
себеб
себебар
себебдалди
себебдилаи
себебралди
себебрикаи
себя
сев
севан
севастополь
северная
северного
северном
северныи
северо
сегелер
сегодня
сегьнеда
сегьнедал
сегьнедилаи
сегьнедин
сегьнеи
сегьнеламишна
седакъет
седреддин
сезон
сезонда
сезондин
сеи
секин
секретар
секретарвиле
секретардин
секретарь
секунд
секция
сел
села
селе
селения
селжукрин
селим
селиман
селимов
село
сельским
сельских
сельского
сельское
сельскому
сельсовет
семе
семеи
семенов
сен
сена
сенат
сенатдиз
сенатдин
сенгер
сенегал
сенжефил
сент
сентябр
сентябрдиз
сентябрдилаи
сентябрдин
сентябрь
сентябрьда
сентябрьдиз
сентября
серб
сербия
сербиядин
сербиядихъ
сервии
сервис
сергеева
сергеевич
сергеи
серго
сергокалинскии
сергокъала
сергьят
сергьятар
сергьятарзава
сергьятда
сергьятдал
сергьятдилаи
сергьятдин
сергьятра
сергьятрал
сергьятриз
сергьятрик
сергьятрилаи
сергьятрин
сердер
сердца
сериал
серин
серия
сериядин
серкер
серра
серхио
сес
сесар
сесер
сессияди
сессиядин
сетдин
сети
сеть
сетӏренжар
сеул
сефевии
сефер
сеферда
сефердин
сефереда
си
сибир
сибирда
сибирдиз
сибирдин
сибири
сибирьдиз
сибирьдин
сив
сиве
сивел
сивелаи
сивера
сивераи
сивиз
сивин
сивяи
сидкьидаи
сиднеи
сии
сик
сикӏ
сикӏер
сил
силисдин
силла
символ
символар
символрикаи
симферополь
симфониядин
син
синагога
сингапур
синдром
синиф
синтаксис
синтез
синьцзян
сир
сиреникдин
сирер
сирия
сириядин
сирнавун
система
системада
системади
системадиз
системадик
системадин
системаи
системаяр
сити
сиух
сифте
сифтегьан
сифтедаи
сифтедин
сифтени
сихил
сихилар
сихилдаи
сихилди
сихилдиз
сихилдик
сихилдикаи
сихилдин
сихилри
сихилриз
сихилрикаи
сихилрин
сицилия
сиягь
сиягьат
сиягьатхъан
сиягьатчи
сиягьда
сиягьди
сиягьдиз
сиягьдик
сиягьра
сиягьриз
сиясат
сиясатдин
сиясатдинни
ск
скандинавиядин
скароне
ская
скдин
ские
скии
ским
ских
ско
ского
ское
скои
сколько
скончался
скульптор
скфо
славъян
славы
славься
славян
следствиедин
слобода
слободка
слов
слова
словак
словакия
словакияда
словакиядин
словаре
словари
словарь
словен
словения
словениядин
слово
служба
службы
см
смерть
смит
смоленск
смомпк
смт
смугъул
смугъулар
смугъулрин
снг
сносок
со
собор
собрание
собраниедин
собрания
сов
совет
совета
советди
советдиз
советдик
советдин
советник
советов
советрин
советринни
советская
советскии
советского
советское
советскои
современник
современного
современность
современные
современных
совхоз
совхозда
совхоздиз
совхоздин
согласно
согратль
содержимого
сои
сокольническая
сократес
солдат
солдатар
солдатрин
солистка
соловье
соломон
сомали
сон
сортар
соседних
сосо
сост
состав
составдик
составил
составу
состоянию
соткилава
софии
софия
социал
социалвилин
социализмдин
социалист
социалиствилин
социально
социальные
соч
сочи
сочинении
сочинения
сош
союз
союза
союздик
союздин
союзных
спб
спенсер
специалист
спид
спирт
списки
список
спорт
спорта
спортдин
спортзал
спортсмен
спортсменар
справка
справочник
спутник
спутникар
сравнительно
среди
среднем
сс
сср
ссрг
сссг
ссср
сссрдин
ссылка
ст
ставрополдин
ставрополь
ставропольдин
стадион
стадиондал
стал
стали
сталин
сталина
сталинан
сталине
стальскии
стальского
стамбул
стамбулдин
стандарт
станислав
становление
станции
станция
станциядал
станциядилаи
станциядин
старое
статеи
статистика
статистикадиз
статистикадин
статистике
статистики
статистическии
статистических
статистическое
статус
статуса
статусе
статуя
статьи
статья
стб
ства
стве
ство
степан
степнои
стер
стефано
стивен
стилдин
стильда
стильдин
стихи
стихотворения
стр
стран
страна
страница
страницы
страны
стратегия
стратегиядин
строительство
структура
структурадин
стс
студент
студентар
студентриз
студентрин
студиядин
стха
стхавилин
стхади
стхадин
стхаи
стхаяр
стӏал
стӏалар
стӏалрин
су
суал
суалар
суалдиз
суарес
суахили
субдиалект
субтропик
субтропикрин
субут
субутарзава
субутарзаваи
субутзава
субутзаваи
субъект
субъектам
субъектар
субъектов
субъектра
субъектрикаи
субъектрин
субэтник
субэтнос
субэтносар
сув
сувави
сувавии
сувавилин
сувавияр
сувагел
суважал
суваз
суваи
сувал
сувалаи
суван
сувар
сувара
суварал
суварар
сувари
сувариз
суварилаи
суварин
суварра
суваррин
сувахъанрин
суваяр
суверенитет
суву
сувуз
сувун
суд
судан
судди
суддин
судьба
судьбы
судья
суз
сулак
сулеи
султ
султан
султаннуха
султанов
султӏан
султӏанат
сумгаит
сун
сунжа
суни
сунипат
сунияр
сунна
сунни
сунрин
суперкубок
супик
сур
сурал
сурар
сурара
сурарал
сурари
сурарин
сурарни
суринам
сурун
сурхаи
суфии
суффикс
сухокумск
сухта
сухтаи
сухум
суьгут
суьник
суьнни
суьргуьндиз
суьрет
суьретар
суьрме
суьрсетар
сфера
сферада
сфи
схема
сценарии
сценарист
сша
сьерра
сьюдад
сэр
сюрги
ся
сят
сятдин
т
та
таб
табасаран
табасаранар
табасаранвии
табасаранвияр
табасаранда
табасарандин
табасаранри
табасаранрин
табасаранскии
табасаранское
табии
табл
таблица
тавакъу
тавун
тавуна
тавунваи
тавур
тавуртӏа
тавуш
таганрог
таганрогдин
тагиркент
тагское
тагузваи
тагъ
тагъар
тагъдин
тагърин
тагьир
тагьиран
тад
таджикар
таджикистан
тади
таж
тажидин
таза
таи
таиланд
так
также
такьатар
такьатралди
такьатрин
тала
талант
талгьа
талибов
таловка
талукь
талукьарзава
талукьарна
талукьарнаваи
талукьарнаи
талукьбур
талукьвилин
талыш
там
тамазатюбе
тамам
тамамарзаваи
тамамарна
тамамвилелди
тамамдаказ
тамар
тамара
тамари
тамариз
тамарин
тамашаяр
тамбов
тамерлан
тамерланан
таможнядин
таму
тамун
танана
тандо
танзания
таниш
танк
танты
тар
тарар
тарари
тарарин
тарашна
тарашнаи
тарашхъанрин
таржума
таржумахъан
таржумачи
таржумаяр
тариф
тарих
тарихвилелди
тарихвилин
тарихда
тарихдаи
тарихдал
тарихдалди
тарихдар
тарихдарри
тарихдаррин
тарихди
тарихдиз
тарихдикаи
тарихдин
тарихдинни
тарихдихъ
тарихни
тариххъан
тарки
тарлан
тарланов
тарс
тарсар
тарсуна
тарумовка
тарумовскии
тархуьр
тарцин
тасс
тасута
тат
татар
татарар
татарни
татарри
татаррин
татарского
татарстан
татархан
татарханрин
татары
татаюрт
татляр
татри
татрин
татугаи
таты
татьяна
тау
таун
тафават
тафаватвал
тафаватлу
тафаватлувилелди
тахаи
тахминан
тахо
тахсир
тахсирар
тахт
тахта
тахтунал
тахьаи
тахьана
тахьанваи
тахьун
тахьунин
таш
ташир
ташкент
таъмин
таъминарзава
таъминарзаваи
таъсир
таъсирдаи
таъсирдик
таъсирдин
таъсирзава
таъсирна
тб
тбилиси
тбилисидилаи
тбилисидин
тв
твадаи
тваз
твазваи
твар
тварар
тварцин
творчества
творчество
тда
тдал
тдин
те
театр
театрада
театрадин
театрар
театрда
театрди
театрдин
театрдинни
тебекмахи
тебриз
тег
тегеран
тегьер
тегьерар
тегьерда
тегьердив
тегьердиз
тегьердин
тегьран
тед
тедди
тежедаи
тежез
тежезваи
тежер
тежриба
тежу
теи
тек
текар
текипиркент
теклиф
теклифдалди
теклифзава
теклифна
теклифнаваи
теклифнаи
текриз
текст
текста
тексты
тектоник
текъвер
телави
теле
телевидение
телевидениеда
телевидениедин
телевидениядин
телеканал
телеф
телефвилер
телефондин
тело
телои
тель
тема
темадаи
темаи
темаяр
темир
температура
температурада
температурадин
темрезов
тенант
теннис
теннисхъан
теоретик
теории
теория
теориядин
тепе
тер
теракт
тербия
терг
тергнаи
терек
терекдин
терекеме
терекемеяр
терефдарар
теречное
терии
термин
терминар
терминдин
терминология
термохвехуьнин
территориал
территориального
территориальное
территориальном
территориальных
территории
территория
территорияда
территориядаи
территориядал
территориядин
территорияр
тесла
тесниф
теснифаи
теснифзава
теснифзаваи
теснифиз
теснифна
теснифнава
теснифнаваи
теснифунал
тестикь
тестикьарзава
тестикьарзаваи
тестикьарна
тестикьарнаваи
тестикьарнаи
тефеи
техас
техил
техилдин
техника
техникадин
техникум
технология
технологиядин
технологияр
технуцал
тешкил
тешкилат
тешкилатди
тешкилатдин
тешкилзаваи
тешкилна
тешкилнаваи
тешкилнаи
тешкилунин
ти
тибет
тибетдин
тибр
тигьиржал
тигьирхуьр
тигьирхуьруьн
тии
тик
тиканлы
тикрар
тикрариз
тилитль
тимор
тимур
тина
тинг
тингда
тиндалар
тинди
тип
типа
типдиз
типдин
типография
тир
тираж
тираждалди
тирбур
тирвал
тирвилиз
тирвиляи
тирди
тирла
тиррен
тирт
тиртӏа
тиртӏани
тисси
тител
тито
титул
тифлис
тлибишо
тлингит
тлиси
тлох
тлядал
тлярата
то
тобаго
товуз
того
токарева
токио
толстои
только
том
томар
томас
томах
тонга
тонн
топографические
топология
топоним
топонимар
топонимики
топонимическии
топономика
тоттенхэм
тпиг
тр
традиции
трактат
трал
трамваи
транскрипция
транспорт
транспортдин
трасса
трассадал
трассадин
трди
трдин
тренер
трес
три
трин
тринидад
тритии
тркал
троллеи
тропик
трофеи
труды
трэш
ттар
ттарар
ттарарин
ттунваи
ту
тувалу
тукита
тула
тульскои
тум
тун
туна
тунаи
тунал
тунва
тунваи
тундраяр
тунис
тунисдин
туп
тур
туракь
туризм
туризмдин
туристар
туриствилин
туристдин
туристрин
туркестан
турнир
турнирар
турнирда
турнирдал
турнирдин
турция
турцияда
турциядаи
турциядиз
турциядин
турциядихъ
туршунаи
тутчоне
тухвазваи
тухваи
тухвана
тухванаи
тухванваи
тухудаи
тухуз
тухузава
тухузаваи
тухузва
тухузваи
тухум
тухумдаи
тухумдикаи
тухун
тухунар
тухунваи
тухуниз
тухунин
туч
туш
тушиз
тушир
туширвал
туширвилин
туширди
туьк
туьквенар
туькьуьл
туькӏуьр
туькӏуьраи
туькӏуьрдаи
туькӏуьрзава
туькӏуьрзаваи
туькӏуьриз
туькӏуьрна
туькӏуьрнава
туькӏуьрнаваи
туькӏуьрнаи
туькӏуьрун
туькӏуьрунар
туькӏуьрунин
туькӏуьрунриз
туькӏуьрунрин
туьр
туьрк
туьрквер
туьрквери
туьрквериз
туьркверин
туьркер
туьркери
туьркерин
туьркия
туьркияда
туьркиядин
туьркмен
туьркменистан
туьркни
туьрколог
туьхк
туьхкӏуьр
тфенг
тхан
тхеп
тхимпху
тхун
тхэквондодин
тчик
ты
тыс
тысяч
тысячи
тюбе
тюмень
тюрки
тюрколог
тюркские
тюркских
тяньцзинь
тіа
тівар
тӏ
тӏа
тӏал
тӏалабзава
тӏалабна
тӏалабнаи
тӏалиб
тӏани
тӏаратӏ
тӏаратӏдин
тӏвал
тӏвар
тӏварар
тӏварарикаи
тӏварарин
тӏварарни
тӏварни
тӏварунихъ
тӏварцӏелаи
тӏварцӏелди
тӏварцӏи
тӏварцӏиз
тӏварцӏикаи
тӏварцӏин
тӏварцӏихъ
тӏебиат
тӏебиатда
тӏебиатдикаи
тӏебиатдин
тӏебии
тӏегъерхъан
тӏигьиржалви
тӏимил
тӏинкӏ
тӏифлисда
тӏифлисдин
тӏуз
тӏул
тӏулдиз
тӏурфанар
тӏуьн
тӏуьнар
тӏуьнин
тӏям
тӏят
у
уб
уба
убаи
убых
убыхар
убыхри
увад
увадлагьаи
уганда
угвадаи
угваз
угвазва
угвазваи
угвар
углерод
углероддин
угор
угуна
угунаи
угур
угъ
угълангерек
угъуз
уд
удахар
уди
удии
удин
удинар
удины
удияр
удлагьаи
удралди
удэ
уезд
уездам
уездар
уездда
уезддик
уезддин
уездин
уездра
уездрин
уефа
ужар
уз
узб
узбек
узбекар
узбекистан
узваи
узел
узун
узунуба
уи
уиа
уильям
уильямс
уильямсди
ук
указ
указан
указанием
указом
укр
украин
украина
украинада
украинадин
украинадихъ
украинар
украинвияр
украинка
украинрин
украины
украі
укуз
ул
улав
улавар
улакь
улакьдин
улан
улар
уллу
уллубии
уллугъетягъ
уллугъетягърин
уллукимахи
уллутеркеме
уллучаи
уллучара
улу
улуб
улубар
улубда
улубдаи
улубдин
улубра
улубрин
улубхана
улус
улусар
улусс
улусскии
ум
умада
умаи
умар
умара
умаран
умер
умерла
умм
умма
умна
умнаи
умуд
умуми
ун
уна
унаи
унар
университет
университета
университетар
университетда
университетди
университетдиз
университетдик
университетдин
университетра
университетрин
униз
унин
унитар
уннаи
унт
унцукул
унчукатль
уньон
управление
управлениедин
управлениядин
ур
ура
урада
уразманова
урал
урала
уралдин
уран
урар
урари
урарин
урахи
урахивияр
урбанизациядин
урга
ургани
урдаи
урдин
урду
ури
урин
уркарах
урна
урнаваи
урнаи
урни
урник
урниц
урсс
урсун
урт
уртах
уртил
уру
уругваи
уруж
уружба
урук
урум
урумчи
урун
урус
урусар
урусат
урусатда
урусатдаи
урусатдани
урусатди
урусатдиз
урусатдик
урусатдилаи
урусатдин
урусатдинни
урусатдихъ
урусдал
урусни
урусри
урусриз
урусрилаи
урусрин
урусринни
урусрихъ
урхучимахи
урхуьр
урц
урьянуба
ус
усад
усадлагьаи
усадьба
усал
усар
усиша
услар
услара
усларан
усман
усманан
усманрин
успенскии
уст
уста
устав
устад
устадвал
устадвилин
устрои
усть
устӏар
устӏарар
устӏарвал
устӏарвилин
усугъ
усугъчаи
усур
усфср
уттар
уф
уфа
уфуба
ухул
ухулрин
ухшар
ухъ
уцми
уцмии
уцмиюрт
уч
участок
участокар
участокдик
участокдин
участокриз
уче
учебник
учебникар
учебникра
учебникрин
учебное
училище
училищеда
училищедик
училищедин
учреждения
уш
ушел
уь
уьгъ
уьд
уьдвишни
уьдлагьаи
уьз
уьзваи
уьзден
уьзденар
уьзденуба
уьк
уьл
уьленар
уьлкве
уьлкведа
уьлкведаи
уьлкведи
уьлкведиз
уьлкведин
уьлквеи
уьлквеяр
уьмуьр
уьмуьрда
уьмуьрдаи
уьмуьрдиз
уьмуьрдикаи
уьмуьрдин
уьмуьрдихъ
уьмуьрзава
уьмуьрзаваи
уьн
уьнар
уьнуьгъ
уьнуьгърин
уьр
уьраи
уьрзава
уьрзаваи
уьрна
уьрнава
уьрнаваи
уьрнаи
уьрун
уьрунар
уьумуьр
уьц
уьцӏуь
уьцӏуьвал
уях
ф
фабрика
фабрикаяр
фагьум
фагьумлу
фад
фадлаи
фазадин
фазу
фаи
фаида
факт
факто
факты
факультет
факультетда
факультетдиз
факультетдик
факультетдин
фамилия
фан
фандукӏ
фар
фарер
фаридабад
фарс
фарсари
фарсарин
фарси
фарсидал
фатали
фауна
фашиствилин
фашистрикаи
фашистрин
фе
февралдал
февралдиз
февралдилаи
февраль
февральдиз
февральдин
февраля
федерал
федеральная
федерального
федеральном
федеральныи
федеральных
федератив
федерации
федерация
федерацияда
федерациядин
федерациядинни
федерер
федерико
феи
фекьи
фекьияр
фельдмаршал
фельдшервилинни
фельдшерни
фена
фенаи
фенва
фенваи
феномен
феодал
феодалрин
феодосии
фердинанд
ференц
ферзалиева
ферма
фернандо
фестиваль
фестивальда
фет
фета
фетягь
фетягьов
фетягьова
фи
фиба
фида
фидаи
фидалди
фиджи
физ
физава
физаваи
физва
физваи
физик
физика
физикадин
физикадинни
физики
физиология
физиологиядин
физическая
физкультурадин
физули
фии
фикир
фикирар
фикирда
фикирдаи
фикирдал
фикирдалди
фикирдив
фикирдиз
фикирдин
фикирзава
фикирзаваи
фикирралди
фикирри
фикрет
фил
филер
филерин
филиал
филиалар
филиалда
филиалдин
филипп
филиппаз
филиппин
филиппинар
филискъар
филол
филолог
филология
филологиядин
философ
философии
философия
философиядин
филфили
фильм
фильмда
фин
финал
финалда
финалдин
финалист
финалра
финансрин
финансринни
финансы
финар
финиваи
финиз
финикия
финикиядин
финин
финиф
финифар
финифда
финифра
финляндия
финн
фиригъ
фирма
фите
фифа
фиярин
фк
флнк
флнка
флоренция
флорес
флорида
флоридадин
флот
флотдин
фольклор
фон
фонд
фондунин
фонетика
фонетикадин
фонтан
форель
форлан
форма
формада
формадин
формал
формаяр
формировании
формула
формы
форт
форум
форумдин
фото
фотографии
фотосинтез
фр
фрагменты
фраи
франк
франка
франкфурт
франсиско
франсуа
франц
франции
франциско
франция
францияда
францияди
франциядиз
франциядикаи
франциядин
франциядинни
франциядихъ
француз
французар
французви
французри
французрин
фрг
фреи
фрид
фридрих
фронт
фронтдал
фронтдиз
фронтдин
фу
фудин
фундаментал
фундукӏ
фундукӏдиз
фур
фурдаг
футбол
футболда
футболдаи
футболдин
футболист
футболистар
футболистни
футболка
футболу
футболхъан
фяле
фялеи
х
ха
хабар
хабарар
хабардар
хабаровск
хаби
хадаи
хаджи
хажалат
хаз
хазар
хазарар
хазарри
хазаррин
хазина
хаи
халидин
халилов
халимбекаул
халис
халисан
халиф
халифа
халифат
халифатдин
халичаи
халичаяр
халкь
халкьар
халкьарадин
халкьари
халкьариз
халкьарик
халкьарикаи
халкьарилаи
халкьарин
халкьаринарадин
халкьарихъ
халкьарни
халкьди
халкьдив
халкьдиз
халкьдикаи
халкьдин
халкьдинни
халкьдихъ
халу
хам
хамаматюрт
хамунин
хан
хана
ханан
ханар
ханбиче
ханваи
ханвал
ханвалдик
ханвалдихъ
ханвилер
ханвилин
ханвилихъ
хандак
ханди
хандиз
хандин
хандо
ханмагомедов
ханов
ханова
ханован
ханрин
ханум
хань
хар
харап
харапӏаяр
харж
харжи
хариб
харусенят
харусенятдин
харьков
харьяна
хас
хасавюрт
хасавюртдин
хасавюртовская
хасавюртовскии
хасан
хасанаи
хасбулат
хаспуладуба
хат
хата
хаталу
хатасузвал
хатасузвилин
хатаяр
хатӏуналди
хачмаз
хачмасскии
хаш
хашархота
хашпара
хашперес
хашпересар
хашпересвал
хашпересрин
хашунин
хва
хвал
хвартикуни
хваршини
хваршияр
хвеи
хвена
хвенаи
хвенва
хвенваи
хвереж
хвех
хвехуьнин
хгана
хдин
хе
хеб
хебда
хев
хеи
хел
хелетури
хемисдиз
хер
херер
хесет
хесус
хзан
хзанар
хзанарни
хзанда
хзандаи
хзанди
хзандиз
хзандик
хзандикаи
хзандин
хзандихъ
хзанни
хзанра
хзанри
хзанрин
хи
хив
хиве
хидиров
хизан
хизанда
хизандаи
хизандин
хизри
хии
хиле
хилез
хилек
хилен
хилер
хилера
хилериз
хилерикаи
хилерин
хиляи
химик
химия
химиядин
хин
хиналугского
хиндах
хинди
хинелугъ
хинелугъар
хинелугъви
хинелугъвии
хинелугърин
хинер
хинерин
хинк
хирер
хирург
хиялар
хиях
хкаж
хкаждаи
хкажиз
хкажна
хкажун
хкана
хкат
хкатаи
хкатзава
хкатзаваи
хкатна
хкатнава
хкведаи
хквезва
хкем
хкидаи
хкиз
хкизва
хкуд
хкудаи
хкуддаи
хкудзава
хкудзаваи
хкудиз
хкудна
хкуднаи
хкудун
хкудунин
хкун
хкъеч
хкягъ
хкягъаи
хкягъзава
хкягъзаваи
хкягъиз
хкягъна
хкягънаваи
хкягъун
хкягъунар
хкягъунин
хкягъунра
хкягъунрин
хкязаваи
хкяи
хкяна
хкянава
хкянаваи
хкянаи
хкянва
хлен
хнуб
хоз
хозяи
хои
хоккеи
хоккеист
холстинин
хорасан
хорв
хорватия
хорватиядин
хорватская
хордин
хореографиядин
хорхе
хосе
хотспур
хпеж
хпер
хперин
хпит
храдаи
храм
храмар
храх
храхуба
хребет
хрестоматии
хрестоматияр
христиан
христианар
христианвал
христианвилиз
христианвилин
христианрин
христофор
хроника
хронология
хрун
хрунин
хсуси
хтаи
хтана
хтанаи
хтанач
хтанваи
хтар
хтул
хтун
хуан
хуарес
хувентуд
худат
худигъ
худож
художественная
художестводин
художник
худуц
хужадхуьр
хужадхуьруьн
хуквадинни
хулио
хунзах
хунзахского
хуник
хунин
хур
хура
хураи
хурал
хуралаи
хурсатил
хутаргъ
хутор
хутунаи
хутхул
хучни
хуш
хушал
хушарал
хуьдаи
хуьз
хуьзва
хуьзваи
хуьлуьхъ
хуьлуьхърин
хуьн
хуьнваи
хуьнин
хуьнуьхин
хуьпуькь
хуьр
хуьре
хуьрек
хуьрел
хуьрелаи
хуьрер
хуьрера
хуьрераи
хуьрерани
хуьрериз
хуьрерикаи
хуьрерилаи
хуьрерин
хуьрерихъ
хуьрерни
хуьрехуьр
хуьрехуьруьн
хуьрни
хуьрун
хуьруь
хуьруьваи
хуьруьг
хуьруьгрин
хуьруьз
хуьруькаи
хуьруьн
хуьруьнви
хуьруьнвии
хуьруьнвияр
хуьруьнжемят
хуьруьнжемятдик
хуьруьнжемятдин
хуьруьнни
хуьруьнсовет
хуьруьнсоветар
хуьруьнсоветда
хуьруьнсоветди
хуьруьнсоветдиз
хуьруьнсоветдик
хуьруьнсоветдикаи
хуьруьнсоветдин
хуьруьнэгьлии
хуьруьнэгьлияр
хуьруьхъ
хуьрьун
хуьряи
хуэи
хх
хци
хциз
хцин
хъалхъамар
хъалхъамдин
хъач
хъачмаз
хъвадаи
хъвер
хъел
хъенч
хъенчӏин
хъжезва
хъижезва
хъижезваи
хъии
хъимил
хъипи
хъишлах
хъишлахрин
хълар
хъпи
хъпуьхъ
хъсан
хъсанарна
хъсанарун
хъсандаказ
хъсандиз
хъувун
хъувуна
хъувунаи
хъувунваи
хъувунин
хъукьвар
хъулид
хъулидар
хъун
хъутур
хъуьлер
хъуьруьн
хъуьруьнар
хъуьт
хъуьтуьз
хъуьтуьл
хъуьтуьн
хъуьтӏуьз
хъуьтӏуьл
хъуьтӏуьн
хъфеи
хъфена
хъфенаи
хъфенваи
хъфидаи
хъфиз
хъфизваи
хъфин
хъхьана
хъчар
хъчарин
хь
хьаи
хьалиф
хьана
хьанаваи
хьанаи
хьанатӏа
хьанатӏани
хьанач
хьаначир
хьанва
хьанваи
хьанвач
хьар
хьел
хьи
хьиз
хьизни
хьилерин
хьран
хьти
хьтин
хьтинбур
хьтинбурун
хьтинди
хьуи
хьун
хьуналди
хьуни
хьунивди
хьуниз
хьуникаи
хьунин
хьунни
хьунухь
хьураи
хьуре
хьухь
хэ
хэдин
ц
ца
цава
цаваи
цавар
цавуз
цавун
цадаи
цадасы
цазва
цазваи
цаи
цал
цан
цана
цанваи
цардин
цария
царияда
цариядин
царь
царьдин
цахурскии
цахуры
цацар
цацархуьр
цвар
цветаева
це
цев
цез
цезарь
цезарьди
цезарьдин
ценерив
центр
центрального
центральныи
центров
церемония
церковь
цзэдун
ци
цибилта
цив
цивилизации
цивилизация
цивилизациядилаи
цивилизациядин
цик
цикаи
цикл
цилинг
цин
циндао
ципиц
цирк
цирхе
цитирования
циф
цифер
цифрах
циц
цияб
цк
цлан
цлар
цларал
цларин
цлахъ
цмур
цмуррин
цнал
цовкра
цокаев
цолода
цугни
цудахар
цудик
цудук
цуликана
цумада
цумали
цун
цуниз
цунимахи
цунин
цунта
цур
цурмахи
цуру
цуругъ
цуругъар
цуругърин
цурун
цурунин
цурцин
цуц
цуцӏул
цуьк
цуькведа
цуьквер
цуькверин
цы
цыганар
цэс
цяи
ціии
цӏ
цӏадасадин
цӏаи
цӏалцӏам
цӏап
цӏапар
цӏар
цӏарар
цӏару
цӏарцӏел
цӏарцӏин
цӏахур
цӏахуррин
цӏаюн
цӏаяр
цӏвал
цӏегь
цӏехуьл
цӏивин
цӏии
цӏикьвед
цӏинин
цӏипуд
цӏиргъ
цӏиргъер
цӏиргъери
цӏиргъерин
цӏиргъини
цӏиргъинин
цӏуд
цӏуди
цӏудлагьаи
цӏудралди
цӏун
цӏуру
цӏусад
ч
чабанмахи
чав
чаваи
чад
чаз
чаи
чакъал
чакъалар
чал
чалагъан
чалда
чам
чамалалар
чамту
чан
чанкаюрт
чанко
чанкурбе
чаоян
чап
чапдаи
чапдиз
чапла
чапна
чапнава
чапханаи
чапхунчии
чар
чара
чараз
чарар
чарарин
чарльз
чарода
чарчар
чарчел
части
часть
чатун
чахчах
че
чеб
чебни
чевакдин
чел
челеби
челленджер
человек
человека
челябинск
чем
чемпион
чемпионар
чемпионардин
чемпионат
чемпионата
чемпионатар
чемпионатда
чемпионатдал
чемпионатдин
чемпионате
чемпионатра
чемпионатрин
чемпиондин
чемпионом
чемпионрин
чепедин
чепел
чепер
чеперин
чере
через
черкес
черкесар
черкесия
черкесиядин
черкесск
черновик
черногория
четин
четинвилер
четинвилерни
четиндиз
четыре
чех
чехи
чехир
чехирдин
чехия
чехиядин
чехов
чехова
чехословакия
чехословакиядин
чеч
чечен
чеченар
чеченарни
чеченри
чеченриз
чеченрин
чеченскии
чеченского
чеченскои
чечни
чечня
чечняда
чечнядин
чечнядинни
чечнядихъ
чешир
чешме
чешмеи
чешмеяр
чешне
чешнеяр
чжэн
чи
чиамахи
чиг
чида
чидаи
чидани
чидач
чизва
чизваи
чизвач
чикаго
чил
чиле
чилегир
чиледиз
чилел
чилелаи
чилер
чилера
чилераи
чилерал
чилерар
чилери
чилериз
чилерик
чилерикаи
чилерилаи
чилерин
чилерни
чили
чилидин
чилиз
чилик
чиликаи
чилин
чилини
чилинни
чилихъ
чиляи
чими
чимивал
чимивилин
чимиди
чин
чинал
чинар
чингисхан
чинеба
чинебан
чинеруг
чинин
чинра
чинриз
чир
чирагъ
чирагъар
чирвал
чирвилер
чирвилерин
чирвилин
чирдаи
чирзава
чирзаваи
чириз
чиркеи
чирков
чирна
чирнаваи
чирнаи
чирун
чирунар
чируниз
чирунин
чирунрин
чирхчир
численности
численность
численностью
числительнияр
число
числояр
чихъискар
чк
чка
чкада
чкадаи
чкадал
чкадив
чкадиз
чкадикаи
чкадилаи
чкадин
чкадихъ
чкаи
чкани
чкаяр
чкаярни
чкӏаи
чкӏана
чкӏанаи
чкӏанва
чкӏанваи
член
членар
членов
чм
чна
чола
чох
чпел
чпелаи
чпи
чпиз
чпин
чпиндал
чпихъ
что
чубарук
чубутла
чув
чувашар
чувашскои
чувек
чувуд
чувудар
чувудри
чувудрин
чук
чукурна
чукурнаи
чукӏул
чукӏурдаи
чукӏурна
чукӏурунар
чулак
чун
чунгур
чупик
чуру
чурчул
чуькьвена
чуькьуьн
чуькьуьнвал
чуьл
чуьлдин
чуьлер
чуьлерин
чуьллер
чуьнгуьр
чуьнуьх
чуьхвер
чуьхверхуьр
чуьхуьзва
чхунчхон
ччара
ччарар
ччил
ччилер
ччилера
ччилериз
ччилерин
ччилин
ччин
ччинин
чъакъал
чылгъыр
чіал
чіалал
чіехи
чӏ
чӏав
чӏава
чӏавалаи
чӏавалди
чӏаван
чӏавар
чӏавара
чӏаварган
чӏаваргандал
чӏаварганра
чӏаварилаи
чӏаварин
чӏавуз
чӏавузни
чӏавуналди
чӏавунилаи
чӏагаи
чӏагурнаваи
чӏал
чӏала
чӏалаваи
чӏалаз
чӏалаи
чӏалакаи
чӏалал
чӏалалаи
чӏалалди
чӏалан
чӏалани
чӏаланни
чӏалар
чӏалара
чӏалараи
чӏаларал
чӏаларалди
чӏаларални
чӏалари
чӏалариз
чӏаларик
чӏаларикаи
чӏаларин
чӏаларихъ
чӏаларни
чӏалахъ
чӏални
чӏем
чӏехи
чӏехибритания
чӏехибританияди
чӏехибританиядин
чӏехибур
чӏехибуру
чӏехибурукаи
чӏехивал
чӏехивилел
чӏехивилиз
чӏехивиляи
чӏехиди
чӏехини
чӏилихъ
чӏугвадаи
чӏугваз
чӏугвазваи
чӏугвана
чӏугвар
чӏугнаи
чӏугузваи
чӏугун
чӏугуна
чӏугунаи
чӏугунваи
чӏугунин
чӏугур
чӏук
чӏул
чӏулав
чӏулавкьалар
чӏулдин
чӏур
чӏуран
чӏурар
чӏурзаваи
чӏурна
чӏурнаваи
чӏуру
чӏша
ш
ша
шабан
шабанов
шаблон
шабран
шагь
шагьа
шагьабудин
шагьан
шагьбани
шагьдагъ
шагьдагъдин
шагьди
шагьдин
шагьид
шагьидвалзава
шагьидвалзаваи
шагьидрин
шагьпазов
шад
шадвилин
шаи
шаир
шаирар
шаирвилин
шаирди
шаирдиз
шаирдин
шаирни
шаирри
шаиррикаи
шаиррин
шак
шакир
шалбуз
шалбуздагъ
шалбуздагъдин
шалиб
шамахадин
шамахи
шамил
шамила
шамилаз
шамилан
шамилкъала
шамиль
шамкир
шамсудин
шамхал
шамхалвал
шамхалов
шанхаи
шапи
шапих
шапсугъ
шапсугъар
шапсугърин
шарвал
шарвили
шарвилидин
шари
шариат
шариатдин
шарк
шарои
шарт
шартӏ
шартӏар
шартӏара
шаумяна
шах
шахе
шахматист
швед
шведриз
шведрин
швеи
швеция
швециядин
шды
ше
шеварднадзе
шеварднадзеди
шевчук
шегьер
шегьерар
шегьерарда
шегьерарни
шегьервилин
шегьерда
шегьердаи
шегьердал
шегьерди
шегьердиз
шегьердик
шегьердикаи
шегьердилаи
шегьердин
шегьердихъ
шегьерни
шегьерра
шегьеррани
шегьерриз
шегьеррикаи
шегьеррилаи
шегьеррин
шегьеррихъ
шеи
шекер
шекердин
шеки
шекидин
шельфда
шемаха
шемахадин
шерафет
шериф
шерифов
шерифуба
шефтер
шеффилд
ши
шивор
шида
шие
шии
шиир
шиирар
шиирарни
шиират
шииратдин
шиирда
шиирдаи
шиирдин
шиирин
шиирра
шиирраи
шииррал
шиирралди
шиирриз
шииррин
шиирринни
шикил
шикилар
шикилда
шимихуьр
шиназ
шинкбалакада
ширак
ширван
ширванда
ширвандин
ширвани
ширвановка
ширваншагьрин
ширин
ширинбеган
ших
шихалиев
шихвердиев
шихидхуьр
шихидхуьруьн
шихидхуьруьнсовет
шихнесир
шихсаидов
шихсаидова
шия
школа
школада
школадин
школы
школьник
шлезвиг
шлем
шлемдин
шодрода
шотландия
шотландиядин
шоу
шри
шрифтдив
шсрг
штаб
штат
штатар
штатда
штатдин
штатра
штатриз
штатрин
штул
штулви
штулвиди
штулрин
шукты
шумуд
шумудни
шумудра
шура
шурада
шуради
шурадик
шурадин
шураи
шурван
шурпа
шуькӏуь
шуьтруь
шуьшедин
шхара
щ
ъ
ы
ыи
ь
э
эбеди
эвежугъ
эвез
эвезар
эвездин
эвел
эвер
эверзава
эверзаваи
эверна
эвернаваи
эвернаи
эверун
эверунин
эвич
эвичӏна
эвленмиш
эволюция
эгеи
эгер
эгера
эгеч
эгечӏ
эгечӏаи
эгечӏзава
эгечӏзаваи
эгечӏна
эгечӏнаваи
эгечӏнаи
эгъуьнар
эгъуьнрин
эгьли
эгьлии
эгьлияр
эгьлиярни
эдеб
эдеби
эдебиатдин
эдебият
эдебиятда
эдебиятдиз
эдебиятдин
эдуард
эдуарда
эи
эк
экв
эквадор
эквадордин
экватордин
экваториал
эквер
экен
экеч
экечӏна
экечӏнаи
экз
экземпляр
экибулак
экологиядин
экономика
экономикада
экономикадиз
экономикадин
экономикадинни
экономики
экономист
экономические
экс
эксклав
эксмо
экспедиции
экспедиция
экспедицияда
экспедицияди
экспедициядин
экспедицияр
эксперт
экспертрин
экспорт
экспресс
экуь
экуьн
экуьнин
экъеч
экъечӏаи
экъечӏдаи
экъечӏзава
экъечӏзаваи
экъечӏзваи
экъечӏиз
экъечӏна
экъечӏнаваи
экъечӏнаи
экъечӏун
экъечӏунар
экӏидаи
экӏя
эл
элверунин
элгьед
электрик
электричестводив
электро
электрондин
электронная
электронныи
электростанция
элемент
элементар
элементов
элементрикаи
элементрин
элза
элик
эликар
элиста
элифба
элкъведаи
элкъвезва
элкъвезваи
элкъвеи
элкъвена
элкъвенаи
элкъвенва
элкъвенваи
элкъуьн
элкъуьнин
элкъуьрзаваи
элкъуьрна
элкъуьрнава
элкъуьрнаваи
элкъуьрнаи
элкъуьрун
элкъуьрунин
элм
эль
эльба
эльбрус
эльдар
эльдаров
эльчин
эляч
элячӏзава
элячӏзаваи
элячӏна
элячӏун
эмин
эмина
эминаз
эминан
эминхуьр
эминхуьруьз
эмир
эмирали
эмиралиди
эмираслан
эмират
эмиратдин
эмирбег
эмирдалди
эмиррин
энвер
энд
эндиреи
энергетикадин
энергия
энергиядин
энтогенезда
энциклопедии
энциклопедическии
энциклопедия
энциклопедияда
энциклопедиядин
эпиграфические
эпос
эпосдин
эпоха
эпохи
эрадал
эрадилаи
эрадин
эрдебил
эритрея
эркек
эрм
эрменар
эрмени
эрмении
эрменистан
эрменистанда
эрменистанди
эрменистандин
эрменистандихъ
эрменияр
эрнесто
эрпели
эрч
эрчӏи
эсбе
эсед
эседуллагь
эсер
эсерар
эсерарни
эсерда
эсердаи
эсердик
эсерра
эсерраи
эсеррар
эсерри
эсерриз
эсеррикаи
эсеррин
эсетар
эски
эскимос
эсперанто
эсперантодин
эстония
эстрададин
этика
этимология
этник
этническая
этнические
этноатлас
этногенез
этнограф
этнографии
этнографическии
этнографическое
этнография
этнографиядин
этнокарта
этнолог
этнос
этносдик
этносостав
это
этом
эф
эфенди
эфендиди
эфендидиз
эфендидин
эфендиев
эфендиева
эфендиеван
эфендияр
эфиопия
эфиопиядин
эфирдин
эхем
эхен
эхи
эхиз
эхир
эхирда
эхирдаи
эхирдал
эхирдалди
эхирдиз
эхирдилаи
эхирдин
эхиримжи
эхиримжиди
эхирни
эхирра
эхирриз
эхниг
эхо
эхтилат
эхтилатралди
эхтияр
эциг
эцигаи
эцигдаи
эцигзава
эцигзаваи
эцигиз
эцигна
эцигнава
эцигнаваи
эцигнаи
эцигун
эцигунар
эцигуниз
эцигунин
эцигунрин
эч
эяк
ю
юань
юбилеи
юго
югъ
югъни
югь
юждаг
южная
южно
южного
южнои
южныи
юзазва
юзун
юзунар
юзунин
юзурзава
юк
юкатан
юкон
юкъуз
юкь
юкьа
юкьв
юкьва
юкьваз
юкьвал
юкьвалаи
юкьван
юкьванни
юкьванпата
юкьвар
юкьвара
юкьварар
юкьварикаи
юкьни
юлдаш
юлдашар
юлии
юлия
юмор
юнаи
юнеско
юнескодин
юпик
юпитер
юпитердин
юридически
юридическии
юрии
юриспруденция
юриспруденциядин
юрист
юрия
юрковка
юрт
юсиф
юстициядин
юсуф
юсуфан
юсуфов
юфо
юхари
ючм
я
яб
ява
яваш
ягъ
ягъаи
ягъана
ягъдаи
ягъзава
ягъзаваи
ягъиз
ягъизваи
ягъии
ягъна
ягънаваи
ягъун
ягъунар
ягъунра
ягъунрин
ягь
яд
ядаи
ядердин
ядни
яз
язва
язваи
язык
языка
языках
языке
языки
языков
языкознание
языкознания
языком
языку
яи
як
яков
яковлев
яковлевич
якутия
якъуб
якӏун
ял
ялама
ялахъ
ялахъвии
ялахърин
ялзаваи
ялта
ялц
ялцугъ
ялцугърин
ям
яма
ямаи
яман
ямансу
ян
яна
янаи
янваи
январ
январдал
январдиз
январдилаи
январь
январьда
январьдиз
январьдин
января
янгиюрт
янгылбаи
яни
янцзы
яп
япон
япония
японияда
япониядин
японрин
яр
яраг
ярагъ
ярагъви
ярагъвиди
ярагъдал
ярагъи
ярагърин
ярагьмедов
ярагьмедова
ярак
яракь
яракьар
яракьвилин
яракьлу
яракьрин
яралиев
яран
ярар
яратмишунар
яратмишунин
яратмишунрин
яргиль
яргун
яргундал
яргунрин
яргъа
яргъавал
яргъал
яргъалвал
яргъалди
яргъара
яргъи
яргъивал
яргъивилин
яргъивилихъди
яркуг
ярославль
яру
ярукьвалар
ясаб
ясная
ястреб
ят
ятагуба
ятар
ятара
ятари
ятарив
ятариз
ятарин
ятарни
ятах
ятӏа
ятӏани
ях
яхул
яхулар
яхулви
яхулри
яхулрин
яхун
яхц
яц
яцар
яцӏу
яцӏувал
яш
яшаи
яшамиш
яшамишдаи
яшамишзава
яшамишзаваи
яшамишзваи
яшар
яшарилаи
яшарин
яшин
ѕ
і
іам
ѳ
ґ
қ
ҡ
ҵ
ҹ
ӄ
ӏ
ӏӏ
ӏӏӏ
ә
ԛ
ԟ
դ
մարզ
փ
ֆ
ִ
ד
ה
י
؟
ا
الا
العربية
ب
ة
ت
ج
ح
د
ذ
ر
ز
س
ش
ع
ـ
ق
ك
ل
م
ما
ن
ه
و
وس
ى
ي
َ
ُ
ِ
ّ
ْ
ٓ
ٔ
ٕ
ٰ
ٱل
ٱلل
ڪ
ۚ
ۡ
ި
ެ
ं
क
ग
ज
ड
त
द
ध
न
प
ब
म
य
र
ल
व
स
ह
़
ा
ि
ी
ु
े
ो
्
ং
দ
প
ব
ল
শ
া
ে
্
ਜ
ਲ
਼
ਾ
ਿ
க
ி
ு
்
ุ
་
ག
ཐ
ཕ
མ
ི
ུ
ེ
ོ
ე
ვ
ნოემბერი
백운산
​
‌
‍
‎
‏
–
—
―
‘
’
“
”
„
†
•
…
‰
′
″
⁡
€
№
↑
→
↓
↔
↗
↘
↷
⇄
∏
∑
−
∞
∫
≈
⋅
⋯
③
④
⑦
♦
⟶
ⵉ
ⵍ
ⵜ
⺀
⺄
⺆
⺈
⺊
⺌
⺕
⺝
⺸
⺼
⿰
⿱
⿲
⿳
⿴
⿵
⿶
⿷
⿸
⿹
⿺
⿻
〢
コ
ユ
㇁
㇂
㇄
㇇
㇈
㇉
㇓
㐁
㐄
㐅
㐌
㐫
㐬
㐭
㐮
㐱
㑒
㒵
㒸
㒼
㓁
㓞
㔾
㕛
㕣
㖾
㘝
㚅
㚇
㚔
㚘
㝉
㝡
㝴
㝵
㞋
㞢
㞷
㠩
㠭
㠯
㡀
㡭
㡿
㢲
㢴
㣇
㣺
㥯
㪅
㫄
㫐
㫒
㫺
㬅
㬎
㬥
㬰
㲋
㳄
㷠
㸒
㸚
㸦
㼌
㼲
㽞
㿟
䀠
䂞
䍃
䏍
䒑
䖍
䖒
䖝
䖵
䙴
䚻
䜌
䝿
䡛
䧹
䪞
一
丁
丂
七
丄
丅
丆
万
丈
三
上
下
丌
不
与
丏
丐
丑
专
且
丕
世
丘
丙
业
东
丞
丢
丣
两
严
並
丨
丩
个
丫
丬
中
丮
丰
丱
串
丵
丶
丷
丸
丹
为
主
丽
丿
乀
乂
乃
久
乆
乇
么
义
之
乌
乍
乎
乏
乐
乑
乔
乖
乗
乘
乙
乚
乛
乜
九
乞
也
习
乡
乳
乾
亀
亅
了
亇
予
争
事
二
亍
于
亏
亐
云
互
亓
五
井
亘
亚
亜
亞
亟
亠
亡
亢
交
亥
亦
产
亨
亩
享
京
亭
亮
亯
亰
亲
亳
亶
亷
人
亻
亼
亾
仁
今
介
仌
从
仐
仑
仒
仓
仕
他
付
仝
代
令
以
任
企
伊
伏
伐
休
会
伯
但
位
何
佘
余
作
佥
使
來
侈
侌
侖
侯
侵
便
保
俞
信
修
倉
倍
候
倠
備
僉
僕
儿
兀
允
兂
元
兄
充
兆
兇
先
光
兊
克
兌
免
兑
兒
兓
兔
党
兜
兟
入
全
兩
兪
八
公
六
兮
兰
共
关
兴
兵
其
具
典
兹
兼
冀
冂
冃
冄
内
冈
冉
冊
冋
册
再
冎
冏
冐
冒
冓
冖
冗
冘
军
农
冝
冡
冥
冫
冬
冷
几
凡
凢
凵
凶
凷
凸
凹
出
函
凾
刀
刁
刂
刃
刄
刅
分
切
刍
刑
刕
刖
列
刘
则
初
別
利
别
到
制
刺
則
削
剌
前
剡
剽
劉
力
功
加
劦
助
劫
劳
劵
勃
勇
勉
勒
動
務
勞
勤
勹
勺
勻
勾
勿
匀
匂
包
匆
匈
匊
匋
匍
匕
化
北
匚
匝
匡
匪
匱
匸
匹
区
医
匽
匿
區
十
卂
千
卄
卅
卆
升
午
卉
半
卌
华
卑
卒
卓
单
卖
南
卜
卝
卞
占
卡
卢
卣
卤
卦
卩
卪
卬
卯
印
危
即
却
卵
卷
卸
卻
厂
厃
厄
历
厈
厉
厌
厓
厘
厚
原
厤
厥
厨
厭
厲
厶
厷
厸
去
厼
厽
叀
参
參
叅
又
叉
及
友
双
反
叐
发
叒
叔
叕
取
受
叚
叜
叟
口
古
句
另
叩
只
召
可
台
叱
史
右
叵
号
司
叹
吂
各
吅
合
吉
吊
吋
同
名
后
吏
向
吕
君
吝
吞
否
含
启
吳
吴
吹
吾
呂
呆
呈
告
员
呙
周
命
咅
和
咎
咠
咢
咨
咸
咼
哀
品
哉
員
哥
哲
唐
商
啇
問
啚
啬
啻
善
喜
喬
單
喿
嗇
噩
嚴
囊
囗
囘
囙
囚
四
回
囟
因
囧
囬
困
囱
囷
固
国
圂
圅
國
圍
圓
土
圡
圣
圥
在
圭
地
圶
圼
坐
坒
坚
坴
垂
垔
垚
埀
埋
城
埶
執
基
堂
堅
堆
堇
堯
塞
墨
壘
士
壬
壯
声
壳
壴
壹
壺
壽
夂
处
夅
夆
备
夊
夋
夌
复
夏
夒
夕
外
夗
夘
多
夜
夢
大
夨
天
太
夫
夬
夭
央
失
夲
头
夷
夸
夹
夻
夾
奂
奄
奇
奈
奉
奎
奏
奐
契
奓
奔
奚
奞
奠
奢
奥
奭
女
奴
奻
好
如
妄
妙
妟
妥
妻
妾
姑
委
姜
威
娄
婁
婴
嬰
嬴
子
孑
孔
孕
孖
字
存
孚
孛
孝
孟
季
孤
学
孫
孱
學
宀
宁
宂
它
宅
宇
守
安
宋
完
宏
宓
宗
官
定
宛
宜
宝
客
宣
室
宮
宰
害
家
容
宾
宿
寄
寅
密
富
寒
察
寧
審
寫
寬
寮
寸
对
寺
寻
寽
対
寿
封
尃
射
将
將
專
尉
尊
尋
尌
對
小
少
尒
尓
尔
尖
尗
尚
尞
尢
尣
尤
尧
尨
尭
就
尸
尹
尺
尻
尼
尽
尾
尿
局
居
屈
屋
屎
屏
屑
展
屖
屚
属
屠
屡
屬
屮
屯
屰
山
屵
屾
岁
岂
岑
岡
岩
岳
岸
峯
島
崇
崑
崔
崖
崙
崩
嵬
嶲
巂
巛
川
州
巟
巠
巢
巤
工
左
巧
巨
巩
巫
差
己
已
巳
巴
巷
巸
巽
巾
巿
帀
市
布
希
帚
帛
帝
带
師
席
帶
常
干
平
年
幵
并
幷
幸
幺
幻
幼
幽
幾
广
広
庄
床
底
店
庚
府
度
庫
庭
庶
康
庸
廉
廌
廛
廣
廩
廴
延
廷
建
廾
廿
开
弁
弃
弄
弇
弋
式
弓
弔
引
弗
弘
弜
弟
弥
弦
弱
張
強
强
彊
彌
彎
彐
彑
当
彔
录
彖
彗
彡
形
彥
彦
彧
彭
彳
役
彼
往
待
律
徒
得
徙
從
復
微
徵
心
忄
必
忌
忍
志
忝
忠
忩
快
念
忽
忿
思
怠
急
怱
恆
恒
恩
恭
息
悉
患
悤
悲
悶
惠
惡
惢
愁
愈
意
愛
感
慈
慧
慮
憂
憲
應
戀
戈
戉
戊
戋
戌
戍
戎
成
我
戒
戔
或
戚
戠
戢
截
戲
戶
户
戹
戼
戾
房
所
扁
扇
手
扌
才
打
托
执
承
折
拉
拜
拿
掌
推
提
摩
支
攴
攵
收
攸
改
放
政
敄
敏
敕
敖
敗
敝
敞
敢
散
敦
敫
敬
数
敷
數
斂
文
斉
斊
斗
斤
斥
斩
斬
斯
新
方
於
施
斿
旁
旋
族
无
旡
既
旣
日
旦
旧
旨
早
旬
旱
旲
时
旾
昆
昇
昌
昍
明
昏
易
昔
昗
昜
星
春
昬
是
昱
昴
昷
時
晃
晋
晏
普
景
晶
智
暑
暴
曇
曩
曰
曲
曳
更
曷
書
曹
曼
曾
替
最
朁
會
月
有
朋
服
朔
朕
朗
望
朝
木
朩
未
末
本
札
朮
术
朱
朵
朶
朿
杀
杏
村
杜
束
条
来
東
杲
杳
松
析
林
枚
果
枝
枲
枼
某
柔
查
柬
柰
柴
栗
桀
桑
桼
梁
條
梟
梨
棘
棠
棥
森
楚
業
楽
榮
樂
樊
欠
次
欣
欮
欲
欶
欽
款
歆
歇
歛
止
正
此
步
武
歨
歪
歮
歯
歰
歲
歴
歷
歸
歹
歺
死
殳
段
殷
殸
殹
殺
殻
殿
毋
毌
母
每
毒
比
毕
毚
毛
毳
氏
氐
民
气
氣
水
氵
氶
氷
永
氺
氾
求
汝
汞
江
沃
沓
沙
沝
泉
法
波
泣
泥
泰
洛
洪
活
派
流
浦
浪
浮
淡
淮
清
渚
渠
湯
滿
漸
灣
火
灬
灭
灰
灵
灷
炅
炎
炏
炗
炙
炭
為
烈
烏
烝
焉
無
焦
焱
然
煞
熊
熏
燕
營
燮
爪
爫
爭
爯
爰
爱
爲
爵
父
爻
爽
爾
爿
片
牙
牚
牛
牜
牟
牢
牧
牪
牽
犀
犬
犭
犮
狂
狄
狊
独
狺
猋
猒
猪
献
獻
玄
率
玉
王
玟
玨
珎
班
琴
瑟
瑩
瓜
瓦
甘
甚
生
産
用
甫
甬
田
由
甲
申
电
甶
男
甸
甹
画
甾
畀
界
畏
畐
留
畜
畟
畢
畧
畨
番
畫
異
畱
當
畺
畾
疊
疋
疌
疑
疒
疾
癶
癸
癹
登
發
白
百
皀
皃
的
皆
皇
皋
皐
皕
皮
皷
皿
盃
盆
盇
盈
益
盍
盎
监
盒
盖
盛
盡
監
盤
盧
目
直
相
盾
省
眇
眉
看
眔
眞
真
眷
眼
眾
着
睘
睪
睿
瞏
瞢
瞿
矍
矛
矞
矢
矣
知
矦
短
石
破
碎
磊
磨
示
礻
礼
祟
票
祭
禀
禁
禸
禹
禺
离
禽
禾
禿
秀
秃
秉
秋
科
秝
秦
移
稟
穀
穌
穴
究
穹
空
穿
突
窄
窒
立
竒
竜
竝
竟
章
童
竹
笑
笠
筆
等
答
箕
算
箴
節
篤
篭
米
粉
粛
粟
粤
粦
粲
糞
糸
糹
系
約
納
素
索
紫
累
細
絜
絫
絲
維
綿
縣
繇
纍
纟
缶
网
罒
罔
罕
罗
罙
罡
罢
罪
署
罷
羅
羊
羌
羍
美
羔
羕
羗
羞
羡
羣
群
義
羲
羸
羽
翁
翏
習
翕
翟
翠
翼
老
耂
考
者
耆
而
耎
耑
耒
耳
耴
耶
耷
聂
聊
聖
聚
聶
聿
肀
肃
肅
肉
肖
肙
肥
肩
肯
育
肴
胃
背
胡
胥
能
脊
脩
膚
臣
臤
臧
自
臬
臭
臯
臱
至
致
臺
臼
臽
臾
臿
舀
舂
舄
與
興
舉
舌
舍
舛
舜
舞
舟
般
艮
良
色
艸
艹
艾
芒
芔
芬
芮
花
芳
芺
芻
苔
苗
苟
若
苦
英
茶
茸
荅
草
荒
荣
荼
莆
莧
莫
莽
菆
菊
菐
華
萬
落
葉
著
葛
董
葵
蒙
蒦
蒼
蓋
蓬
蓺
蔑
蔡
蕉
蕭
薄
薛
薦
薰
藍
藏
藥
蘭
虍
虎
虐
虒
虔
處
虖
虗
虘
虚
虛
虜
虞
虫
虽
蚤
蚩
蜀
蜜
蟲
蠡
血
行
衍
衛
衣
衤
表
衮
衰
袁
袞
褭
褱
襄
襾
西
覀
要
覃
見
規
覓
覧
親
覽
见
角
解
言
訁
訇
計
詹
語
誩
諸
讠
谷
豆
豈
豊
豐
豕
豖
豙
象
豦
豩
豪
豸
貇
貝
貞
貟
負
貢
貧
貪
貫
責
貳
貴
買
費
賁
資
賈
賏
賓
賔
賛
賞
賢
賣
質
賴
贊
贝
贡
责
贯
贲
贵
赖
赞
赤
赦
走
越
足
路
蹇
身
躬
車
軍
軎
軟
輦
车
辛
辜
辟
辥
辰
辱
農
辵
辶
边
达
过
近
连
迷
追
退
送
逆
逐
通
速
造
逢
連
逮
進
遀
遂
過
道
達
遣
適
遷
遺
邊
邑
邕
那
邦
邪
郎
部
郭
都
鄉
酉
酋
配
酓
釆
采
里
重
野
量
金
釒
錢
钅
長
镸
长
門
閃
閉
開
閏
閑
閒
間
閔
閵
閻
闌
门
间
闷
阑
阜
阝
阳
阿
降
陳
隆
隊
隋
隡
隨
隱
隶
隹
隺
隻
隼
隽
难
雀
雁
集
雈
雋
雍
雐
雔
雙
雚
雜
雝
離
難
雨
雩
雪
雲
零
雷
需
霍
霜
霝
霞
霸
靈
靑
青
非
靡
面
靣
革
韋
韓
韦
韭
韯
韱
音
頁
頃
項
須
頗
頡
頻
顛
页
風
风
飛
飞
食
飠
養
饣
首
香
馬
馮
駦
马
骨
高
髟
鬥
鬯
鬲
鬼
魚
魯
鮮
鱼
鲁
鳥
鳳
鷲
鸟
鹵
鹿
麃
麗
麥
麦
麻
黃
黄
黍
黎
黑
黒
黨
黹
黽
黾
鼎
鼓
鼠
鼻
齊
齋
齐
齒
齿
龍
龙
龜
龟
龠
龰
龱
龴
龵
龶
龷
龸
龹
者
艹
ﷺ
ﻯ
？
𠀁
𠀃
𠀆
𠀉
𠀎
𠀐
𠁁
𠁣
𠂆
𠂇
𠂈
𠂉
𠂊
𠂋
𠂎
𠂒
𠂔
𠂛
𠂡
𠂢
𠂤
𠂬
𠂭
𠂹
𠃊
𠃋
𠃌
𠃍
𠃎
𠃑
𠃓
𠃔
𠃜
𠄌
𠄎
𠄠
𠄢
𠆢
𠆥
𠇍
𠈌
𠌵
𠓜
𠔉
𠔥
𠔼
𠔽
𠔿
𠕀
𠕁
𠕋
𠘧
𠘨
𠙻
𠙼
𠚏
𠚒
𠚤
𠚪
𠣏
𠤎
𠤕
𠥓
𠦄
𠦑
𠦝
𠧒
𠧗
𠧪
𠩺
𠪚
𠫓
𠫔
𠫤
𠬛
𠬝
𠬞
𠬢
𠬤
𠬶
𠮛
𠮦
𠮷
𠯑
𠱠
𠳮
𠷎
𡈼
𡉀
𡉵
𡌥
𡍮
𡏳
𡕒
𡕩
𡕰
𡖅
𡗗
𡗜
𡘆
𡘤
𡧱
𡨄
𡩧
𡬠
𡭽
𡰣
𡰥
𡰪
𡰯
𡰱
𡷈
𡸁
𡿨
𡿩
𡿪
𡿺
𢀖
𢀛
𢀩
𢁙
𢆉
𢆰
𢆶
𢇁
𢇇
𢉖
𢌬
𢌿
𢏚
𢑑
𢑚
𢖻
𢙣
𢛳
𢦏
𢦒
𢧵
𢼄
𢾕
𣁋
𣄼
𣅀
𣅽
𣍘
𣎳
𣎵
𣏋
𣏼
𣗥
𣥂
𣥖
𣦵
𣦼
𣧄
𣪊
𣪠
𣬉
𣳾
𣶒
𤇾
𤊽
𤐫
𤓰
𤔔
𤕨
𤣩
𤰇
𤰔
𤰞
𤴓
𤴔
𤽄
𥁑
𥁕
𥃦
𥃩
𥃭
𥇡
𥑟
𥘅
𥘈
𥝢
𥫗
𥱡
𦈢
𦉪
𦉬
𦉼
𦍌
𦍒
𦎧
𦐇
𦓔
𦔮
𦘒
𦙃
𦚏
𦣝
𦣞
𦣻
𦥑
𦥔
𦥯
𦨉
𦭝
𦰩
𧆞
𧈧
𧘇
𧰨
𧴪
𧴮
𧵩
𧾷
𨸏
𨾴
𩙿
𩠐
𩫏
𩵋
𪉷
𪜀
𪟽
𪠲
𪩲
𫇦
𫔭
𫜸
𫝀
𫠣
𫠩
𫢉
𫥞
𫩏
𫩠
𫪡
𫲽
𫶧
𬀷
𬐘
𬗌
𬙙
𬛸
𬜯
𬟩
𬯁
𬴘
𬺻
𬼉
𬼖
𭀰
𭁈
𭁨
𭅰
𭑈
𭕄
𭗼
𭤨
𭥫
𭻾
𮅕
𮊿
𮍌
𮍏
𮓗
𮥼
𮧮
廾
𰀁
𰀄
𰀈
𰀉
𰀕
𰀠
𰀡
𰀢
𰀪
𰁜
𰃮
𰆊
𰆘
𰋙
𰕎
𰢴
𰧭
𰯲
00--
01--
16--
82--
94--
a--
ad--
ailu--
al--
an--
anti--
ap--
ar--
ara--
archaeo--
arcto--
ari--
as--
asso--
ast--
astro--
at--
au--
ava--
b--
ba--
bar--
be--
bel--
bi--
bio--
biog--
bo--
br--
broad--
bu--
c--
ca--
cal--
car--
cen--
ch--
chair--
cham--
char--
chri--
ci--
cl--
co--
col--
com--
con--
cor--
cri--
cro--
cu--
d--
da--
de--
di--
dis--
do--
dor--
du--
e--
eco--
ed--
el--
elect--
en--
epi--
es--
f--
fa--
fe--
fer--
fi--
fis--
fo--
fr--
fri--
ful--
g--
ga--
gar--
ge--
geo--
geog--
go--
gra--
gre--
gu--
h--
ha--
hakimiyy--
ham--
har--
he--
ho--
i--
im--
in--
indi--
inut--
inuvi--
ire--
is--
it--
j--
ja--
jo--
k--
ka--
ke--
ken--
kh--
ki--
klu--
ko--
ku--
l--
la--
lan--
le--
lear--
lezg--
li--
m--
ma--
mac--
mag--
mate--
me--
met--
mi--
midfiel--
mil--
min--
mo--
monte--
mor--
mu--
mul--
n--
na--
napo--
nau--
ne--
ng--
ni--
no--
nor--
o--
or--
os--
p--
pa--
par--
para--
pe--
pi--
pic--
pl--
po--
pri--
prin--
pro--
q--
qan--
qu--
r--
ra--
re--
ri--
ro--
ru--
s--
sa--
satel--
sch--
sco--
scot--
se--
sec--
si--
so--
spa--
spi--
spra--
st--
stu--
su--
t--
ta--
te--
tea--
th--
the--
ti--
to--
tour--
tra--
tre--
tu--
ty--
u--
un--
univer--
ur--
utkuhik--
v--
val--
ve--
ver--
vi--
vil--
virg--
vo--
w--
wal--
we--
wh--
wil--
win--
wo--
wri--
x--
xu--
y--
z--
zi--
ı--
ł--
ə--
əh--
γ--
μ--
τ--
а--
аб--
абас--
абд--
абдул--
абу--
ав--
авар--
австр--
авур--
аг--
ага--
агакь--
агуль--
агъ--
агъа--
агъсакь--
агь--
ад--
адет--
ади--
ады--
аж--
аз--
азад--
азиа--
аи--
ак--
акъал--
акь--
ал--
ала--
алаб--
алб--
алек--
али--
алукь--
аль--
алю--
ам--
ами--
ан--
ана--
анг--
ансамбл--
ап--
ар--
ара--
арас--
аре--
ари--
аристок--
арм--
ас--
аскер--
астра--
ат--
ата--
аттракци--
атӏ--
аф--
афганист--
афр--
ах--
ац--
ацукь--
ацӏ--
аш--
б--
ба--
баб--
баг--
бал--
бала--
балк--
бан--
бар--
бас--
бат--
бах--
бе--
бег--
бед--
бек--
белорус--
бель--
бен--
бер--
би--
бике--
бил--
био--
бл--
блэк--
бо--
бом--
бор--
бот--
бра--
бре--
брю--
бу--
бугъ--
буд--
буддис--
бук--
бул--
буль--
бундес--
бур--
бух--
буш--
буь--
в--
ва--
вад--
валь--
ван--
вар--
вах--
ве--
вези--
вен--
вер--
ви--
вин--
вири--
виш--
влади--
во--
вод--
воевод--
воен--
воз--
вол--
воль--
вс--
вселен--
ву--
вы--
выс--
выст--
г--
га--
газ--
гал--
галкӏ--
галукь--
гам--
гар--
гат--
ге--
гел--
ген--
генг--
гео--
геор--
гер--
ги--
гид--
гидро--
гим--
гин--
гипоте--
гит--
гиш--
гишин--
гл--
глаз--
гнесин--
го--
гон--
гор--
гос--
госпит--
гра--
граф--
гри--
гро--
гроз--
гу--
гул--
гум--
гун--
гур--
гуьл--
гъ--
гъаз--
гъу--
гь--
гьа--
гьаб--
гьажи--
гьал--
гьам--
гьаф--
гьахъ--
гье--
гьез--
гьи--
гьуж--
гьул--
гьял--
д--
да--
дав--
даг--
дал--
дам--
дан--
дар--
дах--
даш--
де--
дегь--
дел--
деле--
демографиче--
дет--
дж--
джам--
джан--
джер--
джун--
ди--
диб--
дин--
дми--
до--
доб--
докумен--
дол--
дон--
достоев--
др--
дру--
ду--
дубен--
дуг--
дул--
дур--
ды--
дю--
е--
ев--
евро--
егь--
ек--
екат--
еке--
ел--
елке--
ер--
ермо--
есир--
ехи--
ж--
жава--
жами--
жан--
ждан--
жек--
жер--
жиге--
жигер--
жил--
жир--
з--
за--
заг--
загьи--
зал--
зер--
зи--
знамен--
знач--
зул--
зулум--
зур--
и--
иб--
иви--
иг--
ид--
ида--
идж--
иер--
из--
изд--
издатель--
икъ--
ил--
или--
илим--
иль--
им--
имам--
ими--
имми--
ин--
инг--
инд--
инс--
инсан--
инструмен--
интер--
инч--
ир--
иран--
ирл--
ирс--
ис--
искен--
иску--
использ--
ит--
иф--
ифа--
их--
ихуьруьн--
иц--
иш--
ишат--
ишлемиш--
июл--
к--
ка--
кады--
каж--
каз--
каина--
кал--
калифор--
кам--
кап--
кар--
кара--
карван--
кат--
каче--
кв--
ква--
кве--
ке--
келби--
келен--
кеме--
ки--
киб--
кили--
кило--
ким--
кинемато--
кино--
кипч--
кир--
кис--
кк--
ккӏ--
кл--
клет--
км--
кн--
книж--
княз--
князь--
ко--
кол--
колле--
ком--
комисс--
компью--
кон--
консер--
конст--
конь--
коп--
кор--
коркмас--
кот--
кп--
крас--
красно--
кре--
крем--
кри--
кры--
ку--
куб--
куж--
кун--
кур--
курс--
кучуд--
къ--
къа--
къав--
къаз--
къанни--
къар--
къара--
къарагъ--
къас--
къат--
къе--
къуш--
кь--
кьве--
кье--
кьегьал--
кьуд--
кю--
кі--
кӏ--
кӏани--
л--
ла--
лабо--
лав--
ланд--
ландшаф--
лат--
ле--
лен--
лео--
лес--
ли--
ливер--
лин--
лит--
лич--
ло--
лу--
лугу--
лунач--
луч--
ль--
лю--
люби--
лютеран--
м--
ма--
маго--
магь--
мад--
мае--
маж--
мак--
маке--
маль--
ман--
мар--
марш--
мас--
маса--
маш--
ме--
мег--
медицин--
мен--
мер--
метео--
мето--
мех--
ми--
микро--
мил--
мин--
мирзе--
мифоло--
мо--
молеку--
мон--
монумен--
мор--
мото--
му--
мубарак--
мугьаджир--
мук--
мур--
мусуль--
мусульман--
мух--
муь--
муьгь--
мыс--
н--
на--
нав--
навруз--
налог--
нар--
народ--
нас--
наси--
нач--
не--
нег--
нез--
нек--
некра--
ни--
ниг--
ник--
нич--
нно--
но--
ново--
нор--
ну--
нур--
о--
об--
обсер--
объ--
од--
окл--
октяб--
оли--
он--
опред--
ор--
орке--
ос--
осв--
осо--
от--
откры--
отст--
ох--
п--
па--
пав--
пал--
пам--
памят--
пан--
пар--
пара--
партизан--
пас--
пах--
пе--
пен--
пер--
перс--
печ--
пи--
пир--
пират--
пл--
пле--
по--
поб--
под--
пол--
полине--
полк--
полу--
поме--
пон--
порт--
поч--
поэ--
поэтиче--
поя--
прак--
пре--
пред--
предло--
предсе--
прези--
при--
приволж--
примор--
пристав--
про--
прове--
произве--
происхож--
пролив--
пропага--
просв--
протестан--
пу--
публи--
пуд--
пудкъанни--
пул--
пье--
пӏ--
пӏатӏ--
р--
ра--
раг--
рагъ--
рагь--
радио--
раз--
рази--
рак--
ракъ--
рам--
ран--
ранг--
рас--
рафтар--
ре--
рег--
резуль--
рекь--
реюнь--
ри--
рим--
ро--
рол--
ру--
ругъ--
руко--
рума--
с--
са--
саб--
сав--
саван--
сагъ--
сад--
саж--
сак--
сал--
сам--
сан--
сап--
сар--
саут--
сбор--
св--
сверд--
се--
сев--
север--
севзи--
сель--
сер--
серебр--
серен--
си--
силе--
син--
сираж--
ск--
скульп--
скульптур--
см--
со--
соз--
сок--
сол--
солнеч--
спек--
сред--
ст--
стат--
сте--
сто--
стр--
стӏ--
су--
сув--
сум--
супер--
существи--
суь--
съезд--
сы--
сят--
т--
та--
таб--
тав--
таг--
таж--
так--
тал--
тан--
тапш--
тар--
тараш--
тарашун--
тат--
тахт--
тв--
творче--
те--
тек--
теле--
телерадио--
тем--
темир--
тен--
теночтитла--
тер--
термо--
тех--
техниче--
ти--
тир--
то--
токси--
тол--
толкун--
тор--
тр--
траши--
трая--
три--
ту--
тубе--
тун--
тур--
тух--
тушир--
туь--
тэ--
тӏ--
тӏа--
у--
уб--
уг--
угъ--
уд--
уз--
уи--
ук--
укь--
ул--
улуб--
уль--
ум--
ун--
уот--
ур--
урни--
ус--
ух--
уч--
уче--
учреж--
уш--
уьгъ--
уьмь--
ф--
факулте--
фар--
фат--
фах--
фаш--
фе--
фев--
фер--
фи--
физиче--
фил--
финик--
флам--
фо--
фолкл--
фор--
формир--
фото--
фр--
фразеоло--
фу--
фул--
фун--
х--
ха--
хаб--
хаз--
хали--
халичачи--
хам--
хамето--
хан--
хар--
хаш--
хе--
хен--
хи--
хив--
химиче--
хин--
хинал--
хк--
хкаж--
хке--
хо--
холл--
хос--
хтул--
ху--
хуб--
хук--
хуш--
хуь--
хци--
хъ--
хъалхъ--
хъит--
хь--
хэ--
ц--
ца--
цар--
цве--
це--
ци--
циф--
цкӏ--
цуру--
цӏ--
ч--
чан--
чап--
чар--
часо--
чах--
че--
челси--
чер--
чи--
чинов--
чир--
чис--
чка--
чкӏ--
чоб--
чу--
чукот--
чукӏ--
чум--
чуь--
чі--
чӏ--
чӏу--
ш--
ша--
шагь--
шад--
шакӏ--
шал--
шар--
шах--
ше--
шегь--
шен--
ши--
шии--
шиир--
ших--
школь--
шол--
штат--
щ--
э--
эв--
эгъуьн--
эд--
эк--
экономиче--
экс--
эксплу--
эл--
электро--
эмир--
эн--
эр--
эре--
эрен--
эрмен--
эст--
эт--
этно--
эф--
эциг--
ю--
юз--
юно--
юр--
юст--
я--
ягъ--
ягъун--
ягь--
яд--
яз--
як--
ял--
ям--
ян--
яп--
яр--
ярат--
яратмиш--
яратмишун--
яс--
ях--
яц--
яш--
і--
ال--
ب--
ع--
م--
مح--
مع--
--0
--1
--2
--3
--4
--5
--6
--7
--8
--9
--a
--ace
--aeota
--ag
--al
--an
--ar
--ard
--ary
--as
--ate
--ay
--b
--ba
--bad
--bol
--c
--ca
--ce
--ch
--cio
--ck
--ct
--cted
--cyon
--d
--da
--dae
--de
--dia
--dium
--ds
--dy
--e
--ed
--ei
--ek
--el
--ence
--er
--ers
--es
--et
--ey
--f
--g
--ge
--ger
--gne
--gus
--h
--ht
--i
--ia
--ian
--ic
--ical
--idae
--ides
--ija
--ik
--il
--in
--ine
--ing
--ings
--ins
--io
--ion
--is
--ity
--iye
--iz
--k
--ke
--ker
--ky
--l
--la
--land
--lar
--ld
--lf
--li
--lik
--ll
--ls
--lus
--ly
--lı
--m
--ma
--ment
--mical
--miut
--ms
--n
--na
--nce
--nd
--ne
--ner
--ng
--nh
--ni
--nia
--nic
--nin
--no
--ns
--nsis
--nt
--o
--om
--on
--ons
--or
--os
--p
--pat
--phic
--phus
--pt
--q
--que
--r
--ra
--rcas
--rd
--re
--rence
--res
--ri
--rin
--ris
--rmiut
--rns
--rs
--rt
--ry
--s
--se
--sh
--shire
--son
--ss
--st
--sting
--t
--ta
--te
--ted
--ter
--tes
--th
--tic
--tion
--ton
--tory
--ts
--tt
--tun
--tus
--ty
--u
--ue
--ugh
--um
--un
--ur
--ure
--urt
--us
--v
--va
--ve
--w
--x
--y
--ya
--yi
--ys
--z
--ze
--α
--ς
--а
--аб
--абад
--ав
--ава
--аваи
--аг
--агь
--ад
--ада
--адиз
--адин
--аев
--аж
--аз
--аи
--ак
--акьар
--ал
--алаи
--алди
--али
--ам
--амахи
--ан
--ана
--ани
--анов
--ар
--арадин
--арда
--ардаи
--арзава
--арзаваи
--ари
--ариз
--арна
--арни
--арун
--ас
--ат
--ау
--аф
--ах
--ахи
--ахуьр
--ахъ
--аш
--ая
--аяр
--б
--ба
--бан
--баран
--бег
--беган
--бегов
--бек
--беков
--бекова
--бет
--би
--бил
--бл
--бр
--бур
--буруз
--в
--ва
--ваз
--ваи
--вал
--ван
--вац
--вач
--вая
--вед
--вен
--верди
--вердиев
--ви
--видин
--вии
--виле
--вилел
--вилелаи
--вилелди
--вилер
--вили
--вилиз
--вилин
--вилихъ
--виляи
--вия
--вияр
--вка
--во
--вут
--вые
--г
--га
--ган
--гас
--гда
--ген
--гер
--ги
--гия
--го
--гов
--гон
--гр
--град
--гу
--гуа
--гуд
--гук
--гъ
--гъан
--гъар
--гь
--д
--да
--даз
--даи
--даказ
--дал
--далди
--дан
--дар
--де
--дер
--дес
--дж
--джа
--джи
--ди
--див
--диваи
--дидин
--диз
--дии
--дик
--дикаи
--дилаи
--дин
--дихъ
--дихъаи
--дия
--диядин
--до
--дов
--дова
--дрин
--дт
--ду
--дукт
--ды
--е
--ев
--ева
--ево
--ед
--еев
--ез
--еи
--ел
--ела
--еления
--ели
--ель
--ем
--еме
--ен
--ения
--енко
--енныи
--ент
--ер
--ера
--ерг
--ес
--ест
--ет
--етка
--етов
--еф
--ех
--ец
--еш
--еяр
--ж
--жа
--же
--жемятдик
--жет
--жи
--жув
--з
--за
--зава
--заваи
--заи
--зан
--зар
--зас
--зва
--зваи
--зе
--зин
--зм
--и
--иан
--иано
--иб
--ив
--иваи
--ивди
--иг
--ид
--идин
--ие
--иев
--иеи
--из
--изация
--изм
--измдин
--ии
--ик
--ика
--икаи
--икар
--ил
--илаи
--иле
--илин
--им
--ин
--инг
--ини
--инскии
--ио
--ир
--ирид
--ис
--ист
--истан
--истрин
--ит
--ита
--итель
--итик
--иф
--их
--ихъ
--ица
--ич
--ическии
--ических
--ического
--ия
--иядиз
--иядин
--ияр
--ият
--к
--ка
--када
--каз
--каи
--кая
--кдин
--ки
--кие
--кии
--ко
--ков
--кого
--кое
--кс
--кт
--ку
--л
--ла
--лагьаи
--лаи
--лан
--лар
--лд
--лда
--лди
--лдин
--ле
--лен
--ли
--лиев
--лии
--лия
--лл
--ло
--лон
--лт
--лу
--лувал
--лудаказ
--лух
--лы
--ль
--льд
--льц
--ля
--м
--ма
--маз
--ман
--мат
--ме
--мен
--мент
--мет
--ми
--миш
--мов
--мп
--мрин
--му
--мы
--н
--на
--нав
--нава
--наваи
--наи
--нат
--ная
--нг
--нд
--ндин
--не
--неи
--ни
--ние
--нии
--ник
--нин
--них
--нию
--ния
--нни
--но
--нов
--ного
--ное
--нои
--ности
--ность
--нри
--нскии
--нт
--нчи
--ны
--ные
--ныи
--ных
--нь
--ня
--няя
--о
--ов
--ова
--ован
--овед
--ович
--овка
--овна
--ово
--овои
--овск
--овыи
--ог
--ого
--оград
--ое
--озень
--ои
--оид
--ок
--олог
--ология
--ом
--ома
--он
--ор
--ория
--ориядин
--ос
--ость
--отар
--ох
--ою
--п
--па
--пс
--пу
--пус
--р
--ра
--раи
--рал
--ралди
--рар
--рг
--рд
--рдаи
--рдин
--ре
--рен
--ри
--риб
--рив
--риз
--рии
--рик
--рикаи
--рилаи
--рин
--рихъ
--рия
--рияр
--рн
--рна
--рныи
--ро
--ров
--рра
--рри
--ррин
--рс
--рт
--рун
--рунин
--ря
--с
--са
--салам
--сан
--сар
--се
--си
--сия
--ск
--ская
--ски
--ские
--скии
--ско
--ского
--ское
--скои
--ском
--советдик
--ср
--ссар
--ссия
--ст
--ста
--стат
--ство
--стеи
--сти
--строи
--сть
--су
--суз
--сы
--ся
--т
--та
--тав
--тал
--тала
--талиб
--тан
--тар
--те
--тес
--ти
--тив
--тика
--тиль
--тия
--тлан
--тли
--тлу
--тль
--то
--тов
--тон
--тор
--тта
--ту
--ты
--тырь
--ть
--тӏа
--тӏани
--у
--уба
--уг
--уз
--ук
--укция
--ул
--уллагь
--ум
--ун
--уна
--унал
--уналди
--унар
--уни
--униз
--уник
--унин
--унихъ
--унлаи
--ур
--ус
--ут
--ух
--ухъ
--уш
--уь
--уьз
--уьк
--уьн
--уьнсовет
--уьнсоветдик
--ую
--уяр
--ф
--фо
--форд
--фт
--х
--хан
--хана
--хда
--хи
--хия
--хк
--хо
--хов
--хъ
--хъан
--хъанри
--хь
--ц
--ца
--це
--цев
--ции
--цин
--ция
--циядин
--цк
--цкии
--цы
--ч
--ча
--чаево
--чаи
--че
--чи
--чии
--чир
--чно
--чух
--чь
--ш
--ша
--шагь
--шан
--шар
--ши
--шир
--шна
--шун
--ща
--ъ
--ъа
--ъал
--ы
--ыг
--ые
--ыи
--ым
--ых
--ыш
--ь
--ьа
--ьан
--ьар
--ьда
--ье
--ьи
--ьм
--ьмо
--ьн
--ьная
--ьного
--ьнои
--ьные
--ьныи
--ьных
--ьскии
--ья
--ьян
--э
--эт
--ю
--я
--яг
--яда
--ядин
--яи
--ял
--ямахи
--ян
--яр
--ярни
--ят
--ях
--і
--іи
--ӏ
--ӏа
--ӏаи
--ӏал
--ӏдаи
--ӏур
--اي
--ة
--د
--ر
