!
"
#
##0
##1
##10
##11
##12
##13
##14
##15
##16
##17
##18
##19
##2
##20
##21
##22
##23
##24
##25
##26
##27
##28
##29
##3
##30
##31
##32
##33
##34
##35
##36
##37
##38
##39
##4
##40
##41
##42
##43
##44
##45
##46
##47
##48
##49
##5
##50
##51
##52
##53
##54
##55
##56
##57
##58
##59
##6
##60
##61
##62
##63
##64
##65
##66
##67
##68
##69
##7
##70
##71
##72
##73
##74
##75
##76
##77
##78
##79
##8
##80
##81
##82
##83
##84
##85
##86
##87
##88
##89
##9
##90
##91
##92
##93
##94
##95
##96
##97
##98
##99
$
%
&
'
(
)
*
+
,
-
.
/
0
00
000
0001
0004
0006
001
002
003
004
005
006
007
008
009
01
010
011
013
014
02
0212
03
033
039
04
05
050
0570
06
07
08
09
1
10
100
1000
1001
1002
1003
1006
1007
101
1016
1017
102
1021
103
1038
104
1040
1046
105
1050
1051
106
1063773706110065
1066
107
1071
1073
108
1080
1085
1086
1088
109
1093
1095
1097
1098
1099
11
110
1100
1101026
1103
111
1111
1115
112
1121
1126
113
1130
1134
1135
1136
1139
114
1146
115
1150
116
117
1177
118
1180
1181
1183
1186
119
12
120
1200
1204
121
1212
122
1220
123
1230
124
1240
1248
125
1250
126
1260
127
128
129
1290
13
130
1300
131
132
133
1335437
134
135
1350
136
1365
1368
1369
137
1371
138
139
1392
14
140
1400
141
1415
142
143
1430
144
1440
145
1450
1453
146
1460
1469
147
1470
1471
1474
1475
1476
1478
148
1480
1482
1483
1485
149
1490
1492
1493
1494
1495
1496
1497
1498
1499
15
150
1500
1501
1502
1503
1504
1506
1509
151
1510
1512
1513
1514
1515
1516
1517
1518
1519
152
1520
1521
1522
1523
1524
1525
1526
1527
1528
1529
153
1530
1531
1532
1533
1534
1535
1536
1537
1538
1539
154
1540
1541
1542
1543
1545
1546
1547
1548
1549
155
1550
1552
1553
1554
1555
1556
1557
1558
1559
156
1560
1561
1562
1563
1564
1565
1566
1567
1568
1569
157
1570
1571
1572
1573
1574
1575
1576
1577
1578
1579
158
1580
1581
1582
1583
1584
1585
1586
1587
1588
1589
159
1590
1591
1592
1594
1595
1596
1597
1598
1599
16
160
1600
1601
1602
1603
1604
1605
1606
1607
1608
1609
161
1610
1611
1612
1613
1614
1615
1616
1617
1618
1619
162
1620
1621
1622
1623
1624
1625
1626
1627
1628
1629
163
1630
1631
1632
1633
1634
1635
1636
1637
1638
1639
164
1640
1641
1642
1643
1644
1645
1646
1647
1648
1649
165
1650
1651
1653
1654
1655
1656
1657
1658
1659
166
1660
1661
1662
1663
1664
1665
1666
1667
1668
1669
167
1670
1671
1672
1673
1674
1675
1676
1678
1679
168
1680
1681
1682
1683
1685
1686
1687
1688
1689
169
1690
1692
1693
1695
1696
1697
1698
1699
17
170
1700
1701
1702
1703
1704
1705
1706
1707
1708
1709
171
1710
1711
1712
1713
1714
1715
1716
1717
1718
172
1720
1721
1722
1723
1724
1725
1726
1727
1728
1729
173
1730
1731
1733
1734
1735
1736
1737
1738
1739
174
1740
1741
1742
1743
1744
1745
1746
1747
1748
1749
175
1750
1751
1752
1753
1754
1755
1756
1757
1758
1759
176
1760
1761
1762
1763
1764
1765
1766
1767
1768
1769
177
1770
1771
1772
1773
1774
1775
1776
1777
1778
1779
178
1780
1781
1782
1783
1784
1785
1786
1787
1788
1789
179
1790
1791
1792
1793
1794
1795
1796
1797
1798
1799
18
180
1800
1801
1802
1803
1804
1805
1806
1807
1808
1809
181
1810
1811
1812
1813
1814
1815
1816
1817
1818
1819
182
1820
1821
1822
1823
1824
1825
1826
1827
1828
18286
1829
183
1830
1831
1832
1833
1834
1835
1836
1837
1838
1839
184
1840
1841
1842
1843
1844
1845
1846
1847
1848
1849
185
1850
1851
1852
1853
1854
1855
1856
1857
1858
1859
186
1860
1861
1862
1863
1864
1865
1866
1867
1868
1869
187
1870
1871
1872
1873
1874
1875
1876
1877
1878
1879
188
1880
1881
1882
1883
1884
1885
1886
1887
1888
1889
189
1890
1891
1892
1893
1894
1895
1896
1897
1898
1899
19
190
1900
1901
1902
1903
1904
1905
1906
1907
1908
1909
191
1910
1911
1912
1913
1914
1915
1916
1917
1918
1919
192
1920
1921
1922
1923
1924
1925
1926
1927
1928
1929
193
1930
1931
1932
1933
1934
1935
1936
1937
1938
1939
194
1940
1941
1942
1943
1944
1945
1946
1947
1948
1949
195
1950
1951
1952
1953
1954
1955
1956
1957
1958
1959
196
1960
1961
1962
1963
1964
1965
1966
1967
1968
1969
197
1970
1971
1972
1973
1974
1975
1976
1977
1978
1979
198
1980
1981
1982
1983
1984
1985
1986
1987
1988
1989
199
1990
1991
1992
1993
1994
1995
1996
1997
1998
1999
2
20
200
2000
2001
2002
2003
2004
2005
2006
2007
20078357
2008
2009
201
2010
2011
20110715155800
2012
2013
2014
2015
2016
2017
2018
2019
202
2020
2021
2022
2024
203
204
205
206
207
208
209
21
210
211
212
213
214
215
216
217
218
219
22
220
2200
221
222
223
224
225
226
227
228
229
23
230
2300
2307
231
232
233
234
235
236
237
238
239
24
240
2400
241
242
243
244
245
246
247
248
249
25
250
2500
251
252
253
254
255
256
257
258
259
26
260
2600
261
262
263
264
265
266
2660
2663
267
268
269
27
270
271
272
273
274
275
276
277
278
279
28
280
281
282
283
284
285
286
287
288
289
29
290
291
292
293
294
295
296
2966
297
298
299
3
30
300
3000
301
302
303
304
305
306
307
308
309
31
310
311
312
313
314
315
316
3166
317
318
319
32
320
321
322
323
324
325
326
327
328
329
33
330
331
332
333
334
3348
335
336
337
338
339
34
340
341
342
343
344
345
346
347
348
349
35
350
3500
351
352
353
354
355
356
357
358
359
36
360
361
362
363
364
365
366
366896
367
368
369
37
370
371
372
373
374
375
376
377
378
379
38
380
381
382
383
384
3847
385
386
387
388
389
39
390
391
392
393
394
395
396
397
398
399
4
40
400
4000
401
402
403
404
405
406
407
408
409
41
410
411
412
413
414
415
416
417
418
419
42
420
421
422
423
424
425
426
427
428
429
43
430
431
432
433
434
435
436
437
438
439
44
440
441
442
443
444
445
446
447
448
449
45
450
4500
451
452
453
454
455
456
457
458
459
46
460
461
462
463
464
465
466
467
468
469
47
470
471
472
473
474
475
476
477
478
479
48
480
481
482
483
484
485
486
487
488
489
49
490
491
492
493
494
495
496
497
498
499
5
50
500
5000
501
502
503
504
505
506
507
508
509
51
510
511
512
513
514
515
516
517
518
519
52
520
521
522
523
524
525
526
527
528
529
53
530
531
532
533
534
535
536
537
538
539
54
540
541
542
543
544
545
546
547
548
549
55
550
551
552
553
554
555
556
557
558
559
56
560
561
563
565
566
567
568
569
57
570
571
572
573
574
575
576
577
578
579
58
580
581
582
583
584
585
586
587
589
59
590
591
592
593
594
595
596
597
5977
598
599
6
60
600
6000
601
602
603
604
605
606
607
608
609
61
610
611
612
613
614
615
616
617
618
619
62
620
621
622
623
625
6256
626
627
628
629
629628
63
630
631
632
633
634
635
636
6361
637
638
639
64
640
641
642
643
644
645
646
647
649
65
650
651
652
653
654
655
656
66
660
661
663
664
665
666
667
669
67
670
671
672
673
674
675
677
679
68
680
681
682
683
684
685
686
687
688
69
690
691
693
694
695
696
7
70
700
7000
701
704
707
708
71
710
711
713
7136
714
715
717
72
720
721
722
723
724
725
726
727
73
730
731
732
735
7358
737
74
740
747
75
750
753
754
756
757
759
76
760
761
763
767
768
77
770
771
773
775
777
78
780
781
783
785
787
789
79
8
80
800
8000
8014
8018
802
81
810
8168
817
818
82
820
8221
8235
826
829
83
830
833
8339
838
84
840
843
8459
85
850
850215
855
86
860
869
87
870
871
879
88
880
884
889
89
894
896
897
9
90
900
9000
90210
905
907
91
910
911
914
915
919
92
925
93
930
939
94
940
941
947
95
950
956
958
96
960
968
97
970
972
973
975
978
9788467041897
98
980
983
985
987
988
989
99
990
992
996
997
9972
999
:
;
<
=
>
?
@
[
\
]
^
_
`
a
aa
aaa
aaron
ab
aba
abadengo
abadesa
abadi
abajo
abandona
abandonada
abandonaes
abandonando
abandonaos
abandonar
abandonara
abandonaren
abandonari
abandonaron
abandonen
abandono
abandonu
abanicu
abarca
abasi
abasnar
abastecer
abaxo
abba
abbas
abbey
abbott
abby
abc
abci
abd
abdala
abdel
abdicacio
abdicar
abdome
abdominal
abdul
abdullah
abe
abel
abelardo
abelluga
abellugar
abellugase
abellugos
abellugu
aben
abertura
abertzale
abetu
abeya
abeyes
abh
abi
abierta
abiertamente
abiertes
abierto
abiertos
abiertu
abies
abigail
abismu
ablancaza
ablancazaes
ablaya
able
ablondu
aboga
abogada
abogaos
abogo
aboli
abolicio
abolida
abolio
abonda
abonden
abondes
abondo
abondos
abondosa
abondoses
abondosos
abondosu
abondu
abori
aborixe
about
above
abr
abraha
abraham
abrams
abre
abren
abreu
abreviatura
abreviatures
abri
abrie
abriendo
abrieron
abrigu
abril
abrio
abrir
abrupta
abs
absoluta
absolutamente
absolutes
absolutismu
absolutu
absorber
absorbi
absorbida
absorcio
abstract
absuerbe
absurdu
abu
abundance
abundances
abusos
abusu
abuxa
ac
aca
acaba
acababa
acabada
acabando
acabante
acabaos
acabar
acabara
acabari
acabaron
acaben
acabo
acacia
acad
acade
academia
academic
academies
academy
acadiu
acaldi
acapulco
acasu
acb
accademia
accesible
accesibles
accesorios
accesos
access
accessed
accesu
accidenta
accidental
accidente
accidentes
accio
accionista
accionistes
accipiter
according
account
ace
acedo
acedos
acedu
aceite
aceites
aceituna
acelera
aceleracio
acelerar
acelero
acentos
acentu
acepcio
acepta
aceptaba
aceptable
aceptacio
aceptada
aceptaes
aceptando
aceptaos
aceptar
aceptara
aceptaron
acepten
acepto
acequia
acer
acercamientu
aceru
acevedo
achebe
achievement
aci
acid
acidez
acio
aciu
aclama
aclamacio
aclamada
aco
acolorata
acoloratada
acolorataes
acolorataos
acompan
acomu
acomun
aconceya
aconceyaos
acondiciona
aconitum
aconseya
aconseyo
acontecimientos
acontecimientu
acoraza
acorazaos
acorde
acordes
acordies
acoso
acosta
acoyer
acoyi
acoyida
acoyo
acre
acredita
acreedores
acreitar
acres
acro
across
act
acta
actes
actina
acting
action
actitu
activa
activacio
activar
active
actives
activida
actividaes
activismu
activista
activistes
activities
activity
activos
activu
actor
actores
actors
actos
actress
actrices
actriz
actu
actuaba
actuaben
actuacio
actuaciones
actual
actuales
actualida
actualidad
actualiza
actualizacio
actualizaciones
actualizada
actuando
actuar
actuara
actuaron
actuo
acu
acua
acuariu
acueductu
acueye
acui
acumuladura
acun
acusa
acusacio
acusaciones
acusada
acusaos
acusar
acusativu
acuso
acuta
acutada
acutar
acute
ad
ada
adam
adams
adaptacio
adas
adautacio
adautaciones
add
adds
ade
adela
adelaida
adelaide
adelantado
adelantra
adelantrar
adelantu
adele
adelina
ademuz
adeptos
ades
adhesio
adi
adiccio
adicio
adicional
adicionales
adicionalmente
adidas
adientro
adio
adler
administration
adn
ado
adobe
adolescencia
adolescente
adolescentes
adolf
adolfo
adoliadini
adopcio
adopta
adoptada
adoptaes
adoptando
adoptar
adoptaron
adopten
adoptivu
adopto
ador
adora
adoracio
adores
adornos
adornu
adosada
adquier
adquieren
adquiri
adquirida
adquiriendo
adquiriera
adquirieron
adquirio
adquirir
adquisicio
adria
adrian
adriana
adriano
adrienne
adsabs
adscrita
adscritu
aduana
aduanes
aduciendo
adulces
adult
adulta
adulteriu
adultes
adultfilmdatabase
adultos
adultu
advance
advanced
advances
advenimiento
adventure
adventures
adversarios
adversariu
adverses
adversos
advocacio
ae
aec
aegus
aemet
aena
aereollinia
aereollinies
aereu
aero
aerodina
aeroespacial
aerona
aeronautics
aeronave
aeronaves
aeroportuaria
aeropuertos
aeropuertu
aerosmith
aes
af
afa
afacer
afaer
afaese
afai
afala
afalar
afalo
afama
afara
afarada
afaro
afata
afatada
afaya
afayada
afayaes
afayando
afayaos
afayar
afayaron
afayen
afayo
afayos
afayu
afc
afecciones
afecha
afeches
afechiscamente
afechos
afechu
afecta
afectando
afectar
afectaron
afecten
afecto
aferrun
afeuta
afeutada
afeutaes
afeutaos
affair
affairs
affinis
affleck
afganista
afganistanu
afghanistan
afi
aficio
aficiona
aficionaos
afilia
afiliacio
afiliada
afiliaos
afinida
afirma
afirmaba
afirmacio
afirmaciones
afirmando
afirmao
afirmar
afirmaron
afirmase
afirmen
afirmo
afita
afitada
afitamientu
afitar
afito
afixo
afl
afluente
afluentes
afondar
afonso
aforros
aforru
afortunadamente
aforu
afp
afpd
africa
african
africana
africanes
africanos
africanu
afrika
afrique
afro
afroamericana
afroamericanos
afroamericanu
afrodita
after
ag
aga
again
against
agatha
agave
age
agencia
agency
agent
agents
ages
aglomeracio
agnes
ago
agora
agospia
agospiamientu
agospiar
agosto
agostu
agradecimientu
agraria
agraries
agrariu
agreement
agrega
agregar
agresio
agresiones
agresiva
agresivu
agri
agricultura
agricultural
agriculture
agronomi
agropecuaria
agru
agrupacio
agrupaciones
agu
agua
aguada
aguaes
aguamala
aguanta
aguantar
aguanto
aguardiente
aguaro
aguarones
aguascalientes
aguda
agudes
agudos
agudu
ague
aguilar
aguilera
aguirre
aguiya
aguiyar
aguiyo
agusti
aguya
aguyes
ah
ahead
ahmad
ahmed
ai
aicio
aiciones
aid
aida
aids
aime
ain
air
airbus
aircraft
aire
aires
airlines
airport
airways
ais
aise
aislamientu
aislla
aisllada
aisllaes
aisllaos
aisllar
aisne
aix
aj
ajax
ajenato
ajs
ak
aka
akademie
akal
aki
akira
al
ala
alaba
alabama
alada
aladin
alaes
alain
alambre
alamea
alan
alando
alantre
alaos
alar
alarco
alarma
alaron
alas
alase
alaska
alave
alba
albacete
alban
albane
albanesa
albaneses
albania
albany
albarraci
albatros
albergue
albert
alberta
alberti
alberto
albi
albornoz
albuertu
album
albums
albuquerque
alca
alcala
alcalde
alcaldes
alcaldesa
alcaldi
alcaloides
alcan
alcanza
alcaraz
alcatel
alcen
alchemist
alcibi
alco
alcoho
alcohol
alcoholismu
alcontra
alcontrada
alcontraes
alcontraos
alcontrar
alcontro
alcorda
alcordances
alcordanza
alcordar
alcordaron
alcordo
alcue
alcuentra
alcuentren
alcuentros
alcuentru
alcuerdo
alcuerdos
alcuerdu
aldea
aldeanueva
aldega
aldegues
alderica
aldericada
aldericar
alderico
alderique
alderiques
aldo
aldu
ale
aleacio
aleaciones
aleatoria
alec
aledan
alegando
alego
alegori
alegre
alejandra
alejandro
alejo
aleksandr
alekse
alema
aleman
alemana
alemanes
alen
alendar
alepo
alerta
ales
alessandri
alessandro
aleta
aletes
alex
alexander
alexandra
alexandre
alexandri
alexandru
alexis
alfa
alfabe
alfabetizacio
alfabetos
alfabetu
alfalfa
alfareri
alfaro
alfe
alfombra
alfombres
alfonsi
alfonso
alfonsu
alfoz
alfred
alfredo
alga
algama
algamaba
algamando
algamar
algamara
algamari
algamaron
algame
algamen
algamo
algarve
alge
algo
algodo
algoritmos
algoritmu
algues
alhama
alhambra
ali
alia
aliada
aliaes
aliances
alianza
aliaos
aliar
alicante
alicar
alice
alicia
alien
aliendu
alieni
alies
align
alime
alimenta
alimentacio
alimentaos
alimentar
alimentaria
alimentase
alimenten
alimenticios
alimenticiu
alimentos
alimentu
alison
aliste
alive
aliviu
alizacio
all
alla
allah
allan
allande
allarga
allargada
allargaes
allargar
alle
allega
allegaben
allegaes
allegante
allegaos
allegar
allegaron
allego
allegre
allegri
alleguen
allen
allende
alliance
allier
alliniacio
alliniadura
alliniar
allison
allium
allmovie
allmusic
allo
allon
allongamientu
alloria
allu
alluga
allugaba
allugada
allugaes
allugamientos
allugamientu
allugaos
allugar
allugase
allugo
alluguen
alluma
ally
alma
almace
almacena
almacenamientu
almacenar
almacenes
almade
almagro
almanzor
almeida
almenara
almendra
almente
almeri
almes
almido
alministra
alministracio
alministraciones
alministrada
alministrador
alministradores
alministrar
alministrativa
alministrativamente
alministratives
alministrativos
alministrativu
almira
almiracio
almirador
almiradores
almirante
almisio
almite
almiten
almiti
almitida
almitio
almitir
almodo
almohade
almohades
almora
almost
almudena
almuerzu
alo
aloe
alone
along
alonso
alpes
alpha
alpi
alpina
alpine
alqueri
alquimia
alquisicio
alquisiciones
alredor
alrodiu
als
alsacia
also
alt
alta
altamente
altamira
altar
altares
alter
alteracio
alteraciones
alteria
alteriada
alteriar
alterna
alternando
alternanza
alternativa
alternativamente
alternative
alternatives
alternativos
alternativu
alternes
altes
alteza
altiplanu
altitu
altman
alto
altor
altores
altos
altu
altura
alu
alude
aludiendo
aluminiu
alumna
alumni
alumnos
alumnu
alusio
alva
alvar
alvarado
alvarez
alvaro
alvear
alveolar
alverbiu
alvertencia
alverti
alvertir
alves
alvierte
alvin
alvirtio
always
alxebraica
alxecires
alza
alzada
alzamientu
alzaos
alzar
alzase
alzheimer
alzo
am
ama
amacuro
amada
amadeo
amado
amador
amalia
amanda
amanecer
amanecida
amanita
amante
amantes
amar
amaranthus
amarellenta
amarellentada
amarellentaes
amargosa
amargosu
amaruta
amarutes
amateur
amateurs
amaya
amazing
amazo
amazon
amazonas
amazones
amazonia
amb
amber
amberes
ambicio
ambiciones
ambiciosu
ambienta
ambientada
ambiental
ambientales
ambiente
ambientes
ambigu
ambigua
ambos
ambrosio
ambura
amburar
amc
ame
amelia
amellera
amena
amenaces
amenacia
amenaciaes
amenaciar
amenacio
amenaza
amenazada
amenazaes
amenhotep
ameno
amenorga
amenorgada
amenorgaes
amenorgamientu
amenorgando
amenorgaos
amenorgar
amenorgaron
amenorgase
amenorgo
amenorguen
amente
amer
america
american
americana
americanes
americano
americanos
americans
americanu
americas
ames
amesta
amestada
amestaes
amestando
amestaos
amestar
amesto
ametralladora
ametralladores
ameyora
ameyorada
ameyoramientu
ameyorando
ameyorar
ameyoraron
ameyoro
ami
amie
amiens
amientu
amiesta
amiestes
amiestos
amiestu
amieva
amiga
amigos
amigu
amigues
amin
aminoa
amista
amistaes
amistosos
amistosu
amlo
amnisti
amo
amoblamientu
amodo
among
amoniacu
amonta
amontando
amontar
amonto
amor
amore
amores
amorosa
amorosu
amos
amosa
amosaba
amosaben
amosando
amosar
amosaron
amosase
amoso
amour
amparo
amparu
ampli
amplia
ampliacio
ampliaciones
ampliada
ampliando
ampliar
amplies
amplio
amplios
amplitu
ampliu
amr
amsterdam
amu
amue
amuesa
amuesen
amueses
amur
amy
an
ana
anagrama
anahi
anais
anakin
anal
anali
analises
analista
analistes
analiza
analizar
analizo
analo
analoxi
analxe
analysis
anaranxa
anarqui
anarquismu
anarquista
anarquistes
anastasia
anastasio
anato
anatolia
anatomi
anatomy
anaya
anc
ances
ancestral
ancestrales
ancestros
ancestru
ancestry
ancha
anches
anchor
anchos
anchu
ancient
ancona
and
anda
andadura
andaluces
andaluci
andalucia
andalus
andalusi
andaluz
andaluza
andar
ande
andecha
anders
andersen
anderson
andes
andi
andina
andines
ando
andorra
andrade
andre
andrea
andreas
andreu
andrew
andrews
andro
android
andromedae
andy
ane
anemia
anes
anexo
anexona
anexos
anexu
anfibios
anfiteatru
anfitrio
anfitriona
anfitriones
ange
angel
angela
angeles
angelica
angelina
angelo
angels
angiosperm
angkor
angle
anglicana
anglo
anglosaxo
anglosaxona
anglosaxones
anglu
angola
angostura
angu
anguan
angular
angulo
angus
angustifolia
ani
anicia
aniciada
aniciando
aniciar
anicien
anicio
aniciu
aniellos
aniellu
anima
animacio
animaciones
animada
animaes
animal
animales
animals
animaos
animar
animated
animation
anime
animo
anita
aniversariu
anjou
ankara
ann
anna
annales
annals
anne
annette
annie
anniversary
anno
annotated
announce
announced
announces
annual
ano
anomali
anonymous
anos
anota
anotacio
anotaciones
anotador
anotando
anotaos
anotar
another
anoto
anova
anovables
anovada
anovar
anovo
anque
ans
anse
anselmo
ansieda
ant
anta
antagonista
antan
antarctic
antarctica
ante
antecedente
antecedentes
antecesor
antecesores
antena
antenes
antepar
antepasa
antepasaos
antequera
anteres
anterior
anteriores
anteriorida
antes
anthony
anthos
anthropology
anti
antiae
antibio
anticonceutivos
anticuerpos
antigu
antigua
antiguo
antiguos
antiguu
antilles
antioqui
antioquia
antioxidantes
antiquity
antise
antisemitismu
anto
antofagasta
antoine
antoloxi
anton
antoni
antonia
antonieta
antonino
antonio
antoniu
antorcha
antoxana
antropo
antropolo
antropoloxi
antroxos
antroxu
anu
anuariu
anueva
anula
anulacio
anular
anulo
anuncia
anunciaba
anunciacio
anunciada
anunciando
anunciar
anunciaron
anuncien
anuncio
anuncios
anunciu
anv
anxospermes
any
anza
ao
aol
aos
aosta
ap
apa
apache
apaecen
apaecer
apaeceri
apaeci
apaeciendo
apaeciera
apaecieron
apaecio
apaez
apaga
apaicio
apaiciones
apangar
aparatos
aparatu
aparcamientu
aparente
aparentemente
aparentes
apareyamientu
aparicio
apariencia
aparques
aparta
apartamentos
apartamentu
aparte
apartheid
apasiona
ape
apelacio
apellativu
apelli
apenes
aperios
apertura
apes
apg
api
apical
apj
apjs
aplastante
apli
aplica
aplicable
aplicacio
aplicaciones
aplicada
aplicaes
aplicando
aplicaos
aplicar
aplicase
aplico
apliquen
apo
apocalipsis
apocaya
apodera
apoderaba
apoderada
apoderaes
apoderando
apoderaos
apoderar
apoderaron
apoderase
apoderen
apodero
apodiformes
apollo
apolmonante
apolo
apondera
aponderamientos
aponderamientu
aporta
aportacio
aportaciones
aportando
aportar
aportara
aportari
aportaron
aportase
aporto
aportuna
aportuno
aposta
apostada
apostaes
apostando
apostaos
apostar
apostaron
apostase
aposto
apostra
apoxe
app
apple
appleton
application
applications
applied
approach
apps
apr
apre
aprecia
apreciable
apreciada
apreciar
apreciase
apreciu
aprender
aprendi
aprendiendo
aprendio
aprendiz
aprendizaxe
apriende
april
aproba
aprobacio
aprobada
aprobaes
aprobaos
aprobar
aprobaron
aprobo
apropia
apropiacio
apropiada
aprosimao
aprove
aprovecha
aprovechamientu
aprovechando
aprovechar
aprovecharon
aprovecho
aprovir
aprox
aproximamientos
aproximamientu
aproximao
aprueba
aptitu
aptu
apu
apue
apuerta
apuerten
apuesta
apueste
apuesten
apuestes
apun
apunta
apuntar
apunten
apuntes
apunto
apurra
apurras
apurre
apurren
apurri
apurrida
apurrie
apurriendo
apurriera
apurrieron
apurrio
apurrir
apurriri
apweb
aq
aquaman
aquarii
aque
aquel
aquella
aquelles
aquello
aquellos
aqueme
aqui
aquila
aquilae
aquiles
aquino
aquisgra
aquitania
ar
ara
arab
arabia
arabic
arafat
arago
aragon
aragone
aragonesa
aragoneses
aral
aralar
arame
aran
arana
aranceles
aranda
arango
arau
arawak
arbitraxe
arbo
arbolea
arbor
arbustos
arbustu
arc
arca
arcade
arcadia
arcaica
arcaicu
arce
arch
archaeological
archaeology
archaeopteryx
archibald
archidio
archiduque
archie
archipie
architecture
archiva
archivada
archivado
archive
archived
archives
archivio
archivo
archivos
archivu
arciprestalgu
arco
arcos
arctic
arcu
arda
arde
ardeola
are
area
areas
arellano
aren
arena
arenal
arenas
arendt
arenisca
arenosos
arequipa
ares
aresta
arestes
arg
argan
argentina
argentino
argo
argos
argu
argumenta
argumentando
argumenten
argumento
argumentos
argumentu
arguyosu
arguyu
ari
aria
ariana
arias
arica
ariel
aries
aristo
aristocra
aristocracia
aristolochia
aristote
aritme
ariz
arizona
arjona
ark
arkansas
arlanza
arlington
arma
armada
armadura
armadures
armaes
armamentu
armand
armando
armani
armaos
armar
armariu
armas
arme
armed
armenia
armenian
armenios
armeniu
armes
armin
armisticiu
armor
arms
armstrong
armun
army
arn
arnaldo
arne
arnold
arol
aron
aros
around
arpa
arqueo
arqueolo
arqueoloxi
arqueros
arqueru
arques
arquette
arqui
arquitecto
arquitectura
arquiteuto
arquiteutos
arquiteutu
arquiteutura
arrama
arrampun
arranque
array
arreglos
arreglu
arrenuncia
arrenunciar
arrenuncio
arrenunciu
arresta
arrestaos
arrestu
arrexunta
arrexuntaes
arrexuntaos
arrexuntar
arrexunten
arrexunto
arreya
arreyada
arreyaes
arreyaos
arreyar
arreyen
arreyo
arriba
arribacio
arriendes
arriendu
arrinca
arrincar
arriquecimientu
arrobinar
arrodia
arrodiada
arrodiaes
arrodiando
arrodiaos
arrodiar
arrodien
arrogancia
arrogante
arronda
arrondada
arrondaes
arrow
arroyo
arroz
ars
arse
arsenal
art
arte
artefautos
artemisa
artemisia
arteria
arterial
arteries
arteru
artes
artesanal
artesanales
artesani
artesanos
artesonado
arthur
arti
article
articleid
articles
articula
articulacio
articulaciones
articular
articulo
articulos
artificial
artificiales
artigas
artilleri
artist
artista
artistes
artists
artois
artritis
artro
arts
artu
arturo
aru
aruba
arume
arumes
arumoses
arvensis
arxel
arxeli
arxelia
arxenti
arxentina
arxentines
arxentino
arxentinos
arxiv
arzobispa
arzobispos
arzobispu
as
asa
asaltos
asaltu
asamblea
asamblees
ascendencia
ascendente
ascendentes
ascensio
ascensor
ascensos
ascensu
ascher
ase
asediu
asegura
aseguraba
asegurando
asegurar
asegurase
aseguren
aseguro
aselar
aselu
aseme
asemeya
asemeyada
asemeyaes
asemeyaos
asemeyar
asentamientos
asentamientu
asesi
asesina
asesinada
asesinaos
asesinar
asesinatos
asesinatu
asesino
asesinos
asesor
asesora
asesoramientu
asesores
asesori
asfaltu
ash
ashley
ashton
asi
asia
asian
asientos
asientu
asigna
asignacio
asignada
asignaos
asignar
asignatura
asigno
asilu
asime
asimilacio
asimov
asina
asiria
asirios
asisten
asistencia
asistencies
asistente
asistentes
asisti
asistiendo
asistieron
asistio
asistir
asitia
asitiaba
asitiada
asitiaes
asitiando
asitiaos
asitiar
asitiaron
asitiase
asitien
asitio
ask
asma
asoce
asoceda
asocede
asoceden
asoceder
asocederi
asocedi
asocedida
asocedie
asocediendo
asocediera
asocedieron
asocedio
asocia
asociacio
asociaciones
asociada
asociaos
asoleya
asoleyo
asonsan
asp
aspects
asperger
aspeutos
aspeutu
aspira
aspiracio
aspiraciones
aspirante
aspirantes
aspru
aspx
assam
assange
assembly
assessment
associacio
associated
associates
association
associations
ast
astana
aste
astencio
asteraceae
asteracees
asteroide
asteroides
aston
astorga
astra
astracta
astractu
astragalus
astrinxente
astro
astrofi
astroloxi
astronauta
astronautes
astrono
astronomi
astronomical
astronomische
astronomy
astrophysical
astrophysics
astru
astur
asturiana
asturianes
asturiano
asturianos
asturianu
asturias
asturies
asume
asumi
asumiendo
asumiera
asumio
asumir
asuncio
asuntos
asuntu
at
ata
ataca
atacada
atacama
atacando
atacante
atacantes
atacaos
atacar
atacaron
ataco
atahualpa
atapecer
ataque
ataquen
ataques
atari
atau
ataya
atayada
atayante
atayaos
atayar
atayo
ate
atencio
atender
atendi
atendiendo
atene
atenea
atenes
ateniense
atenienses
atenta
atentaos
aterrizar
aterrizaxe
aterrizo
atestigu
atestigua
athens
athletic
athletics
ati
atiende
atkins
atkinson
atl
atla
atlanta
atlantic
atlantis
atlas
atle
atles
atleta
atletes
atletismu
atmo
atmosfe
atmospheric
ato
atolo
atomic
atopa
atopaba
atopaben
atopada
atopaes
atopamos
atopando
atopaos
atopar
atopara
atopari
atoparon
atopase
atope
atopen
atopo
atp
atra
atraen
atraer
atrai
atraicio
atraiciones
atrapa
atrapaos
atrapar
atraxo
atrayendo
atribu
atribucio
atribuciones
atributos
atributu
atribuyi
atribuyida
atribuyir
atribuyo
atriu
atropa
atropando
atropar
atropo
attack
attacks
attelabidae
atu
au
aube
aubin
auckland
aude
audi
audicio
audiciones
audiencia
audiencies
audiovisual
audiovisuales
auditoriu
audiu
audrey
audubon
auf
aug
auge
augsburgu
august
augusta
auguste
augustin
augusto
augustu
augustus
auk
aula
aules
aumenta
aumentaba
aumentada
aumentando
aumentar
aumentara
aumentaron
aumenten
aumento
aumentos
aumentu
aun
aura
aurea
aureliano
aurelio
auri
aurigae
aurora
aus
auschwitz
ausencia
ausente
ausentes
austen
austerida
austin
austral
australia
australian
australiana
australianes
australianos
australianu
australis
austria
austriaca
austriacos
austriacu
austrohu
aut
aute
autenticida
author
authorities
authority
authors
authorsearch
autismu
auto
autobiogra
autobiografi
autobiography
autobu
autobuses
autodefensa
autodeterminacio
autodidacta
autoestima
autogobiernu
automa
automo
automovili
automovilismu
autono
autonomi
autopista
autopistes
autopsia
autor
autora
autores
autori
autorida
autoridaes
autoritariu
autoriza
autorizacio
autorizada
autorizaos
autorizar
autorizo
autorretratu
autos
autovi
autu
autumn
auvernia
aux
auxiliar
auxiliares
auxiliu
av
ava
available
avant
avanza
avanzaba
avanzada
avanzaes
avanzando
avanzaos
avanzar
avanzaron
avanzo
avatar
ave
avec
avellaneda
avena
avengers
aveni
avenida
aventura
aventureru
aventures
avenue
avera
averada
averar
averase
avero
avery
aves
aveza
avezada
avi
aviacio
avian
aviation
avibase
avientu
aviesu
avieyamientu
avifauna
avignon
avile
avio
aviones
avis
avisu
aviv
avn
awai
award
awards
away
axacente
axacentes
axedrez
axel
axencia
axencies
axenda
axente
axentes
axetivos
axetivu
axial
axilares
axoma
axomes
axu
axudica
axudico
axunta
axuntaba
axuntando
axuntaos
axuntar
axuntaron
axuntase
axunten
axunto
axuntu
axusta
axustar
axuste
axustes
axusto
ay
aya
ayacucho
ayala
ayalga
ayalgues
ayena
ayenes
ayenos
ayenu
ayer
ayeri
ayu
ayuda
ayudando
ayudante
ayudantes
ayudar
ayudaron
ayuden
ayudes
ayudo
ayuntamiento
ayuntamientu
ayunu
az
aza
azar
azarenka
azca
azerbaixa
azerbaixanu
azeri
azevedo
aznar
azores
azteca
azteques
azucre
azucres
azufre
azul
azula
azulada
azules
azur
aɾ
b
ba
bab
baba
babe
babilonia
bable
baby
bac
bacala
bach
bachelet
bachelor
bachiller
bachilleratu
back
background
baco
bacon
bacteria
bacteriana
bacteries
bad
badayoz
badea
badees
baden
bados
badu
bae
baekje
baeza
bafta
baga
bagdag
bagues
bah
baha
bahames
bahi
bahia
bai
bailey
baill
bailla
baillando
baillar
baillari
baillarina
baillarinos
baille
bailles
baillie
bains
baji
bajo
baker
bakr
baku
bal
bala
balada
balaes
balaguer
balance
balanza
balca
balcanes
balco
balcones
baldi
balduino
baldwin
bale
balear
baleares
bales
bali
ball
ballena
ballenes
ballesteros
ballet
balneariu
balo
balompie
baloncestu
balonmano
balsa
balta
baltada
baltadera
baltar
baltasar
baltes
baltimore
balto
balu
baluarte
bambu
bamos
ban
bana
banana
banca
bancaria
bancaries
bancariu
bancarrota
banco
bancos
bancu
band
banda
bandaes
bandera
banderaatletacoi
banderes
bandes
bandi
bandos
bandu
banduyu
banes
bang
bangkok
bangladesh
bangladex
banjo
bank
banks
banner
bannon
banos
banqueru
banqui
bantu
banu
banza
banzaos
baptiste
bar
bara
barack
barajas
barakaldo
barata
baratos
baratu
barba
barbablanca
barbados
barbara
barber
barbosa
barbuda
barc
barca
barcelona
barcelone
barco
barcos
barcu
bardem
bari
barillas
bariu
barker
barnes
barney
baro
baroja
baron
barones
baroni
barra
barrada
barral
barranquilla
barre
barrera
barreres
barres
barrett
barri
barriga
barriles
barrio
barrios
barriu
barroca
barrocos
barrocu
barros
barroso
barruntos
barruntu
barry
barrymore
bart
barthe
bartolome
barton
bas
basa
basada
basadre
basaes
basal
basales
basaos
basar
basase
base
baseball
based
basen
bases
basi
basic
basil
basilea
basilio
basin
basis
basket
basketball
baso
basque
bass
basta
bastante
bastantes
bastardu
bastia
bastian
bastien
bastio
basura
bat
bata
batalla
batalles
batallo
batallones
batasuna
bate
bateo
bater
bateri
bates
bati
batio
batista
batlle
batman
battista
battle
baturiciu
baudot
bauer
bauhaus
bautismal
bautismu
bautista
bautiza
bautizada
bautizo
baviera
baxa
baxaba
baxada
baxando
baxar
baxaron
baxen
baxes
baxista
baxo
baxos
baxter
baxu
bay
bayer
bayern
bayes
bayona
bayura
baza
bazcuya
bazcuyen
baɾ
bb
bbc
bbva
bc
bce
bd
bdfa
bdfutbol
bditos
bdsm
be
beach
beagle
bean
bear
bears
beas
beast
beat
beatles
beatrice
beatriz
beatu
beau
beaufort
beaumont
beautiful
beauty
bebe
beber
bebi
bebida
bec
beca
becaria
because
beck
becker
beckett
become
becomes
beda
bee
been
beer
beethoven
before
begin
beginning
begins
begon
behavior
behaviour
behind
bei
beijing
being
beirut
beixi
bel
bele
belfast
belfort
belga
belgra
belgrano
belgues
belice
believe
belisario
belize
bell
bella
belle
belles
bellini
bello
bellos
bellu
belmonte
belo
belt
beltra
beltsville
belxicanu
ben
benavente
benavides
bender
bendicio
bene
benedict
benedicti
benedicto
beneficencia
beneficia
beneficiar
beneficio
beneficios
beneficiu
benevento
benfica
bengala
bengali
beni
benignu
benito
benitu
benjami
benjamin
bennett
benny
benoi
bense
benson
benth
bentley
benz
beques
ber
bera
bereber
bereberes
berenguer
berenice
berg
bergen
berger
bergman
bering
berkeley
berli
berlin
bermejo
bermeya
bermeyu
bermu
bermudes
berna
bernabe
bernal
bernaldo
bernard
bernardino
bernardo
bernhard
bernie
bernis
bernstein
beros
berros
berru
berry
bert
berta
bertha
bertrand
beru
besanc
bese
best
bestia
besties
besu
bet
beta
beth
betis
bette
better
betty
betula
between
beverly
bey
beyonce
beyond
bf
bgcolor
bi
bian
bianchi
bib
bibcode
bible
biblia
bibliogra
bibliografi
bibliography
biblioteca
biblioteques
bibliothe
bibliotheca
bic
bica
bicameral
bicentenariu
bicicleta
bicicletes
bico
bicolor
bicos
bicu
bid
bie
bieber
bielorrusa
bielorrusia
bielorrusu
bielsa
bien
bienal
bienes
bienestar
bienveni
bienvenida
bierzo
bierzu
big
biga
biggest
bigote
bil
bilbao
bildu
biles
bill
billateral
billaterales
billboard
billete
billetes
billie
billingu
billion
billones
billy
biltos
biltu
bimenes
bin
binaria
binaries
binarios
binariu
binary
bing
binomial
bio
biodiversida
biodiversity
biogeography
biogra
biografi
biografia
biographical
biographie
biographies
biography
biol
biolib
biolo
biological
biology
bioloxi
biome
bioqui
biosfera
bioteunoloxi
bipolar
biques
bird
birdlife
birds
birmania
birmanu
birmingham
birth
birthday
bis
bisa
bisagu
bisarma
bisarmes
bisexual
bisexuales
bishop
bismarck
bit
bita
bitat
bitats
bitcoin
bits
bitstream
biz
bizanciu
bizanti
bizantina
bizantines
bizantinos
bizet
bizkaia
bjo
bl
bla
black
blackberry
blackburn
blackwell
blade
blair
blake
blanc
blanca
blancanieves
blanche
blanco
blancos
blancu
blanques
blas
blasco
blase
blaso
blast
blazers
ble
bleach
bles
blica
blicamente
blico
blicos
blicu
blind
blindaos
bliques
blizzard
bloc
block
blog
blogs
blogspot
blogue
blois
blonde
blood
bloom
bloomberg
bloque
bloques
bloquia
bloquiar
blu
blue
blues
bluetooth
blume
bm
bmatrix
bmg
bmw
bne
bner
bnf
bng
bo
boa
board
boat
bob
bobby
boca
bocetos
boda
bodega
bodegues
bodes
body
boe
boeing
bogota
bohemia
bohr
boi
boico
bois
boisduval
boiss
bol
bola
bolan
bole
boles
boleti
boli
bolivar
bolivariana
bolivia
boliviana
bolivianu
bologna
bolon
bolonia
bolos
bolsa
bolses
bolsu
bolt
bolton
bolxevique
bolxeviques
bomb
bomba
bombarde
bombardeos
bombarderos
bombarderu
bombay
bomberos
bombes
bombu
bon
bona
bonal
bonalmente
bonanza
bonaparte
bonaventura
bond
bonda
bone
bones
bonet
bonifacio
bonilla
bonn
bonnet
bonnie
bono
bonos
bonu
bonus
boo
boogie
book
booker
books
boom
booth
bootis
bopa
bora
borbo
borbones
borda
border
borderline
bordia
bordu
boreal
borealis
bores
borg
borges
borgia
borgon
bori
boris
borja
born
borneo
borough
borra
borrador
borrar
borrina
borussia
bosch
bosco
bose
bosnia
bosque
boss
boston
bot
bota
botanic
botanica
botanical
botanique
botanist
botany
bote
botella
botelles
botes
both
boti
boto
botones
botsuana
boudou
boulevard
boulogne
bound
bourg
bow
bowie
bowl
box
boxe
boxeador
boxing
boxofficemojo
boy
boyaca
boyd
boyer
boyle
boys
bp
br
bra
brabante
brabham
brace
brad
bradford
bradley
brady
braga
braganza
brahms
brain
bran
branch
branco
brand
brandeburgu
brando
brandon
brands
brandt
brandy
braniza
branos
branu
brase
brasi
brasil
brasilana
brasilanos
brasilanu
brasileira
brasileiro
brasilia
brasiliensis
brassica
brassicaceae
bratislava
braun
brava
brave
bravo
bray
brazil
brazilian
brazos
brazu
bre
break
breaking
breaks
breeding
bremen
bremer
brenda
brendan
brennan
brense
brescia
brese
bresse
brest
bretagne
bretan
breto
breton
brett
brewster
bri
brian
brica
bricu
brida
bride
brides
bridge
bridges
bridos
bridu
brie
brief
brien
brigada
brigadier
brigaes
briggs
bright
brigitte
brill
brillante
brillantes
brillosa
brilloses
brillosos
brillosu
brinda
brindar
brindo
bring
brio
briques
brisbane
bristol
brit
brita
britain
britania
britannica
british
britney
brito
brittany
britton
broad
broadcast
broadcasting
broadway
brock
brockhaus
broken
bronce
broncho
bronquitis
bronte
bronx
brook
brooke
brooklyn
brooks
bros
brother
brothers
brown
browne
browser
bru
bruce
brune
bruno
brunswick
brutal
brutu
bruxa
bruxeles
bruxeri
bruxes
bruxu
bryan
bryant
bryce
bs
bsc
bside
bt
bu
bual
buble
bubo
bucal
buce
buchanan
buck
buckingham
bucuresti
bud
buda
budapest
buddy
budismu
budista
budistes
buecos
buecu
buelga
buelgues
bueno
buenos
buffalo
buggy
build
building
bula
bulbu
bulbul
bulda
bules
bulgaria
bull
bulletin
bullock
bulls
bulos
bultable
bultables
bulu
bun
bunbury
bundesliga
bunny
buque
buques
burbank
burbuya
burbuyes
burdeos
bureau
bureba
burger
burgos
burgue
burguesa
burgueses
burguesi
burguiba
burke
burkina
burlesque
burlla
burn
burnett
burning
burns
buro
burocra
burocracia
burr
bursa
burt
burton
burundi
bus
busca
buscaba
buscaben
buscando
buscar
buscaron
buscatextual
buscemi
busch
busco
bush
business
busquen
busques
bustamante
busto
bustos
bustu
but
buta
butler
butterflies
butterfly
button
buxu
buzz
by
bye
byron
c
ca
cab
cabalgata
caballeri
caballero
caballeros
caballeru
caballos
caballu
caban
cabanillas
cabare
cabecera
cabeceres
cabeces
cabello
cabera
caberos
caberu
cabeza
cabezaleros
cabezaleru
cabezo
cabida
cabildru
cabina
cable
cables
cabo
cabos
cabra
cabral
cabrales
cabranes
cabrera
cabres
cabri
cabu
caca
cacatu
caceri
caces
cachos
cachu
caci
cacique
cactus
cada
cadabre
cadabres
cadarma
cadarmes
cade
cadena
cadenes
caderalgu
cades
cadete
cadetes
cadillac
cadril
caducifolios
caducifoliu
caen
caesar
caf
cafe
cafei
cafeteri
cafiante
cage
cagliari
cai
caima
cairo
cairu
cais
caixa
caja
cajamarca
cal
cala
calabaza
calabria
calahorra
calais
calamar
calandria
calatayud
calatrava
calce
calcio
calciu
calcu
calcula
calculadora
calcular
calculo
calcuta
caldas
caldera
caldero
caldu
caldwell
cale
calecer
caledonia
calendar
calendariu
calentamientu
caleta
caleyeru
caleyo
calgary
cali
caliar
caliares
calibre
calida
calidable
caliente
calientes
calif
califa
califatu
califica
calificacio
calificaciones
calificada
calificar
califico
california
caligrafi
call
callao
callar
calle
called
calleja
callejas
calles
calls
calo
calor
calori
calorosos
calorosu
calpe
caltendri
caltener
caltenese
caltenga
calteni
caltenida
caltenie
calteniendo
caltenimientu
calter
calteres
caltie
caltienen
caltu
caltuvie
caltuviera
caltuvieron
caltuvo
calvados
calvariu
calvia
calvin
calvo
calza
calzada
cam
cama
camacho
camaro
cambe
cambeos
cambio
camboya
cambridge
came
cameo
camera
cameron
cameros
cameru
cames
cami
camila
camille
camilo
caminando
caminar
camino
caminos
camio
camiones
camisa
camises
camiseta
camisetes
camp
campa
campaign
campamentos
campamentu
campan
campana
campanariu
campanes
campania
campanula
camparina
camparines
campbell
campeche
campeo
campeona
campeonatos
campeonatu
campeones
campephagidae
campera
camperes
campesinado
campestre
campillo
campo
campoamor
campoo
campos
campu
campus
campusantos
campusantu
camuda
camudando
camudar
camudara
camudari
camudaron
camudase
camuden
camudo
camus
can
cana
canada
canadensis
canadian
canadiana
canadianu
canadiense
canadienses
canal
canales
canaria
canaries
canarios
canariu
canasta
canberra
cancela
cancelacio
cancer
cancha
canches
canciller
cancilleri
cancio
canciones
cancri
cancu
canda
candamu
candelaria
candia
candidata
candidate
candidates
candidatos
candidatu
candidatura
candidatures
candolle
candy
canela
canesba
canesbes
cangas
cangues
cani
canis
cannabis
cannes
cannon
cano
canon
canos
cansa
cansanciu
canta
cantaba
cantabria
cantada
cantal
cantando
cantante
cantantes
cantar
cantares
cantautor
cantautora
canten
cantera
canterbury
canteres
canteri
cantida
cantidaes
cantil
cantiles
canto
cantones
cantor
cantos
cantu
canum
canyon
cao
caos
cap
capa
capaces
capacida
capacidaes
capacitacio
capadocia
caparina
caparines
capaz
capcom
cape
capella
capensis
capes
capi
capiella
capilla
capita
capital
capitales
capitalismu
capitalista
capitalistes
capitalizacio
capitana
capitanes
capitani
capitel
capiteles
capitol
capitoliu
capitulacio
capitular
capiya
capiyes
capo
capra
caprimulxiformes
captacio
captain
captar
captura
captures
car
cara
carabidae
caracas
caracol
caracteri
caractericen
caracteriza
caracterizo
caraques
carauteri
carauteriza
carauterizacio
carauterizada
carauterizaos
carauterizar
caravaggio
caravana
carba
carbayeda
carbayos
carbayu
carbes
carbo
carbohidratos
carbon
carbonatu
carbonell
carboni
carbonu
card
cardenal
cardenales
cardiaca
cardiacu
cardiff
cardinal
cardinales
cardiovascular
cardona
cardoso
cardu
carduelis
care
carecen
carecer
careci
carecio
career
carente
cares
carex
carey
carez
carga
cargada
cargaes
cargaos
cargar
cargo
cargos
cargu
cargues
cari
caribbean
caribe
cariben
carida
carin
carinae
carintia
carisma
carl
carla
carles
carleton
carlista
carlistes
carlo
carlomagno
carlos
carlota
carme
carmelites
carmelo
carmen
carmona
carne
carnegie
carnes
carni
caro
carol
carolina
caroline
carolinxu
carolyn
caros
carpa
carpelos
carpenter
carpinteri
carpinteru
carpio
carr
carranza
carrasco
carren
carrera
carreres
carretera
carreteres
carrie
carril
carriles
carrillo
carrio
carroceri
carroll
carron
carros
carru
cars
carson
carta
cartafueyos
cartagena
cartago
cartaxena
cartaxineses
cartelos
cartelu
carter
cartera
cartes
carto
cartografi
cartoon
cartuchos
cartuchu
caru
carvajal
carvalho
cary
cas
casa
casablanca
casada
casado
casal
casanova
casaos
casar
casares
casas
casase
cascada
cascaes
cascos
cascoxos
cascoxu
cascu
case
caseri
caseros
cases
casey
cash
casi
casillas
casimiro
casino
casio
caso
casona
casones
casoriu
casos
caspiu
cassidy
cassini
cassiopeiae
cast
casta
castalla
castan
castella
castellana
castellanes
castellano
castellanos
castellanu
castello
castelo
castes
castielfabib
castiella
castiellos
castiellu
castiga
castigar
castigos
castigu
castilla
castillejo
castillo
casting
castle
castor
castrillo
castro
castropol
castros
castru
casu
casual
casualida
cat
cata
catala
catalana
catalanes
catalans
catalina
catalizador
catalog
cataloga
catalogada
catalogo
catalogue
catalogueoflife
catalun
catalunya
catamarca
catarina
catastro
catastru
catch
cate
catecismu
catedra
catedral
catedrales
categori
category
caterina
catherine
catholic
cathy
catid
cato
catolicismu
catorce
cau
cauca
cauchu
caudal
caudales
caudiellos
caudiellu
causa
causada
causaes
causando
causante
causaos
causar
causaron
cause
causen
causes
causo
cautiverio
cautivida
cautivos
cav
cava
cave
cavendish
caxa
caxes
caxmir
caya
cayen
cayendo
cayente
cayer
cayera
cayeri
cayeron
cayetano
cayi
cayida
cayo
cayuela
caza
cazador
cazadores
cazar
cazenave
cazu
cazumbre
cb
cbc
cbs
cc
cctld
cd
cdc
cdot
cdotes
cdots
cds
cdsads
cdu
ce
cea
ceas
cebada
ceballos
cebera
ceberes
cebolla
cebu
cecil
cecilia
cedru
cee
cees
ceguera
ceiba
ceila
cela
celda
celdes
cele
celebra
celebraba
celebraben
celebracio
celebraciones
celebrada
celebraes
celebrando
celebraos
celebrar
celebraron
celebrase
celebren
celebrida
celebridaes
celebrities
celebrity
celebro
celebru
celeste
celestes
celestial
celestino
celia
celiac
celiaca
cell
cells
celos
celta
celtes
celti
celtic
celtics
celu
celular
celulares
celulosa
cementu
cen
cena
cenar
cencellez
cenciellamente
cencielles
cenices
cenicienta
ceniza
censaos
cense
censo
censos
censu
censura
census
cent
centaurea
centauri
centavos
cente
centenar
centenares
centenariu
centenu
center
centi
centra
centrada
central
centrales
centraliza
centrar
centrase
centre
centri
centro
centroafricana
centroame
centroamericana
centroamericanos
centroamericanu
centros
centru
centuria
centuries
century
ceo
ceos
cepa
cepeda
cepes
cephei
cer
cera
cerati
cerca
cercada
cercana
cercanes
cercani
cercanos
cercanu
cercos
cercu
cerda
cerden
cerebral
cerebrales
ceremonia
ceremonial
ceremonies
ceremony
ceres
cerezo
cero
ceros
cerra
cerrada
cerrando
cerrar
cerrato
cerro
certain
certame
certidume
certifica
certificacio
certificaos
cervantes
cervera
cerveza
ces
cesa
cesar
cesara
cesarea
cese
cesio
cesis
ceso
cesta
ceta
ceti
cetru
cetus
ceuta
cf
cfcfff
cfm
cfr
cfrac
cgi
cgt
ch
cha
chacas
chaco
chad
chain
chalif
challenge
challenger
cham
chamber
chamberlain
chambers
champ
champagne
champion
champions
championship
championships
champs
chan
chance
chancia
chandler
chandra
chanel
chang
change
changes
changing
channel
channing
chantal
chao
chaos
chapel
chapelle
chaplin
chapman
chapter
char
character
characteristics
characters
charente
charity
charles
charlie
charlotte
charm
charra
charranes
charres
charro
charru
chart
charts
chase
chat
chaves
chavo
che
checa
check
checklist
checos
checoslovaquia
checu
chef
chelsea
chem
chemical
chemistry
chen
cheng
chenopodium
cher
cherno
cherry
cheryl
chester
chevrolet
cheyenne
chez
chi
chiang
chiapas
chiara
chiba
chica
chicago
chicu
chief
chigre
chigres
chihuahua
child
childhood
children
chile
chilena
chilenes
chilenos
chilenu
chiloe
chimenea
chin
china
chinchilla
chinensis
chines
chinese
ching
chino
chinos
chinu
chip
chips
chloe
cho
chocolate
choi
choice
chola
chopper
choque
choques
chorizu
chris
christ
christensen
christi
christian
christiane
christie
christina
christine
christmas
christoph
christophe
christopher
christy
chrome
chronicle
chronicles
chronology
chrysler
chu
chuck
chueca
chun
chung
chuquisaca
church
churchill
ci
cia
ciase
cicero
ciclismo
ciclismu
ciclista
ciclistes
ciclo
ciclones
ciclos
ciclu
cicu
cid
cida
cides
cido
cidob
cidos
cidu
cie
ciega
ciegos
ciegu
cielos
cielu
cien
ciencia
ciencies
cienfuegos
ciense
cienti
cientos
cientu
cierra
cierta
ciertes
cierto
ciertos
ciertu
cies
cifra
cifres
cifuentes
cigu
cija
cil
ciles
cili
cilicia
cilindrada
cilindros
cilindru
cilmente
cima
cime
cimera
cimeres
cimero
cimeros
cimeru
cimientos
cimu
cin
cinc
cinca
cincinnati
cinco
cincuenta
cindy
cine
cineasta
cineastes
cinema
cinematogra
cinematografi
cinenacional
cines
cinnyris
cinta
cintes
cintura
cinturo
cio
cipriano
circ
circa
circle
circu
circuitos
circuitu
circula
circulacio
circular
circulares
circulen
circuncisio
circundante
circundantes
circunferencia
circunscripcio
circunscripciones
circunstancia
circunstancies
circus
ciri
cirilo
ciro
cirque
ciruxanu
ciruxi
cis
cisma
cisne
cisneros
cisnes
cit
cita
citada
citaes
citamente
citando
citaos
citar
citase
cite
citen
cites
cities
citizen
cito
citoloxi
citoplasma
citroe
citrus
citu
city
ciuda
ciudad
ciudadana
ciudadani
ciudadanos
ciudadanu
ciudadela
ciudaes
civic
civil
civiles
civilizacio
civilizaciones
civilization
cixordania
ck
cken
cl
cla
clado
claims
clair
claire
clan
clandestina
clandestinida
clanes
clapton
clara
claramente
clare
clarence
clarendon
clares
clari
clarida
clarin
clarinete
clark
clarke
claro
claros
claru
clas
clase
clases
clash
clasicismu
clasifi
clasifica
clasificacio
clasificaciones
clasificada
clasificaes
clasificaos
clasificar
clasificase
clasifico
clasifiquen
class
classes
classic
classical
classics
classification
claude
claudia
claudio
claus
clausa
clauses
claustru
clausura
clave
claves
clay
clayton
cle
clean
clement
clemente
clements
cleopatra
clermont
cleru
cles
cleveland
cli
clica
cliff
clifford
clima
climate
climatolo
climes
clin
clinical
clint
clinton
clio
clip
clive
clock
clones
clooney
cloru
cloruru
close
closer
clotilde
cloud
club
clubes
cluster
clusters
clyde
cm
cmd
cms
cn
cnc
cnn
cnpq
cnt
co
coach
coahuila
coalicio
coast
coastal
coautora
cobain
cobarde
cobb
cobertoria
cobiss
cobos
cobra
cobrar
cobre
cobro
cobru
coca
cocai
coccio
cochabamba
coche
coches
cochrane
coci
cociente
cocimientu
cocina
cocinar
cocines
coco
cocos
cocu
code
codex
codificacio
codigo
cody
coe
coeficiente
coeficientes
coelho
coen
cofundador
cognitiva
cognitivu
cogorda
cogordes
cohen
coherencia
coherente
cohesio
cohete
cohetes
coi
coimbra
coincide
coinciden
coincidencia
coincidi
coincidiendo
coincidio
coincidir
col
cola
colapsu
colar
colaron
colas
colase
cold
coldplay
coldu
cole
colectivamente
colega
colegues
coleicio
coleiciones
coleicionista
coleicionistes
coleman
coleo
coleoptera
coles
colesterol
coleutiva
coleutives
coleutivida
coleutivos
coleutivu
colexata
colexos
colexu
colgantes
colgar
coli
colibri
colin
colindantes
colise
coliseum
coll
colla
collabora
collaboracio
collaboraciones
collaborador
collaboradora
collaboradores
collaborando
collaborar
collaboraron
collaboro
collada
collar
colle
collecha
colleches
collecho
collected
collection
collections
college
collider
collins
collo
collora
colloraos
colo
coloma
colombia
colombiana
colombianos
colombianu
colombo
colon
colonia
colonial
coloniales
colonialismu
colonies
colonizacio
colonizadores
colonos
coloquial
coloquialmente
color
colora
coloracio
colorada
colorado
coloraes
colorao
coloraos
colores
colori
coloria
colories
colors
colos
colspan
colts
columba
columbia
columbiformes
columbus
columna
columnes
columnista
colunga
com
coma
comandada
comandado
comandancia
comandante
comandantes
comandos
comandu
comarca
comarcal
combadura
combalechadura
combat
combate
combates
combati
combatiendo
combatientes
combatio
combatir
combina
combinacio
combinaciones
combinada
combinaes
combinando
combinaos
combinar
combinen
combustible
combustibles
combustio
come
comedia
comediante
comedies
comedor
comedy
comen
comendador
comenenciudos
comenenciudu
comenta
comentarios
comentarista
comentaristes
comentariu
comento
comer
comercial
comerciales
comercializa
comercializacio
comercializar
comercialmente
comerciante
comerciantes
comerciar
comercio
comercios
comerciu
comes
comestible
comestibles
cometa
cometer
cometes
cometi
cometio
comfort
comi
comic
comicios
comics
comida
comiendo
coming
comisari
comisarios
comisariu
comisio
comisionado
comisiones
comite
comitiva
command
comment
commentary
commercial
commission
committee
common
commons
commonwealth
communication
communications
communis
communities
community
como
comodida
comoquier
comores
compa
compacta
compactu
compan
companies
companion
company
companys
compara
comparable
comparables
comparada
comparances
comparando
comparanza
comparar
comparativa
comparative
comparativu
comparison
comparo
comparte
comparten
comparti
compartida
compartiendo
compartio
compartir
compasio
compatibilida
compatible
compatibles
compatriota
compatriotes
compendiu
compensa
compensacio
compensar
competencia
competencies
competente
competicio
competiciones
competidor
competidores
competir
competition
competitiva
competitivida
competitivu
compilacio
compilation
compite
compiten
compitiendo
compitieron
compitio
complementa
complementar
complementaria
complementos
complementu
completa
completada
completando
completar
complete
completen
completes
completo
completos
completu
complex
complexa
complexes
complexida
complexos
complexu
complica
complicada
complutense
compo
componen
componente
componentes
componer
componi
comportamientos
comportamientu
composicio
composiciones
compositae
composition
compositor
compositora
compositores
compostela
compra
compradores
comprehensive
comprende
comprensio
compres
compresio
comprobar
comprobase
comprobo
comprometer
comprometi
comprometida
comprometio
compromi
compromisos
compromisu
compton
compuesta
compuestes
compuestos
compuestu
compunxo
computacio
computacional
computer
computing
comte
comu
comun
comunal
comunales
comunes
comuni
comunica
comunicacio
comunicaciones
comunicar
comunicase
comunico
comunida
comunidad
comunidaes
comunio
comuniquen
comunismu
comunista
comunistes
con
conabio
conan
conca
concacaf
conce
concebi
concebida
concebir
concede
conceder
concedi
concedida
concedie
concedio
concencia
concentra
concentracio
concentraciones
concentrada
concentraos
concentrar
concentrase
concentro
concepcio
concepciones
concept
concepts
conceptual
concert
concesio
concesiones
conceutos
conceutu
conceyal
conceyales
conceyos
conceyu
concha
conches
conchita
concibio
conciencia
conciertos
conciertu
conciliar
concilio
concilios
conciliu
concise
conclu
conclusio
conclusiones
concluyendo
concluyeron
concluyi
concluyida
concluyir
concluyo
concordanza
concorde
concordia
concreta
concretamente
concretar
concretes
concreto
concretos
concretu
concursante
concurso
concursos
concursu
conda
condal
condao
condaos
conde
condecora
condecoracio
condecoraciones
condena
condensacio
condensador
conderga
condergada
condergaos
condergar
condergo
condes
condesa
condestable
condicio
condiciona
condicional
condiciones
conditions
condor
conduccio
conducen
conduci
conducida
conduciendo
conducieron
conducio
conducir
conducta
conductes
conductivida
conductor
conductores
conductos
conductu
conduz
conecta
conecten
coneuta
coneutada
coneutaes
coneutaos
coneutar
conexo
conexones
coneyos
coneyu
confeccio
confederacio
confederaciones
confederaos
conference
conferencia
conferencies
confesio
confesiones
confeso
confi
confiar
confidencial
confier
configura
configuracio
confina
confio
confirma
confirmacio
confirmada
confirmando
confirmaos
confirmar
confirmaron
confirmed
confirmen
confirmo
confirms
conflict
conflictos
conflictu
conflu
confluencia
conforma
conformada
conformando
conformanza
conformar
conforme
conformen
conformida
conformo
confreri
confrontacio
confucio
confundi
confundir
confundise
confusa
conglomera
congo
congoxa
congregacio
congresista
congreso
congresos
congress
congresso
congresu
congu
coni
conicet
conmebol
conmemora
conmemoracio
conmemorar
conmemorativa
conmemorativo
conmigo
conmocio
connecticut
connection
connie
connor
connotaciones
cono
conocemos
conocen
conocencia
conocencies
conocer
conoceri
conocese
conoci
conocida
conocie
conociendo
conociera
conocieron
conocio
conomiques
conor
conos
conoz
conozse
conquest
conquista
conquistada
conquistador
conquistadores
conquistando
conquistaos
conquistar
conquistaron
conquistes
conquisto
conrad
conrado
cons
consagra
consagracio
consagrada
consagrar
consagro
consciencia
consciente
conscientes
conse
consecucio
consecuencia
consecuencies
consecuente
consecuentemente
consecutiva
consecutives
consecutivos
consecutivu
consen
consensu
consentimientu
consequences
conserva
conservador
conservadora
conservadores
conservadorismu
conservation
conservatoriu
conseyera
conseyeri
conseyeros
conseyeru
conseyos
conseyu
consi
conside
considera
consideraba
consideraben
considerable
considerablemente
considerables
considerada
consideraes
considerancia
considerancies
considerando
consideraos
considerar
consideraron
considerase
consideren
considero
consigo
consigue
consiguen
consigui
consiguida
consiguiendo
consiguiente
consiguiera
consiguieron
consiguilo
consiguio
consiguir
consiguiri
consiguise
consiste
consisten
consistencia
consistente
consistentes
consisti
consistio
consistorial
consistoriu
consola
consoles
consolida
consolidar
consolido
consona
consonante
consonantes
consorciu
consorte
conspiradores
consta
constaba
constance
constancia
constant
constante
constantes
constanti
constantine
constantino
constantinopla
constanza
constelacio
constelaciones
consten
constitu
constitucio
constitucional
constitucionales
constituciones
constitution
constituye
constituyendo
constituyente
constituyentes
constituyeron
constituyi
constituyida
constituyir
constituyise
constituyo
constru
construccio
construcciones
construction
constructor
constructores
construye
construyendo
construyera
construyeron
construyi
construyida
construyir
construyise
construyo
consuelo
consuelu
consula
consulta
consultada
consultao
consultar
consultase
consultes
consultivu
consultora
consume
consumi
consumidor
consumidores
consumir
consumu
contabilida
contact
contactos
contador
contaminacio
contaminantes
contautar
contauto
contautu
conte
contempla
contemplar
contemplase
contempora
contemporaneu
contemporary
contencio
contenedor
contenedores
contener
conteni
contenida
conteniendo
content
conteo
contesto
contestos
contestu
context
conti
contie
contienen
contigo
continental
continentales
continente
continentes
contingente
contingentes
continu
continua
continuacio
continues
continuida
continuo
continuos
continuu
continuum
contorna
contornes
contr
contra
contraataque
contrabandu
contract
contradiccio
contradicciones
contraer
contrafuertes
contraicio
contraparte
contraposicio
contrapuntu
contraria
contrariamente
contraries
contrario
contrarios
contrariu
contrarrelo
contrasen
contraste
contrastes
contrata
contratacio
contratada
contrataos
contratar
contrato
contratos
contratu
contraxo
contreras
contribu
contribucio
contribuciones
contribution
contributions
contribuyendo
contribuyeron
contribuyir
contribuyo
control
controla
controlaba
controlaben
controlada
controlador
controladores
controlaes
controlando
controlaos
controlar
controlen
controles
controlled
contundente
conu
conveicio
convencer
convenci
convencimientu
convencio
convencional
convencionales
convenciones
conveniencia
conveniente
convenios
conveniu
convention
conventos
conventu
conversacio
conversaciones
conversio
conversos
converten
converti
convertida
convertir
convertiri
convertise
converxencia
convida
convidada
convidaos
convidar
convido
convie
convien
convierte
convirtie
convirtiendo
convirtiera
convirtieron
convirtio
convivencia
convo
convoca
convocada
convocaos
convocar
convocatoria
convoco
convulsiones
conway
conxe
conxela
conxelacio
conxetura
conxugacio
conxuncio
conxunta
conxuntamente
conxuntos
conxuntu
cook
cooke
cool
cooper
cooperacio
cooperativa
cooperatives
coord
coordenaes
coordina
coordinacio
coordinador
coordinadora
coordinar
cop
copa
cope
copenh
copenhagen
copenhague
copes
copia
copies
coppola
coproduccio
copta
coptu
copyright
coquimbo
cor
cora
coraes
coral
corales
coraxe
corazo
corazones
corbally
cordal
cordales
cordero
corderu
cordobe
cordura
core
corea
coreana
coreanos
coreanu
coreo
coreografi
cores
corey
cori
coria
corina
corites
coritu
cork
cornelia
cornelio
cornelius
cornell
corner
cornisa
cornualles
coro
corola
corona
coronacio
coronada
coronae
coronar
coronavirus
coronel
corones
corono
coros
corp
corporacio
corporaciones
corporal
corporales
corporate
corporation
corporativa
corps
corpus
corral
corre
correa
corredor
corredores
correicio
correlacio
correo
correos
correr
correspondencia
corresponder
corresponderi
correspondi
correspondiente
correspondientes
correspondio
corresponsal
correspue
correspuende
correspuenden
correuta
correutamente
correutu
correxidor
correxir
corri
corrida
corriendo
corriente
corrientes
corrio
corrolada
corrolades
corrupcio
corsa
corsarios
corsu
corta
cortada
cortar
corte
cortes
cortesi
cortexu
corteya
corteza
cortil
cortiles
cortina
cortines
cortixu
corto
coru
corun
corvera
corvus
cory
cos
cosa
cosacos
coses
cosme
cosmo
cosmolo
cosmoloxi
cosmopolita
cosmos
cost
costa
costantemente
costar
costarricense
costazos
costazu
costello
costera
costeres
costeros
costeru
costes
costielles
costo
costos
costosa
costosu
costu
costume
costumes
cota
cotes
cotidiana
cotidianu
coto
cotton
cotu
could
council
count
counties
countries
country
county
coupe
courage
courier
cours
course
court
courtney
covaro
covarones
cover
coverage
cowan
cowboy
cowboys
cox
coyer
cp
cph
cpu
cqranking
cr
cra
crack
cracovia
craig
cramer
crane
craniu
crash
crata
crates
craven
crawford
crazy
crc
cre
crea
creacio
creaciones
creada
creador
creadora
creadores
creaes
cream
crean
creando
creaos
crear
creara
crearon
crease
creation
creativa
creative
creativida
creativu
crecedera
crecen
crecer
creci
creciendo
creciente
crecientes
crecieron
crecio
credibilida
credo
cree
creek
creen
creencia
creencies
creer
crei
creitos
creitu
crema
creo
crespo
cresta
crestes
creta
crew
creyendo
creyentes
creyeron
creyo
crez
cri
cria
criada
crianza
criaos
criar
criatura
criatures
cricetidae
cricket
crime
crimea
criminal
criminales
crio
criolla
criollos
criollu
cripta
cris
crisis
criso
cristal
cristales
cristalina
cristia
cristian
cristiana
cristianda
cristianes
cristianismu
cristiano
cristianos
cristianu
cristina
cristo
cristu
criterios
criteriu
critica
criticada
critical
criticar
criticaron
critico
critics
cro
croacia
croata
croates
crocodile
croix
croma
cromoso
cromosoma
cromosomes
cromu
cromwell
cronista
cronistes
crono
cronolo
cronoloxi
cronquist
crosby
cross
crossing
crossover
crowe
crown
cruceri
cruceros
cruceru
cruces
crucia
cruciada
cruciaes
crucial
cruciando
cruciar
cruciaron
crucien
crucifica
crucio
crucis
crudu
cruel
cruelda
cruise
crusta
cruyff
cruz
cruza
cruzada
cruzaes
cruzaos
cry
crystal
cs
csa
csi
csic
csiro
ct
ctar
ctbuh
ctea
ctees
cteos
ctica
ctico
cticos
cticu
ctil
ctima
ctimes
ctiques
ctona
ctones
ctonos
ctor
ctrica
ctricu
cu
cua
cuadiernos
cuadiernu
cuadonga
cuadra
cuadrada
cuadraes
cuadrangular
cuadraos
cuadro
cuadros
cuadru
cual
cuales
cualesquier
cualida
cualidaes
cualos
cualquier
cuan
cuando
cuantes
cuantima
cuanto
cuantos
cuarenta
cuaresma
cuarta
cuartel
cuarteles
cuartes
cuartetu
cuarto
cuartos
cuartu
cuarzu
cuasi
cuatro
cuatrocientos
cuba
cuban
cubana
cubanos
cubanu
cube
cubierta
cubiertes
cubiertos
cubiertu
cubre
cubren
cubri
cubriendo
cubrio
cubrir
cubu
cuchiellos
cuchiellu
cuculiformes
cue
cuenca
cuenques
cuenta
cuentes
cuentos
cuentu
cuerda
cuerdes
cuernos
cuernu
cuerpos
cuerpu
cuerre
cuerren
cueru
cuervo
cuervos
cuervu
cuesta
cuestio
cuestiona
cuestiones
cueta
cueto
cuetos
cuetu
cueva
cuevas
cueves
cuidao
cuideiru
cuidos
cuidu
cula
culas
cules
culiebra
culiebres
culminacio
culo
culos
culpa
culpable
culpables
cult
culta
culti
cultiva
cultivada
cultivaes
cultivaos
cultivar
cultivares
cultiven
cultivo
cultivos
cultivu
cultos
cultu
cultura
cultural
culturales
culturalmente
culture
cultures
culu
culum
cum
cumal
cume
cumes
cummings
cumple
cumplean
cumplen
cumpli
cumpliendo
cumpliera
cumplimientu
cumplio
cumplir
cumplise
cun
cundinamarca
cunha
cunningham
cunta
cuntaba
cuntaben
cuntable
cuntando
cuntar
cuntaron
cunten
cunto
cuota
cuotes
cup
cura
curac
curadora
curar
curatibles
curdista
curdos
curdu
cure
curia
curiar
curie
curiosa
curiosamente
curioso
curiosos
curiosu
current
curri
curriculum
curry
cursar
cursiva
curso
cursos
cursu
curtia
curties
curtios
curtis
curtiu
curtiumetraxe
curtiumetraxes
curuxa
curva
curves
curvu
cusco
cuspia
custodia
cut
cute
cuti
cutio
cutir
cutiu
cuzco
cv
cw
cy
cycle
cycling
cyclisme
cygni
cynthia
cyril
cyrus
cz
d
da
daba
daben
dacia
dacuando
dad
dada
daddy
dadu
daes
dafechu
dag
dai
daily
dailymail
daimyo
daisuke
daisy
dakar
dakota
dal
dala
dale
dalgo
dalgu
dalguna
dalgunes
dalgunos
dalgunu
dali
dalla
dallas
dallwitz
dalmacia
dalton
dalu
dam
dama
damascu
dambes
dambos
dame
dames
damia
damon
dan
dana
dance
dances
dancing
dando
dane
danesa
daneses
danger
dangerous
dani
daniel
daniela
danielle
daniels
danny
dano
danos
dans
danse
dante
danu
danubiu
danza
dao
daos
daphne
daque
daquella
daquie
dar
darfur
dari
dark
darkness
darling
darmstadt
daroca
darre
darryl
darth
darwin
das
dase
dash
data
database
databases
datacio
datada
datar
date
daten
dates
dativu
dato
datos
datu
dau
daughter
dauphine
dave
davezu
david
davidse
davidson
davies
davis
davison
davy
dawkins
dawn
dawson
day
days
daytona
db
dbe
dc
dd
de
dea
dead
deadline
deadly
deadpool
deal
dean
dear
death
debaxo
debbie
debe
deben
deber
deberes
deberi
debese
debi
debida
debidamente
debilida
debilita
debilitamientu
debilitar
debilito
debio
debo
deborah
debra
debris
debu
debut
debuta
debutando
debutar
debuto
dec
deca
decade
decadencia
decanu
december
decena
decenes
deceniu
decepcio
decesu
decide
deciden
decidi
decidida
decidiera
decidieron
decidio
decidir
decimal
decimocuarta
decimotercer
decisio
decision
decisiones
decisiva
decisivu
decla
declara
declaraba
declaracio
declaraciones
declarada
declaraes
declarando
declaraos
declarar
declarara
declararon
declaren
declaro
declinacio
decoccio
decora
decoracio
decorada
decoraes
decoraos
decoratives
decorativos
decreta
decreto
decretos
decretu
dedi
dedica
dedicacio
dedicada
dedicaes
dedicaos
dedicar
dedicase
dedico
dediquen
deducir
dee
deep
dees
def
default
defectos
defectu
defence
defende
defenden
defender
defendese
defendi
defendida
defendiendo
defendio
defensa
defense
defenses
defensiva
defensives
defensivos
defensivu
defensor
defensora
defensores
defi
deficiente
define
definen
defini
definicio
definiciones
definida
definio
definir
definise
definition
definitiva
definitivamente
definitivu
deforestacio
deformacio
degas
degli
degolla
degradacio
degradaos
degree
dehiscencia
dei
deida
deidaes
del
delano
delantera
delanteres
delanteros
delanteru
delantre
delaware
delda
deldes
delega
delegacio
delegaciones
delegada
delegaos
delfi
delfines
delga
delgada
delgado
delgaes
delgaos
delhi
delias
deliberadamente
delica
delicada
delimitacio
delincuencia
delincuentes
delitos
delitu
dell
della
delle
delles
dellos
dels
delta
deluxe
dem
dema
demanda
demandes
demando
demarcacio
demasia
demasiada
demasiao
demasiaos
demetrio
demi
demientres
demo
democra
democracia
democracies
democracy
democratic
demogra
demografi
demonios
demoniu
demostra
demostracio
demostraciones
demostrada
demostrando
demostrar
demostraron
demostro
dempsey
dempue
demuestra
demuestren
den
dena
dende
dene
deng
dengue
denis
denise
dennis
deno
denoma
denomada
denomina
denominacio
denominaciones
denominada
denominaes
denominaos
denominar
denominase
denominen
denomino
denota
densamente
dense
densida
dent
denta
dentaes
dental
denuncia
denunciar
denuncies
denuncio
denver
deo
deos
departamental
departamento
departamentos
departamentu
department
depende
dependen
dependencia
dependencies
depender
dependi
dependiendo
dependiente
dependientes
depo
deportacio
deportaos
deporte
deportes
deportista
deportistes
deportiva
deportives
deportivo
deportivos
deportivu
deposicio
deposita
depositaos
depositar
depp
depredador
depredadores
depresio
depresiones
depression
depue
depuestu
der
derbi
derby
derecha
dereches
derechos
derechu
derek
deres
deriva
derivacio
derivada
derivaes
derivaos
derivar
deriven
derivo
derrame
derroca
derrocamientu
derrocar
derroco
derrota
derrotaos
derrotes
des
desafi
desafiar
desafortunadamente
desagradable
desagu
desagua
desaguada
desaguar
desalcuerdos
desalcuerdu
desamarro
desamortizacio
desaniciar
desapaeci
desapaicio
desaparente
desapegar
desarme
desarrolladores
desarrollos
desarrollu
desastre
desastres
desastrosa
desaxeradamente
descansu
descarga
descargar
descargues
descartes
descendencia
descendente
descendiente
descendientes
descensu
descentralizacio
deschanel
descolonizacio
descomanadamente
descomposicio
desconoci
desconocida
desconoz
desconozse
descontentu
descri
describe
described
describen
describi
describie
describiendo
describieron
describio
describir
descripcio
descripciones
description
descriptions
descriptiva
descrita
descrites
descritos
descritu
descubierta
descubiertos
descubiertu
descubridor
descubrimientos
descubrimientu
descuentu
desde
dese
desea
desembarcar
desembarcaron
desembarco
desembarcu
desempate
desempen
desemplegu
desencadeno
desendolca
desendolcu
desenllaz
desenvolver
desenvolvese
desenvolvi
desenvolvie
desenvolviendo
desenvolviera
desenvolvieron
desenvolvimientu
desenvolvio
desenvue
desenvuelta
desenvueltes
desenvueltos
desenvueltu
desenvuelve
desenvuelven
desenvuelvo
deseos
desert
desespera
desesperada
deseya
deseyaba
deseyaben
deseyada
deseyar
deseyen
desfacer
desfile
desfiles
desgracia
desgraciadamente
desi
desiertos
desiertu
design
designa
designacio
designada
designaos
designar
designo
desigual
desigualda
desiguales
desintegracio
desire
desmond
desnivel
desnuda
desnudos
desnudu
desorde
desordes
despachu
despegue
desperate
despidi
despidida
despidio
despidir
despidu
despinta
despintar
desplazamientos
desplazamientu
despoblacio
despoblada
despoblado
despreciu
despue
desque
desta
destaca
destacaba
destacable
destacables
destacada
destacaes
destacamentu
destacando
destacaos
destacar
destacaron
destaco
destaquen
desterciu
desterra
desti
destierru
destilacio
destina
destinada
destinaes
destinaos
destinar
destino
destinos
destiny
destitucio
destituyi
destru
destruccio
destructor
destructores
destruyendo
destruyeron
destruyi
destruyida
destruyir
destruyo
desusu
desventaxa
det
detail
details
detalla
detallada
detalle
detalles
deteccio
detecta
detectar
detective
detectives
detecto
detencio
detener
detenese
deteni
detenida
deteriora
deterioru
determina
determinacio
determinada
determinaes
determinante
determinantes
determinaos
determinar
determinaron
determination
determinen
determino
detra
detractores
detroit
detuvo
deu
deutsch
deutsche
deutschen
deutschland
deux
dev
deva
devane
devasa
devasar
development
devesa
devil
devocio
devolucio
devolver
devolvio
devon
devotos
devotu
dexa
dexaba
dexaben
dexada
dexaes
dexando
dexaos
dexar
dexara
dexaren
dexari
dexaron
dexase
dexe
dexen
dexo
dexter
dez
df
dfffdf
dhabi
dharma
di
dia
diabetes
diacri
diafragma
diagno
diagnosis
diagnostica
diagonal
diagrama
diale
dialeutal
dialeutales
dialeutos
dialeutu
dialnet
diamante
diamantes
diamond
diamonds
dian
diana
diane
diaria
diariamente
diaries
diario
diarios
diariu
diary
dias
diaz
diba
diben
dibuxa
dibuxante
dibuxar
dibuxos
dibuxu
dic
dica
dicamente
dicaprio
diccionari
diccionario
diccionarios
diccionariu
dicen
dices
dicha
diches
dicho
dichos
dichu
dici
dicie
diciendo
diciona
dicionario
dicir
dicise
dick
dickens
dickinson
dico
dicos
dicotyledoneae
dicta
dictador
dictadura
dictadures
dictame
dictar
dictatorial
dictionary
dictionnaire
dictionnaires
dicto
dicu
did
dida
dides
didier
die
diecinueve
dieciocho
diecise
diecisiete
died
diego
diendo
diente
dientes
dientro
diera
dieren
dieron
dies
diesel
diet
dieta
diete
dieter
dietes
dietrich
diez
diferencia
diferenciacio
diferencial
diferenciales
diferencies
diferentes
different
difi
dificulta
dificultaes
difier
difieren
difuntos
difuntu
diga
digest
digimon
digital
digitalis
digna
dignida
dignu
digo
digos
digu
dijon
dillon
dilma
diluviu
dimensio
dimensional
dimensiones
diminutivu
dimisio
dimite
dimitio
dimitir
dimitri
dimorfismu
din
dina
dinamarca
dinamo
dinasti
dineru
dinger
dino
dinosaur
dinosaurios
dinosauriu
dinosaurs
dintel
dio
diocesanu
dioclecianu
diodoro
dion
dionisio
dioniso
dios
diosa
diosco
dioscorea
diose
dioses
diospyros
diploma
diplomacia
diptongos
diputa
diputacio
diputada
diputados
diputaos
dique
diques
dir
direct
direction
directiva
directivu
director
directory
direicio
direiciones
direuta
direutamente
direutes
direutiva
direuto
direutor
direutora
direutores
direutoriu
direutos
direutu
diri
dirixe
dirixen
dirixendo
dirixente
dirixentes
dirixeron
dirixi
dirixida
dirixie
dirixio
dirixir
dirixise
dirixo
dirty
dis
disc
discapacida
disci
disciplina
disciplines
disco
discogra
discografi
discography
discogs
discos
discovery
discrepancies
discreta
discretu
discriminacio
discu
discursos
discursu
discussion
discutinios
discutiniu
dise
disease
diseases
disen
disenteri
disidentes
disk
disks
disney
disneyland
disolucio
disorder
disorders
dispara
disparar
disparo
disparos
disparu
dispersio
display
displaystyle
dispo
disponen
disponer
disponi
disponibilidad
disponible
disponibles
disposicio
disposiciones
dispositivos
dispositivu
dispuesta
dispuestes
dispuesto
dispuestos
dispuestu
dispunxo
disputa
disputes
distance
distances
distancia
distancies
distante
distantes
distincio
distinciones
distingui
distinguida
distinta
distintes
distintiva
distintives
distintivos
distintivu
distintos
distintu
distorsio
distribu
distribucio
distribuciones
distribution
distribuyi
distribuyida
distribuyir
district
distritos
distritu
disturbios
disueltu
dita
dites
ditions
ditos
ditu
diure
diva
diversa
diverses
diversida
diversificacio
diversio
diversity
diversos
diversu
diverxencia
dives
divi
dividi
divina
divinida
divinidaes
divisa
divises
divisio
division
divisiones
divisoria
divorce
divorcia
divorciar
divorcio
divorciu
divulgacio
dixe
dixebra
dixebrada
dixebraes
dixebrando
dixebraos
dixebrar
dixebrase
dixebren
dixebro
dixera
dixeron
dixestio
dixestivu
dixi
dixital
dixitales
dixo
dixon
diz
dizse
dj
dk
dl
dm
dmitri
dn
dna
dnie
dns
do
dobla
doblar
doblaxe
doble
dobles
doblete
doblo
doc
doce
docena
docencia
docenes
docente
docentes
docs
doctor
doctora
doctoral
doctores
doctoro
doctrina
doctrines
document
documenta
documentacio
documentada
documentadas
documentados
documental
documentales
documentary
documentation
documento
documentos
documents
documentu
dodge
dodson
does
doflamingo
dog
dogma
dogs
doi
dolce
doliosa
dollar
dolly
dolmen
dolor
dolores
dolos
dolu
dom
dome
domenico
domestic
domi
dominacio
dominante
dominantes
domingo
domingos
domingu
dominic
dominica
dominical
dominicana
dominicanu
dominicos
dominicu
dominios
dominique
dominiu
domino
don
dona
donacio
donaciones
donald
donar
donatello
doncella
done
dones
donetsk
dong
donkey
donna
donne
donnees
donnell
dono
donoghue
donovan
donsker
doo
doom
door
dopaxe
dope
dor
dora
dorada
dorado
doraes
doraos
doris
dormi
dormir
dorothy
dorsal
dorsales
dorset
dortmund
dos
dosal
doscientos
dose
dosel
dosis
dot
dota
dotacio
dotada
dotaos
dotar
dote
dotes
doto
dots
douard
double
doubleday
doubs
doug
douglas
douru
dover
dow
down
downey
download
downloadable
downloaded
downloads
doyle
dp
dq
dr
dra
draconis
drae
draft
drag
drago
dragon
dragones
dragons
drake
drama
dramatic
dramaturgu
drames
draper
dre
dream
dreams
drechu
drena
drenaxe
dresde
drew
dreyfus
drive
driver
dro
droga
drogues
dromos
dromu
drop
drug
drugs
drupa
ds
dsm
dt
du
dual
dualida
duarte
duba
dubai
dubli
dublin
duc
duca
ducal
ducaos
duce
duces
duchamp
duck
dudley
dudosa
due
duelu
duen
duero
dueto
duff
duhalde
duke
dula
dulce
dulces
dulda
duldar
duldes
dulos
dulu
duma
dumas
dumont
dump
dun
duncan
dundee
dunes
dunn
dupe
duque
duques
duquesa
dura
duracio
duradera
duramente
durango
durante
durar
durari
duren
dures
durez
durham
during
duro
duros
duru
dust
dutch
duty
duvall
dux
dvd
dw
dwarf
dwarfs
dwight
dx
dy
dyck
dyke
dylan
dyn
dynamics
dynasty
dz
e
ea
each
eagle
eagles
earl
earlier
earliest
early
earth
east
eastern
eastwood
easy
eaton
eau
eb
ebert
ebird
ebro
ec
eca
ecc
ece
echa
echar
echeverri
echo
ecle
eclesia
ecli
eclipsante
eclipsing
eclosio
eco
ecolo
ecological
ecology
ecoloxi
ecoloxista
ecoloxistes
econo
economi
economia
economic
economics
economist
economista
economistes
economy
ecos
ecosistema
ecosistemes
ecu
ecuacio
ecuaciones
ecuador
ecuatorial
ecuatoriana
ecuatorianu
ecuestre
ecume
ed
eda
edad
edaes
edda
eddie
eddy
ede
edema
eden
edgar
edge
edi
edicio
ediciones
edicions
edictu
edida
edie
ediendo
edifica
edificacio
edificaciones
edificada
edificar
edificios
edificiu
edifico
edimburgu
edinburgh
edio
edir
edison
edit
edita
editada
editar
edited
edith
editio
edition
editions
edito
editor
editora
editores
editorial
editoriales
editors
edizioni
edmond
edmonton
edmund
edmundo
edo
eds
edu
eduard
eduardo
eduardu
educa
educacio
educada
educar
education
educational
educativa
educatives
educativos
educativu
edward
edwards
edwin
ee
eexx
ef
efe
efectiva
efectivida
efectivo
efectivos
efectivu
efectu
efectua
efectuada
efectuar
efectuo
efeme
efeutiva
efeutivamente
efeutivida
efeutivos
efeutivu
efeuto
efeutos
efeutu
efeutuar
effect
effective
effects
efi
eficaces
eficacia
eficaz
eficiencia
eficiente
eficientes
efrai
efron
efsa
ego
egoi
egypt
egyptian
eh
ehi
ei
eibar
eight
eileen
ein
eine
einer
einstein
eiro
eis
eisenhower
eisha
eivissa
ej
eje
ejs
ek
el
ela
elaine
elasticida
elba
elcomercio
eldiario
ele
eleanor
elecciones
eleconomista
electa
election
elections
electos
electra
electric
electro
electrodome
electromagne
electrones
electronic
electronics
electu
elefante
elefantes
elegancia
elegans
elegante
eleicio
eleiciones
elemental
elementales
elementos
elements
elementu
elena
elephant
eletricida
eleutor
eleutora
eleutoral
eleutorales
eleutores
eleva
elevacio
elevaciones
elevada
elevaes
elevaos
eleven
elfos
elga
elgar
elgues
elhuyar
eli
elia
elias
eliminacio
eliminatoria
eliminatories
eliot
elisa
elisabeth
elite
elixi
eliza
elizabeth
elizondo
ell
ella
ellabora
ellaboracio
ellaborada
ellaboraes
ellaboraos
ellaborar
ellaboro
elle
ellen
elles
elli
elliot
elliott
ellis
ello
ellos
elmundo
elo
elon
elos
eloy
elpais
elpepidep
elperiodico
els
elsa
elsevier
eltiempo
elton
elu
eluniversal
eluniverso
elvira
elvis
elx
em
emancipacio
emanuel
embaranzu
embarazada
embarazaes
embarcacio
embarcaciones
embarcar
embarco
embargu
embarque
embaxada
embaxador
embaxadora
embaxadores
embaxaes
embaxo
emberizidae
emblema
emblemes
emboscada
embraer
embrio
embrivi
embrivir
emburria
emburriar
emburrie
embuti
emd
eme
emergency
emerson
emerxencia
emerxencies
emerxente
emerxentes
emi
emigracio
emigrantes
emigrar
emigraron
emigro
emil
emile
emilia
emiliano
emilio
emily
eminem
eminente
eminentemente
emir
emirates
emiratos
emiratu
emisio
emisiones
emisor
emisora
emisores
emission
emite
emiten
emiti
emitida
emitiendo
emitio
emitir
emma
emmanuel
emmy
emocio
emocional
emocionales
emociones
emol
emos
empar
emparenta
emparentada
emparentaes
emparentaos
empata
empatando
empataos
empatar
empataron
empate
empates
empato
empeci
empecipia
empecipiada
empecipiando
empecipiar
empecipiara
empecipiaron
empecipiase
empecipien
empecipio
empen
emperador
emperadores
emperatriz
emperor
empeza
empezaba
empezaben
empezando
empezar
empezara
empezaren
empezari
empezaron
empezo
empi
empiecen
empieza
empiezos
empiezu
empioro
empire
empires
empirismu
emple
emplega
emplegaba
emplegaben
emplegada
emplegaes
emplegando
emplegaos
emplegar
emplegaron
emplegase
emplego
emplegos
emplegu
empleguen
empobina
empobinada
empobinaes
empobinaos
empobinar
empondera
empondero
emponer
empresa
empresaria
empresarial
empresariales
empresarios
empresariu
empreses
empresta
emprestaos
emprestar
empresto
empuestes
empuestos
empuestu
emu
en
ena
enagora
enagu
enagua
enantes
enca
encabeza
encabezada
encabezaos
encabezar
encabezo
encalada
encalorar
encamenta
encamentada
encamentaos
encamentar
encamento
encamie
encamienta
encamientos
encamientu
encanta
encantu
encarar
encarcela
encarcelamientu
encarcelaos
encarga
encargada
encargaes
encargaos
encargar
encargo
encargos
encargu
encarna
encarnacio
encarnar
encarno
encaxar
ence
encender
encendi
enceta
encetar
enchi
enchida
enciclope
enciclopedia
encina
encines
enclava
enclave
enclaves
encli
enclinos
encomalo
encomienda
encruz
encuadra
encuadrada
encuesta
encuestes
encyclopaedia
encyclopedia
encyclopedic
encyclopædia
end
endangered
ende
endesa
ending
endl
endo
ends
ene
eneas
enel
enemiga
enemigos
enemigu
enemigues
enemista
enemy
energy
enerxe
enerxi
enferma
enfermeda
enfermedaes
enfermera
enfermeri
enfermos
enfermu
enfoca
enfocada
enfocar
enfoque
enfoques
enforma
enfotu
enfre
enfrenta
enfrentaba
enfrentamientos
enfrentamientu
enfrentar
enfrentaron
enfrentase
enfrente
enfrenten
enfrento
enfriamientu
enfusa
enfusar
eng
engan
engarra
engarradiella
engarradielles
engarrar
engarro
engels
engine
engineering
engl
england
english
engloba
enigma
enlarged
enllaces
enllanada
enllantar
enllarga
enllargada
enllargar
enllargo
enllaz
enllaza
enllazar
enllena
enllenar
enllordia
enmarca
enmarcada
enmienda
enmiendes
enne
ennis
enorme
enormes
enough
enraigono
enri
enriba
enric
enrico
enrique
enriqueta
ensalada
ensalaes
ensamblaxe
ensame
ensames
ensayista
ensayo
ensayos
ensayu
ense
ensen
ensenada
ensertar
ensin
ensuga
ensugar
enta
entainar
entama
entamaba
entamada
entamaes
entamando
entamaos
entamar
entamara
entamaron
entamase
entamen
entamo
entamos
entamu
entartallar
ente
entemecer
entemeci
entemecida
entemedia
entemedies
entemedios
entemediu
entemez
entender
entendese
entendi
entendida
entendiendo
entendimientu
entendio
entente
entera
enterar
enterase
enteres
entero
enteros
enterprise
enterramientos
enterramientu
entertainment
enteru
entes
entevistes
entida
entidades
entidaes
entie
entiende
entienden
entierru
ento
entorno
entra
entraba
entrada
entraes
entrambos
entrando
entrar
entrara
entrari
entraron
entre
entrega
entregues
entren
entrena
entrenador
entrenadora
entrenadores
entrenamientos
entrenamientu
entrenaos
entrenar
entreno
entretenimientu
entrevista
entrevistes
entro
entropi
entruga
entrugues
entry
entueyos
entusiasmu
entusiasta
entusiastes
enumeracio
enuncia
envalo
envalora
envalorada
envalorar
envaloro
enve
envelenamientu
envernada
envi
envidia
environment
environmental
envoltura
envolubra
envolubrada
enxama
enz
enza
enzanca
enzima
enzimes
enzo
enzyklopa
eo
eoc
eos
ep
eparqui
epi
epic
epicentru
epidemia
epidemies
epidermis
epilepsia
epipactis
epiru
episcopal
episode
episodes
episodios
episodiu
epo
epopeya
epsilon
eques
equi
equidad
equilibriu
equipamientos
equipamientu
equipaxe
equipo
equipos
equipu
equitacio
equival
equivalencia
equivalente
equivalentes
equivocadamente
equo
er
era
erar
erc
ere
erecta
erecto
erectos
eren
eres
eri
eric
erica
ericaceae
erich
erickson
erik
erin
eritrea
ermita
ermitan
ermites
ermu
ernest
ernesto
ernst
ero
eros
erosio
erra
erradicacio
erradicar
erro
error
errores
erru
ers
erta
ertes
ertos
ertu
eru
eruditos
eruditu
erupcio
erupciones
erwin
erythrina
es
esa
esaltacio
esaminar
esanicia
esaniciada
esaniciando
esaniciaos
esaniciar
esanicio
esautamente
esc
esca
escaecer
escaeci
escala
escalada
escalar
escalera
escaleres
escales
escames
escampada
escamplaes
escan
escandinavia
escandinavos
escapa
escapar
escape
escapo
escarabayos
escarabayu
escaramuzas
escarecen
escarecer
escareci
escarez
escarlata
escasa
escasamente
escases
escasez
escasos
escasta
escastar
escasu
escava
escavacio
escavaciones
escayos
escayu
esce
esceicio
esceiciones
escelente
escelentes
escelenti
escena
escenarios
escenariu
escenes
escenografi
escentricida
escepcional
escepcionales
escepcionalmente
escepticismu
escesiva
escesivu
escesos
escesu
escipio
escitacio
esclaria
esclariar
esclario
esclava
esclavitu
esclavos
esclavu
esclerosis
esclu
esclusio
esclusiva
esclusives
esclusivos
esclusivu
escluye
escluyendo
escluyi
escluyir
escobar
escoce
escocesa
escoceses
escocia
escola
escolar
escolares
escolta
escombros
escomiu
esconder
escondi
escontra
escorial
escorpio
escorrer
escorri
escosa
escosamientu
escoyendo
escoyer
escoyera
escoyeron
escoyeta
escoyi
escoyida
escoyo
escri
escriba
escribe
escriben
escribi
escribiendo
escribiera
escribieron
escribio
escribir
escribise
escrita
escrites
escritor
escritora
escritores
escritoriu
escritos
escritu
escritura
escritures
escrutiniu
escu
escuadra
escuadro
escuadrones
escucha
escuchar
escucho
escuderi
escudo
escudos
escudu
escue
escuela
escueles
escuerre
escueye
escueyen
esculpi
esculto
escultor
escultores
escultura
escultures
escura
escures
escurida
escuro
escuros
escurre
escurri
escurrimientu
escurrio
escursiones
escuru
escusa
ese
esencia
esencial
esenciales
esencialmente
eses
esfe
esfera
esferes
esforciar
esfruta
esfrutar
esfrute
esfruten
esfruto
esfuercios
esfuerciu
esgan
esgrima
esgueva
esguil
esguilada
esguilador
esguilar
esi
esista
esistan
esiste
esisten
esistencia
esistente
esistentes
esisti
esistiendo
esistiera
esistieron
esistio
esistir
esitosa
esitoses
esitosos
esitosu
esixe
esixen
esixencia
esixencies
esixendo
esixente
esixi
esixir
esixo
esla
eslalon
eslava
eslaves
eslavos
eslavu
esllei
eslleida
eslleio
eslleir
eslogan
eslovaca
eslovacu
eslovaquia
eslovena
eslovenia
eslovenu
esmalte
esmeralda
esmirna
esmoleci
esmolicio
esmoliciones
eso
esos
esp
espa
espacial
espaciales
espacio
espacios
espaciu
espada
espadan
espaes
espan
espana
espandie
espandio
espandir
espandise
espanol
espansio
espanyol
espardi
espardimientu
esparta
espasa
espe
especi
especial
especiales
especialida
especialidaes
especialista
especialistes
especializa
especializacio
especializada
especializaes
especializaos
especializar
especializo
especialmente
especie
especies
especifica
especificacio
especificaciones
especificar
especta
espectacular
espectaculares
espectaculos
espectador
espectadores
espectral
espectros
espectrosco
espectru
especulacio
especulaciones
especulo
espedicio
espediciones
espediente
espejo
espera
esperaba
esperaben
esperada
esperances
esperando
esperanto
esperantu
esperanza
esperar
esperen
esperiencia
esperiencies
esperimenta
esperimentacio
esperimental
esperimentales
esperimentando
esperimentar
esperimentaron
esperimenten
esperimento
esperimentos
esperimentu
espero
esperta
espertar
esperteyos
esperteyu
esperto
espertos
espertu
espesura
espeyos
espeyu
espi
espiga
espigues
espina
espinal
espinosa
espinosu
espinoza
espionaxe
espiral
espirales
espiritual
espirituales
espiritualida
esplegar
esplegue
espli
esplica
esplicaba
esplicacio
esplicaciones
esplicando
esplicar
esplicari
esplicase
esplico
espliquen
esplora
esploracio
esploraciones
esplorador
esploradores
esplorar
esploro
esplosio
esplosiones
esplosiva
esplosivos
esplosivu
esplota
esplotacio
esplotaciones
esplotar
esploto
espluma
espn
espndeportes
espo
espolleto
esponencial
esponente
esponentes
esponer
espora
espores
esporta
esportacio
esportaciones
esportar
esposa
esposes
esposicio
esposiciones
espre
esprende
esprender
espresa
espresada
espresamente
espresando
espresar
espresaron
espresase
espresen
espresio
espresiones
espreso
espresu
espubliza
espublizacio
espublizada
espublizalos
espublizar
espublizo
espuesta
espuestes
espuestos
espuestu
espulsa
espulsada
espulsaos
espulsar
espulsio
espulso
espunxo
esquema
esquemes
esquerra
esqui
esquierda
esquierdu
esquina
esquines
esquizofrenia
essay
essays
essential
essex
est
esta
estabilida
estabilizacio
estabilizar
estable
establecen
establecer
establecese
estableci
establecida
establecie
estableciendo
estableciera
establecieron
establecimientos
establecimientu
establecio
estables
establez
establezse
estacio
estacional
estacionales
estacionamiento
estaciones
estadi
estadios
estadista
estadiu
estado
estados
estadual
estambres
estamentos
estames
estan
estancamientu
estancia
estancies
estandarte
estanislao
estanque
estaos
estatal
estatales
estatua
estatues
estatura
estatus
estatutos
estatutu
estaui
estauxunidense
estauxunidenses
estaya
estayes
este
esteban
estela
estelar
estelares
estella
estelleros
estelleru
estender
estendese
estendi
estendida
estendie
estendiendo
estendieron
estendio
estensa
estensamente
estenses
estensio
estensiones
estensos
estensu
estepa
estepes
estereotipos
esterior
esteriores
esterlines
esterminiu
esterna
esternes
esternos
esternu
estero
estes
esteve
esther
esti
estie
estiende
estienden
estigma
estigmes
estil
estili
estilos
estilu
estima
estimacio
estimaciones
estimulacio
estimulante
estincio
estingui
estinguida
estiria
esto
estocolmu
estomagaes
estonia
estoniu
estos
estrabo
estraccio
estractos
estractu
estrada
estradicio
estragal
estraicio
estran
estranxera
estranxeres
estranxeros
estranxeru
estraordinaria
estraordinaries
estraordinarios
estraordinariu
estrasburgu
estrasolar
estrasolares
estrate
estraterrestre
estraterrestres
estratexa
estratexes
estratos
estratu
estrayer
estrayi
estre
estrecha
estrechamente
estreches
estrechos
estrechu
estrella
estrellalgu
estrellar
estrellas
estrelles
estrello
estrema
estremaba
estremada
estremadura
estremaes
estremando
estremaos
estremar
estremase
estreme
estremen
estremeres
estremeros
estremes
estremida
estremidaes
estremo
estremos
estremu
estrena
estrenada
estrenar
estreno
estrenu
estri
estria
estribaciones
estricta
estrictes
estrictu
estro
estrofa
estropia
estropiada
estropiaos
estropiar
estructura
estructural
estructurales
estructures
estruyi
estu
estuardo
estuariu
estudia
estudiaba
estudiada
estudiaes
estudiando
estudiante
estudiantes
estudiantil
estudiantiles
estudiaos
estudiar
estudiaron
estudien
estudio
estudios
estudiosos
estudiosu
estudis
estudiu
esu
esvalixa
esvalixada
esvalixaes
esvalixaos
esvia
esviacio
esviadura
esviar
et
eta
etanol
etapa
etapes
etc
etce
ete
eterna
eternu
etes
ethan
ethel
ethics
ethnic
ethnologue
eti
etimolo
etimoloxi
etiopi
etiqueta
etiquetes
etnia
etnies
etno
etnogra
etnografi
etruscu
etu
eu
eua
eublemma
eucalyptus
eucariotes
eucaristi
euclides
euge
eugene
eugenia
eugenio
euler
eupatorium
euphaedra
euphaedrana
euphorbia
euphorbiaceae
eur
eurasia
eure
euro
euroasia
eurocopa
europa
europaea
europapress
europe
europea
european
europeanfilmacademy
europees
europeo
europeos
euros
eurovisio
eurovision
euru
eusebio
euskadi
euskal
euskera
eusko
eusquera
ev
eva
evacuacio
evalu
evaluacio
evaluar
evaluation
evan
evanescence
evangelical
evangelion
evans
evanxe
evanxelios
evanxelista
evanxeliu
evaporacio
eve
evelyn
even
evening
event
eventos
events
eventu
eventual
eventualmente
ever
everest
everett
everton
every
everybody
everything
evidence
evidencia
evidencies
evidente
evidentemente
evidentes
evil
evita
evitando
evitar
eviten
evito
evo
evol
evolucio
evoluciona
evolucionando
evolucionar
evolucionaron
evoluciono
evolution
evolutionary
evolutiva
evolutivu
evolved
evos
evu
ew
ex
exa
exacta
exactes
exactitu
exactu
exame
exce
excelencia
excelsior
exchange
exclusive
exe
execucio
execuciones
executa
executada
executaos
executar
executiva
executive
executivo
executivos
executivu
executo
exemplar
exemplares
exemplos
exemplu
exenta
exentos
exentu
exercen
exercer
exerci
exercicios
exerciciu
exercida
exerciendo
exercieron
exercio
exerz
exes
exhibe
exhibi
exhibicio
exhibiciones
exhibir
exhibition
exilia
exiliaos
exiliase
exilio
exiliu
exipcia
exipcies
exipcios
exipciu
exiptu
exitosamente
exo
exoplanet
exp
expansion
expedition
experience
experiment
expli
exploration
explorer
expo
exposicio
express
extended
extinction
extra
extract
extragalactic
extraordinariamente
extras
eyck
eye
eyed
eyes
eyos
eyu
ez
ezequiel
ezker
ezra
eŋ
eɾ
f
fa
faa
fabaceae
fabacees
faber
fabia
fabio
fabre
fabrica
fabricacio
fabricada
fabricaes
fabricante
fabricantes
fabricaos
fabricar
fabricius
fabrico
faccio
facciones
face
facebook
facer
faces
facese
faceta
fachada
fachaes
faci
facial
facie
facienda
faciendes
faciendo
facilida
facilidaes
facilita
facilitar
faciliten
facilito
facility
facsi
fact
factbook
facto
factor
factores
factori
factors
factory
facts
factsheet
factura
faculta
facultaes
faculty
facundo
fades
fadra
fadri
fadrique
faela
faelo
faen
faer
faes
faese
fagos
fagu
fai
faicio
faiciones
faiga
faigan
faigo
fair
fairy
faise
faith
fala
falaba
falaben
falada
falaes
falamos
falando
falante
falantes
falanxe
falaos
falar
falase
falcao
falco
falcon
falda
faldes
falen
fales
fall
falla
fallece
fallecimientu
fallen
falles
falli
fallida
fallo
fallos
falls
fallu
falo
falsa
false
falses
falsos
falsu
falta
faltaba
faltar
falten
faltes
falu
fam
fama
fame
fami
familia
familiar
familiares
familias
families
family
familytree
famosa
famoses
famosos
famosu
famous
fan
fana
fanero
fanes
fang
fangio
fanny
fano
fans
fanta
fantasi
fantastic
fantasy
fao
faq
far
farao
faraones
farc
farin
farina
farm
farmace
farmacia
farmacolo
faro
faros
farrell
faru
fasc
fasci
fascismu
fascista
fascistes
fase
fases
fashion
fast
fasta
fastera
fasteres
fasu
fat
fata
fatal
fate
father
fatiga
fatimi
fauna
faure
faustino
fausto
favor
favorable
favorables
favorecen
favorecer
favoreci
favorecida
favoreciendo
favorecieron
favorecio
favorez
favorita
favorite
favorites
favoritos
favoritu
faxa
fay
faya
fayadices
fayadiza
fayadizos
fayadizu
fayard
fazan
fb
fbi
fbref
fc
fda
fe
fear
feat
feature
features
feb
febreru
february
fecha
fechaarchivu
fechada
feches
fecho
fechos
fechu
fecundacio
fed
federa
federacio
federaciones
federal
federales
federalismu
federaos
federation
federativa
federer
federico
federicu
feed
feel
feet
feira
felder
felechos
felguera
felices
felicida
felicidad
felicidaes
felipe
felix
feliz
fellow
fellows
fellowship
fema
female
femeni
femenina
femenines
femenino
femeninos
femes
feminismu
feminist
feminista
feministes
femme
femmes
feng
fenicia
fenicios
feniciu
feno
fenomenoloxi
fer
fera
feras
ferdinand
feres
ferguson
feri
feria
ferida
feries
fermentadura
fermi
ferna
fernald
fernanda
fernandes
fernandez
fernando
fernandu
ferns
fero
feroe
feros
feroz
ferradura
ferramienta
ferramientes
ferrara
ferrari
ferre
ferreira
ferrer
ferrera
ferreri
ferreros
ferrial
ferriales
ferrie
ferro
ferrocarril
ferrocarriles
ferrol
ferroviaria
ferroviaries
ferroviariu
ferry
fertilida
fertilizantes
feru
fervinchu
fest
festexos
festival
festivales
festivida
festividaes
festivos
festivu
festuca
fesu
fetu
feu
feudal
feudales
feudalismu
feudu
fever
few
fexe
fexes
feynman
fez
ff
fi
fia
fiabilida
fiable
fiables
fiat
fiba
fibra
fibres
fibrosis
fica
ficamente
ficas
ficcio
ficha
fichar
fichaxe
fichaxes
ficheros
ficheru
fiches
ficho
ficieron
ficit
fico
ficos
ficticia
ficticiu
fiction
ficu
ficus
fidalgu
fide
fidel
fidelida
fiebre
fieces
fiel
field
fieldiana
fields
fieles
fienda
fierro
fiesta
fiestes
fifa
fifth
fig
figal
fight
fighter
fighters
fighting
figos
figueres
figueroa
figura
figuraba
figuraben
figure
figuren
figures
figuro
fila
filadelfia
filamentos
filarmo
file
fileres
files
filho
filiacio
filial
filiales
filipi
filipina
filipines
filippo
filipu
filis
film
filmacio
filmada
filmaffinity
filmar
filme
filmes
filming
filmo
filmografi
films
filo
filoloxi
filos
filoso
filosofi
filoxene
filoxenia
filtros
filtru
filu
fin
fina
finada
finaes
final
finale
finales
finalida
finalista
finalistes
finalizacio
finalmente
finals
finamente
finance
finances
financia
financiada
financial
financiamiento
financiamientu
financiar
financiera
financieres
financieros
financieru
financio
finando
finaos
finar
finara
finaron
finca
fincapie
find
finding
finds
fine
fines
finiste
finita
finito
finlande
finlandesa
finlandeses
finlandia
finn
fino
finos
finques
finu
finxos
finxu
fio
fiordu
fiques
fire
firma
firmantes
firme
firmemente
firmes
first
fiscal
fiscales
fiscali
fischer
fish
fisher
fisio
fisiolo
fisioloxi
fita
fitas
fito
fitos
fitoterapia
fitu
fitzgerald
five
fixa
fixacio
fixe
fixera
fixeren
fixeron
fixes
fixi
fixo
fixos
fixu
fiz
fizo
fl
flag
flags
flaire
flaires
flamenca
flamencos
flamencu
flandes
flash
flauta
flavia
flavio
flavonoides
flax
flecha
fleches
fleming
fletcher
fleurs
flexibilida
flexible
flexibles
flexo
flight
flo
floor
flor
flora
floradobrasil
florae
floral
florales
flore
florecimientu
florence
florencia
florencio
florenti
florentino
flores
flori
floria
floriamientu
florida
floridablanca
florilexos
florio
flota
flotante
flotes
flotilla
flow
flower
flowering
flowers
floyd
flu
fluctuaciones
fluidez
fluvial
fluviales
fluxos
fluxu
fluyi
fly
flying
flynn
fm
fmi
fmt
fo
foca
focete
focos
focu
focus
foguera
fogueres
foi
foinos
foise
fola
folada
folclo
folclor
foles
foley
folgar
foli
folia
foliar
foliolos
foliu
folk
folla
folletu
follow
following
fomentar
fomento
fomentu
fona
fonda
fondamente
fondero
fondes
fondo
fondos
fondu
fondura
fondures
fone
fonema
fonemes
fono
fonolo
fonoloxi
fonos
fonseca
font
fontaine
fontana
fonte
fontes
fonu
food
foot
football
foques
for
fora
foral
forbes
forca
force
forces
ford
fore
foreign
foren
forense
forest
forestal
forestales
forever
forgotten
foria
form
forma
formaba
formaben
formacio
formaciones
formada
formaes
formal
formales
formalmente
formando
formaos
formar
formara
formari
formaron
formase
format
formation
formatos
formatu
forme
formen
former
formes
formigo
formigueru
formigues
formo
formosa
formoses
formosu
forms
formula
formulacio
formular
formulo
forni
fornica
fornos
fornu
foro
foron
foros
forster
fort
fortalecer
fortaleces
fortalecimientu
fortaleza
forti
fortifica
fortificacio
fortificaciones
fortificada
fortress
fortuna
fortune
foru
forum
forward
forxa
forza
forzada
forzando
forzaos
forzar
forzo
forzza
fosfatu
foso
fossil
foster
foto
fotogra
fotografi
fotografia
fotogrames
fotones
fotosi
fotovoltaica
foucault
found
foundation
four
fourier
fourr
fourth
fox
fr
fra
frac
fracasa
fracasaron
fracaso
fracasos
fracasu
fraccio
fracciones
fraga
fragata
fragmentacio
fragmentos
fragmentu
frai
fraicio
fran
franc
franca
france
frances
francesa
francesc
francesca
francesco
franceses
francia
francis
francisca
franciscanos
franciscanu
francisco
franciscu
franco
francos
francu
frank
frankenstein
frankfurt
frankie
franklin
franky
franquicia
franquicies
franquismu
franquista
franquistes
franxa
franxes
franz
frase
fraser
frases
fraternida
fraude
fraxinus
fray
frayatu
fre
freak
frecuencia
frecuencies
frecuente
frecuentemente
frecuentes
fred
freddie
freddy
frederic
frederick
free
freebase
freedom
freeman
frei
freire
frena
frenar
french
frenos
frente
frentes
frenu
fresa
fresca
fresco
frescos
frescu
fresh
fresno
fresnu
fresques
freud
fri
friburgu
frica
fricativa
friday
friedman
friedrich
friend
friends
frigori
fringe
frisia
frisu
fritz
from
frondizi
front
frontal
frontera
fronteres
fronterices
fronteriza
fronterizos
fronterizu
fronteru
frontier
fronto
froome
frost
fruhstorfer
fruit
frustracio
fruta
frutales
frutes
frutos
frutu
fry
ft
fu
fue
fuelga
fuelguen
fuelgues
fuente
fuentes
fueos
fuera
fuercia
fuercies
fueren
fueron
fueros
fuerte
fuertemente
fuertes
fuerteventura
fueru
fuesa
fueses
fueu
fuexu
fueya
fueyes
fuga
fugo
fui
fuji
fujian
fujimori
fukuoka
fukushima
full
fullcredits
fuller
fullmetal
fulltext
fumar
fumu
fun
funcio
funciona
funcionaba
funcional
funcionales
funcionalidad
funcionamientu
funcionando
funcionar
funcionarios
funcionariu
funcionen
funciones
funciono
function
fund
funda
fundacio
fundacional
fundaciones
fundada
fundador
fundadora
fundadores
fundaes
fundamental
fundamentales
fundamentalmente
fundamentos
fundamentu
fundando
fundar
fundaron
funde
fundi
fundicio
fundida
fundie
fundimientu
fundio
fundir
fundise
fundo
funeral
funerales
funeraria
funerarios
funerariu
funet
fungi
fungos
fungu
funk
funny
furaca
furacanes
furacos
furacu
furious
furnariidae
further
furu
fury
fuselaxe
fusil
fusila
fusiles
fusio
fusu
futbol
futboli
futbolista
futbolistes
futura
future
futures
futuros
futuru
fuxe
fuxendo
fuxeron
fuxi
fuxida
fuxir
fuxo
fx
fɾi
g
ga
gabinete
gabitu
gabo
gabriel
gabriela
gabrielle
gaceta
gadafi
gaddafi
gadu
gae
gafes
gaga
gai
gaia
gais
gaita
gaites
gal
gala
galactic
galaxa
galaxes
galaxy
galdames
gale
galega
galego
galeri
gales
galesa
galeses
gali
galia
galicia
galilea
galileo
galindo
galium
gallagher
gallardo
gallardones
gallardonia
gallardoniada
gallardoniaos
gallega
gallego
gallegos
gallegu
gallery
gallica
gallimard
gallo
gallu
galo
galos
galu
galva
gama
gamarra
gambia
gamboa
game
gamecube
games
gamespot
gametos
gamma
gan
gana
ganaba
ganada
ganadera
ganaderi
ganaderos
ganaderu
ganador
ganadora
ganadores
ganaes
ganancia
ganancies
ganando
ganaos
ganar
ganara
ganari
ganaron
ganase
gandhi
gandi
gane
ganen
ganes
gang
gano
gansu
gante
gao
gap
gara
garanti
garantiza
garantizar
garay
garbo
garce
garci
garcia
gard
garden
gardens
gardiner
gardner
garfield
garganta
gargu
gari
garibaldi
garland
garner
garp
garra
garrar
garres
garrett
garrido
garros
garth
gary
garza
garzo
gas
gase
gaseosu
gases
gasolina
gaspar
gastadura
gastar
gasto
gaston
gastos
gastrointestinales
gastrono
gastronomi
gastu
gata
gate
gates
gatos
gatu
gaudi
gauguin
gaulle
gauss
gavila
gavilueta
gavin
gaviria
gay
gaza
gazette
gazetteer
gb
gc
ge
gea
gear
gemeinsame
geminorum
gemma
gen
gena
genas
gender
gene
genealogy
genera
general
generalitat
generation
genes
genesis
genetic
genetics
geneva
genius
geno
genocide
genome
genos
genre
gens
gente
gentiana
genus
geo
geoffrey
geogra
geographic
geographical
geography
geological
geology
georg
george
georges
georgetown
georgia
ger
gerais
gerald
geranium
gerard
gerardo
gerhard
germa
germain
german
germania
germany
germplasm
gernika
gero
gertrude
geschichte
gesellschaft
get
getafe
gets
getting
getty
gfdl
ghana
gheada
ghost
ghosts
gi
gia
giacomo
gian
gianni
giant
giants
gibbons
gibbs
gibson
gica
gicamente
gicas
gico
gicos
gida
gijo
gil
gilbert
gilberto
giles
gill
gillan
gilles
gilmore
gime
gimnasia
gin
gina
ginas
ginger
gino
giorgio
giovanni
gipuzkoa
girl
girls
giro
girolamo
girona
giulio
giuseppe
give
gives
gj
gl
gla
glabra
glabres
glabro
glabros
glaciacio
glacial
glaciar
glaciares
gladys
glamour
glas
glasgow
glass
glauca
glaucidium
glaya
gleason
glee
glen
glendale
glenn
gli
gliese
glo
global
globales
globalizacio
globe
globo
globos
globu
globular
gloria
gloriosa
glory
glosariu
glossary
glover
glu
gluco
glucosa
gluten
gm
gmbh
gmelin
gnd
gnu
go
goa
goal
gob
goberna
gobernaba
gobernacio
gobernada
gobernador
gobernadora
gobernadores
gobernando
gobernante
gobernantes
gobernaos
gobernar
gobernaron
goberno
gobierna
gobierno
gobiernos
gobiernu
gochos
gochu
gocia
gociaba
gocien
gocio
god
goddard
godfather
godofredo
godos
godoy
gods
godzilla
goes
goethe
gogh
goguryeo
goia
going
goku
gol
gola
gold
goldberg
golden
goldman
goldstein
goldwyn
goles
golf
golfu
goliada
goliador
goliadores
golondrina
golor
golpe
golpes
goma
gomera
gomes
gomez
gon
gonc
gone
gonos
gonu
gonza
gonzalez
gonzalo
good
goodbye
goodman
google
gor
gora
goras
gorbachov
gorda
gordo
gordon
gordu
gore
gorrio
gosling
gospel
gossip
got
gota
gotemburgu
gotes
gotha
gotham
gottfried
gould
gouv
gov
government
goya
gozo
gp
gps
gr
gra
graba
grabacio
grabaciones
grabada
grabaes
grabando
grabaos
grabar
grabaron
grabo
grace
gracia
graciano
graciela
gracies
gracilis
grada
gradiente
gradua
graduacio
graduada
gradual
gradualmente
graduaos
graduar
graduase
graduate
graduo
graes
graf
grafa
grafi
grafitu
grafo
grafos
grafu
graham
gram
grama
gramatical
gramaticales
grami
grammar
grammy
grammys
gramos
gran
grana
granada
granadina
granados
granaes
grand
granda
grandas
grande
grandes
grandor
granes
grani
granible
granibles
granitu
granos
grant
granu
granxa
granxeros
granxes
graos
grasa
grase
grases
grasos
grass
gratuita
gratuitu
grau
grava
grave
graveda
gravemente
graves
gray
graz
gre
great
greater
greatest
grebes
grebos
grebu
grecia
greco
gredos
greece
greek
green
greenberg
greene
greenwich
greenwood
greg
gregorianu
gregorio
gregory
gremios
gremiu
grenoble
grense
greta
grey
griega
griego
griegos
griegu
griegues
griffin
griffith
grijalbo
grimaldi
grimm
grin
gripe
gris
griseb
grises
gro
groenlandia
grohmann
grosez
gross
grosso
ground
group
groups
grove
growing
growth
gru
gruesa
grueses
gruesos
gruesu
grunge
grupo
grupos
grupu
gruyter
gs
gst
gt
gta
gto
gu
gua
guadalajara
guadalaxara
guadalcanal
guadalquivir
guadalupe
guadarrama
guadiana
guadix
guam
guan
guanajuato
guangdong
guantes
guapa
guapu
guapura
guara
guarani
guarda
guardaespaldes
guardar
guarden
guarderi
guardia
guardian
guardianes
guardians
guardias
guardiola
guardo
guaren
guarnicio
guarniciones
guatemala
guatemaliana
guatemalianos
guatemalianu
guayana
guayaquil
guayas
gubernamental
gubernamentales
gue
gueda
guense
guerra
guerre
guerrero
guerreros
guerreru
guerres
guerrilla
guerrilleros
guerrilleru
guerrilles
guese
guest
gueta
guetu
guevara
guez
guggenheim
gui
guia
guiana
guide
guides
guido
guila
guild
guiles
guillaume
guille
guillermo
guillermu
guine
guinea
guinness
guio
guiones
guionista
guionistes
guipu
guisa
guitar
guitarra
guitarres
guitarrista
gula
gules
gulf
gulliver
gun
gunn
guns
guo
gupta
guru
gusta
gustaba
gustari
gustav
gustave
gustavo
gusto
gustos
gustu
gutenberg
guthrie
gutie
guxa
guy
guyana
guzma
gwen
gwynedd
gyllenhaal
gyo
h
ha
haas
hab
habana
haber
habese
habi
habiendo
habilida
habilidaes
habilita
habita
habitaben
habitable
habitacio
habitaciones
habitada
habitaes
habitante
habitantes
habitar
habiten
habitual
habituales
habri
habsburgu
hachette
hachos
hachu
hacia
hackett
had
hades
hagen
hahn
hai
hair
haise
haiti
haitianu
hal
hala
hale
half
hall
halle
halley
halloween
halo
ham
hama
hamburg
hamburgu
hamilton
hamlet
hammer
hammond
hampshire
hampson
han
hancock
hand
handbook
handle
hands
hangul
hank
hanks
hanna
hannah
hannover
hans
hanse
hansen
happened
happy
hara
harald
harbor
harcourt
hard
hardcore
harding
hardware
hardy
hare
harlem
harley
harmo
harmoni
harmony
haro
harold
harper
harpercollins
harriet
harris
harrison
harry
hart
harvard
harvey
has
hasan
hassan
hasta
hastings
hat
hate
hathaway
haut
haute
have
haven
havre
hawaii
hawaiian
hawk
hawke
hawking
hawkins
hawks
hay
haya
hayden
haydn
hayek
hayes
haza
hazard
hb
hbo
hc
hd
he
head
heads
health
hearst
heart
hearts
heat
heath
heather
heaven
heavy
hebo
hebre
hebrea
hebreos
hecq
hecta
hector
hee
hegel
heidegger
heidelberg
heidi
heights
heine
heinrich
heinz
held
hele
helen
helena
heleni
helico
heliconius
heliu
hell
hellblazer
hello
helm
helmut
help
helsinki
helve
hem
hemeroteca
hemingway
hemisferiu
hemisphere
hemoglobina
hemorraxa
hen
henan
henao
henares
henderson
henri
henrik
henrique
henry
hepa
hepatitis
hepburn
her
hera
heracles
heraclio
herald
heraldo
heraldu
heras
herb
herba
herbal
herbales
herbario
herbariu
herbarium
herbert
herbi
hercules
herculis
here
hereda
heredada
heredaes
heredar
heredera
herederos
herederu
heredia
hereditaria
hereditariu
heredo
herexi
herge
heriedu
heritage
hermafrodites
herman
hermana
hermanas
hermanda
hermandaes
hermanes
hermann
hermano
hermanos
hermanu
herme
hermes
herna
hernando
hero
heroes
heroi
heroica
herpes
herrera
herrero
herri
herria
herschel
herzegovina
herzog
hesperiidae
hesse
hesto
hestoria
hestories
het
hetero
heterosexual
heterosexuales
heteroxe
hevia
hewitson
hewitt
hexagonal
hexemoni
hey
hi
hibiernu
hibridacio
hickman
hidalgo
hidden
hideyoshi
hidra
hidro
hidrocarburos
hidroele
hidrogra
hierarchy
hierro
higgins
high
higher
highlights
highway
hijo
hilaire
hilario
hilary
hilbert
hilda
hill
hillary
hills
hilton
hilty
him
himalaya
himnos
himnu
hinchente
hinchentes
hinches
hinckley
hindi
hindu
hinduismu
hinojosa
hip
hipertensio
hipo
hipopo
hipote
hipparcos
hiroki
hiroshi
hiroshima
hirundo
his
hispa
hispana
hispania
hispanoame
hispanoamericana
hispanos
hispanu
hist
histo
histoire
historia
historiador
historiadora
historiadores
historial
historiar
historic
historical
histories
historieta
historietes
historiogra
historiografi
history
hit
hitchcock
hitita
hitites
hitler
hits
hiv
hixene
hizkuntza
hiztegia
hk
hl
hm
hms
hn
ho
hobart
hobbes
hoc
hockey
hoffman
hoffmann
hogan
hohenzollern
hokche
hokkaido
hola
holanda
holande
holandesa
holandeses
holbein
hold
holden
holding
holdings
hole
holiday
holland
holloway
holly
hollywood
hollywoodreporter
holm
holmberg
holmes
holmgren
holocaust
holocaustu
holstein
holt
holy
hombre
home
homenaxe
homenaxes
homeopati
homepage
homer
homero
homes
homi
homicidiu
homme
homo
homofobia
homosexual
homosexuales
homosexualida
homosexuality
homoxe
homs
honda
honduras
honduren
hondures
honey
hong
honolulu
honor
honorable
honorariu
honorary
honores
honori
honorio
honoris
honors
honour
honours
honra
honrar
hood
hook
hooke
hooker
hooper
hoover
hop
hope
hopkins
hopper
hora
horacio
horarios
horariu
horda
hores
horizon
horizontal
horizontales
horizonte
horizontes
hormona
hormones
horn
horne
horner
hornets
horrible
horror
horse
hort
horti
horticultura
hortolices
hortus
horus
hospital
hospitales
host
hostilida
hostilidaes
hosts
hot
hotel
hoteles
houghton
hour
hours
house
housewives
houston
how
howard
howe
howell
hoy
hoya
hoyo
hoyos
hp
hr
hrer
hrsg
htc
htm
html
http
https
hu
hua
huang
huasco
huatl
hubbard
hubble
huber
hubert
hubiera
hubo
hudson
hue
huebra
huelva
huerta
huesca
huestes
huffington
huffingtonpost
hugh
hughes
hugo
hugonotes
huh
hui
hulk
hull
hulu
humala
human
humana
humanes
humani
humanida
humanidaes
humanismu
humanista
humanitaria
humanitariu
humano
humanos
humans
humanu
humberto
humboldt
hume
humilda
humilde
humor
humori
humorista
humphrey
hundred
hung
hunger
hungri
hunos
hunt
hunter
huntington
hurricane
hurt
hurtado
husband
husein
hussein
husserl
huston
hutchinson
hutton
huxley
hyde
hydrae
hye
hyo
hyperloop
hyrule
hyun
hyundai
hz
i
ia
iaaf
ian
iana
iata
ib
iba
ibarra
ibc
ibe
iberia
iberoame
iberoamericana
iberoamericanu
ibi
ibid
ibis
ibles
ibm
ibn
ibrahim
ic
ica
icao
ice
iceland
ich
ico
icon
iconografi
iconos
iconu
icteridae
id
ida
idaho
idc
ide
idea
ideal
ideales
ideas
idees
identida
identidaes
identifi
identifica
identificacio
identificada
identificador
identificaes
identificaos
identificar
identificase
identification
identifico
identifiquen
identity
ideolo
ideoloxi
idescat
idi
idioma
idiomes
ido
idol
idref
ie
iec
ieee
ies
ieyasu
if
iffhs
iga
iglesia
iglesias
ign
ignacio
ignora
igo
igor
igua
igual
iguala
igualar
igualda
iguales
igualmente
iguar
ii
iii
ik
ikastola
il
ildefonso
iler
ilesia
ilesies
ilex
ilexi
ili
iliff
ill
illa
ille
illeg
illegal
illegales
illegalmente
illes
illinois
illustrated
illustrations
ilusio
ilusiones
ilustra
ilustracio
ilustraciones
ilustrada
ilustrador
ilustraos
ilustrar
im
ima
image
imagen
images
imax
imaxe
imaxinacio
imaxinar
imaxinaria
imaxinariu
imdb
imitacio
imp
impact
impacto
imparcial
imparte
imparti
impartio
impartir
impautos
impautu
imperativu
imperfectu
imperial
imperiales
imperialismu
imperios
imperiu
implantacio
implementa
implementacio
implementar
implemento
impli
implica
implicaba
implicacio
implicaciones
implicaes
implicaos
implicar
implications
implico
impliquen
impon
imponer
imponese
imponi
imponie
importa
importacio
importaciones
importancia
importante
importantes
importar
imposibilida
imposible
imposibles
imposicio
impossible
imprecisu
imprenta
imprentadores
impresa
imprescindible
impresio
impresiona
impresionante
impresionantes
impresiones
impresionismu
impresos
impresu
imprimir
improbable
improved
improvisacio
impu
impuesta
impuestes
impuestos
impuestu
impulsa
impulsada
impulsar
impulso
impulsor
impulsos
impulsu
impunida
impunxo
in
ina
inala
inaugu
inaugura
inauguracio
inaugurada
inaugural
inaugurar
inauguro
inc
inca
incapaces
incapacida
incapaz
ince
incertidume
inch
incidencia
incidente
incidentes
inciensu
incierta
inciertu
incipiente
incla
inclina
inclinar
inclu
includes
including
inclusio
inclusive
inclusu
incluye
incluyendo
incluyeron
incluyi
incluyida
incluyir
incluyiri
incluyise
incluyo
inco
incompleta
incondicional
inconsciente
inconveniente
inconvenientes
incorpo
incorpora
incorporacio
incorporada
incorporando
incorporaos
incorporar
incorporaron
incorporase
incorporen
incorporo
incorreutu
incredible
increi
incubacio
incursio
incursiones
incursiono
ind
inda
indefini
indefinida
indemnizacio
independence
independencia
independent
independentista
independentistes
independiente
independientemente
independientes
indetermina
index
indi
india
indian
indiana
indianapolis
indians
indias
indica
indicaba
indicacio
indicaciones
indicada
indicador
indicadores
indicaes
indicando
indicar
indicativu
indico
indie
indies
indigenous
indignacio
indios
indiquen
indireuta
indireutamente
indireutu
indiscutible
indispensable
indistintamente
indiu
individual
individuales
individualismu
individualista
individualmente
individuos
individuu
indo
indochina
indoeurope
indoeuropea
indoeuropees
indoeuropeos
indonesia
indonesiu
induccio
induced
induci
inducida
inducir
indumentaria
indurain
industria
industrial
industriales
industrializacio
industries
industry
ine
inegi
inercia
inerte
inesistente
inespera
inesperada
inestabilida
inestable
inevitable
infancia
infanta
infante
infanteri
infantes
infantil
infantiles
infartu
infeicio
infeiciones
infeicioses
inferior
inferiores
inferiorida
infesta
infestaos
infiernu
infinida
infinita
infinitivu
infinitu
infinity
inflacio
inflamacio
inflexo
inflorescencia
inflorescencies
influ
influence
influencia
influencies
influenza
influxu
influyencia
influyencies
influyente
influyentes
influyeron
influyi
influyida
influyir
influyo
info
infobae
infope
informa
informacio
informaciones
informador
informal
informales
informar
informaron
information
informativa
informativos
informativu
informe
informes
informo
infraespeci
infraestructura
infraestructures
inframundu
infrared
infrarroxu
infty
ing
ingesta
ingestio
inglaterra
ingle
inglesa
ingleses
ingrediente
ingredientes
ingresa
ingresando
ingresar
ingresaron
ingreso
ingresos
ingresu
ingrid
inherente
inhibidores
iniciacio
inicial
iniciales
iniciativa
iniciatives
iniesta
inmaculada
inmaterial
inmediata
inmediatos
inmediatu
inmensa
inmensu
inmersio
inmigracio
inmigrante
inmigrantes
inminente
inmo
inmobiliariu
inmortal
inmortalida
inmueble
inmuebles
inmune
inmunida
inmunitariu
inner
innovacio
innovaciones
innovador
innovadores
innumberables
ino
inocencia
inocencio
inocente
inocentes
inorancia
inorga
inos
inques
inquisicio
inscribir
inscripcio
inscripciones
inscritos
inscritu
insecti
insects
insegurida
insertamientu
inseutos
inseutu
inside
insider
insinia
insinies
insistencia
inso
inspector
inspeicio
inspira
inspiracio
inspirada
inspiraes
inspiraos
inspirar
inspiro
inst
insta
instagram
instala
instalacio
instalaciones
instalada
instalaos
instalar
instalaron
instalase
instalo
instancia
instancies
instanta
instaura
instauracio
instauro
instintu
institucio
institucional
institucionales
instituciones
institut
institute
institution
instituto
institutos
institutu
instituyo
instruccio
instrucciones
instructor
instrumentacio
instrumental
instrumentos
instrumentu
insuficiencia
insuficiente
insuficientes
insular
insulares
insulina
insurreccio
insurxencia
insurxente
insurxentes
int
inte
integra
integracio
integrada
integraes
integral
integrales
integrando
integrante
integrantes
integraos
integrar
integrase
integrated
integren
integrida
integro
intel
intelectual
intelectuales
intelixencia
intelixente
intelixentes
intelligence
intencio
intencional
intenciones
intendencia
intendente
intensa
intensamente
intenses
intensida
intensiva
intensos
intensu
intenta
intentaba
intentaben
intentando
intentar
intentara
intentaron
intenten
intento
intentos
intentu
inter
interaccio
interacciones
interactive
interactivo
interactu
interactuar
interaicio
interaiciones
interamericana
intercambiar
intercambios
intercambiu
intercontinental
intere
interesa
interesada
interesante
interesantes
interesaos
interesar
interesase
intereses
intereso
interest
interestelar
interfaz
interferencia
interferir
interi
interina
interior
interiores
interlingua
intermediarios
intermitente
interna
internacional
internacionales
internacionalmente
internamente
international
internationale
internes
internet
internos
internu
interpre
interpreta
interpretaba
interpretacio
interpretaciones
interpretada
interpretaes
interpretando
interpretaos
interpretar
interpretaron
interpretase
interpreten
interpreto
interrupcio
interseicio
intervalos
intervalu
intervencio
intervenciones
interveni
intervenir
intervie
intervienen
intervieno
interview
interviews
intervinieron
intesti
intestinal
intestinales
intimida
into
intolerancia
intoxicacio
intre
intri
intriga
intrigues
introduccio
introduci
introducida
introducie
introduciendo
introducieron
introducio
introducir
introducise
introduction
introduz
intuicio
inu
inuit
inusual
inusuales
inva
invadi
invadida
invadieron
invadio
invadir
invalid
invariable
invasio
invasion
invasiones
invasor
invasores
invencio
inventa
inventariu
invento
inventor
inventos
inventu
inversa
inversio
inversiones
inversionistas
inversores
inversu
invertebraos
inverti
invertir
investido
investiga
investigacio
investigaciones
investigador
investigadora
investigadores
investigando
investigar
investigation
investigo
invicta
invictu
invirtio
invisible
invistidura
invita
invitacio
invitaos
inxeniera
inxenieri
inxenieros
inxenieru
inxeniu
inxeri
inxerir
inxusticia
inyeicio
io
ioc
ion
iones
ios
iota
iowa
ip
ipac
ipad
ipcc
iphone
ipni
ipod
ir
ira
iran
irani
iranian
iranina
iraq
iraqui
ireland
irene
irina
iris
irish
irlanda
irlande
irlandesa
irlandeses
irma
iro
iron
ironi
irregular
irregulares
irregularidaes
irritacio
iru
irving
is
isa
isaac
isabel
isabella
isabelle
isai
isbn
isbol
ise
isidoro
isidro
isis
isla
islam
islamic
island
islande
islandesa
islandia
islands
isle
islen
islla
islles
ismael
ismail
ismu
iso
isqui
israel
israeli
israelina
israelines
israelinos
israelita
issn
issue
issues
ist
ista
istambul
istes
istituto
it
ita
italia
italian
italiana
italianes
italiano
italianos
italianu
italo
italy
item
itemid
ithaca
itinerante
itinerariu
itis
ito
its
itunes
iturbide
itza
iu
iucn
iucnredlist
ius
iv
iva
ivan
ivernaderu
iverson
ives
iviernos
iviernu
ivy
ix
iz
izquierda
izquierdes
izquierdista
izquierdo
iztapalapa
j
ja
jaca
jacinto
jack
jackie
jackson
jacob
jacobo
jacobs
jacq
jacqueline
jacques
jade
jae
jaguar
jaime
jake
jakob
jalisco
jam
jama
james
jamie
jan
jane
janeiro
janet
janis
january
japan
japanese
japonica
jar
jara
jaramillo
jardim
jared
jason
jaume
jaurlaritza
java
javier
jay
jazeera
jazz
jbrj
jc
jcyl
je
jean
jeanne
jedi
jeff
jefferson
jeffrey
jena
jenkins
jennifer
jenny
jensen
jepson
jera
jeremy
jero
jerome
jerry
jersey
jesse
jessica
jessie
jesu
jesus
jet
jets
jewish
jews
jf
jfk
jhtml
ji
jia
jiang
jill
jim
jime
jimmy
jin
jl
jm
jn
jo
joa
joachim
joan
joanna
joanne
joaqui
joaquim
job
jobs
joe
joel
joey
johan
johann
johanna
johannes
johannesburgu
johansson
john
johnny
johns
johnson
johnston
join
joins
joint
jojo
joker
jolie
jon
jonas
jonathan
jones
jong
jord
jordan
jordi
jorge
jornada
jose
josef
josefa
josefina
josep
joseph
josephine
josh
joshua
journal
journals
journey
joy
joyce
jp
jpg
jpl
jr
js
jsp
jstor
ju
jua
juan
juana
judas
judd
jude
judge
judith
judoinside
judy
juegos
jugador
jujuy
jul
jules
juli
julia
julian
julie
julien
juliet
julieta
juliette
julio
julius
july
jump
jun
june
jung
jungle
juni
junior
juniors
juniperus
juno
jupiter
jura
jurado
jurassic
juri
juss
just
justice
justicia
justin
justine
justiniano
justino
justo
juventus
jørgensen
k
ka
kabul
kahn
kai
kaiser
kal
kaler
kan
kanagawa
kane
kang
kanji
kansas
kant
kanye
kappa
kara
karabaj
karachi
karate
kardashian
karel
karen
karl
kart
kas
kaspa
kat
kata
kate
katharine
katherine
kathleen
kathryn
kathy
katie
kato
katrina
katy
katz
kaufman
kawasaki
kay
kaza
kazaksta
kazan
kazuki
kaɾ
kb
kbs
kc
ke
kea
keaton
keck
keep
kei
keith
keller
kellogg
kelly
kelvin
ken
kenia
kenji
kennan
kennedy
kenneth
kenny
kent
kentucky
kepler
kerala
kerouac
kerr
kerry
kes
kevin
kew
key
keynes
keys
kg
khalifa
khan
khmer
khrushchov
ki
kick
kid
kidd
kids
kiel
kiev
kiki
kill
killed
killer
killers
killing
kilogramos
kim
kind
kindred
kinematics
king
kingdom
kings
kingston
kioto
kirby
kirchner
kirgui
kirguista
kirk
kiss
kissinger
kit
kita
kitty
klan
klaus
klein
klezmer
klm
km
knapp
knicks
knight
knights
knopf
know
knowledge
knowles
known
knox
ko
kobayashi
kobe
koch
kohei
koji
kolchak
kon
konami
konex
kong
konrad
korea
korean
kos
kosovo
kosovu
kota
kov
koɾ
kr
kra
kraft
krai
kramer
krasnodar
kratos
krause
kree
kremlin
krishna
kristen
kristin
kropotkin
kru
ks
ku
kuala
kubitzki
kuiper
kultura
kuma
kun
kung
kunth
kuntze
kuomintang
kurt
kuwait
kv
kw
kwa
kyle
kylie
kyo
kyoto
kyu
kɐ
kɔ
kə
kɾa
l
la
lab
laba
labes
labor
laboratory
lac
lactancia
laden
ladies
ladislao
lady
lafresnaye
lag
laga
lago
lagos
lagrange
lagu
laguna
lai
lake
lakers
lam
lama
lambda
lambert
lamentablemente
lamiaceae
lamo
lamos
lamu
lan
lana
lanacion
lanar
lancaster
lance
lancet
lancia
land
landau
lands
lane
lang
lange
language
languages
langue
lanka
lanzarote
lao
laos
laplace
lar
lara
laredo
lares
largamente
large
largest
largo
larousse
larrea
larry
lars
larsen
larson
las
lase
last
lat
late
latente
later
latest
latham
latifolia
latimes
latin
latina
latitud
lato
lauda
laude
launch
launches
laura
laureates
lauren
laurence
laurent
laurie
lausana
lava
laval
lavalle
lavandula
lavanguardia
lavar
lavoe
law
lawn
lawrence
laws
lazio
lb
lbum
lbumes
lc
lcd
lculos
lculu
ld
ldica
ldicu
le
lea
lead
leader
leaders
leading
leads
leaf
league
leal
leandro
lear
learning
least
leave
leaves
leb
lebes
lebre
lebres
lebron
lecture
lectures
led
ledes
ledesma
ledger
lee
leeds
leeuwen
left
leg
lega
legacy
legane
legend
legendary
legends
legio
lego
legrand
leguminosae
lei
leibniz
leicester
leiden
leigh
leipzig
lema
lemos
len
lena
lenga
lengua
leni
lenin
leningra
lennon
lense
lenta
lente
lentes
lentos
lentu
leo
leon
leonard
leonardo
leone
leonel
leonid
leonis
leonor
leopold
leopoldo
leopoldu
lepe
lepido
lepidoptera
leq
lera
lerma
leroy
les
lesa
lesbian
lesbiana
lesbianes
leslie
lesnar
lesothu
less
lesson
lessons
lester
let
letal
leticia
leto
letonia
letra
letter
letters
lettres
leucania
leucemia
lev
levante
leve
level
levels
leves
levi
levine
levy
lewis
lex
lexi
lexicon
lexington
lexo
lexones
ley
lez
lfp
lg
lgara
lgaros
lgaru
lgbt
lhs
li
lia
liam
liang
lib
libane
libanesa
libe
liber
liberation
liberia
libertad
libertadores
liberty
libia
libiu
library
libri
libris
libro
libros
libya
lic
lica
licas
license
lico
licos
licu
lida
lidera
liderada
lideralgu
liderando
lideraos
liderar
lidero
lides
lidia
lido
lidos
lidu
lie
liechtenstein
lied
lies
liexa
life
lifetime
liga
light
lightning
lights
ligne
ligue
liguilla
liguria
like
lil
lila
lili
liliana
lille
lillian
lily
lim
lima
limenitidinae
limited
limits
lin
lina
linares
lincoln
linda
lindl
lindsay
line
linear
lines
linfa
linfocitos
lingu
lingua
linguistic
linguistics
link
linkin
links
linn
linnaeus
linnean
linneo
linux
lio
lion
lionel
lions
liques
lis
lisa
lisboa
lise
lisis
list
lista
liszt
lit
lite
literary
literatura
literature
lites
lithium
litiu
lito
little
lituana
lituania
lituanos
lituanu
liu
liubliana
liv
live
liverpool
lives
living
livingstone
liviu
livre
lix
liz
ll
lla
llaberintu
llabios
llabiu
llabor
llaboral
llaborales
llaboratorios
llaboratoriu
llabores
llaborista
llabra
llabrador
llabradora
llabradores
llacuada
lladral
lladrales
lladriyos
lladriyu
lladro
lladrones
llagartos
llagartu
llagos
llagu
llaguna
llagunes
llaicos
llaicu
llama
llamaba
llamaben
llamada
llamaes
llamamientu
llamamos
llamando
llamaos
llamar
llamargues
llamari
llamaron
llamase
llamativu
llamatu
llamen
llamera
llamo
llana
llancen
llanceolaes
llances
llanera
llanes
llangre
llano
llanos
llantadera
llantar
llanu
llanura
llanures
llanza
llanzada
llanzador
llanzaes
llanzamientos
llanzamientu
llanzando
llanzaos
llanzar
llanzaron
llanzase
llanzo
llaos
llapada
llapaes
llapiceru
llar
llares
llarga
llargamente
llargo
llargor
llargos
llargu
llargues
llargumetraxe
llargumetraxes
llateral
llaterales
llati
llatina
llatines
llatinoame
llatinoamericana
llatinoamericanos
llatinoamericanu
llatinos
llatitu
llau
llava
llavaderu
llavadura
llavar
llave
llaves
llaviana
llazos
llazu
llc
lle
lleal
lleales
llealta
llebre
llebres
lleche
llechu
llector
llectores
llectura
llectures
llee
lleenda
lleendes
lleendo
lleer
lleese
llega
llegaba
llegaben
llegada
llegaes
llegal
llegales
llegalida
llegalizacio
llegalmente
llegando
llegaos
llegar
llegara
llegaren
llegari
llegaron
llegase
llego
llegu
llegue
lleguen
llegumes
lleguminoses
llei
lleicio
lleiciones
lleida
lleis
lleldu
llen
llena
llenda
llende
llendes
llendo
llenes
llengua
llenos
llenu
llenzos
llenzu
lleo
lleona
lleone
lleones
lleonesa
lleoneses
lleopardu
ller
llerza
lletra
lletres
lletricida
lleva
llevaba
llevaben
llevada
llevaes
llevalo
llevando
llevanta
llevantada
llevantamientos
llevantamientu
llevantar
llevantase
llevante
llevanto
llevaos
llevar
llevara
llevaren
llevari
llevaron
llevase
lleve
llevemente
lleven
llevo
llexendaria
llexendariu
llexislacio
llexisladores
llexislativa
llexislatives
llexislativos
llexislativu
llexislatura
llexislatures
llexitimida
llez
lli
llibera
lliberacio
lliberada
lliberal
lliberales
lliberalismu
lliberalizacio
lliberando
lliberaos
lliberar
llibero
lliberta
llibertador
llibertaes
llibra
llibrar
llibre
llibremente
llibreri
llibres
llibretu
llibro
llibros
llibru
llice
llicencia
llicenciada
llicenciatura
llicencies
llicencio
llicor
lliga
lligues
llimbu
llimitacio
llimitaciones
llimo
llimpia
llimpiar
llimpieza
llimpiu
llinares
llinaxe
llinaxes
llinda
llindada
llindaes
llindando
llindaos
llindar
llinden
llindo
llingu
llingua
llinguaxe
llinguaxes
llinia
llinial
lliniales
llinies
llinterna
llinu
llio
lliquidacio
llira
lliriu
llisa
llises
llisos
llista
llistaos
llistes
llistos
llistu
llisu
lliteral
lliteralmente
lliteraria
lliteraries
lliterarios
lliterariu
lliteratura
llitros
llitru
llitu
lliturxa
llixera
llixeramente
llixeres
llixeros
llixeru
llo
llobos
llobregat
llobu
lloca
llocal
llocales
llocalida
llocalidaes
llocalizacio
llocalizaciones
llocalmente
llocomotora
llocomotores
llocos
llocu
llocucio
llocura
llocutor
llogra
llograba
llograben
llograda
llograes
llogralo
llogrando
llograos
llograr
llograra
llograren
llograri
llograron
llograse
llogre
llogren
llogro
llogros
llogru
llomba
llombes
llombu
llongura
llongures
llonxevida
llonxitu
llonxitudinal
llonxitudinales
llora
llorar
llore
llorente
llorienzo
llosa
lloyd
lluces
llucha
lluchaba
lluchaben
lluchador
lluchadores
lluchando
lluchar
llucharon
lluchen
lluches
llucho
lluci
lluen
llueu
llugar
llugares
llugarteniente
llui
lluis
lluisa
llull
llume
lluminosa
lluminoses
lluminosida
lluna
llunar
llunares
llunes
llurdios
llurdiu
llutu
lluvia
lluviosa
lluviosu
lluz
lm
lmenes
ln
lne
lo
lobelia
lobo
loc
local
locales
location
locke
lockheed
locus
log
loga
logan
logo
logos
logotipu
logron
logu
logues
lohan
loi
loira
loire
lois
lola
lolita
lombardi
lombardos
lombardu
lon
londinense
london
londres
lone
lonely
long
look
looking
looks
lope
lopes
lopez
lora
lorca
lord
lore
lorena
lorentz
lorenz
lorenzo
lores
loreto
lorraine
loru
los
losada
loss
lost
lot
lotario
lotov
lotus
lou
louis
louisa
louise
louisiana
lourdes
louvre
lov
love
lover
lovers
loves
low
lowe
lowell
lower
loxa
loxi
loyola
lozano
lp
lpg
lr
ls
lsd
lsinki
lt
lta
ltd
ltica
lticos
lticu
ltima
ltimamente
ltimes
ltimo
ltimos
ltimu
ltiple
ltiples
ltiques
lu
luc
luca
lucanidae
lucanus
lucas
luci
lucia
luciano
lucien
lucille
lucio
luck
lucky
lucrecia
lucy
ludovico
ludwig
luffy
lufthansa
luftwaffe
lugansk
lugar
lugo
lui
luigi
luis
luisa
luisiana
luiz
luja
luke
lula
lules
lulu
lumen
lumie
lumpur
luna
lund
lundy
lung
lupe
lupi
lupus
luque
lusitania
luterana
lutero
luther
lutz
lux
luxemburgu
luxemburgue
luxu
luz
lvarez
lvaro
lveda
lvense
lver
lvese
lvez
lvora
lvula
lvules
lxebra
lxica
lxiv
ly
lydia
lyle
lynch
lynn
lynne
lynx
lynxeds
lyon
lzase
m
ma
mabel
mac
maca
macarthur
macbeth
macdonald
macedo
macedonia
macedoniu
maces
mach
machado
machine
machos
machu
maci
macintosh
maciu
macizu
mack
mackenzie
macmillan
maco
macri
macro
mactutor
macy
mad
mada
madagascar
madalena
madame
madara
made
madeira
madeleine
madera
maderes
madero
mades
madison
madness
madonna
madoz
madrasca
madre
madres
madrid
madrigal
madrilana
madrilanu
madrina
madrugada
madura
maduracio
maduro
maduror
maduros
maduru
mae
maestra
maestre
maestres
maestri
maestros
maestru
mafa
mafia
mag
maga
magaci
magallanes
magar
magaya
magazine
magenta
maggie
magic
magma
magna
magnate
magne
magnesiu
magnetic
magni
magnitu
magno
magnolia
magnoliophyta
magnu
magnus
magos
magre
magreb
magres
magu
maguire
maguncia
maha
mahler
mahmud
mahoma
mai
maia
maiden
mail
maillot
main
maine
maire
mais
maison
major
majoris
make
makes
making
mal
mala
malaca
malaguen
malapenes
malaria
malasia
malaui
malawi
malaya
malaysia
malayu
malcolm
malda
maldicio
maldives
maldonado
male
males
malestar
maleza
mali
malibu
malik
mall
malla
mallorca
malmo
malo
malone
malos
malta
malte
malthinus
maltratu
malu
malva
malvada
malvi
malvines
mama
mambi
mame
mamelucos
mami
mammal
mammals
mamposteri
man
management
manager
managua
manantial
manantiales
manca
mancada
mancadura
mancadures
mancaes
mancaos
mancar
mancha
manchester
manchu
manchukuo
manchuria
manco
mancomu
mancomunida
manda
mandada
mandar
mandari
mandatarios
mandatariu
mandatos
mandatu
mandela
mando
mandos
mandu
manera
maneres
manes
manexu
manfred
manga
manganesu
manglares
mangu
mangues
manhattan
mani
manifesta
manifestacio
manifestaciones
manifestantes
manifestar
manifestase
manifesto
manifie
manifiesta
manifiesten
manifiestu
manila
maniobra
maniobres
manipoliar
manipulacio
manitoba
mann
mannheim
manning
mano
manolo
manos
manrique
mans
manson
mantega
mantis
mantu
manu
manual
manuales
manuel
manuela
manufactura
manuscritos
manuscritu
many
manzanares
manzanilla
manzorga
mao
maori
map
mapa
mapes
maps
mapuche
maquillaxe
maquinaria
mar
mara
maracaibo
maradona
maran
marato
maravedinos
maravi
maraviyosa
maraviyosu
marbella
marc
marca
marcada
marcadamente
marcador
marcadores
marcaes
marcando
marcaos
marcar
marcari
marcaron
marcel
marcela
marcelino
marcelo
march
marcha
marche
marches
marchesi
marcia
marcial
marciales
marcianu
marco
marcos
marcu
marcus
mare
marea
marees
mares
marfil
margaret
margarita
margot
marguerite
mari
maria
mariah
marian
mariana
marianes
marianne
mariano
marie
mariella
marielles
mariello
mariellos
mariellu
mariguana
marilyn
marin
marina
marine
marineros
marineru
marines
marino
marinos
mario
marion
marisa
mariscal
marismas
marisol
maritima
marjorie
mark
market
marketing
marlene
marley
marlon
marne
marque
marquen
marques
marquesa
marqueses
marriage
married
marro
marrones
marroqui
marroquina
marruecos
mars
marseille
marsella
marsh
marshall
mart
marta
marte
martel
martes
martha
marti
martial
marticorena
martiellu
martin
martina
martinez
martini
martinica
martino
martins
martiriu
martorell
marty
marvel
marvin
marx
marxe
marxes
marxinal
marxinales
marxismu
marxista
marxistes
mary
maryland
marzo
marzu
mas
masa
masacre
masacres
mascota
mascotes
masculi
masculina
masculines
masculino
masculinos
mase
mases
masi
masiva
masivamente
masives
masivos
masivu
mask
maso
mason
masoneri
mass
massa
massachusetts
massacre
masses
massive
master
masters
mat
mata
matamoros
matances
matando
matanza
matar
mataron
match
mate
matema
maten
mateo
mateos
mater
materia
material
materiales
materialismu
materials
materies
materna
maternida
maternu
math
mathbb
mathbf
mathcal
mathematical
mathematics
mathews
mathrm
mati
matices
matilde
mato
matos
matri
matrices
matricular
matrimonial
matrimonios
matrimoniu
matrix
matriz
matsumoto
matt
matteo
matter
matthew
matthews
matthias
matu
mauna
maura
maurecen
maurecer
maureen
maurice
mauricio
mauriciu
mauritania
mauro
mausole
mavericks
max
maxa
maxesta
maxi
maxim
maximiliano
maxisteriu
maxistra
maxistraos
maxistratura
maxwell
may
maya
mayer
mayes
mayo
mayor
mayoralgu
mayordomu
mayores
mayori
mayoritaria
mayoritariamente
mayoritariu
mayormente
mayr
mayu
mayweather
maza
mazana
mazanes
mazda
maɾ
mb
mbare
mbaru
mberos
mberu
mbitos
mbitu
mbolos
mbolu
mbox
mc
mccarthy
mccartney
mcclintock
mcdonald
mcdonnell
mcfarland
mcgraw
mcgregor
mclaren
mcmahon
mcqueen
md
mdma
me
meade
mean
meaning
measurement
measurements
meca
mecanismos
mecanismu
mecanizado
mecenes
med
meda
medal
medaya
medayes
medayista
medea
medelli
medes
media
mediacio
mediana
medianes
medianu
medianueche
mediaos
medical
medici
medicina
medicinal
medicine
medicines
medien
medies
medieval
medievales
medina
medio
medioambiental
medioambientales
mediocampista
medios
mediotiempo
meditacio
mediterra
mediterranean
mediterraneu
mediu
mediudi
medium
medlineplus
medo
medos
medrana
medranes
medri
medu
meet
meeting
meets
mega
megali
megalodon
megan
mehmet
mei
meiji
meji
mel
melanesia
melanie
melbourne
melchor
mele
melecina
melecinal
melecinales
melecines
melgar
melilla
melissa
mello
melo
melodi
melodrama
melody
melville
mem
member
members
membrana
membranes
membresi
memoir
memoirs
memorable
memorables
memoria
memorial
memories
memory
memphis
men
mena
menace
mencio
menciones
mendelssohn
mendes
mendoza
mene
menem
menes
meneses
mengu
mengua
menguando
menguar
menguo
meninxitis
meno
menor
menorca
menores
menos
mensaxe
mensaxeru
mensaxes
mense
menstruacio
mensual
mensuales
ment
menta
mentada
mentaes
mental
mentales
mentalida
mentanto
mentantu
mentaos
mentar
mentase
mente
menten
mentes
mentha
mentira
mentires
mento
mentor
menu
mer
mera
merca
mercada
mercader
mercaderes
mercado
mercadotecnia
mercanci
mercante
mercantes
mercantil
mercaos
mercar
mercaron
merce
mercedes
mercenarios
mercia
merco
mercosur
mercurio
mercuriu
mercury
mercy
merecen
mereci
meredith
merello
meres
merez
meri
meridianu
meridional
meridionales
merindad
merkel
mero
meros
merry
meru
meryl
mes
mesa
mese
meses
meseta
mesi
mesis
mesma
mesmes
mesmo
mesmos
mesmu
mesnil
meso
mesoame
mesoamer
mesopota
mesopotamia
messi
messier
messina
mestizos
mestu
met
meta
metabo
metabolismu
metacritic
metafi
metal
metales
metalicida
metallica
metalu
metalurxa
metamorfosis
metanes
metanu
meteorolo
meteorologi
meteorological
meteoroloxi
meter
metes
method
methods
metodista
metodolo
metodoloxi
metro
metroid
metropolitan
metropolitana
metropolitanes
metropolitanu
metros
metru
metz
meu
meurthe
meuse
mexelles
mexican
mexicana
mexicanes
mexicano
mexicanos
mexicanu
mexicas
mexico
mey
meyer
meyor
meyora
meyoramientu
meyores
mez
meza
mezquita
mezquites
mg
mgm
mhz
mi
mia
miami
mic
mica
micamente
micas
mice
michael
michaels
michel
michelangelo
michele
michelle
michigan
michoaca
mick
mickey
mico
micos
micro
microbioloxi
micronesia
microondes
microorganismos
microsco
microscopiu
microsoft
mics
micu
mid
middle
mide
miden
mides
midi
midida
midir
midnight
midway
mie
miel
miembro
miembros
miembru
miente
mientres
mier
mieres
mieu
mifflin
mig
might
mighty
migollu
migra
migracio
migraciones
migran
migrantes
migration
migratoria
migratories
migratorios
migratoriu
migren
miguel
migues
mijai
mike
mikel
mikhai
mil
mila
milagros
milagru
milan
milano
mildred
mile
milenio
milenios
mileniu
miles
miley
mili
milicia
milicianos
milicies
milisegundos
milita
militancia
militante
militantes
militar
militares
militarmente
military
milito
milk
mill
milla
millar
millares
millennium
miller
milles
million
millo
millonariu
millones
mills
milos
milton
milwaukee
mimi
min
mina
minas
mind
minds
mine
minera
mineral
minerales
minerals
mineres
mineri
mineros
mineru
minerva
mines
ming
minh
mini
miniatura
miniserie
minister
ministerial
ministerio
ministerios
ministeriu
ministra
ministros
ministru
ministry
minneapolis
minnesota
minogue
minor
minori
minoris
minoritaria
minoritaries
minoritarios
minsk
minu
minutes
minutos
minutu
mio
miocardiu
miocenu
mios
miq
miquel
miques
mir
mira
miracle
mirada
mirador
miraflores
miranda
mirande
mirando
mirar
mires
miriam
miro
mirror
misa
miseria
misericordia
mises
misil
misiles
misio
misioneros
misioneru
misiones
miss
missing
mission
mississippi
missouri
mista
mister
misterios
misteriosa
misteriosu
misteriu
mistes
mistos
mistral
mistu
mit
mitchell
mite
mites
mitochondrial
mitocondrial
mitolo
mitoloxi
mitos
mitra
mitre
mitsubishi
mitu
mix
mixteca
miyamoto
miyazaki
mj
mk
ml
mm
mma
mmajunkie
mn
mnras
mo
mobile
moblame
moc
moceda
mocedaes
moces
mocio
moctezuma
mod
moda
modalida
modalidaes
mode
model
modela
modelo
modelos
models
modelu
modera
moderada
moderadamente
moderaos
modern
moderna
modernes
modernida
modernismu
modernista
modernizacio
modernizar
moderno
modernos
modernu
modes
modesta
modestu
modifica
modificada
modificaes
modificaos
modificar
modifico
modu
moe
moench
mofos
mofu
mogol
moguer
mohamed
mohammad
mohammed
moi
moire
moires
moise
mojo
mol
mola
moldavia
molde
mole
molecular
moleculares
molesties
moli
molicio
moliciones
molie
molina
molinicos
molinos
mollet
molly
moluques
moluscos
mom
moma
moment
momenta
momento
momentos
momentu
momia
mon
mona
monaco
monarca
monarques
monarqui
moncayo
mondadori
monday
monde
moneda
monedes
monesterios
monesteriu
monetaria
monetariu
money
mongol
mongola
mongoles
mongolia
monica
monique
monitor
monk
monkey
mono
monocerotis
monocotiledo
monocotyledons
monofile
monogr
monografi
monoplaza
monopoliu
monos
monotei
monoti
monroe
mons
monsen
monster
monsters
mont
monta
montada
montagne
montan
montana
montaner
montano
montar
montascosa
montascoses
montascosos
montascosu
montaxe
monte
montecarlu
montemayor
montenegro
montenegru
montero
monterrey
monterrubio
montes
montesa
monteses
montevide
montevideo
montgomery
month
monthly
monti
montiegues
montiel
montigny
montjui
monto
montoya
montpellier
montreal
montserrat
montt
monu
monumental
monumentales
monumentos
monuments
monumentu
monxa
monxes
monxos
monxu
monza
monzo
moon
moore
mor
mora
moraba
moraben
morada
moraes
moral
morales
moralida
morar
moravia
moraza
morbihan
more
moreau
moreira
morelia
morelos
moren
morena
moreno
morfemes
morfolo
morfoloxi
morgan
mori
moria
morica
moriscos
morning
moro
moros
morpho
morphological
morphology
morrer
morreri
morri
morriendo
morriera
morrieren
morrieron
morrio
morris
morrison
morrone
morru
morse
mort
mortal
mortales
mortalida
morteru
morton
moru
mos
mosaicos
mosaicu
mosca
moscow
moscu
moselle
moser
moses
mosquera
mosques
mosquitos
moss
most
mostaza
mota
moteya
mother
moths
moti
motion
motiva
motivacio
motivo
motivos
motivu
moto
motocicleta
motocicletes
motociclismu
motor
motores
motors
motos
motril
motta
motudu
mou
mount
mountain
mountains
mouse
move
movement
mover
movese
movi
movida
movie
moviendo
movies
movilida
movilizacio
movilizaciones
movilizar
movimiento
movimientos
movimientu
moving
movio
movistar
moya
moza
mozambique
mozart
mozos
mozu
mp
mpara
mpares
mpeg
mph
mpica
mpico
mpicos
mpicu
mpiques
mputu
mr
mrs
ms
msn
msnbc
msnm
msterdam
mt
mtv
mu
mubarak
much
mucosa
muda
mude
mudu
mue
mueble
muebles
muela
muelle
muelles
muere
muerre
muerren
muerta
muerte
muertes
muertos
muertu
muestres
mueve
mueven
mueyo
mueyu
mugor
muhammad
mui
mujer
mujeres
mujica
mula
muller
mulo
mulos
multa
multi
multimedia
multinacional
multiple
multiplica
multiplicacio
multiplicar
multiterritorial
multixugador
mulu
mun
muncha
munches
muncho
munchos
munchu
mundi
mundial
mundiales
mundialista
mundialmente
mundiu
mundo
mundodeportivo
mundos
mundu
munich
municio
municiones
municipal
municipales
municipalida
municipio
municipios
municipis
munzinger
mur
mura
mural
murales
muralla
muralles
murcia
murder
murdoch
mure
mures
muria
muridae
muriel
muries
murillo
murios
muriu
murnia
murniu
muro
muroidea
murphy
murray
mus
musa
muscle
muscular
musculares
muse
museo
museos
muses
museu
museum
museums
mushrooms
music
musica
musical
musicales
musk
muslim
musser
mussolini
must
mustafa
mustang
musulma
musulmana
musulmanes
mutacio
mutaciones
mutante
mutantes
mutua
mutuamente
mutuu
muy
muyer
muyeres
mv
mvp
mw
mx
my
myanmar
myers
myriam
myspace
mystery
myth
mythimna
mythology
mɐ
mə
n
na
nabla
nac
nacen
nacencia
nacencies
nacer
nach
nacho
nachrichten
naci
nacida
naciellos
naciellu
naciente
naciera
nacieron
nacio
nacion
nacional
nacionales
nacionalida
nacionalidaes
nacionalismu
nacionalista
nacionalistes
nacionalizacio
naciones
naco
nacu
nada
nadadora
nadal
nadar
nadia
nadine
nadu
nagano
nagasaki
nager
nagorno
naide
nakai
nakamura
naked
nal
nala
nales
nalo
nam
nama
name
named
names
nami
namibia
namo
namora
namorada
namorar
namur
nan
nana
nancy
nanes
nanki
nanos
nantes
nanu
naoki
naomi
napoleo
napoli
naquel
naquella
naquelles
naquellos
nara
naranxa
naranxal
naranxes
narcea
narciso
narcissus
narcotra
narnia
narra
narracio
narraciones
narrador
narrativa
narrativu
naruto
narva
nas
nasa
nasal
nasales
nascar
nase
nash
nashville
nasir
nassau
nasser
nat
natacio
natal
natalia
natalida
natalie
natalya
natasha
nate
nathan
nathaniel
nation
national
nationale
nations
nativa
native
natives
nativida
nativos
nativu
natl
nato
natur
natura
naturae
natural
naturales
naturaleza
naturalis
naturalista
naturalistes
naturalmente
nature
naturelle
nauru
nav
nava
naval
navales
navarra
navarredonda
navarro
navarros
navarru
navas
nave
navegable
navegacio
navegador
navegante
navegantes
navegar
naves
navi
navia
navida
navy
naz
nazare
nazarenu
nazari
nazi
nazionale
nazis
nazismu
nba
nbc
nc
ncaa
ncbi
ncer
nchen
nchester
nchez
ncia
ncias
nciase
ncicu
ncies
ncipe
ncipes
ncis
nclator
nculos
nculu
nd
nda
ndalos
ndalu
ndalus
ndanu
ndar
ndares
ndase
nde
ndense
nder
ndese
ndez
ndices
ndicu
ndiz
ndo
ndola
ndole
ndoles
ndolo
ndolos
ndolu
ndonos
ndor
ndose
ndrica
ndricos
ndricu
ndrome
ndula
ndules
ndum
ne
nea
neal
neamente
near
nearby
neas
nebraska
nebula
nebulosa
nebuloses
nec
necesaria
necesariamente
necesaries
necesario
necesarios
necesariu
necesida
necesidaes
necesita
necro
ned
need
needham
neerlande
neerlandesa
neerlandeses
nees
nega
negacio
negar
negase
negativa
negativamente
negatives
negativos
negativu
nego
negociacio
negociaciones
negocios
negociu
negra
negres
negri
negrina
negro
negros
negru
neighborhood
neighbourhood
neil
neill
nel
neles
nell
nella
nelles
nellie
nello
nellos
nelly
nelson
nen
nengu
nenguna
nengunu
nense
neo
neocla
neoclasicismu
neogo
neoli
neon
neos
neotropical
neozelande
nepal
nepale
neptunu
ner
nero
neros
neru
neruda
nervios
nervioses
nerviosu
nerviu
nes
nesa
nese
neses
nesi
nesis
nesos
nest
nesta
nestes
nesti
nestle
nesto
nestos
net
neta
netamente
netflix
netherlands
neto
nets
netu
network
networks
neu
neue
neuma
neumann
neumoni
neuro
neurolo
neurona
neurones
neutra
neutral
neutralida
neutralizar
neutro
neutrones
neutru
neuville
neva
nevada
nevaes
never
neville
new
newark
newcastle
newell
newman
newport
news
newsid
newsletter
newspaper
newspapers
newsweek
newton
next
neymar
nez
nfasis
nfc
nfl
ng
ngara
ngares
ngaros
ngaru
ngase
ngc
ngel
ngela
ngeles
nger
ngua
nguez
ngulos
ngulu
nh
nhl
ni
nia
nial
niales
nic
nica
nicamente
nicaragu
nicaragua
nicas
nice
nicea
nich
nicholas
nichols
nicholson
nichu
nicios
nick
nickelodeon
nicky
nico
nicola
nicolas
nicole
nicolson
nicos
nicu
nida
nidas
nides
nidia
nidies
nidios
nidiu
nidos
nie
niega
nielsen
nieta
nieto
nietos
nietu
nietzsche
nieva
nieve
nieves
nigel
niger
night
nightingale
nightmare
nights
nigra
nigu
nih
nike
nikita
nikki
nikola
nikolai
nil
nilo
nilu
nima
nime
nimes
nimo
nimos
nimu
nin
nina
nine
nineteenth
ninfa
ninja
nino
nintendo
ninth
nio
nior
nipo
nippon
niques
niro
nirvana
nis
nissan
nit
nita
nitratu
nitro
nitu
nivel
niveles
nix
nixeria
nixon
niz
niza
nj
nja
nkcr
nl
nlm
nm
nme
nmente
nmi
nn
nndb
no
noa
noaa
noah
nobel
nobelprize
nobiliarios
nobiliariu
noble
nobles
nobleza
nobunaga
noche
nocherniega
nocherniegos
nocherniegu
nocherniegues
nocio
nociones
noctuidae
node
nodo
nodos
nodu
noe
noel
noemi
noether
noguera
noir
noire
nokia
nola
nolan
nom
noma
nomada
nomaes
nomamientu
nomando
nomaos
nomar
nomaron
nomatu
nombre
nombres
nome
nomen
nomencla
nomenclator
nomenclatura
nomenclature
nomes
nominacio
nominaciones
nominal
nominales
nominalmente
nomination
nominations
nominativu
nominees
nomo
nomos
nomu
non
nones
nor
nora
norberto
nord
norde
nordeste
nordstro
noren
noreste
norfolk
noriega
norma
normal
normales
normalida
normalizacio
normalmente
norman
normanda
normandi
normandos
normandu
normatiu
normativa
normativos
normdatei
normes
noroccidental
noroeste
nororiental
norris
norte
norteame
norteamericana
norteamericanes
norteamericanos
norteamericanu
north
northern
northumbria
northwest
nortizu
norton
noruega
noruegos
noruegu
norwegian
norwich
nos
nose
nosetcookie
not
nota
notable
notablemente
notables
notacio
notar
notariu
notas
note
notes
nothing
notices
noticia
noticias
noticieru
noticies
noto
notorieda
notre
nottingham
nou
nous
nouveau
nouvelle
nov
nova
novak
novas
novatu
noveda
novedaes
novel
novela
noveles
novelista
november
novena
noventa
novenu
novi
novia
novialgu
novios
noviu
novo
now
nozal
np
npgs
nph
npr
nr
ns
nsase
nscritu
nse
nsitu
nstars
nster
nsul
nsula
nsules
nt
nta
ntabros
ntabru
ntara
ntase
nte
ntegramente
ntense
nter
ntes
ntese
ntesis
nther
ntica
ntico
nticos
nticu
ntida
ntima
ntimamente
ntimos
ntimu
ntiques
nto
ntoma
ntomes
ntos
ntra
ntrase
ntrense
ntrica
ntrico
ntricos
ntu
nu
nube
nubes
nubia
nuca
nuclear
nucleares
nucleo
nucleos
nucleu
nueces
nueche
nueches
nuedos
nuedu
nuesa
nueses
nuesos
nuestra
nuesu
nueva
nuevamente
nueve
nueves
nuevo
nuevos
nuevu
nuez
nula
nulos
nulu
num
numancia
numbe
number
numberacio
numberal
numberales
numbero
numberosa
numberoses
numberosos
numberosu
numbers
numerals
nun
nuna
nunca
nunes
nunos
nupcias
nur
nuria
nurmi
nurse
nutricio
nutrientes
nutrition
nutt
nxel
nxeles
nxer
nxo
nxose
nxt
ny
nyman
nymphalidae
nytimes
nyu
nz
nzase
nɐ
nɔ
nə
nəs
nɛ
o
oa
oaci
oak
oakland
oaks
oasis
oaxaca
ob
obama
obe
obedecer
obediencia
obeliscu
obesida
obi
obispa
obispos
obispu
obituaries
obituariu
obituary
object
objects
obliga
obligaba
obligacio
obligaciones
obligada
obligaes
obligando
obligaos
obligar
obligaron
obligatoria
obligatoriu
obligo
oblongo
oblongues
oboe
obra
obrador
obrar
obrego
obrera
obreres
obreros
obreru
obres
observable
observacio
observaciones
observador
observadores
observations
observatoriu
observatory
observer
obsesio
obviamente
obviu
oc
oca
ocampo
ocan
ocarina
ocasio
ocasional
ocasionales
ocasiones
ocaso
occidental
occidentales
occidentalis
occidente
occitana
occitania
occitanu
oce
ocea
ocean
oceani
oceanic
oceans
och
ochenta
ocho
ochoa
ochobre
ociu
oclc
oclusiva
oclusives
oco
ocre
oct
octava
octavio
octavos
octavu
october
octogonal
octubre
ocu
ocular
oculta
ocultes
ocultos
ocultu
ocupa
ocupaba
ocupaben
ocupacio
ocupaciones
ocupada
ocupaes
ocupando
ocupantes
ocupaos
ocupar
ocupara
ocupari
ocuparon
ocupen
ocupo
oda
oder
odi
odisea
odiu
odo
odyssey
oea
oeste
of
ofc
ofensiva
ofensives
ofensivu
off
office
official
officinalis
offs
oficial
oficiales
oficialida
oficialmente
oficina
oficines
oficios
oficiu
og
ogilvie
oh
ohio
oi
oil
ois
oise
ojeda
ojos
ok
oka
okinawa
oklahoma
ol
ola
olaf
olano
olaya
old
oldea
ole
oleg
oles
olfatu
olga
oli
oligarqui
olimpia
olimpiada
olimpiaes
oliu
oliva
olivar
olivares
olive
oliveira
oliver
olivia
olivier
olla
olmedo
olmos
olmstead
olos
olp
olsen
olvidu
olympia
olympic
olympics
olympique
om
oma
oman
omar
omega
omeya
omeyes
omni
oms
omsk
on
ona
once
onda
onde
ondes
ondula
one
onepage
ones
ong
oni
onil
online
onlinelibrary
only
ono
onoma
ons
ontario
onx
oo
op
opac
opacu
opcio
opcional
opciones
ope
opel
open
opening
opens
openstreetmap
opera
operaba
operacio
operacional
operaciones
operada
operador
operadores
operando
operaos
operar
operation
operations
operativa
operativos
operativu
operatorname
operen
opero
ophiuchi
opinio
opinion
opiniones
opiu
opo
oponente
oponentes
oponer
oponese
oponi
oportunida
oportunidad
oportunidaes
oposicio
opositor
opositores
oppenheimer
opresio
ops
optar
optaron
optical
optimismu
option
opto
opu
opuesta
opuestes
opuestos
opuestu
opunxo
opus
oquei
or
ora
oracio
oraciones
oracle
orador
oral
orales
orange
oratoria
oratoriu
orbita
orbital
orbitales
orbitando
orbits
orca
orchestra
orchid
orchidaceae
orchis
orde
orden
ordena
ordenacio
ordenada
ordenador
ordenadores
ordenaes
ordenamientu
ordenances
ordenando
ordenanza
ordenaos
ordenar
ordenara
ordeno
ordens
order
orders
ordinal
ordinaria
ordinarios
ordinariu
ordo
ordon
ordre
ore
orego
oregon
orellana
ores
oreya
oreyes
orfebreri
orfeo
org
orga
organisation
organismos
organismu
organiza
organizacio
organizaciones
organizador
organizadora
organizadores
organization
orgasmu
orgs
ori
orial
oriales
orient
orientacio
oriental
orientales
orientalis
oriente
origin
original
originariamente
origins
orihuela
orina
orinoco
orio
oriol
orionis
orita
orites
orixe
orixinal
orixinales
orixinalida
orixinalmente
orixinaria
orixinarios
orixinariu
orlando
orleans
ornamentacio
ornamental
ornamentales
ornamientos
orne
ornithologists
ornithology
ornito
ornitolo
ornitologi
ornitoloxi
oro
orogra
orografi
orozco
orquesta
orquestal
orquestes
orqui
orson
ortega
ortiz
orto
ortodoxa
ortodoxes
ortodoxos
ortodoxu
ortogra
ortografi
oru
os
osa
osaka
osasuna
oscar
oscars
oscilacio
oscilaciones
osetia
osi
osiris
oskar
oslo
oslu
osma
oso
osorio
osos
ospina
ostenta
ostentaba
ostentar
ostento
osu
osuna
osvaldo
oswald
ot
ota
otan
otero
other
others
otis
oto
otomana
otomanes
otomanos
otomanu
otomi
otorga
otorgar
otra
otramiente
otres
otro
otros
otru
ots
ottawa
otto
ou
our
ourense
out
outer
output
outstanding
ova
ovaes
oval
ovales
ovariu
over
overline
overview
oveya
oveyes
ovi
ovidio
oviedo
ovoide
owen
owens
owl
own
oxeciones
oxetiva
oxetivos
oxetivu
oxeto
oxetos
oxetu
oxford
oxi
oxidacio
oyentes
oyer
oyi
oyo
oz
ozcos
ozonu
p
pa
pabello
pabellones
pablo
pablu
pac
pace
pacha
pacheco
pachuca
paci
paciencia
paciente
pacientes
pacific
pacificacio
pacifista
pacionales
pack
packard
packers
paco
pacquiao
pactos
pactu
padilla
padrastru
padre
padres
padri
padro
padua
paecen
paecencia
paecer
paeci
paecida
paecio
paez
paga
pagaben
pagando
paganos
paganu
pagar
page
pages
pagewanted
pagina
paginas
pago
pagoda
pagos
pagu
pai
paido
pain
pais
paisanos
paisaxe
paisaxes
paisaxi
pakistan
pakistani
pal
pala
palace
palacio
palacios
palaciu
palais
palanca
palantre
palas
palatina
palau
palazzo
pale
palea
palencia
palenque
paleo
paleoli
paleonto
paleontoloxi
palermo
palesti
palestina
palestine
palestinos
paleta
palgrave
pali
pallabra
pallabres
pallas
palm
palma
palmare
palmas
palmer
palmera
palmeres
palmes
palmira
palo
paloma
palombar
palombos
palombu
palos
palu
palustris
pam
pamela
pampa
pamplona
pan
panaderi
panama
panamericana
panamericanos
panamericanu
panamiegu
panda
pando
pandorial
pandoriales
pandos
pandu
panel
paneles
panes
pani
pankhurst
pano
panonia
panora
panorama
pantalla
pantalles
pantalo
pantalones
pantasma
pantasmes
panteo
pantera
pantheon
panthera
paola
paolo
papa
papal
papel
papeles
paper
papers
papes
papilio
papiros
papiru
papu
paquete
paquetes
paquista
par
para
paracai
parada
parade
paradigma
paradise
parado
paradoriu
paradoxa
paraes
paragua
paraguay
paraguaya
paraguayu
parai
paralax
paralela
paralelamente
paraleles
paralelos
paralelu
parali
parameters
paramilitares
paramount
parana
parar
paraxa
paraxes
parc
parceles
parche
parches
parcial
parciales
parcialmente
pardes
pardo
pardos
pardu
pare
paredes
parentescu
parents
pares
pareya
pareyes
pari
parida
pariente
parientes
paris
parish
park
parker
parkinson
parks
parla
parlament
parliament
parllamentaria
parllamentaries
parllamentarios
parllamentariu
parllamentos
parllamentu
parma
paro
parodia
parque
parques
parra
parres
parrilla
parroquia
parroquial
parroquiales
parroquies
parsons
part
parte
parten
partes
parti
partial
particio
participa
participaba
participaben
participacio
participaciones
participando
participante
participantes
participar
participara
participaren
participari
participaron
participen
participiu
participo
particular
particulares
particularida
particularidaes
particularmente
partida
partidarios
partidariu
partido
partie
partiendo
partieron
partio
partir
partisanos
partitura
partitures
partner
partners
parton
partos
parts
partu
party
paru
pas
pasa
pasaba
pasaben
pasada
pasadena
pasaes
pasando
pasaos
pasaporte
pasar
pasara
pasarela
pasaren
pasari
pasaron
pasaxe
pasaxeros
pasaxeru
pasaxes
pascal
pascua
pascual
pase
pasen
paseos
paseriforme
pases
pasha
pasiar
pasiellu
pasio
pasiones
pasiva
pasivu
paso
pasos
pass
passeriformes
passerines
passion
past
pasta
pastel
pasteur
pastor
pastora
pastoral
pastores
pastrana
pasu
pat
pata
pataca
patada
pataes
patago
patagonia
pataques
patente
patentes
paterna
paternida
paternu
pates
path
pati
patients
patinaxe
patinos
patios
patiu
pato
patolo
patoloxi
patria
patriarca
patriarcal
patrice
patricia
patricio
patriciu
patrick
patrimonial
patrimonio
patrimoniu
patrio
patriota
patriotes
patriotismu
patriots
patro
patrocina
patrocinador
patrocinadores
patrociniu
patrona
patronal
patronales
patronatu
patrones
patronos
patronu
patrulla
patterns
patterson
pattinson
patton
pau
paul
paula
pauli
paulina
pauline
paulo
pausanias
pausini
pautes
pavi
pavo
pavu
pax
pay
paya
payares
payasu
payne
pays
paz
pbs
pc
pce
pcr
pdf
pdfs
pe
peace
peada
peak
peaks
pearl
pearson
peca
pecaos
peces
pechu
peci
peciolaes
peciolu
peck
peculiar
peculiares
peculiarida
peculiaridaes
peda
pedago
pedagoxi
pedani
pedestal
pediatri
pedicelos
pedro
pedroso
pedru
pedu
peer
peerage
pega
pegan
pegasi
pegasu
peggy
pel
pela
pelame
pelayo
pele
pelegri
pelegrinacio
pelegrinos
peles
peli
peligros
peligrosa
peligroses
peligrosida
peligrosos
peligrosu
peligru
pellegrini
pelleyu
pelo
peloponeso
pelos
pelota
pelotes
peloto
pen
pena
penal
penales
penalti
penaltis
pendiente
pendientes
pene
penera
penerar
penes
penetracio
penguin
peni
penicilina
peninsula
peninsular
peninsulares
penitencia
penn
pennsylvania
penny
penriba
pensa
pensaba
pensaben
pensador
pensadores
pensamientos
pensamientu
pensando
pensar
pensaron
pense
pensio
pensiones
penso
penta
pente
pentecoste
penu
people
peoples
peor
peores
pepe
pepper
pepsi
pequen
per
pera
peracaba
peracaben
peracabo
peral
perales
peralta
perbie
perceicio
percibe
percibi
percibir
percima
percorrer
percorri
percorriendo
percorrio
percuerre
percuerren
percusio
percy
perda
perder
perderi
perdes
perdese
perdi
perdida
perdie
perdiendo
perdiera
perdieren
perdieron
perdio
perdiz
perdo
perdona
perdura
perduro
pere
pereira
perenne
perennes
peres
perexil
perez
perfect
perfecta
perfectamente
perfectu
perfeicio
perfil
perfiles
perforacio
performance
pergami
peri
periantu
pericles
perife
periferia
perimportante
perio
period
periodi
periodismu
periodista
periodistes
periodos
periodu
perkins
perl
perlla
perlles
permanecen
permanecer
permaneceri
permaneci
permaneciendo
permanecieron
permanecio
permanencia
permanente
permanentemente
permanentes
permanez
permisu
permite
permitio
pernambuco
pernoma
pernomada
pernomaos
pero
peronismu
peronista
perpendicular
perpetua
perpetuu
perra
perros
perru
perry
pers
persa
perse
persecucio
persecuciones
persei
perses
perseus
persia
persian
persiste
persistencia
persistente
persistentes
person
persona
personal
personales
personalida
personalidaes
personality
personalmente
personaxe
personaxes
persones
perspective
perspectives
perspeutiva
pertenecen
pertenecer
perteneci
perteneciendo
perteneciente
pertenecientes
pertenecieron
pertenecio
pertenencia
pertenez
perth
perturbacio
perturbaciones
peru
peruana
peruanes
peruano
peruanos
peruanu
pervalible
pervalibles
perxudicial
perxuiciu
pes
pesa
pesada
pesaes
pesao
pesaos
pesar
pesca
pescador
pescadores
pescudar
pescuezu
pese
pesen
pesetes
pesie
peso
pesos
pesquera
pesqueru
peste
pesu
pet
peta
pete
peter
peters
petersburg
petersburgu
petersen
peterson
petit
petite
peto
petones
petra
petrina
petro
petrogra
petrolera
petroleros
petroleu
petroli
peugeot
pexe
pexes
pez
pg
pgc
ph
phantom
phd
phelps
phi
phil
philadelphia
philip
philipp
philippe
philippine
philippines
philips
phillip
phillips
philosophical
philosophy
phoenix
phone
photo
photometry
photos
php
phyllis
phylogenetic
phylogenetics
phylogeny
phys
physical
physics
physiology
pi
pia
piamonte
pianista
pianu
piase
pib
pic
pica
picamente
picante
picas
picasso
pice
pichones
picidae
piciforme
piciformes
pick
pico
picos
picto
picture
pictures
picu
pid
pida
pidal
pide
piden
pides
pidi
pidie
pidiendo
pidieron
pidimientos
pidimientu
pidio
pidir
pido
pidos
pidu
pie
piece
pieces
pieda
piedra
piedrahita
piedres
piel
pieles
piensa
piensen
pier
pierce
pierde
pierden
pieridae
pierna
piernes
piero
pierre
pies
pieter
pietro
pieza
pigmentos
pigmentu
pii
pila
pilar
pilastra
pilastres
piles
pileu
pilo
pilon
pilot
piloto
pilotos
pilotu
pimentel
pimienta
pimientu
pin
pina
pinar
pinares
pine
pineda
ping
pingu
pinilla
pink
pino
pinochet
pinos
pinta
pintada
pintaes
pintaos
pintar
pinter
pinto
pintor
pintora
pintores
pintura
pintures
pinu
pinus
pinyin
pinzo
pio
pioneer
pionera
pioneros
pioneru
piotr
piper
piques
pira
piragu
piramidal
pirata
pirate
pirateri
pirates
piref
pires
pirine
pirineos
pirro
pisa
piscina
piscines
piscis
piscium
pisos
pista
pistes
pistola
pistons
pisu
pisuerga
pit
pita
piter
pites
pito
pitos
pitt
pittsburgh
pitu
pitucos
pixar
piz
pizarro
pizza
pk
pl
pla
placa
place
placebo
places
plaga
plagues
plain
plains
plan
plana
planches
planck
plane
planes
planet
planeta
planetaria
planetarios
planetariu
planetary
planetes
planets
planiada
planiar
planicie
planificacio
planning
planos
plans
plant
planta
plantago
plantarum
plantas
plante
planteamientu
plantega
plantegar
plantego
plantel
plantes
planti
plantlist
plants
planu
plaques
plasencia
plasma
plasmu
plata
plataforma
plataformes
plate
plateado
plati
platino
platinum
platnick
plato
platos
platu
play
playa
playas
playboy
player
players
playhouse
playing
playoff
playoffs
plays
playstation
plaza
plazu
ple
please
plebiscitu
pleistocenu
pleitos
pleitu
pleja
plena
plenipotenciario
plenitu
plenos
plenu
plinio
pliniu
plomu
plos
pluma
plumaxe
plumes
plural
pluralida
plus
pluscuamperfectu
plutarco
plutarcu
pluto
plutoniu
plymouth
pm
pmc
pmid
pnas
png
pnv
po
poa
poaceae
pobla
poblacio
poblacional
poblacionales
poblaciones
poblada
pobladores
poblaes
poblamientu
poblaos
poblar
poble
poca
pocket
poco
pocos
pocu
podemos
poder
poderes
poderi
poderosa
poderoses
poderosos
poderosu
podesta
podi
podios
podiu
podos
podra
podri
poe
poema
poemariu
poemes
poems
poesi
poeta
poetes
poetry
poincare
point
points
poitiers
poke
pokemon
pol
pola
polaca
polacos
polacu
poland
polanski
polaques
polar
polares
polarizacio
pole
polen
poles
poli
police
polici
policial
policiales
policromada
policy
polideportivu
poligonal
polinesia
polinizacio
polis
polish
polistes
polite
politei
politica
political
politico
politics
politika
politique
poliya
poll
polli
pollo
pollos
pollu
polo
polonia
polos
polu
polvu
polyommatus
pomerania
pompeya
pompeyo
pon
ponce
pondri
pone
ponen
poner
ponese
ponga
poni
ponie
poniendo
poniente
pons
ponse
pont
ponte
pontes
pontevedra
ponti
pontiac
pontifica
pontificia
pontificios
pontificiu
ponto
pool
poole
poor
pop
popa
pope
popper
popular
populares
popularida
popularizo
popularmente
population
populations
populismu
populus
poques
por
porcentaxe
porcio
porciones
porfirio
porno
pornogra
pornografi
poro
poros
porque
porres
porsche
port
porta
portada
portador
portadores
portaes
portal
portales
portando
portar
portaviones
porte
porten
porter
porteri
porteru
portillo
portland
portman
porto
portrait
portuaria
portugal
portugue
portuguesa
portugueses
porvenir
porzolana
pos
posa
posada
posadas
posar
pose
poseido
posesio
posesiones
posesivu
posesor
posgra
posguerra
posibilida
posibilidaes
posible
posiblemente
posibles
posicio
posiciones
position
positiva
positivamente
positives
positivos
positivu
possible
post
postal
postales
poste
postemporada
posterior
posteriores
posteriorida
posteriormente
postes
postre
postrera
postreres
postrero
postreros
postreru
postres
postula
postulaos
postular
postulo
postura
postures
pot
potable
potasiu
potencia
potencial
potenciales
potencialmente
potenciar
potencies
potente
potentes
potential
potentilla
potesta
potosi
potsdam
potter
pour
pova
powell
power
powers
pozo
pozos
pozu
pozuelo
pp
ppen
ppp
ppv
pr
pra
practica
practicaba
practicaben
practice
practiquen
prada
praderi
pradesh
prado
praga
pragma
prairie
praos
prat
pratt
prau
prauticante
prauticantes
prauticar
prautico
pravia
prd
pre
precaria
precedente
precedentes
precedi
precedida
preceptos
preci
preciede
precios
precioses
preciosos
precipitacio
precipitaciones
precisa
precisaba
precisaben
precisamente
precisar
precise
precisen
precises
precisio
preciso
precisos
precisu
preciu
precoz
precursor
precursora
precursores
precuru
predadores
predecesor
predecesora
predecesores
predica
predicacio
predicador
prediccio
predicciones
predicir
predomina
predominante
predominantemente
predominantes
predominen
predominiu
predreses
predresos
predresu
prefaciu
preferencia
preferencies
preferente
preferentemente
preferi
prefeutu
prefeutura
prefeutures
prefier
prefieren
prefirio
prefixos
prefixu
prego
pregu
pregunta
preguntar
pregunto
prehispa
prehisto
prehistoria
preliminar
preliminares
preliminary
preludiu
prematura
premia
premiada
premiaos
premier
premiere
premio
premios
premisa
premiu
premium
prenda
prendes
prensa
prentice
prepa
prepara
preparacio
preparaciones
preparada
preparando
preparaos
preparar
preparativos
preparatoria
preparo
preposicio
prerroma
prerromanu
presa
presbi
presbiteriu
prese
presea
presencia
present
presenta
presentaba
presentaben
presentacio
presentaciones
presentada
presentador
presentadora
presentaes
presentando
presentaos
presentar
presentara
presentari
presentaron
presentase
presente
presenten
presentes
presento
presents
preseos
preservacio
preses
preside
presidencia
presidencial
presidenciales
president
presidenta
presidente
presidentes
presidential
presidi
presidida
presidio
presidir
presidium
presio
presiones
presl
presley
presos
press
presta
prestacio
prestaciones
prestar
presti
prestixosa
prestixoses
prestixosos
prestixosu
presto
preston
prestosa
prestosu
prestu
presu
presumiblemente
presunta
presuntamente
presuntu
presupuestos
presupuestu
prete
pretemporada
pretende
pretenden
pretendi
pretendiente
pretendio
pretensio
pretensiones
pretoria
pretty
prevalencia
preve
prevencio
prevenir
prevention
preventiva
previ
previa
previes
preview
previos
previsio
prevista
previstes
previstos
previstu
previu
prexuicios
pri
priberam
price
pride
priest
prieto
prietu
prima
primaci
primaria
primaries
primarios
primariu
primary
primates
primavera
prime
primer
primera
primeramente
primeres
primero
primeros
primeru
primes
primetime
primi
primir
primitiva
primitives
primitivos
primitivu
primo
primordial
primos
primoxe
primu
prince
princesa
princess
princeton
principa
principado
principal
principales
principalmente
principaos
principio
principios
principiu
principles
prinda
prindada
prindando
prindaos
prindar
prindaron
prinden
prindo
print
printing
prior
priori
priorida
prioridaes
prisio
prisioneros
prisioneru
prisma
prison
priva
privacida
privada
privaes
privaos
private
privatizacio
privilexa
privilexada
privilexos
privilexu
prix
prize
prizes
pro
proa
proaza
proba
probabilida
probabilidaes
probable
probablemente
probar
probe
probes
probeza
problem
problema
problemes
problems
probo
proc
procede
proceden
procedencia
procedente
procedentes
proceder
procedi
procedimientos
procedimientu
proceedings
procesa
procesador
procesadores
procesamientu
procesaos
procesar
procesio
procesiona
procesiones
proceso
procesos
process
processing
procesu
procla
proclama
proclamacio
proclamada
proclamar
proclamaron
proclamase
proclamo
procurador
procyclingstats
prod
prodr
prodromus
produ
produccio
producciones
producen
producer
produci
producida
producie
produciendo
producieron
producio
producir
produciri
producise
product
production
productions
productivida
productor
productora
productores
productos
products
productu
produxera
produz
produza
produzse
prof
profeci
profesional
profesionales
profesionalmente
profesor
profesora
profesores
professional
professor
profeta
profetes
profile
profiles
program
programa
programacio
programada
programes
programme
programs
progresio
progresista
progresistes
progresiva
progresivamente
progresivu
progreso
progresos
progress
progresu
prohibe
prohibi
prohibicio
prohibida
prohibio
prohibir
project
projects
proletaria
proli
proliferacio
promedio
promediu
promesa
promeses
promete
prometeo
prometheus
prometi
prometida
prometio
prominente
prominentes
promocio
promocional
promocionar
promotor
promotores
promover
promovi
promovida
promoviendo
promovio
promueve
promueven
promulga
promulgacio
promulgada
promulgo
prono
pronome
pronomes
pronu
pronuncia
pronunciacio
pronunciada
pronunciar
pronuncio
propaganda
propagandi
proper
properties
propia
propieda
propiedaes
propies
propietaria
propietarios
propietariu
propio
propios
propiu
propo
proponen
proponer
proponi
proporcio
proporcional
proporciones
proposicio
proposiciones
propu
propuesta
propuestes
propuestos
propuestu
propulsio
propunxe
propunxeron
propunxo
prosa
prosiguio
prosiguir
prosperida
prost
prostitucio
prostituta
prostitutes
protagonismu
protagonista
protagonistes
protagoniza
protagonizada
protagonizando
protagonizar
protagonizo
protection
protectora
protei
proteicio
protein
protesta
protestante
protestantes
protestantismu
protestar
protestes
protesto
proteutor
proteutora
proteutores
protexe
protexen
protexer
protexese
protexi
protexida
proto
protocolos
protocolu
protones
prototipos
prototipu
protour
provechu
proveni
proveniente
provenientes
provenir
provenza
provi
providence
providencia
provie
provienen
province
provincia
provincial
provinciales
provincies
provisio
provisional
provisionalmente
provisiones
provisor
provisores
provisorio
provoca
provocada
provocaes
provocando
provocar
provocaron
provoco
provoquen
proxenitores
proximida
proximidaes
proyect
proyecto
proyeicio
proyeiciones
proyeuta
proyeutada
proyeutar
proyeutil
proyeutiles
proyeuto
proyeutos
proyeutu
prudencia
prudente
prueba
pruebes
prunus
prusia
prusiana
prusianos
prusianu
ps
psa
psc
pse
pseudo
psg
psi
psico
psicoana
psicoanali
psicolo
psicoloxi
psicosis
psilon
psiquia
psiquiatra
psiquiatri
psittaciformes
psoe
psp
psula
psules
psv
psychiatric
psychiatry
psychological
psychology
pt
pterido
pterocliformes
pteros
pteru
ptica
ptico
pticos
pticu
ptima
ptimo
ptimu
ptiques
ptolomeo
pu
pub
puberta
pubescens
pubescente
pubescentes
publ
public
publica
publicacio
publicaciones
publicada
publicaes
publicando
publicaos
publicar
publicara
publicaron
publication
publications
publicida
publicitaria
publicitarios
publicitariu
publico
publique
published
publishers
publishing
pubmed
pubs
puccini
pudie
pudiendo
pudiera
pudieren
pudieron
pudo
pue
puebla
pueblo
pueblos
pueblu
pueda
puedan
puede
pueden
puedes
puedo
puela
puen
puente
puercu
puerta
puertes
puerto
puertorriquen
puertos
puertu
pues
puesta
puestes
puesto
puestos
puestu
puexu
puig
pujol
pula
pules
pulgaes
pulgar
pulgu
pulitzer
pulkovo
pulmo
pulmonar
pulmones
pulos
pulp
pulsu
pulu
puma
pumar
pun
puna
punk
punta
puntes
punto
puntos
puntu
puntuacio
puntuaciones
puntual
puntuales
punxe
punxera
punxeron
punxo
pupa
puppis
pura
puramente
pure
pureza
purga
puri
purificacio
puro
puros
purple
purpu
purpurea
puru
put
putin
putnam
puxanza
puxu
puy
puya
pv
pwi
px
py
python
pə
pɾe
q
qa
qaeda
qatar
qi
qin
qing
qquad
qu
quad
quae
quality
quan
quantum
quark
quarks
quarterback
quarterly
que
quebec
quebra
quebrada
quebrar
quebres
quebro
quechua
queda
quedaba
quedaben
quedando
quedar
quedara
quedaren
quedari
quedaron
quedase
quede
queden
quedo
queen
queens
queensland
queer
queipo
queiroz
quel
quema
quemada
quemadures
quemaos
quemar
quemes
quense
quentin
quer
quercus
quere
queremos
querer
queri
queriendo
query
quesada
quese
quesos
quest
question
questions
quesu
quevedo
quexa
quexal
quexales
quexes
quez
qui
quiciabes
quick
quida
quido
quidos
quidu
quie
quiebra
quien
quier
quiera
quieren
quiero
quiet
quilo
quilos
quimioterapia
quin
quina
quince
quincy
quines
quinientos
quinn
quinta
quintana
quintanar
quintanilla
quintero
quintetu
quinto
quintos
quintu
quipe
quiro
quiroga
quiru
quita
quitando
quitar
quito
quitu
quixera
quixeron
quixo
quixote
quo
r
ra
rabat
rabbit
rabe
rabes
rabi
rabia
rabiones
rabo
rabos
rabu
race
races
racha
rachel
racial
raciales
racing
racional
racionales
racionalismu
racismu
racista
rada
radar
radcliffe
radiacio
radiaciones
radial
radiales
radiation
radical
radicales
radicalismu
radicalmente
radio
radiodifusio
radiofo
radios
radioshack
radiu
rae
raf
rafael
rage
ragusa
rahman
rai
raiders
raigan
rail
railway
raimundo
rain
rainbow
rainer
raio
raj
rajoy
ralf
rally
ralph
ralu
ram
rama
ramal
ramanujan
rambla
rami
ramifica
ramificaciones
ramificaos
ramines
ramiro
ramo
ramon
ramos
rampla
ramse
ramsey
ramu
ran
ranchu
rand
randall
randolph
random
randy
range
ranger
rangers
rangle
rangos
rangu
ranking
rankings
ranunculus
raoul
rap
rapaza
rapazos
rapazu
raperu
raphael
rapid
rapidez
raptors
raquel
raquis
rara
raramente
rard
rare
rares
raros
raru
ras
rascacielos
rase
rashid
rasmussen
rastros
rastru
rasu
rat
rata
rate
ratifica
ratificacio
ratificar
ratifico
rating
ratings
ratio
ration
rato
rattus
ratu
rau
raven
raw
rax
ray
raya
rayes
rayleigh
raymond
rayo
rayos
rayu
raza
razo
razonable
razonamientu
razones
razzies
rb
rbara
rbaros
rbenz
rbita
rbites
rbitros
rbitru
rbol
rboles
rc
rca
rcega
rcel
rceles
rchb
rcitos
rcitu
rcn
rcoles
rcules
rculos
rculu
rd
rda
rdase
rdenas
rdenes
rdese
rdica
rdicos
rdicu
rdoba
rdova
re
rea
reaccio
reacciona
reaccionar
reacciones
reacciono
reactor
reactores
read
reader
reading
ready
reagan
reaicio
reaiciones
real
realengu
reales
realeza
reali
realicen
realida
realidaes
realismu
realista
realistes
reality
realiza
realizaba
realizaben
realizacio
realizada
realizador
realizaes
realizando
realizaos
realizar
realizara
realizari
realizaron
realizase
realizo
really
realmente
reas
reason
rebalba
rebalbes
rebalbos
rebalbu
rebecca
rebel
rebelde
rebeldes
rebeldi
rebelio
rebeliones
rebels
rebollar
rebotes
rec
reca
recaldacio
recaldar
recaldo
recayo
receicio
recent
recepta
receptor
receptores
recesio
receta
recetes
reci
recibe
reciben
recibi
recibida
recibiendo
recibiera
recibieron
recibio
recibir
recibiri
recie
recife
recintu
recipiente
recipientes
recipients
recital
recitales
reclama
reclamacio
reclamaciones
reclamando
reclamar
reclamo
reclamos
reclamu
reclutamiento
reclutar
reclutes
recluyi
recognition
recomendable
recomendados
recomendaos
reconciliacio
recono
reconocen
reconocencia
reconocencies
reconocer
reconoci
reconocible
reconocida
reconociendo
reconocieron
reconocio
reconoz
reconquista
reconquistar
reconstruccio
reconstruction
reconstruyi
reconstruyida
reconstruyir
reconstruyo
recopa
recopilatorio
record
recorda
recordaba
recordada
recordando
recordar
recording
recordo
records
recoyendo
recoyer
recoyi
recoyida
recoyo
recre
recreacio
recreativa
recta
rectangular
rectangulares
rectes
rector
rectora
rectu
recue
recuentu
recuerda
recuerden
recueya
recueye
recueyen
recular
recupera
recuperacio
recuperada
recuperando
recuperar
recuperaron
recuperase
recupero
recurrente
recurrentes
recurrio
recurrir
recursos
recursu
red
redacta
redactar
redacto
redactor
redaicio
rede
redemption
redes
redford
redisen
redol
redolada
redolaes
redoma
redonda
redondes
redondo
redondu
reduction
reed
reeder
reedicio
reedita
reeleccio
reeleicio
reelixi
reemplaza
reemplazada
reemplazando
reemplazaos
reemplazar
reemplazo
reemplazu
rees
reese
reestablecimientu
reestructuracio
reeves
ref
refecha
refere
reference
references
referencia
referencies
referendu
referente
referentes
referi
referida
referinos
referir
referise
refie
refier
refieren
refierse
refineri
refirie
reflexa
reflexaba
reflexada
reflexar
reflexen
reflexo
reflexones
reflexos
reflexu
reform
reforma
reformada
reformar
reformes
reformista
reformistes
reformo
reforza
reforzada
reforzar
reforzo
refraicio
refrigeracio
refuerzos
refuerzu
refuga
refugaba
refugada
refugaes
refugando
refugaos
refugar
refugara
refugaron
refugayes
refugo
refugu
refuguen
refundacio
refundia
refundiar
refundio
refuxaos
regacio
regadi
regalo
regalos
regalu
regan
regatu
reggae
regia
regina
regio
region
regional
regions
regis
register
regla
reglamentacio
reglamentos
reglamentu
regles
regni
regresio
regresu
regueros
regueru
regula
regulacio
regulaciones
regulada
regulador
reguladores
regular
regulares
regularida
regularmente
regulen
rehabilitacio
rehenes
rei
reich
reid
reign
reigns
reilly
reimpresa
reimpresio
reims
reina
reinales
reinante
reinaos
reinar
reines
reino
reinos
reinu
reis
reivindicacio
reivindicaciones
related
relation
relations
relationship
relationships
relativa
relativamente
relatives
relativida
relativista
relativo
relativos
relativu
relaxacio
release
released
releases
relevancia
relevante
relevantes
relevos
relevu
relieve
relieves
religion
religious
reliquia
reliquies
relixo
relixones
relixosa
relixoses
relixoso
relixosos
relixosu
rellacio
rellaciona
rellacionada
rellacionaes
rellacionaos
rellacionar
rellacionase
rellacionen
rellaciones
rellaciono
rellata
rellato
rellatos
rellatu
rellenu
relluma
rellumanza
rellumu
relo
remake
remana
remanar
remanecen
remanecer
remanecio
remanente
remanez
remata
rematada
rematando
rematar
rematari
remataron
remate
rematen
remato
remberg
remedios
remediu
remember
remembra
remexu
remix
remo
remocica
remodelacio
remolacha
remonta
remontar
remontase
remonto
remortines
remos
remota
remotes
remotos
remotu
remover
remu
ren
renacencia
renacentista
renacentistes
renacimientu
renaissance
renal
renania
renato
renault
rendimientu
rene
renfe
rennes
reno
renombra
renombrada
renovacio
rense
rensi
renski
rent
renta
rentabilida
rentable
rentes
reo
reorganizacio
reorganizar
reorganizo
reos
rep
repara
reparada
reparaes
reparando
reparaos
reparar
repararon
reparase
reparen
reparo
reparti
repartida
repartu
repeler
repens
repentina
repercusio
repercusiones
repertoriu
repeticio
repetidamente
repite
repiti
repitida
repitiendo
repitio
repitir
repoblacio
reponer
report
reporta
reportaxe
reportaxes
reporte
reporter
reportera
reporteros
reporteru
reporto
reports
reposteri
reposu
represa
represalia
represalies
represe
representa
representaba
representaben
representacio
representaciones
representada
representaes
representando
representante
representantes
representaos
representar
representase
representativa
representatives
representativos
representativu
representen
represento
represio
reprimi
reprimir
reprint
reproduccio
reproducciones
reproduci
reproducir
reproducise
reproductiva
reproductivu
reproductor
reproductores
reproduz
reproduzse
reptiles
repu
republic
republica
republicana
republicanes
republicanos
republicanu
reputacio
requerimientos
requerimientu
requisitos
requisitu
res
resalta
resaltar
rescampla
rescata
rescatar
rescate
rescue
rese
research
researchgate
resen
reserva
reserve
reserves
resfrego
residencia
residencial
residenciales
residencies
resident
residente
residentes
residuales
residuos
resina
resistance
resistencia
resistencies
resistente
resistentes
resnum
resolucio
resoluciones
resolution
resolver
resolvimientu
resolvio
resonancia
resort
resource
resources
respaldu
respecta
respective
respectu
respeta
respetar
respetu
respeutiva
respeutivamente
respeutive
respeutives
respeutivos
respeutivu
respeuto
respeutu
respiracio
respiratoria
respiratories
respiratoriu
responder
respondi
respondieron
respondio
responsabilida
responsabilidaes
responsable
responsables
response
respuende
respuenden
respuesta
respuestes
resquiebros
resta
restablecer
restablecio
restante
restantes
restaura
restauracio
restaurada
restaurar
restauro
restora
restoranes
restos
restrepo
restriccio
restricciones
restu
resucita
resueltu
resuelve
result
resulta
resultaba
resultados
resultancia
resultancies
resultando
resultante
resultantes
resultaos
resultar
resultari
resultaron
resulten
resultes
resulto
results
resume
resumen
resurdimientu
resurreccio
resurreicio
retablos
retablu
retaguardia
retardar
retayos
retencio
retener
reteni
reti
retina
retira
retirada
retiraos
retirar
retirase
retiro
retiru
reto
retoma
retomar
retomo
retornar
retorno
retos
retrasa
retrasar
retraso
retrasos
retrasu
retrata
retratar
retrato
retrieval
retrieved
retro
retrocesu
retruque
retu
return
returns
retuvo
reumatismu
reunificacio
reunio
reunion
reus
reuta
reuters
rev
revancha
reve
reveal
revealed
reveals
revela
revelacio
revelaciones
revelar
revelaron
revelen
revelo
revenge
reverendu
reverte
revesosa
revesosu
revestimiento
review
reviews
revisa
revisada
revisar
revised
revisio
revision
revisiones
revisited
revista
revistas
revistes
revival
revo
revolucio
revolucionaria
revolucionaries
revolucionarios
revolucionariu
revoluciones
revolution
revue
revuelta
revueltes
rex
rexa
rexencia
rexeneracio
rexente
rexi
rexidor
reximientos
reximientu
rexir
rexistra
rexistrada
rexistraes
rexistraos
rexistrar
rexistraron
rexistren
rexistro
rexistros
rexistru
rexo
rexonal
rexonales
rexonalista
rexones
rey
reyes
reynolds
rez
reza
rezar
rfanos
rfc
rg
rgamo
rganos
rganu
rgase
rgen
rho
rhode
rhodes
rhythm
ri
ria
riaa
rialp
rian
riba
ribas
ribayos
ribayu
ribeiro
ribera
riberes
ribeseya
ric
rica
ricamente
ricardo
ricardu
ricas
ricci
rice
rich
richard
richards
richardson
richelieu
richie
richmond
richter
rick
ricky
rico
ricordi
ricos
ricu
rida
ride
rider
riders
rides
ridge
ridgely
ridgway
ridley
ridos
rie
riega
riego
riegos
riegu
riemann
rien
riendes
riera
riesco
riesgos
riesgu
riestra
rif
rift
riga
right
rightarrow
rights
rigor
rigorosa
rigorosu
rigos
rigu
rihanna
riley
rima
rimada
rimes
rin
rinco
rincones
rinde
rindi
rindicio
rindio
rindir
rindise
ring
ringo
rings
rinoceronte
rio
rioja
riola
rios
riot
rioxa
ripley
rique
riqueces
riquelme
riquen
riques
riqueza
riqui
riquida
riquio
riquir
rir
risa
rise
rises
risible
risibles
rising
risio
risk
risonderu
rita
ritchie
ritmos
ritmu
rito
ritos
ritter
ritu
ritual
rituales
riva
rivadavia
rival
rivales
rivalida
rivalidaes
rivas
river
rivera
rivero
rivers
rivie
rix
rixe
rixidez
riz
rizoma
rj
rk
rkdartists
rko
rm
rmacos
rmacu
rmase
rmense
rmica
rmico
rmicos
rmicu
rminos
rminu
rmiques
rmol
rmula
rmules
rn
rnase
ro
roa
roach
road
rob
roba
robar
robbie
robbins
robert
roberta
roberto
roberts
robertson
robin
robinson
robla
roblada
roblando
roblaos
roblar
roblara
roblaron
roblen
robles
roblo
robo
robos
robot
robots
robson
robu
robusta
robustu
roca
rocea
rocha
roche
rochester
roci
rock
rockefeller
rocket
rockets
rocks
rockstar
rocky
rococo
rod
roda
rodada
rodando
rodar
rodas
rodaxe
rodgers
rodi
rodiada
rodiu
rodney
rodo
rodolfo
rodoreda
rodri
rodrigo
rodrigues
rodriguez
roe
roem
roerich
roes
rogelio
roger
rogers
rogue
roi
roig
roja
rojas
rojo
rol
rola
roland
rolando
rolda
role
roles
rolf
roll
rolling
rollingstone
rollins
rolls
rollu
rom
roma
romain
roman
romana
romance
romances
romanes
romani
romanizacio
romano
romanos
romanticismu
romanu
rome
romeo
romeri
romero
romeru
rommel
romper
rompiendo
rompieron
rompio
ron
ronald
ronaldo
ronda
rondes
rondo
rongo
ronlu
ronme
ronnie
ronse
roo
rookie
room
rooney
roosevelt
root
roots
ropa
ropes
roque
roques
ros
rosa
rosaceae
rosada
rosado
rosal
rosales
rosali
rosalind
rosario
rosariu
rosas
rose
rosemary
rosen
rosenberg
roses
roseta
rosie
ross
rossi
rossini
rosso
rota
rotacio
rotation
rotational
roth
rothschild
rotonda
rotor
rotten
rotterdam
rotu
rotura
rouen
rouge
round
rousseau
route
routledge
rouy
rov
rover
rovira
row
rowley
rowling
roxa
roxb
roxu
roxura
roy
royal
royale
royce
royedor
royedores
royuela
rozas
rpatos
rpg
rpm
rprete
rpretes
rpura
rquense
rquez
rquica
rquicos
rquicu
rquiques
rr
rrafu
rraga
rrase
rre
rrese
rrez
rrocu
rroga
rs
rsecs
rsicu
rss
rsssf
rsula
rt
rta
rtaros
rtaru
rtase
rte
rtebres
rtel
rtense
rter
rtese
rtica
rtices
rtico
rticos
rticu
rtida
rtil
rtiles
rtiques
rtir
rtires
rtiz
rtov
rtve
ru
ruanda
rube
rubens
rubi
rubia
rubiaceae
rubin
rubio
rubra
ruby
rudall
rudimental
rudolf
rudolph
rue
rueda
ruedes
ruempe
rufino
rufus
rugbi
rugby
rugbybox
rui
ruina
ruines
ruisen
ruiu
ruiz
rula
rule
rules
rum
rumana
rumani
rumanos
rumanu
rumble
rumex
rumor
rumores
run
runaway
runaways
runes
runner
running
rupert
rupestre
rupestres
rural
rurales
rus
rusa
ruses
rush
rusia
ruso
rusos
russ
russell
russia
russian
russo
rusu
ruta
rutes
ruth
rutherford
rutina
rxal
rxenes
rxica
rxicos
rxicu
rxiques
ry
ryan
ryanair
ryder
ryo
ryu
s
sa
saa
saavedra
saba
sabadell
sabah
sabana
sabanes
sabbath
sabe
sabela
sabemos
saben
sabencia
saber
sabes
sabi
sabiduri
sabiendo
sabina
sabios
sabiu
sable
sablera
sableres
sables
sabor
sabores
saboya
sabrina
saca
sacando
sacante
sacantes
sacar
sacc
sacerdociu
sacerdotal
sacerdote
sacerdotes
sachs
saco
sacos
sacra
sacramento
sacramentu
sacred
sacrificios
sacrificiu
sacristi
sacru
sacu
sacupar
sad
sada
sadam
sadat
sadei
safety
sag
saga
sagan
sage
sagittarii
sagra
sagrada
sagraes
sagrao
sagraos
sagrariu
sagues
sah
sahagu
sahara
sahel
sai
said
saila
sailor
saint
sainte
saints
sainz
saitama
saito
sake
sakura
sal
sala
saladino
salamanca
salao
salar
salarios
salariu
salas
salazar
salcedo
saldan
saldri
saldu
sale
salem
salen
salerno
sales
salgado
sali
salida
saliendo
saliente
saliera
salieron
salime
salinas
salines
salio
salir
salisb
salisbury
salix
salle
sally
salmantinos
salmo
salo
salomo
salon
salones
salt
salta
saltar
salto
saltos
saltu
salu
saludable
saludu
salva
salvacio
salvador
salvadoren
salvar
salvat
salvatierra
salvia
salvin
salvo
salvu
salzburgu
sam
sama
samantha
samarti
same
sami
sammy
samoa
sample
samsung
samuel
samura
san
sana
sanabria
sanamientu
sancha
sanchez
sancho
sancio
sanciona
sanciones
sanciono
sancti
sand
sanders
sandoval
sandra
sandro
sands
sandwich
sandy
saneamientu
sang
sangre
sangrienta
sangrientu
sangui
sanguineu
sanida
sanitaria
sanitaries
sanitarios
sanitariu
sanji
sanlu
sanos
sanremo
sans
sant
santa
santalla
santamari
santana
santander
santes
santi
santiago
santiagu
santiba
santida
santillana
santo
santolaya
santos
santu
santuarios
santuariu
santuyano
sanu
sanz
sao
saona
sapiens
sapporo
saprissa
sapu
saque
saqueos
sar
sara
sarah
sarayevu
sarco
sares
sargatal
sarkozy
sarmiento
sarre
sartre
sarxentu
sas
sasa
sase
sasha
saskatchewan
sata
sate
satellite
sati
satisfaer
sativa
sato
satoshi
saturday
saturn
saturno
saturnu
sau
sauber
sauce
saudi
saudita
saul
saunders
saururaceae
savage
save
saw
sawyer
saxifraga
saxo
saxofo
saxon
saxones
saxonia
say
sayago
says
sb
sbs
sc
scala
scale
scandal
scar
scarlet
scene
schindler
schleswig
schmidt
schmitt
schneider
scho
school
schools
schro
schulenberg
schult
schultz
schumacher
schumann
schur
schuster
schwartz
sci
scielo
science
sciences
scientific
scientist
scientists
scienze
sciuridae
sclater
scoggan
score
scores
scorpii
scorsese
scotland
scott
scottish
scout
scouts
scratch
scream
screen
script
scriptstyle
scula
scules
sculos
sculu
scuti
sd
se
sea
seal
sean
search
seas
season
seasons
seat
seattle
sebastia
sebastian
sec
seca
secanu
seccio
secesio
seco
second
seconds
secos
secrecio
secret
secreta
secretari
secretaria
secretarios
secretariu
secretary
secretes
secretos
secrets
secretu
secta
section
sector
sectores
secu
secuela
secuencia
secuencies
secuestra
secuestru
secular
secunda
secundaria
secundaries
secundarios
secundariu
security
secute
seda
sede
sedes
sedgwick
sedimentos
sedra
sedri
seds
sedum
see
seed
sees
sega
segismundo
segmentos
segmentu
segovia
segregacio
segu
segunda
segundes
segundo
segundos
segundu
segura
segures
segurida
seguro
seguros
seguru
sei
seicio
seiciones
seine
seinfeld
seique
seis
seixeles
seiya
sel
sele
seleccio
seleccionador
select
selected
selection
seleicio
seleiciones
seles
self
sella
selling
sellos
sellu
selmana
selmanal
selmanales
selmanariu
selmanes
selo
selva
selvaxe
selvaxes
selves
selyu
sem
sema
semana
semar
semen
semestre
semeya
semeyances
semeyanza
semeyes
semi
semia
semicircular
semiconductor
semiconductores
semifinal
semifinales
seminarios
seminariu
sen
sena
senador
senadora
senadores
senate
senciella
sencielles
senciellos
senciellu
senderismo
senderos
senderu
senecio
senegal
senior
senna
sennen
senos
sensacio
sensaciones
sense
sensibilida
sensible
sensiblemente
sensibles
sensor
sensores
sensorial
sensoriales
sensu
senta
sentada
sentaos
sentar
sentencia
sentencies
senti
sentimental
sentimientos
sentimientu
sentinel
sentir
sentise
sento
senu
seo
seos
sep
separa
separacio
separada
separaes
separaos
separatistes
sept
september
septentrional
septentrionales
septimo
sepu
sepulcru
sepultura
sequel
sequence
sequences
seques
ser
sera
serbia
serbios
serbiu
serena
seres
serge
sergei
sergio
sergue
seri
seria
serial
seriamente
serie
series
serio
serios
seriu
sermo
sermones
serna
sero
seronda
serotonina
serpentis
serra
serrani
serrano
service
services
servicio
servicios
serviciu
servidor
servidores
servidume
servlet
ses
sese
seseante
sesenta
sesio
sesiones
sesta
sestu
set
setenta
seth
setiembre
sets
settipani
seu
seudo
seven
severa
severamente
severes
severo
severos
severu
sevilla
sevillana
sevillanu
sex
sexos
sexta
sexu
sexual
sexuales
sexualida
sexualmente
sexy
seya
seyan
seymour
sf
sfd
sfera
sforu
sg
sh
sha
shadow
shadows
shah
shakespeare
shan
shandong
shane
shanghai
shanks
shannon
shaolin
shara
sharapova
share
shark
sharon
sharp
sharpe
shaw
shawn
she
sheet
sheffield
sheila
shek
sheldon
shell
shelley
shepard
shepherd
sheridan
sherlock
sherman
shetland
shi
shichibukai
shield
shift
shigeru
shin
shinji
ship
shirley
shizuoka
sho
shock
shogunato
shoot
shooting
shop
shore
short
shot
should
show
showbiz
shows
shtml
shu
shun
shuttle
si
sia
siam
siberia
sibley
sic
sica
sicamente
sicasi
sichuan
sici
sicilia
sicilianu
sicilies
sico
sicode
sicos
sicoterapia
sicu
sid
sida
side
sideru
sides
sidi
sidney
sido
sidonia
sidos
sidra
sie
siegel
sieglos
sieglu
siella
sielles
siemens
siempre
siempres
siena
sienda
siendo
siente
sienten
siento
siero
sierra
sierres
siervos
siete
sig
siga
sigla
sigles
siglo
siglos
sigma
sigmund
sign
significa
significaba
significacio
significando
significaos
significar
significari
significativa
significativamente
significatives
significativos
significativu
significo
signifiquen
signos
signs
signu
sigo
sigu
sigue
siguen
sigui
siguida
siguidor
siguidores
siguie
siguiendo
siguiente
siguientes
siguiera
siguieron
siguimientu
siguio
siguir
siguiri
sil
sila
silabacio
silence
silenciu
silent
siles
silesia
siliciu
silicon
sillares
silleri
silos
silu
silva
silver
silverman
silvia
silvio
sim
sima
simancas
simbad
simbo
simbolicen
simbolismu
simboliza
sime
simeo
simes
simetri
similar
similares
simmons
simo
simon
simone
simos
simpa
simpati
simpatizantes
simple
simples
simplicida
simplifica
simplificacio
simposio
simpson
simpsons
sims
simu
simulacio
simulta
sin
sina
sinagoga
sinai
sinaloa
sinatra
since
sinclair
sindical
sindicales
sindicalista
sindicatos
sindicatu
sine
sinensis
sinfo
sinfoni
sing
singapore
singapur
singer
singh
single
singles
singular
singulares
singularida
sinn
sino
sinon
sinonimia
sinople
sinta
sintaxis
sinte
sintetizador
sintetizadores
sintie
sintio
sio
siques
siquier
sir
siracusa
siri
siria
sirios
siriu
sirve
sirven
sirvi
sirviendo
sirvientes
sirviera
sirvieron
sirvio
sirvir
sirviri
sis
siste
sistema
sistemes
sister
sisters
sit
sita
sitcom
site
sites
sitio
sitiodeciclismo
sitios
sitiu
sito
sitos
sitta
situ
situacio
situaciones
sive
six
sixth
sixto
size
sja
sjid
sk
ska
skating
sketch
sketches
ski
skin
skinner
skull
sky
skyview
skywalker
sl
slam
slate
slave
sleep
slim
sloan
sm
smackdown
small
smart
smash
smetana
smica
smicos
smicu
smith
smithsonian
smo
smos
smu
sn
snac
snake
snl
snow
snowden
snyder
so
soares
soberana
soberani
soberanos
soberanu
sobornos
sobre
sobredosis
sobremanera
sobrenatural
sobrenaturales
sobresal
sobresalen
sobresaliente
sobresalientes
sobrevive
sobreviven
sobrevivencia
sobreviviente
sobrevivientes
sobrevivieron
sobrevivio
sobrevivir
sobri
sobrina
sobrinos
sobro
soc
soccer
soccerbase
soccerdonna
soccerway
socede
socesio
socesivamente
socesives
socesivos
socesor
socesora
socesores
sochi
socia
social
socialdemo
sociales
socialismu
socialista
socialistes
socialmente
socie
socieda
sociedad
sociedade
sociedaes
societa
society
socio
socioecono
sociollingu
sociolo
socioloxi
socios
sociu
socorru
soda
sodiu
sodomi
sofa
sofi
sofia
sofita
sofitaba
sofitaben
sofitada
sofitaes
sofitando
sofitaos
sofitar
sofitara
sofitaron
sofiten
sofito
sofitos
sofitu
sofos
software
sofu
soi
soil
sol
sola
solamente
solana
solanaceae
solano
solanum
solar
solares
solda
soldadura
soldaos
soldier
soldiers
sole
soleda
soledad
soleil
solemne
soler
soles
soli
solicita
solicitando
solicitar
solicitaron
solicito
solicitu
solid
solidarida
solista
solistes
solitaria
solitaries
solitarios
solitariu
sollin
solliviar
solmena
solo
solombra
solombres
solomon
solos
solsticiu
soltera
solteru
soltis
solu
soluble
solucio
solucionar
soluciones
soma
somali
somalia
sombreros
sombreru
some
somerset
someter
sometese
something
someti
sometida
sometimientu
sometio
somiedo
somme
somorguia
somorguiada
somos
son
sonadi
sonar
sonata
sonda
song
songbirds
songs
soni
sonia
sonic
sonny
sonora
sonores
sonoru
sons
sony
soo
soon
sopa
sopes
sophia
sophie
sopla
soporta
soportar
soporte
soporten
soportes
sopranos
sopranu
sor
sora
sorbona
sorda
sordes
sordos
sordu
soria
soriano
sorprendente
sorpresa
sorrisa
sorte
sos
sosa
sospechosos
sospechosu
sosprendentemente
sosprender
sosprendi
sosprendio
sostener
sosteni
sostenibilida
sostenible
sostenida
sosteniendo
sostie
sostienen
sostuvo
sosuelu
soterra
soterrada
soterran
soterraos
soterrar
soto
sotobosque
sotomayor
sotu
soubiran
soul
sound
sounds
soundtrack
source
sources
sous
sousa
south
southeast
southern
southwest
souza
sov
sovie
soviet
soya
soyuz
sp
spa
space
spacex
spach
spain
spanish
sparrow
spartak
spd
spears
spec
special
species
specify
spectra
spectral
spectroscopic
spectroscopy
spectrum
speculative
spede
spedes
speech
speed
speer
spencer
spera
speru
sphingidae
spice
spider
spiegel
spielberg
spike
spin
spirit
split
spora
spores
sport
sporting
sports
spot
spotlight
spp
spreng
spring
springer
springfield
springs
sprint
sprouse
spurs
sputnik
spy
sqrt
squad
square
squez
sr
sra
sri
ss
sseldorf
ssp
st
sta
stable
stade
stadium
staff
stage
stalin
stamos
stamu
stan
stand
standard
standards
standley
stanford
stanley
stanton
stapf
star
starcraft
stark
starr
starring
stars
start
stas
stase
stata
state
statement
states
station
statistical
statistics
statistique
stats
status
staudinger
stay
ste
steam
steampunk
steel
steele
steelers
stefan
stefano
stein
steiner
stella
stellar
stenes
stense
step
stephan
stephanie
stephen
stephens
ster
stereo
steres
sterling
stern
stes
steud
steve
steven
stevens
stevenson
stevie
stewart
sti
stica
sticamente
sticas
stico
sticos
sticu
stil
stiles
still
sting
stiques
stirling
stirner
stm
sto
stock
stockholm
stokes
stol
stola
stoles
stone
stones
stonewall
stop
stor
store
storia
storico
stories
storm
story
stos
straight
strange
stranger
strasbg
strase
strategic
strategy
strauss
stream
streaming
streep
street
streets
streisand
strense
strike
strikes
strip
strixiformes
strofe
strong
structure
structures
struggle
sts
stu
stuart
student
students
studi
studies
studio
studios
study
stuff
stula
stuma
stumamente
stumu
stur
stures
stuttgart
style
su
sua
suabia
suan
suazilandia
sub
subaru
subcampeo
subcampeona
subcampeonatu
subclase
subcomarca
subcontinente
subdividir
subdivisio
subdivisiones
subespecie
subespecies
subfamilia
subfamilies
subgrupos
subgrupu
subleva
sublime
submari
submarina
submarinos
suborde
subordina
subordinaos
subsah
subsidiaria
subsidios
subsiguiente
subsistencia
subsp
subti
subtribu
subtropical
subtropicales
suburbios
suburbiu
subvenciones
subxacente
subxe
subxigante
success
sucesos
sucesu
such
sucre
sucursal
sud
suda
sudafricana
sudafricano
sudame
sudamericanu
suden
sudeste
sudoeste
sue
sueca
suecia
suecos
suecu
suegru
suel
sueldos
sueldu
suelen
sueli
suelos
suelse
suelta
suelu
suen
suena
suerte
sueru
suetonio
suevos
suez
sufi
suficiente
suficientemente
sufierta
sufixos
sufixu
sufraxu
sufre
sufren
sufri
sufriendo
sufriera
sufrieron
sufrimientu
sufrio
sufrir
sugar
sui
suicida
suicidase
suicide
suicidiu
suicido
suite
suiza
suizos
suizu
sul
sula
sulevacio
sulfatu
sulfu
sullivan
sulta
sultanatu
sum
suma
suman
sumando
sumar
sumase
sumatra
sume
sumen
sumes
sumi
sumida
sumiendo
sumiera
sumieron
suministra
suministrar
suministros
suministru
sumio
sumir
sumisio
summary
summer
summers
summit
sumo
sumu
sun
sundance
sunday
sunderland
sung
sunny
suns
sunset
sunshine
supe
super
supera
superaba
superada
superando
superar
superaron
supercopa
superen
superfamilia
superfamily
superficial
superficiales
superficie
superficies
supergiants
superhe
superior
superiores
superiorida
superlativu
superliga
superman
supermercaos
supernova
supero
superposicio
superso
supervisa
supervisar
supervisio
superviso
supervisor
superxigante
suplementos
suplementu
suplente
supo
supondri
suponen
suponer
suponi
suponiendo
suppl
supplement
supplements
support
suprema
supremaci
supremu
supresio
suprimi
suprimio
suprimir
supuesta
supuestamente
supuestes
supuestos
supuestu
supunxeron
supunxo
sur
surame
suramericana
suramericanes
suramericanos
suramericanu
surcoreana
surcoreanu
surde
surden
surdi
surdida
surdiendo
surdieron
surdimientu
surdio
surdir
suren
sureste
surf
surface
surinam
suriname
suroccidental
suroeste
suroriental
surrey
survey
survival
survivor
sus
susan
susana
susceptible
susceptibles
suscripcio
suspende
suspender
suspendi
suspendida
suspendio
suspense
suspensio
suspensu
sussex
sustances
sustancia
sustancial
sustancialmente
sustantivos
sustantivu
sustentu
sustitu
sustitucio
sustitutu
sustituyendo
sustituyi
sustituyida
sustituyir
sustituyo
sustratu
sutherland
sutil
suxerencia
suxerencies
suxeta
suxetar
suxetes
suxetos
suxetu
suxuntivu
suxure
suxuren
suxuri
suxuriendo
suxurieron
suxurio
suxurir
suya
suyes
suyos
suyu
suzanne
suzuki
sv
svetlana
sw
swan
swansea
sweden
swedish
sweet
swift
swing
swiss
switch
sword
sy
sydney
sylvestris
sylvia
symphony
symposium
synallaxis
syndrome
synopsis
synthesis
syracuse
syria
syrian
syst
system
systema
systematic
systematics
systems
sytsma
sə
sɛ
t
ta
taba
tabacu
tabasco
tabayones
taben
tabla
table
tableru
tables
tablillas
tabu
tacna
tactu
taekwondo
tag
tagle
tahiti
tai
taifa
tail
tailande
tailandesa
tailandia
taipe
taiwa
taiwan
taj
tajo
takahashi
takashi
take
takeda
takes
taking
takuya
tal
tala
talavera
talaya
talbot
tale
talent
talentos
talentu
tales
talk
talking
talks
tall
talla
tallada
taller
talleres
talles
talmud
talo
talos
talu
taman
tamara
tamaulipas
tambie
tambor
tambores
tamie
tamil
tamos
tampa
tampoco
tan
tanaka
tando
tang
tangara
tango
tangu
tani
tania
tank
tanner
tanos
tanque
tanques
tanta
tantes
tanto
tantos
tantu
tanu
tanxente
tanzania
tao
taoi
tapa
tapes
tapia
tapices
tapiz
taquilla
tar
tara
taramundi
tarantino
taraxacum
tarazona
tarda
tardar
tarde
tardes
tardi
tardida
tardo
target
tari
tarifa
tarifes
tarmos
tarmu
tarn
taro
tarragona
tarrecer
tarreci
tarrecible
tarrecibles
tarreciendo
tarrezas
tarsu
tarxeta
tarxetes
tarza
tarzan
tas
tasa
tase
tases
task
tasmania
tat
tata
tate
tatiana
tatuaxes
tau
tauri
tauro
taurus
taxa
taxi
taxiquista
taxis
taxo
taxon
taxones
taxono
taxonomi
taxonomic
taxonomy
taylor
taza
tb
tblisi
tbol
tc
tcm
td
te
tea
team
teams
tean
teatral
teatrales
teatro
teatros
teatru
teau
tebas
teberga
tech
technical
technologies
technology
techos
techu
tecla
teclaos
tecnolo
ted
teddy
tedra
teen
teenage
tegucigalpa
teh
tejada
tel
tela
tele
telecinco
telecomunicaciones
telefe
telefilme
telefo
telefoni
telegraph
telemadrid
telemundo
telenovela
telenoveles
teles
telescope
telescopios
telescopiu
televisa
televisio
television
televisiones
televisiva
televisives
televisivos
televisivu
tell
tello
telo
tem
tema
temes
temminck
temperamentu
temperatura
temperature
temperatures
templa
templada
templaes
templaos
templarios
temple
templos
templu
tempo
temporada
temporaes
temporal
temporales
temporalmente
temprana
tempranes
tempranos
tempranu
temps
ten
tender
tendi
tendra
tendri
tenemos
tenencia
tener
tenerife
tenese
tenga
tengan
tengo
teni
teniendo
teniente
tenis
tenista
tennessee
tennis
tenochtitlan
tenor
tenorio
tense
tensio
tensiones
tensor
tenta
tentativa
tenue
teo
teodoricu
teodoro
teodosio
teolo
teoloxi
teorema
teori
teotihuaca
tequila
ter
tera
terape
terapia
terapies
tercer
tercera
terceres
terceros
terceru
terciariu
tercios
terciu
tere
terence
teres
teresa
term
termales
termes
termina
terminaba
terminacio
terminaciones
terminada
terminal
terminales
terminando
terminaos
terminar
terminara
terminari
terminaron
terminen
termino
terminoloxi
termo
termodina
terms
terra
terraces
terranova
terrassa
terrateniente
terratenientes
terraza
terre
terremotos
terremotu
terrenal
terrenales
terrenes
terreno
terrenu
terrestre
terrestres
terrible
territorial
territoriales
territorios
territoriu
territory
terror
terrorismu
terrorista
terroristes
terry
teru
teruel
tes
tesalo
tese
tesis
tesla
tesoreru
test
testamentu
testi
testigos
testigu
testil
testiles
testimonios
testimoniu
testos
testosterona
tests
testu
testual
testura
testures
tetos
tetra
tetu
tetua
teunolo
teunoloxi
teuto
tex
texas
texi
text
texts
texu
teya
teyaos
tez
th
tha
thai
thailand
thames
thamnophilidae
thamnophilus
than
thanos
that
thatcher
the
theater
theatre
theatreworldawards
theft
theguardian
their
them
theme
then
theo
theodor
theodore
theoretical
theory
therapy
there
these
theta
they
thierry
thin
thing
things
think
third
this
thomas
thompson
thomson
thor
thorne
thornton
thorpe
those
thought
thousand
thraupidae
threat
threatened
three
thriller
through
thunb
thunberg
thunder
thunderbird
thymus
ti
tia
tian
tiase
tiberiu
tibet
tibetanu
tiburo
tiburones
tic
tica
ticamente
ticas
tico
ticos
ticu
tida
tidos
tie
tiempo
tiempos
tiempu
tien
tienda
tiende
tienden
tiendes
tiene
tienen
tienes
tienne
tiens
tiense
tierra
tierres
ties
tiesta
tiffany
tiger
tigre
tigres
tigris
tigu
tijuana
til
tiles
till
tillon
tim
tima
timber
timberlake
timbre
time
timeline
times
timo
timor
timos
timothy
timu
tin
tina
tine
tinta
tinte
tintes
tinti
tip
tipo
tipogra
tipografi
tipoloxi
tipos
tipu
tiques
tira
tirada
tirani
tirante
tirantes
tiranu
tirar
tires
tiro
tirol
tiros
tirote
tirrenu
tiru
tis
tiso
tita
titanes
titanic
titaniu
title
tito
titu
titula
titulada
titular
titulares
titularida
titulo
tiva
tiziano
tja
tlaxcala
tm
tmica
tmp
tn
tna
tnica
tnicos
tnicu
tniques
tnt
to
toa
toba
tobagu
tobin
toca
tocaba
tocando
tocante
tocantes
tocar
toci
toco
todas
today
todd
todi
todo
todos
todu
toei
toes
together
togu
toi
tokiu
tokovinin
tokugawa
tokyo
tol
tola
toledo
tolera
tolerancia
tolerar
toles
tolkien
tolo
tolos
tolosa
toluca
tom
toma
tomaba
tomaben
tomada
tomaes
tomando
tomaos
tomar
tomara
tomaren
tomari
tomaron
tomas
tomase
tomate
tomatoes
tome
tomen
tomes
tomillu
tommy
tomo
tomorrow
tomos
tomu
ton
tonada
tonal
tonalida
tonalidaes
tonelaes
tonga
toni
tonight
tonos
tonu
tony
too
tool
toos
top
topa
topaba
topaben
topada
topaos
topar
toparon
topase
tope
topen
topetar
topeto
topic
topo
topogra
topografi
topolo
topoloxi
toponi
toponimia
topos
tops
topu
toque
toquen
toques
tor
tora
torbonada
torca
torch
tordu
torga
torgaba
torgando
torgar
torgaron
torgo
torguen
torgues
toribio
torino
tormes
torna
tornaba
tornando
tornaos
tornar
tornara
tornari
tornaron
torne
tornen
torneos
torniellos
torniellu
torno
tornu
toro
toronto
toros
torpedos
torre
torres
torrexo
torrijos
torso
tortosa
tortu
tortura
tortures
toru
tory
tos
toscana
tosicida
tot
total
totales
totalida
totalmente
toto
tottenham
tou
touch
touchdown
touchdowns
toulouse
tour
tourism
tournament
tours
tous
tov
tovar
tovi
toward
towards
tower
town
townshend
toy
toyota
tr
tra
trabaya
trabayaba
trabayaben
trabayador
trabayadora
trabayadores
trabayando
trabayar
trabayara
trabayaron
trabayen
trabayo
trabayos
trabayu
trabe
tracamundios
tracamundiu
traccio
traces
tracia
track
tracks
tracto
tracy
trad
trade
tradicio
tradicional
tradicionales
tradicionalmente
tradiciones
tradition
traditional
traduccio
traducciones
traduci
traducida
traducio
traducir
traducise
traductor
traduz
traen
traer
trafalgar
traffic
tragedy
trai
traicio
traidor
trail
trailer
train
training
trama
trames
tramos
trampa
trampes
tramu
tranquilida
trans
transactions
transaicio
transaiciones
transexuales
transfer
transfermarkt
transformers
transicio
transilvania
transitoria
translated
translation
transport
tranvi
trap
tras
trascendental
trasera
traseres
traseru
trata
trataba
trataben
tratada
trataes
tratamientos
tratamientu
tratando
trataos
tratar
tratara
trataron
tratase
trate
traten
trato
tratos
tratu
trauma
trave
travel
travers
travesa
travesaba
travesando
travesar
travesi
traveso
travie
traviesa
traviesen
travis
traxanu
traxe
traxedia
traxeron
traxes
traxo
trayendo
trayeutoria
trayeutu
traza
trazar
trazos
trazu
tre
treasure
treatment
treaty
trece
tree
trees
tregua
trek
trelce
tremaos
treme
tren
trends
trenes
trent
trenta
trentena
trento
trepar
tres
tresbordador
trescendencia
trescientos
trescripcio
trescurre
trescurri
trescurrio
tresferencia
tresferencies
tresferi
tresferida
tresferir
tresfo
tresforma
tresformada
tresformamientos
tresformamientu
tresformar
tresformase
tresformo
treslla
tresllada
treslladada
treslladaos
treslladar
treslladase
tresllado
treslliteracio
tresmisio
tresmisiones
tresmite
tresmiten
tresmiti
tresmitida
tresmitio
tresmitir
tresparencia
tresparente
trespasa
trespasu
tresplante
tresporta
tresportaos
tresportar
tresporte
tresportes
trestornos
trestornu
tresversal
tresversales
tresxe
trevin
trevor
tri
tria
trial
trials
triangular
triangulares
tribal
tribales
tribe
tribu
tribuna
tribunal
tribunales
tribune
tribus
tributariu
tribute
tributos
tributu
trica
tricamente
tricas
trick
trico
tricolor
tricos
tricu
tridimensional
trieste
trifolium
trigu
triloxi
trimestre
trincheres
trinida
trinidad
trinity
trio
trip
triple
triples
triplete
tripulacio
tripulantes
triques
trista
tristan
triunfal
triunviratu
tro
trochilidae
trofe
trofeo
trofeos
trois
trompeta
trondheim
tronu
tropa
tropes
trophy
tropical
tropicales
tropicos
tropos
trotta
trouble
troy
troya
troyanos
trubiecu
trucos
true
truenu
trujillo
truman
trump
trunfar
trunfo
trunfos
trunfu
trupa
trupes
trupos
trupu
trust
truth
ts
tse
tsn
tsubasa
tsunami
tt
ttingen
tu
tube
tuberculosis
tuberi
tubos
tubu
tubular
tuci
tucker
tucson
tucuma
tudela
tudes
tudor
tueros
tueru
tula
tulo
tulos
tulu
tum
tumba
tumbes
tumor
tumores
tun
tundra
tuneci
tunicia
tupi
turbina
turbo
turca
turcos
turcu
turdidae
turdus
turi
turing
turinxa
turismo
turismos
turismu
turistes
turkey
turkish
turkmenista
turn
turnbull
turner
turns
turques
turqui
turturro
tusquets
tutela
tutelar
tutor
tuvalu
tuvi
tuviera
tuvieren
tuvieron
tuvo
tv
tve
tvguide
tvn
twain
twelve
twentieth
twenty
twilight
twin
twitter
two
twolegresult
tx
ty
tycho
tyler
type
types
typhoon
tyrannidae
tz
tɐ
tɔ
tə
tɛ
tɾe
tɾo
u
ua
uarca
ub
uba
uber
ubico
ubuntu
uc
ucasu
ucd
uci
ucla
ucle
ucm
ucrai
ucrania
ucraniana
ucranianu
ucv
ud
udi
udota
udry
ue
uefa
uel
uela
uelos
uesca
ufc
ufie
ufierta
ufiertaba
ufiertaben
ufiertada
ufiertando
ufiertar
ufiertaron
ufierten
ufiertes
ufierto
ufrates
ufrienda
ufriendes
uganda
ugarte
ui
uicn
uk
ukraine
ukrainian
ul
ulan
ulica
ulises
ulloa
ullrich
ulrich
ulster
ulterior
ultima
ultimate
ultra
ultramar
ultravioleta
ultron
um
uma
umberto
umbrete
un
una
unam
unamuno
unanimida
unasur
uncle
und
unde
under
underground
understanding
une
uned
unes
unesco
uni
unica
unicamente
unicef
unicode
unicos
unicu
unida
unidad
unidaes
unidos
unifica
unificacio
unificada
unificar
uniforme
uniformemente
uniformes
unillateral
unio
union
uniones
uniques
unirioja
unit
unita
unitaria
unitariu
united
units
univ
universal
universales
universalmente
universe
universida
universidad
universidade
universidaes
universita
universitaria
universitaries
universitarios
universitariu
universitat
universite
universities
university
universu
univision
unix
unknown
uno
unos
until
unu
unvia
unviada
unviaes
unviando
unviaos
unviar
unviara
unviaron
unvio
up
update
updated
uploads
upn
upon
upper
ups
upyd
ur
ura
urales
uraniu
uranu
urban
urbana
urbanes
urbani
urbanismu
urbanizacio
urbanizaciones
urbano
urbanos
urbanu
urbe
urbina
urdu
urgel
uri
uribe
url
urlarchivu
urna
urnes
urquiza
urraca
ursae
urss
urugua
uruguay
uruguaya
uruguayos
uruguayu
urxencia
urxente
us
usa
usaba
usaben
usada
usaes
usaf
usando
usaos
usar
usara
usaron
usase
usatoday
usb
usd
usda
use
used
usen
user
uses
usgs
using
uso
usopp
usos
uss
uste
ustedes
usu
usualmente
usuarios
usuariu
ut
utah
utc
uter
uteres
utica
uticamente
uticos
uticu
utili
utilicen
utilida
utiliza
utilizaba
utilizaben
utilizada
utilizaes
utilizando
utilizaos
utilizar
utilizaron
utilizase
utilizo
utiques
uto
utopi
utre
utrecht
utrera
utres
uu
uv
uva
uves
uvie
uviei
uxt
uxu
uy
uz
uzbequista
v
va
vaca
vacaciones
vacante
vaci
vacida
vacuna
vacunes
vacunu
vader
vagones
vaina
vaines
val
valde
valdivia
vale
valencia
valenciana
valencianes
valencianu
valente
valenti
valentina
valentine
valentino
valenzuela
valera
valeria
valerie
valerio
valero
vali
valid
validation
validez
valie
valiente
valientes
valio
valir
vall
valla
valladolid
valle
valles
valley
vallina
valo
valois
valor
valora
valoracio
valorar
valores
valos
valparai
valse
valu
value
valumbu
valve
valverde
vamos
vampire
vampiros
vampiru
van
vancouver
vanderbilt
vanessa
vanguardia
vanity
vanos
vanu
vanuatu
vapor
vaques
var
vara
varela
varepsilon
vares
vargas
varia
variabilida
variable
variables
variacio
variaciones
variada
variaes
variando
variante
variantes
variaos
variar
variation
varieda
variedaes
varien
varies
variety
vario
varios
various
varo
varones
varos
varphi
varsovia
varu
vas
vasallaxe
vasallos
vasallu
vasc
vasca
vasco
vasconcelos
vascos
vascu
vascular
vasculares
vase
vasi
vasos
vasques
vasta
vastu
vasu
vaticanu
vaughan
vaux
vaya
ve
vea
vease
vec
veceros
veceru
veces
veci
vecina
vecinda
vecinderu
vecines
vecinos
vector
vectores
vectorial
ved
veda
vedes
veg
vega
vegada
vegaes
vegas
vegues
vehi
vehicular
veiga
vel
vela
velar
velasco
velea
veles
velilla
velo
velocida
velocidaes
velocities
velocity
velorum
velu
velvet
vemos
ven
vena
venado
venaos
venaticorum
vence
vencedor
vencedora
vencedores
vencer
venceya
venceyada
venceyaes
venceyaos
venceyar
venceyos
venceyu
venci
vencida
venciendo
vencieron
vencio
vendedor
vendedores
vender
vendi
vendida
vendie
vendiendo
vendieron
vendio
[...]
