!
"
#
##0
##1
##10
##11
##12
##13
##14
##15
##16
##17
##18
##19
##2
##20
##21
##22
##23
##24
##25
##26
##27
##28
##29
##3
##30
##31
##32
##33
##34
##35
##36
##37
##38
##39
##4
##40
##41
##42
##43
##44
##45
##46
##47
##48
##49
##5
##50
##51
##52
##53
##54
##55
##56
##57
##58
##59
##6
##60
##61
##62
##63
##64
##65
##66
##67
##68
##69
##7
##70
##71
##72
##73
##74
##75
##76
##77
##78
##79
##8
##80
##81
##82
##83
##84
##85
##86
##87
##88
##89
##9
##90
##91
##92
##93
##94
##95
##96
##97
##98
##99
$
%
&
'
(
)
*
+
,
-
.
/
0
00
000
001
002
007
01
02
03
039
04
05
06
07
08
09
1
10
100
1000
10000
1001
101
1016
102
103
104
105
1050
106
1066
107
108
1080
1085
1086
109
11
110
1100
111
112
113
1130
114
115
1150
116
117
1170
118
1180
1181
1183
1185
119
1190
12
120
1200
1204
121
1212
122
1220
123
1230
124
1240
1248
125
1250
126
1260
127
128
1280
129
1290
13
130
1300
131
132
133
134
1348
135
1350
136
1368
137
138
139
1392
14
140
1400
141
142
143
1430
1434
144
1440
145
1450
1453
146
1460
147
1470
1475
1476
1478
1479
148
1480
1482
1483
1485
149
1490
1492
1493
1494
1495
1496
1497
1498
1499
15
150
1500
1501
1502
1503
1504
1505
1506
1509
151
1510
1511
1512
1513
1514
1515
1516
1517
1518
1519
152
1520
1521
1522
1523
1524
1525
1526
1527
1528
1529
153
1530
1531
1532
1533
1534
1535
1536
1537
1538
1539
154
1540
1541
1542
1543
1545
1546
1547
1548
1549
155
1550
1551
1552
1553
1554
1555
1556
1557
1558
1559
156
1560
1561
1562
1563
1564
1565
1566
1567
1568
1569
157
1570
1571
1572
1573
1574
1575
1576
1577
1578
1579
158
1580
1581
1582
1583
1584
1585
1586
1587
1588
1589
159
1590
1591
1592
1593
1594
1595
1596
1597
1598
1599
16
160
1600
1601
1602
1603
1604
1605
1606
1607
1608
1609
161
1610
1611
1612
1613
1614
1615
1616
1617
1618
1619
162
1620
1621
1622
1623
1624
1625
1626
1627
1628
1629
163
1630
1631
1632
1633
1634
1635
1636
1637
1638
1639
164
1640
1641
1642
1643
1644
1645
1646
1647
1648
1649
165
1650
1651
1652
1653
1654
1655
1656
1657
1658
1659
166
1660
1661
1662
1663
1664
1665
1666
1667
1668
1669
167
1670
1671
1672
1673
1674
1675
1676
1678
1679
168
1680
1681
1682
1683
1685
1686
1687
1688
1689
169
1690
1691
1692
1695
1696
1697
1698
1699
17
170
1700
1701
1702
1703
1704
1705
1706
1707
1708
1709
171
1710
1711
1712
1713
1714
1715
1716
1717
1718
172
1720
1721
1722
1723
1724
1725
1726
1727
1728
1729
173
1730
1731
1732
1733
1734
1735
1736
1737
1738
1739
174
1740
1741
1742
1743
1744
1745
1746
1747
1748
1749
175
1750
1751
1752
1753
1754
1755
1756
1757
1758
1759
176
1760
1761
1762
1763
1764
1765
1766
1767
1768
1769
177
1770
1771
1772
1773
1774
1775
1776
1777
1778
1779
178
1780
1781
1782
1783
1784
1785
1786
1787
1788
1789
179
1790
1791
1792
1793
1794
1795
1796
1797
1798
1799
18
180
1800
1801
1802
1803
1804
1805
1806
1807
1808
1809
181
1810
1811
1812
1813
1814
1815
1816
1817
1818
1819
182
1820
1821
1822
1823
1824
1825
1826
1827
1828
1829
183
1830
1831
1832
1833
1834
1835
1836
1837
1838
1839
184
1840
1841
1842
1843
1844
1845
1846
1847
1848
1849
185
1850
1851
1852
1853
1854
1855
1856
1857
1858
1859
186
1860
1861
1862
1863
1864
1865
1866
1867
1868
1869
187
1870
1871
1872
1873
1874
1875
1876
1877
1878
1879
188
1880
1881
1882
1883
1884
1885
1886
1887
1888
1889
189
1890
1891
1892
1893
1894
1895
1896
1897
1898
1899
19
190
1900
1901
1902
1903
1904
1905
1906
1907
1908
1909
191
1910
1911
1912
1913
1914
1915
1916
1917
1918
1919
192
1920
1921
1922
1923
1924
1925
1926
1927
1928
1929
193
1930
1931
1932
1933
1934
1935
1936
1937
1938
1939
194
1940
1941
1942
1943
1944
1945
1946
1947
1948
1949
195
1950
1951
1952
1953
1954
1955
1956
1957
1958
1959
196
1960
1961
1962
1963
1964
1965
1966
1967
1968
1969
197
1970
1971
1972
1973
1974
1975
1976
1977
1978
1979
198
1980
1981
1982
1983
1984
1985
1986
1987
1988
1989
199
1990
1991
1992
1993
1994
1995
1996
1997
1998
1999
2
20
200
2000
2001
2002
2003
2004
2005
2006
2007
2008
2009
201
2010
2011
2012
2013
2014
2015
2016
2017
2018
2019
202
2020
2021
2022
203
204
205
206
207
208
209
21
210
211
212
213
214
215
216
217
218
219
22
220
2200
221
222
223
224
225
226
227
228
229
23
230
2300
231
232
233
234
235
236
237
238
239
24
240
2400
241
242
243
244
245
246
247
248
249
25
250
2500
251
252
253
254
255
256
257
258
259
26
260
2600
261
262
263
264
265
266
267
268
269
27
270
271
272
273
274
275
276
277
278
279
28
280
281
282
283
284
285
286
287
288
289
29
290
291
292
293
294
295
296
297
298
299
3
30
300
3000
301
302
303
304
305
306
307
308
309
31
310
311
312
313
314
315
316
3166
317
318
319
32
320
321
322
323
324
325
326
327
328
329
33
330
331
332
333
334
335
336
337
338
339
34
340
341
342
343
344
345
346
347
348
349
35
350
3500
351
352
353
354
355
356
357
358
359
36
360
361
362
363
364
365
366
367
368
369
37
370
371
372
373
374
375
376
377
378
379
38
380
381
382
383
384
385
386
387
388
389
39
390
391
392
393
394
395
396
397
398
399
4
40
400
4000
401
402
403
404
405
406
407
408
409
41
410
411
412
413
414
415
416
417
418
419
42
420
421
422
423
424
425
426
427
428
429
43
430
431
432
433
434
435
436
437
438
439
44
440
441
442
443
444
445
446
447
449
45
450
4500
451
452
453
454
455
456
457
458
459
46
460
461
464
465
466
467
468
469
47
470
471
472
473
474
475
476
477
478
479
48
480
481
482
483
484
485
486
488
49
490
491
492
493
495
496
499
5
50
500
5000
501
502
503
504
505
506
507
508
509
51
510
511
512
513
514
515
516
517
518
52
520
521
522
523
525
526
527
529
53
530
531
533
534
535
536
537
538
539
54
540
541
545
547
548
55
550
551
552
553
555
558
559
56
560
565
57
570
575
58
580
581
582
584
585
586
587
589
59
590
596
599
6
60
600
6000
601
602
603
604
605
607
609
61
610
612
614
616
618
62
620
625
626
628
63
630
631
632
634
639
64
640
642
65
650
655
66
660
666
669
67
670
671
674
679
68
680
687
69
690
691
7
70
700
7000
701
707
71
710
711
715
72
720
722
724
725
727
73
730
731
732
737
74
740
747
75
750
754
757
76
760
767
77
770
777
78
780
787
79
8
80
800
8000
802
81
82
820
83
830
84
840
843
85
850
855
86
860
87
870
88
880
89
894
9
90
900
9000
91
910
911
92
93
930
939
94
95
950
958
96
960
968
97
970
978
98
980
983
985
987
99
999
:
;
<
=
>
?
@
\
^
_
`
a
aa
aaron
ab
aba
abadesa
abadi
abajo
abandona
abandonada
abandonaes
abandonando
abandonaos
abandonar
abandonara
abandonaren
abandonari
abandonaron
abandonen
abandono
abandonu
abanicu
abarca
abarruntar
abasi
abasna
abasnar
abastecer
abaxo
abba
abbas
abbey
abbott
abby
abc
abd
abdala
abderrama
abdicacio
abdicar
abdico
abdome
abdominal
abdul
abdullah
abe
abel
abelardo
abelluga
abellugaos
abellugar
abellugase
abellugos
abellugu
aben
abertura
abertures
abertzale
abeya
abeyes
abh
abi
abierta
abiertamente
abiertes
abierto
abiertos
abiertu
abies
abigail
abismu
abkhasia
ablancaza
ablaya
able
ablondu
aboga
abogada
abogaes
abogaos
abogo
aboli
abolicio
abolida
abolio
abolir
abonda
abonden
abondes
abondo
abondos
abondosa
abondoses
abondosos
abondosu
abondu
abori
aborixe
about
above
abraha
abraham
abrams
abre
abren
abreu
abreviatura
abreviatures
abri
abrie
abriendo
abrieron
abrigu
abril
abrio
abrir
abrupta
abruptamente
abs
absoluta
absolutamente
absolutes
absolutismu
absolutista
absolutos
absolutu
absorber
absorbi
absorbida
absorcio
abstract
absueltu
absuerbe
absurdu
abu
abusos
abusu
abuxa
ac
aca
acaba
acababa
acabada
acabando
acabante
acabaos
acabar
acabara
acabari
acabaron
acaben
acabo
acacia
acad
acade
academia
academic
academies
academy
acadiu
acaldi
acapulco
acasu
acb
accesibilida
accesible
accesibles
accesorios
accesos
access
accessed
accesu
accidenta
accidental
accidente
accidentes
accio
accionista
accionistes
account
ace
acedo
acedos
acedu
aceite
aceites
aceituna
aceitunes
acelera
aceleracio
acelerar
acelero
acentos
acentu
acentuada
acepcio
acepta
aceptaba
aceptable
aceptacio
aceptada
aceptaes
aceptando
aceptaos
aceptar
aceptara
aceptaron
acepten
acepto
acequia
acer
acercamientu
aceru
acetato
acevedo
achebe
acid
acidez
aciu
aclama
aclamacio
aclamada
aco
acolorata
acoloratada
acolorataes
acolorataos
acompan
acomu
acomun
aconceya
aconceyaos
acondiciona
aconseya
aconseyo
acontecimientos
acontecimientu
acoplamientu
acoraza
acorazaos
acorde
acordes
acordies
acoso
acosta
acostuma
acoyer
acoyi
acoyida
acoyo
acre
acredita
acreedores
acreitar
acres
acro
acroba
across
act
acta
actes
acti
actina
action
actitu
activa
activacio
activar
active
actives
activida
actividaes
activismu
activista
activistes
activity
activos
activu
actor
actoral
actores
actors
actos
actress
actrices
actriz
actu
actuaba
actuaben
actuacio
actuaciones
actual
actuales
actualida
actualidad
actualiza
actualizacio
actualizaciones
actualizada
actualizaos
actualizar
actuando
actuar
actuara
actuaron
actuo
acu
acua
acuariu
acueductu
acueye
acui
acumulada
acumuladura
acun
acusa
acusaba
acusacio
acusaciones
acusada
acusando
acusaos
acusar
acusaron
acusativu
acuso
acuta
acutada
acutaes
acutaos
acutar
ad
ada
adam
adams
adaptacio
adas
adauta
adautacio
adautaciones
add
ade
adela
adelaida
adelaide
adelantado
adelantra
adelantrar
adelantro
adelantu
adele
ademuz
adeptos
ades
adhesio
adi
adiccio
adicio
adicional
adicionales
adicionalmente
adidas
adientro
adio
adler
administration
adn
ado
adobe
adolescencia
adolescente
adolescentes
adolf
adolfo
adoliadini
adopcio
adopta
adoptada
adoptaes
adoptando
adoptaos
adoptar
adoptara
adoptaron
adopten
adoptivu
adopto
ador
adora
adoracio
adores
adornos
adornu
adosa
adosada
adquier
adquieren
adquiri
adquirida
adquiriendo
adquiriera
adquirieron
adquirio
adquirir
adquisicio
adria
adrian
adriana
adriano
adrienne
adscritu
aduana
aduanes
aduciendo
adulces
adult
adulta
adulteriu
adultes
adultos
adultu
advance
advanced
advenimiento
adventure
adventures
adversarios
adversariu
adverses
adversos
advocacio
ae
aena
aereollinia
aereollinies
aereu
aero
aerodina
aeroespacial
aerona
aeronave
aeronaves
aeropuertos
aeropuertu
aerosmith
aes
af
afa
afacer
afacie
afaer
afaese
afai
afala
afalar
afalo
afama
afara
afarada
afararon
afaro
afata
afatada
afaya
afayada
afayaes
afayando
afayaos
afayar
afayaron
afayen
afayo
afayos
afayu
afc
afecciones
afecha
afeches
afechiscamente
afechos
afechu
afecta
afectaba
afectacio
afectando
afectar
afectaron
afecten
afecto
aferrun
afeuta
afeutada
afeutaes
afeutaos
affair
affairs
affleck
afganista
afganistana
afganistanos
afganistanu
afi
aficio
aficiona
aficionaos
aficiones
afigura
afigurar
afilia
afiliacio
afiliada
afiliaos
afinida
afirma
afirmaba
afirmaben
afirmacio
afirmaciones
afirmando
afirmar
afirmaron
afirmase
afirmen
afirmo
afita
afitada
afitamientu
afitar
afito
afixo
afixos
afl
afluente
afluentes
afondar
afonso
aforrar
aforros
aforru
afortunadamente
aforu
africa
african
africana
africanes
africanos
africanu
afrika
afrique
afro
afroamericana
afroamericanos
afroamericanu
afrodita
after
ag
aga
again
against
agave
age
agency
agent
ages
aglomeracio
agnes
ago
agoni
agora
agospia
agospiamientu
agospiar
agostu
agradecimientu
agraria
agraries
agrariu
agrava
agrega
agregu
agresio
agresiones
agresiva
agresivida
agresivos
agresivu
agri
agricultura
agriculture
agro
agron
agropecuaria
agru
agrupacio
agrupaciones
agu
agua
aguada
aguaes
aguamala
aguanta
aguantar
aguantaron
aguanto
aguardiente
aguaro
aguarones
aguascalientes
aguda
agudes
agudos
agudu
ague
aguilar
aguilera
aguirre
aguiya
aguiyar
aguiyo
agusti
agustinos
aguya
aguyes
ah
ahmad
ahmed
ahmo
ai
aicio
aiciones
aid
aida
aime
ain
air
airbus
aircraft
aire
aires
airlines
airport
airways
ais
aise
aislamientu
aislante
aislla
aisllada
aisllaes
aisllaos
aisllar
aisne
aj
ajax
ajenato
ak
aka
akainu
akal
aki
akira
al
ala
alaba
alabama
alabastru
alacant
alada
alaes
alain
alambre
alamea
alan
alando
alantre
alaos
alar
alarco
alarma
alaron
alas
alase
alaska
alave
alba
albacete
alban
albane
albaneses
albania
albany
albarraci
albatros
albergue
albert
alberta
alberti
alberto
albornoz
albuertu
album
albums
alca
alcaide
alcala
alcalde
alcaldes
alcaldesa
alcaldi
alcaloides
alcan
alcantarella
alcanza
alcaraz
alcatel
alcen
alcibi
alco
alcoho
alcohol
alcoholismu
alcontra
alcontrada
alcontraes
alcontraos
alcontrar
alcontro
alcorda
alcordada
alcordances
alcordanza
alcordar
alcordaron
alcordo
alcue
alcuentra
alcuentren
alcuentros
alcuentru
alcuerdo
alcuerdos
alcuerdu
aldea
aldega
aldegues
alderica
aldericada
aldericar
aldericaron
alderico
alderique
alderiques
aldo
aldu
ale
aleacio
aleaciones
aleatoria
aleatories
aleatoriu
alec
aledan
alegando
alego
alegori
alegre
alejandra
alejandro
alejo
aleksandr
alekse
alema
aleman
alemana
alemanes
alen
alendar
alepo
alerta
ales
alessandri
alessandro
aleta
aletes
alex
alexander
alexandra
alexandre
alexandri
alexandru
alexis
alfa
alfabe
alfabetizacio
alfabetos
alfabetu
alfaguara
alfalfa
alfareri
alfaro
alfe
alfombra
alfombres
alfonsi
alfonsina
alfonso
alfonsu
alfoz
alfred
alfredo
alga
algama
algamaba
algamando
algamar
algamara
algamari
algamaron
algame
algamen
algamo
algarve
algo
algodo
algoritmos
algoritmu
algues
alhama
alhambra
ali
alia
aliada
aliaes
aliances
alianza
aliaos
aliar
aliase
alicante
alicar
alice
alicia
alien
aliendu
alieni
alies
align
alignbars
alime
alimenta
alimentacio
alimentaos
alimentar
alimentaria
alimentase
alimenten
alimenticios
alimenticiu
alimentos
alimentu
alison
alive
aliviu
alizacio
all
alla
allaba
allah
allan
allande
allarga
allargada
allargaes
allargar
allega
allegaben
allegaes
allegante
allegantes
allegaos
allegar
allegaron
allego
allegre
allegri
allegro
alleguen
allen
allende
alliance
allianz
allier
alliniacio
alliniaciones
alliniadura
alliniar
allison
allium
allmusic
allo
allon
allongamientu
alloria
allu
allucinaciones
alluga
allugaba
allugada
allugaes
allugamientos
allugamientu
allugaos
allugar
allugase
allugo
alluguen
alluma
alma
almace
almacena
almacenamientu
almacenar
almacenes
almade
almagro
almanzor
almeida
almendra
almente
almeri
almes
almido
alministra
alministracio
alministraciones
alministrada
alministrador
alministradores
alministraes
alministrar
alministrativa
alministrativamente
alministratives
alministrativos
alministrativu
almira
almiracio
almirador
almiradores
almirante
almisio
almite
almiten
almiti
almitida
almitio
almitir
almodo
almohade
almohades
almora
almost
almudena
almuerzu
alo
aloe
alone
along
alonso
alpes
alpha
alpi
alpina
alqueri
alquimia
alquisicio
alquisiciones
alredor
alrodiu
als
alsacia
alsina
also
alt
alta
altamente
altamira
altar
altares
altavoz
alte
alter
alteracio
alteraciones
alteria
alteriada
alteriar
alterio
alterna
alternando
alternanza
alternativa
alternativamente
alternative
alternatives
alternativos
alternativu
alternes
alterno
altes
alteza
altiplanu
altitu
altman
alto
altor
altores
altos
altu
altura
altures
alu
alude
aludiendo
aluminiu
alumna
alumnos
alumnu
alusio
alusiones
alva
alvar
alvarado
alvear
alveolar
alverbios
alverbiu
alvertencia
alverti
alvertir
alves
alvie
alvierte
alvin
alvirtio
always
alxebraica
alxecires
alza
alzada
alzaes
alzamientu
alzando
alzaos
alzar
alzaron
alzase
alzheimer
alzira
alzo
am
ama
amada
amadeo
amado
amador
amalia
amanda
amanecer
amanecida
amanita
amante
amantes
amar
amarellenta
amarellentaes
amargosa
amargosu
amarna
amaruta
amarutes
amateur
amateurs
amaya
amazing
amazo
amazon
amazones
amazonia
amb
amber
amberes
ambicio
ambiciones
ambiciosu
ambienta
ambientada
ambiental
ambientales
ambiente
ambientes
ambigu
ambigua
ambos
ambrosio
ambura
amburar
amburo
amc
ame
amelia
amellera
amen
amena
amenaces
amenacia
amenaciaba
amenaciaes
amenaciando
amenaciaos
amenaciar
amenacio
amenaza
amenazada
amenhotep
ameno
amenorga
amenorgada
amenorgaes
amenorgamientos
amenorgamientu
amenorgando
amenorgaos
amenorgar
amenorgaron
amenorgase
amenorgo
amenorguen
amente
amer
america
american
americana
americanes
americano
americanos
americanu
americas
amerindios
ames
amesta
amestada
amestaes
amestando
amestaos
amestar
amesto
ametralladora
ametralladores
ameyora
ameyorada
ameyoramientu
ameyorando
ameyorar
ameyoraron
ameyoren
ameyoro
ami
amiantu
amie
amiens
amientu
amiesta
amiestes
amiestos
amiestu
amieva
amiga
amigos
amigu
amigues
amin
aminoa
amista
amistaes
amistosos
amistosu
amnisti
amo
amodo
among
amoniacu
amonta
amontando
amontar
amonto
amor
amore
amores
amorosa
amorosu
amos
amosa
amosaba
amosaben
amosada
amosando
amosar
amosara
amosaron
amosase
amoso
amour
amparo
amparu
ampli
amplia
ampliacio
ampliaciones
ampliada
ampliando
ampliar
amplies
amplificador
amplio
amplios
amplitu
ampliu
amsterdam
amu
amue
amuesa
amuesen
amueses
amur
amy
an
ana
anagrama
anahi
anakin
anal
anali
analises
analista
analistes
analiza
analizando
analizar
analizo
analo
analoxi
analxe
analysis
anaranxa
anarqui
anarquismu
anarquista
anarquistes
anastasia
anastasio
anato
anatolia
anatomi
anatomy
anaya
anc
ances
ancestral
ancestrales
ancestros
ancestru
ancha
anches
anchor
anchos
anchu
ancient
ancona
and
anda
andadura
andaluces
andaluci
andalusi
andaluz
andaluza
andar
andecha
anders
andersen
anderson
andes
andi
andina
andines
ando
andorra
andrade
andre
andrea
andreas
andreu
andrew
andrews
andro
androce
android
andromedae
andy
ane
anemia
anes
anexo
anexona
anexono
anexos
anexu
anfibios
anfiteatru
anfitrio
anfitriona
anfitriones
ang
ange
angel
angela
angeles
angelina
angelo
angels
angiosperm
angkor
angle
anglicana
anglo
anglosaxo
anglosaxona
anglosaxones
anglu
angola
angostura
angu
anguan
angular
angustifolia
ani
anicia
aniciada
aniciaes
aniciando
aniciaos
aniciar
aniciaron
anicien
anicio
aniciu
anidacio
aniellos
aniellu
anima
animacio
animaciones
animada
animaes
animal
animales
animals
animaos
animar
animation
anime
animo
anita
aniversariu
anjou
ankara
ann
anna
annales
annals
anne
annie
anniversary
anno
annual
ano
anomali
anonymous
anos
anota
anotacio
anotaciones
anotador
anotando
anotaos
anotar
anotari
another
anoto
anova
anovables
anovada
anovar
anovo
anque
ans
anse
anselmo
ansieda
ant
anta
antagonista
antan
antarctic
ante
antecedente
antecedentes
antecesor
antecesores
antemana
antena
antenes
antepar
antepasa
antepasaos
antequera
anteres
anterior
anteriores
anteriorida
antes
anthony
anti
antiae
antibio
anticomunista
anticonceutivos
anticuerpos
antidepresivos
antidopaxe
antigu
antigua
antiguo
antiguos
antiguu
antilles
antioqui
antioquia
antioxidantes
antise
antisemita
antisemites
antisemitismu
anto
antofagasta
antoine
antoloxi
anton
antoni
antonia
antonieta
antonino
antonio
antoniu
antorcha
antoxana
antropo
antropolo
antropoloxi
antroxos
antroxu
anu
anuariu
anueva
anula
anulacio
anular
anulo
anuncia
anunciaba
anunciacio
anunciada
anunciando
anunciar
anunciara
anunciaron
anuncien
anuncio
anuncios
anunciu
anv
anverso
anxospermes
any
anza
ao
aokiji
aos
aosta
ap
apa
apache
apaecen
apaecer
apaeceri
apaeci
apaeciendo
apaeciera
apaecieron
apaecio
apaez
apaga
apaicio
apaiciones
apangar
aparatos
aparatu
aparcamientu
aparente
aparentemente
aparentes
apareyamientu
aparicio
apariencia
aparques
aparta
apartamentos
apartamentu
aparte
apartheid
apasiona
apautar
apauto
ape
apegu
apelacio
apelaciones
apellativu
apelli
apenes
apertura
apg
api
apical
apina
apis
aplastante
apli
aplica
aplicable
aplicables
aplicacio
aplicaciones
aplicada
aplicaes
aplicando
aplicaos
aplicar
aplicase
aplico
apliquen
apo
apocalipsis
apocaya
apodera
apoderaba
apoderaben
apoderada
apoderaes
apoderando
apoderaos
apoderar
apoderaron
apoderase
apoderen
apodero
apollo
apolmonante
apolo
apondera
aponderamientos
aponderamientu
aporta
aportacio
aportaciones
aportando
aportar
aportara
aportari
aportaron
aportase
aporto
aportuna
aportuno
aposicio
aposta
apostaba
apostada
apostaes
apostando
apostaos
apostar
apostari
apostaron
apostase
aposto
apostra
apoxe
apple
applied
approach
apr
apre
aprecia
apreciable
apreciacio
apreciada
apreciar
apreciase
apreciu
aprender
aprendi
aprendiendo
aprendieron
aprendio
aprendiz
aprendizaxe
apriende
aprienden
april
aproba
aprobacio
aprobada
aprobaes
aprobaos
aprobar
aprobara
aprobaron
aprobo
apropia
apropiacio
apropiada
aprosimao
aprove
aprovecha
aprovechamientu
aprovechando
aprovechar
aprovecharon
aprovechen
aprovecho
aprovir
aprox
aproximamientos
aproximamientu
aproximao
aprueba
aptitu
aptos
aptu
apu
apue
apuerta
apuerten
apuesta
apueste
apuesten
apuestes
apun
apunta
apuntando
apuntar
apunten
apuntes
apunto
apuros
apurra
apurras
apurre
apurren
apurri
apurrida
apurrie
apurriendo
apurriera
apurrieron
apurrio
apurrir
apurriri
apweb
aq
aquaman
aquarii
aque
aquel
aquella
aquelles
aquello
aquellos
aqueme
aqui
aquila
aquilae
aquiles
aquino
aquisgra
aquitania
ar
ara
arab
arabia
arabic
arafat
arago
aragone
aragonesa
aragoneses
aral
aralar
arame
aran
arana
aranceles
aranda
arango
aranjuez
arau
arawak
arbitraria
arbitraxe
arbo
arbolea
arbor
arbustos
arbustu
arc
arca
arcade
arcadia
arcadio
arcaica
arcaicu
arce
arch
archaeology
archibald
archidio
archiduque
archie
archipie
architecture
archiva
archive
archives
archivo
archivos
archivu
arciprestalgu
arco
arcos
arcu
arda
arde
are
area
arellano
aren
arena
arenal
arenas
arendt
arenisca
arenosos
arequipa
ares
aresta
arestes
arg
argan
argentina
argentinos
argo
argos
args
argu
argumenta
argumental
argumentando
argumenten
argumento
argumentos
arguments
argumentu
arguyosu
arguyu
ari
aria
ariana
arias
arica
ariel
aries
aristo
aristocra
aristocracia
aristote
aritme
ariz
arizona
arjona
ark
arkansas
arlanza
arles
arlington
arma
armada
armadura
armadures
armaes
armamentu
armand
armando
armani
armaos
armar
armariu
armas
armazo
arme
armenia
armenian
armenies
armenios
armeniu
armes
armin
armisticiu
armor
arms
armstrong
army
arn
arnold
arol
aron
aros
around
arpa
arqueo
arqueolo
arqueoloxi
arqueros
arqueru
arques
arquetipu
arqui
arquitecto
arquiteuto
arquiteutos
arquiteutu
arquiteutura
arrama
arrampun
arranque
array
arreglos
arreglu
arrendamientu
arrenuncia
arrenunciando
arrenunciar
arrenunciara
arrenunciaron
arrenuncio
arrenunciu
arresta
arrestaos
arrestu
arrexunta
arrexuntaba
arrexuntaes
arrexuntaos
arrexuntar
arrexuntase
arrexunten
arrexunto
arreya
arreyada
arreyaes
arreyaos
arreyar
arreyen
arreyo
arriba
arribacio
arriendes
arriendu
arrinca
arrincar
arrinco
arriquecimientu
arrobinar
arrodia
arrodiaba
arrodiaben
arrodiada
arrodiaes
arrodiando
arrodiaos
arrodiar
arrodien
arrogancia
arrogante
arrogantes
arronda
arrondada
arrondaes
arrow
arroyo
arroz
ars
arse
arsenal
art
arte
artefautos
artefautu
artemisa
artemisia
arteria
arterial
arteries
arteru
artes
artesanal
artesanales
artesani
artesanos
artesonado
arthur
arti
article
articles
articula
articulacio
articulaciones
articular
articulo
artificial
artificiales
artigas
artilleri
artist
artista
artistes
artists
artois
artritis
artro
arts
artu
arturo
aru
arume
arumes
arumoses
arumosos
arvensis
arxel
arxeli
arxelia
arxenti
arxentina
arxentines
arxentino
arxentinos
arzobispa
arzobispos
arzobispu
as
asa
asaltar
asaltos
asaltu
asamblea
asamblees
ascendencia
ascendente
ascendentes
ascensio
ascensor
ascensores
ascensos
ascensu
ascher
ase
asediu
asegura
aseguraba
asegurada
asegurando
asegurar
aseguraron
asegurase
aseguren
aseguro
aselar
aselu
aseme
asemeya
asemeyada
asemeyaes
asemeyaos
asemeyar
asemeyen
asentamientos
asentamientu
asesi
asesina
asesinada
asesinaes
asesinaos
asesinar
asesinaron
asesinatos
asesinatu
asesino
asesinos
asesor
asesora
asesoramientu
asesores
asesori
asfaltu
ash
ashley
asi
asia
asian
asientos
asientu
asigna
asignacio
asignada
asignaes
asignaos
asignar
asignatura
asigno
asilu
asime
asimilacio
asimilar
asimov
asina
asiria
asirios
asiriu
asisten
asistencia
asistencies
asistente
asistentes
asisti
asistiendo
asistieron
asistio
asistir
asitia
asitiaba
asitiada
asitiaes
asitiando
asitiaos
asitiar
asitiaron
asitiase
asitien
asities
asitio
asma
asoce
asoceda
asocede
asoceden
asoceder
asocederi
asocedi
asocedida
asocedie
asocediendo
asocediera
asocedieron
asocedio
asocia
asociacio
asociaciones
asociada
asociaos
asoleya
asoleyo
asonsan
asp
aspe
aspeutos
aspeutu
aspira
aspiracio
aspiraciones
aspirante
aspirantes
aspirar
aspru
aspx
assam
assange
assessment
associated
association
ast
astana
aste
astencio
asteraceae
asteracees
asteroide
asteroides
aston
astorga
astra
astraccio
astracta
astractos
astractu
astragalus
astrinxente
astro
astrofi
astroloxi
astronauta
astronautes
astrono
astronomi
astronomy
astros
astru
astur
asturiana
asturianes
asturiano
asturianos
asturianu
asturias
asturies
asume
asumen
asumi
asumiendo
asumiera
asumieron
asumio
asumir
asuncio
asuntos
asuntu
at
ata
ataca
atacada
atacama
atacando
atacante
atacantes
atacaos
atacar
atacaron
ataco
atahualpa
atanasio
atapecer
ataque
ataquen
ataques
atari
atau
ataya
atayada
atayaes
atayante
atayaos
atayar
atayo
atc
ate
atencio
atender
atendi
atendiendo
atene
atenea
atenes
ateniense
atenienses
atenta
atentaos
aterrizar
aterrizaxe
aterrizo
atestigu
atestigua
athletic
ati
atiende
atkins
atkinson
atl
atla
atlanta
atlante
atlantic
atlantis
atlas
atle
atles
atleta
atletes
atletismu
atmo
atmosfe
ato
atolo
atopa
atopaba
atopaben
atopada
atopaes
atopamos
atopando
atopaos
atopar
atopara
atopari
atoparon
atopase
atope
atopen
atopo
atp
atra
atraen
atraer
atrai
atraicio
atraiciones
atrapa
atrapaos
atrapar
atraxo
atrayendo
atrevi
atribu
atribucio
atribuciones
atributos
atributu
atribuye
atribuyi
atribuyida
atribuyir
atribuyo
atriu
atropa
atropando
atropar
atropo
attack
attelabidae
atu
au
aube
auckland
aude
audi
audicio
audiciones
audiencia
audiencies
audiovisual
audiovisuales
auditoriu
audiu
audrey
auf
aug
augsburgu
august
augusta
auguste
augustin
augusto
augustu
aula
aules
aumenta
aumentaba
aumentada
aumentando
aumentar
aumentara
aumentaron
aumenten
aumento
aumentos
aumentu
aun
aura
aureliano
aurelio
auri
auriculares
aurigae
aurora
aus
auschwitz
ausencia
ausente
ausentes
austen
austerida
austin
austral
australia
australian
australiana
australianes
australianos
australianu
australis
austria
austriaca
austriacos
austriacu
austrohu
austru
aute
autenticida
author
authority
authors
autismu
auto
autobiogra
autobiografi
autobu
autobuses
autodefensa
autodeterminacio
autodidacta
autoestima
autogobiernu
automa
automo
automotriz
automovili
automovilismu
autono
autonomi
autopista
autopistes
autopsia
autor
autora
autores
autori
autorida
autoridaes
autoritariu
autoriza
autorizacio
autorizada
autorizaos
autorizar
autorizo
autorretratu
autos
autovi
autu
auvernia
aux
auxiliar
auxiliares
auxiliu
av
ava
available
avancen
avant
avanza
avanzaba
avanzada
avanzaes
avanzando
avanzaos
avanzar
avanzaron
avanzo
avatar
avatares
ave
avec
avellaneda
avena
avengers
aveni
avenida
aventura
aventureru
aventures
avenue
avera
averada
averar
averase
averen
averi
avero
avery
aves
avese
aveza
avezada
avezaos
avi
aviacio
aviadores
aviation
avibase
avientu
aviespes
aviesu
avieyamientu
avifauna
avignon
avile
avio
aviones
avis
avisos
avisu
aviv
avn
awai
award
awards
away
axacente
axacentes
axedrez
axel
axencia
axencies
axenda
axente
axentes
axetivos
axetivu
axial
axilares
axilida
axoma
axomes
axu
axudica
axudico
axunta
axuntaba
axuntando
axuntaos
axuntar
axuntaron
axuntase
axunten
axunto
axuntu
axusta
axustaba
axustar
axuste
axustes
axusto
ayacucho
ayala
ayalga
ayalgues
ayena
ayenes
ayenos
ayenu
ayer
ayeri
ayu
ayuda
ayudando
ayudante
ayudantes
ayudar
ayudari
ayudaron
ayuden
ayudes
ayudo
ayumi
ayuntamiento
ayuntamientu
ayunu
az
azafra
azan
azar
azerbaixa
azeri
aznar
azores
azteca
azteques
azucre
azucres
azufre
azul
azula
azulada
azules
azulexos
azur
b
ba
bab
baba
babe
babilonia
baby
bacala
bach
bachelet
bachelor
bachiller
bachilleratu
back
background
backgroundcolors
baco
bacon
bacteria
bacteriana
bacteries
bad
badajoz
badayoz
badea
badees
baden
bados
badu
baekje
baeza
bafta
baga
bagdag
bagues
bah
baha
bahames
bahi
bahia
bai
bailey
baill
bailla
baillando
baillar
baillari
baillarina
baillarines
baillarinos
baille
bailles
baillie
baji
bajo
baker
bakr
baku
bal
bala
balada
balaes
balaguer
balance
balanza
balca
balcanes
balco
balcones
baldi
baldre
balduino
baldwin
bale
balear
baleares
bales
bali
ball
ballena
ballenes
ballesteros
ballet
balneariu
balo
balompie
baloncestu
balones
balonmano
balsa
balses
balta
baltada
baltadera
baltaos
baltar
baltasar
baltes
baltimore
balto
balu
baluarte
bambu
bamos
ban
bana
banca
bancada
bancaria
bancaries
bancariu
bancarrota
bancia
banco
bancos
bancu
band
banda
bandaes
bandera
banderes
bandes
bandi
bandos
bandu
banduyu
banes
bang
bangkok
bangladesh
bangladex
bank
banks
banner
bannon
banos
banqueros
banqueru
banqui
bantu
banu
banza
banzaos
baptista
baptiste
bar
bara
barack
barajas
barakaldo
barata
baratos
baratu
barba
barbablanca
barbados
barbanegra
barbara
barbarroxa
barbes
barbosa
barbra
barc
barca
barcelona
barco
barcos
barcu
bardata
bardem
bari
barillas
barker
barnes
barney
baro
baroja
baron
barones
baroni
barra
barral
barranquilla
barre
barrera
barreres
barres
barrett
barri
barriga
barriles
barrio
barrios
barriu
barroca
barrocos
barrocu
barroques
barros
barroso
barrow
barruntos
barruntu
barry
barrymore
bart
bartolome
barton
bas
basa
basada
basadre
basaes
basal
basales
basaos
basar
basase
base
based
basen
bases
basi
basic
basil
basilea
basilio
basket
basketball
baso
bass
basta
bastante
bastantes
bastardu
bastia
bastien
bastio
basura
bat
bata
batalla
batalles
batallo
batallones
batasuna
bate
bateo
bater
bateri
bates
bati
batiendo
batio
batista
batlle
batman
battista
battle
batua
baturiciu
baudot
bauer
bauhaus
bautismal
bautismu
bautista
bautisteriu
bautiza
bautizada
bautizar
bautizo
baviera
baxa
baxaba
baxada
baxando
baxar
baxaron
baxen
baxes
baxista
baxo
baxos
baxter
baxu
bay
bayer
bayern
bayes
bayona
bayura
baza
bazcuya
bazcuyen
bb
bbc
bc
bce
bd
bditos
bdsm
be
beach
beagle
bean
bear
bears
beas
beast
beat
beatles
beatrice
beatriz
beatu
beaumont
beautiful
beauty
bebe
bebearia
beber
bebi
bebida
bec
beca
because
beck
becker
beckett
becky
beda
bee
been
beer
beethoven
before
begin
behavior
behind
bei
beijing
being
beirut
beixi
bel
bela
belchite
bele
belfast
belfort
belga
belgra
belgrano
belgues
belice
believe
belisario
belize
bell
bella
bellamy
belle
belles
bellini
bello
bellos
bells
bellu
belmonte
belo
belt
beltra
beltsville
belxicanu
bemol
ben
benavente
benavides
bender
bendicio
bene
benedicti
benedicto
beneficencia
beneficia
beneficiar
beneficio
beneficios
beneficiosu
beneficiu
benevento
benfica
bengala
bengali
beni
benignu
benito
benitu
benjami
benjamin
bennett
benny
bense
benson
benth
bentley
benz
beques
ber
bera
bereber
bereberes
berenguer
berg
berganti
bergen
berger
bergman
bering
berkeley
berli
berlin
berlioz
bermejo
bermeya
bermeyu
bermu
bermudes
berna
bernabe
bernal
bernaldo
bernard
bernardino
bernardo
bernhard
bernie
bernini
bernstein
beros
berros
berru
berry
bert
berta
bertrand
beru
besanc
bese
best
bestia
besties
besu
bet
beta
betancourt
beth
betis
bette
better
betty
between
beverly
bey
beyonce
beyond
bi
bian
bianchi
bible
biblia
bibliogra
bibliografi
biblioteca
biblioteques
bibliotheca
bica
bicameral
bicentenariu
bicicleta
bicicletes
bico
bicolor
bicos
bicu
bid
bielorrusa
bielorrusia
bielorrusu
bielsa
bien
bienal
bienes
bienestar
bienveni
bienvenida
bierzo
bierzu
bifaces
big
biga
bigote
bil
bilbao
bildu
biles
bill
billateral
billaterales
billboard
billete
billetes
billie
billingu
billones
billy
biltos
biltu
bimenes
bin
binaria
binaries
binarios
binariu
bing
binomial
bio
biodiversida
biodiversity
biogra
biografi
biographical
biography
biol
biolo
biological
biology
bioloxi
biomasa
biome
biopsia
bioqui
biosfera
bioteunoloxi
bipolar
biques
bird
birdlife
birds
birmania
birmingham
birth
birthday
bis
bisa
bisagu
bisarma
bisarmes
bisexual
bisexuales
bishop
bismarck
bisonte
bistechu
bit
bita
bitat
bitats
bitcoin
bits
bitu
bizancio
bizanciu
bizanti
bizantina
bizantines
bizantinos
bizet
bizkaia
bjo
bl
bla
black
blackwell
blade
blair
blake
blanc
blanca
blancanieves
blanche
blanco
blancos
blancu
blanda
blandu
blanques
blas
blasco
blase
blaso
blast
blazers
ble
bles
blica
blicamente
blico
blicos
blicu
blind
blinda
blindaos
blindaxe
blink
bliques
blizzard
bloc
block
blog
blogspot
blogue
blois
blonde
blood
bloom
bloque
bloques
bloquia
bloquiar
blu
blue
blues
bluetooth
blume
bmg
bmw
bmx
bner
bng
bo
boa
board
boat
bob
bobby
bobina
boca
bocetos
boda
bodega
bodegues
bodes
body
boe
boeing
bogota
bohemia
boi
boico
bois
boiss
bol
bola
bolan
bold
bole
boles
boleti
boli
bolivar
bolivariana
bolivia
boliviana
bolivianu
bologna
bolon
bolonia
bolos
bolsa
bolses
bolsos
bolsu
bolt
bolton
bolxevique
bolxeviques
bomba
bombarde
bombardear
bombardeos
bombarderos
bombarderu
bombay
bomberos
bombes
bombu
bon
bona
bonaerense
bonal
bonalmente
bonanza
bonaparte
bonaventura
bond
bonda
bone
bones
bonet
bonifacio
bonilla
bonn
bonnie
bono
bonos
bonu
bonus
boo
boogie
book
booker
books
boom
booth
bootis
bora
borbo
borbones
borda
borde
border
borderline
bordia
bordu
boreal
borealis
bores
borges
borgia
borgon
bori
boris
borja
born
borneo
borough
borra
borrador
borrar
borrina
borussia
bosch
bosco
bose
bosnia
bosones
bosque
boss
boston
bot
bota
botanic
botanica
botanical
botanique
botanist
botany
bote
botella
botelles
botes
both
boti
boto
botones
botsuana
bottom
boulevard
boulogne
bow
bowie
bowl
box
boxe
boxeador
boxes
boy
boyaca
boyd
boyle
boys
br
bra
brabante
brabham
bracamonte
brace
brad
bradford
bradley
brady
braga
braganza
brahms
braille
brain
bran
branco
brand
brandeburgu
brando
brandon
brandt
brandy
braniza
branos
branu
brase
brasi
brasil
brasilana
brasilanes
brasilanos
brasilanu
brasileira
brasileiro
brasilia
brassicaceae
bratislava
braun
brava
brave
bravo
brazil
brazilian
brazos
brazu
bre
break
breaking
bremen
brenda
brennan
brense
brescia
brese
brest
bretan
breto
breton
brett
bri
brian
brica
bricu
brida
bride
brides
bridge
bridges
bridos
bridu
brief
brien
brigada
brigadier
brigaes
briggs
bright
brill
brillante
brillantes
brillosa
brilloses
brillosos
brillosu
brinda
brindar
brindo
brio
briques
brisbane
bristol
brit
brita
britain
britania
britannica
british
britney
brito
brittany
britton
broadcasting
broadway
brock
broken
bronce
bronquitis
bronte
bronx
brook
brooke
brooklyn
brooks
bros
brother
brothers
brown
bru
bruce
brune
bruno
brunswick
brutal
brutalmente
brutu
bruxa
bruxeles
bruxeri
bruxes
bruxu
bryan
bryant
bryce
bs
bsc
bside
bu
bual
bucal
buce
buchanan
buck
buckingham
bucks
bucle
bucuresti
bud
buda
budapest
buddy
budismu
budista
budistes
buecos
buecu
buelga
buelgues
buendi
buenos
buffalo
bug
buggy
bugs
building
bula
bulbu
bulbul
bulda
bules
bulgaria
bull
bulletin
bullets
bullock
bulls
bulnes
bulo
bulos
bultable
bultables
bulu
bun
bunbury
bundesliga
bunny
buque
buques
burbuya
burbuyes
burdeos
bureau
bureba
burger
burgos
burgue
burguesa
burgueses
burguesi
burguiba
burke
burkina
burlesque
burlla
burmeister
burn
burning
burns
buro
burocra
burocracia
burr
bursa
burt
burton
burundi
bus
busca
buscaba
buscaben
buscando
buscar
buscaron
buscemi
busco
buses
bush
business
busquen
busques
bustamante
buster
bustos
bustu
but
buta
butch
butler
butterflies
butterfly
button
buxu
buzz
by
bye
byron
c
ca
cabalgata
caballeri
caballero
caballeros
caballeru
caballos
caballu
caban
cabanillas
cabare
cabecera
cabeceres
cabeces
cabecicafe
cabello
cabera
caberos
caberu
cabeza
cabezaleros
cabezaleru
cabezo
cabida
cabildru
cabilen
cabina
cable
cables
cabo
cabos
cabra
cabral
cabrales
cabrera
cabres
cabri
cabu
caca
cacatu
caceri
caces
cachorros
cachos
cachu
cacique
cactus
cada
cadabre
cadabres
cadarma
cadarmes
cadena
cadenes
caderalgu
cades
cadete
cadetes
cadillac
cadril
caducifolios
caen
caesar
caf
cafe
cafei
cafeteri
cafiante
cage
cagliari
cai
caima
cairo
cairu
cais
caja
cajamarca
cal
cala
calabaza
calabria
calahorra
calais
calamar
calamares
calandria
calatayud
calatrava
calce
calcio
calciu
calcu
calcula
calculadora
calculadores
calcular
calculase
calculo
calcuta
caldas
caldera
calderes
caldero
caldu
caldwell
cale
calecer
caledonia
calendariu
calentamientu
caleta
caleyeru
caleyo
calgary
cali
caliar
caliares
calibre
calida
calidable
caliente
calientes
califa
califatu
califica
calificacio
calificaciones
calificada
calificar
califico
california
caligrafi
call
callao
callar
calle
called
calleja
callejas
calles
calo
calor
calori
calorosos
calorosu
calpe
caltendri
caltenelo
caltener
caltenese
caltenga
calteni
caltenida
caltenie
calteniendo
caltenimientu
calter
calteres
caltie
caltienen
caltu
caltuvie
caltuviera
caltuvieron
caltuvo
calvados
calvariu
calvin
calvo
calza
calzada
cam
cama
camacho
camarera
camareru
camari
camaro
cambe
cambeos
cambio
cambiu
camboya
cambridge
came
cameo
camera
cameron
cameru
cames
cami
camientu
camila
camille
camilo
caminando
caminar
camino
caminos
camio
camiones
camisa
camises
camiseta
camisetes
camp
campa
campaign
campamentos
campamentu
campan
campana
campanariu
campanes
campania
campanula
camparina
camparines
campbell
campeche
campeo
campeona
campeonatos
campeonatu
campeones
campera
camperes
campesinado
campestre
campillo
campo
campoamor
campoo
campos
campu
campus
campusantos
campusantu
camu
camuda
camudando
camudar
camudara
camudari
camudaron
camudase
camuden
camudo
camus
can
canada
canadensis
canadian
canadiense
canadienses
canal
canales
canaria
canaries
canarios
canariu
canasta
canberra
cancela
cancelacio
cancer
cancha
canches
canciller
cancilleri
cancio
canciones
cancu
canda
candamu
candelaria
candia
candidata
candidates
candidatos
candidatu
candidatura
candidatures
candolle
candy
canela
canesba
canesbes
cangas
cangues
cani
canis
cannabis
cannes
cannon
cano
canoes
canon
canonizacio
canos
cansa
cansanciu
canta
cantaba
cantabria
cantada
cantal
cantando
cantante
cantantes
cantar
cantares
cantautor
cantautores
cante
canten
cantera
canterbury
canteres
canteri
cantida
cantidaes
cantil
cantiles
canto
cantones
cantor
cantos
cantu
canum
canvas
canyon
cao
caoba
caos
cap
capa
capaces
capacida
capacidaes
capacitacio
capadocia
caparina
caparines
capaz
capcom
cape
capella
capes
capeto
capi
capiella
capilla
capita
capital
capitales
capitalismu
capitalista
capitalistes
capitana
capitanes
capitani
capitel
capiteles
capitol
capitoliu
capitulacio
capitular
capitulo
capiya
capiyes
capo
capra
captacio
captain
captar
captura
captures
car
cara
carabineros
caracas
caracol
caracteri
caractericen
caracteriza
caracterizo
caraques
carauteri
carauteriza
carauterizacio
carauterizada
carauterizaos
carauterizar
caravaggio
caravana
carba
carbayos
carbayu
carbes
carbo
carbohidratos
carbonatu
carboni
carbonu
card
carden
cardenal
cardenales
cardiaca
cardiacu
cardiff
cardinal
cardinales
cardinals
cardiovascular
cardona
cardoso
cardu
care
carecen
carecer
careci
carecio
carente
cares
carex
carey
carez
carga
cargada
cargaes
cargaos
cargar
cargo
cargos
cargu
cargues
cari
caribbean
caribe
cariben
caricatura
carida
carin
carinae
carintia
carisma
carl
carla
carles
carleton
carlista
carlistes
carlo
carlomagno
carlos
carlota
carme
carmelites
carmelo
carmen
carmona
carnal
carne
carnegie
carnes
carni
carniceri
caro
carol
carolina
caroline
carolinxu
carolyn
caros
carpa
carpelos
carpenter
carpinteri
carpinteru
carpio
carr
carranza
carrasco
carren
carrera
carreres
carretera
carreteres
carretes
carrie
carril
carriles
carrillo
carrio
carroceri
carroll
carron
carros
carru
cars
carson
cart
carta
cartagena
cartago
cartaxena
cartaxineses
cartelos
cartelu
carter
cartera
cartes
carto
cartografi
cartoon
cartuchos
cartuchu
caru
carvajal
carvalho
cary
cas
casa
casablanca
casada
casado
casal
casanova
casaos
casar
casares
casas
casase
cascada
cascaes
cascos
cascoxos
cascoxu
cascu
case
caseri
caseros
cases
casetes
casey
cash
casi
casillas
casimiro
casino
casio
caso
casona
casones
casoriu
casos
caspiu
cassidy
cassini
cassiopeiae
cast
casta
castalla
castan
castella
castellana
castellanes
castellanos
castellanu
castello
castelo
castes
castielfabib
castiella
castiellos
castiellu
castiga
castigar
castigos
castigu
castilla
castillo
casting
castle
castor
castores
castrillo
castro
castropol
castros
castru
casu
casual
casualida
cat
cata
catala
catalana
catalanes
catalina
catalizador
catalog
cataloga
catalogada
catalogar
catalogo
catalogue
catalun
catalunya
catamarca
catania
catarina
catastro
catastru
catch
cate
catecismu
catedra
catedral
catedrales
categori
category
caterina
cathedral
catherine
catholic
cato
catolicismu
catorce
cau
cauca
cauchu
caudal
caudales
caudiellos
caudiellu
causa
causaba
causada
causaes
causando
causante
causaos
causar
causaron
cause
causen
causes
causo
cautiverio
cautivida
cautivos
cava
cavaliers
cave
cavendish
caxa
caxes
caxmir
caxo
caya
cayen
cayendo
cayente
cayer
cayera
cayeri
cayeron
cayetano
cayi
cayida
cayo
cayuela
caza
cazador
cazadores
cazar
cazenave
cazumbre
cb
cbs
cc
cctld
cd
cdc
cdot
cdotes
cdots
cds
cdu
ce
cea
ceas
cebada
cebera
ceberes
cebolla
cebu
cecil
cecilia
cedru
cee
cees
ceguera
ceiba
ceila
celda
celdes
cele
celebra
celebraba
celebraben
celebracio
celebraciones
celebrada
celebraes
celebrando
celebraos
celebrar
celebraron
celebrase
celebren
celebrida
celebridaes
celebrity
celebro
celebru
celeste
celestes
celestial
celestino
celia
celiaca
cell
celos
celta
celtes
celti
celtic
celtics
celu
celular
celulares
celulosa
cementu
cen
cena
cencellez
cenciellamente
cencielles
cenices
cenicienta
ceniza
censaos
cense
censo
censos
censu
censura
census
cent
centaurea
centauri
centavos
centenar
centenares
centenariu
centenu
center
centi
centra
centrada
central
centrales
centraliza
centralizada
centrar
centrase
centre
centri
centro
centroafricana
centroame
centroamericana
centroamericanos
centroamericanu
centros
centru
centuria
century
ceo
ceos
cepa
cepeda
cepes
cephei
cer
cera
cerati
cerca
cercada
cercana
cercanes
cercani
cercanos
cercanu
cercos
cercu
cerda
cerden
cerebral
cerebrales
ceremonia
ceremonial
ceremoniales
ceremonies
ceres
cerezo
cero
ceros
cerra
cerrada
cerrando
cerrar
cerraron
cerrato
cerro
certame
certidume
certifica
certificacio
certificaos
cervantes
cervera
cerveza
cervical
ces
cesa
cesar
cesara
cesarea
cesaron
cese
cesio
cesis
ceso
cesta
cet
ceta
ceti
cetru
cetus
ceuta
cf
cfg
cfr
cfrac
cgi
cgt
ch
cha
chacas
chaco
chad
chain
challenge
challenger
cham
chamber
chamberlain
chambers
champ
champion
champions
championship
championships
chan
chance
chancia
chancies
chandler
chanel
chang
change
changes
channel
channing
chao
chaos
chapel
chapelle
chaplin
chapman
chapter
chaqueta
char
character
characters
charente
charles
charlie
charlotte
charra
charranes
charres
charru
chart
chartres
charts
chase
chaves
che
checa
check
checklist
checos
checoslovaquia
checu
chef
chelsea
chemical
chemistry
chen
cheng
chequia
cher
cherno
cherry
cheryl
chester
chevrolet
chevy
chi
chiang
chiapas
chiba
chica
chicago
chicherin
chicu
chief
chigre
chigres
chihuahua
child
children
chile
chilena
chilenes
chilenos
chilenu
chiloe
chimenea
chimenees
chimpance
chin
china
chinches
chinchilla
chinensis
chines
chinese
ching
chino
chinos
chinu
chip
chips
chiques
chispa
chistes
chloe
cho
chocolate
choi
choice
chola
chontal
chopper
choque
choques
chorizu
chris
christ
christi
christian
christiane
christie
christina
christine
christmas
christoph
christophe
christopher
chrome
chronicle
chronicles
chrysler
chu
chuck
chueca
chun
chung
chuquisaca
church
churchill
ci
cia
ciase
cica
cicero
ciclismu
ciclista
ciclistes
ciclo
ciclones
ciclos
ciclu
cicu
cid
cida
cides
cido
cidob
cidos
cidu
cie
ciega
ciegos
ciegu
cielos
cielu
cien
ciencia
ciencies
cienfuegos
ciense
cienti
cientos
cientu
cierra
cierta
ciertes
cierto
ciertos
ciertu
cies
cifra
cifres
cifuentes
cigu
cija
cil
ciles
cili
cilicia
cilindrada
cilindros
cilindru
cilmente
cima
cime
cimera
cimeres
cimero
cimeros
cimeru
cimientos
cimu
cin
cinc
cinca
cincinnati
cinco
cincuenta
cindy
cine
cineasta
cineastes
cinema
cinematogra
cinematografi
cines
cinta
cintes
cintu
cintura
cinturo
cio
cipriano
circa
circle
circu
circuitos
circuitu
circula
circulacio
circular
circulares
circulen
circuncisio
circundante
circundantes
circunferencia
circunscripcio
circunscripciones
circunstancia
circunstancies
circus
ciri
cirilo
ciro
ciruxanu
ciruxi
cis
ciscaben
cisma
cisne
cisneros
cisnes
cisterciense
cisterna
cit
cita
citada
citaes
citamente
citando
citaos
citar
citase
citation
cite
citen
cites
cities
citizen
cito
citoloxi
citoplasma
citroe
citrus
citu
city
ciuda
ciudad
ciudadana
ciudadani
ciudadanos
ciudadanu
ciudadela
ciudaes
civic
civil
civiles
civilizacio
civilizaciones
civilization
cixordania
ck
cken
cl
cla
clado
claire
clan
clandestina
clandestinida
clanes
clapton
clara
claramente
clare
clarence
clares
clari
clarida
clarinete
clark
clarke
claro
claros
claru
clas
clase
clases
clasicismu
clasicista
clasifi
clasifica
clasificacio
clasificaciones
clasificada
clasificaes
clasificando
clasificaos
clasificar
clasificaron
clasificase
clasificatoria
clasificatorias
clasifico
clasifiquen
class
classic
classical
classics
classification
claude
claudia
claudio
claus
clausa
clauses
claustru
clausura
clave
claves
clavu
clay
clayton
cle
clean
clemente
clements
cleopatra
clermont
cleru
cles
cleveland
cli
clica
clicos
clifford
clima
climate
climatolo
climatoloxi
climes
clinical
clint
clinton
clio
clip
clippers
clive
clock
clooney
cloru
cloruru
close
cloud
club
clubes
clyde
cm
cn
cnn
cnt
co
coa
coach
coahuila
coalicio
coaliciones
coast
coautora
cobain
cobarde
cobb
cobertoria
cobos
cobra
cobrar
cobre
cobro
cobru
coburgu
coca
cocai
coccio
cochabamba
coche
coches
cochrane
coci
cociente
cocimientu
cocina
cocinar
cocines
coco
cocos
cocu
code
codex
codificacio
codirixida
cody
coe
coeficiente
coeficientes
coen
cofundador
cognitiva
cognitives
cognitivu
cogorda
cogordes
cohen
coherencia
coherente
cohesio
cohete
cohetes
coi
coimbra
coincide
coinciden
coincidencia
coincidi
coincidiendo
coincidieron
coincidio
coincidir
col
cola
colapsu
colar
colaron
colas
colase
cold
coldu
cole
colectivamente
colega
colegues
coleicio
coleiciones
coleicionista
coleicionistes
coleman
coleo
coles
colesterol
coleutiva
coleutives
coleutivida
coleutivos
coleutivu
colexata
colexos
colexu
colga
colgante
colgantes
colgar
coli
colibri
colin
colindantes
colise
coliseum
coll
colla
collabora
collaboracio
collaboraciones
collaborador
collaboradora
collaboradores
collaborando
collaborar
collaboraron
collaboren
collaboro
collada
collar
collecha
colleches
collecho
collected
collection
college
collins
collo
collora
colloraos
colo
coloma
colombia
colombiana
colombianos
colombianu
colombo
colon
colonia
colonial
coloniales
colonialismu
colonies
colonizacio
colonizadores
colonizar
colonos
coloquial
coloquialmente
color
colora
coloracio
colorada
colorado
coloraes
colorante
colorao
coloraos
colores
colori
coloria
colories
colors
colos
colts
columba
columbia
columbus
columna
columnes
columnista
colunga
com
coma
comandada
comandadas
comandado
comandados
comandancia
comandante
comandantes
comandos
comandu
comarca
comarcal
combadura
combalechadura
combat
combate
combates
combati
combatiendo
combatiente
combatientes
combatio
combatir
combina
combinacio
combinaciones
combinada
combinaes
combinando
combinaos
combinar
combinen
combino
combustible
combustibles
combustio
come
comedia
comediante
comedies
comedor
comedy
comen
comendador
comenenciudos
comenenciudu
comenta
comentar
comentarios
comentarista
comentaristes
comentariu
comento
comer
comercial
comerciales
comercializa
comercializacio
comercializar
comercialmente
comerciante
comerciantes
comerciar
comercio
comercios
comerciu
comes
comese
comestible
comestibles
cometa
cometer
cometes
cometi
cometio
comfort
comi
comic
comicios
comics
comida
comiendo
coming
comio
comisari
comisarios
comisariu
comisio
comisionado
comisiones
comite
comitiva
command
commission
committee
common
commons
commonwealth
communications
communis
community
comneno
como
comodida
comodoro
comoquier
comores
compa
compacta
compactu
compan
companion
company
companys
compara
comparable
comparables
comparada
comparances
comparando
comparanza
comparaos
comparar
comparative
comparativu
comparo
comparses
comparte
comparten
comparti
compartida
compartiendo
compartieron
compartio
compartir
compasio
compatibilida
compatible
compatibles
compatriota
compatriotes
compendiu
compensa
compensacio
compensar
competencia
competencies
competente
competicio
competiciones
competidor
competidores
competir
competition
competitiva
competitivida
competitivu
compilacio
compite
compiten
compitiendo
compitieron
compitio
complementa
complementar
complementaria
complementaries
complementarios
complementos
complementu
completa
completada
completando
completar
complete
completen
completes
completo
completos
completu
complex
complexa
complexes
complexida
complexos
complexu
complica
complicada
complicaes
complicaos
complicida
complutense
compo
componen
componente
componentes
componer
componi
comportamientos
comportamientu
composicio
composiciones
compositae
compositor
compositora
compositores
compostela
compra
comprador
compradores
comprensio
compres
compresio
comprobar
comprobase
comprobo
comprometer
comprometi
comprometida
comprometie
comprometio
compromi
compromisos
compromisu
compton
compuesta
compuestes
compuestos
compuestu
compunxo
computacio
computacional
computer
comte
comu
comun
comunal
comunales
comunes
comunica
comunicacio
comunicaciones
comunicar
comunicase
comunico
comunida
comunidad
comunidaes
comunio
comuniquen
comunismu
comunista
comunistes
con
conabio
conan
conca
concacaf
conce
concebi
concebida
concebir
concede
conceder
concedi
concedida
concedie
concedio
concencia
concentra
concentracio
concentraciones
concentrada
concentraos
concentrar
concentrase
concentren
concentro
concepcio
concepciones
concept
conceptual
concert
concesio
concesiones
conceutos
conceutu
conceyal
conceyales
conceyos
conceyu
concha
conches
conchita
concibio
conciencia
conciertos
conciertu
conciliar
concilio
concilios
conciliu
conclu
conclusio
conclusiones
concluyendo
concluyeron
concluyi
concluyida
concluyir
concluyo
concordanza
concorde
concordia
concreta
concretamente
concretar
concretes
concreto
concretos
concretu
concursante
concursantes
concursos
concursu
conda
condal
condao
condaos
conde
condecora
condecoracio
condecoraciones
condena
condenes
condensacio
condensador
conderga
condergada
condergaos
condergar
condergo
condes
condesa
condestable
condicio
condiciona
condicional
condiciones
conduccio
conducen
conduci
conducida
conduciendo
conducieron
conducio
conducir
conducta
conductes
conductivida
conductor
conductores
conductos
conductu
conduz
conecta
conectase
conecten
conector
coneuta
coneutada
coneutaes
coneutaos
coneutar
conexo
conexones
coneyos
coneyu
confeccio
confederacio
confederaciones
confederaos
conference
conferencia
conferencies
conferi
confesio
confesiones
confeso
confesor
confi
confia
confiaba
confiar
confier
configura
configuracio
configuraciones
confina
confio
confirma
confirmacio
confirmada
confirmando
confirmaos
confirmar
confirmaron
confirmen
confirmo
conflict
conflictos
conflictu
conflu
confluencia
conforma
conformada
conformando
conformanza
conformar
conforme
conformen
conformida
conformo
confreri
confrontacio
confucio
confundi
confundir
confundise
confusa
conglomera
congo
congoxa
congregacio
congregaciones
congresista
congresistes
congresos
congress
congresso
congresu
congu
coni
conicet
conmebol
conmemora
conmemoracio
conmemorar
conmemorativa
conmemorativo
conmigo
conmocio
connecticut
connection
connie
connor
connotaciones
cono
conocemos
conocen
conocencia
conocencies
conocer
conoceri
conocese
conoci
conocida
conocie
conociendo
conociera
conocieron
conocio
conos
conoz
conozse
conquest
conquista
conquistada
conquistador
conquistadores
conquistaes
conquistando
conquistaos
conquistar
conquistaron
conquistes
conquisto
conrad
conrado
consagra
consagracio
consagrada
consagraos
consagrar
consagro
consciencia
consciente
conscientes
consecucio
consecuencia
consecuencies
consecuente
consecuentemente
consecutiva
consecutives
consecutivos
consecutivu
consen
consensu
consentimientu
conserva
conservador
conservadora
conservadores
conservadorismu
conservation
conservatoriu
conseyera
conseyeri
conseyeros
conseyeru
conseyos
conseyu
consi
conside
considera
consideraba
consideraben
considerable
considerablemente
considerables
considerada
consideraes
consideralo
considerancia
considerancies
considerando
consideraos
considerar
consideraron
considerase
considere
consideren
considero
consigo
consigue
consiguen
consigui
consiguida
consiguiendo
consiguiente
consiguiera
consiguieren
consiguieron
consiguilo
consiguio
consiguir
consiguiri
consiguise
consiste
consisten
consistencia
consistente
consistentes
consisti
consistio
consistir
consistorial
consistoriu
consola
consolacio
consoles
consolida
consolidar
consolido
consona
consonante
consonantes
consorciu
consorte
consortes
conspiradores
consta
constaba
constance
constancia
constante
constantes
constanti
constantine
constantino
constantinopla
constanza
constar
constelacio
constelaciones
consten
constitu
constitucio
constitucional
constitucionales
constituciones
constituye
constituyendo
constituyente
constituyentes
constituyeron
constituyi
constituyida
constituyir
constituyise
constituyo
constru
construccio
construcciones
construction
constructiva
constructor
constructores
construye
construyendo
construyera
construyeron
construyi
construyida
construyir
construyise
construyo
consu
consuelo
consuelu
consula
consulta
consultada
consultao
consultar
consultase
consultes
consultivu
consultor
consultora
consultoriu
consume
consumi
consumida
consumidor
consumidores
consumir
consumu
contabilida
contable
contact
contactos
contador
contaminacio
contaminantes
contautar
contauto
contautu
conte
contempla
contemplaba
contemplar
contemplase
contempora
contemporaneu
contemporary
contencio
contenedor
contenedores
contener
conteni
contenida
conteniendo
content
contentu
conteo
contesto
contestos
contestu
contie
contienen
contigo
continental
continentales
continente
continentes
contingente
contingentes
continua
continuacio
continues
continuida
continuo
continuos
continuu
contorna
contornes
contr
contra
contraataque
contrabandu
contradiccio
contradicciones
contraer
contrafuertes
contraicio
contraiciones
contraofensiva
contraparte
contrapartida
contraposicio
contrapuntu
contraria
contrariamente
contraries
contrario
contrarios
contrariu
contrarrelo
contrasen
contraste
contrastes
contrata
contratacio
contratada
contrataos
contratar
contrataron
contrato
contratos
contratu
contraxo
contreras
contribu
contribucio
contribuciones
contribution
contributions
contribuyendo
contribuyeron
contribuyir
contribuyo
control
controla
controlaba
controlaben
controlada
controlador
controladores
controlaes
controlando
controlaos
controlar
controlen
controles
controlo
contundente
conu
conveicio
convencer
convenci
convencimientu
convencio
convencional
convencionales
convenciones
conveniencia
conveniente
convenios
conveniu
convention
conventos
conventu
conversacio
conversaciones
conversio
conversiones
conversos
converten
converti
convertida
convertilo
convertir
convertiri
convertise
converxencia
convida
convidada
convidaos
convidar
convido
convie
convien
convierte
convincente
convirtie
convirtiendo
convirtiera
convirtieron
convirtio
convivencia
convo
convoca
convocada
convocaos
convocar
convocatoria
convoco
convulsiones
conway
conxe
conxela
conxelacio
conxetura
conxuga
conxugacio
conxuncio
conxunta
conxuntamente
conxuntos
conxuntu
cook
cooke
cool
cooper
cooperacio
cooperar
cooperativa
cooperatives
coord
coordenaes
coordina
coordinacio
coordinador
coordinadora
coordinar
cop
copa
cope
copenh
copenhague
copes
copia
copies
coppola
coproduccio
copta
coptu
coquimbo
cor
cora
coraes
coral
corales
coraxe
corazo
corazones
corbeta
cordal
cordales
cordero
corderu
cordobe
cordura
core
corea
coreana
coreanos
coreanu
coreo
coreografi
cores
cori
coria
corinto
coritu
cork
cornelia
cornelio
cornelius
cornell
corner
cornisa
cornualles
coro
corola
corona
coronacio
coronada
coronae
coronar
coronel
coroneles
corones
corono
coros
corp
corporacio
corporaciones
corporal
corporales
corporation
corporativa
corporativu
corps
corpus
corre
correa
corredor
corredores
correicio
correlacio
correo
correos
correr
correri
correspondencia
correspondencies
corresponder
corresponderi
correspondi
correspondiente
correspondientes
correspondio
corresponsal
correspue
correspuende
correspuenden
correuta
correutamente
correutu
correxidor
correxir
corri
corrida
corriendo
corriente
corrientes
corrio
corrolada
corrolades
corrupcio
corruptu
corsa
corsarios
corsariu
corsos
corsu
corta
cortada
cortaes
cortando
cortaos
cortar
corte
cortes
cortesanos
cortesi
cortexu
corteza
cortil
cortiles
cortina
cortines
cortixu
corto
coru
corun
corvera
corvus
cos
cosa
cosacos
coses
cosme
cosmo
cosmolo
cosmoloxi
cosmopolita
cosmos
cosroes
costa
costantemente
costar
costarricense
costazos
costazu
costello
costera
costeres
costeros
costeru
costes
costielles
costo
costos
costosa
costosu
costu
costume
costumes
cosworth
cota
cotes
cotidiana
cotidianu
cotu
could
council
count
country
county
coupe
course
court
courtney
cova
covaro
covarones
cover
cowboy
cowboys
cox
coyer
cp
cpu
cr
cra
cracovia
craig
cramer
crane
craniu
crash
crata
crates
craven
crawford
crazy
crc
cre
crea
creacio
creaciones
creada
creador
creadora
creadores
creaes
crean
creando
creaos
crear
creara
creari
crearon
crease
create
creativa
creative
creatives
creativida
creativu
crecedera
crecen
crecer
creci
creciendo
creciente
crecientes
crecieron
crecio
credibilida
credo
cree
creek
creen
creencia
creencies
creer
crei
creitos
creitu
crema
cremacio
creo
creole
crespo
cresta
crestes
creta
creyendo
creyentes
creyeron
creyo
crez
cri
cria
criada
crianza
criaos
criar
criatura
criatures
cricetidae
cricket
crime
crimea
criminal
criminales
crio
criolla
criollos
criollu
cripta
cris
crisis
criso
cristal
cristales
cristalina
cristia
cristian
cristiana
cristianda
cristianes
cristianismu
cristianizacio
cristiano
cristianos
cristianu
cristina
cristo
cristu
criterios
criteriu
critica
criticada
critical
criticar
criticaron
critico
critics
cro
croacia
croata
croates
crocodile
croix
croma
cromoso
cromosoma
cromosomes
cromu
cromwell
cronista
cronistes
crono
cronolo
cronoloxi
cronquist
crosby
cross
crossing
crossover
crowe
crown
cruceri
cruceros
cruceru
cruces
crucia
cruciada
cruciaes
crucial
cruciando
cruciar
cruciaron
crucien
crucifica
crucifixo
crucifixu
crucio
crucis
crudu
cruel
cruelda
cruise
crusta
cruyff
cruz
cruza
cruzada
cruzaes
cruzaos
cry
crystal
cs
csa
csi
csic
css
ct
ctar
ctase
ctea
ctees
cteos
cthulhu
ctica
ctico
cticos
cticu
ctil
ctiles
ctima
ctimes
ctiques
ctona
ctones
ctonos
ctor
ctrica
ctricu
cu
cua
cuadiernos
cuadiernu
cuadonga
cuadra
cuadrada
cuadraes
cuadrangular
cuadrante
cuadraos
cuadros
cuadru
cual
cuales
cualesquier
cualida
cualidaes
cualos
cualquier
cuan
cuando
cuantes
cuantima
cuanto
cuantos
cuarenta
cuaresma
cuaro
cuarta
cuartel
cuarteles
cuartes
cuartetu
cuarto
cuartos
cuartu
cuarzu
cuasi
cuatro
cuatrocientos
cuauhte
cuba
cuban
cubana
cubanos
cubanu
cubierta
cubiertes
cubiertos
cubiertu
cubos
cubre
cubren
cubri
cubricio
cubriendo
cubrio
cubrir
cubu
cuchiellos
cuchiellu
cue
cuenca
cuenques
cuenta
cuentes
cuentos
cuentu
cuerda
cuerdes
cuernos
cuernu
cuerpos
cuerpu
cuerre
cuerren
cueru
cuervo
cuervos
cuervu
cuesta
cuestio
cuestiona
cuestionada
cuestiones
cuestiono
cueta
cueto
cuetos
cuetu
cueva
cuevas
cueves
cuidao
cuideiru
cuidos
cuidu
cula
culas
cules
culiebra
culiebres
culminacio
culminante
culo
culos
culpa
culpable
culpables
culta
culti
cultiva
cultivada
cultivaes
cultivar
cultivares
cultivo
cultivos
cultivu
cultos
cultu
cultura
cultural
culturales
culturalmente
culture
cultures
culu
culum
cum
cumal
cume
cumes
cumpla
cumple
cumplean
cumplen
cumpli
cumpliendo
cumpliera
cumplieron
cumplimientu
cumplio
cumplir
cumplise
cun
cundinamarca
cuneiforme
cunningham
cunta
cuntaba
cuntaben
cuntando
cuntar
cuntari
cuntaron
cunten
cunto
cuota
cuotes
cup
cupe
cura
curac
curadora
curadores
curar
curdista
curdos
curdu
cure
cures
curia
curiar
curie
curiosa
curiosamente
curioses
curioso
curiosos
curiosu
current
curri
curry
cursar
curse
cursiva
curso
cursos
cursu
curtia
curties
curtios
curtis
curtiu
curtiumetraxe
curtiumetraxes
curva
curves
curvu
cusco
cuspia
custodia
cut
cuta
cute
cuti
cutio
cutir
cutiu
cuyar
cuzco
cv
cw
cycling
cygni
cynthia
cyril
cyrus
d
da
daba
daben
dacia
dacuando
dada
daddy
dadu
daes
dafechu
dai
daily
daimyo
daisy
dakar
dakota
dal
dala
dale
dalgu
dalguna
dalgunes
dalgunos
dalgunu
dali
dallas
dalmacia
dalton
dam
dama
damascu
dambes
dambos
dame
dames
damia
damon
dan
dana
dance
dances
dancing
dando
dane
danesa
daneses
danger
dangerous
dani
daniel
daniela
danielle
daniels
danny
dano
danos
dans
danse
dante
danu
danubiu
danza
dao
daos
daphne
daque
daquella
daquie
dar
daredevil
darfur
dari
dark
darkgrey
darkness
darling
darmstadt
daroca
darre
dart
darth
darwin
das
dase
dash
data
database
databases
datacio
datada
datar
date
dateformat
daten
dates
dativu
dato
datos
datu
dau
daughter
dauphine
dave
davezu
david
davidse
davidson
davies
davis
davy
dawkins
dawn
dawson
day
days
daytona
db
dc
dd
de
dea
dead
deadpool
deagostini
deal
dean
dear
death
debaxo
debbie
debe
deben
deber
deberes
deberi
debese
debi
debida
debidamente
debilida
debilidaes
debilita
debilitamientu
debilitar
debilito
debio
deborah
debra
debu
debuta
debutando
debutante
debutar
debuto
dec
deca
decadencia
decanu
decayo
december
decena
decenes
deceniu
decepcio
decepcionante
decesu
decide
deciden
decidi
decidida
decidiera
decidieron
decidio
decidir
decimal
decimotercer
decisio
decisiones
decisiva
decisivu
decla
declara
declaraba
declaracio
declaraciones
declarada
declaraes
declarando
declaraos
declarar
declarara
declararon
declaren
declaro
declinacio
decoccio
decora
decoracio
decoraciones
decorada
decoraes
decoraos
decorar
decoratives
decorativos
decorativu
decreta
decreto
decretos
decretu
dedi
dedica
dedicacio
dedicada
dedicaes
dedicaos
dedicar
dedicaron
dedicase
dedico
dediquen
deducir
deduzse
dee
deep
dees
def
default
defectos
defectu
defende
defenden
defender
defendese
defendi
defendida
defendiendo
defendieron
defendio
defensa
defense
defenses
defensiva
defensives
defensivos
defensivu
defensor
defensora
defensores
defi
deficiente
define
definen
defini
definicio
definiciones
definida
definio
definir
definise
definitiva
definitivamente
definitivu
deforestacio
deformacio
degas
degli
degolla
degradacio
degradaos
dehiscencia
dei
deida
deidaes
del
delano
delantera
delanteres
delanteros
delanteru
delantre
delantrera
delaware
delda
deldes
delega
delegacio
delegaciones
delegada
delegaos
delfi
delfines
delga
delgada
delgado
delgaes
delgaos
delhi
delias
deliberadamente
delica
delicada
delimitacio
delimitado
delincuencia
delincuentes
delitos
delitu
dell
della
delle
delles
dellos
dels
delta
deluxe
dem
dema
demanda
demandes
demando
demarcacio
demasia
demasiada
demasiao
demetrio
demientres
demille
demo
democra
democracia
democracies
democracy
democratic
demogra
demografi
demonios
demoniu
demostra
demostracio
demostraciones
demostrada
demostrando
demostrar
demostraron
demostrativos
demostro
dempsey
dempue
demuestra
demuestren
den
dena
dende
dene
deng
dengue
denis
denise
dennis
deno
denoma
denomada
denomina
denominacio
denominaciones
denominada
denominador
denominaes
denominaos
denominar
denominase
denominen
denomino
denota
densamente
dense
densida
dentaes
dental
denuncia
denunciando
denunciar
denunciaron
denuncies
denuncio
denver
deo
deos
departamental
departamentos
departamentu
department
depende
dependen
dependencia
dependencies
depender
dependi
dependiendo
dependiente
dependientes
depo
deponer
deportacio
deportaos
deporte
deportes
deportista
deportistes
deportiva
deportives
deportivo
deportivos
deportivu
deposicio
deposita
depositaos
depositar
depp
depredacio
depredador
depredadores
depresio
depresiones
depue
depuestu
depuracio
der
derbi
derby
derecha
dereches
derechos
derechu
derek
deres
deriva
derivacio
derivada
derivaes
derivaos
derivar
deriven
derivo
derrame
derroca
derrocamientu
derrocar
derroco
derrota
derrotaos
derrotes
derrumbar
derrumbe
des
desafi
desafiar
desafortunadamente
desagradable
desagu
desagua
desaguada
desaguar
desaguo
desalcuerdos
desalcuerdu
desamarro
desamortizacio
desaniciar
desapaeci
desapaicio
desaparente
desapegar
desapercibi
desaposia
desarme
desarrolladores
desarrollos
desarrollu
desastre
desastres
desastrosa
desavenencies
desaxeradamente
descalificacio
descansu
descarga
descargar
descargues
descartes
descendencia
descendente
descendiente
descendientes
descensos
descensu
descentralizacio
descifrar
descolonizacio
descomanadamente
descomposicio
desconocer
desconoci
desconocida
desconoz
desconozse
descontentos
descontentu
descri
describe
describen
describi
describie
describiendo
describieron
describio
describir
descripcio
descripciones
description
descriptions
descriptiva
descrita
descrites
descritos
descritu
descubierta
descubiertos
descubiertu
descubridor
descubrimientos
descubrimientu
descuentu
desde
dese
desea
desembarcar
desembarcaron
desembarco
desembarcu
desempate
desempen
desemplegu
desencadenar
desencadeno
desendolca
desendolcu
desenllaz
desenvolver
desenvolvese
desenvolvi
desenvolvie
desenvolviendo
desenvolviera
desenvolvieron
desenvolvimientu
desenvolvio
desenvue
desenvuelta
desenvueltes
desenvueltos
desenvueltu
desenvuelve
desenvuelven
desenvuelvo
deseos
desequilibriu
desercio
desert
desespera
desesperacio
desesperada
deseya
deseyaba
deseyaben
deseyada
deseyar
deseyen
desfacer
desfile
desfiles
desgracia
desgraciadamente
desiertos
desiertu
design
designa
designacio
designada
designaos
designar
designo
desigual
desigualda
desigualdaes
desiguales
desintegracio
desire
desmond
desnivel
desnuda
desnudos
desnudu
desobediencia
desorde
desordes
despachu
despegue
desperate
despidi
despidida
despidio
despidir
despidu
despinta
despintar
desplazamientos
desplazamientu
despoblacio
despoblada
despoblado
despreciatible
despreciu
desque
desta
destaca
destacaba
destacaben
destacable
destacables
destacada
destacaes
destacamentu
destacando
destacaos
destacar
destacaron
destaco
destaquen
desterciu
desterra
desti
destierru
destilacio
destina
destinada
destinaes
destinaos
destinar
destino
destinos
destiny
destitucio
destituyi
destituyir
destru
destruccio
destructor
destructores
destruyendo
destruyeron
destruyi
destruyida
destruyir
destruyo
desusu
desventaxa
desventaxes
det
details
detalla
detallada
detallaes
detallaos
detalle
detalles
deteccio
detecta
detectar
detective
detectives
detecto
detencio
detenciones
detener
detenese
deteni
detenida
deteriora
deterioru
determina
determinacio
determinada
determinaes
determinante
determinantes
determinaos
determinar
determinaron
determinase
determinen
determino
detien
detra
detractores
detroit
detu
detuvieron
detuvo
deu
deutsch
deutsche
deutschen
deutschland
deux
deva
devaluacio
devane
devasa
devasar
development
devesa
devil
devo
devocio
devolucio
devolver
devolvio
devon
devotos
devotu
devuelve
dexa
dexaba
dexaben
dexada
dexaes
dexalo
dexando
dexaos
dexar
dexara
dexaren
dexari
dexaron
dexase
dexe
dexen
dexo
dexter
dez
df
dhabi
dharma
di
dia
diabetes
diacri
diafragma
diagno
diagnostica
diagnosticar
diagonal
diagrama
diale
dialeutal
dialeutales
dialeutos
dialeutu
diamante
diamantes
diamond
dian
diana
diane
diaria
diariamente
diaries
diario
diarios
diariu
diary
dias
diaz
diba
diben
dibuxa
dibuxante
dibuxantes
dibuxar
dibuxo
dibuxos
dibuxu
dic
dica
dicamente
dicaprio
dicas
diccionario
diccionarios
diccionariu
dicen
dices
dicha
diches
dicho
dichos
dichu
dici
dicie
diciendo
dicir
dicis
dicise
dick
dickens
dickinson
dico
dicos
dicotyledoneae
dicta
dictador
dictadura
dictadures
dictame
dictar
dictatorial
dictionary
dictionnaire
dicto
dicu
did
dida
dides
didier
die
diecinueve
dieciocho
diecise
dieciseisavos
diecisiete
diego
diendo
diente
dientes
dientro
diera
dieren
dieron
dies
diesel
dieta
diete
dietes
dietrich
diez
diezmos
diferencia
diferenciacio
diferencial
diferenciales
diferencies
diferentes
different
difi
dificulta
dificultaes
difier
difieren
difuntos
difuntu
diga
digimon
digital
digna
dignida
dignu
digo
digos
digu
dijon
dillon
dilma
diluviu
dimensio
dimensiones
diminutivu
dimisio
dimitio
dimitir
dimitri
dimorfismu
din
dina
dinamarca
dinamismu
dinamo
dinasti
dineru
dinger
dino
dinosaurios
dinosauriu
dintel
dio
diocesanu
diocleciano
dioclecianu
diodoro
diodu
dion
dionisio
dioniso
dios
diosa
diosco
diose
dioses
diospyros
diploma
diplomacia
diplomes
dipolo
diptongos
diptongu
diputa
diputacio
diputada
diputaes
diputaos
dique
diques
dir
direct
directiva
directivu
direicio
direiciones
direuta
direutamente
direutes
direutiva
direutivos
direuto
direutor
direutora
direutores
direutoriu
direutos
direutrices
direutu
diri
dirigencia
dirixe
dirixen
dirixendo
dirixente
dirixentes
dirixeron
dirixi
dirixida
dirixie
dirixio
dirixir
dirixise
dirixo
dirty
disc
discapacida
disci
disciplina
disciplines
disco
discogra
discografi
discos
discoteca
discovery
discrepancies
discreta
discretos
discretu
discriminacio
discu
discursos
discursu
discutinios
discutiniu
dise
disease
disen
disenteri
disfraz
disgustu
disidentes
disney
disneyland
disolucio
disorder
dispara
disparar
disparo
disparos
disparu
dispersio
display
dispo
disponen
disponer
disponi
disponibilidad
disponible
disponibles
disposicio
disposiciones
dispositivos
dispositivu
dispuesta
dispuestes
dispuesto
dispuestos
dispuestu
dispunxo
disputa
disputes
distancia
distanciamientu
distancies
distante
distantes
distincio
distinciones
distingui
distinguida
distinta
distintes
distintiva
distintives
distintivos
distintivu
distintos
distintu
distorsio
distribu
distribucio
distribuciones
distribuidor
distribuidores
distribution
distribuyi
distribuyida
distribuyir
district
distritos
distritu
disturbios
disueltu
dita
dites
ditions
ditos
ditu
diure
diva
diversa
diverses
diversida
diversificacio
diversio
diversity
diversos
diversu
diverxencia
dives
divi
divina
divines
divinida
divinidaes
divisa
divises
divisio
division
divisional
divisiones
divisor
divisoria
divorcia
divorciar
divorcio
divorciu
divulgacio
dixe
dixebra
dixebrada
dixebraes
dixebrando
dixebraos
dixebrar
dixebrase
dixebren
dixebro
dixera
dixeron
dixestio
dixestivos
dixestivu
dixital
dixitales
dixo
dixon
diz
dizse
dj
djokovic
dm
dmitri
dna
dnie
dns
do
dobla
doblar
doblaxe
doble
dobles
doblete
doblo
doc
doce
docena
docencia
docenes
docente
docentes
doctor
doctora
doctoral
doctores
doctrina
doctrines
documenta
documentacio
documentada
documentadas
documentados
documental
documentales
documento
documentos
documents
documentu
dodge
does
doflamingo
dog
dogg
dogma
dogs
doi
dolce
doliosa
dollar
dolly
dolmen
dolor
dolores
dolos
dolphins
dolu
dom
domain
dome
domenico
domi
domicianu
domiciliariu
dominacio
dominante
dominantes
domingo
domingos
domingu
dominica
dominical
dominicana
dominicanu
dominicos
dominicu
dominios
dominique
dominiu
domino
domo
don
dona
donacio
donaciones
donald
donar
donatello
doncella
done
dones
donetsk
dong
donkey
donna
donne
donnell
dono
donovan
donsker
doo
doom
door
dopamina
dopaxe
dope
dor
dora
dorada
dorado
doraes
dorao
doraos
doris
dormi
dormir
dorothy
dorsal
dorsales
dorset
dortmund
dos
dosal
doscientos
dose
dosel
dosis
dot
dota
dotacio
dotada
dotaos
dotar
dote
dotes
doto
douard
double
doubleday
doubs
doug
douglas
douru
dover
down
downey
download
downloadable
downloaded
doyle
dq
dr
dra
draco
draconis
draft
drag
drago
dragon
dragones
drake
drama
dramaturgos
dramaturgu
drames
dre
dream
dreams
drechu
drena
drenaxe
dresde
drew
dreyfus
dricu
drive
driver
dro
droga
drogues
dromos
dromu
drop
drug
drupa
ds
dt
du
dual
dualida
duarte
duba
dubai
dubli
duca
ducal
ducaos
duce
duces
duchamp
duck
dudley
dudosa
due
duelos
duelu
duen
duero
dueto
duff
duhalde
duke
dula
dulce
dulces
dulda
duldar
duldes
dulos
dulu
duma
dumas
dumont
duna
duncan
dundee
dunes
dunn
duque
duques
duquesa
dura
duracio
duradera
duraderu
duramente
durango
durant
durante
durar
durari
duraron
duren
dures
durez
durham
during
duro
duros
duru
dutch
duty
duvall
dux
dvd
dwan
dwight
dx
dy
dyck
dyke
dylan
dz
e
ea
each
eagle
eagles
earl
early
earth
east
eastern
eastwood
easy
eau
eb
ebert
ebird
ebro
ec
eca
ecc
echa
echar
echeverri
echo
ecle
eclesia
ecli
eclipsante
eclosio
eco
ecolo
ecology
ecoloxi
ecoloxista
ecoloxistes
econo
economi
economic
economics
economista
economistes
economy
ecos
ecosistema
ecosistemes
ecu
ecuacio
ecuaciones
ecuador
ecuatorial
ecuatoriana
ecuatorianu
ecuestre
ecume
ed
eda
edaes
eddie
eddy
ede
edema
eden
edgar
edge
edi
edicio
ediciones
edicions
edictu
edida
edie
ediendo
edifica
edificacio
edificaciones
edificada
edificar
edificios
edificiu
edifico
edimburgu
edinburgh
edio
edir
edison
edit
edita
editada
editaos
editar
edited
edith
edition
editions
edito
editor
editora
editores
editorial
editoriales
editors
edmond
edmonton
edmund
edmundo
edo
eds
edu
eduard
eduardo
eduardu
educa
educacio
educacional
educada
educar
education
educativa
educatives
educativos
educativu
edward
edwards
edwin
ee
eexx
efe
efectiva
efectivida
efectivo
efectivos
efectivu
efectu
efectua
efectuada
efectuar
efectuo
efeme
efeutiva
efeutivamente
efeutivida
efeutivos
efeutivu
efeuto
efeutos
efeutu
efeutuar
effect
effects
efi
eficaces
eficacia
eficaz
eficiencia
eficiente
eficientes
efixe
ego
egoi
egypt
eh
ehi
ei
eibar
eight
ein
eindhoven
eine
einstein
eisenhower
eivissa
ej
eje
ek
el
ela
elaine
elasticida
elba
elche
ele
eleanor
elecciones
electa
electos
electra
electric
electro
electrodome
electromagne
electrones
electronic
electrosta
electu
elefante
elefantes
elegancia
elegans
elegante
eleicio
eleiciones
elemental
elementales
elementos
elementu
elena
eletricida
eleutor
eleutora
eleutoral
eleutorales
eleutores
eleva
elevacio
elevaciones
elevada
elevaes
elevaos
elfos
elga
elgar
elgues
eli
elia
elias
eliminacio
eliminatoria
eliminatories
eliot
elisa
elisabeth
elite
elixi
eliza
elizabeth
ell
ella
ellabo
ellabora
ellaboracio
ellaborada
ellaboraes
ellaboraos
ellaborar
ellaboren
ellaboro
elle
ellen
elles
elli
elliot
elliott
ellis
ello
ellos
elmundo
elo
elos
eloy
elpais
els
elsa
else
elseif
elton
elu
elvira
elvis
elx
em
emancipacio
emanuel
embaranzos
embaranzu
embarazada
embarazaes
embarca
embarcacio
embarcaciones
embarcar
embarco
embargu
embarque
embaxada
embaxador
embaxadora
embaxadores
embaxaes
embaxo
emberizidae
emblema
emblemes
emboscada
embraer
embrio
embriones
embrivi
embrivir
emburria
emburriar
emburrie
emburrio
embuti
eme
emerson
emerxencia
emerxencies
emerxente
emerxentes
emi
emigracio
emigrantes
emigraos
emigrar
emigraron
emigro
emil
emile
emilia
emiliano
emilio
emily
eminem
eminente
eminentemente
emir
emirates
emiratos
emiratu
emisarios
emisio
emisiones
emisor
emisora
emisores
emite
emiten
emiti
emitida
emitiendo
emitieron
emitio
emitir
emitise
emma
emmanuel
emmy
emocio
emocional
emocionales
emocionante
emociones
empar
emparenta
emparentada
emparentaes
emparentaos
empata
empatando
empataos
empatar
empataron
empate
empates
empato
empeci
empecipia
empecipiada
empecipiando
empecipiar
empecipiara
empecipiari
empecipiaron
empecipiase
empecipien
empecipio
empen
emperador
emperadores
emperatriz
emperor
empeza
empezaba
empezaben
empezada
empezando
empezar
empezara
empezaren
empezari
empezaron
empezo
empi
empiece
empiecen
empieza
empiezos
empiezu
empioro
empire
empirismu
emplazada
emplazado
emple
emplega
emplegaba
emplegaben
emplegada
emplegador
emplegaes
emplegando
emplegaos
emplegar
emplegaron
emplegase
emplego
emplegos
emplegu
empleguen
empobina
empobinada
empobinaes
empobinaos
empobinar
empondera
empondero
emponer
empresa
empresaria
empresarial
empresariales
empresaries
empresarios
empresariu
empreses
empresta
emprestaos
emprestar
empresto
empty
empuesta
empuestes
empuestos
empuestu
empun
en
ena
enagora
enagu
enagua
enanche
enantes
enca
encabeza
encabezada
encabezaos
encabezar
encabezo
encalada
encalorar
encamenta
encamentada
encamentaos
encamentar
encamento
encamie
encamienta
encamientos
encamientu
encanta
encantu
encarar
encarcela
encarcelamientu
encarcelaos
encarga
encargada
encargaes
encargaos
encargar
encargase
encargo
encargos
encargu
encarna
encarnacio
encarnar
encarno
encaxar
ence
encender
encendi
enceta
encetar
enchi
enchida
enci
enciclope
enciclopedia
encierre
encierres
encina
encines
enclava
enclave
enclaves
encli
enclinos
encomalo
encomienda
encontar
encruciada
encruz
encuadra
encuadrada
encuesta
encuestes
encyclopaedia
encyclopedia
encyclopædia
end
ende
endo
ene
eneas
enel
enemiga
enemigos
enemigu
enemigues
enemista
enemy
energy
enerxe
enerxi
enfa
enferma
enfermeda
enfermedaes
enfermera
enfermeri
enfermos
enfermu
enfoca
enfocada
enfocar
enfoque
enfoques
enforma
enfotu
enfre
enfrenta
enfrentaba
enfrentamientos
enfrentamientu
enfrentando
enfrentar
enfrentari
enfrentaron
enfrentase
enfrente
enfrenten
enfrento
enfriamientu
enfusa
enfusar
enfuso
engan
engarra
engarradiella
engarradielles
engarrando
engarrar
engarro
engels
engine
engineering
engl
england
english
engloba
engranes
enigma
enllaces
enllanada
enllantar
enllanto
enllarga
enllargada
enllargar
enllargo
enllaz
enllaza
enllazar
enllena
enllenar
enllordia
enmarca
enmarcada
enmienda
enmiendes
ennis
enorme
enormes
enough
enraigono
enri
enriba
enric
enrico
enrique
enriqueta
ensalada
ensamblador
ensamblaxe
ensame
ensames
ensayista
ensayo
ensayos
ensayu
ense
ensen
ensenada
enserta
ensertar
ensin
ensuga
enta
entablo
entainar
entama
entamaba
entamaben
entamada
entamaes
entamando
entamaos
entamar
entamara
entamaron
entamase
entamen
entamo
entamos
entamu
entartallar
ente
enteguerres
entemecer
entemeci
entemecida
entemeciendo
entemedia
entemedies
entemedios
entemediu
entemez
entender
entendese
entendi
entendida
entendiendo
entendimientu
entendio
entente
entera
enterar
enterase
enteres
entero
enteros
enterprise
enterramientos
enterramientu
entertainment
enteru
entes
entevistes
entida
entidaes
entie
entiende
entienden
entierru
ento
entomo
entomoloxi
entonacio
entorno
entra
entraba
entraben
entrada
entraes
entrambos
entrando
entrar
entrara
entrari
entraron
entre
entrega
entregues
entren
entrena
entrenador
entrenadora
entrenadores
entrenamientos
entrenamientu
entrenando
entrenaos
entrenar
entreno
entretenimientu
entrevista
entrevistar
entrevistes
entro
entropi
entruga
entrugues
entry
entueyos
entusiasmu
entusiasta
entusiastes
enumeracio
enuncia
enunciaos
envalo
envalora
envalorada
envalorar
envaloren
envaloro
enve
envelena
envelenamientu
envernada
envi
envidia
environment
environmental
envoltura
envolubra
envolubrada
envueltu
enxama
enz
enza
enzanca
enzima
enzimes
enzo
eo
eoc
eos
ep
epaminondas
eparqui
epi
epic
epicentru
epidemia
epidemies
epidermis
epilepsia
epiru
episcopal
episode
episodios
episodiu
epiteliu
epo
eponimia
epopeya
epsilon
eques
equi
equidad
equilibriu
equipacio
equipamientos
equipamientu
equipaxe
equipos
equipu
equitacio
equival
equivalencia
equivalente
equivalentes
equivali
equivocadamente
equo
er
era
erar
erasmu
erc
erecta
erecto
erectos
eren
eres
eri
eric
erica
ericaceae
erich
erik
erin
eritrea
ermita
ermitan
ermites
ermu
ernest
ernesto
ernst
ero
eros
erosio
erra
erradicacio
erradicar
erro
error
errores
erru
ers
erta
ertes
ertos
ertu
eru
eruditos
eruditu
erupcio
erupciones
erwin
es
esa
esaltacio
esamina
esaminar
esanicia
esaniciada
esaniciaes
esaniciando
esaniciaos
esaniciar
esaniciaron
esanicio
esautamente
esbozu
esca
escaecer
escaeci
escala
escalada
escalador
escaladores
escalar
escalaron
escalera
escaleres
escales
escames
escampada
escamplaes
escan
escandinava
escandinavia
escandinavos
escapa
escapada
escapar
escaparon
escape
escapen
escapo
escarabayos
escarabayu
escaramuzas
escarecen
escarecer
escareci
escarez
escarlata
escasa
escasamente
escases
escasez
escasos
escasta
escastar
escasu
escava
escavacio
escavaciones
escavaes
escayencia
escayos
escayu
esce
esceicio
esceiciones
escelente
escelentes
escelenti
escena
escenarios
escenariu
escenes
escenografi
escentricida
escepcional
escepcionales
escepcionalmente
escepticismu
escesiva
escesivu
escesos
escesu
escipio
escita
escitacio
esclaria
esclariar
esclario
esclava
esclavitu
esclavos
esclavu
esclerosis
esclu
esclusio
esclusiva
esclusives
esclusivos
esclusivu
escluye
escluyendo
escluyi
escluyir
escobar
escoce
escocesa
escoceses
escocia
escola
escolar
escolares
escolta
escombros
escomiu
escomunio
esconder
escondese
escondi
escontra
escorial
escorrer
escorri
escorrio
escosa
escosamientu
escoyendo
escoyer
escoyera
escoyeron
escoyese
escoyeta
escoyi
escoyida
escoyo
escri
escriba
escribe
escriben
escribi
escribiendo
escribiera
escribieron
escribio
escribir
escribiri
escribise
escrita
escrites
escritor
escritora
escritores
escritoriu
escritos
escritu
escritura
escritures
escrutiniu
escu
escuadra
escuadro
escuadrones
escucha
escuchar
escuchase
escucho
escuderi
escudo
escudos
escudu
escue
escuela
escueles
escuerre
escueye
escueyen
esculpi
esculto
escultor
escultores
escultura
escultures
escura
escures
escurida
escuro
escuros
escurre
escurren
escurri
escurrimientu
escurrio
escursiones
escuru
escusa
ese
esencia
esencial
esenciales
esencialmente
eses
esfe
esfera
esferes
esfinxe
esforciar
esfregadura
esfruta
esfrutaba
esfrutar
esfrute
esfruten
esfruto
esfuercios
esfuerciu
esgan
esgrima
esgueva
esguil
esguilada
esguilador
esguiladores
esguilar
esi
esista
esistan
esiste
esisten
esistencia
esistente
esistentes
esisti
esistiendo
esistiera
esistieren
esistieron
esistio
esistir
esitosa
esitoses
esitosos
esitosu
esixe
esixen
esixencia
esixencies
esixendo
esixente
esixeron
esixi
esixir
esixo
eslalon
eslava
eslaves
eslavos
eslavu
esllei
eslleida
eslleio
eslleir
eslogan
eslovaca
eslovacu
eslovaquia
eslovenia
eslovenos
eslovenu
esmalte
esmantelamientu
esmeralda
esmirna
esmoleci
esmolicio
esmoliciones
eso
esos
esp
espa
espacial
espaciales
espacios
espaciu
espada
espadan
espaes
espan
espana
espandi
espandie
espandio
espandir
espandise
espansio
espardi
espardimientu
esparta
espartanos
espartero
espasa
espe
especi
especial
especiales
especialida
especialidaes
especialista
especialistes
especializa
especializacio
especializada
especializaes
especializaos
especializar
especializo
especialmente
especie
especies
especifica
especificacio
especificaciones
especificar
especta
espectacular
espectaculares
espectador
espectadores
espectral
espectro
espectros
espectrosco
espectru
especulacio
especulaciones
especulo
espedicio
espediciones
espediente
espejo
espera
esperaba
esperaben
esperada
esperances
esperando
esperanto
esperantu
esperanza
esperar
esperen
esperiencia
esperiencies
esperimenta
esperimentacio
esperimental
esperimentales
esperimentando
esperimentaos
esperimentar
esperimentaron
esperimenten
esperimento
esperimentos
esperimentu
espero
esperta
espertar
esperteyos
esperteyu
esperto
espertos
espertu
espesura
espeyos
espeyu
espi
espiga
espigues
espinal
espinosa
espinosu
espionaxe
espiral
espirales
espiritual
espirituales
espiritualida
esplega
esplegar
esplego
esplegue
espli
esplica
esplicaba
esplicacio
esplicaciones
esplicando
esplicar
esplicari
esplicase
esplico
espliquen
esplora
esploracio
esploraciones
esplorador
esploradores
esplorar
esploro
esplosio
esplosiones
esplosiva
esplosivos
esplosivu
esplota
esplotacio
esplotaciones
esplotar
esploto
espluma
espn
espo
espolleto
esponencial
esponente
esponentes
esponer
espora
espores
esporta
esportacio
esportaciones
esportadores
esportar
esposa
esposes
esposicio
esposiciones
espre
esprende
esprender
espresa
espresada
espresamente
espresando
espresar
espresaron
espresase
espresen
espresio
espresiones
espresionismu
espreso
espresu
espropiacio
espubliza
espublizada
espublizar
espublizo
espuesta
espuestes
espuestos
espuestu
espulsa
espulsada
espulsaos
espulsar
espulsaron
espulsio
espulso
espunxo
esquema
esquemes
esquerra
esqui
esquierda
esquierdu
esquina
esquines
esquizofrenia
essays
essebsi
essex
est
esta
estabilida
estabilizacio
estabilizar
estable
establecen
establecer
establecese
estableci
establecida
establecie
estableciendo
estableciera
establecieron
establecimientos
establecimientu
establecio
estables
establez
establezse
estacio
estacional
estacionales
estacionamiento
estaciones
estadi
estadios
estadista
estadiu
estado
estadual
estambres
estamentos
estames
estan
estancamientu
estancia
estancies
estandarizacio
estandarte
estanislao
estanque
estaos
estatal
estatales
estatua
estatues
estatura
estatus
estatutos
estatutu
estaui
estauxunidense
estauxunidenses
estaya
estayes
estaza
este
esteban
estefani
estela
estelante
estelar
estelares
estella
estelleros
estelleru
estenar
estender
estendese
estendi
estendida
estendie
estendiendo
estendieron
estendio
estensa
estensamente
estenses
estensio
estensiones
estensiva
estensos
estensu
estepa
estepes
estereotipos
esterior
esteriores
esterlines
esterminiu
esterna
esternes
esternos
esternu
estero
esteru
estes
esther
esti
estie
estiende
estienden
estigma
estigmes
estil
estili
estilos
estilu
estima
estimacio
estimaciones
estimulacio
estimulante
estincio
estingui
estinguida
estiria
esto
estocolmu
estomagaes
estonia
estoniu
estos
estrabo
estraccio
estractos
estractu
estrada
estradicio
estragal
estragos
estraicio
estran
estranxera
estranxeres
estranxeros
estranxeru
estraordinaria
estraordinaries
estraordinarios
estraordinariu
estrasburgu
estrasolar
estrasolares
estrate
estraterrestre
estraterrestres
estratexa
estratexes
estratificacio
estratos
estratu
estravagante
estrayer
estrayi
estrayida
estre
estrecha
estrechamente
estreches
estrechos
estrechu
estrella
estrellada
estrellalgu
estrellar
estrelles
estrello
estrema
estremaba
estremada
estremadura
estremaes
estremalo
estremando
estremaos
estremar
estremaron
estremase
estreme
estremen
estremeres
estremeros
estremes
estremida
estremidaes
estremistes
estremo
estremos
estremu
estrena
estrenada
estrenar
estreno
estrenu
estri
estria
estribaciones
estricta
estrictes
estrictu
estro
estrofa
estrofes
estropia
estropiada
estropiaes
estropiaos
estropiar
estropio
estroza
estructura
estructurada
estructurado
estructural
estructurales
estructures
estruyi
estu
estuardo
estuariu
estudia
estudiaba
estudiada
estudiaes
estudiando
estudiante
estudiantes
estudiantil
estudiantiles
estudiaos
estudiar
estudiaron
estudien
estudio
estudios
estudiosos
estudiosu
estudiu
esu
esvalixa
esvalixada
esvalixaes
esvalixaos
esvalixar
esvia
esviacio
esviadura
esviar
et
eta
etanol
etapa
etapes
etc
etce
ete
eterna
eternida
eternu
etes
ethan
ethel
ethnologue
eti
etimolo
etimoloxi
etiopi
etiqueta
etiquetes
etnia
etnies
etno
etnogra
etnografi
etruscos
etruscu
etu
eu
eua
eublemma
eucalyptus
eucari
eucariotes
eucaristi
euclides
euge
eugene
eugenia
eugenio
euler
euphaedra
euphaedrana
euphorbia
euphorbiaceae
eur
eurasia
eure
euri
euroasia
eurocopa
europa
europaea
europe
europea
european
europees
europeo
europeos
euros
eurovisio
euru
eusebio
euskadi
euskal
euskera
eusko
eusquera
ev
eva
evacuacio
evalu
evaluacio
evaluar
evan
evangelical
evangelion
evans
evanxe
evanxelios
evanxelista
evanxelistes
evanxeliu
evanxelizacio
evaporacio
evaristo
eve
evelyn
even
evening
event
eventos
eventu
eventual
eventualmente
ever
everest
everett
everton
every
everybody
everything
evic
evidence
evidencia
evidencies
evidente
evidentemente
evidentes
evil
evita
evitando
evitar
evitase
eviten
evito
evo
evolucio
evoluciona
evolucionando
evolucionar
evolucionaron
evoluciono
evolution
evolutionary
evolutiva
evolutivu
evos
evu
ex
exa
exacta
exactes
exactitu
exactu
exame
example
exce
excelencia
exchange
exclusividad
exe
execucio
execuciones
executa
executada
executaes
executaos
executar
executiva
executivo
executivos
executivu
executo
exemplar
exemplares
exemplos
exemplu
exenta
exentos
exentu
exercen
exercer
exerci
exercicios
exerciciu
exercida
exerciendo
exercieron
exercio
exerz
exes
exhibe
exhiben
exhibi
exhibicio
exhibiciones
exhibir
exhibition
exilia
exiliaos
exiliase
exilio
exiliu
exipcia
exipcies
exipcios
exipciu
exiptu
exitosamente
exo
exp
experience
expli
explorer
expo
express
extended
extra
extraordinariamente
extras
eyck
eye
eyed
eyes
eyos
eyu
ez
ezequiel
ezker
ezra
f
fa
faa
fabaceae
fabacees
faber
fabia
fabio
fabrica
fabricacio
fabricada
fabricaes
fabricante
fabricantes
fabricaos
fabricar
fabricius
fabrico
faccio
facciones
face
facebook
facer
facese
faceta
fachada
fachaes
faci
facial
faciales
facie
facienda
faciendes
faciendo
facilida
facilidaes
facilita
facilitando
facilitar
faciliten
facilito
facsi
facto
factor
factores
factori
factory
facts
factsheet
factura
faculta
facultaes
facundo
fada
fades
fadri
fadrique
faela
faelo
faen
faer
faes
faese
fagos
fagu
fai
faicio
faiciones
faiga
faigan
fair
fairy
faise
faith
fala
falaba
falaben
falada
falaes
falamos
falando
falante
falantes
falanxe
falaos
falar
falaron
falase
falcao
falco
falcon
falda
faldes
falen
fales
fall
falla
fallar
fallecimientu
fallen
falles
falli
fallida
fallo
fallos
falls
fallu
falo
falsa
false
falses
falsos
falsu
falta
faltaba
faltando
faltar
falten
faltes
falu
fam
fama
fame
fami
familia
familiar
familiares
families
family
famosa
famoses
famosos
famosu
famous
fan
fana
fanero
fanes
fang
fangio
fanny
fano
fans
fanta
fantasi
fantastic
fantasy
fao
far
farao
faraones
farc
fari
farin
farina
farm
farmace
farmacia
farmacolo
farmer
faro
faros
farrell
faru
fasc
fasci
fascismu
fascista
fascistes
fase
fases
fashion
fast
fasta
fastera
fasteres
fasu
fat
fata
fatal
fataos
fate
father
fatiga
fatimi
fauna
faure
faustino
fausto
favor
favorable
favorables
favorecen
favorecer
favoreci
favorecida
favoreciendo
favorecieron
favorecio
favores
favorez
favorita
favorites
favoritos
favoritu
faxa
fay
fayadices
fayadiza
fayadizos
fayadizu
fayard
fazan
fbi
fc
fda
fe
fear
feat
features
feb
febreru
february
fecha
fechada
feches
fecho
fechos
fechu
fecundacio
federa
federacio
federaciones
federal
federales
federalismu
federaos
federation
federativa
federer
federico
federicu
feel
feet
felder
felechos
felguera
felices
felicida
felicidad
felicidaes
felipe
felix
feliz
fema
female
femeni
femenina
femenines
femenino
femeninos
femes
feminismu
feminista
feministes
femme
feng
fenicia
fenicios
feniciu
feno
fenomenoloxi
fer
fera
feras
ferdinand
feres
ferguson
feri
feria
ferida
feries
fermentadura
fermi
ferna
fernald
fernanda
fernandes
fernando
fernandu
feroe
feros
feroz
ferradura
ferramienta
ferramientes
ferrara
ferrari
ferre
ferreira
ferrer
ferrera
ferreri
ferreros
ferres
ferrial
ferriales
ferro
ferrocarril
ferrocarriles
ferrol
ferroviaria
ferroviaries
ferroviarios
ferroviariu
ferry
fertilida
fertilizacio
fertilizantes
feru
fervinchu
fervor
festexos
festimad
festival
festivales
festivida
festividaes
festivos
festivu
festuca
fesu
fetu
feu
feudal
feudales
feudalismu
feudos
feudu
fever
fexe
fexes
feynman
fez
ff
fi
fia
fiabilida
fiable
fiables
fiat
fiba
fibra
fibres
fibrosis
fica
ficamente
ficas
ficcio
fices
ficha
fichar
fichaxe
fichaxes
ficheros
ficheru
fiches
ficho
ficieron
ficit
fico
ficos
ficticia
ficticiu
fiction
ficu
ficus
fide
fidel
fidelida
fiebre
fieces
fiel
field
fields
fieles
fienda
fierro
fiesta
fiestes
fifa
fifth
fig
figal
fight
fighter
fighters
fighting
figos
figueres
figueroa
figura
figuraba
figuraben
figurar
figuren
figures
figuro
fila
filadelfia
filamentos
filarmo
file
fileres
files
filiacio
filial
filiales
filipi
filipina
filipines
filipinos
filipo
filippo
filipu
filis
film
filmacio
filmada
filmado
filmar
filme
filmes
filmo
filmografi
films
filo
filoloxi
filos
filoso
filosofi
filoxene
filoxenia
filtracio
filtros
filtru
filu
fin
fina
finada
finaes
final
finales
finalida
finalista
finalistes
finalizacio
finalmente
finamente
finances
financia
financiada
financial
financiamiento
financiamientu
financiar
financiera
financieres
financieros
financieru
financio
finando
finaos
finar
finara
finaron
finca
fincapie
find
fine
fines
finiste
finita
finito
finlande
finlandesa
finlandeses
finlandia
finn
fino
finos
finques
finu
finxos
finxu
fio
fiordu
fiques
fire
firma
firmantes
firme
firmemente
firmes
firmeza
first
fiscal
fiscales
fiscali
fischer
fish
fisher
fisio
fisiolo
fisioloxi
fisis
fita
fitas
fito
fitos
fitoterapia
fitu
fitzgerald
five
fixa
fixacio
fixe
fixera
fixeren
fixeron
fixes
fixi
fixo
fixos
fixu
fiz
fizo
fl
flag
flags
flaire
flaires
flamenca
flamencos
flamencu
flandes
flanqueada
flash
flauta
flavia
flavio
flavonoides
flax
flecha
fleches
fleming
fletcher
fleurs
flexibilida
flexible
flexibles
flexo
flight
flo
flor
flora
floradobrasil
florae
floral
florales
flore
floreciente
florecimientu
florence
florencia
florencio
florentino
flores
floresta
flori
floria
floriamientu
florida
floridablanca
florilexos
florinos
florio
flota
flotante
flotes
flotilla
flow
flower
flowering
flowers
floyd
flu
fluctuaciones
fluidez
fluvial
fluviales
fluxos
fluxu
fluyi
fly
flying
flynn
fm
fmi
fo
focete
focico
focos
focu
focus
foguera
fogueres
foi
foinos
foise
fola
folada
folclo
folclor
foles
foley
folgar
foli
folia
foliar
foliolos
folk
folla
folletu
following
fomentar
fomento
fomentu
fona
fonda
fondamente
fondeadero
fonderada
fondero
fondes
fondo
fondos
fondu
fondura
fondures
fone
fonema
fonemes
fono
fonolo
fonoloxi
fonos
fonseca
font
fontaine
fontana
fonte
fontes
fontsize
fonu
foo
food
foot
football
foques
for
fora
foral
forbes
forca
force
forces
ford
fore
foreign
foren
forense
forest
forestal
forestales
forever
foria
form
forma
formaba
formaben
formacio
formaciones
formada
formaes
formal
formales
formalmente
formando
formaos
formar
formara
formaren
formari
formaron
formase
format
formation
formatos
formatu
formen
formes
formigo
formigueru
formigues
formo
formosa
formoses
formosu
forms
formula
formulacio
formular
formulo
forni
fornica
fornida
fornir
fornos
fornu
foro
foron
foros
forster
fort
fortalecer
fortaleces
fortalecimientu
fortalecio
fortaleza
forti
fortifica
fortificacio
fortificaciones
fortificada
fortress
fortuna
fortune
foru
forum
forxa
forza
forzada
forzando
forzaos
forzar
forzo
forzza
fosfatu
foso
foster
foto
fotogra
fotografi
fotografia
fotogrames
fotones
fotosi
fotosinte
fotovoltaica
foucault
found
foundation
four
fourier
fourr
fourth
fox
foz
fr
fra
frac
fracasa
fracasar
fracasaron
fracaso
fracasos
fracasu
fraccio
fracciones
fraga
fragata
fragates
fragmentacio
fragmentos
fragmentu
frai
fraicio
fraiciones
frame
fran
franc
franca
france
frances
francesa
francesc
francesca
francesco
franceses
francia
francis
francisca
franciscanos
franciscanu
francisco
franciscu
franco
francos
francotirador
francotiradores
francu
frank
frankenstein
frankfurt
frankie
franklin
franky
franquicia
franquicies
franquismu
franquista
franquistes
franxa
franxes
franz
frase
fraser
frases
frasis
fraternida
fraude
fray
frayatu
fre
freak
frecuencia
frecuencies
frecuente
frecuentemente
frecuentes
fred
freddie
freddy
frederic
frederick
free
freedom
freeman
frei
freire
frena
frenar
french
frenos
frente
frentes
frenu
fresa
fresca
fresco
frescos
frescu
fresno
fresnu
fresques
freud
frey
fri
friburgu
frica
fricativa
fricatives
friday
frieda
friedman
friedrich
friend
friends
fringe
frisia
frisu
fritz
friuli
from
frondizi
front
frontal
frontera
fronteres
fronterices
fronteriza
fronterizos
fronterizu
fronteru
frontier
fronto
froome
frost
fruela
fruhstorfer
fruit
frustracio
fruta
frutales
frutes
frutos
frutu
ft
fu
fue
fuelga
fuelguen
fuelgues
fuente
fuentes
fueos
fuera
fuercia
fuercies
fueren
fueron
fueros
fuerte
fuertemente
fuertes
fuerteventura
fueru
fuerza
fuesa
fueses
fueu
fuexu
fueya
fueyes
fuga
fugo
fugues
fui
fuji
fujian
fujimori
fukuoka
fukushima
fulgencio
fulham
full
fuller
fumar
fumu
fun
funcio
funciona
funcionaba
funcional
funcionales
funcionalidad
funcionamientu
funcionando
funcionar
funcionarios
funcionariu
funcionen
funciones
funciono
function
fund
funda
fundacio
fundacional
fundaciones
fundada
fundador
fundadora
fundadores
fundaes
fundamental
fundamentales
fundamentalmente
fundamentos
fundamentu
fundando
fundaos
fundar
fundaron
funde
fundi
fundicio
fundida
fundie
fundimientu
fundio
fundir
fundise
fundo
funeral
funerales
funeraria
funeraries
funerarios
funerariu
funet
fungi
fungos
fungu
funk
funny
fura
furaca
furacanes
furacos
furacu
furiosu
furious
furnariidae
furos
furu
fury
fuselaxe
fusil
fusila
fusilamiento
fusilaos
fusiles
fusio
fuste
fusu
futbol
futboli
futbolista
futbolistes
futura
future
futures
futuros
futuru
fuxe
fuxendo
fuxeron
fuxi
fuxida
fuxir
fuxo
fx
g
ga
gabinete
gabitu
gabo
gabriel
gabriela
gabrielle
gaceta
gadafi
gaddafi
gadu
gae
gafes
gaga
gagarin
gai
gaia
gais
gaita
gaites
gal
gala
galaxa
galaxes
galaxy
galdames
gale
galega
galego
galeres
galeri
gales
galesa
galeses
gali
galia
galicia
galilea
galileo
galindo
galitzia
galium
gallardo
gallardones
gallardonia
gallardoniada
gallardoniaos
gallega
gallego
gallegos
gallegu
gallery
galletes
gallimard
gallu
galo
galos
galu
galva
gama
gamarra
gambia
game
gamecube
games
gametos
gamma
gan
gana
ganaba
ganada
ganadera
ganaderes
ganaderi
ganaderos
ganaderu
ganador
ganadora
ganadores
ganaes
ganalo
ganancia
ganancies
ganando
ganaos
ganar
ganara
ganari
ganaron
ganase
gandhi
gandi
gane
ganen
ganes
gang
ganges
ganglios
gano
ganondorf
gansu
gante
gao
gap
gara
garanti
garantiza
garantizaba
garantizar
garantizo
garay
garbo
garce
garci
garcia
gard
garden
gardens
gardner
gargu
gari
garibaldi
garland
garner
garp
garra
garrar
garres
garrett
garrido
garros
garth
gary
garza
garzo
gas
gase
gaseosu
gases
gasolina
gaspar
gastadura
gastar
gasto
gaston
gastos
gastrointestinales
gastrono
gastronomi
gastu
gata
gate
gates
gatos
gatu
gaudi
gauguin
gaulle
gauss
gavila
gavilueta
gaviria
gay
gaza
gb
ge
gea
gear
gemini
geminorum
gemma
gen
gena
genas
gender
gene
genera
generacio
general
generalitat
generation
genes
genesis
genetic
genetics
geno
genos
gens
genus
geo
geoffrey
geogra
geographic
geographical
geological
georg
george
georges
georgetown
georgia
ger
gerais
gerald
geranium
gerard
gerardo
gerhard
germa
germain
german
germania
germany
germplasm
gero
gertrude
geschichte
gesellschaft
get
getafe
gets
ghana
ghost
gi
gia
giacomo
gian
gianni
giant
giants
gibbs
gibson
gica
gicamente
gicas
gico
gicos
gida
gignac
gil
gilbert
gilberto
giles
gill
gilles
gime
gimnasia
gina
ginas
ginger
gino
giorgio
giotto
giovanni
gipuzkoa
girl
girls
giro
girolamo
girona
giulio
giuseppe
give
gj
gla
glabra
glabres
glabros
glaciacio
glacial
glaciar
glaciares
gladys
glamour
glas
glasgow
glass
glaya
glayar
gleason
glee
glen
glendale
glenn
gli
gliese
glo
global
globales
globalizacio
globe
globo
globos
globu
globular
gloria
gloriosa
glory
glover
glu
gluco
glucosa
gluten
gm
gnase
gnu
go
goa
goal
gob
goberna
gobernaba
gobernacio
gobernada
gobernador
gobernadora
gobernadores
gobernando
gobernante
gobernantes
gobernaos
gobernar
gobernaron
goberno
gobierna
gobierno
gobiernos
gobiernu
gochos
gochu
gocia
gociaba
gociaben
gociar
gocien
gocio
god
goddard
godfather
godofredo
godos
godoy
gods
godzilla
goes
goethe
gogh
goguryeo
goia
going
goku
gol
gola
gold
goldberg
golden
goldman
goldwyn
goles
goleta
golf
golfu
goliada
goliador
goliadores
golio
golondrina
golor
golpe
golpes
golpistes
goma
gomera
gomes
gomu
gon
gonc
gone
gono
gonos
gonu
gonza
gonzalo
good
goodbye
goodman
google
gor
gora
goras
gorbachov
gorda
gordo
gordon
gordu
gore
goryeo
gospel
gossip
got
gota
gotemburgu
gotes
gotha
gotham
gottfried
gould
gov
government
goya
gozo
gp
gps
gr
gra
graba
grabacio
grabaciones
grabada
grabaes
grabando
grabaos
grabar
grabaron
grabo
grace
gracia
gracies
grada
gradiente
gradua
graduacio
gradual
gradualmente
graduaos
graduar
graduase
graduo
graes
graf
grafa
grafes
grafi
grafitu
grafo
grafos
grafu
graham
gram
grama
gramatical
gramaticales
grami
grammar
grammy
gramos
gran
grana
granada
granaderos
granadina
granados
granaes
grand
granda
grandas
grande
grandes
grandor
granes
grani
granible
granibles
granitu
granos
grant
granu
granxa
granxeros
granxes
graos
grasa
grase
grases
grasos
grass
gratuita
gratuitamente
gratuitu
grau
grava
grave
graveda
gravemente
graves
gravitacional
gray
graz
gre
great
greater
greatest
grebes
grebos
grebu
grecia
greco
grecorromana
gredos
greek
green
greenberg
greene
greenwich
greenwood
greg
gregorianu
gregorio
gregory
gremios
gremiu
grenoble
grense
greta
grey
gridcolor
griega
griego
griegos
griegu
griegues
griffin
griffith
grimaldi
grimm
grin
gripe
gris
grises
groenlandia
grosez
grosso
ground
group
grove
growth
gru
gruesa
grueses
gruesos
gruesu
grunge
grupo
grupos
grupu
gs
gsub
gt
gu
gua
guadalajara
guadalaxara
guadalcanal
guadalquivir
guadalupe
guadarrama
guadiana
guadix
guam
guan
guanajuato
guangdong
guante
guantes
guapa
guapu
guapura
guara
guarani
guarda
guardaba
guardaespaldes
guardar
guarden
guarderi
guardia
guardian
guardianes
guardias
guardiola
guardo
guaren
guarnicio
guarniciones
guatemala
guatemaliana
guatemalianos
guatemalianu
guayana
guayaquil
guayas
gubernamental
gubernamentales
gue
gueda
guense
guerra
guerrera
guerrero
guerreros
guerreru
guerres
guerrilla
guerrilleros
guerrilleru
guerrilles
guese
guest
guetu
guevara
guez
guggenheim
gui
guia
guiana
guide
guido
guila
guild
guiles
guillaume
guille
guillermo
guillermu
guinea
guinness
guio
guiones
guionista
guionistes
guipu
guisa
guitar
guitarra
guitarres
guitarrista
guitarristes
gula
gules
gulliver
gun
guns
gupta
guru
gus
gusta
gustaba
gustari
gustav
gustave
gustavo
gusto
gustos
gustu
gutenberg
guthrie
gutie
guy
guyana
guzma
gwynedd
gyllenhaal
gyo
h
ha
haas
hab
habana
haber
habese
habi
habiendo
habilida
habilidaes
habilita
habita
habitaba
habitaben
habitable
habitacio
habitaciones
habitada
habitaes
habitante
habitantes
habitar
habitaron
habiten
habitual
habituales
habri
habsburgu
hachette
hachos
hachu
hacia
had
hades
hagen
hagrid
hahn
hai
haise
haiti
haitianu
haki
hal
hale
half
hall
halle
halloween
halo
ham
hama
hamburg
hamburgu
hamilton
hamlet
hammer
hammond
hampshire
hampson
han
hancock
hand
handbook
hands
hangul
hank
hanks
hanna
hannah
hannover
hans
hanse
hansea
hansen
happened
happy
hara
harald
harbor
hard
hardcore
harding
hardware
hardy
hare
harlem
harley
harmo
harmoni
harmony
haro
harold
harper
harrier
harriet
harris
harrison
harry
hart
harvard
harvey
has
hasan
hash
hassan
hasta
hastings
hat
hate
hathaway
have
haven
havre
hawaii
hawk
hawke
hawking
hawkins
hawks
hay
haya
hayden
haydn
hayek
hayes
haza
hazard
hb
hbo
hc
hd
he
head
health
hearst
heart
hearts
heat
heath
heather
heaven
heavy
hebo
hebre
hebrea
hebreos
hecq
hecta
hector
hee
hegel
heidegger
heidelberg
heidi
height
heights
heinrich
heinz
hele
helen
helena
heleni
helico
heliconius
helioga
heliu
hell
hellblazer
hello
helm
helmut
help
helsinki
hemeroteca
hemingway
hemisferiu
hemoglobina
hemorraxa
henan
henares
henderson
henri
henrique
henry
hepa
hepatitis
hepburn
her
hera
heracles
heraclio
herald
heraldu
heras
herb
herba
herbal
herbales
herbario
herbarium
herbert
herbi
herculis
here
hereda
heredada
heredaes
heredar
heredera
herederos
herederu
heredia
hereditaria
hereditariu
heredo
herexi
herge
heriedu
heritage
hermafrodites
herman
hermana
hermanaes
hermanas
hermanascu
hermanda
hermandaes
hermanes
hermann
hermano
hermanos
hermanu
herme
hermes
herna
hernando
hero
heroes
heroi
heroica
herrera
herrero
herri
herria
herschel
herzegovina
herzog
hesse
hesto
hestoria
hestories
het
hetero
heterosexual
heterosexuales
heteroxe
hevia
hexagonal
hexemoni
hey
hezbola
hi
hibiernu
hibridacio
hidalgo
hidden
hideyoshi
hidra
hidro
hidrocarburos
hidroele
hidrogra
hidrografi
hidrolo
hierro
higgins
high
higham
higher
highway
hilario
hilary
hilbert
hilda
hill
hillary
hills
hilton
hilty
him
himalaya
himnos
himnu
hinchente
hinchentes
hinches
hindenburg
hindi
hindu
hinduismu
hinduistes
hinojosa
hip
hipertensio
hipo
hipopo
hipote
hipparcos
hiroshima
his
hispa
hispana
hispania
hispanistes
hispanoame
hispanoamericana
hispanofalantes
hispanos
hispanu
hist
histeria
histo
histoire
historia
historiador
historiadora
historiadores
historial
historic
historical
histories
historieta
historietes
historiogra
historiografi
history
hit
hitchcock
hitita
hitites
hitler
hits
hixene
hl
hm
hms
ho
hobart
hobbes
hoc
hoffman
hogan
hohenzollern
hokche
hokkaido
hola
holanda
holande
holandesa
holandeses
holbein
hold
holden
holding
hole
holiday
holland
holly
hollywood
holmes
holmgren
holocaustu
holstein
holt
holy
hombre
home
homenaxe
homenaxes
homeopati
homer
homero
homes
homi
homicidiu
homme
homo
homofobia
homosexual
homosexuales
homosexualida
homosexuality
homoxe
homs
honda
honduras
honduren
hondures
honey
hong
honolulu
honor
honorable
honorarios
honorariu
honores
honori
honorio
honoris
honra
honrar
hood
hook
hooke
hooker
hooper
hoover
hop
hope
hopkins
hopper
hora
horacio
horaria
horarios
horariu
horda
hores
horizon
horizontal
horizontales
horizonte
horizontes
hormona
hormonal
hormones
horn
horner
hornets
hornsby
horrible
horror
horse
hort
horti
hortolices
hortus
horus
hospital
hospitales
host
hostilida
hostilidaes
hot
hotel
hoteles
hotspur
houghton
hour
hours
house
houston
how
howard
hoy
hoya
hoyo
hoyos
hp
hr
hrer
htm
html
htmlhttp
http
https
hu
hua
huac
huang
huasco
huatl
hubbard
hubble
huber
hubert
hubiera
hubo
hudson
hue
huelva
huerta
huesca
huestes
huete
hugh
hughes
hugo
hugonotes
hugu
hui
hulk
hull
hulu
human
humana
humanes
humani
humanida
humanidaes
humanismu
humanista
humanistes
humanitaria
humanitariu
humano
humanos
humanu
humberto
humboldt
hume
humilda
humilde
humilladero
humor
humori
humorista
humoristes
humphrey
hunger
hungri
hunos
hunt
hunter
hurricane
hurtado
husband
husein
hussein
husserl
huston
hutchinson
hutton
huxley
hyde
hydrae
hyrule
hyundai
hz
i
ia
iaaf
ian
iana
iata
ib
iba
ibarra
ibc
ibe
iberia
iberoame
iberoamericana
iberoamericanu
ibi
ibid
ibiza
ibles
ibm
ibn
ibrahim
ic
ica
ice
ich
ico
icon
iconogra
iconografi
iconos
iconu
id
ida
idaho
ide
idea
ideal
ideales
idealismu
ideas
idees
identida
identidaes
identifi
identifica
identificacio
identificada
identificaes
identificaos
identificar
identificaron
identificase
identification
identifico
identifiquen
identity
ideolo
ideoloxi
idi
idioma
idiomes
ido
idol
ie
ies
ieyasu
if
iga
iglesia
iglesias
ign
ignacio
ignora
ignorar
igo
igor
igua
igual
iguala
igualada
igualando
igualar
igualda
iguales
igualmente
igualo
iguar
iguazu
iguo
ii
iii
ik
ikastola
il
ildefonso
iler
ilesia
ilesies
ilexi
ili
ill
ille
illeg
illegal
illegales
illegalmente
illinois
illustrated
ilusio
ilusiones
ilustra
ilustracio
ilustraciones
ilustrada
ilustrador
ilustraos
ilustrar
im
ima
image
images
imagesize
imaxe
imaxinacio
imaxinar
imaxinaria
imaxinariu
imdb
img
imitacio
imp
impact
impacto
impar
imparte
imparti
impartio
impartir
impautos
impautu
impedancia
impel
imperante
imperativu
imperfectu
imperial
imperiales
imperialismu
imperios
imperiu
implantacio
implementa
implementacio
implementar
implemento
impli
implica
implicaba
implicacio
implicaciones
implicaes
implicaos
implicar
implications
implico
impliquen
impon
imponer
imponese
imponi
imponie
imponiendo
impopular
importa
importacio
importaciones
importancia
importante
importantes
importaos
importar
importe
imposibilida
imposible
imposibles
imposicio
impossible
imprenta
imprentadores
impresa
imprescindible
impresio
impresiona
impresionante
impresionantes
impresiones
impresionismu
impresiono
impresos
impresu
imprimir
improbable
improvisacio
impu
impuesta
impuestes
impuestos
impuestu
impulsa
impulsada
impulsar
impulsaron
impulso
impulsor
impulsos
impulsu
impunxeron
impunxo
impureces
in
ina
inactivida
inala
inaugu
inaugura
inauguracio
inaugurada
inaugural
inaugurar
inauguro
inc
inca
incaicu
incapaces
incapacida
incapaz
ince
incentivos
incertidume
inch
incidencia
incidente
incidentes
inciensu
incierta
inciertu
incipiente
incla
inclina
inclinada
inclinar
inclu
including
inclusio
inclusive
inclusu
incluye
incluyendo
incluyera
incluyeron
incluyi
incluyida
incluyir
incluyiri
incluyise
incluyo
inco
incompatible
incompleta
incompletu
incondicional
inconsciente
inconveniente
inconvenientes
incorpo
incorpora
incorporacio
incorporada
incorporaes
incorporando
incorporaos
incorporar
incorporaron
incorporase
incorporen
incorporo
incorreuta
incorreutu
increi
increment
incubacio
incumplimientu
incursio
incursiones
incursiono
ind
inda
indefini
indefinida
indefinidamente
indemnizacio
independence
independencia
independent
independentista
independentistes
independiente
independientemente
independientes
independizar
indetermina
index
indi
india
indian
indiana
indianapolis
indians
indias
indica
indicaba
indicaben
indicacio
indicaciones
indicada
indicador
indicadores
indicaes
indicando
indicar
indicaron
indicativu
indico
indie
indies
indiferencia
indignacio
indios
indiquen
indireuta
indireutamente
indireutu
indiscutible
indispensable
indistintamente
indiu
individual
individuales
individualismu
individualista
individualmente
individuos
individuu
indo
indochina
indoeurope
indoeuropea
indoeuropees
indoeuropeos
indonesia
indonesiu
induccio
induci
inducida
inducir
indultu
indumentaria
indurain
industria
industrial
industriales
industrializacio
industries
industry
induz
indycar
ine
inegi
inequi
inercia
inerte
inesistencia
inesistente
inespera
inesperada
inesperadamente
inestabilida
inestable
inestables
inevitable
inevitablemente
infancia
infanta
infante
infanteri
infantes
infantil
infantiles
infartu
infeicio
infeiciones
infeicioses
inferencia
inferior
inferiores
inferiorida
infesta
infestaos
infidelida
infiernu
infiltracio
infinida
infinita
infinites
infinitivu
infinitu
inflacio
inflamacio
inflexo
inflorescencia
inflorescencies
influ
influence
influencia
influencies
influxu
influyencia
influyencies
influyente
influyentes
influyeron
influyi
influyida
influyir
influyo
info
informa
informacio
informaciones
informal
informales
informalmente
informar
informaron
information
informativa
informativos
informativu
informe
informes
informo
infraespeci
infraestructura
infraestructures
inframundu
infrarroxu
infty
ing
ingesta
ingestio
inglaterra
ingle
inglesa
ingleses
ingrediente
ingredientes
ingresa
ingresando
ingresar
ingresaron
ingreso
ingresos
ingresu
ingrid
inherente
inhibicio
inhibidores
inic
iniciacio
inicial
iniciales
iniciativa
iniciatives
inicio
iniesta
ininterrumpida
inmaculada
inmaterial
inmediata
inmediatos
inmediatu
inmensa
inmensu
inmersio
inmigracio
inmigrante
inmigrantes
inminente
inmo
inmobiliaria
inmobiliariu
inmortal
inmortalida
inmueble
inmuebles
inmune
inmunida
inmunitariu
inn
innovacio
innovaciones
innovador
innovadores
innumberables
inocencia
inocencio
inocente
inocentes
inorancia
inorga
inos
input
inques
inquisicio
inquisidor
inscribir
inscripcio
inscripciones
inscrita
inscritos
inscritu
insecti
insecticides
insegurida
insert
insertamientu
inseutos
inseutu
inside
insinia
insinies
insistencia
inso
insostenible
inspector
inspeicio
inspira
inspiracio
inspirada
inspiraes
inspiraos
inspirar
inspiraron
inspiro
inst
insta
instagram
instala
instalacio
instalaciones
instalada
instalaes
instalaos
instalar
instalaron
instalase
instalo
instancia
instancies
instanta
instaura
instauracio
instaurar
instauro
instintu
institucio
institucional
institucionales
instituciones
institut
institute
institution
instituto
institutos
institutu
instituyi
instituyo
instruccio
instrucciones
instructor
instrumentacio
instrumental
instrumentos
instrumentu
insuficiencia
insuficiente
insuficientes
insular
insulares
insulina
insurreccio
insurxencia
insurxente
insurxentes
int
intacta
intactu
inte
integra
integracio
integrada
integraes
integral
integrales
integrando
integrante
integrantes
integraos
integrar
integraron
integrase
integren
integrida
integro
intel
intelectual
intelectuales
intelixencia
intelixente
intelixentes
intelixibles
intencio
intencional
intenciones
intendencia
intendente
intensa
intensamente
intenses
intensida
intensifico
intensiva
intensivu
intensos
intensu
intenta
intentaba
intentaben
intentando
intentar
intentara
intentaron
intenten
intento
intentos
intentu
inter
interaccio
interacciones
interactive
interactivo
interactu
interactuar
interaicio
interaiciones
interamericana
intercambiar
intercambios
intercambiu
intercontinental
intere
interesa
interesada
interesante
interesantes
interesaos
interesar
interesase
intereses
intereso
interestelar
interfaz
interferencia
interferir
interi
interina
interinamente
interior
interiores
interlingua
interllingu
intermediarios
intermediariu
intermitente
interna
internacional
internacionales
internacionalmente
internamente
international
internationale
internes
internet
internos
internu
interpre
interpreta
interpretaba
interpretacio
interpretaciones
interpretada
interpretaes
interpretando
interpretaos
interpretar
interpretaron
interpretase
interpreten
interpreto
interrupcio
interrupciones
interseicio
intertropical
intervalos
intervalu
intervencio
intervenciones
interveni
intervenir
intervie
intervienen
intervieno
interview
intervinieron
intesti
intestinal
intestinales
intimida
into
intolerancia
intoxicacio
intre
intri
intriga
intrigues
introduccio
introducen
introduci
introducida
introducie
introduciendo
introducieron
introducio
introducir
introducise
introduction
introduz
intuicio
inu
inuit
inusual
inusuales
inva
invade
invadi
invadida
invadieron
invadio
invadir
invasio
invasion
invasiones
invasor
invasores
invencio
inventa
inventar
inventariu
invento
inventor
inventores
inventos
inventu
inversa
inversio
inversiones
inversionistas
inversores
inversu
invertebraos
inverti
invertida
invertir
investido
investiga
investigacio
investigaciones
investigador
investigadora
investigadores
investigando
investigar
investigation
investigo
invicta
invictu
invirtio
invisible
invistidura
invita
invitacio
invitaos
inxeniera
inxenieri
inxenieros
inxenieru
inxeniu
inxeri
inxerir
inxusticia
inyeicio
io
ioc
ion
iones
ios
iota
iowa
ip
ipad
ipairs
iphone
ipni
ipod
iquique
ir
ira
iran
irani
iranina
iraq
iraqui
iraquinos
ireland
irene
irina
iris
irish
irlanda
irlande
irlandesa
irlandeses
irma
iro
iron
ironi
irregular
irregulares
irregularida
irregularidaes
irreversible
irritacio
irrupcio
iru
irving
is
isa
isaac
isabel
isabella
isabelle
isai
isbn
isbol
ise
isidoro
isidro
isis
isla
islam
islamic
islamistes
island
islande
islandia
islands
isle
islen
islla
islles
ismael
ismail
ismu
iso
isotopo
isqui
israel
israeli
israelina
israelines
israelinos
issn
issue
issues
ist
ista
istambul
istes
it
ita
italia
italian
italiana
italianes
italiano
italianos
italianu
italo
italy
item
itemid
ithaca
itinerante
itinerariu
ito
its
itunes
iturbide
itza
itzaes
iu
iucn
ius
iv
iva
ivan
iveco
ivernaderu
iverniza
iverson
ives
iviernos
iviernu
ivy
ix
iz
izquierda
izquierdes
izquierdista
izquierdo
iztapalapa
j
ja
jaca
jacinto
jack
jackie
jackson
jacob
jacobo
jacobs
jacopo
jacq
jacqueline
jacques
jade
jae
jaime
jake
jakob
jalisco
jam
james
jamie
jan
jane
janeiro
janet
janis
january
japan
japanese
japonica
jar
jara
jarama
jaramillo
jardim
jared
jason
jaume
java
javascript
javier
jay
jazz
jbrj
je
jean
jeanne
jedi
jeep
jeff
jefferson
jeffrey
jena
jenkins
jennifer
jenny
jepson
jera
jeremy
jericho
jero
jerome
jerry
jersey
jesse
jessica
jessie
jesu
jesus
jet
jets
jewish
jfk
ji
jiang
jill
jim
jime
jimmy
jin
jla
jo
joa
joachim
joan
joanna
joaqui
joaquim
job
jockey
joe
joel
joey
johan
johann
johannes
johannesburgu
john
johnny
johns
johnson
johnston
joint
joker
jolie
jon
jonas
jonathan
jones
jong
jord
jordan
jordi
jorge
jornada
jose
josef
josefa
josefina
joseon
josep
joseph
josh
joshua
journal
journey
joy
joyce
jp
jpg
jr
jstor
ju
jua
juan
juana
judas
judd
judge
judith
judoinside
judy
jujuy
jul
jules
julia
julian
julie
julien
juliet
julieta
juliette
julio
julius
july
jump
jun
june
jung
jungle
juni
junior
juniors
juniperus
juno
jura
jurado
jurassic
juri
juss
just
justice
justify
justin
justiniano
justino
justo
juventus
jørgensen
k
ka
kabul
kahn
kai
kaiser
kaler
kan
kanagawa
kane
kang
kanji
kansas
kant
kappa
kara
karabaj
karachi
karate
karen
karl
kart
kas
kaspa
kata
kate
katharine
katherine
kathleen
kathryn
kathy
katie
katrina
katy
kaufman
kawasaki
kay
kaza
kazaksta
kb
kc
ke
keaton
keep
keith
keller
kelly
kelvin
ken
kenia
kennan
kennedy
kenneth
kenny
kent
kentucky
kepler
kerala
kerouac
kerr
kerry
kevin
kew
key
keynes
keys
kg
kgb
khan
khmer
khrushchov
ki
kick
kid
kidd
kids
kiev
kiki
kill
killer
killing
kilogramos
kim
kimi
kind
king
kingdom
kings
kingston
kinks
kioto
kirby
kirchner
kirguista
kirk
kiss
kissinger
kit
kitty
klan
klaus
klein
klezmer
klm
km
knapp
knicks
knight
know
knowledge
knowles
known
knox
ko
kobe
koch
koda
koeh
kolchak
konex
kong
konrad
korea
korean
korni
kos
kosovo
kosovu
kota
koufax
kov
kraft
krai
kramer
krasnodar
kratos
krause
kree
kremlin
krishna
krisna
kristen
kru
ku
kuala
kuiper
kuma
kun
kung
kunth
kuntze
kuomintang
kurt
kuwait
kv
kw
kwan
kyle
kylie
kyo
kyoto
kyu
l
la
lab
laba
label
labes
labor
laboratory
lacalle
lactancia
laden
ladies
ladislao
lady
lafresnaye
lag
laga
lago
lagos
lagrange
lagu
laguna
lai
lake
lakers
lam
lama
lambda
lambert
lamentablemente
lamo
lamos
lamu
lan
lana
lanacion
lancaster
lance
lancia
land
landa
lane
lang
lange
language
languages
langue
lanka
lanzarote
lao
laos
laplace
lar
lara
laredo
lares
largamente
large
largo
larrea
larry
lars
larsen
larson
las
lase
last
lat
late
latente
later
latin
latitud
lato
lauda
laude
laura
lauren
laurence
laurent
laurie
lausana
lava
laval
lavalle
lavoe
law
lawn
lawrence
layer
lazio
lb
lbum
lbumes
lc
lcd
lculos
lculu
ld
ldica
ldicu
ldora
le
lea
lead
leader
league
leal
leandro
lear
learning
leave
leb
lebes
lebre
lebres
lebron
led
ledes
ledesma
ledger
lee
leeds
left
leg
lega
legacy
legane
legend
legends
legio
lego
legrand
leguminosae
lei
leibniz
leicester
leiden
leigh
leipzig
lem
lema
lemos
len
lena
length
lengua
lenin
leningra
lennon
lense
lenta
lente
lentes
lentos
lentu
leo
leon
leonard
leonardo
leone
leonel
leonid
leonis
leonor
leopold
leopoldo
leopoldu
lepe
lepido
lepidoptera
lera
lerma
leroy
les
lesa
lesbian
lesbiana
lesbianes
leslie
lesnar
lesothu
lester
let
letal
leto
letonia
letra
letter
letters
leucania
leucemia
lev
levante
leve
level
leves
levi
levine
levy
lewis
lex
lexi
lexo
lexones
ley
lez
lgara
lgaros
lgaru
lgbt
lhs
li
lia
liam
liang
lib
libane
libe
liber
liberation
liberia
libertad
libertadores
liberty
libia
libiu
library
libri
libro
libros
lic
lica
licamente
licas
lico
licos
licu
lida
lidera
liderada
lideralgu
liderando
lideraos
liderar
lidero
lides
lidia
lido
lidos
lidu
lie
liechtenstein
lieder
lies
liexa
life
lifetime
liga
light
lightgrey
lightning
lights
ligue
liguilla
liguria
like
lil
lila
lille
lillian
lily
lim
lima
limenitidinae
limited
limits
lin
lina
linares
lincoln
linda
lindl
lindsay
line
linear
lines
linfa
linfocitos
lingu
lingua
linguistic
linguistics
link
links
linn
linnaeus
linnean
linneo
linux
lio
lion
lionel
lions
liquen
liques
lisa
lisboa
lisis
list
liszt
lit
lita
lite
literary
literatura
literature
lites
litiu
lito
little
lituana
lituania
lituanos
lituanu
liu
liubliana
liv
live
liverpool
lives
living
liviu
lix
liz
ll
lla
llaberintu
llabios
llabiu
llabor
llaboral
llaborales
llaboratorios
llaboratoriu
llabores
llaborista
llabra
llabrador
llabradora
llabradores
llacuada
lladral
lladrales
lladriyos
lladriyu
lladro
lladrones
llagartos
llagartu
llagos
llagu
llaguna
llagunes
llaica
llaicos
llaicu
llama
llamaba
llamaben
llamada
llamaes
llamamientu
llamamos
llamando
llamaos
llamar
llamargues
llamari
llamaron
llamase
llamativu
llamatu
llamen
llamera
llamo
llana
llancen
llanceolaes
llances
llanches
llanera
llanes
llangre
llano
llanos
llantadera
llantar
llanu
llanura
llanures
llanza
llanzada
llanzador
llanzaes
llanzamientos
llanzamientu
llanzando
llanzaos
llanzar
llanzari
llanzaron
llanzase
llanzo
llaos
llapada
llapaes
llapiceru
llar
llara
llares
llarga
llargamente
llargo
llargor
llargores
llargos
llargu
llargues
llargumetraxe
llargumetraxes
llase
llateral
llaterales
llati
llatina
llatines
llatinoame
llatinoamericana
llatinoamericanos
llatinoamericanu
llatinos
llatitu
llau
llava
llavaderu
llavadura
llavar
llave
llaves
llaviana
llazos
llazu
llc
lle
lleal
lleales
llealta
llebre
llebres
lleche
llechu
llector
llectores
llectura
llectures
llee
lleenda
lleendes
lleendo
lleer
lleese
llega
llegaba
llegaben
llegada
llegaes
llegal
llegales
llegalida
llegalizacio
llegalmente
llegando
llegaos
llegar
llegara
llegaren
llegari
llegaron
llegase
llego
llegu
llegue
lleguen
llegumes
lleguminoses
llei
lleicio
lleiciones
lleida
lleis
lleldu
llen
llena
llenda
llende
llendes
llendo
llenes
llenos
llenu
llenzos
llenzu
lleo
lleona
lleone
lleones
lleonesa
lleoneses
lleopardu
ller
llerza
lletra
lletres
lletricida
lleva
llevaba
llevaben
llevada
llevaes
llevalo
llevando
llevanta
llevantada
llevantamientos
llevantamientu
llevantar
llevantaron
llevantase
llevante
llevanto
llevaos
llevar
llevara
llevaren
llevari
llevaron
llevase
lleve
llevemente
lleven
llevo
llexendaria
llexendarios
llexendariu
llexislacio
llexisladores
llexislativa
llexislatives
llexislativos
llexislativu
llexislatura
llexislatures
llexitimida
llez
lli
llibera
lliberacio
lliberada
lliberal
lliberales
lliberalismu
lliberalizacio
lliberando
lliberaos
lliberar
lliberen
llibero
lliberta
llibertador
llibertadora
llibertaes
llibra
llibrar
llibre
llibremente
llibreri
llibres
llibretu
llibro
llibros
llibru
llice
llicencia
llicenciada
llicenciatura
llicencies
llicencio
llicor
lliga
lligamentu
lligues
llimbu
llimitacio
llimitaciones
llimo
llimpia
llimpiar
llimpies
llimpieza
llimpiu
llinares
llinaxe
llinaxes
llinda
llindaba
llindada
llindaes
llindando
llindaos
llindar
llinden
llindo
llingu
llingua
llinguaxe
llinguaxes
llinia
llinial
lliniales
llinies
llinterna
llinu
llio
lliquidacio
llira
lliriu
llisa
llises
llisos
llista
llistaos
llistaref
llistes
llistos
llistu
llisu
lliteral
lliteralmente
lliteraria
lliteraries
lliterarios
lliterariu
lliteratura
llitros
llitru
llitu
lliturxa
llixera
llixeramente
llixeres
llixero
llixeros
llixeru
llo
llobos
llobregat
llobu
lloca
llocal
llocales
llocalida
llocalidaes
llocalizacio
llocalizaciones
llocalmente
llocomotora
llocomotores
llocos
llocu
llocura
llocutor
llogaritmu
llogra
llograba
llograben
llograda
llograes
llogralo
llogrando
llograos
llograr
llograra
llograren
llograri
llograron
llograse
llogre
llogren
llogro
llogros
llogru
llomba
llombes
llombos
llombu
llongura
llongures
llonxevida
llonxitu
llonxitudinal
llonxitudinales
llora
llorar
llore
llorente
lloret
llorienzo
llosa
lloteri
lloyd
lluces
llucha
lluchaba
lluchaben
lluchador
lluchadores
lluchando
lluchar
llucharon
lluchen
lluches
llucho
lluci
lluen
llueu
llugar
llugares
llugarteniente
llui
lluis
lluisa
llull
llume
lluminosa
lluminoses
lluminosida
lluminosu
lluna
llunar
llunares
llunes
llurdios
llurdiu
llutu
lluviosa
lluviosu
lluxuria
lluz
ln
lo
lobby
lobo
loc
local
locales
location
locke
lockheed
locus
log
loga
logan
logo
logos
logotipu
logron
logu
logues
lohan
loi
loira
loire
lois
loja
loki
lola
lolita
lombardi
lombardos
lombardu
lon
lona
londinense
london
londres
lone
lonely
long
look
looking
loop
lope
lopes
lopez
lor
lora
lorca
lord
lorena
lorentz
lorenz
lorenzo
lores
loreto
loros
lorraine
loru
los
losada
lost
lot
lotario
lotov
lotus
lou
louis
louise
louisiana
lourdes
louvre
lov
love
lover
lovers
loves
low
lowe
lowell
lower
loxa
loxi
loyola
lozano
lp
lpitu
lr
ls
lsd
lsinki
lt
ltd
lter
ltica
lticos
lticu
ltima
ltimamente
ltimes
ltimo
ltimos
ltimu
ltiple
ltiples
ltiques
lu
lua
luc
luca
lucanidae
lucas
luci
lucia
luciano
lucien
lucille
lucio
luck
lucky
lucrecia
lucy
ludovico
ludwig
luffy
lufthansa
luftwaffe
lugansk
lugar
lugo
lui
luigi
luis
luisa
luisiana
luiz
luja
luke
lula
lules
lumie
lumpur
luna
lunetos
lupe
lupus
luque
lusitania
luterana
lutero
luther
lux
luxemburgu
luxu
luz
lvarez
lvaro
lveda
lvense
lver
lvese
lvez
lvora
lvula
lvules
lxebra
lxica
lxiv
ly
lydia
lyle
lynch
lynn
lynne
lynx
lyon
lzase
m
ma
mabel
mac
maca
macarthur
macbeth
macdonald
macedonia
macedoniu
maces
mach
machado
machine
machos
machu
maci
macintosh
maciu
macizos
macizu
mack
mackenzie
macmillan
maco
macri
macro
macrosco
mad
mada
madagascar
madalena
madame
madara
made
madeira
madeleine
madera
maderes
madero
mades
madison
madness
madonna
madoz
madrasca
madrazo
madre
madres
madrid
madrigal
madrilana
madrilanu
madrina
madrugada
madura
maduracio
madures
maduro
maduror
maduros
maduru
mae
maestra
maestre
maestres
maestri
maestros
maestru
mafa
mafia
mag
maga
magaci
magallanes
magar
magaya
magazine
magdalena
magellan
magenta
maggie
magic
maglia
magma
magna
magnate
magne
magnesiu
magnetismu
magni
magnitu
magno
magnolia
magnoliophyta
magnu
magnus
magos
magre
magreb
magres
magu
maguncia
maha
mahler
mahmud
mahoma
mai
maiden
mail
maillot
main
maine
major
majoris
make
making
mal
mala
malaca
malaguen
malapenes
malaria
malasia
malaui
malawi
malaya
malayu
malcolm
malda
maldicio
maldonado
male
males
malestar
maleza
mali
malibu
malik
mall
malla
mallorca
malmo
malo
malone
malos
malta
maltratu
malu
malva
malvada
malvi
malvines
mama
mambi
mame
mamelucos
mamelucu
mami
mammal
mamposteri
man
management
manager
managua
manantial
manantiales
manca
mancada
mancadura
mancadures
mancaes
mancaos
mancar
mancha
manchester
manchu
manchukuo
manchuria
manco
mancomu
mancomunida
manda
mandada
mandaos
mandar
mandari
mandatarios
mandatariu
mandatos
mandatu
mandela
mando
mandos
mandu
manera
maneres
manes
manexu
manfred
manga
manganesu
manglares
mangu
mangues
manhattan
mani
manierismu
manierista
manifesta
manifestacio
manifestaciones
manifestantes
manifestar
manifestaron
manifestase
manifesto
manifie
manifiesta
manifiesten
manifiestu
manila
maniobra
maniobres
manipoliar
manipulacio
manitoba
mann
mannheim
manning
mano
manolo
manos
manrique
mans
mansell
manson
mansur
mantega
mantenimientu
mantis
mantu
manu
manual
manuales
manualmente
manuel
manuela
manufactura
manufactures
manuscritos
manuscritu
many
manzanares
manzanilla
manzorga
mao
maoi
maori
map
mapa
mapes
maps
mapuche
maqueta
maquetes
maquillaxe
maquinaria
mar
mara
maracaibo
maradona
maran
marato
maravedinos
maravi
marbella
marc
marca
marcaba
marcada
marcadamente
marcador
marcadores
marcaes
marcando
marcaos
marcar
marcari
marcaron
marcel
marcela
marcelino
marcelo
march
marcha
marchena
marches
marchesi
marcial
marciales
marcianu
marco
marcos
marcu
marcus
mare
marea
marees
mares
marfil
margaret
margarita
margot
marguerite
mari
maria
mariah
mariana
marianes
marianne
mariano
marie
mariella
marielles
mariello
mariellos
mariellu
mariguana
marilyn
marin
marina
marine
marineros
marineru
marines
mariniega
marino
marinos
mario
marion
marisa
mariscal
mariscos
marismas
marisol
maritima
mark
market
marketing
marley
marlon
marne
marque
marquen
marques
marquesa
marqueses
marriage
married
marro
marrones
marroqui
marroquina
marruecos
mars
marsella
marsh
marshall
mart
marta
marte
martel
martes
martha
marti
marticorena
martiellu
martin
martina
martini
martinica
martino
martins
martiriu
martorell
marty
marvel
marvin
marx
marxe
marxes
marxinal
marxinales
marxismu
marxista
marxistes
mary
maryland
marzu
mas
masa
masacre
masacres
mascota
mascotes
masculi
masculina
masculines
masculino
masculinos
mase
mases
masi
masiva
masivamente
masives
masivos
masivu
mask
maso
mason
masoneri
mass
massa
massachusetts
massacre
master
masters
mata
matalo
matamoros
matances
matando
matanza
matar
mataro
mataron
match
mate
matema
maten
mateo
mateos
mater
materia
material
materiales
materialismu
materies
materna
maternida
maternos
maternu
mates
math
mathbb
mathbf
mathcal
mathematical
mathematics
mathews
mathrm
mati
matices
matilde
matiz
mato
matos
matri
matrices
matricular
matrimonial
matrimoniales
matrimonios
matrimoniu
matrix
matriz
matt
matthew
matthews
matthias
matu
mauna
maura
maurecen
maureen
maurice
mauricio
mauriciu
mauritania
mauro
mausole
mavericks
max
maxa
maxana
maxesta
maxi
maxim
maximiliano
maxisteriu
maxistra
maxistraos
maxistratura
maxwell
may
maya
mayer
mayes
mayo
mayor
mayoralgu
mayordomu
mayores
mayori
mayoritaria
mayoritariamente
mayoritariu
mayormente
mayr
mayu
mayweather
maza
mazana
mazanes
mazda
mb
mbare
mbaru
mberos
mberu
mbitos
mbitu
mbolos
mbolu
mbox
mbulu
mc
mccarthy
mccartney
mcdonald
mcdonnell
mcgraw
mcgregor
mclaren
mcmahon
mcqueen
md
mdma
me
mean
meca
mecanismos
mecanismu
mecanizado
mecenes
med
meda
medal
medaya
medayeru
medayes
medayista
medayistes
medea
medelli
medes
media
mediacio
mediador
mediana
medianes
medianu
medianueche
mediaos
mediar
medical
medici
medicina
medicine
medicines
medies
medieval
medievales
medina
medinaceli
medio
medioambiental
medioambientales
mediocampista
mediocre
medios
meditacio
mediterra
mediterranean
mediterraneu
mediu
mediudi
medo
medos
medrana
medranes
medri
medu
meet
meeting
meg
mega
megali
megalodon
megan
mehmed
mehmet
mei
meiji
meji
mel
melanie
melbourne
melchor
mele
melecina
melecinal
melecinales
melecines
melgar
melilla
melissa
mellon
melo
melodi
melodrama
melody
melville
mem
membrana
membranes
membresi
memoirs
memorable
memorables
memoria
memorial
memories
memory
memphis
men
mena
mencio
menciones
mendelssohn
mendes
mendiza
mendoza
mene
menem
menes
mengu
mengua
menguando
menguar
menguaron
menguo
meninxitis
menor
menorca
menores
menos
mensaxe
mensaxeros
mensaxeru
mensaxes
mense
menstruacio
mensual
mensuales
ment
menta
mentada
mentaes
mental
mentales
mentalida
mentalmente
mentanto
mentantu
mentaos
mentar
mentase
mente
menten
mentes
mentha
mentira
mentires
mento
mentor
menu
mequinenza
mer
mera
merca
mercada
mercader
mercaderes
mercado
mercadotecnia
mercanci
mercando
mercante
mercantes
mercantil
mercaos
mercar
mercara
mercaron
merce
mercedes
mercenarios
mercia
merco
mercosur
mercurio
mercuriu
mercury
mercy
merecen
mereci
meredith
merello
meres
merez
meri
meridianu
meridional
meridionales
merindad
merkel
mero
meros
merry
meru
meryl
mes
mesa
mese
meses
meseta
mesi
mesis
mesma
mesmes
mesmo
mesmos
mesmu
meso
mesoame
mesopota
mesopotamia
message
messi
messier
messina
mestizaje
mestizos
mestos
mestu
met
meta
metabo
metabolismu
metacritic
metaes
metafi
metal
metales
metalicida
metallica
metalu
metalurxa
metamorfosis
metanes
metanu
meteoritu
meteorolo
meteoroloxi
meter
metes
method
methods
metodista
metodolo
metodoloxi
metro
metropolitan
metropolitana
metropolitanes
metropolitanos
metropolitanu
metros
metru
metz
meurthe
meuse
mexelles
mexica
mexican
mexicana
mexicanes
mexicano
mexicanos
mexicanu
mexicas
mexico
mexicu
mey
meyer
meyor
meyora
meyoramientu
meyores
mez
meza
mezquita
mezquites
mg
mgm
mhnt
mhz
mi
mia
miami
mic
mica
micamente
micas
mice
michael
michaels
michel
michelangelo
michele
michelle
michigan
michoaca
mick
mickey
mico
micos
micro
micronesia
microondes
microorganismos
microsco
microscopiu
microsoft
mics
micu
mid
middle
mide
miden
mides
midi
midida
midir
midise
midnight
midway
mie
miel
miembro
miembros
miembru
miente
mientres
mier
mieres
miers
mieu
mig
mighty
migollu
migracio
migraciones
migrantes
migratoria
migratories
migratorios
migratoriu
migren
miguel
migues
mihawk
mijai
mike
mikel
mikhai
mil
mila
milagros
milagru
milan
milano
mildred
mile
milenios
mileniu
miles
miley
mili
milicia
milicianos
milicies
milisegundos
milita
militancia
militante
militantes
militar
militares
militarmente
military
milito
milk
mill
milla
millar
millares
mille
millennium
miller
milles
million
millo
millonarios
millonariu
millones
mills
milo
milos
milton
milwaukee
mimi
min
mina
minas
mind
mindanao
minds
mine
minera
mineral
minerales
mineres
mineri
mineros
mineru
minerva
mines
ming
minh
mini
miniatura
miniaturadeimagen
miniatures
miniserie
ministerial
ministerios
ministeriu
ministra
ministres
ministros
ministru
minneapolis
minnesota
minogue
minor
minori
minoris
minoritaria
minoritaries
minoritarios
minoritariu
minsk
minu
minutes
minutos
minutu
mio
miocardiu
miocenu
mios
miq
miquel
miques
mir
mira
miracle
mirada
mirador
miraflores
miranda
mirande
mirando
mirar
mires
miriam
miro
mirror
misa
miseria
misericordia
mises
misil
misiles
misio
misioneros
misioneru
misiones
miss
missing
mission
mississippi
missouri
mista
mister
misterios
misteriosa
misteriosu
misteriu
mistes
mistos
mistral
mistu
mit
mitchell
mite
mites
mitocondrial
mitolo
mitoloxi
mitos
mitra
mitre
mitri
mitsubishi
mitterrand
mitu
mix
mixteca
mixteco
miyamoto
miyazaki
mk
ml
mm
mn
mo
mobile
moblame
mobutu
moc
moceda
mocedaes
moces
mocio
moctezuma
mod
moda
modalida
modalidaes
mode
model
modela
modelaje
modelo
modelos
models
modelu
modera
moderada
moderadamente
moderaes
moderaos
modern
moderna
modernes
modernida
modernismu
modernista
modernizacio
modernizar
moderno
modernos
modernu
modes
modesta
modestu
modifica
modificada
modificaes
modificando
modificaos
modificar
modifico
modu
module
moe
moench
mofos
mofu
mogol
moguer
mohamed
mohammad
mohammed
moi
moise
mol
mola
moldavia
molde
moldes
moldures
mole
molecular
moleculares
molesties
moli
molibdenu
molicio
moliciones
molie
molina
molinicos
molinos
mollet
molly
moluques
moluscos
mom
momenta
momento
momentos
momentu
momia
mon
mona
monaco
monarca
monarques
monarqui
moncayo
mondadori
monde
moneda
monedes
monesterios
monesteriu
monet
monetaria
monetariu
money
mongol
mongola
mongoles
mongolia
monica
monitor
monk
monkey
mono
monocotiledo
monofile
monogr
monografi
monolitu
monoplaces
monoplaza
monopolios
monopoliu
monos
monotei
monoti
monroe
mons
monsen
monsieur
monster
monsters
mont
monta
montada
montan
montana
montano
montaos
montar
montascosa
montascoses
montascosos
montascosu
montaxe
monte
montecarlu
montemayor
montenegro
montenegru
montero
monterrey
montes
montesa
monteses
montevide
montevideo
montgomery
month
monti
montiegues
montiel
montjui
monto
montoya
montpellier
montreal
montserrat
montt
monu
monumental
monumentales
monumentos
monumentu
monxa
monxes
monxos
monxu
monza
monzo
moon
moore
mor
mora
moraba
moraben
morada
moraes
moral
morales
moralida
morar
moravia
moraza
morbihan
more
moreau
moreira
morelia
morelos
moren
morena
moreno
morera
morfema
morfemes
morfina
morfolo
morfoloxi
morgan
mori
moria
morica
moriscos
mormones
morning
moro
moros
morpho
morphology
morrer
morreri
morri
morriendo
morriera
morrieren
morrieron
morrio
morris
morrison
morrone
morru
morse
mort
mortal
mortales
mortalida
morteru
morton
moru
mos
mosaicos
mosaicu
mosca
moscow
moscu
moselle
moses
mosquera
mosques
mosquitos
moss
most
mostaza
mota
moteya
mother
moti
motion
motiva
motivacio
motivaciones
motivada
motivo
motivos
motivu
moto
motocicleta
motocicletes
motociclismu
motor
motores
motors
motos
motown
motril
mou
mount
mountain
mouse
move
movement
mover
movese
movi
movida
movie
moviendo
movies
movilida
movilizacio
movilizaciones
movilizar
movimiento
movimientos
movimientu
movio
movistar
moya
moza
mozambique
mozart
mozos
mozu
mp
mpanu
mpara
mpares
mpeg
mph
mpica
mpico
mpicos
mpicu
mpiques
mputu
mr
mrs
ms
msg
msnm
msterdam
mt
mtv
mu
mubarak
much
mucosa
muda
mude
mudu
mue
mueble
muebles
muela
muelle
muelles
muerre
muerren
muerta
muerte
muertes
muertos
muertu
muestres
mueve
mueven
mueyos
mueyu
mugor
muhammad
mui
mujer
mujeres
mujica
mula
mules
muller
mulo
mulos
multa
multes
multi
multimedia
multinacional
multinacionales
multiple
multiplica
multiplicacio
multiplicar
multixugador
mulu
mun
muncha
munches
muncho
munchos
munchu
mundi
mundial
mundiales
mundialista
mundialmente
mundiu
mundo
mundos
mundu
munich
municio
municiones
municipal
municipales
municipalida
municipalidaes
municipio
mur
mural
murales
muralla
muralles
murcia
murder
murdoch
mure
mures
muria
muridae
muriel
muries
murillo
murios
muriu
murnia
murniu
muro
muroidea
murphy
murray
mus
musa
muscular
musculares
muse
museo
museos
muses
museu
museum
museums
musial
music
musical
musicales
musk
musser
mussolini
must
mustafa
mustang
musulma
musulmana
musulmanes
mutacio
mutaciones
mutante
mutantes
mutua
mutuamente
mutuu
muyer
muyeres
mvp
mw
mx
my
myanmar
myers
myriam
myspace
mystery
mythimna
mærsk
n
na
nac
nacen
nacencia
nacencies
nacer
nacho
naci
nacida
naciellos
naciellu
naciente
naciera
nacieron
nacio
nacional
nacionales
nacionalida
nacionalidaes
nacionalismu
nacionalista
nacionalistes
nacionalizacio
naciones
naco
nacu
nada
nadadora
nadadores
nadal
nadar
nadia
nadine
nadu
naga
nagano
nagasaki
nager
nagorno
naide
nairo
nakai
naked
nala
nales
nalo
nam
nama
name
named
names
namespace
nami
namibia
namo
namora
namorada
namorar
namur
nan
nana
nancy
nanes
nanki
nanos
nantes
nanu
naomi
napoleo
napoli
napolitanu
naquel
naquella
naquelles
naquellos
nara
naranxa
naranxal
naranxes
narcea
narciso
narcotra
narnia
narra
narracio
narraciones
narrador
narrativa
narrativu
naruto
narva
nas
nasa
nasal
nasales
nascar
nase
nash
nashville
nasir
nassau
nasser
nat
natacio
natal
natalia
natalida
natalie
natalya
natasha
nate
nathan
nation
national
nationale
nations
nativa
native
natives
nativida
nativos
nativu
natl
natura
natural
naturales
naturaleza
naturalis
naturalismu
naturalista
naturalistes
naturalmente
nature
naturelle
naufraxu
nava
naval
navales
navarra
navarro
navarros
navarru
navas
nave
navegable
navegacio
navegador
navegante
navegantes
navegar
naves
navi
navia
navida
navidiegu
navy
naz
nazare
nazarenu
nazari
nazi
nazis
nazismu
nba
nbc
nc
ncaa
ncer
nchen
nchester
nchez
ncia
ncias
nciase
ncicu
ncipe
ncipes
ncis
nculos
nculu
nd
nda
ndalos
ndalu
ndalus
ndar
ndares
ndase
nde
ndense
nder
ndese
ndez
ndices
ndicu
ndiz
ndo
ndola
ndole
ndoles
ndolo
ndolos
ndolu
ndonos
ndor
ndose
ndrica
ndricos
ndricu
ndriques
ndrome
ndula
ndules
ndum
ne
nea
neal
neamente
near
neas
nebraska
nebulosa
nebuloses
nec
neca
necaxa
necesaria
necesariamente
necesaries
necesario
necesarios
necesariu
necesida
necesidaes
necro
ned
need
neerlande
neerlandesa
neerlandeses
nees
nefertiti
nega
negacio
negar
negaron
negase
negativa
negativamente
negatives
negativos
negativu
nego
negociacio
negociaciones
negocios
negociu
negra
negres
negri
negrina
negro
negros
negru
neil
neill
nel
neles
nell
nella
nelles
nello
nellos
nelly
nelson
nen
nengu
nenguna
nengunu
nense
neo
neocla
neoclasicismu
neogo
neoli
neos
neotropical
nepal
neptunu
nero
neros
neru
neruda
nervios
nerviosa
nervioses
nerviosos
nerviosu
nerviu
nes
nesa
nese
neses
nesi
nesis
nesos
nesta
nestes
nesti
nestle
nesto
nestos
net
neta
netamente
netflix
neto
nets
netu
network
networks
neu
neue
neuma
neumann
neumoni
neuro
neurolo
neurona
neurones
neutra
neutral
neutrales
neutralida
neutralizar
neutro
neutrones
neutros
neutru
neva
nevada
nevaes
never
neville
new
newark
newcastle
newell
newman
newport
news
newton
next
nexu
neymar
nez
nf
nfasis
nfc
nfl
ng
ngara
ngares
ngaros
ngaru
ngase
ngc
ngel
ngela
ngeles
nger
ngora
nguez
ngulos
ngulu
nh
nhl
ni
nia
nial
niales
niarada
nibali
nic
nica
nicamente
nicaragu
nicaragua
nicas
nice
nicea
nich
nicholas
nichols
nicholson
nichos
nichu
nicios
niciu
nick
nickelodeon
nicky
nico
nicola
nicolas
nicole
nicos
nicu
nida
nidas
nides
nidia
nidies
nidios
nidiu
nidos
nie
niega
nielsen
nieta
nieto
nietos
nietu
nietzsche
nieva
nieve
nieves
nigel
niger
night
nightmare
nights
nigos
nigra
nigu
nike
nikita
nikki
niko
nikola
nikolai
nikon
nil
nilo
nilu
nima
nime
nimes
nimo
nimos
nimu
nin
nina
nine
ninfa
ninja
nino
nintendo
nio
nior
nippon
niques
niro
nirvana
nissan
nita
nite
nitratu
nitro
nitu
nivel
niveles
nix
nixeria
nixon
niza
nj
nl
nm
nmente
nmi
nn
no
noa
noah
nobel
nobiliarios
nobiliariu
noble
nobles
nobleza
nobunaga
nocaut
noche
nocherniega
nocherniegos
nocherniegu
nocherniegues
nocio
nociones
noctuidae
node
nodo
nodos
nodu
noe
noel
noemi
noether
noguera
noir
nokia
nola
nolan
nolas
nom
noma
nomada
nomaes
nomamientos
nomamientu
nomando
nomaos
nomar
nomaron
nomatu
nombre
nome
nomen
nomencla
nomenclatura
nomenclature
nomes
nominacio
nominaciones
nominal
nominales
nominalmente
nominativu
nomo
nomos
nomu
non
none
nones
nor
nora
nord
norde
nordeste
noren
noreste
norfolk
noria
noriega
norma
normal
normales
normalida
normalizacio
normalmente
norman
normanda
normandi
normandos
normandu
normativa
normativu
normes
noroccidental
noroeste
nororiental
norris
norte
norteame
norteamericana
norteamericanes
norteamericanos
norteamericanu
north
northern
northumbria
northwest
nortiza
nortizu
norton
noruega
noruegos
noruegu
norwich
nos
nose
not
nota
notable
notablemente
notables
notacio
notar
notariu
note
notes
nothing
noticia
noticias
noticieru
noticies
noto
notoriamente
notorieda
notre
nottingham
nou
nouveau
nouvelle
nov
nova
novak
novas
novatu
noveda
novedaes
novel
novela
noveles
novelista
novelistes
november
novena
noventa
novenu
novia
novialgu
novios
noviu
novo
now
np
nquima
nr
ns
nsase
nscritu
nse
nsitu
nster
nsul
nsula
nsules
nt
nta
ntabru
ntara
ntase
nte
ntegramente
ntense
nter
ntes
ntese
ntesis
ntica
ntico
nticos
nticu
ntida
ntima
ntimamente
ntimos
ntimu
ntiques
nto
ntoma
ntomes
ntra
ntrase
ntrense
ntrica
ntrico
ntricos
ntricu
ntriques
ntu
nu
nube
nubes
nubia
nuca
nuclear
nucleares
nucleo
nucleos
nucleu
nueces
nueche
nueches
nuedos
nuedu
nuesa
nueses
nuesos
nuestra
nuesu
nueva
nuevamente
nueve
nueves
nuevo
nuevos
nuevu
nuez
nuggets
nula
nulos
nulu
num
numancia
numbe
number
numberacio
numberales
numberosa
numberoses
numberosos
numberosu
numbers
numea
numerals
nun
nuna
nunca
nunes
nunos
nupcial
nupcias
nur
nuria
nurse
nutricio
nutrientes
nxel
nxeles
nxer
nxo
nxose
nxt
ny
nym
nyman
nymphalidae
nzase
o
oa
oaci
oak
oakland
oasis
oaxaca
ob
obama
obedecer
obediencia
obeliscu
obertura
obesida
obi
obispa
obispos
obispu
obituariu
obliga
obligaba
obligacio
obligaciones
obligada
obligaes
obligando
obligaos
obligar
obligaron
obligatoria
obligatoriamente
obligatoriu
obligo
oblongo
oblongues
oboe
obra
obrador
obrar
obrego
obrera
obreres
obreros
obreru
obres
observable
observacio
observaciones
observador
observadores
observations
observatorios
observatoriu
observer
obsesio
obstruccio
obviamente
obviu
oc
oca
ocampo
ocan
ocarina
ocasio
ocasional
ocasionales
ocasiones
ocaso
occidental
occidentales
occidentalis
occidente
occitania
occitanu
oce
ocea
ocean
oceani
och
ochenta
ocho
ochoa
ochobre
ociu
oclc
oclusiva
oclusives
oco
ocre
oct
octava
octaves
octavio
octavos
octavu
october
octogonal
ocu
ocular
oculta
ocultes
ocultos
ocultu
ocupa
ocupaba
ocupaben
ocupacio
ocupaciones
ocupada
ocupaes
ocupando
ocupantes
ocupaos
ocupar
ocupara
ocupari
ocuparon
ocupase
ocupen
ocupo
oda
oder
odesa
odi
odisea
odiu
odo
oea
oeste
of
ofc
ofendi
ofensiva
ofensives
ofensivu
off
office
official
officinalis
offs
oficial
oficiales
oficialida
oficialista
oficialmente
oficina
oficines
oficios
oficiu
og
oh
ohio
oi
oil
ois
oise
ojeda
ojos
ok
okinawa
oklahoma
ol
ola
olaf
olano
olaya
old
oldea
oldfield
ole
oles
olfatu
olga
oli
oligarqui
olimpia
olimpiada
olimpiaes
oliu
oliva
olivar
olivares
oliveira
oliver
olivia
olivier
olla
olmedo
olmos
olos
olp
olsen
olvera
olvidu
olympia
olympic
olympique
om
oma
oman
omar
omega
omeya
omeyes
omni
oms
omsk
on
ona
once
oncenu
onda
onde
ondes
ondula
one
onepage
ones
ong
oni
onil
online
only
ono
ontario
ontolo
onx
oo
op
opcio
opcional
opciones
ope
opel
open
opening
opera
operaba
operaben
operacio
operacional
operaciones
operada
operador
operadores
operando
operaos
operar
operation
operativa
operatives
operativos
operativu
operen
opero
ophiuchi
opinio
opiniones
opiu
opo
oponente
oponentes
oponer
oponese
oponi
oportunida
oportunidad
oportunidaes
oposicio
opositor
opositores
oppenheimer
opresio
ops
optar
optaron
optimismu
optimista
option
options
opto
opu
opuesta
opuestes
opuestos
opuestu
opunxe
opunxo
opus
oquei
or
ora
oracio
oraciones
oracle
orador
oral
orales
orange
oratoria
oratoriu
orbegoso
orbita
orbital
orbitales
orbitando
orchestra
orchidaceae
orchis
orde
orden
ordena
ordenacio
ordenada
ordenador
ordenadores
ordenaes
ordenamientu
ordenances
ordenando
ordenanza
ordenaos
ordenar
ordenara
ordeno
order
ordinaria
ordinaries
ordinarios
ordinariu
ordo
ordon
ore
orego
oregon
orellana
orellar
ores
oreya
oreyes
orfebreri
orfeo
org
orga
organismos
organismu
organiza
organizacio
organizaciones
organizador
organizadora
organizadores
organization
orgasmu
orgs
ori
orial
oriales
oribe
orient
orientacio
orientaciones
oriental
orientales
orientalis
orientation
oriente
origin
original
originariamente
origins
orihuela
orina
orinoco
orio
oriol
orioles
orionis
orita
orites
orixe
orixinal
orixinales
orixinalida
orixinalmente
orixinaria
orixinaries
orixinarios
orixinariu
orlando
orleans
ornamentacio
ornamental
ornamentales
ornamientos
orne
ornithology
ornito
ornitolo
oro
orogra
orografi
oros
orosio
orozco
orques
orquesta
orquestal
orquestes
orqui
orson
ortega
ortiz
orto
ortodoxa
ortodoxes
ortodoxos
ortodoxu
ortogra
ortografi
oru
oruro
os
osa
osaka
osasuna
oscar
oscilacio
oscilaciones
osetia
osi
osiris
oskar
oslo
oslu
osma
oso
osorio
osos
ospina
ostenta
ostentaba
ostentar
ostento
ostrogodos
osu
osuna
osvaldo
oswald
oswaldo
otan
otero
other
others
otis
oto
otomana
otomanes
otomanos
otomanu
otomi
otorga
otorgaba
otorgar
otra
otramiente
otres
otros
otru
ottawa
otto
ou
our
ourense
out
outer
output
ova
ovaes
oval
ovales
ovarios
ovariu
over
overline
overview
oveya
oveyes
ovi
oviedo
ovoide
owain
owen
own
oxeciones
oxetiva
oxetivos
oxetivu
oxeto
oxetos
oxetu
oxford
oxi
oxidacio
oyentes
oyer
oyi
oyo
oz
ozcos
ozonu
p
pa
pabello
pabellones
pablo
pablu
pac
pace
pacers
pacha
pacheco
pachuca
paci
paciencia
paciente
pacientes
pacific
pacificacio
pacifista
pacionales
pack
packers
paco
pacquiao
pactos
pactu
padilla
padrastru
padre
padres
padri
padro
padua
paecen
paecencia
paecer
paeci
paecida
paecio
paez
paga
pagaben
pagando
paganes
paganismu
paganos
paganu
pagar
page
pages
pagina
pago
pagoda
pagos
pagu
pai
paige
pain
pairs
pais
paisanos
paisaxe
paisaxes
paisaxi
paises
pakistan
pakistani
pal
pala
palace
palacio
palacios
palaciu
palais
palanca
palantre
palas
palatal
palati
palatina
palau
palazzo
pale
palea
palencia
palenque
paleo
paleoli
paleonto
paleontolo
paleontoloxi
palermo
palesti
palestina
palestinos
paleta
pali
pallabra
pallabres
palm
palma
palmare
palmas
palmer
palmera
palmeres
palmes
palmira
palo
paloma
palombar
palombos
palombu
palos
palu
palustris
pam
pamela
pampa
pamplona
pan
panaderi
panama
panamericana
panamericanos
panamericanu
panamiegu
panda
pando
pandora
pandorial
pandoriales
pandos
pandu
panel
paneles
panes
pani
pankhurst
pano
panonia
panora
panorama
pantalla
pantalles
pantalo
pantalones
pantasma
pantasmes
panteo
pantera
panther
panthera
panzer
paola
paolo
papa
papal
papel
papeles
paper
papers
papes
papiros
papiru
papu
papuan
paquete
paquetes
paquista
par
para
paracai
paracaidistes
parada
parade
paradigma
paradise
parado
paradoriu
paradoxa
paraes
paragua
paraguay
paraguaya
paraguayos
paraguayu
parai
paralax
paralela
paralelamente
paraleles
paralelismu
paralelos
paralelu
parali
parameter
parameters
paramilitar
paramilitares
paramount
parana
paraos
parar
parasitismu
paraxa
paraxes
parc
parceles
parche
parches
parcial
parciales
parcialmente
pardes
pardo
pardos
pardu
pare
paredes
parent
parentescu
pares
pareya
pareyes
pari
parida
pariente
parientes
paris
parisi
park
parker
parkinson
parks
parla
parllamentaria
parllamentaries
parllamentarios
parllamentariu
parllamentos
parllamentu
parma
parms
paro
parodia
parque
parques
parra
parres
parrilla
parroquia
parroquial
parroquiales
parroquies
parsons
part
parte
parten
partes
parti
partial
particio
participa
participaba
participaben
participacio
participaciones
participando
participante
participantes
participar
participara
participaren
participari
participaron
participen
participiu
participo
particular
particulares
particularida
particularidaes
particularmente
partida
partidaria
partidarios
partidariu
partido
partie
partiendo
partieron
partio
partir
partisanos
partitura
partitures
partners
parton
partos
parts
partu
party
paru
pas
pasa
pasaba
pasaben
pasada
pasadena
pasaes
pasando
pasaos
pasaporte
pasar
pasara
pasarela
pasaren
pasari
pasaron
pasaxe
pasaxeros
pasaxeru
pasaxes
pascal
pascua
pascual
pase
pasen
paseos
paseriforme
pases
pasha
pasiellu
pasio
pasiones
pasiva
pasivu
paso
pasos
pass
passeriformes
passerines
passion
past
pasta
pastel
pasteles
pasteur
pastillas
pastor
pastoral
pastores
pastrana
pasu
pat
pata
pataca
patada
pataes
patago
patagonia
pataques
patch
patente
patentes
paterna
paternida
paternu
pates
path
pathe
pati
patinadores
patinaxe
patinos
patios
patiu
pato
patolo
patoloxi
patria
patriarca
patriarcal
patriarques
patricia
patricio
patriciu
patrick
patrimonial
patrimoniu
patrio
patriota
patriotes
patriotismu
patriots
patro
patrocina
patrocinador
patrocinadores
patrociniu
patrona
patronal
patronales
patronatu
patrones
patronos
patronu
patrulla
patrullar
pattern
patterns
patterson
patton
pau
paul
paula
paulina
pauline
paulo
pausanias
pautes
pavi
pavimentu
pavo
pavu
pax
pay
paya
payares
payasu
payne
pays
paz
pbs
pc
pce
pci
pcr
pdf
pe
peace
peach
peada
peak
pearl
pearson
peary
peca
pecaos
peces
pechinas
pechu
peciolaes
peciolu
peck
peculiar
peculiares
peculiarida
peculiaridaes
peda
pedago
pedagoxi
pedal
pedani
pedestal
pedro
pedrosa
pedru
pedu
peer
pega
pegan
pegasi
pegasu
peggy
pel
pela
pelame
pelayo
pele
pelegri
pelegrinacio
pelegrinos
peles
peli
peligros
peligrosa
peligroses
peligrosida
peligrosos
peligrosu
peligru
pellegrini
pelo
peloponeso
pelos
pelota
pelotes
peloto
pen
pena
penal
penales
penalizacio
penalti
penaltis
pendiente
pendientes
pene
penera
penerar
penes
penetracio
penguin
peni
penicilina
peninsular
peninsulares
penitencia
penn
pennsylvania
penny
penriba
pensa
pensaba
pensaben
pensador
pensadores
pensamientos
pensamientu
pensando
pensar
pensaron
pense
pensio
pensiones
penso
penta
pente
pentecoste
penu
people
peoples
peor
peores
pepe
pepper
pepsi
pequen
per
pera
peracaba
peracaben
peracabo
perales
peralta
perbie
perceicio
perceiciones
percibe
percibi
percibir
percima
percorrer
percorri
percorriendo
percorrio
percuerre
percuerren
percusio
percy
perda
perdayuri
perdedor
perder
perderi
perdes
perdese
perdi
perdida
perdie
perdiendo
perdiera
perdieren
perdieron
perdio
perdiz
perdo
perdona
perdura
perduro
pere
pereira
perenne
perennes
peres
perexil
perfect
perfecta
perfectamente
perfectu
perfeicio
perfil
perfiles
perforacio
performance
pergami
peri
periantu
pericles
perife
periferia
perimportante
perio
period
periodi
periodismu
periodista
periodistes
periodos
periodu
perkins
perl
perlla
perlles
permanecen
permanecer
permaneceri
permaneci
permaneciendo
permaneciera
permanecieron
permanecio
permanencia
permanente
permanentemente
permanentes
permanez
permeabilida
permisos
permisu
permite
permitio
pernambuco
pernoma
pernomada
pernomaos
pero
peronismu
peronista
perpendicular
perpendiculares
perpetua
perpetuu
perros
perru
perry
pers
persa
perse
persecucio
persecuciones
persei
perses
perseus
persia
persiste
persistencia
persistente
persistentes
person
persona
personal
personales
personalida
personalidaes
personality
personalmente
personaxe
personaxes
persones
personificacio
perspective
perspectives
perspeutiva
persuadir
pertenecen
pertenecer
perteneci
perteneciendo
perteneciente
pertenecientes
pertenecieron
pertenecio
pertenencia
pertenencies
pertenez
perth
perturbacio
perturbaciones
peru
peruana
peruanes
peruanos
peruanu
pervalible
pervalibles
perxudicial
perxudiciales
perxuiciu
pesa
pesaba
pesada
pesaes
pesao
pesaos
pesar
pesca
pescador
pescadores
pescudar
pescuezu
pese
pesen
pesetes
pesie
peso
pesos
pesquera
pesqueru
peste
pesu
pet
peta
pete
peter
peters
petersburgu
peterson
petit
peto
petones
petra
petrina
petro
petrogra
petrolera
petroleres
petroleros
petroleru
petroleu
petroli
petroqui
peugeot
pexe
pexes
pez
pg
pgc
ph
phantom
phd
phelps
phi
phil
philadelphia
philip
philipp
philippe
philips
phillip
phillips
philosophical
philosophy
phoenix
phone
photo
photos
php
phylogenetic
phylogenetics
phylogeny
physical
physics
pi
pia
piamonte
pianista
pianistes
pianos
pianu
piase
piazza
pib
pica
picamente
picante
picas
picasso
pice
pichones
pick
pico
picos
picto
picture
pictures
picu
pida
pidal
pide
piden
pides
pidi
pidie
pidiendo
pidiera
pidieron
pidimientos
pidimientu
pidio
pidir
pido
pidos
pidu
pie
piece
pieces
pieda
piedra
piedrahita
piedres
piel
pieles
piensa
piensen
pier
pierce
pierde
pierden
pieridae
pierna
piernes
piero
pierre
pies
pieter
pietro
pieza
pigmentos
pigmentu
pila
pilar
pilastra
pilastres
piles
pileu
pilo
pilon
piloto
pilotos
pilotu
pimentel
pimienta
pimientu
pin
pina
pinar
pinares
pineda
ping
pingu
pinilla
pink
pino
pinochet
pinos
pinta
pintada
pintaes
pintaos
pintar
pinter
pinto
pintor
pintora
pintores
pintura
pintures
pinu
pinus
pinyin
pinzo
pio
pioneer
pionera
pioneres
pioneros
pioneru
piotr
piper
pipino
piques
piquet
pira
piragu
piramidal
pirata
pirate
pirateri
pirates
pireo
pirine
pirineos
pirro
pisa
piscina
piscines
piscis
piscium
pisos
pista
pistes
pisto
pistola
pistoles
pistons
pisu
pisuerga
pit
pita
piter
pites
pito
pitos
pitt
pittsburgh
pitu
pitucos
pixar
pixi
piz
pizarro
pizza
pl
pla
placa
place
placebo
places
plaga
plagues
plain
plains
plan
plana
planches
planck
planes
planet
planeta
planetaria
planetaries
planetarios
planetariu
planetes
planiada
planiamientu
planiar
planicie
planicies
planificacio
planos
plant
planta
plantarum
plantas
plante
planteamientos
planteamientu
plantega
plantegar
plantego
plantel
plantes
planti
plantlist
plants
planu
plaques
plasencia
plasma
plasmu
plata
plataforma
plataformes
plate
plateado
plati
platillos
platino
plato
platos
platu
play
playa
playback
playboy
player
players
playhouse
playoff
playoffs
playstation
plaza
plazos
plazu
ple
please
plebiscitu
plegues
pleistocenu
pleitos
pleitu
pleja
plena
plenipotenciario
plenitu
plenos
plenu
plinio
pliniu
plomu
plotarea
plotdata
pluma
plumaxe
plumes
plural
plurales
pluralida
plus
plutarco
plutarcu
pluto
plutoniu
plymouth
pm
pmid
png
pnv
po
poa
poaceae
pob
pobla
poblacio
poblacional
poblacionales
poblaciones
poblada
pobladores
poblaes
poblamientu
poblaos
poblar
poble
poca
pocket
poco
pocos
pocu
podemos
poder
poderes
poderi
poderosa
poderoses
poderosos
poderosu
podesta
podi
podios
podiu
podos
podra
podri
poe
poema
poemariu
poemes
poems
poesi
poeta
poetes
poetry
poincare
point
points
poitiers
poke
pol
pola
polaca
polacos
polacu
polanski
polaques
polar
polares
polarizacio
pole
polen
poles
poli
police
polici
policial
policiales
policromada
policy
polideportivu
poligonal
polinesia
polinizacio
polinizadores
polinomiu
polis
politburo
polite
politei
politica
political
politics
polito
poliya
pollard
polli
pollo
pollos
pollu
polo
polonia
polos
polu
polvu
polyommatus
pomerania
pompeya
pompeyo
pon
ponce
pondri
pone
ponen
poner
ponese
ponferrada
ponga
poni
ponie
poniendo
poniente
pons
ponse
pont
ponte
pontes
pontevedra
ponti
pontiac
pontifica
pontificia
pontificios
pontificiu
ponto
pool
poor
pop
popa
pope
popper
popular
populares
popularida
populariza
popularizo
popularmente
population
populismu
poques
por
porcentaxe
porcentaxes
porcio
porciones
porfirio
porno
pornogra
pornografi
poro
poros
porque
porres
porsche
port
porta
portaba
portada
portador
portadores
portaes
portal
portales
portando
portar
portaviones
porte
porten
porter
porteri
porteros
porteru
portillo
portland
porto
portrait
portuaria
portuaries
portugal
portugue
portuguesa
portugueses
porvenir
porzolana
pos
posa
posada
posadas
pose
poseido
posesio
posesiones
posesivos
posesivu
posesor
posesores
posgra
posguerra
posibilida
posibilidaes
posible
posiblemente
posibles
posicio
posiciones
position
positiva
positivamente
positives
positivismu
positivos
positivu
post
postal
postales
poste
postemporada
posterida
posterior
posteriores
posteriori
posteriorida
posteriormente
postes
postre
postrera
postreres
postrero
postreros
postreru
postres
postula
postulaos
postular
postulo
postura
postures
potable
potasiu
potencia
potencial
potenciales
potencialmente
potenciar
potencies
potente
potentes
potentilla
potesta
potosi
potsdam
potter
pound
pour
pova
powell
power
powers
pozos
pozu
pozuelo
pp
ppe
ppen
ppm
ppp
pr
pra
practica
practicaba
practicaben
practicada
practicando
practice
practiquen
prada
praderi
pradesh
prado
praga
pragma
prairie
praos
prat
pratt
prau
prauticante
prauticantes
prauticar
prautico
pravia
prd
pre
prea
precaria
precedente
precedentes
precedi
precedida
preceptos
preci
preciede
precios
precioses
preciosos
precipitacio
precipitaciones
precisa
precisaba
precisaben
precisamente
precisar
precisen
precises
precisio
precision
preciso
precisos
precisu
preciu
precoz
precuros
precursor
precursora
precursores
precuru
predadores
predecesor
predecesora
predecesores
predica
predicacio
predicador
predicadores
predicar
prediccio
predicciones
predicir
predomina
predominante
predominantemente
predominantes
predominen
predominiu
predreses
predresos
predresu
preeminencia
preescolar
prefaciu
preferencia
preferencies
preferente
preferentemente
preferi
preferida
prefeutu
prefeutura
prefeutures
prefier
prefieren
prefiriendo
prefirieron
prefirio
prefix
prefixos
prefixu
prego
pregu
pregunta
preguntar
pregunto
prehispa
prehisto
prehistoria
preliminar
preliminares
preludiu
prematura
premia
premiada
premier
premio
premios
premisa
premises
premiu
premium
prenda
prendes
prensa
prepa
prepara
preparacio
preparaciones
preparada
preparaes
preparando
preparaos
preparar
preparativos
preparatoria
preparo
preposicio
preposiciones
prerrogativas
prerroma
presa
presbi
presbiteriu
prese
presea
presencia
present
presenta
presentaba
presentaben
presentacio
presentaciones
presentada
presentador
presentadora
presentadores
presentaes
presentando
presentaos
presentar
presentara
presentari
presentaron
presentase
presente
presenten
presentes
presento
presents
preseos
preservacio
preses
preside
presidencia
presidencial
presidenciales
president
presidenta
presidente
presidentes
presidi
presidida
presidio
presidir
presidium
presio
presiones
presl
presley
presos
press
presta
prestacio
prestaciones
prestar
presti
prestixosa
prestixoses
prestixosos
prestixosu
presto
preston
prestosa
prestosu
prestu
presu
presumiblemente
presumir
presunta
presuntamente
presuntos
presuntu
presupuestos
presupuestu
prete
pretemporada
pretende
pretenden
pretendi
pretendiente
pretendientes
pretendio
pretensio
pretensiones
pretoria
pretty
prevalencia
preve
prevencio
prevenir
preventiva
previ
previa
previes
preview
previos
previsio
prevista
previstes
previsto
previstos
previstu
previu
prexuicios
prexuiciu
pri
price
pride
priestley
prieto
prietu
prima
primaci
primaria
primaries
primarios
primariu
primates
primavera
prime
primer
primera
primeramente
primeres
primero
primeros
primeru
primes
primetime
primi
primio
primir
primitiva
primitives
primitivos
primitivu
primo
primordial
primordialmente
primos
primoxe
primu
prince
princesa
princeses
princess
princeton
principa
principal
principales
principalmente
principaos
principio
principios
principiu
prinda
prindada
prindaes
prindando
prindaos
prindar
prindaron
prinden
prindo
print
prior
priori
priorida
prioridaes
prisio
prisioneros
prisioneru
prisma
priva
privacida
privacio
privada
privaes
privaos
private
privatizacio
privilexa
privilexada
privilexos
privilexu
prix
prize
pro
proa
proba
probabilida
probabilidaes
probable
probablemente
probada
probar
probe
probes
probeza
problem
problema
problemes
probo
proc
procede
proceden
procedencia
procedente
procedentes
proceder
procedi
procedimientos
procedimientu
proceedings
procesa
procesador
procesadores
procesamientu
procesaos
procesar
procesio
procesiona
procesional
procesiones
proceso
procesos
procesu
procla
proclama
proclamacio
proclamada
proclamar
proclamaron
proclamase
proclamo
procurador
procuradores
procuro
prodromus
produ
produccio
producciones
producen
produci
producida
producie
produciendo
producieron
producio
producir
produciri
producise
production
productions
productivida
productor
productora
productores
productos
products
productu
produxera
produz
produza
produzse
prof
profeci
profesional
profesionales
profesionalismo
profesionalmente
profesor
profesora
profesores
professional
professor
profeta
profetes
profile
program
programa
programacio
programada
programar
programes
progresio
progresista
progresistes
progresiva
progresivamente
progresivu
progreso
progresos
progress
progresu
prohibe
prohibi
prohibicio
prohibida
prohibio
prohibir
project
proletaria
proli
proliferacio
promediando
promedio
promediu
promesa
promeses
promete
prometedor
prometeo
prometi
prometida
prometio
prominente
prominentes
promocio
promociona
promocional
promocionales
promocionar
promociones
promotor
promotores
promover
promovi
promovida
promoviendo
promovio
promueve
promueven
promulga
promulgacio
promulgada
promulgo
prono
pronome
pronomes
pronu
pronuncia
pronunciacio
pronunciada
pronunciar
pronuncio
propaganda
propagandi
proper
properties
property
propia
propieda
propiedad
propiedaes
propies
propietaria
propietarios
propietariu
propio
propios
propiu
propo
proponen
proponer
proponi
proponiendo
proporcio
proporcional
proporcionalmente
proporciones
proposicio
proposiciones
propu
propuesta
propuestes
propuestos
propuestu
propulsio
propunxe
propunxeron
propunxo
prosa
prosiguio
prosiguir
prosperida
prost
prostitucio
prostituta
prostitutes
protagonismu
protagonista
protagonistes
protagoniza
protagonizada
protagonizando
protagonizar
protagonizaron
protagonizo
protection
protectora
protei
proteicio
protesta
protestante
protestantes
protestantismu
protestar
protestes
protesto
proteutor
proteutora
proteutores
protexe
protexen
protexer
protexese
protexi
protexida
proto
protocolos
protocolu
protones
prototipos
prototipu
protour
provechu
proveni
proveniente
provenientes
provenir
provenza
providence
providencia
provie
provienen
province
provincia
provincial
provinciales
provincies
provisio
provisional
provisionalmente
provisiones
provisor
provisores
provisorio
provistu
provoca
provocada
provocaes
provocando
provocaos
provocar
provocari
provocaron
provoco
provoquen
proxenitores
proximida
proximidaes
proyeicio
proyeiciones
proyeuta
proyeutada
proyeutar
proyeutil
proyeutiles
proyeuto
proyeutos
proyeutu
prudencia
prudente
prueba
pruebes
prunus
prusia
prusiana
prusianos
prusianu
ps
psa
psc
pse
pseudo
psg
psi
psico
psicoana
psicoanali
psicolo
psicoloxi
psicosis
psilon
psiquia
psiquiatra
psiquiatri
psoe
psp
psula
psules
psv
psychiatry
psychology
pt
ptase
pterido
pteros
pteru
ptica
ptico
pticos
pticu
ptidos
ptima
ptimo
ptimu
ptiques
ptolomeo
pu
pub
puberta
pubescentes
publ
public
publica
publicacio
publicaciones
publicada
publicaes
publicando
publicaos
publicar
publicara
publicaron
publication
publications
publicida
publicitaria
publicitaries
publicitarios
publicitariu
publico
published
publishers
publishing
puccini
pudie
pudiendo
pudiera
pudieren
pudieron
pudo
pue
puebla
pueblo
pueblos
pueblu
pueda
puedan
puede
pueden
puedes
puedo
puen
puente
puercu
puerta
puertes
puerto
puertorriquen
puertos
puertu
pues
puesta
puestes
puesto
puestos
puestu
puexu
pueyrredo
puig
pujol
pula
pules
pulgaes
pulgar
pulgu
pulitzer
pulmo
pulmonar
pulmonares
pulmones
pulos
pulp
pulsu
pulu
puma
pumar
pumas
pun
puna
punk
puno
punta
puntaje
puntes
punto
puntos
puntu
puntuacio
puntuaciones
puntual
puntuales
puntuar
punxe
punxera
punxeron
punxo
punyab
pupa
puppis
pura
puramente
pure
pures
pureza
purga
puri
purificacio
puro
puros
purple
purpu
puru
putin
puxanza
puxu
puy
puya
puyes
px
python
q
qa
qaeda
qatar
qi
qin
qing
qquad
qu
quad
quality
quan
quarks
quarterback
quarterly
que
quebec
quebra
quebrada
quebrar
quebres
quebro
quechua
queda
quedaba
quedaben
quedando
quedar
quedara
quedaren
quedari
quedaron
quedase
quede
queden
quedo
queen
queens
queensland
queer
queipo
queiroz
quel
quema
quemada
quemadures
quemaos
quemar
quemes
quense
quentin
quer
quercus
quere
queremos
querer
queri
queriendo
quesada
quese
quesos
quest
question
quesu
quetzalco
quetzaltenango
quevedo
quexa
quexal
quexales
quexar
quexes
quez
qui
quiche
quiciabes
quick
quida
quido
quidos
quidu
quie
quiebra
quien
quier
quiera
quieren
quiero
quies
quilmes
quilo
quilos
quimioterapia
quin
quina
quince
quincy
quines
quinientos
quinn
quinta
quintana
quintanar
quintanilla
quintero
quintetu
quintos
quintu
quiro
quiroga
quiru
quita
quitando
quitar
quiten
quito
quitu
quixera
quixeren
quixeron
quixo
quixote
quo
r
ra
rabanera
rabat
rabbit
rabe
rabes
rabi
rabia
rabiones
rabos
rabu
race
races
racha
rachel
racial
raciales
racing
racional
racionales
racionalida
racionalismu
racismu
racista
rada
radar
radares
radcliffe
radiacio
radiaciones
radial
radiales
radical
radicales
radicalismu
radicalmente
radio
radiodifusio
radiofo
radios
radioterapia
radiu
rae
raf
rafael
rage
ragusa
rahman
rai
raiders
raigan
rail
railway
raimundo
rain
rainbow
rainer
raio
raj
rajoy
rally
ralph
ralu
ram
rama
ramal
ramales
ramanujan
rambla
rami
ramifica
ramificaciones
ramines
ramiro
ramo
ramon
ramos
rampla
ramples
ramsar
ramse
ramu
ran
ranchu
randall
randolph
random
randy
range
ranger
rangers
rangos
rangu
ranking
ranunculus
ranura
raoul
rap
rapaza
rapazos
rapazu
raperu
rapid
rapidez
raptors
raquel
raquis
rara
raramente
rard
rares
raros
raru
ras
rascacielos
rase
rashid
rasmussen
rastros
rastru
rasu
rat
rate
ratifica
ratificacio
ratificada
ratificar
ratifico
ratio
ration
ratu
rau
raven
raw
rax
raxo
ray
raya
rayes
rayleigh
raymond
rayo
rayos
rayu
raza
razo
razonable
razonamientu
razones
rb
rbara
rbaros
rbenz
rbita
rbites
rbitros
rbitru
rbol
rboles
rc
rca
rcase
rcd
rcega
rcel
rceles
rchb
rcitos
rcitu
rcn
rcoles
rcules
rculos
rculu
rd
rda
rdase
rdenas
rdenes
rdese
rdica
rdicos
rdicu
rdoba
rdova
re
rea
reaccio
reacciona
reaccionar
reaccionen
reacciones
reacciono
reactivos
reactor
reactores
read
reader
reading
ready
reagan
reaicio
reaiciones
real
realcuentru
realengu
reales
realeza
reali
realice
realicen
realida
realidaes
realismu
realista
realistes
reality
realiza
realizaba
realizaben
realizacio
realizaciones
realizada
realizador
realizaes
realizando
realizaos
realizar
realizara
realizaren
realizari
realizaron
realizase
realizo
really
realmente
reas
reason
rebalba
rebalbes
rebalbos
rebalbu
rebeca
rebecca
rebel
rebelde
rebeldes
rebeldi
rebelio
rebeliones
rebotes
rec
reca
recaldacio
recaldando
recaldar
recaldo
recarga
recayo
receicio
recepta
receptor
receptores
recesio
receso
receta
recetes
reci
recibe
reciben
recibi
recibida
recibiendo
recibiera
recibieren
recibieron
recibio
recibir
recibiri
recie
recife
recintu
recipiente
recipientes
recital
recitales
reclama
reclamaba
reclamacio
reclamaciones
reclamando
reclamar
reclamo
reclamos
reclamu
reclusio
reclutamiento
reclutar
reclutes
recluyi
recomendable
reconciliacio
recono
reconocen
reconocencia
reconocencies
reconocer
reconoci
reconocible
reconocibles
reconocida
reconociendo
reconocieron
reconocio
reconoz
reconquista
reconquistar
reconstruccio
reconstruyi
reconstruyida
reconstruyir
reconstruyo
recopa
recopilatorio
recopilatorios
record
recorda
recordaba
recordada
recordando
recordar
recording
recordo
records
recoyendo
recoyer
recoyi
recoyida
recoyo
recre
recreacio
recrear
recreativa
recreatives
recta
rectangular
rectangulares
rectes
rector
rectora
rectores
rectu
recue
recuentu
recuerda
recuerden
recueya
recueye
recueyen
recular
recupera
recuperacio
recuperada
recuperando
recuperar
recuperaron
recuperase
recupero
recurrente
recurrentes
recurrio
recurrir
recursos
recursu
red
redacta
redactar
redacto
redactor
redaicio
rede
redencio
redes
redford
redisen
redol
redolada
redolaes
redoma
redonda
redondes
redondo
redondu
reed
reeder
reedicio
reedita
reeleccio
reelecto
reeleicio
reelixi
reemplaza
reemplazada
reemplazando
reemplazaos
reemplazar
reemplazo
reemplazu
rees
reestablecimientu
reestructuracio
reeves
ref
refecha
refere
reference
referencia
referencies
referendu
referente
referentes
referi
referida
referinos
referir
referise
refie
refier
refieren
refierse
refina
refineri
refirie
refirio
reflexa
reflexaba
reflexada
reflexar
reflexen
reflexivu
reflexo
reflexones
reflexos
reflexu
reforma
reformada
reformador
reformar
reformes
reformista
reformistes
reformo
reforza
reforzada
reforzar
reforzo
refraicio
refrigeracio
refuerzos
refuerzu
refuga
refugaba
refugaben
refugada
refugaes
refugando
refugaos
refugar
refugara
refugaron
refugayes
refugo
refugu
refuguen
refundacio
refundia
refundiar
refundio
refuxaos
regacio
regadi
regala
regalo
regalos
regalu
regatu
reggae
regia
regina
regio
region
regis
regla
reglamentacio
reglamentariu
reglamentos
reglamentu
regles
regni
regresio
regresu
regueros
regueru
regula
regulacio
regulaciones
regulada
regulador
reguladores
regular
regulares
regularida
regularmente
regulen
rehabilitacio
rehenes
rei
reich
reichstag
reid
reigns
reilly
reims
reina
reinales
reinante
reinaos
reinar
reines
reinicio
reino
reinos
reinu
reis
reivindicacio
reivindicaciones
related
relations
relationships
relativa
relativamente
relatives
relativida
relativista
relativo
relativos
relativu
relaxacio
release
releva
relevancia
relevante
relevantes
relevos
relevu
relief
relieve
relieves
religion
reliquia
reliquies
relixo
relixones
relixosa
relixoses
relixosida
relixoso
relixosos
relixosu
rellacio
rellaciona
rellacionada
rellacionaes
rellacionaos
rellacionar
rellacionase
rellacionen
rellaciones
rellaciono
rellata
rellato
rellatos
rellatu
rellenu
relluma
rellumanza
rellumu
relo
remake
remana
remanar
remanecen
remanecer
remanecio
remanente
remanez
remata
rematada
remataes
rematando
rematar
rematara
rematari
remataron
remate
rematen
remato
remberg
rembrandt
remedios
remediu
remember
remembra
remexu
remix
remixes
remo
remocica
remodelacio
remonta
remontada
remontar
remontase
remonto
remortines
remota
remotes
remotos
remotu
remover
removi
remu
remuneracio
ren
renacencia
renacentista
renacentistes
renacimientu
renaissance
renal
renania
renato
renault
rendimientos
rendimientu
rene
renfe
rennes
reno
renombra
renombrada
renombro
renovacio
rense
rensi
renski
rent
renta
rentabilida
rentable
rentes
reo
reorganizacio
reorganizar
reorganizo
reos
rep
repara
reparada
reparaes
reparando
reparaos
reparar
repararon
reparase
reparen
reparo
repartida
repartu
repeler
repentina
repercusio
repercusiones
repertoriu
repeticio
repetidamente
repite
repiti
repitida
repitiendo
repitio
repitir
repitiri
repitise
replicacio
repoblacio
reponer
report
reporta
reportaron
reportaxe
reportaxes
reporte
reporter
reportera
reporteros
reporteru
reportes
reporto
reports
reposteri
reposu
represa
represalia
represalies
represe
representa
representaba
representaben
representacio
representaciones
representada
representaes
representando
representante
representantes
representaos
representar
representari
representaron
representase
representativa
representatives
representativos
representativu
representen
represento
represio
reprimi
reprimir
reproduccio
reproducciones
reproduci
reproducir
reproducise
reproductiva
reproductivu
reproductor
reproductores
reproduz
reproduzse
repsol
reptiles
repu
republic
republica
republicana
republicanes
republicanos
republicanu
reputacio
requerimientos
requerimientu
require
required
requisitos
requisitu
res
resalta
resaltar
rescampla
rescata
rescatar
rescate
rese
research
resen
reserva
reserves
resfrego
residencia
residencial
residenciales
residencies
resident
residente
residentes
residual
residuales
residuos
residuu
resina
resistencia
resistencies
resistente
resistentes
resolucio
resoluciones
resolver
resolvese
resolvimientos
resolvimientu
resolvio
resonancia
resort
resources
respaldu
respecta
respective
respectu
respeta
respetando
respetar
respetu
respeutiva
respeutivamente
respeutive
respeutives
respeutivos
respeutivu
respeuto
respeutu
respiracio
respiratoria
respiratories
respiratoriu
responder
respondi
respondiendo
respondieron
respondio
responsabilida
responsabilidaes
responsable
responsables
respuende
respuenden
respuesta
respuestes
resquiebros
resta
restablecer
restablecio
restante
restantes
restaura
restauracio
restaurada
restaurar
restauro
restora
restoranes
restos
restrepo
restriccio
restricciones
restu
resucita
resuelta
resueltu
resuelve
result
resulta
resultaba
resultancia
resultancies
resultando
resultante
resultantes
resultaos
resultar
resultari
resultaron
resulten
resultes
resulto
results
resume
resumen
resumir
resurdimientu
resurdir
resurreccio
resurreicio
ret
retablos
retablu
retaguardia
retardar
retardo
retayos
retencio
retener
reteni
reti
retina
retira
retirada
retiraes
retiraos
retirar
retirara
retiraron
retirase
retiro
retiru
reto
retoma
retomar
retomo
retorna
retornar
retorno
retos
retrasa
retrasar
retraso
retrasos
retrasu
retrata
retratar
retrato
retrieved
retro
retrocesu
retruque
retruques
retu
return
returns
retuvo
reu
reumatismu
reunificacio
reunio
reus
reuters
rev
revancha
reve
reveal
revela
revelacio
revelaciones
revelando
revelar
revelaron
revelen
revelo
revenge
reverendu
revertir
revesosa
revesosu
revestimiento
review
reviews
revisa
revisada
revisar
revised
revisio
revision
revisiones
reviso
revista
revistes
revisti
revitalizacio
revival
revo
revolucio
revolucionaria
revolucionaries
revolucionarios
revolucionariu
revoluciones
revolution
revue
revuelta
revueltes
rex
rexa
rexencia
rexeneracio
rexente
rexentes
rexi
rexidor
rexidores
reximientos
reximientu
rexir
rexistra
rexistrada
rexistraes
rexistraos
rexistrar
rexistraron
rexistren
rexistro
rexistros
rexistru
rexo
rexonal
rexonales
rexonalista
rexones
rey
reyes
reynolds
rez
reza
rezar
rfa
rfanos
rfc
rgamo
rganos
rganu
rgase
rgb
rgen
rho
rhode
rhodes
rhythm
ri
ria
riaa
rian
riba
ribayos
ribayu
ribeiro
ribera
riberes
ribeseya
ric
rica
ricamente
ricardo
ricardu
ricas
ricci
rice
rich
richard
richards
richardson
richelieu
richie
richmond
richter
rick
ricky
rico
ricos
ricu
rida
ride
rider
rides
ridge
ridgely
ridley
ridos
rie
riega
riego
riegos
riegu
riemann
riendes
riera
riesco
riesgos
riesgu
riestra
rif
rifle
riga
right
rightarrow
rights
rigor
rigorosa
rigorosu
rigos
rigu
rihanna
riley
rima
rimada
rimes
rin
rinco
rincones
rinde
rindi
rindicio
rindie
rindio
rindir
rindise
ring
ringo
rings
rinoceronte
rio
rioja
riola
rioplatense
riot
rioxa
rique
riqueces
riquelme
riquen
riques
riqueza
riqui
riquida
riquio
riquir
rir
risa
rise
rises
risible
risibles
rising
risio
risk
risonderu
rita
ritmos
ritmu
rito
ritos
ritter
ritu
ritual
rituales
riva
rivadavia
rival
rivales
rivalida
rivalidaes
rivas
river
rivera
rivero
rivers
rix
rixe
rixen
rixidez
riz
rizoma
rk
rko
rm
rmacos
rmacu
rmase
rmense
rmica
rmico
rmicos
rmicu
rminos
rminu
rmiques
rmol
rmula
rmules
rn
rnase
ro
roa
roach
road
rob
roba
robar
robbie
robbins
robert
roberto
roberts
robertson
robin
robinson
robla
roblada
roblando
roblaos
roblar
roblara
roblaron
roblen
robles
roblo
robo
robos
robot
robots
robson
robu
robusta
robustu
roca
rocea
rocha
roche
rochester
roci
rock
rockefeller
rocket
rockets
rockstar
rocky
rococo
rod
roda
rodada
rodando
rodar
rodas
rodaxe
rodesia
rodgers
rodi
rodiada
rodiu
rodney
rodo
rodolfo
rodoreda
rodri
rodrigo
rodrigues
rodriguez
roe
roerich
roes
rogelio
roger
rogers
roi
roig
roja
rojas
rol
rola
roland
rolando
rolda
role
roles
rolf
roll
rolling
rollins
rollos
rolls
rollu
rom
roma
romain
roman
romana
romance
romances
romanes
romani
romanizacio
romano
romanos
romanticismu
romanu
rome
romeo
romeri
romero
romeru
rommel
romper
rompiendo
rompieron
rompio
ron
ronald
ronaldo
ronda
rondes
rondo
rongo
ronlu
ronnie
ronse
roo
rookie
rookies
room
rooney
roosevelt
root
roots
ropa
ropes
roque
roques
ros
rosa
rosada
rosado
rosal
rosales
rosali
rosarina
rosario
rosariu
rosas
rosberg
rose
rosemary
rosen
rosenberg
roses
roseta
ross
rossi
rossini
rosso
rostov
rota
rotacio
roth
rothschild
rotonda
rotor
rotos
rotten
rotterdam
rotu
rotundamente
rotura
rouen
rouge
round
rousseau
route
routledge
rouy
rov
rover
rovira
row
roxa
roxb
roxu
roxura
roy
royal
royale
royce
royedor
royedores
rozas
rpatos
rpg
rpm
rprete
rpretes
rpura
rquez
rquica
rquicos
rquicu
rquiques
rr
rrafu
rraga
rrase
rre
rrese
rrez
rrocu
rroga
rs
rsicu
rss
rsssf
rsula
rt
rta
rtaros
rtaru
rtase
rte
rtebres
rtel
rtense
rter
rtese
rtica
rtices
rtico
rticos
rticu
rtida
rtil
rtiles
rtiques
rtir
rtires
rtiz
rtov
rtve
ru
ruanda
rube
rubens
rubi
rubia
rubiaceae
rubin
rubio
ruby
rudolf
rudolph
rudy
rue
rueda
ruedes
ruempe
rufino
rufus
rugbi
rugby
rui
ruina
ruines
ruios
ruiu
ruiz
rula
rule
rules
rum
rumana
rumani
rumanos
rumanu
rumble
rumor
rumores
run
runaways
runes
runner
running
rupert
rupestre
rupestres
rural
rurales
rus
rusa
ruses
rush
rusia
ruso
rusos
russell
russia
russian
russo
rusu
ruta
rutes
ruth
rutherford
rutina
rxal
rxenes
rxica
rxicos
rxicu
rxiques
ry
ryan
ryanair
ryder
ryu
s
sa
saa
saavedra
saba
sabadell
sabah
sabana
sabanes
sabbath
sabe
sabela
sabemos
saben
saber
sabi
sabiduri
sabiendo
sabina
sabios
sabiu
sable
sablera
sableres
sables
sabor
sabores
saboya
sabrina
saca
sacando
sacante
sacantes
sacar
sacaron
sacc
sacerdociu
sacerdotal
sacerdote
sacerdotes
sachs
saco
sacos
sacra
sacramento
sacramentos
sacramentu
sacrificar
sacrificios
sacrificiu
sacristi
sacru
sacu
sacupaos
sacupar
sad
sadam
sadat
safar
safari
safety
saga
sagan
sagittarii
sagra
sagrada
sagraes
sagrao
sagraos
sagrariu
sagues
sah
sahagu
sahara
sahel
sai
said
sailor
saint
sainte
saints
sainz
saitama
sake
sakura
sal
sala
saladino
salamanca
salao
salar
salarial
salarios
salariu
salas
salazar
salcedo
saldan
saldar
saldri
saldu
sale
saleando
salem
salen
saleo
salerno
sales
sali
salida
saliendo
saliente
saliera
salieron
salime
salinas
salines
salio
salir
salisb
salisbury
salix
salle
sally
salmantinos
salmo
salo
salome
salomo
salones
salsa
salt
salta
saltar
salten
salto
saltos
saltu
salu
saludable
saludu
salva
salvacio
salvador
salvadoren
salvamentu
salvando
salvar
salvase
salvatierra
salve
salvia
salvo
salvu
salzburgu
sam
sama
samantha
samarti
same
sami
sammy
samoa
samos
samsung
samuel
samura
san
sana
sanabria
sanamientu
sancha
sancho
sancio
sanciona
sancionada
sanciones
sanciono
sand
sandbox
sanders
sandinista
sandoval
sandra
sandro
sands
sandwich
sandy
saneamientu
sang
sangra
sangre
sangrienta
sangrientu
sangui
sanguineu
sanida
sanitaria
sanitaries
sanitarios
sanitariu
sanji
sanlu
sanos
sanremo
sans
sant
santa
santalla
santamari
santana
santander
santes
santi
santiago
santiagu
santiba
santida
santillana
santo
santolaya
santos
santu
santuarios
santuariu
santuyano
sanu
sanz
sao
saona
sapiens
sapporo
saprissa
saque
saqueos
sar
sara
sarah
sarayevu
sarco
sardu
sares
sarkozy
sarmiento
sarre
sarria
sartre
sarxentu
sas
sasa
sase
sasha
saskatchewan
sastre
sata
sate
satelital
satellite
sati
satisfactoria
satisfaer
satisfai
satisfechu
sativa
sato
saturacio
saturday
saturn
saturno
saturnu
sau
sauber
sauce
saudi
saudita
saul
saura
savage
save
saw
sawyer
saxifraga
saxo
saxofo
saxon
saxones
saxonia
say
sayago
says
sbs
sc
scala
scale
scalemajor
scaleminor
scar
scarlet
scase
scene
scheme
schengen
schiller
schindler
schleck
schleswig
schmidt
schneider
scho
school
schro
schulenberg
schult
schumacher
schumann
schur
schuster
schwartz
sci
science
sciences
scientific
sclater
score
scorsese
scotland
scott
scottish
scout
scouts
scratch
scream
screen
script
scriptstyle
scula
scules
sculos
sculu
sd
se
sea
seal
sean
search
seas
season
seasons
seat
seattle
sebastia
sebastian
sec
seca
secanu
secesio
seco
second
seconds
secos
secrecio
secret
secreta
secretamente
secretari
secretaria
secretarios
secretariu
secretes
secretos
secrets
secretu
secta
sectes
section
sector
sectores
secu
secuela
secuencia
secuencies
secuestra
secuestraos
secuestru
secular
seculares
secunda
secundaria
secundaries
secundarios
secundariu
security
secute
seda
sede
sedes
sedimentos
sedra
sedri
seds
see
seed
sega
segismundo
segmentacio
segmentos
segmentu
segovia
segregacio
segu
segunda
segundes
segundo
segundos
segundu
segura
segures
segurida
seguro
seguros
seguru
sei
seicio
seiciones
seine
seinfeld
seique
seis
seixeles
seiya
sel
sele
seleccio
seleccionador
seleccionaes
select
selected
selectiva
selectivu
seleicio
seleiciones
selemente
seles
self
sella
sello
sellos
sellu
selmana
selmanal
selmanales
selmanariu
selmanes
selo
selva
selvaxe
selvaxes
selves
selyu
sema
semar
semen
semestre
semeya
semeyances
semeyanza
semeyes
semi
semia
semicircular
semiconductor
semiconductores
semifinal
semifinales
seminarios
seminariu
semio
sen
sena
senador
senadora
senadores
senciella
sencielles
senciellos
senciellu
senderismo
senderos
senderu
senegal
sengoku
senior
senna
sennen
sennett
senos
sensacio
sensaciones
sense
sensibilida
sensible
sensiblemente
sensibles
sensor
sensores
sensorial
sensoriales
sensu
senta
sentada
sentaos
sentar
sentase
sentencia
sentencies
senti
sentimental
sentimientos
sentimientu
sentir
sentise
sento
senu
seo
seos
sep
separa
separacio
separada
separaes
separaos
separatistes
sept
september
septentrional
septentrionales
sepu
sepulcros
sepulcru
sepultura
sequences
seques
ser
sera
serbia
serbies
serbios
serbiu
serena
serenes
seres
serge
sergio
sergue
seri
seria
serial
seriamente
serie
series
serio
serios
seriu
sermo
sermones
serna
sero
seronda
serotonina
serpentis
serra
serrani
serrano
service
services
servicios
serviciu
servidor
servidores
servidume
ses
sese
sesenta
sesgu
sesio
sesiones
sesta
sestu
set
setenta
seth
setiembre
sets
seu
seudo
seven
severa
severamente
severes
severida
severos
severu
sevilla
sevillana
sevillanu
sex
sexos
sexta
sexu
sexual
sexuales
sexualida
sexualmente
sexy
seya
seyan
seymour
sf
sfera
sforu
sforza
sg
sh
sha
shadow
shadows
shah
shakespeare
shan
shandong
shane
shang
shanghai
shanks
shannon
shaolin
shara
shark
sharon
sharp
sharpe
shaw
shawn
she
sheffield
shek
sheldon
shell
shelley
shemp
shepherd
sherlock
sherman
shetland
shi
shichibukai
shield
shift
shin
shirley
shiva
shizuoka
sho
shock
shogunato
shop
shore
short
shot
should
show
shows
shtml
shu
shun
shuttle
si
sia
siam
siberia
sic
sica
sicamente
sicasi
sichuan
sicilia
sicilianu
sicilies
sico
sicode
sicos
sicoterapia
sicu
sid
sida
side
sideru
sides
sidi
sidney
sido
sidos
sidra
sie
sieglos
sieglu
siella
sielles
siemens
siempre
siempres
siena
sienda
siendo
siente
sienten
siero
sierra
sierres
siervos
siete
sietestrellu
sig
siga
sigan
sigles
siglo
siglos
sigma
sigmund
sign
significa
significaba
significacio
significando
significaos
significar
significari
significativa
significativamente
significatives
significativos
significativu
significo
signifiquen
signos
signu
sigo
sigu
sigue
siguen
sigui
siguida
siguidor
siguidores
siguie
siguiendo
siguiente
siguientes
siguiera
siguieren
siguieron
siguimientu
siguio
siguir
siguiri
siguise
sii
sil
sila
silence
silenciu
silent
siles
silesia
siliciu
sillares
silleri
silos
silu
silva
silver
silverman
silverstone
silvia
silvio
sim
sima
simancas
simbad
simbo
simbolicen
simbolismu
simboliza
simboloxi
sime
simeo
simes
simetri
similar
similares
simmons
simo
simon
simone
simos
simpa
simpati
simpatizantes
simple
simples
simplicida
simplifica
simplificacio
simplificar
simpson
simpsons
sims
simu
simulacio
simulta
sin
sina
sinagoga
sinai
sinaloa
sinatra
since
sinclair
sindical
sindicales
sindicalismu
sindicalista
sindicalistes
sindicatos
sindicatu
sine
sinensis
sinfo
sinfoni
sing
singapore
singapur
singer
singh
single
singles
singular
singulares
singularida
sinn
sino
sinonimia
sinople
sinopsis
sinta
sintagma
sintaxis
sinte
sintetizador
sintetizadores
sintetizar
sintie
sintio
sio
sionismu
siques
siquier
sir
siracusa
siri
siria
siries
sirios
siriu
sirve
sirven
sirvi
sirvidor
sirviendo
sirvientes
sirviera
sirvieron
sirvio
sirvir
sirviri
sis
siste
sistema
sistemes
sister
sisters
sit
sita
sitcom
site
sites
sitio
sitiodeciclismo
sitios
sitiu
sito
sitos
sitta
situ
situacio
situaciones
six
sixto
size
sk
ska
sketch
sketches
ski
skin
skinner
sky
sl
slam
slave
sleep
slim
sm
smackdown
small
smart
smash
smetana
smica
smicos
smicu
smith
smithsonian
smo
smos
smu
sn
snake
snl
snoop
snow
snyder
so
soares
soberana
soberani
soberanos
soberanu
sobieski
sobornos
sobre
sobredosis
sobremanera
sobremesa
sobrenatural
sobrenaturales
sobresal
sobresalen
sobresaliente
sobresalientes
sobrevive
sobreviven
sobrevivencia
sobreviviente
sobrevivientes
sobrevivieron
sobrevivio
sobrevivir
sobri
sobrina
sobrinos
sobro
soc
soccer
socede
socedi
socesio
socesiones
socesivamente
socesives
socesivos
socesor
socesora
socesores
sochi
social
socialdemo
sociales
socialismu
socialista
socialistes
socializacio
socialmente
socialrevolucionarios
socie
socieda
sociedad
sociedade
sociedaes
societa
society
socio
socioecono
sociollingu
sociolo
socioloxi
socios
sociu
socorru
soda
sodiu
sodomi
sofa
sofes
sofi
sofia
sofita
sofitaba
sofitaben
sofitada
sofitaes
sofitando
sofitaos
sofitar
sofitara
sofitaron
sofiten
sofito
sofitos
sofitu
sofos
software
sofu
soi
soil
sol
sola
solamente
solana
solanaceae
solano
solanum
solar
solares
solda
soldadura
soldaos
soldier
sole
soleda
soledad
solemne
soler
soles
soli
solicita
solicitando
solicitar
solicitara
solicitaron
solicito
solicitu
solid
solidarida
solidez
solista
solistes
solitaria
solitaries
solitarios
solitariu
sollerte
sollin
solliviar
solmena
solmeno
solo
solombra
solombres
solomon
solos
solsticiu
soltera
solteros
solteru
soltis
solu
soluble
solucio
solucionar
soluciones
soma
somalia
sombreros
sombreru
some
somerset
someter
sometese
something
someti
sometida
sometimientu
sometio
somiedo
somme
somorguia
somorguiada
somos
son
sonadi
sonar
sonata
sonates
sonda
sondes
song
songs
soni
sonia
sonic
sonny
sono
sonora
sonores
sonorida
sonoru
sons
sony
soo
sopa
sopes
sophia
sophie
sopla
soporta
soportar
soporte
soporten
soportes
sopranos
sopranu
sor
sorbona
sorda
sordes
sordos
sordu
soria
soriano
sorprendente
sorpresa
sorpresivamente
sorrisa
sorte
sos
sosa
sospechosos
sospechosu
sosprendentemente
sosprender
sosprendi
sosprendio
soste
sostener
sosteni
sostenibilida
sostenible
sostenida
sosteniendo
sostie
sostienen
sostuvieron
sostuvo
sosuelu
sotelo
soterra
soterrada
soterran
soterraos
soterrar
soto
sotobosque
sotomayor
sotu
soul
sound
soundtrack
source
sources
sous
sousa
south
southampton
southern
southwest
souza
sov
sovie
soviet
soya
soyuz
sp
spa
space
spain
spanish
sparrow
spartak
spd
spears
special
species
spede
spedes
speech
speed
speer
spence
spencer
spera
speru
sphingidae
spice
spider
spielberg
spike
spin
spirit
spirou
split
spora
spores
sport
sporting
sports
spp
spreng
spring
springer
springfield
springs
sprint
spurs
sputnik
spy
sqrt
squad
square
squez
sr
sra
sri
ss
sseldorf
ssp
st
sta
stade
stadium
staff
stage
stalin
stamos
stamu
stan
stand
standard
stanford
stanley
stanton
stapf
star
stark
starr
stars
start
stas
stase
stata
state
states
station
statistics
statu
status
staudinger
ste
steam
steampunk
steel
steelers
stefan
stefano
stein
steiner
stella
stellar
stenes
stense
step
stephanie
stephen
stephens
ster
stereo
steres
sterling
stern
stes
steud
steve
steven
stevens
stevenson
stevie
stewart
sti
stica
sticamente
sticas
stico
sticos
sticu
stil
stiles
still
sting
stiques
stirner
sto
stock
stokes
stol
stola
stoles
stone
stones
stonewall
stop
stor
store
storia
stories
storm
story
stos
str
straight
strange
stranger
strase
strauss
streaming
streep
street
streets
streisand
strense
strike
strikes
string
strip
strofe
strong
structure
sts
stu
stuart
student
studi
studies
studio
studios
study
stula
stuma
stumamente
stumu
stur
stures
stuttgart
style
su
sua
suabia
suan
suazilandia
sub
subaru
subcampeo
subcampeona
subcampeonatu
subclase
subcontinente
subconxuntu
subdividir
subdivisio
subdivisiones
subespecie
subespecies
subfamilia
subfamilies
subgrupos
subgrupu
subleva
sublime
submari
submarina
submarinos
suborde
subordina
subordinacio
subordinada
subordinaes
subordinaos
subsah
subsecretariu
subsidiaria
subsidios
subsiguiente
subsistencia
subsp
subti
subtribu
subtropical
subtropicales
suburbios
suburbiu
subvenciones
subxacente
subxe
subxigante
subxigantes
success
sucesos
sucesu
such
sucre
sucursal
sud
suda
sudafricana
sudafricano
sudame
sudamericanu
sudeste
sudoeste
sue
sueca
suecia
suecos
suecu
suegru
suel
sueldos
sueldu
suelen
sueli
suelos
suelse
suelta
sueltos
suelu
suen
suena
sueques
suerte
sueru
suetonio
suevos
suez
sufi
suficiente
suficientemente
sufierta
sufiertes
sufixos
sufixu
sufraxos
sufraxu
sufre
sufren
sufri
sufriendo
sufriera
sufrieron
sufrimientu
sufrio
sufrir
sugar
sui
suicida
suicidase
suicides
suicidiu
suicido
suite
suiza
suizos
suizu
sul
sula
sulevacio
sulevaos
sulfatu
sulfu
sullivan
sulta
sultanatu
sultanes
sum
suma
sumaben
suman
sumando
sumar
sumaron
sumase
sumatra
sume
sumen
sumeria
sumes
sumi
sumida
sumiendo
sumiera
sumieron
suministra
suministrar
suministros
suministru
sumio
sumir
sumisio
summary
summer
summers
sumo
sumu
sun
sundance
sunday
sunderland
sung
sunny
suns
sunset
sunshine
supe
super
supera
superaba
superacio
superada
superando
superar
superaron
supercopa
superen
superfamilia
superfamily
superficial
superficiales
superficie
superficies
superhe
superior
superiores
superiorida
superliga
superman
supermercaos
supernova
supero
superposicio
superso
supervisa
supervisar
supervisio
superviso
supervisor
superxigante
superxigantes
supieron
suplementos
suplementu
suplente
suplentes
supo
supondri
suponen
suponer
suponi
suponiendo
suppl
support
suprema
supremaci
supremu
supresio
suprimi
suprimio
suprimir
supuesta
supuestamente
supuestes
supuestos
supuestu
supunxeron
supunxo
sur
surame
suramericana
suramericanes
suramericanos
suramericanu
surcoreana
surde
surden
surdi
surdida
surdiendo
surdieron
surdimientu
surdio
surdir
suren
sureste
surf
surinam
suroccidental
suroeste
suroriental
surrealismu
surrealista
surrey
survey
survival
survivor
sus
susa
susan
susana
susceptible
susceptibles
suscripcio
suspender
suspendi
suspendida
suspendio
suspense
suspensio
suspensu
sussex
sustances
sustancia
sustancial
sustanciales
sustancialmente
sustantivos
sustantivu
sustentu
sustitu
sustitucio
sustitutu
sustituye
sustituyendo
sustituyi
sustituyida
sustituyir
sustituyo
sustratu
sutherland
sutil
suxecio
suxerencia
suxerencies
suxeta
suxetar
suxetes
suxetiva
suxetos
suxetu
suxuntivu
suxure
suxuren
suxuri
suxuriendo
suxurieron
suxurio
suxurir
suya
suyos
suyu
suzanne
suzuki
sv
svg
sw
swan
swansea
sweet
swift
swing
switch
sword
sydney
sylvestris
sylvia
symbol
syn
syst
system
systema
systematic
systematics
systems
t
ta
taba
tabacu
tabasco
tabayones
taben
tabla
table
tableru
tables
tablillas
tabu
tacna
tactu
taekwondo
tag
tagle
tahiti
tai
taifa
taifas
tail
tailande
tailandia
taipe
taiwa
taiwan
taj
tajo
take
takeda
takes
tal
tala
talavera
talaya
talbot
tale
talent
talentos
talentu
tales
talk
talking
talla
tallada
tallaes
tallaos
taller
talleres
talles
talli
talmud
talo
talos
talu
taman
tamara
tamaulipas
tambor
tambores
tamie
tamil
tamos
tampa
tampoco
tan
tanaka
tando
tang
tango
tangu
tani
tania
tanos
tanque
tanques
tanta
tantes
tanto
tantos
tantu
tanu
tanxente
tanzania
tao
taoi
tapa
tapecer
tapes
tapia
tapices
tapiz
tapones
taquilla
taquillera
tar
tara
tarantino
taranto
tarazona
tarda
tardar
tardaron
tarde
tardes
tardi
tardida
tardo
target
tari
tarifa
tarifes
tarija
tarmos
tarmu
tarn
taro
tarragona
tarrecer
tarreci
tarrecible
tarrecibles
tarreciendo
tarrezas
tarsu
tarta
tarxeta
tarxetes
tarza
tarzan
tas
tasa
tase
tases
tasmania
tat
tate
tatiana
tatuaxe
tatuaxes
tau
tauri
tauro
taurus
taxi
taxiquista
taxis
taxo
taxon
taxones
taxono
taxonomi
taxonomic
taxonomy
taylor
taza
tb
tblisi
tbol
tbspecies
tc
td
te
tea
team
tean
teatral
teatrales
teatro
teatros
teatru
teau
tebas
teberga
tech
technology
techos
techu
tecla
teclaos
tecnolo
ted
teddy
tedra
teen
teenage
tegucigalpa
tegui
teh
tejada
tel
tela
tele
telecinco
telecomunicaciones
telefe
telefilme
telefo
telefoni
telegrama
telegraph
telemundo
telenovela
telenoveles
teles
telescopios
telescopiu
televidentes
televisa
televisio
television
televisiones
televisiva
televisives
televisivos
televisivu
tell
tello
telo
tem
tema
temblo
temes
temperamentu
temperatura
temperatures
templa
templada
templaes
templaos
templarios
template
temple
templete
templos
templu
tempo
temporada
temporaes
temporal
temporales
temporalmente
temprana
tempranes
tempranos
tempranu
temps
ten
tender
tendi
tendra
tendri
tenemos
tenencia
tener
tenerife
tenese
tenga
tengan
tengo
teni
teniendo
teniente
tenis
tenista
tenistes
tennessee
tennis
tenochtitlan
tenor
tenorio
tense
tensio
tensiones
tensor
tenta
tentativa
tentatives
tenue
teo
teodoricu
teodoro
teodosio
teolo
teoloxi
teorema
teoremas
teori
teotihuaca
tequila
ter
tera
terape
terapia
terapies
tercer
tercera
terceres
terceros
terceru
terciariu
terciopelu
tercios
terciu
tere
terence
teres
teresa
termales
termes
termina
terminaba
terminacio
terminaciones
terminada
terminaes
terminal
terminales
terminando
terminaos
terminar
terminara
terminari
terminaron
terminen
termino
terminoloxi
termites
termo
termodina
teros
terra
terraces
terracota
terranova
terrassa
terrateniente
terratenientes
terraza
terre
terremotos
terremotu
terrenal
terrenales
terrenes
terrestre
terrestres
terrible
territorial
territoriales
territorios
territoriu
terror
terrorismu
terrorista
terroristes
terry
teru
teruel
tes
tesalo
tese
tesis
tesla
tesoreru
test
testamentu
testi
testigos
testigu
testil
testiles
testimonios
testimoniu
testos
testosterona
tests
testu
testual
testura
testures
tetos
tetra
tetu
tetua
teunolo
teunoloxi
teuto
tex
texa
texas
texi
text
texts
texu
teya
teyaos
tez
tfrac
tft
th
tha
thai
thamnophilidae
thamnophilus
than
thanos
that
thatcher
the
theater
theatre
theft
their
them
then
theo
theodor
theodore
theory
there
these
theta
they
thierry
thin
thing
things
think
third
this
thomas
thompson
thomson
thor
thornton
thorpe
those
thought
thousand
thraupidae
threatened
three
thriller
through
thumb
thumbnail
thunberg
thunder
ti
tian
tiase
tiberio
tiberiu
tibetanu
tiburo
tiburones
tic
tica
ticamente
ticas
tico
ticos
ticu
tida
tidos
tie
tiegh
tiempo
tiempos
tiempu
tien
tienda
tiende
tienden
tiendes
tienen
tienes
tienne
tiense
tierra
tierres
tiffany
tiger
tigre
tigres
tigris
tigu
tijuana
til
tiles
till
tim
tima
timberlake
timbre
time
timeaxis
times
timo
timor
timos
timothy
timu
tin
tina
tine
tiniebles
tinta
tinte
tintes
tinti
tinto
tip
tipo
tipografi
tipolo
tipoloxi
tipos
tipu
tiques
tira
tirada
tirador
tirani
tirante
tirantes
tiranu
tirar
tires
tiro
tirol
tiros
tirote
tirrenu
tiru
tita
titanes
titanic
titaniu
title
tito
titu
titula
titulada
titular
titulares
titularida
titulo
tiva
tiziano
tlaxcala
tlp
tmica
tna
tnica
tnicos
tnicu
tniques
tnt
to
toa
toba
tobagu
toca
tocaba
tocando
tocante
tocantes
tocar
tocaron
toco
today
todd
todi
todo
todos
todu
toei
toes
together
togu
toi
tokiu
tokugawa
tokyo
tol
tola
toledo
tolerancia
tolerar
toles
tolkien
tolo
tolos
tolosa
toluca
tom
toma
tomaba
tomaben
tomada
tomaes
tomando
tomaos
tomar
tomara
tomaren
tomari
tomaron
tomas
tomase
tomate
tomatoes
tome
tomen
tomes
tomillu
tommy
tomo
tomorrow
tomos
tomu
ton
tona
tonada
tonal
tonalida
tonalidaes
tonelaes
tonga
toni
tonight
tonos
tonu
tonumber
tony
too
toos
top
topa
topaba
topaben
topada
topaes
topaos
topar
toparon
topase
tope
topen
topeta
topetar
topeto
topo
topogra
topografi
topolo
topoloxi
toponi
toponimia
topos
topu
toque
toquen
toques
tor
tora
torbonada
torca
tordesillas
tordos
tordu
torga
torgaba
torgando
torgar
torgaron
torgo
torguen
torgues
toribio
torino
tormes
torna
tornaba
tornando
tornaos
tornar
tornara
tornari
tornaron
torne
tornen
torneos
torniellos
torniellu
torno
tornu
toro
toronto
toros
torpedos
torpedu
torre
torres
torrexo
torrijos
torso
tortiella
tortosa
tortu
tortura
tortures
toru
tos
tosca
toscana
toscanu
tosicida
tostring
total
totales
totalida
totalmente
toto
tottenham
tou
touch
touchdown
touchdowns
toulouse
tour
tours
tous
tovar
tovi
towards
tower
town
townshend
toxines
toy
toyota
tr
tra
trabaya
trabayaba
trabayaben
trabayador
trabayadora
trabayadores
trabayando
trabayar
trabayara
trabayari
trabayaron
trabayen
trabayo
trabayos
trabayu
trabe
tracamundios
tracamundiu
traccio
traces
tracia
track
tracks
tracto
tractores
tracy
trad
trade
tradicio
tradicional
tradicionales
tradicionalmente
tradiciones
tradition
traduccio
traducciones
traduci
traducida
traducio
traducir
traducise
traductor
traductores
traduz
traduzse
traen
traer
traeri
trafalgar
trai
traicio
traiciona
traidor
trail
trailer
train
training
trama
trames
tramos
trampa
trampes
tramu
tranquilida
trans
transactions
transaicio
transaiciones
transepto
transexuales
transicio
transilvania
transistores
transitoria
transitoriu
translation
transport
transvaal
tranvi
trap
tras
trascendental
trasera
traseres
traseru
trasta
trata
trataba
trataben
tratada
trataes
tratamientos
tratamientu
tratando
trataos
tratar
tratara
tratari
trataron
tratase
trate
traten
trato
tratos
tratu
trauma
travel
travesa
travesaba
travesando
travesar
travesi
traveso
travie
traviesa
traviesen
travis
traxanu
traxe
traxedia
traxeron
traxes
traxo
trayectories
trayendo
trayeutoria
trayeutu
traza
trazar
trazos
trazu
tre
treasure
treatment
trece
tree
trees
tregua
trek
trelce
trema
tremaos
treme
tren
trends
trenes
trent
trenta
trentena
trenti
trento
trepar
tres
tresatla
tresbordador
tresbordadores
trescendencia
trescientos
trescripcio
trescripciones
trescurre
trescurri
trescurrio
tresferencia
tresferencies
tresferi
tresferida
tresferir
tresfo
tresforma
tresformada
tresformador
tresformamientos
tresformamientu
tresformando
tresformar
tresformase
tresformo
treslla
tresllada
treslladada
treslladaos
treslladar
treslladaron
treslladase
tresllado
treslliteracio
tresmisio
tresmisiones
tresmite
tresmiten
tresmiti
tresmitida
tresmitio
tresmitir
tresmitise
tresparencia
tresparente
trespasa
trespasar
trespasu
tresplante
tresporta
tresportaos
tresportar
tresporte
tresportes
trestornos
trestornu
tresversal
tresversales
tresxe
trevin
trevor
tri
tria
trial
triangular
triangulares
triar
tribal
tribales
tribu
tribuna
tribunal
tribunales
tribune
tribus
tributaria
tributarios
tributariu
tribute
tributos
tributu
trica
tricamente
tricas
trick
trico
tricolor
tricos
tricu
tridimensional
trieste
trifolium
trigramme
trigu
triloxi
trimestre
trincheres
trinida
trinidad
trinity
trio
trip
triple
triples
triplete
tripulacio
tripulaciones
tripulantes
triques
trista
tristan
trito
triunfal
triunfante
triunviratu
tro
trochilidae
trofe
trofeo
trofeos
trois
trombo
trompeta
trompetes
tromsø
trondheim
tronu
tropa
tropes
trophy
tropical
tropicales
tropos
trouble
troy
troya
troyanos
trubiecu
trucha
trucos
trucu
true
truenu
truffaut
trujillo
truman
trump
trunfar
trunfo
trunfos
trunfu
trupa
trupes
trupos
trupu
trust
truth
ts
tse
tsubasa
tsunami
tt
tu
tube
tuberculosis
tuberi
tubos
tubu
tubular
tuci
tucker
tucuma
tudela
tudes
tudor
tueros
tueru
tula
tulancingo
tuliu
tulo
tulos
tulu
tum
tumba
tumbes
tumor
tumores
tun
tundra
tunes
tunicia
tupi
tupolev
turbina
turbinas
turbo
turca
turcos
turcu
turi
turing
turinxa
turismos
turismu
turista
turistes
turkish
turkmenista
turn
turner
turques
turqui
tusquets
tutela
tutelar
tutor
tuvi
tuvie
tuviera
tuvieren
tuvieron
tuvo
tv
tve
tvn
twain
twelve
twentieth
twenty
twilight
twin
twitter
two
ty
tyler
type
tyrannidae
tz
u
ua
uarca
ubico
uc
ucasu
ucd
uci
ucida
ucla
ucle
ucode
ucrai
ucrania
ucraniana
ucranianu
ud
udi
udota
ue
uefa
uel
uelos
uelu
uesca
ufc
ufie
ufierta
ufiertaba
ufiertaben
ufiertada
ufiertando
ufiertaos
ufiertar
ufiertaron
ufierten
ufiertes
ufierto
ufrates
ufrienda
ufriendes
uganda
ugarte
ui
uicn
uk
ukraine
ul
ulica
ulicu
ulises
ulloa
ullrich
ulrich
ulster
ulterior
ultima
ultimate
ultra
ultramar
ultravioleta
um
uma
umberto
un
una
unam
unamuno
unanimida
unasur
uncle
und
unde
under
underground
understanding
undertaker
une
unes
unesco
uni
unica
unicamente
unicef
unicode
unicos
unicu
unida
unidad
unidaes
unifica
unificacio
unificada
unificar
uniforme
uniformemente
uniformes
unillateral
unio
union
uniones
uniques
unit
unita
unitaria
unitarios
unitariu
unitas
united
univ
universal
universales
universalmente
universe
universida
universidad
universidade
universidaes
universita
universitaria
universitaries
universitarios
universitariu
universitat
universite
university
universu
univision
unix
unknown
uno
unos
unu
unvia
unviaba
unviada
unviaes
unviando
unviaos
unviar
unviara
unviaron
unvien
unvio
up
update
upm
upn
upon
upper
upright
ur
ura
urales
uraniu
uranu
urban
urbana
urbanes
urbani
urbanismu
urbanizacio
urbanizaciones
urbano
urbanos
urbanu
urbe
urbina
urdu
urea
urgel
uri
uribe
url
urna
urnes
urquiza
urraca
urrutia
ursae
urss
urugua
uruguay
uruguaya
uruguayos
uruguayu
urxencia
urxencies
urxente
us
usa
usaba
usaben
usada
usaes
usaf
usando
usaos
usar
usara
usaron
usase
usb
usd
usda
use
used
usen
user
uses
using
uso
usopp
usos
uss
uste
ustedes
ustring
usu
usualmente
usuarios
usuariu
utah
utc
uteres
utica
uticamente
utico
uticos
uticu
utili
utilice
utilicen
utilida
utiliza
utilizaba
utilizaben
utilizada
utilizaes
utilizando
utilizaos
utilizar
utilizara
utilizari
utilizaron
utilizase
utilizo
utiques
uto
utopi
utre
utrecht
utres
utype
uu
uv
uva
uves
uvie
uviei
uxt
uxu
uz
uzbequista
v
va
vaca
vacaciones
vacante
vaci
vacida
vacuna
vacunacio
vacunes
vacunu
vader
vagones
vaigan
vaina
val
valaquia
valde
valdivia
vale
valencia
valenciana
valencianes
valencianu
valenti
valentina
valentine
valentino
valenzuela
valera
valeria
valerio
valero
vali
valid
validez
valie
valiente
valio
valir
vall
valla
valladolid
valle
vallecano
valles
valley
vallina
valo
valois
valor
valora
valoracio
valorada
valorar
valores
valos
valparai
valse
valtamientu
valu
value
values
valumbu
valve
valverde
vamos
vampire
vampiros
vampiru
van
vancouver
vanderbilt
vanessa
vanguardia
vanos
vanu
vanuatu
vapor
vapores
vaqueros
vaques
var
vara
varela
vares
vargas
varia
variabilida
variable
variables
variacio
variaciones
variada
variaes
variando
variante
variantes
varianza
variaos
variar
varieda
variedaes
varien
varies
variety
vario
varios
varo
varones
varos
varphi
varsovia
varu
vas
vasallaxe
vasallos
vasallu
vasari
vasc
vasca
vasco
vasconcelos
vascos
vascu
vascular
vasculares
vase
vasi
vasili
vasos
vasques
vasta
vastu
vasu
vaticanu
vau
vaughan
vaya
ve
vea
veanse
vease
vec
veceros
veceru
veces
veci
vecina
vecinda
vecinderu
vecines
vecinos
vector
vectores
vectorial
vectoriales
ved
veda
vedes
vega
vegada
vegaes
vegas
vegues
vehi
vehicular
veiga
vel
vela
velar
velasco
velea
veles
velilla
vellu
velo
velocida
velocidaes
velu
velvet
vemos
ven
vena
venado
venaos
venaticorum
vence
vencedor
vencedora
vencedores
vencer
venceri
venceya
venceyada
venceyaes
venceyaos
venceyar
venceyos
venceyu
venci
vencida
venciendo
vencieron
vencio
vendedor
vendedores
vender
vendi
vendida
vendie
vendiendo
vendiera
vendieron
vendio
vendri
vene
venecia
veneciana
venecianos
venecianu
venegas
venenoses
venenu
venera
venerable
veneracio
venes
venevisio
venezia
venezolana
venezolanos
venezolanu
venezuela
venga
vengacio
vengadores
vengar
vengase
vengeance
veni
venida
venir
vense
venta
ventana
ventanales
ventanes
ventaya
ventayes
ventena
ventes
venti
ventiava
ventiavu
venticinco
venticuatro
ventido
ventilacio
ventiocho
ventise
ventitre
ventiu
[...]
