!
"
#
##0
##1
##10
##11
##12
##13
##14
##15
##16
##17
##18
##19
##2
##20
##21
##22
##23
##24
##25
##26
##27
##28
##29
##3
##30
##31
##32
##33
##34
##35
##36
##37
##38
##39
##4
##40
##41
##42
##43
##44
##45
##46
##47
##48
##49
##5
##50
##51
##52
##53
##54
##55
##56
##57
##58
##59
##6
##60
##61
##62
##63
##64
##65
##66
##67
##68
##69
##7
##70
##71
##72
##73
##74
##75
##76
##77
##78
##79
##8
##80
##81
##82
##83
##84
##85
##86
##87
##88
##89
##9
##90
##91
##92
##93
##94
##95
##96
##97
##98
##99
$
%
&
'
(
)
*
+
,
-
.
/
0
00
000
001
002
0022
004
005
006
007
008
009
01
010
011
012
013
014
015
016
018
019
02
020
021
022
023
024
025
026
028
029
03
030
031
032
034
035
036
038
04
040
044
045
046
047
048
049
05
050
051
052
053
054
055
057
058
06
061
062
063
066
067
068
069
07
070
072
073
074
076
078
08
080
081
083
085
086
087
088253
09
090
091
093
096
097
099
1
10
100
1000
10000
1001
1002
1003
1004
1005
1006
1007
1008
1009
101
1010
1011
1012
1013
1014
1016
1017
1018
1019
102
1020
1021
1022
1024
1025
1026
1027
1028
1029
103
1030
1031
1032
1033
1035
1036
1037
1038
1039
104
1040
1041
1042
1043
1045
1046
1047
1048
1049
105
1050
1051
1053
1054
1055
1056
1057
1058
1059
106
1060
1061
1062
1063
1064
1065
1066
1068
1069
107
1070
1071
10715289081463
1072
1073
1074
1075
1077
1078
1079
108
1080
1082
1083
1085
1086
1087
1088
1089
109
1090
1091
1093
1094
1096
1097
1098
1099
11
110
1100
1101
1102
1103
1104
1106
1107
1108
1109
111
1110
1111
1112
1115
1116
1117
1118
1119
112
1120
1121
1122
1123
1124
1126
1127
1128
1129
113
1130
1131
1133
1134
1135
1136
1137
1138
1139
114
1140
1141
1142
1143
1144
1145
1146
1147
1148
1149
115
1150
1152
1153
1154
1156
1157
1158
1159
116
1160
1161
1162
1163
1164
1165
1166
1167
1168
1169
117
1170
1171
1173
1174
1175
1176
1177
1179
118
1180
1181
1182
1183
1184
1185
1186
1187
1188
1189
119
1190
1191
1192
1193
1194
1195
1196
1197
1198
1199
12
120
1200
1201
1202
1203
1204
1206
1207
1208
1209
121
1210
1212
1213
1214
1215
1216
1218
1219
122
1220
1221
1222
1223
1224
1225
1226
1227
1228
1229
123
1230
1231
1233
1234
1235
1236
1237
1238
1239
124
1240
1241
1242
1243
1245
1246
1247
1248
1249
125
1250
1252
1253
1254
1255
1256
1257
1258
1259
126
1260
1261
1262
1263
1264
1265
1266
1267
1268
1269
127
1270
1271
1272
1273
1274
1275
1276
1277
1278
1279
128
1280
1281
1282
1283
1284
1285
1286
1287
1288
1289
129
1290
1291
1292
1293
1294
1295
1296
1297
1298
1299
13
130
1300
1301
1302
1303
1304
1305
1307
1308
1309
131
1310
1313
1314
1315
1316
1319
132
1320
1321
1322
1323
1324
1325
1326
1327
1328
1329
133
1330
1331
1332
1334
1335
1336
1337
1338
1339
134
1340
1341
1342
1343
1344
1345
1346
1348
1349
135
1350
1351
1352
1353
1354
1355
1359
136
1360
1361
1362
1363
1364
1365
1367
1368
1369
137
1370
1371
1373
1374
1375
1376
1377
1378
1379
138
1380
1381
1382
1384
1385
1386
1387
1388
1389
139
1390
1392
1394
1396
1397
1398
1399
14
140
1400
1401
1402
1404
140416
1405
1406
1407
1408
1409
141
1410
1412
1413
1414
1415
1417
142
1420
1422
1424
1429
143
1430
1431
1435
1438
1439
144
1440
1443
1445
1447
1448
1449
145
1450
1451
1452
1453
1454
1455
1456
1457
1458
1459
146
1460
1461
1462
1463
1465
1466
1468
1469
147
1470
1471
1472
1474
1475
1476
1477
1478
1479
148
1480
1482
1483
1484
1485
1486
1488
1489
149
1490
1491
1492
1493
1494
1495
1496
1497
1498
1499
15
150
1500
1501
1502
1503
1504
1506
1507
1508
1509
151
1510
1511
1512
1513
1515
1516
1517
1518
1519
152
1520
1521
1522
1523
1524
1525
1526
1527
1529
153
1530
1532
1533
1534
1535
1536
1537
1538
1539
154
1540
1541
1542
1543
1544
1546
1547
1548
155
1550
1551
1552
1553
1555
1556
1557
1558
1559
156
1560
1561
1562
1564
1565
1566
1567
1569
157
1570
1571
1572
1574
1575
1576
1577
1578
158
1580
1582
1584
1585
1586
1588
1589
159
1590
1591
1592
1593
1595
1596
1597
1598
1599
16
160
1600
1601
1602
1603
1604
1605
1606
1607
1608
1609
161
1610
1611
1612
1613
1614
1615
1616
1618
1619
162
1620
1621
1622
1623
1624
1625
1626
1627
1628
1629
163
1630
1631
1632
1633
1634
1635
1636
1637
1638
1639
164
1640
1641
1642
1643
1644
1645
1646
1647
1648
1649
165
1650
1651
1652
1653
1654
1655
1656
1657
1658
1659
166
1660
1661
1662
1663
1664
1665
1666
1667
1668
1669
167
1670
1671
1672
1673
1674
1675
1676
1677
1678
1679
168
1680
1681
1682
1683
1684
1685
1687
1688
1689
169
1690
1691
1692
1693
1694
1695
1696
1697
1698
1699
17
170
1700
1701
1702
1703
1704
1705
1706
1707
1708
1709
171
1710
1711
1712
1713
1714
1715
1716
1717
1718
1719
172
1720
1721
1722
1723
1724
1725
1726
1727
1728
1729
173
1730
1731
1732
1733
1734
1735
1736
1737
1738
1739
174
1740
1741
1742
1743
1744
1745
1746
1747
1748
1749
175
1750
1751
1752
1753
1754
1755
1756
1757
1758
1759
176
1760
1761
1762
1763
1764
1765
1766
1767
1768
1769
177
1770
1771
1772
1773
1774
1775
1776
1777
1778
1779
178
1780
1781
1782
1783
1784
1785
1786
1787
1788
1789
179
1790
1791
1792
1793
1794
1795
1796
1797
1798
1799
18
180
1800
1801
1802
1803
1804
1805
1806
1807
1808
1809
181
1810
1811
1812
1813
1814
1815
1816
1817
1818
1819
182
1820
1821
1822
1823
1824
1825
1826
1827
1828
1829
183
1830
1831
1832
1833
1834
1835
1836
1837
1838
1839
184
1840
1841
1842
1843
1844
1845
1846
1847
1848
1849
185
1850
1851
1852
1853
1854
1855
1856
1857
1858
1859
186
1860
1861
1862
1863
1864
1865
1866
1867
1868
1869
187
1870
1871
1872
1873
1874
1875
1876
1877
1878
1879
188
1880
1881
1882
1883
1884
1885
1886
1887
1888
1889
189
1890
1891
1892
1893
1894
1895
1896
1897
1898
1899
19
190
1900
1901
1902
1903
1904
1905
1906
1907
1908
1909
191
1910
1911
1912
1913
1914
1915
1916
1917
1918
1919
192
1920
1921
1922
1923
1924
1925
1926
1927
1928
1929
193
1930
1931
1932
1933
1934
1935
1936
1937
1938
1939
194
1940
1941
1942
1943
1944
1945
1946
1947
1948
1949
195
1950
1951
1952
1953
1954
1955
1956
1957
1958
1959
196
1960
1961
1962
1963
1964
1965
1966
1967
1968
1969
197
1970
1971
1972
1973
1974
1975
1976
1977
1978
1979
198
1980
1981
1982
1983
1984
1985
1986
1987
1988
1989
199
1990
1991
1992
1993
1994
1995
1996
1997
1998
1999
2
20
200
2000
20000
2001
2002
2003
2004
2005
2006
2007
20071008113359
2008
2009
201
2010
2011
2012
2013
2014
2015
2016
2017
2018
2019
202
2020
2021
2022
2023
2024
2025
2028
2029
203
2030
2031
2033
2035
2037
2038
204
2040
2043
2045
2047
2048
205
2050
2052
2053
2058
206
2060
2061
2063
2066
2068
207
2072
2073
2076
208
2080
2084
209
2090
2091
2098
2099
21
210
2100
2101
2102
2104
2109
211
2110
2117
2118
2119
212
2120
2123
2125
2129
213
2132
2134
2136
2139
214
2141
2142
2144
2148
215
216
2160
2164
2166
2167
217
2173
2175
2176
2178
218
2180
2183
2185
219
2190
22
220
2200
221
2210
222
2220
223
224
225
2250
226
227
228
229
23
230
2300
2307
231
232
233
234
235
236
237
238
239
24
240
2400
241
242
2425
243
244
245
2450
246
247
2470
248
249
2495
25
250
2500
251
252
2528
253
254
255
2558
256
257
258
259
26
260
2600
261
262
263
2633
264
265
2650
266
267
268
269
2695
27
270
2700
271
2710
272
2723
273
274
275
2750
276
2760
277
278
2781
279
28
280
2800
281
282
283
2836
284
285
286
287
2870
288
289
29
290
2900
291
292
293
294
2940
2949
295
296
297
298
299
3
30
300
3000
301
302
303
304
305
306
307
308
309
31
310
3100
311
312
313
314
315
316
3166
317
318
319
32
320
3200
321
322
323
324
325
326
327
328
329
33
330
331
332
333
334
335
336
337
338
339
3390
34
340
3400
341
342
343
344
345
346
347
348
349
35
350
3500
351
352
353
354
355
356
357
358
359
36
360
3600
361
362
363
364
365
366
367
368
369
37
370
371
372
373
374
375
376
377
378
379
38
380
381
382
383
384
385
386
387
388
389
39
390
391
392
393
394
395
396
397
398
399
4
40
400
4000
401
402
403
404
405
406
407
408
409
41
410
411
412
413
414
415
416
417
418
419
42
420
421
4217
422
423
424
425
426
427
428
429
43
430
431
432
433
434
435
436
437
438
439
44
440
4400
441
442
443
444
445
446
447
448
449
45
450
4500
451
452
453
454
455
456
457
458
459
46
460
461
462
463
464
465
466
467
468
469
47
470
471
472
473
474
475
476
477
478
479
48
480
481
482
483
484
485
486
487
488
489
49
490
491
492
493
494
495
496
497
498
499
5
50
500
5000
501
502
503
504
505
506
507
508
509
51
510
511
512
513
514
515
516
517
518
519
52
520
521
522
523
524
525
526
527
528
529
53
530
531
532
533
534
535
536
537
538
539
54
540
541
542
543
544
545
546
547
548
549
55
550
551
552
553
554
555
556
557
558
559
56
560
561
562
563
564
565
566
567
568
569
57
570
571
572
573
5734
574
575
576
577
578
579
58
580
581
582
583
584
585
586
587
588
589
59
590
591
592
593
594
595
596
597
598
599
6
60
600
6000
601
602
603
604
605
606
607
608
609
61
610
611
612
613
614
615
616
617
618
619
62
620
621
622
623
624
625
626
627
628
629
63
630
631
632
633
634
635
636
637
638
639
64
640
641
642
643
644
645
646
647
648
649
65
650
651
652
653
654
655
656
657
658
659
66
660
661
662
663
664
665
666
667
668
669
67
670
671
672
673
674
675
676
677
678
679
68
680
681
682
683
684
685
686
687
688
689
69
690
691
692
693
694
695
696
697
698
699
7
70
700
7000
701
702
703
704
705
706
707
708
709
71
710
711
712
713
714
715
716
717
718
719
72
720
721
722
723
724
725
726
727
728
729
73
730
731
732
733
734
735
736
737
738
739
74
740
741
742
743
744
745
746
747
748
749
75
750
7500
751
752
753
754
755
756
757
758
759
76
760
761
7614
762
763
764
765
766
767
768
769
77
770
771
772
773
774
775
776
777
778
779
78
780
781
782
783
784
785
786
787
788
789
79
790
791
792
793
794
795
796
797
798
799
8
80
800
8000
801
8014
802
8021
803
804
8047
805
8057
806
807
808
809
81
810
811
812
813
8130
814
815
816
817
818
819
82
820
821
822
823
824
825
826
827
828
8289
829
83
830
831
832
833
834
835
836
837
838
839
84
840
841
842
843
844
845
846
847
848
849
85
850
851
852
853
854
855
856
857
858
859
86
860
861
862
86218
863
864
865
866
867
868
869
87
870
871
872
873
87348
874
875
876
876175
877
878
879
88
880
881
88155
882
883
884
8848
885
886
887
888
889
89
890
891
892
893
894
895
896
897
898
899
9
90
900
9000
901
902
903
904
905
906
907
908
909
91
910
911
912
913
914
915
916
917
918
919
92
920
920888
921
922
923
924
925
926
927
928
929
93
930
931
932
933
934
935
936
937
938
939
94
940
941
942
943
944
945
946
947
948
949
95
950
951
952
953
954
955
956
957
958
959
96
960
961
962
963
964
965
966
967
968
969
97
970
971
972
973
974
975
976
977
978
979
98
980
981
982
983
984
985
986
987
988
989
99
990
991
992
993
994
9941
995
996
997
998
999
99928
99940
:
;
<
=
>
?
@
[
\
]
^
_
`
a
aa
aachen
aapravasi
aaron
ab
ababa
abb
abbas
abbey
abc
abdul
abdullah
abdus
abel
abgerufen
abkhaz
abkhazia
aboriginal
about
above
abraham
abrams
absinthe
absolute
abstract
abstracts
abu
ac
acacia
academic
academy
acapulco
acc
accents
access
accessdate
accessed
according
account
accounts
accra
ace
aceh
achebe
achievement
acid
acropolis
across
act
acta
acting
action
activities
actor
actors
actress
ad
adam
adams
adana
adda
addis
addison
additional
additives
address
adelaide
adele
adentro
adidas
adige
administration
administrative
adobe
adolf
adrian
adriano
advanced
advances
adventure
adventures
advice
advisory
ae
aegean
aerial
aero
aerosmith
aerospace
aeschylus
af
affair
affairs
affleck
afghan
afghanistan
afp
africa
african
afrika
afro
after
ag
again
against
agassiz
agathias
age
aged
agency
agenda
agent
agents
ages
agglomerations
agnes
ago
agra
agreement
agreements
agricultural
agriculture
agrigento
aguirre
ahau
ahead
ahmad
ahmed
ahmedabad
ai
aid
aids
aims
ain
air
airbus
aircraft
aires
airlines
airport
airports
airways
ais
aise
aka
akbar
akhmatova
akkadian
al
alabama
alain
alamos
alan
alaska
alba
albania
albanian
albany
albayzi
albert
alberta
alberto
albi
albrecht
album
albums
albuquerque
alcaldi
alcobac
aldabra
aldous
alec
alejandro
alessandro
alex
alexander
alexandre
alexandria
alexis
alfonso
alfred
alfve
algeria
ali
alice
alicia
all
alla
allah
allais
allan
alle
allen
allende
alliance
allied
allies
allium
allmovie
allmusic
alloys
allpages
allrovi
alma
almanac
almaty
almost
alois
alone
along
alonzo
alp
alpe
alpen
alpes
alpha
alphabet
alphonse
alpi
alpine
alps
already
als
alsace
alsek
also
alsos
alt
alta
altai
altavista
alten
alternative
although
altlink
alto
altvar
alumni
always
alzheimer
am
amanda
amaranthus
amateur
amazing
amazon
amboro
amc
amctv
ame
amendment
america
american
americana
americans
americas
amerigo
amiens
amino
among
amor
amore
amrita
amritsar
ams
amsterdam
amun
amundsen
amy
an
ana
anadolu
analyse
analysis
analytical
analyze
anand
anatomy
ancestry
anchorage
ancient
and
andaman
andean
andersen
anderson
andes
andhra
andorra
andre
andrea
andreas
andreeva
andrew
andrews
android
andromeda
andy
angara
angel
angela
angeles
angels
anger
angola
angry
angus
ani
animal
animals
animated
animation
animism
ankara
ankerl
ann
anna
annals
anne
annie
anniversary
annotated
announces
annual
annunzio
ano
another
ans
answer
answers
ant
antarctic
antarctica
anthology
anthony
anthropological
anthropology
anti
antigua
antiquity
antiviral
anto
antoine
anton
antonio
antony
any
anything
anzus
ao
ap
apalachicola
apart
apparatus
appears
appendix
apple
applet
appleton
application
applications
applied
appointed
approach
approaches
approved
april
aps
apskritis
apure
aqueduct
aquinas
ar
arab
araba
arabia
arabian
arabic
arabo
arabs
aral
aramaic
aras
arbor
arc
archa
archaeological
archaeology
archibald
archipelago
archipie
architectural
architecture
archival
archive
archived
archivedate
archives
archiveurl
arctic
ard
are
area
areas
arena
aretha
argentina
argentine
argentino
aria
ariel
aris
aristotle
arizona
ark
arkansas
armada
armando
armed
armenia
armenian
armies
arms
armstrong
army
arnold
around
arrhenius
arrow
ars
arso
art
arte
arthur
arti
article
articles
artist
artistic
artists
artocarpus
arts
artvin
arunachal
arxiv
aryan
as
asamblea
asean
ashgate
ashley
ashton
asi
asia
asian
asiatic
asin
ask
asked
asp
aspects
aspirin
aspx
assam
assamese
assembly
assessment
assistant
associate
associated
associates
association
associations
assuan
asteroids
astrazeneca
astrometry
astronaut
astronomical
astronomische
astronomy
astrophysical
astrophysics
asturias
at
ata
ataturk
atchafalaya
athabasca
atheism
athens
atlanta
atlantic
atlas
atmospheric
atom
atomic
atoms
attack
attacks
attawapiskat
attraction
attractions
au
audi
audio
audrey
auf
aufl
auflage
aug
august
auguste
augustine
augusto
augustus
aur
aus
austin
australia
australian
austria
austrian
austronesian
author
authorities
authority
authors
authorship
auto
autobiography
autofellatio
autonoma
autonomous
autonomy
auvergne
aux
av
available
avalanche
avalon
avant
avec
avengers
average
avery
aviation
aviv
awakening
award
awarded
awarding
awards
away
axel
aymara
ayo
ayuntamiento
ayurveda
ayı
az
azerbaijan
azerbaijani
azteca
aztecs
azərbaycan
b
ba
baati
baby
bach
bacillus
back
backed
background
backs
bacon
bacteriophage
bad
badulla
bafta
bagua
baha
bahamas
bahi
bahrain
baie
baikal
baker
baku
bal
balance
baldwin
bale
baleares
bali
balkans
ball
ballantine
ballet
baltimore
bamyan
ban
bana
banana
banarsidass
bancroft
band
bang
bangabhaban
bangalore
bangladesh
banglapedia
bank
banknote
banknotes
banks
banting
baptiste
barat
barbados
barbara
barbra
barc
barcelona
bardeen
bardhaman
barnard
barnes
barnett
barometer
baron
barrell
barres
barrett
barrier
barrow
barrowman
barry
barrymore
barth
bartlett
bas
base
baseball
based
basel
bashevis
basic
basin
basketball
basque
bath
bathymetry
batman
baton
battle
batumi
bauer
bay
baylor
bb
bbc
bc
bd
bdfutbol
be
beach
bean
bear
beat
beatles
beautiful
beauty
bec
became
because
beck
becker
beckett
become
becomes
becoming
becquerel
bed
bedford
bee
beecher
been
before
begin
beginners
beginning
beginnings
begins
behavior
behaviour
behind
bei
beinecke
being
beirut
belarus
belarusian
belfast
belgian
belgium
belief
believe
belize
bell
bella
bello
bellucci
belmopan
ben
benelux
bengal
bengali
beni
benito
benjamin
benke
bennett
benson
benth
benz
ber
berber
bergman
berkel
berkeley
berlin
bermuda
bern
bernabe
bernard
bernhard
bertha
berthelot
bertholletia
bertrand
bes
best
bethe
better
between
bevolking
beyond
bf
bfi
bg
bha
bhagavata
bharatiya
bhilwara
bhimbetka
bhopal
bhutan
bi
bibcode
bible
biblical
bibliography
biblioteca
bibliothe
bibliotheca
bid
biel
bienne
biermann
big
bigelow
bigger
biggest
bihar
bilbao
bilingual
bill
billboard
billie
billion
billy
bin
bio
biochemical
biochemistry
biodiversity
biografi
biografisch
biographer
biographical
biographies
biography
bioinformatics
biological
biologie
biology
bios
biosphere
bird
birds
birmingham
birth
birthday
birthplace
bis
bishop
bit
bitter
biz
bj
bjørnson
bjørnstjerne
blabbermouth
black
blackhill
blacks
blackwell
blair
blake
blanc
blanca
blast
bleu
blica
blink
block
blog
blood
bloomberg
bloomington
bloomsbury
blu
blue
bluegene
blues
bluetooth
bmw
bo
board
boat
bob
bobby
boccherini
bocelli
boddenlandschaft
bodensee
bodies
body
boeing
bogota
bohlen
bohr
bohra
boise
boli
bolivia
bolivian
bomb
bonaparte
bond
bonn
book
booknotes
books
boom
bordeaux
border
borders
boris
borjomi
borkum
born
borough
borys
bosch
bose
bosna
bosnia
boss
boston
botanique
botany
both
botswana
botticelli
boulder
boundaries
boundary
bourbon
bovary
box
boxing
boxrec
boy
boyd
boyer
boyle
boys
boz
bpg
br
bracciano
brad
bradley
bradt
brady
brahe
brahma
braille
brain
branagh
branch
brand
brands
brasil
brasileira
brassica
bratislava
brattain
braun
brave
brazil
brazilian
brazos
break
breaking
brealey
brecht
brendan
brett
brewster
brian
brick
bridge
bridges
bridgetown
brief
briefing
bright
brill
bring
bringing
bristol
brit
britain
britannia
britannica
british
broad
broadcast
broadcasting
broadway
brockhaus
brodsky
broken
bronte
bronx
brooklyn
brooks
bros
brother
brotherhood
brothers
brown
browning
browse
bru
bruce
bruni
brunswick
brussels
bruxelles
bryan
bryant
bse
bu
bubalus
bucharest
buck
buckley
budapest
buddha
buddhism
buddhist
budget
buenos
buffalo
bug
build
building
buildings
bulgaria
bullet
bulletin
bureau
burgenland
burkina
burlington
burma
burmese
burne
burnham
burns
burroughs
burton
burundi
burusi
bus
bush
business
businessweek
but
butler
butterflies
butterfly
buys
bwindi
by
byrne
byzantine
byzantium
c
ca
caballe
cabin
cabinet
cabrera
caccessdate
caesar
caesars
cage
cain
cairo
cajabamba
cajal
calabria
calcutta
calendar
calendars
california
call
called
calligraphy
calling
calls
caltech
calvin
cambodia
cambridge
came
camera
cameron
cameroon
camillo
camp
campaign
campania
campanula
campbell
campus
camus
can
canada
canadian
canal
canales
canberra
cancer
candidate
candolle
canis
canna
cannabis
cannon
canterbury
canto
cantons
canyon
cap
cape
capital
capitalism
capitals
capoeira
capote
captain
capture
car
caracas
carai
carambola
caravaggio
carchivedate
carchiveurl
card
cardona
care
career
carey
cargo
caribbean
caribe
carl
carla
carlo
carlos
carlsberg
carnegie
carol
carolina
caroline
carolingian
carolus
carothers
carpenter
carpenters
carradine
carrera
carroll
carson
carter
cartoon
casa
casablanca
case
cases
casey
cash
cassel
cassini
cast
castan
castello
castilla
casting
castle
castles
castro
casus
cat
catalog
catalogue
catalonia
catch
catchment
category
caterpillar
cathedral
cathedrals
cather
catherine
catholic
caucasian
caucasiennes
caucasus
cause
causes
cavendish
caviezel
cbc
cbs
cctld
cd
cdc
cdma
cdot
ce
cebu
celebrating
celebration
celebrity
celentano
cell
celt
celti
celtic
cembre
censada
censo
censos
census
censusindia
cent
centenary
center
centers
central
centre
centro
centuries
century
ceres
cern
cervantes
cesa
cetinje
ceuta
cf
cfm
cgi
cgs
ch
cha
chaco
chad
chadwick
chain
challenge
challenges
chamber
champaign
champion
champlain
chance
chandler
chandra
change
changed
changes
changing
channel
chao
chapel
chapman
chapter
chapters
character
characteristics
characters
charentes
charity
charlemagne
charles
charlie
charlotte
chart
charts
chase
chatto
che
chechen
chelsea
chemical
chemie
chemist
chemistry
chennai
cher
cheri
chernivtsi
chernobyl
chesapeake
chess
chester
chesterton
chi
chicago
chichester
chick
chief
chien
child
childhood
children
chile
chilean
chileno
chilenos
chiloe
china
chinese
chis
chocolate
choice
choson
chr
chriqui
chris
christ
christiaan
christian
christianity
christie
christina
christine
christmas
christoph
christopher
chronicle
chronology
church
churches
churchill
ci
cia
cidade
cidades
cilento
cimarron
cincinnati
cinema
cinematic
cinque
cio
circa
circle
citation
cite
citeweb
cities
citizens
citizenship
citta
city
citymayors
citypopulation
ciudad
ciudades
civic
civil
civilization
civilizations
ck
cl
claim
claims
clair
claire
clan
clara
clarendon
clark
clarke
clash
class
classic
classical
classics
classification
claude
claus
cle
clear
cleef
clements
cleveland
click
cliff
clifton
climate
climates
clinic
clinical
clinton
clio
clip
clips
cln
clock
close
closer
clouds
club
cluster
clyde
cm
cms
cn
cnbc
cngdpdpc
cnn
cnr
co
coal
coast
coat
coca
cocteau
code
codes
codex
coen
cohen
coins
col
cola
colbert
cold
cole
coleman
colette
colin
coll
collaboration
collaborative
collana
collapse
collected
collection
collections
collectivite
college
collider
collier
collins
collision
colloquial
colombia
colombiana
colombo
colonia
colonial
color
colorado
colors
colosseum
colossus
colour
columbia
columbus
column
columns
com
combined
come
comedy
comes
comet
comets
comfortably
comic
comics
coming
comingsoon
command
commander
commentary
comments
commerce
commercial
commission
commissioner
committee
common
commons
commonwealth
commune
communes
communication
communications
communique
communism
communist
communities
community
como
compact
companion
companions
company
comparative
compare
compared
comparison
competition
compilation
compiled
complete
complex
components
composition
comprehensive
compton
computational
computer
computers
computing
comunidad
con
concept
concepts
concerning
concert
concerti
concerto
concise
condition
conditions
conducted
conference
confessions
confirmed
conflict
confluence
confucianism
confucius
cong
congo
congreso
congress
congressional
connecticut
connor
conquest
conrad
consciousness
conseil
consequences
conservancy
conservation
considered
consiglio
constance
constantine
constantinople
constellation
constellations
constitucio
constitution
constitutional
construction
consumption
contact
containing
contains
contemporary
content
contents
contes
context
continental
continuum
contribution
contributions
control
controversy
convention
conversation
conversations
convolvulus
cook
cool
cooper
cooperation
coord
copenhagen
copernicus
copland
copperfield
copy
copyright
coral
corazo
corbin
core
corea
cori
cornell
corner
coronavirus
coronaviruses
corp
corporate
corporation
corps
corpus
corrections
correspondence
corridor
corruption
corse
corta
corte
corvus
corylus
cosmic
cosmology
cosmos
costa
cotton
could
coulson
council
countries
country
county
coup
courant
cours
course
courses
court
cousins
cov
cover
coverage
covering
covers
covid
cox
cpppgdp
cppppc
cpu
cpublisher
craig
crash
crataegus
craveonline
crazy
crc
cre
create
created
creation
creative
creator
creek
creole
creoles
crespi
crete
crew
crick
crime
crimea
criminal
crisis
cristina
cristo
critical
criticism
critics
critique
croatia
croatian
croix
cromwell
crop
crops
cross
crossing
crowd
crown
cruise
crusade
crusades
cruz
cry
crystal
cs
cso
ct
ctitle
cu
cuba
cuban
cucurbita
cuenca
cult
cultura
cultural
culture
cultures
cumhuriyeti
cunningham
cup
cups
cure
curie
currencies
currency
current
currently
curriculum
curtis
cuscuta
cushing
cut
cv
cw
cwork
cycle
cycles
cyclotron
cyprus
cyrillic
cyrus
cz
czech
d
da
dae
dag
dahl
daily
dakota
dale
dali
dalida
dallas
dalton
dam
damage
damaged
daman
dame
damon
dams
dan
dance
danger
dangerous
daniel
danish
danmark
danny
dans
danube
daredevil
dari
darjeeling
dark
darling
dartmouth
darwin
das
dashiell
data
database
databases
date
dated
dates
datos
datura
daughter
dave
david
davies
davis
dawkins
dawn
dawson
day
daylight
days
db
dc
dd
ddt
de
dead
deadline
deal
deals
dean
death
deathly
deaths
debakey
debate
deborah
debut
dec
decade
decades
december
decision
declaration
declared
declares
deco
dedicated
dee
deep
deer
def
default
defence
defense
defined
defining
definition
definitions
definitive
degas
degree
dei
deities
del
delacroix
delaware
delbru
deledda
delhi
delibes
dell
della
delle
delorme
delta
delusion
dem
demi
demo
democracy
democratic
demographia
demographic
den
dench
denis
denise
denmark
dennis
density
denver
deol
departamento
departamentos
department
departments
deployment
depp
depression
dept
depth
der
des
desarrollo
descent
describing
description
descriptions
desert
design
designed
designs
desire
desolation
destination
destinations
destruction
det
detail
detailed
details
detective
detroit
deutsch
deutsche
deutschen
deutscher
deutsches
deutschland
develop
development
developments
devi
device
devices
devil
devoted
deyna
dfg
dfrac
dh
dhabi
dhaka
dhanbad
dharma
di
dia
diakonoff
dial
dialect
diamond
diamonds
diana
diane
diaries
diario
diary
diaz
dic
diccionario
dick
dickinson
dict
dictionaries
dictionary
dictionnaire
did
diderot
die
diego
diehl
dies
diet
dieter
dietrich
difference
different
digest
digital
digitized
dili
dimension
din
dino
dio
dioscorea
diplomacy
diputacio
dir
direct
directemar
direction
director
directorate
directors
directory
dirichlet
dirk
dirty
disaster
disc
discharge
disco
discography
discogs
discourse
discover
discovered
discoveries
discovery
discusses
discussing
discussion
discussions
disease
diseases
disk
disney
display
displaystyle
dispute
dissertation
distance
distant
distribution
district
districts
distrito
ditions
diu
divided
divine
division
divisions
diya
dj
djibouti
dk
dmoz
dmz
dna
dnr
do
doc
docid
docs
doctor
document
documentary
documentation
documents
does
doesn
dog
dogri
dogs
doi
dolby
dollar
dollars
dom
domain
domestic
domestica
domingo
dominic
dominica
dominican
don
donald
done
donets
donetsk
donne
door
doors
dop
dorado
doran
dordrecht
doris
dorothy
dos
douard
double
doubleday
douglas
douglass
douro
dover
down
downey
download
downloadable
downloads
dozens
dq
dr
draft
dragon
drainage
drama
draw
drawings
dream
dreamers
dreams
drei
drew
drink
drive
driver
drug
drugs
dryopteris
ds
dte
du
dua
dubai
dublin
due
duke
dumont
duncan
dupont
durant
durch
durga
durham
during
durre
dushanbe
dust
dutch
duvall
dvb
dvd
dwarf
dynamics
dynasty
dzongkha
dztwo
e
each
eagle
earl
earliest
early
earth
earthquake
earthquakes
east
easter
eastern
easy
eatlas
eb
ebay
ebert
ebichu
ebooks
ebro
ebu
ec
eccles
echoes
eclipse
eco
ecological
ecology
economic
economics
economist
economy
ecosystem
ecowas
ecuador
ed
eda
eddie
edelman
eden
edersee
edgar
edge
edinburgh
edited
edith
edition
editions
editor
editorial
editors
edmonton
edmund
edn
eds
edu
eduard
education
educational
edulis
edward
edwards
edwin
ee
eel
eesti
effect
effective
effects
egypt
egyptian
eh
ehir
ehrlich
eifel
eiffel
eighth
eilat
eilish
ein
eine
einer
einfu
einstein
einwohnerzahlen
eisenhower
eje
el
elbe
elected
election
elections
electric
electron
electronic
electronics
element
elements
elena
eleven
elias
elie
eliot
elisabeth
elite
elizabeth
elizabethan
ellen
ellesmere
elliot
ellison
else
elsevier
em
embassy
embo
embryo
embryology
emergence
emergency
emerging
emerson
emi
emil
emilia
emilio
emily
emirates
emma
emmanuel
emmanuelle
emmy
emmys
emory
emotion
emperor
empire
empires
employment
en
enc
encarta
enciclope
enciclopedia
enciklopedija
encyclopaedia
encyclope
encyclopedia
encyclopedias
encyclopædia
end
endangered
enders
endgame
ending
endless
energy
eng
engels
engine
engineering
engineers
england
englisch
english
enigma
enjoy
enke
enne
enough
enrique
ensemble
enter
enterprise
enterprises
entertainment
entire
entrance
entries
entry
environment
environmental
enzyklopa
enzymes
eo
ep
epa
epic
epidemic
epidemiology
episode
episodes
er
era
eratosthenes
erdog
eric
erie
erik
erikson
eris
erlenmeyer
ernest
ernesto
ernst
eros
es
esa
escape
escobar
eska
esko
eskoslovenska
espan
espn
essay
essays
essential
est
esta
estadi
estado
estados
estate
estati
este
estimate
estimated
estimates
estonia
estonian
estuary
estudios
et
etat
etc
ethical
ethics
ethiopia
ethnic
ethnicity
ethnographic
ethnography
ethnologue
etudes
etymology
eu
eucken
eudora
euge
eugene
euler
eur
euripides
euro
euronews
europa
europaea
europe
european
eurostat
eva
evaluation
evangelista
evans
evanston
eve
evelyn
even
evening
event
events
ever
everest
every
everybody
everyone
everything
evidence
evil
evo
evolution
evolutionary
ex
example
examples
excavations
excellence
excelsa
excerpt
excerpts
exchange
exclusive
execution
executive
exhibit
exhibition
exile
exodus
expanded
expedition
expenditure
experience
experiment
experimental
experiments
explained
explaining
explains
explanation
exploitation
exploration
explorations
explore
explorer
exploring
explosion
explosions
expo
exposition
express
extended
extensive
external
extinction
extreme
ey
eye
eyed
eyes
eyre
ez
f
fa
faber
faberge
face
facebook
faces
facilities
facing
facsimile
fact
factbook
factor
factors
factory
facts
factsheet
faculty
fair
fairbanks
fairchild
faire
faith
falcon
fall
falling
fallingrain
falls
false
fame
family
famous
fan
fans
fansite
fantasy
fao
faq
far
farewell
farm
faro
faso
fast
father
faulkner
favor
fbi
fc
fe
feat
feature
featured
features
featuring
feb
february
federal
federalist
federation
feed
feel
feeling
feet
felis
felix
female
fenimore
fenn
ferdinand
ferguson
fermat
fermi
fermilab
ferna
fernando
ferrara
ferrell
ferry
festa
festival
festivals
fever
few
ff
fh
fi
fiche
fico
fiction
fidel
field
fields
fiennes
fifa
fifth
fight
fighter
fighters
fighting
figure
figures
file
files
film
filmfare
filming
filmreference
films
filmsite
final
finale
finance
financial
find
finding
finds
fine
finland
finn
finnish
fir
fire
firm
first
firth
fischer
fish
fisher
fisheries
fishing
fiume
five
fl
flag
flaglink
flags
flanagan
flannery
flash
fleming
flemish
flesh
fletcher
fleuve
flickr
flight
flights
flint
flood
floods
flora
flore
florence
florida
flory
flow
flowers
flows
floyd
fly
fm
fo
focus
focusing
foley
follow
following
folsom
fonda
fondation
food
foods
fool
footage
football
for
forbes
force
forces
ford
forecast
forecasts
foreign
foreigners
forest
forever
foreword
forget
fork
form
format
formation
former
forms
formulation
forse
forster
fort
fortune
forum
forward
foster
fotos
found
foundation
foundations
founder
four
fournier
fourth
fowler
fox
fr
fra
frac
fragments
franc
france
frances
francesco
francis
francisco
franco
frank
frankfurt
franklin
franz
fraser
fray
fre
fred
frederic
frederick
free
freedom
freeman
freeview
french
frequency
frequently
fresh
fresno
freud
friday
friedman
friedrich
friend
friends
friendship
frisch
fritz
from
front
frontier
frontiers
frontline
fru
fruit
fruits
fry
ft
ftp
fu
fuchs
full
fully
fun
function
fund
fundacio
fundamentalism
funk
funny
furious
further
future
futures
g
ga
gabon
gabriel
gabriela
gaddis
gaelic
gaging
gainesville
gaius
galaxies
galaxy
galen
galerie
galle
gallery
galsworthy
gambia
gambling
game
games
gan
gandhi
gandhinagar
ganges
gangs
gap
garage
garci
garcia
garda
garden
gardens
gareth
gargano
garland
gary
gas
gate
gates
gateway
gauguin
gaulle
gave
gavin
gawc
gay
gaza
gazeteer
gazette
gazetteer
gb
gcis
gdp
ge
gem
gemeinden
gen
gena
gender
gene
genealogical
genealogy
general
generation
generic
genes
genesis
genetic
genetics
geneva
genius
gennargentu
genoa
genocide
genome
genomics
genova
genre
geo
geoarchaeology
geoffrey
geogra
geografia
geographic
geographical
geography
geohive
geolo
geologic
geological
geology
geometry
geonames
geonet
geopedia
geophysical
georg
george
georges
georgia
georgian
georgians
georgie
georgiennes
georgiens
geos
ger
geral
gerald
gerard
gerhard
german
germanwings
germany
gernsback
geronimo
geschichte
geschke
gesellschaft
get
gets
getting
getty
gewest
ghana
ghat
ghn
ghost
gi
gia
giannis
giant
giants
gibbs
gibraltar
gibson
gica
gide
gilbert
gillian
gilmour
gimignano
gina
ginn
gional
giorgio
giovanna
giovanni
gippert
girl
girlfriend
girls
girona
gis
gita
giuseppe
give
given
gives
glacier
glaciers
glance
glasgow
glass
glazialgeologie
glen
glenn
gletscherkunde
gli
global
globalization
globalsecurity
globe
globo
gloria
glory
glossary
gmt
gnu
go
goa
gob
gobierno
gobind
god
goddess
goddesses
godfather
gods
goes
gogh
going
gold
goldberg
golden
goldman
goldwyn
golfe
golfo
golgi
gone
gonna
gonza
good
goodreads
google
gordon
gorge
gorskii
got
gott
gottfried
gov
governance
government
governments
governor
governors
governorship
govpubs
govt
gpp
gps
gr
grace
graham
grammar
grammatical
grammatik
gran
granada
grand
grande
grandes
grant
graphemica
graphic
graphs
graser
grass
grasset
grave
gray
grazia
great
greater
greatest
greco
greece
greek
greeks
green
greene
greenhouse
greenland
greenwood
greg
gregory
grenada
griffin
gro
gross
ground
group
groups
grove
growing
growth
grp
gru
gruyter
gs
gsm
gu
gua
guadalupe
guarani
guardian
guatemala
guerra
guerrillero
guest
guevara
guez
guggenheim
guide
guidebook
guided
guides
guillermo
guin
guine
guinea
guinness
guitar
gujarat
gujarati
gulf
gun
guns
gurion
gustav
gustave
gutenberg
guy
guyana
guyandotte
gyo
h
ha
haas
habana
haber
had
hadrian
hahn
hai
hail
hair
haiti
haldane
hale
haley
half
hall
halley
hallows
halyomorpha
halys
hamas
hamburg
hamilton
hammett
hammond
han
hand
handbook
handel
hands
handset
hanna
hannah
hannes
hans
happy
har
harald
haran
harappa
harbor
harcourt
hard
hardcover
hardy
haridwar
harold
harper
harpercollins
harriet
harris
harrison
harry
hart
hartmann
harvard
harvest
harvey
haryana
has
hasan
hassan
hasta
haus
haut
havana
have
haven
having
hawaii
hawaiian
hawking
haworth
hawthorne
hay
hayes
haysbert
hazards
hazor
hb
hbo
hd
hdr
hdtv
he
head
headquarters
headwaters
health
healthy
heaney
hear
heard
heart
hearts
heat
heath
heathrow
heaven
heavy
hebrew
hedayat
heep
hegemony
heidelberg
heidelberger
heifetz
height
heights
heine
heinrich
heinz
heisenberg
held
helden
helen
helena
hell
hellenistic
heller
hello
helmut
help
helsinki
henderson
hendrik
henley
henri
henrik
henry
henryk
hensley
her
herald
herbert
hercegovina
herder
here
hereti
heritage
herman
hermann
herna
hero
herodotus
heroes
heroico
herschel
hershey
herzegovina
hesse
hey
heyne
hezbollah
hi
hidden
hieronymus
higgins
higgs
high
higher
highest
highlights
highway
hiking
hikmet
hikr
hilary
hilbert
hill
hills
him
himachal
himalaya
himalayan
hindi
hindu
hinduism
hindustan
hip
hipparchus
his
hispanic
histo
histoire
historia
historian
historic
historical
histories
historische
history
hit
hitch
hitchcock
hitchens
hitler
hits
hiv
hizballah
hizbullah
hl
hn
ho
hobart
hobbit
hobsbawm
hodder
hodge
hoffman
hoffmann
hogan
hogarth
holden
holding
hole
holes
holiday
holidays
holland
holly
hollywood
holmes
holocaust
holt
holy
hombres
home
homecoming
homeland
homepage
homer
homme
homo
homosexuality
honduras
honey
hong
honolulu
honor
honoring
honour
honours
hood
hoover
hop
hope
hopes
hopkins
hopper
horace
horizon
hosni
hospital
host
hosted
hot
hotel
hotels
houghton
hours
house
houses
housing
houston
how
howard
howe
however
hq
hr
hrer
hrsg
hrung
hrvatska
hsv
htm
html
http
https
hu
huawei
hubble
hudson
hue
huffington
huggins
hugh
hughes
hugo
hulk
hum
human
humanities
humboldt
hume
humor
hundred
hundreds
hungarian
hungary
hunt
hunter
hunting
huntington
hunz
huron
hurricane
hurt
huxley
huygens
hyde
hyderabad
hydroelectric
hydrographic
hydrologic
hydrological
hydrology
hymns
hype
hypertext
i
ia
iafd
ian
iana
iast
iata
iau
ibdb
ibm
ibn
ic
icao
ice
iceland
icelandic
ich
icon
iconic
icty
id
idaho
ide
idea
ideas
identification
identity
ideology
ie
ieee
if
igbo
igeler
iglesias
ign
ignacio
igor
igreja
ihre
ii
iii
il
ili
iliad
ill
illinois
illustrated
illustrations
iloveindia
im
image
imagename
imagery
images
imaging
imagining
imax
imdb
imedinews
imf
impact
impenetrable
imperator
imperial
imperialism
implications
importance
important
impossible
imt
in
ina
inaugural
inc
inca
inch
include
includes
including
income
incredible
independence
independent
index
indi
india
indian
indiana
indianapolis
indians
indiatimes
indica
indies
indigenous
indo
indonesia
indus
industrial
industries
industry
ine
inei
infante
infectious
infinite
infinity
inflation
influence
influences
influential
info
informa
informacio
information
informatique
infotech
infoweb
infrared
ingrid
initial
initiative
injured
inland
inner
innovation
input
inquiry
insee
inside
insider
insight
inspector
instagram
institut
institute
institution
institutions
instituto
instruments
insulin
int
integrado
integrated
integration
integrity
intel
intellectual
intelligence
inter
interactive
interest
interior
internacional
internal
international
internationale
internet
interpressnews
interpretation
interpretations
interscope
interstellar
intervention
interview
interviewed
interviews
into
introduction
introductory
inu
inuit
invalid
invariant
invasion
invention
inventor
inventory
investigating
investigation
invisible
involvement
io
ip
ipa
iphone
ir
ira
iran
iranian
iranica
iraq
iraqi
ireann
ireland
irene
irish
iron
ironbridge
irvine
irving
is
isa
isaac
isbn
isidor
isis
isla
islam
islamic
island
islands
islas
isle
iso
israel
israeli
issn
issue
issued
issues
ist
istanbul
istat
istituto
istoria
it
italia
italian
italiana
italiani
italiano
italo
italy
item
itemid
ithaca
itis
its
itu
itv
iucn
iv
ivan
ivo
ivoire
ix
iya
j
ja
jaa
jacinto
jack
jackie
jackman
jackson
jacob
jacobson
jacques
jahrbuch
jahre
jain
jakarta
jam
jamaica
james
jammeh
jammu
jan
jane
janeiro
janssen
january
japan
japanese
jar
jared
jaroslav
jasmund
jason
java
jawa
jay
jazeera
jazz
je
jean
jeanne
jeff
jeffrey
jenkins
jennifer
jeremy
jerome
jersey
jerusalem
jesse
jessica
jesus
jet
jewish
jews
jhalak
jharkhand
ji
jihad
jill
jim
jimmy
jncc
jo
joachim
joan
joaquin
job
jobs
jodhpur
joe
joel
johann
johannes
john
johnny
johns
johnson
johnston
join
joins
joint
joliot
jolly
jon
jonas
jonathan
jones
jong
jordan
jordana
jorge
jose
josef
joseph
joshua
josiah
josipovic
jost
journal
journals
journey
joy
joyce
jp
jpg
jpl
jr
jsp
jstor
ju
jua
juan
juba
judaism
jude
judet
judge
judi
judicial
judo
juist
jules
julia
julian
julie
julio
julius
july
jump
jun
june
jung
jungle
jupiter
just
justice
justin
jvc
jwst
jyotis
k
ka
kabaddi
kabardian
kabul
kadirog
kaiserthermen
kakadu
kan
kankakee
kanpur
kansas
kant
kapoor
karabakh
karaca
karen
karl
karnataka
kartvelian
kashmir
kate
katherine
kathmandu
kathryn
katrina
kazakhstan
kazan
kazimierz
kazım
kb
ke
keats
keeffe
keep
kei
keira
keith
kelimutu
kellerwald
kellner
kelly
ken
kennedy
kenneth
kent
kentucky
kenya
kenyan
kerala
kerman
kerouac
kevin
key
keyboard
keynes
kg
khabarovsk
khan
kharkiv
khattab
khorana
ki
kids
kilby
kill
killed
killing
kills
kim
kind
kindi
king
kingdom
kings
kingsley
kino
kinshasa
kipling
kiribati
kirk
kiss
kit
klagenfurt
klamath
klardjeti
klaus
klug
km
knew
knife
knight
knopf
know
knowledge
known
ko
kobe
koch
kon
kong
konkani
konrad
koopmans
korail
korea
korean
koyuncu
kr
kra
krieger
kro
krogh
kroto
kruta
ks
ku
kuala
kuiper
kultur
kulturen
kumakhov
kumar
kunst
kurosawa
kurt
kurz
kuwait
kuznets
kv
kwame
ky
kyiv
l
la
lab
labor
laboratories
laboratory
labrador
labs
lac
lachin
ladin
lady
lagerlo
lago
lagos
laguna
lahore
laissez
lake
lakes
lakh
lal
lambs
lan
lana
lancaster
land
lande
landing
landlocked
landmark
landmarks
lands
landscape
landscapes
lane
lang
langmuir
language
languages
langue
langues
lanic
lanka
lanl
lao
lapse
large
largest
larousse
larry
lars
ları
las
laser
lasha
lasker
last
lat
lata
latakia
late
later
latest
latin
latina
latvian
launch
laundering
laura
laureate
laureates
laurence
laurent
laurie
lauterbur
lava
law
lawrence
laws
layne
lazio
lb
le
lead
leader
leaders
leading
leads
league
lean
learn
learned
learning
least
leave
leaves
lebanon
leben
lecture
lectures
led
lederberg
lederman
lee
left
legacy
legal
legend
legendary
legends
legislative
lehigh
lehrbuch
leibniz
leicester
leiden
leipzig
lejeune
lek
leksikon
lemill
lena
length
lenin
lennon
lenovo
lenta
leo
leon
leonard
leonardo
leone
leopardus
leopold
ler
les
leslie
lesotho
less
lesson
lessons
leste
let
letter
letters
leu
leukemia
level
levels
levi
levy
lewis
lexicon
lexicorient
lexikon
lexington
leyman
lez
lg
lhasa
li
liam
lib
libe
liber
liberal
liberation
liberty
libraries
library
libre
librivox
libya
licancabur
license
lick
licking
lie
liechtenstein
lietuva
lietuvos
lieutenant
life
lifetime
liga
light
lighthouses
lightning
lights
like
lima
limited
limits
limpopo
lincoln
lincom
linda
lindgren
line
lines
lingua
linguistic
linguistics
link
linkid
linkimages
links
linnaeus
linus
linux
linz
lion
lionel
lipa
lisa
lisboa
lise
list
lista
listed
listen
lister
listing
liston
lists
literacy
literary
literature
lithuanian
little
littlefield
live
liverpool
lives
living
livius
livre
lix
ljubljana
ll
llc
ller
lloyd
ln
lng
lo
load
loc
local
localidad
location
locations
lock
locke
lockheed
lockyer
lodja
loeb
loewe
logan
logic
logo
logos
loire
lolita
lon
london
lonely
lonesome
long
longer
longman
longmans
look
looks
lope
lopez
lord
lorena
lorentz
lorenzo
los
loss
lost
lothar
lou
loud
louis
louise
louisiana
louisville
louvre
love
loved
lovely
lover
loving
low
lowell
lower
lpg
lsjbot
lt
ltd
lte
lu
lucas
lucasfilm
lucia
luciano
lucknow
lucky
ludwig
lufthansa
lugano
lui
luigi
luis
luiz
luke
lumpur
luna
lunar
lund
lungsod
lupus
luscinia
luther
luxembourg
luxemburg
lv
lviv
ly
lyman
lynch
lynn
lynx
lyon
lyrics
m
ma
maasai
mac
macau
macdonald
macedonia
macedonian
machine
machines
machu
mackay
mackenzie
macmillan
macron
mactutor
mad
madagascar
madame
made
madeira
madhya
madidi
madison
madonna
madrid
maeterlinck
magazine
magdalena
maggie
maggiore
magi
magic
magna
magnetic
magnificent
magnitude
magnus
magyar
maha
mahal
maharashtra
mahfouz
mai
mail
mailer
maimonides
main
maine
maintained
maize
majestic
majesty
major
majority
make
maker
makes
making
mala
malawi
malay
malayalam
malaysia
malcolm
male
mali
malmo
malta
mama
man
management
managua
manas
manchester
mandela
mandir
manejo
manet
manfred
mangeshkar
manhattan
manila
manipur
manitoba
mann
manual
manuel
manuscript
manuscripts
manutd
many
map
mapa
mapping
maps
mapuche
maputo
mar
mara
marathi
marc
marcel
march
marche
marco
marconi
marcos
marcus
mare
margaret
margot
mari
maria
marie
marilyn
marina
marine
marino
mario
marion
maritime
mark
market
markets
marks
marlowe
marmorated
marquis
marr
marriage
mars
marshall
mart
martha
marti
martin
marvel
marvin
marx
marxism
marxists
mary
maryland
mas
mashke
mason
mass
massachusetts
massacre
master
masterpieces
masters
mata
match
material
materials
math
mathematical
mathematics
matisse
matrix
matt
matter
matters
matthew
matthews
maugham
maupassant
maurice
mauritania
mauritius
mawson
max
maximilian
maxwell
may
maya
mayer
maynard
mayo
mayor
mayors
mayr
mays
mayweather
mb
mbabane
mbox
mc
mcarthur
mccarthy
mccartney
mcclintock
mcdonald
mcdougal
mcgraw
mckenzie
mclaren
mcmillan
mcnally
mcneill
mcqueen
md
me
mean
meaning
means
measurements
measuring
mechanics
med
medal
meddle
medgeo
media
medical
medicine
medieval
medinipur
mediterranean
meet
meeting
meets
megadeth
megrelian
meitner
meizu
mel
melbourne
meles
melissa
melody
melville
melvin
member
members
memento
memoir
memoirs
memorial
memoriam
memories
memory
memphis
men
mendelevich
menschheit
mentha
mentioned
mer
mercedes
mercer
meridian
merit
merriam
mesopotamia
message
messier
mestizo
meta
metacritic
metal
metallica
metaxa
meteorology
method
methods
methuen
metro
metropolitan
mexican
mexico
meyer
meyers
mez
mfa
mgm
mi
mia
miami
miasta
michael
michel
michelangelo
michele
michelle
michelson
michigan
mickey
micro
microbial
microbiology
microsoft
microwave
mid
middle
midnapore
midnight
miei
mifflin
migration
miguel
mike
mil
milan
milano
mile
miles
miletus
military
milk
milky
millennium
miller
milli
millikan
million
mills
milos
milton
milwaukee
min
mind
mindanao
mine
mineral
minh
mini
mining
minister
ministers
ministry
minneapolis
minnesota
minor
minorities
minority
minsk
minute
minutes
miracle
mirage
mirren
mirror
mis
mische
miskolc
miss
missing
mission
mississippi
missouri
mistral
mit
mitchell
mix
mixed
ml
mm
mn
mo
mobile
mocratique
model
modeling
models
modern
moderne
modi
modigliani
mohammad
moines
mojo
moldova
molecular
molecules
molina
momentary
moments
mommsen
monaco
monarchs
monarchy
monasteries
monastery
monde
monet
monetary
money
mongabay
mongolia
monica
monitor
monitoring
monkey
monroe
monster
mont
montalcini
montana
monte
montenegro
montessori
montevideo
montgomery
month
monthly
monti
montserrat
monument
monuments
moon
moore
moq
morales
more
morgan
mori
morning
morocco
morris
morrison
morrow
morse
morton
moscow
moses
moss
most
mother
motherboard
mothers
moths
motilal
motion
motor
motorola
moubayed
mount
mountain
mountains
mouse
mouth
mouton
mouvement
move
movement
movements
movie
movies
moving
mozambique
mozart
mp
mr
mrs
ms
msn
msnbc
msz
mt
mtr
mtv
mu
mubarak
much
muddy
mugabe
mughal
muhammad
muir
mujer
mulatto
muller
mulliken
mullis
multi
multilingual
multimedia
multiple
mumbai
munch
mundial
mundo
munich
municipal
municipalidad
municipalities
municipality
municipio
municipios
murad
murder
murphy
murray
murrumbidgee
muse
museo
museum
museums
music
musica
musical
musicians
muslim
muslims
mussolini
must
mx
my
myanmar
mycological
myers
myspace
mysterious
mystery
myth
mythology
myths
n
na
nabokov
nach
nacio
nacional
nacionales
nad
nadia
nagaur
nagorno
nagpur
naguib
naipaul
naked
nam
namaste
name
named
names
namibia
nana
nancy
napoleon
narayan
narendra
narrative
narrow
nas
nasa
nasal
nasdaq
nash
nashville
nassau
nat
natalie
nathan
nathaniel
nation
nationaal
national
nationale
nationalism
nationalpark
nationmaster
nations
native
nato
natur
natural
naturalis
nature
nautical
nav
naval
navigation
navy
nazi
nazim
nazionale
nb
nba
nbc
nbkr
nc
ncbi
nchen
nchez
ncia
ncipe
nclm
ncov
nd
nda
nde
nder
ndez
ne
near
nebraska
neches
nederland
nederlandse
need
nehru
neil
neill
nel
nellie
nelson
nepal
nephelium
neptune
ner
neruda
net
netflix
netgazeti
netherlands
network
networking
networks
neue
neumann
neutrino
nevada
never
neversink
new
newfoundland
newman
news
newsbank
newsletter
newspaper
newspapers
newsreel
newsweek
newton
next
nez
ng
ngc
ngdpd
ngel
ngo
ngua
nh
nha
ni
nia
niagara
nic
nica
nicaragua
nice
nicholas
nicholson
nick
nico
nicobar
nicolae
nicolas
nicole
nie
niels
nielsen
niemeyer
niger
nigeria
night
nights
nightwish
nigsberg
nih
nike
nil
nile
nin
nine
nineteenth
nino
nio
nirenberg
nixon
nj
nkrumah
nl
nm
nme
no
noaa
noah
nobel
nobelprize
noble
noches
node
noel
nokia
nolan
nom
noma
nomenclature
nominated
nominations
non
norbert
nord
norfolk
norman
norsk
norte
north
northeast
northern
northrop
northwest
northwestern
norton
norway
norwegian
nose
not
note
notes
nothing
notice
notices
noticias
notre
nottingham
nouveau
nouvelle
nov
nova
novalis
novel
novels
november
novo
novosti
now
npan
nplg
npr
nr
ns
nsf
nster
nsw
nt
nter
nu
nubischen
nuclear
nucleotide
nucleus
nui
numb
number
numbers
nunavut
nuova
nur
nus
nwg
ny
nytimes
nz
o
oaks
oau
obituaries
obituary
object
objects
oblast
observations
observatories
observatory
observer
oc
occupation
ocean
oceanic
oceanografi
oceans
och
oclc
oct
october
od
ode
oder
odes
odi
odile
odyssey
oecd
of
off
office
offices
official
officially
officiel
offizielle
oficial
og
ographie
oh
ohio
oil
ois
oka
okavango
oklahoma
okres
ol
ola
old
oldest
oldman
ole
olga
oliver
olivier
olympic
olympics
oman
omar
omicron
omnibus
omniglot
omsk
on
once
one
oneindia
onepage
online
only
onsager
ontario
op
open
opening
opera
operation
operations
operatorname
opole
oppenheimer
opportunities
optical
options
opus
or
ora
oral
orange
orbit
orchestra
order
ordered
orders
ordinary
oregon
org
organic
organisation
organischen
organization
organizations
orient
oriental
orientale
orientalis
orientation
origin
original
originally
origins
orinoco
oriya
orlando
oro
orosei
orta
orthodoxy
os
oscar
oscars
osijek
oslo
ospedale
osprey
ossetia
ostwald
oswald
other
others
ottawa
otto
ottoman
ou
our
out
outbreak
outline
outlook
outside
over
overseas
overview
ovid
owen
own
oxford
oxfordshire
oxygen
oz
p
pa
pablo
pacific
pacifism
packard
pact
paganini
page
pages
pai
paine
painting
paintings
pakistan
pala
palace
palade
palais
palau
palermo
palestine
palestinian
palgrave
pali
palm
palma
palmas
palmer
palomar
pamela
pan
panama
panic
panorama
panoramas
panoramic
panthera
paolo
papa
paper
paperback
papers
papua
par
para
parachute
parade
paradise
paraguay
parallelogram
paramount
parana
paras
parc
parco
pardalis
paris
park
parks
parliament
parliamentary
parody
parque
part
parte
partement
parti
participants
parties
partner
partners
partnership
parts
party
pascal
pascua
pashto
paso
passage
passages
passengers
passer
passiflora
passion
passport
past
pasteur
pat
patel
patent
path
pathfinder
pathways
patient
patricia
patrick
patrimonio
patterns
patuxent
paul
paula
pauli
pauling
paulo
paypal
pays
paz
pbs
pc
pdf
pe
peace
peak
peakware
pearl
pedro
peer
pegasus
peierls
pen
pene
penguin
peninsula
penn
pennsylvania
pentium
people
peoples
pepper
pepsi
peptides
per
percy
perepis
perfect
performance
performances
performing
period
periodic
permanent
perry
perseus
persian
person
personal
personalities
perspective
perspectives
peru
perutz
pesel
pessoa
peter
petersburg
petit
petrarch
pew
pg
ph
phase
phd
phenomena
philadelphia
philae
philatlas
philip
philippe
philippine
philippines
phillip
phillips
philosopher
philosophers
philosophical
philosophy
phoenix
phone
photo
photograph
photographic
photographs
photography
photos
php
phrasebook
phrases
phraya
phys
physical
physicist
physics
physik
physiology
physrev
pi
piano
piazza
picchu
picea
pictorial
picture
pictures
piece
pierre
pieta
pieter
pigeonpea
pilot
pilotaje
pinewood
pink
pinkfloyd
pinochet
pinus
pioneer
pioneers
piper
pirandello
pirates
pirweli
pisa
pittsburgh
piu
pixel
pk
pl
place
places
plan
planck
planes
planet
planetary
planets
planned
planning
plans
plant
plantarum
plants
plasmodium
plate
plath
platinum
plato
play
player
players
playing
plays
plaza
plc
please
pleistocene
plot
plus
pluto
pm
pmc
pmid
pnas
pneumonia
png
po
poblacio
pocket
podcast
poe
poem
poems
poet
poetics
poetry
poets
point
points
poitou
poland
polandball
polar
pole
poles
poli
police
policies
policy
polio
polis
polish
political
politics
polk
poll
pollack
pollock
polska
polygonum
polymerase
polynesian
pompeii
pondicherry
pontcysyllte
poopo
poor
pop
pope
popper
popular
population
populations
por
port
portable
portal
portals
porter
portfolio
portland
portman
porto
portrait
portraits
ports
portugal
portugue
portuguesa
portuguese
portulaca
pos
position
possible
post
postal
postcards
poster
pot
potential
potomac
potsdam
potter
pound
pour
poverty
powell
power
powerful
pp
ppp
pr
pra
practical
practice
pradesh
praeger
pragmatism
praha
prairie
prakashan
pratchett
prayer
pre
predecessor
prediction
prehistoric
prehistory
preliminary
premier
pres
presa
present
presentation
preservation
preserve
presidencia
presidency
president
presidente
presidential
presidents
press
pressure
pretty
prevalence
prevention
preview
pri
price
pride
priestley
prima
primary
prime
primer
primitivism
primo
prince
princesa
princess
princeton
principal
principes
principles
print
printed
printing
prints
prison
prisoner
pritam
private
prix
prize
prizes
pro
problem
problems
proceedings
process
processes
produced
producer
producers
product
production
productions
products
prof
professional
professor
profile
profiles
profit
profusion
prog
program
programme
programs
progress
progressive
project
projects
prokudin
prometheus
promoting
promotion
pronunciation
propaganda
properties
property
proposed
prose
prospects
protect
protected
protection
protein
protest
protocol
proud
prov
provence
provided
provides
province
provinces
provincia
provincial
provincias
provisional
pru
ps
psp
psy
psychology
pt
pu
pub
public
publication
publications
publique
published
publisher
publishers
publishing
publius
pubs
puducherry
pueblo
puerto
puja
pumpkins
punjab
punjabi
puppets
purana
purdue
pure
purge
purple
purpose
purposes
put
putin
putnam
pvt
pwn
px
q
qa
qaeda
qajar
qatar
qs
qu
quality
quantum
quarter
quarterly
quatre
que
quebec
quebrada
quechua
queen
queens
quentin
quercus
query
quest
question
questions
quetta
quezon
qui
quick
quincy
quotations
quote
quotes
r
ra
rabat
rabi
race
rachel
rada
rade
radiation
radical
radio
rafael
rafting
ragnar
rahman
raiders
rail
railway
rain
rainbow
rajasthan
rajsamand
ral
ralph
ram
ramakrishna
ramanujan
rami
ramo
ramsay
rand
random
rank
ranked
ranking
rankings
rapa
rapid
rare
ras
rate
ratings
ration
ratnapura
ray
raymond
rays
rcu
rd
re
rea
reach
reaction
read
reader
reading
readings
ready
real
reality
really
reas
reason
rebecca
rebel
rebels
reboot
receiving
recensement
recent
recherche
recognition
reconstruction
record
recorded
recording
recordings
records
recreation
red
rediff
reed
reef
reefs
ref
referees
reference
references
reflections
reform
regarding
regime
regio
region
regional
regionale
regione
regions
register
registrar
registration
regordane
regulation
regulations
reich
reichstag
reid
reign
reihe
reilly
reines
reissued
related
relating
relations
relationship
relationships
relativistically
relativity
release
released
releases
relevant
religion
religions
religious
reload
remain
remains
remarks
rembrandt
remember
remembering
reminiscences
remote
renaissance
rene
reno
renoir
rep
repec
report
reporter
reporting
reports
representative
reprint
reprinted
repu
repubblica
republic
republica
republican
republicanism
republik
republika
republiky
required
requires
rer
res
research
reserve
reservoir
resident
residents
resistance
resolution
resource
resources
respiratory
response
responsible
respublika
rest
restoration
result
resultados
results
retentive
retreat
retrieved
return
returns
reunion
reuters
rev
revealed
reveals
revenant
review
reviewed
reviews
revised
revision
revisited
revista
revolution
revolutionary
revolutions
revue
rex
rey
reynolds
rez
rg
rgb
rgen
rhine
rho
rhoades
rhode
ri
ria
riaa
ric
rica
ricardo
rice
rich
richard
richards
richest
richet
richter
rick
rico
ride
rider
riemann
right
rights
rime
ring
rings
rio
rioja
rise
rises
rising
risk
rita
ritage
ritchie
rite
ritual
ritz
river
riverkeeper
rivers
riverside
rivie
rk
rkiye
rl
rn
rna
ro
road
roadshow
roald
rob
robbins
robert
roberto
roberts
robin
roc
rock
rocks
rocky
rodin
rodri
rodriguez
roe
roger
rogers
rogue
rojas
roland
role
roles
rolf
roll
rolland
rolling
rollingstone
roma
roman
romance
romania
romanian
rome
ron
ronald
ronan
rongorongo
room
rooney
roosevelt
roots
rosa
rosario
rose
roseau
roses
ross
roth
rotten
rouge
rough
rouhani
round
route
routledge
row
rowland
rowman
roy
royal
rs
rsssf
rt
rterbuch
rtp
ru
rubens
rubin
rudolf
rue
rugby
ruhr
ruins
rule
ruler
rulers
rules
rum
run
running
rupert
ruprecht
rural
rus
rush
rushmore
russel
russell
russia
russian
russo
rv
rw
ry
ryan
rzburg
rzeszo
s
sa
sabaton
sabin
sabine
sachs
sacramento
sacred
sade
safety
safranbolu
saga
sagan
sage
saha
sahara
said
saimaa
saint
sainte
sakartveloshi
sakharov
salado
salam
salar
salary
sale
salem
sales
salinger
salk
sally
salman
salmon
salt
salton
salvador
salvaje
salvatore
salzburg
sam
sambucus
same
samoa
samples
samuel
samuelson
samurai
san
sana
sanctuary
sand
sandage
sandison
sandman
sandra
sandy
sangamon
sanger
sango
sanskrit
sant
santa
santiago
santo
santos
saoirse
sapiens
sar
sarah
sarajevo
saraswati
sardegna
sarkozy
sars
sartre
sasha
saskatchewan
satellite
sativum
saturn
satyananda
saucerful
saud
saudi
sauer
saul
saunders
savage
save
saving
saw
say
says
sc
scale
scandinavia
scanned
scarecrow
scenes
scenic
scha
schedule
schengen
schiele
schlegel
schmidt
schneider
scholar
scholarly
scholars
school
schools
schuster
schuylkill
schwartz
schweiz
schwinger
sci
sciama
science
sciences
scientific
scientist
scientists
sciurus
score
scotia
scotland
scots
scott
scottish
screen
scribner
script
scsm
sculpture
scythian
sd
se
sea
seaborg
seale
seamus
sean
search
searchable
seas
season
seasons
seattle
sebastian
sec
second
seconds
secret
secretariat
secretary
secrets
section
sector
security
seds
see
seen
seghers
segovia
segu
seine
seit
seite
seleccio
select
selected
selection
self
selling
selma
semiconductor
seminole
sempre
sen
senate
senatur
sending
senegal
sense
senses
sentence
seoul
sep
separate
separatism
sept
september
sequel
sequence
sequences
ser
serbian
sergio
series
serra
server
service
services
ses
session
sessions
set
sets
settlement
settlements
seven
seventh
several
severn
seville
sex
sexo
sexual
sexuality
sexually
sexy
seychelles
seymour
sh
sha
shadow
shadows
shah
shakespeare
shall
shangri
shannon
shaping
shapiro
shapley
share
shared
sharia
sharma
sharp
shasta
shaw
she
sheen
sheet
sheets
shelley
sherdog
sherlock
sherwin
sherwood
shevchenko
shi
shield
ship
shiung
shockley
shoemaker
shop
shore
short
shot
should
show
showing
shows
shqipe
shtml
si
sian
sibillini
sica
side
sident
sidney
sie
sienkiewicz
sierra
sight
sights
siglo
sign
signed
significance
significant
signs
sigrid
sikhs
sikkim
sil
silence
silent
silesia
silk
silva
silver
sim
simbel
simenon
simon
simple
simpson
simulation
sin
sinai
since
sinclair
sindh
sinensis
sing
singapore
singer
singh
singing
single
singles
sinise
sir
sistema
sister
sisters
sistine
site
sites
sitio
sito
situ
situation
six
sixth
size
sk
ska
sketch
sketches
skin
sky
skyfall
skype
slate
slave
slavery
slavic
sleep
slideshow
slipher
slotin
slovak
slovakia
slovari
slovene
slovenia
slovenian
slovenska
small
smalley
smart
smashing
smaug
smith
smithsonian
smokie
smolensk
smyth
snake
snow
so
sobre
soccer
soccerbase
soccerway
social
sociales
socialism
socie
societies
society
sociolinguistic
sociology
socrates
sofia
soft
software
sol
solar
soldier
soldiers
sole
solidarity
solo
solomon
solution
somalia
some
somerset
something
sommerfeld
son
song
songs
sonny
sons
sonuc
sony
sophie
soria
sort
sotho
soul
sound
soundcloud
sounds
soundtrack
source
sourcebook
sources
south
southeast
southern
soviet
sp
space
spacecraft
spacex
spain
span
spanish
spe
speak
speakers
speaking
speaks
special
species
specific
spectra
spectrum
speech
speeches
speed
spencer
spenser
sphere
spider
spin
spinoza
spiral
spirit
spitteler
spitzer
split
spoken
sponsor
sport
sports
sportspro
spra
sprache
sprachen
sprachwissenschaft
spread
spreading
spreads
spring
springer
springs
spy
squad
square
sr
sri
srpska
srt
ss
ssd
sseldorf
st
sta
stade
stadium
stadt
staff
staffordshire
stage
stalin
stan
stanbul
stand
standard
standards
standing
standl
stanford
stanley
star
stark
stars
start
starting
stat
state
statement
states
statesman
statesmen
station
stations
statistical
statistics
statistik
statistique
statistiques
statistisches
statline
statoids
stats
statue
status
statute
stay
ste
steel
stefan
stein
steinberger
steitz
stella
step
stephen
steps
sterling
stern
sterreich
steve
steven
stevenson
stewart
stica
stiftung
still
sting
stink
stm
stockholm
stone
stones
stop
storage
store
storia
stories
storm
storms
story
stowe
strabo
straight
strait
strange
stranger
strategic
strategy
straus
strauss
stream
street
streets
streisand
strength
strikes
string
strip
stroh
strom
strong
structural
structure
structures
struggle
stuart
student
students
studi
studia
studies
studio
studios
study
stuff
stuttgart
style
su
sua
sub
subtitles
success
succession
such
sucre
sud
sudan
sue
suff
suffect
sugar
suicide
suisse
suite
sul
sulawesi
suleiman
suleyman
sullivan
sultan
sumatra
sumerian
summary
summer
summit
summitpost
sumner
sun
sunday
sunni
suny
suomi
super
superhero
superior
superman
support
supreme
sur
surf
surgery
surrounding
surveillance
survey
surveys
survival
survive
sus
susan
sushant
susquehanna
sutherland
suttner
sutton
suzi
sv
svante
sve
sven
svenska
sverige
sveriges
svg
svizzera
svjetlost
sw
swadesh
swami
swan
swaziland
sweden
swedish
sweet
swift
swim
swiss
switzerland
sword
sy
syd
sydney
sylt
sylvia
symbol
symbols
symphony
symposium
syndrome
synopsis
synthesis
syphilis
syracuse
syria
syrian
system
systema
systematic
systems
szilard
t
ta
table
tables
tablet
taft
tag
taibo
taipei
taiwan
tajik
tajikistan
tak
take
taken
takes
tale
tales
taliban
talk
talking
talks
tallest
talysh
tamil
tan
tana
tango
tantra
tanzania
tao
taos
taras
tarih
tashkent
task
taste
tat
tatra
tauris
tav
taxi
taylor
tbilisi
tbol
tchaikovsky
tchantouria
tcm
te
tea
teach
teacher
teaching
team
teams
tears
teau
tech
technical
technique
techniques
technologies
technology
ted
teen
tehran
teide
tel
telangana
telegraph
telemundo
telescope
televisa
television
tell
telling
tells
telugu
tempel
temperature
template
temple
temples
temps
ten
tender
tenerife
tennessee
tennyson
tequila
teri
term
terms
terra
territorial
territories
territory
terror
terrorism
terrorist
terry
teruel
tes
test
testament
testing
tevere
texas
text
textbook
texts
tg
th
tha
thai
thales
thames
than
thanks
that
the
theater
theatre
thecommonwealth
their
thell
them
theme
themes
then
theodor
theodore
theoi
theological
theor
theoretical
theorie
theories
theory
there
thermodynamics
these
thesis
they
thierry
thiers
thieves
thin
thing
things
think
third
thirteen
thirty
this
thomas
thompson
thomson
thor
thoreau
thornton
those
thought
thousand
thousands
threat
three
thriller
thrones
through
thunder
ti
tiberius
tibet
tica
tico
tie
tien
tierra
ties
tiger
tigris
till
tilley
tim
tima
time
timeline
times
timesofindia
timor
timothy
timur
tin
tirana
tiscali
tisza
titicaca
title
titus
tjalling
tjc
tl
tm
tn
to
toba
toby
tocantins
today
todd
todos
together
tokyo
tom
tomatoes
tomb
tombaugh
tome
tommy
tomonaga
tomorrow
tones
tonga
tonight
tonk
tony
too
took
tool
tools
top
topic
topics
toplantısı
toro
toronto
torricelli
toscana
tot
total
totals
touch
toulouse
tour
tourism
tourist
tourists
tournament
tours
toward
towards
tower
town
townes
towns
tr
tra
trabzon
track
tracking
tracks
tracy
trade
tradition
traditional
traditions
traffic
trafford
tragedy
trail
trailer
trails
train
training
trans
transactions
transcript
transcripts
transfermarkt
transformation
transformations
transformed
transit
transition
translate
translated
translation
translations
translator
transmission
transmitted
transplant
transport
trasee
travel
travels
tre
treasure
treatise
treatment
treaty
tree
trees
trends
trent
tres
treto
trevor
trial
tribal
tribune
tributaries
tribute
trier
trierer
trinidad
trinity
trio
trios
trip
triple
tripura
triumph
trivia
trois
troops
tropical
trotsky
trouble
troy
trudeau
true
truman
trump
trust
truth
ts
tsvetaeva
tt
ttingen
tu
tuareg
tube
tucson
tudes
tulo
tunis
tunisia
turgenev
turismo
turistice
turkey
turkish
turkmenistan
turks
turner
turning
turns
tutorial
tuvalu
tv
twayne
tweet
twelve
twentieth
twenty
twilight
twin
twins
twist
twitter
two
tx
tyler
type
types
tz
tzameti
tze
tırma
tırması
tɪ
u
ua
uae
uc
ucb
ucla
ucv
udmurt
uefa
ufa
ufc
ufo
ug
uganda
uh
uk
ukraine
ukrainian
ul
ule
ultimate
ultrafast
um
uma
umberto
umpqua
un
una
unabridged
uncle
uncovered
und
under
understanding
undp
undset
une
unep
unesco
uni
unicef
unicode
union
unique
unit
united
units
unity
univ
universal
universe
universidad
universita
universitaria
universitas
universite
universities
university
univision
unix
unknown
uno
unofficial
unpublished
unter
untersuchungen
until
untold
unwin
unwto
uomo
up
upanishads
update
updated
updates
updike
uploads
upon
upper
uppsala
uprising
upton
ur
ural
urban
urbana
urdu
uriah
url
ursa
ursula
uruguay
urza
us
usa
usage
usd
usda
use
used
useful
user
uses
usgs
using
uss
ussr
ut
utah
utc
utf
uttarakhand
uy
uyghur
uyuni
uzbekistan
v
va
vaccine
vaccinium
val
vale
valencia
valentine
valladolid
valle
valley
value
values
vamling
vampire
van
vannevar
vanuatu
var
variant
variants
variation
variations
variety
various
vasco
vatican
vault
ve
vega
vegas
vegetables
vella
venceslas
venda
veneto
venezia
venezuela
venice
venus
vera
vercelli
verde
verkhovna
verlag
vermeer
vermilion
vermont
vernon
verse
version
verso
versus
very
vesalius
vespucci
vg
vh
vi
via
viburnum
vice
victims
victor
victoria
victorian
victory
vida
video
videos
vie
vienna
viet
vietnam
view
views
vii
viii
vijayawada
viking
vikings
vila
villa
village
villages
villain
ville
villes
vilnius
vincent
vintage
viola
violence
violin
virgin
virginia
virology
virtual
virus
viruses
visa
vishnu
vision
visions
visit
visitor
visitors
vista
visual
vita
vitae
vittorio
viva
vivaldi
vladimir
vlora
vo
vocabulary
vogue
voice
voices
void
vol
volcanism
volcano
volcanoes
volga
volkswagen
vols
volta
volume
volumes
vom
von
vonnegut
vora
voronezh
vorpommersche
vote
votes
voyage
vrheritage
vs
vu
vulpes
w
wa
waals
wade
wagner
waksman
wald
waldo
wales
walk
walker
walking
wall
walla
wallace
walls
walt
walter
walton
want
wanted
wants
war
warburg
ward
warfare
warm
warming
warner
warren
warrior
warriors
wars
warsaw
warszawa
was
washington
watch
water
waterfall
waterlevels
waters
watershed
waterway
waterways
watson
watt
watts
waugh
wave
waves
way
wayback
wayne
ways
wb
wbc
wcmc
we
weapons
weather
web
webcam
webcams
webcast
webcitation
webelements
weber
weblog
webpage
website
websites
webster
week
weekly
weg
weimar
weinstein
weintraub
welcome
welcomes
well
wells
welt
welty
wendy
went
weo
weodata
weorept
were
werke
werner
wesley
west
western
westport
westview
westworld
wet
wg
whale
wharton
what
whc
wheeler
when
where
whewell
which
while
whipple
whistler
white
whitewater
whitman
whitney
whittier
who
whole
whom
whose
why
wi
wide
widely
wie
wien
wiener
wiesbaden
wiesel
wife
wiki
wikimapia
wikimedia
wikipe
wikipedia
wikisource
wikitravel
wikivoyage
wiktionary
wild
wildlife
wiley
wilhelm
wilkins
wilkinson
will
willa
willard
willem
william
williams
williamson
wilson
wimax
win
wind
windhoek
windows
winds
windsor
windus
wine
wing
winner
winners
winning
winnipeg
wins
winter
wire
wired
wireless
wisconsin
wisdom
wise
wish
with
within
without
wizard
wm
wo
wojewo
wolf
wolfgang
wolfram
wolverine
woman
women
won
wonder
wonderful
wood
wooden
woods
woodward
woordenboek
word
wordpress
words
work
worked
workers
working
works
workshop
world
worldatlas
worldcat
worldheritage
worlds
worldstatesmen
worldwide
worth
would
wpp
wright
write
writer
writers
writing
writings
written
wrong
wsj
wu
wuhan
www
wye
wysiwyg
x
xavier
xhosa
xi
xico
xii
xiii
xinjiang
xiv
xix
xml
xv
xvi
xvii
xviii
xx
xxi
xxii
xxiii
xxiv
xxix
xxv
xxvi
xxvii
xxviii
xxx
xxxi
xxxii
y
ya
yahoo
yahya
yalc
yale
yandex
yarmouth
yaroslavl
yat
yazar
ye
year
yearbook
yearbookinternal
years
yeats
yellow
yellowstone
yes
yesterday
yet
yo
york
yorker
yorkshire
yoruba
you
young
your
yourself
youth
youtube
yu
yukon
yusuf
yılı
z
za
zachary
zadar
zagreb
zaire
zakopane
zambia
zamboanga
zappa
zar
zdf
ze
zea
zealand
zecchi
zee
zeeman
zeit
zeitschrift
zeppelin
zero
zewail
zey
zi
zimbabwe
zip
zmir
zola
zone
zora
zquez
zu
zum
zur
zurich
zım
{
|
}
~





¡
£
¤
¥
§
¨
©
ª
«
­
®
°
±
²
³
´
µ
·
º
»
¼
½
¾
¿
×
ß
æ
đ
đo
ħ
ı
ın
ł
œuvres
ƒ
ɐ
ɑ
ə
ɛ
ɨ
ʃ
ʃi
ʊs
ʕ
ʰ
ʲ
ʷ
ʻ
ʼ
ʾ
ʿ
ˁ
ˈ
ˌ
ː
̀
́
̂
̃
̄
̆
̇
̈
̉
̊
̋
̌
̓
̔
̚
̛
̝
̞
̠
̣
̥
̦
̧
̨
̩
̪
̮
̯
̱
̲
͂
ͅ
͡
α
αι
ας
β
γ
γος
ε
ευ
η
θ
θεο
ι
κρα
λ
λε
λο
λογι
λου
μ
μα
με
μος
ν
νη
νης
νος
ο
ος
ου
π
περιφε
πο
πολις
ρ
ρα
ρεια
ς
σ
σακελλαροπου
σις
τη
της
τος
των
υ
φ
φυ
χ
ψ
ω
а
абхазии
абхазия
абхазскии
августа
автор
агентство
административно
администрации
администрация
азербаи
азии
аи
акад
академии
алания
алекса
александр
александрович
алексеи
али
алтаи
амуниципалитет
ан
англ
англии
ане
апреля
арабских
аравии
арена
арестович
армении
армения
армяно
археологии
аст
атлас
аэропорт
аэропорта
аэропорту
б
баи
без
беларусь
бердяев
бердяева
биография
блика
большая
большои
боржоми
боржомского
брокгауза
брэ
бсэ
буг
будет
бумаги
българия
был
быть
в
ва
вв
введение
ввп
век
века
веласкес
великии
вестник
весь
видео
вконтакте
влади
владимир
владимирович
владимирскои
власти
вместе
во
воды
военно
вои
вокруг
вопрос
вопросы
восток
востока
восточнои
времени
время
все
вся
вт
выборы
вып
выпуск
віи
г
габечава
газета
гаи
гг
где
географические
географических
географического
география
геологии
геологическии
германии
гл
глава
глинтвеи
го
год
года
году
гол
город
города
городе
городов
городская
городского
городскои
государств
государства
государственного
государственное
государственнои
государственныи
гпи
грамматика
григория
грозныи
грузии
грузинскии
грузинскои
грузию
грузия
губернии
д
дагестан
данные
данным
дат
два
ддт
декабря
дел
деление
дельта
демократии
демоскоп
день
депутатов
дж
джана
джеи
дидои
для
дня
до
донец
донецкои
дону
доп
дор
достопримечательности
др
древнеи
другие
дума
думы
е
ев
евич
европы
его
ее
екатеринбург
енциклопедія
ефрона
ж
животных
жизни
жизнь
житие
журнал
з
за
забаи
заглавие
заде
закон
законодательное
законодательство
замбия
западнои
записки
земли
земля
золотои
и
иа
ива
ижевск
из
известия
изд
издание
издательство
изменения
изъ
ил
или
илл
им
империи
имя
индии
индия
индонезии
индуизм
иностранных
институт
института
инструкция
интервью
интернет
информационное
информационныи
информация
иранские
искусства
искусство
истории
историко
история
итоги
их
июля
к
кавказ
кавказа
кавказскии
как
календарь
карабахе
карачаево
карта
картах
карты
каталоге
кварацхелия
ке
китаи
кн
книга
книге
книги
ко
колумбии
комитет
конкани
конституция
конференции
копа
коронавируса
косово
краеведческии
краи
красная
краснодарского
красноярского
краткая
краткии
края
кругосвет
культура
культуры
л
ла
лев
ленина
лента
лет
литература
литературы
лович
луганскои
лукашенко
м
магаданскои
магнитогорска
маи
македонија
маракуи
марр
марра
марта
материалы
мах
мая
мгу
между
международного
международныи
место
месторождения
месяц
метро
метрополитен
минеральнои
министерства
министерство
мир
мира
мире
михаи
михаил
мишустин
мо
мои
моне
море
москва
москвы
мр
музеи
муниципального
мурманскои
мы
мысль
н
на
навальныи
название
названии
названия
наполи
народа
народная
народнои
народов
народы
население
населения
наук
наука
науки
научно
начала
наших
ндр
не
недоступная
независимость
нем
нет
ни
никола
николаи
нных
нов
новая
нович
нового
новости
новыи
новых
номер
ноября
нська
ны
о
об
областеи
области
область
образования
общества
общество
объектов
одкб
озеро
оккупации
округ
округа
октября
ола
олимпии
он
она
онлаи
онов
оон
операция
описание
опыт
организации
организация
органов
оре
оригинал
осетинскии
осетия
основы
особенности
острова
от
отв
ответственныи
открытие
отъ
официальном
официальныи
очерк
очерки
ошкар
п
пакистана
памятники
памятников
парламента
пе
пензенскои
пер
первая
перевод
передаче
переписи
перепись
перехода
петербург
петербурга
петербургскии
письма
по
под
подробная
политика
полное
портал
портале
после
пособие
правда
правительства
правительство
президент
президента
президентом
премии
премьер
пресс
при
приднестровье
признала
признании
природа
про
проблемы
проект
пропустит
противника
профиль
процессы
псков
псковская
псковскои
путеводитель
пути
путь
р
ра
радио
развитие
развития
раздел
разыскания
раи
ран
растении
рбк
ре
регион
региональныи
регионов
ред
режима
реи
река
реки
религиознои
република
респу
республик
республика
республикасы
республики
решение
риа
россии
россия
ру
рус
русская
русские
русскии
русско
русского
русское
русскои
рф
с
саи
самара
самарскои
самоа
самоуправления
санкт
саранск
сб
сборник
сборнои
св
сведения
свердловскои
света
свои
сгнзс
северная
сегодня
селении
семе
сервер
сергеи
серии
серия
сибири
сирии
система
ская
ские
скии
ских
ско
ского
ское
скои
слов
словари
словарь
служба
службы
см
снг
со
собрание
совет
совета
советская
советскии
советского
советскои
современных
согласно
состав
состава
состоянию
сочинения
союз
союза
спб
список
спорт
справка
справочник
справочнике
ссср
ссылка
ссылки
ст
ставрополь
стадион
стадиона
стал
статеи
статистики
статистическии
статья
ства
сторону
стр
стран
страниц
страница
страницы
страны
строительства
су
сухуми
сша
т
та
таджикистан
таджикистана
таи
так
талибов
талыши
тасс
тб
тбилиси
те
текст
тексты
территориальное
территории
технология
тип
тираж
тифлис
толковыи
том
томах
томскои
травмы
три
труды
ту
турецкои
туристическии
туркменистана
ты
у
уезда
уже
узбекистан
уи
украины
украі
университет
университета
управления
условиях
устрои
уче
ф
факты
фе
февраля
федеральнои
федеральныи
федерации
физико
физическая
филологии
философии
философия
фильм
форум
фото
фотографии
фотографиях
футболу
х
хабаровскии
хакасия
хаматова
хандзтииского
ханты
хвича
хронология
ц
царство
центр
центральныи
цк
цру
цы
ч
часть
че
человек
человека
чемпионат
чен
черкесскои
численность
число
чм
что
чувашии
чулпан
ш
штаи
ы
э
экспедиция
электронная
энциклопедии
энциклопедическии
энциклопедия
эсбе
это
эхо
ю
южная
южнои
юрии
я
язык
языка
языке
языки
января
і
ѹ
ѻ
ѽ
ѿ
ҏ
ҟ
ҧ
ԇ
ԉ
՝
է
մարզ
ռոբերտ
ְ
ֲ
ִ
ֵ
ֶ
ַ
ָ
ֹ
ּ
־
ׁ
א
ב
ד
ה
ו
ח
י
ך
כ
ל
ם
מ
מחוז
ן
נ
ע
פ
ר
ש
ת
،
؛
ا
ابن
الا
الجزاي
الجمهورية
السعودية
العراق
العربية
الله
ب
باد
بن
بو
ة
ت
تونس
جمهورية
ح
حمد
خليج
د
ذ
ر
س
سعيد
ش
ط
ع
عبد
علي
ف
فقه
ق
ل
م
محمد
مصر
من
ن
نهر
ه
و
ي
َ
ُ
ِ
ّ
ْ
ٓ
ٔ
ٕ
ک
ی
ܵ
ހ
ރ
އ
ވ
މ
ދ
ގ
ސ
ޔ
ޖ
ަ
ާ
ި
ު
ޫ
ެ
ޭ
ް
ँ
ं
ः
अ
आ
इ
ई
उ
और
क
कप
कर
ख
ग
घ
ङ
च
छ
ज
झ
ञ
ट
ठ
ड
ढ
ण
त
थ
द
ध
धर
न
प
फ
ब
भ
म
मन
य
र
रत
रद
ल
व
वन
वर
श
ष
स
ह
हर
़
ा
ि
ी
ु
ू
ृ
ॅ
े
ै
ॉ
ो
ौ
्
ং
ক
খ
গ
চ
জ
ট
ঠ
ড
ত
থ
দ
ধ
ন
প
ব
ভ
ম
য
র
ল
শ
ষ
স
হ
়
া
ি
ী
ু
ূ
ে
্
ৰ
ਂ
ਅ
ਖ
ਗ
ਜ
ਤ
ਦ
ਨ
ਪ
ਬ
ਮ
ਰ
ਲ
ਸ
ਹ
਼
ਾ
ਿ
ੀ
ੁ
ੇ
ੋ
੍
ੰ
ੱ
ં
ખ
ગ
ચ
જ
ટ
ઠ
ડ
ણ
ત
દ
દર
ધ
ન
પ
બ
ભ
મ
ય
ર
લ
વ
સ
હ
ા
િ
ી
ુ
ૂ
ે
ો
્
ପ
଼
ା
ି
୍
க
ங
ச
ட
ண
த
ன
ப
ம
ய
ர
ல
ள
ழ
வ
ஸ
ஹ
ா
ி
ீ
ு
ூ
ெ
ே
ை
்
ం
గ
త
ప
ర
ల
శ
ా
ి
ు
ె
ే
్
ಂ
ಕ
ಟ
ಡ
ದ
ಪ
ಬ
ರ
ಾ
ಿ
ು
ೂ
ೆ
್
ೕ
ം
ക
ച
ട
ഡ
ത
ര
വ
ാ
ി
ു
ൂ
െ
്
ං
ක
ණ
ත
ය
ර
ල
ස
්
ා
ි
ු
ෙ
ก
จ
ฒนาระบบ
น
ปแบบและโครงสร
ร
ส
ั
าง
ิ
ึ
ื
ุ
ู
่
้
์
ັ
་
།
ཀ
ཁ
ག
ང
ཇ
ད
ན
པ
ཕ
བ
མ
ར
ལ
ཤ
ས
ཨ
ི
ུ
ེ
ོ
ྐ
ྫ
ྭ
ྱ
ྲ
ླ
ာ
ა
აა
აარე
აარიშ
აარონ
ააშ
ააშს
აახენიშ
აბ
აბადი
აბაზგეფიშ
აბაზეფი
აბაზური
აბაკანი
აბან
აბანდვალა
აბანდვალათ
აბანეფი
აბანეფიშ
აბანეფს
აბანეფშე
აბანი
აბანიე
აბანით
აბანიშ
აბანო
აბანობურ
აბანობური
აბანოეფი
აბანოშ
აბანს
აბანსი
აბანსიე
აბანურ
აბანური
აბანქ
აბანშა
აბანშე
აბანც
აბარჷ
აბას
აბასთუმანი
აბასთუმანიშ
აბასი
აბასიანეფიშ
აბასიდეფიშ
აბასიშ
აბაშა
აბაშაშ
აბაშაშე
აბაშაწყარი
აბაშაწყარიშ
აბაშიძე
აბდ
აბდელ
აბდულ
აბდულა
აბება
აბებას
აბედათიშ
აბელ
აბელი
აბელიშ
აბერდინი
აბესალომ
აბეტი
აბეტიქ
აბიანდა
აბიჯანი
აბომეიშ
აბორიგენეფი
აბორიგენეფიშ
აბორიგენი
აბორიგენული
აბრაამ
აბრაამი
აბრაამიშ
აბრაზია
აბრაზიული
აბრაჰამ
აბრევიატურა
აბრეშუმიშ
აბსოლუტურ
აბსოლუტური
აბსოლუტურო
აბსტრაქტული
აბუ
აბულ
აბულაძის
აბუშ
აბუჯა
აბხვადჷნა
აგავაშ
აგათა
აგარაკი
აგარტალა
აგასისი
აგასისიშ
აგენტეფიშ
აგენტი
აგენტიშ
აგეფსთა
აგვისტო
აგი
აგილერა
აგინძორენდჷ
აგინძორენს
აგიოგრაფიული
აგიოს
აგლომ
აგლომერაცია
აგლომერაციას
აგლომერაციაშ
აგლომერაციეფი
აგნეს
აგრ
აგრა
აგრარულ
აგრარული
აგრაშ
აგრესიაქ
აგრესიაშ
აგრესიულ
აგრესიული
აგრიპა
აგრონომია
აგს
აგუა
აგუას
აგჷნძორენა
აგჷნძორენდჷ
აგჷნძორენს
ად
ადა
ადამ
ადამაშვილი
ადამი
ადამიანი
ადამიანის
ადამიერ
ადამიერეფი
ადამიერეფით
ადამიერეფიშ
ადამიერეფს
ადამიერეფქ
ადამიერეფშა
ადამიერეფშო
ადამიერეფწკჷმა
ადამიერი
ადამიერით
ადამიერიშ
ადამიერიშით
ადამიერიშო
ადამიერო
ადამიერს
ადამიერულ
ადამიერული
ადამიერქ
ადამიერშა
ადამიერშახ
ადამიერშე
ადამიერშო
ადამიერც
ადამიშ
ადამსი
ადამსიშ
ადანა
ადაპტაცია
ადაპტერი
ადაპტირაფილი
ადაპტირებული
ადარნასე
ადასურენს
ადელაიდა
ადელაიდაშ
ადელი
ადენიშ
ადვოკატეფიშ
ადვოკატი
ადიამანი
ადიგენიშ
ადის
ადიღე
ადიღეურ
ადიღეური
ადიღეშ
ადიღურ
ადიღური
ადიშისჭალა
ადიშიშ
ადიჯე
ადიჯეშ
ადლერი
ადმ
ადმინიატრაციული
ადმინისტრატორი
ადმინისტრაცია
ადმინისტრაციას
ადმინისტრაციაქ
ადმინისტრაციაშ
ადმინისტრაციულ
ადმინისტრაციული
ადმინისტრაციულო
ადმინისტრირენს
ადმინსიტრაციული
ადმირალი
ადოლფ
ადოლფიშ
ადოლფო
ადრე
ადრეიან
ადრიანა
ადრიანე
ადრიანეშ
ადრიანო
ადრიატიკაშ
აეროდრომი
აეროდრომიშ
აეროკოსმოსური
აერონავტიკაშ
აეროპორტეფიშ
აეროპორტი
აეროპორტის
აეროპორტიქ
აეროპორტიშ
აეროპორტიშე
აეროპორტშე
ავაზა
ავალიანი
ავარიაშ
ავატარი
ავგუსტ
ავგუსტუსი
ავგუსტუსიქ
ავგუსტუსიშ
ავთანდილ
ავიაკომპანია
ავიაკომპანიაშ
ავიატორი
ავიაცია
ავიაციას
ავიაციაშ
ავივი
ავივიშ
ავივს
ავილა
ავილაშ
ავლუს
ავრელიუს
ავრელიუსი
ავრორა
ავსტრალია
ავსტრალიარი
ავსტრალიას
ავსტრალიაშ
ავსტრალიაშა
ავსტრალიაშე
ავსტრალიურ
ავსტრალიური
ავსტრია
ავსტრიალი
ავსტრიას
ავსტრიაქ
ავსტრიაშ
ავსტრიაშა
ავსტრიაწკჷმა
ავსტრიული
ავსტრო
ავსტრონეზიული
ავტ
ავტო
ავტობიოგრაფია
ავტობიოგრაფიულ
ავტობიოგრაფიული
ავტოკატასტროფას
ავტოკეფალური
ავტოკრატია
ავტომაგისტრალი
ავტომაგისტრალით
ავტომატური
ავტომატურო
ავტომობილეფი
ავტომობილეფიშ
ავტომობილი
ავტომობილიშ
ავტონომია
ავტონომიათ
ავტონომიას
ავტონომიაშ
ავტონომიურ
ავტონომიური
ავტორეფი
ავტორეფიშ
ავტორი
ავტორიტარიზმი
ავტორიტარული
ავტორიტეტი
ავტორიშ
ავტორო
ავტორს
ავტორქ
ავტოფელაცია
ავტოქთონური
ავღანარი
ავღანეთი
ავღანეთის
ავღანეთიშ
აზად
აზავადიშ
აზანიშ
აზე
აზერ
აზერბ
აზერბაიჯანალეფი
აზერბაიჯანალი
აზერბაიჯანარეფი
აზერბაიჯანი
აზერბაიჯანის
აზერბაიჯანიშ
აზერბაიჯანს
აზერბაიჯანულ
აზერბაიჯანული
აზერბაიჯანქ
აზერბაიჯანშა
აზია
აზიარეფი
აზიარი
აზიას
აზიაშ
აზიაშა
აზიაშე
აზიაწკჷმა
აზიზ
აზიმოვი
აზიურ
აზიური
აზკაბანიშ
აზოგი
აზოვიშ
აზორიშ
აზოტიშ
აზრა
აზრი
აზრით
აზჷრით
ათ
ათავრეშე
ათათურქიშ
ათაქ
ათაშ
ათაში
ათაჸურეშე
ათე
ათეთ
ათეიზმი
ათეიზმიშ
ათეისტეფი
ათეისტი
ათენა
ათენი
ათენიშ
ათენს
ათეჟამო
ათეს
ათექ
ათეშ
ათეშენ
ათეშენი
ათეში
ათეშნერი
ათეშნერო
ათეშო
ათეცალ
ათეცალი
ათეწკჷმა
ათეხანური
ათეჯგუა
ათეჯგურა
ათინა
ათინაშ
ათონიშ
ათუ
აი
აია
აიათოლა
აიაკუჩო
აიაკუჩოშ
აიარი
აიარიშ
აიაქსი
აიბღა
აიდან
აიდაჰო
აიდაჰოშ
აიდინი
აიეტი
აივ
აიზეკ
აითმათოვი
აითმათოვიშ
აიკეშ
აილენდი
აილენდიშ
აილიშიქ
აიმაკეფი
აიმაკი
აიმაკიშ
აიმარა
აიმარაშ
აიმარაშა
აინალს
აინშტაინი
აინშტაინიშ
აინშტაინქ
აიოვა
აიოვას
აიოვაშ
აიონ
აირა
აირესი
აირესის
აირესიშ
აირეფი
აირეფიშ
აირეფს
აირი
აირიშ
აირონ
აისენიშ
აისლებენი
აიწორო
აკ
აკა
აკაართიანჷ
აკაბიშ
აკაბუცხა
აკაგაფალი
აკაგაფალო
აკაგეს
აკაგჷ
აკად
აკადგინანდჷ
აკადგინანს
აკადგინეს
აკადგინჷ
აკადემია
აკადემიას
აკადემიაქ
აკადემიაშ
აკადემიეფიშ
აკადემიის
აკადემიკოს
აკადემიკოსი
აკადემიკოსო
აკადემიურ
აკადემიური
აკათეს
აკათუ
აკათჷ
აკაკათაფუწკჷმა
აკაკი
აკამდგინანს
აკან
აკანეფი
აკანეფიშ
აკანეფს
აკანეფშე
აკანი
აკანიშ
აკანო
აკანს
აკანურ
აკანური
აკანქ
აკანშა
აკანშე
აკაპულკო
აკაჟუშ
აკარდამა
აკართაფუს
აკარღვეს
აკარღუ
აკარღჷ
აკაქიმინალო
აკაშქუ
აკეთენა
აკეთენდეს
აკეთეს
აკეთჷ
აკვამენი
აკვატორია
აკვატორიას
აკვედუკი
აკვიტანიაშ
აკიართიანეს
აკიართიანჷ
აკიგჷ
აკიდგინჷ
აკივა
აკითხულია
აკიმუშეს
აკიმუშუ
აკირა
აკიფაჩჷ
აკიქიმინჷ
აკიშაყარჷ
აკიშქუ
აკმაართიანენა
აკმაართიანენს
აკმადგინადჷ
აკმადგინალ
აკმადგინალი
აკმადგინანა
აკმადგინანდ
აკმადგინანდეს
აკმადგინანდჷ
აკმადგინანს
აკმადგინანც
აკმაქიმინალ
აკმაქიმინალი
აკმაქიმინჯე
აკმაშქვანს
აკმაშქვანც
აკმიგაფუდჷ
აკმიგურუანს
აკმიკათუნა
აკმიქიმინუ
აკმიშაყარუ
აკმოდირთუ
აკმოდირთუდჷ
აკმოდირთჷ
აკმოდირთჷნა
აკმოქიმინუნა
აკმოქიმინუნდჷ
აკმოქიმინუნს
აკმოქიმინუნც
აკმოქიმინჷნა
აკმოქიმინჷნს
აკმოხვადუ
აკმოხვადუდჷ
აკნაგებუ
აკნაქიმინა
აკნაციმეფი
აკნაცჷმეფი
აკნაცჷმეფს
აკო
აკოანჯარაფა
აკოანჯარაფილ
აკოანჯარაფილი
აკოანჯარელი
აკოართაფათ
აკოართაფაშ
აკოართაფილ
აკოართაფილი
აკოართიანაფილი
აკობია
აკოგაფა
აკოგაფას
აკოგაფაქ
აკოგაფაშ
აკოგაფილი
აკოდგინა
აკოდგინალაუშა
აკოდგინალაშა
აკოდგინალუა
აკოდგინალუათ
აკოდგინალუას
აკოდგინალუაშ
აკოდგინალუაშა
აკოდგინალუაშათ
აკოდგინალუაშე
აკოდგინელ
აკოდგინელი
აკოდგინუა
აკოდგინუაშ
აკოდირთუ
აკოდირთჷ
აკოკათაფაშ
აკოკათელი
აკოკათინელი
აკოკათუა
აკოკათუას
აკოკათუაშ
აკოკორობილი
აკომუშებული
აკომუშებულქ
აკონაზირუაშ
აკონკაგუა
აკონტროლენა
აკონტროლენდეს
აკონტროლენდჷ
აკონტროლენს
აკონწყილი
აკონწყუალა
აკორაბადეს
აკორაგადიშ
აკორღვაფა
აკორღვაფაშ
აკოქიმინელ
აკოქიმინელი
აკოქიმინეს
აკოქიმინუ
აკოქიმინუა
აკოქიმინუას
აკოქიმინუაქ
აკოქიმინუაშ
აკოქიმინჯალა
აკოქიმინჯალას
აკოქიმინჯალაშ
აკოქიმინჷ
აკოშაყარელი
აკოშაყარუა
აკოშაყარუაშ
აკოშქუმალა
აკოშქუმალაშ
აკოშქუმალირი
აკოციუ
აკოცუ
აკოცჷ
აკოცჷმა
აკოცჷმაქ
აკოცჷმაშ
აკოცჷმილი
აკოწყორილი
აკოწყორუათ
აკოწყორუაშ
აკოხვადეს
აკოხვადჷ
აკოხვალამა
აკოხვალამას
აკოხვალამაქ
აკოხვალამაშ
აკოხვალამეფს
აკოხუნას
აკოხურგელი
აკოხურგილი
აკოხურგილიე
აკოჸინალუაშ
აკრ
აკრა
აკრი
აკრიტიკენდჷ
აკრიტიკენს
აკრონიმი
აკროპოლისი
აკრძალური
აკრძალჷ
აკუმულაციური
აკუნწყუ
აკურთხეს
აკუსტიკური
აკუტაგავა
აკუტაგავაშ
ალ
ალა
ალაბამა
ალაბამაშ
ალაბი
ალავერდი
ალავიტეფი
ალავიტეფიშ
ალაზანი
ალაზანიშ
ალაზანს
ალაზიმაფათ
ალაზჷმაფათ
ალაზჷმაფონი
ალამბერი
ალამო
ალამოსიშ
ალან
ალანდიშ
ალანეფი
ალანი
ალანქ
ალაოიანი
ალარინა
ალარინათ
ალასდერ
ალასკა
ალასკას
ალასკაშ
ალაფათ
ალაჰაბადი
ალაჰი
ალაჰიშ
ალაჸუნს
ალბ
ალბა
ალბანარეფი
ალბანარეფიშ
ალბანარი
ალბანეთი
ალბანეთის
ალბანეთიშ
ალბანი
ალბანურ
ალბანური
ალბასეტე
ალბეთ
ალბერ
ალბერტ
ალბერტაშ
ალბერტი
ალბერტინიშ
ალბერტიშ
ალბერტო
ალბი
ალბინუსი
ალბომეფი
ალბომეფიშ
ალბომეფს
ალბომი
ალბომიშ
ალბომო
ალბომს
ალბომქ
ალბომშა
ალბომშე
ალბომშო
ალბორანიშ
ალბრეხტ
ალბუს
ალგებრაშ
ალგებრული
ალდაბრა
ალდე
ალდერი
ალე
ალებათ
ალეგეინიშ
ალეგორიული
ალეგრო
ალევიშ
ალეკ
ალეკო
ალენ
ალენი
ალენიშ
ალენტეჟუშ
ალეპო
ალერგენიშ
ალესანდრო
ალეუტიშ
ალეუტური
ალექს
ალექსანდერ
ალექსანდრ
ალექსანდრე
ალექსანდრეს
ალექსანდრექ
ალექსანდრეშ
ალექსანდრია
ალექსანდრიას
ალექსანდრიაშ
ალექსეი
ალექსი
ალექსის
ალექსიძე
ალეჩიშ
ალეჩჰორნი
ალეხანდრო
ალეხო
ალვარი
ალვარიშ
ალვარო
ალთაიშ
ალთაური
ალი
ალიანსი
ალიანსის
ალიანსიშ
ალიასკა
ალიასკას
ალიასკაშ
ალიგიერი
ალიევი
ალიევიშ
ალიენდე
ალიკანტე
ალიო
ალის
ალისა
ალისია
ალიტუსიშ
ალიქ
ალიშ
ალიშა
ალიჩა
ალკალოიდეფს
ალკოჰოლი
ალკოჰოლიშ
ალკოჰოლური
ალმა
ალმათი
ალმათიშ
ალმარენჯი
ალმარინე
ალმასი
ალმასიშ
ალმასქუ
ალმასქუს
ალმასქუქ
ალმასქუშ
ალმასქუწკჷმა
ალმაშარე
ალმაშარეეფი
ალმაშარეეფიშ
ალმაშარეეფს
ალმაშარეს
ალმაშარეშ
ალმაშარული
ალმაჩამალი
ალმახანას
ალმახანაშო
ალმახანდე
ალმახანდენს
ალმახანურ
ალმახანური
ალმაჸვენჯი
ალობა
ალობაშ
ალოის
ალონზო
ალოპეციაშ
ალპეფი
ალპეფიშ
ალპეფს
ალპეფშე
ალპეფშო
ალპინიზმიშ
ალპინისტეფიშ
ალპინისტეფქ
ალპინისტი
ალპიშ
ალპურ
ალპური
ალჟირი
ალჟირიშ
ალჟირს
ალსიდეს
ალტა
ალტერნატიულ
ალტერნატიული
ალტო
ალტუ
ალუვიურ
ალუვიური
ალუმინეშ
ალუმინი
ალუმინიშ
ალურდჷ
ალურე
ალუჩჷ
ალფა
ალფეოსი
ალფვენი
ალფვენიქ
ალფონს
ალფონსო
ალფრედ
ალფრედო
ალცჰაიმერქ
ალჰამბრა
ამ
ამაზონი
ამაზონიშ
ამაზონს
ამანდა
ამანი
ამანჯჷ
ამასია
ამასიაშ
ამასონასიშ
ამაღალება
ამაღალებაშ
ამბარცუმიანი
ამბე
ამბები
ამბეეფი
ამბეეფიშ
ამბეეფს
ამბეს
ამბეფი
ამბეფიშ
ამბექ
ამბეშ
ამბონი
ამბროლაური
ამბროლაურიშ
ამბულატორია
ამბუსტუსი
ამდღა
ამდღათ
ამდღანერ
ამდღანერი
ამდღანერშო
ამდღარ
ამდღარდღაშო
ამდღარი
ამდღარშა
ამდღარშახ
ამდღარშო
ამდღარშოთ
ამელი
ამერიგო
ამერიკა
ამერიკალ
ამერიკალეფი
ამერიკალეფიშ
ამერიკალეფქ
ამერიკალი
ამერიკან
ამერიკას
ამერიკაქ
ამერიკაშ
ამერიკაშა
ამერიკაშე
ამერიკაწკჷმა
ამერიკელი
ამერიკულ
ამერიკული
ამი
ამიარენა
ამიენი
ამიერკავკაციას
ამიერკავკაციაშ
ამილახვარეფიშ
ამილიუსი
ამინი
ამინიშ
ამირ
ამირა
ამირეფიშ
ამირი
ამნახანტი
ამნისტია
ამონ
ამონი
ამონიშ
ამორსჷ
ამპერი
ამპლიტუდა
ამრ
ამრა
ამრელი
ამრიტსარი
ამსტერდამი
ამსტერდამიშ
ამსტერდამს
ამტყელი
ამუდარია
ამუდღა
ამუდღანერი
ამუდღარშა
ამუდღარშახ
ამუდღარშო
ამუნდსენი
ამუნდსენიშ
ამურიშ
ამუშენდეს
ამუშენს
ამფითეატრი
ამშვ
ამშვი
ამშვიშა
ამშოშ
ამხვადუნა
ამჰ
ან
ანა
ანაგი
ანაგის
ანაგიშ
ანაის
ანაკენაშ
ანალიზი
ანალიზის
ანალიზიშ
ანალიზური
ანალიტიკურ
ანალიტიკური
ანალოგი
ანალოგიურ
ანალოგიური
ანალოგიურო
ანალოგური
ანალურ
ანალური
ანანდი
ანაპურნა
ანარკია
ანარკიას
ანარკიაშ
ანარქიზმი
ანარქო
ანას
ანასტასია
ანატოლ
ანატოლი
ანატოლია
ანატოლიას
ანატოლიაშ
ანატომი
ანატომია
ანატომიას
ანატომიაშ
ანატომიური
ანაქ
ანაქსიმანდრე
ანაშ
ანბანი
ანბანით
ანბანიშ
ანბანს
ანბანური
ანბანქ
ანბანშა
ანბე
ანგანობა
ანგანობეფი
ანგარა
ანგარია
ანგარიათ
ანგარიშეფი
ანგარიში
ანგარიშის
ანგელმანიშ
ანგელოზეფი
ანგელოზეფიშ
ანგელოზი
ანგი
ანგილია
ანგიშ
ანგლიკანეფი
ანგლიკანური
ანგლო
ანგოლა
ანგოლას
ანგოლაშ
ანგურა
ანგურათ
ანგურაშ
ანდა
ანდალუსია
ანდალუსიაშ
ანდამანიშ
ანდანერი
ანდაღებულ
ანდაღებული
ანდაშა
ანდაწანიანი
ანდეზიტი
ანდეზიტური
ანდერს
ანდერსენი
ანდერსენიშ
ანდერსონი
ანდერსონიშ
ანდესიშ
ანდეფი
ანდეფიშ
ანდეფს
ანდიურ
ანდიური
ანდო
ანდონი
ანდორა
ანდორას
ანდორაშ
ანდრე
ანდრეა
ანდრეას
ანდრეი
ანდრეს
ანდრია
ანდრიჩი
ანდროიდი
ანდროიდიშ
ანდრომედა
ანდრომედაშ
ანდრონიკე
ანდური
ანდჰრა
ანემიაშ
ანექსია
ანექსიაშ
ანექსირაფილქ
ანვარ
ანზორ
ანთ
ანთალია
ანთალიაშ
ანთასობათ
ანთასწანურას
ანთება
ანთებას
ანთებაშ
ანთელავა
ანთროპოლოგი
ანთროპოლოგია
ანთროპოლოგიას
ანთროპოლოგიაშ
ანთროპოლოგიური
ანთხუ
ანი
ანიმაციურ
ანიმაციური
ანიმიზმი
ანისის
ანისულიშ
ანიტა
ანკარა
ანკარას
ანკარაშ
ანკაშიშ
ანკლავი
ანკლავს
ანომალია
ანონიმურო
ანჟელიკა
ანრი
ანსამბლი
ანსამბლის
ანსამბლიქ
ანსამბლიშ
ანტანანარივუ
ანტარქტიდა
ანტარქტიდას
ანტარქტიდაშ
ანტარქტიდული
ანტარქტიკაშ
ანტვერპენი
ანტი
ანტიგუა
ანტიგუაშ
ანტიგუურ
ანტიკლინური
ანტიკურ
ანტიკური
ანტილეფი
ანტილიაშ
ანტილიშ
ანტილოპა
ანტილოპეფი
ანტიოქე
ანტიოქიაშ
ანტირაბიული
ანტირსხულეფიშ
ანტიფაშისტური
ანტკიცენა
ანტკიცენდეს
ანტკიცენდჷ
ანტკიცენს
ანტონ
ანტონი
ანტონიმი
ანტონიო
ანტონიუ
ანტონიუს
ანტონიუსი
ანტოფაგასტა
ანტოფაგასტაშ
ანტუან
ანუ
ანურადჰაპურა
ანუსიშ
ანჩაბაძე
ანჩხაბერი
ანწი
ანჭუ
ანხელ
ანხელი
ანჯა
ანჯარელი
ანჯარეფი
ანჯარეფიშ
ანჯარეფს
ანჯარი
ანჯარით
ანჯარიშ
ანჯარს
ანჯას
ანჯელა
ანჯელესი
ანჯელესის
ანჯელესიშ
ანჯელესიშა
ანჯელესშა
ანჯელინა
ანჯელინაქ
ანჯღვერდჷ
აოსტა
აოსტას
აპ
აპალაჩეფიშ
აპალუ
აპარატეფი
აპარატეფიშ
აპარატი
აპარატის
აპარატიშ
აპარატული
აპდაიკი
აპენინეფი
აპენინიშ
აპერ
აპია
აპიანე
აპიანეშ
აპიანი
აპიანიშ
აპიანს
აპიუს
აპიჯალა
აპიჯალათ
აპიჯალას
აპიჯალაქ
აპიჯალაშ
აპიჯაფა
აპიჯაფათ
აპიჯაფას
აპიჯაფაშ
აპოლო
აპოლონ
აპოლონიოს
აპოლოშ
აპონ
აპრილი
აპულია
აპულიაშ
აპურე
არ
არა
არაბ
არაბეთი
არაბეთის
არაბეთიშ
არაბეფი
არაბეფიშ
არაბეფს
არაბეფქ
არაბი
არაბიკაშ
არაბისტიკა
არაბიშ
არაბულ
არაბული
არაბულიშ
არაბულნინამი
არაბულო
არაბულშე
არაბულწკჷმა
არაგაწოტნი
არაგვი
არაგვის
არაგვიშ
არაგონი
არაგონიშ
არავალი
არავალიშ
არაკი
არალიშ
არამ
არამეულ
არამეული
არანი
არანიშ
არანს
არარატი
არარატიშ
არასამთავრობო
არასწორი
არაუკა
არაუკანიაშ
არაფურიშ
არაქსი
არაქსიშ
არბენსიშ
არბერი
არბიტრეფიშ
არბიტრი
არგამა
არგამათ
არგამას
არგენტინა
არგენტინალი
არგენტინარი
არგენტინას
არგენტინაშ
არგენტინაწკჷმა
არგენტინულ
არგენტინული
არგვეთი
არგვეთიშ
არგო
არგონავტეფიშ
არგუმენტეფი
არგუმენტეფიშ
არგუმენტი
არგუნი
არგუსო
არგუსოს
არდგილეფს
არდგილი
არდგილს
არე
არეალეფს
არეალი
არეალიშ
არეალს
არეგულირენს
არეკიპა
არეკიპაშ
არენა
არენას
არეს
არესტოვიჩი
არვიდ
არზაშე
არზენა
არზენდეს
არზენდჷ
არზენს
არზეფი
არზეფიშ
არზეფს
არზი
არზიენს
არზით
არზის
არზიქ
არზიშ
არზუანობა
არზუანობაშ
ართ
ართათ
ართამ
ართამი
ართართ
ართართი
ართაული
ართბორჯული
ართბორჯულო
ართგვარ
ართგვარი
ართგური
ართგურობა
ართგურობაშ
ართდროულო
ართვინი
ართვინიშ
ართთასამი
ართთოლამი
ართი
ართიან
ართიანალა
ართიანი
ართიანიშ
ართიანობა
ართიანობას
ართიანობაშ
ართიანს
ართიანშა
ართიანშე
ართიანშქას
ართიანწკჷმა
ართის
ართიქ
ართიშ
ართიშა
ართმანგი
ართმანგო
ართმაჟირას
ართმაჟირაშ
ართმაჟირაშე
ართნერ
ართნერი
ართნერო
ართო
ართობა
ართობაშ
ართობურ
ართობური
ართობურო
ართობურობა
ართობურობას
ართოიან
ართოიანი
ართპალატამი
ართპარტიული
ართსქესამი
ართუ
ართუაფალი
ართუაფაშ
ართულენს
ართულეფი
ართულეფიშ
ართულეფო
ართულეფს
ართული
ართულიშ
ართულო
ართულს
ართულშე
ართურ
ართურეფი
ართურეფიშ
ართური
ართურიშ
ართურო
ართურს
ართშა
ართშე
ართწანიანი
ართხანს
ართხონარო
ართჸუდეამი
ართჸურე
არი
არიადნა
არიან
არიზონა
არიზონაშ
არითმეტიკა
არიკა
არიკეფი
არიკეფიშ
არიკი
არის
არისტარქე
არისტარქეშ
არისტოკრატი
არისტოკრატია
არისტოკრატიაშ
არისტოტელე
არისტოტელექ
არისტოტელეშ
არისტოფანე
არიული
არკ
არკადიუშ
არკანზასი
არკანზასის
არკანზასიშ
არკი
არკინი
არმაგედონი
არმავირი
არმან
არმენ
არმენიას
არმია
არმიას
არმიაქ
არმიაშ
არმიაშა
არმიაშით
არმიტიჯი
არმსტრონგი
არნოლდ
არო
აროიო
არომატი
არომატული
არომაშ
არსებენა
არსებენდ
არსებენდეს
არსებენდჷ
არსებენს
არსებითი
არსებობა
არსებობას
არსებობაშ
არსებულ
არსებული
არსენა
არსენალიშ
არსი
არსიანიშ
არსულ
არსულენა
არსულენდ
არსულენდეს
არსულენდჷ
არსულენს
არსულჷ
არსხუაფუ
არსხუაფჷ
არტ
არტაანი
არტაანიშ
არტავაზიქ
არტანუჯი
არტანუჯიშ
არტაშატი
არტაშენი
არტაშენიშ
არტერია
არტეფაქტეფი
არტეფაქტეფიშ
არტილერიაშ
არტისტ
არტისტალა
არტისტეფი
არტისტეფიშ
არტისტეფს
არტისტეფქ
არტისტეფწკჷმა
არტისტი
არტისტის
არტისტიქ
არტისტიშ
არტისტიშო
არტისტო
არტისტული
არტიურ
არტსტი
არტურ
არტური
არტურო
არუბა
არუნაჩალ
არქაბი
არქაბიშ
არქანჯელო
არქაული
არქემეფიშ
არქემი
არქემიშ
არქეოლოგეფიშ
არქეოლოგეფქ
არქეოლოგი
არქეოლოგია
არქეოლოგიას
არქეოლოგიაშ
არქეოლოგიურ
არქეოლოგიური
არქიებული
არქივეფი
არქივი
არქიმანდრიტისაჲ
არქიმედეშ
არქიპელაგი
არქიპელაგის
არქიპელაგიშ
არქიტექტორ
არქიტექტორი
არქიტექტორიშ
არქიტექტორქ
არქიტექტურა
არქიტექტურათ
არქიტექტურას
არქიტექტურაშ
არქიტექტურულ
არქიტექტურული
არქტიკაშ
არქტიკულ
არქტიკული
არღუნი
არღუნიშ
არყაფაქ
არყაფაშ
არყება
არყებას
არყებაშ
არყებულ
არყებულეფიშ
არჩიბალდ
არჩიბულ
არჩიბული
არჩილ
არჩქილე
არცხუაფუ
არძა
არძანერ
არძანერი
არძას
არძაშ
არძაშე
არძაშო
არძაშოული
არძენს
არძო
არძონერი
არძოს
არძოქ
არძოშ
არძოშე
არძოშო
არძშე
არწი
არხ
არხანგელსკი
არხანგელსკიშ
არხენტინო
არხეფი
არხეფიშ
არხეფს
არხი
არხით
არხის
არხიქ
არხიშ
არხიშე
არხო
არხოს
ას
ასა
ასაგასაშ
ასადი
ასათიანი
ასაკის
ასაკიშ
ასაკიშე
ასამ
ასამბლეა
ასამბლეას
ასამბლეაქ
ასამბლეაშ
ასამბლეაშით
ასამი
ასამიშ
ასამურ
ასამური
ასაშ
ასახიერენდჷ
ასახიერენს
ასახიერჷ
ასე
ასეთ
ასეიან
ასეიანი
ასეშა
ასეშახ
ასეშო
ასთმაშ
ასი
ასიან
ასიმა
ასიმეტრიული
ასიმილაცია
ასისი
ასისტენტ
ასისტენტი
ასისტენტო
ასკეტიზმი
ასკეტიზმის
ასკია
ასკორბინიშ
ასლან
ასლანიშ
ასმერა
ასო
ასოეფი
ასოეფით
ასოეფიშ
ასოთ
ასომთავრული
ასოს
ასოშ
ასოშე
ასოციაცია
ასოციაციას
ასოციაციაქ
ასოციაციაშ
ასოციაციეფიშ
ასოცირაფილი
ასოცირებული
ასპარეზშა
ასპექტეფი
ასპექტეფს
ასპექტი
ასპექტის
ასპექტიშ
ასპინძაშ
ასპირანტურას
ასრულენა
ასრულენდჷ
ასრულენს
ასრულჷ
ასსრ
ასტერი
ასტეროიდეფიშ
ასტეროიდეფს
ასტეროიდი
ასტეროიდის
ასტრახანიშ
ასტრიდ
ასტროლოგია
ასტრონავტი
ასტრონომეფი
ასტრონომეფიშ
ასტრონომეფქ
ასტრონომი
ასტრონომია
ასტრონომიათ
ასტრონომიას
ასტრონომიაშ
ასტრონომიულ
ასტრონომიული
ასტრონომიქ
ასტრონომიშ
ასტრონომქ
ასტროფიზიკას
ასტროფიზიკაშ
ასტროფიზიკოსი
ასტროფიზიკური
ასტურია
ასტურიაშ
ასუანიშ
ასუნსიონი
ასურალეფი
ასურალი
ასურეთი
ასურეთის
ასურეთიშ
ასურული
ასუფრე
ასფალტი
ასქიდჷ
ასქილადირი
ასხიშ
ატ
ატა
ატაკამა
ატაკამაშ
ატამა
ატარენა
ატარენდეს
ატარენდჷ
ატარენს
ატარი
ატარჷ
ატატა
ატიკა
ატილიუს
ატკინსონი
ატლანტა
ატლანტას
ატლანტაშ
ატლანტიკაშ
ატლანტიკურ
ატლანტიკური
ატლანტიშ
ატლასი
ატლასიშ
ატმოსფერო
ატმოსფეროს
ატმოსფეროშ
ატმოსფერულ
ატმოსფერული
ატოლი
ატოლიშ
ატოლს
ატომეფიშ
ატომეფს
ატომი
ატომიშ
ატომს
ატომურ
ატომური
ატონიშ
ატრატინუსი
ატრიბუტეფი
ატრიბუტი
ატუელი
აუგსბურგი
აუგურინუსი
აუგუსტ
აუგუსტო
აუგუსტუს
აუდე
აუდიო
აუდიტორიას
აუზეფს
აუზი
აუზის
აუზიშ
აულუს
აუმ
აუხვადჷ
აუჯგუშენს
აფასენდეს
აფასენს
აფასეს
აფეთქება
აფეთქებაშ
აფეთქეს
აფილირებულეფი
აფილირებული
აფინანსენდჷ
აფინანსენს
აფიონ
აფლეკი
აფლეკიშ
აფორმირენს
აფრ
აფრაზიული
აფრიკა
აფრიკაანსი
აფრიკალეფი
აფრიკალი
აფრიკას
აფრიკაშ
აფრიკაშა
აფრიკაშე
აფრიკულ
აფრიკული
აფრო
აფროამერიკალეფი
აფროამერიკალი
აფსიდეფს
აფუ
აფუდეს
აფუდუ
აფუდჷ
აფუნ
აფუნა
აფუნი
აფუნიშ
აფუნს
აფშერონიშ
აფხ
აფხაზ
აფხაზავა
აფხაზები
აფხაზეთი
აფხაზეთის
აფხაზეთიქ
აფხაზეთიშ
აფხაზეთიშე
აფხაზეთშა
აფხაზეთშე
აფხაზეფი
აფხაზეფიშ
აფხაზეფს
აფხაზი
აფხაზურ
აფხაზური
აფხაზურო
აფხვადუნა
აფხვადჷნა
აფჷ
აფჷნა
აქ
აქადური
აქბარ
აქბარქ
აქემენიანეფიშ
აქო
აქსარაი
აქსელ
აქსელერატორი
აქსელერატორული
აქსონი
აქსუ
აქსუმი
აქსუმიშ
აქტეფი
აქტეფიშ
აქტეფს
აქტი
აქტივიზმიშ
აქტივისტი
აქტივობა
აქტივობაშ
აქტით
აქტის
აქტიურ
აქტიური
აქტიურო
აქტიქ
აქტიშ
აქტუალური
აქცენტი
აქცია
აქციაქ
აქციაშ
აქციეფიშ
აქციეფქ
აღა
აღაჯი
აღვენუ
აღიარაფა
აღიარაფას
აღიარაფაშ
აღიარაფილ
აღიარაფილი
აღიარაფილიე
აღიარაფილქ
აღიარება
აღიარებული
აღიარენდეს
აღიარენს
აღიარეს
აღიარჷ
აღმაშენებელიშ
აღმაშენებელქ
აღმაშენებლისაჲ
აღმოსავლეთ
აღმოსავლეთი
აღმოსავლეთის
აღრი
აღულური
აღქმაშ
აღწერა
აღწერილობა
აღწერის
აყარებაშ
აშ
აშა
აშანტიშ
აშაძჷ
აშახვილირი
აშახვილჷ
აშდოდი
აშით
აშო
აშოკა
აშოკაშ
აშონთაფა
აშოტ
აშოტიქ
აშტარაკი
აშუ
აშშ
აშხაბადი
აშხაბადის
აშხაბადიშ
აშხვანერენა
აჩეჰი
აჩეჰიშ
აჩუქჷ
აცილიუს
აცტეკეფი
აცტეკეფიშ
აცტეკეფს
აცტეკეფქ
აცხადენდჷ
აცხადენს
აძვილებური
აძვილებურქ
აძვილეს
აძულებურქ
აწარმენა
აწარმენდჷ
აწარმენს
აწიკინჷ
აწმარენჯეფი
აწმარენჯი
აწმარენჯის
აწმარენჯიშ
აწმარენჯო
აწმარენჯობა
აწმარენჯობაშ
აწმარინე
აწმარინჯე
აწმაჸვენჯი
აწმუდირთუდჷ
აწოკინელი
აწორინალა
აწორინალაქ
აწორინალაშ
აწოჸუნდჷ
აწუდირთეს
აწუდირთუ
აწუდირთჷ
აწუნთაშ
აწურე
აჭარა
აჭარას
აჭარაშ
აჭარისწყალი
აჭარისწყალიშ
აჭარული
აჭყანიერენს
ახ
ახაზირენა
ახაზირენდეს
ახალ
ახალას
ახალგაზრდა
ახალგორიშ
ახალგორჩქინაშ
ახალდაბა
ახალეფს
ახალი
ახალიშ
ახალმორდუ
ახალნორდ
ახალნორდეფს
ახალნორდი
ახალნორდულ
ახალნორდული
ახალო
ახალობას
ახალსოფელი
ახალსოფელიშ
ახალური
ახალქალაქი
ახალქალაქიშ
ახალშე
ახალშენიშ
ახალციხე
ახალციხეშ
ახალციხეშე
ახასიათენა
ახასიათენს
ახასიათენც
ახენზეე
ახვალამეფს
ახვახური
ახვლედიანი
ახლო
ახლოს
ახმატოვა
ახმატოვაშ
ახმეტაშ
ახოლუ
ახოლჷ
ახორციალენს
ახორციელენა
ახორციელენდჷ
ახორციელენს
ახრა
ახუთი
აჯამი
აჯამური
აჯმანი
აჯმერი
აჯმერიშ
აჰალა
აჰაუ
აჰენობარბუსი
აჰვაზი
აჰმად
აჰმადაბადი
აჰმადაბადიშ
აჰმედ
აჰმედი
აჰმეთ
აჰუ
აჰუშ
აჸუ
აჸუნჷ
ბ
ბა
ბაადექ
ბაალბექი
ბაბ
ბაბილონი
ბაბილონიშ
ბაბილონს
ბაბილონური
ბაბილუა
ბაბლუანი
ბაბუ
ბაბუშ
ბაბუშარაშ
ბაგრატ
ბაგრატიონეფი
ბაგრატიონეფიშ
ბაგრატიონი
ბაგრატიონიშ
ბაგრატიქ
ბაგრატიშ
ბად
ბადახოსი
ბადე
ბადება
ბადებათ
ბადებაშ
ბადებაშახ
ბადენ
ბადენი
ბადენიშ
ბადეშ
ბადი
ბადიდი
ბადრი
ბადრიჯანი
ბავარ
ბავარია
ბავარიაშ
ბაზა
ბაზალტიშ
ბაზარი
ბაზარიშ
ბაზარს
ბაზარშა
ბაზას
ბაზაშ
ბაზაშა
ბაზაშე
ბაზელი
ბაზელიშ
ბაზეფი
ბაზეფიშ
ბაზილიკა
ბაზილიკატა
ბაზილიკაშ
ბაზირებული
ბაზისური
ბათუმი
ბათუმიშ
ბათუმს
ბათუმშა
ბათუმშე
ბაი
ბაია
ბაიერი
ბაიერნი
ბაიკალი
ბაიკალიშ
ბაიოსური
ბაირონი
ბაირონიშ
ბაკალავრიშ
ბაკარინი
ბაკელანდი
ბაკი
ბაკინგემშირი
ბაკურ
ბაკურიანი
ბაკურიანიშ
ბაკურიანს
ბალანსი
ბალანსიშ
ბალარი
ბალდა
ბალეარიშ
ბალეტი
ბალეტიშ
ბალი
ბალივიანიშ
ბალისტიკური
ბალიშ
ბალკანეთის
ბალკანეთიშ
ბალნეოლოგიური
ბალტიაშ
ბალტიკური
ბალტიმორი
ბალტიმორიშ
ბალტიმორს
ბალტიურ
ბალფური
ბალყარეთი
ბალყარეთიშ
ბალხაშიშ
ბალჯეფი
ბამბამარკა
ბამბე
ბამბეშ
ბამიანიშ
ბამინგი
ბანა
ბანაკი
ბანაკის
ბანანეფი
ბანანი
ბანანიშ
ბანასკანტჰა
ბანახი
ბანგალორი
ბანგვეულუშ
ბანგი
ბანგიშ
ბანგკოკი
ბანგკოკიშ
ბანგლადეში
ბანგლადეშის
ბანგლადეშიშ
ბანდა
ბანდარ
ბანდაშ
ბანდერასი
ბანდეფი
ბანი
ბანია
ბანკეფი
ბანკეფიშ
ბანკი
ბანკის
ბანკიქ
ბანკიშ
ბანკნოტეფი
ბანკნოტეფიშ
ბანკნოტეფს
ბანკნოტის
ბანსვარა
ბანტუშ
ბანძაშ
ბანძღი
ბანჯული
ბარ
ბარათაშვილი
ბარათაშვილიშ
ბარათეონიშ
ბარათი
ბარაკ
ბარამიძე
ბარანი
ბარბადოსი
ბარბადოსიშ
ბარბალი
ბარბარა
ბარბაროსი
ბარბატუსი
ბარბრა
ბარბუდა
ბარბუდაშ
ბარგი
ბარგიშ
ბარდემი
ბარდინი
ბარდონი
ბარენციშ
ბარესი
ბარეტი
ბარეტიქ
ბარეტიშ
ბარეფი
ბართელმი
ბართვამი
ბართვეფი
ბართვეფიშ
ბართვეფს
ბართვი
ბართვიშ
ბართვოდიარე
ბართვონი
ბარი
ბარიერი
ბარიერს
ბარიერული
ბარიქ
ბარიშ
ბარკლაქ
ბარმერი
ბარნარდი
ბარნარდიქ
ბარნარდიშ
ბარნაული
ბარნსი
ბაროკოშ
ბარომეტრი
ბარონ
ბარონი
ბაროუ
ბარსელონა
ბარსელონას
ბარსელონაშ
ბარსუმიშ
ბარტ
ბარტონი
ბარტონიშ
ბარულ
ბარუხ
ბარჩხალა
ბას
ბასი
ბასილაია
ბასილი
ბასკეთი
ბასკეთიშ
ბასკეფი
ბასკეფიშ
ბასკური
ბასტოსი
ბატა
ბატერფლაი
ბატი
ბატისტ
ბატისტა
ბატისტაშ
ბატონიშვილი
ბატონიშვილიშ
ბატორი
ბატუტა
ბატუტაშ
ბაუერი
ბაუმი
ბაუტისტა
ბაფინიშ
ბაფტა
ბაფტაშ
ბაქანი
ბაქანიშ
ბაქო
ბაქოს
ბაქოშ
ბაქრაძე
ბაქრიქ
ბაქსანიშ
ბაქტერია
ბაქტერიაშ
ბაქტერიეფი
ბაქტერიეფიშ
ბაქტერიეფს
ბაქტერიოლოგი
ბაქტერიოლოგიაშ
ბაქტერიული
ბაღ
ბაღანა
ბაღანას
ბაღანაქ
ბაღანაშ
ბაღანაშე
ბაღანეფი
ბაღანეფიშ
ბაღანეფს
ბაღანეფშო
ბაღანობა
ბაღანობას
ბაღანობაშ
ბაღანობაშე
ბაღდადი
ბაღდადის
ბაღდადიშ
ბაღდათიშ
ბაღეფი
ბაღეფიშ
ბაღეფს
ბაღვაში
ბაღი
ბაღის
ბაღიქ
ბაღიშ
ბაღჷრე
ბაღჷრეშნერეფიშ
ბაში
ბაშკირეთი
ბაშკირეთიშ
ბაშკირეფი
ბაშკირული
ბაცბურ
ბაცბური
ბაძაძეფი
ბაძაძეფით
ბაძაძეფიშ
ბაძაძეფს
ბაძაძი
ბაძაძით
ბაძაძის
ბაძაძიქ
ბაძაძიშ
ბაძაძო
ბახვისწყალი
ბახვისწყალიშ
ბახი
ბახიქ
ბახიშ
ბახმარო
ბახმაროშ
ბაჰაიზმიშ
ბაჰამიშ
ბაჰრ
ბაჰრეინი
ბაჰრეინიშ
ბაჰრეინს
ბაჰრეინული
ბებესირი
ბები
ბეგა
ბეგავანი
ბეგბედერი
ბეგბედერიშ
ბეგი
ბეგინსი
ბეგლარ
ბედან
ბედენიშ
ბედი
ბედიაშ
ბედინერ
ბედინერი
ბედინერობაშ
ბედიშ
ბედრჟიხ
ბედუინეფი
ბედუინეფიშ
ბეერ
ბევერლი
ბევრი
ბეზენგიშ
ბეთ
ბეთე
ბეთექ
ბეთეშ
ბეთჰოვენიშ
ბეი
ბეით
ბეიკერი
ბეიკერიშ
ბეილი
ბეილინი
ბეირუთი
ბეის
ბეისბოლიშ
ბეიტსი
ბეიშ
ბეკენშტეინი
ბეკერელი
ბეკერი
ბეკერიშ
ბეკონი
ბეკონიშ
ბეკუსი
ბელ
ბელა
ბელადი
ბელაია
ბელარ
ბელარუსეფი
ბელარუსი
ბელარუსის
ბელარუსიშ
ბელარუსიწკჷმა
ბელარუსული
ბელატრისა
ბელაქანი
ბელაქანიშ
ბელგია
ბელგიარი
ბელგიას
ბელგიაშ
ბელგოროდიშ
ბელგრადი
ბელგრადიშ
ბელი
ბელიზი
ბელიზის
ბელიზიშ
ბელინსჰაუზენიშ
ბელიქ
ბელიშ
ბელორუსიაშ
ბელორუსიშ
ბელოსტოკი
ბელუჩი
ბელუჯეფი
ბელუჯისტანი
ბელუჯისტანიშ
ბელუჯისტანს
ბელფასტი
ბელცი
ბემოლ
ბენ
ბენაშვილი
ბენგ
ბენგალი
ბენგალის
ბენგალიშ
ბენგალს
ბენგალურ
ბენგალური
ბენდერი
ბენდი
ბენდიშ
ბენდუქიძე
ბენდუქიძექ
ბენედიქტ
ბენედიქტე
ბენეტ
ბენეტი
ბენი
ბენილუქსიშ
ბენინი
ბენინიშ
ბენინს
ბენისიო
ბენიტო
ბენიშ
ბენკროფტი
ბენჯამინ
ბერ
ბერაძე
ბერბერ
ბერბერეფი
ბერბერეფიშ
ბერბერი
ბერბერო
ბერბერულ
ბერბერული
ბერბიჯი
ბერგენ
ბერგმანი
ბერგსტრიომი
ბერდი
ბერდიაევი
ბერდიაევქ
ბერეზანი
ბერეფიშ
ბერი
ბერია
ბერიას
ბერიაქ
ბერიაშ
ბერიმორი
ბერინგი
ბერინგიშ
ბერიქ
ბერიძე
ბერკლი
ბერკლის
ბერკლიშ
ბერლინ
ბერლინგტონი
ბერლინი
ბერლინიშ
ბერლინს
ბერლინშა
ბერმუდაშ
ბერმუდიშ
ბერნაბეუ
ბერნალი
ბერნალიქ
ბერნარ
ბერნარდ
ბერნარდო
ბერნარი
ბერნერს
ბერნი
ბერნიშ
ბერნსი
ბერნჰარდ
ბერო
ბეროუზი
ბეროუზიშ
ბერტ
ბერტა
ბერტლო
ბერტოლუჩი
ბერტონ
ბერტრან
ბერცელიუსი
ბერცელიუსიქ
ბერძ
ბერძენ
ბერძენეფი
ბერძენეფიშ
ბერძენეფს
ბერძენეფქ
ბერძენი
ბერძენიშვილი
ბერძენულ
ბერძენული
ბერძენულო
ბერძენულს
ბერძენულშე
ბერძნ
ბერძნულ
ბერძნული
ბერძნულო
ბერჭილიშ
ბერჯეკი
ბესარიონ
ბესკიდეფი
ბესლეთი
ბესლეთიშ
ბესონი
ბესტსელერეფიშ
ბესტსელერი
ბესტსელერო
ბეტა
ბეტანი
ბეტი
ბეტმენი
ბეტმენიშ
ბეტონიშ
ბექ
ბექა
ბექაური
ბექვიზ
ბექი
ბექჰემი
ბექჰემქ
ბეშტელი
ბეშტუა
ბეჩა
ბეჩო
ბეჯი
ბზიფიშ
ბზოთონჯი
ბზოთონჯის
ბი
ბია
ბიატლონი
ბიაშ
ბიბერი
ბიბერქ
ბიბი
ბიბლა
ბიბლათ
ბიბლეფო
ბიბლია
ბიბლიას
ბიბლიაშ
ბიბლიოგრაფია
ბიბლიოთეკა
ბიბლიოთეკარი
ბიბლიოთეკას
ბიბლიოთეკაქ
ბიბლიოთეკაშ
ბიბლიოთეკის
ბიბლიური
ბიგ
ბიგელოუ
ბიგჰორნიშ
ბიდგოშჩი
ბიდჰია
ბიზანტია
ბიზანტიარეფი
ბიზანტიარეფიშ
ბიზანტიარეფს
ბიზანტიარეფქ
ბიზანტიარი
ბიზანტიას
ბიზანტიაქ
ბიზანტიაშ
ბიზანტიურ
ბიზანტიური
ბიზნეს
ბიზნესი
ბიზნესის
ბიზნესიშ
ბიზნესმენი
ბიზნესმენიშ
ბითლზიშ
ბიკანერი
ბილ
ბილა
ბილბაო
ბილბაოშ
ბილბო
ბილბორდ
ბილბორდი
ბილბორდიშ
ბილეთიქ
ბილი
ბილიარდიშ
ბილიშ
ბილროთი
ბილროთიქ
ბიმბო
ბინ
ბინა
ბინას
ბინგემი
ბინგემქ
ბინდი
ბინდიშ
ბინეხი
ბინეხიშ
ბინი
ბინიშ
ბინოში
ბიო
ბიოგეოგრაფია
ბიოგრაფი
ბიოგრაფია
ბიოგრაფიაშ
ბიოგრაფიაშე
ბიოგრაფიეფი
ბიოგრაფიეფიშ
ბიოგრაფიულ
ბიოგრაფიული
ბიოგრაფიშ
ბიოი
ბიოლოგი
ბიოლოგია
ბიოლოგიას
ბიოლოგიაშ
ბიოლოგიურ
ბიოლოგიური
ბიოლოგიურო
ბიონსე
ბიოსფერო
ბიოსფეროს
ბიოსფეროშ
ბიოსფერული
ბიოფიზიკაშ
ბიოფიზიკოსი
ბიოქიმია
ბიოქიმიას
ბიოქიმიაშ
ბიოქიმიკოსი
ბიოქიმიური
ბირა
ბირათ
ბირას
ბირაქ
ბირაშ
ბირაშო
ბირგული
ბირგულიშ
ბირგულს
ბირგულშე
ბირეფი
ბირეფით
ბირეფიშ
ბირეფს
ბირთვის
ბირთვიშ
ბირთვულ
ბირთვული
ბირთვური
ბირკბეკიშ
ბირმა
ბირმანი
ბირმაშ
ბირმინგემი
ბირმინგემიშ
ბირმულ
ბირმული
ბირნი
ბირჟას
ბირტყა
ბირტყას
ბირცხა
ბირცხაშ
ბირცხეფს
ბისაუ
ბისაუშ
ბისექსუალობა
ბისკაია
ბისკაიაშ
ბისკაიშ
ბისმარკი
ბისმარკიშ
ბისტრიცა
ბიტი
ბიურო
ბიუროკრატიული
ბიუროს
ბიუროშ
ბიუსტი
ბიუჯეტი
ბიუჯეტით
ბიუჯეტიშ
ბიში
ბიშკეკი
ბიჩერ
ბიჩი
ბიძინა
ბიწორა
ბიწორას
ბიწორი
ბიჭვინთა
ბიჭვინთაშ
ბიჯგეფი
ბიჯგი
ბიჯგის
ბიჰარა
ბიჰარი
ბიჰარიშ
ბიჰარს
ბლამბერგი
ბლანსკო
ბლანტი
ბლანშეტი
ბლეიდი
ბლეიკ
ბლეიკი
ბლეიკიქ
ბლეიკიშ
ბლეკ
ბლეკი
ბლეკიშ
ბლერი
ბლექ
ბლექი
ბლექუელიქ
ბლოგი
ბლოკი
ბლოკის
ბლოკიქ
ბლოკიშ
ბლომბერგენი
ბლუ
ბლუზ
ბლუზი
ბლუზიშ
ბლუმი
ბო
ბოასი
ბოასიქ
ბობ
ბობი
ბობოხიძე
ბოგდან
ბოგოტა
ბოდენიშ
ბოდლერი
ბოვარი
ბოვუარი
ბოზე
ბოთილეფშა
ბოთილს
ბოიერი
ბოილი
ბოილიშ
ბოკაჩო
ბოკერია
ბოკი
ბოკიშ
ბოლდუინი
ბოლენი
ბოლი
ბოლივარი
ბოლივარიშ
ბოლივია
ბოლივიარ
ბოლივიარი
ბოლივიას
ბოლივიაშ
ბოლივიაშა
ბოლივიაწკჷმა
ბოლივუდი
ბოლივუდიშ
ბოლნისი
ბოლნისიშ
ბოლო
ბოლონია
ბოლონიას
ბოლონიაშ
ბოლოს
ბოლოშ
ბოლოშა
ბოლოშახ
ბოლოშე
ბოლოშო
ბოლუ
ბოლშევიკეფიშ
ბოლშევიკურ
ბოლშევიკური
ბოლცმანიშ
ბომბეი
ბომბეიშ
ბომბი
ბომბიშ
ბომბუაშ
ბონ
ბონაპარტი
ბონაპარტიქ
ბონაპარტიშ
ბონას
ბონდი
ბონდიშ
ბონდო
ბონემ
ბონი
ბონიფაციუს
ბონიშ
ბონო
ბორა
ბორბოლია
ბორდენი
ბორდო
ბორდოშ
ბორი
ბორია
ბორიას
ბორიაშ
ბორიაშულ
ბორიეფი
ბორიეფიშ
ბორის
ბორიშ
ბორკეფი
ბორკეფიშ
ბორკი
ბორლოუგი
ბორნეო
ბორნი
ბორნიშ
ბოროყვარია
ბორუსია
ბორჩხა
ბორჩხაშ
ბორხესი
ბორხესის
ბორხესიშ
ბორჯეფიშ
ბორჯეფს
ბორჯი
ბორჯით
ბორჯის
ბორჯისჷთ
ბორჯისჷნე
ბორჯიქ
ბორჯიშ
ბორჯიშა
ბორჯიშახ
ბორჯიშე
ბორჯიშო
ბორჯიშოღალი
ბორჯო
ბორჯომ
ბორჯომი
ბორჯომის
ბორჯომიშ
ბორჯომს
ბორჯომშა
ბორჯღალა
ბორჯშა
ბოსვაშიშ
ბოსნ
ბოსნია
ბოსნიარეფი
ბოსნიარი
ბოსნიაშ
ბოსნიური
ბოსტონი
ბოსტონიშ
ბოსტონს
ბოსფორიშ
ბოტადი
ბოტანიკა
ბოტანიკას
ბოტანიკაშ
ბოტანიკოსი
ბოტანიკურ
ბოტანიკური
ბოტნიაშ
ბოტსვანა
ბოტსვანას
ბოტსვანაშ
ბოუენი
ბოუი
ბოფორტიშ
ბოქვი
ბოქვიშ
ბოქსიორი
ბოქსიტეფი
ბოქსიშ
ბოშეფი
ბოშეფიშ
ბოში
ბოშის
ბოშიქ
ბოშიშ
ბოწოწი
ბოწოწით
ბოხუმი
ბოჰემიაშ
ბოჰრა
ბჟა
ბჟად
ბჟადაალ
ბჟადაალს
ბჟადაალშე
ბჟადალ
ბჟადალაშე
ბჟადალი
ბჟადალიშ
ბჟადალიშე
ბჟადალს
ბჟადალუ
ბჟადალურ
ბჟადალური
ბჟადალუს
ბჟადალუშ
ბჟადალუშა
ბჟადალუშე
ბჟადალშა
ბჟადალშახ
ბჟადალშე
ბჟადალჸურე
ბჟაეილშე
ბჟაეიო
ბჟაეიოლ
ბჟაეიოლი
ბჟაეიოლით
ბჟაეიოლიშ
ბჟაეიოლიშე
ბჟაეიოლიშჸურე
ბჟაეიოლს
ბჟაეიოლუ
ბჟაეიოლურ
ბჟაეიოლური
ბჟაეიოლუშ
ბჟაეიოლშა
ბჟაეიოლშე
ბჟაეიოლჸურე
ბჟათ
ბჟაიოლ
ბჟაიოლშე
ბჟალამი
ბჟას
ბჟაშ
ბჟაშე
ბჟაში
ბჟაშიერი
ბჟაშუმუ
ბჟაშუმუეფი
ბჟაშუმუეფიშ
ბჟაწვენს
ბჟაწკჷმა
ბჟდ
ბჟე
ბჟეიოლ
ბჟეიოლი
ბჟეიოლშე
ბჟეშ
ბჟუჟი
ბრაბანტიშ
ბრაგა
ბრაგაშ
ბრაზავილი
ბრაზილია
ბრაზილიარეფი
ბრაზილიარი
ბრაზილიას
ბრაზილიაშ
ბრაზილიაშა
ბრაზილიაწკჷმა
ბრაზილიური
ბრაზოსი
ბრაზოსის
ბრაიან
ბრალი
ბრანდენბურგი
ბრანდენბურგიშ
ბრანდო
ბრანდონ
ბრანსუიკი
ბრასი
ბრატისლავა
ბრაუნი
ბრაუნიშ
ბრაუნქ
ბრაჰე
ბრაჰექ
ბრაჰმანიზმი
ბრაჰმაპუტრა
ბრაჰმაპუტრაშ
ბრაჰმაშ
ბრეგი
ბრეგიქ
ბრედ
ბრედბერიშ
ბრედლი
ბრედფორდ
ბრელ
ბრელაშო
ბრელთოლამი
ბრელი
ბრელიე
ბრელით
ბრელს
ბრელქ
ბრელშა
ბრემ
ბრემენი
ბრემენიშ
ბრენდა
ბრენდან
ბრენდი
ბრენდიშ
ბრენერი
ბრენჩ
ბრესლაუ
ბრესლაუშ
ბრესტ
ბრესტი
ბრესტიშ
ბრეტ
ბრეტანი
ბრეტანიშ
ბრეტონული
ბრეუსთერი
ბრექჩიეფით
ბრეხტი
ბრეხტიშ
ბრიანსკიშ
ბრიგანტეფი
ბრიენციშ
ბრიზბენი
ბრიზი
ბრიკამა
ბრილიანტიშ
ბრინერი
ბრინჯაოშ
ბრინჯიშ
ბრისტოლი
ბრისტოლიშ
ბრიტანალ
ბრიტანალეფქ
ბრიტანალი
ბრიტანეთი
ბრიტანეთის
ბრიტანეთიქ
ბრიტანეთიშ
ბრიტანეთიშა
ბრიტანეთიშე
ბრიტანეთშა
ბრიტანიკა
ბრიტანიკას
ბრიტანიკაშ
ბრიტანიკაშე
ბრიტანულ
ბრიტანული
ბრიტეფიშ
ბრიტნი
ბრიუგე
ბრიული
ბრიუს
ბრიუსელი
ბრიუსელიშ
ბრიუსელს
ბრიუსი
ბრიუსიშ
ბრიუსტერი
ბრიჯესი
ბრიჯი
ბრიჯიტ
ბრიჯმენი
ბრიჯტაუნი
ბრნო
ბრნოშ
ბროდვეის
ბროდვეიშ
ბროკჰაუზიშ
ბრონზე
ბრონზეშ
ბრონტე
ბრონქსი
ბრონქსის
ბროსნანი
ბროუდ
ბროუდბენტი
ბროუდი
ბრუკი
ბრუკიშ
ბრუკლინი
ბრუკლინიშ
ბრუკლინს
ბრუნეი
ბრუნეიშ
ბრუნი
ბრუნო
ბრუო
ბრუოვითოშიანეფი
ბრუოვითოშიანი
ბრუოშ
ბრუოშა
ბრუს
ბრუტუსი
ბრძოლა
ბუ
ბუაჩიძე
ბუბულკუს
ბუგენვილიშ
ბუგი
ბუგიშ
ბუდა
ბუდაპეშტი
ბუდაპეშტის
ბუდაპეშტიშ
ბუდაშ
ბუდეიოვიცე
ბუდიზმი
ბუდიზმიქ
ბუდიზმიშ
ბუდისტეფი
ბუდისტი
ბუდისტურ
ბუდისტური
ბუენოს
ბუვარი
ბუზოლიჩი
ბუკავუ
ბუკერიშ
ბუკია
ბუკიტ
ბუკმოლიშ
ბუკოვსკი
ბულათიშ
ბულგ
ბულგაკოვი
ბულგაკოვიშ
ბულგარალეფი
ბულგარეთი
ბულგარეთის
ბულგარეთიქ
ბულგარეთიშ
ბულგარეფიშ
ბულგარულ
ბულგარული
ბულეკი
ბულვარი
ბული
ბულიშ
ბულიწყუ
ბულოკი
ბულს
ბუმა
ბუმაშ
ბუმი
ბუმიშ
ბუნა
ბუნათ
ბუნას
ბუნაქ
ბუნაშ
ბუნაშა
ბუნაშე
ბუნაშით
ბუნაშო
ბუნაწკჷმა
ბუნდესკანცლერი
ბუნდესპრეზიდენტი
ბუნდი
ბუნეფი
ბუნეფით
ბუნეფიშ
ბუნეფო
ბუნეფს
ბუნეფქ
ბუნეფშე
ბუნეფწკჷმა
ბუნზენი
ბუნზენიშ
ბუნი
ბუნიობაშ
ბუნიშ
ბუნობაშ
ბუნურ
ბუნური
ბუნშა
ბურ
ბურბონეფიშ
ბურბონი
ბურგასი
ბურგოსი
ბურგოსიშ
ბურდურიშ
ბურდღა
ბურდღას
ბურდღაშ
ბურეფიშ
ბურთანა
ბურთანეფი
ბურთი
ბურთით
ბურთის
ბურთიქ
ბურთიშ
ბური
ბურიატეთი
ბურიატეთიშ
ბურიატეფიშ
ბურიატული
ბურკინა
ბურჟუაზიული
ბურსა
ბურსაშ
ბურუნდი
ბურუნდის
ბურუნდიშ
ბურუსი
ბურჯანაძე
ბურჯაფეფი
ბურჯაფეფს
ბურჯაფი
ბურჯაფის
ბურჯაფიქ
ბურჯაფიშ
ბუტუტია
ბუფალო
ბუფალოშ
ბუფერული
ბუქარესტი
ბუში
ბუშიქ
ბუშიშ
ბუშმენეფი
ბუხარა
ბუხარაშ
ბუხენვალდიშ
ბუჯგუა
ბწკარამი
ბხვადუნა
ბჰაბჰა
ბჰაგავადგიტა
ბჰავნაგარი
ბჰანდარი
ბჰარატპური
ბჰარუჩი
ბჰილვარა
ბჰოჯპური
ბჰუბანეშვარი
ბჰუტანი
ბჰუტანიშ
ბჰუტანს
გ
გა
გაათუ
გაამა
გაახალჷ
გაბარეფი
გაბარეფს
გაბარი
გაბარიშ
გაბარს
გაბაშვილი
გაბონი
გაბონიშ
გაბორი
გაბრას
გაბრიელ
გაბრიელა
გაბრიელი
გაბუნია
გაგა
გაგარინიშ
გაგაჩამეფიშ
გაგაჩამეფს
გაგაჩამი
გაგაჩიშ
გაგება
გაგებათ
გაგებას
გაგებაშ
გაგია
გაგიდა
გაგინძორებაშ
გაგინძორჷ
გაგმაცხადეს
გაგმაცხადჷ
გაგრა
გაგრაშ
გაგრძელება
გაგშერთჷ
გაგჷნძორჷ
გადაცემა
გადოთი
გადუდიშალეს
გადუდიშულუ
გადუდიშულჷ
გავალი
გავალს
გავარი
გავითარჷ
გავრილოვიშ
გაზ
გაზარხულს
გაზეთ
გაზეთეფი
გაზეთეფიშ
გაზეთეფს
გაზეთი
გაზეთის
გაზეთიშ
გაზი
გაზით
გაზიშ
გათუ
გათჷ
გაი
გაიანა
გაიანაშ
გაიდუზეკიქ
გაირდნერიშ
გაიუს
გაიუსი
გაიუსიშ
გაკვეთილეფი
გალ
გალავანიშ
გალაკტიონ
გალაკტიონიშ
გალამ
გალაპაგოსიშ
გალაქტიკა
გალაქტიკას
გალაქტიკაშ
გალაქტიკაშე
გალაქტიკეფი
გალაქტიკეფიშ
გალაქტიკეფს
გალაქტიკური
გალბა
გალე
გალეგანობა
გალეგანობეფი
გალეიან
გალეიანი
გალენ
გალენგანობა
გალენი
გალენიშ
გალენოსი
გალენურ
გალენური
გალერეა
გალერეას
გალერეაშ
გალეფი
გალეფიშ
გალეშე
გალი
გალია
გალიას
გალილეა
გალილეას
გალილეიშ
გალილეო
გალისია
გალისიაშ
გალიშ
გალიშე
გალიციაშ
გალუანი
გალუსი
გამ
გამა
გამაგე
გამათ
გამაკოჩი
გამალ
გამამინჯალა
გამამინჯალას
გამამინჯალაშ
გამამინჯე
გამას
გამაქ
გამაშ
გამბია
გამბიას
გამბიაშ
გამგე
გამგეობაშ
გამნარყეფი
გამნარყეფს
გამნარყი
გამნარყის
გამნარყიშ
გამნარყობაშ
გამო
გამოკვლევა
გამომც
გამომცემლობა
გამორსა
გამოც
გამოცემა
გამპი
გამსახურდია
გამსახურდიაქ
გამსახურდიაშ
გამუკორჩქინდჷ
გამშეღჷ
განა
განათება
განათებაშ
განათებული
განათლება
განათლებაშ
განაპოლსკი
განას
განაშ
განგანაგარი
განგი
განგის
განგიშ
განდაკი
განდალფი
განდი
განდინაგარი
განდიქ
განდიშ
განედეფს
განედი
განედის
განედიშ
განედური
განი
განიერ
განიერი
განივ
განიშ
განმარტებითი
განობა
განობას
განობაშ
განობეფი
განობეფს
განს
განსუშ
განტოლებეფი
განტოლებეფიშ
განშა
განშე
განც
განცხადება
განძი
განძიშ
განწხანს
განწხანც
განჯა
განჯას
განჯაშ
გაოსიუნი
გარა
გარანტი
გარახა
გარახონაიშ
გარბერი
გარგანოშ
გარდა
გარდაბანი
გარდაბანიშ
გარდაშ
გარდნერი
გარემო
გარემოს
გარემოშ
გართანს
გარი
გარიბალდი
გარიბალდის
გარიბალდიქ
გარიბალდიშ
გარიგა
გარიგაშ
გარკვეულ
გარკვეული
გარკვიებულ
გარკვიებული
გარკვიულ
გარკვიული
გარნერი
გარნიზონი
გარონა
გარსია
გარტყჷ
გარფილდი
გარღვინჯებული
გარჩქინჷ
გარჩქჷ
გარძახ
გას
გასა
გასაშ
გასახიერებათ
გასახიერებული
გასახიერჷ
გასერი
გასთინი
გასკელი
გასკელიშ
გასქვამებული
გატარჷ
გატეფი
გაუდი
გაუდიშ
გაულა
გაულას
გაულაშ
გაუქვუ
გაუქვჷ
გაუჯგუშებული
გაუჯგუშჷ
გაფართინუ
გაფორმჷ
გაფრინდაშვილი
გაღა
გაღიერი
გაშ
გაშენებული
გაშერბრუმ
გაჩემება
გაჩენდჷ
გაჩერებული
გაჩერჷ
გაჩეჩილაძე
გაჩინებაფუ
გაჩქჷ
გაცხადეს
გაცხადჷ
გაჭირებას
გაჭყეს
გაჭყუ
გაჭყჷ
გახაზირებული
გახარია
გახარიაშ
გაჯოგალი
გდანსკი
გდრ
გე
გეახალჷ
გებიშ
გეგანიუს
გეგაფილი
გეგაშ
გეგენს
გეგეჭკორი
გეგეჭკორიშ
გეგია
გეგინძორჷ
გეგლანწყეს
გეგმა
გეგმათ
გეგმას
გეგმაქ
გეგმაშ
გეგმაცხადეს
გეგმაცხადჷ
გეგმაჸათეს
გეგმელი
გეგმეფი
გეგმიური
გეგმიქიმინჷ
გეგმიცხადჷ
გეგმუცხადჷ
გეგნაკეთეს
გეგნასვანჯეს
გეგნაჩჷ
გეგნახორეს
გეგნიკეთჷ
გეგნირდჷ
გეგნირთჷ
გეგნიქიმინჷ
გეგნიღეს
გეგნიღჷ
გეგნიხორეს
გეგნიხორჷ
გეგნიჸონეს
გეგნოდირთჷ
გეგნორაჸეს
გეგნორთეს
გეგნორთჷ
გეგნოფურინჷ
გეგნოჩეს
გეგნოჩჷ
გეგნოჭვეს
გეგნოჭყვიდეს
გეგნოჭყვიდჷ
გეგშაგორეს
გეგშაგორჷ
გეგშარაჸეს
გეგშართჷ
გეგშაშქვეს
გეგშაშქჷ
გეგშაჸათეს
გეგშეგორეს
გეგშერთჷ
გედგეს
გედგჷ
გედგჷდჷ
გედვალა
გედვალირი
გედირთჷ
გედუ
გევარა
გევარას
გევარაქ
გევარაშ
გევარაშით
გევენჯი
გევითარჷ
გეზა
გეზათ
გეზას
გეზაშ
გეთაყვა
გეთმუძინანა
გეთუ
გეთჷ
გეი
გეიტსი
გეკანწყუ
გეკიდილი
გელა
გელათიშ
გელდერლანდიშ
გელოვანი
გელონი
გელურ
გემანგარჷ
გემანთხაფალი
გემანთხაფალიშ
გემანთხაფალს
გემანთხაფალქ
გემანტირე
გემარენჯი
გემაჸვენჯ
გემაჸვენჯალა
გემაჸვენჯეეფი
გემაჸვენჯეფი
გემაჸვენჯეფიშ
გემაჸვენჯეფს
გემაჸვენჯი
გემაჸვენჯობა
გემაჸვენჯობას
გემბონი
გემეფიშ
გემთიღჷ
გემინდორიას
გემინუსი
გემიშართჷ
გემიშეჭკირჷ
გემიშეჸონეს
გემო
გემოთ
გემოს
გემოშ
გემუან
გემუანი
გემშართეს
გემშართჷ
გემშეღეს
გემშეღჷ
გემშეჭკირეს
გემშეჭკირჷ
გემშეჸონეს
გემშეჸონჷ
გემშიღჷ
გემშიჭკირჷ
გენაძახა
გენეალოგია
გენეზისი
გენერალ
გენერალი
გენერალიშ
გენერალურ
გენერალური
გენერალქ
გენერატორი
გენეტიკა
გენეტიკას
გენეტიკაშ
გენეტიკოსი
გენეტიკურ
გენეტიკური
გენეტიკურო
გენთხაფა
გენთხაფას
გენთხაფაშ
გენთხაფური
გენი
გენიალური
გენიაშ
გენიოსი
გენიტალური
გენოციდი
გენოციდიშ
გენტი
გენტიშ
გენუა
გენუას
გენუაშ
გენური
გენუციუს
გენშართჷ
გენძალიერჷ
გენწყილი
გენჭირათ
გენჯირაფონ
გეოგრაფი
გეოგრაფია
გეოგრაფიას
გეოგრაფიაშ
გეოგრაფიის
გეოგრაფიულ
გეოგრაფიული
გეოგრაფიულო
გეოდეზიური
გეოთერმული
გეოლოგი
გეოლოგია
გეოლოგიას
გეოლოგიაშ
გეოლოგიურ
გეოლოგიური
გეოლოგიურო
გეომაგნიტური
გეომეტრია
გეომეტრიას
გეომეტრიაშ
გეომეტრიული
გეოპოლიტიკური
გეორგ
გეორგია
გეორგიევსკიშ
გეოფიზიკური
გეოცენტრიზმი
გეოცენტრული
გეპონილი
გეპონუ
გეპონუათ
გეპონჷ
გერ
გერბეფი
გერბი
გერბიშ
გერგეზეფი
გერგეზეფიშ
გერგეზეფს
გერგეზი
გერგეზის
გერგეზიქ
გერგეზიშ
გერგი
გერგიშ
გერგოათუთა
გერგობა
გერგობათუთა
გერგობათუთას
გერგობათუთაშ
გერგობათუთაშახ
გერგობათუთაშე
გერდეს
გერდჷ
გერე
გერედჷ
გერენა
გერთელი
გერი
გერინაფილი
გერინაფონ
გერინელი
გერიშ
გერმ
გერმან
გერმანალ
გერმანალეფი
გერმანალეფიშ
გერმანალეფქ
გერმანალი
გერმანია
გერმანიას
გერმანიაქ
გერმანიაშ
გერმანიაშა
გერმანიაშე
გერმანიაშით
გერმანიაწკჷმა
გერმანიკული
გერმანულ
გერმანული
გერმანულნინამ
გერმანულნინამი
გერმანულო
გერმანულს
გერმანულწკჷმა
გერნსბეკიქ
გერნსი
გერსხილ
გერსხილი
გერსხილიე
გერსხუ
გერსხუაფილი
გერსხუდჷ
გერსხჷ
გერტრუდ
გერჯგინაშ
გერჰარდ
გეტინგენი
გეტინგენიშ
გეტირხჷ
გეტსბი
გეუკუმელაფა
გეუკუმელაფაქ
გეუკუმელაფაშ
გეუფრაშჷ
გეუქვუ
გეუქვჷ
გეუძინჷ
გეუჯგუშჷ
გეფართუ
გეფართჷ
გეფერიძე
გეფორმჷ
გეღანი
გეღარქუნიქი
გეშა
გეშათ
გეშალჷ
გეშან
გეშართჷ
გეშაჭყვიდჷ
გეშკე
გეშკექ
გეშქუმალა
გეშქუმალათ
გეშქუმალაშ
გეშქუმალაშახ
გეჩინებაფუ
გეჩინებაფუანს
გეძინა
გეძინათ
გეძინაფონ
გეძინაფონი
გეძინაშ
გეძინელ
გეძინელი
გეძინელო
გეძჷ
გეწ
გეწას
გეჭარჷ
გეჭოფეს
გეჭოფუ
გეჭოფჷ
გეჭყანიერჷ
გეხანტჷ
გეხვილჷ
გეხორაფეფი
გეჯიკაფა
გეჸვენჯ
გეჸვენჯი
გეჸვენჯის
გეჸვენჯიშობურო
გეჸვენჯო
გეჸვეჯი
გეჸუნა
გეჸუნდჷ
გეჸუნს
გვ
გვადალახარა
გვადელუპა
გვალა
გვალათ
გვალათონა
გვალამ
გვალამი
გვალარეფიშ
გვალარი
გვალას
გვალაშ
გვალაშა
გვალაშე
გვალაში
გვალაშწჷმოხონეფიშ
გვალაშწჷმოხონიშ
გვალაწკჷმა
გვალე
გვალეფი
გვალეფით
გვალეფიშ
გვალეფოშქაშე
გვალეფს
გვალეფშა
გვალეფშახ
გვალეფშე
გვალეფწკჷმა
გვალიორი
გვალიორიშ
გვალო
გვალონა
გვალონას
გვალონაშ
გვამიშ
გვანდრა
გვანცელაძე
გვარ
გვარდია
გვარეფი
გვარეფიშ
გვართა
გვართეფი
გვარი
გვარიან
გვარიანო
გვარიშ
გვარიშე
გვარო
გვარობა
გვარობათ
გვარობას
გვარობაშ
გვარობაშე
გვარობეფი
გვარობეფიშ
გვარობეფს
გვარობეფშე
გვარს
გვარშე
გვატემალა
გვატემალას
გვატემალაშ
გვატემალაშა
გვახარია
გვერდ
გვერდზისხირამი
გვერდი
გვერდის
გვერდიშ
გვერდიშე
გვერდო
გვერდოანკლავი
გვერდოსფერო
გვერდოსფეროეფი
გვერდოსფეროეფიშ
გვერდოსფეროს
გვერდოსფეროშ
გვერდოტიოზეფს
გვერდოტიოზი
გვერდშე
გვერეფი
გვერეფიშ
გვერი
გვერიშ
გვიან
გვიანა
გვიანაშ
გვიანი
გვიანიშ
გვიანო
გვიანს
გვიგვილი
გვიგვილით
გვიგვილიშ
გვიგვილს
გვინეა
გვინეას
გვინეაშ
გვინეთ
გვირაბი
გვირგვინიშ
გვირზილეფიშ
გვირზილი
გვირზილიშ
გვირზილს
გზა
გზაზე
გი
გია
გიადუ
გიადჷ
გიანთხუ
გიანთხჷ
გიარსხუ
გიაძინუ
გიაძინჷ
გიბონი
გიბონიშ
გიბჟინჷ
გიბრალტარი
გიბრალტარიშ
გიბსიშ
გიბსონი
გიგა
გიგანტეფი
გიგანტი
გიგანტურ
გიგანტური
გიგზი
გიგი
გიგინეიშვილი
გიდი
გივი
გიზა
გიზაშ
გითანჯას
გითანჯჷ
გითმითანჯუ
გითმიჭყაფუ
გითოგორილი
გითორაგვაფა
გილ
გილალუაფირი
გილაღალარი
გილბერტ
გილბერტიშ
გილგიტ
გილდიაშ
გილელჷ
გილერმო
გილეშეს
გილეშჷ
გილმორი
გილმორიშ
გილმორს
გილმორქ
გილულა
გილურს
გიმათუთა
გიმათუთას
გიმარენჯი
გიმაჩამალო
გიმე
გიმენ
გიმენბუნა
გიმენბუნათ
გიმენბუნას
გიმენბუნაშ
გიმენგვარობა
გიმენი
გიმენოლქო
გიმენტიპი
გიმენფანია
გიმენფანიას
გიმიბჟინუ
გიმიგონეს
გიმიგონჷ
გიმირინეს
გიმირინუ
გიმირინუანა
გიმირინუანდეს
გიმირინუანდჷ
გიმირინუანს
გიმირინუაფუ
გიმირინუაფუდჷ
გიმირინუაფჷ
გიმირკვიეს
გიმირკვიუ
გიმირჩქინჷ
გიმიქიმინჷ
გიმიშღვერე
გიმიჩინჷ
გიმიჩჷ
გიმიცხადჷ
გიმიჭანუ
გიმნაველი
გიმნაზია
გიმნაზიას
გიმნაზიაშ
გიმნართი
გიმნარკი
გიმნაღელი
გიმოგონილ
გიმორინაფა
გიმორინაფათ
გიმორინაფას
გიმორინაფაშ
გიმორინაფილი
გიმორინაფილქ
გიმორჩქინდჷ
გიმორჩქინელი
გიმორძგვეს
გიმორძგუ
გიმორძგჷ
გიმოღალაშ
გიმოჩამათ
გიმოჩამილი
გიმოხანტილი
გიმულა
გიმურს
გიმუურს
გინაგაფურიშ
გინათირჷ
გინართინუ
გინართინუანს
გინასქიდჷ
გინასქილიდაფარო
გინაულარი
გინაულარო
გინაფა
გინაფას
გინაფაშ
გინაფეფიშ
გინაფულენს
გინაქუნალი
გინაღალარი
გინაღალარო
გინაშქვეს
გინაშქუ
გინაჩამალო
გინაჩამუ
გინაჩირთჷ
გინაჩჷ
გინაწონს
გინაჭყვიდალო
გინახორეს
გინახორუეს
გინაჯინე
გინაჯინუ
გინაჯინუშე
გინეკოლოგია
გინეკოლოგიური
გინესი
გინესიშ
გინილეს
გინილჷ
გინირთას
გინირთეს
გინირთუ
გინირთჷ
გინიქიმინჷ
გინიღანდეს
გინიღეს
გინიღჷ
გინიჩამუ
გინმადვალუ
გინმალი
გინმამუშებელი
გინმართინუანს
გინმაულარი
გინმაღალარ
გინმაღალარი
გინმაშქვანს
გინმაჩამალი
გინმაჩამუ
გინმაჯინე
გინმირთუ
გინმირთუნა
გინმიშჷ
გინმიჩამუ
გინმოკვათუნს
გინმოკვათჷნს
გინმოჩანა
გინმოჩანს
გინმოჭკირუნს
გინმულა
გინმურს
გინმუღუდჷ
გინმუღუნა
გინმუღჷ
გინნაჩემით
გინოგაფაშ
გინოდგვე
გინოდვალა
გინოდვალაშ
გინოზინდილი
გინოზინდილიე
გინოთანგილი
გინოთანგუათ
გინოთანგჷ
გინოკვათილი
გინოკვათუას
გინოკვათუაშ
გინოლასირი
გინომუშებაშ
გინორაჸუა
გინორთა
გინორთათ
გინორთაფაშ
გინორთაშ
გინორთელ
გინორთელი
გინორთელო
გინორთეს
გინორთეფი
გინორთვილი
გინორთი
გინორთით
გინორთიშ
გინორთჷ
გინორინაშ
გინოსქილადა
გინოსქილადაშ
გინოსქილადირი
გინოფორილი
გინოქიმინუა
გინოქიმინუაშ
გინოღალა
გინოღალას
გინოღალაქ
გინოღალაშ
გინოღალეფი
გინოღალეფიშ
გინოღალეფს
გინოღალეფქ
გინოღალირ
გინოღალირი
გინოღალირქ
გინოჩამა
გინოჩამათ
გინოჩამას
გინოჩამაქ
გინოჩამაშ
გინოჩამეფი
გინოჩამეფიშ
გინოჩამეფს
გინოჩამილი
გინოჩანს
გინოჩეს
გინოჩვე
გინოჩუ
გინოჩჷ
გინოწონილი
გინოჭკირუაშ
გინოჭყვადილი
გინოჭყვადუათ
გინოჭყვიდეს
გინოჭყვიდილი
გინოჭყვიდირი
გინოჭყვიდირით
გინოჭყვიდჷ
გინოჭყორდჷ
გინოხორაფა
გინოხორაფილი
გინოჯინა
გინოჯინუ
გინოჸონაფა
გინოჸუნს
გინუგჷ
გინულა
გინულათ
გინულას
გინულაშ
გინულირი
გინურს
გინძე
გინწყუ
გინწყჷ
გიობიჯალი
გიოდგინუ
გიოდვეს
გიოდუ
გიოდჷ
გიონჭაფუ
გიოპონუს
გიორგაძე
გიორგი
გიორგის
გიორგიშ
გიორენჯი
გიორენჯის
გიორსოქ
გიორჯგინეს
გიორჯგინჷ
გიოშქუმალარეფი
გიოშქუმალარი
გიოხე
გიოჸონალი
გიპერტი
გირ
გირვანქა
გირთას
გირთეს
გირთჷ
გირი
გირინი
გირინიშ
გირძე
გისენიშ
გისიმუ
გისიმჷ
გიტარა
გიტარას
გიტარაშ
გიტარაშა
გიტარაშო
გიტარისტ
გიტარისტი
გიული
გიუმრი
გიუმრიშ
გიუნტერ
გიფაჩუ
გიფაჩჷ
გიშაგორალო
გიშაგორეს
გიშაგორილ
გიშაგორილი
გიშაგორილო
გიშაგორილქ
გიშაგორუა
გიშაგორუაშ
გიშაგორუეფი
გიშაგორუეფით
გიშაგორუეფიშ
გიშაგორუეფს
გიშაგორუეფქ
გიშაგორუეფშო
გიშაკერზაფილ
გიშაკერზაფილი
გიშაკერზაფილო
გიშაკერძაფილ
გიშაკერძაფილი
გიშაკერძაფილო
გიშაკვათილი
გიშაკურცხინაფა
გიშალი
გიშალიშ
გიშართ
გიშართილი
გიშართუალა
გიშართუალაშ
გიშართჷ
გიშარჩქინდეს
გიშარჩქინდუ
გიშარჩქინდჷ
გიშარჩქინელ
გიშარჩქინელი
გიშაულარი
გიშაშქვეს
გიშაშქვჷ
გიშაშქუ
გიშაშქუმალა
გიშაშქუმალაქ
გიშაშქუმალაშ
გიშაშქუმალირ
გიშაშქუმალირი
გიშაშქუმალირჷ
გიშაშქჷ
გიშაჸონაფა
გიშაჸონაფაშ
გიშაჸონაფილი
გიშეგორეს
გიშეგორუ
გიშეგორუაფუ
გიშეგორუაფჷ
გიშეგორუაფჷნა
გიშეგორუნა
გიშეგორჷ
გიშელჷ
გიშერთჷ
გიშეშქვინჷ
გიშეშჷ
გიშეჭანუ
გიშეჸონჷ
გიშიგორუ
გიშმაგორალეფიშ
გიშმაგორუნა
გიშმაგორუნდჷ
გიშმაგორუნს
გიშმაგორჷნა
გიშმაგორჷნს
გიშმალი
გიშმართუნა
გიშმართჷნა
გიშმართჷნს
გიშმაშქვანდჷ
გიშმაშქვანს
გიშმაშქუმალარი
გიშმეგორუ
გიშმერთუ
გიშმერთჷ
გიშმეშჷ
გიშმურს
გიშმუღჷ
გიშნაგორა
გიშნაველი
გიშნაშქუმელი
გიშულა
გიშულას
გიშულაქ
გიშულაშ
გიშულაშე
გიშულეფი
გიშულეფს
გიშულირ
გიშულირი
გიშულირს
გიშურს
გიჩოლჷ
გიძინჷ
გიჭყეს
გიჭყუ
გიჭყჷ
გიხურგუ
გიჸოთჷ
გლადიატორეფიშ
გლადიატორი
გლაზგო
გლაზგოს
გლაზგოშ
გლარნიშ
გლასიარესიშ
გლაუბერი
გლაციალურ
გლაციოლოგია
გლახა
გლახათ
გლდანიშ
გლენ
გლისონი
გლობალიზაცია
გლობალიზაციაშ
გლობალურ
გლობალური
გლობულეფი
გლობუსი
გლობუსის
გლობუსიშ
გლოვერი
გლოსტერშირი
გლუკოზა
გმინა
გმინაშ
გმირინუაფუ
გნ
გნაისეფით
გნეუს
გოა
გოართ
გოართამაფილი
გოართიანაფა
გოართიანაფაშ
გოართიანაფილ
გოართიანაფილი
გოართოიანაფა
გოართოიანაფათ
გოართოიანაფას
გოართოიანაფაქ
გოართოიანაფაშ
გოართოიანაფაშა
გოართოიანაფეფი
გოართოიანაფილ
გოართოიანაფილი
გოაშ
გოახალაფა
გოახალაფაშ
გოახალაფირ
გოახალაფირი
გობი
გობინდ
გობიშ
გოგი
გოგინძორაფა
გოგინძორაფას
გოგინძორაფაშ
გოგიჩაიშვილი
გოგოლი
გოგოლიშ
გოგუა
გოგუაშ
გოგჷნძარაფა
გოდავარი
გოდარდი
გოდარდიშ
გოდგჷ
გოდგჷმილი
გოდერძი
გოდერძიშ
გოდვალირი
გოდინჷ
გოდუდიშალაფა
გოდუდიშალაფაშ
გოდუდიშულაფა
გოდუდიშულაფას
გოდუდიშულაფაშ
გოდუდიშულაფირი
გოდფრი
გოეთე
გოეთეშ
გოერო
გოეროს
გოეროქ
გოეროშ
გოვითარაფა
გოვითარაფათ
გოვითარაფას
გოვითარაფაქ
გოვითარაფაშ
გოვითარაფაშა
გოვითარაფაშო
გოვითარაფაწკჷმა
გოვითარაფილ
გოვითარაფილი
გოვითარაფილიე
გოვითარაფონ
გოზინდილი
გოთანა
გოთანას
გოთანაშ
გოთანჯილ
გოთანჯილი
გოთანჯილიე
გოთანჯუა
გოთანჯუას
გოთანჯუაშ
გოთანჯჷ
გოთემი
გოთიკური
გოთირუ
გოთოლიშწორაფილი
გოთოლწონაფათ
გოთოლწონაფილი
გოთოლწონაფილიე
გოთური
გოთქვილი
გოიასი
გოიასიშ
გოიაშ
გოკიდილი
გოკიდილიე
გოკურცხუ
გოლათი
გოლანიშ
გოლდბერგი
გოლდენთალი
გოლდსმენი
გოლეფიშ
გოლექინაფილი
გოლი
გოლინა
გოლინათ
გოლინამ
გოლინამი
გოლინას
გოლინაქ
გოლინაშ
გოლინიან
გოლინიანი
გოლინუან
გოლიშ
გოლოფა
გოლოფამი
გოლოფაშ
გოლუას
გოლუაფას
გოლუაფირი
გოლუმი
გოლჯი
გოლჯიშ
გომა
გომანგარაფა
გომანგარაფილი
გომანგაფილი
გომბორიშ
გომელი
გომელიშ
გომესი
გომიარაფა
გომიარაფას
გომიარაფაშ
გომორსილობა
გომორძგვაფა
გომორძგვილ
გომორძგვილეფი
გომორძგვილი
გომორძგვილიშ
გომორძგვილო
გომორძგვილქ
გომორძგუა
გომორძგუათ
გომორძგუალა
გომორძგუას
გომორძგუაქ
გომორძგუაშ
გონათაფა
გონათაფაშ
გონათუა
გონათუათ
გონათუარობაშ
გონათუას
გონათუაშ
გონება
გონებაშ
გონვილ
გონთხაფილი
გონთხორილი
გონთხორუეფი
გონთხორუეფით
გონთხორუეფიშ
გონთხორუეფქ
გონსალეს
გონსალესი
გონსალო
გონძაგაშ
გონწყეს
გონწყილი
გონწყუმილი
გონწყჷ
გონწყჷმა
გონწყჷმაშ
გონწყჷმილი
გონჯამილი
გონჯი
გონჯური
გოპატჷნაფილი
გოპეულუაშ
გოპიჯალაფირი
გოპიჯალაფირიე
გოპიჯალუ
გოპიჯაფილი
გოპიჯუ
გოპიჯჷ
გოჟუვ
გორანწკილი
გორანწკილიე
გორაჸჷ
გორგასალიშ
გორგასალს
გორგასალქ
გორგილაფაშ
გორდონ
გორდონი
გორემეშ
გორთა
გორთეს
გორთილი
გორთილიე
გორთუალა
გორთუალას
გორთუალაშ
გორთჷ
გორი
გორიშ
გორკვიაფილ
გორკვიაფილი
გორკი
გორკიქ
გორკიშ
გორს
გორუა
გორუას
გორუაშ
გორუნს
გორჩქინა
გორჩქინათ
გორჩქინას
გორჩქინაშ
გორჩქინდ
გორჩქინდჷ
გორჩქინელ
გორჩქინელი
გორხვეს
გორჷნდჷ
გოსიმაფილი
გოსინთაფა
გოსინთაფაშ
გოსინთელი
გოსოფურ
გოსოფური
გოსხუნილი
გოსხუნუა
გოსხუნუაშ
გოტარდიშ
გოტება
გოტებაშ
გოტებული
გოტებულქ
გოტლანდი
გოტლანდიშ
გოტფრიდ
გოულათ
გოუტეს
გოუტუ
გოუტუეს
გოუქვაფა
გოუქვაფაშ
გოუქვაფილი
გოუქვაფილქ
გოფათქუაშ
გოფართაფაშ
გოფართაფილი
გოფართინაფა
გოფაჩილ
გოფაჩილი
გოფაჩილიე
გოფაჩლი
გოფაჩუა
გოფაჩუათ
გოფაჩუას
გოფაჩუაქ
გოფაჩუაშ
გოფაჩჷ
გოფორმაფა
გოფორმაფილი
გოფშა
გოქუნელი
გოქუნილი
გოქუნილიე
გოქჷრჷ
გოღია
გოშა
გოშათ
გოშინაშ
გოშინეფი
გოშხვავაფილი
გოშხვანერაფილი
გოჩა
გოჩანს
გოცირიძე
გოძვენა
გოძვენას
გოძვენაშ
გოძინა
გოძჷ
გოწიმინდუა
გოჭკადილიშ
გოჭყაფა
გოჭყაფათ
გოჭყაფას
გოჭყაფაშ
გოჭყაფაშე
გოჭყაფილი
გოჭყაფილქ
გოჭყვიდეს
გოჭყვიდჷ
გოჭყორდჷ
გოხ
გოხაზჷრაფილი
გოხოლუა
გოხოლუას
გოხოლუაშ
გოხორციალაფას
გოხორციალაფაშ
გოხორციალაფირი
გოხურგელი
გოხურგელიე
გოხურგილი
გოხურგუ
გოხურგუა
გოხურგუაშ
გოჯინა
გოჯინაშ
გოჯოგელი
გოჸინილი
გოჸინუაშ
გოჸონაფილი
გოჸორიშ
გოჸორს
გოჸუნაფას
გოჸუნაფილი
გოჸუნს
გოჸუნსჷ
გრ
გრააფი
გრაბსი
გრაბსიქ
გრადუსეფიშ
გრადუსი
გრადუსის
გრავიტაცია
გრავიტაციაშ
გრავიტაციული
გრამატიკა
გრამატიკას
გრამატიკაშ
გრამატიკული
გრამი
გრამიქ
გრამს
გრან
გრანადა
გრანადაშ
გრანდ
გრანდე
გრანდეს
გრანდეშ
გრანდი
გრანდიოზული
გრანელი
გრანელიშ
გრანთ
გრანიტეფით
გრანიტი
გრანიტიშ
გრანიტოიდეფით
გრანიტული
გრანტ
გრანტი
გრანტიშ
გრასი
გრაუბიუნდენიშ
გრაფ
გრაფი
გრაფიკა
გრაფიკას
გრაფიკაშ
გრაფიკაშა
გრაფიკოსი
გრაფიკულ
გრაფიკული
გრაფიტი
გრაფიშ
გრაცია
გრაციშ
გრეგ
გრეგი
გრეგორ
გრეგორი
გრეი
გრეივზი
გრეით
გრეის
გრეისი
გრეიშ
გრემ
გრემი
გრემიქ
გრემიშ
გრენადა
გრენადინეფი
გრენლანდია
გრენლანდიას
გრენლანდიაშ
გრეტა
გრიგოლ
გრიგოლისი
გრიგოლიშ
გრიგორი
გრიგორიანულ
გრიგორიანული
გრიერი
გრივნა
გრივნაშ
გრიზმანი
გრილო
გრინ
გრინგარდი
გრინვიჩიშ
გრინი
გრინლიფ
გრინტი
გრიპი
გრიპიშ
გროზნო
გროზნოშ
გროლი
გრონინგენიშ
გროს
გროსუ
გრუნტის
გრუნტიშ
გრუშენკა
გრძედი
გუ
გუადალუპე
გუამი
გუანდუნიშ
გუანტანამო
გუანტანამოშ
გუანჯოუ
გუარანი
გუარანიშ
გუასუ
გუასუშ
გუბაზ
გუბაზეული
გუბაზეულიშ
გუბაზიქ
გუბაზიშ
გუბერნატორეფი
გუბერნატორი
გუბერნატორიშ
გუბერნატორო
გუბერნატორქ
გუბერნია
გუბერნიას
გუბერნიაშ
გუბერნიაშა
გუგანწყინესო
გუგენჰაიმიშ
გუგლი
გუგლიშ
გუგულიშ
გუგუშვილი
გუდამაყარიშ
გუდაუთაშ
გუდაური
გუდმენი
გუვაჰატი
გუთმოთანჯჷნს
გუთმორთჷნს
გულაგის
გულათ
გულაშ
გული
გულიელმო
გულრიფშიშ
გუმბათი
გუმბათიშ
გუმისთაშ
გუმმაგონებელი
გუმნაულა
გუმნაულაშ
გუმნაღელამი
გუმნაღელეფი
გუმნაღელი
გუმნაღელით
გუმნაღელიშ
გუმნაღელს
გუმოგონილი
გუმორჩქინდჷ
გუმოჩხორიაფა
გუნაფალა
გუნაფალეფს
გუნუნგ
გუპტა
გუპტეფიშ
გურ
გურა
გურამ
გურაფა
გურაფას
გურაფაქ
გურაფაშ
გურაფლენდჷ
გურაფლენს
გურაფულენა
გურაფულენდ
გურაფულენდეს
გურაფულენდჷ
გურაფულენს
გურგაჩამალ
გურგაჩამალი
გურგენიძე
გურგინელი
გურგინი
გურგინიშ
გურგინუა
გურგინუას
გურგინუაშ
გურგინუაშე
გურდვარა
გურეფიშ
გური
გურია
გურიას
გურიაშ
გურიელი
გურით
გურიშ
გურიშხონარენდჷ
გურიშხონარენს
გურმეჭვია
გურს
გურუ
გურულ
გურული
გურშა
გურშენ
გურშენი
გურშენით
გურჩქინდჷ
გურძემიშ
გუსტავ
გუსტავი
გუსტავიშ
გუსტავს
გუტენბერგი
გუტენბერგის
გუტეს
გუტუ
გუშმურს
გუჩით
გუძინჷ
გუჭყეს
გუჭყჷ
გუხურგუ
გუჯ
გუჯარათი
გუჯარათის
გუჯარათიშ
გუჯარათული
გფრ
გჰატიშ
გჷ
გჷდჷ
გჷთახვამალი
გჷთმარჩქინანს
გჷთმაჭყანს
გჷთმითანჯუ
გჷთმიჭყაფუ
გჷთმიჭყაფუაფუ
გჷთმიხურგუ
გჷთმოთანჯუნს
გჷთმოთანჯჷნს
გჷთმოპიჯანს
გჷთმორთუნს
გჷთმორთჷნა
გჷთმორთჷნს
გჷთმოსხუნუნს
გჷთოთანჯჷნს
გჷმაბჟინეს
გჷმაბჟინუ
გჷმაბჟინჷ
გჷმადუდიშალაფარი
გჷმადუდიშულაფარ
გჷმადუდიშულაფარი
გჷმათანჯალი
გჷმათუთა
გჷმათუთას
გჷმათუთაშ
გჷმათუთაშა
გჷმათუთაშახ
გჷმათუთაშე
გჷმაკოროცხალი
გჷმაკოროცხილი
გჷმართალი
გჷმარინაფალო
გჷმაფაჩალი
გჷმაცხადეს
გჷმაცხადჷ
გჷმაცხადჷნ
გჷმაჭყაფალი
გჷმაჭყაფალო
გჷმახანტალო
გჷმახონარაფალი
გჷმიბჟინუ
გჷმიგონეს
გჷმიგონჷ
გჷმიკოროცხუ
გჷმილინჷ
გჷმირაგადუ
გჷმირაგადუაფუ
გჷმირთუ
გჷმირინეს
გჷმირინუ
გჷმირინუანა
გჷმირინუანდეს
გჷმირინუანდჷ
გჷმირინუანს
გჷმირინუაფუ
გჷმირინუაფუდუ
გჷმირინუაფუდჷ
გჷმირინუაფჷ
გჷმიქიმინუ
გჷმიქიმინჷ
გჷმიჩამუ
გჷმიჩამუდჷ
გჷმიჩინჷ
გჷმიცხადჷ
გჷმიჭანუ
გჷმიჭანუანს
გჷმიჭანუას
გჷმიჭანუასჷნ
გჷმიჭანჷ
გჷმიხანტუ
გჷმიხანტუაფუდჷ
გჷმიხანტუდჷ
გჷმიხანტჷ
გჷმმაბჟინაფალი
გჷმმაგონებელი
გჷმმაჭანაფალი
გჷმმაჭანაფალიშ
გჷმნართი
გჷმნარკი
გჷმნაღელი
გჷმნაღელს
გჷმობჟინაფა
გჷმობჟინაფაშ
გჷმობჟინაფილ
გჷმობჟინაფილი
გჷმობჟინაფილქ
გჷმოგონებაშ
გჷმოგონილი
გჷმოთქვინუა
გჷმოთქუ
გჷმოთქუალა
გჷმოკითხირიშ
გჷმოკოროცხილი
გჷმოკოროცხუათ
გჷმოკოროცხუაშ
გჷმომუშებული
გჷმორაგადაფა
გჷმორთილი
გჷმორთილიე
გჷმორთჷ
გჷმორთჷნს
გჷმორინაფა
გჷმორინაფათ
გჷმორინაფას
გჷმორინაფაქ
გჷმორინაფაშ
გჷმორინაფაშო
გჷმორინაფილი
გჷმორინაფილიე
გჷმორინაფილქ
გჷმორინაფონი
გჷმორკვიება
გჷმორკვიებაშ
გჷმორკვიებეფით
გჷმორჩქინა
გჷმორჩქინაქ
გჷმორჩქინდჷ
გჷმორჩქინელ
გჷმორჩქინელი
გჷმოსახილი
გჷმოსახილიე
გჷმოსახულაფაშ
გჷმოფინუა
გჷმოფინუას
გჷმოფინუაშ
გჷმოფინუეფი
გჷმოქიმინელი
გჷმოქიმინუა
გჷმოქიმინუას
გჷმოქიმინუაქ
გჷმოქიმინუაშ
გჷმოქიმინუნს
გჷმოჩამა
გჷმოჩამას
გჷმოჩამაშ
გჷმოჩამეფიშ
გჷმოჩამილი
გჷმოჩხორიაფა
გჷმოჩხორიაფაშ
გჷმოცხადაფა
გჷმოცხადაფაშ
გჷმოცხადაფილი
გჷმოცხადებაშახ
გჷმოცხადებული
გჷმოძახებაშვანს
გჷმოჭანაფა
გჷმოჭანაფილი
გჷმოხანტილ
გჷმოხანტილი
გჷმოხანტუა
გჷმოხანტუალა
გჷმოხანტუალაშ
გჷმოხანტუაშ
გჷმოხანტუნა
გჷმოხანტუნდჷ
გჷმოხანტუნს
გჷმოხანტჷ
გჷმოხანტჷნდჷ
გჷმოხანტჷნს
გჷმუცხადჷ
გჷმჷნარკებუ
გჷნართას
გჷნართაშ
გჷნართინეს
გჷნართინუ
გჷნართიშ
გჷნაშქჷ
გჷნაჩჷ
გჷნაცხადი
გჷნაცხადით
გჷნაცხადის
გჷნაცხადიშ
გჷნილჷ
გჷნირთ
გჷნირთას
გჷნირთეს
გჷნირთუ
გჷნირთჷ
გჷნირთჷნ
გჷნიღჷ
გჷნიცადჷ
გჷნიხორეს
გჷნმალი
გჷნმართინუანს
გჷნმაჭყვადალი
გჷნმაჭყვიდირალი
გჷნმირთუ
გჷნმირთუდჷ
გჷნმობჩანა
გჷნმოჩანს
გჷნმოჭკირუნს
გჷნმურს
გჷნოაბანუაშ
გჷნოგაფაშ
გჷნოზინდილი
გჷნოთანგუათ
გჷნომუშება
გჷნორთელი
გჷნორთი
გჷნორთჷ
გჷნოღალა
გჷნოღალირი
გჷნოღალირქ
გჷნოჩამა
გჷნოჩამათ
გჷნოჩამას
გჷნოჩამაშ
გჷნოჩამეფი
გჷნოჩამილი
გჷნოჩჷ
გჷნოჭყვადირუა
გჷნოჭყვადჷ
გჷნოჭყვიდ
გჷნოჭყვიდეს
გჷნოჭყვიდირი
გჷნოჭყვიდირით
გჷნულაშ
გჷნძე
გჷრძე
გჷშ
გჷშაგორეს
გჷშაგორილი
გჷშაგორილქ
გჷშაგორუეფი
გჷშაგორუეფიშ
გჷშაგორუეფს
გჷშაკერზაფილი
გჷშაკერზაფილო
გჷშაკერძაფილ
გჷშაკერძაფილი
გჷშაკერძაფილო
გჷშალი
გჷშართ
გჷშართილი
გჷშართჷ
გჷშარჩქინელ
გჷშარჩქინელი
გჷშაულარი
გჷშაშქვეს
გჷშაშქუ
გჷშაშქუმალა
გჷშაშქუმალას
გჷშაშქუმალაქ
გჷშაშქუმალაშ
გჷშაშქუმალაშე
გჷშაშქუმალეფი
გჷშაშქუმალირ
გჷშაშქუმალირი
გჷშაშქუმალირქ
გჷშაშქჷ
გჷშაჭანაფილი
გჷშაჸონაფილი
გჷშეგორუ
გჷშერთუ
გჷშეშქვინჷ
გჷშეჭანუ
გჷშმაგორუნა
გჷშმაგორუნს
გჷშმაგორჷნა
გჷშმართჷნს
გჷშმაშკუმალარობა
გჷშმაშქუმალარი
გჷშმაშქუმალარობა
გჷშმეგორუ
გჷშმეგორუნა
გჷშმეგორუნც
გჷშმერთუ
გჷშმეშჷ
გჷშმურს
გჷშმურც
გჷშნაგორა
გჷშულა
გჷშულაქ
გჷშულაშ
გჷშულაშე
გჷშულეფი
გჷშულეფიშ
გჷშულირი
გჷშურს
დ
და
დაართჷ
დაბ
დაბა
დაბადება
დაბადებათ
დაბადებას
დაბადებაშ
დაბადებაშახ
დაბადებაშე
დაბადებე
დაბადებული
დაბათ
დაბალ
დაბალი
დაბას
დაბაშ
დაბეფი
დაბი
დაბის
დაბიშ
დაგლას
დაგურაფალო
დადასურჷ
დადგენილი
დადგინალო
დადგინეს
დადგინჷ
დადებითი
დადებითო
დადი
დადიანების
დადიანეფი
დადიანეფიშ
დადიანეფს
დადიანი
დადიანიშ
დადიანს
დადიანქ
დადრა
დადული
დაე
დავალებათ
დავალჷ
დავიდ
დავით
დავითი
დავითიშ
დავოსი
დაზღვევაშ
დათა
დათებუ
დათებუს
დათებუშ
დათეშიძე
დათირჷ
დათო
დაიან
დაიანა
დაიმონდი
დაიმონდიშ
დაინტერესებული
დაისონი
დაისონიქ
დაისონიშ
დაკა
დაკარი
დაკებაშ
დაკებული
დაკინებული
დაკოტა
დაკოტას
დაკოტაშ
დალ
დალაი
დალასი
დალასიშ
დალახება
დალახებაშ
დალახებულ
დალახებული
დალახებური
დალეფი
დალეფიშ
დალი
დალია
დალიას
დალიაშე
დალიერს
დალის
დალიქ
დალიშ
დალმაციაშ
დალტონი
დამაზი
დამანი
დამარგებული
დამარცხება
დამარცხებაშ
დამარცხეს
დამარცხჷ
დამასკო
დამასკოშ
დამბა
დამენია
დამი
დამოკიდებული
დამორჩილ
დამორჩილი
დამორჩილიშ
დამორჩილს
დამორჩლს
დამუშება
დამუშებას
დამუშებაშ
დამუშებული
დამუშუ
დამყარჷ
დან
დანა
დანგი
დანდი
დანელია
დანი
დანია
დანიარეფი
დანიარი
დანიას
დანიაშ
დანიელ
დანიელე
დანიელიშ
დანიურ
დანიური
დანიურო
დანსტი
დანტე
დანტესი
დანტკიცებული
დანტკიცეს
დანტკიცჷ
დანციგი
დანციგიქ
დანცხიშ
დაოსიზმი
დარ
დარბაზეფს
დარბაზი
დარბაზის
დარბაზიქ
დარბაზიშ
დარბაზული
დარგეფი
დარგეფიშ
დარგეფს
დარგი
დარგის
დარგიშ
დარგო
დარდანელიშ
დარე
დარემი
დარემიშ
დარენ
დარეჯანი
დარვილი
დარვინი
დარვინიშ
დართეს
დართინაფალო
დართინეს
დართინუ
დართჷ
დარი
დარინალი
დარინალო
დარინეს
დარინუ
დარიოს
დარმშტადტიშ
დარო
დარსხის
დარსხუ
დარსხუეს
დარსხჷ
დარფური
დარჩელი
დარჩელს
დარცხუ
დარცხუეს
დარწუმებული
დარწუმჷ
დას
დასაბაღ
დასაბაღას
დასაბაღი
დასაბაღო
დასავლეთ
დასაფულებური
დასაფულეს
დასახელჷ
დასაჯეს
დასენი
დასი
დასტინ
დასურო
დასქიდჷ
დასქუა
დატემ
დაუნი
დაუნიშ
დაუსა
დაუტფაირი
დაფი
დაფურინალი
დაქ
დაქირაფილი
დაქირებულ
დაქირებული
დაღამაკებული
დაღარ
დაღარას
დაღარი
დაღესტანი
დაღესტანიშ
დაღესტანს
დაღესტანურ
დაღესტანური
დაღი
დაშ
დაჩხერამი
დაჩხერიშ
დაჩხირამი
დაჩხირი
დაჩხირიშ
დაჩხირს
დაჩხირქ
დაცხი
დაცხით
დაცხის
დაცხიშ
დაწესჷ
დაწკჷმა
დაჭყაფუ
დაჭყაფუთ
დაჭყაფურ
დაჭყაფური
დაჭყაფურიშ
დაჭყაფურს
დაჭყაფუს
დაჭყაფუშ
დაჭყაფუშა
დაჭყაფუშახ
დაჭყაფუშე
დაჭყაფუშო
დახასიათება
დახე
დახებაშ
დახოლ
დაჯილდეს
დაჯილდოება
დაჯილდოებაშ
დაჯილდოებული
დაჯილდოვეს
დაჰოდი
დაჰომეა
დგომარება
დგომარებას
დგომარებაშ
დგომარენს
დგომარობა
დგომარობათ
დგომარობას
დგომარობაქ
დგომარობაშ
დგჷმილეფი
დგჷმილეფიშ
დგჷმილეფს
დგჷმილი
დგჷმილიშ
დგჷმილს
დგჷმილქ
დდო
დე
დეალჷ
დება
დებად
დებადეს
დებადუ
დებადჷ
დებადჷნ
დებაი
დებას
დებატეფი
დებატეფიშ
დებაშ
დებეიკი
დებეიკიშ
დები
დებიუტი
დებიუტიქ
დეგა
დეგურგინეს
დეგურგინჷ
დედა
დედასურჷ
დედაღარჷ
დედგინჷ
დედოფალი
დედოფლისწყაროშ
დევ
დევანაგარი
დევანაგარიშ
დევბჰუმი
დევდარიანი
დევი
დევიდ
დევიდი
დევიდიქ
დევიზი
დევისი
დევიშ
დეთხიეს
დეთხინუ
დეთხის
დეთხიუ
დეთხუ
დეი
დეივ
დეივი
დეივიდ
დეივისი
დეივისიქ
დეივისიშ
დეივისონი
დეივიშ
დეიკსტრა
დეიკსტრაქ
დეილ
დეილი
დეილიქ
დეიმონი
დეიმონიშ
დეიმონქ
დეინალუ
დეინალჷ
დეინტერეს
დეინტერესჷ
დეირ
დეკადას
დეკადაშ
დეკანდოლიქ
დეკანი
დეკანიშ
დეკემბერი
დეკვირდჷ
დეკინეს
დეკინჷ
დეკლარაცია
დეკლარაციას
დეკლარაციაქ
დეკლარაციაშ
დეკორატიულ
დეკორატიული
დეკრეტით
დეკუ
დეკჷნჷ
დელ
დელა
დელავერი
დელავერიშ
დელაკრუა
დელამბრი
დელანო
დელბრიუკი
დელგადუ
დელგადუშ
დელეგაციაშ
დელი
დელიბესი
დელიბესიქ
დელიბესიშ
დელის
დელიშ
დელიშე
დელტა
დელტას
დელტაშ
დელფინი
დემარცხეს
დემარცხჷ
დემეტრაშვილი
დემი
დემიან
დემილიტარიზაფილი
დემო
დემოგრაფია
დემოგრაფიული
დემოკრატეფიშ
დემოკრატი
დემოკრატია
დემოკრატიას
დემოკრატიაშ
დემოკრატიულ
დემოკრატიული
დემონეფი
დემონეფიშ
დემონი
დემონსტრაცია
დემორჩილჷ
დემოსკოპი
დენ
დენზელ
დენი
დენიელ
დენიზლიშ
დენის
დენიშ
დენს
დენტკიცჷ
დენტკიცჷნ
დენუდაციური
დენჩი
დეოლი
დეპარტამენტ
დეპარტამენტეფი
დეპარტამენტეფიშ
დეპარტამენტეფს
დეპარტამენტი
დეპარტამენტის
დეპარტამენტიქ
დეპარტამენტიშ
დეპარტამენტიშე
დეპარტამენტო
დეპარტამენტშე
დეპი
დეპიშ
დეპრესია
დეპრესიას
დეპრესიაშ
დეპუტატეფიშ
დეპუტატი
დეპუტატით
დეპუტატის
დეპუტატიშ
დეპუტატო
დეპუტატშე
დეჟა
დერ
დერბენტი
დერეკ
დერილ
დერმატოლოგია
დერმატოლოგიური
დერნი
დერწუმჷ
დესმონდ
დესპოტიზმი
დეტალეფი
დეტალეფიშ
დეტალი
დეტალური
დეტალურო
დეტექტივი
დეტექტივური
დეტექტიურ
დეტექტიური
დეტროიტი
დეტროიტიშ
დეფინიცია
დეფიქსირჷ
დეფიციტი
დეფო
დექორწინჷ
დეღამაკჷ
დეშუტი
დეციმეტრი
დეციმუს
დეხოლჷ
დეჯილდუ
დვალაფაშ
დვალაშ
დვალეთიშ
დვალირ
დვალირი
დვალუაშ
დვანს
დვარკა
დვინა
დვინაშ
დი
დია
დიაბეტი
დიაბეტიშ
დიაგნოზი
დიაგნოსტიკას
დიაგნოსტიკაშო
დიაგონალეფი
დიაკრიტიკული
დიალექტეფი
დიალექტეფიშ
დიალექტეფს
დიალექტეფშა
დიალექტი
დიალექტიკა
დიალექტიკური
დიალექტის
დიალექტიშ
დიალექტიშა
დიალექტო
დიალექტურ
დიალექტური
დიალექტშა
დიალოგი
დიალოგიშ
დიალოგური
დიამეტრი
დიამეტრიშ
დიამუში
დიამუშიქ
დიამუშიშ
დიანა
დიანე
დიანეს
დიანექ
დიაოხი
დიაოხიშ
დიაპაზონი
დიარა
დიარაშ
დიას
დიასი
დიასპორა
დიასპორეფი
დიაფალ
დიაფალი
დიაფალიშ
დიაღორონთიშ
დიაშ
დიგურუ
დიდ
დიდა
დიდამუში
დიდარ
დიდარი
დიდარიე
დიდარული
დიდას
დიდაქ
დიდაშ
დიდგინჷ
დიდგორი
დიდგორიშ
დიდგჷ
დიდება
დიდებას
დიდებაშ
დიდებუანი
დიდებულ
დიდებულეფიშ
დიდებული
დიდი
დიდიე
დიდიქ
დიდიშ
დიდო
დიდოალეფი
დიდობაშ
დიდორსანტი
დიდოსტატის
დიდოური
დიდუბე
დიდუბეშ
დიდფასი
დიდღე
დიდხანს
დიეგო
დიეგოს
დივიზიონს
დიზაინერი
დიზაინი
დიზაინით
დიზაინიშ
დიზაინს
დიზელიშ
დითირუ
დითირჷ
დითმიგურუანს
დითხილუ
დიირთჷ
დიკ
დიკაპრიო
დიკაპრიოქ
დიკენსი
დიკენსიშ
დიკიდჷ
დიკილჷ
დიკინსონ
დიკინჷ
დილანიშ
დილეინი
დილი
დილმა
დილსი
დილჰან
დიმიტრი
დიმიტრის
დიმიტრიქ
დიმიტრიშ
დინ
დინამიკა
დინამიკური
დინამო
დინამოშ
დინარი
დინარიშ
დინასტია
დინასტიას
დინასტიაქ
დინასტიაშ
დინასტიაშე
დინასტიეფი
დინასტიეფიშ
დინაფა
დინაფას
დინაფაშ
დინაფილეფი
დინაფილი
დინახალე
დინახალენ
დინახალენი
დინახლენი
დინდარი
დინი
დინიშ
დინკლიჯი
დინმურს
დინნაჭარა
დინნაჭარაშ
დინნაჭარეფი
დინო
დინოკილერი
დინოკოროცხუათ
დინორე
დინორეთ
დინორეშ
დინოჭარილი
დინოჭარუა
დინოჭარუას
დინოჭარუაქ
დინოჭარუაშ
დინოხ
დინოხლენი
დინოხოლე
დინოხოლენ
დინოხოლენი
დინოხოლეშე
დინოხურიშეფი
დინოხურიშით
დინუ
დინქ
დინცხფერიში
დინჭყოლჷ
დიო
დიოგენე
დიოდღარო
დიოკლეტიანეშ
დიორდი
დიოსიშ
დიპიკა
დიპლომატეფი
დიპლომატი
დიპლომატია
დიპლომატიურ
დიპლომატიური
დიპლომატიშ
დიპლომი
დიჟონი
დირაკი
დირექტორეფიშ
დირექტორი
დირექტორიშ
დირექტორო
დირთას
დირთეს
დირთინუ
დირთუ
დირთჷ
დირი
დირიჟორი
დირიხლე
დირკჷ
დირსხუ
დირსხჷ
დირცხუ
დირჰამი
დისერტაცია
დისერტაციაშ
დისიდენტი
დისკეფი
დისკეფიშ
დისკეფს
დისკი
დისკის
დისკიქ
დისკიშ
დისკო
დისკოგრაფია
დისკოშ
დისკუსია
დისლოცირაფილი
დისნეიშ
დისპლეი
დისპური
დისტანცია
დისტანციაშ
დისტრიბუტორი
დისციპლინა
დისციპლინას
დისციპლინაქ
დისციპლინაშ
დისციპლინეფი
დისციპლინეფიშ
დისციპლინეფს
დიტერ
დიტუ
დიუ
დიუვალი
დიუვი
დიუვიქ
დიუკიშ
დიუმა
დიუმაშ
დიუმი
დიუმიანი
დიუნეფი
დიუჟარდენი
დიურკჰაიმი
დიურკჰაიმიშ
დიუსელდორფი
დიუშ
დიფერენციალური
დიფერენციაცია
დიფერენცირაფილი
დიფრაქციაშ
დიფტერიაშ
დიფუზიაშ
დიქტატორ
დიქტატორი
დიქტატორიშ
დიქტატორო
დიქტატურა
დიქტატურაშ
დიშ
დიჭკირჷ
დიჭყეს
დიჭყუ
დიჭყჷ
დიჭყჷნ
დიხა
დიხაზურგა
დიხათ
დიხას
დიხასაქვარუა
დიხასაქვარუას
დიხაუჩა
დიხაუჩას
დიხაუჩაშ
დიხაუჩაშა
დიხაუჩაშე
დიხაშ
დიხაშა
დიხაშგიმენი
დიხაშე
დიხაშთუდოლენი
დიხაშთუდონ
დიხაშთუდონი
დიხაშითუდონი
დიხაშნწალუა
დიხაშნწალუას
დიხაშნწალუაქ
დიხაშნწალუაშ
დიხაშნწალუეფი
დიხაშნწალუეფიშ
დიხაშო
დიხაშჟინი
დიხაჭაბუშ
დიხეფი
დიხეფიშ
დიხეფს
დიხეფქ
დიხეფშე
დიხორეს
დიხორჷ
დიჯეი
დიჸვილუ
დმ
დმანისი
დმანისის
დმანისიშ
დნბ
დნბშ
დნეპრი
დნეპრის
დნეპრიშ
დნესტრი
დნესტრიშ
დნესტრიშპიჯეთი
დნესტრიშპიჯეთიშ
დნიპრო
დნმ
დო
დოა
დოარქივაფილი
დობერა
დობჟანსკი
დოგაფილი
დოგეგმარაფა
დოგეგმარაფაშ
დოგეგმილი
დოგმა
დოგრი
დოგურაფა
დოგურაფათ
დოგურაფას
დოგურაფაქ
დოგურაფაშ
დოგურაფილი
დოდ
დოდასურაფილი
დოდასურაფილიე
დოდაღარაფა
დოდაღარაფაშ
დოდაღარაფილი
დოდგინა
დოდგინელი
დოდგჷ
დოდგჷმილი
დოდვალა
დოდვალაშ
დოდვალირი
დოდირთჷ
დოდო
დოდუ
დოვერი
დოთარიღაფილი
დოთი
დოთირეს
დოთირუ
დოთირჷ
დოთხილუან
დოი
დოილიშ
დოინალაფაშ
დოინალაფირი
დოინტერესაფილი
დოინფიცირაფა
დოკ
დოკაფილი
დოკვათუათ
დოკვირაფაშ
დოკიდეს
დოკიდილი
დოკიდილქ
დოკიდჷ
დოკილეს
დოკინა
დოკინაშ
დოკუმენტაცია
დოკუმენტაციაშ
დოკუმენტეფი
დოკუმენტეფიშ
დოკუმენტეფს
დოკუმენტი
დოკუმენტის
დოკუმენტიშ
დოკუმენტურ
დოკუმენტური
დოლ
დოლარი
დოლარით
დოლარიშ
დოლარო
დოლარს
დოლარქ
დოლარშა
დოლარშახ
დოლარშე
დოლარწკჷმა
დოლაფა
დოლი
დოლიძე
დოლმახორეეფიშ
დოლო
დოლოეფი
დოლოეფით
დოლოეფს
დოლომიტამი
დოლორესი
დოლოს
დოლოშ
დოლრაშ
დოლფ
დომაჸალაფირი
დომენი
დომენიკო
დომენიშ
დომენური
დომი
დომინანტი
დომინანტური
დომინგო
დომინიკ
დომინიკა
დომინიკარეფიშ
დომინირენს
დომიტალენქო
დომიშ
დომიცაშ
დომიციუს
დომოწმაფილი
დონ
დონა
დონალ
დონალდ
დონგი
დონგის
დონე
დონეთ
დონელი
დონეს
დონექ
დონეშ
დონეშა
დონეშე
დონეცკი
დონეცკიშ
დონთხაფა
დონთხაფაშ
დონთხაფილი
დონთხორეს
დონი
დონიშ
დონწყილი
დორ
დორაიონაფილი
დორთა
დორთას
დორთაშ
დორთილი
დორთილიე
დორთინა
დორთინას
დორთინაფა
დორთინაფას
დორთინაფაშ
დორთინაშ
დორთუალა
დორთუალათ
დორთუალას
დორთუალაქ
დორთუალაშ
დორი
დორინაფა
დორინაფილი
დორის
დოროთი
დორსხუაფა
დორსხუაფას
დორსხუაფაქ
დორსხუაფაშ
დორსხუაფაშა
დორსხუაფაშახ
დორსხუაფაშე
დორსხუაფილ
დორსხუაფილი
დორტმუნდი
დორტმუნდის
დორტმუნდიშ
დორცუაფაშ
დორცხუაფა
დორცხუაფაშ
დორცხუაფილი
დორხველ
დორხველი
დორხველობა
დორხველობათ
დორხველობას
დორხველობაშ
დორხველობაშა
დორხველუას
დორხველურ
დორხველური
დოს
დოსაბუთაფაშ
დოსაქვარაფილი
დოსვარილი
დოსტოევსკი
დოსტოევსკის
დოსტოევსკიშ
დოსქიდჷ
დოსქილადა
დოსქილადირ
დოსქილადირი
დოტება
დოტიბაფაშ
დოუ
დოუსონი
დოფიქსირაფილი
დოფორილი
დოქტორ
დოქტორი
დოქტორიშ
დოქტრინა
დოქტრინას
დოღინჩეს
დოღურე
დოღურეს
დოღური
დოღურუ
დოღურჷ
დოშანაფა
დოშანაფაშ
დოშანილობა
დოშაყარუ
დოშორაფათ
დოშორაფილი
დოშურდჷ
დოშქუმალირი
დოჩილითაფათ
დოჩილითაფირი
დოცენტი
დოცენტო
დოწესაფილი
დოწეწილი
დოჭარილი
დოჭარჷ
დოჭვეს
დოჭყანაფა
დოჭყანაფილი
დოჭყაფა
დოჭყაფას
დოჭყაფაშ
დოჭყაფაშახ
დოჭყაფაშე
დოჭყაფილ
დოჭყაფილი
დოჭყაფუთ
დოჭყაფური
დოჭყაფუს
დოხ
დოხარგელი
დოხასიათაფა
დოხვადჷ
დოხოლ
დოხოლადირო
დოხოლაფათ
დოხოლაფირი
დოხოლაფირო
დოხორალა
დოხორალაქ
დოხორალაშ
დოხორაფა
დოხორაფაქ
დოხორე
დოხორეეფი
დოხორეეფიშ
დოხორელ
დოხორელი
დოხორეს
დოხორექ
დოხორეშ
დოხორეშა
დოხორეწკჷმა
დოხორინელ
დოხორინელი
დოხორინი
დოხორინიშ
დოხორინს
დოხუაფაშ
დოხუნაფა
დოხუნელი
დოჯილდაფა
დოჯილდაფას
დოჯილდაფაშ
დოჯილდაფილი
დოჯიმალაფირი
დოჰა
დოჰაშ
დოჸალერი
დოჸვილეს
დოჸვილი
დოჸვილუ
დოჸვილჷ
დოჸუნა
დოჸუნალა
დოჸუნალას
დოჸუნალაშ
დოჸუნალობაშ
დოჸუნაფა
დოჸუნაფილი
დოჸუნაფონი
დოჸუნდეს
დოჸუნდჷ
დოჸუნელი
დოჸუნს
დპ
დრავა
დრავაშ
დრავიდეფი
დრავიდულ
დრავიდული
დრაივერი
დრაკო
დრაკონეფიშ
დრაკონი
დრაკონიშ
დრაკულა
დრამა
დრამას
დრამატულ
დრამატული
დრამატურგი
დრამატურგიაშ
დრამაქ
დრამაშ
დრამერი
დრამეფი
დრამეფიშ
დრამეფს
დრამი
დრამიშ
დრეზდენი
დრეზდენიშ
დრეიკიშ
დრეიპერიშ
დრეიფუსი
დრიუ
დრო
დროება
დროს
დროშა
დროშის
დრუზეფი
დრუზუსი
დსე
დუ
დუბაი
დუბაიშ
დუბლინი
დუბლინიშ
დუბროვნიკი
დუგლას
დუგლასი
დუგლასიშ
დუდ
დუდაევი
დუდაევიშ
დუდალა
დუდალათ
დუდალას
დუდალაშ
დუდაფაშ
დუდგინნაველეფი
დუდგინოდვალირი
დუდგიორთუმალი
დუდენდეს
დუდენდჷ
დუდენს
დუდეფი
დუდეფს
დუდთხილუაშ
დუდი
დუდით
დუდის
დუდიშ
დუდიშა
დუდიშალა
დუდიშალას
დუდიშალაშ
დუდიშალაშო
დუდიშე
დუდიშთხილუაშ
დუდიშმაჸვილუეფიშ
დუდიშმითაფორაფალი
დუდიშულ
დუდიშულა
დუდიშულას
დუდიშულაშ
დუდიშულაშო
დუდიშული
დუდიშულო
დუდმაართა
დუდმაართათ
დუდმაართაშე
დუდმამართალი
დუდმართუალა
დუდმართუალაშ
დუდმახვენჯი
დუდმახვენჯიშ
დუდმახვენჯო
დუდო
დუდობათ
დუდს
დუდსგინნაველეფიშ
დუდშა
დუდშე
დუდშეიან
დუდშეიანი
დუდშენო
დუდშეშე
დუდჯოხო
დუდჯოხოთ
დუდჯოხოშ
დუერო
დუეტი
დუთირეს
დუთმარინუანს
დუთმოდვანს
დუთმუ
დუკინჷ
დულბეკო
დუმა
დუმაკვირაფალი
დუმარსხუაფალ
დუმარსხუაფალეფი
დუმარსხუაფალი
დუმარსხუაფალო
დუმარცხუაფალი
დუმასაჯებელი
დუმაშ
დუმახასიათაფალი
დუმბაძე
დუნაბადი
დუნაბადჷ
დუნადგინა
დუნაი
დუნაის
დუნაიშ
დუნაიშა
დუნარსხუა
დუნასქვი
დუნახუნა
დუნგარპური
დურგა
დურუჯი
დუს
დუტუ
დუქანი
დუღურუ
დუღურჷ
დუშანბე
დუშეთი
დუშეთიშ
დუც
დღა
დღათ
დღალეფი
დღალეფიშ
დღალეფს
დღალურეფი
დღამი
დღარეფი
დღარეფიშ
დღარეფს
დღარი
დღას
დღასანწალი
დღაქ
დღაშ
დღაშა
დღაშახ
დღაშე
დღაშით
დღაშო
დღახუ
დღახუეფი
დღახუეფს
დღახუთ
დღახუს
დღახუშ
დღე
დჰარმა
დჰაულაგირი
დჰოლპური
დჷთმარინუანს
დჷთმიგურუანს
დჷთმოდვანს
დჷკი
დჷკის
დჷკიშ
დჷმაგურაფალი
დჷმადასურაფალი
დჷმაკვირაფალიშ
დჷმარსხუაფალ
დჷმარსხუაფალეფი
დჷმარსხუაფალი
დჷმარსხუაფალიშ
დჷმარსხუაფალო
დჷმარცხუაფალი
დჷმახასიათაფალ
დჷმახასიათაფალი
დჷმახასიათაფალიე
დჷმახვარე
დჷნადგინა
დჷნადგინათ
დჷნარსხუა
დჷნარსხუეფი
დჷნაწესებუ
დჷნაწესებუეფი
დჷნაწესებუეფიშ
დჷნაწესებუეფს
დჷნოლექ
დჷნოლექი
დჷნოსქილედ
დჷნოსქილედი
დჷნოშურეფიშ
დჷნოშური
დჷნოშურიშ
დჷრიკონი
ე
ეარყჷ
ები
ებიჯილი
ებრაული
ებრო
ეგაფა
ეგაფაქ
ეგაფაშ
ეგაფილ
ეგაფილი
ეგაფილიე
ეგაფილობათ
ეგაფილობას
ეგაფილობაშ
ეგაფილქ
ეგეოსიშ
ეგვ
ეგვიპტარეფი
ეგვიპტარეფიშ
ეგვიპტარი
ეგვიპტე
ეგვიპტეს
ეგვიპტექ
ეგვიპტეშ
ეგვიპტეშა
ეგვიპტეშე
ეგვიპტის
ეგვიპტურ
ეგვიპტური
ეგზემპლარი
ეგზემპლარქ
ეგზისტენციალიზმიშ
ეგზიუპერი
ეგზიუპერიშ
ეგზოტიკური
ეგიდით
ეგნატე
ეგრისალეფიშ
ეგრისი
ეგრისის
ეგრისიშ
ეგრისშა
ედ
ედგარ
ედელმანქ
ედვარდ
ედვარდი
ედვინ
ედი
ედით
ედინბურგი
ედინბურგის
ედინბურგიშ
ედირნე
ედისონიშ
ედიტ
ედმონ
ედმონდ
ედმუნდ
ედომიშ
ედომუშამ
ედომუშამი
ედომუშამინდური
ედომუშამო
ედომუშამობას
ედომშამი
ედომშამო
ედოშ
ედპ
ედრიანი
ედრიენ
ედსგერ
ედუარ
ედუარდ
ედუარდი
ედუარდიშ
ედუარდო
ედუინ
ეე
ევა
ევანსი
ევანჯელინ
ევაშ
ევგენი
ევერესტი
ევერესტიშ
ევერი
ევიტა
ევკალიპტი
ევო
ევოლუცია
ევოლუციას
ევოლუციაშ
ევოლუციურ
ევოლუციური
ევრაზია
ევრაზიას
ევრაზიაშ
ევრიპიდე
ევრო
ევროვიზიაშ
ევროპა
ევროპალ
ევროპალეფი
ევროპალეფიშ
ევროპალეფს
ევროპალეფქ
ევროპალეფშე
ევროპალი
ევროპას
ევროპაშ
ევროპაშა
ევროპაშე
ევროპეიდული
ევროპულ
ევროპული
ევრორსხუ
ევრორსხუს
ევრორსხუშ
ევროშ
ევფრატის
ევფრატიშ
ეზ
ეზინდილი
ეზოპე
ეზოპეშ
ეზრა
ეთერი
ეთერს
ეთი
ეთიკა
ეთიკას
ეთიკური
ეთილიშ
ეთიოპია
ეთიოპიას
ეთიოპიაშ
ეთიოპიური
ეთმენწყუნს
ეთმეშანენს
ეთმეშანჷნა
ეთმეჭარუნს
ეთმეჭარჷნს
ეთმეჭოფუნს
ეთმეჭოფჷნა
ეთმეჭოფჷნს
ეთმიღანკუ
ეთმიჯუმუაფუ
ეთმონწყუნს
ეთმოჭარუნდჷ
ეთმოჭარუნს
ეთმოჭარჷნს
ეთმოჭოფუნა
ეთმოჭოფუნდჷ
ეთმოჭოფუნს
ეთნიკურ
ეთნიკური
ეთნიკურო
ეთნო
ეთნოგრაფი
ეთნოგრაფია
ეთნოგრაფიულ
ეთნოგრაფიული
ეთნოლოგია
ეთნოლოგიური
ეთნონიმი
ეთნოსეფიშ
ეთნოსი
ეთნოსიშ
ეიგენი
ეიდენ
ეივინდ
ეილერ
ეილერი
ეინარ
ეინწყჷმუ
ეიოგეს
ეიოგჷ
ეიონწყუ
ეიონწყჷმალო
ეიოფურინალ
ეიოფურინალი
ეიოშანალი
ეიოშანალიე
ეიოშანალო
ეიოშინალი
ეიოშინალო
ეიოჭარალო
ეიოჭოფალო
ეისკერი
ეიფელი
ეიფელიშ
ეიშანას
ეიშანუაფუ
ეიშანუაფჷ
ეიშინუაფუ
ეიჩ
ეიხანტჷ
ეკ
ეკა
ეკატერინბურგი
ეკატერინე
ეკატერინეშ
ეკენია
ეკენიას
ეკენიაშ
ეკენიაშა
ეკენიაშახ
ეკენიაშე
ეკვადორი
ეკვადორიშ
ეკვადორს
ეკვატორი
ეკვატორიალური
ეკვატორიული
ეკვატორიშ
ეკვატორს
ეკვატორულ
ეკვატორული
ეკვატორშე
ეკვდერიშ
ეკვივალენტი
ეკვივალენტიშ
ეკიდეს
ეკიდილი
ეკიდილქ
ეკიდუა
ეკიდჷ
ეკინა
ეკინელი
ეკიშ
ეკლესია
ეკლესიას
ეკლესიაქ
ეკლესიაშ
ეკლესიები
ეკლესიეფი
ეკლესიის
ეკლსი
ეკო
ეკოლოგია
ეკოლოგიაშ
ეკოლოგიურ
ეკოლოგიური
ეკონია
ეკონიათ
ეკონიას
ეკონიაქ
ეკონიაშ
ეკონიაშა
ეკონიაშახ
ეკონიაშე
ეკონიაშო
ეკონომიკა
ეკონომიკას
ეკონომიკაქ
ეკონომიკაშ
ეკონომიკაშა
ეკონომიკაშო
ეკონომიკურ
ეკონომიკური
ეკონომიკურო
ეკონომისტი
ეკონომიური
ეკონწყუალა
ეკონწყუალაშ
ეკოროცხილი
ეკოროცხუა
ეკოროცხუას
ეკოროცხუაშ
ეკოსისტემა
ეკოსისტემას
ეკოსისტემაშ
ეკრანეფს
ეკრანი
ეკრანიზაცია
ეკრანიზაციას
ეკრანიზაციაქ
ეკრანიშ
ეკრანს
ეკუხედჷ
ეკჰარტი
ელ
ელა
ელაზიღიშ
ელაზჷმაფათ
ელაზჷმაფონი
ელაიჯა
ელართელი
ელახ
ელახი
ელახიანი
ელახის
ელახიშ
ელახიშე
ელახშე
ელაჸინილი
ელბა
ელბაშ
ელდარ
ელემენტარულ
ელემენტარული
ელემენტეფი
ელემენტეფით
ელემენტეფიშ
ელემენტეფს
ელემენტეფშე
ელემენტი
ელემენტის
ელემენტიშ
ელემენტო
ელენ
ელენა
ელენე
ელენეშ
ელეონორა
ელერი
ელექტრა
ელექტრო
ელექტრობაშ
ელექტროდინამიკაშ
ელექტროენერგიათ
ელექტროენერგიას
ელექტროენერგიაშ
ელექტრომაგნიტური
ელექტრონეფიშ
ელექტრონიკა
ელექტრონიკაშ
ელექტრონიშ
ელექტრონულ
ელექტრონული
ელექტროტექნიკაშ
ელექტრული
ელვის
ელზა
ელზასი
ელი
ელია
ელიავა
ელიას
ელიზაბეთ
ელიზაბეტ
ელინისტურ
ელინისტური
ელიოდორო
ელიონი
ელიოტ
ელიოტი
ელიპტიკური
ელის
ელისაბედ
ელისაბედი
ელისაბედიქ
ელისაბედიშ
ელისონ
ელისტა
ელიტა
ელიტური
ელიუს
ელიფსური
ელიშ
ელკი
ელკიშ
ელმაჩამალი
ელმოლი
ელმოლიშ
ელმოლს
ელმოლშე
ელონ
ელრონდი
ელჩეფი
ელჩი
ელჩიქ
ელჩო
ელცინი
ელჷ
ემა
ემანგებუ
ემანუელ
ემანუელე
ემასახალი
ემაღალაფა
ემაღალაფირ
ემაღალაფირი
ემაყარაფალი
ემაშანალი
ემაჭოფალი
ემაჸონაფალ
ემაჸონაფალი
ემბლემა
ემბრიოლოგია
ემბრიოლოგიაშ
ემეთი
ემერიტუსი
ემი
ემიგრანტეფი
ემიგრანტეფიშ
ემიგრანტი
ემიგრაცია
ემიგრაციას
ემიგრაციაშ
ემიგრაციაშა
ემილ
ემილი
ემილია
ემილიო
ემილიუს
ემინემი
ემირი
ემირიშ
ემისია
ემისიაშ
ემიშ
ემოციაშ
ემოციური
ემპირიული
ენ
ენა
ენაზე
ენათმეცნიერების
ენაჭოფა
ენგ
ენგელსი
ენგელსიშ
ენდ
ენდემეფი
ენდემი
ენდემური
ენდერსი
ენდი
ენდოპლაზმური
ენდრიუ
ენდრიუსი
ენდრიუშ
ენების
ენეოლითიშ
ენერგეტიკაშ
ენერგეტიკული
ენერგია
ენერგიათ
ენერგიას
ენერგიაშ
ენთონი
ენთუზიაზმით
ენი
ენინალჷ
ენიო
ენირიცხჷ
ენის
ენისტონი
ენმაკათუ
ენრიკე
ენრიკო
ენტონი
ენტროპიაშ
ენციკლოპედია
ენციკლოპედიას
ენციკლოპედიაქ
ენციკლოპედიაშ
ენციკლოპედიაშე
ენციკლოპედიეფი
ენციკლოპედიური
ენწერი
ენწყილი
ენწყუალა
ენწყუალას
ენწყუალაშ
ენწყუმა
ენწყუმათ
ენწყუმას
ენწყუმილი
ენწყჷ
ენწყჷმილი
ენჯეირი
ეორ
ეპარქია
ეპარქიაშ
ეპიდემია
ეპიდემიაქ
ეპიდემიაშ
ეპიდემიური
ეპიზოდეფი
ეპიზოდეფს
ეპიზოდი
ეპიზოდის
ეპიზოდიშ
ეპიზოდურ
ეპიზოდური
ეპითეტი
ეპიკურ
ეპიკურე
ეპიკურეშ
ეპიკური
ეპირი
ეპირიშ
ეპისკოპოსი
ეპისკოპოსიშ
ეპიცენტრი
ეპონილი
ეპონილიე
ეპოსი
ეპოსიშ
ეპოქა
ეპოქას
ეპოქაშ
ეპოქაშე
ეპსი
ეჟენ
ერ
ერა
ერას
ერატოსთენე
ერაყი
ერაყის
ერაყიშ
ერაშ
ერაშახ
ერგატიულ
ერდოღანი
ერებამი
ერევანი
ერევანიშ
ერევანს
ერევანშე
ერეკლე
ერეკლექ
ერეკლეშ
ერემი
ერემიშ
ერეფიშ
ერვინ
ერზიებუ
ერზრუმიშ
ერთად
ერთი
ერი
ერია
ერითროციტეფი
ერითროციტეფიშ
ერიკ
ერიმანთოსიშ
ერინ
ერის
ერისთავეფი
ერისთავი
ერისთავიშ
ერისთავქ
ერიტრეა
ერიტრეაშ
ერიურთი
ერიურთიქ
ერიქსონი
ერიშ
ერიშდუდი
ერიხ
ერკებული
ერკებულით
ერკებულიშ
ერკებულს
ერკებულშა
ერკებულშე
ერლ
ერლანგენიშ
ერმიტი
ერმიტიშ
ერნან
ერნანდეს
ერნანდესი
ერნანდო
ერნე
ერნესტ
ერნესტო
ერნსტ
ეროვნული
ეროზია
ეროზიას
ეროზიაშ
ეროზიული
ეროსი
ეროტიკული
ერსტედიშ
ერსქემი
ერუანობათ
ერუანობაშ
ერუანულ
ერუანული
ერუშეთიშ
ერქ
ერჩქის
ერწყარი
ერხინილი
ეს
ესახილი
ესახუნს
ესახჷ
ესახჷნს
ესე
ესებუა
ესეეფი
ესეისტი
ესენი
ესექსი
ესვარილ
ესვარილი
ესვარუათ
ესვარუაშ
ესვატინი
ესვატინის
ესვატინიშ
ესთეტიკურ
ესთეტიკური
ესთეტიური
ესკიმოსეფი
ესკიმოსურ
ესკორიალი
ესპ
ესპანალი
ესპანარ
ესპანარეფი
ესპანარეფიშ
ესპანარეფიშით
ესპანარეფქ
ესპანარი
ესპანეთი
ესპანეთის
ესპანეთიქ
ესპანეთიშ
ესპანეთიშა
ესპანეთიშე
ესპანეთშა
ესპანეთშე
ესპანეთწკჷმა
ესპანურ
ესპანური
ესპანურნინამ
ესპანურნინამი
ესპანურო
ესპანურწკჷმა
ესპერანტო
ესპერანტოშ
ესპირიტუ
ესსე
ესსეეფიშ
ესსეისტი
ესტ
ესტე
ესტებან
ესტევესი
ესტონარი
ესტონეთი
ესტონეთის
ესტონეთიქ
ესტონეთიშ
ესტონეთიწკჷმა
ესტონურ
ესტონური
ესტრადაშ
ესტუარი
ესტუარიშ
ესტუარს
ესურჷ
ესქილე
ესქირაფაშ
ესქიშეჰირი
ეტაპეფი
ეტაპეფს
ეტაპი
ეტაპის
ეტაპიქ
ეტაპიშ
ეტაპშა
ეტიენი
ეტიმოლოგია
ეტიმოლოგიური
ეტიმოლოგიურო
ეტიუდები
ეტიუდეფი
ეტრაპის
ეტრაპიშ
ეტრუსკული
ეუგაფუნა
ეულა
ეფ
ეფას
ეფექტეფი
ეფექტეფიშ
ეფექტეფს
ეფექტი
ეფექტიანი
ეფექტის
ეფექტიშ
ეფექტურ
ეფექტური
ეფექტურო
ეფექტურობა
ეფი
ეფიშ
ეფლი
ეფლიშ
ეფრონიშ
ეფურაფა
ეფურინათ
ეფურინუაშ
ეფშა
ექ
ექვთიმე
ექვთიმექ
ექვივალენტი
ექვივალენტური
ექი
ექიაქო
ექიმ
ექიმეფი
ექიმეფიშ
ექიმი
ექიმიშ
ექიმო
ექიმქ
ექს
ექსკლავი
ექსკლავს
ექსკლუზიური
ექსნერიშ
ექსპანსია
ექსპანსიაშ
ექსპედიცია
ექსპედიციას
ექსპედიციაქ
ექსპედიციაშ
ექსპედიციეფი
ექსპედიციეფიშ
ექსპედიციეფს
ექსპერიმენტალურ
ექსპერიმენტალური
ექსპერიმენტეფი
ექსპერიმენტეფით
ექსპერიმენტეფიშ
ექსპერიმენტეფს
ექსპერიმენტი
ექსპერიმენტით
ექსპერიმენტიქ
ექსპერიმენტულ
ექსპერიმენტული
ექსპერტეფიშ
ექსპლუატაციას
ექსპლუატაციაშ
ექსპლუატაციაშა
ექსპორტი
ექსპორტიშ
ექსპორტშა
ექსტრემალურო
ეღეგნაძორი
ეყარეს
ეშ
ეშაგორგოთი
ეშაგორგოთიქ
ეშაგორგოთიშ
ეშაგორგოთუაშ
ეშაგორილი
ეშაგორილქ
ეშაგორუეფიშ
ეშაგორუეფს
ეშაკვათილი
ეშაკინაშ
ეშალაფაშ
ეშალაფირი
ეშალი
ეშანილ
ეშანილი
ეშანუა
ეშანჷ
ეშანჷნდჷ
ეშანჷნს
ეშართეს
ეშართჷ
ეშასხუნეს
ეშაულარი
ეშაფშაფილი
ეშაღალა
ეშაღალას
ეშაღალირი
ეშაღალირქ
ეშაჩინებუ
ეშაჭკირილი
ეშახე
ეშაჸოთამა
ეშაჸოთამაშ
ეშე
ეშერაშ
ეშერქ
ეშლი
ეშმაგორუნს
ეშმაგორჷნს
ეშმაკი
ეშმაკიშ
ეშმაღალარეფი
ეშმაღალარეფიშ
ეშმაღალარი
ეშმურს
ეშობას
ეშტონ
ეშულა
ეშულაქ
ეშულაშ
ეშულაშე
ეჩდოამშვი
ეჩდოართი
ეჩდობრუო
ეჩდოვითაამშვი
ეჩდოვითაანთხი
ეჩდოვითაართი
ეჩდოვითი
ეჩდოვითიანეფი
ეჩდოვითიანი
ეჩდოვითობრუო
ეჩდოვითოჟირი
ეჩდოვითოსუმი
ეჩდოვითოშკვითი
ეჩდოვითოჩხორო
ეჩდოვითოხუთი
ეჩდოვითწანიანი
ეჩდოოთხი
ეჩდოჟირი
ეჩდოსუმი
ეჩდოშკვითი
ეჩდოჩხორო
ეჩდოხუთი
ეჩი
ეჩიანეფი
ეჩიანი
ეცადჷ
ეწერი
ეჭანუ
ეჭარილ
ეჭარილი
ეჭარილიე
ეჭარილობა
ეჭარუ
ეჭარუა
ეჭარუათ
ეჭარუას
ეჭარუაშ
ეჭარუაშახ
ეჭარუეფი
ეჭარუნს
ეჭარჷ
ეჭარჷნს
ეჭვი
ეჭოფეს
ეჭოფილ
ეჭოფილი
ეჭოფილიე
ეჭოფილქ
ეჭოფუ
ეჭოფუა
ეჭოფუას
ეჭოფუაქ
ეჭოფუაშ
ეჭოფუაშახ
ეჭოფუნ
ეჭოფუნა
ეჭოფუნს
ეჭოფჷ
ეხანტილი
ეხანტუა
ეხოლებუ
ეჯი
ეჯიოფორი
ეჯღუნებუ
ეჯღუნებჷ
ეჸონაფა
ეჸონაფაშ
ეჸონილი
ეჸონუა
ეჸონუაშ
ვ
ვა
ვაარსებენდჷ
ვაარსებენს
ვაგზალი
ვაგინალური
ვაგნერი
ვადა
ვადათ
ვადაქ
ვადაშ
ვადენზეეშ
ვადი
ვადოდარა
ვადუცი
ვადუციშ
ვათირელე
ვაიგლი
ვაიგლიქ
ვაილი
ვაილიქ
ვაიმარიშ
ვაიოლა
ვაიომინგი
ვაიომინგიშ
ვაისი
ვაიშაკჰა
ვაიშნავიზმიშ
ვაკა
ვაკათუდჷ
ვაკანტური
ვაკეშ
ვაკო
ვაკომერციული
ვაკსმანიშ
ვალ
ვალაბჰაი
ვალდესი
ვალდვალირი
ვალდივია
ვალე
ვალენსია
ვალენსიას
ვალენსიაშ
ვალენტინ
ვალერი
ვალერიან
ვალერიუს
ვალერიუსი
ვალეტა
ვალეშ
ვალი
ვალიადოლიდი
ვალიდე
ვალიშ
ვალო
ვალპარაისო
ვალპარაისოშ
ვალს
ვალსადი
ვალტერ
ვალუა
ვალუტა
ვალუტას
ვალუტაშ
ვალუტეფი
ვალცი
ვამაკათური
ვამატერიალური
ვამეყ
ვამიპალუაფუ
ვამპირიშ
ვამუჭირინუაფჷ
ვან
ვანარკი
ვანაფერი
ვანაფერო
ვანაძორი
ვანგჩუკი
ვანდერბილტიშ
ვანი
ვანილიშ
ვანიშ
ვანკუვერი
ვანკუვერს
ვანო
ვანტ
ვანუატუ
ვანუატუშ
ვაოთარობე
ვაომუშებე
ვაორგანული
ვაოფიციალური
ვაოფიციალურო
ვაპალუნა
ვაჟა
ვარ
ვარა
ვარაზ
ვარაუდენა
ვარაუდი
ვარაუდით
ვარბურგიშ
ვარდა
ვარდან
ვარდას
ვარდეს
ვარდეფიშ
ვარდი
ვარდიშ
ვარდიშობურეფიშ
ვარდიშფერი
ვარდჷ
ვარე
ვარება
ვარებული
ვარეგულარული
ვარენ
ვარენა
ვარზენს
ვართ
ვართი
ვართფერი
ვარი
ვარია
ვარიანტი
ვარიანტით
ვარიანტის
ვარიანტიშ
ვარიას
ვარიაშ
ვარიაცია
ვარიაციეფი
ვარინ
ვარიშ
ვარლამ
ვარსებენს
ვარსული
ვარტაშ
ვარშავა
ვარშავას
ვარშავაშ
ვარჩქვანელობური
ვარჩხილი
ვარჩხილიშ
ვარჩხილიშწყარიშ
ვარჩხილს
ვარხველჷ
ვარჷნ
ვასათარობო
ვასალი
ვასალური
ვასილ
ვასილი
ვასილიშ
ვასკო
ვატანაბე
ვატი
ვატიკანი
ვატიკანიშ
ვატოვიშ
ვაუ
ვაუღუ
ვაუღუდეს
ვაუღუდჷ
ვაუღუნ
ვაუღუნა
ვაუღჷ
ვაუღჷნა
ვაუღჷნან
ვაუჭირს
ვაფორმალურო
ვაქცინა
ვაქცინაშ
ვაქცინეფი
ვაღიარაფილი
ვაღიარჷ
ვაღურია
ვაღურუ
ვაშანენს
ვაშილებე
ვაშინგტონ
ვაშინგტონი
ვაშინგტონიშ
ვაშინგტონს
ვაშინერებული
ვაშინერს
ვაშლოვანიშ
ვაჩინებულენს
ვაჩოვსკეფი
ვაცლავ
ვაჭარეფი
ვაჭარეფს
ვაჭარი
ვაჭარობა
ვაჭარობაშ
ვაჭარუა
ვაჭარუას
ვაჭარუაშ
ვაჭიშუ
ვაჭრუაშ
ვახვალე
ვახორანს
ვახტანგ
ვახტანგიშ
ვახუშტი
ვაჯერდჷ
ვაჸოფე
ვე
ვებ
ვებერი
ვებსაიტი
ვებსაიტის
ვებხასჷლა
ვებხასჷლას
ვეგასი
ვეგეტატიური
ვეგეტატიურო
ვეგეტაციური
ვეგმიჭანუანს
ვედეფი
ვედეფიშ
ვედიდკარიშ
ვედურ
ვედური
ვევე
ვეზუვიშ
ვეთირუ
ვეიაჭოფჷ
ვეინი
ვეინიქ
ვეკათუანს
ვეკოროცხუ
ვეკუა
ვეკუაქ
ველ
ველა
ველაიათი
ველაიათიშ
ველერი
ველეფი
ველეფიშ
ველეფს
ველი
ველია
ველიკო
ველიკოპოლსკი
ველური
ვემეჩჷ
ვემუღებუ
ვემუღებჷ
ვემშმურს
ვენა
ვენას
ვენაშ
ვენაშა
ვენდა
ვენდეტას
ვენერა
ვენერაშ
ვენერიული
ვენერნი
ვენესუელა
ვენესუელარი
ვენესუელას
ვენესუელაშ
ვენეტო
ვენეტოშ
ვენეცია
ვენეციარი
ვენეციას
ვენეციაშ
ვენივარ
ვენკატა
ვენსან
ვენშმურს
ვერ
ვერა
ვერაკრუსი
ვერაკრუსიშ
ვერაშ
ვერგინიუს
ვერდე
ვერდერი
ვერდეშ
ვერდი
ვერდიგრისი
ვერე
ვერთუ
ვერლენი
ვერმილიონი
ვერმონტი
ვერნერ
ვერნონი
ვეროკოსუსი
ვერსალი
ვერსალიშ
ვერსია
ვერსიათ
ვერსიას
ვერსიაქ
ვერსიაშ
ვერსიაშე
ვერსიეფი
ვერსიეფიშ
ვერტიკალურ
ვერტიკალური
ვერტიკალურო
ვერტფურინჯიშ
ვერუკანოშ
ვერულავა
ვერწემი
ვეს
ვესთი
ვესპასიანეშ
ვესპუჩიშ
ვესტ
ვესტერნი
ვესტერნიშ
ვესტი
ვესტმინსტერი
ვესტმინსტერიშ
ვესტფალია
ვესტფალიაშ
ვეტერანი
ვეტურიუს
ვეუგი
ვეფხისტყაოსანი
ვეშ
ვეშილებე
ვეშილებედჷ
ვეშულებუ
ვეშულებუდჷ
ვეშქოჩირთან
ვეხტი
ვეჸინუ
ვეჸუ
ვთშ
ვი
ვია
ვიანა
ვიატკა
ვიატკაშ
ვიაჩესლავ
ვიბე
ვიბულანუსი
ვიგეფიშ
ვიგო
ვიდეო
ვიდეოეფი
ვიდეოეფიშ
ვიდეოშ
ვიდიადჰარ
ვიდრე
ვიენტიანი
ვიეტ
ვიეტნ
ვიეტნამარი
ვიეტნამი
ვიეტნამიშ
ვიეტნამს
ვიეტნამურ
ვიეტნამური
ვივალდიქ
ვივალდიშ
ვივინგი
ვიზა
ვიზაშ
ვიზიტი
ვიზიტიშ
ვიზუალური
ვიზუალურო
ვით
ვითაამშვი
ვითაანთხი
ვითაართი
ვითარაფას
ვითი
ვითიანეფი
ვითიანი
ვითობათ
ვითობრუო
ვითოჟირ
ვითოჟირი
ვითოსუმი
ვითოშ
ვითოშალათ
ვითოში
ვითოშიანი
ვითოშის
ვითოშიშახ
ვითოშიშე
ვითოშკვითი
ვითოშობათ
ვითოშშახ
ვითოშშე
ვითოშწანურა
ვითოშწანურას
ვითოშწანურაშ
ვითოშწანურაშე
ვითოშწანურეფს
ვითოჩხორო
ვითოხუთი
ვითული
ვითულშა
ვითური
ვითშახ
ვითწანურა
ვითწანურაშ
ვითწანურეფი
ვიკი
ვიკივერსიტეტი
ვიკიმედია
ვიკიმედიაშ
ვიკინგეფი
ვიკინგეფიშ
ვიკიოწკარუეს
ვიკიპედია
ვიკიპედიას
ვიკიპედიაქ
ვიკიპედიაშ
ვიკიპედიეფს
ვიკიშ
ვიკიციტატეფს
ვიკიწყუ
ვილა
ვილაიეთი
ვილაიეთიშ
ვილას
ვილემ
ვილერი
ვილეფი
ვილი
ვილია
ვილიამ
ვილნევი
ვილნიუსი
ვილნიუსიშ
ვილსონი
ვილსონიშ
ვილჰელმ
ვილჰელმიშ
ვინ
ვინდარო
ვინემ
ვინერი
ვინერქ
ვინი
ვინილიშ
ვინიცა
ვინიცაშ
ვინს
ვინსენტ
ვინსენტი
ვინსენტიშ
ვინჩი
ვინჩიშ
ვინძო
ვიოლინო
ვიოლინოს
ვიოლინოშ
ვიოლინოშო
ვირტუალური
ვირტუოზი
ვირუსეფი
ვირუსეფიშ
ვირუსი
ვირუსით
ვირუსის
ვირუსიქ
ვირუსიშ
ვირუსოლოგი
ვირუსულ
ვირუსული
ვირხოვი
ვირხოვიქ
ვირჯინი
ვირჯინია
ვირჯინიას
ვირჯინიაშ
ვირჯინიშ
ვისაიანიშ
ვისაიასიშ
ვისბადენი
ვისბიუ
ვისენტე
ვისკონსინი
ვისკონსინიშ
ვისლაშ
ვისოცინაშ
ვისოცკიშ
ვიტამინეფი
ვიტამინეფიშ
ვიტამინეფს
ვიტამინი
ვიტამინიშ
ვიტამინს
ვიტებსკიშ
ვიტი
ვიტო
ვიტორია
ვიტორიო
ვიურტემბერგი
ვიურტემბერგიშ
ვიურცბურგიშ
ვიქსიკონს
ვიქტორ
ვიქტორია
ვიქტორიანული
ვიქტორიაშ
ვიშეგრადიშ
ვიშნუ
ვიშნუშ
ვიცე
ვიწე
ვიწეშ
ვიჯა
ვიჯაშ
ვლ
ვლად
ვლადივოსტოკი
ვლადივოსტოკიშ
ვლადიკავკაზი
ვლადიმერ
ვლადიმირ
ვლადიმირი
ვლადიმირიშ
ვლადისლავ
ვლორა
ვო
ვოიტი
ვოიცეხ
ვოკალი
ვოკალისტი
ვოკალურ
ვოკალური
ვოლასტონი
ვოლგა
ვოლგას
ვოლგაშ
ვოლგაშპიჯეთიშ
ვოლგოგრადი
ვოლგოგრადიშ
ვოლინიშ
ვოლოგდა
ვოლოგდაშ
ვოლოდიმირ
ვოლტა
ვოლტაშ
ვოლტერიშ
ვოლფ
ვოლფგანგ
ვოლფი
ვოლფიქ
ვოლფიშ
ვოლფრამი
ვონ
ვონა
ვონი
ვორდი
ვორეთ
ვორექ
ვორონეჟი
ვორონეჟიშ
ვოსტოკიშ
ვოშ
ვროცლავი
ვროცლავიშ
ვსევოლოდ
ვუ
ვუდ
ვუდი
ვუდიშ
ვუდრო
ვუდსი
ვულკან
ვულკანეფი
ვულკანეფიშ
ვულკანეფს
ვულკანი
ვულკანიზმიშ
ვულკანიშ
ვულკანოგენური
ვულკანს
ვულკანურ
ვულკანური
ვულკანშე
ვულფიშ
ზ
ზაალ
ზაბი
ზაგრები
ზაგრებიშ
ზაგროსიშ
ზადებაშ
ზადილი
ზადუაშ
ზადჷნა
ზაზა
ზათი
ზაიიდ
ზაირი
ზაკ
ზაკალი
ზაკოპანე
ზალამი
ზალცბურგი
ზალცბურგის
ზალცბურგიშ
ზამბეზიშ
ზამბია
ზამბიას
ზამბიაშ
ზამბოანგა
ზანაშ
ზანგეფიშ
ზანზიბარი
ზანი
ზაპა
ზაპაქ
ზაპაშ
ზარათუშტრა
ზარალს
ზარი
ზარხულ
ზარხული
ზარხულით
ზარხულიშ
ზარხულობათ
ზარხულს
ზარხულც
ზაფანა
ზაფანაშ
ზაქათალაშ
ზაქარაია
ზაქარი
ზაქარია
ზაჰრავი
ზე
ზებათ
ზებრა
ზეგერსიქ
ზედა
ზედმეტი
ზეე
ზევსი
ზევსიშ
ზეთ
ზეთი
ზეთის
ზეთიშ
ზეთიშხილიშ
ზეილიანი
ზელანდია
ზელანდიას
ზელანდიაშ
ზელენსკი
ზელმან
ზემეკისი
ზემო
ზენი
ზენიტის
ზეპირ
ზეპირი
ზერო
ზეროს
ზეროშ
ზესტაფონი
ზესტაფონიშ
ზესქვი
ზესხოშ
ზეშ
ზვართნოციშ
ზვიად
ზი
ზიგმუნდ
ზიდანი
ზიდანიშ
ზიდანს
ზიდანქ
ზიკაშ
ზიმბაბვე
ზიმბაბვეს
ზიმბაბვეშ
ზიმუ
ზინაიდა
ზინგერი
ზინედინ
ზისნახე
ზისქე
ზისხირამ
ზისხირამი
ზისხირი
ზისხირით
ზისხირიშ
ზისხირს
ზისხირჯერღვეფიშ
ზიტა
ზიტყვა
ზიტყვაზიტყვათ
ზიტყვათ
ზიტყვას
ზიტყვასქვილი
ზიტყვასქვილს
ზიტყვაქ
ზიტყვაშ
ზიტყვაშე
ზიტყვეფი
ზიტყვეფით
ზიტყვეფიშ
ზიტყვეფს
ზიტყვეფშე
ზიტყვიერი
ზლატან
ზლინი
ზლინიშ
ზნე
ზნეობური
ზოგად
ზოგადი
ზოგადო
ზოთონც
ზოთონჯი
ზოთონჯით
ზოთონჯის
ზოთონჯიშ
ზოთონჯობათ
ზოთონჯს
ზოლი
ზოლიშ
ზოლს
ზომა
ზომათ
ზომაშ
ზომერფელდი
ზომერფელდიშ
ზომიერ
ზომიერი
ზომიერო
ზონა
ზონათ
ზონას
ზონაქ
ზონაშ
ზონაშა
ზონაშე
ზონდიშ
ზონეფი
ზონეფიშ
ზონეფს
ზოოლოგია
ზოოლოგიას
ზოოლოგიაშ
ზოოპარკი
ზოოპარკიშ
ზორა
ზორმეხი
ზოროასტრიზმი
ზოროასტრიზმიშ
ზოროასტრიული
ზოროშ
ზოხი
ზოხო
ზოხოთ
ზოხოიან
ზოხოიანი
ზოხორინალა
ზოხორინალას
ზოხორინალაქ
ზოხორინალაშ
ზოხორინალაშო
ზოხორინელ
ზოხორინელი
ზოხორინელო
ზოხორინელობა
ზოხორინელობაშ
ზოხოურ
ზოჯუა
ზოჯუათ
ზოჯუას
ზოჯუაშ
ზოჯჷ
ზსწ
ზუბი
ზუგდიდი
ზუგდიდის
ზუგდიდიშ
ზუგდიდიშე
ზუგდიდს
ზუგდიდურ
ზუგდიდშე
ზუგდიდც
ზუგი
ზუგუამ
ზუგუამი
ზულუ
ზულუშ
ზუმი
ზურაბ
ზურაბიშვილი
ზურაშ
ზურგა
ზურგეფიშ
ზუსტას
ზუსტი
ზუფუ
ზუფუშ
ზუღა
ზუღათ
ზუღაპიჯის
ზუღაპიჯიშ
ზუღას
ზუღაქ
ზუღაშ
ზუღაშა
ზუღაშახ
ზუღაშე
ზუღაში
ზუღაშმელეიანი
ზუღაშმელენ
ზუღაშმელენი
ზუღაშპიჯიშ
ზუღაწკჷმა
ზუღეფი
ზუღეფით
ზუღეფიშ
ზუღეფს
ზუღური
ზუღშ
ზღვის
ზჷმა
ზჷმათ
ზჷმას
ზჷმაშ
ზჷმეფი
ზჷმეფიშ
ზჷმეფს
ზჷმიერ
ზჷმიერი
ზჷმიერო
თ
თა
თაბაშირი
თადა
თავად
თავადეფიშ
თავადი
თავისუფლება
თავისუფლებაშ
თათარ
თათარეთი
თათარეთიშ
თათარეფი
თათარეფიშ
თათარი
თათარული
თაია
თაიმსი
თაიფ
თაიშახ
თალესი
თალიბანი
თალიბანიშ
თალიბეფიშ
თალიბეფქ
თალიშიშ
თამაზ
თამარ
თამარი
თამარიშ
თამთა
თან
თანა
თანამედროვე
თანაფა
თანაფას
თანაფაშ
თანაქაშ
თანგი
თანგილი
თანგის
თანგიშ
თანგუათ
თანგუას
თანგუაშ
თანგჷ
თანი
თანშეშე
თანხა
თანხაქ
თანჯა
თანჯას
თანჯაშ
თანჯაწკჷმა
თანჯეფი
თანჯეფიშ
თანჯეფს
თანჯეფშა
თანჯი
თარ
თარანგელოზი
თარანგელოსიშ
თარაჯი
თარგი
თარგმანი
თარგმნა
თარეფი
თარეფიშ
თარეფს
თარი
თარიღეფი
თარიღეფიშ
თარიღი
თარიღის
თარიღიშ
თარიღო
თარიშ
თარმანჯღვერი
თარო
თარობა
თარობას
თარობაქ
თარობაშ
თარობაშა
თარობაშე
თარობაშით
თარობაწკჷმა
თარობეფი
თარობეფიშ
თარსარდალი
თარსარდალიშ
თარქ
თარხან
თასამი
თასეფი
თასეფიშ
თასეფს
თასი
თასით
თასის
თასიშ
თასიშე
თასჷნა
თაურეშე
თაურჷშე
თაქ
თაქი
თაქიან
თაქიანეფიშ
თაქიანი
თაქინეშეს
თაყაიშვილი
თაყაიშვილიშ
თაშ
თაშენშე
თაში
თაშინ
თაშინეშეს
თაშნე
თაშნეგედვალირი
თაშნეშე
თაშნეშეთ
თაშნეშიშე
თახაშხა
თახმას
თახმი
თახმო
თაჯ
თაჸურეშე
თბ
თბილისი
თბილისის
თბილისში
თე
თეატრალურ
თეატრალური
თეატრეფი
თეატრეფიშ
თეატრეფს
თეატრი
თეატრის
თეატრიქ
თეატრიშ
თება
თებას
თებაქ
თებაშ
თებაშა
თებაშახ
თებაშე
თებე
თებერვალი
თებეს
თებეშ
თებული
თედორე
თევლისი
თეზამიშ
თეთ
თეთრი
თეიმურაზ
თეირანი
თეირანიშ
თეირანს
თეიშა
თეიშახ
თელ
თელავი
თელავიშ
თელარა
თელარას
თელარაშ
თელარაში
თელარენს
თელარი
თელეთიშ
თელი
თელო
თელუანობაშ
თემა
თემათ
თემას
თემატიკაშ
თემატური
თემაშ
თემაშა
თემაშე
თემაშენ
თემეფი
თემეფიე
თემეფიშ
თემეფო
თემეფს
თემი
თემიშ
თემო
თემს
თემურ
თემური
თემურიდეფიშ
თემურლენგი
თემურლენგიქ
თემურლენგიშ
თემშა
თენ
თენა
თენგიზ
თენგრი
თენერ
თენერი
თენერო
თენეფ
თენეფი
თენეფიე
თენეფიშ
თენეფს
თენეფშე
თეოდორ
თეოდოსიუს
თეოკრატიული
თეოლოგი
თეოლოგიას
თეოლოგიაშ
თეოლოგიური
თეორემა
თეორეტიკოსი
თეორია
თეორიათ
თეორიას
თეორიაშ
თეორიეფი
თეორიეფიშ
თეორიეფს
თეორიტიკოსი
თეორიულ
თეორიული
თეორიულო
თეოფრასტე
თეოფრასტეშ
თეჟამიანი
თეჟამიშ
თეჟამიშო
თეჟამო
თეჟამს
თეჟამშო
თერაპიაშ
თერგი
თერგიშ
თერმოდინამიკა
თერმოდინამიკაშ
თერმული
თერჯოლაშ
თეს
თესხი
თექ
თექი
თექიან
თექიანი
თექინეშეს
თეშ
თეშა
თეშე
თეშენ
თეშენი
თეში
თეშით
თეშინეშეს
თეშნერ
თეშნერი
თეშნერო
თეცალ
თეცალი
თეწკჷმა
თეწჷკმა
თეხანიშ
თეხანო
თეხანურ
თეხანური
თეჯგუა
თეჯგურა
თეჸურე
თეჸურეშე
თვითან
თი
თია
თიათ
თიანეთი
თიანეთიშ
თიაქ
თიაშ
თიაშო
თიბორჯიშ
თიზმა
თიზჷმაშა
თით
თითო
თითონ
თილისმა
თიმ
თიმბორჯიან
თიმბორჯიანი
თიმწკჷმა
თიმწკჷმაიანი
თინა
თინათ
თინას
თინაქ
თინაწკჷმა
თინერ
თინერი
თინეფ
თინეფი
თინეფიშ
თინეფიშე
თინეფიში
თინეფიშით
თინეფს
თინეფქ
თინეფშა
თინეფშე
თინეფშეიანი
თინეფშო
თინეფც
თინეფწკჷმა
თინი
თინკუნთხუამი
თინსარჯულუა
თინუსი
თინღოზამი
თინჩალა
თინჩალაშ
თინჩალი
თინწკჷმა
თირ
თირამი
თირანდეს
თირანს
თირაფა
თირაფეფი
თირაფეფიშ
თირაფეფქ
თირელი
თირელქ
თირი
თირით
თირიშ
თირს
თირუ
თირუა
თირუას
თირუაშ
თირუეფი
თირუეფიშ
თირუეფს
თირუეფქ
თის
თისი
თისხი
თიურინგია
თიქ
თიქი
თიშ
თიშა
თიშე
თიშენ
თიშენი
თიში
თიშით
თიშნერ
თიშნერი
თიშნერო
თიშო
თიცალ
თიცალი
თიწკჷმა
თიხანო
თიხანური
თიხაფიქალეფით
თიხეფით
თიჯგ
თიჯგუა
თიჯგურა
თიჯგურეფი
თიჯგურეფს
თიჯგჷრა
თოლ
თოლეფი
თოლეფით
თოლეფიშ
თოლეფიშე
თოლეფს
თოლეფშე
თოლი
თოლია
თოლით
თოლიშ
თოლიშე
თოლონჭაფუთ
თოლოძირე
თოლს
თოლური
თოლშა
თოლშე
თოლც
თოლწონუა
თოლწონუათ
თომა
თომას
თომასი
თომაშ
თომსონი
თორა
თორგერსონი
თორი
თორინ
თორიშ
თორნტონ
თოფი
თოფური
თოფურია
თოფურიშ
თოფურს
თოფჩიშვილი
თოჸუჯი
თოჸუჯის
თოჸუჯიშ
თრაკია
თრაკიალეფი
თრაკიაშ
თრაკიული
თრეშ
თრიალეთიშ
თრილერი
თრილერიშ
თუ
თუდო
თუდოლე
თუდოლენ
თუდოლენი
თუდონ
თუდონი
თუდონიურული
თუდონცარცული
თუდოშე
თუთა
თუთათ
თუთას
თუთაშ
თუთაშა
თუთაშახ
თუთაშე
თუთაშხა
თუთაშხას
თუთაშხია
თუთეფი
თუთეფიშ
თუთეფს
თუთია
თუთიაშ
თუთუმი
თუთუმიშ
თუკიდიდე
თუმა
თუმაშ
თუნთი
თუნთიშ
თუნიშ
თურ
თური
თურიშ
თურმანი
თურმანქ
თურქ
თურქეთ
თურქეთი
თურქეთის
თურქეთიქ
თურქეთიშ
თურქეთშა
თურქეფი
თურქეფიშ
თურქეფს
თურქეფქ
თურქი
თურქმ
თურქმენეთი
თურქმენეთის
თურქმენეთიშ
თურქმენეფი
თურქმენული
თურქოლოგია
თურქულ
თურქული
თურქულნინამი
თურქულო
თუტმოს
თუშეთ
თუშეთიშ
თუშური
თუხარისიშ
თქვა
თქვან
თქვანი
თქვანო
თქუ
თქუალათ
თქუნ
თშნეშე
თხა
თხაშ
თხზულებანი
თხზულებას
თხიერი
თხითხუ
თხილანა
თხილანდეს
თხილანდჷ
თხილანს
თხილერ
თხილერი
თხილერიე
თხილუ
თხილუა
თხილუას
თხილუაშ
თხილუაშო
თხიმხუ
თხინს
თხირი
თხირიშ
თხირს
თხობელენს
თხობელეფი
თხობელეფს
თხობელი
თხობელუა
თხობელუას
თხობელუაქ
თხობელუაშ
თხობელუეფი
თხობელუეფით
თხობელუეფიშ
თხობელუეფს
თხოზინელ
თხოზინელეფიშ
თხოზინელი
თხოზინი
თხოზინიშ
თხუ
თხუალა
თხუალათ
თხულენდჷ
თხულენს
თხჷთხჷ
თჷრიშ
ი
ია
იაგუარი
იავა
იავას
იავაშ
იავური
იაზიდ
იაიაშფერი
იაკე
იაკთუანს
იაკობ
იაკობი
იაკობიშ
იაკუბ
იაკუტეფი
იაკუტია
იაკუტიაშ
იაკუტსკი
იალბუზი
იალბუზიშ
იალნოშ
იალოუ
იალტა
იამ
იამაგატა
იამაიკა
იამაიკას
იამაიკაშ
იამალ
იამი
იამპა
იამპაშ
იამსი
იამუსუკრო
იან
იანა
იანარი
იანარს
იანგი
იანეფი
იანეფიშ
იანეფს
იანვარი
იანი
იანსენი
იანსკი
იანძი
იანძიშ
იაპ
იაპონ
იაპონარი
იაპონია
იაპონიას
იაპონიაქ
იაპონიაშ
იაპონიაშა
იაპონურ
იაპონური
იაპონურო
იარდი
იაროსლავ
იაროსლავლი
იაროსლავლიშ
იასონ
იასოცირებუ
იაუნდე
იაფეტური
იაშვილი
იაშთხვა
იაჰია
იბერია
იბერიაშ
იბერიულ
იბეშტუ
იბეშტუდჷ
იბეშტჷ
იბეჭდუდჷ
იბირდჷ
იბირს
იბნ
იბრაჰიმ
იბრაჰიმოვიჩიქ
იბრი
იბურჯუდჷ
იბურჯჷდეს
იგეგმუ
იგი
იგივე
იგინაფე
იგინაფედჷ
იგინძარებუ
იგინძორებუ
იგინძორებუდუ
იგინძორებუდჷ
იგლზიშ
იგლი
იგნასიო
იგორ
იგუასუ
იგუასუშ
იგურგინჷ
იგურიშხონარებუ
იგურიშხონარებჷ
იგურუ
იგჷნძარებუ
იგჷნძორებუ
იგჷნძორებუდჷ
იგჷნძორებჷ
იდაბალებუ
იდასურებუ
იდეა
იდეათ
იდეალი
იდეალიზმიშ
იდეალური
იდეას
იდეაქ
იდეაშ
იდეეფი
იდეეფიშ
იდეეფს
იდეეფქ
იდენი
იდენიშ
იდენტიფიკაცია
იდენტიფიკაციაშო
იდენტობა
იდენტობაშ
იდენტური
იდეოლოგია
იდეოლოგიას
იდეოლოგიაშ
იდეოლოგიურ
იდეოლოგიური
იდვალაუფუ
იდვალაუფჷ
იდვალიაფჷ
იდვალუ
იდვალუადუ
იდვალუაფ
იდვალუაფუ
იდვალუაფუდ
იდვალუაფუდეს
იდვალუაფუდუ
იდვალუაფუდჷ
იდვალუაფუნ
იდვალუაფუნა
იდვალუაფჷ
იდვალუაფჷნ
იდვალუაფჷნა
იდვალუდჷ
იდვალუფუ
იდვანს
იდი
იდიშ
იდიში
იდრის
იდჷ
იე
იეზიდეფი
იეზუიტეფიშ
იეიტსი
იელიშ
იელოუნაიფი
იელოუსტოუნიშ
იემენი
იემენიშ
იენ
იენა
იენაშ
იენი
იენს
იერარქიული
იეროგლიფეფი
იეროგლიფეფიშ
იეროგლიფი
იეროგლიფური
იერუსალიმი
იერუსალიმიშ
იერუსალიმს
იერუსალიმშა
იესო
იეჰოვაშ
ივ
ივან
ივანე
ივანეშ
ივანი
ივანიშვილი
ივანიშვილიშ
ივანიშვილქ
ივანო
ივანობა
ივანოვოშ
ივანს
ივარ
ივარანს
ივარუ
ივერია
ივერიელნი
ივითარებუ
ივითარებუდჷ
ივითარებჷ
ივისა
ივლისი
ივნისი
ივო
ივუარი
ივუარიშ
ივუარს
იზაბელ
იზაბელა
იზაბელაშ
იზადუ
იზერი
იზიმუ
იზმირი
იზმირიშ
იზოლაცია
იზოლაციაშ
იზოლირაფილ
იზოლირაფილი
იზორია
იზოტოპეფი
იზოტოპეფიშ
იზოტოპი
იზოტოპიშ
ით
ითამ
ითამუ
ითან
ითანგუ
ითანგჷ
ითარიღებუ
ითარიღებჷ
ითასუ
ითებუ
ითებუდჷ
ითებჷ
ითირანდჷ
ითირანს
ითირუ
ითირუდჷ
ითირჷ
ითოლიშწორენს
ითოლწონენდჷ
ითოლწონენს
ითუ
ითხინს
იინწროებუ
იკა
იკათუანა
იკათუანდჷ
იკათუანს
იკათუანც
იკაშ
იკეთებუ
იკეთენს
იკეთინჷ
იკენა
იკენდჷ
იკენს
იკი
იკიდუ
იკითხირუაფუ
იკითხჷ
იკინენს
იკლასიფიცირებუ
იკონტროლებუ
იკორინუანს
იკოროცხას
იკოროცხუ
იკოროცხუდეს
იკოროცხუდუ
იკოროცხუდჷ
იკოროცხუნა
იკოროცხჷ
იკჷნენს
ილ
ილაგანი
ილაი
ილაიშ
ილაყაფჷ
ილაჸაფ
ილაჸაფეს
ილაჸაფუ
ილაჸაფჷ
ილდა
ილი
ილია
ილიამნა
ილიაპელი
ილიაქ
ილიაშ
ილინოისი
ილინოისის
ილინოისიშ
ილირია
ილირიული
ილორი
ილორის
ილორიშ
ილუზია
ილუსტრატორი
ილუსტრაცია
ილუსტრაციეფი
ილუსტრირაფილი
ილჰამ
იმ
იმამ
იმამი
იმანუელ
იმანჯებუ
იმანჯებუდჷ
იმანჯებჷ
იმანჯჷ
იმაჟირებუ
იმართუ
იმართჷ
იმაღალებუ
იმენდი
იმენდიშ
იმერეთი
იმერეთის
იმერეთიშ
იმერეფიშ
იმერული
იმერხეული
იმიარებუ
იმიარებჷნა
იმიგრანტეფი
იმიგრანტეფიშ
იმიტაციაშ
იმონდებუ
იმპერატორ
იმპერატორეფიშ
იმპერატორი
იმპერატორიშ
იმპერატორო
იმპერატორს
იმპერატორქ
იმპერია
იმპერიათ
იმპერიალიზმიშ
იმპერიალისტური
იმპერიას
იმპერიაქ
იმპერიაშ
იმპერიაშა
იმპერიაშე
იმპერიაწკჷმა
იმპერიეფი
იმპერიეფიშ
იმპერიულ
იმპერიული
იმპორტი
იმპულსეფიშ
იმპულსიშ
იმუნიტეტი
იმუნოდეფიციტური
იმუნოლოგი
იმუნოლოგიაშ
იმუნური
იმუშუ
ინ
ინა
ინაკათაფუს
ინაკათუ
ინალენდჷ
ინასიუ
ინაჭარალო
ინაჭარჷ
ინგ
ინგილოეფი
ინგირი
ინგირიშ
ინგირიშე
ინგირს
ინგირწყარი
ინგირწყარიშ
ინგლ
ინგლის
ინგლისარ
ინგლისარეფი
ინგლისარეფიშ
ინგლისარეფს
ინგლისარეფქ
ინგლისარი
ინგლისელი
ინგლისი
ინგლისის
ინგლისიქ
ინგლისიშ
ინგლისიშა
ინგლისიშე
ინგლისურ
ინგლისური
ინგლისურიშ
ინგლისურნინამ
ინგლისურნინამი
ინგლისურო
ინგლისურს
ინგლისურშე
ინგლისურწკჷმა
ინგლისშა
ინგლისწკჷმა
ინგმარ
ინგოროყვა
ინგოროყვაქ
ინგრიდ
ინგულიშ
ინგუშეთი
ინგუშეთის
ინგუშეთიშ
ინგუშეფი
ინგუშეფიშ
ინგუშეფს
ინგუშურ
ინგშ
ინდ
ინდექსები
ინდექსეფი
ინდექსი
ინდექსით
ინდექსიშ
ინდი
ინდიანა
ინდიანაპოლისი
ინდიანას
ინდიანაშ
ინდიარეფი
ინდიარეფიშ
ინდიარეფს
ინდიარი
ინდივიდეფი
ინდივიდი
ინდივიდიშ
ინდივიდუალურ
ინდივიდუალური
ინდივიდუალურო
ინდირა
ინდიური
ინდიშ
ინდო
ინდოარ
ინდოარეფი
ინდოარეფიშ
ინდოარი
ინდოარიული
ინდოევროპულ
ინდოევროპული
ინდოეთი
ინდოეთის
ინდოეთიქ
ინდოეთიშ
ინდოეთიშა
ინდოეთიშე
ინდოეთიშო
ინდოეთშა
ინდოეთშე
ინდოეთწკჷმა
ინდოირანული
ინდონეზია
ინდონეზიას
ინდონეზიაქ
ინდონეზიაშ
ინდონეზიურ
ინდონეზიური
ინდორი
ინდოსტანიშ
ინდოჩინეთი
ინდოჩინეთიშ
ინდუიზმი
ინდუიზმის
ინდუიზმიშ
ინდუისტეფი
ინდუისტეფიშ
ინდუისტეფშო
ინდუისტი
ინდუისტურ
ინდუისტური
ინდურ
ინდური
ინდუსტრია
ინდუსტრიალიზაციაშ
ინდუსტრიას
ინდუსტრიაშ
ინდუსტრიულ
ინდუსტრიული
ინერტული
ინესი
ინვესტიცია
ინვესტიციეფიშ
ინი
ინიარიტუ
ინირიცხჷ
ინისახჷ
ინიშ
ინიციატივა
ინიციატივათ
ინიციატორი
ინიჭარჷ
ინკეფი
ინკეფიშ
ინკეფს
ინკისივიშ
ინმაკათუ
ინმალი
ინმურს
ინნაჭარა
ინნაჭარეფი
ინნაჭარეფიშ
ინნაჭარეფს
ინოვაციაშ
ინოვაციური
ინოკენტი
ინოკილერი
ინოკინელი
ინორანწკილი
ინორე
ინოტყობინელი
ინოჩამა
ინოჩამილი
ინოჭარილი
ინოჭარუას
ინოჭარუაშ
ინოხ
ინოხე
ინოხიშ
ინოხუნაფილი
ინოჸელებუ
ინჟინერ
ინჟინერეფიშ
ინჟინერი
ინჟინერია
ინჟინერიას
ინჟინერიაშ
ინჟინერიშ
ინჟინერული
ინსბრუკი
ინსპექტორი
ინსტიტუტეფი
ინსტიტუტეფიშ
ინსტიტუტეფს
ინსტიტუტეფქ
ინსტიტუტი
ინსტიტუტის
ინსტიტუტიქ
ინსტიტუტიშ
ინსტიტუტიშა
ინსტიტუტშა
ინსტიტუტწკჷმა
ინსტიტუცია
ინსტრუმენტალისტი
ინსტრუმენტეფი
ინსტრუმენტეფიშ
ინსტრუმენტეფს
ინსტრუმენტი
ინსტრუმენტის
ინსტრუმენტული
ინსტრუქტორი
ინსტრუქტორო
ინსულინით
ინსულინიშ
ინსულტი
ინსულტიშ
ინტეგრალური
ინტეგრაციაშ
ინტეგრირაფილი
ინტელექტი
ინტელექტიშ
ინტელექტუალეფიშ
ინტელექტუალი
ინტელექტუალურ
ინტელექტუალური
ინტელიგენციაშ
ინტენსიურ
ინტენსიური
ინტენსიურო
ინტერაქტიული
ინტერესეფი
ინტერესეფიშ
ინტერესეფს
ინტერესი
ინტერესის
ინტერესიქ
ინტერესიშ
ინტერესუან
ინტერესუანი
ინტერვალს
ინტერვენცია
ინტერვიუ
ინტერვიუეფი
ინტერვიუს
ინტერი
ინტერიერი
ინტერნაციონალურ
ინტერნაციონალური
ინტერნეტ
ინტერნეტი
ინტერნეტით
ინტერნეტის
ინტერნეტიშ
ინტერპრესნიუსი
ინტერპრეტაცია
ინტერფეისი
ინტირინუანს
ინტირუანს
ინტროდუქცია
ინტუ
ინტჷ
ინუიტეფი
ინფაქტი
ინფექცია
ინფექციაშ
ინფექციეფი
ინფექციეფიშ
ინფექციურ
ინფექციური
ინფიცირაფილი
ინფლაცია
ინფლაციაშ
ინფო
ინფორმატიკას
ინფორმატიკაშ
ინფორმატიკოსი
ინფორმაცია
ინფორმაციათ
ინფორმაციას
ინფორმაციაქ
ინფორმაციაშ
ინფორმაციეფი
ინფორმაციული
ინფრასტრუქტურა
ინფრასტრუქტურაშ
ინფრაჭითა
ინჩიანი
ინციდენტიშ
ინწკჷმა
ინწრა
ინწრაშ
ინწრო
ინწყუაფუ
ინწყჷმუ
ინჭირია
ინჭირიაშ
ინჯა
ინჯეფი
იო
იოანე
იოანეშ
იოახიმ
იოდი
იოვოვიჩი
იოზეფ
იოკო
იონ
იონა
იონეფიშ
იონი
იონიაშ
იონიზებული
იონური
იორდანე
იორდანეშ
იორდანია
იორდანიას
იორდანიაშ
იორი
იორიშ
იორკ
იორკი
იორკის
იორკიშ
იორკიშა
იორკშა
იორკშირი
იორკშირიშ
იორს
იორუბა
იოსე
იოსებ
იოსებიშ
იოსელიანი
იოსექ
იოსეშ
იოსტ
იოჰან
იოჰანეს
იოჰანსონი
იპოლიტე
იჟევსკი
იჟევსკიშ
იჟი
ირ
ირაგადე
ირაგადუ
ირაგადუას
ირაგადუაფუ
ირავადი
ირაკლი
ირალი
ირან
ირანალი
ირანი
ირანიშ
ირანიშე
ირანს
ირანულ
ირანული
ირანქ
ირანშა
ირანშე
ირანწკჷმა
ირგებუ
ირდიხას
ირდუ
ირდუდჷ
ირდუნა
ირდღალურ
ირდღალური
ირდღარი
ირდღას
ირდჷ
ირემეფიშ
ირემი
ირემიშ
ირენ
ირვინ
ირვინგ
ირვინგი
ირზენა
ირზენდჷ
ირზენს
ირთანს
ირთუ
ირთუდჷ
ირთუნა
ირთჷ
ირთჷნა
ირთჷნს
ირი
ირიათო
ირიათოიანი
ირიათონ
ირიათონი
ირიათონო
ირიან
ირიგაციაშ
ირიგაციაშო
ირიგაციული
ირინე
ირინერი
ირინუანა
ირინუანდეს
ირინუანდჷ
ირინუანს
ირინუაფუ
ირიშ
ირიშენ
ირკენს
ირკვიებუ
ირკვიენდჷ
ირკვიენს
ირკუტსკი
ირკუტსკიშ
ირლ
ირლანდ
ირლანდია
ირლანდიარეფი
ირლანდიარი
ირლანდიას
ირლანდიაქ
ირლანდიაშ
ირლანდიურ
ირლანდიური
ირმარული
ირნერ
ირნერი
ირნერო
ირო
იროდი
იროიან
იროიანი
ირონი
ირონია
ირონიას
იროწვანე
ირს
ირსულებუ
ირსულჷ
ირსხუაფუ
ირსხუაფჷ
ირტიშიშ
ირტჷ
ირფელ
ირფელი
ირფელიშ
ირფელს
ირფელქ
ირქენს
ირჩქინანს
ირცხუაფუ
ირძენს
ირწანას
ირწანაშ
ირწანიანი
ირწანურ
ირწანური
ირწანურო
ის
ისა
ისააკ
ისაბელ
ისაკაძე
ისთ
ისიდა
ისიდაშ
ისიდორ
ისინდიშ
ისიქ
ისლ
ისლა
ისლამ
ისლამაბადი
ისლამი
ისლამიშ
ისლამოლოგია
ისლამს
ისლამურ
ისლამური
ისლამქ
ისლანდია
ისლანდიარი
ისლანდიას
ისლანდიაქ
ისლანდიაშ
ისლანდიურ
ისლანდიური
ისლი
ისმაილ
ისმენე
ისპაჰანი
ისპაჰანიშ
ისრაელ
ისრაელი
ისრაელიშ
ისრაელს
ისრაელქ
ისრულებუ
ისრულებუაფუ
ისტ
ისტვუდი
ისტორია
ისტორიათ
ისტორიას
ისტორიაქ
ისტორიაშ
ისტორიაშა
ისტორიაშე
ისტორიაშენი
ისტორიაშო
ისტორიეფი
ისტორიეფიშ
ისტორიეფს
ისტორიიდან
ისტორიის
ისტორიისათვის
ისტორიკოს
ისტორიკოსეფი
ისტორიკოსეფიშ
ისტორიკოსი
ისტორიკოსიშ
ისტორიოგრაფიას
ისტორიულ
ისტორიული
ისტორიულო
ისქილიდუანდჷ
ისქილიდუანს
ისხუნეს
ისხუნუ
ისხუნუაფუ
ისხუნუაფჷ
იტალ
იტალია
იტალიარ
იტალიარეფი
იტალიარეფიშ
იტალიარი
იტალიას
იტალიაქ
იტალიაშ
იტალიაშა
იტალიაშე
იტალიაწკჷმა
იტალიურ
იტალიური
იტალიურო
იტალიურწკჷმა
იტალო
იტანაგარი
იტარებუაფუ
იტარინჷ
იტარჷ
იტენს
იტურიშ
იუ
იუან
იუანიშ
იუგა
იუგოსლავია
იუგოსლავიაშ
იუდა
იუდაიზმი
იუდაიზმის
იუდაიზმიშ
იუდაშ
იუდეაშ
იუდეურ
იუვენტუსი
იუვენტუსის
იუვენტუსიქ
იუვენტუსიშ
იუკავა
იუკატანი
იუკატანიშ
იუკონი
იუკონიშ
იუკონს
იულ
იულია
იულიანურ
იულიანური
იულიუს
იულიუსი
იულიუსიშ
იულუსი
იუმაჸურე
იუმორი
იუმორით
იუნაიტედი
იუნაიტედის
იუნაიტედიქ
იუნაიტედიშ
იუნანიშ
იუნგასიშ
იუნგი
იუნგიქ
იუნგიშ
იუნესკო
იუნესკოს
იუნესკოქ
იუნესკოშ
იუნესკოშე
იუნიკოდი
იუნიუს
იუნიქსიშ
იუნსონი
იუპიტერიშ
იუჟნო
იურა
იურე
იური
იურიდიულ
იურიდიული
იურიდიულო
იურისდიქციაშ
იურისდიქციაშა
იურისპრუდენციას
იურისპრუდენციაშ
იურისტეფიშ
იურისტი
იურისტიშ
იურიშ
იურული
იუსტინე
იუსტინიანე
იუსტიციაშ
იუსტუს
იუსუფ
იუსუფელი
იუტა
იუტაშ
იუფშარა
იუჯინ
იფართებუ
იფაჩუ
იფაჩუდჷ
იფაჩჷ
იფიქსირებუ
იფორმირებუ
იფორმირჷ
იფორუ
იფრელი
იფრელიშ
იქ
იქიმინუ
იქიმინჷ
იქნება
იქს
იქსი
იქსიშ
იღენდჷ
იღენს
იღვენუ
იღვენუანს
იღვენუეს
იყო
იყუ
იშ
იშა
იშანუაფუ
იშარჷ
იშაყარუ
იშაყარუდჷ
იშაყარჷ
იშე
იშენ
იშენი
იშენით
იშვიათი
იშვიათო
იშით
იშიმი
იშინანდჷ
იშინანს
იშინუანა
იშინუანდეს
იშინუანს
იშინუაფუ
იშინუაფუდჷ
იშინუაფჷ
იშო
იშუ
იშხანიშ
იშხვავებუ
იშხვანერებუ
იჩიებუ
იჩიებუდეს
იჩიებუდუ
იჩიებუდჷ
იჩიებუნა
იჩინენა
იჩინენდეს
იჩინენდჷ
იჩინენს
იჩინჷ
იჩუალუ
იჩუალუაფუ
იჩუალუაფჷ
იჩქერიაშ
იცა
იცაშ
იძანძჷ
იძინანდჷ
იძინანს
იძირე
იძირებე
იძირებედჷ
იძირუ
იძირჷ
იწარმებუ
იწონუ
იჭანეს
იჭანუანა
იჭანუანდჷ
იჭანუანს
იჭარუ
იჭარუდჷ
იჭარჷ
იჭიჭარებუ
იჭკომუ
იჭუ
იჭყანა
იჭყანდჷ
იჭყანს
იჭყაფუ
იჭყაფუდჷ
იჭყაფუნ
იჭყაფჷ
იხ
იხასიათებუ
იხასიათებჷ
იხვარებაფუაფუდჷ
იხვარებუაფუ
იხვეიანებუ
იხორციალჷ
იხორციელებუ
იხორციელებუდჷ
იხორციელებჷ
იხორციელჷ
იხურგუ
იჯარათ
იჯევანი
იჸი
იჸიდ
იჸიდჷ
იჸინ
იჸინი
იჸინუ
იჸუ
იჸუას
იჸუასჷნ
იჸუაფუ
იჸუაფუდჷ
იჸუაფჷ
იჸუეს
იჸუნ
კ
კა
კაბადი
კაბანიაშ
კაბელით
კაბეტ
კაბეტი
კაბინდა
კაბინეტი
კაბინეტის
კაბინეტიშ
კაბო
კაბრალი
კაბრას
კაბრერა
კაბუ
კაბუკი
კადიროვი
კადისი
კადრეფი
კავალერი
კავენდიშიშ
კავერი
კავკასიას
კავკასიაშ
კავკასიის
კავკასიურ
კავკასიური
კავკაცია
კავკაციარი
კავკაციას
კავკაციაშ
კავკაციაშა
კავკაციაშე
კავკაციონი
კავკაციონიშ
კავკაციონს
კავკაციურ
კავკაციური
კავსაძე
კავური
კავურქ
კაზაკეფიშ
კაზალე
კაზანი
კაზიმირ
კაზინო
კათა
კათათ
კათალიკოს
კათას
კათაფა
კათაფათ
კათაფას
კათაფაშ
კათაფით
კათაფილი
კათაქ
კათაშ
კათაშა
კათაშე
კათაშო
კათაწკჷმა
კათედრა
კათედრალი
კათედრალიშ
კათედრალს
კათედრას
კათედრაშ
კათელეფი
კათელი
კათელიშ
კათელს
კათელქ
კათეფი
კათეფიშ
კათეფს
კათეფქ
კათეფშო
კათინი
კათინით
კათინიშ
კათოლიკე
კათოლიკეეფი
კათოლიკეეფიშ
კათოლიკეფი
კათოლიკოს
კათოლიკურ
კათოლიკური
კათოლიციზმი
კათოლიციზმიშ
კათრინ
კათუა
კათუას
კათუაქ
კათუაშ
კათურ
კათური
კაი
კაია
კაიდ
კაიზერ
კაიკოსიშ
კაილაშ
კაილი
კაიმანიშ
კაინოზოური
კაირო
კაიროს
კაიროშ
კაისერიშ
კაკაბაძე
კაკალამი
კაკალეფი
კაკალი
კაკალია
კაკალიშ
კაკალს
კაკაო
კაკაოშ
კალა
კალაბრია
კალაბრიაშ
კალაკმული
კალამი
კალანდაძე
კალანდია
კალანდიაქ
კალანდიაშ
კალაპოტი
კალაპოტის
კალაპოტიშ
კალაშ
კალდერა
კალდერაშ
კალე
კალედონია
კალედონიაშ
კალენადრიშ
კალენდარეფიშ
კალენდარეფს
კალენდარი
კალენდარით
კალენდარიშ
კალენდარს
კალენდარულ
კალენდარული
კალენდრიშ
კალენი
კალეშ
კალვარია
კალვინ
კალვინი
კალვინო
კალვინოქ
კალვინუსი
კალი
კალიგრაფია
კალიდასაშ
კალიე
კალიმანტანი
კალიმანტანიშ
კალინგა
კალინგაშ
კალინინგრადი
კალინინგრადიშ
კალისტრატე
კალიუმიშ
კალიფორნია
კალიფორნიას
კალიფორნიაშ
კალიშ
კალიშრღვაფათ
კალიშრღვაფაშ
კალკინი
კალკულაცია
კალკულაციათ
კალკუტა
კალკუტაშ
კალმახა
კალოოკანი
კალპურნიუს
კალუგაშ
კალციუმი
კალციუმიშ
კამა
კამაგუეიშ
კამას
კამაშ
კამაჩოშ
კამბეიშ
კამბერბეჩი
კამბერლენდიშ
კამბეშეფი
კამბეში
კამბოჯა
კამბოჯას
კამბოჯაშ
კამბრიულიშწოხოლენი
კამერა
კამერას
კამერეფი
კამერონ
კამერონი
კამერონიშ
კამერული
კამერუნი
კამერუნიშ
კამერუნს
კამილო
კამილუსი
კამპანია
კამპანიას
კამპანიაქ
კამპანიაშ
კამპეჩე
კამპო
კამპორა
კამპუსი
კამჩატკაშ
კან
კანად
კანადა
კანადარ
კანადარი
კანადას
კანადაქ
კანადაშ
კანადაშა
კანადაშე
კანადური
კანაკლე
კანარიშ
კანბერა
კანდა
კანდელაკი
კანდი
კანდიდატეფიშ
კანდიდატი
კანდიდატის
კანდიდატიქ
კანდიდატიშ
კანდიდატო
კანდიდატურა
კანეიდიანი
კანზასი
კანზასიშ
კანი
კანიბალიზმიშ
კანიე
კანით
კანიონი
კანიონიშ
კანიონს
კანიშ
კანკალე
კანკალეს
კანკალექ
კანკალეშ
კანკალეშა
კანკარი
კანკარს
კანო
კანონდვალა
კანონდვალათ
კანონდვალაშ
კანონდვალუა
კანონდვალუაშ
კანონდუმადვალუ
კანონეფი
კანონეფით
კანონეფიშ
კანონეფს
კანონი
კანონიერი
კანონით
კანონიშ
კანონიშდუმადვალუ
კანონმადვალე
კანონმადვალუ
კანონპროექტის
კანონპროექტიშ
კანონს
კანონქ
კანპური
კანს
კანტაბრია
კანტაბრიაშ
კანტატა
კანტი
კანტიშ
კანტონეფი
კანტონეფიშ
კანტონეფო
კანტონი
კანტონიშ
კანტონო
კანტონს
კანჩენჯანგა
კანცელარია
კანცელარიაშ
კანცლერი
კანცლერიშ
კაპ
კაპადოკიაშ
კაპანი
კაპელა
კაპიტალი
კაპიტალიზმი
კაპიტალიზმიშ
კაპიტალისტურ
კაპიტალისტური
კაპიტალიშ
კაპიტალური
კაპიტან
კაპიტანი
კაპიტანიშ
კაპიტოლინუს
კაპიტოლიუმი
კაპიშ
კაპიჭიშ
კაპონე
კაპოტე
კაპრიზი
კაპური
კაპურიშ
კარა
კარაკანი
კარაკანო
კარაკასი
კარაკასიშ
კარან
კარანვირ
კარანტინი
კარასკოშ
კარატეშ
კარაული
კარაჩი
კარაჩხამობურთე
კარბო
კარბონატული
კარდიფი
კარდუჩი
კარე
კარეეფს
კარელ
კარელიაშ
კარენ
კარენინა
კარერასი
კარერი
კარეფი
კარეშ
კართაგენი
კართაგენიშ
კართაგენქ
კართე
კართეეფი
კართეეფიშ
კართეეფს
კართეეფშე
კართეს
კართეფი
კართეფს
კართეფშე
კართეშ
კართეშე
კარი
კარიბეფი
კარიბიშ
კარიბული
კარიერა
კარიერას
კარიერაქ
კარიერაშ
კარიერაშა
კარიშ
კარკატია
კარლ
კარლა
კარლიშ
კარლო
კარლოვი
კარლოს
კარლოსი
კარლოშ
კარლსონი
კარლსრუეშ
კარლტონ
კარლტონიშ
კარლფელდტი
კარმა
კარმენი
კარმინალი
კარნატაკა
კარნატაკას
კარნატაკაშ
კარნეგი
კარნეგიშ
კარნო
კარნოქ
კარნოშ
კაროზერსიქ
კაროლინა
კაროლინაშ
კაროტინი
კაროტინს
კარპატეფი
კარპატეფიშ
კარპატეფს
კარპენტარიაშ
კარპენტიერი
კარპენტიერიქ
კარს
კარსონი
კარსტულ
კარსტული
კარტახენა
კარტერი
კარტერიშ
კარტერს
კარტერქ
კარტიე
კარტიკა
კარტიშ
კარტნი
კარტოგრაფია
კარტოგრაფიული
კარტოფილი
კარტოფილიშ
კარშა
კასაბლანკა
კასაბლანკაშ
კასაიშ
კასარესი
კასარესიქ
კასელი
კასელიშ
კასერესი
კასიუს
კასიუსი
კასკადურ
კასპიაშ
კასპიური
კასპიშ
კასტილია
კასტილიაშ
კასტილიო
კასტრო
კასტროს
კასტროქ
კასტროშ
კასტური
კატ
კატა
კატალ
კატალანური
კატალოგი
კატალოგის
კატალოგიშ
კატალონია
კატალონიაშ
კატალონიური
კატამარკაშ
კატანგაშ
კატანია
კატარი
კატარინა
კატარინაშ
კატარიშ
კატარს
კატასტროფა
კატასტროფას
კატასტროფაშ
კატასტროფული
კატეგორია
კატეგორიათ
კატეგორიას
კატეგორიაშ
კატეგორიაშა
კატეგორიეფი
კატეგორიეფით
კატეგორიეფიშ
კატეგორიეფს
კატეგორიული
კატერი
კატერინა
კატმაი
კატმანდუ
კატმანდუშ
კატოვიცე
კატონი
კატუ
კატუეფი
კატუეფიშ
კატუშ
კატუშობურეფიშ
კაუდინუსი
კაუნასიშ
კაუჩუკი
კაფკა
კაფკაქ
კაფკაშ
კაქტუსეფი
კაშტელუ
კაშხალეფი
კაშხალი
კაშხალიშ
კაჩერი
კაჩი
კაჩიშ
კაცი
კაცია
კახა
კახაბერ
კახათი
კახალი
კახალიშ
კახალქ
კახამარკაშ
კახეთი
კახეთის
კახეთიშ
კახეფიშ
კახი
კახიშ
კახური
კგ
კე
კებრადა
კევინ
კეთება
კეთებაშ
კეთებული
კეთი
კეთილი
კეი
კეიზიშ
კეინი
კეიპ
კეიპტაუნი
კეიპტაუნიშ
კეისარი
კეისარიშ
კეისარს
კეისარქ
კეისი
კეიტ
კეიტელი
კეკელიძე
კეკელიძექ
კეკელიძეშ
კეკულე
კელასური
კელასურიშ
კელენი
კელერი
კელერიშ
კელი
კელიომონტანუსი
კელნი
კელტეფი
კელტეფიშ
კელტეფქ
კელტურ
კელტური
კელცე
კემბრიჯი
კემბრიჯის
კემბრიჯიშ
კემბრიჯშირი
კემეროვო
კემეროვოშ
კემპბელი
კემპბელიშ
კემპუსი
კენ
კენდრიკი
კენდრიუ
კენედი
კენედიშ
კენეთ
კენეტ
კენი
კენია
კენიას
კენიაშ
კენიგსბერგი
კენიგსბერგიშ
კენიჩი
კენონი
კენტავრი
კენტერბერიშ
კენტი
კენტიშ
კენტუკი
კენტუკიშ
კეპიო
კეპლერიშ
კერა
კერადაინი
კერალა
კერალაშ
კერამიკა
კერამიკაშ
კერამიკული
კერზო
კერზოთ
კერი
კერიშ
კეროლ
კერტისი
კერტისიქ
კერტისიშ
კერძო
კერძოთ
კესონ
კესონი
კეტი
კეტლი
კეტრინ
კეფერ
კეში
კეშიქ
კეშიშ
კეჩ
კეჩუა
კეჩუაშ
კეცილიუს
კვ
კვადრატი
კვადრატიშ
კვადრატულ
კვადრატული
კვაზულუ
კვათარა
კვათიერი
კვათიერო
კვათირას
კვათირი
კვათირო
კვათუა
კვათუნს
კვათჷნს
კვათჷრას
კვათჷრი
კვანტურ
კვანტური
კვანჯუ
კვარაცხელია
კვარაცხელიაქ
კვარაცხელიაშ
კვარაცხელიეფი
კვარკვალია
კვარტალი
კვარტალს
კვარტეტი
კვარჩხან
კვარჩხანი
კვარჩხანშე
კვარჩხიშე
კვაღა
კვაჭაძე
კვაჭი
კვებაშ
კვებეკი
კვებეკის
კვებეკიშ
კვენტინ
კვეტა
კვიდრი
კვინკტიუს
კვინორი
კვინორიშ
კვინორიშობურეფიშ
კვინტუს
კვიპროსი
კვიპროსის
კვიპროსიშ
კვირდი
კვირის
კვირკვე
კვირკვეს
კვირკვეშ
კვირკვეშა
კვირკვეშახ
კვირკვეშე
კვირკვეშო
კვირკვი
კი
კიანუ
კიბირეფი
კიბირეფიშ
კიბირი
კიბო
კიბოთ
კიბოშ
კიდა
კიდალა
კიდალას
კიდალაშ
კიდალეფი
კიდალეფით
კიდალეფიშ
კიდალეფს
კიდანჯალა
კიდანჯალას
კიდანჯალაქ
კიდანჯალაშ
კიდანჯუა
კიდანჯუას
კიდას
კიდაშ
კიდეგანიშ
კიდილი
კიდირი
კიდირიშ
კიდირს
კიდმანი
კიდობანიშ
კიდუას
კიდუაშ
კიევი
კიევიშ
კიევს
კივუშ
კიზილი
კიზიშ
კით
კითეფს
კითი
კითიშ
კითხირი
კითხირით
კითხირიშ
კითხირობური
კითხირს
კითხულენდჷ
კითხულენს
კიივი
კიკილაშვილი
კიკნაძე
კილ
კილა
კილაუეა
კილაძირჷ
კილბი
კილე
კილერ
კილერი
კილეშ
კილი
კილიაკოლიოშ
კილიან
კილიკიაშ
კილიმანჯარო
კილიმანჯაროშ
კილიშ
კილიშკილშა
კილმერი
კილო
კილოგრამი
კილოთა
კილოთას
კილოთაშ
კილომეტრამი
კილომეტრი
კილომეტრიანი
კილომეტრიე
კილომეტრით
კილომეტრის
კილომეტრიშ
კილომეტრიშახ
კილომეტრშახ
კილშა
კიმ
კიმი
კინ
კინაბალუშ
კინამანი
კინგ
კინგი
კინგიშ
კინგსი
კინგსიშ
კინგსლი
კინგსტონი
კინდი
კინე
კინემატოგრაფიას
კინემატოგრაფიაშ
კინემატოგრაფისტეფიშ
კინემატოგრაფიული
კინერი
კინი
კინკტიუს
კინლი
კინო
კინოაკადემიაშ
კინოარტისტეფიშ
კინოარტისტი
კინოდებიუტიქ
კინოთეატრეფს
კინოთეატრი
კინოკრიტიკოსეფიშ
კინოოპერატორი
კინოოქიანუ
კინოოქიანუს
კინოოქიანუშ
კინოპრემია
კინოპროდიუსერი
კინორეჟისორი
კინოს
კინოსტუდია
კინოფესტივალი
კინოფესტივალიშ
კინოფესტივალს
კინოფილმეფიშ
კინოფილმეფს
კინოფილმი
კინოფილმის
კინოშ
კინოშა
კინოხ
კინოხელუანობა
კინოხიან
კინოხიანი
კინტანა
კინტირი
კინტრიშიშ
კინშასა
კინშასაშ
კინჩხი
კინჩხის
კინჩხიშ
კიონსანიშ
კიოტო
კიოტოშ
კიჟიშ
კირა
კირდე
კირდეამ
კირდეამი
კირდეეფი
კირდეეფით
კირდეეფს
კირდეს
კირდეშ
კირიათ
კირიბატი
კირიბატიშ
კირიბეფიშ
კირილე
კირილიცა
კირილიცას
კირილიცაშ
კირილურ
კირილური
კირიშ
კირკ
კიროვი
კიროვიშ
კიროს
კირსტენ
კირქუა
კირქუალამ
კირქუალამი
კირქუალეფი
კირქუალეფით
კირქუალეფიშ
კირქუალეფს
კირქუაშ
კირქუეფით
კირცხი
კირხჰოფი
კირხჰოფიშ
კიტ
კიტო
კიტონი
კიტსი
კიუვიე
კიუვიექ
კიური
კიურიშ
კიუსაკი
კიუშ
კიფი
კიფიშ
კიფიშობურეფიშ
კიღურა
კიშიმოტო
კიშინიოვი
კიშინიოვიშ
კიჩე
კიჩეშ
კიწი
კიწიას
კიწიაშ
კიხოტი
კლავდიოს
კლავდიუს
კლავდიუსი
კლავიატურა
კლავიატურას
კლაიდ
კლაიდი
კლაივ
კლაიპედაშ
კლამატი
კლამატიშ
კლანიშ
კლანს
კლარა
კლარაშ
კლარის
კლარკ
კლარკი
კლარკიქ
კლარკიშ
კლარო
კლარჯეთი
კლარჯეთის
კლარჯეთიქ
კლარჯეთიშ
კლარჯეთშა
კლასეფიშ
კლასი
კლასიკათ
კლასიკურ
კლასიკური
კლასის
კლასიფიკაცია
კლასიფიკაციათ
კლასიფიკაციას
კლასიფიკაციაშ
კლასიფიცირებული
კლასიშ
კლასიციზმი
კლასობური
კლაუდიო
კლაუზიუსი
კლაუზიუსიქ
კლაუს
კლებსი
კლებსიქ
კლემანს
კლემენტ
კლეოპატრა
კლერ
კლერი
კლერიშ
კლერკ
კლერმონ
კლივლენდი
კლივლენდიშ
კლიმატი
კლიმატით
კლიმატის
კლიმატიშ
კლიმატოლოგია
კლიმატურ
კლიმატური
კლინიკა
კლინიკას
კლინიკურ
კლინიკური
კლინტ
კლინტოკი
კლინტონ
კლინტონი
კლინჩი
კლიპეფი
კლიპი
კლიფ
კლიფი
კლიფიშ
კლოდ
კლოდი
კლუბ
კლუბეფი
კლუბეფიშ
კლუბეფს
კლუბი
კლუბით
კლუბის
კლუბიქ
კლუბიშ
კლუგი
კლუგიქ
კლუნი
კმ
კმფ
კნუდსონი
კო
კოალიცია
კოალიციას
კოალიციაქ
კოალიციაშ
კოალიციური
კობა
კობალტიშ
კობახიძე
კობი
კობიშ
კობრა
კობრი
კობუ
კოგანი
კოგურიოშ
კოდე
კოდები
კოდეფი
კოდეფიშ
კოდექსი
კოდი
კოდის
კოდიშ
კოდმე
კოდმეს
კოდმეშ
კოდმეშახ
კოდორი
კოდორიშ
კოდური
კოენი
კოენიქ
კოეფიციენტი
კოვალევსკაია
კოიმბრა
კოიმბრაშ
კოიპერი
კოიპერიქ
კოიპერიშ
კოიუკუკიშ
კოკ
კოკა
კოკაინიშ
კოკამ
კოკერი
კოკეფი
კოკეფიე
კოკეფით
კოკეფიშ
კოკეფიშე
კოკეფიშო
კოკეფს
კოკეფქ
კოკეფშა
კოკეფშე
კოკეფწკჷმა
კოკი
კოკიე
კოკით
კოკის
კოკიქ
კოკიშ
კოკიშა
კოკიშე
კოკო
კოკროფტი
კოკშე
კოლა
კოლაფსიშ
კოლაშ
კოლეგეფს
კოლეგეფქ
კოლეგეფწკჷმა
კოლეგიაშ
კოლეტი
კოლექტიური
კოლექცია
კოლექციაშ
კოლეჯ
კოლეჯი
კოლეჯის
კოლეჯიქ
კოლეჯიშ
კოლეჯიშა
კოლვილი
კოლი
კოლიმა
კოლინ
კოლიშ
კოლკატა
კოლკატას
კოლკატაშ
კოლოიდეფიშ
კოლომბო
კოლომბოშ
კოლონი
კოლონია
კოლონიათ
კოლონიალიზმი
კოლონიალიზმიშ
კოლონიალური
კოლონიას
კოლონიაქ
კოლონიაშ
კოლონიეფი
კოლონიეფიშ
კოლონიეფს
კოლონიეფქ
კოლონიზატორეფს
კოლონიზატორეფქ
კოლონიზაცია
კოლონიზაციაშ
კოლონისტეფიშ
კოლონისტეფს
კოლონისტეფქ
კოლონიურ
კოლონიური
კოლონოსკოპიაშ
კოლორადო
კოლორადოს
კოლორადოშ
კოლოსალური
კოლოსეუმი
კოლოსეუმიშ
კოლოფი
კოლტრეინი
კოლუმბი
კოლუმბია
კოლუმბიარი
კოლუმბიას
კოლუმბიაშ
კოლუმბიურ
კოლუმბიური
კოლუმბიქ
კოლუმბიშ
კოლუმბიშახიან
კოლუმბიშახიანი
კოლუმბუსი
კოლხაშ
კოლხეთი
კოლხეთის
კოლხეთიშ
კოლხეფი
კოლხეფიშ
კოლხური
კომანდორი
კომბინატი
კომბინაცია
კომბინაციათ
კომბინაციას
კომედია
კომედიას
კომედიაშ
კომედიეფს
კომედიურ
კომედიური
კომენტარეფი
კომენტატორი
კომერციულ
კომერციული
კომერციულო
კომეტა
კომეტას
კომეტაქ
კომეტაშ
კომეტეფი
კომეტეფიშ
კომეტეფს
კომი
კომიკოსი
კომიკური
კომისარი
კომისარიშ
კომისია
კომისიას
კომისიაქ
კომისიაშ
კომიტეტი
კომიტეტის
კომიტეტიქ
კომიტეტიშ
კომიქსეფი
კომიქსეფიშ
კომიქსეფს
კომიქსი
კომიქსის
კომიქსიშ
კომიშ
კომნენოსი
კომო
კომოდუსი
კომორიშ
კომოშ
კომპანია
კომპანიას
კომპანიაქ
კომპანიაშ
კომპანიაშა
კომპანიაწკჷმა
კომპანიეფი
კომპანიეფიშ
კომპანიეფს
კომპარტიაშ
კომპაქტ
კომპაქტური
კომპაქტურო
კომპიუტერეფი
კომპიუტერეფიშ
კომპიუტერეფს
კომპიუტერი
კომპიუტერიშ
კომპიუტერს
კომპიუტერულ
კომპიუტერული
კომპლექსეფი
კომპლექსეფით
კომპლექსი
კომპლექსით
კომპლექსის
კომპლექსიქ
კომპლექსიშ
კომპლექსურ
კომპლექსური
კომპლექსშა
კომპოზიტორ
კომპოზიტორეფი
კომპოზიტორი
კომპოზიტორიშ
კომპოზიტორქ
კომპოზიცია
კომპოზიციას
კომპოზიციაქ
კომპოზიციაშ
კომპონენტეფი
კომპონენტეფიშ
კომპონენტეფს
კომპონენტი
კომპონენტის
კომუნა
კომუნათ
კომუნას
კომუნაშ
კომუნაშე
კომუნეფი
კომუნიზმი
კომუნიზმიშ
კომუნიკაცია
კომუნიკაციაშ
კომუნიკაციეფიშ
კომუნისტეფიშ
კომუნისტეფქ
კომუნისტი
კომუნისტურ
კომუნისტური
კომუფლირაფილი
კონაკრი
კონან
კონგი
კონგილიოშ
კონგის
კონგიშ
კონგლომერატეფით
კონგო
კონგოს
კონგოშ
კონგრესი
კონგრესის
კონგრესიქ
კონგრესიშ
კონგრესიშით
კონელი
კონერი
კონექტიკუტი
კონექტიკუტის
კონექტიკუტიშ
კონეჰი
კონვენცია
კონვენციათ
კონვენციაშ
კონი
კონია
კონიაშ
კონკა
კონკათ
კონკანი
კონკანიშ
კონკას
კონკაშ
კონკაშა
კონკაშე
კონკეფი
კონკეფიშ
კონკეფს
კონკი
კონკის
კონკისტადორ
კონკისტადორეფიშ
კონკისტადორეფქ
კონკრეტულ
კონკრეტული
კონკრეტულო
კონკურენტი
კონკურენციას
კონკურსი
კონკურსის
კონკურსიშ
კონრად
კონსერვატიულ
კონსერვატიული
კონსერვატორია
კონსერვატორიას
კონსერვატორიაშ
კონსერვატორიაწკუმა
კონსერვაციაშ
კონსტანტა
კონსტანტინ
კონსტანტინე
კონსტანტინეპოლიშ
კონსტანტინეს
კონსტანტინეშ
კონსტანტინოპოლი
კონსტანტინოპოლიშ
კონსტანტინოპოლს
კონსტანცა
კონსტიტუცია
კონსტიტუციათ
კონსტიტუციას
კონსტიტუციაქ
კონსტიტუციაშ
კონსტიტუციაშა
კონსტიტუციის
კონსტიტუციურ
კონსტიტუციური
კონსტრუქცია
კონსტრუქციას
კონსტრუქციაშ
კონსტრუქციეფიშ
კონსტრუქციული
კონსულ
კონსულეფი
კონსული
კონსულიშ
კონსულო
კონსულტანტი
კონსულტანტო
კონტაქტი
კონტაქტის
კონტაქტიშ
კონტე
კონტექსტის
კონტი
კონტინგენტი
კონტინენტალური
კონტინენტეფი
კონტინენტეფიშ
კონტინენტეფს
კონტინენტი
კონტინენტის
კონტინენტიშ
კონტინენტიშე
კონტინენტურ
კონტინენტური
კონტრასტული
კონტრაქტი
კონტრაქტის
კონტრაქტიშ
კონტრიბუცია
კონტრიბუციაშ
კონტროლერი
კონტროლი
კონტროლირებაფონ
კონტროლიშ
კონტროლს
კონტროლშა
კონუსი
კონუსის
კონუსიშ
კონუსური
კონფედერაცია
კონფედერაციას
კონფედერაციაქ
კონფედერაციაშ
კონფედერაციული
კონფერენცია
კონფერენციას
კონფერენციაქ
კონფერენციაშ
კონფერენციეფიშ
კონფერენციეფს
კონფიგურაცია
კონფლიქტეფი
კონფლიქტეფიშ
კონფლიქტეფს
კონფლიქტი
კონფლიქტის
კონფლიქტიქ
კონფლიქტიშ
კონფუცი
კონფუციანობა
კონფუციშ
კონცენტრაცია
კონცენტრაციაშ
კონცენტრირაფილი
კონცერტეფი
კონცერტეფიშ
კონცერტეფს
კონცერტი
კონცერტის
კონცერტიქ
კონცერტიშ
კონცეფცია
კონცეფციას
კონცეფციაშ
კონცეფციეფი
კონცეფციეფიშ
კონწარ
კონწარას
კონწარი
კონწარო
კონჭეფი
კონჭეფიშ
კოოპერატიული
კოორდინატეფი
კოორდინატეფიშ
კოორდინაციას
კოორდინირაფილი
კოპენჰაგენი
კოპენჰაგენიშ
კოპენჰაგენს
კოპერნიკიშ
კოპერფილდი
კოპეშია
კოპეშიაშ
კოპეშიაშობურეფიშ
კოპიაპო
კოპიტნარი
კოპლიშ
კოპოლა
კოპოლაშ
კოპრა
კოპტური
კორ
კორანა
კორდილიერა
კორდობა
კორდობაშ
კორდოვა
კორდოვაშ
კორდონ
კორეა
კორეალეფი
კორეალეფიშ
კორეალი
კორეას
კორეაშ
კორელი
კორესპონდენტი
კორესპონდენტო
კორესპონდენცია
კორეულ
კორეული
კორეულო
კორვუსი
კორი
კორიენტესიშ
კორინი
კორინიშ
კორინს
კორიო
კორკი
კორკოვადოშ
კორლეონე
კორლეონეშ
კორნბერგი
კორნბერგიშ
კორნელი
კორნელიუს
კორნელიუსი
კორნელიშ
კორნიში
კორონავირუსეფიშ
კორონავირუსი
კორონავირუსიშ
კორონელ
კოროცხუა
კოროცხუაფონი
კოროცხუაშ
კოროცხუნა
კოროცხუნდჷ
კოროცხუნს
კოროცხჷნა
კოროცხჷნს
კორპორატიული
კორპორაცია
კორპორაციას
კორპორაციაშ
კორპორაციეფიშ
კორპუსი
კორპუსის
კორპუსიშ
კორსანტეფი
კორსანტეფიშ
კორსიკა
კორსიკას
კორტასარი
კორტასარიქ
კორტესი
კორტესიშ
კორუფცია
კორუფციაშ
კორცხელი
კოსაშ
კოსიბა
კოსმოლოგია
კოსმოლოგიას
კოსმონავტი
კოსმოსი
კოსმოსის
კოსმოსიშ
კოსმოსიშა
კოსმოსიშე
კოსმოსურ
კოსმოსური
კოსოვო
კოსოვოს
კოსოვოშ
კოსტა
კოსტავა
კოსტავაშ
კოსტნერი
კოსტრომა
კოსტრომაშ
კოსტუმეფიშ
კოსუსი
კოტ
კოტა
კოტაიქი
კოტე
კოტიარი
კოტო
კოულმენი
კოულსონი
კოქსი
კოქტო
კოჩაბამბაშ
კოჩამი
კოჩეფი
კოჩეფიშ
კოჩი
კოჩით
კოჩის
კოჩიქ
კოჩიშ
კოჩიშე
კოჩიშო
კოჩიშობაშ
კოჩო
კოჩობურობაშ
კოჩქ
კოჩშე
კოხი
კოხიქ
კოხიშ
კრ
კრაკენიშ
კრაკოვი
კრაკოვიშ
კრაკოვს
კრალოვე
კრალოვეშ
კრამერი
კრამერიშ
კრასინსკიქ
კრასნოდარი
კრასნოდარიშ
კრასნოიარსკი
კრასნოიარსკიშ
კრასუსი
კრატერეფი
კრატერი
კრატერიშ
კრატერს
კრატერული
კრატერშე
კრებულეფიშ
კრებული
კრევეტეფი
კრეიგი
კრემლი
კრენსტონი
კრეოლ
კრეოლი
კრეოლური
კრესონიშ
კრეტა
კრეტაშ
კრი
კრივოი
კრიზისი
კრიზისის
კრიზისიქ
კრიზისიშ
კრიკი
კრიკიშ
კრიმინალს
კრიმინალურ
კრიმინალური
კრის
კრისტალეფიშ
კრისტალიზაცია
კრისტალოგრაფიაშ
კრისტალურ
კრისტალური
კრისტენ
კრისტი
კრისტიან
კრისტინ
კრისტინა
კრისტიშ
კრისტო
კრისტოფ
კრისტოფერ
კრისტოფერი
კრისტოშ
კრიტერიუმი
კრიტერიუმით
კრიტერიუმს
კრიტიკა
კრიტიკას
კრიტიკაქ
კრიტიკაშ
კრიტიკოსეფი
კრიტიკოსეფიშ
კრიტიკოსეფქ
კრიტიკოსეფშე
კრიტიკოსი
კრიტიკოსიქ
კრიტიკოსიშ
კრიტიკულ
კრიტიკული
კრიტიკულო
კრიქ
კრიშნა
კრიშნაშ
კრიშტიანუ
კრიშულ
კროლი
კრონა
კრონი
კროტო
კროუ
კროუფორდი
კროფტი
კრუა
კრუაშ
კრუგერი
კრუზი
კრუზიშ
კრუზოშ
კრუკსი
კრუს
კრუსი
კრუსიშ
კუ
კუალა
კუბ
კუბა
კუბარ
კუბარი
კუბას
კუბაშ
კუბაშა
კუბაშე
კუბი
კუბრიკიშ
კუბურ
კუბური
კუდელი
კუდელიშ
კუდელს
კუეიდი
კუენკა
კუერნავაკა
კუთამი
კუთეფიშ
კუკი
კუკიქ
კუკიშ
კუკური
კულა
კულე
კულინარიას
კულმინაციაშ
კულონი
კულტი
კულტივირაფილი
კულტის
კულტიქ
კულტიშ
კულტურა
კულტურათ
კულტურას
კულტურაქ
კულტურაშ
კულტურაშა
კულტურაშე
კულტურეფი
კულტურეფიშ
კულტურეფს
კულტურეფქ
კულტურეფშე
კულტურის
კულტურულ
კულტურული
კულტურულო
კუმა
კუმარი
კუნ
კუნგ
კუნთეფი
კუნთხუ
კუნთხუეფი
კუნთხუეფიშ
კუნთხუეფს
კუნთხუთ
კუნთხუს
კუნთხუშ
კუნთხუშე
კუნი
კუნია
კუნისი
კუნმინი
კუნტა
კუნტათ
კუნტამეტრ
კუნტამეტრაჟიანი
კუნტარაფა
კუნტარაფათ
კუნტას
კუნტახანით
კუნტახანურ
კუნტახანური
კუნტახანურო
კუნძული
კუნწული
კუნწულს
კუპაშ
კუპერი
კუპერიშ
კუპმანსი
კუპმანსიქ
კურაპალატიშ
კურგანიშ
კურთხუეფიშ
კურთხუს
კური
კურილენკო
კურიტიბა
კურნალენდჷ
კურნალობა
კურნალობას
კურნალობაშ
კურნალობაშო
კურნალუა
კურნალუას
კურნალუაშ
კურორტ
კურორტეფი
კურორტი
კურორტიშ
კუროსავა
კურსეფი
კურსი
კურსით
კურსის
კურსიშ
კურსკიშ
კურსნათებუეფი
კურსორი
კურტ
კურუშ
კურჩატოვი
კუსკო
კუსკოკუიმიშ
კუსკოს
კუსკოშ
კუსკოშე
კუსტარული
კუტუკუქ
კუშ
კუში
კუშიქ
კუჩ
კუჩხბურთი
კუჩხბურთის
კუჩხბურთიშ
კუჩხეფი
კუჩხეფს
კუჩხი
კუჩხით
კუჩხის
კუჩხიშ
კუჩხმობურთე
კუჭი
კუჭიშ
კუჭუხიძე
კხპ
კჷდალა
კჷდალაშ
კჷნ
კჷნასქიდუ
კჷნე
კჷნოხ
კჷნოხონეფი
კჷნოხონეფიშ
კჷრდე
კჷრდეამი
კჷრდეეფი
კჷრდეეფიშ
კჷრდეეფს
კჷრდეს
კჷრდეშ
ლ
ლა
ლაბანამი
ლაბაძეშ
ლაბემი
ლაბორანტო
ლაბორატორია
ლაბორატორიას
ლაბორატორიაქ
ლაბორატორიაშ
ლაბორატორიაშა
ლაბორატორიეფს
ლაბორატორიულ
ლაბორატორიული
ლაბრადორი
ლაბრადორიშ
ლაგვანს
ლაგო
ლაგოდეხიშ
ლაგოსი
ლაგოსიშ
ლაგრანჟი
ლაგრანჟიქ
ლაგრანჟიშ
ლაგუნა
ლაგუნას
ლადირო
ლადო
ლადოგიშ
ლავა
ლავათ
ლავას
ლავაშ
ლავკრაფტი
ლავრენტი
ლავრენტიშ
ლავუაზიე
ლავურ
ლავური
ლაზ
ლაზარ
ლაზერიშ
ლაზერული
ლაზეფი
ლაზეფიშ
ლაზი
ლაზიკა
ლაზიკაშ
ლაზისტანიშ
ლაზონას
ლაზონაშ
ლაზურ
ლაზური
ლაზურო
ლათ
ლათინო
ლათინოამერიკალეფი
ლათინოამერიკალი
ლათინოამერიკული
ლათინურ
ლათინურამერიკალეფი
ლათინური
ლათინურიშ
ლათინურო
ლათინურს
ლათინურშე
ლაიბნიციშ
ლაიმენ
ლაინიშ
ლაინუს
ლაიონელ
ლაიტი
ლაიტის
ლაიტიშ
ლაიფციგი
ლაიფციგიშ
ლაკადა
ლაკადას
ლაკადაშ
ლაკადეფი
ლაკადეფს
ლაკაცია
ლაკვის
ლაკური
ლაკშმი
ლალა
ლალანდი
ლალანდიშ
ლალი
ლამა
ლამარია
ლამარკი
ლამბაიეკეშ
ლამბერტი
ლამე
ლამია
ლამპა
ლანა
ლანატუსი
ლანგედოკი
ლანგი
ლანდტაგი
ლანდშაფტეფი
ლანდშაფტეფიშ
ლანდშაფტეფს
ლანდშაფტი
ლანდშაფტის
ლანდშაფტიშ
ლანდშაფტური
ლანინიშ
ლანკა
ლანკას
ლანკასტერი
ლანკაშ
ლანკაშირი
ლანჩხუთი
ლანჩხუთიშ
ლანცეტა
ლანცეტიშობური
ლანჯი
ლანჯოუ
ლაო
ლაოაგი
ლაოსი
ლაოსის
ლაოსიშ
ლაოსური
ლაპლასი
ლაპტევეფიშ
ლარა
ლართერი
ლარი
ლარიშ
ლარს
ლარსიქ
ლარსიშ
ლარსონი
ლარსონიშ
ლარჭემი
ლარჭემიშ
ლას
ლასკერიშ
ლატა
ლატაკია
ლატვ
ლატვია
ლატვიას
ლატვიაშ
ლატვიური
ლაუე
ლაურა
ლაურეატეფი
ლაურეატეფიშ
ლაურეატი
ლაურეატიშ
ლაურეატო
ლაფა
ლაფაშ
ლაქშადვიპი
ლაქშადვიპიშ
ლაშა
ლაშქარუა
ლაციო
ლაციოშ
ლაწკარამ
ლაწკარამი
ლაწკარი
ლახალა
ლახალათ
ლახალაშ
ლახალეფიშ
ლახარა
ლახარათ
ლახარას
ლახარაქ
ლახარაშ
ლახარეფი
ლახარეფიშ
ლახარეფს
ლახარეფშე
ლახაშ
ლაჰ
ლაჰორი
ლაჰორიშ
ლაჸაფენა
ლაჸაფენდ
ლაჸაფენდეს
ლაჸაფენდჷ
ლაჸაფენს
ლაჸაფეფი
ლაჸაფეფიშ
ლაჸაფეფს
ლაჸაფეფქ
ლაჸაფი
ლაჸაფით
ლაჸაფის
ლაჸაფიქ
ლაჸაფიშ
ლგბტ
ლე
ლებია
ლებიაშ
ლეგალური
ლეგენდა
ლეგენდარული
ლეგენდას
ლეგენდაშ
ლეგენდეფი
ლეგენდეფიშ
ლეგენდეფს
ლეგიონი
ლეგიონიშ
ლეგიტიმური
ლეგუიზამო
ლედ
ლედერბერგი
ლედერბერგიქ
ლედერმანი
ლედი
ლევ
ლევან
ლევანი
ლევანიშ
ლევანს
ლევანტიშ
ლევანქ
ლევენჰუკი
ლევერიე
ლევერიექ
ლევერიეშ
ლევი
ლევისა
ლევიტი
ლევიშ
ლევონ
ლეზგეფი
ლეზგიურ
ლეზგიური
ლეი
ლეიბლ
ლეიბლი
ლეიბლიშ
ლეიდენი
ლეიდენიშ
ლეიკემია
ლეიკემიაშ
ლეიკიშ
ლეიტე
ლეიტენანტ
ლეიტენანტი
ლეიქ
ლეკეფი
ლეკი
ლელა
ლემი
ლენა
ლენარდი
ლენასი
ლენაშ
ლენგი
ლენგმიური
ლენდი
ლენი
ლენინგრადი
ლენინგრადიშ
ლენინი
ლენინიზმი
ლენინიშ
ლენინური
ლენიშ
ლენს
ლენტეხიშ
ლენტულუს
ლენტულუსი
ლენქორანი
ლენქორანიშ
ლენჭყამი
ლეო
ლეონ
ლეონარდ
ლეონარდი
ლეონარდო
ლეონე
ლეონეშ
ლეონი
ლეონიდ
ლეონიშ
ლეონიძე
ლეონს
ლეონტი
ლეოპარდი
ლეოპოლდ
ლეოპოლდინაშ
ლეპიდუს
ლეპიდუსი
ლეპტოპი
ლერი
ლერიდა
ლეროი
ლერსეფი
ლერსეფიშ
ლერსეფს
ლერსი
ლერსიკონი
ლერსიკონქ
ლერსის
ლერსიქ
ლერსიშ
ლესინგი
ლესიჭინე
ლესიჭინეს
ლესლი
ლესოთო
ლესოთოშ
ლესქერობა
ლესქერობეფი
ლესქერუა
ლეტა
ლეტაშ
ლეტეში
ლეტო
ლექინ
ლექინას
ლექინი
ლექსები
ლექსიკა
ლექსიკას
ლექსიკაშ
ლექსიკოგრაფი
ლექსიკონეფი
ლექსიკონი
ლექსიკური
ლექტორი
ლექტორო
ლექცია
ლექციაშ
ლექციეფი
ლექციეფიშ
ლექციეფს
ლეჩხუმიშ
ლეძაძამეშ
ლეხერეფი
ლეხერეფით
ლეხერეფიშ
ლეხერეფს
ლეხერი
ლეხერით
ლეხერიშ
ლეხერს
ლეხერშა
ლეხერშე
ლეხერც
ლეხერწკჷმა
ლეხზირიშ
ლეხი
ლეჯერი
ლეჯერქ
ლვივი
ლვივიშ
ლვოვი
ლვოვიშ
ლი
ლია
ლიამ
ლიანა
ლიანეფი
ლიას
ლიაშა
ლიაშახ
ლიაშე
ლიახვი
ლიახვის
ლიახვიშ
ლიბ
ლიბანარი
ლიბანი
ლიბანიშ
ლიბანს
ლიბანური
ლიბერალეფი
ლიბერალი
ლიბერალიზმი
ლიბერალიზმიშ
ლიბერალურ
ლიბერალური
ლიბერეცი
ლიბერეციშ
ლიბერია
ლიბერიას
ლიბერიაშ
ლიბერტადიშ
ლიბი
ლიბია
ლიბიას
ლიბიაშ
ლიბიური
ლიბიქ
ლიბიხი
ლიბიხიშ
ლიბო
ლიბუ
ლიბჷ
ლიგა
ლიგას
ლიგაქ
ლიგაშ
ლიგე
ლიგურიას
ლიგურიაშ
ლიდერ
ლიდერეფი
ლიდერეფიშ
ლიდერეფქ
ლიდერი
ლიდერიშ
ლიდერო
ლიდერს
ლიდერქ
ლიდია
ლიდიაშ
ლიდსი
ლიეტუ
ლიეტუვა
ლიეტუვარეფი
ლიეტუვას
ლიეტუვაშ
ლიეტუვაწკჷმა
ლიეტუვური
ლივ
ლივერპული
ლივერპულიშ
ლივინგსტონი
ლივიუს
ლივიუსი
ლივიუსიშ
ლიზა
ლითიუმი
ლითლ
ლითონეფიშ
ლითონიშ
ლიკვი
ლიკვიდაცია
ლიკვით
ლიკი
ლიკიქ
ლიკიშ
ლილი
ლილიშ
ლიმა
ლიმას
ლიმაშ
ლიმბურგიშ
ლიმესი
ლიმონი
ლიმონიშ
ლიმპოპო
ლინ
ლინარესიშ
ლინგვისტი
ლინგვისტიკაშ
ლინგვისტური
ლინდა
ლინდგრენი
ლინდგრენიშ
ლინდზი
ლინდონ
ლინდსი
ლინზეფი
ლინი
ლინიშ
ლინკინ
ლინკოლნი
ლინკოლნიშ
ლინჩი
ლინცი
ლინციშ
ლინჯი
ლინჯიშ
ლიო
ლიონელ
ლიონი
ლიონიშ
ლიონს
ლიპესიშ
ლიპეცკიშ
ლიპიდეფიშ
ლიპმანი
ლირა
ლირე
ლირეს
ლირეშ
ლირი
ლირიკაშ
ლირიკული
ლირსამი
ლირულ
ლირული
ლისაბონი
ლისაბონიშ
ლისაბონს
ლისიშ
ლისტერი
ლისტი
ლიტერატორი
ლიტერატურა
ლიტერატურათ
ლიტერატურას
ლიტერატურაშ
ლიტერატურაშე
ლიტერატურაშო
ლიტერატურის
ლიტერატურულ
ლიტერატურული
ლიტვაშ
ლიტლ
ლიტორალიშ
ლიტრი
ლიუ
ლიუბეკი
ლიუვენიშ
ლიუკ
ლიქ
ლიქიორი
ლიქიორიშ
ლიშ
ლიჩი
ლიცენზია
ლიცენზიაშ
ლიცეუმს
ლიცინიუს
ლიცინიუსი
ლიხიშ
ლიხტენშტაინი
ლიხტენშტაინიშ
ლო
ლოა
ლოაისიშ
ლობაჩევსკიშ
ლოგანი
ლოგიკა
ლოგიკას
ლოგიკაშ
ლოგიკოსი
ლოგიკურ
ლოგიკური
ლოგოს
ლოზანა
ლოზანას
ლოზანაშ
ლოთარ
ლოთარინგია
ლოიდ
ლოკ
ლოკალური
ლოკარნო
ლოკი
ლოკიერი
ლოკიერიქ
ლოკიშ
ლოლიტა
ლოლუა
ლოლუას
ლოლუაქ
ლოლუაშ
ლომამიშ
ლომბარდია
ლომბარდიას
ლომბარდიაშ
ლომთათიძე
ლომი
ლომინაძე
ლომონოსოვიშ
ლომოური
ლონგ
ლონგიშ
ლონგუსი
ლონდონი
ლონდონიშ
ლონდონს
ლონდონქ
ლონდონშა
ლონდონშე
ლონდონც
ლოპესი
ლორ
ლორა
ლორან
ლორანი
ლორდ
ლორდი
ლორე
ლორენა
ლორენას
ლორენი
ლორენს
ლორენციშ
ლორენცო
ლორეტო
ლორეტოშ
ლორეშ
ლორთქიფანიძე
ლორი
ლორია
ლოს
ლოტბარ
ლოტბარები
ლოტბარი
ლოტერბური
ლოტერბურიქ
ლოტნერი
ლოუ
ლოუელი
ლოუელიქ
ლოუელიშ
ლოურენს
ლოურენსი
ლოურენსიქ
ლოურენსიშ
ლოქიშ
ლოძი
ლოძიშ
ლოხანდე
ლოჰ
ლოჰანი
ლუ
ლუალაბა
ლუალაბაშ
ლუანდა
ლუარა
ლუარაშ
ლუარი
ლუარსაბ
ლუბა
ლუბას
ლუბაშ
ლუბლინი
ლუბლინიშ
ლუგანოშ
ლუგანსკიშ
ლუგო
ლუგომარ
ლუგოშ
ლუდვიგ
ლუდიშ
ლუდოვიკო
ლუდჰიანა
ლუვრიშ
ლუთერ
ლუთერანეფი
ლუთერანული
ლუთერი
ლუთერიშ
ლუი
ლუიზ
ლუიზა
ლუიზაშ
ლუიზვილი
ლუიზიანა
ლუიზიანაშ
ლუის
ლუისი
ლუისიქ
ლუისიშ
ლუიშ
ლუიჯი
ლუკ
ლუკა
ლუკას
ლუკასი
ლუკაშ
ლუკაშენკო
ლუკი
ლუკრეციუს
ლულა
ლუმპური
ლუმპურს
ლუნა
ლუნდგრენი
ლუნდი
ლუნდიშ
ლუპი
ლუპიტა
ლური
ლურია
ლურიაქ
ლურიშ
ლურჯი
ლუსაკა
ლუსაკი
ლუსი
ლუსია
ლუსონი
ლუსონიშ
ლუსონს
ლუქსემბურგი
ლუქსემბურგის
ლუქსემბურგიშ
ლუქსორი
ლუქსორიშ
ლუღი
ლუღიშ
ლუყუ
ლუყუშ
ლუჩანო
ლუცერნი
ლუცერნიშ
ლუციუს
ლუციფერი
ლუჰანსკი
ლუჰანსკიშ
ლჰასა
ლჰოძე
ლჷბუ
ლჷგე
ლჷმა
ლჷმათ
ლჷმას
ლჷმაქ
ლჷმაშ
ლჷმაშა
ლჷმაშახ
ლჷმაშე
ლჷმაშო
ლჷმაშუკულიანი
ლჷმენდ
ლჷმენდეს
ლჷმენდჷ
ლჷმეფი
ლჷმეფით
ლჷმეფიშ
ლჷმეფს
ლჷმეფქ
მ
მა
მაამშვა
მაანთხა
მაართა
მაართათ
მაართას
მაართაფონი
მაართაქ
მაართაშ
მაართაშა
მაართაშე
მაართაჸოფილი
მაართაჸოფური
მაარი
მაასი
მაასის
მაასიშ
მაბარჩხალე
მაბირე
მაბჟალია
მაბრუო
მაგ
მაგადანიშ
მაგადჰა
მაგადჰაშ
მაგალთო
მაგალიანესი
მაგალითი
მაგალითიე
მაგალითო
მაგანა
მაგანაშ
მაგდალენა
მაგდალენაშ
მაგდალინარიშ
მაგდებურგი
მაგელანი
მაგელანიშ
მაგელანურ
მაგელანური
მაგელანქ
მაგთიკომი
მაგთისატი
მაგია
მაგიაშ
მაგინაფუ
მაგისტრალი
მაგისტრალიშ
მაგისტრალს
მაგისტრი
მაგისტრიშ
მაგიურ
მაგიური
მაგმა
მაგმაშ
მაგმური
მაგნეტო
მაგნიტუდა
მაგნიტურ
მაგნიტური
მაგნუს
მაგნუსი
მაგორალეფი
მაგორალი
მაგრამ
მაგურაფალეფი
მაგურაფალეფიშ
მაგურაფალი
მაგურაფალიშ
მაგურაფალო
მაგურაფუ
მაგურაფუეფი
მაგური
მაგურო
მადაგასკარი
მადაგასკარიშ
მადაგასკარს
მადამ
მადანი
მადანიშ
მადარიშ
მადეირა
მადეირას
მადეირაშ
მადენი
მადვალარიშ
მადვალი
მადვალუ
მადვალჷ
მადი
მადისონი
მადისონიშ
მადლენ
მადონა
მადონაშ
მადრასიშ
მადრე
მადრეშ
მადრიდი
მადრიდის
მადრიდიშ
მადს
მადუდე
მადუდეეფი
მადუდეეფიშ
მადუდეთ
მადუდეს
მადუდექ
მადუდეშ
მადუდური
მადურაი
მადჰია
მადჰოპური
მაე
მაესტრაშ
მაეჩა
მავერანაჰრის
მავზოლეუმი
მავითა
მავითაამშვა
მავითაანთხა
მავითაართა
მავითობრუო
მავითოჟირა
მავითოსუმა
მავითოშკვითა
მავითოჩხორა
მავითოხუთა
მავრეფი
მავრეფიშ
მავრეფქ
მავრიკი
მავრიკიშ
მავრიტანია
მავრიტანიაშ
მაზერიშ
მაზოჯალი
მაზოჯალიშ
მაზოჯინალი
მაზრა
მაზრას
მაზრაქ
მაზრაშ
მაზრაშა
მაზრეფს
მაზურიშ
მათ
მათანგალეფი
მათანგალი
მათე
მათემატიკა
მათემატიკათ
მათემატიკას
მათემატიკაშ
მათემატიკოსეფი
მათემატიკოსეფიშ
მათემატიკოსი
მათემატიკოსიშ
მათემატიკოსო
მათემატიკურ
მათემატიკური
მათეშ
მათიას
მათირალი
მათირე
მათირუ
მათუ
მათხილარ
მათხილარი
მათხილარო
მათხილე
მათხილეშ
მათხოზინე
მაი
მაია
მაიამი
მაიამის
მაიამიშ
მაიაშ
მაიერი
მაიერიქ
მაიკ
მაიკლ
მაიკლი
მაიკოპი
მაიკოპიშ
მაიკროსოფტიშ
მაილზ
მაილი
მაილს
მაიმანი
მაიმანიქ
მაიმუნეფიშ
მაინიშ
მაინოტი
მაინოტიქ
მაინცი
მაიორი
მაიოტა
მაიოტაშ
მაიოშ
მაირი
მაისი
მაიტნერი
მაიტნერიქ
მაიტჰილი
მაკ
მაკა
მაკადამსი
მაკათურ
მაკათურამი
მაკათურეფ
მაკათურეფი
მაკათურეფიშ
მაკათურეფს
მაკათურეფქ
მაკათურეფშე
მაკათურეფწკჷმა
მაკათური
მაკათურიე
მაკათურით
მაკათურიშ
მაკათურო
მაკათურობა
მაკათურობაშ
მაკათურს
მაკათურქ
მაკათურშე
მაკალათია
მაკალუ
მაკაო
მაკარტი
მაკარტურიშ
მაკასარი
მაკგრეგორი
მაკდონალდიშ
მაკდონალდსიშ
მაკება
მაკედ
მაკედონარი
მაკედონარიშ
მაკედონია
მაკედონიას
მაკედონიაშ
მაკედონიური
მაკედონური
მაკევოი
მაკენზი
მაკეობა
მაკი
მაკიაველი
მაკითხე
მაკითხერი
მაკინდოლი
მაკინოშ
მაკლეინი
მაკლეინიქ
მაკლეოდი
მაკმილანი
მაკობა
მაკოლეი
მაკრო
მაკრომოლეკულა
მაკრომოლეკულეფიშ
მაკრონეფი
მაკტუმ
მაკტუმი
მაკულატურა
მაკშეინი
მალ
მალაბო
მალაგა
მალავი
მალავის
მალავიშ
მალათიაშ
მალაი
მალაიალამი
მალაიალამური
მალაიზია
მალაიზიას
მალაიზიაშ
მალაიური
მალაიშ
მალაკა
მალაკაშ
მალაკიშ
მალალა
მალარია
მალარიაშ
მალას
მალასიან
მალასიანი
მალასჷთ
მალასჷნე
მალაჯღონჷ
მალაჸაფე
მალდივიშ
მალე
მალერი
მალი
მალიკენი
მალიმორეფი
მალიმორეფს
მალიმორი
მალინი
მალიორკა
მალის
მალიშ
მალკოვიჩი
მალკოლმ
მალობა
მალობათ
მალობას
მალობაშ
მალობეფიშ
მალოპოლსკიშ
მალტ
მალტა
მალტას
მალტაშ
მალტური
მალუგინენსისი
მალუობას
მალუობაშ
მალური
მალურიშ
მალფოი
მალჷმორეფიშ
მალჷმორი
მამა
მამათა
მამარდაშვილი
მამართალ
მამართალეფი
მამართალეფიშ
მამართალი
მამართალიშ
მამართალო
მამართვალ
მამართვალეფი
მამართვალეფიშ
მამართვალი
მამბერე
მამერცინუსი
მამია
მამისა
მამლუქი
მამორეშ
მამუკა
მამური
მამუშე
მამფლასი
მამშვა
მან
მანა
მანაბიშ
მანაგუა
მანაგუას
მანათი
მანამა
მანანა
მანასიშ
მანასლუ
მანგა
მანგაკა
მანგანუმი
მანგანუმიშ
მანგარ
მანგარი
მანგარო
მანგას
მანგაშ
მანგი
მანგიორ
მანგიორი
მანგიორო
მანგის
მანგიშ
მანგიშა
მანგიშახ
მანგიშე
მანგიშო
მანგო
მანგური
მანგურო
მანდაკინი
მანდარინეფი
მანდარინი
მანდატი
მანდატიშ
მანდელა
მანდელაქ
მანდოვიშ
მანე
მანებელეფი
მანებელი
მანზინი
მანზინიშ
მანთხა
მანი
მანია
მანიემაშ
მანილა
მანილას
მანინალე
მანიოკი
მანიპური
მანიპურიშ
მანიტობა
მანიტობაშ
მანიუს
მანიფესტი
მანიფესტის
მანიშ
მანიჩიშ
მანლიუს
მანლიუსი
მანსიშ
მანტიაშ
მანტუაშ
მანუ
მანუელ
მანუშ
მანუჩარ
მანფრედ
მანქანა
მანქანათ
მანქანას
მანქანაშ
მანქანეფი
მანქანეფიშ
მანქანეფს
მანშიშ
მანჩაშ
მანჩესტერ
მანჩესტერი
მანჩესტერიშ
მანჩესტერს
მანჩესტერქ
მანცხვარიშ
მანძონი
მანწყის
მანწყუ
მანწყუეს
მანწყჷ
მანჯანიშ
მანჯაფილ
მანჯაფილი
მანჯაფილჷ
მანჯგალაძე
მანჯება
მანჯებას
მანჯებაშ
მანჯებულ
მანჯენდჷ
მანჯენს
მანჯეს
მანჯურიაშ
მანჯურიული
მანჯღვერე
მანჯღვერი
მანჯღვერობაშ
მანჯჷ
მანჰეტენი
მანჰეტენიშ
მანჰეტენს
მაო
მაოთხა
მაოთხურ
მაოთხური
მაორი
მაპალაფარო
მაპალუ
მაპუდუნგუნიშ
მაპუნგუბვეშ
მაპუტუ
მაპუტუშ
მაპუჩეშ
მაჟია
მაჟიაშა
მაჟირა
მაჟირას
მაჟირაფონი
მაჟირაშ
მაჟირაშა
მაჟირახარისხამ
მაჟირახარისხამი
მაჟირახარისხუანი
მაჟირაჸურე
მაჟირული
მაჟორი
მაჟორიტარი
მაჟორიტარული
მაჟრა
მაჟჷრა
მარ
მარა
მარაბდელი
მარაგადე
მარათ
მარათჰ
მარათჰი
მარათჰიშ
მარაკუიაშ
მარამბიჯი
მარანი
მარანიონიშ
მარას
მარაქეში
მარაშ
მარაშა
მარაშახ
მარაშინა
მარაშინათუთა
მარაშინათუთას
მარაშინათუთაშ
მარაშინათუთაშახ
მარაშინათუთაშე
მარაშნათუთა
მარაშნათუთას
მარბურგიშ
მარგ
მარგალ
მარგალეფი
მარგალეფიშ
მარგალეფს
მარგალი
მარგალურ
მარგალური
მარგალურიშ
მარგალურნინამი
მარგალურო
მარგალურს
მარგარეტ
მარგარიტა
მარგებელი
მარგველანი
მარგველაშვილი
მარგო
მარგოტ
მარგული
მარგულიშ
მარდი
მარდობა
მარდუ
მარე
მარენჯ
მარენჯი
მარვარი
მარველ
მარველიშ
მარვინ
მარზაშ
მარზენა
მარზეფი
მარზი
მარზიენა
მართა
მართალი
მართალო
მართენს
მართინუ
მართლმადიდებელ
მართლმადიდებელეფი
მართლმადიდებელი
მართლმადიდებელური
მართლმადიდებლობა
მართლმადიდებლური
მართუ
მართუა
მართუალა
მართუალათ
მართუალას
მართუალაქ
მართუალაშ
მართუალაშა
მართუაფონი
მართუაშ
მართუნა
მართუნდეს
მართუნდუ
მართუნდჷ
მართუნს
მართჷნდეს
მართჷნდჷ
მართჷნს
მარი
მარია
მარიამ
მარიამიშ
მარიამპოლეშ
მარიანაშ
მარიაშ
მარინ
მარინა
მარინე
მარინო
მარინოშ
მარიო
მარიონ
მარის
მარისა
მარისკალ
მარიუსი
მარიქ
მარიშ
მარიცა
მარკ
მარკა
მარკე
მარკესი
მარკესიშ
მარკვიალეფი
მარკვიალეფიშ
მარკვიალი
მარკვიალიშ
მარკვიე
მარკვიებელეფიშ
მარკვიებელი
მარკვიებელიშ
მარკიზ
მარკიზიშ
მარკინე
მარკო
მარკოს
მარკუს
მარკუსი
მარლენ
მარლონ
მარმარილო
მარმარილოშ
მარნეულიშ
მაროკო
მაროკოს
მაროკოშ
მაროკოშე
მარონი
მარსანი
მარსელ
მარსელენ
მარსელი
მარსელიშ
მარსელო
მარსელს
მარსი
მარსიშ
მარსო
მარსულაფარი
მარსულებერ
მარსულებერეფი
მარსულებერი
მარსულებერო
მარსქული
მარსქულიშ
მარტა
მარტენი
მარტვილი
მარტვილიშ
მარტვილიშე
მარტვილს
მარტი
მარტივი
მარტინ
მარტინი
მარტინიკა
მარტინიშ
მარტიშ
მარუან
მარუაშვილი
მარულა
მარუხიშ
მარქვა
მარქვალეფიშ
მარქვალი
მარქვალიშ
მარქვალიშობური
მარქვალს
მარქვას
მარქსი
მარქსიზმ
მარქსიზმი
მარქსიზმიშ
მარქსისტი
მარქსისტულ
მარქსისტული
მარქსიშ
მარშალ
მარშალი
მარშალიშ
მარში
მარშიმი
მარშრუტი
მარჩვალი
მარჩი
მარჩქენჯი
მარჩქილეშ
მარცელუსი
მარციუს
მარცუაფალი
მარცხებაშ
მარცხი
მარცხით
მარცხის
მარცხიქ
მარცხიშ
მარძგვან
მარძგვანი
მარძგვანშე
მარწაფალი
მარწაფალიშ
მარწკინდეფიშ
მარწკინდი
მარწკინდიშ
მარჭვალური
მარჯანიშ
მარჯანიშვილიშ
მარჯვენა
მას
მასა
მასათ
მასაიშ
მასალა
მასალათ
მასალას
მასალაშ
მასალები
მასალეფი
მასალეფიშ
მასას
მასაშ
მასაშე
მასაში
მასაჩუსეთსი
მასაჩუსეტსი
მასაჩუსეტსის
მასაჩუსეტსიშ
მასერუ
მასეფი
მასეფიშ
მასვანჯებელი
მასივეფი
მასივეფიშ
მასივეფს
მასივი
მასივით
მასივიშ
მასივს
მასიურ
მასიური
მასიურო
მასკატი
მასკატიშ
მასკელინი
მასკი
მასმა
მასმედია
მასმედიას
მასობურ
მასობური
მასობურო
მასრულებერი
მასტეინი
მასუმა
მასუმაშა
მასუმური
მასურჷ
მასქერეფი
მასქერეფიშ
მასქერეფს
მასქერეფქ
მასქერეფშე
მასქერული
მასქილიდაფარი
მასშტაბეფით
მასშტაბი
მასშტაბით
მასშტაბიშ
მასშტაბური
მასხაპალეფი
მასხაპალი
მასხუნალი
მატა
მატაქ
მატერა
მატერია
მატერიალურ
მატერიალური
მატერიალურო
მატერიაშ
მატერიკიშ
მატერიკულ
მატერიკული
მატეუჩიშ
მატვეი
მატიანე
მატიე
მატილდა
მატისონ
მატრიცა
მატრიცაშ
მატუ
მატჩეფი
მატჩეფიშ
მატჩეფს
მატჩი
მატჩის
მატჩიშ
მაულე
მაულეშ
მაუნთ
მაუნთინსიშ
მაუნტ
მაურიაშ
მაურიეფიშ
მაურისიო
მაუჭყაფალიშ
მაუჭყაფალობა
მაუჭყაფალობაშ
მაფა
მაფათ
მაფას
მაფასქირ
მაფასქირი
მაფასქირიშ
მაფაქ
მაფაშ
მაფაშა
მაფაწკჷმა
მაფენდეს
მაფენდჷ
მაფერი
მაფეფი
მაფეფიშ
მაფეფს
მაფეფქ
მაფია
მაფიაშ
მაფობა
მაფობაშ
მაფორალი
მაფორალო
მაფორუ
მაფურინალი
მაფურინჯე
მაფურინჯეეფი
მაფურინჯეეფით
მაფურინჯეეფიშ
მაფურინჯეეფს
მაფურინჯეფიშ
მაფურინჯეშ
მაფშალია
მაქიმინალი
მაქს
მაქსველი
მაქსველიშ
მაქსი
მაქსიმ
მაქსიმალურ
მაქსიმალური
მაქსიმალურო
მაქსიმილიან
მაქსიმუმ
მაქსიმუმი
მაქსიმუმს
მაქსიმუს
მაქსიმუსი
მაქსიმუსიშ
მაღაზია
მაღაზიას
მაღალ
მაღალას
მაღალგვალამ
მაღალგვალამი
მაღალგვალაშ
მაღალი
მაღალო
მაღალხარისხამი
მაღელი
მაღვენ
მაღვენი
მაღვენჯ
მაღვენჯეფიშ
მაღვენჯი
მაღვენჯიშ
მაღირღონალეფს
მაღოლამარი
მაღრან
მაღრიბი
მაღრიბიშ
მაყარაფალი
მაყარაფუ
მაყარე
მაშადუ
მაშავერა
მაშავერაშ
მაშარეეფიშ
მაშკვითა
მაშორას
მაშქვითა
მაჩიებე
მაჩუ
მაჩხომერი
მაჩხორა
მაცერინუსი
მაცნე
მაძირაფალეფი
მაძირაფალეფით
მაძირაფალი
მაძირაფალით
მაძირაფალქ
მაძირაფუ
მაწარმაფალი
მაწარმებელი
მაწვართალი
მაწვართალიშ
მაწვართალო
მაჭავარიანი
მაჭარალი
მაჭარეს
მაჭარჷ
მაჭირინუ
მაჭირხოლი
მაჭყვადალი
მაჭყვიდალი
მახანდე
მახანტალი
მახარაძე
მახარებელი
მახასიათაფალეფი
მახასიათაფალი
მახერხჷ
მახვამილაფარეფიშ
მახვამილაფარი
მახვამილუ
მახვარე
მახვარებელო
მახვარებუ
მახვარებუეფიშ
მახვარებუეფს
მახვარებუს
მახვარებუშ
მახვენჯი
მახინწალი
მახინწალით
მახორბაშ
მახორობა
მახორობათ
მახორობას
მახორობაქ
მახორობაშ
მახორობაშე
მახორობაშო
მახორობაწკჷმა
მახორუ
მახორუეფი
მახორუეფიშ
მახორუეფს
მახორუეფქ
მახორუეფშა
მახორუეფშო
მახორუთ
მახორუს
მახორუქ
მახორუშ
მახორუშა
მახორუშე
მახორუშო
მახუთა
მახურგე
მახუჯე
მაჯინე
მაჯინეეფიშ
მაჯინეეფს
მაჯინეეფშო
მაჯინეს
მაჯინეშ
მაჯინობა
მაჯინობას
მაჯინუ
მაჯორე
მაჯორეშ
მაჯღვერეფი
მაჯღვერი
მაჰაბჰარატაშ
მაჰათმა
მაჰალი
მაჰარაშტრა
მაჰარაშტრას
მაჰარაშტრაშ
მაჰარაჯა
მაჰისაგარი
მაჰმად
მაჰმადი
მაჰმადიანი
მაჰმადიშ
მაჰმუდ
მაჸალე
მაჸალეეფი
მაჸალეეფიშ
მაჸალეეფწკჷმა
მაჸალეფიშ
მაჸალექ
მაჸალეშ
მაჸალობა
მაჸალობაშ
მაჸალუა
მაჸალუას
მაჸალური
მაჸვენჯი
მაჸვილარეფიშ
მაჸვილარი
მაჸვილარიშ
მაჸონაფალ
მაჸონაფალი
მაჸონაფალო
მაჸუნ
მაჸუნუ
მაჸუნჷ
მაჸურზენაიაშობურეფიშ
მბ
მბაბანე
მბომუ
მგ
მე
მებაღობას
მებინეხობა
მებინეხობაშ
მებუნაფილი
მებუნაფილიე
მეგა
მეგალითური
მეგამა
მეგამათ
მეგამას
მეგამაშ
მეგაპოლისი
მეგი
მეგიდო
მეგნად
მეგორაფა
მეგორაფას
მეგორაფაქ
მეგორაფაშ
მეგორაფეფი
მეგორაფეფიშ
მეგორაფილ
მეგორაფილი
მეგორაფილქ
მეგორაფუეფი
მეგრელი
მეგრელიშ
მეგრული
მეგჰალაია
მედალი
მედალოსანი
მედანი
მედეა
მედელინი
მედვედევი
მედია
მედიაფაილეფი
მედიაშ
მედიეშ
მედიკამენტეფიშ
მედიკოსი
მედინა
მედინჷ
მედისონი
მედიჩიშ
მედიცინა
მედიცინას
მედიცინაშ
მედსენი
მედულინუსი
მევიოლინე
მეზოზოური
მეზოლითი
მეზოლითიშ
მეზორეგიონს
მეზუღალეშ
მეზუღე
მეზუღეეფი
მეზუღეშ
მეთ
მეთე
მეთიუ
მეთმეჩანს
მეთმიოგანს
მეთმიორინუანს
მეთმურსხუანა
მეთმურსხუანს
მეთოდეფ
მეთოდეფი
მეთოდეფით
მეთოდეფიშ
მეთოდეფს
მეთოდი
მეთოდით
მეთოდის
მეთოდისტეფი
მეთოდიშ
მეთოდური
მეთხოზუდეს
მეთხოზჷ
მეთხოზჷნა
მეი
მეიერიშ
მეიზი
მეინარდ
მეისონი
მეისონიშ
მეისონს
მეისონქ
მეკარე
მეკენჯი
მეკვარჩხანე
მეკლენბურგ
მეკონ
მეკონგი
მეკონგიშ
მეკონეფი
მეკონეფიშ
მეკონეფს
მეკონი
მეკონიშ
მეკონს
მეკოროცხილო
მეკოროცხუათ
მელ
მელა
მელამოსე
მელამოსეთ
მელამოსექ
მელამოსეშ
მელანეზია
მელანეზიარეფი
მელანეზიას
მელანი
მელანქოლიური
მელარენიშ
მელახი
მელახის
მელახიშ
მელახიშე
მელახშა
მელახშახ
მელახშე
მელბურნი
მელბურნიშ
მელე
მელენბაიკალეთიშ
მელვინ
მელილია
მელინდა
მელისა
მელიტონ
მელიქიშვილი
მელონიშ
მელფა
მემარსხუაფალი
მემარქვალე
მემარძგვანე
მემბრანა
მემბრანას
მემბრანაშ
მემედ
მემენტო
მემკვიდრეობა
მემორიალი
მემორიალურ
მემორიალური
მემუარეფი
მემუარეფიშ
მემუარეფს
მემფისი
მენა
მენაბდე
მენარღება
მენაღებჷ
მენდალეფი
მენდალი
მენდალით
მენდალისტი
მენდალიშ
მენდალს
მენდელეევი
მენდელეევიშ
მენდელეევქ
მენდესი
მენდი
მენდოსა
მენდოსინოშ
მენეჯერი
მენეჯერიშ
მენეჯერო
მენეჯმენტიშ
მენი
მენინგი
მენინგიტი
მენინგიტიშ
მენიშ
მენოღალე
მენოღალეეფი
მენოღალეეფიშ
მენოღალეეფს
მენოღალეეფშო
მენოღალეთ
მენოღალეს
მენოღალეფი
მენოღალექ
მენოღალეშ
მენოღალობა
მენოღალობაშ
მენსფილდი
მენტება
მენტებას
მენური
მენშევიკეფიშ
მენცარ
მენცარეფი
მენცარეფიშ
მენცარეფს
მენცარეფქ
მენცარეფშო
მენცარი
მენცარიშ
მენცარიშე
მენცარობა
მენცარობათ
მენცარობას
მენცარობაქ
მენცარობაშ
მენცარობაშო
მენცარობეფი
მენცარობეფიშ
მენცარობეფს
მენცარს
მენცარულ
მენცარული
მენცარულო
მენცარქ
მენძელ
მენძელენდჷ
მენძელი
მენძღვიებული
მენჭაფილი
მენჯი
მენჯიშ
მეორე
მეორინჯალა
მეორინჯალას
მერაბ
მერანი
მერგარჰიშ
მერე
მერედით
მერეთ
მერეთი
მერეხანს
მერვედე
მერთა
მერთჷ
მერი
მერია
მერიაშ
მერიდა
მერიდაშ
მერიდიანეფი
მერიდიანი
მერიდიანიშ
მერიდიანს
მერიდიანული
მერიე
მერილ
მერილენდი
მერილენდიშ
მერილინ
მერიმე
მერინა
მერინათ
მერინას
მერინაფილი
მერინაშ
მერინელი
მერის
მერიქ
მერიშ
მერკე
მერკებული
მერკეთ
მერკური
მერკურიშ
მერმენწა
მერმენწეფიშ
მერო
მერსხილ
მერსხილი
მერსხილიე
მერსხუაფა
მერსხუაფათ
მერსხუაფაშ
მერსხუაფილი
მერფი
მერქა
მერქას
მერქაშ
მერჩულე
მერჩქვანელი
მერჩქინელ
მერჩქინელი
მერჩქინელიე
მერჩქინელქ
მერცხუაფილი
მერხველერი
მეს
მესა
მესაკრავეები
მესალა
მესამე
მესვარილი
მესი
მესიე
მესიექ
მესიეშ
მესინა
მესის
მესიშ
მესიშა
მესიშახ
მესიშე
მესიშო
მესიჩი
მესკალობაშ
მესმის
მესოამერიკული
მესოპოტამია
მესოპოტამიას
მესოპოტამიაშ
მესტია
მესტიაშ
მესტიაჭალაშ
მესტიის
მესტო
მესხეთიშ
მეტ
მეტაბოლიზმი
მეტალ
მეტალეფიშ
მეტალი
მეტალიკა
მეტალიკას
მეტალიკაქ
მეტალიკაშ
მეტალიშ
მეტალურგია
მეტალურგიაშ
მეტალურგიული
მეტებაშ
მეტებული
მეტელუს
მეტეოროლოგი
მეტეოროლოგია
მეტეოროლოგიას
მეტეოროლოგიაშ
მეტეოროლოგიურ
მეტეოროლოგიური
მეტეხიშ
მეტი
მეტიე
მეტის
მეტისეფი
მეტისი
მეტო
მეტრ
მეტრა
მეტრათ
მეტრას
მეტრაშ
მეტრაშახ
მეტრაშე
მეტრეველი
მეტრი
მეტრიან
მეტრიე
მეტრით
მეტრის
მეტრიშ
მეტრიშახ
მეტრიშე
მეტრო
მეტროპოლია
მეტროპოლიას
მეტროპოლიაშ
მეტროპოლიტენეფიშ
მეტროპოლიტენი
მეტროპოლიტენიშ
მეტროპოლიურ
მეტროპოლიური
მეტროტრამი
მეტროშ
მეტრული
მეტრშახ
მეტჯოხო
მეტჯოხოთ
მეულა
მეულირი
მეურე
მეურედჷ
მეურენა
მეურნალაშ
მეურნეობაშ
მეურნობა
მეურნობას
მეურნობაშ
მეურნობაშო
მეურს
მეურსჷ
მეურც
მეუსაჯეს
მეუღჷ
მეუჯღუნჷ
მეფე
მეფეთა
მეფის
მექა
მექანიზმეფი
მექანიზმეფს
მექანიზმი
მექანიზმის
მექანიზმიშ
მექანიკა
მექანიკას
მექანიკაშ
მექანიკოსი
მექანიკურ
მექანიკური
მექაშ
მექსიკა
მექსიკარეფი
მექსიკარი
მექსიკას
მექსიკაქ
მექსიკაშ
მექსიკაშა
მექსიკაშე
მექსიკო
მექსიკოს
მექსიკოშ
მექსიკური
მეღანკუა
მეღება
მეღებათ
მეღებას
მეღებაშ
მეღებაშახ
მეღებულ
მეღებული
მეღებულქ
მეღვინალაშ
მეღვინობაშ
მეშანილობა
მეშანილობაშ
მეშარე
მეშარეეფი
მეშარეეფიშ
მეშარეეფს
მეშარეს
მეშარეშ
მეშქაშალა
მეშქაშალათ
მეშქაშალას
მეშქაშალაშ
მეშქაშალეფი
მეშქაშალეფით
მეშქაშალეფიშ
მეშქაშალეფს
მეშქაშობათ
მეშხურეშ
მეშჰედი
მეჩამა
მეჩამათ
მეჩამას
მეჩამაშ
მეჩამილი
მეჩანს
მეჩას
მეჩეთი
მეჩეთის
მეჩეთიშ
მეჩეს
მეჩხოლარობა
მეჩხოლარობას
მეჩხოლარობაშ
მეჩხომეეფიშ
მეჩხომობა
მეჩჷ
მეცენატი
მეცნ
მეცნიერება
მეცნიერებათა
მეძენა
მეძენას
მეძენაშ
მეძობელ
მეძობელი
მეძობელო
მეძჷ
მეწონჷ
მეწურაფა
მეწურაფათ
მეწურაფას
მეწურაფილი
მეჭარ
მეჭარჷ
მეჭედა
მეჭედალა
მეჭედალათ
მეჭედალაშ
მეჭედას
მეჭედელი
მეჭედელო
მეჭირინაფა
მეჭირინაფას
მეჭირინაფაშ
მეჭირინაფეფიშ
მეჭირინაფილი
მეჭყვიდჷ
მეჭყორდჷ
მეხ
მეხვარჷ
მეხიკო
მეხიკოს
მეხიკოშ
მეხოლ
მეხოლაფირი
მეხოლაფირო
მეხჷ
მეხჷრჩანს
მეჯიანთ
მეჯინა
მეჯინათ
მეჯინას
მეჯინაშ
მეჯინელო
მეჯინეფიშ
მეჯინეფს
მეჯლისი
მეჯლისიშ
მეჯღუნელ
მეჯღუნელი
მეჯღუნილ
მეჯღუნილი
მეჰმედ
მეჰსანა
მეჸუნა
მეჸუნდეს
მეჸუნდჷ
მეჸუნელო
მეჸუნს
მთა
მთავარი
მთაწმინდაშ
მთიანეთიშ
მთის
მთიულეთიშ
მი
მია
მიანმარი
მიანმარიშ
მიანმარს
მიანჭუ
მიანჭჷ
მიარ
მიარე
მიარეთ
მიარეთასამი
მიარეკათამი
მიარემუდანამი
მიარემუდანობაშ
მიარენერი
მიარენინამი
მიარერიცხუამი
მიარერიცხუანი
მიარეს
მიარეფერამი
მიარეფერუამი
მიარეფერუამობათ
მიარეფერუან
მიარეფერუანი
მიარეფერუანობა
მიარეფერუანობათ
მიარეფუნქციური
მიარეშა
მიარეწანამი
მიარეწანიან
მიარეწანიანი
მიარეხონარუაშ
მიარზებუ
მიარზიენს
მიარზიუ
მიარზუ
მიარონი
მიარსხუაფუ
მიარცხუაფუ
მიაჩამუ
მიაჩას
მიაჩეს
მიაჩჷ
მიაწურუას
მიაჭარუ
მიაჭირინუ
მიაჸუნჷ
მიგელ
მიგელი
მიგრაციაქ
მიგრაციაშ
მიგუ
მიგჷ
მიდართეს
მიდართჷ
მიდაჯღონეს
მიდაჯღონჷ
მიდაჸუნჷ
მიდგა
მიდგარენ
მიდგარენი
მიდგარენქ
მიდგასჷთ
მიდგაშ
მიდეღჷ
მიდეშარჷ
მიდეჸონეს
მიდეჸონჷ
მიდლ
მიდლსექსი
მიდნაპურიშ
მიდუღეს
მიელინიშ
მიენიჭჷ
მიერ
მიზეზი
მიზო
მიზორამი
მიზორამიშ
მიზოშ
მით
მითეფი
მითეფიშ
მითეფს
მითი
მითითებული
მითინ
მითინი
მითინს
მითიური
მითიღჷ
მითიშ
მითმეურდჷ
მითმეურს
მითმეურც
მითმიარსხუ
მითმიარსხუაფუ
მითმიაჩამუ
მითმიოგანდჷ
მითმიოგანც
მითმიორსხუანს
მითმიოჭირინუანს
მითმირჩქინანა
მითმურსხუანს
მითოლოგია
მითოლოგიათ
მითოლოგიას
მითოლოგიაშ
მითოლოგიაშე
მითოლოგიურ
მითოლოგიური
მითოღალა
მითოღალას
მითოღალირი
მითუ
მითური
მითხობელანა
მითხუ
მიიგჷ
მიირდჷ
მიკაელ
მიკართჷ
მიკელონი
მიკელსენი
მიკი
მიკილჷ
მიკიჭოფჷ
მიკმაჭოფალი
მიკმინჭანს
მიკმიჭოფანს
მიკნაჭარა
მიკნაჭარას
მიკნაჭარეფი
მიკობუნაფილი
მიკოლაივი
მიკოლაივიშ
მიკორთჷ
მიკორინუ
მიკორსხილი
მიკორულაფაშ
მიკოწონაფაშ
მიკოჭარილი
მიკოჯინათ
მიკრო
მიკრობიოლოგი
მიკრობიოლოგია
მიკრობიოლოგიაშ
მიკრონეზია
მიკრონეზიაშ
მიკროორგანიზმეფი
მიკროორგანიზმეფიშ
მიკროპროცესორი
მიკრორეგიონ
მიკრორეღმული
მიკროსკოპი
მიკროსკოპიაშ
მიკროსკოპით
მიკროსკოპის
მიკროსკოპიშ
მიკროსკოპულ
მიკროსკოპული
მიკულაშ
მილ
მილა
მილანი
მილანიშ
მილანკოვიჩი
მილანს
მილანქ
მილანშა
მილარე
მილენიუმიშ
მილერ
მილერი
მილერიშ
მილეს
მილეტი
მილი
მილიარდ
მილიარდერი
მილიარდი
მილიარდის
მილიარდიშ
მილიარდშახ
მილიარდშე
მილიკენი
მილიკენქ
მილიკი
მილიონ
მილიონამი
მილიონერი
მილიონი
მილიონიანი
მილიონიშ
მილიონიშე
მილიონობათ
მილიონს
მილიონშა
მილიონშახ
მილიონშე
მილიშ
მილოშ
მილს
მილტონ
მილტონი
მილშტეინი
მიმალ
მიმალი
მიმალობა
მიმალობაბორჯის
მიმალობაშ
მიმალუობა
მიმალუობაბორჯის
მიმალუობაშ
მიმართ
მიმარსხუაფალ
მიმარსხუაფალი
მიმაღებუ
მიმოულას
მიმოულაშ
მიმოულაშა
მიმოულაშე
მინ
მინალი
მინალწკჷმა
მინაჟი
მინარეთი
მინას
მინაულარი
მინგელა
მინგეჩაური
მინგეჩაურიშ
მინდა
მინდანაო
მინდანაოს
მინდანაოშ
მინდორი
მინდორიშ
მინდორს
მინერალეფიშ
მინერალი
მინერალურ
მინერალური
მინესოტა
მინესოტაშ
მინი
მინიმალური
მინიმუმ
მინიმუმი
მინისტრ
მინისტრეფი
მინისტრეფიშ
მინისტრეფს
მინისტრი
მინისტრის
მინისტრიქ
მინისტრიშ
მინისტრო
მინიშ
მინმურს
მინორთინაფაშ
მინორი
მინოქსიდი
მინს
მინსკი
მინსკიქ
მინსკიშ
მინულა
მინულაშ
მინუშეფი
მინუშეფიშ
მინუშეფს
მინუში
მინუშის
მინუშო
მინუციუს
მინშა
მინჩა
მინწყუ
მინჯე
მინჯეეფი
მინჯეს
მინჯეშ
მიო
მიოგამალეფი
მიოგამალეფიშ
მიოგამალი
მიოგანდეს
მიოგანდჷ
მიოგანს
მიოგორეს
მიოგორესჷნ
მიოგორუ
მიოგორუანს
მიოგორუეს
მიოგორჷ
მიოგჷ
მიოდინეს
მიოდინუ
მიოდინჷ
მიორინუ
მიორსხუანდჷ
მიორსხუანს
მიორჩქუდეს
მიორჩქუდჷ
მიორჩქჷ
მიორჩქჷდეს
მიორჩქჷდჷ
მიორჩქჷნა
მიორცხუანს
მიორხველანა
მიორხველუანა
მიოტუ
მიოულარი
მიოღებელი
მიოღებელო
მიოშანუანს
მიოჩქუდეს
მიოჩქუდჷ
მიოჩქუნა
მიოჩქჷ
მიოჩქჷდეს
მიოჩქჷნა
მიოცენს
მიოწურაფუ
მიოწურუ
მიოწურუანს
მიოჭარანა
მიოჭირინაფალო
მიოჭირინდუ
მიოჭირინეს
მიოჭირინუ
მიოჭირინუანს
მიოჭირინუეს
მიოჭირინუნ
მიოჭირინჷ
მიოხე
მიოჯინი
მიოჯინუ
მიპალეს
მიპალუ
მიპალუანა
მიპალუაფუ
მიპალჷ
მირან
მირანდა
მირაჟი
მირგატიშ
მირდუ
მირდჷ
მირზა
მირზახანი
მირკჷ
მირჩქინანა
მირჩქინანდჷ
მირჩქინანს
მირჩქინეს
მირჩქინუაფუ
მირჩქინუაფუდჷ
მირჩქინუაფჷ
მირჩქინჷ
მის
მისაქციელიშ
მისი
მისია
მისიათ
მისიას
მისიაშ
მისიეფიშ
მისივე
მისიონერეფი
მისიონერეფქ
მისიონერი
მისის
მისისიპი
მისისიპის
მისისიპიშ
მისტერ
მისტიკური
მისტრალი
მისტრალიშ
მისტრალქ
მისური
მისურის
მისურიშ
მისურჷ
მისჷთ
მიტოქონდრია
მიტჩელი
მიუზიკლი
მიუზიკლის
მიუკუჯინალო
მიულერი
მიუნსტერიშ
მიუნხენი
მიუნხენიშ
მიუნხენს
მიურეი
მიქა
მიქაელ
მიქელანჯელო
მიქელაძე
მიქიელ
მიქჷთ
მიღას
მიღებუაფუ
მიღეს
მიღუ
მიღჷ
მიღჷნ
მიშ
მიშათინუაშ
მიშაკათაფუწკჷმა
[...]
