!
"
#
##0
##1
##10
##11
##12
##13
##14
##15
##16
##17
##18
##19
##2
##20
##21
##22
##23
##24
##25
##26
##27
##28
##29
##3
##30
##31
##32
##33
##34
##35
##36
##37
##38
##39
##4
##40
##41
##42
##43
##44
##45
##46
##47
##48
##49
##5
##50
##51
##52
##53
##54
##55
##56
##57
##58
##59
##6
##60
##61
##62
##63
##64
##65
##66
##67
##68
##69
##7
##70
##71
##72
##73
##74
##75
##76
##77
##78
##79
##8
##80
##81
##82
##83
##84
##85
##86
##87
##88
##89
##9
##90
##91
##92
##93
##94
##95
##96
##97
##98
##99
$
%
&
'
(
)
*
+
,
-
.
/
0
00
000
0000
001
002
003
004
00400
005
006
007
008
009
01
010
011
012
013
014
015
016
017
018
019
02
020
021
022
023
025
026
028
029
03
030
031
032
034
035
036
038
04
040
043
044
045
046
047
048
049
05
050
051
052
053
054
055
056
0568
057
058
06
060
061
063
066
067
068
069
07
070
072
073
076
078
08
080
083
085
086
087
088253
09
090
091
093
096
097
099
1
10
100
1000
10000
100000
1001
1002
1003
1006
1007
1008
1009
101
1010
1012
1013
1014
1016
102
1020
1024
1027
1029
103
1030
1032
1036
1037
104
1040
1043
1045
1047
1048
1049
105
1050
1054
1058
1059
106
1060
1061
1066
107
1070
1072
1075
1077
108
1080
1082
1085
1087
109
1090
1098
1099
11
110
1100
1101
1102
111
1110
1111
1112
1118
1119
112
1120
1122
113
1130
1135
114
1140
1142
1143
115
1150
1153
1154
1156
1159
116
1160
1165
117
1170
118
1180
1185
1186
1189
119
1190
1191
1193
1194
1198
1199
12
120
1200
1201
1202
1204
1209
121
1210
1213
1216
1219
122
1220
1222
1223
1225
1227
1229
123
1230
1231
1234
1235
1236
1238
124
1240
1245
125
1250
1254
1256
1258
126
1260
1261
1263
1265
1266
1268
127
1270
1274
1276
1279
128
1280
129
1290
1291
1296
1299
13
130
1300
1301
1302
1304
1307
131
1310
1313
132
1320
1321
1323
1324
1327
133
1330
1332
1334
1335
1337
134
1340
1341
1342
1343
1349
135
1350
1352
136
1360
1362
1368
1369
137
1370
1374
1377
138
1380
1382
1384
1386
1389
139
1390
1392
1396
1398
1399
14
140
1400
1401
1402
1405
1406
1409
141
1410
1413
1414
1415
1417
142
1420
1422
1429
143
1430
1431
1435
1438
144
1440
1447
1449
145
1450
1452
1453
1454
146
1460
1461
1462
1469
147
1470
1471
1472
1476
148
1480
1483
1484
1485
1488
149
1490
1491
1492
1493
1494
1495
1497
1498
1499
15
150
1500
1501
1502
1503
1504
1506
1507
1509
151
1510
1511
1512
15128012
1513
1515
1519
152
1520
1521
1523
1524
1526
1527
1529
153
1530
1532
1533
1534
1535
1536
1537
154
1540
1541
1542
1543
1546
1547
155
1550
1551
1552
1553
1555
1556
1557
1558
1559
156
1560
1561
1564
1566
1569
157
1570
1571
1572
1574
1577
1578
158
1580
1582
1583
1584
1585
1588
159
1590
1591
1592
15924
1597
1598
1599
16
160
1600
1601
1602
1603
1604
1605
1606
1607
1608
1609
161
1610
1611
1612
1614
1615
1616
1618
1619
162
1620
1621
1623
1624
1625
1626
1627
1628
1629
163
1630
1631
1632
1633
1634
1635
1636
1638
1639
164
1640
1641
1642
1643
1644
1645
1646
1648
1649
165
1650
1651
1652
1653
1654
1655
1656
1657
1658
1659
166
1660
1661
1662
1664
1665
1666
1667
167
1670
1671
1672
1674
1675
1676
1677
1678
1679
168
1680
1681
1682
1683
1685
1689
169
1690
1691
1692
1693
1694
1695
1696
1697
1698
1699
17
170
1700
1701
1702
1703
1704
1705
1706
1707
1708
1709
171
1710
1711
1712
1713
1715
1716
1717
1719
172
1720
1721
1722
1723
1724
1725
1727
1728
1729
173
1730
1731
1732
1733
1734
1735
1736
1737
1738
174
1740
1741
1742
1743
1744
1745
1747
1748
1749
175
1750
1751
1752
1753
1754
1755
1756
1757
1758
1759
176
1760
1762
1763
1764
1765
1766
1767
1768
1769
177
1770
1771
1772
1773
1774
1775
1776
1777
1778
1779
178
1780
1781
1782
1783
1784
1785
1786
1787
1788
1789
179
1790
1791
1792
1793
1794
1795
1796
1797
1798
1799
18
180
1800
1801
1802
1803
1804
1805
1806
1807
1808
1809
181
1810
1811
1812
1813
1814
1815
1816
1817
1818
1819
182
1820
1821
1822
1823
1824
1825
1826
1827
1828
1829
183
1830
1831
1832
1833
1834
1835
1836
1837
1838
1839
184
1840
1841
1842
1843
1844
1845
1846
1847
1848
1849
185
1850
1851
1852
1853
1854
1855
1856
1857
1858
1859
186
1860
1861
1862
1863
1864
1865
1866
1867
1868
1869
187
1870
1871
1872
1873
1874
1875
1876
1877
1878
1879
188
1880
1881
1882
1883
1884
1885
1886
1887
1888
1889
189
1890
1891
1892
1893
1894
1895
1896
1897
1898
1899
19
190
1900
1901
1902
1903
1904
1905
1906
1907
1908
1909
191
1910
1911
1912
1913
1914
1915
1916
1917
1918
1919
192
1920
1921
1922
1923
1924
1925
1926
1927
1928
1929
193
1930
1931
1932
1933
1934
1935
1936
1937
1938
1939
194
1940
1941
1942
1943
1944
1945
1946
1947
1948
1949
195
1950
1951
1952
1953
1954
1955
1956
1957
1958
1959
196
1960
1961
1962
1963
1964
1965
1966
1967
1968
1969
197
1970
1971
1972
1973
1974
1975
1976
1977
1978
1979
198
1980
1981
1982
1983
1984
1985
1986
1987
1988
1989
199
1990
1991
1992
1993
1994
19942
1995
1996
1997
1998
1999
2
20
200
2000
2001
2002
2003
2004
2005
2006
2007
2008
2009
201
2010
2011
2012
2013
2014
2015
2016
2017
2018
2019
202
2020
2021
2022
2025
203
204
205
2050
206
207
208
209
21
210
2100
210806013
211
212
213
214
215
216
217
218
219
22
220
2200
221
222
223
224
225
226
227
228
229
23
230
2300
231
232
233
234
235
236
237
238
239
24
240
2400
241
242
243
244
245
246
247
248
2481
249
25
250
2500
251
252
253
254
255
256
257
258
259
26
260
2600
261
262
263
264
265
266
267
268
269
27
270
2700
271
272
273
274
275
2750
276
277
278
279
28
280
2800
281
282
283
284
285
286
287
288
289
29
290
2900
291
292
293
294
295
296
297
298
299
3
30
300
3000
301
302
303
304
305
306
307
308
309
31
310
3100
311
312
313
314
315
316
3166
317
318
319
32
320
3200
321
322
323
324
325
326
327
328
329
33
330
331
332
333
334
335
336
337
3379
338
339
34
340
3400
341
342
343
344
345
346
347
348
349
35
350
3500
351
352
353
354
355
356
357
358
359
36
360
3600
361
362
363
364
365
366
367
368
369
37
370
371
372
373
374
375
376
377
378
379
38
380
381
382
383
384
385
386
387
388
389
39
390
391
392
393
394
395
396
397
398
399
4
40
400
4000
401
402
403
404
405
406
407
408
409
41
410
411
412
413
414
415
416
417
418
419
42
420
421
4217
422
423
424
425
426
427
428
429
43
430
431
432
433
434
435
436
437
438
439
44
440
4400
441
442
443
444
445
446
447
448
449
45
450
4500
451
452
453
454
455
456
457
458
459
46
460
461
462
463
464
465
466
467
468
469
47
470
471
472
473
474
475
476
477
478
479
48
480
481
482
483
484
485
486
487
488
489
49
490
491
492
493
494
495
496
497
498
499
5
50
500
5000
501
502
503
504
505
506
507
508
509
51
510
511
512
513
514
515
516
517
518
519
52
520
521
522
523
524
525
526
527
528
529
53
530
531
532
533
534
535
536
537
538
539
54
540
541
542
543
544
545
546
547
548
549
55
550
551
552
553
554
555
556
557
558
559
56
560
561
562
563
564
565
566
567
568
569
57
570
571
572
573
574
575
576
577
578
579
58
580
581
582
583
584
585
586
587
588
589
59
590
591
592
593
594
595
596
597
598
599
6
60
600
6000
601
602
603
604
605
606
607
608
609
61
610
611
612
613
614
615
616
617
618
619
62
620
621
622
623
624
625
626
627
628
629
63
630
631
632
633
634
635
636
637
638
639
64
640
641
642
643
644
645
646
647
648
649
65
650
651
652
653
654
655
656
657
658
659
66
660
661
662
663
664
665
666
667
668
669
67
670
671
672
673
674
675
676
677
678
679
68
680
681
682
683
684
685
686
687
688
689
69
690
691
692
693
694
695
696
697
698
699
7
70
700
7000
701
702
703
704
705
7050
706
707
708
709
71
710
711
712
713
714
715
716
717
7174
718
719
72
720
721
722
723
724
725
726
727
728
729
73
730
731
732
733
734
735
736
737
738
739
74
740
741
742
743
744
745
746
747
748
749
75
750
7500
752
753
754
755
756
757
758
759
76
760
761
762
763
764
765
766
767
768
769
77
770
771
772
773
774
775
776
777
778
779
78
780
781
782
783
784
785
786
787
788
789
79
790
791
792
793
794
795
796
797
798
799
8
80
800
8000
801
8014
802
8021
803
804
805
806
807
808
809
81
810
811
812
813
814
815
816
817
818
819
82
820
821
822
823
824
825
826
827
828
8289
829
83
830
831
832
833
834
835
836
837
838
839
84
840
841
842
843
844
845
846
847
848
849
85
850
851
852
853
854
855
856
857
858
859
86
860
8601
861
862
86218
863
864
865
866
867
868
869
87
870
871
872
873
87348
875
876
876175
877
878
879
88
880
881
882
883
884
8848
885
886
887
888
889
89
890
891
892
893
894
895
896
897
898
899
9
90
900
9000
901
902
903
904
905
906
907
9070
908
909
91
910
911
912
913
914
916
917
918
919
92
920
921
922
923
924
925
926
927
928
929
93
930
931
932
933
934
935
936
937
939
94
940
941
942
943
944
945
946
947
948
949
95
950
951
952
953
954
955
958
959
96
960
961
962
963
964
965
966
967
968
969
97
970
971
972
973
974
975
976
977
978
979
98
980
981
982
983
984
985
986
987
988
989
99
990
991
992
993
994
9941
995
996
997
998
999
99928
99940
:
;
<
=
>
?
@
\
^
_
`
a
aa
aaa
aaron
ab
abbas
abbey
abbr
abbreviated
abbreviations
abc
abd
abde
abdus
abel
abell
abgerufen
abkhaz
abkhazia
able
ablo
ablon
ablona
ablonas
ablono
abluons
aboriginal
abou
about
above
abraham
abs
absinthe
absolute
abstract
abstracts
abu
ac
acacia
academic
academy
acc
accept
accepted
accepts
access
accessdate
accessed
according
account
accra
accurate
ace
achebe
achensee
achievement
acid
acre
acropolis
across
act
acting
action
active
activities
activity
actor
actors
actual
actually
acueducto
ad
adam
adams
adana
add
adda
addclass
added
adding
addis
addition
additional
additions
additives
addnewline
address
addrow
adds
adelaide
adele
adjacent
admin
administration
administrative
administrator
adobe
adolf
adrian
adriano
advanced
advances
adventure
adventures
advice
advisory
ae
aerial
aerosmith
aeschylus
af
affair
affaire
affairs
affect
afghanistan
africa
african
afrika
afro
after
ag
again
against
agassiz
age
agency
ages
ago
agra
agree
agreement
agricultural
agriculture
ahau
ahead
ahmed
ahmedabad
ahref
ai
aibling
aid
aids
aim
ain
air
airbus
aircraft
aires
airline
airlines
airport
airways
ais
aise
ak
aka
akbar
akhmeta
akkadian
aku
al
alabama
alain
alamos
alan
alaska
alba
albania
albanian
albany
albert
alberta
alberto
albrecht
album
alcaldi
alder
alex
alexander
alexandria
alexis
alfred
alfve
algeria
algorithm
algorithmen
ali
alias
aliases
alice
align
alignbars
alignment
alive
all
alla
allah
allais
allan
alle
allen
allende
alliance
allium
allmovie
allmusic
allmusicguide
allnames
allocine
allow
allowed
allowing
allows
alloys
allpages
allrovi
alma
almaty
almost
alnum
alois
alone
along
alonzo
alp
alpe
alpen
alpes
alpha
alphabet
alphonse
alpina
alpine
alps
already
als
alsace
alsandro
alsek
also
alsos
alt
altai
altavista
alten
alter
alternate
alternative
although
alto
altogether
alumni
always
alzheimer
am
ama
amateur
amazing
amazon
amboro
ambox
amc
amctv
ame
americ
america
american
americana
americans
americas
amerigo
amerika
amiel
amiens
among
amor
amore
amount
amstel
amsterdam
amy
an
ana
anaklia
analysis
analytical
ancestry
anchor
ancient
and
andaman
anderson
andes
andhra
andlist
andorra
andoza
andre
andrea
andreas
andrew
andrews
android
andromeda
andy
ang
angel
angela
angeles
angels
anger
angry
anguria
angus
animal
animals
animated
animation
anime
ankara
ann
anna
annals
anne
annie
anniversary
annotated
announcement
annual
ano
another
answer
answers
ant
antarctic
anthology
anthony
anthracis
anthropology
anti
antigua
antiquity
antoine
anton
antonio
any
anyone
anything
ao
apa
apalachicola
apart
appear
appearance
appearances
appears
appended
appendix
appendmainsnaks
appendqualifiers
appendsnaks
apple
apples
applicable
application
applications
applied
applies
apply
applying
approach
appropriate
approved
approximately
apps
april
aqueduct
ar
ara
arab
arabia
arabic
arabs
aragonite
aral
aramaic
aras
arbor
arc
archa
archaeological
archaeology
archipelago
architectural
architecture
archival
archive
archived
archivedate
archives
archiveurl
arctic
are
area
areas
aren
arena
aretha
arg
argentina
argentine
argnumber
args
argsi
argsk
argsv
argtables
argument
arguments
aria
arial
arias
ariel
aris
arizona
arm
armada
armazi
armed
armenia
armenian
arms
armstrong
army
arnold
around
array
arrow
ars
art
arte
arthur
arti
article
articles
artificial
artikel
artist
artists
artocarpus
arts
artvin
arz
as
asbox
ascii
ashgate
ashley
asi
asia
asian
asiatic
asin
ask
asked
asleep
asp
aspects
aspx
assam
assamese
assemble
assembleoutput
assembly
assert
assessment
assigned
associated
association
assuan
assume
assyrian
ast
asterisk
astrazeneca
astronomical
astronomische
astronomy
astrophysics
asturias
asv
at
ata
atchafalaya
athens
athletes
atholl
atla
atlanta
atlantic
atlas
atom
atomic
atoms
attack
attention
attr
attraction
attractions
attribs
attribute
attributes
au
audi
audio
auf
aufl
auflage
august
augustan
auguste
augustine
augusto
augustus
aur
aus
austin
australia
australian
austria
austrian
austronesian
author
authorities
authority
authorlink
authors
auto
autobiography
autocollapse
automatic
automatically
autonomous
autowikibrowser
auvergne
aux
av
availability
available
avalanche
avant
ave
avec
avengers
average
avery
aviation
avila
aviv
avoid
avril
award
awarded
awarding
awards
away
axel
ay
aymara
ayurveda
ayı
az
azay
azerbaijan
azteca
azərbaycan
b
ba
baati
babel
baby
bacillus
back
background
backlink
backtranslate
backwards
bacon
bad
bafta
bagua
baha
bahamas
bahami
bahasa
bahrain
baidu
baikal
bakhmaro
baku
bal
balance
baldwin
baleares
baleine
balkans
ball
ballantine
baltimore
bamyan
ban
band
bang
bangalore
bangladesh
bank
banknotes
banting
baptiste
bar
barbados
barbara
barbra
barbuda
barc
bardata
bardeen
barnard
barnes
baron
barrett
barrier
barrow
barry
barth
bartsch
bas
base
baseball
based
baseline
basestyle
bashevis
basic
basilica
basin
basketball
basque
bass
bat
batakan
batalha
bath
bathymetry
batman
baton
battle
battles
batumi
bay
bb
bbc
bc
bce
bcfest
bcl
bd
bdfutbol
be
beach
bear
beatles
beautiful
beauty
bec
because
beck
beckett
become
becomes
bed
bedford
bee
beecher
been
before
begin
beginners
beginning
begins
begun
behalf
behavior
behaviour
behind
bei
beijing
beinecke
being
bel
belarus
belfast
belgian
belgium
believe
bell
bella
below
ben
bengal
bengali
benhaddou
benin
benito
benjamin
benke
ber
berber
berkeley
berlin
bermuda
bern
bernard
bernhard
bernhardt
bertha
berthelot
best
bestval
beta
bethe
better
between
beyond
bez
bf
bg
bh
bha
bhimbetka
bhutan
bi
bibcode
bible
biblical
bibliographies
bibliography
biblioteca
bibliothe
bibliotheca
big
bigger
bihar
bike
bilateral
bilbao
bild
bilder
bilgi
bilingual
bill
billboard
billion
bin
binge
bio
biochemistry
biodiversity
biografisch
biographical
biographie
biographies
biography
biological
biologie
biology
bios
biosphere
bird
birds
birmingham
birth
birthday
birthplace
births
bis
bishop
bit
bitstream
biz
bjn
bjørnson
blabbermouth
black
blackhill
blacklist
blacklisting
blackwell
blake
blanc
blanca
blank
blica
blick
blink
block
blog
blood
bloomington
blu
blue
bluegene
blues
bluetooth
bm
bms
bmw
bn
bnf
bo
board
boat
bob
bocelli
bodies
body
bodyclass
bodycontent
boeing
bogota
bohemia
bohlen
bohr
bold
boli
bolivia
bolivian
bomb
bonaparte
bond
bonjour
bonn
book
books
boolean
boom
border
bordered
boris
borjomi
borkum
born
borough
bosch
bosna
bosnia
boss
boston
bot
botanical
both
bots
botswana
bottom
bourbon
bovary
box
boxes
boxing
boxrec
boy
boys
boz
bpg
bpy
br
bracketclose
bracketopen
brackets
brahe
brahma
braille
brain
branch
brasil
braun
brazil
brazilian
bre
break
breaking
breaks
brecht
brewster
brian
brick
bridge
bridges
brief
bright
bring
bristol
britain
britania
britannia
britannica
british
broad
broadcast
broadcasting
broadway
brockhaus
broken
bronte
bronx
brooklyn
brooks
bros
brother
brothers
brown
browning
browser
browsers
bru
bruce
brunswick
bryan
bs
bt
bu
bubalus
bucharest
buck
budapest
buddha
budelberger
buenos
buffalo
buffer
buffhtml
bug
build
building
buildings
built
bulgaria
bullet
bulleted
bulletin
bundesarchiv
bundeskanzler
bureau
burg
burkina
burma
burmese
burns
burroughs
burton
burundi
burusi
bush
business
but
butler
butterflies
butterfly
button
buttons
bw
bwindi
bxr
by
byer
bysen
byzantine
c
ca
caballe
caban
cabin
cabinet
cable
cached
caesar
cafe
cairo
caixa
cajabamba
calabria
calculation
calcutta
calendar
calendars
california
call
called
calling
calls
calmo
caltech
calvin
cambodia
cambridge
came
camelot
camera
cameroon
camp
campaign
campbell
campora
campus
can
canada
canadian
canal
canales
canberra
cancer
candidate
canis
canna
cannon
cannot
canonical
canterbury
cantons
canvas
canyon
cap
cape
capital
capitol
capote
captain
caption
captionstyle
capture
captures
car
caracas
carai
caravaggio
card
cardinal
cards
care
career
cargo
caribbean
carl
carla
carlos
carmen
carnegie
carolina
caroline
carolus
carrera
carroll
carson
carter
casa
case
cases
casey
cash
cast
castan
castello
castelo
castilla
castillo
castle
castles
castro
casus
cat
catadorie
catago
catalog
catalogue
catalonia
catania
catch
catchment
cate
catedral
categori
categoria
categorie
categories
categorization
category
categoryauthoritycontrol
categoryexternallink
cathedral
cather
catherine
catholic
catmore
cats
catstub
caucasian
caucasiennes
caucasus
cause
causes
cave
caviezel
cbc
cbs
cc
cctld
cd
cdma
cdot
ce
ceb
celebration
celentano
cell
cellpadding
cells
cellspacing
celt
celti
celtic
censada
census
cent
center
centered
centers
central
centre
centro
centuries
century
ceremonial
ceres
cern
cervantes
ceylon
cf
cgf
cgi
ch
cha
chad
challenge
chamber
champlain
chance
chandler
chandra
change
changed
changes
changing
chanistskali
channel
chansons
chao
chapel
chapman
chapter
character
characters
charentes
charity
charles
charlie
charlotte
chart
charts
chase
chateau
chazhashi
che
check
checked
checking
checkpage
checks
checkself
checktype
chelsea
chemical
chemie
chemistry
chennai
cher
cheri
chern
chernivtsi
chernobyl
chess
chesterton
chi
chicago
chick
chief
chien
chiesa
child
childhood
children
chile
chilean
chileno
chilenos
chili
china
chinese
chirikba
choice
chokhatauri
choose
chr
chris
christ
christiaan
christian
christine
christmas
christoph
christopher
chrome
chronicle
chronology
chu
church
churches
churchill
ci
cia
cid
cidade
cidades
cie
cilento
cimarron
cincinnati
cine
cinema
cio
circa
circle
circumstances
cita
citakan
citation
citations
cite
cited
citeref
cithakan
cities
citoid
citta
city
citymayors
citypopulation
ciudad
civil
civilization
civilizations
ck
ckb
cke
cl
clade
claim
claims
claimspropertyid
clair
claire
clan
clarendon
clark
clarke
class
classes
classic
classical
classics
classification
classifications
classname
claude
claus
cle
clean
cleanup
clear
cleef
cleveland
click
cliff
clifton
clima
climate
clinic
clinical
clinton
clip
clips
cln
clock
close
closed
closer
closing
clouds
clowan
club
clubs
cluster
clyde
cm
cmyk
cn
cnn
co
coast
coat
coauthors
coca
cocteau
code
codes
codex
cohen
coins
col
cola
colbert
colchicus
cold
cole
colin
collapse
collapsed
collapsible
collected
collection
collections
collective
collectlinks
college
collins
collision
colombia
colon
colonia
colonial
color
colorado
colorarg
colorbox
colore
colors
colosseum
colossus
colour
colours
colspan
columbia
columbus
column
columns
com
combination
combined
come
comedy
comes
comet
comfortably
comic
comics
coming
comma
command
commander
commanders
commands
commas
comment
commentary
comments
commerce
commercial
commission
committee
common
commonly
commons
commonscat
commonskat
commonstemplate
commonwealth
communication
communications
communism
communities
community
como
compact
companion
companions
company
comparative
compare
compared
comparison
competition
compilation
compiled
complete
complex
complexdate
components
composition
comprehensive
compton
computer
computers
computing
comunidad
con
concat
concept
concepts
concerning
concert
concerti
concerto
concise
condition
conditions
conference
confident
config
configuracio
configuration
conflict
conflicting
cong
congo
congress
conjunction
connecticut
connor
conquest
conrad
cons
consequences
conservancy
conservation
considerasexists
considerasredirect
considered
considering
consistent
constance
constellation
constellations
constitution
construction
consultation
contact
contain
contained
container
containing
contains
contemporary
content
contentargs
contentindex
contents
contes
context
continue
continuum
contributions
contributors
control
controversy
convention
conversation
conversations
conversion
convert
converted
converts
cook
cooper
coor
coord
coordinate
coordinates
coords
coordstatements
copenhagen
copperfield
copy
copyright
corazo
core
corea
cori
cornell
corner
corporate
corporation
corps
corpus
correct
correctly
correspondence
corresponding
corresponds
corridor
corruption
corse
corta
corte
corvus
cosmic
cosmology
costa
cotton
could
council
count
countdown
counting
countries
country
countryalias
county
coup
cours
course
court
cov
cover
covers
covid
cquote
cr
craig
crataegus
crazy
crc
cre
create
created
creates
creating
creation
creative
creek
creole
creoles
crespi
crew
crh
crick
crime
criminal
crisis
cristo
critical
criticism
croacia
croatia
croatian
croatie
croix
cromwell
crop
cropped
cross
crossing
crown
crusades
cruz
cry
crystal
cs
csb
cscr
css
csstext
ct
cu
cuba
cuban
cucumis
cuenca
cult
cultura
cultural
culture
cultures
cumhuriyeti
cup
cure
curie
curr
currencies
currency
current
currentdate
currententity
currently
currenttitle
curriculum
cursor
curtis
cushing
custom
cut
cv
cw
cy
cyberbit
cycle
cycles
cyclotron
cyprus
cyrillic
cz
czech
czechoslovakia
d
da
dab
dablink
daddy
dadiani
dados
daily
dakota
dalida
dall
dallas
dam
damaged
dame
damm
dan
dance
dane
daneye
daniel
danish
danny
dans
danube
dark
darkgrey
dartmouth
darwin
das
dash
data
database
databases
dataresourceid
dataset
datastyle
datatype
datavalue
date
dateformat
dateofbirth
dateofdeath
datepart
dates
dati
dato
datos
datura
daughter
dave
david
davies
davis
dawn
day
daylight
days
db
dc
dd
ddd
ddddff
de
dead
deal
dealing
dean
dear
death
deaths
debakey
debate
debug
dec
decade
december
decimal
decimalprecision
decision
declaration
deco
decoration
decorations
decrease
dedicated
deep
deepcopy
deer
def
default
defaults
defense
define
defined
definition
definitions
degas
degli
degree
degrees
dei
del
delacroix
delaware
delbru
deledda
delete
deletion
delfi
delhi
delibes
delimited
dell
della
delle
delorme
delta
delusion
dem
demi
demo
democracy
democratic
demographic
demythicizator
den
denis
denmark
dennis
departamento
department
depend
dependencies
depending
deployment
depp
deprecated
depression
dept
depth
der
des
desarrollo
desc
described
describing
description
descriptions
desert
design
designation
designed
designs
desired
desktop
destination
destinations
destruction
det
detail
detailed
details
detect
detected
detection
determine
detroit
deutsch
deutsche
deutschen
deutscher
deutschland
develop
developed
developer
developers
development
devi
device
devices
devil
devoted
deyna
df
dfg
dfrac
dh
dharma
di
dia
dialect
dialog
diamond
diane
diaries
diario
diary
dic
dick
dict
dictionaries
dictionary
dictionnaire
did
die
diego
dies
dieter
diff
difference
differences
different
difficult
diffs
digit
digital
digitized
digits
dikhhla
dil
din
dio
dioscorea
diplomacy
diputacio
diq
dir
direct
directemar
direction
directly
director
directors
directory
dirty
disable
disables
disambig
disambiguation
disambiguator
disaster
discography
discogs
discouraged
discover
discovered
discoveries
discovery
discusses
discussing
discussion
discussions
disease
diseases
disney
disp
display
displayed
displayfield
displaying
displays
dispname
disptype
dispute
dissertation
distance
distant
distinguish
distribution
district
districts
distrito
ditions
div
divine
division
diya
dj
djobadze
dk
dl
dm
dmoz
dms
dmy
dna
dnr
do
doc
docs
doctor
document
documentary
documentation
documented
documents
does
doesn
dog
doi
doilabel
doine
doing
dois
dokumentation
dollars
dom
domain
dome
domestica
dominica
dominican
don
donald
done
donna
donne
door
doors
dorado
dortmund
dos
douard
double
doubleday
douglas
douro
dover
down
download
downloadable
downloads
downtown
dprec
dq
dr
dragon
drainage
drama
drawings
dre
dream
dreams
drei
drink
drive
drop
drug
drums
dry
drz
dsb
dt
dte
dtxt
dtype
du
dublin
due
duke
duomo
duplicate
dupont
dur
duration
durer
durga
during
dushanbe
dust
dutch
duvall
dv
dvb
dvd
dx
dy
dynamics
dynasty
dz
dzongkha
e
eaba
each
eagle
earl
earliest
early
earth
easier
easily
east
easter
easterdata
eastern
easy
eatlas
ebay
ebooks
ebro
ec
ecatepec
eccles
echoes
eclipse
eco
ecological
ecology
economic
economics
economist
economy
ecosystem
ecowas
ecuador
ed
eda
eddie
edelman
eden
edgar
edge
edinburgh
edit
edited
edith
editing
edition
editions
editor
editorial
editors
edits
edmund
edouard
eds
edu
eduard
education
educational
edulis
edward
edwards
edwin
edłoga
edłoha
ee
eel
eesti
effect
effects
efter
eg
egg
egypt
egyptian
ehrlich
ei
eifel
eiffel
eighth
ein
eine
einer
einfu
einstein
eisenhower
either
el
election
elections
electric
electron
electronic
elektra
element
elements
elias
elie
eliot
elitre
elizabeth
ella
elle
ellen
ellesmere
ellison
else
elseif
elsevier
elsewhere
em
emausbot
embassy
embo
embryology
emedicine
emergence
emergency
emerson
emi
emil
emily
emirates
emmanuel
emmys
emory
emotion
emperor
empire
empires
empty
en
enable
enabled
encarta
enciclope
enciclopedia
enciklopedija
encyclopaedia
encyclopaedic
encyclope
encyclopedia
encyclopedias
encyclopædia
end
endangered
ende
ending
endless
endrika
energy
eng
engels
engine
engineering
engineers
england
englisch
englischen
english
enigma
enough
enrique
ensemble
ensign
ensure
enter
entered
enterprises
entertainment
entete
entire
entity
entityid
entrance
entries
entry
environment
environmental
enzyklopa
eo
ep
epa
ephemeris
episode
equal
equality
equipment
equivalent
er
era
eric
erie
erik
eris
ernest
ernesto
ernst
err
error
errorflag
errors
es
esa
escape
escaped
eslovenia
esoteric
espan
especially
espn
esquema
essay
essays
est
esta
established
estadi
estado
estados
estate
este
estimate
estimates
estonia
estudios
et
eta
etc
eth
ethical
ethics
ethiopia
ethnic
ethnicity
ethnography
ethnologue
etter
etudes
etymology
eu
euge
eugene
euler
euphorbia
eur
euripides
euro
europa
europe
european
eva
evaluation
evans
eve
evelyn
even
evening
evenodd
event
events
ever
everest
every
everybody
everyone
everything
evidence
evil
evolution
evolutionary
ex
exactly
example
exampleargs
examples
excavations
excellence
except
exceptional
exceptions
excerpt
excerpts
exchange
execution
executions
exhibit
exhibition
exil
exist
existing
exists
expand
expanded
expands
expandspecialsqualifiers
expandtemplate
expected
expedition
experience
experiment
experimental
expert
explained
explaining
explanation
explicitly
exploration
explore
explorer
exploring
expo
exposition
express
expression
expressions
ext
extended
extension
extensive
external
extra
extraclasses
extract
extraordinary
eye
eyed
eyes
f
fa
faber
faberge
fabianis
fabio
face
facebook
faces
facsimile
fact
factbook
factor
factors
factory
facts
factsheet
fade
failed
failing
fair
faire
faith
falcon
fall
fallback
falling
falls
false
fame
familia
family
familytree
famname
famous
fan
fansite
fantasy
fao
faq
far
fargs
fashion
faso
fast
faster
fastest
father
favor
fb
fbi
fbtbl
fdate
fdfdfd
fe
feat
feature
featured
features
featuring
feb
february
federal
federation
feed
feedback
feel
feet
felis
felix
female
femme
fen
fenimore
ferdinand
ferguson
fermilab
fernando
ferrara
ferrell
ferry
festa
festival
few
ff
ffac
ffd
ffe
fff
fg
fh
fi
ficha
fiche
fiction
fidel
field
fieldname
fields
fieldsi
fieldsindex
fifa
fifth
fight
fighter
fighters
fighting
figure
figures
file
files
fill
film
filmfare
films
filter
filtered
fim
fin
final
financial
find
finding
findlang
finds
fine
finished
finland
finnish
fire
firefox
first
firstchar
firstdig
fischer
fish
fisher
fisheries
fishing
fiu
five
fix
fixed
fixing
fj
fl
flag
flagcurrent
flagioc
flags
flash
flemish
flesh
flickr
flight
float
floating
flokkur
flood
floods
floor
flora
florence
florida
flory
flow
flowers
flown
flows
floyd
flu
fly
fm
fmt
fo
focus
focusing
folk
follow
followed
following
follows
folsom
fonda
font
fontcolor
fontenay
fonts
fontsize
foo
food
fool
foot
footage
football
footballbox
footer
footnote
footnoted
footnotes
for
forbes
force
forces
ford
forecast
forecasts
foreign
forest
forever
forget
fork
form
formal
format
formatdate
formateastererror
formation
formatlink
formatmessage
formatnum
formatproperty
formats
formatsnak
formatted
formatting
former
forms
formula
formulation
forrow
forsee
forseeargstotable
forster
fort
fortress
fortune
forum
forward
foster
foto
fotos
found
foundation
foundations
founder
fountain
four
fourth
fowler
fox
fr
fra
frac
fragments
frame
frameless
frameonly
frames
franc
france
frances
francesco
francis
francisco
franco
frank
frankfurt
franklin
franz
fraser
fre
fred
frederick
free
freedom
freeman
freeview
french
frequency
frequently
fresno
friday
friedman
friedrich
friend
friends
fritz
from
front
frontier
frp
frr
fru
fruit
fruits
fs
ft
ftp
fu
full
fullname
fullurl
fully
fun
func
function
functionality
functions
fund
fundacio
fundamentalism
funny
fur
further
futbol
future
futures
fy
fyrimynd
g
ga
gabriel
gabriela
gada
gag
gagarin
gaging
gal
galaxy
galen
galerie
galinsky
galle
gallery
gambia
game
games
gamma
gan
gandhi
ganges
gap
garage
garci
garcia
garda
garden
gardens
garrison
gary
gas
gate
gates
gateway
gaulle
gay
gaza
gazeteer
gazette
gazetteer
gb
gbr
gcis
gd
gddr
ge
gecko
geirangerfjord
gelati
gem
gema
gen
gender
gene
genealo
genealogy
general
generally
generate
generated
generation
generic
genes
genetic
genetics
geneva
genitive
genitivusmonthesnm
genius
genre
geo
geodatos
geoffrey
geogra
geographic
geographical
geographie
geography
geohive
geolo
geologic
geological
geology
geomask
geonet
geophysical
georeferenzierung
georg
george
georges
georgia
georgian
georgica
georgie
georgiennes
georgiens
geos
ger
gerald
gerard
gerhard
germain
german
germanwings
germany
gernsback
geronimo
geschichte
gesellschaft
get
getallstatements
getargnums
getargs
getbeststatements
getcommonslink
getcontentlanguage
getcurrentframe
getcurrenttitle
getelementbyid
getentityidforcurrentpage
getexports
getlabelwithlink
getlabelwithoutlink
getmetatable
getopt
getparameters
getparametervalue
getparent
gets
getsingle
getsitelink
getting
gettitle
getty
getvalue
getvaluebyqual
getzoom
ghana
ghost
gi
gia
giant
giarelli
gibbs
gibraltar
gica
gif
gilbert
gina
gion
gional
giorgio
giorno
giovanna
giovanni
gippert
girl
girlfriend
girls
girona
giswiki
giuseppe
give
given
gives
giza
gje
gl
glacier
glaciers
glasgow
glass
glenn
global
globalization
globals
globe
globo
gloria
glory
glossary
gmatch
gmt
gn
gnd
gnu
go
goa
goal
gob
gobierno
god
goddess
goddesses
godfather
gods
goes
gogh
going
gol
gold
golden
goldwyn
golfo
golgi
gone
gonna
goo
good
goodreads
google
gooria
gordon
gorge
gorie
gorskii
got
gott
gov
governance
government
governments
governor
govpubs
govt
gps
gr
grace
gradovi
graham
grammar
gran
grand
grande
grant
grants
graphemica
graphs
grass
grasset
grave
gray
grazia
grazie
grc
great
greater
greatest
greece
greek
greeks
green
greene
greenland
greenwood
gregorian
grenada
grenadines
grid
gridcolor
gross
ground
group
groupn
grouppadding
groups
grove
growth
gru
gruyter
gsm
gsub
gt
gu
gua
guarani
guard
guardian
guatemala
guerra
guest
guevara
guez
guggenheim
guiana
guide
guidelines
guides
guillermo
guinea
guinness
guitar
gujarati
gulf
gun
guns
gustav
gutenberg
guy
guyana
guyandotte
gv
gypten
h
ha
haaretz
haas
haber
had
hadrian
hagia
hahn
hai
hainich
hair
haiti
haitilibre
hale
half
hall
halley
halyomorpha
halys
hamas
hamburg
hamilton
hammett
hammond
han
hand
handbook
handel
handle
hanging
hannah
hannes
hans
hansa
happy
harare
harbor
harbour
harcourt
hard
hardcover
haridwar
harold
harper
harpercollins
harriet
harris
harrison
harry
hart
harvard
harvey
harvnb
has
hasan
hash
hasta
hatnote
haus
havana
have
haven
having
haw
hawaii
hawaiian
hawking
hawthorne
hay
hayes
hazor
hb
hbo
hcalendar
hd
hdtv
he
head
header
headings
health
healthy
hear
heard
heart
heat
heathrow
heaven
heavy
hebrew
hedayat
heep
heidelberg
height
heights
heinrich
held
helen
helena
helicopter
hell
hellenistic
heller
hello
help
helped
helper
henderson
henri
henrik
henry
henryk
hensley
her
herald
herbert
hercegovina
hercule
herder
here
heritage
herman
hermann
hero
heroes
herrialde
herrschaft
herrschaftslegitimierung
herschel
hershey
herzegovina
hesse
hetfield
hex
hey
heyne
hezbollah
hi
hidden
hide
hiero
hieronymus
hif
high
higher
highest
highlight
highlighting
highlights
highly
highway
hiking
hikmet
hikr
hilbert
hill
him
himachal
himalaya
himalayan
hindi
hindu
hinduism
hipgnosis
hiri
his
hispanic
histo
histoire
historia
historian
historic
historical
historie
histories
history
hit
hitch
hitchcock
hitchens
hitler
hits
hizballah
hizbullah
hkg
hl
hlist
hms
ho
hoa
hogan
hogarth
hold
hole
holiday
holidays
holland
hollywood
holmes
holocaust
holt
holy
hombre
home
homepage
homer
homme
homo
homosexuality
honduras
honey
hong
honor
honoring
honour
honours
hoover
hope
hopes
hopkins
hopper
horace
horizon
horizontal
horse
hospital
host
hosted
hot
hotel
hotels
houghton
hour
hours
house
houses
housing
hover
how
howard
however
hr
hrsg
hrung
hrvatska
hsb
hsl
hsltorgb
hsv
ht
htm
html
http
https
hu
hubble
hudson
hue
huechu
huffington
huge
hugh
hughes
hugo
hulk
hum
human
humanities
humber
humboldt
humor
hundred
hundreds
hungarian
hungary
hunt
hunter
hunters
hunting
huntington
huron
hush
huxley
huygens
hw
hy
hyde
hyderabad
hydrologic
hydrology
hylocereus
hymn
hymns
hypertext
i
ia
iafd
ian
iana
iast
iata
iau
ibdb
ibiza
ibm
ibn
ic
icao
icd
ice
iceland
ich
icon
icondata
icons
id
idaho
ide
idea
ideas
identical
identification
identifier
identity
ideology
idioma
ids
idx
ie
ieee
ietf
if
iffhs
ifredirect
ifsubst
ig
igbo
ign
ignacio
ignore
ignored
igor
ii
iii
ik
il
ile
iliad
ill
illinois
illustrated
illustrations
ilo
im
image
imageleft
imagemap
images
imagesize
imaging
imax
imbox
imdb
imeretia
img
immediately
impact
impenetrable
imperial
imperialism
implement
implemented
implements
implications
implied
importance
important
impossible
improve
improved
improving
imt
in
ina
inaugural
inc
inch
include
included
includes
including
increase
increased
incredible
increment
incubator
indeed
indent
indentation
indented
independence
independent
index
indexed
india
indian
indiana
indianapolis
indians
indiatimes
indica
indicate
indicating
indies
indigenous
indirect
individual
individuals
indo
indonesia
industrial
industries
industry
ine
inei
infantry
infinite
influence
influential
info
infoboks
infobox
infocards
infocaseta
infokas
infokaste
infokutija
infookvir
infopolje
informa
informacio
information
informed
informkesto
infotaula
infotech
infrared
inherit
init
initial
initiative
initpos
inland
inline
inlinered
inner
innovation
input
inquiry
insee
insert
inserted
inserts
inside
insignia
instagram
instance
instead
institut
institute
institution
instituto
instruction
instruments
int
inte
integer
integrated
integration
intel
intelligence
intended
inter
interactive
interest
interface
interior
interlanguage
internacional
internal
international
internationale
internet
interpressnews
interpretation
interpretations
interpreted
interscope
interstellar
intervening
interview
interviewed
interviews
interwiki
interwikilinksi
into
introduction
inv
invalid
invariant
invention
inventory
inversed
inversion
invert
investigating
investigation
invisible
invocation
invoke
involved
io
ioa
ioc
ip
ipa
ipac
ipairs
iphone
ipsum
iq
ir
ira
iran
iranian
iranica
iraq
ire
ireann
ireland
irish
irrawaddy
irvine
irving
is
isa
isaac
isbn
isempty
isfdb
isinversed
isla
islabel
islam
islamic
island
islands
islas
isle
isles
isn
isnegative
isnotempty
iso
isocode
israel
israeli
isredirect
issn
issue
issued
issues
istanbul
istoria
it
ita
italia
italian
italiana
italiani
italiano
italic
italicizablekeys
italicize
italicized
italics
italictitle
italo
italy
item
itemid
items
ithaca
itis
its
itself
itv
iu
iucn
iv
ivan
ivo
iw
ix
j
ja
jaa
jack
jackson
jacob
jacques
jahrbuch
jam
jamaica
james
jamii
jammu
jan
jane
january
japan
japanese
jar
jasmund
jason
java
javascript
jay
jazeera
jazyka
jazz
jd
je
jean
jeanne
jeff
jennifer
jeremy
jero
jerome
jersey
jerusalem
jesus
jet
jewish
jews
jhalak
jharkhand
ji
jim
jimmy
jo
joachim
joan
joaquin
job
jobs
joe
joel
johann
johannes
john
johnny
johns
johnson
join
joint
jolly
jon
jonas
jonathan
jones
jong
jordan
jorge
jose
joseph
joshua
josiah
jost
journal
journals
journey
jp
jpeg
jpg
jr
js
json
jstor
ju
juan
judaism
judet
judo
jules
julia
julian
julio
julius
july
jump
jun
june
jung
jungle
jupiter
just
justice
justin
jv
jvc
jwst
k
ka
kaa
kaarangay
kab
kabaddi
kabardian
kadirog
kaiyr
kaliningrad
kanada
kanpur
kansas
karaca
karen
karl
karnataka
kartvelian
kashmir
kate
katego
kategooria
kategori
kategoria
kategorie
kategorija
kategorio
kategoriya
kategory
kategorya
kateguore
kateqoriya
kathmandu
katiguriya
kato
kattegerie
kazakhstan
kazan
kazimierz
kazım
kb
kbd
ke
keats
keeffe
keep
keith
kelahiran
kellner
kelly
kemerovo
ken
kennedy
kenneth
kent
kentucky
kenya
kernel
kerouac
kerrang
kershaw
key
keyboard
keynes
keys
kg
kha
kharagauli
kharkiv
khorana
ki
kids
kigezo
kilavagora
kilby
kill
killed
killing
kim
kind
king
kingdom
kings
kintra
kirche
kirk
kiss
kit
kivu
kk
kl
klad
klagenfurt
klamath
klardjeti
klaus
klug
km
kn
knew
knife
knight
know
knowledge
known
knows
ko
koba
koch
koi
kok
kon
kong
konkani
konrad
koord
korail
korea
korean
koreanname
kosta
kota
koyuncu
kr
kra
krc
kremlin
kro
kroasia
kroatien
kroto
ks
ksh
ku
kultu
kultur
kultura
kulturen
kumakhov
kurosawa
kurt
kurz
kutaisi
kutusu
kuwait
kv
kw
kwame
ky
kyiv
l
la
lab
label
labelled
labelorid
labels
labor
laboratories
laboratory
labs
lac
lad
lady
lago
lagos
laguna
lake
lakes
lakh
lan
lana
land
landdata
lande
landing
landmarks
lands
landsat
landscape
landscapes
landsdata
lane
lang
langcode
langmuir
langobj
langs
language
languageicon
languages
languagescode
langue
langues
langwithname
lanka
lankaran
lanl
laos
lapse
large
larger
largest
lari
larousse
larry
lars
ları
las
laser
lasha
lasker
last
lasthtml
lastnum
lat
late
later
latest
latin
latitude
latn
latter
latvia
latvian
launch
laura
laureate
laurence
laurent
lauterbur
law
lawrence
laws
layer
layne
layout
lazily
lb
lbe
lbl
lc
ldf
le
lead
leader
leaders
leading
league
lean
learn
learned
learning
least
leave
leaves
lebanon
leben
lech
lecture
lectures
led
lederman
lee
left
legacy
legal
legend
legends
lehigh
lei
leiden
leipzig
lemill
len
length
lenin
lenta
leo
leon
leonard
leonardo
leone
leopardus
leopold
ler
les
lesotho
less
lessons
let
leta
letter
letterpos
letters
level
levi
levy
lewis
lexicon
lexicorient
lexikon
lexington
lez
lg
lgesi
li
lia
lib
liberty
libraries
library
libraryutil
librivox
libro
libya
licancabur
license
lick
lie
liechtenstein
lied
lieutenant
life
lifetime
liga
light
lightgrey
lightning
lights
like
likely
limit
limited
limits
lincom
linda
line
lines
lingua
linguistic
linguistics
link
linked
linkeditem
linkfa
linking
linkprefix
links
linus
lion
lionel
lis
lisa
list
lista
liste
listed
listen
lister
listing
listings
listn
listnum
liston
listpadding
lists
listtype
lit
literal
literary
literatura
literature
lithuania
lithuanian
little
lituania
live
lived
liverpool
lives
living
livius
livre
lix
ljubljana
ljubljanica
lk
lke
lkur
ll
llc
ller
lli
llista
lloyd
lmo
ln
lng
lo
loa
load
loaddata
loaded
loc
local
localidad
localval
located
location
locations
lock
locke
lockheed
lockyer
loewe
log
logic
logo
logos
loire
lolita
lon
london
lonely
lonesome
long
longer
longitude
look
looking
looks
loop
lord
lorem
lorena
lorentz
los
loss
lost
lot
lou
loud
louis
louise
louisiana
louvre
love
loved
lovely
lover
loving
lowell
lower
lowercase
lp
lpost
lpre
lpt
ls
lsjbot
lt
ltd
lte
ltg
lu
lua
luca
lucasfilm
lucia
lucida
ludwig
lufthansa
lugano
luigi
luis
luna
lunar
lund
luokka
lupus
luscinia
luther
luxembourg
luxemburg
lv
lviv
ly
lyman
lynch
lyon
lyrics
m
ma
maasai
mac
macdonald
mace
macedonia
macedonian
machine
machines
machirkholi
machu
mackenzie
macmillan
madagascar
madame
made
madidi
madison
madonna
madrid
mag
magazine
magdeburg
maggiore
magi
magic
magna
magnetic
magnificent
magnum
maha
mahal
mai
mail
mailer
mailing
maimonides
main
maine
mainsnak
maint
maintain
maintained
maintenance
major
majority
make
makedata
maker
makes
makewikitexterror
making
makron
mal
malawi
malay
malayalam
malaysia
malcolm
maldives
male
mali
mall
malline
malmo
malta
mama
man
management
managua
manchester
mandatory
mandela
mandir
manet
manferto
manfred
manhattan
manitoba
mann
mannequin
manual
manually
manuel
manuscript
manuscripts
manutd
many
map
mapa
mapframe
mapping
maps
mapuche
mar
mara
marathi
marc
marcel
march
marco
marcoaurelio
marconi
marcus
mare
margaret
margin
margins
marguments
mari
maria
marie
marilyn
marina
marine
mario
marion
maritime
mark
marker
markers
market
marks
markup
marlowe
marmorated
mars
marshall
martha
marti
martin
marvel
marx
marxist
marxists
mary
maryland
mas
maskarea
maskitem
mason
mass
massachusetts
massacre
master
masters
match
matches
matching
matera
material
materials
math
mathematical
mathematics
matisse
matrix
matter
matters
matthew
matthews
maugham
maupassant
maurice
mauritania
max
maximum
maxvals
may
maya
maybe
mayer
maynard
mayor
mayors
mayr
mays
mb
mbblue
mbbutton
mbbuttonsel
mbcontent
mbgreen
mbi
mbik
mbmix
mborange
mbox
mbpairs
mbred
mbtab
mbyellow
mc
mcarthur
mcclintock
mcdonald
mcgraw
mcmillan
mcnally
mcneill
md
mdf
mdy
me
mean
meaning
means
meant
measuring
mechanics
mechanism
med
medal
medalcountry
meddle
medgeo
media
median
mediawiki
medical
medicine
medieval
medinipur
mediterranean
medium
meer
meet
meeting
meets
meeus
megrelian
meizu
melbourne
meles
melody
melville
member
members
memento
memoir
memoirs
memorial
memories
memory
memphis
men
menschheit
mentioned
menu
menudo
menurut
mer
mercer
merge
meridian
merit
merriam
mers
mes
message
messagebox
messages
messenger
messier
met
meta
metaargs
metaargskey
metacritic
metal
metallica
metatable
metaxa
meteorology
method
methods
metric
metro
metropolitan
mexican
mexico
meyer
mez
mf
mfa
mg
mga
mgm
mhatnote
mhr
mi
mia
miami
michael
michel
michelangelo
michelson
michigan
microbiology
microformat
microformats
microsoft
mid
middle
midnapore
midnight
mie
mifflin
might
migration
miguel
mike
mikheil
mil
milano
mile
miles
miletus
military
militia
milk
milky
mille
millennium
miller
millikan
million
mills
milton
milwaukee
min
mind
mindanao
mine
mineral
mingrelian
minh
mini
mining
minister
ministry
minnesota
minor
minority
minute
minutes
miracle
mirage
mirror
mis
mische
miskolc
miss
missing
mission
mississippi
missouri
mistral
mit
mitchell
mix
mjbmr
mk
mkd
ml
mlt
mm
mn
mnras
mo
mobile
mod
mode
model
modello
modelo
models
modern
moderne
modify
modigliani
module
modules
mohammad
mojo
moldova
molecular
molecules
momentary
mon
monaco
monarchs
monarchy
monasteries
monastery
monastyr
monde
mondial
monet
monetary
money
mongolia
monitor
monitoring
monkey
monobook
monolingual
monongahela
monroe
monster
mont
montage
montagne
montana
monte
montenegro
montessori
montevideo
montgomery
month
monthly
monthname
months
montserrat
montsoreau
monument
monuments
moon
moore
more
morgan
mori
morning
morocco
morris
morrison
morse
mort
morton
mosaic
mosambik
moscow
moses
mosque
most
mosteiro
mostly
mother
mothers
moths
motion
motu
mount
mountain
mountains
mourou
mouse
mouth
mouton
move
moved
movement
movements
movie
movies
moving
moz
mozambik
mozambique
mozart
mozilla
mp
mr
mrj
ms
msg
msn
msnbc
mt
mtext
mtr
mtv
mu
much
mudel
mudell
mugabe
muhammad
muhranoff
mujer
muller
multi
multilingual
multimedia
multiple
mumbai
munch
mundo
munich
municipal
municipalidad
municipalities
municipality
municipio
municipios
murder
murray
murrumbidgee
muse
museo
museum
museums
music
musica
musical
musicbrainz
muslim
muslims
mussolini
must
mustaine
mw
mwl
mx
my
myanmar
mycological
mylanguage
myspace
mysteries
mystery
myth
mythology
myths
myv
mzn
n
na
naar
nabokov
nach
nacional
nad
nagara
nagpur
nah
naked
nam
nama
name
named
names
namespace
namespaces
namibia
nan
nancy
nap
napoleon
narod
narrative
narrow
nas
nasa
nasal
nasdaq
nash
nashville
nassau
nastaleeq
nat
nathan
nathaniel
nati
nation
national
nationale
nationalism
nationalpark
nations
native
nato
natural
naturalis
nature
nav
naval
navbar
navbox
navboxdata
navboxes
navframe
navigation
navigational
navy
nazareth
nazi
nazim
nazionale
nb
nba
nbc
nc
ncbi
nchen
ncia
ncipe
ncov
nd
ndataset
nde
ndefaultlanguage
nder
nds
ne
near
nebraska
necessary
ned
nederland
need
needed
needs
negara
negative
nehru
neill
nel
nelson
nemachiyo
nepal
neptune
ner
nested
net
netflix
netherlands
network
networking
networks
neubrandenburg
neumann
neutral
neutrino
nevada
never
new
newclaims
newer
newfoundland
newman
news
newsletter
newspaper
newsreel
newsted
newton
nexis
next
ng
nga
ngo
ngu
ngua
nh
nha
ni
nia
niagara
nic
nica
nicaragua
nice
nicholas
nick
nico
nicolas
nicosia
nie
niels
niger
nigeria
night
nights
nightwish
nih
nike
nil
nilargs
nile
nimos
nin
nine
nineteenth
nino
nio
niu
nixon
nj
nl
nlm
nm
nme
nmonth
nn
nnnnnn
no
noaa
nobel
nobelprize
nobr
nocat
noches
node
nodes
nodyn
noeditsection
noel
noid
nokalakevi
nokia
nolink
nolinks
nom
nome
nominative
nominativeyear
non
none
noop
nooverwrite
nor
noravank
norbert
nord
norfolk
normal
normally
norman
norsk
norte
north
northeast
northern
northwest
norton
norway
norwegian
not
notable
notation
note
notes
nothing
notice
notices
noticias
notify
notoc
notre
nouveau
nouvelle
nov
nova
novalis
novalue
novel
november
novo
now
nowiki
nowrap
np
npan
npc
nplg
npr
nr
nrm
ns
nsk
nt
nta
nts
nu
nubischen
nuclear
nui
null
num
numb
number
numbered
numberof
numbers
numeric
numerical
numerous
numredirects
nums
nunavut
nv
nwt
ny
nytimes
nz
o
oau
obituary
obj
object
objects
oblast
observation
observations
observatory
observer
oc
occupation
occurrence
oce
ocean
oceanografi
oceans
och
ochtina
oclc
oct
october
od
odabade
odd
odes
odi
odyssey
oecd
of
off
offered
office
officeholder
official
officiel
offset
oficial
often
ogg
ographie
oh
ohio
oil
ois
ok
oka
oklahoma
okres
ol
old
oldest
oldstyledate
olga
oli
oliver
ologica
olympia
olympic
olympics
om
oman
ombox
omit
omitted
omniglot
omsk
on
once
one
onepage
ones
online
only
onlycat
onlysourced
onlysrc
onsager
ontario
oo
op
open
opened
opening
opera
operating
operation
operations
operator
operatorname
opinions
oppenheimer
opportunities
opposite
ops
opt
option
optional
optionally
options
optionsk
opus
or
oral
orange
orchestra
order
ordered
ordinal
ordnance
ordsuffix
oregon
org
organic
organisation
organisations
organization
organizations
oriental
orientalis
orientation
orig
origargs
origin
original
originally
origins
orinoco
oriya
oro
orthodox
orthodoxy
orto
os
oscar
osd
osgb
oshki
oslo
ostrava
oswald
other
others
otherwise
ottawa
otto
ottoman
ou
our
out
outer
outidx
outline
outlook
output
outputs
outside
outvalue
over
overall
overflow
overlap
overridden
override
overridecode
overrides
overseas
overview
owen
own
owner
oxford
oxfordshire
oz
oʊ
p
pa
pablo
pacific
padding
padron
page
pagedoc
pagename
pages
pai
paine
painting
paintings
paired
pairs
pajjiz
pakistan
pala
palace
palais
palermo
palestine
palestinian
palgrave
palm
palomar
pam
pan
panaji
panama
panamericana
panic
panjim
panorama
panoramas
panoramic
panoramio
panthera
paolo
pap
paper
paperback
papers
papua
par
para
parachute
parade
paradise
paraguay
paralympic
paralympics
param
parameter
parameters
paramount
params
parc
parco
pardalis
parent
parentfirst
parenthesis
parenthetical
parentonly
parentt
parentv
pargs
paris
park
parks
parliament
parliamentary
parm
parms
parody
parque
parse
parsed
parseddate
parseformattednumber
parseinput
parseparam
parser
parsetitle
part
partial
participants
participated
particular
parties
partners
partnership
parts
party
pascal
pashto
pasio
paso
pass
passed
passiflora
passion
passport
past
pasteur
pat
path
pathfinder
patricia
patrick
patrimonio
patrom
patrono
pattern
patterni
patterns
paul
pauli
pauling
paypal
pays
pbs
pc
pcall
pcd
pcr
pcrf
pdc
pdf
pe
peace
peak
peakware
pearl
pedro
peer
pegasus
pen
penal
pencil
penguin
peninsula
pennsylvania
pentium
people
peoples
peppers
per
perfect
performance
performances
performing
perhaps
period
periodic
periodical
periods
permanent
perov
perry
perseus
persian
person
personal
personalities
perspective
perspectives
peru
perutz
pesaro
pesel
peso
pessoa
peter
petit
petra
petrarch
pg
ph
phabricator
phantom
phase
phasianus
phd
phenomena
philadelphia
philae
philatlas
philip
philippe
philippines
phillips
philosopher
philosophical
philosophy
pho
phoenix
phone
phoneme
phonemes
phong
photo
photocount
photograph
photographic
photographs
photography
photos
php
phrasebook
phrases
phraya
phys
physical
physicist
physics
physiology
pi
piano
piazza
picchu
picea
pick
picto
picture
pictures
pid
piece
pierre
pieta
pieter
pigs
pilot
pilotaje
pinewood
pink
pinochet
pinus
pioneer
pioneers
pipe
piper
pirweli
pisa
piu
pixel
pixelbot
pixels
pk
pl
place
placed
placeholder
places
placing
plain
plainidx
plainlinksneverexpand
plan
planck
planes
planet
planetary
planets
planning
plant
planti
plantilla
plantilya
plants
plate
plath
platinum
plato
play
player
players
plays
playstation
plaza
plc
please
plot
plotarea
plotdata
plural
plus
pluto
pm
pmc
pmid
pms
pnb
png
po
poblacio
pocket
podatki
podcast
poe
poem
poems
poet
poetry
poets
point
points
poitou
pol
pola
poland
polar
pole
poli
police
policies
policy
polio
polis
polish
political
politics
polk
pollock
polska
poly
polynesia
polynesian
pompeii
ponte
poor
pop
pope
popper
popular
population
por
porcupine
port
portable
portail
portal
portion
portland
porto
portrait
portraits
ports
portu
portugal
portugalia
portuguesa
portuguese
portulaca
pos
position
positional
positions
possible
possibledatestring
possibly
post
postal
postcards
poster
postfix
potomac
pour
powell
power
pp
ppp
pr
pra
practical
practice
pradesh
praeger
pragmatism
praha
prairie
prange
prayer
pre
prec
preceding
precision
predecessor
predefinic
predloga
predloz
prefer
preference
preferences
preferids
preferred
prefix
prefixes
prehistoric
prehistory
preliminary
premier
preprocess
preprocessargs
preprocesssinglearg
present
presentation
presented
presents
preservation
preserve
preserves
presidency
president
presidente
presidential
presidents
press
pretty
prev
prevalence
prevalenceclaim
prevent
prevention
preview
previous
previously
pri
price
pride
priestley
primary
prime
primer
primitivism
primo
prince
princess
princeton
principal
principate
principles
print
printing
prints
priorities
priority
prison
private
prize
pro
probably
problem
problems
proceedings
process
processed
processes
processing
produce
produced
producer
produces
product
production
productions
prof
professional
professor
profile
profiles
profit
profusion
prog
program
programme
programming
programs
progress
project
projects
prokudin
prometheus
promoting
promotion
pron
pronunciation
prop
propaganda
proper
properly
properties
property
propertyid
propertyselector
propertyvalueandquals
proposed
props
propval
pros
prose
protect
protected
protection
protein
protest
proto
protocol
proud
provence
provide
provided
provides
province
provinces
provincia
provincial
provincias
provisional
ps
psp
psychology
pt
pu
pub
public
publication
publications
publique
publish
published
publisher
publishers
publishing
publius
pubmed
pueblo
puerto
puja
punjab
puppets
purge
purple
purpose
purposes
pushkar
put
putnam
puzzle
pwn
px
python
pywikipedia
q
qa
qajar
qala
qatar
qid
qinghai
qs
qu
qual
qualid
qualifier
qualifierid
qualifiers
qualifiersqualifiername
quality
quals
quantity
quantum
quarterly
quatre
quatro
que
quebec
quechua
queen
queens
quercus
query
quest
question
questions
qui
quick
quiet
quincy
quo
quotation
quotations
quote
quotes
qval
r
ra
rabat
race
rachel
radiation
radical
radio
radius
rafting
ragnar
railway
rain
rainbow
rajasthan
ralph
ram
ramakrishna
ramanujan
rambler
ran
rand
random
range
rank
rankbyindex
rankbysite
ranking
rankings
ranks
rapa
rare
ras
rate
rather
rating
ratings
raw
rawequal
rawget
rawkeyself
rawset
ray
raya
raymond
rb
rbara
rbol
rd
re
rea
reach
reactions
read
reader
reading
readonly
ready
real
reality
really
reason
reasons
rebel
rebels
received
recent
recently
recherche
recognition
recommended
reconstruction
record
recorded
recording
recordings
records
recreation
rect
recycler
red
redirect
redirects
redirtitle
reduce
redundant
reed
reef
ref
refer
reference
references
referencing
reflections
reflist
reform
refreshlink
refs
regan
regarding
regime
regio
region
regional
regione
regions
register
registration
regordane
regular
regulation
reich
reichstag
reign
reihe
reims
reines
reino
reissued
related
relations
relationship
relative
relativistically
relativity
release
released
releases
relevant
reliable
relief
religion
religions
religious
rellink
reload
remain
remains
rembrandt
remember
remembering
remove
removeblanks
removed
removeidx
removes
renaissance
render
renderdocumentationcategory
rendered
renders
rendertitle
rene
renoir
rep
repeat
repec
replace
replaced
replacement
replaces
reply
report
reports
representing
reprint
reprinted
repu
republic
republican
republik
republika
reqranks
request
requested
requests
requiem
require
required
requires
rer
res
research
reserve
residenz
resistance
resolution
resource
resourcedata
resourcedatas
resourceid
resources
respectively
response
rest
restoration
result
resultclaims
resulting
resultproperty
results
ret
retrieved
return
returned
returns
reuters
rev
reverse
review
reviewed
reviews
revised
revisited
revista
revolution
revolutionary
revue
rewotower
rez
rfc
rg
rgb
rgbtohsl
rgen
rhinolophus
rho
rhode
rhodesia
rhythm
ri
ria
riaa
ric
rica
rice
rich
richard
richards
richet
richter
ricky
rico
ride
rideau
rider
riga
right
rights
rijeka
rika
rime
ring
rio
rioja
rise
rising
risk
rita
rite
river
riverkeeper
rivers
riverside
rivie
rið
rk
rlaag
rm
rmy
rn
rna
ro
roa
road
roald
robert
roberts
robin
roc
rock
rocks
rodin
rodri
rodriguez
roger
rogers
rogue
rojas
roland
role
roles
roll
rolling
rom
roma
roman
romani
romania
romanian
romanos
romans
rome
ron
ronald
ronney
room
roosevelt
root
roots
rosa
rose
roses
ross
roth
rotten
rouge
round
rounded
roundto
route
routledge
row
rowargs
rowcellstyle
rowclass
rowindex
rownum
rows
rowspan
rowstyle
roy
royal
royuwaay
rođeni
rr
rs
rsa
rsssf
rt
rtl
ru
rubens
rudolf
rue
ruhr
rule
rulers
rules
rummad
run
running
rupert
rus
rush
russell
russia
russian
rv
rw
rwanda
ryan
rzburg
s
sa
saachjrupp
sabin
sabine
sablon
sachs
sacramento
sacred
sacu
sadc
safari
safe
safranbolu
saga
sagan
sah
sahara
said
saint
sainte
sakralita
salam
salar
sale
salem
salinger
salk
salmon
salt
salta
salton
salvador
salvaje
salzburg
sam
sambucus
same
samoa
samples
samuel
samurai
san
sand
sandbox
sandison
sandman
sandy
sangamon
sans
sanskrit
sant
santa
santiago
santo
santos
sapiens
sar
sarah
sarajevo
saraswati
sars
sartre
saskatchewan
satellite
saturn
satyananda
saucerful
saudi
saul
savage
save
saving
savseti
say
says
sc
scale
scalemajor
scaleminor
scandinavia
scanned
scene
scenes
scenic
scha
schablon
schabloun
schedule
schema
scheme
schengen
schiele
schlegel
schloss
schmidt
schneider
scholar
scholarly
school
schuster
schwinger
science
sciences
scientific
scientist
scientists
scn
sco
scope
score
scotland
scots
scott
scottish
screen
screenshot
scribner
script
scripts
sculpture
sd
se
sea
seaborg
sean
search
searchable
season
seasons
sebastian
sec
second
seconds
secret
secretary
secrets
section
sections
sector
security
seds
see
seen
seg
seghers
segovia
segu
seine
seit
select
selected
selector
self
selfref
selma
semi
semiconductor
sempre
sen
senate
senatur
sense
senses
sentence
sep
separate
separated
separatism
separator
separators
seps
sept
september
sepulchre
sequence
ser
sera
serbia
serbian
serial
series
serif
serra
server
service
services
ses
session
sessions
set
setmetatable
setranks
sets
setting
settings
settlement
sevan
sevastopol
seven
several
severn
seville
sex
sexo
sexual
sexuality
sexually
sexy
seychelles
sfondo
sg
sh
sha
shablono
shade
shades
shadow
shadows
shah
shakespeare
shangri
shannon
shape
shaping
shapley
share
shared
sharm
shasta
shaw
she
sheet
sheikh
shelley
sherlock
sherwin
shevchenko
shift
ship
shit
shiung
shockley
shoemaker
shopping
shore
short
shortcut
shortened
shorter
shortname
shot
should
show
showing
shown
shows
shqipe
shtml
si
sian
sica
side
sie
siempre
sienkiewicz
sierra
siglo
sign
signed
significant
signs
sikavno
sikhs
sikkim
sil
silence
silent
silesia
silk
silva
silver
simbel
simenon
similar
similarly
simon
simple
simpler
simplicity
simply
sin
sinai
since
sinclair
sinensis
sinfonie
sing
singapore
singer
singh
singing
single
siprus
sir
sistema
sister
sisters
site
sitelink
sites
sitio
sito
situation
six
sixth
size
sj
sjabloon
sk
ska
skabelon
sketch
sketches
skin
skip
sky
skyline
skype
sl
slave
slavery
slavic
sleep
slideshow
slovak
slove
slovenia
slovenian
slovenien
slovenija
sm
small
smaller
smalley
smart
smartphone
smg
smith
smithsonian
smokie
smolensk
smyth
sn
snak
snake
snaks
snaktype
snapdate
snið
snow
so
sobre
soccer
soccerbase
soccerway
social
sociales
socialism
socie
societies
society
sociolinguistic
socrates
sofia
soft
software
sol
solar
soldier
sole
solid
solo
solomon
solution
sombra
some
somebody
someone
somerset
something
sometimes
son
song
songs
sonny
sons
sonuc
sony
soon
sophia
soria
sorry
sort
sortable
sorted
sorting
sortkey
soul
souls
sound
soundcloud
sounds
soundtrack
source
sourcebook
sourced
sourcedata
sourceid
sources
south
southeast
southern
sovie
soviet
sp
space
spacecraft
spacer
spacerside
spaces
spacex
spacing
spain
span
spanish
spe
speak
speakers
speaking
spec
special
species
specific
specifically
specifications
specified
specifies
specify
specifying
spectra
spectrum
speech
speeches
speed
spell
spelling
spencer
sphere
spiral
spirit
spitzer
splat
split
spoiler
sport
sports
spra
sprache
sprachen
sprachwissenschaft
spring
springer
sq
squad
square
sr
src
sri
srn
srpska
srt
ss
sseldorf
ssr
ssss
st
sta
staat
stad
stade
stadion
stadium
stadt
staff
stage
stalin
stammbaum
stamp
stampa
stan
stand
standard
standardization
standards
standing
stanford
stanley
star
stark
starr
stars
start
started
starting
starts
state
stated
statement
statements
states
statesman
stati
static
station
stations
statistical
statistics
statistisches
stato
statoids
stats
statue
status
stay
std
ste
steel
stefan
stein
steinberger
stella
step
stephen
sterling
steve
steven
sti
stica
stiftung
still
stink
sto
stockholm
stone
stones
stop
store
stored
storia
stories
storm
story
stowe
str
strabo
strait
strange
stranger
strategic
strategy
strauss
stream
street
streets
streisand
string
strings
strip
striping
striptonil
stroh
stroke
strong
strongly
strout
structure
structures
struggle
stuart
stub
stubcats
student
students
studia
studies
studio
studios
study
stuttgart
stwo
style
styles
su
sua
sub
subantarctic
subcellsk
subgroup
subgroups
subheader
subject
subpage
subrule
subrules
subscribe
subscription
subst
substituted
substring
subtag
subtags
success
successful
succession
such
sud
sudan
sue
suf
suff
suffect
suffix
suggested
suicide
suitable
suite
sul
suleras
sultan
summary
summer
summit
summitpost
sun
sunday
sunrise
sunset
suomi
sup
super
superimpose
superior
supplied
support
supported
supporting
supports
supreme
sur
sure
surf
surrounding
survey
survival
survive
sus
susan
suttner
sutton
suzi
sv
sve
svenska
svg
sw
swadesh
swami
swan
swap
swaziland
sweden
swedish
sweet
swift
swimming
swiss
switch
switching
switzerland
sword
swz
sy
sydney
sylvia
symbol
symbols
symphony
symposium
syndrome
synonym
synopsis
syntax
synthesis
syracuse
syria
syrian
system
systema
systems
sz
sza
szablon
szl
t
ta
tab
table
tablerow
tables
tablet
tabs
tag
tagcontent
tagname
tags
tahiti
taibo
tail
taipei
taiwan
taj
tajikistan
tak
take
taken
takes
talampaya
tale
tales
talk
talking
talks
talɣa
tamil
tan
tana
tango
tanzania
tao
taos
tara
taras
tarask
target
tarih
tarlac
tas
tashkent
task
tav
taxi
taylor
tbilisi
tbl
tc
tchaikovsky
tchantouria
tcm
td
te
tea
teach
teacher
teaching
team
tears
teau
tech
technical
techniques
technologies
technology
ted
tehran
teide
teimple
tel
telangana
telavi
telegraph
telemundo
telescope
televisa
television
tell
tells
temp
tempel
temperature
templat
template
templatedata
templatepage
templates
templatestyles
temple
temples
temps
ten
tennessee
tennyson
tequila
term
terms
terra
territorial
territories
territory
terror
terrorism
terrorist
terry
teruel
tes
test
testament
tested
testing
tests
tet
tevere
texas
text
textcolor
textoptions
texts
tg
th
tha
thai
thales
thames
than
thank
thanks
that
the
theater
theatre
their
them
themes
then
theodor
theodore
theoi
theor
theoretical
theories
theory
there
therefore
thermodynamics
these
thesis
they
thi
thierry
thin
thing
things
think
third
thirteen
thirty
this
tho
thomas
thompson
thomson
thoreau
those
though
thought
thoughts
thousand
thousands
thread
threat
three
through
throwerror
thu
thumb
thumbnail
thunder
thursday
thus
ti
tiberius
tibet
tica
tico
tidyval
tie
tierra
tiger
tigris
till
tim
tima
time
timeaxis
timeline
times
timesofindia
timor
timothy
tin
tip
tirana
tiscali
title
titlebar
titlecell
titlecolspan
titled
titleobj
titleparts
titles
titlestyle
titus
tj
tjc
tk
tl
tmp
tn
tname
tnavbar
tnt
to
tobago
toc
tocantins
toclevel
toclimit
today
todo
todos
together
toggle
tom
tomatoes
tomb
tome
tomonaga
tomorrow
tonga
tonight
tonumber
tony
too
tool
toolbar
tools
tooltip
top
topic
topics
toplantısı
topo
topographical
tor
toronto
torres
tos
toscana
tostring
tot
total
totals
touch
toulouse
tour
tourism
tourist
tours
tout
toward
towards
tower
towers
town
townes
towns
tp
tpi
tr
tra
trabzon
track
tracking
tracks
trade
tradition
traditional
traditions
tragedy
trail
trailing
trails
train
trainer
training
trans
transactions
transcluded
transcluding
transcript
transfermarkt
transit
transition
transl
translate
translated
translateparameters
translatewiki
translation
translations
translator
translators
translit
transliteration
transparent
transport
transportation
trasee
travel
tre
treasure
treated
treatise
treatment
treaty
tree
trees
trends
trent
tres
treto
tri
trial
tribune
tributaries
tribute
trier
trierer
trim
trimarg
trimmed
trimming
trims
trinidad
trinity
trios
trip
tripura
triumph
trois
trotsky
trouble
troubled
trow
true
truman
trump
trust
truth
try
ts
tsalenjikha
tsalenjixa
tsvetaeva
tt
tu
tuareg
tube
tudes
tune
turismo
turistice
turkey
turkish
turkmenistan
turks
turn
turned
turner
turning
tutorial
tv
tw
twayne
twentieth
twenty
twilight
twin
twitter
two
tx
txantiloi
txt
txtlang
ty
tyler
type
types
typically
typing
tzameti
tze
tırma
tırması
u
ua
uabbr
uc
ucb
ucfirst
ucla
ucv
udate
udm
udmurt
uefa
ufa
ufc
ufo
ug
uganda
uh
uk
ukraine
ukrainian
ul
ule
ulrich
ultimate
ultrafast
ulx
ulxargurl
um
uma
ummagumma
umrli
un
una
unavailable
unbulleted
uncle
uncollapsed
und
undefined
under
underline
understand
understanding
undp
undset
une
unep
unesco
uni
unicode
unidos
unie
union
unique
unit
united
units
univ
universal
universe
universiade
universidad
universita
universitas
universite
universitet
universities
university
univision
unix
unknown
unless
unlike
unnamed
uno
unofficial
unpack
unpublished
unrecognized
unter
untergegangenen
until
unwanted
up
upanishads
update
updated
updates
updike
upload
upon
upper
upright
ups
upside
upton
ur
ural
urban
urbana
urdu
uri
uriah
url
urls
ursula
uruguay
us
usa
usage
usda
use
used
useful
user
userbox
userboxbottom
users
uses
usgs
using
ussr
ustring
usual
usually
ut
utc
utf
utility
uxmal
uyuni
uz
uzbekistan
v
va
vaccine
vai
val
vale
valencia
valeria
valid
validate
valign
valladolid
valle
valley
vals
valsts
value
valuefunc
values
valuta
vamling
vampire
van
vanuatu
var
variable
variables
variant
variants
variety
various
vatican
vault
ve
vec
vega
vegas
veidne
ven
venezia
venezuela
venus
vep
vercelli
verde
verdi
veri
verlag
vermeer
vernon
versailles
version
verso
vertical
very
vi
via
viaf
viburnum
victims
victor
victoria
victorian
victory
video
videos
vie
vienna
viet
vietnam
view
views
vii
viii
viking
vikipe
vikipedio
vikipediya
vila
villa
village
villages
ville
vilnius
vin
vincent
vintage
viola
violence
virgin
virginia
virtual
virus
vis
vishnu
visible
vision
visit
visitor
visitors
vista
visual
visualeditor
vita
vitae
vitoria
viva
vivaldi
vivere
vivir
vivo
vladimir
vls
vo
vocabulary
vocals
voice
voices
void
vol
volcano
volcanoes
volga
volkswagen
vols
volume
volumes
vom
von
vonnegut
vor
vorlage
voronezh
vote
votes
voyage
vr
vrheritage
vro
vs
vstr
vu
vue
w
wa
wait
waiting
waldo
wales
walk
walker
walking
wall
walla
wallace
walls
walt
walter
walton
wan
want
wanted
wantmixture
wants
war
warburg
warfare
warm
warner
warning
warnings
warren
warrior
wars
warsaw
warszawa
was
washington
wat
watch
water
waterfall
waterlevels
waters
watershed
waterways
watson
watt
waugh
wave
waves
way
wayback
wayne
ways
wcmc
we
weather
web
webarchive
webcam
webcitation
webcite
webelements
webkit
weblog
webpage
website
websites
webster
week
weekly
weight
weimar
welat
welcome
well
wells
welt
welty
wembley
wendy
went
were
werner
wesley
west
western
wet
wg
whale
wharton
what
whatamidoing
wheeler
when
where
whether
whewell
which
while
whistler
white
whitelist
whitelisting
whitespace
whitewater
whitman
whittier
who
whole
whose
why
wi
wide
widely
widows
width
wie
wien
wiener
wiesbaden
wife
wiki
wikia
wikibase
wikibooks
wikidata
wikidatacoords
wikify
wikilink
wikilinked
wikilinks
wikimania
wikimapia
wikimedia
wikinews
wikipe
wikipedia
wikipedians
wikipedias
wikipedie
wikipedija
wikiproject
wikiquote
wikis
wikisource
wikispecies
wikitable
wikitext
wikiversity
wikivoyage
wiktionary
wild
wildlife
wiley
wilhelm
will
willa
willard
willem
william
williams
wilson
win
wind
window
windows
wine
wing
wings
winner
winners
winning
winnipeg
wins
winter
wireless
wisconsin
wise
wish
with
within
without
wizard
wmf
wo
wolf
wolfgang
woman
women
won
wonder
wonderful
woordenboek
word
wordpress
words
work
worked
workflow
working
works
world
worlds
worldstatesmen
worldwide
worry
worth
would
wp
wrap
wrapped
wrapper
wrappers
wraps
wright
write
writer
writers
writing
writings
written
wrong
wrote
ws
wu
wurmtal
wuu
www
wye
wysiwyg
x
xeodatos
xh
xi
xico
xii
xiii
xinjiang
xiv
xix
xmf
xml
xojali
xv
xvi
xvii
xviii
xx
xxi
xxii
xxiii
xxiv
xxv
xxviii
xxx
xxxi
xxxii
xxxx
y
ya
yah
yahoo
yale
yammer
yandex
yaroslavl
yat
yazar
yd
ye
year
yearbook
years
yeats
yellow
yemen
yes
yesno
yesterday
yet
yi
ym
ymd
yn
yo
york
yorker
yorkshire
you
young
your
youth
youtube
yr
yu
yue
yugoslavia
yukon
yyyy
yılı
z
za
zadar
zagreb
zaire
zam
zanne
zappa
zar
ze
zea
zealand
zecchi
zee
zeeman
zeit
zeitschrift
zeppelin
zero
zewail
zey
zh
zi
zimbabwe
zindagi
zone
zoo
zoom
zu
zugdidi
zum
zur
{
|
}
~





¡
£
¤
¥
§
¨
©
ª
«
­
®
°
±
²
³
´
µ
¶
·
º
»
¼
½
¾
¿
×
ß
æ
ð
đ
đa
đo
ı
ın
ł
ŋ
ƒ
ɑ
ɒ
ɔ
ə
ɛ
ɜ
ɝ
ɡ
ɨ
ɪ
ɹ
ʃ
ʊ
ʊs
ʌ
ʒ
ʔ
ʕ
ʤ
ʰ
ʲ
ʷ
ʻ
ʼ
ʾ
ʿ
ˈ
ˌ
ː
̀
́
̂
̃
̄
̆
̇
̈
̉
̊
̋
̌
̍
̓
̔
̛
̞
̣
̤
̦
̧
̨
̩
̪
̮
̯
̱
͂
α
ας
β
βικιπαι
γ
γος
δεια
ε
η
θ
ι
κατηγορι
λ
λο
μ
με
ν
νης
ο
ος
π
προ
ρ
ς
τ
της
το
τυπο
υ
χ
ψ
ω
а
абхазии
абхазов
абхазскии
августа
автоматически
автор
агентство
административно
администрации
администрация
азербаи
аи
акад
академии
академия
алания
алекса
александр
алексеи
али
алтаи
ан
ангилал
англ
англии
армении
армения
армян
армяно
археологии
аст
атлас
ахалцихскаго
ахалцихскии
ашаблон
аэропорт
аэропорта
аэропорту
б
баи
без
беларусь
бердяев
бердяева
биография
большая
боржоми
боржомского
боржомскои
брокгауза
брэ
бсэ
будет
был
быть
в
ва
вв
введение
век
века
веласкес
великии
вера
версия
вестник
вид
видео
вики
викиданные
википеди
википедии
википедия
википедија
вишера
вконтакте
владимир
власти
вместе
во
вода
воды
военно
возвращает
вои
вокруг
восток
восточнои
врезки
времени
время
все
всех
вся
вт
второи
вы
выборы
выводит
вызова
вып
выпуск
выходит
вікіпэдыя
г
габечава
газета
гарады
гвахария
гг
где
географические
географических
география
геологии
геологическии
гидрогеологии
гиргвлиани
гл
глинтвеи
го
год
года
годвсе
годзе
година
году
гол
гории
город
города
городов
городская
городского
городскои
государств
государственного
государственное
государственнои
государственныи
гпи
грамматика
григория
грозныи
грузии
грузино
грузинскии
грузинскои
грузию
грузия
губернии
губерния
д
дагестан
данни
данные
данныи
даст
дат
два
движения
ддт
декабря
дел
демократии
день
деньвсе
депутатов
дж
джана
джеи
дзирули
диалекте
дидои
дите
для
дня
до
дом
донецкои
др
древнеи
других
другом
е
европы
его
екатеринбург
енциклопедія
если
есть
ж
же
жизни
жизнь
житие
журнал
з
за
загвар
заглавие
заголовок
заде
закавказском
закон
законов
законодательство
замбия
западъ
записки
застави
земли
знак
значение
значения
золотои
зша
и
иберии
из
изд
издание
издательство
изменения
изъ
или
илл
им
имеет
имеретинскои
империи
имя
индии
индия
иностранных
институт
инструкция
инструмент
инструмента
интервью
инфо
инфокутија
информационныи
информация
ис
искусство
использования
использовать
используется
исследование
истории
историко
исторические
история
их
июля
к
кавказ
кавказа
кавказскии
кавказского
как
календарь
калып
карачаево
карта
картах
картка
карточка
карты
каталоге
категори
категории
категорию
категория
категорија
категорія
катэгорыя
ке
китаи
кн
книга
книги
код
коми
конкани
конференции
которого
которому
которую
которыи
краи
красная
краткии
края
краі
кроме
кругосвет
культура
культуры
кутаискаго
кутаискии
кутаискои
куцкеп
къ
л
левую
лежащихъ
ленина
лента
лет
ли
литература
литературы
лович
ломтатидзе
луганскои
любого
м
магнитогорска
маи
македонија
марр
марра
материалы
мах
мая
мегрельскои
медали
между
международного
международныи
мелива
меликишвили
ментешашвили
место
месторождения
месяц
месяцвсе
метро
минеральнои
минеральных
министерства
мир
мира
мире
михаи
михаил
может
можно
мои
моне
море
москва
москвы
моту
музеи
мурманскои
мы
мысль
міста
н
на
навальныи
награды
название
названии
названия
наи
например
нарадзіліся
народа
народнои
народов
народы
население
населения
наступления
наук
наука
науки
ная
не
независимость
некоторые
нем
необязателен
необязательные
необязательныи
непустого
нет
ни
нныи
но
нов
новая
новеи
нового
новости
новыи
новых
номер
ны
о
об
областеи
области
область
образования
общества
объект
одкб
ожидается
озеро
океан
округа
окт
ола
олимпии
он
она
онлаи
онов
описываемого
опыт
организации
организация
органов
оригинал
осетинскаго
осетинскии
осетия
основы
особенности
от
отв
ответственныи
открытие
отношения
отображения
отъ
официальном
официальныи
оформления
оформленного
очерк
очерки
ошкар
п
па
памятники
памятников
параметр
параметра
параметрах
параметре
параметров
параметры
пензенскои
пер
первыи
переведено
перевод
передаче
перенаправление
песни
петербург
петербургскии
площадь
по
под
подаци
подробнее
позиция
полное
помощью
пород
портал
портале
португалия
после
последнии
правительства
правительство
правую
президент
президента
при
признала
признании
пример
принимает
природа
присвоении
присоединениемъ
про
проблемы
проверка
проект
профиль
путеводитель
пути
путь
р
радио
развитие
развития
раздел
разделе
разыскания
раи
ран
растении
рачинскии
ре
регион
региональныи
ред
режима
река
реки
республик
республика
республики
риа
рныи
родени
россии
россия
ру
рус
русская
русскии
русско
русского
русскои
рф
с
сад
саи
санат
санкт
сб
сборник
св
сверхъ
света
свои
сгнзс
сев
сеи
селении
сервер
серия
сибири
сирии
система
ск
скаго
ская
ские
скии
ско
ского
ское
скои
ском
следует
слов
слова
словарь
слово
служба
службы
случае
см
смысл
со
собрание
событие
событии
события
событиях
совет
совета
советская
советскии
советского
советскои
современного
содержания
состав
состава
спб
специально
списки
список
спорта
справа
справочник
справочнике
ссср
ссылка
ссылки
ссылку
ссылок
ст
стадион
стадиона
статеи
статистики
статье
статьи
статья
ства
сторону
стр
стран
страна
страниц
страница
страницу
страницы
страны
строку
сухуми
существует
сущности
сша
съ
т
та
таблица
таблицу
таблицы
таджикистан
таджикистана
таи
так
также
тб
тбилиси
те
текст
текста
тексты
теперешнеи
теперешняго
территории
технология
ти
тип
тираж
тифлис
то
того
только
том
томах
томскои
транспорт
труды
ту
тугуши
турецкои
туристическии
туркменистана
ты
төркем
у
уезда
уезду
уезды
уже
узел
уикипедия
ук
указать
указывать
указывающие
украины
украі
умолчанию
университета
управления
условиях
устрои
утверждения
участка
участковъ
участок
уче
ф
фе
федерации
физико
физическая
филологии
философии
философия
форум
фото
фотографии
франц
функция
х
халыып
хандзтииского
ханис
харатишвили
харгелия
хепинисхеви
хири
ходжалы
хотите
хрватска
хребта
хронология
ц
центр
цхали
цы
ч
части
часть
че
человек
человека
через
численность
число
что
чтобы
ш
шабле
шаблон
шаблона
шаблоне
шаблони
шаблонов
шаблоном
шаблоны
шаропанскии
шверин
шего
ы
э
экология
экспедиция
электронная
энциклопедии
энциклопедическии
энциклопедия
эсбе
это
этого
этои
этот
эхо
ю
южная
я
является
язык
языка
языке
языки
января
і
історія
ѹ
ѻ
ѽ
ѿ
ҏ
ҟ
ҡалып
ҧ
үлгі
ԇ
ԉ
կաղապար
կատեգորիա
տեղեկաքարտ
ְ
ִ
ֵ
ֶ
ַ
ָ
ֹ
ּ
־
ׁ
א
ב
ג
ד
ה
ו
ח
טעגא
י
ך
ל
מ
מוסטער
ן
ע
קא
קטגוריה
ר
ריע
ש
ת
תבנית
،
؛
ا
اطلاعات
الا
الله
الگو
ب
بر
بلحاظ
بن
بو
ة
ت
تصنيف
جعبه
حسب
د
داڕێژە
ر
رده
زبان
زمرہ
سانچو
سانچہ
ش
شابلون
صندوق
ع
قالب
ل
م
مالومات
محمد
مصر
معطيات
معلومات
مواليد
میلادی
ن
ها
های
هېواد
و
ي
َ
ُ
ِ
ّ
ْ
ٓ
ٔ
ٕ
پایه
کينډۍ
ی
ހ
ނ
ރ
އ
ވ
މ
ފ
ދ
ތ
ގ
ސ
ޔ
ޖ
ަ
ާ
ި
ު
ޫ
ެ
ޭ
ް
ँ
ं
ः
अ
आ
इ
ई
ए
ओ
क
कड
ख
ग
गर
घ
ङ
च
छ
ज
झ
ञ
ट
ठ
ड
ढ
ण
त
थ
द
ध
न
प
फ
फलकम
ब
भ
म
मध
य
र
ल
ळ
व
वन
वर
श
ष
स
ह
़
ा
ि
ी
ु
ू
ृ
ॅ
े
ै
ॉ
ो
ौ
्
ঁ
ং
এ
ক
গ
ঙ
চ
জ
ঞ
ট
ঠ
ড
ণ
ত
তথ
থ
দ
ধ
ন
প
ফ
ব
ভ
ম
মড
মপ
য
যছক
র
ল
শ
ষ
ষয
স
হ
়
া
ি
ী
ু
ূ
ৃ
ে
্
ৗ
ৰ
ਂ
ਅ
ਆ
ਕ
ਕੜ
ਖ
ਗ
ਗਰ
ਜ
ਡ
ਣ
ਤ
ਥ
ਦ
ਨ
ਨਮ
ਪ
ਫਰਮ
ਬ
ਭ
ਮ
ਯ
ਰ
ਲ
ਵ
ਸ
ਸਮ
਼
ਾ
ਿ
ੀ
ੁ
ੂ
ੇ
ੈ
ੋ
੍
ੰ
ੱ
ં
ક
ગ
ચ
જ
ઢ
ત
દ
ધ
ભ
મ
ય
ર
લ
વ
શ
ષ
સ
ા
િ
ી
ુ
ે
ો
્
ଆ
ଚ
ଛ
ଞ
ଟ
ଭ
ମ
଼
ା
ି
େ
୍
க
கள
ங
ச
ட
த
தகவல
ந
ன
ப
பக
ம
ய
ர
ற
ல
ழ
வ
ஸ
ா
ி
ீ
ு
ூ
ெ
ே
ை
்
ం
క
గ
ట
డ
త
న
భ
మ
ర
ల
వ
వర
ష
స
ా
ి
ీ
ు
ూ
ె
్
ಂ
ಕ
ಗ
ಟ
ಡ
ದ
ನ
ಪ
ಭ
ಯ
ರ
ಲ
ವ
ಸ
ಾ
ಿ
ು
ೂ
ೆ
್
ೕ
ം
ക
ഗ
ങ
ച
ജ
ട
ഡ
ണ
ത
ന
പ
ഫലക
ഭ
മ
യ
ര
റ
ല
ള
വ
വർഗ
ഷ
സ
ാ
ി
ീ
ു
െ
േ
ൈ
്
ൽ
ං
ක
ග
ච
ට
ඩ
ත
දත
න
ප
බ
ය
ර
රට
ල
ව
ස
්
ා
ැ
ි
ී
ු
ෙ
ก
กล
คคลท
จ
ช
ด
ต
น
บ
ผ
พ
ย
ร
ล
ว
ศ
ส
หมวดหม
อ
องข
อม
ั
าง
ิ
ี
ึ
ื
ุ
ู
เด
แบบ
แม
ๆ
็
่
้
์
ກ
ພ
ມ
ລ
ວ
ັ
ິ
ີ
ຸ
ູ
ແບບ
ແມ
່
້
་
།
ཁ
ག
ང
ཐ
ད
ན
པ
བ
མ
ཚ
ཡ
ར
ལ
ས
ཨ
ི
ུ
ེ
ོ
ྐ
ྫ
ྰ
ྱ
က
င
စ
ဆ
ဇ
ဒ
န
ဘ
မ
ယ
ရ
ရင
လ
သ
အ
အင
ါ
ာ
ိ
ီ
ု
ူ
ေ
ဲ
ံ
း
်
ျ
ြ
ွ
ა
აა
აარე
აარიშ
აარონ
ააშ
ააშს
აახენიშ
აბ
აბა
აბადი
აბაზგეფიშ
აბაზეფი
აბაზური
აბან
აბანდვალა
აბანდვალათ
აბანეფი
აბანეფიშ
აბანეფს
აბანეფშე
აბანი
აბანიე
აბანით
აბანიშ
აბანო
აბანობურ
აბანობური
აბანოეფი
აბანოშ
აბანს
აბანსი
აბანსიე
აბანურ
აბანური
აბანქ
აბანშა
აბანშე
აბანც
აბარჷ
აბას
აბასთუმანი
აბასთუმანიშ
აბასიანეფიშ
აბასიდეფიშ
აბასიშ
აბაშა
აბაშაშ
აბაშაშე
აბაშაწყარი
აბაშაწყარიშ
აბაშვილი
აბაშიძე
აბაშიძეშ
აბდ
აბდელ
აბდულ
აბდულა
აბება
აბებას
აბედათიშ
აბელ
აბელი
აბელიშ
აბერდინი
აბესალომ
აბეტი
აბიანდა
აბორიგენეფიშ
აბორიგენი
აბორიგენული
აბრაამ
აბრაამი
აბრაამიშ
აბრაამიშული
აბრაზიული
აბრაჰამ
აბრევიატურა
აბრეშუმიშ
აბსოლუტურ
აბსოლუტური
აბსოლუტურო
აბსტრაქტული
აბსტრაქცია
აბუ
აბულ
აბულაძის
აბუშ
აბხვადჷნა
აგავაშ
აგათა
აგასისი
აგენტი
აგი
აგილერა
აგინძორენდჷ
აგინძორენს
აგიოგრაფიული
აგლომ
აგლომერაცია
აგლომერაციას
აგლომერაციაშ
აგლომერაციეფი
აგრა
აგრარულ
აგრარული
აგრაშ
აგრეთვე
აგრესიაშ
აგრესიულ
აგრესიული
აგრიპა
აგრონომია
აგროქიმია
აგუა
აგუას
აგუერო
აგურაი
აგჷნძორენა
აგჷნძორენდჷ
აგჷნძორენს
ად
ადა
ადამ
ადამაშვილი
ადამი
ადამიანები
ადამიანი
ადამიანის
ადამიანიშ
ადამიანს
ადამიერ
ადამიერეფი
ადამიერეფიშ
ადამიერეფს
ადამიერეფქ
ადამიერეფშა
ადამიერეფშე
ადამიერეფშო
ადამიერი
ადამიერით
ადამიერიშ
ადამიერიშით
ადამიერიშო
ადამიერო
ადამიერს
ადამიერულ
ადამიერული
ადამიერქ
ადამიერშა
ადამიერშახ
ადამიერშე
ადამიერშო
ადამიერც
ადამიშ
ადამსი
ადამსიშ
ადანა
ადაპტაცია
ადაპტერეფი
ადაპტერი
ადაპტირაფილი
ადაპტირებული
ადარნასე
ადასურენდჷ
ადასურენს
ადგილი
ადელაიდა
ადელაიდაშ
ადენიშ
ადვოკატეფიშ
ადვოკატი
ადიგენიშ
ადიდასი
ადის
ადიღე
ადიღეური
ადიღეშ
ადიღურ
ადიღური
ადიშიშ
ადიჯე
ადიჯეშ
ადლერი
ადმ
ადმინი
ადმინიატრაციული
ადმინის
ადმინისტრატორეფი
ადმინისტრატორეფიშ
ადმინისტრატორეფს
ადმინისტრატორი
ადმინისტრატორიშ
ადმინისტრატორო
ადმინისტრატორს
ადმინისტრაცია
ადმინისტრაციას
ადმინისტრაციაქ
ადმინისტრაციაშ
ადმინისტრაციულ
ადმინისტრაციული
ადმინისტრაციულო
ადმინისტრირენს
ადმინსიტრაციული
ადმირალი
ადოლფ
ადოლფიშ
ადოლფო
ადრე
ადრეიან
ადრიანა
ადრიანე
ადრიანეშ
ადრიატიკაშ
აეროდრომი
აეროდრომიშ
აეროკოსმოსური
აერონავტიკაშ
აეროპორტეფი
აეროპორტეფიშ
აეროპორტი
აეროპორტიე
აეროპორტის
აეროპორტიქ
აეროპორტიშ
აეროპორტიშე
აეროპორტშე
ავაზა
ავანტი
ავატარი
ავგუსტ
ავგუსტინე
ავგუსტუსი
ავგუსტუსიქ
ავგუსტუსიშ
ავთანდილ
ავიაკომპანია
ავიაკომპანიეფი
ავიაცია
ავიაციას
ავიაციაშ
ავივი
ავივიშ
ავილა
ავილაშ
ავიცენა
ავლუს
ავრელიუს
ავრელიუსი
ავრორა
ავსტრალია
ავსტრალიარეფი
ავსტრალიარი
ავსტრალიას
ავსტრალიაშ
ავსტრალიაშა
ავსტრალიაშე
ავსტრალიურ
ავსტრალიური
ავსტრია
ავსტრიალეფი
ავსტრიალი
ავსტრიას
ავსტრიაქ
ავსტრიაშ
ავსტრიაშა
ავსტრიაწკჷმა
ავსტრიული
ავსტრო
ავსტრონეზიული
ავტ
ავტო
ავტობიოგრაფია
ავტობიოგრაფიულ
ავტობიოგრაფიული
ავტოკატასტროფას
ავტოკეფალური
ავტოკრატია
ავტომაგისტრალი
ავტომაგისტრალით
ავტომატური
ავტომატურო
ავტომობილეფი
ავტომობილეფიშ
ავტომობილი
ავტომობილიშ
ავტონომია
ავტონომიათ
ავტონომიას
ავტონომიაშ
ავტონომიეფი
ავტონომიურ
ავტონომიური
ავტოპორტრეტი
ავტორეფი
ავტორეფიშ
ავტორი
ავტორიე
ავტორიტარული
ავტორიტეტი
ავტორიტეტიქ
ავტორიტეტული
ავტორიშ
ავტორო
ავტორს
ავტორქ
ავტოფელაცია
ავტოქთონური
ავღანარი
ავღანეთი
ავღანეთის
ავღანეთიშ
ავღანური
აზად
აზავადიშ
აზანიშ
აზე
აზერ
აზერბაიჯანალეფი
აზერბაიჯანალი
აზერბაიჯანარეფი
აზერბაიჯანი
აზერბაიჯანის
აზერბაიჯანიშ
აზერბაიჯანს
აზერბაიჯანულ
აზერბაიჯანული
აზერბაიჯანქ
აზერბაიჯანწკჷმა
აზია
აზიარეფი
აზიარი
აზიას
აზიაშ
აზიაშა
აზიაშე
აზიზ
აზიურ
აზიური
აზოგი
აზოვიშ
აზორიშ
აზოტიშ
აზრი
აზრით
აზრის
აზრიშ
აზჷრით
ათ
ათაბიჯალეფი
ათავრეშე
ათათურქიშ
ათასი
ათაქ
ათაშ
ათაში
ათაჸურეშე
ათე
ათეთ
ათეიზმი
ათეიზმიშ
ათეისტეფი
ათენა
ათენერი
ათენი
ათენიშ
ათენს
ათეჟამო
ათეს
ათექ
ათეშ
ათეშენ
ათეშენი
ათეში
ათეშნერი
ათეშნერო
ათეშო
ათეცალ
ათეცალი
ათეწკჷმა
ათეხანური
ათეჯგუა
ათეჯგურა
ათინა
ათინაშ
ათლეტეფი
ათონიშ
ათორმეტ
ათუ
აი
აია
აიათოლა
აიაკუჩო
აიაკუჩოშ
აიარი
აიარიშ
აიბღა
აიდან
აიდაჰო
აიდაჰოშ
აიდინი
აიეტი
აივ
აიზეკ
აითმათოვი
აიკეშ
აილენდი
აილენდიშ
აილიშიქ
აიმაკეფი
აიმაკი
აიმარა
აიმარაშ
აიმარაშა
აინშტაინი
აინშტაინიშ
აიოვა
აიოვაშ
აიონ
აირა
აირესი
აირესის
აირესიშ
აირეფი
აირეფიშ
აირეფს
აირი
აირიშ
აირონ
აისენიშ
აისლებენი
აიშახ
აიწორი
აიწორო
აკ
აკა
აკაართიანჷ
აკაბიშ
აკაბუცხა
აკაგაფალი
აკაგაფალო
აკაგეს
აკაგჷ
აკად
აკადგინანდჷ
აკადგინანს
აკადგინეს
აკადგინჷ
აკადემია
აკადემიას
აკადემიაქ
აკადემიაშ
აკადემიაწკჷმა
აკადემიის
აკადემიკოსეფი
აკადემიკოსი
აკადემიურ
აკადემიური
აკათეს
აკათუ
აკათჷ
აკაკათაფუწკჷმა
აკაკი
აკან
აკანეფი
აკანეფიშ
აკანეფს
აკანეფშე
აკანი
აკანიშ
აკანო
აკანს
აკანურ
აკანური
აკანქ
აკანშა
აკანშე
აკაპულკო
აკაჟუშ
აკარდამა
აკარღვეს
აკარღუ
აკარღჷ
აკაქიმინალო
აკაშქუ
აკეთენა
აკეთენდეს
აკეთეს
აკეთჷ
აკვატორია
აკვატორიას
აკვედუკი
აკიართიანეს
აკიართიანჷ
აკიგჷ
აკიმუშეს
აკიმუშუ
აკირა
აკიფაჩჷ
აკიქიმინჷ
აკიშაყარჷ
აკმაართიანენა
აკმაართიანენს
აკმადგინადჷ
აკმადგინალ
აკმადგინალი
აკმადგინანა
აკმადგინანდ
აკმადგინანდეს
აკმადგინანდჷ
აკმადგინანს
აკმადგინანც
აკმაქიმინალ
აკმაქიმინალი
აკმაქიმინჯე
აკმაშქვანს
აკმაშქვანც
აკმიგაფუდჷ
აკმიკათუნა
აკმიქიმინუ
აკმოდირთუ
აკმოდირთუდჷ
აკმოდირთჷ
აკმოდირთჷნა
აკმოქიმინუნა
აკმოქიმინუნდჷ
აკმოქიმინუნს
აკმოქიმინუნც
აკმოქიმინჷნა
აკმოქიმინჷნს
აკმოხვადუ
აკმოხვადუდჷ
აკნაგებუ
აკნაქიმინა
აკნაშაყარა
აკნაციმეფი
აკნაცჷმეფი
აკნაცჷმეფს
აკოანჯარაფა
აკოანჯარაფილ
აკოანჯარაფილი
აკოართაფათ
აკოართაფაშ
აკოართაფილ
აკოართაფილი
აკოგაფა
აკოგაფას
აკოგაფაქ
აკოგაფაშ
აკოგაფილი
აკოდგინა
აკოდგინალაუშა
აკოდგინალაშა
აკოდგინალობაშ
აკოდგინალუა
აკოდგინალუათ
აკოდგინალუას
აკოდგინალუაშ
აკოდგინალუაშა
აკოდგინალუაშათ
აკოდგინალუაშე
აკოდგინელ
აკოდგინელი
აკოდგინუა
აკოდგინუაშ
აკოდირთუ
აკოდირთჷ
აკოკათაფაშ
აკოკათელი
აკოკათინელი
აკოკათუა
აკოკათუას
აკოკათუაშ
აკოკიდილი
აკოკორობილი
აკომუშებული
აკომუშებულქ
აკონაზირუაშ
აკონკაგუა
აკონტროლენა
აკონტროლენდეს
აკონტროლენდჷ
აკონტროლენს
აკონწყილი
აკონწყუალა
აკორაბადეს
აკორღვაფა
აკორღვაფაშ
აკორციებაშ
აკოფაჩილი
აკოფშაფილი
აკოქიმინელ
აკოქიმინელი
აკოქიმინეს
აკოქიმინუ
აკოქიმინუა
აკოქიმინუას
აკოქიმინუაქ
აკოქიმინუაშ
აკოქიმინჯალა
აკოქიმინჯალას
აკოქიმინჯალაშ
აკოქიმინჯალური
აკოქიმინჷ
აკოშაყარელი
აკოშაყარუა
აკოშაყარუაშ
აკოშქუმალა
აკოშქუმალაშ
აკოშქუმალირი
აკოციმაშ
აკოციუ
აკოცუ
აკოცჷ
აკოცჷმა
აკოცჷმაქ
აკოცჷმაშ
აკოცჷმილი
აკოწყორილი
აკოწყორუათ
აკოხვადეს
აკოხვადჷ
აკოხვალამა
აკოხვალამას
აკოხვალამაქ
აკოხვალამაშ
აკოხვალამეფს
აკოხუნას
აკოხურგელი
აკოხურგილი
აკოხურგილიე
აკოჸინალუაშ
აკრ
აკრი
აკრიტიკენა
აკრიტიკენდჷ
აკრიტიკენს
აკრონიმი
აკროპოლისი
აკრძალჷ
აკუ
აკუმულაციური
აკუნწყუ
აკუსტიკური
აკუტაგავა
აკუქიმინუდუკო
ალ
ალა
ალაბამა
ალაბამაშ
ალავერდი
ალავიტეფი
ალავიტეფიშ
ალაზანი
ალაზანიშ
ალაზანს
ალაზიმაფათ
ალაზჷმაფათ
ალაზჷმაფონი
ალამბერი
ალამო
ალამოსიშ
ალან
ალანდიშ
ალანეფი
ალანი
ალარინა
ალარინათ
ალასდერ
ალასკა
ალასკას
ალასკაშ
ალაფათ
ალაჰი
ალაჰიშ
ალაჸუნს
ალბ
ალბა
ალბათ
ალბანარეფი
ალბანარი
ალბანეთი
ალბანეთის
ალბანეთიშ
ალბანი
ალბანურ
ალბანური
ალბასეტე
ალბეთ
ალბერ
ალბერტ
ალბერტაშ
ალბერტინიშ
ალბერტიშ
ალბერტო
ალბი
ალბინუსი
ალბომეფი
ალბომეფიშ
ალბომეფს
ალბომი
ალბომით
ალბომიშ
ალბომიშე
ალბომიშო
ალბომო
ალბომს
ალბომქ
ალბომშა
ალბომშე
ალბომშო
ალბორანიშ
ალბრეხტ
ალბუს
ალგებრაშ
ალე
ალებათ
ალეგეინიშ
ალეგორიული
ალევიშ
ალეიდა
ალეკ
ალეკო
ალენ
ალენი
ალენიშ
ალენტეჟუშ
ალეპო
ალერგოლოგია
ალესანდრო
ალეუტიშ
ალეუტური
ალექს
ალექსანდერ
ალექსანდრ
ალექსანდრე
ალექსანდრეს
ალექსანდრექ
ალექსანდრეშ
ალექსანდრია
ალექსანდრიას
ალექსანდრიაშ
ალექსეი
ალექსი
ალექსის
ალექსიძე
ალეჩიშ
ალეხანდრო
ალეხო
ალვარო
ალთაიშ
ალთაური
ალი
ალიანსი
ალიანსის
ალიანსიშ
ალიასკა
ალიასკას
ალიასკაშ
ალიგიერი
ალიევი
ალიევიშ
ალიენდე
ალიო
ალის
ალისა
ალიტუსიშ
ალიქ
ალიშ
ალიჩა
ალკოჰოლი
ალკოჰოლიშ
ალკოჰოლური
ალმა
ალმათი
ალმათიშ
ალმარენჯი
ალმარინე
ალმასი
ალმასიშ
ალმასქუ
ალმასქუს
ალმასქუქ
ალმასქუშ
ალმასქუწკჷმა
ალმაშარე
ალმაშარეეფი
ალმაშარეეფიშ
ალმაშარეეფს
ალმაშარეს
ალმაშარეშ
ალმაშარეშე
ალმაშარული
ალმაჩამალი
ალმახანას
ალმახანაშო
ალმახანდე
ალმახანდენს
ალმახანურ
ალმახანური
ალმაჸვენჯი
ალობა
ალობაშ
ალობაშო
ალოის
ალოპეცია
ალოპეციაშ
ალპეფი
ალპეფიშ
ალპეფს
ალპეფშე
ალპეფშო
ალპინიზმი
ალპინისტეფიშ
ალპინისტეფქ
ალპინისტი
ალპიშ
ალპურ
ალპური
ალჟირი
ალჟირიშ
ალჟირს
ალსიდეს
ალტ
ალტა
ალტერნატიულ
ალტერნატიული
ალტერნატიულო
ალტო
ალტუ
ალუვიურ
ალუვიური
ალუმინეშ
ალუმინი
ალუმინიშ
ალურდჷ
ალურე
ალუჩჷ
ალფა
ალფვენი
ალფონს
ალფონსო
ალფრედ
ალჰამბრა
ამ
ამადეუს
ამაზონასი
ამაზონი
ამაზონიშ
ამაზონს
ამანდა
ამანი
ამანჯჷ
ამარი
ამასონასიშ
ამაღალება
ამბარცუმიანი
ამბე
ამბები
ამბეეფი
ამბეეფიშ
ამბეეფს
ამბეს
ამბეფი
ამბეფიშ
ამბექ
ამბეშ
ამბონი
ამბროლაურიშ
ამბულატორია
ამდღა
ამდღათ
ამდღანერ
ამდღანერი
ამდღანერშო
ამდღარ
ამდღარი
ამდღარშა
ამდღარშახ
ამდღარშო
ამდღარშოთ
ამედეო
ამერიკა
ამერიკალ
ამერიკალეფი
ამერიკალეფიშ
ამერიკალეფქ
ამერიკალი
ამერიკან
ამერიკას
ამერიკაშ
ამერიკაშა
ამერიკაშე
ამერიკელი
ამერიკულ
ამერიკული
ამეფი
ამეფს
ამი
ამიარენა
ამიენი
ამიერკავკაციას
ამიერკავკაციაშ
ამილახვარეფიშ
ამილახორი
ამირ
ამირა
ამირეფიშ
ამირეჯიბი
ამირი
ამის
ამნახანტი
ამნისტია
ამონ
ამონი
ამონიშ
ამპერი
ამპლუა
ამრ
ამრიტსარი
ამსტერდამი
ამსტერდამიშ
ამტყელი
ამუდღა
ამუდღანერი
ამუდღარშა
ამუდღარშახ
ამუდღარშო
ამუნდსენი
ამუნდსენიშ
ამურიშ
ამუშენს
ამფითეატრი
ამშვ
ამშვი
ამშვიშა
ამშოშ
ამხვადუნა
ან
ანა
ანაგი
ანაგიშ
ანაის
ანაკენაშ
ანალიზი
ანალიზის
ანალიზიშ
ანალიზური
ანალიტიკური
ანალოგი
ანალოგიური
ანალოგიურიე
ანალოგიურო
ანალოგური
ანალურ
ანალური
ანანდი
ანაპურნა
ანარკია
ანარკიას
ანარკიაშ
ანარქიზმი
ანას
ანატოლ
ანატოლი
ანატოლია
ანატოლიას
ანატოლიაშ
ანატომეფი
ანატომი
ანატომია
ანატომიას
ანატომიაშ
ანატომიური
ანაქსიმანდრე
ანაშ
ანბანი
ანბანით
ანბანიშ
ანბანს
ანბანური
ანბანქ
ანბანშა
ანგანობა
ანგანობეფი
ანგარია
ანგარიათ
ანგარიას
ანგარიშეფი
ანგარიში
ანგარიშით
ანგელა
ანგელმანიშ
ანგელოზეფი
ანგელოზეფიშ
ანგელოზი
ანგელოზიქ
ანგი
ანგილია
ანგიშ
ანგლიკანეფი
ანგლიკანური
ანგლო
ანგოლა
ანგოლას
ანგოლაშ
ანგურა
ანგურათ
ანგურაშ
ანგუსი
ანგუსის
ანდა
ანდალუსია
ანდალუსიაშ
ანდამანიშ
ანდანერი
ანდაღებულ
ანდაღებული
ანდაშა
ანდაწანიანი
ანდეზიტი
ანდეზიტური
ანდერს
ანდერსენი
ანდერსენიშ
ანდერსი
ანდერსონი
ანდერსონიშ
ანდესიშ
ანდეფი
ანდეფიშ
ანდეფს
ანდიურ
ანდიური
ანდორა
ანდორას
ანდორაშ
ანდრე
ანდრეა
ანდრეას
ანდრეი
ანდრეს
ანდრია
ანდრიჩი
ანდროიდიშ
ანდრომედა
ანდრომედაშ
ანდრონიკაშვილი
ანდური
ანდჰრა
ანემიაშ
ანექსია
ანექსიაშ
ანექსირაფილქ
ანვარ
ანზორ
ანთ
ანთალიაშ
ანთასი
ანთასობათ
ანთასწანურას
ანთება
ანთებაშ
ანთროპოლოგი
ანთროპოლოგია
ანთროპოლოგიას
ანთროპოლოგიაშ
ანთროპოლოგიური
ანთხუ
ანი
ანიმატორი
ანიმაცია
ანიმაციურ
ანიმაციური
ანიმიზმი
ანისის
ანიტა
ანკარა
ანკარას
ანკარაშ
ანკაშიშ
ანკლავი
ანკლავს
ანომალია
ანჟელა
ანრი
ანსამბლეფი
ანსამბლი
ანსამბლის
ანსამბლიშ
ანტარქტიდა
ანტარქტიდას
ანტარქტიდაშ
ანტარქტიდული
ანტარქტიკა
ანტარქტიკაშ
ანტარქტიკული
ანტვერპენი
ანტი
ანტიგონე
ანტიგუა
ანტიგუაშ
ანტიგუურ
ანტიკლინური
ანტიკურ
ანტიკური
ანტილიაშ
ანტილიშ
ანტილოპა
ანტილოპეფი
ანტიოქე
ანტიოქექ
ანტიოქიაშ
ანტირსხულეფიშ
ანტიფაშისტური
ანტკიცენა
ანტკიცენდეს
ანტკიცენდჷ
ანტკიცენს
ანტონ
ანტონი
ანტონინ
ანტონიო
ანტონიუ
ანტონიუს
ანტონიუსი
ანტონიშ
ანტოფაგასტა
ანტოფაგასტაშ
ანტუან
ანუ
ანუსიშ
ანჩაბაძე
ანჩხაბერი
ანწი
ანჭუ
ანხელ
ანხელი
ანჯა
ანჯარელი
ანჯარეფი
ანჯარეფიშ
ანჯარეფს
ანჯარი
ანჯარით
ანჯარიშ
ანჯარო
ანჯარს
ანჯას
ანჯელა
ანჯელესი
ანჯელესის
ანჯელესიშ
ანჯელესიშა
ანჯელესშა
ანჯელინა
ანჯელინაქ
აოსტას
აპ
აპალუ
აპარატეფი
აპარატეფიშ
აპარატი
აპარატიშ
აპარატული
აპართეიდი
აპენინეფი
აპენინიშ
აპერ
აპიანე
აპიანი
აპიანიშ
აპიანს
აპიუს
აპიჯალა
აპიჯალათ
აპიჯალას
აპიჯალაქ
აპიჯალაშ
აპიჯაფა
აპიჯაფათ
აპიჯაფას
აპიჯაფაშ
აპოკალიფსიშ
აპოლო
აპოლონ
აპოლონიოს
აპონ
აპრილი
აპულიაშ
აპურე
აპურიმაკიშ
არ
არა
არაა
არაბ
არაბეთი
არაბეთის
არაბეთიშ
არაბეფი
არაბეფიშ
არაბეფს
არაბეფქ
არაბი
არაბიკაშ
არაბისტიკა
არაბულ
არაბული
არაბულიშ
არაბულნინამი
არაბულო
არაბულშე
არაბულწკჷმა
არაგაწოტნი
არაგვი
არაგვის
არაგვიშ
არაგონი
არაგონიშ
არავალი
არავალიშ
არავინ
არაკი
არალიშ
არამ
არამეულ
არამეული
არამხუტუ
არანი
არანიშ
არანს
არარატი
არარატიშ
არასავალდებულო
არასწორად
არაუკანიაშ
არაფურიშ
არაქსიშ
არბენსიშ
არბიტრეფი
არბიტრეფიშ
არბიტრი
არგამა
არგამათ
არგამას
არგენტინა
არგენტინალეფი
არგენტინალი
არგენტინას
არგენტინაქ
არგენტინაშ
არგენტინაშა
არგენტინაწკჷმა
არგენტინულ
არგენტინული
არგვეთიშ
არგონავტეფიშ
არგუმენტეფი
არგუმენტეფიშ
არგუმენტი
არგუმენტიშ
არგუნი
არგუსო
არდგილეფს
არდგილი
არდგილს
არე
არეალეფს
არეალი
არეალიშ
არეალს
არეგულირენს
არეკიპა
არეკიპაშ
არენა
არენას
არეს
არვიდ
არზაშე
არზენა
არზენდეს
არზენდჷ
არზენს
არზენც
არზეფი
არზეფიშ
არზეფს
არზი
არზიენს
არზით
არზის
არზიქ
არზიშ
არზუანობა
არზუანობაშ
ართ
ართათ
ართამ
ართამი
ართართ
ართართი
ართაულეფი
ართბორჯული
ართბორჯულო
ართგვარ
ართგვარი
ართგური
ართგურობა
ართგურობაშ
ართვინი
ართვინიშ
ართთასამი
ართთოლამი
ართი
ართიან
ართიანალა
ართიანი
ართიანიშ
ართიანობა
ართიანს
ართიანშა
ართიანშე
ართიანშქას
ართიანწკჷმა
ართინერი
ართის
ართიქ
ართიშ
ართიშა
ართმანგი
ართმანგო
ართმაჟირას
ართმაჟირაშ
ართმაჟირაშე
ართნერ
ართნერი
ართნერო
ართო
ართობა
ართობაშ
ართობურ
ართობური
ართობურო
ართობურობა
ართობურობას
ართოიან
ართოიანი
ართოიანობას
ართპალატამი
ართპარტიული
ართუ
ართუაფა
ართუაფალი
ართუაფაშ
ართულეფი
ართულეფიშ
ართულეფო
ართულეფს
ართული
ართულიშ
ართულო
ართულს
ართულქ
ართულშე
ართურ
ართურეფი
ართურეფიშ
ართური
ართურიშ
ართურო
ართურს
ართშა
ართშე
ართწანიანი
ართხანს
ართხონარო
ართჸუდეამი
ართჸურე
არიადნა
არიან
არიდული
არიზონა
არიზონაშ
არიკა
არიკეფი
არიკეფიშ
არიკი
არის
არისტარქე
არისტარქეშ
არისტოკრატი
არისტოკრატიულ
არისტოტელე
არისტოტელექ
არისტოტელეშ
არიული
არკ
არკანზასი
არკანზასიშ
არკი
არმავირი
არმავირიშ
არმან
არმანდო
არმენ
არმენიას
არმია
არმიას
არმიაქ
არმიაშ
არმიაშა
არმიაშით
არმიეფიშ
არმიტიჯი
არმსთრონგიქ
არმსტრონგი
არნოლდ
არო
აროიო
არომატი
არომატული
არომაშ
არსებენა
არსებენდ
არსებენდჷ
არსებენს
არსებითი
არსებითო
არსებობა
არსებობას
არსებობაშ
არსებულ
არსებული
არსენალიშ
არსი
არსიანიშ
არსულ
არსულენა
არსულენდ
არსულენდეს
არსულენდჷ
არსულენს
არსულეს
არსულჷ
არსხუ
არსხუაფუ
არსხუაფჷ
არტ
არტაანი
არტაანიშ
არტავაზიქ
არტანუჯი
არტანუჯიშ
არტაშატი
არტაშენი
არტაშენიშ
არტერია
არტეფაქტეფი
არტეფაქტეფიშ
არტილერიაშ
არტისტ
არტისტალა
არტისტალაშ
არტისტეფი
არტისტეფიშ
არტისტეფს
არტისტი
არტისტის
არტისტიქ
არტისტიშ
არტისტიშო
არტისტო
არტისტული
არტიურ
არტურ
არტური
არტურო
არუბა
არუნაჩალ
არქაბი
არქაბიშ
არქანჯელო
არქაული
არქემი
არქემიშ
არქეოლოგეფი
არქეოლოგეფიშ
არქეოლოგეფქ
არქეოლოგი
არქეოლოგია
არქეოლოგიას
არქეოლოგიაშ
არქეოლოგიურ
არქეოლოგიური
არქიებული
არქივეფი
არქივი
არქიმანდრიტისაჲ
არქიმედეშ
არქიპელაგეფი
არქიპელაგი
არქიპელაგის
არქიპელაგიშ
არქიტექტორ
არქიტექტორეფი
არქიტექტორი
არქიტექტორიშ
არქიტექტურა
არქიტექტურათ
არქიტექტურას
არქიტექტურაშ
არქიტექტურულ
არქიტექტურული
არქტიკაშ
არქტიკულ
არქტიკული
არღუნი
არყაფაქ
არყაფაშ
არყება
არყებას
არყებაშ
არყებულ
არყებულეფიშ
არჩევნები
არჩი
არჩიბალდ
არჩიბული
არჩილ
არჩქილე
არც
არცხუაფუ
არძა
არძანერ
არძანერი
არძას
არძაშ
არძაშე
არძაში
არძაშო
არძაშოული
არძენს
არძო
არძონერი
არძოს
არძოქ
არძოშ
არძოშე
არძოშო
არძშე
არწი
არხ
არხანგელსკიშ
არხეფი
არხეფიშ
არხეფს
არხი
არხით
არხის
არხიქ
არხიშ
არხიშე
არხო
არხოს
ას
ასა
ასაგასაშ
ასადი
ასათიანი
ასაკი
ასაკის
ასაკიშ
ასამბლეა
ასამბლეას
ასამბლეაქ
ასამბლეაშ
ასამბლეაშით
ასამი
ასამიშ
ასამურ
ასამური
ასახიერენდჷ
ასახიერენს
ასახიერჷ
ასე
ასევე
ასეთ
ასეთი
ასეიან
ასეიანი
ასერდე
ასექსუალობა
ასეშა
ასეშახ
ასეშო
ასთმაშ
ასი
ასიან
ასიმილაცია
ასისტენტ
ასისტენტი
ასისტენტო
ასკეტიზმი
ასკია
ასკორბინიშ
ასლან
ასლანიშ
ასო
ასოეფი
ასოეფით
ასოეფიშ
ასოთ
ასომთავრული
ასოს
ასოშ
ასოშე
ასოციაცია
ასოციაციას
ასოციაციაქ
ასოციაციაშ
ასოციაციეფიშ
ასოცირაფილი
ასოცირებული
ასპარეზის
ასპარეზშა
ასპექტეფი
ასპექტეფს
ასპექტი
ასპექტის
ასპექტიშ
ასპინძაშ
ასპირანტურას
ასრულენა
ასრულენდჷ
ასრულენს
ასრულჷ
ასსრ
ასტერი
ასტეროიდეფი
ასტეროიდეფიშ
ასტეროიდი
ასტეროიდის
ასტრახანიშ
ასტრიდ
ასტროლოგია
ასტრონავტი
ასტრონავტიშ
ასტრონომეფი
ასტრონომეფიშ
ასტრონომეფქ
ასტრონომი
ასტრონომია
ასტრონომიათ
ასტრონომიას
ასტრონომიაშ
ასტრონომიულ
ასტრონომიული
ასტრონომიქ
ასტრონომიშ
ასტრონომქ
ასტროფიზიკა
ასტროფიზიკას
ასტროფიზიკაშ
ასტროფიზიკოსეფი
ასტროფიზიკოსი
ასტროფიზიკური
ასტურია
ასტურიაშ
ასუანიშ
ასუნსიონი
ასურალეფი
ასურალი
ასურეთი
ასურეთის
ასურეთიშ
ასუფრე
ასფალტი
ასქიდჷ
ასქილადირი
ასხიშ
ატ
ატა
ატაკამაშ
ატარენა
ატარენდეს
ატარენდჷ
ატარენს
ატარჷ
ატატა
ატიკა
ატილიუს
ატლანტა
ატლანტას
ატლანტაშ
ატლანტიკა
ატლანტიკაშ
ატლანტიკურ
ატლანტიკური
ატლანტიშ
ატლასი
ატლასიშ
ატმოსფერო
ატმოსფეროს
ატმოსფეროშ
ატმოსფერულ
ატმოსფერული
ატოლი
ატოლიშ
ატოლს
ატომეფიშ
ატომეფს
ატომი
ატომიშ
ატომს
ატომურ
ატომური
ატონიშ
ატრატინუსი
ატრიბუტეფი
ატრიბუტი
აუგსბურგი
აუგურინუსი
აუგუსტ
აუგუსტო
აუგუსტუს
აუდიო
აუდიტორიას
აუზეფს
აუზი
აუზის
აუზიშ
აულუს
აუცილებლად
აუხვადჷ
აუჯგუშენს
აფასენდეს
აფასენს
აფასეს
აფეთქება
აფეთქებაშ
აფეთქეს
აფილირებულეფი
აფილირებული
აფინანსენდჷ
აფინანსენს
აფიონ
აფლეკი
აფლეკიშ
აფორმირენს
აფრაზიული
აფრიკა
აფრიკაანსი
აფრიკალეფი
აფრიკალი
აფრიკას
აფრიკაშ
აფრიკაშა
აფრიკაშე
აფრიკულ
აფრიკული
აფრო
აფროამერიკალეფი
აფროამერიკალი
აფსიდეფს
აფუ
აფუდეს
აფუდუ
აფუდჷ
აფუნ
აფუნა
აფუნი
აფუნიშ
აფუნს
აფშერონიშ
აფხ
აფხაზ
აფხაზავა
აფხაზეთი
აფხაზეთის
აფხაზეთიქ
აფხაზეთიშ
აფხაზეთიშე
აფხაზეთშა
აფხაზეთშე
აფხაზეფი
აფხაზეფიშ
აფხაზეფს
აფხაზი
აფხაზურ
აფხაზური
აფხაზურო
აფხვადუნა
აფხვადჷნა
აფჷ
აფჷდეს
აფჷნა
აქ
აქადური
აქბარ
აქემენიანეფიშ
აქემენიდეფიშ
აქემენიდური
აქვს
აქო
აქსელ
აქსელერატორული
აქსენიშ
აქსონი
აქსუ
აქსუმი
აქსუმიშ
აქტეფი
აქტეფიშ
აქტეფს
აქტი
აქტივიზმიშ
აქტივისტი
აქტივობა
აქტივობაშ
აქტივობეფი
აქტივობეფიშ
აქტით
აქტის
აქტიურ
აქტიური
აქტიურო
აქტიქ
აქტიშ
აქტუალური
აქცენტი
აქცია
აქციაქ
აქციაშ
აქციეფი
აქციეფიშ
აქციეფქ
აღა
აღიარაფა
აღიარაფას
აღიარაფაშ
აღიარაფილ
აღიარაფილი
აღიარაფილიე
აღიარაფილქ
აღიარება
აღიარებული
აღიარენს
აღიარეს
აღიარჷ
აღმაშენებელიშ
აღმაშენებელქ
აღმაშენებლისაჲ
აღმოსავლეთ
აღმოსავლეთი
აღმოსავლეთის
აღულური
აღქმაშ
აღწერა
აღწერის
აყარებაშ
აშ
აშა
აშანტიშ
აშაძჷ
აშახვილჷ
აშდოდი
აშით
აშო
აშოკა
აშოკაშ
აშონთაფა
აშოტ
აშოტის
აშოტიქ
აშუ
აშშ
აშხაბადი
აშხაბადის
აშხაბადიშ
აშხვანერენა
აჩეჰიშ
აჩუქჷ
აცტეკეფი
აცტეკეფიშ
აცტეკეფს
აცტეკეფქ
აცხადენდჷ
აცხადენს
აძვილაფირქ
აძვილებური
აძვილებურქ
აძვილეს
აძვილჷ
აძულებურქ
აწარმენა
აწარმენდჷ
აწარმენს
აწიკინჷ
აწმარენჯეფი
აწმარენჯი
აწმარენჯის
აწმარენჯიშ
აწმარენჯო
აწმარენჯობა
აწმარენჯობაშ
აწმარინე
აწმარინჯე
აწმაჸვენჯი
აწმუდირთუდჷ
აწმურედჷ
აწორინალაქ
აწორინალაშ
აწოჸუნდჷ
აწოჸუნს
აწუდირთეს
აწუდირთუ
აწუდირთჷ
აწუნთაშ
აწურე
აჭარა
აჭარას
აჭარაშ
აჭარისწყალიშ
აჭარული
ახ
ახაზირენა
ახაზირენდეს
ახალ
ახალას
ახალგაზრდა
ახალგორიშ
ახალგორჩქინაშ
ახალდაბა
ახალეფს
ახალზელანდიარი
ახალი
ახალიშ
ახალმორდუ
ახალნორდ
ახალნორდეფიშ
ახალნორდეფს
ახალნორდი
ახალნორდულ
ახალნორდული
ახალო
ახალობა
ახალობას
ახალსოფელი
ახალსოფელიშ
ახალური
ახალქალაქიშ
ახალშენიშ
ახალშო
ახალციხე
ახალციხეშ
ახალციხეშე
ახასიათენა
ახასიათენს
ახერხენა
ახერხენს
ახვალამაქ
ახვალამეფს
ახვახური
ახიზა
ახიზაშ
ახლა
ახლოს
ახმეტაშ
ახოლუ
ახოლჷ
ახორციალენს
ახორციელენა
ახორციელენდჷ
ახორციელენს
ახრა
ახუთი
აჯამი
აჯამური
აჯმერიშ
აჰაუ
აჰენობარბუსი
აჰმად
აჰმადაბადი
აჰმადაბადიშ
აჰმედ
აჰმედი
აჰმეთ
აჰუ
აჰუეფი
აჰუქ
აჰუშ
აჰუშე
აჸუ
აჸუნჷ
ბ
ბა
ბაადექ
ბაალბექი
ბაასიშ
ბაბ
ბაბილონი
ბაბილონიშ
ბაბილონური
ბაბილუა
ბაბუ
ბაბუშ
ბაგრატ
ბაგრატიონეფი
ბაგრატიონეფიშ
ბაგრატიონი
ბაგრატიონიშ
ბაგრატიქ
ბაგრატიშ
ბად
ბადახოსი
ბადე
ბადება
ბადებათ
ბადებაშ
ბადებაშახ
ბადენ
ბადენი
ბადიდი
ბადრი
ბადურაშვილი
ბავარია
ბავარიას
ბავარიაშ
ბაზა
ბაზალტი
ბაზალტიშ
ბაზარი
ბაზარიშ
ბაზარს
ბაზარშა
ბაზას
ბაზაშ
ბაზაშა
ბაზაშე
ბაზელი
ბაზელიშ
ბაზეფი
ბაზეფიშ
ბაზილიკა
ბაზილიკატა
ბაზილიკაშ
ბაზისური
ბათუმი
ბათუმიშ
ბათუმს
ბათუმშა
ბაი
ბაია
ბაიაზეთი
ბაიერი
ბაიერნიშ
ბაიკალი
ბაიკალიშ
ბაიოსური
ბაირონი
ბაირონიშ
ბაკალავრიშ
ბაკი
ბაკურ
ბაკურიანი
ბაკურიანიშ
ბაკურიანს
ბალანსიშ
ბალარი
ბალეარიშ
ბალეტი
ბალეტიშ
ბალეტმაისტერი
ბალი
ბალივიანიშ
ბალისტიკური
ბალიშ
ბალკანეთის
ბალკანეთიშ
ბალნეოლოგიური
ბალტიაშ
ბალტიკური
ბალტიმორი
ბალტიმორიშ
ბალტიმორს
ბალტიურ
ბალყარეთი
ბალყარეთიშ
ბალხაშიშ
ბამბამარკა
ბამბე
ბამბეშ
ბამიანიშ
ბანაკი
ბანაკის
ბანანეფი
ბანანი
ბანანიშ
ბანახი
ბანგალორი
ბანგიშ
ბანგკოკი
ბანგკოკიშ
ბანგლადეში
ბანგლადეშის
ბანგლადეშიშ
ბანდა
ბანდარ
ბანდაშ
ბანდერასი
ბანდეფი
ბანერი
ბანი
ბანკეფი
ბანკეფიშ
ბანკი
ბანკის
ბანკიქ
ბანკიშ
ბანკნოტეფი
ბანკნოტეფიშ
ბანკნოტის
ბანტუშ
ბანუ
ბანძაშ
ბაობაბი
ბარ
ბარათაშვილი
ბარათაშვილიშ
ბარათი
ბარათიშ
ბარაკ
ბარამიძე
ბარბადოსი
ბარბადოსიშ
ბარბარა
ბარბატუსი
ბარბუდა
ბარბუდაშ
ბარგი
ბარგიშ
ბარდემი
ბარდინი
ბარდო
ბარდონი
ბარენციშ
ბარეტი
ბარეტის
ბარეტიქ
ბარეტიშ
ბარეფი
ბართელმი
ბართვეფი
ბართვეფიშ
ბართვეფს
ბართვი
ბართვიშ
ბართვოდიარე
ბარი
ბარიერი
ბარიერს
ბარიერული
ბარიქ
ბარიშ
ბარკალაია
ბარნარდი
ბარნარდიქ
ბარნარდიშ
ბარნაული
ბაროკოშ
ბარონ
ბაროუ
ბარსელონა
ბარსელონას
ბარსელონაშ
ბარსუმიშ
ბარტ
ბარტონი
ბარტონიშ
ბარუხ
ბარჩხალა
ბას
ბასაევი
ბასი
ბასილ
ბასილაია
ბასილი
ბასკეთი
ბასკეთიშ
ბასკეფი
ბასკეფიშ
ბასკური
ბასტოსი
ბასქიშ
ბატა
ბატალიონი
ბატერფლაი
ბატი
ბატისტ
ბატისტა
ბატისტაშ
ბატლერი
ბატონიშვილი
ბატონიშვილიშ
ბატორი
ბატუტა
ბატუტაშ
ბაუტისტა
ბაფინიშ
ბაფტა
ბაქანი
ბაქანიშ
ბაქო
ბაქოს
ბაქოშ
ბაქრაძე
ბაქსანიშ
ბაქტერია
ბაქტერიაშ
ბაქტერიეფი
ბაქტერიეფიშ
ბაქტერიეფს
ბაქტერიოლოგიაშ
ბაქტერიული
ბაღანა
ბაღანას
ბაღანაქ
ბაღანაშ
ბაღანაშე
ბაღანეფი
ბაღანეფიშ
ბაღანეფს
ბაღანეფშო
ბაღანობა
ბაღანობას
ბაღანობაშ
ბაღანობაშე
ბაღდადი
ბაღდადის
ბაღდადიშ
ბაღდათიშ
ბაღეფი
ბაღეფიშ
ბაღეფს
ბაღი
ბაღის
ბაღიქ
ბაღიშ
ბაღჷრე
ბაში
ბაშკირეთი
ბაშკირეთიშ
ბაშკირეფი
ბაჩანი
ბაცბური
ბაძაძეფი
ბაძაძეფით
ბაძაძეფიშ
ბაძაძეფს
ბაძაძი
ბაძაძით
ბაძაძის
ბაძაძიქ
ბაძაძიშ
ბაძაძო
ბახი
ბახიქ
ბახიშ
ბახმარო
ბახმაროშ
ბაჰამიშ
ბაჰრ
ბაჰრეინი
ბაჰრეინიშ
ბაჰრეინს
ბები
ბეგბედერი
ბეგი
ბეგინსი
ბეგლარ
ბედი
ბედიაშ
ბედინერ
ბედინერი
ბედინერობაშ
ბედიშ
ბედუინეფი
ბედუინეფიშ
ბედუინეფს
ბედუინი
ბეერ
ბევერლი
ბევრი
ბეზენგიშ
ბეთე
ბეთექ
ბეთეშ
ბეთჰოვენიშ
ბეი
ბეიკერიშ
ბეილი
ბეირუთი
ბეის
ბეისბოლიშ
ბეიტსი
ბეიშ
ბეკერელი
ბეკერიშ
ბეკონი
ბეკუსი
ბელ
ბელა
ბელადი
ბელაია
ბელარ
ბელარუსეფი
ბელარუსი
ბელარუსის
ბელარუსიშ
ბელარუსიწკჷმა
ბელარუსული
ბელაქანი
ბელაქანიშ
ბელგია
ბელგიარეფი
ბელგიარი
ბელგიას
ბელგიაშ
ბელგოროდიშ
ბელგრადი
ბელგრადიშ
ბელი
ბელიზი
ბელიზის
ბელიზიშ
ბელინსჰაუზენიშ
ბელიქ
ბელიშ
ბელორუსია
ბელორუსიაშ
ბელორუსიშ
ბელუ
ბელუჩი
ბელუჯისტანი
ბელუჯისტანიშ
ბელუჯისტანს
ბელფასტი
ბემოლ
ბენ
ბენაშვილი
ბენგ
ბენგალი
ბენგალის
ბენგალიშ
ბენგალურ
ბენგალური
ბენდი
ბენდიშ
ბენდუქიძე
ბენედიქტ
ბენედიქტე
ბენეტ
ბენეტი
ბენი
ბენილუქსიშ
ბენინი
ბენინიშ
ბენინს
ბენიტო
ბენიშ
ბენჯამინ
ბერ
ბერაძე
ბერბერ
ბერბერეფი
ბერბერი
ბერბერულ
ბერბერული
ბერბიჯი
ბერგიშ
ბერგმანი
ბერგსტრიომი
ბერდი
ბერდიაევი
ბერდიაევიშ
ბერდიაევს
ბერდიაევქ
ბერეფიშ
ბერი
ბერია
ბერიას
ბერიაშ
ბერინგიშ
ბერიქ
ბერიძე
ბერკი
ბერკლი
ბერკლის
ბერკლიშ
ბერლინ
ბერლინალეშ
ბერლინი
ბერლინიშ
ბერლინს
ბერლინშა
ბერმუდაშ
ბერნალი
ბერნალიქ
ბერნარ
ბერნარდ
ბერნარდო
ბერნარი
ბერნერს
ბერნი
ბერნიშ
ბერნჰარდ
ბეროუზიშ
ბერტ
ბერტოლუჩიშ
ბერტრან
ბერცელიუსი
ბერცელიუსიქ
ბერძ
ბერძენ
ბერძენეფი
ბერძენეფიშ
ბერძენეფს
ბერძენეფქ
ბერძენი
ბერძენიშვილი
ბერძენულ
ბერძენული
ბერძენულო
ბერძენულს
ბერძენულშე
ბერძნ
ბერძნულ
ბერძნული
ბერძნულო
ბერჯეკი
ბესარიონ
ბესკიდეფი
ბესლეთი
ბესლეთიშ
ბესტსელერო
ბეტ
ბეტა
ბეტანი
ბეტმენი
ბეტმენიშ
ბეტონიშ
ბექ
ბექა
ბექაური
ბექვიზ
ბექჰემქ
ბეშტელი
ბეშტუა
ბეჩა
ბეჯი
ბზიფიშ
ბზოთონჯი
ბზოთონჯის
ბი
ბია
ბიატლონი
ბიბერქ
ბიბი
ბიბილო
ბიბლეფო
ბიბლია
ბიბლიას
ბიბლიაშ
ბიბლიოგრაფია
ბიბლიოთეკა
ბიბლიოთეკარი
ბიბლიოთეკას
ბიბლიოთეკაქ
ბიბლიოთეკაშ
ბიბლიოთეკეფი
ბიბლიური
ბიგ
ბიზანტია
ბიზანტიარეფი
ბიზანტიარეფიშ
ბიზანტიარეფს
ბიზანტიარეფქ
ბიზანტიარი
ბიზანტიას
ბიზანტიაშ
ბიზანტიუმი
ბიზანტიურ
ბიზანტიური
ბიზნეს
ბიზნესი
ბიზნესის
ბიზნესიშ
ბიზნესმენეფი
ბიზნესმენი
ბიზნესმენიშ
ბითლზი
ბითლზიშ
ბილ
ბილბაო
ბილბაოშ
ბილბო
ბილბორდ
ბილბორდიშ
ბილეთიქ
ბილი
ბილიშ
ბილროთი
ბინ
ბინა
ბინას
ბინგემქ
ბინდი
ბინდიშ
ბინეხი
ბინეხიშ
ბინი
ბინიშ
ბიო
ბიოგეოგრაფია
ბიოგეოგრაფიული
ბიოგრაფეფი
ბიოგრაფი
ბიოგრაფია
ბიოგრაფიაშ
ბიოგრაფიაშე
ბიოგრაფიეფი
ბიოგრაფიეფიშ
ბიოგრაფიეფშა
ბიოგრაფიულ
ბიოგრაფიული
ბიოი
ბიოლოგეფი
ბიოლოგი
ბიოლოგია
ბიოლოგიას
ბიოლოგიაშ
ბიოლოგიურ
ბიოლოგიური
ბიოლოგიურო
ბიოსფერო
ბიოსფეროშ
ბიოსფერული
ბიოტექნოლოგიაშ
ბიოფიზიკაშ
ბიოფიზიკოსი
ბიოქიმია
ბიოქიმიას
ბიოქიმიაშ
ბიოქიმიკოსეფი
ბიოქიმიკოსი
ბიოქიმიური
ბირა
ბირათ
ბირას
ბირაქ
ბირაშ
ბირაშო
ბირგულდოშქუმალირი
ბირგული
ბირგულიშ
ბირგულს
ბირეფი
ბირეფით
ბირეფიშ
ბირეფს
ბირთვის
ბირთვიშ
ბირთვულ
ბირთვული
ბირთვური
ბირმა
ბირმანი
ბირმაშ
ბირმინგემი
ბირმინგემიშ
ბირმულ
ბირმული
ბირნი
ბირჟას
ბირტყა
ბირტყას
ბირცხა
ბირცხაშ
ბირცხეფს
ბისაუ
ბისაუშ
ბისექსუალობა
ბისკაია
ბისკაიაშ
ბისმარკი
ბისმარკიშ
ბისტრიცა
ბიტი
ბიურო
ბიუროკრატი
ბიუროს
ბიუროშ
ბიუსტი
ბიუჯეტი
ბიუჯეტით
ბიუჯეტიშ
ბიში
ბიჩი
ბიძინა
ბიწორა
ბიწორას
ბიწორი
ბიჭვინთაშ
ბიჯგეფი
ბიჯგი
ბიჯგის
ბიჰარი
ბიჰარიშ
ბიჰარს
ბიჰევიორიზმიშ
ბლაიჯი
ბლანტი
ბლანშეტი
ბლეიკი
ბლეიკიქ
ბლეიკიშ
ბლეკ
ბლეკი
ბლეკინგე
ბლეკიშ
ბლერი
ბლექ
ბლექი
ბლოგი
ბლოკი
ბლოკიე
ბლოკის
ბლოკიქ
ბლოკიშ
ბლომბერგენი
ბლუ
ბლუზ
ბლუზი
ბლუზიშ
ბლუმი
ბო
ბოასი
ბოასიქ
ბობ
ბობი
ბობოხიძე
ბოგოტა
ბოდენიშ
ბოვუარი
ბოზე
ბოთილეფი
ბოთილეფშა
ბოთილი
ბოთილს
ბოილი
ბოილიშ
ბოკერია
ბოკი
ბოკიშ
ბოკუჩავა
ბოლენი
ბოლივარი
ბოლივარიშ
ბოლივია
ბოლივიარ
ბოლივიარი
ბოლივიას
ბოლივიაშ
ბოლივიაშა
ბოლივიაწკჷმა
ბოლივიური
ბოლივუდი
ბოლივუდიშ
ბოლნისიშ
ბოლო
ბოლონია
ბოლონიას
ბოლონიაშ
ბოლოს
ბოლოშ
ბოლოშა
ბოლოშახ
ბოლოშე
ბოლოშო
ბოლშევიკეფიშ
ბოლშევიკურ
ბოლშევიკური
ბომბარდირეფი
ბომბეი
ბომბი
ბომბიშ
ბომბუაშ
ბონ
ბონაპარტი
ბონაპარტიქ
ბონაპარტიშ
ბონას
ბონდი
ბონდიშ
ბონდო
ბონემ
ბონი
ბონიფაციუს
ბონიშ
ბონო
ბორა
ბორბოლია
ბორდენი
ბორდო
ბორდოს
ბორდოშ
ბორია
ბორიას
ბორიაშ
ბორიეფი
ბორიეფიშ
ბორის
ბორიშ
ბორკეფი
ბორკეფიშ
ბორკი
ბორნეო
ბორნი
ბორნიშ
ბოროყვარია
ბორჩხა
ბორჩხაშ
ბორხესი
ბორხესის
ბორხესიშ
ბორჯეფი
ბორჯეფიშ
ბორჯეფს
ბორჯი
ბორჯით
ბორჯის
ბორჯისჷთ
ბორჯისჷნე
ბორჯიქ
ბორჯიშ
ბორჯიშა
ბორჯიშახ
ბორჯიშე
ბორჯიშო
ბორჯიშოღალი
ბორჯო
ბორჯომ
ბორჯომი
ბორჯომის
ბორჯომიშ
ბორჯომს
ბორჯომშა
ბორჯღალა
ბორჯშა
ბოსვაშიშ
ბოსნია
ბოსნიარეფი
ბოსნიარი
ბოსნიაშ
ბოსნიური
ბოსტონი
ბოსტონიშ
ბოსტონს
ბოსფორიშ
ბოტანიკა
ბოტანიკას
ბოტანიკაშ
ბოტანიკოსეფი
ბოტანიკოსი
ბოტანიკურ
ბოტანიკური
ბოტეფი
ბოტიშ
ბოტნიაშ
ბოტსვანა
ბოტსვანას
ბოტსვანაშ
ბოუი
ბოფორტიშ
ბოქვი
ბოქსიორეფი
ბოქსიორი
ბოქსიტეფი
ბოქსიშ
ბოშეფი
ბოშეფიშ
ბოში
ბოშის
ბოშიქ
ბოშიშ
ბოწოწი
ბოხუმი
ბოხუსლენი
ბოჰემიაშ
ბჟა
ბჟად
ბჟადაალ
ბჟადაალშე
ბჟადალ
ბჟადალი
ბჟადალიშ
ბჟადალიშე
ბჟადალს
ბჟადალუ
ბჟადალურ
ბჟადალური
ბჟადალუს
ბჟადალუშ
ბჟადალუშა
ბჟადალუშე
ბჟადალშა
ბჟადალშახ
ბჟადალშე
ბჟადალჸურე
ბჟაეილშე
ბჟაეიო
ბჟაეიოლ
ბჟაეიოლი
ბჟაეიოლით
ბჟაეიოლიშ
ბჟაეიოლიშე
ბჟაეიოლიშჸურე
ბჟაეიოლო
ბჟაეიოლს
ბჟაეიოლუ
ბჟაეიოლურ
ბჟაეიოლური
ბჟაეიოლუშ
ბჟაეიოლშა
ბჟაეიოლშე
ბჟაეიოლჸურე
ბჟათ
ბჟაიოლ
ბჟაიოლშე
ბჟალამი
ბჟას
ბჟაქ
ბჟაშ
ბჟაშე
ბჟაშიერი
ბჟაშუმუ
ბჟაშუმუეფი
ბჟაშუმუეფიშ
ბჟაწვენს
ბჟე
ბჟეიოლ
ბჟეიოლი
ბჟეიოლშე
ბჟეშ
ბრაბანტიშ
ბრაგა
ბრაგაშ
ბრაზავილი
ბრაზილია
ბრაზილიარეფი
ბრაზილიარი
ბრაზილიას
ბრაზილიაშ
ბრაზილიაწკჷმა
ბრაზილიური
ბრაზოსის
ბრაიან
ბრალი
ბრამსი
ბრანდენბურგი
ბრანდენბურგიშ
ბრანდო
ბრანსუიკი
ბრატისლავა
ბრაუნი
ბრაუნიშ
ბრაუნქ
ბრაჰე
ბრაჰექ
ბრაჰმაპუტრა
ბრაჰმაპუტრაშ
ბრაჰმაშ
ბრეგი
ბრეგიქ
ბრედ
ბრედბერიშ
ბრედი
ბრედლი
ბრელ
ბრელაშო
ბრელთოლამი
ბრელი
ბრელიე
ბრელით
ბრელს
ბრელქ
ბრელშა
ბრემენი
ბრემენიშ
ბრენდან
ბრენდეფი
ბრენდი
ბრენერი
ბრესლაუშ
ბრესტ
ბრესტი
ბრეტ
ბრეტანი
ბრეტანიშ
ბრეტონული
ბრეხტი
ბრეხტიშ
ბრიანსკიშ
ბრიგანტეფი
ბრიენციშ
ბრიზბენი
ბრიზი
ბრინჯაოშ
ბრინჯიშ
ბრისტოლი
ბრისტოლიშ
ბრიტანალ
ბრიტანალეფი
ბრიტანალეფქ
ბრიტანალი
ბრიტანეთი
ბრიტანეთის
ბრიტანეთიქ
ბრიტანეთიშ
ბრიტანეთიშა
ბრიტანეთიშე
ბრიტანეთშა
ბრიტანეთშე
ბრიტანიკა
ბრიტანიკას
ბრიტანიკაშ
ბრიტანულ
ბრიტანული
ბრიტეფიშ
ბრიტნი
ბრიუს
ბრიუსელი
ბრიუსელიშ
ბრიუსელს
ბრიუსიშ
ბრნო
ბროდვეის
ბროდვეიშ
ბროკჰაუზიშ
ბრონზე
ბრონზეშ
ბრონქსი
ბრონქსის
ბროსნანი
ბროუდ
ბროუდი
ბრუკი
ბრუკლინი
ბრუკლინიშ
ბრუკლინს
ბრუნეი
ბრუნეის
ბრუნეიშ
ბრუნო
ბრუო
ბრუოვითოშიანეფი
ბრუოვითოშიანი
ბრუოიანიშ
ბრუოშ
ბრუოშა
ბრუს
ბრუტუსი
ბრძ
ბრძოლა
ბუ
ბუგენვილიშ
ბუდა
ბუდაპეშტი
ბუდაპეშტის
ბუდაპეშტიშ
ბუდაშ
ბუდეიოვიცე
ბუდიზმი
ბუდიზმიქ
ბუდიზმიშ
ბუდისტეფი
ბუდისტი
ბუდისტურ
ბუდისტური
ბუენოს
ბუკაშ
ბუკერიშ
ბუკიტ
ბულათიშ
ბულგ
ბულგაკოვი
ბულგაკოვიშ
ბულგარალეფი
ბულგარეთი
ბულგარეთის
ბულგარეთიქ
ბულგარეთიშ
ბულგარეფიშ
ბულგარულ
ბულგარული
ბულეკი
ბულვარი
ბული
ბულიშ
ბუმა
ბუმაშ
ბუმიშ
ბუნა
ბუნათ
ბუნას
ბუნასტილი
ბუნაქ
ბუნაშ
ბუნაშა
ბუნაშე
ბუნაშით
ბუნაშო
ბუნაწკჷმა
ბუნდესლიგაშ
ბუნდესპრეზიდენტი
ბუნდესტაგი
ბუნეფი
ბუნეფით
ბუნეფიშ
ბუნეფო
ბუნეფს
ბუნეფქ
ბუნეფშე
ბუნეფწკჷმა
ბუნზენი
ბუნიობაშ
ბუნიშ
ბუნობაშ
ბუნურ
ბუნური
ბუნშა
ბურ
ბურბონეფიშ
ბურგასი
ბურგოსი
ბურგოსიშ
ბურდღა
ბურდღას
ბურეფიშ
ბურთანა
ბურთეფიშ
ბურთი
ბურთით
ბურთის
ბურთიქ
ბურთიშ
ბურიატეთი
ბურიატეთიშ
ბურიატეფიშ
ბურიატული
ბურკინა
ბურჟუაზიული
ბურსა
ბურსაშ
ბურუნდი
ბურუნდის
ბურუნდიშ
ბურჭულაძე
ბურჭულაძექ
ბურჯანაძე
ბურჯაფეფი
ბურჯაფეფიშ
ბურჯაფი
ბურჯაფის
ბურჯაფიქ
ბურჯაფიშ
ბუტუტია
ბუფალო
ბუფერული
ბუქარესტი
ბუში
ბუშიქ
ბუშიშ
ბუშმენეფი
ბუხარა
ბუხარაშ
ბუხარი
ბუხენვალდიშ
ბუჯგუა
ბუჰენი
ბღებულენთ
ბღოლათ
ბძირი
ბხვადუნა
ბჰაგავადგიტა
ბჰავნაგარი
ბჰოჯპური
ბჰუტანი
ბჰუტანიშ
ბჰუტანს
გ
გა
გაათუ
გაამა
გაახალჷ
გაბარეფი
გაბარეფს
გაბარი
გაბარიშ
გაბარს
გაბაშვილი
გაბონი
გაბონიშ
გაბორი
გაბრას
გაბრიელ
გაბრიელა
გაბუნია
გაგა
გაგარინი
გაგარინიშ
გაგაჩამეფიშ
გაგაჩამი
გაგაჩი
გაგაჩიშ
გაგება
გაგებათ
გაგებას
გაგებაშ
გაგებელო
გაგიდა
გაგინძორება
გაგინძორებაშ
გაგინძორჷ
გაგმაცხადეს
გაგმაცხადჷ
გაგრა
გაგრაშ
გაგშერთჷ
გაგჷნძორჷ
გადამისამართება
გადაცემა
გადუდიშულუ
გადუდიშულჷ
გაელ
გავალი
გავალს
გავარი
გავითარეს
გავითარჷ
გავრილოვიშ
გაზ
გაზარხულს
გაზეთ
გაზეთეფი
გაზეთეფიშ
გაზეთეფს
გაზეთი
გაზეთის
გაზეთიშ
გაზი
გაზიშ
გათინალი
გათუ
გათჷ
გაი
გაიანა
გაიანაშ
გაიდუზეკიქ
გაირდნერიშ
გაიუს
გაიუსი
გაიუსიშ
გაკვეთილეფი
გალავანიშ
გალაკტიონ
გალაკტიონიშ
გალამ
გალაპაგოსიშ
გალაქტიკა
გალაქტიკას
გალაქტიკაშ
გალაქტიკეფი
გალაქტიკეფიშ
გალაქტიკეფს
გალაქტიკური
გალბა
გალე
გალეიან
გალეიანი
გალენ
გალენი
გალენიშ
გალენურ
გალენური
გალერეა
გალერეას
გალერეაშ
გალეფი
გალეშე
გალი
გალია
გალიას
გალილეა
გალილეიქ
გალილეიშ
გალილეო
გალისია
გალისიაშ
გალისიური
გალიშ
გალუანი
გალუსი
გამ
გამა
გამაგე
გამათ
გამაკოჩი
გამალ
გამამინჯალა
გამამინჯალაშ
გამამინჯე
გამას
გამაშ
გამბია
გამბიას
გამბიაშ
გამბიეშ
გამგე
გამგეობაშ
გამნარყეფი
გამნარყი
გამნარყის
გამნარყიშ
გამნარყობაშ
გამო
გამოკვლევა
გამომსახველი
გამომც
გამომცემლობა
გამორსა
გამოყენებული
გამოც
გამოცემა
გამსახურდია
გამსახურდიაქ
გამსახურდიაშ
გამუკორჩქინდჷ
გამშეღჷ
განა
განათება
განათებაშ
განათებული
განათლება
განათლებაშ
განაპოლსკი
განარჩქინიშ
განას
განაშ
განგი
განგიშ
განდაკი
განდალფი
განდი
განდინაგარი
განდიქ
განდიშ
განედეფს
განედი
განედის
განედიშ
განედური
განეფს
განვითარების
განზიშ
განთხი
განი
განიერი
განივ
განით
განიშ
განმარტებითი
განობა
განობას
განობაშ
განობეფი
განობეფს
განს
განტოლებეფიშ
განყოფილება
განშე
განც
განცხადება
განძი
განწხანს
განწხანც
განხილვა
განჯა
განჯაშ
გაოსიუნი
გარა
გარანტი
გარახა
გარახონაიშ
გარბო
გარგანოშ
გარდა
გარდაბანიშ
გარდაშ
გარდაცვლილი
გარდნერი
გარემო
გარემოს
გარემოშ
გარეშე
გარი
გარიბალდი
გარიბალდის
გარიბალდიქ
გარიბალდიშ
გარიგა
გარიგაშ
გარკვეულ
გარკვეული
გარკვიებულ
გარკვიებული
გარკვიულ
გარკვიული
გარნიზონი
გარსია
გარტყჷ
გარფილდი
გარჩქინჷ
გარჩქჷ
გარძახ
გას
გასა
გასაშ
გასახიერებული
გასახიერჷ
გასერი
გასქვამებული
გატარჷ
გატეფი
გაუდი
გაუდიშ
გაულა
გაულათ
გაულას
გაულაშ
გაუსი
გაუქვუ
გაუქვჷ
გაუჯგუშებული
გაუჯგუშჷ
გაფართინუ
გაფორმჷ
გაღა
გაღიერი
გაშ
გაშენებული
გაშერბრუმ
გაჩემება
გაჩემებულ
გაჩენდჷ
გაჩერებაშ
გაჩერებული
გაჩერჷ
გაჩეჩილაძე
გაჩინებაფუ
გაჩქჷ
გაცხადეს
გაცხადჷ
გაჭირებას
გაჭყანს
გაჭყეს
გაჭყუ
გაჭყჷ
გახარია
გახარიაშ
გაჯოგალი
გდანსკი
გდრ
გე
გეახალჷ
გებიშ
გეგაფილი
გეგენს
გეგეჭკორი
გეგთარაგუეს
გეგია
გეგინძორჷ
გეგლანწყეს
გეგმა
გეგმათ
გეგმას
გეგმაქ
გეგმაშ
გეგმაცხადეს
გეგმაცხადჷ
გეგმაჸათეს
გეგმელი
გეგმეფი
გეგმიგონეს
გეგმირინე
გეგმირინეთ
გეგმიური
გეგმიქიმინჷ
გეგმიცხადჷ
გეგმუცხადჷ
გეგნაკეთეს
გეგნასვანჯეს
გეგნაჩჷ
გეგნახორეს
გეგნიკეთჷ
გეგნირთჷ
გეგნიქიმინჷ
გეგნიღეს
გეგნიღით
გეგნიღჷ
გეგნიხორეს
გეგნიხორჷ
გეგნიჸონეს
გეგნოდირთჷ
გეგნორაჸეს
გეგნორთეს
გეგნორთჷ
გეგნოფურინჷ
გეგნოჩეს
გეგნოჩჷ
გეგნოჭარით
გეგნოჭვეს
გეგნოჭყვადჷ
გეგნოჭყვიდეს
გეგნოჭყვიდჷ
გეგნოჭყორდჷ
გეგშაგორეს
გეგშაგორჷ
გეგშარაჸეს
გეგშართჷ
გეგშაშქვეს
გეგშაშქჷ
გეგშაჸათეს
გეგშეგორეს
გეგშერთჷ
გედგეს
გედგჷ
გედგჷდჷ
გედვალა
გედვალირი
გედირთჷ
გედუ
გევარა
გევარას
გევარაქ
გევარაშ
გევარაშით
გევენჯი
გევითარჷ
გეზა
გეზათ
გეზას
გეზაშ
გეთაყვა
გეთმუძინანა
გეთუ
გეთჷ
გეი
გეიტსი
გეკვა
გეკიდილი
გეკიდჷ
გელა
გელათიშ
გელდერლანდიშ
გელოვანი
გემანგარჷ
გემანთხაფალი
გემანთხაფალიშ
გემანთხაფალს
გემანთხაფალქ
გემანტირე
გემარენჯი
გემაჸვენჯეეფი
გემაჸვენჯეფი
გემაჸვენჯეფიშ
გემაჸვენჯეფს
გემაჸვენჯი
გემაჸვენჯობა
გემაჸვენჯობას
გემაჸვენჯობეფი
გემეფიშ
გემთიღჷ
გემინდორიას
გემიშართჷ
გემიშეჭკირჷ
გემო
გემოთ
გემოს
გემოშ
გემუან
გემუანი
გემშართეს
გემშართჷ
გემშეღეს
გემშეღჷ
გემშეჭკირეს
გემშეჭკირჷ
გემშეჸონჷ
გემშიღჷ
გემშიჭკირჷ
გენაძახა
გენეალოგია
გენეზისი
გენერალ
გენერალეფი
გენერალი
გენერალიშ
გენერალურ
გენერალური
გენერალქ
გენერატორი
გენეტიკა
გენეტიკას
გენეტიკაშ
გენეტიკოსეფი
გენეტიკოსი
გენეტიკურ
გენეტიკური
გენეტიკურო
გენთხაფა
გენთხაფას
გენთხაფაშ
გენთხაფური
გენი
გენიალური
გენიაშ
გენიოსი
გენიტალური
გენომი
გენოციდი
გენოციდიშ
გენტი
გენუა
გენუას
გენუაშ
გენური
გენუციუს
გენშართჷ
გენძალიერჷ
გენწყილი
გენჭირათ
გენჯირაფონ
გეოგრაფეფი
გეოგრაფი
გეოგრაფია
გეოგრაფიას
გეოგრაფიაქ
გეოგრაფიაშ
გეოგრაფიის
გეოგრაფიულ
გეოგრაფიული
გეოგრაფიულო
გეოდეზია
გეოდეზიური
გეოთერმული
გეოლოგეფი
გეოლოგი
გეოლოგია
გეოლოგიას
გეოლოგიაშ
გეოლოგიურ
გეოლოგიური
გეოლოგიურო
გეომაგნიტური
გეომეტრია
გეომეტრიას
გეომეტრიაშ
გეომეტრიული
გეომორფოლოგია
გეოპოლიტიკური
გეორგ
გეორგია
გეორგიევსკიშ
გეოფიზიკა
გეოფიზიკოსი
გეოფიზიკური
გეოქრონოლოგია
გეოცენტრიზმი
გეოცენტრული
გეპონილი
გეპონუ
გეპონუათ
გეპონჷ
გერ
გერბეფი
გერბი
გერბიშ
გერგეზეფი
გერგეზეფიშ
გერგეზეფს
გერგეზი
გერგეზის
გერგეზიშ
გერგი
გერგიშ
გერგობათუთა
გერგობათუთას
გერგობათუთაშ
გერგობათუთაშახ
გერგობათუთაშე
გერდეს
გერდჷ
გერე
გერედჷ
გერენა
გერერო
გერთელი
გერი
გერინაფილი
გერინაფონ
გერინელ
გერინელი
გერიშ
გერმ
გერმან
გერმანალ
გერმანალეფი
გერმანალეფიშ
გერმანალი
გერმანია
გერმანიას
გერმანიაქ
გერმანიაშ
გერმანიაშა
გერმანიაშე
გერმანიაშით
გერმანიაწკჷმა
გერმანიკული
გერმანულ
გერმანული
გერმანულნინამი
გერმანულო
გერმანულს
გერმანულწკჷმა
გერნსბეკიქ
გერსხილ
გერსხილი
გერსხილიე
გერსხუ
გერსხუაფილი
გერსხჷ
გერტრუდ
გერჯგინაშ
გერჰარდ
გეტინგენი
გეტინგენიშ
გეტირხჷ
გეტსბი
გეუკუმელაფა
გეუკუმელაფაშ
გეუფრაშჷ
გეუქვუ
გეუქვჷ
გეუძინჷ
გეუჯგუშჷ
გეფართუ
გეფორმჷ
გეღანი
გეღარქუნიქი
გეშა
გეშათ
გეშალჷ
გეშან
გეშართჷ
გეშკე
გეშკექ
გეშქუმალა
გეშქუმალათ
გეშქუმალას
გეშქუმალაშ
გეშქუმალაშახ
გეჩინებაფუ
გეჩინებაფუანს
გეძინა
გეძინათ
გეძინაფონ
გეძინაფონი
გეძინაშ
გეძინელ
გეძინელი
გეძინელო
გეძჷ
გეწ
გეწას
გეწორაფაშ
გეჭარჷ
გეჭოფეს
გეჭოფუ
გეჭოფუნდჷ
გეჭოფჷ
გეჭყანიერჷ
გეხანტილი
გეხვილჷ
გეხორაფეფი
გეჯანჷ
გეჸვენჯ
გეჸვენჯი
გეჸვენჯის
გეჸვენჯიშობურო
გეჸვენჯო
გეჸვეჯი
გეჸუნა
გეჸუნდჷ
გეჸუნს
გვ
გვადალახარა
გვადელუპა
გვალა
გვალათონა
გვალამ
გვალამი
გვალარეფიშ
გვალარი
გვალას
გვალაშ
გვალაშა
გვალაშე
გვალაში
გვალაშწჷმოხონეფიშ
გვალაშწჷმოხონიშ
გვალაწკჷმა
გვალე
გვალეფი
გვალეფით
გვალეფიშ
გვალეფს
გვალეფშა
გვალეფშახ
გვალეფშე
გვალეფწკჷმა
გვალიორი
გვალიორიშ
გვალო
გვალონა
გვალონას
გვალონაშ
გვამიშ
გვანდრა
გვანცელაძე
გვარ
გვარდია
გვარეფი
გვარეფიშ
გვართა
გვართეფი
გვარი
გვარიან
გვარიანი
გვარიანო
გვარიშ
გვარიშე
გვარო
გვარობა
გვარობათ
გვარობას
გვარობაშ
გვარობაშე
გვარობეფი
გვარობეფიშ
გვარობეფს
გვარს
გვარშე
გვატემალა
გვატემალარი
გვატემალას
გვატემალაქ
გვატემალაშ
გვატემალაშა
გვახარია
გვერდ
გვერდი
გვერდის
გვერდიშ
გვერდიშე
გვერდო
გვერდოანკლავი
გვერდოექსკლავი
გვერდოსფერო
გვერდოსფეროეფი
გვერდოსფეროეფიშ
გვერდოსფეროს
გვერდოსფეროშ
გვერდოტიოზეფს
გვერდოტიოზი
გვერდშე
გვერეფი
გვერეფიშ
გვერი
გვერიშ
გვიან
გვიანა
გვიანაშ
გვიანი
გვიანიშ
გვიანო
გვიგვილი
გვიგვილიშ
გვინეა
გვინეას
გვინეაშ
გვინეთ
გვირაბეფი
გვირაბი
გვირგვინიშ
გვირზილი
გვირზილიშ
გვირზილს
გზა
გი
გია
გიადუ
გიადჷ
გიანთხჷ
გიარსხუ
გიაძინუ
გიაძინჷ
გიბონი
გიბონიშ
გიბჟინჷ
გიბრალტარი
გიბრალტარიშ
გიბსიშ
გიბსონი
გიგა
გიგანტეფი
გიგანტი
გიგანტურ
გიგანტური
გიგი
გიგინეიშვილი
გიდი
გივი
გიზა
გიზაშ
გიზო
გითანჯჷ
გითმითანჯუ
გითმიჭყაფუ
გითოგორილი
გილ
გილალუაფირი
გილბერტ
გილბერტიშ
გილგიტ
გილდიაშ
გილელჷ
გილერმო
გილეშეს
გილეშჷ
გილმორი
გილმორიშ
გილმორს
გილმორქ
გილულა
გილურს
გილფი
გიმათუთა
გიმათუთას
გიმანთხაფალი
გიმარენჯი
გიმარნაფალი
გიმე
გიმენ
გიმენბუნა
გიმენბუნათ
გიმენბუნას
გიმენბუნაშ
გიმენგვარობა
გიმენი
გიმენოლქო
გიმენრანწკი
გიმენტიპი
გიმენფანია
გიმენფანიას
გიმიბჟინუ
გიმიბრინუათ
გიმიგონეს
გიმიგონჷ
გიმირინუ
გიმირინუანა
გიმირინუანდეს
გიმირინუანდჷ
გიმირინუანს
გიმირინუაფუ
გიმირინუაფუდჷ
გიმირინუაფჷ
გიმირკვიეს
გიმირკვიუ
გიმირჩქინჷ
გიმიქიმინჷ
გიმიშღვერე
გიმიჩინჷ
გიმიჩჷ
გიმიცხადჷ
გიმიჭანუ
გიმნაველი
გიმნაზია
გიმნაზიას
გიმნაზიაშ
გიმნართი
გიმნართიშ
გიმნარკი
გიმორინაფა
გიმორინაფათ
გიმორინაფას
გიმორინაფაშ
გიმორინაფილი
გიმორინაფილქ
გიმორჩქინდჷ
გიმორჩქინელი
გიმორძგვეს
გიმორძგუ
გიმორძგჷ
გიმოღალაშ
გიმოჩამათ
გიმოჩამილი
გიმოხანტილი
გიმულა
გიმურს
გიმუურს
გინაგაფალი
გინაგაფურეფიშ
გინათირჷ
გინართინუ
გინართინუანს
გინასქიდჷ
გინასქილიდაფარო
გინაულარი
გინაულარო
გინაფა
გინაფას
გინაფაშ
გინაფეფიშ
გინაფულენს
გინაქუნალი
გინაღალარი
გინაღალარო
გინაშქვანს
გინაშქვეს
გინაშქუ
გინაჩამალო
გინაჩამუ
გინაჩირთჷ
გინაჩჷ
გინაწონს
გინაჭყვიდალო
გინაჯინე
გინაჯინუ
გინაჯინუშე
გინეკოლოგია
გინეკოლოგიური
გინესიშ
გინივარუ
გინილ
გინილეს
გინილჷ
გინირთას
გინირთეს
გინირთუ
გინირთჷ
გინიქიმინჷ
გინიღეს
გინიღჷ
გინიჩამუ
გინმადვალუ
გინმალი
გინმამუშებელი
გინმართინუანს
გინმაულარი
გინმაღალარი
გინმაჩამუ
გინმაჩირთუ
გინმაჯინე
გინმირთუ
გინმირთუნა
გინმიშჷ
გინმიჩამუ
გინმოკვათჷნს
გინმოჩანს
გინმოჭკირუნს
გინმულა
გინმურს
გინმუღუდჷ
გინმუღჷ
გინოგაფაშ
გინოდგვე
გინოდვალა
გინოდვალაშ
გინოვარაფილი
გინოზინდილი
გინოზინდილიე
გინოთანგილი
გინოთანგჷ
გინოკვათუას
გინოკვათუაშ
გინოლასირი
გინომეტაფილ
გინომუშებაშ
გინორაჸუა
გინორთა
გინორთათ
გინორთას
გინორთაფაშ
გინორთაშ
გინორთელ
გინორთელი
გინორთელო
გინორთეს
გინორთეფი
გინორთვილი
გინორთი
გინორთით
გინორთიშ
გინორთჷ
გინორინაფა
გინორინაფაშ
გინორინაშ
გინორჩხუალაშ
გინოსქილადა
გინოსქილადაშ
გინოსქილადირი
გინოფორილი
გინოქიმინუა
გინოქიმინუაშ
გინოღალა
გინოღალას
გინოღალაქ
გინოღალაშ
გინოღალეფი
გინოღალეფიშ
გინოღალეფს
გინოღალეფქ
გინოღალირ
გინოღალირი
გინოღალირიე
გინოღალირქ
გინოჩამა
გინოჩამათ
გინოჩამას
გინოჩამაშ
გინოჩამეფიშ
გინოჩამეფს
გინოჩამილი
გინოჩანს
გინოჩეს
გინოჩუ
გინოჩჷ
გინოწონილი
გინოწურაფა
გინოჭკირუაშ
გინოჭყვადილი
გინოჭყვადუათ
გინოჭყვიდეს
გინოჭყვიდილი
გინოჭყვიდირეფიშ
გინოჭყვიდირი
გინოჭყვიდირით
გინოჭყვიდჷ
გინოჭყორდჷ
გინოხარგელი
გინოხორაფა
გინოხორაფილი
გინოჯინა
გინოჯინუ
გინოჸონაფა
გინოჸუნს
გინუგჷ
გინულა
გინულათ
გინულას
გინულაშ
გინულირი
გინურს
გინძე
გინწყუ
გინწყჷ
გიობიჯალი
გიოდგინუ
გიოდვეს
გიოდოხოდჷ
გიოდუ
გიოდჷ
გიონჭაფუ
გიოპონუს
გიორგაძე
გიორგი
გიორგის
გიორგიშ
გიორენჯი
გიორენჯის
გიორსოქ
გიორჯგინეს
გიორჯგინჷ
გიოტალანდი
გიოშქუმალარი
გიოძინალო
გიოხე
გიოჸვილარიშ
გიოჸონალი
გიპერტი
გირგვლიანიშ
გირვანქა
გირთას
გირთეს
გირთჷ
გირი
გირინი
გირინიშ
გირინუაფუ
გირძე
გისიმუ
გისიმჷ
გიტარა
გიტარას
გიტარაშ
გიტარაშა
გიტარაშო
გიტარეფი
გიტარისტ
გიტარისტეფი
გიტარისტი
გიული
გიუმრი
გიუმრიშ
გიუნტერ
გიფაჩუ
გიფაჩჷ
გიშაგორალო
გიშაგორეს
გიშაგორილ
გიშაგორილი
გიშაგორილო
გიშაგორილქ
გიშაგორუა
გიშაგორუაბორც
გიშაგორუაშ
გიშაგორუეფი
გიშაგორუეფით
გიშაგორუეფიშ
გიშაგორუეფს
გიშაგორუეფქ
გიშაგორუეფშო
გიშაკერზაფილ
გიშაკერზაფილი
გიშაკერზაფილო
გიშაკერძაფილ
გიშაკერძაფილი
გიშაკერძაფილო
გიშაკურცხინაფა
გიშალი
გიშალიშ
გიშართ
გიშართილი
გიშართუალა
გიშართუალაშ
გიშართჷ
გიშარჩქინდეს
გიშარჩქინდუ
გიშარჩქინდჷ
გიშარჩქინელ
გიშარჩქინელი
გიშატებულქ
გიშაულარი
გიშაშქვეს
გიშაშქუ
გიშაშქუმალა
გიშაშქუმალაქ
გიშაშქუმალაშ
გიშაშქუმალეფი
გიშაშქუმალეფს
გიშაშქუმალირ
გიშაშქუმალირი
გიშაშქჷ
გიშაჭანაფილი
გიშაჸონაფა
გიშაჸონაფილი
გიშეგორეს
გიშეგორუ
გიშეგორუაფუ
გიშეგორუაფჷ
გიშეგორუაფჷნა
გიშეგორუნა
გიშეგორჷ
გიშელჷ
გიშერთჷ
გიშეშქვინჷ
გიშეშჷ
გიშეჭანუ
გიშეჸონჷ
გიშიგორუ
გიშმაგორალეფიშ
გიშმაგორუნა
გიშმაგორუნს
გიშმაგორჷნა
გიშმაგორჷნს
გიშმალი
გიშმართჷნა
გიშმართჷნს
გიშმაშქვანს
გიშმაშქუმალარი
გიშმეგორუ
გიშმეგორუაფუ
გიშმეგორუდჷ
გიშმერთუ
გიშმერთჷ
გიშმეშჷ
გიშმურს
გიშმუღჷ
გიშნაგორა
გიშნაველი
გიშნაშქუმელი
გიშულა
გიშულას
გიშულაქ
გიშულაშ
გიშულაშე
გიშულეფი
გიშულეფს
გიშულირ
გიშულირი
გიშურს
გიჩქუნა
გიძინჷ
გიჭყჷ
გიხურგუ
გიჸოთჷ
გლადიატორეფიშ
გლადიატორი
გლაზგო
გლაზგოს
გლაზგოშ
გლარნიშ
გლაციალურ
გლაციოლოგია
გლაციოლოგიური
გლახა
გლახათ
გლდანიშ
გლენ
გლისონი
გლობალიზაცია
გლობალიზაციაშ
გლობალურ
გლობალური
გლობულეფი
გლობუსი
გლობუსის
გლობუსიშ
გლოვერი
გლოსტერშირი
გლუკოზა
გმინა
გმინაშ
გმირინუაფუ
გნ
გნაისეფით
გნეუს
გოა
გოართამაფილი
გოართიანაფა
გოართიანაფაშ
გოართიანაფილ
გოართიანაფილი
გოართოიანაფა
გოართოიანაფათ
გოართოიანაფას
გოართოიანაფაქ
გოართოიანაფაშ
გოართოიანაფეფი
გოართოიანაფილ
გოართოიანაფილი
გოაშ
გოახალაფა
გოახალაფაშ
გოახალაფირ
გოახალაფირი
გობინდ
გობიშ
გოგი
გოგინძორაფა
გოგინძორაფას
გოგინძორაფაშ
გოგიჩაიშვილი
გოგოლი
გოგოლიშ
გოგუა
გოგუაშ
გოგჷნძარაფა
გოდავარი
გოდარდი
გოდარდიშ
გოდგჷ
გოდგჷმილი
გოდერძი
გოდერძიშ
გოდვალირი
გოდინჷ
გოდუდიშალაფა
გოდუდიშალაფაშ
გოდუდიშალაფაშო
გოდუდიშულაფა
გოდუდიშულაფას
გოდუდიშულაფაშ
გოდუდიშულაფირი
გოდფრი
გოეთე
გოეთეშ
გოერო
გოეროს
გოეროქ
გოეროშ
გოვითარაფა
გოვითარაფათ
გოვითარაფას
გოვითარაფაქ
გოვითარაფაშ
გოვითარაფაშა
გოვითარაფაშო
გოვითარაფაწკჷმა
გოვითარაფილ
გოვითარაფილი
გოვითარაფილიე
გოზინდილი
გოთანა
გოთანაშ
გოთანჯილ
გოთანჯილი
გოთანჯილიე
გოთანჯუა
გოთანჯუათ
გოთანჯუას
გოთანჯუაშ
გოთანჯჷ
გოთანჯჷნა
გოთემი
გოთიკური
გოთინილი
გოთოლიშწორაფილი
გოთოლწონაფათ
გოთოლწონაფილი
გოთოლწონაფილიე
გოთური
გოთქვილი
გოიასი
გოიასიშ
გოიაშ
გოკიდილი
გოკიდილიე
გოლათი
გოლანიშ
გოლდმანი
გოლეფი
გოლეფიშ
გოლექინაფილი
გოლი
გოლინა
გოლინათ
გოლინამ
გოლინამი
გოლინას
გოლინაქ
გოლინაშ
გოლინიანი
გოლინუან
გოლიშ
გოლოფა
გოლოფამი
გოლოფაშ
გოლუას
გოლუაფას
გოლუაფირი
გოლუმი
გოლჯიშ
გომანგარაფა
გომანგარაფილი
გომანგაფილი
გომანჯელი
გომბორიშ
გომელიშ
გომესი
გომიარაფა
გომიარაფაშ
გომორსილობა
გომორძგვაფა
გომორძგვაფაშ
გომორძგვილ
გომორძგვილეფი
გომორძგვილი
გომორძგვილო
გომორძგვილქ
გომორძგუა
გომორძგუათ
გომორძგუალა
გომორძგუას
გომორძგუაქ
გომორძგუაშ
გონათაფა
გონათაფაშ
გონათუა
გონათუათ
გონათუარობა
გონათუას
გონათუაშ
გონება
გონებაშ
გონთხაფილი
გონთხორილი
გონთხორუეფი
გონთხორუეფით
გონთხორუეფიშ
გონთხორუეფქ
გონსალეს
გონსალესი
გონტკიცაფაშ
გონტკიცაფაშო
გონძაგა
გონწყეს
გონწყილი
გონწყუმა
გონწყუმილი
გონწყჷ
გონწყჷმა
გონწყჷმაშ
გონწყჷმილი
გონჯამილი
გოპატჷნაფილი
გოპეულუა
გოპეულუაშ
გოპიჯალაფირი
გოპიჯალაფირიე
გოპიჯალუ
გოპიჯაფილი
გოპიჯუ
გოპიჯჷ
გორანწკილი
გორანწკილიე
გორაჸჷ
გორგასალიშ
გორგასალს
გორგასალქ
გორგილაფაშ
გორგილაფირი
გორდონ
გორდონი
გორთაშ
გორთეს
გორთილი
გორთილიე
გორთუალა
გორთუალას
გორთუალაშ
გორთჷ
გორი
გორინი
გორიშ
გორკვიაფილ
გორკვიაფილი
გორკი
გორკიქ
გორკიშ
გორს
გორუა
გორუას
გორუაშ
გორუნდჷ
გორუნს
გორჩქინა
გორჩქინათ
გორჩქინას
გორჩქინაშ
გორჩქინდ
გორჩქინდეს
გორჩქინდჷ
გორჩქინელ
გორჩქინელი
გორხვეს
გოსიმაფილი
გოსინთაფა
გოსინთაფაშ
გოსინთელი
გოსოფურ
გოსოფური
გოსხუნილი
გოსხუნუა
გოსხუნუაშ
გოტარდიშ
გოტება
გოტებაშ
გოტებული
გოტებულქ
გოტლანდი
გოტფრიდ
გოულათ
გოუტეს
გოუტუ
გოუტუეს
გოუქვაფა
გოუქვაფაშ
გოუქვაფილი
გოუქვაფილქ
გოუჯგუშაფილი
გოფათქუაშ
გოფართანაფა
გოფართაფაშ
გოფართაფილი
გოფართინაფა
გოფართინაფას
გოფაჩილ
გოფაჩილი
გოფაჩილიე
გოფაჩლი
გოფაჩუა
გოფაჩუათ
გოფაჩუას
გოფაჩუაქ
გოფაჩუაშ
გოფაჩჷ
გოფორმაფა
გოფორმაფაშ
გოფორმაფილი
გოფშა
გოფშაფილი
გოქუნელი
გოქუნილი
გოქუნილიე
გოქჷრჷ
გოღია
გოღორონთაფილი
გოშა
გოშათ
გოშინაშ
გოშხვავაფილი
გოშხვანერაფილი
გოჩა
გოძვენა
გოძვენას
გოძვენაშ
გოძჷ
გოწიმინდუა
გოჭკადილიშ
გოჭკირილი
გოჭყაფა
გოჭყაფათ
გოჭყაფას
გოჭყაფაშ
გოჭყაფაშე
გოჭყაფილი
გოჭყაფილქ
გოჭყვიდეს
გოჭყვიდჷ
გოჭყორდჷ
გოხ
გოხაზჷრაფილი
გოხოლუას
გოხოლუაშ
გოხორციალაფაშ
გოხორციალაფირი
გოხურგელი
გოხურგელიე
გოხურგილი
გოხურგუ
გოხურგუა
გოხურგუას
გოხურგუაშ
გოჯინა
გოჯინაშ
გოჯოგელი
გოჸინილი
გოჸინუაშ
გოჸონაფილი
გოჸორი
გოჸორიშ
გოჸორს
გოჸუნაფას
გოჸუნაფილი
გოჸუნს
გოჸუნსჷ
გოჸუნც
გჟეგოჟ
გრ
გრაბსი
გრაბსიქ
გრადუსეფიშ
გრადუსი
გრადუსის
გრავიტაცია
გრავიტაციაშ
გრავიტაციული
გრავიურა
გრამატიკა
გრამატიკას
გრამატიკაშ
გრამატიკული
გრამი
გრამს
გრან
გრანადა
გრანადაშ
გრანდ
გრანდე
გრანდეს
გრანდეშ
გრანდი
გრანდიოზული
გრანელი
გრანელიშ
გრანთ
გრანიტეფით
გრანიტი
გრანიტიშ
გრანიტოიდეფით
გრანიტული
გრანტ
გრანტი
გრანტიშ
გრასი
გრაუბიუნდენიშ
გრაფ
გრაფი
გრაფიკა
გრაფიკას
გრაფიკაშ
გრაფიკოსი
გრაფიკულ
გრაფიკული
გრაფიტი
გრაფიშ
გრაცია
გრაციშ
გრეგი
გრეგორ
გრეგორი
გრეი
გრეის
გრეიშ
გრემ
გრემი
გრემიქ
გრემიშ
გრენადა
გრენადინეფი
გრენადინეფიშ
გრენლანდია
გრენლანდიას
გრენლანდიაშ
გრეტა
გრიგოლ
გრიგოლისი
გრიგოლიშ
გრიგორი
გრიგორიანულ
გრიგორიანული
გრივნაშ
გრიზმანი
გრიმიშ
გრინ
გრინგარდი
გრინვიჩიშ
გრინი
გრინტი
გრიპიშ
გროზნო
გროზნოშ
გრონინგენიშ
გროს
გროსუ
გრუნტის
გრუნტიშ
გრუშენკა
გრძედი
გუ
გუამი
გუანდუნიშ
გუანტანამოშ
გუანჯოუ
გუანჯოუშ
გუარანი
გუარანიშ
გუასუ
გუასუშ
გუბაზ
გუბაზეული
გუბაზეულიშ
გუბაზიქ
გუბაზიშ
გუბერნატორეფი
გუბერნატორი
გუბერნატორიშ
გუბერნია
გუბერნიას
გუბერნიაქ
გუბერნიაშ
გუბერნიაშა
გუგა
გუგლი
გუდამაყარიშ
გუდაუთაშ
გუდაური
გუთმორთჷნს
გულათ
გულაშ
გული
გულრიფშიშ
გუმბათი
გუმბათიშ
გუმისთაშ
გუმმაგონებელი
გუმნაულა
გუმნაულაშ
გუმნაღელამი
გუმნაღელეფი
გუმნაღელი
გუმნაღელით
გუმნაღელიშ
გუმნაღელს
გუმოგონილი
გუმორჩქინდჷ
გუმოჩხორიაფა
გუმოჩხორიაფაშ
გუნაფალა
გუნაფალეფს
გუპტა
გურ
გურა
გურამ
გურაფა
გურაფას
გურაფაშ
გურაფილეფი
გურაფლენდჷ
გურაფლენს
გურაფულენა
გურაფულენდ
გურაფულენდეს
გურაფულენდჷ
გურაფულენს
გურგაჩამალ
გურგაჩამალი
გურგინელი
გურგინი
გურგინიშ
გურგინუა
გურგინუაშ
გურგინუაშე
გურდვარა
გური
გურია
გურიას
გურიაშ
გურიელი
გურით
გურიშ
გურიშხონარენს
გურკოშ
გურმეჭვია
გურს
გურუ
გურულ
გურული
გურშა
გურშენ
გურშენი
გურშენით
გურჩქინდჷ
გურძემიშ
გურჯისტანიშ
გუსმანი
გუსტავ
გუსტავი
გუსტავიშ
გუსტავს
გუტენბერგი
გუტენბერგის
გუტეს
გუტუ
გუშმურს
გუჩით
გუჭყჷ
გუხურგუ
გუჯარათი
გუჯარათის
გუჯარათიშ
გუჯარათული
გფრ
გჰატიშ
გჷ
გჷდჷ
გჷთახვამალი
გჷთმარჩქინანს
გჷთმაჭყანს
გჷთმითანჯუ
გჷთმიჭყაფუ
გჷთმიჭყაფუაფუ
გჷთმიხურგუ
გჷთმოთანჯუნს
გჷთმოთანჯჷნს
გჷთმოპიჯანს
გჷთმორთუნს
გჷთმორთჷნს
გჷთმოსხუნუნს
გჷთმოხურგანს
გჷირთჷ
გჷმ
გჷმაბჟინეს
გჷმაბჟინუ
გჷმადუდიშალაფარი
გჷმადუდიშულაფარ
გჷმადუდიშულაფარი
გჷმათანჯალი
გჷმათიშალი
გჷმათუთა
გჷმათუთას
გჷმათუთაშ
გჷმათუთაშა
გჷმათუთაშახ
გჷმათუთაშე
გჷმაკოროცხალი
გჷმაკოროცხილი
გჷმართალი
გჷმარინაფალო
გჷმაფაჩალი
გჷმაცხადეს
გჷმაცხადჷ
გჷმაცხადჷნ
გჷმაჭყაფალი
გჷმაჭყაფალო
გჷმახანტალო
გჷმიბჟინუ
გჷმიგონჷ
გჷმიკოროცხუ
გჷმილინჷ
გჷმიმუშენს
გჷმირაგადუ
გჷმირაგადუაფუ
გჷმირთუ
გჷმირინეთ
გჷმირინეს
გჷმირინუ
გჷმირინუათ
გჷმირინუანა
გჷმირინუანდეს
გჷმირინუანდჷ
გჷმირინუანს
გჷმირინუაფუ
გჷმირინუაფუდუ
გჷმირინუაფუდჷ
გჷმირინუაფჷ
გჷმიქიმინუ
გჷმიქიმინჷ
გჷმიჩამუდჷ
გჷმიჩინჷ
გჷმიცხადჷ
გჷმიჭანუ
გჷმიჭანუანს
გჷმიჭანუას
გჷმიჭანჷ
გჷმიხანტუ
გჷმიხანტუაფუდჷ
გჷმიხანტუდჷ
გჷმიხანტჷ
გჷმმაგონებელეფი
გჷმმაგონებელი
გჷმმაჭანაფალი
გჷმნართი
გჷმნართის
გჷმნარკი
გჷმნაღელი
გჷმობჟინაფა
გჷმობჟინაფაშ
გჷმობჟინაფილ
გჷმობჟინაფილი
გჷმობჟინაფილქ
გჷმოგონებეფი
გჷმოგონილი
გჷმოთქუ
გჷმოთქუალა
გჷმოკითხირს
გჷმოკოროცხილი
გჷმოკოროცხუა
გჷმოკოროცხუაშ
გჷმოლინაფა
გჷმოლინაფას
გჷმომუშებული
გჷმორთილი
გჷმორთილიე
გჷმორინაფა
გჷმორინაფათ
გჷმორინაფას
გჷმორინაფაქ
გჷმორინაფაშ
გჷმორინაფაშო
გჷმორინაფილ
გჷმორინაფილი
გჷმორინაფილქ
გჷმორინაფონი
გჷმორკვიება
გჷმორკვიებაშ
გჷმორკვიებეფით
გჷმორჩქინა
გჷმორჩქინაქ
გჷმორჩქინდუ
გჷმორჩქინდჷ
გჷმორჩქინელი
გჷმოსახილი
გჷმოსახილიე
გჷმოსახილობა
გჷმოსახილობაშ
გჷმოსახილობეფი
გჷმოსახილობეფით
გჷმოსახილობეფც
გჷმოსახულაფაშ
გჷმოსახულებაშ
გჷმოფინუა
გჷმოფინუაშ
გჷმოფინუეფი
გჷმოქიმინელი
გჷმოქიმინუა
გჷმოქიმინუას
გჷმოქიმინუაქ
გჷმოქიმინუაშ
გჷმოქიმინუნს
გჷმოჩამა
გჷმოჩამას
გჷმოჩამაშ
გჷმოჩამეფიშ
გჷმოჩამილი
გჷმოჩხორიაფა
გჷმოჩხორიაფაშ
გჷმოცხადაფა
გჷმოცხადაფაშ
გჷმოცხადაფილი
გჷმოცხადებული
გჷმოჭანაფა
გჷმოჭანაფილი
გჷმოხანტილ
გჷმოხანტილი
გჷმოხანტუა
გჷმოხანტუალა
გჷმოხანტუალაშ
გჷმოხანტუაშ
გჷმოხანტუნდჷ
გჷმოხანტუნს
გჷმოხანტჷ
გჷმოხანტჷნდჷ
გჷმოხანტჷნს
გჷმუცხადჷ
გჷმჷმალი
გჷმჷნარკებუ
გჷნართა
გჷნართას
გჷნართაშ
გჷნართი
გჷნართინეს
გჷნართინუ
გჷნართიშ
გჷნაშქჷ
გჷნაჩჷ
გჷნაცხადი
გჷნაცხადით
გჷნაცხადის
გჷნაცხადიშ
გჷნაჭყაფუ
გჷნილეს
გჷნილჷ
გჷნირთ
გჷნირთას
გჷნირთეს
გჷნირთუ
გჷნირთჷ
გჷნირთჷნ
გჷნიღეს
გჷნიღჷ
გჷნიცადჷ
გჷნიხორეს
გჷნმალი
გჷნმართინუანს
გჷნმაჭყვადალი
გჷნმაჭყვიდირე
გჷნმირთუ
გჷნმირთუდჷ
გჷნმოჩანს
გჷნმოჭკირუნს
გჷნმურს
გჷნოაბანუაშ
გჷნოგაფაშ
გჷნოზინდილი
გჷნოთანგუათ
გჷნორთელი
გჷნორთი
გჷნორთჷ
გჷნოღალა
გჷნოღალას
გჷნოღალირ
გჷნოღალირი
გჷნოღალირქ
გჷნოჩამა
გჷნოჩამათ
გჷნოჩამას
გჷნოჩამაშ
გჷნოჩამეფი
გჷნოჩამილი
გჷნოჩჷ
გჷნოჭყვადირუა
გჷნოჭყვადჷ
გჷნოჭყვიდ
გჷნოჭყვიდეს
გჷნოჭყვიდირი
გჷნოჭყვიდირით
გჷნულაშ
გჷნძე
გჷრძე
გჷშ
გჷშაგორეს
გჷშაგორილი
გჷშაგორილქ
გჷშაგორუა
გჷშაგორუეფი
გჷშაგორუეფიშ
გჷშაგორუეფს
გჷშაკერზაფილო
გჷშაკერძაფილ
გჷშაკერძაფილი
გჷშაკერძაფილო
გჷშაკვათილი
გჷშაკოროცხალი
გჷშალი
გჷშართ
გჷშართილი
გჷშართუალაშ
გჷშართჷ
გჷშარჩქინელ
გჷშარჩქინელი
გჷშაულარი
გჷშაშქვეს
გჷშაშქუ
გჷშაშქუმალა
გჷშაშქუმალას
გჷშაშქუმალაქ
გჷშაშქუმალაშ
გჷშაშქუმალაშე
გჷშაშქუმალეფი
გჷშაშქუმალირ
გჷშაშქუმალირი
გჷშაშქუმალირქ
გჷშაშქჷ
გჷშაჭანაფილი
გჷშაჸონაფილი
გჷშეგორუ
გჷშერთუ
გჷშეშქვინჷ
გჷშეჭანუ
გჷშმაგორუნა
გჷშმაგორუნს
გჷშმაგორჷნა
გჷშმართჷნს
გჷშმაშქუმალარი
გჷშმაშქუმალარობა
გჷშმეგორუ
გჷშმეგორუნა
გჷშმეგორუნც
გჷშმერთუ
გჷშმეშეს
გჷშმეშჷ
გჷშმურს
გჷშმურც
გჷშნაგორა
გჷშულა
გჷშულას
გჷშულაქ
გჷშულაშ
გჷშულაშე
გჷშულეფი
გჷშულეფიშ
გჷშულირი
გჷწარზის
დ
და
დაართჷ
დაბ
დაბა
დაბადება
დაბადებას
დაბადებაშ
დაბადებაშახ
დაბადებაშე
დაბადებე
დაბადებული
დაბათ
დაბალ
დაბალი
დაბას
დაბაშ
დაბეფი
დაბი
დაბის
დაბიშ
დაბრუნდაშვილი
დაგლას
დაგურაფალო
დადასურჷ
დადგენილი
დადგინალო
დადგინეს
დადგინჷ
დადებით
დადებითი
დადებითო
დადი
დადიანების
დადიანეფი
დადიანეფიშ
დადიანეფს
დადიანი
დადიანიშ
დადიანს
დადიანქ
დადრა
დადული
დავალებათ
დავიდ
დავით
დავითი
დავითიშ
დათებუ
დათებუს
დათირჷ
დათო
დაიან
დაიანა
დაინტერესებული
დაისონი
დაისონიშ
დაკა
დაკებაშ
დაკებული
დაკვირა
დაკინებული
დაკონკრეტეს
დაკოტა
დაკოტაშ
დალ
დალაი
დალარნა
დალასი
დალასიშ
დალახება
დალახებული
დალახებური
დალეფი
დალეფიშ
დალი
დალია
დალიას
დალიაშე
დალიერს
დალიქ
დალიშ
დალმაციაშ
დალტონი
დამაზი
დამანი
დამარგებული
დამარცხებაშ
დამარცხეს
დამარცხჷ
დამასკო
დამასკოშ
დამბა
დამენია
დამი
დამოკიდებული
დამორჩილ
დამორჩილი
დამორჩილიშ
დამორჩილს
დამუშება
დამუშებას
დამუშებაშ
დამუშებელი
დამუშებული
დამუშუ
დან
დანელია
დანი
დანია
დანიარეფი
დანიარი
დანიას
დანიაშ
დანიელ
დანიურ
დანიური
დანიურო
დანტე
დანტკიცებული
დანტკიცეს
დანტკიცჷ
დანციგი
დანციგიქ
დანცხიშ
დაოსიზმი
დარ
დარბაზეფი
დარბაზეფს
დარბაზი
დარბაზის
დარბაზიქ
დარბაზიშ
დარბაზული
დარგეფი
დარგეფიშ
დარგეფს
დარგი
დარგის
დარგიშ
დარგო
დარდანელიშ
დარემი
დარემიშ
დარეჯანი
დარვინი
დარვინიშ
დართეს
დართინეს
დართინუ
დართჷ
დარი
დარინალი
დარინალო
დარინეს
დარინუ
დარიოს
დარო
დარსხის
დარსხუ
დარსხუანს
დარსხუაფალო
დარსხუეს
დარსხჷ
დარფური
დარჩელი
დარჩელს
დარცხუ
დარცხუეს
დარწუმებული
დარწუმჷ
დას
დასაბაღ
დასაბაღას
დასაბაღი
დასაბაღო
დასავლეთ
დასაფულებური
დასაფულეს
დასახელჷ
დასაჯეს
დასი
დასტინ
დასურო
დასქიდჷ
დასქუა
დატემ
დატოვა
დაუნი
დაუნიშ
დაფა
დაფას
დაფაშ
დაფეფი
დაფი
დაფიქსირით
დაფურინალი
დაქ
დაქირებულ
დაქირებული
დაღამაკებული
დაღარ
დაღარას
დაღარი
დაღესტანი
დაღესტანიშ
დაღესტანს
დაღესტანური
დაღი
დაშ
დაშქუმალარი
დაჩხერიშ
დაჩხირამი
დაჩხირი
დაჩხირიშ
დაჩხირს
დაჩხირქ
დაცაიორებული
დაცვის
დაცხი
დაცხით
დაცხის
დაცხიშ
დაწესჷ
დაწკჷმა
დაჭყაფუ
დაჭყაფუთ
დაჭყაფურ
დაჭყაფური
დაჭყაფურიშ
დაჭყაფურს
დაჭყაფუს
დაჭყაფუშ
დაჭყაფუშა
დაჭყაფუშახ
დაჭყაფუშე
დაჭყაფუშო
დახე
დახებაშ
დახოლ
დაჯილდეს
დაჯილდოება
დაჯილდოებაშ
დაჯილდოებული
დაჰომეა
დგომარება
დგომარებას
დგომარებაშ
დგომარენს
დგომარობა
დგომარობათ
დგომარობას
დგომარობაშ
დგომარობაშა
დგჷმილეფი
დგჷმილეფიშ
დგჷმილეფს
დგჷმილი
დგჷმილიშ
დგჷმილს
დგჷმილქ
დდო
დე
დეალჷ
დება
დებად
დებადეს
დებადუ
დებადჷ
დებადჷნ
დებას
დებატეფი
დებატეფიშ
დებაქ
დებაშ
დებეიკიშ
დებიუტი
დებიუტიქ
დეგა
დეგურგინეს
დეგურგინჷ
დედა
დედასურჷ
დედაღარჷ
დედგინჷ
დედოფალი
დევანაგარი
დევანაგარიშ
დევი
დევიდ
დევიდი
დევიდიქ
დევიზი
დევისი
დევიშ
დეზ
დეთხინუ
დეთხის
დეთხიუ
დეთხუ
დეი
დეივ
დეივი
დეივიდ
დეივისი
დეივისიქ
დეივისიშ
დეივიშ
დეიკსტრაქ
დეილ
დეილი
დეილიქ
დეიმონი
დეიმონქ
დეინალუ
დეინალჷ
დეინტერეს
დეინტერესჷ
დეირ
დეკადაშ
დეკანდოლიქ
დეკანი
დეკანიშ
დეკემბერი
დეკვირდჷ
დეკინეს
დეკინჷ
დეკლარაცია
დეკლარაციას
დეკლარაციაქ
დეკლარაციაშ
დეკოლონიზაციაშ
დეკორატიულ
დეკორატიული
დეკუ
დეკჷნჷ
დელ
დელა
დელავერი
დელავერიშ
დელაკრუა
დელამბრი
დელანო
დელბრიუკი
დელგადუ
დელგადუშ
დელი
დელიბესიქ
დელიბესიშ
დელის
დელიშ
დელიშე
დელტა
დელტას
დელტაშ
დელფინი
დემარცხეს
დემარცხჷ
დემი
დემიან
დემილიტარიზაფილი
დემო
დემოგრაფია
დემოგრაფიული
დემოკრატეფი
დემოკრატეფიშ
დემოკრატი
დემოკრატია
დემოკრატიას
დემოკრატიაშ
დემოკრატიულ
დემოკრატიული
დემონეფი
დემონეფიშ
დემონი
დემონსტრაცია
დემორჩილჷ
დენ
დენვერი
დენზელ
დენი
დენიელ
დენის
დენიშ
დენს
დენტკიცჷ
დენტკიცჷნ
დენუდაციური
დენჩი
დეოლი
დეპარტამენტეფი
დეპარტამენტეფიშ
დეპარტამენტეფს
დეპარტამენტეფშე
დეპარტამენტი
დეპარტამენტის
დეპარტამენტიქ
დეპარტამენტიშ
დეპარტამენტიშე
დეპარტამენტო
დეპი
დეპიშ
დეპრესია
დეპრესიაშ
დეპუტატეფიშ
დეპუტატი
დეპუტატით
დეპუტატიშ
დეპუტატო
დეპუტატშე
დეჟა
დერ
დერეკ
დერკჷ
დერწუმჷ
დესმონდ
დეტალეფი
დეტალეფიშ
დეტალეფშო
დეტალი
დეტალური
დეტალურო
დეტექტივი
დეტექტივური
დეტექტიურ
დეტექტიური
დეტროიტი
დეტროიტიშ
დეფინიცია
დეფიქსირჷ
დეფო
დექორწინჷ
დეღამაკჷ
დეშანჷ
დეშუტი
დეციმეტრი
დეციმუს
დეხოლჷ
დეჯილდუ
დვალა
დვალაფა
დვალაშ
დვალეთიშ
დვალირ
დვალირი
დვალუა
დვალუაშ
დვანს
დვინა
დვინაშ
დვორჟაკი
დი
დია
დიაბეტი
დიაბეტიშ
დიაგნოზი
დიაგონალეფი
დიაგრამა
დიაკრიტიკული
დიალექტეფი
დიალექტეფიშ
დიალექტეფშა
დიალექტი
დიალექტიკა
დიალექტიკური
დიალექტის
დიალექტიშ
დიალექტიშა
დიალექტო
დიალექტურ
დიალექტური
დიალექტშა
დიალოგი
დიალოგიშ
დიალოგური
დიამეტრი
დიამეტრიშ
დიამუში
დიამუშიქ
დიამუშიშ
დიანა
დიანე
დიანექ
დიანთილი
დიაოხი
დიაოხის
დიაოხიქ
დიაოხიშ
დიაპაზონი
დიაპაზონს
დიარა
დიარაშ
დიას
დიასი
დიასპორა
დიასპორეფი
დიაფალ
დიაფალეფი
დიაფალი
დიაფალიშ
დიაღორონთიშ
დიაშ
დიგურუ
დიდ
დიდა
დიდალეფიშ
დიდარ
დიდარი
დიდარიე
დიდარული
დიდაქ
დიდაშ
დიდგინჷ
დიდგორიშ
დიდგჷ
დიდება
დიდებას
დიდებაშ
დიდებუანი
დიდებულ
დიდებულეფიშ
დიდებული
დიდი
დიდიე
დიდიქ
დიდიშ
დიდო
დიდორსანტი
დიდოური
დიდუბეშ
დიდფასი
დიდხანს
დიეგო
დიეგოს
დივიზიონიშ
დივიზიონს
დიზაინერი
დიზაინი
დიზაინით
დიზაინიშ
დიზაინს
დიზელიშ
დითირას
დითირუ
დითირჷ
დითმიგურუანს
დიირთჷ
დიკ
დიკაპრიო
დიკაპრიოქ
დიკენსი
დიკენსიშ
დიკიდჷ
დიკილჷ
დიკინეს
დიკინსონ
დიკინჷ
დილანიშ
დილჰან
დიმიტრი
დიმიტრის
დიმიტრიქ
დიმიტრიშ
დინ
დინამიკა
დინამიკური
დინამო
დინამოშ
დინარი
დინარიშ
დინასტია
დინასტიას
დინასტიაქ
დინასტიაშ
დინასტიაშე
დინასტიეფი
დინასტიეფიშ
დინაფა
დინაფაშ
დინაფილეფი
დინაფილი
დინაჭარჷ
დინახალე
დინახალენ
დინახალენი
დინდარი
დინი
დინიშ
დინმოდოხოდუ
დინმურს
დინნაჭარა
დინნაჭარაშ
დინნაჭარეფი
დინო
დინოკოროცხუათ
დინორე
დინორეთ
დინორეშ
დინოჭარილი
დინოჭარუა
დინოჭარუას
დინოჭარუაქ
დინოჭარუაშ
დინოხ
დინოხი
დინოხოლე
დინოხოლენ
დინოხოლენი
დინოხოლენურ
დინოხოლეშე
დინოხუნაფა
დინოხუნაფაშ
დინოხუნაფილი
დინოხურიშ
დინოხურიშეფი
დინოხურიშეფშე
დინოხურიში
დინოხურიშით
დინოხურიშიშ
დინუ
დინქ
დინჭყოლჷ
დიო
დიოგენე
დიოდღარო
დიოკლეტიანეშ
დიოსიშ
დიოშქუმალარი
დიპლომატეფი
დიპლომატი
დიპლომატია
დიპლომატიურ
დიპლომატიური
დიპლომატიშ
დიპლომი
დირაკი
დირექტორეფი
დირექტორეფიშ
დირექტორი
დირექტორიაშ
დირექტორიშ
დირექტორო
დირთას
დირთეს
დირთინუ
დირთუ
დირთჷ
დირიჟორეფი
დირიჟორი
დირიხლე
დირკჷ
დირსხუ
დირსხჷ
დირცხუ
დირჰამი
დისერტაცია
დისერტაციაშ
დისიდენტი
დისკეფი
დისკეფიშ
დისკეფს
დისკი
დისკის
დისკიქ
დისკიშ
დისკიშა
დისკო
დისკოგრაფია
დისკოშ
დისკრიმინაცია
დისკუსია
დისლოცირაფილი
დისნეი
დისნეიშ
დისპლეი
დისტანცია
დისტანციაშ
დისტოპიური
დისტრიბუტორი
დისციპლინა
დისციპლინას
დისციპლინაშ
დისციპლინეფი
დისციპლინეფიშ
დისციპლინეფს
დიტერ
დიტრიხი
დიტუ
დიუ
დიუვი
დიუკიშ
დიუმა
დიუმაშ
დიუმი
დიუმიანი
დიუნეფი
დიურკჰაიმიშ
დიუსელდორფი
დიფერენციალური
დიფერენციაცია
დიფერენცირაფილი
დიფრაქციაშ
დიფუზიაშ
დიქტატორ
დიქტატორეფი
დიქტატორი
დიქტატორიშ
დიქტატორო
დიქტატურა
დიქტატურაშ
დიშ
დიჭკირჷ
დიჭყეს
დიჭყუ
დიჭყჷ
დიჭყჷნ
დიხა
დიხაზურგა
დიხათ
დიხას
დიხასაქვარუა
დიხაუჩა
დიხაუჩას
დიხაუჩაქ
დიხაუჩაშ
დიხაუჩაშა
დიხაუჩაშე
დიხაშ
დიხაშა
დიხაშგიმენი
დიხაშე
დიხაშთუდოლენი
დიხაშთუდონ
დიხაშთუდონი
დიხაშნწალუა
დიხაშნწალუას
დიხაშნწალუაქ
დიხაშნწალუაშ
დიხაშნწალუეფი
დიხაშნწალუეფიშ
დიხაშო
დიხაშჟინი
დიხაჭაბუშ
დიხეფი
დიხეფიშ
დიხეფს
დიხეფქ
დიხეფშე
დიხორეს
დიხორჷ
დიჯეი
დიჸვილუ
დმ
დმანისი
დმანისის
დმანისიშ
დნბ
დნბშ
დნეპრი
დნეპრის
დნეპრიშ
დნესტრი
დნესტრიშ
დნესტრიშპიჯეთიშ
დნმ
დო
დოა
დობერა
დობჟანსკი
დობჭარით
დოგაფილი
დოგეგმარაფა
დოგეგმარაფაშ
დოგეგმილი
დოგმა
დოგრი
დოგურაფა
დოგურაფათ
დოგურაფას
დოგურაფაშ
დოგურაფილი
დოდასურაფილი
დოდაღარაფა
დოდაღარაფაშ
დოდაღარაფილი
დოდგინა
დოდგინელი
დოდგჷ
დოდგჷმილი
დოდვალა
დოდვალაშ
დოდვალირი
დოდირთჷ
დოდო
დოთარიღაფილი
დოთირათ
დოთირეს
დოთირუ
დოთირჷ
დოთხილუან
დოილი
დოილიშ
დოინალაფირი
დოინტერესაფილი
დოინფიცირაფა
დოკ
დოკაფილი
დოკვათუათ
დოკიდეს
დოკიდილი
დოკიდილქ
დოკიდჷ
დოკილეს
დოკინა
დოკინაშ
დოკუმენტაცია
დოკუმენტაციაშ
დოკუმენტეფი
დოკუმენტეფიშ
დოკუმენტეფს
დოკუმენტი
დოკუმენტის
დოკუმენტიშ
დოკუმენტურ
დოკუმენტური
დოლარი
დოლარით
დოლარიშ
დოლარო
დოლარს
დოლარქ
დოლარშა
დოლარშახ
დოლარშე
დოლარწკჷმა
დოლაფა
დოლი
დოლიძე
დოლმახორეეფიშ
დოლო
დოლოეფი
დოლოეფით
დოლოეფს
დოლორესი
დოლოს
დოლოშ
დოლრაშ
დომაჸალაფირი
დომენი
დომენიშ
დომი
დომინანტი
დომინანტური
დომინგო
დომინიკ
დომინიკა
დომინიკარეფიშ
დომინირენს
დომიტალენქო
დომიშ
დომიციუს
დონ
დონა
დონალ
დონალდ
დონგი
დონე
დონეზე
დონეთ
დონეს
დონექ
დონეშ
დონეშა
დონეშე
დონეცკი
დონეცკიშ
დონთხაფა
დონთხაფაშ
დონთხორეს
დონი
დონიშ
დონწყილი
დონწყუალა
დორ
დორთა
დორთაშ
დორთილი
დორთილიე
დორთინა
დორთინას
დორთინაფა
დორთინაფას
დორთინაფაშ
დორთინაშ
დორთუალა
დორთუალათ
დორთუალას
დორთუალაქ
დორთუალაშ
დორინაფა
დორინაფილი
დორის
დოროთი
დორსხილი
დორსხუაფა
დორსხუაფას
დორსხუაფაქ
დორსხუაფაშ
დორსხუაფაშა
დორსხუაფაშახ
დორსხუაფაშე
დორსხუაფილ
დორსხუაფილი
დორტმუნდი
დორტმუნდის
დორტმუნდიშ
დორცუაფაშ
დორცხუაფა
დორცხუაფაშ
დორცხუაფილი
დორწუმაფილი
დორხველ
დორხველი
დორხველობა
დორხველობათ
დორხველობას
დორხველობაშ
დორხველობაშა
დორხველუას
დორხველურ
დორხველური
დოს
დოსაბუთაფაშ
დოსაბუთაფილი
დოსაქვარაფილი
დოსვარილი
დოსტოევსკი
დოსტოევსკის
დოსტოევსკიშ
დოსქიდას
დოსქიდეს
დოსქიდჷ
დოსქილადა
დოსქილადირ
დოსქილადირი
დოტება
დოტებას
დოუ
დოფიქსირაფილი
დოფორილი
დოქტორ
დოქტორეფი
დოქტორი
დოქტორიშ
დოქტრინა
დოღინჩეს
დოღურეს
დოღურუ
დოღურჷ
დოშანაფა
დოშანაფაშ
დოშანილობა
დოშანჷ
დოშაყარუ
დოშორაფათ
დოშორაფილი
დოშურდჷ
დოშქუმალირი
დოჩილითაფათ
დოჩილითაფირი
დოჩილითაფირო
დოცენტო
დოწესაფილი
დოწეწილი
დოჭარილი
დოჭარჷ
დოჭვეს
დოჭყანაფა
დოჭყანაფილი
დოჭყაფა
დოჭყაფას
დოჭყაფაშ
დოჭყაფაშახ
დოჭყაფაშე
დოჭყაფილ
დოჭყაფილი
დოჭყაფუთ
დოჭყაფური
დოჭყაფუს
დოხ
დოხარგელი
დოხასიათაფა
დოხვადჷ
დოხოლ
დოხოლაფათ
დოხოლაფირი
დოხოლაფირო
დოხორალა
დოხორალაქ
დოხორალაშ
დოხორაფა
დოხორაფაქ
დოხორე
დოხორეეფი
დოხორეეფიშ
დოხორელ
დოხორელი
დოხორეს
დოხორექ
დოხორეშ
დოხორეშა
დოხორინელ
დოხორინელი
დოხორინი
დოხორინიშ
დოხორინს
დოხორუეფი
დოხუაფაშ
დოხუნაფა
დოხუნელი
დოჯილდაფა
დოჯილდაფას
დოჯილდაფაშ
დოჯილდაფილი
დოჯიმალაფირი
დოჰა
დოჸალერი
დოჸვილეს
დოჸვილი
დოჸვილჷ
დოჸუნა
დოჸუნალა
დოჸუნალას
დოჸუნალაშ
დოჸუნალობაშ
დოჸუნაფა
დოჸუნაფილი
დოჸუნაფონი
დოჸუნდჷ
დოჸუნელი
დოჸუნს
დპ
დრავა
დრავაშ
დრავიდულ
დრავიდული
დრაკო
დრაკონეფიშ
დრაკონი
დრაკონიშ
დრაკულა
დრამა
დრამას
დრამატულ
დრამატული
დრამატურგეფი
დრამატურგი
დრამატურგია
დრამაშ
დრამერი
დრამეფი
დრამეფიშ
დრამეფს
დრამი
დრამიანი
დრამიშ
დრეზდენი
დრეზდენიშ
დრეიკიშ
დრეიპერიშ
დრეიფუსი
დრიუ
დრო
დროს
დროშა
დრუზეფი
დუ
დუალისტური
დუანაბადი
დუბაი
დუბაიშ
დუბლინი
დუბლინიშ
დუბლინს
დუგლას
დუგლასი
დუგლასიშ
დუდ
დუდაევი
დუდაევიშ
დუდალა
დუდალათ
დუდალას
დუდალაშ
დუდაფაშ
დუდგინოდვალირი
დუდგინოდვალირო
დუდგიორთუმალეფი
დუდგიორთუმალი
დუდენდეს
დუდენდჷ
დუდენს
დუდეფი
დუდთხილუაშ
დუდი
დუდით
დუდის
დუდიშ
დუდიშა
დუდიშალა
დუდიშალას
დუდიშალაშ
დუდიშალაშო
დუდიშე
დუდიშთხილუაშ
დუდიშმაჸვილუეფიშ
დუდიშმითაფორაფალი
დუდიშულ
დუდიშულა
დუდიშულას
დუდიშულაშ
დუდიშული
დუდიშულო
დუდმაართა
დუდმაართათ
დუდმაართაშე
დუდმამართალი
დუდმართუალა
დუდმართუალაშ
დუდმახვენჯი
დუდმახვენჯიშ
დუდმახვენჯო
დუდო
დუდობათ
დუდს
დუდსგინნაველეფიშ
დუდსტილი
დუდშა
დუდშე
დუდშეიან
დუდშეიანი
დუდშენო
დუდშეშე
დუდჯოხო
დუდჯოხოთ
დუდჯოხოშ
დუერო
დუეტი
დუთირეს
დუთმარინუანს
დუთმუ
დუკინჷ
დულბეკო
დუმა
დუმაკვირაფალი
დუმარსხუაფალ
დუმარსხუაფალი
დუმარსხუაფალო
დუმაშ
დუმახასიათაფალი
დუმბაძე
დუნაბადეეფი
დუნაბადეფი
დუნაბადი
დუნაბადჷ
დუნაი
დუნაის
დუნაიშ
დუნარსხუა
დუნასქვი
დუნოლექი
დურუჯი
დუს
დუტუ
დუქანი
დუღურუ
დუღურჷ
დუშანბე
დუშეთი
დუშეთიშ
დუც
დღა
დღათ
დღალეფი
დღალეფიშ
დღალეფს
დღალურეფი
დღამი
დღარეფი
დღარეფიშ
დღარეფს
დღარი
დღარო
დღას
დღასანწალი
დღაქ
დღაშ
დღაშა
დღაშახ
დღაშე
დღაშით
დღაშო
დღახუ
დღახუეფი
დღახუეფს
დღახუთ
დღახუს
დღახუშ
დღე
დღეს
დჰარმა
დჰაულაგირი
დჷთმარინუანს
დჷთმიგურუანს
დჷთმოდვანს
დჷკი
დჷკის
დჷკიშ
დჷმაგურაფალი
დჷმადასურაფალი
დჷმარსხუაფალ
დჷმარსხუაფალეფი
დჷმარსხუაფალი
დჷმარსხუაფალიშ
დჷმარსხუაფალო
დჷმარცხუაფალი
დჷმახასიათაფალ
დჷმახასიათაფალი
დჷმახასიათაფალიე
დჷმახვარე
დჷნადგინა
დჷნარსხუა
დჷნარსხუეფი
დჷნაშებუ
დჷნაწესებუ
დჷნაწესებუეფი
დჷნაწესებუეფიშ
დჷნაწესებუეფს
დჷნოლექ
დჷნოლექეფიშ
დჷნოლექი
დჷნოსქილედ
დჷნოსქილედი
დჷნოშური
დჷნოშურიშ
დჷრიკონი
ე
ეარყჷ
ები
ებიჯილი
ებრაელეფი
ებრაელი
ებრაული
ებრო
ებროშ
ეგაფა
ეგაფაქ
ეგაფაშ
ეგაფილ
ეგაფილი
ეგაფილიე
ეგაფილობა
ეგაფილობათ
ეგაფილობას
ეგაფილობაშ
ეგაფილქ
ეგება
ეგეოსიშ
ეგვ
ეგვიპტარეფი
ეგვიპტარეფიშ
ეგვიპტარი
ეგვიპტე
ეგვიპტეს
ეგვიპტექ
ეგვიპტეშ
ეგვიპტეშა
ეგვიპტურ
ეგვიპტური
ეგზემპლარი
ეგზემპლარქ
ეგზისტენციალიზმი
ეგზიუპერი
ეგზიუპერიშ
ეგზოტიკური
ეგიდით
ეგნატე
ეგრისი
ეგრისის
ეგრისიშ
ეგრისშა
ედ
ედგარ
ედენ
ედვარდ
ედვარდი
ედვინ
ედი
ედინბურგი
ედინბურგის
ედინბურგიშ
ედირნე
ედისონი
ედისონიშ
ედიტ
ედმონ
ედმონდ
ედმონტონი
ედმუნდ
ედომიშ
ედომუშამ
ედომუშამი
ედომუშამინდური
ედომუშამო
ედომუშამობას
ედპ
ედრიანი
ედრიენ
ედუარ
ედუარდ
ედუარდი
ედუარდიშ
ედუარდო
ედუინ
ეე
ევა
ევანსი
ევაშ
ევგენი
ევერესტი
ევერესტიშ
ევერი
ევიტა
ევკალიპტი
ევკარიოტეფი
ევკლიდე
ევო
ევოლუცია
ევოლუციას
ევოლუციაშ
ევოლუციურ
ევოლუციური
ევრაზია
ევრაზიას
ევრაზიაშ
ევრო
ევროვიზიაშ
ევროკომისიაშ
ევროპა
ევროპალ
ევროპალეფი
ევროპალეფიშ
ევროპალეფს
ევროპალეფქ
ევროპალეფშე
ევროპალი
ევროპარლამენტიშ
ევროპას
ევროპაშ
ევროპაშა
ევროპაშე
ევროპეიდული
ევროპულ
ევროპული
ევრორსხუ
ევრორსხუს
ევრორსხუშ
ევროშ
ევფრატის
ევფრატიშ
ეზ
ეზოთერული
ეზოპე
ეზოპეშ
ეთერს
ეთი
ეთიკა
ეთიკას
ეთიკაშ
ეთიკური
ეთილიშ
ეთიოპია
ეთიოპიას
ეთიოპიაშ
ეთიოპიური
ეთმენწყუნს
ეთმეშანენს
ეთმეშანჷნა
ეთმეჭარუნს
ეთმეჭარჷნს
ეთმეჭოფუნს
ეთმეჭოფჷნს
ეთმიღანკუ
ეთმიჯუმუაფუ
ეთმონწყუნს
ეთმოჭარუნდჷ
ეთმოჭარუნს
ეთმოჭარჷნს
ეთმოჭოფუნა
ეთმოჭოფუნდჷ
ეთმოჭოფუნდჷნ
ეთმოჭოფუნს
ეთნიკურ
ეთნიკური
ეთნიკურო
ეთნო
ეთნოგრაფი
ეთნოგრაფია
ეთნოგრაფიულ
ეთნოგრაფიული
ეთნოლოგია
ეთნოლოგიური
ეთნონიმი
ეთნოსეფი
ეთნოსეფიშ
ეთნოსი
ეთნოსიშ
ეთოლოგია
ეიდენ
ეილერ
ეილერი
ეინარ
ეინწყჷმუ
ეიოგეს
ეიოგჷ
ეიონწყჷმალო
ეიოფურინალ
ეიოფურინალი
ეიოშანალი
ეიოშანალიე
ეიოშანალო
ეიოშინალი
ეიოშინალო
ეიოჭარალო
ეიოჭოფალო
ეისელი
ეიფელიშ
ეიშანას
ეიშანუაფუ
ეიშანუაფჷ
ეიშანჷ
ეიშინუაფუ
ეკ
ეკა
ეკატერინბურგი
ეკატერინე
ეკატერინეშ
ეკე
ეკენია
ეკენიას
ეკენიაშ
ეკენიაშა
ეკენიაშახ
ეკენიაშე
ეკვადორი
ეკვადორიშ
ეკვადორს
ეკვატორი
ეკვატორიალური
ეკვატორიშ
ეკვატორს
ეკვატორულ
ეკვატორული
ეკვატორშე
ეკვდერიშ
ეკვივალენტი
ეკვივალენტიშ
ეკიდეს
ეკიდილი
ეკიდილქ
ეკიდუა
ეკიდჷ
ეკინა
ეკინელი
ეკიპირება
ეკიპირებას
ეკლესია
ეკლესიას
ეკლესიაქ
ეკლესიაშ
ეკლესიები
ეკლესიეფი
ეკლესიის
ეკმოდირთუ
ეკო
ეკოთხოზჷ
ეკოლოგია
ეკოლოგიაშ
ეკოლოგიურ
ეკოლოგიური
ეკონია
ეკონიათ
ეკონიას
ეკონიაქ
ეკონიაშ
ეკონიაშა
ეკონიაშე
ეკონიაშო
ეკონომიკა
ეკონომიკას
ეკონომიკაქ
ეკონომიკაშ
ეკონომიკაშო
ეკონომიკურ
ეკონომიკური
ეკონომიკურო
ეკონომისტეფი
ეკონომისტი
ეკონომიური
ეკონწყუალაქ
ეკონწყუალაშ
ეკოროცხილი
ეკოროცხუა
ეკოროცხუას
ეკოროცხუაშ
ეკოსისტემა
ეკოსისტემას
ეკოსისტემაშ
ეკრანეფს
ეკრანი
ეკრანიზაცია
ეკრანიზაციას
ეკრანიზაციაქ
ეკრანიზაციეფი
ეკრანიშ
ეკრანს
ელ
ელა
ელაზიღიშ
ელაზჷმაფათ
ელაზჷმაფონი
ელართელი
ელახ
ელახი
ელახიანი
ელახის
ელახშე
ელაჸინილი
ელბა
ელბაშ
ელდარ
ელემენტარულ
ელემენტარული
ელემენტეფი
ელემენტეფით
ელემენტეფიშ
ელემენტეფს
ელემენტეფშე
ელემენტი
ელემენტის
ელემენტიშ
ელემენტო
ელენ
ელენა
ელენე
ელენეშ
ელეონორა
ელერი
ელეფთერ
ელექტრო
ელექტრობაშ
ელექტროდინამიკა
ელექტროენერგიათ
ელექტროენერგიას
ელექტროენერგიაშ
ელექტრომაგნიტური
ელექტრონეფიშ
ელექტრონიკა
ელექტრონიკაშ
ელექტრონიშ
ელექტრონულ
ელექტრონული
ელექტროტექნიკაშ
ელექტრული
ელვის
ელზასი
ელი
ელია
ელიავა
ელიას
ელიზაბეთ
ელიზაბეტ
ელინისტურ
ელინისტური
ელიოდორო
ელიონი
ელიოტ
ელიოტი
ელიპტიკური
ელის
ელისაბედ
ელისაბედი
ელისაბედიქ
ელისაბედიშ
ელისონ
ელიტური
ელიუს
ელიფსური
ელიშ
ელკი
ელკიშ
ელმაჩამალი
ელმოლი
ელმოლიშ
ელმოლს
ელმოლშე
ელჩი
ელჩიქ
ელჩო
ელცინი
ელჷ
ემა
ემანუელ
ემანუელე
ემასახალი
ემაღალაფა
ემაღალაფირ
ემაღალაფირი
ემაყარაფალი
ემაშანალი
ემაჸონაფალ
ემაჸონაფალი
ემბლემა
ემბლემაშ
ემბრიოლოგია
ემბრიოლოგიაშ
ემეთი
ემერიტუსი
ემეტ
ემი
ემიგრანტეფი
ემიგრანტეფიშ
ემიგრაცია
ემიგრაციას
ემიგრაციაშ
ემიგრაციაშა
ემიგრაციული
ემილ
ემილი
ემილია
ემილიო
ემილიუს
ემინემი
ემირი
ემირიშ
ემისიაშ
ემიშ
ემოცია
ემოციაშ
ემოციური
ემპირიულ
ემპირიული
ემტლანდი
ენ
ენა
ენაგეფუ
ენაზე
ენაჭოფა
ენდ
ენდემეფი
ენდემი
ენდემური
ენდერსი
ენდი
ენდოპლაზმური
ენდრიუ
ენდრიუსი
ენდრიუშ
ენები
ენების
ენეოლითიშ
ენერგეტიკაშ
ენერგეტიკული
ენერგია
ენერგიათ
ენერგიას
ენერგიაშ
ენთონი
ენი
ენინალჷ
ენიო
ენირიცხჷ
ენის
ენრიკე
ენრიკო
ენსი
ენტონი
ენტროპიაშ
ენციკლოპედია
ენციკლოპედიას
ენციკლოპედიაქ
ენციკლოპედიაშ
ენციკლოპედიეფი
ენციკლოპედიური
ენწერი
ენწყილი
ენწყუ
ენწყუალა
ენწყუალას
ენწყუალაშ
ენწყუმა
ენწყუმას
ენწყჷ
ენწყჷმა
ენწყჷმილი
ენჯეირი
ეპარქია
ეპარქიაშ
ეპიდემია
ეპიდემიაქ
ეპიდემიაშ
ეპიზოდეფს
ეპიზოდი
ეპიზოდის
ეპიზოდიშ
ეპიზოდურ
ეპიზოდური
ეპითეტი
ეპიკურე
ეპიკური
ეპირი
ეპირიშ
ეპისკოპოსი
ეპისკოპოსიშ
ეპისტემოლოგია
ეპიცენტრი
ეპონილი
ეპონილიე
ეპოსი
ეპოსიშ
ეპოქა
ეპოქას
ეპოქაშ
ეპოქაშე
ეჟენ
ერ
ერა
ერას
ერატოსთენე
ერაყი
ერაყის
ერაყიშ
ერაშ
ერაშახ
ერდოღანი
ერდუალაშ
ერებამი
ერევანი
ერევანიშ
ერევანს
ერევანშე
ერეკლე
ერეკლექ
ერეკლეშ
ერემი
ერეფიშ
ერვინ
ერზიებუ
ერთ
ერთად
ერთი
ერთიმორთი
ერთიმორთიშ
ერი
ერია
ერითროციტეფიშ
ერიკ
ერის
ერისთავეფი
ერისთავი
ერისთავიშ
ერისთავქ
ერიტრეა
ერიტრეაშ
ერიურთი
ერიურთიქ
ერიქსონი
ერიშ
ერიშდუდი
ერიხ
ერკებულეფი
ერკებულეფიშ
ერკებული
ერკებულით
ერკებულიშ
ერკებულს
ერკებულსტილი
ერკებულშა
ერკებულშე
ერლ
ერლანგენიშ
ერლს
ერმიტი
ერმიტიშ
ერნან
ერნანდეს
ერნანდესი
ერნანდო
ერნე
ერნესტ
ერნესტო
ერნსტ
ეროვნული
ეროზია
ეროზიაშ
ეროზიული
ეროსი
ეროტიკული
ერს
ერსტედიშ
ერუანებაშ
ერუანობა
ერუანობათ
ერუანობაშ
ერუანულ
ერუანული
ერქ
ერჩქის
ერხინილი
ეს
ესახილი
ესახუნს
ესახჷ
ესახჷნს
ესე
ესებუა
ესეეფი
ესეისტეფი
ესეისტი
ესეკიბო
ესენი
ესექსი
ესვარილ
ესვარილი
ესვარუათ
ესვარუაშ
ესვატინი
ესვატინის
ესვატინიშ
ესთეტიკა
ესთეტიკური
ესთეტიური
ესკიმოსეფი
ესკიმოსურ
ესკორიალი
ესმე
ესპ
ესპანალი
ესპანარ
ესპანარეფი
ესპანარეფიშ
ესპანარეფიშით
ესპანარეფქ
ესპანარი
ესპანეთი
ესპანეთის
ესპანეთიქ
ესპანეთიშ
ესპანეთიშა
ესპანეთიშე
ესპანეთშა
ესპანეთშე
ესპანეთწკჷმა
ესპანურ
ესპანური
ესპანურნინამ
ესპანურნინამი
ესპანურო
ესპანურწკჷმა
ესპერანტო
ესპერანტოშ
ესპირიტუ
ესსე
ესსეეფი
ესსეეფიშ
ესსეისტი
ესტ
ესტაფეტა
ესტე
ესტერგიოტლანდი
ესტონარი
ესტონეთი
ესტონეთის
ესტონეთიქ
ესტონეთიშ
ესტონეთიწკჷმა
ესტონურ
ესტონური
ესტრადაშ
ესტუარი
ესტუარს
ესურჷ
ესქირაფაშ
ეტაპეფი
ეტაპეფს
ეტაპი
ეტაპის
ეტაპიქ
ეტაპიშ
ეტიენი
ეტიმოლოგია
ეტიმოლოგიურო
ეტიუდები
ეტრუსკული
ეუგაფუნა
ეუკარიოტულ
ეუკარიოტული
ეულა
ეუსებიო
ეუწოშ
ეფ
ეფას
ეფექტეფი
ეფექტეფიშ
ეფექტეფს
ეფექტი
ეფექტიანი
ეფექტის
ეფექტიშ
ეფექტურ
ეფექტური
ეფექტურო
ეფექტურობა
ეფი
ეფიშ
ეფლი
ეფლიშ
ეფურაფა
ეფურინათ
ეფშა
ექ
ექვთიმე
ექვთიმექ
ექვივალენტი
ექვივალენტური
ექი
ექიაქო
ექიმ
ექიმეფი
ექიმეფიშ
ექიმი
ექიმიშ
ექიმო
ექიმქ
ექს
ექსკლავი
ექსკლავს
ექსკლუზიური
ექსკლუზიურო
ექსნერიშ
ექსპანსია
ექსპანსიაშ
ექსპედიცია
ექსპედიციას
ექსპედიციაქ
ექსპედიციაშ
ექსპედიციეფი
ექსპედიციეფიშ
ექსპედიციეფს
ექსპედიციეფქ
ექსპერიმენტალურ
ექსპერიმენტალური
ექსპერიმენტეფი
ექსპერიმენტეფით
ექსპერიმენტეფიშ
ექსპერიმენტეფს
ექსპერიმენტი
ექსპერიმენტით
ექსპერიმენტიქ
ექსპერიმენტული
ექსპერტეფიშ
ექსპერტი
ექსპლუატაციას
ექსპლუატაციაშ
ექსპორტი
ექსპორტშა
ექსტრემალურო
ეღეგნაძორი
ეყარეს
ეშ
ეშაგორგოთი
ეშაგორგოთიქ
ეშაგორგოთიშ
ეშაგორგოთუაშ
ეშაგორილი
ეშაგორილქ
ეშაგორუეფიშ
ეშაგორუეფს
ეშაკვათილი
ეშაკინაშ
ეშალაფაშ
ეშალაფირი
ეშალი
ეშანილ
ეშანილი
ეშანუა
ეშანჷ
ეშანჷნდჷ
ეშანჷნს
ეშანჷნსჷნ
ეშართეს
ეშართჷ
ეშასხუნეს
ეშაულარი
ეშაფშაფილი
ეშაღალა
ეშაღალირი
ეშაღალირქ
ეშაჩინებუ
ეშახე
ეშაჸოთამა
ეშე
ეშერაშ
ეშერქ
ეში
ეშლი
ეშმაგორჷნს
ეშმაკი
ეშმაკიშ
ეშმაღალარეფი
ეშმაღალარეფიშ
ეშმაღალარი
ეშმურს
ეშობას
ეშულა
ეშულაქ
ეშულაშ
ეჩდოვითიანეფი
ეჩდოვითიანი
ეჩდოვითწანიანი
ეჩი
ეჩიანეფი
ეჩიანი
ეჩილათაშო
ეცადჷ
ეწერი
ეჭანუ
ეჭარილ
ეჭარილი
ეჭარილიე
ეჭარილობა
ეჭარუ
ეჭარუა
ეჭარუათ
ეჭარუას
ეჭარუაშ
ეჭარუაშახ
ეჭარუეფი
ეჭარული
ეჭარუნს
ეჭარჷ
ეჭარჷნს
ეჭვი
ეჭვიშ
ეჭოფეს
ეჭოფესჷნ
ეჭოფილ
ეჭოფილი
ეჭოფილიე
ეჭოფილქ
ეჭოფუ
ეჭოფუა
ეჭოფუას
ეჭოფუაქ
ეჭოფუაშ
ეჭოფუაშახ
ეჭოფუნ
ეჭოფუნა
ეჭოფუნთ
ეჭოფუნს
ეჭოფჷ
ეხანტილი
ეხარგუა
ეხოლებუ
ეჯუმალა
ეჯღუნებუ
ეჯღუნებჷ
ეჸონაფა
ეჸონაფაშ
ეჸონაფილი
ეჸონილი
ეჸონუა
ეჸონუაშ
ვ
ვა
ვაარსებენდჷ
ვაარსებენს
ვააღიარაფილი
ვაგინალური
ვაგნერი
ვაგომიტალენქო
ვადა
ვადათ
ვადაქ
ვადაშ
ვადენზეეშ
ვადი
ვადიმ
ვადუცი
ვადუციშ
ვაზირისტანი
ვაზუსტი
ვათირელე
ვაიგლი
ვაიგლიქ
ვაილი
ვაილიქ
ვაიმარიშ
ვაიომინგი
ვაიომინგიშ
ვაიოცძორი
ვაისი
ვაკა
ვაკათუდჷ
ვაკე
ვაკეშ
ვაკო
ვაკომერციული
ვაკსმანიშ
ვალ
ვალდვალირი
ვალე
ვალენსია
ვალენსიაშ
ვალენტინ
ვალერი
ვალერიან
ვალერიუს
ვალერიუსი
ვალეტა
ვალეფიშ
ვალეშ
ვალი
ვალიადოლიდი
ვალიშ
ვალპარაისო
ვალპარაისოშ
ვალს
ვალტერ
ვალუა
ვალუტა
ვალუტას
ვალუტაშ
ვალუტეფი
ვალცი
ვამაკათური
ვამატერიალური
ვამიპალუაფუ
ვამპირიშ
ვან
ვანარკი
ვანაფერ
ვანაფერი
ვანაფერო
ვანაძორი
ვანდერბილტიშ
ვანესა
ვანი
ვანილიშ
ვანიშ
ვანკუვერი
ვანკუვერს
ვანო
ვანუატუ
ვანუატუშ
ვაოთარობე
ვაორგანული
ვაოფიციალური
ვაოფიციალურო
ვაპალუნა
ვაჟა
ვარ
ვარა
ვარაზ
ვარაუდენა
ვარაუდი
ვარაუდით
ვარდა
ვარდას
ვარდეს
ვარდეფიშ
ვარდი
ვარდიშ
ვარდიშობურეფი
ვარდიშობურეფიშ
ვარდიშფერი
ვარდჷ
ვარე
ვარება
ვარებული
ვარეგულარული
ვარენ
ვარენა
ვართ
ვართი
ვართფერი
ვარი
ვარია
ვარიანტები
ვარიანტეფი
ვარიანტეფს
ვარიანტი
ვარიანტით
ვარიანტის
ვარიანტიშ
ვარიას
ვარიაშ
ვარიაცია
ვარიაციეფი
ვარინ
ვარიშ
ვარლამ
ვარსებენს
ვარსკლავი
ვარსული
ვარტაშ
ვარშავა
ვარშავას
ვარშავაშ
ვარჩქვანელობური
ვარჩხილი
ვარჩხილიშ
ვარჩხილიშწყარიშ
ვარჩხილს
ვარხველჷ
ვარჷნ
ვასათარობო
ვასილ
ვასილი
ვასკო
ვატი
ვატიკანი
ვატიკანიშ
ვატოვიშ
ვაუღუ
ვაუღუდეს
ვაუღუდჷ
ვაუღუნ
ვაუღუნა
ვაუღჷ
ვაუღჷნა
ვაუღჷნან
ვაუციო
ვაუჭირს
ვაქცინა
ვაქცინაშ
ვაღიარაფილი
ვაღიარჷ
ვაღურია
ვაშანენს
ვაშილებე
ვაშინგთონი
ვაშინგტონ
ვაშინგტონი
ვაშინგტონიშ
ვაშინგტონს
ვაშინერებული
ვაშინერს
ვაშლოვანიშ
ვაჩინებულენს
ვაჩოვსკეფი
ვაჭარეფი
ვაჭარეფს
ვაჭარი
ვაჭარობა
ვაჭარობაშ
ვაჭარუა
ვაჭარუას
ვაჭარუაშ
ვაჭარჷნს
ვაჭიშუ
ვაჭრუაშ
ვახვალე
ვახორანს
ვახტანგ
ვახტანგიქ
ვახტანგიშ
ვახუშტი
ვაჰაბიზმი
ვაჸოფე
ვე
ვებ
ვებერი
ვებსაიტი
ვებსაიტის
ვებხასჷლა
ვებხასჷლას
ვეგა
ვეგასი
ვეგეტატიური
ვეგეტატიურო
ვეგმიჭანუანს
ვედეფი
ვედეფიშ
ვედურ
ვედური
ვეზერი
ვეზერიშ
ვეზუვიშ
ვეთირუ
ვეიაჭოფჷ
ვეინი
ვეინიქ
ვეკათუანს
ვეკოროცხუ
ვეკუა
ველა
ველაიათი
ველაიათიშ
ველასკესი
ველასკო
ველერი
ველეფი
ველეფიშ
ველეფს
ველი
ველური
ვემეჩჷ
ვემიწურაფე
ვემუღებჷ
ვემშმურს
ვენა
ვენას
ვენაშ
ვენაშა
ვენდა
ვენერა
ვენერაშ
ვენერიული
ვენერნი
ვენესუელა
ვენესუელარი
ვენესუელას
ვენესუელაშ
ვენეტოშ
ვენეცია
ვენეციარი
ვენეციას
ვენეციაშ
ვენივარ
ვენსან
ვენშმურს
ვერ
ვერა
ვერაშ
ვერგინიუს
ვერდე
ვერდეშ
ვერდი
ვერდიგრისი
ვერე
ვერზენს
ვერთუ
ვერმილიონი
ვერმლანდი
ვერმონტი
ვერნერ
ვერნონი
ვეროკოსუსი
ვერონიკა
ვერსალი
ვერსალიშ
ვერსი
ვერსია
ვერსიათ
ვერსიას
ვერსიაქ
ვერსიაშ
ვერსიაშე
ვერსიეფი
ვერსიეფიშ
ვერსიეფს
ვერტიკალურ
ვერტიკალური
ვერტიკალურო
ვერტფურინჯიშ
ვერუკანოშ
ვერულავა
ვეს
ვესპუჩიშ
ვესტ
ვესტერბოტენი
ვესტერნი
ვესტერნიშ
ვესტმანლანდი
ვესტმინსტერი
ვესტმინსტერიშ
ვესტფალიაშ
ვეტერანი
ვეტოშ
ვეტურიუს
ვეფხისტყაოსანი
ვეშ
ვეშილებე
ვეშილებედჷ
ვეშულებუ
ვეშულებუდჷ
ვეშულებჷნა
ვეჸინუ
ვეჸუ
ვეჸუაფუდჷ
ვთშ
ვი
ვიანა
ვიატკა
ვიაჩესლავ
ვიბულანუსი
ვიგეფიშ
ვიდეო
ვიდეობარათი
ვიდეოეფი
ვიდეოეფიშ
ვიდეოს
ვიდეოშ
ვიდრე
ვიეტ
ვიეტნ
ვიეტნამარი
ვიეტნამი
ვიეტნამიშ
ვიეტნამს
ვიეტნამურ
ვიეტნამური
ვივალდი
ვივალდიქ
ვივალდიშ
ვივიენ
ვივინგი
ვიზიტიშ
ვიზუალური
ვიზუალურო
ვით
ვითაამშვი
ვითაანთხი
ვითაართი
ვითარაფა
ვითარაფას
ვითარაფაქ
ვითი
ვითიანეფი
ვითიანი
ვითობათ
ვითოჟირ
ვითოჟირი
ვითოსუმი
ვითოშ
ვითოშალათ
ვითოში
ვითოშიანი
ვითოშის
ვითოშიშე
ვითოშობათ
ვითოშშახ
ვითოშშე
ვითოშწანურა
ვითოშწანურას
ვითოშწანურაშ
ვითოშწანურაშე
ვითოშწანურეფს
ვითოხუთი
ვითული
ვითულშა
ვითშახ
ვითწანამი
ვითწანურა
ვითწანურაშ
ვითწანურეფი
ვითწანურეფიშ
ვიკი
ვიკივერსიტეტი
ვიკიმედია
ვიკიმედიაშ
ვიკიმუნაჩემეფშე
ვიკინგეფი
ვიკინგეფიშ
ვიკიოწკარუე
ვიკიოწკარუეს
ვიკიოწკარუეშ
ვიკიპედია
ვიკიპედიარეფი
ვიკიპედიას
ვიკიპედიაქ
ვიკიპედიაშ
ვიკიპედიაში
ვიკიპედიეფი
ვიკიპედიეფიშ
ვიკიპედიეფს
ვიკიპედიის
ვიკიპროექტი
ვიკის
ვიკიშ
ვიკიში
ვიკიწყუ
ვილა
ვილაიეთი
ვილაიეთიშ
ვილემ
ვილერი
ვილი
ვილია
ვილიამ
ვილნიუსი
ვილნიუსიშ
ვილსონიშ
ვილჰელმ
ვილჰელმიშ
ვინ
ვინდარო
ვინემ
ვინერქ
ვინიცაშ
ვინსენტ
ვინსენტი
ვინსენტიშ
ვინჩი
ვინჩიშ
ვინც
ვინძო
ვიოლინო
ვიოლინოს
ვიოლინოშ
ვიოლინოშო
ვირსალაძე
ვირტუალური
ვირტუოზი
ვირუსეფი
ვირუსეფიშ
ვირუსი
ვირუსით
ვირუსის
ვირუსიქ
ვირუსიშ
ვირუსოლოგეფი
ვირუსოლოგი
ვირუსულ
ვირუსული
ვირხოვი
ვირჯინია
ვირჯინიას
ვირჯინიაშ
ვირჯინიშ
ვისაიანიშ
ვისაიასიშ
ვისბადენი
ვისბიუ
ვისენტე
ვისკონსინი
ვისკონსინიშ
ვისლაშ
ვიტამინეფი
ვიტამინეფიშ
ვიტამინეფს
ვიტამინი
ვიტამინიშ
ვიტამინს
ვიტებსკიშ
ვიტი
ვიტო
ვიტორია
ვიტორიო
ვიურტემბერგიშ
ვიურცბურგიშ
ვიქსიკონი
ვიქტორ
ვიქტორია
ვიქტორიანული
ვიქტორიაშ
ვიშეგრადიშ
ვიშნუ
ვიშნუშ
ვიშო
ვიცე
ვიცი
ვიწე
ვიწეშ
ვიწრო
ვიჯაშ
ვლად
ვლადივოსტოკი
ვლადივოსტოკიშ
ვლადიკავკაზი
ვლადიმერ
ვლადიმირ
ვლადიმირი
ვლადიმირიშ
ვლადისლავ
ვნებ
ვო
ვოიცეხ
ვოკალი
ვოკალისტი
ვოკალური
ვოლგა
ვოლგას
ვოლგაშ
ვოლგაშპიჯეთიშ
ვოლგოგრადი
ვოლგოგრადიშ
ვოლინიშ
ვოლოგდაშ
ვოლტა
ვოლტაშ
ვოლფ
ვოლფგანგ
ვოლფი
ვოლფიქ
ვოლფიშ
ვოლფრამი
ვონ
ვონა
ვონი
ვორდი
ვორეთ
ვორექ
ვორონეჟი
ვორონეჟიშ
ვოსტოკიშ
ვოშ
ვპ
ვროცლავი
ვროცლავიშ
ვსევოლოდ
ვუ
ვუდ
ვუდი
ვუდიშ
ვულკან
ვულკანეფი
ვულკანეფიშ
ვულკანი
ვულკანიზმიშ
ვულკანიშ
ვულკანოგენური
ვულკანოლოგია
ვულკანს
ვულკანურ
ვულკანური
ვულკანშე
ვჭარუნთ
ზ
ზაალ
ზაბი
ზაგრები
ზაგრებიშ
ზაგროსიშ
ზადებაშ
ზადილი
ზადჷნა
ზაზა
ზათი
ზაიიდ
ზაირი
ზაკ
ზაკალი
ზაკოპანე
ზალამი
ზალცბურგი
ზალცბურგის
ზალცბურგიშ
ზამბეზიშ
ზამბია
ზამბიას
ზამბიაშ
ზანგეფიშ
ზანური
ზაპა
ზაპაქ
ზაპაშ
ზარათუშტრა
ზარალს
ზარზმელის
ზარი
ზარხულ
ზარხული
ზარხულით
ზარხულიშ
ზარხულობათ
ზარხულს
ზაფანა
ზაფანაშ
ზაქათალაშ
ზაქარაია
ზაქარი
ზაქარია
ზაჰრავი
ზე
ზებათ
ზებრა
ზეგერსიქ
ზედა
ზედმეტი
ზეე
ზევსი
ზევსიშ
ზეთ
ზეთი
ზეთის
ზეთიშ
ზელანდია
ზელანდიას
ზელანდიაშ
ზელმან
ზემო
ზენი
ზენიტის
ზეპირ
ზეპირი
ზერო
ზეროს
ზეროქ
ზეროშ
ზეროწკჷმა
ზესტაფონიშ
ზესქვი
ზეშ
ზვიად
ზიგმუნდ
ზიდანი
ზიდანიშ
ზიდანქ
ზიკაშ
ზიმბაბვე
ზიმბაბვეს
ზიმბაბვეშ
ზიმუ
ზინა
ზინგერი
ზინედინ
ზისნახე
ზისქე
ზისხირამ
ზისხირამი
ზისხირი
ზისხირით
ზისხირიშ
ზისხირს
ზისხირჯერღვეფიშ
ზიტყვა
ზიტყვაზიტყვათ
ზიტყვათ
ზიტყვას
ზიტყვასქვილი
ზიტყვასქვილს
ზიტყვაქ
ზიტყვაშ
ზიტყვაშე
ზიტყვეფი
ზიტყვეფით
ზიტყვეფიშ
ზიტყვეფს
ზიტყვეფქ
ზიტყვეფშე
ზლინიშ
ზნე
ზოგად
ზოგადი
ზოგადო
ზოგიერთი
ზოთონც
ზოთონჯი
ზოთონჯით
ზოთონჯის
ზოთონჯიშ
ზოთონჯობათ
ზოთონჯს
ზოლი
ზოლიშ
ზოლს
ზომა
ზომათ
ზომაშ
ზომერფელდიშ
ზომეფი
ზომეფიშ
ზომიერ
ზომიერი
ზომიერო
ზონა
ზონათ
ზონას
ზონაქ
ზონაშ
ზონაშა
ზონაშე
ზონდიშ
ზონეფი
ზონეფიშ
ზონეფს
ზოოლოგეფი
ზოოლოგია
ზოოლოგიას
ზოოლოგიაშ
ზოოლოგიური
ზოოპარკი
ზოოპარკიშ
ზორო
ზოროასტრიზმი
ზოროასტრიზმიშ
ზოხი
ზოხო
ზოხოთ
ზოხოიან
ზოხოიანი
ზოხორინალა
ზოხორინალას
ზოხორინალაქ
ზოხორინალაშ
ზოხორინალაშო
ზოხორინელ
ზოხორინელი
ზოხორინელო
ზოხორინელობა
ზოხორინელობაშ
ზოხოურ
ზოჯუა
ზოჯუათ
ზოჯუას
ზოჯუაშ
ზოჯჷ
ზსწ
ზუგდიდი
ზუგდიდის
ზუგდიდიშ
ზუგდიდიშე
ზუგდიდს
ზუგდიდურ
ზუგდიდშე
ზუგდიდც
ზუგი
ზუგუამ
ზულუ
ზულუშ
ზუმი
ზურაბ
ზურაშ
ზურგა
ზუსტას
ზუსტი
ზუფუ
ზუფუშ
ზუღა
ზუღათ
ზუღაპიჯის
ზუღაპიჯიშ
ზუღას
ზუღაქ
ზუღაშ
ზუღაშა
ზუღაშახ
ზუღაშე
ზუღაში
ზუღაშმელეიანი
ზუღაშმელენ
ზუღაშმელენი
ზუღაწკჷმა
ზუღეფი
ზუღეფით
ზუღეფიშ
ზუღეფს
ზუღური
ზუღშ
ზღვის
ზჷთ
ზჷმა
ზჷმათ
ზჷმას
ზჷმაშ
ზჷმაშიე
ზჷმეფი
ზჷმეფიშ
ზჷმეფს
ზჷმიერ
ზჷმიერი
ზჷმიერო
თ
თა
თაბაშირი
თადა
თავად
თავადი
თავი
თავის
თავისი
თავისუფლება
თათარ
თათარეთი
თათარეთიშ
თათარეფი
თათარეფიშ
თათარი
თათარული
თაია
თაიფ
თაიშახ
თალესი
თალიბანი
თალიბანიშ
თალიბეფიშ
თალიბეფქ
თალიშიშ
თამაზ
თამარ
თამარიშ
თან
თანა
თანავარსკლავედი
თანავარსკლედია
თანამედროვე
თანაფა
თანაფას
თანაფაშ
თანახი
თანგ
თანგეფი
თანგეფიშ
თანგეფს
თანგეფშო
თანგი
თანგით
თანგილი
თანგის
თანგიქ
თანგიშ
თანგიშო
თანგუა
თანგუათ
თანგუას
თანგუაშ
თანგჷ
თანშეშე
თანხა
თანხაქ
თანჯა
თანჯას
თანჯაშ
თანჯაწკჷმა
თანჯეფი
თანჯეფიშ
თანჯეფს
თანჯი
თარ
თარალა
თარანგელოზი
თარგები
თარგეფი
თარგი
თარგიშ
თარგმანი
თარგმნა
თარეფი
თარეფიშ
თარეფს
თარი
თარიღეფი
თარიღეფიშ
თარიღი
თარიღის
თარიღიშ
თარიღო
თარიშ
თარმანჯღვერი
თარო
თარობა
თარობას
თარობაქ
თარობაშ
თარობაშა
თარობაშე
თარობაშით
თარობაწკჷმა
თარობეფი
თარობეფიშ
თარსარდალი
თარსარდალიშ
თარქ
თასეფიშ
თასეფს
თასი
თასით
თასის
თასიშ
თასიშე
თასჷნა
თაურეშე
თაურჷშე
თაქ
თაქი
თაქიან
თაქიანეფი
თაქიანეფიშ
თაქიანი
თაქინეშეს
თაქნე
თაქჷთ
თაყაიშვილი
თაყაიშვილიშ
თაყვანიშჩამა
თაყვანიშჩამაშ
თაყვანს
თაყვანჩამილი
თაშ
თაშენშე
თაში
თაშინ
თაშინეშეს
თაშიო
თაშნე
თაშნეგედვალირი
თაშნეშე
თაშნეშეთ
თაშნეშიშე
თაშჷნეშე
თახაშხა
თახმას
თახმი
თახმო
თაჯ
თაჸურეშე
თბ
თბილისი
თბილისის
თე
თეატრალურ
თეატრალური
თეატრეფი
თეატრეფიშ
თეატრეფს
თეატრი
თეატრის
თეატრიქ
თეატრიშ
თება
თებას
თებაქ
თებაშ
თებაშა
თებაშახ
თებაშე
თებე
თებერვალი
თებეს
თებეშე
თებული
თედორე
თეზამიშ
თეთ
თეთრი
თეიზმი
თეიმურაზ
თეირანი
თეირანიშ
თეირანს
თეიშა
თეიშახ
თელ
თელავი
თელავიშ
თელარა
თელარას
თელარაქ
თელარაშ
თელარენს
თელარი
თელი
თელო
თელუანობაშ
თემა
თემათ
თემას
თემატიკაშ
თემატური
თემაშ
თემაშა
თემაშე
თემაშენ
თემეფი
თემეფიშ
თემეფო
თემეფს
თემი
თემიშ
თემო
თემს
თემურ
თემურიდეფი
თემურიდეფიშ
თემურლენგი
თემურლენგიქ
თემურლენგიშ
თემშა
თენ
თენა
თენგიზ
თენერ
თენერი
თენერო
თენეფ
თენეფი
თენეფიე
თენეფიშ
თენეფს
თენეფშე
თეოდორ
თეოდოსიუს
თეოლოგეფი
თეოლოგი
თეოლოგია
თეოლოგიაშ
თეოლოგიური
თეონა
თეორემა
თეორეტიკოსი
თეორია
თეორიათ
თეორიას
თეორიაშ
თეორიეფი
თეორიეფიშ
თეორიეფს
თეორიტიკოსი
თეორიულ
თეორიული
თეორიულო
თეოფანე
თეოფრასტე
თეოფრასტეშ
თეჟამიშ
თეჟამიშო
თეჟამო
თეჟამს
თეჟამშო
თერაპიაშ
თერგი
თერგიშ
თერმოდინამიკა
თერმოდინამიკაშ
თერმული
თერჯოლაშ
თეს
თესხი
თექ
თექი
თექიან
თექიანი
თექინეშეს
თეშ
თეშა
თეშე
თეშენ
თეშენი
თეში
თეშით
თეშინეშეს
თეშიო
თეშნერ
თეშნერი
თეშნერო
თეშო
თეცალ
თეცალი
თეწკჷმა
თეწკჷმაშენო
თეწჷკმა
თეხანიშ
თეხანო
თეხანურ
თეხანური
თეჯგუა
თეჯგურა
თეჸურე
თეჸურეშე
თვალის
თვითან
თვითმფრინავი
თვითმფრინავის
თვითონ
თი
თია
თიათ
თიანეთი
თიანეთიშ
თიაქ
თიაშ
თიაშო
თიბორჯიშ
თიზმა
თიზჷმაშა
თით
თითი
თითო
თითონ
თიი
თილისმა
თიმ
თიმბორჯიან
თიმბორჯიანი
თიმწკჷმა
თიმწკჷმაიან
თიმწკჷმაიანი
თინ
თინა
თინათ
თინას
თინაქ
თინაწკჷმა
თინერ
თინერი
თინეფ
თინეფი
თინეფიშ
თინეფიშე
თინეფიშენ
თინეფიში
თინეფიშით
თინეფს
თინეფქ
თინეფშა
თინეფშე
თინეფშეიანი
თინეფშო
თინეფც
თინეფწკჷმა
თინი
თინკუნთხუამი
თინო
თინსარჯულუა
თინუსი
თინღოზამი
თინჩალა
თინჩალაშ
თინჩალი
თინწკჷმა
თინჷ
თირ
თირამი
თირანდეს
თირანდჷ
თირანს
თირაფა
თირაფაშ
თირაფეფი
თირაფეფიშ
თირაფეფქ
თირელი
თირელქ
თირი
თირით
თირიშ
თირონი
თირს
თირუ
თირუა
თირუათ
თირუას
თირუაშ
თირუაშა
თირუაშო
თირუეფი
თირუეფიშ
თირუეფს
თირუეფქ
თის
თისი
თისხი
თიქ
თიქი
თიღვაშ
თიშ
თიშა
თიშე
თიშენ
თიშენი
თიში
თიშით
თიშნერ
თიშნერი
თიშნერო
თიშო
თიცალ
თიცალი
თიწკჷმა
თიწკჷმაშენო
თიხანო
თიხანური
თიხაფიქალეფით
თიჯგ
თიჯგუა
თიჯგურა
თიჯგურეფი
თიჯგურეფს
თიჯგჷრა
თნეფ
თოდაძე
თოლ
თოლარზით
თოლეფი
თოლეფით
თოლეფიშ
თოლეფს
თოლეფშე
თოლი
თოლია
თოლით
თოლიშ
თოლიშე
თოლონჭაფუთ
თოლოძირე
თოლს
თოლური
თოლშა
თოლშახ
თოლშე
თოლც
თოლწონუა
თოლწონუათ
თომა
თომას
თომასი
თომაშ
თორა
თორგერსონი
თორი
თორინ
თორიშ
თოფური
თოფურიშ
თოფურს
თოჸუჯი
თოჸუჯის
თოჸუჯიშ
თრაკია
თრაკიალეფი
თრაკიაშ
თრაკიული
თრეშ
თრიალეთიშ
თრილერი
თუ
თუდო
თუდოლე
თუდოლენ
თუდოლენი
თუდონ
თუდონი
თუდონიურული
თუდონცარცული
თუდოშე
თუთა
თუთათ
თუთას
თუთაქ
თუთაშ
თუთაშა
თუთაშახ
თუთაშე
თუთაშხა
თუთაშხას
თუთეფი
თუთეფიშ
თუთეფს
თუთია
თუთიაშ
თუთუმი
თუთუმიშ
თუკიდიდე
თუმა
თუმაშ
თუმცა
თუნთი
თუნთიშ
თუნიშ
თურ
თური
თურიშ
თურმანი
თურმანქ
თურქ
თურქეთ
თურქეთი
თურქეთის
თურქეთიქ
თურქეთიშ
თურქეთშა
თურქეფი
თურქეფიშ
თურქეფს
თურქეფქ
თურქი
თურქმ
თურქმენეთი
თურქმენეთის
თურქმენეთიშ
თურქმენეფი
თურქმენული
თურქულ
თურქული
თურქულნინამი
თურქულო
თუშეთ
თუშეთიშ
თუშური
თუხარისი
თუხარისიშ
თქვა
თქვან
თქვანი
თქვანო
თქვენ
თქვენი
თქვენს
თქუ
თქუალათ
თქუანა
თქუანთ
თქუეს
თქუნ
თშნეშე
თხა
თხაშ
თხზულება
თხზულებას
თხიერი
თხითხუ
თხილანა
თხილანდჷ
თხილანს
თხილერ
თხილერი
თხილერიე
თხილუ
თხილუა
თხილუას
თხილუაქ
თხილუაშ
თხილუაშო
თხინს
თხირი
თხირიშ
თხირს
თხობელეფი
თხობელეფს
თხობელი
თხობელუა
თხობელუას
თხობელუაქ
თხობელუაშ
თხობელუეფი
თხობელუეფიშ
თხობელუეფს
თხოზინელ
თხოზინელეფიშ
თხოზინელი
თხოზინი
თხოზინიშ
თხუ
თხუალა
თხუალათ
თხუალას
თხულენდჷ
თხულენს
თხჷთხჷ
თჷრიშ
ი
ია
იაგუარი
იავა
იავას
იავაშ
იავური
იაიაშფერი
იაკე
იაკობ
იაკობი
იაკობიშ
იაკუბ
იაკუტია
იაკუტიაშ
იალბუზი
იალბუზიშ
იალტა
იამაიკა
იამაიკას
იამაიკაშ
იამალ
იამსი
იან
იანა
იანარი
იანარს
იანგი
იანეფი
იანეფიშ
იანეფს
იანი
იანსკი
იანძი
იანძიშ
იაპ
იაპონარეფი
იაპონარი
იაპონია
იაპონიას
იაპონიაშ
იაპონიაშა
იაპონურ
იაპონური
იაპონურო
იარაღი
იარდი
იაროსლავლი
იაროსლავლიშ
იასირ
იასოცირებუ
იაფეტური
იაშვილი
იაშინი
იახალებუ
იაჰია
იბერია
იბერიას
იბერიაშ
იბერიულ
იბეშტუ
იბეშტუდჷ
იბეშტჷ
იბირდჷ
იბირს
იბნ
იბო
იბრაჰიმ
იბრაჰიმოვიჩიქ
იბურჯუდჷ
იგეგმუ
იგეგმუაფუდჷ
იგელიშ
იგი
იგივე
იგინძორებუ
იგინძორებუდუ
იგინძორებუდჷ
იგლესიასი
იგლზიშ
იგლი
იგნასიო
იგორ
იგუასუ
იგუასუშ
იგურგინჷ
იგურიშხონარებუ
იგურუ
იგჷნძარებუ
იგჷნძორებუ
იგჷნძორებუდჷ
იგჷნძორებჷ
იდაბალებუ
იდასურებუ
იდგინუაფუ
იდეა
იდეათ
იდეალი
იდეალური
იდეას
იდეაქ
იდეაშ
იდეაშე
იდეეფი
იდეეფიშ
იდეეფს
იდეეფქ
იდენთიფიკატორი
იდენი
იდენტიფიკატორი
იდენტიფიკაცია
იდენტიფიკაციაშო
იდენტობა
იდენტობაშ
იდენტური
იდეოლოგია
იდეოლოგიას
იდეოლოგიაშ
იდეოლოგიეფი
იდეოლოგიურ
იდეოლოგიური
იდვალაუფუ
იდვალაუფჷ
იდვალუ
იდვალუადუ
იდვალუაფ
იდვალუაფუ
იდვალუაფუდ
იდვალუაფუდეს
იდვალუაფუდუ
იდვალუაფუდჷ
იდვალუაფუნ
იდვალუაფუნა
იდვალუაფჷ
იდვალუაფჷნ
იდვალუაფჷნა
იდვალუფუ
იდვანს
იდი
იდიში
იდრის
იდჷ
იე
იეზიდეფი
იეზუიტეფიშ
იეიტსი
იელიშ
იელოუნაიფი
იელოუსტოუნიშ
იემენი
იემენიშ
იენ
იენა
იენაშ
იენი
იენს
იერარქია
იერარქიული
იეროგლიფეფი
იეროგლიფეფიშ
იეროგლიფი
იეროგლიფური
იერუსალიმი
იერუსალიმიშ
იერუსალიმს
იერუსალიმშა
იესო
იეჰოვაშ
ივ
ივან
ივანე
ივანეშ
ივანი
ივანიშვილი
ივანიშვილიშ
ივანიშვილქ
ივანო
ივანობა
ივანოვოშ
ივანს
ივარუ
ივერია
ივითარებუ
ივითარებუდუ
ივითარებუდჷ
ივითარებჷ
ივისა
ივლისი
ივნისი
ივო
ივრითი
ივუარი
ივუარიშ
ივუარს
იზაბელ
იზაბელა
იზადუ
იზარი
იზერი
იზმირი
იზმირიშ
იზოლაცია
იზოლაციაშ
იზოლირაფილ
იზოლირაფილი
იზორია
იზოტოპეფი
იზოტოპეფიშ
იზოტოპი
ით
ითამ
ითანგუ
ითანგჷ
ითარიღებუ
ითარიღებჷ
ითებუ
ითებუდჷ
ითებჷ
ითირანდჷ
ითირანს
ითირუ
ითირუდჷ
ითირჷ
ითოლიშწორენს
ითოლწონენდჷ
ითოლწონენს
ითუ
ითხინს
ითხუ
იი
იინწროებუ
იკა
იკათუანა
იკათუანდას
იკათუანდჷ
იკათუანს
იკათუანც
იკაშ
იკეთენს
იკენა
იკენდჷ
იკენს
იკიდუ
იკითხირუაფუ
იკითხჷ
იკინენს
იკლასიფიცირებუ
იკონტროლებუ
იკორინუანს
იკოროცხას
იკოროცხუ
იკოროცხუდ
იკოროცხუდეს
იკოროცხუდუ
იკოროცხუდჷ
იკოროცხჷ
იკჷნენს
იკჷნენც
ილ
ილაიშ
ილაყაფჷ
ილაჸაფ
ილაჸაფეს
ილაჸაფუ
ილაჸაფჷ
ილდა
ილერი
ილი
ილია
ილიაქ
ილიაშ
ილიკო
ილინოისი
ილინოისის
ილინოისიშ
ილირია
ილირიული
ილორი
ილორის
ილორიშ
ილუზია
ილუსტრატორი
ილუსტრაცია
ილუსტრაციეფი
ილუსტრირაფილი
იმ
იმამ
იმამი
იმანუელ
იმანჯებუ
იმანჯებუდჷ
იმანჯებჷ
იმანჯჷ
იმაჟირებუ
იმართუ
იმაღალებუ
იმენდი
იმენდით
იმენდიშ
იმერეთი
იმერეთის
იმერეთიშ
იმერული
იმიარებუ
იმიარებჷნა
იმიგრანტეფი
იმიგრანტეფიშ
იმონდებუ
იმპერატორ
იმპერატორეფი
იმპერატორეფიშ
იმპერატორი
იმპერატორიშ
იმპერატორო
იმპერატორს
იმპერატორქ
იმპერია
იმპერიათ
იმპერიალიზმი
იმპერიალიზმიშ
იმპერიალისტური
იმპერიას
იმპერიაქ
იმპერიაშ
იმპერიაშა
იმპერიაშე
იმპერიაწკჷმა
იმპერიეფი
იმპერიეფიშ
იმპერიულ
იმპერიული
იმპორტი
იმპულსეფიშ
იმპულსიშ
იმუნიტეტი
იმუნოდეფიციტური
იმუნოლოგი
იმუნოლოგია
იმუნოლოგიაშ
იმუნური
იმუშუ
ინ
ინა
ინაკათაფუს
ინაკათუ
ინალენდჷ
ინაჭარალო
ინაჭარჷ
ინგ
ინგილოეფი
ინგირი
ინგირიშ
ინგირიშე
ინგირს
ინგირწყარი
ინგირწყარიშ
ინგლ
ინგლის
ინგლისარ
ინგლისარეფი
ინგლისარეფიშ
ინგლისარეფს
ინგლისარეფქ
ინგლისარი
ინგლისელი
ინგლისი
ინგლისის
ინგლისიქ
ინგლისიშ
ინგლისიშა
ინგლისიშე
ინგლისურ
ინგლისური
ინგლისურიშ
ინგლისურნინამ
ინგლისურნინამი
ინგლისურო
ინგლისურს
ინგლისურშე
ინგლისურწკჷმა
ინგლისშა
ინგლისწკჷმა
ინგოროყვა
ინგოროყვაქ
ინგუშეთი
ინგუშეთიშ
ინგუშეფი
ინგუშური
ინდ
ინდექსი
ინდექსით
ინდექსიშ
ინდი
ინდიანა
ინდიანაპოლისი
ინდიანაშ
ინდიარეფი
ინდიარეფიშ
ინდიარი
ინდივიდეფი
ინდივიდი
ინდივიდიშ
ინდივიდუალურ
ინდივიდუალური
ინდირა
ინდირაშ
ინდიური
ინდიშ
ინდო
ინდოარ
ინდოარეფი
ინდოარეფიშ
ინდოარი
ინდოარიული
ინდოევროპულ
ინდოევროპული
ინდოეთ
ინდოეთი
ინდოეთის
ინდოეთიქ
ინდოეთიშ
ინდოეთიშა
ინდოეთიშე
ინდოეთიშო
ინდოეთშა
ინდოეთშე
ინდოირანული
ინდონეზია
ინდონეზიას
ინდონეზიაქ
ინდონეზიაშ
ინდონეზიურ
ინდონეზიური
ინდორი
ინდოსტანიშ
ინდოჩინეთიშ
ინდუიზმი
ინდუიზმის
ინდუიზმიშ
ინდუისტეფი
ინდუისტეფიშ
ინდუისტეფშო
ინდუისტი
ინდუისტურ
ინდუისტური
ინდურ
ინდური
ინდუსტრია
ინდუსტრიალიზაციაშ
ინდუსტრიას
ინდუსტრიაშ
ინდუსტრიულ
ინდუსტრიული
ინერტული
ინესი
ინეტრნეტის
ინვესტიცია
ინი
ინირიცხჷ
ინისახჷ
ინიშ
ინიციატივა
ინიციატივათ
ინიციატორი
ინიჭარჷ
ინკეფი
ინკეფიშ
ინკისივიშ
ინმაკათე
ინმაკათუ
ინმალი
ინმურს
ინნაჭარა
ინნაჭარაქ
ინნაჭარეფი
ინნაჭარეფიშ
ინნაჭარეფს
ინოვაციაშ
ინოვაციური
ინოკენტი
ინოკილერი
ინოკინელი
ინორანწკილი
ინორე
ინოჩამა
ინოჩამილი
ინოჭარილი
ინოჭარუა
ინოჭარუას
ინოჭარუაშ
ინოჭარუაშვანს
ინოხ
ინოხე
ინოხუნაფა
ინოხუნაფილი
ინოჸელებუ
ინჟინერ
ინჟინერეფი
ინჟინერეფიშ
ინჟინერი
ინჟინერია
ინჟინერიას
ინჟინერიაშ
ინჟინერიშ
ინჟინერული
ინსბრუკი
ინსომნია
ინსპექტორი
ინსტიტუტეფი
ინსტიტუტეფიშ
ინსტიტუტეფს
ინსტიტუტეფქ
ინსტიტუტი
ინსტიტუტის
ინსტიტუტიქ
ინსტიტუტიშ
ინსტიტუტიშა
ინსტიტუტშა
ინსტიტუტწკჷმა
ინსტიტუცია
ინსტრუმენტალისტი
ინსტრუმენტეფი
ინსტრუმენტეფიშ
ინსტრუმენტეფს
ინსტრუმენტი
ინსტრუმენტის
ინსტრუმენტული
ინსტრუქტორი
ინსტრუქტორო
ინსტრუქციეფი
ინსულინით
ინსულინიშ
ინსულტი
ინსულტიშ
ინტეგრალური
ინტეგრაციაშ
ინტეგრირაფილი
ინტელექტი
ინტელექტიშ
ინტელექტუალეფიშ
ინტელექტუალი
ინტელექტუალურ
ინტელექტუალური
ინტელიგენციაშ
ინტელიშ
ინტენსიურ
ინტენსიური
ინტენსიურო
ინტერაქტიული
ინტერდისციპლინური
ინტერესეფი
ინტერესეფიშ
ინტერესეფს
ინტერესი
ინტერესის
ინტერესიქ
ინტერესიშ
ინტერესუან
ინტერესუანი
ინტერვიუ
ინტერვიუს
ინტერი
ინტერიერი
ინტერნაციონალურ
ინტერნაციონალური
ინტერნეის
ინტერნეტ
ინტერნეტი
ინტერნეტით
ინტერნეტის
ინტერნეტიშ
ინტერნეტში
ინტერნეტწკჷმა
ინტერპრეტაცია
ინტერფეისი
ინტირინუანს
ინტირუანს
ინტროდუქცია
ინტჷ
ინუიტეფი
ინფანტა
ინფაქტი
ინფექცია
ინფექციაშ
ინფექციეფი
ინფექციეფიშ
ინფექციურ
ინფექციური
ინფიცირაფილი
ინფლაცია
ინფლაციაშ
ინფო
ინფოდაფა
ინფოდაფას
ინფოდაფაშ
ინფოდაფეფი
ინფორმატიკა
ინფორმატიკას
ინფორმატიკაშ
ინფორმატიკოსეფი
ინფორმატიკოსი
ინფორმაცია
ინფორმაციათ
ინფორმაციას
ინფორმაციაქ
ინფორმაციაშ
ინფორმაციაშო
ინფორმაციული
ინფრასტრუქტურა
ინფრასტრუქტურაშ
ინფრაჭითა
ინჩიანი
ინციდენტიშ
ინწკჷმა
ინწრა
ინწრო
ინწყუაფუ
ინწყჷმუ
ინჭირია
ინჭირიაშ
ინჯა
ინჯეფი
იო
იოანე
იოანეშ
იოახიმ
იოზეფ
იოთამ
იოკო
იონ
იონი
იონიაშ
იონიშ
იორდანეშ
იორდანია
იორდანიას
იორდანიაშ
იორი
იორიშ
იორკ
იორკალეფი
იორკი
იორკის
იორკიშ
იორკიშა
იორკშა
იორკშირი
იორკშირიშ
იორს
იორუბა
იოსე
იოსებ
იოსებიშ
იოსელიანი
იოსექ
იოსტ
იოჰან
იოჰანეს
იოჰანსონი
იპოლიტე
იჟევსკი
ირ
ირაგადე
ირაგადუას
ირავადი
ირაკლი
ირალ
ირალი
ირან
ირანალეფი
ირანალი
ირანი
ირანიშ
ირანს
ირანულ
ირანული
ირანქ
ირანშა
ირანშე
ირანწკჷმა
ირგებუ
ირდიხას
ირდუ
ირდუდჷ
ირდუნა
ირდღალურ
ირდღალური
ირდღარი
ირდღას
ირდჷ
ირემი
ირემიშ
ირენ
ირვინგ
ირვინგი
ირვინი
ირზენა
ირზენდჷ
ირზენს
ირზენც
ირთანს
ირთუ
ირთუდჷ
ირთუნა
ირთჷ
ირთჷნა
ირთჷნს
ირი
ირიათო
ირიათოიანი
ირიათონ
ირიათონი
ირიათონო
ირიგაციაშ
ირიგაციაშო
ირიგაციული
ირინე
ირინერი
ირინუანა
ირინუანდეს
ირინუანდჷ
ირინუანს
ირინუაფუ
ირიშ
ირიშენ
ირკენს
ირკვიებუ
ირკვიებუნი
ირკვიენდჷ
ირკვიენს
ირკუტსკი
ირკუტსკიშ
ირლ
ირლანდია
ირლანდიარეფი
ირლანდიარი
ირლანდიას
ირლანდიაქ
ირლანდიაშ
ირლანდიურ
ირლანდიური
ირმარული
ირმის
ირნერ
ირნერი
ირნერო
ირო
იროდიშ
იროიან
იროიანი
ირონი
ირონია
ირონიას
იროწვანე
ირს
ირსულებუ
ირსულჷ
ირსხუაფუ
ირსხუაფჷ
ირტიშიშ
ირტჷ
ირფელ
ირფელი
ირფელიშ
ირფელს
ირფელქ
ირქენს
ირჩქინანს
ირცხუაფუ
ირძენს
ირწანას
ირწანაშ
ირწანიანი
ირწანურ
ირწანური
ირწანურო
ირწყებე
ის
ისა
ისააკ
ისაკაძე
ისე
ისევე
ისთ
ისიდა
ისიდაშ
ისიდორ
ისინდიშ
ისინი
ისლ
ისლა
ისლამ
ისლამი
ისლამისტეფი
ისლამიშ
ისლამოლოგია
ისლამს
ისლამურ
ისლამური
ისლამქ
ისლანდია
ისლანდიარეფი
ისლანდიარი
ისლანდიას
ისლანდიაქ
ისლანდიაშ
ისლანდიურ
ისლანდიური
ისმაილ
ისმენე
ისოფჷ
ისპაჰანი
ისპაჰანიშ
ისრაელ
ისრაელი
ისრაელიშ
ისრაელს
ისრაელქ
ისრულებუ
ისრულებუაფუ
ისტ
ისტვუდი
ისტვუდიშ
ისტორია
ისტორიათ
ისტორიას
ისტორიაქ
ისტორიაშ
ისტორიაშა
ისტორიაშე
ისტორიაშო
ისტორიეფი
ისტორიეფიშ
ისტორიეფს
ისტორიიდან
ისტორიის
ისტორიისათვის
ისტორიკოს
ისტორიკოსეფი
ისტორიკოსეფიშ
ისტორიკოსი
ისტორიკოსიშ
ისტორიოგრაფიას
ისტორიულ
ისტორიული
ისტორიულო
ისქილიდუანს
ისხუნეს
ისხუნუ
ისხუნუაფუ
იტალ
იტალია
იტალიარ
იტალიარეფი
იტალიარეფიშ
იტალიარი
იტალიას
იტალიაქ
იტალიაშ
იტალიაშა
იტალიაშე
იტალიაწკჷმა
იტალიურ
იტალიური
იტალიურნინამი
იტალიურო
იტალიურწკჷმა
იტალო
იტარებუაფუ
იტარინჷ
იტარჷ
იტენს
იტურიშ
იუ
იუანიშ
იუგა
იუგოსლავია
იუგოსლავიაშ
იუდა
იუდაიზმი
იუდაიზმის
იუდაიზმიშ
იუდაშ
იუდეაშ
იუვენტუსი
იუვენტუსის
იუვენტუსიქ
იუვენტუსიშ
იუკატანი
იუკატანიშ
იუკონი
იუკონიშ
იუკონს
იულია
იულიანურ
იულიანური
იულიუს
იულიუსიშ
იულუსი
იუმორი
იუმორით
იუნაიტედი
იუნაიტედის
იუნაიტედიქ
იუნაიტედიშ
იუნანიშ
იუნგასიშ
იუნგი
იუნგიშ
იუნესკო
იუნესკოს
იუნესკოქ
იუნესკოშ
იუნესკოშე
იუნიკოდი
იუნიუს
იუნიქსიშ
იუნსონი
იუპიტერიშ
იურა
იურაშ
იურე
იური
იურიდიულ
იურიდიული
იურიდიულო
იურისდიქციაშ
იურისდიქციაშა
იურისპრუდენციას
იურისპრუდენციაშ
იურისტეფი
იურისტეფიშ
იურისტი
იურიშ
იურული
იუსეფ
იუსტინე
იუსტინიანე
იუსტიციაშ
იუსუფ
იუტა
იუტაშ
იუფშარა
იუჯინ
იფართებუ
იფაჩუ
იფაჩუდჷ
იფაჩჷ
იფიქსირებუ
იფორმირებუ
იფორმირჷ
იფორუ
იფრელი
იფრელიშ
იფხვარათ
იქ
იქიმინუ
იქიმინჷ
იქნება
იქს
იქსი
იქსიშ
იღენდჷ
იღენს
იღვენუ
იღვენუანს
იღვენუეს
იყო
იყოს
იყუ
იშ
იშა
იშანუაფუ
იშარეს
იშარჷ
იშაყარუ
იშაყარუდჷ
იშე
იშენ
იშენი
იშენით
იშვიათო
იშით
იშინანდჷ
იშინანს
იშინუანა
იშინუანდეს
იშინუანს
იშინუაფუ
იშინუაფჷ
იშო
იშუ
იშხანიშ
იშხანს
იშხვავებუ
იშხვანერებუ
იჩიებუ
იჩიებუდეს
იჩიებუდუ
იჩიებუდჷ
იჩიებუნა
იჩინებაფუანს
იჩინენდეს
იჩინენდჷ
იჩინენს
იჩინჷ
იჩუალუ
იჩუალუაფუ
იჩუალუაფჷ
იჩქერიაშ
იცა
იცაშ
იძანძჷ
იძინანდჷ
იძინანს
იძირე
იძირებე
იძირებედას
იძირებედჷ
იძირუ
იძირჷ
იწარმებუ
იწონუ
იჭანეს
იჭანუანა
იჭანუანდჷ
იჭანუანს
იჭარუ
იჭარუაფუდასინ
იჭარუდჷ
იჭარჷ
იჭიჭარებუ
იჭკომუ
იჭყანა
იჭყანდჷ
იჭყანს
იჭყაფუ
იჭყაფუდჷ
იჭყაფუნ
იჭყაფჷ
იხ
იხასიათებუ
იხასიათებჷ
იხვარებაფუაფუ
იხვარებუ
იხვარებუაფუ
იხილეთ
იხორუდეს
იხორციალებუ
იხორციალჷ
იხორციელებუ
იხორციელებუდჷ
იხორციელებჷ
იხორციელჷ
იხურგუ
იჯარათ
იჯევანი
იჸი
იჸიდ
იჸიდჷ
იჸინ
იჸინი
იჸინუ
იჸუ
იჸუას
იჸუასჷნ
იჸუაფუ
იჸუაფუდჷ
იჸუაფჷ
იჸუეს
იჸუნ
კ
კა
კაბადი
კაბადიშ
კაბანიაშ
კაბელით
კაბეტ
კაბეტი
კაბინდა
კაბინეტი
კაბინეტის
კაბინეტიშ
კაბო
კაბრა
კაბრას
კაბრეფიშ
კაბუ
კადეშიშ
კადიროვი
კადისი
კადრეფი
კავალერეფი
კავალერი
კავენდიშიშ
კავკასიას
კავკასიაშ
კავკასიის
კავკასიური
კავკაცია
კავკაციარი
კავკაციას
კავკაციაშ
კავკაციაშა
კავკაციაშე
კავკაციონი
კავკაციონიშ
კავკაციონს
კავკაციურ
კავკაციური
კავური
კაზაკეფიშ
კაზალე
კაზანი
კაზინო
კათა
კათათ
კათალიკოს
კათას
კათაფა
კათაფათ
კათაფას
კათაფაშ
კათაფით
კათაფილი
კათაქ
კათაშ
კათაშა
კათაშე
კათაშო
კათაწკჷმა
კათედრა
კათედრალი
კათედრალიშ
კათედრალს
კათედრას
კათედრაშ
კათელეფი
კათელი
კათელიშ
კათელქ
კათეფი
კათეფიშ
კათეფს
კათეფქ
კათეფშო
კათინი
კათინით
კათინიშ
კათოლიკე
კათოლიკეეფი
კათოლიკეეფიშ
კათოლიკეფი
კათოლიკოს
კათოლიკურ
კათოლიკური
კათოლიციზმი
კათოლიციზმიშ
კათრინ
კათუა
კათუას
კათუაქ
კათუაშ
კათური
კაი
კაიდ
კაიზერ
კაიკოსიშ
კაილი
კაიმანიშ
კაინოზოური
კაირო
კაიროს
კაიროშ
კაისერიშ
კაკაბაძე
კაკალეფი
კაკალი
კაკალია
კაკალიშ
კაკალს
კაკაო
კაკაოშ
კალა
კალაბრია
კალაბრიაშ
კალაკმული
კალამი
კალანდაძე
კალანდია
კალანდიაშ
კალაპოტი
კალაპოტის
კალაპოტიშ
კალაშ
კალდერა
კალდერაშ
კალე
კალედონია
კალედონიაშ
კალენდარეფი
კალენდარეფიშ
კალენდარი
კალენდარით
კალენდარიშ
კალენდარს
კალენდარული
კალენდრიშ
კალენი
კალეშ
კალვინ
კალვინი
კალვინოქ
კალვინუსი
კალი
კალიაო
კალიგრაფია
კალიე
კალიმანტანი
კალიმანტანიშ
კალინგაშ
კალინინგრადი
კალინინგრადიშ
კალიფორნია
კალიფორნიას
კალიფორნიაშ
კალიშ
კალიშრღვაფა
კალიშრღვაფათ
კალიშრღვაფაშ
კალკინი
კალკულაცია
კალკულაციათ
კალკუტა
კალკუტაშ
კალმახა
კალო
კალპურნიუს
კალუგაშ
კალციუმი
კალციუმიშ
კამა
კამაგუეიშ
კამაშ
კამბეიშ
კამბერბეჩი
კამბეშეფი
კამბეში
კამბოჯა
კამბოჯას
კამბოჯაშ
კამბრიულიშწოხოლენი
კამერა
კამერას
კამერეფი
კამერონ
კამერონი
კამერონიშ
კამერუნი
კამერუნიშ
კამერუნს
კამილო
კამილუსი
კამპანია
კამპანიას
კამპანიაქ
კამპანიაშ
კამპეჩე
კამპორა
კამპუსი
კამჩატკაშ
კან
კანადა
კანადარ
კანადარეფი
კანადარი
კანადას
კანადაქ
კანადაშ
კანადაშა
კანადაშე
კანადური
კანაკლე
კანარიშ
კანდა
კანდიდატეფი
კანდიდატეფიშ
კანდიდატი
კანდიდატის
კანდიდატიქ
კანდიდატიშ
კანდიდატო
კანდიდატურა
კანდიდატურას
კანდიდატშო
კანზას
კანზასი
კანზასიშ
კანი
კანიბალიზმიშ
კანით
კანიონი
კანიონიშ
კანიონს
კანიშ
კანკალე
კანკალეს
კანკალექ
კანკალეშ
კანკალეშა
კანკარი
კანკარს
კანო
კანონდვალა
კანონდვალათ
კანონდვალაშ
კანონდვალუა
კანონდვალუაშ
კანონდუმადვალუ
კანონეფი
კანონეფით
კანონეფიშ
კანონეფს
კანონეფქ
კანონი
კანონიერი
კანონიერო
კანონით
კანონიშ
კანონიშდუმადვალუ
კანონმადვალე
კანონმადვალუ
კანონპროექტის
კანონს
კანონქ
კანს
კანტაბრია
კანტაბრიაშ
კანტი
კანტიშ
კანტონეფი
კანტონეფიშ
კანტონეფო
კანტონი
კანტონიშ
კანტონო
კანტონს
კანჩენჯანგა
კანცელარია
კანცელარიაშ
კანცლერეფი
კანცლერი
კანცლერიშ
კაპადოკიაშ
კაპელა
კაპელაშ
კაპიტალი
კაპიტალიზმი
კაპიტალიზმიშ
კაპიტალისტურ
კაპიტალისტური
კაპიტალიშ
კაპიტალური
კაპიტან
კაპიტანი
კაპიტოლინუს
კაპიტოლიუმი
კაპიშ
კაპოტე
კაპრიზი
კაპური
კაპურიშ
კარაბაიაშ
კარაკანი
კარაკანო
კარაკასი
კარაკასის
კარაკასიშ
კარანტინი
კარასკოშ
კარაჩი
კარაჩხაბურთი
კარაჩხამობურთე
კარაჩხას
კარაჩხეფს
კარბონატული
კარგად
კარგი
კარდიფი
კარე
კარეეფს
კარელ
კარელიაშ
კარენ
კარენინა
კარერი
კარეფი
კართაგენი
კართაგენიშ
კართაგენქ
კართე
კართეეფი
კართეეფიშ
კართეეფს
კართეეფშე
კართეს
კართეფი
კართეფს
კართეშ
კართეშე
კარი
კარიბეფი
კარიბიშ
კარიერა
კარიერას
კარიერაქ
კარიერაშ
კარიერაშა
კარით
კარიკატურა
კარიშ
კარკატია
კარლ
კარლაილ
კარლიშ
კარლო
კარლოვი
კარლოს
კარლოსი
კარლოშ
კარლსონი
კარლსრუეშ
კარმა
კარმენი
კარმინალი
კარნატაკა
კარნატაკაშ
კარნეგი
კარნეგიშ
კარნო
კარნოქ
კარნოშ
კაროზერსიქ
კაროლინა
კაროლინაშ
კაროტინი
კაროტინს
კარპატეფი
კარპატეფიშ
კარპატეფს
კარპენტიერი
კარს
კარსონი
კარსტულ
კარსტული
კარტერი
კარტერიშ
კარტერქ
კარტიე
კარტიკა
კარტიშ
კარტნი
კარტოგრაფია
კარტოგრაფიული
კარტოფილი
კარტოფილიშ
კარშა
კასაიშ
კასარესი
კასარესიქ
კასელი
კასერესი
კასიუს
კასიუსი
კასკადურ
კასპიაშ
კასპიშ
კასტილია
კასტილიაშ
კასტილიო
კასტრო
კასტროს
კასტროქ
კასტროშ
კასტური
კატალ
კატალანური
კატალოგი
კატალოგის
კატალოგიშ
კატალოგიშა
კატალონია
კატალონიაშ
კატამარკაშ
კატანგაშ
კატანია
კატარი
კატარინა
კატარინაშ
კატარიშ
კატასტროფა
კატასტროფაშ
კატასტროფული
კატეგორია
კატეგორიას
კატეგორიაშ
კატეგორიაშა
კატეგორიეფი
კატეგორიეფიშ
კატეგორიეფს
კატეგორიული
კატერი
კატერინა
კატმაი
კატმანდუ
კატმანდუშ
კატოვიცე
კატონი
კატუ
კატუეფი
კატუეფიშ
კატუშ
კატუშობურეფი
კატუშობურეფიშ
კაუნასი
კაუნასიშ
კაუშ
კაუჩუკი
კაფკა
კაფკაქ
კაფკაშ
კაქტუსეფი
კაშტელუ
კაშხალეფი
კაშხალი
კაშხალიშ
კაჩიშ
კაცი
კაცია
კახა
კახაბერ
კახათი
კახალი
კახამარკაშ
კახეთი
კახეთის
კახეთიშ
კახეფიშ
კახი
კახიშ
კახური
კგ
კებრადა
კევინ
კეთება
კეთებაშ
კეთებული
კეთი
კეთილი
კეი
კეიზიშ
კეინი
კეიპ
კეიპტაუნი
კეისარი
კეისარიშ
კეისარს
კეისარქ
კეისი
კეიტ
კეიტელი
კეკელიძე
კეკელიძექ
კეკელიძეშ
კეკულე
კელან
კელასური
კელასურიშ
კელენი
კელერი
კელერიშ
კელი
კელნი
კელტეფი
კელტეფიშ
კელტეფქ
კელტურ
კელტური
კემბრიჯი
კემბრიჯის
კემბრიჯიშ
კემბრიჯშირი
კემენი
კემეროვოშ
კემპბელი
კემპბელიშ
კენ
კენდრიკი
კენდრიუ
კენედი
კენედიშ
კენეთ
კენეტ
კენია
კენიას
კენიაშ
კენიგსბერგი
კენიგსბერგიშ
კენონი
კენტავრი
კენტერბერიშ
კენტი
კენტიშ
კენტუკი
კენტუკიშ
კეპლერიშ
კერალა
კერალაშ
კერამიკა
კერამიკაშ
კერამიკული
კერები
კერზო
კერზოთ
კერი
კერიშ
კეროლ
კერტისიქ
კერტისიშ
კერძო
კერძოთ
კეტი
კეტრინ
კეში
კეშიქ
კეშიშ
კეჩუა
კეჩუასწკჷმა
კეჩუაშ
კეცილიუს
კვ
კვადრატი
კვადრატიშ
კვადრატულ
კვადრატული
კვათარა
კვათიერი
კვათიერო
კვათირას
კვათირი
კვათირო
კვათუნს
კვათჷნს
კვათჷრას
კვათჷრი
კვალიფიციური
კვანტურ
კვანტური
კვანჯუ
კვარაცხელია
კვარაცხელიაქ
კვარაცხელიაშ
კვარაცხელიეფი
კვარკვალია
კვარტალი
კვარტეტი
კვარჩხან
კვარჩხანი
კვარჩხანშე
კვარჩხიშე
კვაღა
კვაჭი
კვებაშ
კვებეკი
კვებეკის
კვებეკიშ
კვენტინ
კვიდრი
კვინორი
კვინორიშ
კვინორიშობურეფი
კვინტუს
კვიპროსი
კვიპროსის
კვიპროსიშ
კვირდი
კვირის
კვირკვე
კვირკვეი
კვირკვეს
კვირკვეშ
კვირკვეშა
კვირკვეშახ
კვირკვეშე
კვირკვეშო
კვირკვი
კი
კიანუ
კიბერნეტიკა
კიბირეფი
კიბირეფიშ
კიბირი
კიბო
კიბოთ
კიბოშ
კიდა
კიდალა
კიდალას
კიდალაშ
კიდალეფი
კიდალეფით
კიდალეფიშ
კიდალეფს
კიდალეფც
კიდანჯალა
კიდანჯალას
კიდანჯალაქ
კიდანჯალაშ
კიდანჯუა
კიდანჯუას
კიდას
კიდაშ
კიდეგანიშ
კიდევ
კიდილი
კიდირი
კიდირიშ
კიდირს
კიდმანი
კიდუ
კიდუაშ
კიევი
კიევიშ
კიევს
კივუშ
კიზიშ
კით
კითი
კითიშ
კითხირეფი
კითხირი
კითხირით
კითხირიშ
კითხირობური
კითხირს
კითხულენდჷ
კითხულენს
კილ
კილა
კილაგორუა
კილავაგორა
კილარჩქინდუ
კილაძირჷ
კილბი
კილე
კილერ
კილერი
კილეს
კილეფი
კილეშ
კილი
კილიაკოლიოშ
კილიან
კილიკიაშ
კილიმანჯარო
კილიმანჯაროშ
კილიშ
კილიშკილშა
კილო
კილოგრამი
კილოთა
კილოთას
კილოთაშ
კილომეტრამი
კილომეტრი
კილომეტრიანი
კილომეტრით
კილომეტრის
კილომეტრიშ
კილომეტრიშახ
კილომეტრშახ
კილშა
კიმ
კიმი
კინ
კინაბალუშ
კინგ
კინგი
კინგიშ
კინგსი
კინგსიშ
კინგსლი
კინგსტონი
კინდი
კინე
კინემატოგრაფიას
კინემატოგრაფიაშ
კინემატოგრაფისტეფიშ
კინემატოგრაფიული
კინი
კინკტიუს
კინო
კინოაკადემიაშ
კინოარტისტეფი
კინოარტისტეფიშ
კინოარტისტი
კინოდებიუტიქ
კინოთეატრეფს
კინოთეატრი
კინოოპერატორეფი
კინოოპერატორი
კინოოქიანუ
კინოოქიანუს
კინოოქიანუშ
კინოპროდიუსერეფი
კინოპროდიუსერი
კინორეჟისორეფი
კინორეჟისორი
კინოს
კინოსტუდია
კინოსტუდიეფი
კინოფესტივალეფი
კინოფესტივალი
კინოფესტივალიშ
კინოფესტივალს
კინოფილმეფი
კინოფილმეფიშ
კინოფილმეფს
კინოფილმი
კინოფილმის
კინოშ
კინოშა
კინოხ
კინოხელუანობაშ
კინოხიან
კინოხიანი
კინტანა
კინტირი
კინშასა
კინშასაშ
კინჩხი
კინჩხიშ
კიონსანიშ
კიოტო
კიოტოშ
კიჟიშ
კირა
კირდე
კირდეამ
კირდეამი
კირდეეფი
კირდეეფს
კირდეს
კირდეშ
კირიათ
კირიბატი
კირიბატიშ
კირიბეფიშ
კირილე
კირილიცა
კირილიცას
კირილიცაშ
კირილურ
კირილური
კირიშ
კირკ
კიროვი
კიროვიშ
კიროს
კირქუა
კირქუალამ
კირქუალეფი
კირქუალეფით
კირქუალეფს
კირქუაშ
კირცხი
კირხჰოფი
კირხჰოფიშ
კისერი
კისერიშ
კიტო
კიტონი
კიტოს
კიტსი
კიუვიე
კიუვიექ
კიურასაო
კიური
კიურიშ
კიფი
კიფიშ
კიფიშობურეფი
კიღურა
კიშინიოვი
კიშინიოვიშ
კიჩეშ
კიწიაშ
კიხოტი
კლავდიოს
კლავდიუს
კლავდიუსი
კლავიატურა
კლავიატურას
კლავიშეფი
კლაიდ
კლაივ
კლაიპედაშ
კლამატიშ
კლანეფიშ
კლანიშ
კლარა
კლარაშ
კლარკ
კლარკი
კლარკიქ
კლარკიშ
კლარჯეთი
კლარჯეთის
კლარჯეთიქ
კლარჯეთიშ
კლარჯეთშა
კლარჯეთშე
კლასეფიშ
კლასი
კლასიკათ
კლასიკურ
კლასიკური
კლასის
კლასიფიკაცია
კლასიფიკაციათ
კლასიფიკაციას
კლასიფიკაციაშ
კლასიფიცირებული
კლასიშ
კლასიციზმი
კლასობური
კლასშა
კლაუდიო
კლაუზიუსი
კლაუს
კლებსი
კლებსიქ
კლემენტ
კლეოპატრა
კლერ
კლერიშ
კლერკ
კლივლენდი
კლივლენდიშ
კლიმატი
კლიმატით
კლიმატის
კლიმატიშ
კლიმატოლოგია
კლიმატურ
კლიმატური
კლინიკა
კლინიკას
კლინიკურ
კლინიკური
კლინტ
კლინტონი
კლინჩი
კლიპეფი
კლიპი
კლიფ
კლიფი
კლიფიქ
კლიფიშ
კლოდ
კლოდი
კლოუზიქ
კლუბ
კლუბეფი
კლუბეფიშ
კლუბეფს
კლუბი
კლუბის
კლუბიქ
კლუბიშ
კლუგი
კლუგიქ
კმ
კმფ
კნუდსონი
კო
კოალიცია
კოალიციას
კოალიციაქ
კოალიციაშ
კოალიციური
კობა
კობალტიშ
კობახიძე
კობე
კობი
კობიშ
კობრა
კობუ
კოგანი
კოგნიტური
კოგურიოშ
კოდე
კოდეფი
კოდეფიშ
კოდექსი
კოდექსის
კოდექსიშ
კოდი
კოდით
კოდირაფილი
კოდის
კოდიშ
კოდმე
კოდმეს
კოდმეშ
კოდმეშახ
კოდორიშ
კოდური
კოენი
კოენიქ
კოეფიციენტეფიშ
კოეფიციენტი
კოვალევსკაია
კოიმბრა
კოიმბრაშ
კოიპერი
კოიპერიქ
კოიპერიშ
კოკ
კოკა
კოკაინიშ
კოკამ
კოკერი
კოკეფი
კოკეფიე
კოკეფით
კოკეფიშ
კოკეფიშო
კოკეფს
კოკეფქ
კოკეფშა
კოკეფშე
კოკეფწკჷმა
კოკი
კოკიე
კოკით
კოკის
კოკიქ
კოკიშ
კოკიშა
კოკიშე
კოკო
კოკშე
კოლა
კოლაფსიშ
კოლაშ
კოლეგეფიშ
კოლეგეფს
კოლეგეფქ
კოლეგეფწკჷმა
კოლეგიაშ
კოლეტი
კოლექტიური
კოლექცია
კოლექციაშ
კოლეჯ
კოლეჯი
კოლეჯის
კოლეჯიქ
კოლეჯიშ
კოლეჯიშა
კოლი
კოლინ
კოლიშ
კოლკატა
კოლკატას
კოლკატაშ
კოლოიდეფიშ
კოლომბო
კოლომბოშ
კოლონია
კოლონიათ
კოლონიალიზმი
კოლონიალიზმიშ
კოლონიალური
კოლონიას
კოლონიაქ
კოლონიაშ
კოლონიეფი
კოლონიეფიშ
კოლონიეფს
კოლონიეფქ
კოლონიზატორეფს
კოლონიზატორეფქ
კოლონიზაცია
კოლონიზაციაშ
კოლონისტეფიშ
კოლონისტეფიშით
კოლონისტეფს
კოლონისტეფქ
კოლონიურ
კოლონიური
კოლონოსკოპიაშ
კოლორადო
კოლორადოს
კოლორადოშ
კოლოსალური
კოლოსეუმი
კოლოსეუმიშ
კოლოსი
კოლტრეინი
კოლუმბი
კოლუმბია
კოლუმბიარეფი
კოლუმბიარი
კოლუმბიას
კოლუმბიაშ
კოლუმბიური
კოლუმბიქ
კოლუმბიშ
კოლუმბიშახიანი
კოლუმბუსი
კოლხა
კოლხაშ
კოლხეთი
კოლხეთის
კოლხეთიშ
კოლხეფი
კოლხეფიშ
კოლხეფქ
კოლხური
კომანდორი
კომარკა
კომბინატი
კომბინაცია
კომბინაციათ
კომბინაციას
კომედია
კომედიას
კომედიაშ
კომედიურ
კომედიური
კომენტარეფი
კომენტარი
კომენტატორი
კომერციულ
კომერციული
კომერციულო
კომეტა
კომეტას
კომეტაშ
კომეტეფი
კომეტეფიშ
კომეტეფს
კომი
კომიკოსეფი
კომიკოსი
კომიკური
კომისარი
კომისარიშ
კომისია
კომისიას
კომისიაქ
კომისიაშ
კომიტეტები
კომიტეტების
კომიტეტი
კომიტეტის
კომიტეტიქ
კომიტეტიშ
კომიქსეფი
კომიქსეფიშ
კომიქსეფს
კომიქსი
კომიქსის
კომიქსიშ
კომიშ
კომო
კომოდუსი
კომორიშ
კომორულწკჷმა
კომოშ
კომპანია
კომპანიას
კომპანიაქ
კომპანიაშ
კომპანიაწკჷმა
კომპანიეფი
კომპანიეფიშ
კომპანიეფს
კომპარტიაშ
კომპაქტ
კომპაქტური
კომპაქტურო
კომპენსაციაშ
კომპიუტერეფი
კომპიუტერეფიშ
კომპიუტერეფს
კომპიუტერი
კომპიუტერიშ
კომპიუტერს
კომპიუტერულ
კომპიუტერული
კომპიუტერშა
კომპიუტერწკჷმა
კომპლექსეფს
კომპლექსი
კომპლექსით
კომპლექსის
კომპლექსიქ
კომპლექსიშ
კომპლექსურ
კომპლექსური
კომპლექსშა
კომპოზიტორეფი
კომპოზიტორი
კომპოზიტორიშ
კომპოზიტორქ
კომპოზიცია
კომპოზიციას
კომპოზიციაქ
კომპოზიციაშ
კომპონენტეფი
კომპონენტეფიშ
კომპონენტეფს
კომპონენტი
კომპონენტის
კომუნა
კომუნათ
კომუნას
კომუნაშ
კომუნაშე
კომუნეფი
კომუნიზმი
კომუნიზმიშ
კომუნიკაცია
კომუნიკაციაშ
კომუნიკაციეფი
კომუნიკაციეფიშ
კომუნისტეფიშ
კომუნისტეფქ
კომუნისტი
კომუნისტურ
კომუნისტური
კომუფლირაფილი
კონან
კონგი
კონგის
კონგიშ
კონგლომერატეფით
კონგო
კონგოს
კონგოშ
კონგრესი
კონგრესის
კონგრესიქ
კონგრესიშ
კონგრესიშით
კონელი
კონერი
კონექტიკუტი
კონექტიკუტიშ
კონვენცია
კონვენციათ
კონვენციაშ
კონი
კონიაშ
კონკა
კონკათ
კონკანი
კონკანიშ
კონკას
კონკაშ
კონკაშა
კონკაშე
კონკეფი
კონკეფიშ
კონკეფს
კონკი
კონკის
კონკისტადორეფი
კონკისტადორეფქ
კონკრეტულ
კონკრეტული
კონკრეტულო
კონკურენტი
კონკურსი
კონკურსის
კონკურსიშ
კონრად
კონსერვატიზმი
კონსერვატიულ
კონსერვატიული
კონსერვატორიას
კონსერვატორიაშ
კონსერვაციაშ
კონსორციუმი
კონსტანტა
კონსტანტინ
კონსტანტინე
კონსტანტინეპოლიშ
კონსტანტინეს
კონსტანტინეშ
კონსტანტინოპოლი
კონსტანტინოპოლიშ
კონსტანტინოპოლს
კონსტანცა
კონსტიტუცია
კონსტიტუციათ
კონსტიტუციას
კონსტიტუციაქ
კონსტიტუციაშ
კონსტიტუციაშა
კონსტიტუციეფს
კონსტიტუციურ
კონსტიტუციური
კონსტრუქცია
კონსტრუქციას
კონსტრუქციაშ
კონსტრუქციული
კონსტრუქციულო
კონსულ
კონსულეფი
კონსულეფო
კონსული
კონსულიშ
კონსულო
კონსულტანტი
კონსულტანტო
კონტაქტი
კონტაქტის
კონტაქტიშ
კონტაქტური
კონტე
კონტექსტის
კონტინგენტი
კონტინენტალური
კონტინენტეფი
კონტინენტეფიშ
კონტინენტეფს
კონტინენტი
კონტინენტის
კონტინენტიშ
კონტინენტიშე
კონტინენტურ
კონტინენტური
კონტრასტული
კონტრაქტი
კონტრაქტის
კონტრაქტიშ
კონტრიბუცია
კონტრიბუციაშ
კონტროლერი
კონტროლი
კონტროლიშ
კონტროლს
კონტროლქ
კონტროლშა
კონტური
კონტურულ
კონუსი
კონუსის
კონუსიშ
კონუსური
კონფედერაცია
კონფედერაციას
კონფედერაციაქ
კონფედერაციაშ
კონფედერაციაშა
კონფედერაციულ
კონფედერაციული
კონფერენცია
კონფერენციას
კონფერენციაქ
კონფერენციაშ
კონფერენციეფიშ
კონფერენციეფს
კონფიგურაცია
კონფლიქტეფი
კონფლიქტეფიშ
კონფლიქტეფს
კონფლიქტი
კონფლიქტის
კონფლიქტიქ
კონფლიქტიშ
კონფუცი
კონფუციანობა
კონცენტრაციაშ
კონცენტრირაფილი
კონცერტეფი
კონცერტეფიშ
კონცერტეფს
კონცერტეფშა
კონცერტი
კონცერტის
კონცერტიქ
კონცერტიშ
კონცეფცია
კონცეფციას
კონცეფციაშ
კონცეფციეფი
კონცეფციეფიშ
კონწარ
კონწარას
კონწარი
კონწარო
კონჭეფი
კონჭეფიშ
კონჭი
კოოპერატიული
კოორდ
კოორდინატეფი
კოორდინატეფიშ
კოორდინაციას
კოორდინირაფილი
კოპენჰაგენი
კოპენჰაგენიშ
კოპენჰაგენს
კოპერნიკიშ
კოპეშია
კოპეშიაშ
კოპეშიაშობურეფი
კოპეშიაშობურეფიშ
კოპლიშ
კოპოლა
კოპოლაშ
კოპრა
კოპტური
კორ
კორანა
კორდილიერა
კორდობა
კორდობაშ
კორდოვა
კორდონ
კორეა
კორეალეფი
კორეალი
კორეას
კორეაშ
კორესპონდენტი
კორეულ
კორეული
კორეულო
კორვუსი
კორი
კორიენტესიშ
კორინელი
კორინი
კორინით
კორინიშ
კორინს
კორკოვადოშ
კორლეონე
კორლეონეშ
კორნბერგი
კორნბერგიშ
კორნელი
კორნელიუს
კორნელიუსი
კორნელიშ
კორონავირუსეფიშ
კორონავირუსეფს
კორონავირუსი
კორონავირუსიშ
კორონავირუსული
კორონელ
კოროცხუა
კოროცხუაშ
კოროცხუნა
კოროცხუნდჷ
კოროცხუნს
კოროცხჷნა
კოროცხჷნდჷ
კოროცხჷნს
კორპორაცია
კორპორაციას
კორპორაციაშ
კორპორაციეფი
კორპორაციეფიშ
კორპორაციული
კორპუსი
კორპუსის
კორპუსიქ
კორპუსიშ
კორსანტეფი
კორსანტეფიშ
კორსიკა
კორსიკას
კორტასარი
კორტესი
კორტესიშ
კორტიშ
კორუფცია
კორუფციაშ
კორცხელი
კოსიბა
კოსმოლოგია
კოსმოლოგიას
კოსმონავტეფი
კოსმონავტი
კოსმოსი
კოსმოსის
კოსმოსიშ
კოსმოსიშა
კოსმოსიშე
კოსმოსურ
კოსმოსური
კოსმოსშე
კოსოვო
კოსოვოს
კოსოვოშ
კოსტა
კოსტავა
კოსტავაშ
კოსტნერი
კოსტრომა
კოსტრომაშ
კოსტუმეფიშ
კოსტუმი
კოსუსი
კოტ
კოტა
კოტაიქი
კოტაიქიშ
კოტე
კოტიარი
კოტო
კოქტო
კოჩ
კოჩაბამბაშ
კოჩამი
კოჩეფი
კოჩეფიშ
კოჩი
კოჩის
კოჩიქ
კოჩიშ
კოჩიშე
კოჩიშო
კოჩიშობაშ
კოჩო
კოჩობურობაშ
კოჩქ
კოჩშე
კოხი
კოხიქ
კოხიშ
კრ
კრაკენიშ
კრაკოვი
კრაკოვიშ
კრალოვე
კრალოვეშ
კრამერი
კრასნოდარი
კრასნოდარიშ
კრასნოიარსკი
კრასნოიარსკიშ
კრასუსი
კრატერეფი
კრატერი
კრატერიშ
კრატერს
კრატერული
კრატერშე
კრებულეფი
კრებული
კრევეტეფი
კრეიგი
კრემერი
კრემლი
კრეოლი
კრეოლურ
კრეოლური
კრესონიშ
კრეტა
კრეტაშ
კრივოი
კრიზისი
კრიზისის
კრიზისიქ
კრიზისიშ
კრიკი
კრიკიშ
კრიმინალეფი
კრიმინალს
კრიმინალურ
კრიმინალური
კრის
კრისტალეფიშ
კრისტალიზაცია
კრისტალოგრაფიაშ
კრისტალურ
კრისტალური
კრისტენ
კრისტი
კრისტიან
კრისტინა
კრისტიშ
კრისტო
კრისტოფ
კრისტოფერ
კრისტოფერი
კრისტოშ
კრიტერიუმეფი
კრიტერიუმი
კრიტერიუმით
კრიტერიუმს
კრიტიკა
კრიტიკას
კრიტიკაქ
კრიტიკაშ
კრიტიკოსეფი
კრიტიკოსეფიშ
კრიტიკოსეფქ
კრიტიკოსეფშე
კრიტიკოსი
კრიტიკოსიშ
კრიტიკულ
კრიტიკული
კრიტიკულო
კრიშნა
კრიშნაშ
კრიშტიანუ
კროლი
კრონა
კრონი
კრონოსი
კროტო
კროუ
კროფტი
კრუაშ
კრუგერი
კრუზი
კრუზოშ
კრუკსი
კრუს
კრუსი
კრუსიშ
კუ
კუალა
კუბ
კუბა
კუბარ
კუბარი
კუბას
კუბაშ
კუბაშა
კუბაშე
კუბი
კუბურ
კუბური
კუდელი
კუდელიშ
კუენკა
კუთამი
კუთეფიშ
კუკი
კუკიქ
კუკიშ
კულა
კულე
კულინარიას
კულტი
კულტივირაფილი
კულტიქ
კულტიშ
კულტურა
კულტურათ
კულტურას
კულტურაქ
კულტურაშ
კულტურაშა
კულტურაშე
კულტურეფი
კულტურეფიშ
კულტურეფს
კულტურის
კულტურულ
კულტურული
კულტურულო
კუმა
კუმირეფი
კუნგ
კუნთხუ
კუნთხუეფი
კუნთხუეფიშ
კუნთხუეფს
კუნთხუთ
კუნთხუს
კუნთხუშ
კუნთხუშე
კუნი
კუნია
კუნტა
კუნტათ
კუნტამეტრ
კუნტამეტრაჟიანი
კუნტარაფა
კუნტარაფათ
კუნტას
კუნტახანით
კუნტახანური
კუნტახანურო
კუნძული
კუნწული
კუნწულს
კუპერი
კუპმანსიქ
კურაპალატიქ
კურაპალატიშ
კურგანიშ
კურთხუ
კურთხუს
კურიტიბა
კურნალენდჷ
კურნალობა
კურნალობას
კურნალობაშ
კურნალობაშო
კურნალუა
კურნალუას
კურნალუაშ
კურორტ
კურორტეფი
კურორტი
კურორტიშ
კუროსავა
კურსეფი
კურსი
კურსის
კურსიშ
კურსკიშ
კურსნათებუეფი
კურსორი
კურსორიშ
კურტ
კურუშ
კუსკო
კუსკოშ
კუტუზოვიშ
კუშ
კუშეფიშ
კუში
კუჩ
კუჩხბურთი
კუჩხბურთის
კუჩხბურთიშ
კუჩხეფი
კუჩხეფიშ
კუჩხეფს
კუჩხეფწკჷმა
კუჩხი
კუჩხით
კუჩხის
კუჩხიშ
კუჩხმაბურთე
კუჩხმობურთე
კუჩხმობურთეეფი
კუჭი
კუჭიშ
კუჭუხიძე
კჷდალა
კჷნ
კჷნე
კჷნოხ
კჷნოხონეფი
კჷნოხონეფიშ
კჷნოხონეფს
კჷრდე
კჷრდეამი
კჷრდეს
კჷრდეშ
კჷსერს
ლ
ლა
ლაბაძეშ
ლაბერწი
ლაბორანტო
ლაბორატორია
ლაბორატორიას
ლაბორატორიაქ
ლაბორატორიაშ
ლაბორატორიაშა
ლაბორატორიეფი
ლაბორატორიეფს
ლაბორატორიული
ლაბრადორი
ლაბრადორიშ
ლაგო
ლაგოდეხიშ
ლაგოსი
ლაგოსიშ
ლაგრანჟი
ლაგრანჟიქ
ლაგუნა
ლაგუნას
ლადირო
ლადო
ლადოგიშ
ლავა
ლავას
ლავაშ
ლავკრაფტი
ლავრენტი
ლავრენტიშ
ლავუაზიე
ლავური
ლაზ
ლაზარ
ლაზერიშ
ლაზერული
ლაზეფი
ლაზეფიშ
ლაზეფს
ლაზი
ლაზიკა
ლაზიკაშ
ლაზონას
ლაზონაშ
ლაზურ
ლაზური
ლაზურო
ლაზურს
ლათ
ლათინოამერიკალი
ლათინოამერიკული
ლათინურ
ლათინურამერიკალეფი
ლათინური
ლათინურიშ
ლათინურო
ლათინურს
ლათინურშე
ლაიბნიცი
ლაიბნიციშ
ლაიმენ
ლაინიშ
ლაინუს
ლაიონელ
ლაიტი
ლაიტის
ლაიტიშ
ლაიფციგი
ლაიფციგიშ
ლაკადა
ლაკადას
ლაკადაშ
ლაკადეფი
ლაკადეფს
ლაკაცია
ლაკვის
ლაკური
ლაკშმი
ლალა
ლალანდი
ლალანდიშ
ლალი
ლამა
ლამარკი
ლამბაიეკეშ
ლამბერტი
ლამე
ლამპა
ლანა
ლანატუსი
ლანგედოკი
ლანდა
ლანდტაგი
ლანდშაფტეფი
ლანდშაფტეფიშ
ლანდშაფტი
ლანდშაფტის
ლანდშაფტიშ
ლანდშაფტური
ლანინიშ
ლანკა
ლანკას
ლანკასტერი
ლანკაშ
ლანკაშირი
ლანჩხუთიშ
ლანცეტიშობური
ლანჯი
ლანჯოუ
ლაო
ლაოაგი
ლაოსი
ლაოსის
ლაოსიშ
ლაოსური
ლაპლანდი
ლაპტევეფიშ
ლარა
ლარი
ლარიშ
ლარს
ლარსი
ლარსიქ
ლარსიშ
ლარსონი
ლარსონიშ
ლარჭემი
ლარჭემიშ
ლას
ლასკერიშ
ლასუა
ლასუაშ
ლატაკია
ლატვია
ლატვიას
ლატვიაშ
ლატვიური
ლატსი
ლაურა
ლაურეატეფი
ლაურეატეფიშ
ლაურეატი
ლაურეატიშ
ლაურეატო
ლაფა
ლაფაშ
ლაქშადვიპი
ლაქშადვიპიშ
ლაშა
ლაციო
ლაციოშ
ლაწკარამ
ლაწკარამი
ლაწკარი
ლახალა
ლახალათ
ლახალაშ
ლახალეფიშ
ლახარა
ლახარათ
ლახარას
ლახარაქ
ლახარაშ
ლახარეფი
ლახარეფიშ
ლახარეფს
ლაჰ
ლაჰორი
ლაჸაფენა
ლაჸაფენდ
ლაჸაფენდეს
ლაჸაფენდჷ
ლაჸაფენს
ლაჸაფეფი
ლაჸაფეფიშ
ლაჸაფეფს
ლაჸაფეფქ
ლაჸაფი
ლაჸაფით
ლაჸაფის
ლაჸაფიქ
ლაჸაფიშ
ლგბტ
ლე
ლებია
ლებიაშ
ლეგალიზმი
ლეგალური
ლეგენდა
ლეგენდარული
ლეგენდაშ
ლეგენდეფი
ლეგენდეფიშ
ლეგენდეფს
ლეგიონიშ
ლეგიტიმურ
ლეგიტიმური
ლედ
ლედერბერგი
ლედერმანი
ლედი
ლევ
ლევან
ლევანი
ლევანიშ
ლევანს
ლევანტიშ
ლევანქ
ლევენჰუკი
ლევერიე
ლევერიექ
ლევერიეშ
ლევი
ლევისა
ლევიტი
ლევონ
ლეზგეფი
ლეზგიურ
ლეზგიური
ლეი
ლეიბლ
ლეიბლეფი
ლეიბლი
ლეიბლიშ
ლეიბორისტული
ლეიდენიშ
ლეიკ
ლეიკემია
ლეიკემიაშ
ლეიკიშ
ლეიტე
ლეიტენანტ
ლეიტენანტი
ლეკეფი
ლეკი
ლელა
ლემი
ლენა
ლენარდი
ლენასი
ლენაშ
ლენი
ლენინგრადი
ლენინგრადიშ
ლენინი
ლენინიზმი
ლენინიშ
ლენინური
ლენიშ
ლენო
ლენს
ლენტეხიშ
ლენტულუს
ლენტულუსი
ლენქორანიშ
ლენჭყამი
ლეო
ლეონ
ლეონარდ
ლეონარდო
ლეონე
ლეონეშ
ლეონი
ლეონიდ
ლეონიშ
ლეონიძე
ლეონტი
ლეოპარდი
ლეოპოლდ
ლეოპოლდინაშ
ლეპიდუსი
ლეპონტინიშ
ლეპტოპი
ლერი
ლერიდა
ლეროი
ლერსეფი
ლერსეფიშ
ლერსეფს
ლერსი
ლერსიკონეფი
ლერსიკონი
ლერსიკონქ
ლერსის
ლერსიქ
ლერსიშ
ლესინგი
ლესიჭინე
ლესიჭინეს
ლესლი
ლესოთო
ლესოთოშ
ლესქერობეფი
ლესქერუა
ლეტაშ
ლეტო
ლექინ
ლექინას
ლექინი
ლექსები
ლექსიკა
ლექსიკას
ლექსიკოგრაფი
ლექსიკონეფი
ლექსიკონი
ლექსიკონიშ
ლექსიკონს
ლექსიკური
ლექტერი
ლექტორი
ლექტორო
ლექცია
ლექციაშ
ლექციეფი
ლექციეფიშ
ლექციეფს
ლეჩხუმიშ
ლეხ
ლეხერეფი
ლეხერეფით
ლეხერეფიშ
ლეხერეფს
ლეხერი
ლეხერით
ლეხერიშ
ლეხერს
ლეხერშა
ლეხერშე
ლეხერწკჷმა
ლეხზირიშ
ლეხი
ლეჯერი
ლეჯერქ
ლვივი
ლვივიშ
ლვოვი
ლვოვიშ
ლი
ლია
ლიამ
ლიანა
ლიანდაგი
ლიანეფი
ლიას
ლიაშა
ლიაშახ
ლიაშე
ლიახვი
ლიახვიშ
ლიბ
ლიბანარი
ლიბანი
ლიბანიშ
ლიბანს
ლიბანური
ლიბერალეფი
ლიბერალი
ლიბერალიზმი
ლიბერალიზმიშ
ლიბერალურ
ლიბერალური
ლიბერეციშ
ლიბერია
ლიბერიას
ლიბერიაშ
ლიბერტადიშ
ლიბი
ლიბია
ლიბიარი
ლიბიას
ლიბიაშ
ლიბიური
ლიბიქ
ლიბიხიშ
ლიბო
ლიბუ
ლიბჷ
ლიგა
ლიგას
ლიგაქ
ლიგაშ
ლიგე
ლიგურიაშ
ლიდერ
ლიდერეფი
ლიდერეფიშ
ლიდერეფქ
ლიდერი
ლიდერიშ
ლიდერო
ლიდერს
ლიდერქ
ლიდია
ლიდიაშ
ლიეტუვა
ლიეტუვარეფი
ლიეტუვას
ლიეტუვაშ
ლიეტუვაწკჷმა
ლიეტუვური
ლივ
ლივერპული
ლივერპულიშ
ლივინგსტონი
ლივიუს
ლივიუსი
ლივიუსიშ
ლიზა
ლითიუმი
ლითლ
ლითონეფი
ლითონეფიშ
ლითონიშ
ლითოსფერო
ლიკა
ლიკვი
ლიკვიდაცია
ლიკვით
ლიკი
ლიკიქ
ლიკიშ
ლილი
ლილიან
ლილიშ
ლიმა
ლიმას
ლიმაშ
ლიმბურგიშ
ლიმესი
ლიმიტი
ლიმონიშ
ლიმპოპო
ლინ
ლინგვისტი
ლინგვისტიკაშ
ლინგვისტურ
ლინგვისტური
ლინდა
ლინდგრენი
ლინდგრენიშ
ლინდონ
ლინზეფი
ლინი
ლინიშ
ლინკინ
ლინკოლნი
ლინკოლნიშ
ლინჩი
ლინციშ
ლინჯი
ლინჯიშ
ლიო
ლიონელ
ლიონი
ლიონიშ
ლიონს
ლიპეცკიშ
ლიპიდეფიშ
ლიპმანი
ლირა
ლირე
ლირეს
ლირეშ
ლირი
ლირიკაშ
ლირიკული
ლირსამი
ლირულ
ლირული
ლისაბონი
ლისაბონიშ
ლისაბონს
ლისიშ
ლიტერატორი
ლიტერატურა
ლიტერატურათ
ლიტერატურას
ლიტერატურაშ
ლიტერატურის
ლიტერატურულ
ლიტერატურული
ლიტერატუტა
ლიტვაშ
ლიტვური
ლიტლ
ლიტორალიშ
ლიტრი
ლიუ
ლიუვენიშ
ლიუკ
ლიქ
ლიქიორეფი
ლიქიორი
ლიშ
ლიჩი
ლიცენზია
ლიცენზიაშ
ლიცეუმს
ლიცინიუს
ლიცინიუსი
ლიხიშ
ლიხტენშტაინი
ლიხტენშტაინიშ
ლო
ლოა
ლობაჩევსკიშ
ლოგანი
ლოგიკა
ლოგიკათ
ლოგიკას
ლოგიკაშ
ლოგიკოსი
ლოგიკურ
ლოგიკური
ლოგო
ლოგოს
ლოგოტიპი
ლოზანა
ლოზანაშ
ლოთარ
ლოთარინგია
ლოიდ
ლოიდი
ლოკ
ლოკალური
ლოკი
ლოკიერი
ლოკიერიქ
ლოკიშ
ლოლუაშ
ლომამიშ
ლომბარდია
ლომბარდიას
ლომბარდიაშ
ლომი
ლომინაძე
ლომონოსოვიშ
ლომოური
ლონგ
ლონგიშ
ლონგუსი
ლონდონი
ლონდონიშ
ლონდონს
ლონდონქ
ლონდონშა
ლონდონშე
ლოპესი
ლორან
ლორანი
ლორდ
ლორდი
ლორე
ლორენა
ლორენას
ლორენი
ლორენს
ლორენცი
ლორენციშ
ლორენცო
ლორეტოშ
ლორეშ
ლორთქიფანიძე
ლორი
ლორია
ლოს
ლოტბარ
ლოტბარეფი
ლოტბარი
ლოტერბურიქ
ლოტნერი
ლოუ
ლოუელი
ლოუელიქ
ლოუელიშ
ლოურენს
ლოურენსი
ლოურენსიქ
ლოურენსიშ
ლოქიშ
ლოძი
ლოძიშ
ლუ
ლუარა
ლუარაშ
ლუბა
ლუბას
ლუბაშ
ლუბლინიშ
ლუგანოშ
ლუგანსკიშ
ლუგო
ლუგოშ
ლუდვიგ
ლუდიშ
ლუდოვიკო
ლუვრიშ
ლუთერ
ლუთერანეფი
ლუთერანული
ლუთერი
ლუთერიშ
ლუი
ლუიზ
ლუიზა
ლუიზაშ
ლუიზვილი
ლუიზიანა
ლუიზიანაშ
ლუის
ლუისი
ლუისიშ
ლუიშ
ლუიჯი
ლუკ
ლუკა
ლუკას
ლუკაშ
ლუკრეციუს
ლუმპური
ლუმპურიშ
ლუნა
ლუნდიშ
ლური
ლურია
ლურიშ
ლურჯი
ლუსაკა
ლუსაკი
ლუსი
ლუსია
ლუსიენ
ლუსონი
ლუსონიშ
ლუქსემბურგი
ლუქსემბურგიშ
ლუქსორიშ
ლუღი
ლუღიშ
ლუყუ
ლუყუშ
ლუჩანო
ლუცერნიშ
ლუციუს
ლუციფერი
ლუჰანსკიშ
ლჰასა
ლჰოძე
ლჷბუ
ლჷგე
ლჷმა
ლჷმათ
ლჷმას
ლჷმაქ
ლჷმაშ
ლჷმაშა
ლჷმაშახ
ლჷმაშე
ლჷმაშო
ლჷმენდეს
ლჷმენდჷ
ლჷმეფი
ლჷმეფით
ლჷმეფიშ
ლჷმეფს
ლჷმეფქ
მ
მა
მაამშვა
მაანთხა
მაართა
მაართათ
მაართანი
მაართას
მაართაფონი
მაართაქ
მაართაშ
მაართაშა
მაართაშე
მაართაჸოფილი
მაართაჸოფური
მაარი
მაასის
მაასიშ
მაატ
მაატი
მაბარჩხალე
მაბირე
მაბირეეფი
მაბჟალია
მაბრუო
მაგ
მაგადანიშ
მაგადჰა
მაგადჰაშ
მაგალთო
მაგალიანესი
მაგალითად
მაგალითეფი
მაგალითი
მაგალითიე
მაგალითო
მაგანა
მაგანაშ
მაგასი
მაგდალენა
მაგდალენაშ
მაგდალინარიშ
მაგდებურგი
მაგელანი
მაგელანიშ
მაგელანურ
მაგელანური
მაგელანქ
მაგთიკომი
მაგია
მაგისტრალი
მაგისტრალიშ
მაგისტრალს
მაგისტრი
მაგისტრიშ
მაგიური
მაგმა
მაგმური
მაგნიტუდა
მაგნიტურ
მაგნიტური
მაგნუს
მაგნუსი
მაგორალი
მაგრამ
მაგურაფალეფიშ
მაგურაფალი
მაგურაფალიშ
მაგურაფალო
მაგურაფუ
მაგური
მაგურო
მადაგასკარი
მადაგასკარიშ
მადაგასკარს
მადამ
მადანი
მადანიშ
მადეირა
მადეირას
მადეირაშ
მადენი
მადვალარიშ
მადვალი
მადვალუ
მადვალჷ
მადი
მადისონი
მადისონიშ
მადლობა
მადონა
მადონაშ
მადრასი
მადრე
მადრეშ
მადრიდი
მადრიდის
მადრიდიშ
მადუდე
მადუდეეფი
მადუდეეფიშ
მადუდეთ
მადუდეს
მადუდექ
მადუდეშ
მადუდური
მადჰია
მაესტრაშ
მაეჩა
მავერანაჰრის
მავზოლეუმი
მავითა
მავითაამშვა
მავითაანთხა
მავითაართა
მავითობრუო
მავითოჟირა
მავითოსუმა
მავითოშკვითა
მავითოჩხორა
მავითოხუთა
მავრეფიშ
მავრიკი
მავრიკიშ
მავრიტანია
მავრიტანიაშ
მაზერიშ
მაზოჯალი
მაზოჯალიშ
მაზრა
მაზრას
მაზრაქ
მაზრაშ
მაზრაშა
მაზრეფი
მაზრეფიშ
მაზრეფს
მათ
მათანგალეფი
მათანგალი
მათე
მათემატიკა
მათემატიკათ
მათემატიკას
მათემატიკაშ
მათემატიკოსეფი
მათემატიკოსეფიშ
მათემატიკოსი
მათემატიკოსიშ
მათემატიკურ
მათემატიკური
მათეშ
მათი
მათიას
მათირალი
მათირე
მათირუ
მათხილარ
მათხილარი
მათხილარო
მათხილე
მათხილეეფი
მათხილეეფიშ
მათხილეეფწკჷმა
მათხილეშ
მათხოზინე
მაი
მაია
მაიამი
მაიამის
მაიამიშ
მაიაშ
მაიენი
მაიერი
მაიერიქ
მაიკ
მაიკლ
მაიკლი
მაიკოპი
მაიკოპიშ
მაიკროსოფტის
მაიკროსოფტიქ
მაიკროსოფტიშ
მაილს
მაიმანიქ
მაიმუნეფი
მაიმუნეფიშ
მაინი
მაინიშ
მაინოტი
მაინც
მაინცი
მაიორი
მაიოტა
მაიოტაშ
მაირი
მაისი
მაიტნერი
მაიტნერიქ
მაიტჰილი
მაკ
მაკა
მაკადამსი
მაკათაფუ
მაკათურ
მაკათურამი
მაკათურეფ
მაკათურეფი
მაკათურეფიშ
მაკათურეფს
მაკათურეფქ
მაკათურეფშე
მაკათურეფწკჷმა
მაკათური
მაკათურიე
მაკათურით
მაკათურიშ
მაკათურო
მაკათურობა
მაკათურობათ
მაკათურობაშ
მაკათურს
მაკათურქ
მაკათურშე
მაკაო
მაკაოშ
მაკარტი
მაკგოვნი
მაკგრეგორი
მაკდონალდიშ
მაკდონალდსიშ
მაკება
მაკედონარი
მაკედონარიშ
მაკედონარქ
მაკედონია
მაკედონიას
მაკედონიაშ
მაკედონიური
მაკედონური
მაკემაკე
მაკენზი
მაკი
მაკიაველი
მაკითხე
მაკინდოლი
მაკინოშ
მაკიშ
მაკლეინი
მაკობა
მაკროეკონომიკა
მაკრომოლეკულა
მაკრონეფი
მაკრონი
მაკტუმი
მაკულატურა
მალაბარიშ
მალაბო
მალაგა
მალავი
მალავის
მალავიშ
მალაი
მალაიალამი
მალაიალამური
მალაიზია
მალაიზიას
მალაიზიაშ
მალაიური
მალაიურწკჷმა
მალაიშ
მალაკა
მალაკაშ
მალაკიშ
მალარია
მალარიაშ
მალას
მალასიან
მალასიანი
მალასჷთ
მალასჷნე
მალაჸაფე
მალდივიშ
მალე
მალერი
მალი
მალიმორეფს
მალიმორი
მალიორკა
მალის
მალიშ
მალკოვიჩი
მალკოლმ
მალმაჭანაფუ
მალმაჭანაფუეფი
მალობა
მალობათ
მალობას
მალობაშ
მალობაშე
მალობეფი
მალობეფიშ
მალოპოლსკიშ
მალტა
მალტას
მალტაშ
მალტური
მალუგინენსისი
მალუობას
მალუობაშ
მალურიშ
მალფოი
მალჷმორეფიშ
მალჷმორი
მამა
მამათა
მამართალ
მამართალეფი
მამართალეფიშ
მამართალი
მამართალიშ
მამართალო
მამართვალ
მამართვალეფი
მამართვალეფიშ
მამართვალი
მამართვალს
მამია
მამიკონიანიშ
მამისა
მამლუქი
მამორეშ
მამუკა
მამუშე
მამშვა
მან
მანა
მანაბიშ
მანაგუა
მანაგუას
მანათი
მანამა
მანანა
მანასლუ
მანგა
მანგანუმი
მანგანუმიშ
მანგარ
მანგარი
მანგარო
მანგას
მანგაშ
მანგი
მანგიერო
მანგიორ
მანგიორი
მანგიორო
მანგის
მანგიშ
მანგიშა
მანგიშახ
მანგიშე
მანგიშო
მანგო
მანგურ
მანგური
მანგურო
მანდარინეფი
მანდარინი
მანდატი
მანდატიშ
მანდელა
მანე
მანებელეფი
მანებელი
მანზინი
მანზინიშ
მანთხა
მანი
მანიემაშ
მანილა
მანინალე
მანიოკი
მანიპური
მანიპურიშ
მანიტობა
მანიტობაშ
მანიუს
მანიფესტის
მანიშ
მანიჩიშ
მანლიუს
მანლიუსი
მანსიშ
მანტია
მანტიაშ
მანტუაშ
მანუ
მანუელ
მანუსკრიპტეფი
მანუშ
მანუჩარ
მანქანა
მანქანათ
მანქანას
მანქანაშ
მანქანეფი
მანქანეფიშ
მანქანეფს
მანშიშ
მანჩაშ
მანჩესტერ
მანჩესტერი
მანჩესტერიშ
მანჩესტერს
მანჩესტერქ
მანჩურალი
მანცხვარიშ
მანწყის
მანწყუ
მანწყუეს
მანწყჷ
მანჯანიშ
მანჯაფილ
მანჯაფილი
მანჯაფილჷ
მანჯება
მანჯებაშ
მანჯებულ
მანჯენს
მანჯეს
მანჯუნდჷ
მანჯურიაშ
მანჯღვერე
მანჯღვერი
მანჯღვერობაშ
მანჯჷ
მანჰეტენი
მანჰეტენიშ
მანჰეტენს
მაო
მაოთხა
მაოთხურ
მაოთხური
მაორი
მაპალაფარო
მაპალუ
მაპალუეფი
მაპუდუნგუნიშ
მაპუტუ
მაპუჩეშ
მაჟია
მაჟიაშა
მაჟირა
მაჟირათ
მაჟირას
მაჟირაფონი
მაჟირაშ
მაჟირაშა
მაჟირახარისხამ
მაჟირახარისხამი
მაჟირაჸურე
მაჟირული
მაჟორი
მაჟორიტარი
მაჟორიტარული
მაჟრა
მაჟჷრა
მარ
მარა
მარაგადე
მარადონა
მარათ
მარათჰი
მარათჰიშ
მარანი
მარანიონიშ
მარას
მარაქეში
მარაშ
მარაშა
მარაშინათუთა
მარაშინათუთას
მარაშინათუთაშ
მარაშინათუთაშახ
მარაშინათუთაშე
მარაშინაშ
მარაშნათუთა
მარაშნათუთას
მარბურგიშ
მარგ
მარგალ
მარგალეფი
მარგალეფიშ
მარგალეფს
მარგალი
მარგალონა
მარგალურ
მარგალური
მარგალურიშ
მარგალურნინამი
მარგალურო
მარგალურს
მარგარეტ
მარგარიტა
მარგებელი
მარგველაშვილი
მარგველაშვილიშ
მარგო
მარგული
მარდი
მარდობა
მარდუ
მარე
მარენჯ
მარენჯეფი
მარენჯი
მარეფი
მარველ
მარველიშ
მარვინ
მარზაშ
მარზენა
მარზეფი
მარზი
მართა
მართალი
მართალო
მართინუ
მართლმადიდებელ
მართლმადიდებელი
მართლმადიდებელური
მართლმადიდებლობა
მართლმადიდებლური
მართუ
მართუა
მართუალა
მართუალათ
მართუალას
მართუალაქ
მართუალაშ
მართუალაშა
მართუაფონი
მართუაშ
მართუნა
მართუნდეს
მართუნდუ
მართუნდჷ
მართუნს
მართჷნდეს
მართჷნდჷ
მართჷნს
მარი
მარია
მარიამ
მარიამიშ
მარიამპოლეშ
მარიამპოლიშ
მარიანაშ
მარიაშ
მარინ
მარინა
მარინე
მარინო
მარინოს
მარინოშ
მარიო
მარიონ
მარიონეტული
მარის
მარისა
მარისკალ
მარიუსი
მარიქ
მარიშ
მარიშე
მარიცა
მარკ
მარკა
მარკაშ
მარკესი
მარკესიშ
მარკეტინგი
მარკვიალეფი
მარკვიალეფიშ
მარკვიალი
მარკვიალიშ
მარკვიე
მარკვიებელეფი
მარკვიებელეფიშ
მარკვიებელი
მარკიზ
მარკიზიშ
მარკინე
მარკო
მარკოზიშ
მარკოს
მარკოსიშ
მარკუს
მარკუსი
მარლენ
მარლონ
მარმარილო
მარმარილოშ
მარნეულიშ
მაროკო
მაროკოალი
მაროკოს
მაროკოშ
მაროკოშე
მარსანი
მარსელ
მარსელი
მარსელიშ
მარსელო
მარსელს
მარსი
მარსულაფარი
მარსულებერ
მარსულებერეფი
მარსულებერი
მარსქული
მარსქულიშ
მარტა
მარტენი
მარტვილი
მარტვილიშ
მარტვილიშე
მარტი
მარტივი
მარტინ
მარტინი
მარტინიკა
მარტინიშ
მარტინს
მარტიშ
მარუაშვილი
მარულა
მარუხიშ
მარქვა
მარქვალი
მარქვალიშ
მარქვალიშობური
მარქვალს
მარქსი
მარქსიზმ
მარქსიზმი
მარქსიზმიშ
მარქსისტი
მარქსისტულ
მარქსისტული
მარქსიშ
მარშალ
მარშალი
მარშალიშ
მარში
მარშიმი
მარშრუტეფი
მარშრუტი
მარშრუტის
მარჩელო
მარჩი
მარჩქილეშ
მარცელუსი
მარციუს
მარცუაფალი
მარცხებაშ
მარცხი
მარცხით
მარცხიქ
მარცხიშ
მარცხნივ
მარძგვან
მარძგვანი
მარძგვანშე
მარძგვანჸურე
მარწაფალეფი
მარწაფალი
მარწაფალიშ
მარწკინდეფიშ
მარწკინდი
მარწკინდიშ
მარჭვალური
მარჯანიშ
მარჯანიშვილიშ
მარჯვენა
მარჯვნივ
მას
მასა
მასათ
მასაიშ
მასალა
მასალათ
მასალას
მასალაშ
მასალები
მასალეფი
მასალეფიშ
მასას
მასაშ
მასაშე
მასაჩუსეთსი
მასაჩუსეტსი
მასაჩუსეტსის
მასაჩუსეტსიშ
მასეფი
მასეფიშ
მასვანჯებელი
მასივეფი
მასივეფიშ
მასივეფს
მასივი
მასივით
მასივიშ
მასივს
მასიურ
მასიური
მასიურო
მასკატიშ
მასმა
მასმედია
მასობურ
მასობური
მასობურო
მასრულებერი
მასტეინი
მასტეინიშ
მასტროიანი
მასტურბაცია
მასუმა
მასუმაშა
მასუმური
მასურჷ
მასქერეფი
მასქერეფიშ
მასქერეფს
მასქერეფქ
მასქერული
მასქილიდაფარი
მასშტაბამ
მასშტაბეფით
მასშტაბით
მასშტაბიშ
მასშტაბური
მასხადოვი
მასხაპალეფი
მასხაპალი
მასხუნალი
მატა
მატავერაშ
მატაქ
მატერა
მატერია
მატერიალურ
მატერიალური
მატერიაშ
მატერიკიშ
მატერიკულ
მატერიკული
მატეუჩიშ
მატვეი
მატიანე
მატიე
მატილდა
მატრიცა
მატრიცაშ
მატუ
მატჩეფი
მატჩეფიშ
მატჩეფს
მატჩი
მატჩის
მატჩიქ
მატჩიშ
მაულე
მაულეშ
მაუნთ
მაუნტ
მაურიაშ
მაურიეფიშ
მაურისიო
მაფა
მაფათ
მაფას
მაფასქირ
მაფასქირი
მაფასქირიშ
მაფაქ
მაფაშ
მაფენდჷ
მაფენს
მაფერი
მაფეფი
მაფეფიშ
მაფეფს
მაფეფქ
მაფია
მაფიაშ
მაფობა
მაფობაშ
მაფორალი
მაფორალო
მაფორუ
მაფუ
მაფურინალი
მაფურინჯე
მაფურინჯეეფი
მაფურინჯეეფით
მაფურინჯეეფიშ
მაფურინჯეეფს
მაფურინჯეფიშ
მაფურინჯეშ
მაფშალია
მაქ
მაქვს
მაქიმინალი
მაქს
მაქსველი
მაქსველიშ
მაქსი
მაქსიმ
მაქსიმალურ
მაქსიმალური
მაქსიმალურო
მაქსიმე
მაქსიმილიან
მაქსიმუმ
მაქსიმუმი
მაქსიმუმს
მაქსიმუს
მაქსიმუსი
მაქსიმუსიშ
მაღაზია
მაღაზიას
მაღაზიეფი
მაღალ
მაღალას
მაღალგვალამ
მაღალგვალამი
მაღალგვალაშ
მაღალი
მაღალო
მაღვენ
მაღვენი
მაღვენჯ
მაღვენჯეფი
მაღვენჯეფიშ
მაღვენჯი
მაღვენჯიშ
მაღოლამარი
მაღრან
მაღრიბი
მაღრიბიშ
მაყარაფალი
მაყარაფუ
მაყარე
მაშადუ
მაშარეეფიშ
მაშკვითა
მაშორას
მაშქვითა
მაჩიებე
მაჩუ
მაჩხორა
მაცნე
მაძირაფალეფი
მაძირაფალი
მაძირაფალით
მაძირაფალქ
მაძირაფუ
მაწარმალეფი
მაწარმაფალი
მაწარმებელი
მაწვართალეფი
მაწვართალი
მაწვართალიშ
მაწვართალო
მაჭავარიანი
მაჭარალი
მაჭარეს
მაჭარჷ
მაჭირინუ
მაჭირხოლი
მაჭყვიდალი
მახანდე
მახანტალეფი
მახანტალი
მახარაძე
მახარებელი
მახასიათაფალეფი
მახასიათაფალი
მახერხჷ
მახვამილაფარეფი
მახვამილაფარი
მახვამილეს
მახვამილუ
მახვარე
მახვარებუ
მახვარებუეფი
მახვარებუეფიშ
მახვარებუეფს
მახვარებუეფქ
მახვარებუს
მახვარებუშ
მახვენჯი
მახვილი
მახინწალი
მახინწალით
მახორობა
მახორობათ
მახორობას
მახორობაქ
მახორობაშ
მახორობაშე
მახორობაშო
მახორობაწკჷმა
მახორუ
მახორუეფი
მახორუეფიშ
მახორუეფს
მახორუეფქ
მახორუეფშა
მახორუეფშო
მახორუთ
მახორუს
მახორუქ
მახორუშ
მახორუშა
მახორუშე
მახორუშო
მახუთა
მახურგე
მახუჯე
მაჯინე
მაჯინეეფიშ
მაჯინეეფს
მაჯინეეფშო
მაჯინეს
მაჯინეშ
მაჯინობა
მაჯინუ
მაჯორე
მაჯორეშ
მაჯღვერეფი
მაჯღვერი
მაჰაბჰარატაშ
მაჰათმა
მაჰალი
მაჰალიშ
მაჰარაშტრა
მაჰარაშტრას
მაჰარაშტრაშ
მაჰმად
მაჰმადი
მაჰმადიანი
მაჰმადიშ
მაჰმუდ
მაჸალე
მაჸალეეფი
მაჸალეეფიშ
მაჸალეეფწკჷმა
მაჸალექ
მაჸალეშ
მაჸალობა
მაჸალობაშ
მაჸალუა
მაჸალური
მაჸვენჯი
მაჸვილარეფი
მაჸვილარი
მაჸვილარიშ
მაჸიდეეფი
მაჸონაფალ
მაჸონაფალი
მაჸონაფალო
მაჸუნ
მაჸუნუ
მაჸუნჷ
მაჸურზენაიაშობურეფი
მბომუ
მგ
მგალობლიშვილი
მგონი
მდ
მე
მებაღობა
მებაღობას
მებინეხობა
მებინეხობაშ
მებუნაფილი
მებუნაფილიე
მეგა
მეგალითური
მეგამა
მეგამათ
მეგამას
მეგამაშ
მეგაპოლისი
მეგაფილი
მეგი
მეგნად
მეგორაფა
მეგორაფას
მეგორაფაქ
მეგორაფაშ
მეგორაფეფი
მეგორაფეფიშ
მეგორაფილ
მეგორაფილი
მეგორაფილიე
მეგორაფილქ
მეგორაფუეფი
მეგრელიშ
მეგრულ
მეგრულად
მეგრული
მეგრულის
მეგრულში
მეგურაფილი
მეგჰალაია
მედალი
მედალოსანი
მედეა
მედელპადი
მედია
მედიაშ
მედიეშ
მედიკამენტეფიშ
მედიკოსეფი
მედიკოსი
მედინა
მედინჷ
მედისონი
მედიჩიშ
მედიცინა
მედიცინას
მედიცინაშ
მედსენი
მედულინუსი
მევიოლინე
მევიოლინეეფი
მეზინდალობაშ
მეზოზოური
მეზოლითიშ
მეზორეგიონს
მეზუღალე
მეზუღალეშ
მეზუღე
მეზუღეშ
მეთე
მეთიუ
მეთმეჩანს
მეთმიორინუანს
მეთმურსხუანს
მეთოდეფ
მეთოდეფი
მეთოდეფით
მეთოდეფიშ
მეთოდეფს
მეთოდეფქ
მეთოდი
მეთოდით
მეთოდის
მეთოდისტეფი
მეთოდიშ
მეთხოზუდეს
მეთხოზუდჷ
მეთხოზჷ
მეთხოზჷდეს
მეთხოზჷნა
მეი
მეიერიშ
მეინარდ
მეისონი
მეისონიშ
მეისონს
მეისონქ
მეკარე
მეკარეშ
მეკენჯი
მეკვარჩხანე
მეკლენბურგ
მეკონ
მეკონგი
მეკონგიშ
მეკონეფი
მეკონეფიშ
მეკონეფს
მეკონი
მეკონიშ
მეკონს
მეკოროცხილო
მეკოროცხუათ
მელ
მელა
მელამოსე
მელამოსეეფი
მელამოსეთ
მელამოსექ
მელამოსეშ
მელანეზია
მელანეზიარეფი
მელანეზიას
მელანი
მელარენიშ
მელახი
მელახის
მელახიშ
მელახიშე
მელახშა
მელახშახ
მელახშე
მელბურნი
მელბურნიშ
მელე
მელეიანი
მელენბაიკალეთიშ
მელვინ
მელილია
მელისა
მელიტონ
მელიქიშვილი
მელონიშ
მელუა
მელფა
მემარქვალე
მემარძგვანე
მემბრანა
მემბრანას
მემბრანაშ
მემედ
მემენტო
მემკვიდრეობა
მემკვიდრეობის
მემორიალი
მემორიალურ
მემორიალური
მემუარეფი
მემუარეფიშ
მემფისი
მემჩქუნ
მენა
მენაბდე
მენარღება
მენაღებჷ
მენდალეფი
მენდალი
მენდალით
მენდალიშ
მენდალს
მენდელეევი
მენდელეევიშ
მენდელეევქ
მენდესი
მენდესიშ
მენდი
მენდოსა
მენეჯერი
მენეჯერიშ
მენეჯერო
მენეჯმენტიშ
მენი
მენინგიტი
მენინგიტიშ
მენიშ
მენოღალე
მენოღალეეფი
მენოღალეეფიშ
მენოღალეეფს
მენოღალეეფშო
მენოღალეთ
მენოღალეს
მენოღალექ
მენოღალეშ
მენოღალობა
მენოღალობაშ
მენტება
მენტებას
მენური
მენშევიკეფიშ
მენცარ
მენცარეფი
მენცარეფიშ
მენცარეფს
მენცარეფქ
მენცარეფშო
მენცარი
მენცარიშ
მენცარიშე
მენცარობა
მენცარობათ
მენცარობას
მენცარობაქ
მენცარობაშ
მენცარობაშო
მენცარობეფი
მენცარობეფიშ
მენცარობეფს
მენცარს
მენცარულ
მენცარული
მენცარულო
მენცარქ
მენძელ
მენძელენდჷ
მენძელი
მენძღვიებული
მენჭაფილი
მენჯი
მენჯიშ
მეორე
მეორინჯალა
მეორინჯალას
მერაბ
მერაბიშვილიშ
მერანი
მერგარჰიშ
მერე
მერედით
მერეთ
მერეთი
მერეს
მერეფი
მერეხანს
მერთჷ
მერი
მერია
მერიაშ
მერიდა
მერიდიანი
მერიდიანიშ
მერიდიანს
მერიდიანული
მერილ
მერილენდი
მერილენდიშ
მერილინ
მერინა
მერინათ
მერინას
მერინაფა
მერინაფილი
მერინაქ
მერინაშ
მერინელი
მერინეფით
მერიქ
მერიშ
მერკე
მერკეთ
მერკელიშ
მერკეშ
მერკური
მერკურიშ
მერმენწა
მერსხილ
მერსხილი
მერსხილიე
მერსხუაფა
მერსხუაფათ
მერსხუაფაშ
მერსხუაფილი
მერფი
მერქა
მერქას
მერქაშ
მერჩულე
მერჩულეშ
მერჩქვანელი
მერჩქინელ
მერჩქინელი
მერჩქინელიე
მერჩქინელქ
მერცხილი
მერცხუაფილი
მერხველერი
მეს
მესა
მესალა
მესამე
მესვარილი
მესი
მესიე
მესიექ
მესიეშ
მესის
მესიშ
მესიშა
მესიშახ
მესიშე
მესიშო
მესკალობა
მესკალობაშ
მესმის
მესოამერიკული
მესოპოტამია
მესოპოტამიას
მესოპოტამიაშ
მესტია
მესტიაშ
მესხეთიშ
მეტ
მეტაბოლიზმი
მეტალ
მეტალი
მეტალიკა
მეტალიკას
მეტალიკაქ
მეტალიკაშ
მეტალიკაშა
მეტალიშ
მეტალურგია
მეტალურგიაშ
მეტალურგიული
მეტაფიზიკა
მეტაფიზიკური
მეტებული
მეტელუს
მეტეოროლოგია
მეტეოროლოგიას
მეტეოროლოგიაშ
მეტეოროლოგიურ
მეტეოროლოგიური
მეტეხიშ
მეტი
მეტიე
მეტის
მეტისეფი
მეტო
მეტრ
მეტრა
მეტრათ
მეტრამი
მეტრას
მეტრაშ
მეტრაშახ
მეტრაშე
მეტრეველი
მეტრი
მეტრიან
მეტრიანი
მეტრიე
მეტრით
მეტრის
მეტრიშ
მეტრიშახ
მეტრიშე
მეტრო
მეტროპოლია
მეტროპოლიას
მეტროპოლიაშ
მეტროპოლიტენეფიშ
მეტროპოლიტენი
მეტროპოლიტენიშ
მეტროპოლიური
მეტროტრამი
მეტროშ
მეტრული
მეტრშახ
მეტყველებაშ
მეტჯოხო
მეტჯოხოთ
მეუდირთჷ
მეულა
მეულაშ
მეულირი
მეურე
მეურენა
მეურნალა
მეურნალაშ
მეურნეობა
მეურნეობაშ
მეურნობა
მეურნობას
მეურნობაშ
მეურნობაშო
მეურს
მეურსჷ
მეუსაჯეს
მეუფე
მეუჯღონს
მეუჯღუნჷ
მეფე
მეფის
მექა
მექანიზმეფი
მექანიზმეფს
მექანიზმი
მექანიზმის
მექანიზმიშ
მექანიკა
მექანიკას
მექანიკაშ
მექანიკურ
მექანიკური
მექაშ
მექსიკა
მექსიკარეფი
მექსიკარი
მექსიკას
მექსიკაქ
მექსიკაშ
მექსიკაშა
მექსიკაშე
მექსიკო
მექსიკოს
მექსიკოშ
მექსიკური
მეღანკუა
მეღება
მეღებათ
მეღებას
მეღებაშ
მეღებაშახ
მეღებულ
მეღებული
მეღებულქ
მეშანაფა
მეშანილობა
მეშარე
მეშარეეფი
მეშარეეფიშ
მეშარეეფს
მეშარეს
მეშქაშალა
მეშქაშალათ
მეშქაშალას
მეშქაშალეფი
მეშქაშალეფიშ
მეშქაშობათ
მეშხურეშ
მეშჰედი
მეჩამა
მეჩამათ
მეჩამას
მეჩამაშ
მეჩამილ
მეჩამილი
მეჩანს
მეჩას
მეჩეთეფი
მეჩეთი
მეჩეთის
მეჩეთიშ
მეჩეს
მეჩხოლარობა
მეჩხოლარობას
მეჩხომეეფიშ
მეჩჷ
მეცენატი
მეცნ
მეცნიერება
მეცნიერებათა
მეძენა
მეძენას
მეძობელ
მეძობელი
მეძობელო
მეძჷ
მეწარმეეფი
მეწონეს
მეწონჷ
მეწურაფა
მეწურაფათ
მეწურაფაშ
მეწურაფილ
მეწურაფილი
მეწურაფილიე
მეწურაფილქ
მეჭარ
მეჭარჷ
მეჭედა
მეჭედალა
მეჭედალათ
მეჭედალაშ
მეჭედას
მეჭედელი
მეჭედელო
მეჭირინაფა
მეჭირინაფას
მეჭირინაფაშ
მეჭირინაფეფიშ
მეჭირინაფილი
მეჭყვიდჷ
მეჭყორდჷ
მეხ
მეხვარჷ
მეხიკო
მეხიკოს
მეხიკოშ
მეხოლ
მეხოლაფირი
მეხოლაფირო
მეხუჯაფაშ
მეხჷ
მეხჷრჩანს
მეჯინა
მეჯინათ
მეჯინას
მეჯინაშ
მეჯინეფიშ
მეჯინეფს
მეჯლისი
მეჯლისიშ
მეჯღუნელ
მეჯღუნელი
მეჯღუნილ
მეჯღუნილი
მეჰაშ
მეჰმედ
მეჸიდჷ
მეჸუნა
მეჸუნალობეფი
მეჸუნდეს
მეჸუნდჷ
მეჸუნელო
მეჸუნს
მთა
მთავარი
მთაწმინდაშ
მთიანეთიშ
მთის
მთიულეთიშ
მი
მია
მიამი
მიანმარი
მიანმარიშ
მიანმარს
მიანჭუ
მიანჭჷ
მიარე
მიარეთ
მიარეკათამი
მიარემუდანამი
მიარემუდანობაშ
მიარენერი
მიარენინამი
მიარერიცხუამი
მიარერიცხუან
მიარერიცხუანი
მიარეფერამი
მიარეფერუამი
მიარეფერუამობათ
მიარეფერუან
მიარეფერუანი
მიარეფერუანობა
მიარეფერუანობათ
მიარეფუნქციური
მიარექ
მიარეშა
მიარეშანულამი
მიარეშანულამობა
მიარეშანულამობაშ
მიარეწანამი
მიარეწანიან
მიარეწანიანი
მიარეხონარუაშ
მიარზებუ
მიარზიენს
მიარზიუ
მიარზუ
მიარონი
მიარსხუაფუ
მიარცხუ
მიარცხუაფუ
მიაჩამუ
მიაჩას
მიაჩეს
მიაჩჷ
მიაჭარუ
მიაჭირინუ
მიაჸუნჷ
მიბღენთ
მიგელ
მიგელი
მიგრაცია
მიგრაციაქ
მიგრაციაშ
მიგუ
მიგჷ
მიდართეს
მიდართჷ
მიდაჯღონეს
მიდაჯღონჷ
მიდაჸუნჷ
მიდგა
მიდგარენ
მიდგარენი
მიდგარენქ
მიდგას
მიდგასჷთ
მიდგაშ
მიდეღეს
მიდეღჷ
მიდეშარჷ
მიდეჸონეს
მიდეჸონჷ
მიდლ
მიდნაპურიშ
მიდუღეს
მიდუღუ
მიელინიშ
მიენიჭჷ
მიერ
მიზეზი
მიზო
მიზორამი
მიზორამიშ
მით
მითეფი
მითეფიშ
მითეფს
მითი
მითინ
მითინი
მითინს
მითინქ
მითიური
მითიღჷ
მითმეურდჷ
მითმეურს
მითმეურც
მითმეჩანს
მითმიარსხუ
მითმიარსხუაფუ
მითმიაჩამუ
მითმიოგანდეს
მითმიოგანდჷ
მითმიოგანც
მითმიორსხუანს
მითმიოჭირინუანს
მითმირჩქინანა
მითმიღებუ
მითმურსხუანს
მითოლოგია
მითოლოგიათ
მითოლოგიას
მითოლოგიაშ
მითოლოგიაშე
მითოლოგიურ
მითოლოგიური
მითოღალა
მითოღალას
მითოღალირი
მითუ
მითური
მითხუ
მიიგჷ
მიირდჷ
მიირკჷ
მიკართჷ
მიკი
მიკილჷ
მიკიჭოფჷ
მიკმაჭოფალი
მიკმინჭანს
მიკმიჭოფანდჷ
მიკმიჭოფანს
მიკნაჭარა
მიკნაჭარას
მიკნაჭარაშ
მიკობუნაფილი
მიკოლაივიშ
მიკოლოგია
მიკორთჷ
მიკორინუ
მიკორსხილი
მიკორულაფაშ
მიკოღანკუა
მიკოღანკუეფი
მიკოწონაფაშ
მიკოჭარილი
მიკოჯინათ
მიკრო
მიკრობიოლოგი
მიკრობიოლოგია
მიკრობიოლოგიაშ
მიკრონეზია
მიკრონეზიაშ
მიკროორგანიზმეფი
მიკროორგანიზმეფიშ
მიკროპროცესორეფი
მიკროპროცესორი
მიკრორეგიონ
მიკრორეღმული
მიკროსკოპი
მიკროსკოპიაშ
მიკროსკოპით
მიკროსკოპის
მიკროსკოპიშ
მიკროსკოპულ
მიკროსკოპული
მიკულაშ
მილ
მილა
მილან
მილანი
მილანიშ
მილანს
მილანქ
მილანშა
მილარე
მილერ
მილერი
მილერიშ
მილეს
მილეტი
მილი
მილიარდ
მილიარდერეფი
მილიარდერი
მილიარდი
მილიარდის
მილიარდიშ
მილიარდშე
მილიკენი
მილიკენქ
მილიონ
მილიონამი
მილიონერი
მილიონი
მილიონიანი
მილიონიშ
მილიონიშე
მილიონობათ
მილიონს
მილიონშახ
მილიონშე
მილიშ
მილიცია
მილოსლავსკი
მილს
მილტონ
მილშტეინი
მიმალ
მიმალი
მიმალობა
მიმალობაბორჯის
მიმალობათ
მიმალობაშ
მიმალობეფი
მიმალუობა
მიმალუობაბორჯის
მიმალუობაშ
მიმალუობეფი
მიმალუობეფიშ
მიმართ
მიმარსხუაფალ
მიმარსხუაფალი
მიმაღებუ
მიმოულას
მიმოულაშ
მიმოულაშა
მიმოჩქ
მიმოჯინა
მიმღ
მინ
მინა
მინალი
მინალკარიშ
მინალუს
მინალუშ
მინალუწკჷმა
მინალწკჷმა
მინარეთი
მინას
მინაულარი
მინგეჩაური
მინგეჩაურიშ
მინდა
მინდანაო
მინდანაოს
მინდანაოშ
მინდორი
მინდორიშ
მინდორს
მინერალეფიშ
მინერალი
მინერალურ
მინერალური
მინესოტა
მინესოტაშ
მინი
მინიატიურა
მინიმალური
მინიმუმ
მინიმუმი
მინისტრ
მინისტრეფი
მინისტრეფიშ
მინისტრეფს
მინისტრი
მინისტრის
მინისტრიქ
მინისტრიშ
მინისტრო
მინიშ
მინმურს
მინორი
მინოქსიდი
მინს
მინსკი
მინსკიქ
მინსკიშ
მინულა
მინულაშ
მინუშეფი
მინუშეფიშ
მინუშეფს
მინუში
მინუშის
მინუშო
მინუციუს
მინშა
მინჩა
მინწყუ
მინჯე
მინჯეეფი
მინჯეს
მინჯეშ
მიო
მიოგამალეფი
მიოგამალეფიშ
მიოგამალი
მიოგანდეს
მიოგანდჷ
მიოგორეს
მიოგორუ
მიოგორუანს
მიოგორუეს
მიოგორჷ
მიოგჷ
მიოდინეს
მიოდინუ
მიოდინჷ
მიორინუ
მიორსხუანს
მიორჩქუდეს
მიორჩქუდჷ
მიორჩქჷ
მიორჩქჷდეს
მიორჩქჷდჷ
მიორჩქჷნა
მიორცხუანს
მიორხველანა
მიორხველუანა
მიოტუ
მიოულარი
მიოღებელი
მიოღებელო
მიოჩამალო
მიოჩქუდეს
მიოჩქუდჷ
მიოჩქუნა
მიოჩქჷ
მიოჩქჷდეს
მიოჩქჷდჷ
მიოჩქჷნა
მიოცენს
მიოწურაფალო
მიოწურაფუ
მიოწურუ
მიოწურუანს
მიოჭარანა
მიოჭირინაფალო
მიოჭირინდუ
მიოჭირინეს
მიოჭირინუ
მიოჭირინუანს
მიოჭირინუეს
მიოჭირინუნ
მიოჭირინჷ
მიოხე
მიოჯინი
მიოჯინუ
მიპალეს
მიპალუ
მიპალუანა
მიპალუანდეს
მიპალუაფუ
მიპალჷ
მირანდა
მირაჟი
მირგატიშ
მირდუ
მირდჷ
მირზა
მირზახანი
მირკჷ
მირო
მირჩქინანა
მირჩქინანდეს
მირჩქინანდჷ
მირჩქინანს
მირჩქინეს
მირჩქინუაფუ
მირჩქინუაფუდჷ
მირჩქინუაფჷ
მირჩქინჷ
მის
მისაქციელიშ
მისი
მისია
მისიათ
მისიას
მისიაშ
მისივე
მისიონერეფი
მისიონერეფქ
მისიონერი
მისის
მისისიპი
მისისიპის
მისისიპიშ
მისტერ
მისტიკური
მისტრალი
მისური
მისურის
მისურიშ
მისურჷ
მისჷთ
მიტერანი
მიტოქონდრია
მიტჩელი
მიუზიკლი
მიუზიკლის
მიულერი
მიუნსტერიშ
მიუნხენი
მიუნხენიშ
მიუნხენს
მიურეი
მიქ
მიქა
მიქაელ
მიქელანჯელო
მიქჷთ
მიღას
მიღებუაფუ
მიღენს
მიღეს
მიღუ
მიღუნა
მიღჷ
მიღჷნ
მიშ
მიშაკათაფუწკჷმა
მიშაკათინიშ
მიშალუ
მიშართჷ
მიშარუაფჷ
მიშას
მიშაულარი
მიშაღალა
მიშაღალარო
მიშაღალას
მიშაღალაშ
მიშაღალაშახ
მიშაღალირ
მიშაღალირი
მიშაღალირიე
მიშაღალირქ
მიშაჭკირილ
მიშაჭკირილი
მიშაჭკირუა
მიშაჭკირუაშ
მიშახოხუა
მიშახოხუათ
მიშახოხუაშ
მიშაჸონაფა
მიშაჸონაფაქ
მიშაჸონაფაშ
მიშაჸონაფილი
მიშაჸონაფილქ
მიშელ
მიშელი
მიშელჷ
მიშეს
მიშეღეს
მიშეღჷ
მიშეშჷ
მიშეჸონეს
მიშეჸონჷ
მიში
მიშინუ
მიშინუანა
მიშინუანდეს
მიშინუანს
მიშინუაფუ
მიშინუაფჷ
მიშმაკათუ
მიშმალ
მიშმალი
მიშმალუ
მიშმალუამი
მიშმალუქ
მიშმაულარი
მიშმეკათუანს
მიშმეშ
მიშმეშეს
მიშმეშჷ
მიშმეშჷნ
მიშმეჭკირუ
მიშმულა
მიშმურს
მიშმურც
მიშმუღჷ
მიშნაველეფიშ
მიშნაველეფქ
მიშნაველი
მიშნაველიშ
მიშნალი
მიშნალუქ
მიშნაღელი
მიშუ
მიშულა
მიშულათ
მიშულას
მიშულაშ
მიშულირ
მიშულირი
მიშულირიე
მიშურს
მიშუძჷ
მიშჷ
მიჩიგანი
მიჩიგანიშ
მიჩქუ
მიჩქჷ
მიძინჷ
მიწერა
მიჭანეს
მიჭანუ
მიჭარინჷ
მიხაელ
მიხაილ
მიხედვით
მიხეილ
მიხეილიშ
მიხუჯინჷ
მიხუჯუ
მიჯალაგჷ
მიჸონჷ
მლ
მლადა
მლნ
მლრდ
მმ
მო
მოაბანე
მოაზჷრაფა
მოაი
მოაიშ
მოამბე
მოარზაფა
მოარზაფათ
მოარზუანე
მობილი
მობილიშ
მობილურ
მობილური
მობირე
მობირეეფი
მობირეეფიშ
მობირეშ
მობურთე
მობურთეეფი
მობურთეეფიშ
მობურთეეფს
მობურთეეფშო
მობურთეთ
მობურთეს
მობურთექ
მობურთეშ
მობურთეშე
მოგება
მოგებათ
მოგებაშ
მოგებული
მოგენს
მოგვენ
მოგვენი
მოგვენო
მოგვენობა
მოგვიანაფათ
მოგვიანაფილო
მოგვიანეთ
მოგოლეფიშ
მოგურაფე
მოგჷნძე
მოგჷრძე
მოდა
მოდაშ
მოდელეფი
მოდელეფიშ
მოდელი
მოდელით
მოდელიშ
მოდელს
მოდემეფი
მოდემი
მოდენა
მოდერნიზმი
მოდვალირი
მოდი
მოდირაკილ
მოდოკ
მოდუდე
მოდულეფი
მოდული
მოედანეფი
მოედანი
მოედანიშ
მოედანს
მოედანშა
მოედანშე
მოვალობაშ
მოვარიე
მოვარიექ
მოზაიკა
მოზამბიკი
მოზამბიკის
მოზამბიკიშ
მოზაფარ
მოზელი
მოზოჯუა
მოთა
მოთანჯე
მოთებულ
მოთინილი
მოთხირეფი
მოთხირეფიშ
მოთხირი
მოთხირით
მოთხობელური
მოთხობილი
მოთხუ
მოთხუალა
მოთხუალათ
მოთხუალაშ
მოთხუალეფი
მოთხუალეფიშ
მოთხუალეფს
მოინალე
მოინალეშ
მოინალობა
მოინალობაშ
მოინი
მოიძებნა
მოკათალაშ
მოკვათილი
მოკლე
მოკო
მოკონა
მოკონე
მოკონი
მოკონიშ
მოკრივე
მოლა
მოლასუა
მოლაფა
მოლაჸაფე
მოლაჸაფეეფი
მოლაჸაფეეფიშ
მოლაჸაფეთ
მოლაჸაფეს
მოლაჸაფეშ
მოლდ
მოლდავარეფი
მოლდავური
მოლდოვა
მოლდოვარი
მოლდოვას
მოლდოვაშ
მოლდოვაწკჷმა
მოლე
მოლეკულა
მოლეკულაშ
მოლეკულეფი
მოლეკულეფიშ
მოლეკულურ
მოლეკულური
მოლენკავკაციას
მოლენკავკაციაშ
მოლეფს
მოლი
მოლიერიშ
მოლინა
მოლინას
მოლინაქ
მოლინაშ
მოლინეფი
მოლინეფიშ
მოლინეფს
მოლინეფქ
მოლინეფშე
მოლინეფშო
მოლს
მოლუკიშ
მოლუსკეფი
მოლუშ
მომენტეფი
მომენტი
მომენტის
მომენტიშ
მომენტიშე
მომენტიშო
მომენტშე
მომენტშო
მომითხობელუანა
მომუშე
მომხმარებელი
მომხმარებელს
მონ
მონაზონეფი
მონაკო
მონაკოს
მონაკოშ
მონარქები
მონარქეფი
მონარქეფიშ
მონარქი
მონარქია
მონარქიაშ
მონარქიეფი
მონარქის
მონარქიული
მონარქიშ
მონასტერ
მონასტერეფი
მონასტერეფიშ
მონასტერეფს
მონასტერეფც
მონასტერი
მონასტერიშ
მონასტერს
მონასტერქ
მონასტერშა
მონასტერწკჷმა
მონასტრები
მონაცემები
მონაწილენდჷ
მონახვამილეფი
მონბლანი
მონბლანიშ
მონდა
მონდიდუ
მონდინაფაშ
მონეტა
მონეტარული
მონეტაშ
მონეტეფი
მონიკა
მონირზე
მონირზეშ
მონიტორი
მონიტორიშ
მონკა
მონკათ
მონო
მონოგრაფია
მონოთეიზმი
მონონგაჰილაშ
მონოპოლია
მონორელსი
მონპარნასიშ
მონრეალი
მონრეალს
მონრო
მონსერატ
მონსერატი
მონსოროშ
მონტანა
მონტანას
მონტანაშ
მონტაჟი
მონტაჟიშო
მონტგომერი
მონტე
მონტევიდეო
მონტევიდეოს
მონტევიდეოშ
მონტენეგრო
მონტენეგროს
მონტენეგროშ
მონტესკიე
მონტეფიორეშ
მონტი
მონტყორიშ
მონუმენტეფი
მონუმენტეფიშ
მონუმენტი
მონუმენტიშ
მონუმენტურ
მონუმენტური
მონღ
მონღოლეთი
მონღოლეთის
მონღოლეთიშ
მონღოლეფი
მონღოლეფიშ
მონღოლეფქ
მონღოლი
მონღოლოიდური
მონღოლურ
მონღოლური
მონძალა
მონძალათ
მონძალას
მონძალაშ
მონძალური
მონძე
მონძეეფი
მონძეეფიშ
მონძეთ
მონძეობა
მონძეობათ
მონძეობაშ
მონძექ
მონძეშ
მონძღვარება
მონძღვარუა
მონძღვარუაშ
მონწყილ
მონწყილაფა
მონწყილი
მონწყილობა
მონწყილობათ
მონწყილობას
მონწყილობაშ
მონწყილობაწკჷმა
მონწყილობეფი
მონწყილობეფით
მონწყილობეფიშ
მონწყილობეფს
მონწყილქ
მონწყუალა
მონწყუალას
მონწყუალაშ
მონწყუმა
მონწყჷ
მოო
მოპალაფა
მოპალაფაშ
მოპალაფირი
მოპალუა
მოპალუაშ
[...]
