!
"
#
##0
##1
##10
##11
##12
##13
##14
##15
##16
##17
##18
##19
##2
##20
##21
##22
##23
##24
##25
##26
##27
##28
##29
##3
##30
##31
##32
##33
##34
##35
##36
##37
##38
##39
##4
##40
##41
##42
##43
##44
##45
##46
##47
##48
##49
##5
##50
##51
##52
##53
##54
##55
##56
##57
##58
##59
##6
##60
##61
##62
##63
##64
##65
##66
##67
##68
##69
##7
##70
##71
##72
##73
##74
##75
##76
##77
##78
##79
##8
##80
##81
##82
##83
##84
##85
##86
##87
##88
##89
##9
##90
##91
##92
##93
##94
##95
##96
##97
##98
##99
$
%
&
'
(
)
*
+
,
-
.
/
0
00
000
002
003
004
007
009
01
01424
01484
02
022
026
03
030
033
04
042
044
049
05
054
06
07
08
09
0945
0977
1
10
100
1000
1001
101
1018
102
1020
1024
1025
103
104
1046
105
1050
1054
1059
106
1066
107
1071
1075
108
1080
1081
1085
109
1096
1099
11
110
1100
111
112
1122
1125
113
1133
1139
114
115
1150
1152
1158
116
1167
117
118
1180
1185
119
11965
1198
12
120
1200
1204
1205
121
1212
1214
1215
122
1220
1226
1227
123
1230
1231
1237
124
1240
1241
125
1250
1254
1255
1259
126
1260
1261
1265
127
1270
1278
128
1282
129
1291
1295
1298
13
130
1300
1302
1304
1308
1309
131
1310
1312
1314
1315
132
1321
1328
133
1330
1335
1337
134
1346
1347
1348
135
1350
1351
1353
1356
1359
136
1367
137
1370
1371
1378
138
1380
1386
1389
139
1397
14
140
1400
1401
1406
141
1410
1415
142
1420
143
1431
1434
1435
1436
1437
144
1444
145
1450
1451
1452
1453
1458
146
1460
1464
1469
147
1470
1472
1474
1475
1476
1477
1478
148
1480
1482
1483
1485
149
1490
1492
1493
1494
1495
1497
1498
1499
15
150
1500
1501
1502
1503
1504
1506
1508
151
1510
1511
1512
1513
1515
1516
1517
1519
152
1520
1521
1523
1524
1525
1526
1527
1528
1529
153
1530
1531
1532
1533
1535
1536
1537
1538
154
1540
1541
1542
1543
1545
1547
1548
155
1550
1552
1553
1555
1559
156
1560
1561
1562
1563
1564
1566
1569
157
1570
1571
1572
1575
1576
1579
158
1580
1582
1586
1588
1589
159
1592
1593
1594
1595
1596
1597
1598
16
160
1600
1601
1602
1603
1605
1607
1608
1609
161
1610
1611
1613
1614
1616
1617
1618
1619
162
1620
1621
1622
1624
1625
1626
1628
1629
163
1630
1631
1632
1634
1635
1636
1637
1638
1639
164
1640
1641
1642
1643
1644
1645
1647
1648
1649
165
1650
1651
1652
1653
1656
1657
1658
1659
166
1660
1661
1663
1664
1665
1666
1667
1668
1669
167
1670
1672
1676
1677
1679
168
1680
1681
1682
1683
1684
1685
1686
1687
1688
1689
169
1690
1691
1692
1693
1694
1696
1697
1699
17
170
1700
1702
1703
1704
1705
1707
1708
1709
171
1710
1711
1712
1713
1714
1715
1716
1717
1718
1719
172
1720
1721
1722
1723
1724
1725
1726
1727
1728
1729
173
1730
1731
1732
1733
1734
1735
1738
1739
174
1740
1741
1742
1743
1744
1745
1746
1747
1748
1749
175
1750
1751
1752
1753
1754
1755
1756
1757
1758
1759
176
1760
1761
1762
1763
1764
1765
1766
1767
1768
1769
177
1770
1771
1772
1773
1774
1775
1776
1777
1778
1779
178
1780
1781
1782
1783
1784
1785
1786
1787
1788
1789
179
1790
1791
1792
1793
1794
1795
1796
1797
1798
1799
18
180
1800
1801
1802
1803
1804
1805
1806
1807
1808
1809
181
1810
1811
1812
1813
1814
1815
1816
1817
1818
1819
182
1820
1821
1822
1823
1824
1825
1826
1827
1828
1829
183
1830
1831
1832
1833
1834
1835
1836
1837
1838
1839
184
1840
1841
1842
1843
1844
1845
1846
1847
1848
1849
185
1850
1851
1852
1853
1854
1855
1856
1857
1858
1859
186
1860
1861
1862
1863
1864
1865
1866
1867
1868
1869
187
1870
1871
1872
1873
1874
1875
1876
1877
1878
1879
188
1880
1881
1882
1883
1884
1885
1886
1887
1888
1889
189
1890
1891
1892
1893
1894
1895
1896
1897
1898
1899
19
190
1900
1901
1902
1903
1904
1905
1906
1907
1908
1909
191
1910
1911
1912
1913
1914
1915
1916
1917
1918
1919
192
1920
1921
1922
1923
1924
1925
1926
1927
1928
1929
193
1930
1931
1932
1933
1934
1935
1936
1937
1938
1939
194
1940
1941
1942
1943
1944
1945
1946
1947
1948
1949
195
1950
1951
1952
1953
1954
1955
1956
1957
1958
1959
196
1960
1961
1962
1963
1964
1965
1966
1967
1968
1969
197
1970
1971
1972
1973
1974
1975
1976
1977
1978
1979
198
1980
1981
1982
1983
1984
1985
1986
1987
1988
1989
199
1990
1991
1992
1993
1994
1995
1996
1997
1998
1999
2
20
200
2000
2001
2002
2003
2004
2005
2006
2007
2008
2009
201
2010
2011
2012
2013
2014
2015
2016
2017
2018
2019
202
2020
2021
2022
203
204
205
2050
206
207
208
209
21
210
2100
211
212
213
214
215
216
217
218
219
22
220
2200
221
222
223
224
225
226
227
228
229
23
230
2300
231
232
233
234
235
236
237
238
239
24
240
2400
241
242
243
244
245
246
247
248
249
25
250
2500
251
252
253
254
255
256
257
258
259
26
260
2600
261
262
263
264
265
266
267
268
269
27
270
2700
271
272
273
274
275
276
277
278
279
28
280
2800
282
283
284
285
286
287
288
289
29
290
291
292
293
294
295
296
297
298
299
3
30
300
3000
301
302
303
304
305
306
307
308
309
31
310
3100
311
312
313
3131
314
315
316
317
318
319
32
320
3200
321
322
323
324
325
326
327
328
329
33
330
3300
331
332
333
334
335
336
337
338
33812
34
340
3400
341
342
343
344
345
346
347
348
349
35
350
3500
351
352
353
354
355
356
357
358
359
36
360
3600
3603
361
362
363
364
365
366
367
368
369
37
370
371
372
373
374
37491
375
376
377
378
379
38
380
3800
381
382
383
384
385
386
387
388
39
390
3900
391
392
393
394
395
396
398
4
40
400
4000
401
402
403
404
405
4051
406
407
408
41
410
411
412
413
414
415
416
417
418
419
42
420
421
422
423
424
425
426
427
428
429
43
430
4300
431
432
434
435
436
437
438
439
44
440
441
442
443
444
445
446
447
448
449
45
450
4500
451
452
453
454
455
456
457
458
46
460
461
462
463
464
465
466
467
468
47
470
471
472
473
474
475
476
477
478
479
48
480
481
4810
482
483
484
485
486
487
489
49
490
491
492
493
494
495
496
497
498
499
5
50
500
5000
502
503
504
505
506
507
508
509
51
510
511
512
513
514
515
516
51697
517
518
52
520
5200
521
522
524
525
527
528
529
53
530
531
532
534
536
537
538
539
54
540
541
542
544
545
546
54763
548
549
55
550
5500
551
552
553
554
555
559
56
560
561
562
563
565
566
567
568
57
570
571
572
575
576
577
578
5789
579
58
580
582
585
586
587
588
589
59
590
591
592
593
595
596
597
598
6
60
600
6000
601
602
604
605
608
61
610
61001
611
612
613
614
615
617
618
62
620
621
622
623
625
626
627
628
629
63
630
631
632
633
634
635
636
637
639
64
640
641
642
643
644
646
647
648
649
65
650
6500
651
652
653
654
655
656
657
658
659
66
660
661
663
667
67
670
671
674
677
678
679
68
680
681
682
683
687
688
69
690
691
692
695
697
698
699
7
70
700
7000
701
702
7049
707
708
7089
71
711
714
715
716
717
718
72
721
723
724
725
727
7272
72910
73
730
732
737
739
74
740
741
744
745
747
748
749
75
750
7500
751
753
754
755
756
759
76
760
7608
761
7618
762
763
7637
7643
765
768
769
77
770
7700
7701
7705
771
772
773
774
775
7757
776
7766
777
778
779
78
780
782
783
785
7857
787
7873
788
789
7892
79
790
7913
7917
792
793
794
795
7957
796
797
798
799
7995
8
80
800
8000
8001
801
8012
8018
802
803
8031
804
8047
8053
806
8062
807
8078
809
81
810
8100
8108
811
8112
812
813
8131
814
815
816
817
82
820
821
822
8221
8233
825
8252
8258
8260
827
8274
8288
8289
829
83
830
8300
831
832
8321
8329
833
8334
8354
836
8376
839
84
840
841
842
843
844
846
849
85
850
8500
85474
85492
855
85869
86
861
86153
862
865
867
86820
869
87
870
871
874
876
877
879
88
880
882
883
883803
884
885
88506
886
88619
88680
887
888
89
890
89007
891
89104
892
893
89331
894
89432
89438
896
89620
89678
89691
897
89771
898
89965
9
90
900
9000
907
909
91
910
911
912
92
921
921333
924
925
926
929
93
930167
930908
932
933203
935
936096
937872
938
94
940
95
950
9500
951
955
956
96
960
962
963
965
966
969
97
970
972
973
975
976
978
98
980
982
987
988
99
992
997
:
;
<
=
>
?
@
[
\
]
^
_
`
a
aa
aachen
aachener
aara
aarau
aaron
ab
abandun
abanduna
abandunada
abatter
abatti
abattida
abattidas
abazia
abbasids
abbey
abbondanza
abbondio
abc
abd
abdicaziun
abditga
abditgar
abeba
abel
abels
abendlandes
abenteuer
aber
abessinia
abgerufen
abhandlungen
abies
abilitad
abilitads
abingdon
abiotics
abita
abitada
abitadas
abitadi
abitadis
abitads
abitan
abitant
abitantas
abitants
abitar
abitava
abitavan
abitaziun
abitaziuns
abiteda
abitur
abla
ablas
aboli
abolida
abolidas
abolids
abolir
aboliziun
aboriginal
aborigines
aborigins
about
abraham
abrams
abreviaziun
abreviaziuns
abrupta
abruzzas
abs
abschied
absent
absenza
absolut
absoluta
absolutamain
absolutas
absolutismus
absolutissem
absolutistic
absolutistica
absolutisticas
absolutistics
absolver
absolvi
absorba
absorbar
absorbescha
absorbeschan
absorpziun
abstract
abstracta
abstractas
abstracts
abstraha
abteilung
abu
abundanza
abunents
abus
ac
acade
academia
academias
academic
academica
academics
academy
accelera
accelerada
accelerar
acceleraziun
accent
accents
accentua
accentuada
accentuadas
accentuads
accentuar
accentuavan
accentuaziun
accentuescha
accentueschan
accepta
acceptada
acceptadas
acceptads
acceptan
acceptanza
acceptar
access
accessibel
accessibels
accessibla
accessiblas
accessorics
accident
accidents
accoglientscha
accord
accorda
accordadas
accordanza
accordar
accords
account
accumpagna
accumpagnada
accumpagnadas
accumpagnader
accumpagnaders
accumpagnads
accumpagnament
accumpagnar
accumpli
accumplida
accumpliment
accumplir
accumpogna
accumpognan
accumular
accumulatur
accumulaturs
accumulaziun
accusa
accusads
accusativ
accusaziun
acer
acf
achemenids
achenas
achim
achterhuis
acid
acidics
acids
ackermann
acla
aclas
aclaun
aclauns
aconcagua
acquate
acquisiziun
acquisiziuns
acquist
acquista
acquistada
acquistadas
acquistads
acquistar
act
acta
actas
action
activ
activa
activamain
activas
activists
activitad
activitads
activited
activiteds
activity
activs
acts
actual
actuala
actualas
actualisa
actualisada
actualitad
actualmain
actuals
actuar
actur
actura
acturas
acturs
acustic
acustica
acusticas
acustics
acuta
aczias
acziun
acziunara
acziuns
ad
ada
adalbert
adam
adams
adapta
adascus
adatg
adatta
adattada
adattadas
adattads
adattar
adattaziun
adattaziuns
adattescha
adatteschan
adda
addis
adelaide
adelbert
adelheid
ademplescha
adempleschan
adempli
ademplidas
ademplir
ademplivan
adequat
adequata
aderent
aderents
aderenza
adesiun
adherents
adina
adisch
adjectiv
adjectivs
adler
admess
admessa
admessas
admin
administra
administrada
administradas
administrads
administrar
administration
administrativ
administrativa
administrativamain
administrativas
administrativs
administratur
administraturs
administraziun
administraziuns
admira
admiral
admirar
admiratur
admirava
admiraziun
admissiun
admonescha
admoni
adn
ado
adolf
adolph
adolphe
adonta
adopta
adoptiv
adorno
adossa
adossada
adressa
adressas
adressat
adria
adrian
adrianopel
adriatica
adu
adumbatten
aduraziun
advanced
adventists
adventure
adventures
adverbs
adversari
adversaria
adversarias
adversaris
advocat
advocats
ae
aeneis
aerosols
aetas
affairs
affar
affars
affecziun
affera
afferas
affiliada
affiliadas
affirma
affluent
affluents
affluenza
afflussiun
affon
affons
affonza
afganistan
afghanistan
aforissem
aforissems
africa
african
africana
africanas
africans
afrika
afrikaans
afrikas
afroamericans
after
ag
again
against
agamemnon
age
ageing
agen
agency
agenda
agens
agent
agents
agentura
agenturas
ages
agescha
ageschan
agglomeraziun
agi
agid
agids
aging
agir
agitaziun
agiunt
agiunta
agiuntada
agiuntadas
agiuntads
agiuntar
agiuntas
agiva
agivan
agl
aglomeraziun
aglomeraziuns
agls
agne
agnes
agno
ago
agostino
agrar
agrara
agraras
agrarpolitik
agrars
agreement
agressiun
agressiuns
agressiv
agressiva
agressivas
agricola
agricul
agricula
agriculas
agriculs
agricultura
agrun
agu
aguirre
ahmed
ahorn
ahur
ai
aifer
aigle
aimara
aims
ain
aint
ainten
air
aire
aires
airi
airline
airlines
airolo
airport
airr
airways
ais
aise
aissa
aissas
ajoie
ak
akademie
akademische
akademischer
akkad
akten
aktion
aktuell
aktuelle
al
ala
alabama
alain
alan
alarm
alas
alasca
alb
alba
alban
albanais
albanaisa
albania
albanien
albany
alber
albert
alberto
albertus
albiert
albierts
albrecht
albula
albulatal
album
albums
alcaloids
alcohol
alcoholicas
alcuin
aldershot
aldo
alea
aleman
alemannia
alemans
alembert
alert
alessandro
aletsch
alex
alexander
alexandra
alexandre
alexandria
alexei
alexios
alexis
alfa
alfabet
alfabetica
alfabetisaziun
alfabets
alfons
alfonsina
alfonso
alfred
algarve
algas
algeria
algier
ali
alias
alicante
alice
aliena
alienada
alienaziun
alighieri
alimentar
alimentara
alimentaras
alimentaziun
aliments
alin
alinea
alive
alize
all
alla
allah
allan
allas
alle
allega
allegada
allegar
alleghescha
allegorica
allegra
allen
aller
allergias
alles
allevament
allevar
allevaturs
allga
allgemeine
allgemeinen
allgemeiner
allia
alliada
alliadas
alliads
alliance
allianz
allianza
allianzas
alliar
allison
allocuziun
allontana
allontanada
allontanadas
allontanads
allontanar
allontanescha
alloscha
alloschi
alltag
allura
allusiun
allusiuns
alluvialas
allzumenschliches
almain
almanach
almosnas
almut
alni
alnobetula
alnus
alois
alonso
alp
alpen
alpes
alpestra
alpha
alpi
alpidica
alpin
alpina
alpinas
alpine
alpinist
alpins
alpinum
alpium
alpo
alps
alpsu
als
alsazia
also
alt
alta
altai
altar
altars
altdorf
alte
alten
alter
altern
alternant
alternanta
alternantas
alternativa
alternativas
alternative
altertumskunde
altes
altezia
althing
altishofen
alto
aluminium
alura
alv
alva
alvagni
alvas
alvaschagn
alventa
alvra
alvs
alwin
aly
am
ama
amadeus
amant
amanta
amar
amaras
amatur
amaturs
amazonas
amazone
amazonia
amban
ambans
ambassada
ambassadas
ambassadur
ambassadurs
ambiaint
ambient
ambients
ambique
ambivalent
ambivalenta
ambiziun
ambiziuns
ambizius
ambiziusa
ambra
amchitka
amdo
ame
amen
amenduos
america
american
americana
americanas
americans
amerika
amerikanische
amerikanischen
amerikas
amet
amez
amfibis
amfiteater
ami
amia
amiaivla
amias
amicabla
amicezia
amicizia
amicizias
amiens
amiez
amis
amitg
amitga
amitgs
ammann
ammianus
amnestia
amnesty
amniots
amo
among
amor
amore
amour
amphibien
amplificatur
amplificaturs
amplificaziun
amplifitga
amplifitgada
amplifitgar
amplituda
amprem
amprema
amsterdam
amt
amur
an
ana
analas
analisa
analisar
analisas
analisescha
analitic
analitica
analog
analogia
analyse
analysen
analysis
anarchicas
anarchissem
anarchist
anarchists
anatolia
anatomia
anatomica
anatomicamain
anatomicas
anatomie
anatomy
anavos
anc
ancash
ancashino
ancien
ancient
ancona
and
andalus
andalusia
andament
andas
andeer
andere
anderen
andermatt
anders
andersen
anderson
andetg
andetga
andetgamain
andiast
andorra
andorran
andorrana
andorrans
andra
andre
andrea
andreas
andrei
andrew
andri
andriu
android
andrzej
andy
ane
anecdotas
anemona
anemonas
anemone
anen
anfa
anfang
anfignen
anfla
anflan
anflar
anflau
angal
angela
angeles
angelika
angelo
angels
angenendt
angewandte
anghel
anghels
angiolina
angiosperms
anglicana
anglicans
anglo
angloamerican
anglosaxon
anglosaxona
anglosaxonas
anglosaxons
angola
angrenzende
angrenzender
angst
anguilla
angul
anguls
anguscha
anhalt
anhorn
anima
animadas
animads
animal
animalet
animalets
animalia
animalics
animals
animar
anita
anjou
ankara
anmerkungen
ann
anna
annada
annadas
annalas
annalen
annales
annals
annan
anne
annecta
annectada
annectads
annectar
annecy
annefrank
annemarie
annetta
annette
annexiun
annexiuns
annie
anniversari
anniviers
anno
annot
annotated
annotaziun
annotaziuns
annual
annuala
annualas
annualmain
annuals
annulla
annullar
annunzia
annunziada
annunziads
annunziar
anonim
anonima
anora
anr
ans
ansalonga
anschluss
anselm
ansemmen
ansiels
ansprenger
anspruch
anstalt
ant
anta
antalya
antarctic
antarctica
ante
antecessur
antecessura
antecessurs
antenats
antenna
antennas
anteriur
anteriura
anteriuramain
anteriuras
anteriurmain
anteriurs
anthocerotophyta
anthology
anthony
anthropologie
anthropology
anti
antic
antica
anticas
antichrist
anticipa
anticipada
anticipadamain
anticommunistica
antics
antifaschistica
antigiudaissem
antigone
antigua
antike
antiken
antillas
antiochia
antipatia
antiqua
antiquada
antiquadas
antiquads
antiquitads
antiquity
antisemitica
antisemiticas
antisemitissem
antiwar
anto
antocen
antofagasta
antognoni
antoine
antoinette
antologia
anton
antoni
antonija
antonio
antonius
antony
antropogenas
antropolog
antropologia
antropologica
antruras
anturn
antwerpen
anwendungen
anzeiger
anzi
ao
aosta
aouda
apaina
apartheid
aparti
apel
apenninas
apicultura
apocalipsa
apocalypse
apocrifs
apollinaire
apollo
aposta
apostel
apostels
apostolic
apostolica
appalachas
apparat
apparats
apparatura
apparaturas
apparent
apparenta
apparentamain
apparentas
apparents
apparientscha
apparientschas
appartegna
appartegnair
appartegnan
appartegnava
appartegnent
appartegnentas
appartegneva
appartegnevan
appartegni
appartegnientscha
appel
appella
appellaziun
appellescha
appels
appendix
appendixs
appenzell
applaus
apple
applicaziun
applicaziuns
applitga
applitgada
applitgadas
applitgads
applitgar
applitgescha
applitgeschan
applitgond
apport
apportionment
apprezia
appreziada
approach
approfunda
approfundantas
approfundar
appropria
appropriar
appropriaziun
approva
approvada
approvar
approvaziun
approvescha
approximativ
approximativa
approximativamain
april
apsida
apulia
apuri
aquaduct
aquila
aquin
aquitania
ar
ara
arab
araba
arabas
arabia
arabica
arabs
arader
arago
aragon
aragonia
arameic
aran
arar
araucani
arawak
arawaks
arbaja
arbedo
arbeit
arbeiten
arbeitenden
arbeiter
arbeiterbewegung
arbeiterpartei
arber
arbiter
arbiters
arbitrara
arbitraria
arbon
arc
arcaic
arcaica
archa
archaeognatha
archaeological
archaeology
arche
archeolog
archeologia
archeologic
archeologica
archeologicamain
archeologicas
archeologics
archeologs
archetips
archiduca
archipel
architect
architectonic
architectonica
architectonicamain
architectonicas
architectonics
architects
architectura
architecture
architektur
archiv
archivari
archive
archives
archivio
archivs
archosaurs
archuvestg
archuvestgieu
archuvestgs
arctic
arctica
arcticas
arcun
arcunada
arcunar
ard
ardennas
arder
ardez
are
area
areal
areals
areas
areguard
arena
arendt
argent
argentin
argentina
argentinas
argentinia
argentins
argient
argovia
argument
argumenta
argumentar
argumentaziun
argumentaziuns
argumentescha
argumenteschan
arguments
ari
aria
arians
arica
arillus
aris
aristide
aristocrat
aristocrata
aristocratic
aristocratica
aristocraticas
aristocratics
aristocrats
aristocrazia
aristoteles
arizona
arjuna
arkansas
arlesheim
arma
armada
armadas
armadira
armads
armament
armas
armaziun
arme
armee
armen
armenia
armens
arments
armia
armin
armistizi
armon
armonia
armonias
armonica
arms
armstrong
army
arnd
arndt
arne
arnica
arnicae
arnim
arno
arnold
arnoldo
arogn
arom
aroma
aromas
aromuns
arosa
arpa
arpagaus
arpanet
arpas
arranschament
arranschaments
arranschar
arrest
arresta
arrestads
arrestar
arrestaziun
arrestaziuns
arriv
arriva
arrivada
arrivadas
arrivads
arrivan
arrivar
arrivaus
arrivava
arrivavan
arrivia
arrivond
ars
arsa
arsacids
arschiglia
arschiglius
arsenal
arsentadas
art
artaxerxes
arte
artefacts
artemis
arten
artes
artg
artga
artget
artgists
artgs
arthur
artichel
artichels
artifizial
artifiziala
artifizialas
artifizials
artigel
artigliaria
artikel
artisanadi
artisanalas
artisanat
artist
artista
artistic
artistica
artisticas
artistics
artists
artitgel
artitgels
artois
artropods
arts
artschaiva
artur
aru
aruba
arvieut
arvn
as
ascender
ascendi
ascension
ascensiun
ascensur
ascensurs
ascesa
asch
ascha
aschaffenburg
aschera
aschi
aschia
aschieu
aschkenasim
ascoli
ascona
asen
asens
aserbaidschan
aserbeidschan
aserbeidschanic
asfaltadas
asfaltads
ashgate
asia
asian
asiatic
asiatica
asiaticas
asiatics
asiats
asien
asil
asimetrica
asis
askeberg
asp
aspect
aspectativa
aspectativas
aspectatur
aspectaturs
aspects
aspekte
aspirar
aspiraziun
aspiraziuns
asr
ass
assagl
assagli
assagls
assamblea
assambleas
assassin
assassina
assassinads
assassinar
assassinat
assassinats
assassins
assedi
assedia
assen
assessment
assicuranza
assicuranzas
assimilaziun
assiria
assiric
assirs
assistent
assistenza
assister
assisti
associa
associada
associadas
associads
associar
associated
association
associazione
associaziun
associaziuns
asteraceae
asteroid
asteroids
astga
astgan
astrid
astronaut
astronautica
astronauts
astronom
astronomia
astronomic
astronoms
asturia
asuncio
at
atatu
ateists
atelier
atgna
atgnadad
atgnadads
atgnamain
atgnamein
atgnas
athen
athena
athens
athesia
atlanta
atlantic
atlantica
atlas
atlet
atleta
atletica
atlets
atman
atmosfera
atmospheric
atoll
atom
atomar
atomara
atomaras
atomic
atomicas
atoms
atp
atras
atrium
atrocitads
atschal
atta
attaschadadad
attatg
attatga
attatgada
attatgader
attatgaders
attatgads
attatgan
attatgar
attatgas
attent
attentaders
attentat
attentats
attents
attenziun
atterrament
attest
attesta
attica
attira
attiran
attractiv
attractiva
attractivas
attractivitad
attractivs
attracziun
attracziuns
attrair
attratg
attribuescha
attribueschan
attribui
attribuida
attribuidas
attribuids
attribuir
attribuiva
attribut
attributs
attribuziun
atun
au
aua
aual
auals
auas
auca
auch
aucuparia
aud
auda
audan
aude
audienza
audio
auditiv
auditiva
auditivs
auditori
auditur
auditurs
audrey
auf
aufbau
aufbruch
aufkla
auflage
auflo
aufsa
aufstieg
auftrag
aufzeichnungen
aug
augen
augment
augmenta
augmentada
augmentadas
augmentads
augmentan
augmentar
augmentaziun
augmentia
augments
augsburg
augsburger
augst
august
augusta
auguste
augusti
augustin
augustinus
augustus
aula
ault
aulta
aunc
auncha
auns
aunz
aur
aura
aurea
aurel
aurelian
aurelius
aurigeno
aurignacien
aurora
aus
auschwitz
ausgabe
ausgang
ausgewa
ausla
ausstellung
austin
australia
australian
australiana
australianas
australians
australien
australis
australopithecus
austrasia
austria
austriac
austriaca
austriacas
austriacs
austrian
auswa
auswirkungen
aut
auta
autalpinas
autamain
autas
autcumissariat
autentica
autenticitad
autentics
auter
auters
autezza
autezzas
authority
autischem
autmedieval
auto
autobiografia
autobiografica
autocratic
autoctona
autoctonas
autoctons
autodefensiun
autodenominaziun
autodeterminaziun
autoimpollinaziun
automatic
automatica
automaticamain
automobil
automobils
autonom
autonoma
autonomamain
autonomas
autonomia
autonoms
autoprovediment
autor
autoren
autorisa
autorisaziun
autorita
autoritad
autoritads
autoritar
autoritara
autoritaras
autoritarissem
autoritars
autos
autostrada
autostradas
autra
autramain
autras
auts
auttradiment
autur
autura
auturas
auturs
aux
auxiliar
auxiliara
auxiliaras
auxiliars
auza
auzada
auzadas
auzament
auzan
auzar
außenpolitik
außenwirtschaft
av
avain
avaina
avainas
avair
avais
avaiva
aval
avalokiteshvara
avant
avantagius
avantatg
avantatgs
avantgarda
avantlieu
avantmezdi
avantterren
avanza
avanzada
avanzadas
avanzads
avanzament
avanzar
avanzavan
avars
avat
avats
avaunt
avdants
avdanzas
avdaunts
avdonts
ave
avec
avegnir
avegno
avel
avellino
avenches
avend
aventura
aventuras
aventures
avenue
aversiun
avert
averta
avertadad
avertamain
avertas
averteschan
averti
avertiment
avertiments
avertir
averts
avertura
averturas
avery
aves
avess
avessan
avessi
avev
aveva
avevan
avevi
aviarta
aviatic
aviatica
aviaticas
aviaziun
aviert
avieuls
aviez
aviezs
avignon
avis
avisa
avischina
avischinada
avischinan
avischinar
avischinaziun
avischinaziuns
aviun
aviuns
aviv
avla
avon
avra
avran
avrapista
avras
avrigl
avril
avrir
avuga
avugadia
avunda
avuost
avust
award
awards
awaren
axa
axas
axel
axiom
ayacucho
ayrton
az
azoras
azov
aztecs
azur
b
ba
bab
baba
babel
babeuf
babilon
babilonia
babilonic
babnoss
babs
bach
bachelor
bacher
bachmann
back
bacon
bacteria
bacterias
bad
bada
badaisa
baden
badia
badugn
badugns
badus
baez
bagdad
baghegiar
baghegiau
baghetg
bagnes
bahaissem
bahamas
bahia
bahn
bahrain
baikal
bain
bainbaud
baininqual
bainprest
bains
bainspert
bainstant
bainstanta
bainstantas
bainstants
bainstanza
bainstar
bainvegni
bainvis
bainvulenta
baiva
baivan
baiver
baja
bajegia
bajegiada
bajegiar
bajetg
bajetgs
baker
baku
bakunin
bal
balances
balaste
balaton
balcan
balearas
balena
balenas
balerna
balkan
balkans
ball
balla
ballabasket
ballada
balladas
ballamaun
ballanataziun
ballantscha
ballape
ballapei
ballapeist
ballarait
ballas
ballet
balthasar
baltic
baltica
balticas
baltics
balticum
baltimore
baltmannsweiler
baltramieu
baluschek
balzer
balzers
bamberg
banadetg
banat
banc
banca
bancar
bancas
banchier
banchiers
bancnota
bancnotas
banco
bancrut
bancs
band
banda
bandas
bandegia
bandiera
bandieras
bandischa
bandischada
bandischads
bandischar
bandits
bands
banduna
bandunada
bandunadas
bandunan
bandunar
bandunau
bangkok
bangladesch
banja
bank
bantu
bao
bap
baptist
baptiste
baptists
bar
bara
baraccas
baras
barat
baratta
barattan
barattar
barba
barbara
barbarossa
barbars
barbengo
barbet
barbier
barbis
barbisch
barblan
barcelona
barcha
barchas
barcino
bardill
bardonnex
barents
bargia
bargunsegner
bari
barla
barlac
barlot
barmen
baroc
barocca
baroche
barocs
barometer
baron
barra
barraclough
barras
barricadas
barrier
barriera
barrieras
barry
bars
bartga
bartgas
barth
barthe
barthes
bartholoma
bartolome
bartolomeo
bartolomeu
barun
baruns
bas
basa
basada
basala
basalt
basan
basar
basas
basava
basavan
basc
basca
bascs
base
based
basegn
basegna
basegnan
basegns
basegnus
basel
baselgia
baselgias
basia
basic
basics
basilea
basilica
basingstoke
basis
baskervilles
basketball
basler
basond
bass
bassa
bassas
basset
bassewitz
bast
basta
bastan
bastards
bastia
bastien
bastille
bastiment
bastiments
bastiun
bastun
bastuns
batgettas
batschida
batschigl
batschigls
batta
battaglia
battaglias
battagliun
battagliuns
battaisem
battan
battaria
battarist
battegia
battegiar
batten
batter
battesta
batteva
battevan
batti
battida
battidas
battider
battids
battista
battle
batu
bau
baud
bauer
bauern
baul
baum
baumann
baumkunde
baus
bavarais
bavaraisa
bavaraisas
bavaria
baviera
bavregn
bavrola
bavrolas
bavronda
bavrondas
bawerk
bay
bayer
bayerische
bayerischen
bayerischer
bayerisches
bayern
bayerns
bayreuth
bbc
bbe
bc
bd
be
beach
beadientscha
beagle
beat
beate
beatles
beatrice
beatrix
beaux
bec
becher
beck
becker
beckmann
bedeutung
bedingungen
bedretto
beeli
been
beer
beethoven
beethovens
beevor
beffas
before
befreiung
beginn
beginnings
begins
begl
beglia
begriff
begriffe
begriffs
begru
behavior
behavioral
behaviour
behind
bei
beiber
beiden
beijing
beim
bein
being
beispiel
beitra
beitrag
beiva
bel
belfort
belgia
belgica
belgrad
belgrano
belize
belknap
bell
bella
bellas
belle
bellerive
belletristica
bellezia
bellezza
bellezzas
bellinzona
bellis
bellmann
bello
belmont
belmopan
beloved
bels
belsen
belt
beltg
beltga
beltgas
beltgs
beltz
belzec
ben
bender
benedetg
benedict
benedicta
benedictin
benedictina
benedicziun
benedida
benedikt
benelux
beneventa
beneventada
benin
benito
benjamin
benno
benz
benziger
benzin
beobachter
bep
ber
berall
berblick
berbs
berg
bergamo
berge
bergen
berger
bergisch
bergkirchen
bergman
bergu
bericht
berichte
bering
berkeley
berlegungen
berlieferung
berlin
berliner
berlinische
bermuda
bern
berna
bernais
bernaisa
bernaisas
bernard
bernardin
bernardino
bernardo
bernd
bernecker
berner
berners
bernex
bernhard
bernina
bernstein
bersetzung
bersicht
bert
bertelsmann
berther
bertogg
bertolt
bertrand
beru
bes
besanc
beschreibung
beschrieben
besonderer
bessarabia
best
bestandteile
bestimmen
bestimmung
besuch
betg
bethel
bethmann
betrachtungen
bettina
bettingen
betula
betulaceae
betulus
betun
between
beutel
beuys
bever
beverin
bevo
bewegung
bey
beziehungen
bezirk
bezzola
bfs
bger
bgeras
bgeraunz
bgers
bhagavad
bhakti
bhutan
bi
bia
biadi
biadia
biadis
biala
bialas
bials
bianca
biaras
biars
biasca
białowiez
bibel
biber
bibgia
bibi
bibla
biblic
biblica
biblicas
biblics
bibliografia
bibliografic
bibliographie
bibliographisches
bibliography
biblioteca
bibliotecari
bibliotecas
bibliothe
bibliothek
bice
bicornis
bidogno
bie
biedermeier
biel
bielefeld
bieloruss
bielorussia
bien
bienna
bienne
biera
bierbaum
biert
biestga
biffel
biffels
bifrun
big
bigl
bigliet
bigliets
bigls
bilantscha
bilanz
bilateralas
bilaterals
bilbao
bild
bilddokumenten
bilder
bildern
bildung
biling
bilings
bilingua
bilinguas
bilinguitad
bill
billiuns
billy
bin
binari
binaris
bindel
bindels
bingen
binh
binia
bio
biobi
biocenosa
biocenosas
biodiversita
biodiversitad
biodiversity
biogas
bioggio
biograf
biografia
biografias
biografic
biograficas
biografie
biographie
biographien
biographische
biographisches
biography
bioinformatica
biolog
biologia
biologic
biologica
biological
biologicas
biologics
biologie
biologischen
biology
biomassa
biosfera
biotop
biotops
bipartiziun
bird
birgit
birkenau
birkha
birmingham
biro
birocratic
birocrazia
biros
birsfelden
birth
bis
bische
bischen
bischens
bischutaria
bismarck
bison
bisons
bissau
bist
bistgaun
bists
bitola
bitta
bittada
bittadas
bittads
bittan
bittar
bitzius
bivio
bizantin
bizantina
bizantinas
bizantins
bizanz
bizochels
bjo
bke
bla
black
blackwell
blagojevic
blair
blaise
blake
blanc
blanchard
blank
blasius
blau
blaua
blauas
blaue
blauenta
blaus
blefuscu
blenio
bler
blera
bleras
blers
blessa
blessada
blessadas
blessads
blessar
blessura
blessuras
bletscha
bletschs
blica
blick
blis
blitz
blo
bloc
blocca
bloccada
bloccadas
bloccads
bloccar
bloch
blocher
blocs
bloemfontein
blomberg
blotzheim
blu
bludenz
blue
blues
blum
blume
blumenberg
blumenthal
blut
blv
bmg
bmi
bmw
bn
bner
bo
board
bob
bobo
boccaccio
boccoli
bock
bod
boden
bodenkunde
bodhi
bodhisattva
bodin
bodo
body
boema
boemia
boemian
boemians
bogn
bogns
bogota
boicot
boicotta
boicottar
bois
boitani
boleslaw
bolesław
bolivia
bologna
bolschevica
bolschevics
bolschevissem
bombay
bonaire
bonaparte
bond
bondo
bonhoeffer
bonifatius
bonn
bonnie
bonus
book
books
boom
boozy
bor
bora
borchardt
bord
bordeaux
boreal
boreala
boreals
borg
borgnone
borgo
borgolte
boris
bormio
born
boroughs
borromeo
bos
bosco
bosna
bosnia
bosniac
bosniaca
bosniacas
bosniacs
bosnien
bosporus
bossey
bostgaglia
boston
botanic
botanica
botanicher
botanik
botnia
botsuana
botswana
botticelli
botzenhart
boulevard
bourbon
bourbons
bourg
bourgeois
bourgeoisia
bov
bova
bovas
bovids
bovina
bovs
bow
boxar
boxist
boyer
boys
bozen
bpb
br
bra
brabant
brabham
brad
bradley
brahma
brahman
brahmanic
brahmans
bram
brama
brand
brandenburg
brando
brandt
branscha
branschas
braque
bras
brasi
brasil
brasilia
brasilian
brasiliana
brasilians
brasilien
brassa
brassada
brassar
brastgida
bratga
bratislava
bratsch
bratscha
bratschs
bratunac
brauchen
braun
braunschweig
brava
bravuogn
brazzaville
bre
brecht
breg
bregaglia
bregagliot
bregenz
breil
breisgau
brema
bremen
bremerhaven
bremgarten
brenner
brenno
breno
brentano
breschnew
brescia
breslau
brest
bretagna
breton
bretton
brev
brevier
brevs
brian
brianza
bridge
brie
brief
briefe
briefen
briefwechsel
brien
brienz
brig
brigada
brigadas
brigitte
brin
brina
brinas
brinenta
brins
brinzauls
brione
brisch
brischa
brischada
brischadas
brischads
brischan
brischar
brissago
bristol
brit
britain
britannia
britannic
britannica
britannicas
britannics
british
brits
brno
bro
broadcasting
broadwood
brockard
brockhaus
bronz
bronzezeit
brooks
broschura
broschuras
brothers
brown
browning
broye
broz
bru
brubaker
bruce
brugg
brumaire
brumbel
brumbels
brunate
brundage
brunei
brunnen
brunner
bruno
brunold
brunsina
brusio
brussels
brut
brutal
brutala
brutalitad
brutg
brutta
brutus
bu
buc
buca
bucarest
bucca
buch
buchenwald
buchgesellschaft
buchhandlung
buchli
buchs
buchverlag
buckingham
bucovina
bucs
buda
budapest
buddha
buddhism
buddhismus
buddhist
buddy
bude
budelli
budget
budgets
budissem
budistic
budistica
budisticas
budistics
budists
budrich
buendner
buenos
bufatg
buffa
buffalo
bug
bugen
buglia
buglir
bugnei
building
buis
bul
bulbas
bulgar
bulgara
bulgaras
bulgaria
bulgarien
bulgars
bulieu
bulieus
bull
bulla
bulle
bulletin
bullinger
buls
bulsaun
bultmann
bulwer
bumaun
bumba
bumbarda
bumbardaders
bumbardament
bumbardaments
bumbardar
bumbas
bun
buna
bunamain
bunamein
bunas
bund
bundant
bundes
bundesamt
bundesla
bundesministerium
bundesrat
bundesregierung
bundesrepublik
bundesstaat
bundestag
bundeszentrale
bundi
bunmartga
bunmartgada
bunmartgadas
bunmartgads
buns
buob
buoba
buobs
buora
buorm
burckhardt
burdi
bureau
burgais
burgaisa
burgaisas
burgaisia
burgamester
burgas
burgdorf
burgenland
burgheis
burgogna
burgognais
burgognaisa
burgos
burke
burkert
burkhard
burkina
burma
burns
burs
bursa
bursalins
burundi
bus
busch
bush
business
bussigny
bussy
bustab
bustabs
but
butch
butia
butias
butin
butler
bvre
by
byron
byzantine
byzantinische
byzantium
byzanz
bz
c
ca
cabaret
cabel
cabels
cabinet
cabo
cacau
cadalbert
cadavers
cadeina
cademario
cadenazzo
cadenza
cader
caderas
caders
cadi
cadruvi
caduff
caecilius
caesar
caesarea
cafe
cafein
caffe
caffer
caffetiera
caflisch
cain
cairo
cajamarca
cala
calabria
calais
calanca
calantgil
calcul
calcula
calcular
calculaturs
calculaziun
calculaziuns
calcutta
caledonia
calender
calif
califat
california
califs
caligula
calium
calling
callipepla
calluna
calm
calma
calmada
calmant
calmar
calvert
calvin
calvinissem
calvinists
calwer
calzers
calzium
camarats
camartin
cambodscha
cambridge
camenisch
camera
cameras
camerun
camille
camisa
camischolas
camiun
camiuns
camp
campagna
campagnas
campaign
campania
campbell
campe
campiun
campiunadi
campiunadis
campiuns
campo
campocologno
camps
campus
camuflagi
camuns
camus
camutsch
can
canaan
canada
canadais
canadaisas
canadian
canal
canarias
canberra
cancer
cancik
candida
candidar
candidat
candidats
candidatura
candinas
candrian
caneggio
canera
canidae
canis
cannes
canon
canonic
canonics
canonisaziun
cant
cantabrica
cantar
cantata
cantieni
canto
canton
cantonale
cantonales
cantone
cantu
cantun
cantunala
canu
canzone
canzun
canzuns
cao
caos
cap
capabel
capabla
capacitad
capacitads
capaul
cape
capeder
capescha
capeschan
capetel
capetels
capetscha
capiergnas
capir
capita
capital
capitala
capitani
capitar
capitol
capitula
capitular
capitulaziun
caplutta
capo
capodovra
capodovras
capos
capriasca
capricorn
capricorns
capsla
capslas
captain
capuns
car
carabbia
caracalla
caracter
caracterisa
caracterisada
caracterisadas
caracterisads
caracterisar
caracterisaziun
caracterisescha
caracteriseschan
caracteristic
caracteristica
caracteristicas
caracteristics
caracters
caratsch
caravanas
carbon
carbonic
carbonics
carburant
carburants
cardientscha
cardinal
cardinals
carelia
careza
carezia
cargo
caribica
caribicas
caribou
caribs
caribu
carigiet
carinzia
carismatic
carl
carli
carlo
carlos
carmala
carmalar
carmel
carmen
carnaval
carnet
carnets
carnivora
carnivores
carnivors
carnot
carol
carolina
caroline
carolingic
carolingica
carolingics
carolings
carona
carpatas
carpels
carpenters
carpinifolia
carpinus
carr
carre
carriera
carschen
carschi
carschius
carst
carsten
carstgaun
carstgaunadad
carstgauns
carta
cartago
cartas
cartels
cartents
carter
carteva
carthusianorum
cartigny
cas
casa
casablanca
casaccia
casagemas
casanova
casas
cascada
cascadas
caschanutta
caschle
caschun
case
caselle
caserna
casernas
caset
casino
caslano
casnati
caspar
casper
caspica
cass
cassa
cassacca
cassino
cassirer
cassius
casta
castas
castasegna
castel
castelberg
castelli
castello
casti
castiglia
castilian
castione
castor
castrisch
castro
castur
casturs
casuala
casualitad
casualmain
casus
cat
catala
catalan
catalana
catalanas
catalans
catalog
catalogs
catalogue
catalugna
catalunya
cataracts
catastrofa
catastrofala
catastrofalas
catastrofas
catechissem
catedral
catedrala
catedralas
categoria
categorias
categoric
categoricamain
catharina
cathars
cathedral
catherine
cathomas
cato
catolic
catolica
catolicas
catolicissem
catolics
cats
catscha
catschadur
catta
caucasus
causa
cause
causes
caussa
caussas
cautschuc
cauvitg
cavagl
cavale
cavals
cavardiras
cave
cavegn
cavels
cavern
caviano
caviezel
cavorgia
cayman
cazas
cd
cdmr
cdu
ce
ceaus
cecil
cecilias
ceda
cedels
ceder
cedi
cee
celebra
celebrads
celerina
celestiel
celio
cella
cellas
cello
cells
cellulara
cellulosa
celsius
celtic
celtica
celticas
celtics
celts
cembalo
cement
ceneri
censura
census
center
centers
centimeter
centimeters
centovalli
central
centrala
centralafricana
centralas
centralisaziun
centralissem
centralistic
centralistica
centralisticas
centrals
centre
centrela
centro
cents
century
ceremonia
ceremonial
ceremonias
ceres
ceresio
cern
cerro
cert
certa
certas
certificat
cervia
ces
cesare
cesco
cessiun
cesura
ceuta
cev
cf
cff
cfr
ch
cha
chablais
chadaina
chadainas
chade
chagall
chaglia
chaglias
chagliom
chagniels
chaix
chala
chalandamarz
chalar
chalavaina
chaldera
chalender
chalenders
chalesch
chalira
challenge
chaltgera
chaltschina
chaltschinus
chalun
chalur
chalv
chalzer
chalzers
cham
chambe
chambre
chamin
chaminar
chamins
chamisso
chamona
chamonas
champ
champagna
champagne
champester
champestra
champfe
champions
champiunadis
champiunedi
champs
champvent
chamues
chamutsch
chamutschs
chan
chanal
chanalisar
chanals
chanaster
chanasters
chance
chancelier
chanceliera
chancy
chandailas
chanf
change
changes
changing
chanin
chanins
chanka
channa
channel
chanson
chansons
chant
chanta
chantada
chantadur
chantadura
chantadurs
chantar
chantautur
chanteda
chants
chantun
chantunal
chantunala
chantunalas
chantunals
chantuns
chantunza
chanuns
chanzlia
chanzun
chanzuns
chaos
chap
chape
chapel
chapella
chapellas
chapelle
chapellina
chapellinas
chapels
chapesch
chapescha
chapeschan
chapi
chapibla
chapida
chapientscha
chapir
chapital
chapitala
chapitalas
chapitalissem
chapitalistic
chapitalistica
chapitalisticas
chapitalistics
chapitalists
chapitals
chapitani
chapitanis
chapitel
chapitels
chapitsch
chapiva
chapivan
chaplutta
chapman
chaputschins
char
chara
character
charas
chareschia
charezza
chargia
chargiar
chargias
chariel
chariels
charl
charlemagne
charles
charleston
charlie
charlotte
charn
charnpiertg
charpin
charpins
charplinas
charra
charrabla
charrar
charrotscha
charrotschas
chars
charta
chartas
chartists
charts
chartun
charvun
chas
chasa
chasada
chasadas
chasads
chasaforz
chasan
chasas
chascha
chaschiel
chaschun
chaschuna
chaschunada
chaschunadas
chaschunads
chaschunan
chaschunar
chaschunava
chasper
chastagners
chaste
chastellan
chastellanias
chastels
chasti
chastia
chastiar
chastis
chat
chats
chatsch
chatscha
chatschada
chatschadas
chatschader
chatschaders
chatschads
chatschan
chatschar
chatschas
chatschs
chatt
chatta
chattada
chattadas
chattads
chattan
chattar
chattava
chattavan
chattia
chattian
chau
chaud
chauda
chaudas
chauds
chauma
chaumas
chaun
chauns
chaura
chauras
chaus
chaussa
chaussas
chautschas
chaux
chava
chavadas
chavads
chaval
chavalier
chavaliers
chavalla
chavallaria
chavallas
chavals
chavaltgaders
chavaltgar
chavannes
chavar
chavas
chavazza
chavazzas
chavazzin
chavels
chavorgia
chavorgias
chavortg
chavortgs
chavriel
chavriels
che
checks
chef
chegl
chel
chelsea
chemia
chemic
chemica
chemical
chemicalias
chemicas
chemics
chemins
chen
chenyi
cher
cheramica
cherei
chern
cherokee
chesa
chesalles
chesas
cheseaux
chester
cheu
chf
chi
chiampel
chiampell
chiara
chiasso
chiaste
chiavari
chiavenna
chicago
chiesa
chihuahua
child
children
chile
chilen
chilena
chillon
chilopoda
chin
china
chinais
chinaisa
chinaisas
chinas
chinensis
chinese
chinetica
chirac
chis
chittagong
chler
chli
chlodwig
cho
chombra
chombras
chomma
chommas
chor
chordata
chors
chosas
chosrau
chr
chris
christ
christa
christel
christen
christentum
christentums
christi
christian
christiana
christiane
christianisierung
christianity
christina
christine
christlich
christliche
christlichen
christmas
christo
christof
christoph
christopher
christus
chronicle
chronik
chronologie
chronos
chruschtschow
chs
chse
chte
chtigen
chu
chur
church
churchill
churwalden
ci
cia
cicero
ciclissem
ciclus
cidad
cie
ciel
cielo
cifra
cifras
cilinder
cilinders
cilindrada
cilindrica
cine
cineasts
cinema
cinematografica
cinematograficas
cipel
cipra
cipriot
cipriota
cipriots
circa
circle
circolo
circuit
circul
circular
circulara
circulava
circulaziun
circulescha
circuls
circumda
circumdada
circumdadas
circumdads
circumdanta
circumdar
circumdescha
circumdeschan
circumferenza
circumscrit
circumscriver
circumstanzas
circus
cirillic
cirillica
cirque
cirquit
cirquital
cirripedia
cis
cisalpina
cisterziens
cit
cita
citad
citada
citadina
citadinas
citadins
citads
citar
citat
citats
cite
citeaux
cited
citescha
citra
citras
citroe
citrus
citta
city
ciutat
civil
civila
civilas
civilis
civilisada
civilisatoric
civilisaziun
civilisaziuns
civilists
civilization
civils
civitas
ck
ckchen
cke
ckel
cken
cker
ckkehr
cklich
cksichtigung
cla
clairvaux
clama
clamada
clamads
clamar
clamavan
clameda
clamo
clandestin
clandestina
clandestinamain
clandestinas
clar
clarendon
clark
claro
class
classa
classament
classas
classic
classica
classical
classicas
classicher
classichers
classicissem
classicistic
classics
classificaziun
classificaziuns
classifitga
classifitgadas
classifitgads
classifitgar
classifitgescha
clau
claude
claudia
claudio
claudius
claus
claustra
claustrala
claustralas
claustrals
claustras
clausula
clav
clavau
clavazin
clavazins
clavenna
claviatura
clavier
claviglias
cle
clemens
clementina
clemgia
cler
clera
cleragls
cleramain
cleras
clerezza
clericals
clers
clerus
cletg
client
clientella
clients
clifford
clima
climas
climate
climatic
climatica
climaticamain
climaticas
climatics
climatologia
clinica
cliniez
clinton
clio
clische
cloaca
clom
cloma
cloman
cloms
clorofil
clos
clostra
cloud
club
clubs
clucher
cluge
clusii
clusius
clutger
cm
cnt
co
coaliziun
coaliziuns
coast
coburg
coc
coca
cocain
cocla
coclas
coclea
cocos
codads
code
codes
codex
codificaziun
coeffizient
coerent
coerenta
coesiun
coexistenza
coffee
cogliatti
coglio
cogna
cognitivas
cognitivs
cogniziun
cohen
coier
coincida
coira
col
cola
cold
cole
colin
coll
colla
collaps
collavura
collavuran
collavurar
collavuratur
collavuraturs
collavuraziun
colle
collectar
collected
collection
collectiv
collectiva
collectivas
collectivisaziun
collectivs
collectur
collecturs
collecziun
collecziuns
collega
collegas
college
colleges
collegi
collegium
collenberg
colli
collia
colliada
colliadas
colliads
collian
colliant
colliar
colliava
colliavan
colliaziun
colliaziuns
collier
collina
collinas
collins
collinusa
collinusas
collisiun
collisiuns
colloqui
colloquis
cologna
coloma
colombia
colombier
colombo
colonel
colonia
colonial
coloniala
colonialas
colonialissem
colonialists
colonials
colonias
colonisa
colonisada
colonisadas
colonisads
colonisar
colonisaturs
colonisaziun
colonisescha
colonists
colonna
colonnas
colorit
colors
colosseum
coloureds
columba
columban
columbas
columbia
columbus
colur
colura
coluradas
colurads
colurar
coluraziun
colureschan
colurs
com
coma
comander
comarques
comba
combra
combustibels
combustiun
come
comecon
comic
comics
coming
comino
comitat
comitats
comite
commando
commandos
commedia
commember
commembers
commembra
commembranza
commembras
commemora
commemorar
commemorativ
commemorativa
commemorativas
commemorativs
commemoraziun
commensura
commensurada
commenta
commentari
commentaris
commentary
commerzi
commerzial
commerziala
commerzialas
commerzialisar
commerzialisaziun
commerzials
commerziant
commerziants
commess
commetter
commission
committee
common
commons
commonwealth
communa
communabel
communabels
communabla
communablamain
communablas
communal
communala
communalas
communals
communas
communes
communication
communicativ
communicaziun
communicaziuns
communis
communissem
communist
communista
communistas
communistic
communistica
communisticas
communistics
communists
communitad
communitads
communitga
communitgar
communities
community
communiun
como
comoras
comp
compagnie
companion
company
comparative
comparison
competitiveness
compie
comple
complete
completes
compositae
compostela
computer
computers
comte
comunal
comuni
con
conan
concarstgauns
conceda
concedan
conceder
concedi
concedida
concedidas
concedids
concediva
concentra
concentrada
concentradas
concentrads
concentrar
concentrava
concentraziun
concentraziuns
concentrescha
concentreschan
concepcio
concepi
concepida
concepidas
concepids
concepir
concept
concepts
concepziun
concepziuns
concern
concerna
concernan
concernent
concerning
concerns
concert
concerts
concessiun
concessiuns
conchiglia
conchiglias
concil
concils
concisa
concise
concluda
concluder
concludi
concludida
conclus
conclusiun
conclusiuns
concord
concordanza
concordat
concret
concreta
concretamain
concretas
concrets
concurrent
concurrentas
concurrents
concurrenza
concurrenzas
concurrenzavan
concurrer
condemna
condemnads
condemnar
conditoria
condor
condrau
conduct
conducts
conduita
confamigliars
confederads
confederai
confederaziun
conference
conferenza
conferenzas
conferma
confermada
conferman
confermar
confess
confessa
confessanta
confessar
confessaunta
confessions
confessiun
confessiunal
confessiunala
confessiunalas
confessiunalmain
confessiunals
confessiuns
confida
confident
confidenza
confirma
confirmaziun
confiscar
conflict
conflicts
confluenza
confoederatio
confrunt
confrunta
confruntada
confruntads
confruntar
confruntaziun
confruntaziuns
confundatur
confunder
confurm
confurma
confuzianissem
congedi
congiuntiva
conglomerat
congo
congress
congruent
congual
conica
coniferas
conjugaziun
conjunctura
connecticut
connex
connexiun
connexs
connotada
connotaziun
conomiques
conquest
conquista
conquistada
conquistadas
conquistaders
conquistadores
conquistads
conquistar
conquistas
conrad
conradin
conrads
conscient
conscienta
conscients
conscienza
consecra
consecrada
consecraziun
consegna
conseil
consens
consensus
consenti
consentiment
consequences
consequent
consequenta
consequentamain
consequenza
consequenzas
conserva
conservada
conservadas
conservads
conservar
conservation
conservatissem
conservativ
conservativa
conservativas
conservativs
conservaziun
considera
considerabel
considerabels
considerabla
considerablamain
considerablas
considerada
consideradas
considerads
considerar
considerava
consideravan
consideraziun
consideresch
considerescha
considereschan
considero
considerond
consiglio
consista
consistan
consistenza
consister
consistiva
consistivan
consolaziun
consolida
consolidada
consolidar
consolidaziun
consonant
consonants
consort
consorta
consorts
consorzi
conspiracy
conspiraturs
conspiraziun
constance
constant
constanta
constantamain
constantas
constantin
constantina
constantine
constantinopel
constanza
constanze
constat
constata
constatar
constataziun
constataziuns
constatescha
constateschan
constellaziun
constellaziuns
constituanta
constituenta
constituescha
constitueschan
constitui
constituida
constituidas
constituir
constitutiv
constitutiva
constituziun
constituziunal
constituziunala
constituziunalas
constituziunalitad
constituziunals
constituziuns
construct
constructivissem
constructs
constructur
constructurs
construcziun
construcziuns
construescha
construi
construida
construidas
construider
construiders
construids
construieu
construir
construiu
consul
consulat
consuls
consulta
consultar
consultativ
consultaziun
consum
consuma
consumada
consumadas
consumads
consumar
consuments
consumescha
consumeschan
cont
contact
contacta
contacts
contadi
contadis
containers
contaminada
contaminaziun
contempla
contemplader
contemplar
contemplaziun
contemplaziuns
contemporan
contemporana
contemporanas
contemporans
contemporary
content
contes
contest
contesta
contestada
contestadas
contestads
context
contexts
conthey
continent
continental
continentala
continentalas
continentals
continents
contingent
contingents
continuum
contone
contonscher
contra
contract
contracta
contractar
contractivas
contracts
contracziun
contrahents
contrat
contre
contribuescha
contribueschan
contribui
contribuir
contribution
contribuziun
contribuziuns
control
controlla
controllada
controlladas
controllads
controllar
controllas
controllava
controllavan
controllescha
controlleschan
conts
contuorn
contura
conturas
conturn
conturns
conumans
conuscher
convecziun
convent
convention
convenziun
convenziunal
convenziunala
convenziunalas
convenziuns
convergenza
conversaziun
conversaziuns
converse
conversiun
converter
converti
convertids
convertir
convivenza
convivio
convoca
convocar
conze
cook
coop
cooper
cooperar
cooperativa
cooperativas
cooperaziun
coordina
coordinada
coordinar
coordinatas
coordinaziun
coordinescha
copenhagen
copernicus
copia
copiar
copias
coppa
coppola
copular
copulaziun
coquimbo
cor
coral
coran
coray
corc
corcelles
corda
cordalins
cordas
cordilleras
cordoba
cordoli
corea
coreana
corfu
corint
corinth
corippo
corn
corna
cornamusa
cornas
cornelia
cornelii
cornelius
cornell
corns
cornwall
corona
coronel
corp
corporal
corporala
corporalas
corporalmain
corporals
corporation
corporativ
corporaziun
corporaziuns
corps
corpuls
corpus
correct
correcta
correctamain
correctas
correctura
correcturas
correcziun
correlaziun
correlescha
correspondence
correspondenza
correspunda
correspundan
correspundent
correspundenta
correspundentamain
correspundentas
correspundents
correspundenza
correspunder
correspundeva
correspundevan
correspundia
correspundian
corridor
corridors
corrupziun
cors
corsica
corsier
corte
cortegi
cortex
corticiasca
cortinada
corv
corvs
cosmic
cosmica
cosmos
cosovo
costa
costas
costums
cot
cotgla
cotschen
cotschens
cotschna
cotschnas
cotschnent
cotschnenta
cotschnents
cotta
coturnix
coubertin
council
countries
country
county
cour
court
courtois
coutaz
cover
cr
cracovia
craffonara
crai
crain
crair
craja
crajeva
crajevan
crap
crapfess
crappa
crappus
craps
crash
crasta
crater
craters
cratschla
cravals
cre
crea
creada
creadas
creads
crear
creatio
creation
creatira
creatiras
creativ
creativa
creativitad
creatur
creaziun
creaziuns
credibilitad
credit
credits
crediturs
credo
creescha
creeschan
crema
crematoris
crenna
crennas
creon
crescha
creschan
creschent
creschenta
creschentas
creschents
crescher
creschi
creschia
creschida
creschidas
creschids
creschientscha
creschiva
crest
cresta
crestas
crestaulta
crestomazia
crests
cret
creta
cretta
crettaivels
crew
cricket
crida
crim
crime
crimea
criminal
criminala
criminalas
criminalitad
criminals
crims
crisa
crisas
crisis
crissier
crist
cristal
cristallisaziun
cristals
cristian
cristiana
cristianadad
cristianas
cristianisaziun
cristianissem
cristians
cristiaun
cristiauna
cristiauns
cristina
cristo
cristof
cristofori
cristologia
cristus
criteri
criteris
critic
critica
critical
criticas
criticher
critichers
critics
critique
crititga
crititgada
crititgadas
crititgads
crititgar
crititgescha
crititgeschan
criv
criva
crivas
cro
croat
croata
croatas
croatia
croats
croazia
crocodils
croda
crodan
crodia
croglio
croix
crombie
cromosom
cromosoms
cromwell
cronica
cronicas
cronist
cronists
cronologia
cronologic
cronologica
cronologics
crosa
cross
crucificaziun
crucifix
cruda
crudada
crudadas
crudads
crudaivel
crudaivels
crudaivla
crudaivladad
crudaivlas
crudar
crusch
cruscha
cruschada
cruschadas
cruschader
cruschaders
cruschan
cruschar
cruscheras
cruschs
crusta
cruz
crystal
cs
csu
cu
cua
cuan
cuar
cuas
cuba
cuban
cubic
cubissem
cubistica
cucuns
cudesch
cudeschet
cudeschs
cudisch
cudischs
cudrefin
cuera
cugl
cugn
cugnasco
cugns
cugnuoscha
cugy
cuira
cuirass
cul
cula
culaischen
culan
cular
cularin
culegna
culegnas
culiez
culissa
culissas
cull
culla
cullas
culm
culmatsch
culmina
culminant
culminants
culminar
culminaziun
culminescha
culms
culp
culpa
culpants
culps
culs
cult
cultica
cultics
cultira
cultiva
cultivada
cultivadas
cultivads
cultivar
cultivaziun
cults
cultura
cultural
culturala
culturalas
culturale
culturalmain
culturals
culturas
culture
culturel
cultures
cultus
culur
cum
cumainza
cumand
cumanda
cumandaments
cumandant
cumandants
cumandar
cumandava
cumanza
cumanzamaint
cumanzet
cumbain
cumbat
cumbats
cumbatta
cumbattan
cumbattant
cumbattanta
cumbattants
cumbatter
cumbatteva
cumbattevan
cumbatti
cumbattids
cumbel
cumbina
cumbinads
cumbinar
cumbinaziun
cumbinaziuns
cumbinescha
cumbineschan
cumedia
cumedias
cumegn
cumenza
cumenzadas
cumenzament
cumenzaments
cumenzan
cumenzar
cumenzava
cumenzia
cumenzond
cumia
cumiau
cumin
cumina
cuminaivel
cuminaivels
cuminaivla
cuminanza
cuminanzas
cuminonza
cumins
cumissari
cumissaris
cumissiun
cumissiuns
cummissaris
cumond
cumonds
cump
cumpact
cumpacta
cumpagnia
cumpagnias
cumpara
cumparair
cumparan
cumparatistica
cumparaziun
cumpareglia
cumparegliabel
cumparegliabels
cumparegliabla
cumparegliablas
cumparegliar
cumparegliaziun
cumparegliaziuns
cumpareva
cumparevan
cumpari
cumparia
cumparida
cumparidas
cumparids
cumparsa
cumpart
cumparts
cumpass
cumpassiun
cumpatibel
cumpatibla
cumpatiblas
cumpatriots
cumpeglia
cumpendi
cumpensar
cumpensaziun
cumpeta
cumpetan
cumpetenza
cumpetenzas
cumpetitivitad
cumpiglia
cumpigliadas
cumpigliads
cumpiglian
cumpigliar
cumpigliava
cumpigliavan
cumpignia
cumpila
cumpilaziun
cumplain
cumplaina
cumplainamain
cumplains
cumpleni
cumplenida
cumplessiv
cumplessiva
cumplessivas
cumplet
cumpletta
cumplettada
cumplettadas
cumplettads
cumplettamain
cumplettamaing
cumplettar
cumplettas
cumplettaziun
cumplettaziuns
cumplettescha
cumpletteschan
cumplettond
cumplex
cumplexa
cumplexas
cumplexitad
cumplexs
cumplitga
cumplitgada
cumplitgadas
cumplot
cumpogn
cumpogns
cumpona
cumponan
cumponenta
cumponentas
cumponer
cumponi
cumponida
cumponidas
cumponids
cumponist
cumponists
cumponiva
cumponivan
cumporta
cumportament
cumportan
cumportar
cumpositas
cumpositoric
cumposiziun
cumposiziuns
cumpost
cumpostar
cumpostaziun
cumpra
cumpraders
cumprar
cumpras
cumpravan
cumprenda
cumpressiun
cumpromiss
cumprova
cumprovada
cumprovadas
cumprovads
cumprovan
cumprovar
cumprovas
cumu
cun
cunautur
cundecider
cundecisiun
cundiziun
cundiziuns
cunfiantas
cunfin
cunfina
cunfinada
cunfinant
cunfinanta
cunfinantas
cunfinants
cunfinar
cunfinava
cunfinaziun
cunfinescha
cunfineschan
cunfins
cunfundatur
cunigl
cunigls
cunquai
cunquei
cunregent
cunscienzia
cuntanscha
cuntanschan
cuntanscher
cuntanscheva
cuntanschevan
cuntanschi
cuntanschia
cuntanschibel
cuntanschibla
cuntanschida
cuntanschidas
cuntegn
cuntegna
cuntegnair
cuntegnan
cuntegneva
cuntegnevan
cuntegni
cuntegnia
cuntegnida
cuntegnidas
cuntegnids
cuntegns
cuntent
cuntenta
cuntentan
cuntentar
cuntentientscha
cuntents
cunter
cunterattatga
cunteroffensiva
cuntgnaiva
cunti
cuntin
cuntinua
cuntinuada
cuntinuadamain
cuntinuant
cuntinuanta
cuntinuantas
cuntinuants
cuntinuar
cuntinuaziun
cuntinuaziuns
cuntinuescha
cuntinueschan
cuntinuitad
cuntrabanda
cuntrada
cuntradas
cuntradictoricas
cuntradicziun
cuntradicziuns
cuntradin
cuntrafatg
cuntramoviment
cuntrapais
cuntrapaisa
cuntrapart
cuntrapol
cuntraposiziun
cuntrapunct
cuntrarefurma
cuntrarefurmaziun
cuntrarevoluziun
cuntrarevoluziunars
cuntrari
cuntraria
cuntrast
cuntrastescha
cuntrasts
cuntravenziun
cuntravenziuns
cuntraversa
cuntraversas
cuntschaint
cuntschets
cuntschieu
cunvegna
cunvegnan
cunvegnas
cunvegni
cunvegnids
cunvegnientscha
cunvegnir
cunzun
cunzunt
cuoira
cuolm
cuolms
cuolpa
cuors
cuort
cuorta
cuortas
cuorts
cuoza
cup
cupitga
cupitgada
cupitgar
cupla
cuppa
cuppins
cups
cur
cura
curac
curaglia
curaisma
curals
curas
curascha
curaschi
curaschus
curativ
curativa
curclar
curd
curds
curia
curio
curios
curius
curiusa
curlandia
curlar
curnera
curo
curra
curran
curreger
curregi
curregida
current
currenta
currentas
currents
currer
currezia
curri
currider
curriders
currier
curriers
curs
cursa
cursas
cursavan
cursescha
curseschan
cursus
curt
curta
curtais
curtaisa
curtamain
curtas
curtin
curtins
curtis
curts
curuna
curunar
curunas
curunaziun
curva
curvas
curvatura
curzon
cusadira
cuschina
cuschinar
cuschinas
cusrin
cusrina
cussadents
cussagl
cussegl
cusseglia
cussegliader
cussegliaders
cussegliar
cussegliaziun
cusseglier
cussegliera
cussegliers
cussegls
cust
custa
custaivel
custaivels
custaivla
custava
custs
cut
cuvel
cuvels
cuvert
cuverta
cuvertas
cuverts
cuvra
cuvran
cuvrescha
cuvrida
cuvridas
cuvrir
cuvrivan
cuzco
cuzza
cycle
cz
d
da
dab
dacasa
dach
dachasa
dachau
dacheu
dacia
daco
dacs
dacurt
dad
dada
dadains
dadas
dadens
daditg
dado
dador
dadora
dadour
dads
dafatta
dafna
dafora
dafrika
dag
dagmar
dagogik
dahlhaus
dahrendorf
dai
daily
daiva
daivets
dakota
dal
dalai
dali
dall
dalla
dallas
dalmatia
dalmazia
dals
dalton
dalunga
dalunsch
dama
damai
damain
damanaivel
damascus
damaun
dame
damonda
damondas
dampfboot
dan
danais
danaisa
danaisas
dance
danemarc
daner
daners
dani
daniel
daniela
danis
dann
dano
danor
danovamain
dans
dante
dantes
danton
danubi
danuder
danunder
danvanz
danzig
dapart
dapertut
dapi
dapli
dapu
dar
darar
darcheu
darcho
dardanellas
dardin
dareios
dargestellt
dark
darkness
darms
darmstadt
daro
darstellung
dartgeira
daru
darwin
das
dasda
dasper
daspera
dasperas
daspo
dastg
dastga
dastgan
dastgass
dastgava
dastgavan
dastgia
dastgian
dat
data
database
datada
datadas
datar
datas
dataziun
daten
datescha
dateschan
datier
datiers
datoteca
datotecas
dattan
datti
datura
dau
daugava
daum
daus
davant
davantvart
davart
davaunt
davent
daventa
daventada
daventadas
daventads
daventan
daventar
daventaus
daventava
daventavan
daventia
daventian
daventond
david
davide
davies
davis
davo
davos
davosa
davosas
davosvart
day
days
dayton
dazi
dazis
daß
db
dc
dchen
ddeutsche
ddps
ddr
de
dea
dead
deal
dean
death
debatta
debattas
debit
debits
debiturs
decada
decadenza
december
decenni
decennis
decentral
decentrala
decentralisaziun
decida
decidan
decider
decidevan
decidi
decidida
decididamain
decididas
decidids
decidiu
decidua
decifrar
decima
decimada
decis
decisiun
decisiuns
decisiv
decisiva
decisivamain
decisivas
decisivs
declara
declaration
declera
declerada
decleradas
declerads
decleran
decleranza
declerar
decleraziun
decleraziuns
declin
decolonisaziun
decorativ
decorativa
decorativas
decorativs
decoraziun
decoraziuns
decret
decreta
decrets
decumpona
decumponer
decumponi
decumponidas
decumposiziun
decuors
decurs
decurtins
deda
dedicada
dedicheda
deditga
deditgada
deditgads
deditgar
deditgescha
deditgeschan
deducescha
deduci
deducir
dee
deeann
deejay
deessa
defanestraziun
defecta
defence
defenda
defendan
defender
defendeva
defendi
defendida
defendids
defense
defensiun
defensiva
defensur
defensurs
deficit
deficits
definescha
defineschan
defini
definida
definidas
definids
definir
definit
definitiv
definitiva
definitivamain
definiva
definiziun
definiziuns
deflaziun
deflussiun
defunct
defuncts
defurmaziun
defurmaziuns
degen
degenera
degenerada
degeneraziun
degersheim
degli
degn
degna
degns
dehs
dei
deimos
deissem
dekolonisation
del
delacampagne
delaware
dele
delega
delegadas
delegads
delegaziun
delegaziuns
delfins
delibera
deliberada
deliberadas
deliberar
deliberaziun
deliberescha
delict
delicts
delinquent
delinquents
delius
dell
della
delle
dello
dels
delta
dem
demand
demandt
demilitarisada
demissiun
demissiuna
demissiunar
democracy
democrat
democratic
democratica
democraticamain
democraticas
democratics
democratisaziun
democrats
democrazia
democrazias
demografia
demografic
demografica
demograficas
demografics
demographic
demoiselles
demokratie
demokratische
demokratischen
demonstra
demonstrants
demonstrar
demonstrativamain
demonstraziun
demonstraziuns
demonstrescha
demont
demontascha
demunis
demussa
demussan
den
denen
denis
denise
denken
denkens
denker
denn
denomina
denominar
denominaziun
denominaziuns
denominescha
dent
denta
dentadira
dentant
denter
denteren
dentist
denton
dentro
dents
departament
departaments
departement
department
depauperisaziun
dependa
dependan
dependent
dependenta
dependentas
dependents
dependenza
dependeva
dependevan
dependia
deplazas
deplazes
deplora
depona
deponan
deponer
deponi
deponias
deponids
depopulaziun
deporta
deportadas
deportads
deportar
deportaziun
deportaziuns
deposit
depositads
deposits
depression
depressiun
depurtament
deputa
deputads
deputaziun
der
deralismus
deralismusbegriff
derasa
derasada
derasadas
derasads
derasan
derasar
derasavan
derasaziun
deregulaziun
derek
deren
deriva
derivan
derivants
derivanza
derivar
derivats
derivava
derivavan
derivia
derivian
derivonza
dermatophagoides
derschader
derschaders
derscher
dertgira
derungs
des
desastrus
desastrusa
desastrusas
descartes
descendent
descendents
descendenza
desch
deschset
descrets
descriptiva
descripziun
descripziuns
descrit
descrits
descritta
descrittas
descriva
descrivan
descriver
desdru
desert
desertina
deserts
deserturs
desi
desideri
desideris
desiderius
design
designa
designada
designadas
designads
designar
designava
designavan
designaziun
designesch
designescha
designeschan
desinenza
desista
desistan
desister
desisti
desktop
desmond
desolata
desperada
desperaziun
despotat
despotic
despotissem
dess
dessous
dessus
destalinisaziun
destin
destina
destinada
destinadas
destinatur
destinaziun
destinaziuns
destitui
destituir
destituziun
destruction
destructiva
destructivas
destrucziun
destrucziuns
destruescha
destrueschan
destrui
destruida
destruidas
destruiders
destruids
destruir
det
deta
detagl
detaglia
detagliada
detagliadamain
detagliadas
detagls
dete
detectiv
detensiun
determina
determinada
determinads
determinar
determinaziun
determinaziuns
determinescha
determineschan
determinissem
detg
detga
detlef
detlev
detroit
dets
detta
detti
dettia
deus
deuteronomium
deutsch
deutsche
deutschen
deutscher
deutsches
deutschland
deutschlandfunk
deutschlands
deux
dev
deva
devan
devasta
devastada
devastaziun
devastaziuns
development
devi
deviaziun
devin
devisa
devisas
devoziusa
devs
dezember
dfae
dharma
dhs
di
dia
diabetes
diaconia
diagonal
diagonala
diala
dialas
dialect
dialectala
dialectalas
dialectic
dialectica
dialects
dialekt
dialektik
dialetti
dialma
dialog
dialogs
dialogus
diamant
diamants
diameter
diamond
dian
diana
dianthus
diapsids
diari
diaris
diarrea
diary
diaspora
diavel
diavels
diaz
diccionari
dicember
diceros
dich
dichter
dichtung
dick
dicta
dictat
dictatoric
dictatorica
dictatorics
dictatur
dictatura
dictaturas
dictaturs
dictionary
dictionnaire
dicziunari
did
didactica
diderot
didier
die
diederichs
diego
diem
diember
dierma
dies
diesch
dieschavel
dieschma
dieschmas
dieschmilli
dieschmillis
diesel
dieses
dieta
dietas
dieter
dietmar
dietrich
dietz
dieu
dieua
dieus
diever
different
differenta
differentamain
differentas
differents
differenza
differenzas
differenzia
differenziada
differenziadas
differenziads
differenziar
differenziava
differenziavan
differenziaziun
differenziesch
differenziescha
differenzieschan
difficil
difficila
difficilas
difficils
difficultads
diffus
diffusa
diffusiun
diftong
diftongs
diger
digestiv
digital
digitala
digitalas
digitalisada
digitalisat
digitalisaziun
digitals
digl
diglossia
digls
dignitad
dignitaris
digren
dijon
dikchene
diktatur
dil
dilemma
dils
diluvi
dimena
dimension
dimensiun
dimensiuns
diminuescha
diminui
diminuida
diminuids
diminuir
diminuziun
dimitri
dimitrov
dimora
din
dinamica
dinarica
dinaricas
dinaridas
dinastia
dinastias
dinastica
dinasticas
ding
dingo
dinh
dinosaur
dinosaurs
dio
diocesa
diocesas
diocletian
diogenes
dionisic
dionysos
dios
dioxid
dioxin
diploidas
diplom
diplomat
diplomatic
diplomatica
diplomaticas
diplomatics
diplomatie
diplomatique
diplomats
diplomazia
diplopoda
dippel
dir
dira
diras
direct
directa
directamain
directas
directiv
directiva
directivas
directivs
directmedia
directori
directory
directs
directur
directurs
direcziun
direcziuns
direzza
dirigent
dirigenta
diriger
dirigi
dirigian
dirigida
dirigidas
dirigids
dirk
diromaziun
dirs
dis
disa
disas
disc
disch
dischagregaziun
discharmament
dischavantatg
dischavantatgs
dische
dischequiliber
dischloca
dischlocar
dischlocaziun
dischoccupads
dischoccupaziun
dischuniun
dischurden
disciplina
disciplinas
discipuls
discjockey
discletg
disco
discografica
discordia
discotecas
discours
discovery
discredita
discreditar
discrepanza
discriminaziun
discs
discuora
discuoran
discuorer
discuorra
discuors
discurr
discurra
discurran
discurrer
discurri
discurrida
discurridas
discurrids
discurriu
discurriva
discurrivan
discurs
discussiun
discussiuna
discussiuns
discuta
discutada
discutadas
discutads
discutar
disditg
disditga
disentis
disfatg
disfatga
disfatgas
disfavur
disfavuraivla
disfavuraivlas
disfidanza
disfortuna
disfortunada
disgrazia
disgust
diskjockey
diskurs
diskussion
dismess
dismessa
dismessas
dismetter
disparitads
dispetas
dispita
dispitada
dispitaivel
dispitaivla
dispitaivlas
dispitas
displaschair
displaystyle
dispona
disponan
disponer
disponi
disponia
disponian
disponibel
disponibilitad
disponiblas
disponiva
disponivan
disposiziun
disposiziuns
dispu
disput
diss
dissegn
dissegna
dissegnader
dissegns
dissertation
dissertaziun
dissidents
dissoluziun
dissolver
dissolvi
dissolvida
dissonanzas
distant
distanza
distanzas
distanzia
distanziada
distanziads
distanziar
distanziond
distatga
distatgar
distel
distgargia
distgargiar
distinctiv
distinctivs
distincziun
distincziuns
distingua
distinguan
distinguer
distingueva
distingui
distinguids
distorsiun
distretto
distribui
distribuida
distribution
distribuziun
distribuziuns
district
districts
districtuala
districtualas
disturba
disturbada
disturbar
disturbava
disturbi
disturbis
dit
ditg
ditga
ditgas
ditions
dits
ditzingen
diu
div
divergenta
divergentas
divergents
divergenza
divergenzas
divergescha
divergeschan
divers
diversa
diversas
diversificaziun
diversitad
diversity
divertiment
divi
divida
dividan
divider
dividi
dividida
divididas
dividids
divin
divina
divinas
divinitad
divinitads
divins
division
divisiun
divisiuns
divorzi
diz
dizi
dj
dk
dna
dnepr
dniester
dnvp
do
dobrudscha
doc
docent
docents
doch
docter
doctorat
doctrina
document
documenta
documentada
documentadas
documentads
documentar
documentars
documentaziun
documentaziuns
documentescha
documenteschan
documents
docupedia
dog
dogma
dogmas
dogmatica
dogmatik
dogs
dokumentation
dokumente
dolce
dolder
dolf
dollar
dollars
dolomitan
dolomitas
dolomites
dolomits
dolur
dolurs
dolurusa
dom
domadus
domain
domat
domena
domenas
domenico
domestic
domestica
domesticada
domesticads
domestication
domesticaziun
domestics
domicil
domicilia
domiciliada
domiciliadas
domiciliads
domiciliar
domin
domina
dominada
dominadas
dominads
dominant
dominanta
dominantas
dominants
dominanza
dominar
dominava
dominavan
dominaziun
dominescha
domineschan
domingo
domini
dominica
dominican
dominicana
dominicans
dominik
dominique
dominis
domino
domitian
domodossola
dompierre
don
donald
donat
donath
donaturs
donau
donaziun
donaziuns
dong
dongo
donn
donnegia
donnegiada
donnegiadas
donnegiads
donnegiar
donns
doping
dora
dorian
doris
dorma
dorothea
dorsala
dorsalas
dortmund
dos
dosch
dossier
dosteuropa
dostschweiz
dota
dotadas
double
doubs
douglas
douvra
dover
dovr
dovra
dovran
dovri
dovria
doyle
dr
dra
drags
drakensberge
drama
dramas
dramatic
dramatica
dramaticas
dramaticher
dramatics
drang
drastica
dratguir
draussa
drava
dream
drei
dreissigja
drepung
dresden
dresina
dret
dretg
dretga
dretgira
dretgiras
dretgs
drets
dretta
drg
driblar
driessen
drin
drina
dritte
dritten
drive
drizza
drizzada
drizzadas
drizzads
drizzan
drizzar
drizzava
drizzavan
dro
drobeta
droemer
droga
drogas
droit
drova
drovan
drs
dru
druck
druids
drusus
druveda
drz
ds
dschember
dschibuti
dschingis
dschungla
dss
dt
dte
dtirol
dtv
du
dua
duai
duain
duair
duairs
duaja
duajan
dualissem
duana
duanas
duas
dubai
dubc
dubel
dubels
dubi
dubis
dubita
dubius
dubla
dublamain
dublas
dublegia
dublegiada
dublin
dubrovnik
duca
ducadi
ducadis
ducas
ducation
duchhardt
ductrina
ductrinas
dudesch
dudisch
due
duei
dueigi
duess
duessan
dueva
duevan
duevi
dufour
dui
duin
duisburg
dultsch
dultscha
dultschas
dumagna
dumagnar
dumanda
dumandada
dumandadas
dumandads
dumandar
dumandas
dumandau
dumandava
dumber
dumbers
dumbra
dumbran
dumbrar
dumbrava
dumbravan
dumbraziun
dumbraziuns
dumengia
dumengias
dumeni
dumesti
dumogn
dumogna
dumonda
dumondan
dumondas
dumont
dun
duna
dunas
duncan
duncker
dunna
dunnas
duns
dunsaina
dunschala
duo
duonna
duonnas
duos
dupin
dur
dura
durabel
durabla
durada
duraivel
duraivla
duran
durana
durant
duranta
durar
durava
durban
durch
duri
durich
during
durkheim
durmentar
durmir
duront
durre
dursa
dus
duscha
dust
dutch
dutchbat
dutg
dutgs
dutschke
duvin
duvra
duvrada
duvradas
duvrads
duvrar
duvrass
duvrau
duvrav
duvrava
duvravan
dva
dvainta
dvantaiva
dvanter
dvantet
dvanto
dvd
dwarf
dylan
dz
dztwo
e
ea
earl
earliest
early
earth
earthquake
east
eastern
easton
eau
eben
eberhard
eberswalde
ebert
ebner
ebraic
ebraica
ebreic
ebro
ecce
ecclesiastic
ecclesiastica
ecclesiasticas
ecclesiastics
echallens
eching
eckart
eckhard
eckhardt
eclatanta
eco
ecocide
ecolocaziun
ecologia
ecologic
ecologica
ecological
ecologicamain
ecologicas
ecologics
ecology
econ
econom
economia
economias
economic
economica
economicamain
economicas
economics
economist
economs
economy
ecosistem
ecosistems
ecuador
ecublens
ecumenic
ecumenics
ed
edd
edda
edelweiss
edescha
edgar
edi
edicions
edict
edida
edidas
edids
edifizi
edifizis
edinburgh
edipus
edir
edison
edith
edition
editions
editore
edituors
editur
editura
edituras
editurs
edizioni
ediziun
ediziuns
edmond
edmund
eds
edu
eduard
educar
education
educational
educaziun
edvard
edward
edwin
ee
eesti
effect
effectiv
effectiva
effectivamain
effectivas
effectivs
effects
effectua
effectuada
effectuar
effectuescha
effectueschan
efficacitad
efficazia
effizient
effizienta
effizientas
effizients
effizienza
eg
egeica
egeicas
egemonia
egemoniala
egg
eggert
egida
egill
egipta
egipzian
egipziana
egipzians
egl
egli
egliada
egliers
egls
egn
egna
egoissem
egon
egual
eguala
egualas
egualisar
egualisaziun
egualitad
eguals
ehrh
ei
eib
eibe
eichendorff
eichengreen
eichmann
eider
eidgeno
eidgenossenschaft
eifel
eiffel
eiffelturm
eigentum
eigenverlag
eiger
ein
einarsson
eine
einem
einen
einer
eines
einfluss
einfu
einhard
einheimische
einheit
einleitung
einsatz
einstein
einsteins
eir
eira
eiran
eis
eisba
eisenbahn
eisenhower
eisler
eisner
ek
el
ela
elan
elans
elastic
elastica
elasticas
elav
elavura
elavurada
elavuradas
elavurads
elavuran
elavuranta
elavurar
elavuraziun
elavuraziuns
elba
elbe
elbrus
elder
eldorado
eleanor
electoral
electorala
electorals
electric
electrica
electricas
electricitad
electrics
electrifitgada
electrodinamica
electromagnetica
electromagneticas
electronic
electronica
electronicas
electronics
electrotecnica
electur
electurat
electurs
elecziun
elecziuns
elefant
elefanten
elefants
eleganta
eleganza
eleger
elegeva
elegi
elegia
elegian
elegida
elegidas
elegids
elemaint
elemaints
element
elementara
elementaras
elementars
elemente
elements
elena
elend
elet
eleva
elevada
elevads
elevaziun
elevaziuns
elgar
eliade
elias
elimina
eliminada
eliminadas
eliminar
eliminaziun
eliot
elisabeth
elise
elita
elitas
elizabeth
elke
ell
ella
ellas
ellen
elliott
elliptica
ellis
ellmann
elm
elmar
els
elsa
elser
elsevier
elvis
em
emancipaziun
emanuel
emanuele
embargo
emblem
emblida
emblidanza
emblidar
emblidau
embrio
embrugls
emden
emergence
emerson
emess
emessa
emessas
emetta
emettan
emetter
emettur
emetturs
emi
emigra
emigrada
emigradas
emigrads
emigrants
emigrar
emigraziun
emil
emilia
emilio
emir
emirat
emirats
emisfera
emissiun
emissiuns
emma
emmental
emna
emnas
emnila
emnilas
emoziunal
emoziunala
emoziuns
empaglia
empau
empe
empermess
empermetta
empermetter
empermischun
empermischuns
empire
empirica
empiricas
empirissem
empitschni
emplenescha
empleni
emplenida
emplenidas
emplenids
emplenir
emploia
emploiads
empraschunads
emprem
emprema
empremas
emprems
empren
emprenda
emprendan
emprender
emprendi
emprendida
emprendider
emprendissadi
emprest
empresta
emprests
emprim
emprima
emprimas
emprims
empriu
emprov
emprova
emprovan
emprovas
empruau
empruva
empruvar
empruvava
empruvavan
empruvond
empty
ems
en
ena
enamiez
enavant
enavos
enciclica
enciclopedia
encims
enclar
enclava
enclavas
enclegientscha
encletga
enclinada
enconusch
enconuscha
enconuschain
enconuschan
enconuschent
enconuschenta
enconuschentas
enconuschents
enconuscher
enconuscheva
enconuschevan
enconuschi
enconuschida
enconuschientscha
enconuschientschas
enconuschiu
encorscha
encrescher
encunter
encurir
encurunaziun
encyclopaedia
encyclope
encyclopedia
encyclopædia
end
endadens
endament
endangered
ende
endemicas
endisch
endlo
endretg
endrizza
endrizzada
endrizzadas
endrizzads
endrizzar
endurance
enego
energia
energias
energic
energica
energicamain
energie
energy
enfiern
enfin
eng
engadin
engadiner
engalterra
engascha
engaschada
engaschadas
engaschads
engaschament
engaschaments
engaschan
engaschar
engaschavan
engaschi
engel
engelberg
engelbert
engels
engiadin
engiadina
engiadinais
engiadinaisa
engiadinaisas
engianar
engion
engira
engirament
engirar
engiu
engl
englais
englaisa
englaisas
england
engles
englisch
englischen
english
engordany
engrasch
engraziament
engraziar
engrevgia
engrevgiada
engrevgiar
engronda
engrondi
engrondida
engrondiment
engrondir
engrossa
engula
engulau
engurdientscha
enhaut
eni
enke
enna
enorm
enorma
enormamain
enormas
enorms
enqual
enquera
enquista
enquistas
enrama
enrico
enritgi
enritgida
enritgir
ens
ensaina
ensainas
ensemble
ensembles
ensemen
ensemmen
enserra
enserrada
enserrads
enserran
ensi
enstagl
enta
entagl
entaglia
entagliads
entaifer
entalpia
entamez
entant
entaupa
entaupan
entdecker
entdeckung
entdeckungen
enteifer
enten
entente
entginas
entgins
entir
entira
entiras
entirs
entitads
entitats
entochen
entra
entrada
entradas
entrads
entran
entrar
entras
entre
entremont
entretschada
entretschadas
entretschads
entretschament
entretschaments
entropia
entschaiva
entschatta
entscheidung
entscheiva
entscheivan
entschet
entschiet
entstehung
entuorn
entupa
enturn
entusiasma
entusiassem
entwicklung
entwicklungen
entwicklungslinien
enumeradas
enumerads
enumerar
enumeraziun
enumerescha
enver
envernada
envers
envida
envidada
envidar
enviern
envierns
enviers
environment
environmental
enzanua
enzatgei
enzatgi
enzenna
enzyklopa
ep
epalinges
ependes
ephesos
ephesus
ephraim
epica
epicenter
epidemia
epidemias
epidermis
epilog
epirus
episcopal
episcopala
episcopalas
episoda
episodas
epistulae
epitel
epoca
epocas
epoche
epochen
epos
epstein
equator
equatoriala
equaziun
equaziuns
equiliber
equilibra
equilibrada
equilibradas
equilibrar
equipa
equipads
equipament
equipas
equivalent
equivalenta
equivalentas
equivalents
equivalenza
er
era
eran
erasmus
erbe
erbicids
erbivors
ercolano
erde
erdmann
erectus
erecziun
ereditad
ereditar
ereditara
ereditaras
ereditars
ereignisse
eremit
eresia
eretics
erfahrung
erfand
erfindung
erfurt
erga
ergebnisse
erhard
eri
eric
erica
erich
eriger
erigi
erigida
erigidas
erigids
erik
erika
eriksson
erinaceus
erinnerung
erinnerungen
erinnerungsorte
eritrea
erizun
erizuns
erkennen
erkenntnis
erkenntnisse
erkla
erla
erlangen
erlbeck
erle
erlebnis
erlo
ermafroditas
ermordung
erna
ernest
ernesto
erneuerbare
ernst
ero
eroberung
erodinamica
eroelectrics
eroic
eroica
eroplan
eroplans
eroport
eroports
erosiun
erox
eroxs
error
errur
errurs
ers
erstaunlichen
erste
ersten
erster
erstfeld
erta
ertavel
ertavels
ertavla
erudits
erui
eruida
eruids
eruir
erupziun
erupziuns
erva
ervas
ervusa
erwin
erza
erzegovina
es
esa
escala
escalada
escalar
escalaziun
escaldes
escatologia
esch
esche
escher
escorta
escu
esi
eska
espan
esperanto
espoo
espresso
esprit
essai
essais
essan
essas
essay
essays
essen
essend
essenza
essenzial
essenziala
essenzialas
essenzialmain
essenzials
esser
essers
essex
est
estadi
estado
estavayer
ester
esterha
esters
estetic
estetica
esteticas
estetics
estga
esther
eston
estona
estonas
estonia
estons
estra
estras
esztergom
et
eta
etabli
etablida
etablidas
etablids
etablir
etappa
etappas
etascha
etc
eted
eter
etern
eterna
eterogena
eth
ethik
ethnic
ethnologue
etic
etica
eticas
etics
etimologia
etimologicamain
etiopia
etiopiaun
etna
etnia
etnias
etnic
etnica
etnicamain
etnicas
etnics
etnografia
etnolog
etnologia
etnologica
etos
etrusc
etrusca
etruscas
etruscs
ettmayer
etwas
etymologisches
eu
euforia
eufrat
euge
eugen
eugene
eurasia
eurasian
eurasiana
euro
eurocentrica
eurolang
europa
europaea
europaeus
europas
europe
european
europeans
europeic
europeica
europeicas
europeics
euros
eurostat
eurovision
eustatius
eutanasia
euv
ev
eva
evacuar
evacuaziun
evaluadas
evaluads
evaluar
evaluation
evaluaziun
evan
evangeli
evangelic
evangelica
evangelicas
evangelics
evangelis
evangelische
evangelischen
evangelist
evangelium
evans
eve
evel
eveline
evelyn
evenimaint
eveniment
eveniments
eventual
eventuala
eventualas
eventualmain
eventuals
everest
evic
evidence
evident
evidenta
evidentamain
evidentas
evidents
evita
evitar
evitescha
evla
evo
evoca
evolution
evolutionary
evolutiv
evoluziun
evoluziunara
evtl
ewald
ewige
ewigen
ewz
ex
exact
exacta
exactadad
exactamain
exactas
exagera
exagerada
exageradas
exaimpel
examen
examens
examina
examinads
examinar
examinaziun
examinaziuns
examinescha
excellent
excellenta
excelsior
excepziun
excepziunalmain
excepziunals
excepziuns
excess
excessiva
excessu
exchange
exchava
exchavadas
exchavaziun
exchavaziuns
exclava
excluda
excludan
excluder
excludi
exclus
exclusa
exclusas
exclusiun
exclusiv
exclusiva
exclusivamain
excomm
excommunicaziun
excrements
excursiun
excursiuns
executa
executadas
executads
executar
executiv
executiva
executivas
executive
execuziun
execuziuns
exegesa
exegets
exempel
exempels
exemplar
exemplaric
exemplarica
exemplars
exequescha
exequeschan
exequi
exequida
exequidas
exequir
exequivan
exercitar
exercizi
exercizis
exhibition
exhumaziun
exil
exista
existan
existent
existenta
existentas
existents
existenza
existenziala
exister
existi
existia
existian
existiva
existivan
exkursionsflora
exnum
exocet
exodus
exotic
exoticas
exotics
expander
expandi
expansion
expansiun
expansiva
expectoraziuns
expedition
expediziun
expediziuns
expensas
experience
experientscha
experientschas
experienzcha
experiment
experimenta
experimental
experimentala
experimentar
experiments
expert
expertisa
experts
explicativa
explicaziun
explicaziuns
explicit
explicita
explicitamain
explitga
explitgar
explitgescha
explitgeschan
explora
explorar
exploratur
exploraturs
exploraziun
exploraziuns
explosiun
explosiuns
explosiv
explosivas
explota
explotada
explotads
explotar
explotaziun
exponats
exponent
exponents
exponenziala
exponer
exponi
exponida
exponidas
exponids
export
exporta
exportada
exportadas
exportader
exportaders
exportads
exportar
exporteschan
exports
exposiziun
exposiziuns
expost
exposta
expostas
exposts
express
expressiun
expressiunissem
expressiuns
exprima
expriman
exprimer
exprimi
exprimida
exprimidas
exprimids
exprimiva
expropria
expropriaziun
expulsiun
extenda
extendan
extender
extendeva
extendi
extendida
extendidas
extendids
extensiun
extensiva
exteriur
exteriura
exteriuras
exteriurs
exterminaziun
extern
externa
externas
externs
extinct
extincziun
extirpa
extirpadas
extirpads
extirpar
extirpaziun
extra
extract
extracts
extracziun
extrada
extrader
extradi
extraordinari
extraordinaria
extraordinariamain
extraordinarias
extraordinaris
extraterresters
extrem
extrema
extremamain
extremas
extremists
extremitads
extrems
exupe
eye
eyes
eyjafjallajo
eyjafjo
ez
f
fa
faa
faber
fabian
fabio
fablas
fabre
fabrica
fabricas
fabricaziun
fabrik
fabritga
fabulus
face
facebook
facil
facit
facsimile
factbook
factica
facticamain
facto
facts
factur
facturs
facultad
facultads
facultativa
faculted
fadetgnas
fadia
fado
fadri
fageva
fagevan
fagus
fahrt
fai
faida
faido
fain
fains
fair
faira
faiva
fakten
falange
falangists
falcuns
falera
falk
falkenhayn
falkland
falklands
fall
falla
fallada
falladas
falsificaziun
fama
famegl
famegls
famiglia
famigliar
famigliara
famiglias
familie
families
family
famos
famus
famusa
famusas
fan
fanadur
fanestra
fanestras
fanny
fans
fantasia
fantasias
fantastic
fantastics
fantasy
fantom
fantschella
fantschellas
fao
far
farao
farcla
farden
farera
fargetta
fargliuns
farina
farm
farmaceutica
farmas
farmers
faro
farschno
farvagny
fas
fasa
fasans
fasas
faschain
faschev
fascheva
faschevan
faschismus
faschissem
faschista
faschistic
faschistica
faschisticas
faschistics
faschists
faschond
faschs
fascia
fascina
fascinads
fascinaziun
fascio
fascism
faso
fassetta
fassettas
fast
fastiz
fastizar
fastizs
faszination
fat
fatalas
fatg
fatga
fatgas
fatgs
fatimids
fats
fatsch
fatscha
fatschada
fatschadas
fatschas
fatscheda
fatschenta
fatschentads
fatschentan
fatschentar
fatschentas
fatta
fau
fauda
faudas
faun
fauna
faus
fauss
faussa
faussamain
faussas
faust
fautur
fav
fava
favrer
favugn
favur
favuraivel
favuraivla
favuraivlas
favurisa
favurisada
favurisescha
faz
fbi
fc
fci
fe
feat
februar
fecler
federal
federala
federalas
federalissem
federalist
federalistic
federalistica
federalistics
federalists
federals
federation
federativ
federativa
federativs
federaziun
federaziuns
federel
federer
federica
federico
feel
fegl
feglia
fegliets
fegliom
fegls
fehr
fein
feind
feinde
feld
feldkirch
feldmarschal
feleschs
felidae
felipe
felis
felix
fels
femella
femellas
feminin
feminina
femininas
feminins
femme
femna
femnas
fen
fenadur
fender
fenizians
fenomen
fenomens
fer
fera
ferdinand
ferdinando
ferenc
ferguson
ferm
ferma
fermada
fermadas
fermads
fermamain
fermanza
fermar
fermas
fermentaziun
fermezza
ferms
fernand
fernande
fernando
fernsehen
fernsehgesellschaft
feroais
feroe
feromons
ferrari
ferrer
ferrera
ferrovie
ferruccio
ferruzzi
fertilitad
ferton
fest
festa
festas
festegia
festegiads
festiv
festiva
festivads
festival
festivals
festivitads
festschrift
fet
fetg
fetscher
fetschi
fetschia
fetschian
fetus
feud
feudal
feudala
feudalas
feudalissem
feudals
feuerbach
fevra
fevrer
ff
ffe
ffentliche
ffentlichen
ffentlichkeit
ffentlicht
ffentlichungen
fi
fia
fiasco
fiasta
fiba
fibra
fibras
fich
fichte
ficocle
fiction
fictiv
fictiva
fictivas
fidaivel
fidaivels
fidaivla
fidaivladad
fidaivlas
fidanza
fidar
fidaz
fide
fidel
fidelio
fidschi
fiduziara
field
fields
fient
fier
fiera
fieras
fiergna
fiergnas
fiers
fieschi
fieu
fieus
fieuter
fifa
figaro
figl
figlia
figlias
figls
fignicler
figu
figura
figuras
figurativ
figurativa
figurativs
figurava
figuravan
figures
figurescha
figureschan
fih
fil
filar
fildarom
filiala
filialas
filien
filiens
filip
filipepi
filippinas
filippo
filisur
film
filma
filmar
filme
films
filogenetica
filolog
filologia
filologica
filologs
filosof
filosofar
filosofia
filosofias
filosofic
filosofica
filosoficas
filosofics
filosofs
fils
filter
filtrar
fim
fin
fina
finais
final
finala
finalas
finalmain
finalmein
finals
finamira
finamiras
financial
finanzas
finanzen
finanzia
finanziada
finanziadas
finanziads
finanzial
finanziala
finanzialas
finanzialmain
finanzials
finanziar
finanziaziun
finas
fine
finel
finela
finelmaing
finescha
fineschan
fingia
fini
finida
finids
finir
finiu
finiziun
finiziuns
fink
finland
finlanda
finlandais
finlandaisa
finlandaisas
finnish
finnland
fins
finsternis
finta
fiord
fiords
fiore
fiorelli
fiorentina
fira
firads
fire
firenza
firenze
firma
firmament
firmas
first
fis
fiscal
fiscala
fiscalas
fischer
fish
fisic
fisica
fisicala
fisicalas
fisicals
fisicamain
fisicher
fisichers
fisics
fisiladas
fisiologia
fisiologic
fisiologica
fisionomia
fiss
fissan
fissi
fissiun
fist
fit
fitg
fitga
fitgar
fittanza
fitzgerald
fitzroy
fiug
fiumicino
fivb
five
fix
fixa
fixada
fixadas
fixads
fixar
fixas
fixaziun
fixaziuns
fixescha
fixs
fla
flad
flagge
flaivel
flaivels
flaivla
flaivlas
flaivlenta
flaivlentada
flaivlentads
flaivlentar
flaivlezza
flaivlezzas
flam
flama
flams
flanca
flandra
flash
flatg
flatgs
flauta
flautas
flecziun
fleet
flem
flexibel
flexibels
flexibla
fliegerstaffel
flight
flisch
flizzer
flo
flomma
flommas
flond
flora
floraweb
floreal
flores
florian
florida
florin
flotta
flottas
flottiglia
floyd
flst
flu
fluctuanta
fluctuants
fluctuaziuns
flugi
fluid
flum
flums
flur
fluras
flurescha
flureschan
fluri
flurin
flurina
flurir
fluriziun
flurs
fluss
fluvialas
fmi
fo
foca
focas
focus
focusar
focusescha
focuseschan
fodom
foederati
fogg
foglio
foix
folclora
folgen
folio
folk
fom
fomentads
fomina
fominas
fond
fonds
fonetic
fonetica
foneticas
fonologia
fontaine
fontainebleau
fontana
fontauna
fontaunas
food
football
foppa
foppas
fops
for
fora
foras
force
forces
ford
foreign
forel
forest
forestal
forestala
form
forma
formal
formala
formalas
formalmain
formals
format
formation
formazza
formel
formen
formula
formulada
formuladas
formular
formulaziun
formulaziuns
formulescha
forsa
forschung
forschungen
forst
forster
forstliche
forstwirtschaft
fort
fortaleza
forte
fortezza
fortezzas
fortificaziun
fortificaziuns
fortifitga
fortifitgada
fortifitgadas
fortifitgads
fortuna
fortunat
forum
forums
forza
forzas
fosfor
foss
fossa
fossal
fossas
fossil
fossilas
fossils
foster
foto
fotoelectric
fotograf
fotografa
fotografar
fotografia
fotografias
fotos
fotosensiblas
fotosintesa
foucault
foul
fouls
foundation
fouque
fouquet
four
foura
fourier
fox
foxes
fr
fra
fracziun
fracziuns
fradaglia
frage
fragen
fragliuns
fragment
fragmentara
fragmentaziun
fragmente
fragments
fraid
fraida
fraidas
fraids
frain
frains
fraissen
fraissens
framassuns
fran
frana
franada
franar
franc
franca
francada
francads
francar
france
frances
francesca
francesco
francfurt
franche
franches
franchi
francis
franciscan
franciscans
francisco
francke
franckh
franco
francofona
francon
francona
franconas
franconia
francons
francoprovenzal
francorum
francs
frank
franken
frankenreich
frankfurt
frankfurter
frankia
franklin
frankreich
frankreichs
franks
frans
frantscha
frantz
franz
franziska
franzo
franzos
franzosa
franzosas
frar
frars
frasa
frasas
frastgas
fratemp
fraternisaziun
fraternitad
fraters
frau
fraud
frauen
frauenfeld
frauntscha
fraxinus
frazer
fre
fred
frederic
frederick
frederik
fredrickson
fredrik
free
freedom
frei
freiburg
freid
freie
freier
freiheit
freiherr
freising
freistaat
fremdenfeindlichkeit
french
frenesia
frequent
frequenta
frequentada
frequentadas
frequentads
frequentan
frequentar
frequentas
frequentau
frequents
frequenza
frequenzas
frer
frers
frescos
frestg
frestga
frestgas
frestgs
freud
freude
freund
freunde
freundschaft
frey
friaul
fribourg
fribourgeois
friburg
friburgais
friburgaisa
fricktal
fricziun
frida
fridas
fried
friedemann
frieden
frieder
friedla
friedman
friedrich
friends
fries
frina
fris
frisch
frisching
frisia
frislanda
fritg
fritgaivel
fritgaivels
fritgaivla
fritgaivladad
fritgs
fritsch
fritz
friul
friulana
friuli
frizza
frizzas
fro
from
fromm
front
frontier
fronts
frontscha
frosinone
fru
fructificaziun
fructifitgadas
frunt
frunta
fruntada
fruntadas
fruntads
fruntan
fruntar
frusta
frutigen
fry
fryburgia
frz
ftan
fte
fu
fuchs
fugi
fugia
fugida
fugidas
fugids
fugir
fugitivs
fuhrmann
fui
fukushima
fular
fuldera
fulin
full
fulla
fumegl
fumeglia
funcziun
funcziuna
funcziunala
funcziunalissem
funcziunalitad
funcziunament
funcziunar
funcziunari
funcziunaris
funcziunava
funcziunavan
funcziunescha
funcziuneschan
funcziuns
fund
funda
fundada
fundadas
fundads
fundagl
fundamaint
fundament
fundamental
fundamentala
fundamentalas
fundamentals
fundaments
fundar
fundatur
fundaturs
fundau
fundaziun
fundaziuns
fundeda
fundescha
fundo
fundond
funds
funeral
funiculara
funiculera
funk
funktion
funktionen
funs
funsil
funsila
funsils
funtauna
funtaunas
fuond
fuorcla
fuorma
fuormas
fuorn
furar
furca
furet
furets
furia
furius
furlan
furlans
furma
furmada
furmadas
furmads
furman
furmar
furmas
furmava
furmavan
furmaziun
furmaziuns
furmeda
furment
furmia
furmian
furmiclas
furmla
furmlas
furmo
furmond
furn
furnescha
furneschan
furni
furnier
furnir
furnitur
furnitura
furniturs
furniva
furniziun
furniziuns
furns
fusionau
fusiun
fusiuna
fusiunada
fusiunadas
fusiunar
fusiunau
fusiuns
fuss
fussball
fussi
fustg
fustga
futterpflanzen
futur
futura
futuras
future
futuristic
futurs
fuva
fuvan
fußball
g
ga
gabriel
gabriele
gabun
gada
gadas
gadola
gaelic
gagarin
gagausia
gagl
gaius
gajewniki
gal
gala
galant
galanthus
galantina
galaria
galarias
galats
galaxia
galaxias
galbraith
galen
galerie
galicia
galician
galilea
galilei
galileo
galite
galizia
gallaria
gallen
gallery
gallia
gallic
gallica
gallicius
gallico
galliformes
gallipoli
gallo
galloromana
gals
gama
gambarogno
gambia
game
games
gan
ganden
gandhi
gang
gangale
gansu
ganz
ganzoni
gap
garantescha
garanti
garantida
garantidas
garantids
garantir
garantiva
garanzia
garanzias
garci
garda
gardaroba
garden
gardens
gardists
garibaldi
garmisch
garnischun
gartegia
gartegiada
garten
gartner
gary
garzanti
gas
gasatura
gasetta
gasettas
gastrolits
gastronomia
gatineau
gats
gatt
gattung
gatwick
gauda
gaudenz
gauleiter
gaulle
gaza
gazetta
gazettas
gazette
gazi
gb
gdan
ge
gea
geba
gebet
gebiete
gebru
geburt
geburtstag
geda
gedanken
gedenksta
gedichte
gefa
gefunden
gegen
gegenreformation
gegenwart
gegia
gehalten
geheime
geheimnis
geho
geht
geige
geiss
geist
geiste
geistes
geistige
geistingen
gel
gelbe
geld
geldes
gelgia
geliebte
gelle
geln
gelug
gemeinde
gemeinden
gemeinschaft
gemkow
gen
genatsch
gene
genealogic
genealogie
gener
genera
generada
generadas
generads
general
generala
generalas
generale
generalis
generalitad
generalitat
generalmain
generals
generar
generation
generaturs
generaziun
generaziuns
generel
generela
generescha
genereschan
generica
geners
generus
generusadad
genes
genesa
genesis
genetic
genetica
geneticamain
geneticas
genetics
geneva
genevra
genfersee
genie
genitiv
genitur
geniturs
genocid
genocide
genocids
genom
genome
genova
genozid
gens
gent
gentar
gentiana
gentile
gentle
genua
genuin
genuina
geo
geodatas
geoffrey
geograf
geografia
geografic
geografica
geograficamain
geograficas
geografics
geografs
geographic
geographical
geographie
geographische
geography
geolog
geologia
geologic
geologica
geological
geologicamain
geologicas
geologics
geology
geometria
geometric
geometricas
geomorfologia
geophysical
geopolitica
georg
george
georges
georgi
georgia
geotermia
geotermica
geothermal
geothermie
ger
gerais
gerald
gerard
gerber
gerd
gerdt
gerechtigkeit
gerhard
gerhardt
geri
germain
german
germana
germanas
germania
germaniae
germanisada
germanisaziun
germanischen
germanistica
germanofona
germans
germany
germplasm
gernot
gero
gerold
gerra
gert
gertrud
gertrude
gerusalem
ges
gesammelte
gesamtausgabe
gesamtdarstellung
gesangbuch
gescha
geschichte
geschichten
geschichtliche
geschichtsschreibung
geschichtsvereins
geschichtswissenschaft
gesehen
gesellschaft
gesellschaften
gesellschaftliche
gesellschaftsgeschichte
gesellschaftsvertrag
gespra
gessler
gest
gestalten
gestapo
gestern
gestiun
gestiunada
gests
gesu
gesuits
gesundheit
get
getg
gewa
gewalt
gewaltmission
gewerkschaften
gg
gge
ghana
gherde
gherdeina
ghetto
ghettos
ghibellins
ghil
ghirone
ghitara
ghitaras
ghitarra
ghitarras
ghitarrist
gi
gia
giabus
giacca
giachen
giacometti
giacomo
giacubin
giacubins
giacun
giada
giadas
giaglina
giaglinas
giaglinom
giaiva
giaja
giambattista
gian
giancarlo
giansauna
giansaunas
giap
giapun
giapunais
giapunaisa
giapunaisas
giascha
giaschair
giaschaments
giaschan
giascheva
giaschevan
giast
giasts
giat
giats
giatter
giauda
giaudan
giavel
giavisch
giavischa
giavischada
giavischau
giavischs
gibraltar
gibran
gibson
gida
gidan
gidanter
gidanters
gidar
gidau
gidava
gidavan
gidia
gidian
gidieu
gidieua
gidieuas
gidieus
gie
gier
gieri
gieriet
gies
giessen
gieu
gieus
gieva
gievan
gievgia
gift
giftpflanzen
gigant
gigantica
gigants
giger
gigina
gil
gilbert
gilles
gilly
gilot
gime
gimnasi
gimnasial
gimnastica
gimnosperms
ginaiver
gingolph
gini
gio
gioannes
gioga
giogan
giomber
giombers
gion
gionin
giorgio
giornico
giovannes
giovanni
giovens
gip
gir
gira
giran
girar
girard
girl
girona
girondins
girs
gis
gisela
gisep
gist
gista
gistadad
gists
gita
gitarre
gitg
giu
giuadora
giuanna
giubiasco
giubileum
giud
giudaic
giudaica
giudair
giudaissem
giudem
giudeva
giudevan
giudi
giudicament
giudicat
giudicativa
giudim
giudiment
giuditga
giuditgada
giuditgads
giuditgar
giuditgescha
giuditgeschan
giudizi
giudiziala
giudizialas
giuf
giug
giuga
giugada
giugader
giugaders
giugadira
giugadiras
giugadra
giugads
giugadur
giugadurs
giugar
giugava
giugavan
giugs
giulia
giulianas
giulietta
giulio
giumaglio
giun
giunta
giura
giuria
giuridic
giuridica
giuridicamain
giuridicas
giuridics
giurisdicziun
giurisprudenza
giurist
giurists
giuru
giusep
giuseppe
giustia
giustificaziun
giustifitga
giustifitgada
giustifitgadas
giustifitgar
giustifitgescha
giuv
giuvaulta
giuveder
giuven
giuvenessendi
giuvenil
giuvenila
giuvenils
giuvens
giuventetgna
giuventetna
giuventu
giuvet
giuvna
giuvnal
giuvnals
giuvnas
give
givels
giz
gizs
gizzas
gl
gla
glacier
gladbach
gladiaturs
glance
gland
glanz
glaruna
glarus
glasgow
glasnost
glatsch
glatscher
glatschers
glaube
glauben
glaubens
glayre
glazial
glaziala
glazialisaziun
gle
gleichheit
gleiti
glera
gletschermumie
gli
glia
glich
glichkeiten
gliesch
glieud
gliez
glimajas
glin
glina
glinas
glindesdi
glion
glis
glisch
glischa
glischant
glischanta
glischantas
glischnar
glischs
glischur
glista
glistas
glitta
glivra
glivras
glivret
global
globala
globalas
globale
globalen
globalisaziun
globalisierung
globalization
globals
globe
globus
glogn
glogns
glonda
glondas
gloria
glorificaziun
glorifitga
glorious
gloriusa
glossaire
glu
gluck
glutinosa
glutz
gmbh
gn
gnaeus
gnais
gnanc
gnas
gnb
gne
gnerv
gnerva
gnervs
gnida
gnieu
gnieus
gniezno
gnif
gnint
gnir
gnirom
gnirunchels
gnit
gnittan
gniva
gnivan
gnu
go
goa
god
godesberg
gods
goebbels
goebl
goes
goethe
goetz
gogh
gohr
gol
gold
golden
goldmann
goldstandard
goldstein
golem
golf
golfs
goli
gols
goms
gonda
gondo
gondrom
gondwana
gonza
good
goody
google
goose
gora
gorbatschow
gordon
gori
goslar
gospel
gotha
gotic
gotica
gotland
gots
gott
gottard
gottardo
gottes
gottfried
gotthard
gotthelf
gotthold
gottlieb
gottlob
gourmandises
gov
governance
government
gozo
gp
gpsr
gr
gra
grab
grace
grad
grads
graf
graffitis
grafia
grafica
graficas
graficher
graham
grammatica
grammaticalas
grammatik
grammy
grams
gramsci
gran
granada
granatas
grand
granda
grandas
grande
grands
grandson
granezza
granges
granit
grant
graphic
grascha
graschel
graschels
graschla
graschlas
grass
gratuit
gratuita
gratuitamain
gratuitas
gratuits
grau
graubu
graun
grauns
gravantas
gravants
gravidanza
gravidonza
gravitaziun
gravuras
gray
graz
grazcha
grazia
grazie
gre
great
greater
greatest
grec
greca
grecas
greco
grecoromana
grecs
greek
green
greenhouse
greenpeace
greenwich
greenwood
gregor
gregori
gregorian
gregory
greina
greiner
gremi
gremis
grenadier
grenoble
grenzen
grep
greppa
greuter
grev
greva
grevamain
grevas
grevezza
grevezzas
grevs
grey
grezia
griechen
griechenland
gries
griff
griflas
grigioni
grimaldis
grimm
grin
griosch
grip
grippa
grippus
grippusa
grippusas
grips
grisch
grischa
grischs
grischu
grischun
grischuna
grischunais
grischunas
grischuns
gritta
griu
gro
groener
groma
grond
gronda
grondamain
grondas
grondezza
grondezzas
grondiusa
gronds
gronduca
gronducadi
grop
groppa
gros
gross
grossa
grossas
grosse
grossen
grosser
grossezza
grossmann
grossmu
grosso
grossreichs
grotius
group
groves
growth
große
großen
großes
gru
gruber
grubicy
grund
grundbegriffe
grundgesetz
grundkurs
grundlage
grundlagen
grundlegung
grundriss
grundzu
gruner
grupo
gruppa
gruppas
gruppaziun
gruppaziuns
gruppe
gruscha
gruschke
gruye
gruyter
gryonne
grzimek
gsk
gss
gt
gu
guadagnet
guadeloupe
guaffens
gualino
guals
gualser
gualsers
gualsra
guants
guarani
guard
guarda
guardan
guardar
guardia
guardian
guardias
guards
guariziun
guatemala
guaud
guaudets
guauds
gudagna
gudagnada
gudagnadas
gudagnads
gudagnar
gudagnava
guder
gudignau
gudogn
gudogna
gudognan
gudogns
gudrun
guelfs
gueriglia
guernica
guerra
guerras
guerre
guerrescs
guerrier
guerriers
guerriglia
guerril
guerrila
guerrilas
guerrils
guevara
gugent
guglia
guglias
guglielm
guglielmo
guid
guida
guide
guido
guidon
guids
guillaume
guillotina
guinea
guisan
guitar
guitarra
gujana
gujarat
gula
gulag
guliv
guliva
gulivar
gulivas
gulivaziun
gulliver
gulya
gumma
gunnar
gunter
guntgescha
guntgida
guntgids
guntgir
gur
gurin
gus
gust
gusta
gustan
gustativ
gustativas
gustativs
gustav
gustave
gut
gute
guten
gutenberg
gutta
guvern
guvernament
guvernamental
guvernamentala
guvernamentalas
guvernativ
guvernativa
guvernativas
guvernativs
guvernatur
guvernaturs
guy
guyana
guðmundsson
gw
gwh
gyatsho
gyatso
gyo
gypten
gyula
h
ha
haag
haarmann
haas
haase
habe
haben
habermas
habilis
habitants
habitar
habitat
habitats
habitaziun
habitescha
habitonts
habitus
habsburg
habsburgais
habsburgaisa
habsburgaisas
hack
haddaway
hadrian
haensch
haffmans
haffner
hagen
hagi
hagia
hagien
hago
hahn
hai
haile
haiti
haja
hajan
hajas
haklai
halacha
haldon
hall
halla
hallas
halle
haller
halley
hallstatt
halm
halter
hambach
hamburg
hamburger
hamilton
hamlyn
hammer
hammurapi
hampshire
han
hanau
hand
handball
handbook
handbuch
handwo
hannah
hanneli
hannes
hannibal
hannover
hanns
hanoi
hans
hansa
hansen
hanser
hansjo
hanspeter
haplotips
happy
harald
harbor
harbour
hard
hardenberg
hardin
harding
hardrock
hardy
hare
harold
harper
harrassowitz
harrer
harris
harrison
harry
hart
hartmann
hartmut
hartog
hartwig
harun
harvard
harvey
harz
has
haseder
haslinger
hasper
hassan
hat
hatje
haug
haun
haupt
haus
hauser
hausma
haut
haute
hauterive
hauteville
havanna
have
havel
haven
haver
havess
haveva
havevan
hawai
hawaii
hawkins
haydn
hayek
hdi
he
head
health
heart
hearts
heathrow
hebraica
hecker
hectara
hectaras
hector
heft
hegel
hegelians
hegelschen
hegi
hegia
heide
heidegger
heideking
heidelberg
heidelbergensis
heidelberger
heidi
heiko
heil
heilige
heilpflanzen
heimat
heimischen
heimskringla
heine
heinemann
heinrich
heinz
heisenberg
heiss
held
helden
helen
helena
helene
helenissem
helens
helga
helge
helgoland
helicopter
helicopters
heliocentric
helium
hell
hellenissem
hellenistic
hellenistica
hellenistics
heller
hellmut
hello
helmut
helmuth
help
helsinge
helsinki
helvetia
helvetic
helvetica
helveticas
helvets
helvezia
hen
henderson
hendri
hendrik
hendrix
hendry
hennef
henning
henri
henriette
henrik
henry
henryk
henschel
henslow
hepburn
heptatlon
her
heracles
herakleios
herausforderung
herausgegeben
herba
herbert
herbig
hercegovina
herculaneum
hercules
herder
here
herfried
heritage
herkunft
herman
hermann
hermannkeist
hermes
herna
herodot
heroin
herr
herre
herrgott
herrmann
herrn
herrschaft
herrscher
herschel
hertz
herz
herzegowina
herzog
hesiod
hess
hesse
hessen
hessische
het
hetits
hetzel
heup
heusser
heute
heutigen
heydrich
heyne
hg
hgeschichte
hi
hienas
hier
hieronymus
higgins
high
highland
highlands
highway
hignard
hilberg
hildebrand
hildegard
hildermeier
hildesheim
hilfe
hill
hillary
hills
himalaia
himalaya
himmel
himmler
hin
hinaus
hinayana
hindenburg
hindu
hinduism
hinduismus
hinduissem
hinduistica
hinduisticas
hinduistics
hindus
hinter
hintergru
hinterrhein
hip
hippis
hippo
hiroshima
hirsch
hirschfeld
hirzel
his
hispaniola
histo
histoire
historia
historiae
historians
historias
historic
historica
historical
historics
historicum
historie
histories
historietta
historiker
historique
historisch
historische
historischen
historischer
historisches
history
hit
hitler
hitlers
hits
hiv
hl
hlau
hle
hlen
hler
hliche
hlmann
hls
hlt
hlte
hlung
hlungen
hm
hmann
hmittelalter
hmittelalterliche
hms
hn
hne
ho
hob
hobbes
hobsbawm
hochschild
hochzeit
hockey
hof
hofbauer
hoffman
hoffmann
hoffnung
hofmann
hofrichter
hohengehren
hohenheim
hohenzollern
hokkaido
hoku
hold
holger
holla
holland
hollweg
holly
hollywood
holmes
holocaust
holstein
holy
holz
hom
home
homelands
homens
homer
hominin
hominini
hommage
homme
hommes
homo
honduras
honecker
hong
hongkong
honoris
honorius
honshu
hooker
hoover
hop
hope
hopkins
horace
horatio
horaz
horda
horizonte
horkheimer
horn
horse
horst
horthy
hospental
hot
hotel
hotellaria
hotels
hotspots
hound
house
houyhnhnms
how
howard
hoxha
hoz
hozindi
hr
hrdung
hren
hrend
hrer
hrige
hrigen
hring
hrings
hrsg
hrung
hrungspolitik
hrungssystems
hrvatska
htm
html
http
https
hu
hua
huanca
huang
huber
hubert
hubertus
hudson
hue
hufeisen
hug
hugh
hughes
hugo
hui
huldrych
hulte
human
humans
humblot
humboldt
hume
humoristica
humphrey
humus
hund
hunde
hundert
hungarian
huns
hunt
hunter
huonder
hurghada
huricans
hus
hussits
huxley
hz
hzeit
i
ia
iaaf
ian
iar
iata
iberia
iberic
iberica
ibid
ibiza
ibn
ibrid
ibridas
ibridisaziun
ibrids
ic
ica
icao
ice
iceland
icelandic
iceman
ich
icona
iconas
iconoclassem
id
ida
idas
ide
idea
ideal
ideala
idealas
idealisa
idealisada
idealisant
idealissem
idealistica
ideals
ideas
idee
ideen
idem
identic
identica
identicas
identics
identificaziun
identifitga
identifitgada
identifitgads
identifitgar
identita
identitad
identity
ideologia
ideologias
ideologic
ideologica
ideologicamain
ideologicas
ideologics
ideologie
ideologien
idilla
idiom
idioms
ido
idrats
idraulica
idraulicas
idrogen
idrografia
idrografic
ids
ie
ieli
ielis
ier
ierarchia
ierarchias
ierarchic
ierarchica
ierarchisaziun
ierdi
iert
ierta
ierts
if
iff
iffaunt
iffaunts
igel
igiena
igienicas
igl
igls
ignatius
ignaz
ignora
igor
iguazu
ihm
ihr
ihre
ihrem
ihren
ihrer
ihres
ihw
ii
iici
iii
ik
il
ila
ilanz
ilg
ilias
ilja
iljitsch
ill
illa
illas
illegal
illegala
illegalas
illegalitad
illegals
illegitim
illegitima
iller
illimita
illimitada
illimitadamain
illinois
illirs
illumina
illuminada
illuminadas
illuminar
illuminats
illuminaziun
illuminissem
illuminist
illuministic
illuministica
illuministicas
illuministics
illuminists
illusion
illusiun
illusiuns
illustra
illustrada
illustradas
illustrar
illustrated
illustratur
illustraziun
illustraziuns
illustrescha
illustreschan
illustrierte
ilona
ils
ilsa
ilse
im
image
images
imagina
imaginada
imaginar
imaginara
imaginaziun
imaginaziuns
imaginescha
imam
imanuel
imdb
imf
imhof
imita
imitada
imitar
imitaziun
imitescha
immanenta
immanuel
immateriala
immediat
immediata
immediatamain
immediatamaing
immens
immensa
immensas
immer
immez
immigra
immigrada
immigradas
immigrads
immigrants
immigraziun
immigraziuns
immissiuns
immobiglias
immoral
immortala
immortalitad
immunitad
imni
imnis
imola
impact
impe
impedescha
impedeschan
impedeschia
impedi
impedida
impedids
impediment
impediments
impedir
impediu
impedivan
imperativ
imperatur
imperatura
imperaturs
imperi
imperial
imperiala
imperialas
imperialism
imperialismus
imperialissem
imperialistic
imperialistica
imperialisticas
imperialitad
imperials
imperii
imperis
imperium
impissamaint
impissamaints
implant
implants
implementaziun
implications
implicaziuns
implicitamain
implitgescha
impollinaders
impollinaziun
imponer
imponi
import
importa
importada
importadas
importads
important
importanta
importantas
importants
importanza
importar
imports
imposanta
imposantas
imposiziun
impressari
impressaris
impressiun
impressiuna
impressiunant
impressiunanta
impressiunantas
impressiunissem
impressiuns
improntas
impu
impuls
impunder
impundi
impundidas
impundids
impurtant
impurtanta
impurtantas
impurtants
impurtanza
impurtont
impurtonta
impurtontas
impurtonts
impurtonza
impussibel
impustu
imre
in
ina
inabels
inabilitad
inaga
inagada
inamura
inamurada
inaugura
inaugurada
inauguraziun
inaugureda
inavaunt
inc
inca
incana
incaps
incarica
incarnaziun
incas
incassar
incendi
incendis
incident
incidenza
incisivs
incita
incl
inclegia
incletta
inclinada
inclinaziun
includa
includer
inclus
inclusiv
inconscienta
incontesta
incontestada
incontestadamain
incorpora
incorporada
incorporar
incorporaziun
increase
inculpa
incumbensa
incumbensaders
incumbensas
incumbenza
incumpletta
inde
indebitament
indebli
indeblida
indebted
indecis
indemini
indemnisaziun
indemnisaziuns
independence
independent
independenta
independentamain
independentas
independents
independenza
indesch
indeschavel
index
india
indian
indiana
indians
indic
indica
indicas
indicatur
indicaturs
indicaziun
indicaziuns
indics
indien
indiens
indigen
indigena
indigenas
indigens
indignaziun
indios
indirect
indirecta
indirectamain
indirectas
indispensabel
indispensabla
inditga
inditgada
inditgadas
inditgads
inditgar
inditgescha
inditgeschan
individi
individis
individual
individuala
individualas
individualissem
individualmain
individuals
indivisibla
indizi
indizis
indo
indochina
indoeuropeica
indogerman
indogermana
indogermanas
indonesia
indriz
indrizs
inds
inducziun
indus
industria
industrial
industriala
industrialas
industrialisa
industrialisada
industrialisads
industrialisaziun
industrialisierung
industrials
industrias
ine
ineguala
inegualitad
inegualitads
ines
inevitabel
inevitabla
inevitablamain
infantaria
infectus
infecziun
infecziuns
inferiur
inferiura
inferiuradad
inferiuras
inferiurs
inferno
infesta
infestiun
infiltraziun
infinit
infinita
infinitiv
inflammaziun
inflammaziuns
inflaziun
influence
influenza
influenzada
influenzadas
influenzads
influenzar
influenzas
influenzescha
influenzeschan
info
infoflora
informala
informalas
informatica
information
informationen
informaziun
informaziuns
infra
infrastructura
infurma
infurmads
infurmar
infurmaziun
infurmaziuns
ingeborg
ingestiun
ingio
ingiustia
inglais
inglaisa
ingo
ingolstadt
ingrid
ingu
inimi
inimis
initiative
inizia
iniziada
iniziadas
iniziads
inizial
iniziant
iniziants
iniziar
iniziativa
iniziativas
injecziun
innata
innocenz
innocenza
innovation
innovativa
innovativas
innovaziun
innovaziuns
innsbruck
innua
ino
inoltra
inoltrar
input
inqual
inquiry
inquisiziun
inquisiziuns
ins
insacura
insanua
insaquantas
insaquants
insatge
insatgi
inscena
inscenads
inscenar
inscenaziuns
inschign
inschigner
inschigneria
inschigners
inschignusa
inschriften
inscripziun
inscripziuns
inscrit
inscrits
inscunter
inscunters
inscuntra
inse
insect
insectivors
insects
insegna
insel
inseln
insembel
insista
insistenza
insisti
insistivan
insla
inslas
insolvenza
inspectur
inspira
inspirada
inspiradas
inspirar
inspiraziun
instabil
instabila
instabilitad
installa
installada
installadas
installads
installar
installaziun
instanza
instanzas
instinct
institui
institut
institute
institution
institutionen
instituto
instituts
instituut
instituziun
instituziunal
instituziunala
instituziunalisada
instituziunalmain
instituziuns
instrada
instradada
instradadas
instradar
instrucziun
instrucziuns
instruescha
instrui
instruida
instruids
instruir
instruiu
instruiva
instrument
instrumentala
instrumentalisierung
instrumentari
instruments
insuffizienta
insuffizients
insuffizienza
insular
insulars
insumma
insurrecziun
insurrecziuns
int
intact
intacta
intactas
integra
integrada
integradas
integrads
integral
integrala
integrar
integration
integraziun
integrescha
integritad
integrond
intellectual
intellectuala
intellectuals
intelletg
intelligence
intelligenza
intenda
intendants
intendeva
intensitad
intensiv
intensiva
intensivadas
intensivamain
intensivar
intensivas
intensivs
intent
intents
intenziun
intenziuna
intenziunada
intenziunadamain
intenziunadas
intenziuns
inter
interactiv
interactiva
interacziun
interacziuns
interalpina
intercontinental
intercontinentalas
intercuri
intercuridas
intercurids
intercurir
interdependenza
interess
interessa
interessada
interessadas
interessads
interessant
interessanta
interessantamain
interessantas
interessants
interessar
interessava
interessescha
interesseschan
intergovernmental
interguvernamentala
interim
interiur
interiura
interiurs
interlaken
interlineara
interlingua
intermedia
intermediada
intermediar
intermediara
intermediaras
intermediars
intermediatur
intermediatura
intermediaturs
intermediaziun
intermediescha
intermedieschan
intermezzo
intern
interna
internads
internamain
internament
internas
internat
international
internationale
internationalen
internationaler
internationales
internazionale
internaziunal
internaziunala
internaziunalas
internaziunalmain
internaziunals
internet
interns
interprendi
interprendider
interprendiders
interpresa
interpresas
interpret
interpreta
interpretada
interpretadas
interpretads
interpretar
interpretation
interpretationen
interpretaziun
interpretaziuns
interpretescha
interpreteschan
interprets
interregnum
interroga
interrogads
interrumpa
interrumper
interrupziun
interrupziuns
interrut
interrutta
interruttas
interslav
interval
intervals
intervegn
intervegna
intervegni
intervegnida
intervegnir
intervenziun
intervenziuns
interview
intervista
intervistas
intganta
intgin
intginas
intgins
intima
intimar
intims
into
intoleranza
intra
intragna
intrigas
introduci
introducida
introducidas
introducids
introducir
introduction
introducziun
introducziuns
intronisa
intschert
intscherta
intschertezza
intschertezzas
intschess
intuorn
intyamon
inua
inuffizial
inumanas
inunda
inundada
inundads
inundaziun
inundaziuns
inutila
invader
invalid
invana
invasiun
invasiuns
invasurs
inventa
inventada
inventadas
inventader
inventar
inventari
inventing
invenziun
invenziuns
inversiun
invertebrads
invertebrats
investa
investescha
investi
investiders
investids
investir
investitura
investiziun
investiziuns
invezza
inviern
invisibel
invisible
invista
invistas
invit
involvi
involvida
involvidas
involvids
ioannes
ioc
ion
ionica
ions
iowa
ip
ipa
ipcc
iperinflaziun
iphone
ipodermis
ipotesa
ipotesas
iprage
ipv
iquique
ir
ira
irac
iran
iranais
iranaisa
ireland
irena
irene
ireneus
iring
iris
irish
irlanda
irlandais
irlandaisa
iron
ironia
irradia
irradiaziun
irradiescha
irredentissem
irregulara
irritar
irritaziun
irritaziuns
is
isaac
isaak
isabel
isabella
isada
isanza
isanzas
isar
isbn
isch
ische
ischen
ischer
isches
ischga
ischi
ischigl
ischis
ischs
isdn
isis
isla
islam
islamic
islamica
islamicas
islamics
island
islanda
islandais
islandaisa
islander
islands
islas
isle
ismayr
iso
isola
isolada
isoladas
isolads
isolar
isolaziun
isole
isonzo
isorno
isotops
israel
israeli
israelian
israelits
issn
issues
ist
istanbul
istat
istitut
istituto
istmus
istorgia
istorgias
istoric
istorica
istoricamain
istoricas
istoricher
istorichers
istorics
istoriograf
istoriografia
istoriografica
istoriografs
istorissem
istria
istva
it
italia
italian
italiana
italiani
italiano
italica
italien
italienischen
italy
its
iu
iucn
iulius
iure
ius
iv
ivan
ivas
ivo
ivur
iwan
iwf
ix
iz
izmir
j
ja
jachen
jachiam
jack
jackson
jacob
jacobs
jacobson
jacobus
jacqueline
jacques
jada
jagdwildes
jagger
jaguar
jahn
jahr
jahrbu
jahrbuch
jahre
jahren
jahres
jahrhundert
jahrhunderte
jahrhunderts
jahrtausend
jahwe
jaif
jainissem
jakob
jalta
jamaica
james
jamna
jamnas
jan
jana
jane
janeiro
janet
janett
januar
january
japan
jarchow
jaroslav
jaspers
jasters
jau
jauer
jaun
java
jay
jazz
je
jean
jeanne
jeckeln
jeder
jeff
jefferson
jeffrey
jegenstorf
jehova
jellinek
jemen
jena
jenatsch
jenics
jennifer
jenny
jens
jenseits
jent
jeremias
jeremy
jerry
jersey
jerusalem
jesse
jester
jesu
jesus
jet
jeu
jewish
jews
jh
jiddic
jim
jimi
jimmy
jir
jo
joa
joachim
joan
joannes
jochen
jodel
joe
joel
johan
johann
johanna
johannes
johannesburg
john
johnny
johns
johnson
joint
jokhang
jolles
jom
jon
jonas
jonathan
jones
jonin
joplin
jordan
jordania
jose
josef
josep
joseph
josephine
josip
jost
joule
journal
jours
joy
jozef
jpg
jr
ju
juan
juda
judas
juden
judentum
judenverfolgung
judith
judo
jugend
jugendstil
jugoslav
jugoslava
jugoslavia
jugoslavija
jugoslawien
juiz
jules
juli
julia
julian
juliane
julie
julien
julius
jun
jung
junge
jungen
jungfrau
juni
junior
juniors
juniperus
junius
junta
jupiter
jura
jure
juri
jus
just
justice
justinian
justus
jutland
juventus
k
ka
kadam
kaffee
kafka
kagyu
kahl
kahlil
kahnweiler
kai
kaiser
kaiseraugst
kaiserreich
kaisers
kaisertum
kaiserzeit
kalahari
kalb
kaletta
kalevala
kalifen
kaliningrad
kalmar
kalte
kalten
kam
kampf
kamtschatka
kanada
kandinsky
kann
kansas
kant
kanton
kantone
kantons
kants
kap
kapital
kapitalismus
kapitals
kapitel
kapp
kappel
karadz
karađorđevic
karel
karen
karin
karl
karlmann
karls
karlsbad
karlsruhe
karma
karol
karoli
karolinger
karolingischen
kasachstan
kashmir
kasimir
kaspar
kassel
katar
katastrophe
katharina
katholische
katholischen
kathrin
katla
katowice
katrin
kauer
kaufmann
kaunas
kauniainen
kautsky
kay
kb
ke
kein
keith
kelheim
keller
kelly
kelten
kemal
ken
kenia
kennedy
kenneth
kensington
kent
kentucky
kenya
kepler
kerenski
kerr
kershaw
kevin
key
keynes
kg
kgb
kham
khan
khmers
khz
ki
kichwa
kiel
kiepenheuer
kierkegaard
kiev
kilgore
kilimandscharo
kilograms
kilometer
kilometers
kilos
kim
kind
kinder
kindler
king
kingdom
kingr
kino
kinos
kinski
kinsky
kipling
kippur
kirche
kirchen
kirchengeschichte
kirchner
kiribati
kirkcaldy
kirsch
kissinger
kithara
kitty
kla
klagenfurt
klainguti
klaipe
klara
klasing
klasse
klassiker
klassischen
klaus
klavier
klee
kleiman
klein
kleinbasel
kleine
kleinen
kleiner
kleines
klemens
klepper
klett
klima
klimawandel
klo
kloten
kluge
km
knaur
knaurs
knesebeck
know
known
knut
ko
koalitionskrieg
koblenz
koch
koenen
kohl
kohle
kohler
kohlhammer
kolb
koller
kollwitz
kologie
kologische
kologischer
kolonialismus
kolonialreiche
kolumbus
koma
kommentar
kommt
kommunikation
kommunismus
kommunisten
kommunistische
kommunistischen
komo
kompakt
kompendium
kon
konferenz
konflikt
kong
kongo
kongress
konomie
konomische
konomischen
konrad
konservatismus
konservativismus
konstantin
konstruktion
kontext
kontinente
kontinuita
kontroversen
konzentrationslager
konzepte
konzert
kopenhagen
koper
kopf
kopitz
kopp
korea
korfmann
kornfeld
kos
kosciuszko
koselleck
kosmos
kosovo
kossuth
kotlina
kotor
kova
kovac
kpd
kra
kraft
krain
kramer
krankheit
krankheiten
krapp
kraus
kreis
kremer
kreuzlingen
krieg
kriege
krieges
kriegsziele
kriegszielpolitik
krise
krishna
kritik
kritische
kritischer
kritisches
kro
kroatien
krstic
kru
kruger
krzysztof
ksa
ksc
ku
kuba
kubin
kubismus
kugler
kuhn
kull
kult
kultur
kulturelle
kulturen
kulturgeschichte
kulturkampf
kulturlandschaft
kunst
kunstdenkma
kunstfu
kunstgeschichte
kupa
kurow
kurt
kurtz
kurz
kurze
kutzelnigg
kuwait
kv
kwh
ky
kyburg
kyo
kyoto
kyrillos
kyros
kz
l
la
laaber
laax
labhardt
labor
labour
labsang
labyrinth
lac
lacrimal
lacus
lad
lada
ladakh
ladas
laden
laders
ladezza
ladim
ladin
ladina
ladinas
ladinia
ladinisch
ladinischen
ladino
ladins
ladir
ladoga
lads
lady
lafargue
lag
laga
lage
laghet
lago
lagos
lags
laguna
lagunas
laharpe
lai
laicistica
laics
laika
lain
laina
lains
lainusas
lais
laiva
lajos
lake
lama
lamas
lambayeque
lambert
lampas
lance
land
landamma
lande
landeck
landes
landesamt
landesanstalt
landeskunde
landeszentrale
landi
landna
landquart
landsberg
landschaft
landshut
landvogtei
landwasser
landwirtschaft
lane
lang
lange
langen
langewiesche
langobard
langobards
language
languages
langwies
lanka
lansel
lantsch
lantscha
lantschada
lantschar
lantschas
lantschetta
lantschettas
laos
laponia
laresch
lareschs
laret
largezza
largia
largiade
largias
lariano
laringia
larix
larmas
larnaca
larry
lars
larsen
lartg
larva
larvas
las
lascha
laschads
laschan
laschar
laschass
laschassan
laschava
laschavan
laschia
laschian
laschond
lassalle
last
lat
late
lateinamerika
lateinischen
latent
latenta
lateral
laterala
lateralas
laterals
lateran
laterna
latg
latiers
latin
latina
latinas
latinisa
latins
latituda
latium
latsa
laubba
laud
lauda
laudert
launa
laura
laurence
laurent
laurie
lausanne
lausannois
lausitz
lauta
lautas
lautrec
lava
lavadiras
lavagna
lavar
lavaux
lavey
lavin
lavina
lavinas
lavunza
lavuors
lavur
lavura
lavuran
lavurant
lavurants
lavurar
lavuratori
lavuratoris
lavurava
lavuravan
lavurer
lavurers
lavurs
law
lawrence
lazaret
lazio
lc
ld
lder
ldern
ldl
le
leaders
league
leben
lebens
lebensbild
lebensbilder
lebenswerk
lecco
lech
lechfeld
lechner
lectur
lectura
lecturs
lecziun
lecziuns
led
ledermann
ledscha
lee
lef
lefe
lefs
lega
legacy
legal
legala
legalas
legat
legend
legenda
legendar
legendara
legendars
legendas
legende
legends
leger
legher
legi
legia
legida
legids
legislativ
legislativa
legislativas
legislativs
legislatur
legislatura
legislaziun
legitim
legitima
legitimada
legitimar
legitimaziun
legitimitad
legitims
legiun
legiuns
legria
legums
lehmann
lehr
lehrbuch
lehre
lei
leibniz
leiden
leif
lein
leipzig
leipziger
lej
lejs
lemkin
lemnius
lemoine
lemy
lena
leni
lenin
leningrad
leninismus
leninissem
lenins
lenn
lenna
lennon
lenta
lenz
lenzburg
leo
leon
leonais
leonard
leonardo
leone
leonhard
leonhardi
leonid
leonore
leontopodium
leopard
leopards
leopold
leppin
ler
lernen
les
lescha
leschas
lesen
leske
leslie
lesotho
less
lessen
lessing
lessons
lester
let
letg
letgalia
letgs
letras
letter
letters
letton
lettona
lettonia
lettons
lettre
lettres
letzte
letzten
leu
leuk
leuthard
lev
leva
levada
levamain
levan
levanta
levante
levas
level
leventina
levet
levgiament
levi
leviathan
levs
levsenn
lewis
lewisohn
lewy
lex
lexical
lexicals
lexicon
lexicons
lexikon
lexington
lez
leza
lezs
lezza
lezzas
lf
lhasa
li
lia
liada
liadas
liads
lian
liant
lianta
liantas
liants
liar
lias
libanon
liber
libera
liberada
liberads
liberal
liberala
liberalas
liberaldemocratica
liberalisar
liberalisaziun
liberalism
liberalismus
liberalissem
liberals
liberar
liberaziun
liberescha
liberia
libero
libers
liberta
libertad
libertador
libertads
libertas
liberty
libia
libra
libramain
library
libras
libre
libri
licenza
licenziat
liceum
lich
lichnowsky
licht
lie
lieb
liebe
liebermann
liebknecht
liechtenstein
lied
lieder
lien
lierna
liestal
lieu
lieua
lieunga
lieungas
lieur
lieurs
lieus
life
liga
ligas
light
ligia
ligias
ligiaun
lignin
liguria
like
likely
lilie
lille
lilliput
lima
limba
limburg
limes
limit
limita
limitada
limitadas
limitads
limitar
limitas
limitaziun
limitaziuns
limitescha
limiteschan
limmat
lina
linard
lincoln
linda
lindau
lindorna
lindornas
line
lineara
lines
lingia
lingias
lingua
linguas
linguatg
linguatgs
linguist
linguistic
linguistica
linguisticamain
linguisticas
linguistics
linguistik
linguists
link
linke
links
linnaeus
linne
linth
linux
linz
liom
lioms
lion
liongia
lippert
lipsia
liquid
liquida
liquidar
liquiditad
liquids
lir
lira
liras
lirica
liricas
liricher
lis
lisa
lisbon
lisches
lissabon
lissi
list
liste
listess
liszt
lit
literacy
literarische
literarischen
literatur
literatura
literaturbericht
literature
liters
litgens
litgiva
litinent
litografia
litorala
litosfera
litowsk
litra
litte
litterar
litterara
litteraras
litterars
litterats
litteratura
little
lituan
lituana
lituania
lituans
liturgia
liturgic
liug
liun
liung
liunga
liungs
liuns
live
livel
livels
liver
liverpool
lives
livign
living
livius
livonia
livorno
livres
ljubljana
lker
lkerbund
lkermord
lkermords
lkerrecht
lkerung
ll
lla
llas
lldc
lle
lleida
llengua
ller
llner
llobregat
lloyd
lmen
ln
lo
lobkowitz
local
locala
localas
localisa
localisada
localisar
localisaziun
localitads
localited
localmain
locals
locarno
locaziun
locke
locomotiva
locomotivas
lod
lodano
lodge
lodi
loghens
logic
logica
logik
logistica
logo
logos
loi
loiala
loialists
loialitad
loials
loire
lois
lom
lomas
lombard
lombardi
lombardia
loms
lon
londeror
londervi
londinium
london
londra
lonely
long
longerich
longhituda
longitudinala
longitudinalas
longman
lontan
lontanas
lontans
lope
lord
lords
lorena
lorentz
lorenz
lorenzo
los
losanna
loscha
loschas
losone
lost
lothar
lotus
lou
louis
louise
louisiana
louvre
love
loves
low
lower
loxodonta
lozza
ls
lsd
lsing
lt
lta
ltd
ltere
ltnis
lu
luada
luar
lubescha
lubeschan
lubi
lubida
lubidas
lubientscha
lubir
lubiva
lubivan
lublin
luc
luca
lucas
lucca
luccas
lucens
lucerna
luchs
luchterhand
lucia
luciano
lucius
lucmagn
lucrativ
lucrativa
luda
ludendorff
ludger
ludivic
ludolph
ludra
ludras
ludwig
luentada
luf
luffa
lufs
lufthansa
luftwaffe
lugaggia
luganese
lugano
luhmann
lui
luigi
luis
luisa
luise
luka
lukas
lumbard
lumbarda
lumbardia
lumbrein
lumie
lumnezia
luna
lunar
lune
lung
lunga
lungaitg
lungas
lungatg
lungatgs
lunghent
lunghenta
lunghents
lunghezza
lunghezzas
lungs
lungurella
lungurus
lunsch
lunschor
lupus
lur
lura
lurago
luregn
luschards
luschezza
lusitania
luterana
luterans
lutga
luther
lutra
lutry
lutz
luven
luvrar
luvrau
lux
luxembourg
luxemburg
luxemburgais
luxemburgaisa
luxus
luzein
luzi
luziet
luzius
luzzi
lw
lwf
ly
lyell
lyndon
lynx
lyon
lyrik
lytton
lz
lze
lzer
lzung
m
ma
maar
maaren
maarsen
maarten
maas
maastricht
mabain
mabo
mac
macdonald
macedon
macedona
macedonia
macedons
machen
machiavelli
machine
macht
macla
macmillan
macolino
macro
macv
madagascar
madame
made
madeira
madeleine
madir
madira
madiran
madirar
madiras
madiraziun
madirezza
madirs
madison
madleina
madonna
madonnina
madrid
magadino
magari
magasin
magasins
magazin
magazine
magazins
magdalena
magdeburg
maggia
maggiore
maghers
maghreb
magia
magiars
magic
magica
magicas
magics
magiel
magister
magisters
magistrat
magistrats
maglia
maglian
magliar
magliasina
magliaso
magma
magna
magnats
magnesium
magnet
magnetic
magnetica
magnetics
magnituda
magnon
magnus
magonza
magre
magugl
magun
magyar
magyars
maharishi
mahatma
mahayana
mahler
mai
maiavilla
maier
maiestad
mail
mailer
mails
main
maina
mainan
mainia
mainian
mainz
maior
maioren
maioritad
maioritads
maioritara
maiorz
maira
mais
maisa
maissen
maister
maisters
maistra
maiuri
maja
majdanek
major
make
making
mal
mala
malaga
malaisia
malamain
malans
malaria
malaura
malaveglia
malawi
malcantone
malchapida
malchapientscha
malchapientschas
malcolm
malcuntentientscha
malcuntents
malden
maldiever
male
malegia
malegiar
malesser
maletg
maletgs
malfatg
malfatgs
malfatschents
malgistas
malgra
malgrad
mali
malinar
malix
malizia
mallorca
malmaison
malmo
malo
malruaus
mals
malsaun
malsauna
malsauns
malsegir
malsegira
malsogna
malsognas
malta
maltais
maltaisa
maltaisas
malte
malthus
maltracta
malura
malvaglia
malvinas
malvis
mama
mamma
mammal
mammalia
mammals
mammas
mamut
mamuts
man
mana
manada
manadas
manader
manaders
manads
management
manager
managers
managia
manaivel
manar
manaschi
manaschis
manava
manavan
manca
mancan
mancanza
mancanzas
mancava
mancavan
manchenta
manchester
manchia
manching
manco
mandarin
mandat
mandats
mandel
mandela
mandelbaum
mandschuria
manegia
manegiada
manegiadas
manegiads
manegian
manegiau
manegiava
manera
manevrar
manfred
mangia
mangian
mangiar
mangiativas
manglus
manglusa
mangola
mani
mania
maniera
manierissem
manifest
manifesta
manifestada
manifestadas
manifestads
manifestar
manifestava
manifestaziun
manifestaziuns
manifestescha
manifesteschan
manipulaziun
manischar
manischunz
manischunzs
mankind
mann
mannheim
mans
mansfeld
mante
mantegna
mantegnair
mantegnan
mantegni
mantegnia
mantegnida
mantegnidas
mantegnids
mantegniment
mantogna
mantua
mantun
mantuns
manual
manuala
manuals
manuel
manuela
manufactura
manufacturas
manuscrit
manuscrits
manvella
many
manyara
manzegna
manzegnas
manzoni
mao
maoissem
maps
mar
mara
marat
maraton
marburg
marc
marca
marcada
marcadas
marcadonts
marcads
marcant
marcanta
marcantamain
marcantas
marcants
marcar
marcas
marcau
marcaus
marcaziun
marcaziuns
marcel
marcelliano
marcellinus
marcello
march
marches
marchescha
marcheschan
marco
marcs
marcus
mare
marengo
margaret
margarete
margarita
margarittina
marginala
margit
margot
margreta
mari
maria
marian
marianne
maribor
maric
marida
maridada
maridaglia
maridan
maridar
maridau
maridaus
marido
marie
marignano
marilyn
marina
marinars
marinas
marine
mariners
marines
marino
marins
mario
marion
marionetta
marionettas
maritim
maritima
maritimas
maritims
marius
mariza
mark
markarfljo
market
markets
markov
markus
marlene
marlon
marlow
marly
marmara
marmel
marne
maroc
marquis
mars
marsch
marscha
marschada
marschadas
marschads
marschal
marschar
marschira
marschs
marseille
marsellus
marshall
marsians
marsiglia
marte
martell
martels
martens
martga
martgadant
martgadants
martgads
martganzia
martganzias
marti
martigny
martin
martina
martinique
martinus
martir
martiri
martirs
marveglias
marvin
marx
marxismus
marxissem
marxistic
marxistica
marxisticas
marxistics
marxists
marxschen
mary
maryland
marz
mas
masagn
maschada
maschadada
maschadadas
maschadads
maschadar
maschaida
maschaidan
maschaidas
maschina
maschinaria
maschinas
mascra
mascras
masculin
masculina
masculinas
masculins
mason
mass
massa
massachusetts
massas
masse
massenmord
massimo
massin
massiv
massiva
massivamain
massivas
massivs
mastegiar
master
mastergn
mastergnants
mastergnanza
mastergnanzas
masters
mastgel
mastgels
mastral
mastrin
mat
matematic
matematica
matematicas
matematicher
materia
material
materiala
materialas
materialias
materialien
materialissem
materialistica
materials
materias
matern
materna
matg
mathias
mathieu
mathis
matin
matisse
mato
maton
matricla
matrimoni
matrimonial
mats
matsch
matschs
matt
matta
mattas
mattatsch
mattatscha
mattatschas
mattatschs
mattauns
matter
matterhorn
matteus
mattha
matthew
matthias
matti
mattli
matura
maturitad
mau
maule
maun
mauna
mauns
maurer
mauretania
maurica
maurice
maurikios
mauritius
maurizio
maurs
maurus
mausoleum
mauthausen
mava
mavan
max
maxima
maximal
maximala
maximalas
maximalmain
maximas
maxime
maximilian
maximum
maximus
maxwell
may
maya
mayen
mayer
maynard
mayo
mayor
mayr
mazarin
mazza
mazzacra
mazzacras
mazzada
mazzadas
mazzads
mazzament
mazzaments
mazzan
mazzar
mazzau
mazzini
mazzino
mb
mbit
mc
mccarthy
mccartney
mcdonald
mckinley
mckitterick
mclaren
mcnamara
mctaggart
md
mdz
me
meaning
mec
mecanic
mecanica
mecanicas
mecanics
mecanisaziun
mecanissem
mecanissems
mecca
mech
mecklenburg
med
medaglia
medaglias
medel
medelin
medem
medema
medemamain
medemamein
medemas
medemmamaing
medems
medi
media
mediala
medias
mediaziun
medical
medicaments
medici
medicinal
medicinala
medicinalas
medicinals
medien
medieval
medievala
medievalas
medievals
medina
medio
medis
medischina
meditaziun
mediterran
mediterrana
mediterranas
mediterranean
mediterrans
medium
mediums
meds
meer
meeting
meetings
meg
mega
megalits
megawatt
meglder
megldra
meglier
megliera
meglierada
meglieradas
meglierament
meglieraments
meglierar
meglieraziun
megliers
megliurada
megliurar
meglra
meglras
mehr
mehring
mehrsprachigkeit
mei
meidi
meier
mein
meina
meine
meinen
meiner
meini
meins
meir
meiringen
meis
meisa
meissner
meister
mekong
mel
melancholie
melanchthon
melanconia
melanie
melbourne
melchior
meles
melezza
melide
melilla
melissa
mellen
mellens
melna
melnas
melnent
melnenta
melodia
melodias
melvyn
member
members
membra
membrana
memel
memia
memmi
memoria
memorial
memories
memorisar
memory
men
menar
menau
mendas
mendelssohn
mender
mendicants
mendonc
mendra
mendrisio
mengia
menorca
mensch
menschen
menschenrechte
menschevics
menschheit
menschlichen
menschliches
mensila
mental
mentala
mentalita
mentalitad
menziun
menziuna
menziunada
menziunadas
menziunads
menziunar
menziunaus
menziunescha
menziuneschan
menziuno
menziuns
mer
meraun
mercantila
mercantilissem
mercedes
mercenaris
mercia
mercur
mercury
merda
merens
mergoscia
merian
meridiunal
meridiunala
meridiunalas
meridiunals
merit
merita
meritan
merits
merkel
merovings
merz
mes
mesa
mesadad
mesadads
mesanotg
mesas
mesauc
mesaun
mesauna
mesaunas
mesauns
mesemna
mesira
mesirada
mesiradas
mesiran
mesirar
mesiras
mesirava
mesiraziun
mesiraziuns
mesocco
mesolitic
mesoliticum
mesopotamia
mesozoicum
mespledaris
mess
messa
messadi
messadis
messas
messe
messen
messias
messina
meta
metabolissem
metafisic
metafisica
metafisicas
metaforica
metafra
metafras
metal
metallica
metallurgia
metals
metamorfosa
metamorfosas
metan
metaphysik
metazoa
meteorit
meteorologia
meteorologic
meteorological
meteorologicas
meter
meters
methoden
methodios
metoda
metodas
metodica
metodicamain
metodicas
metro
metropola
metropolas
metropolitan
metropolitana
metros
metta
mettan
mettend
metter
metternich
metteva
mettevan
mettia
metz
metzeltin
metzler
mevina
mew
mex
mexico
meyer
meyers
meyrink
mez
mezdi
mezfinal
mezmieur
mezs
mezzogiorno
mg
mi
mia
miaivel
miaivels
miaivla
miaivlas
miami
mias
mic
micenica
mich
michael
michaels
michail
michalka
michel
michelangelo
michele
michigan
mick
micoriza
micro
microfon
microorganissems
microscop
microsoft
micura
mida
midada
midadas
midads
midament
midaments
midan
midar
midau
midavan
middle
midi
midian
midlands
mie
miedi
mieds
miep
miera
mieroslawski
mierta
mies
mieszko
mieur
mieurs
miez
miffa
miglias
miglieglia
migrant
migrants
migrar
migration
migraziun
migraziuns
miguel
miha
mihai
mika
mike
miklo
mila
milan
milano
milaun
mile
miles
milet
milgram
milieu
milissa
milissas
milita
militar
militara
militaras
militaric
militarissem
militarmain
militars
military
miliuns
mill
mille
millenni
millennis
millennium
miller
millet
milli
milliarda
milliardas
millimeters
millipes
millis
milliun
milliuns
mills
milo
milos
milton
min
mina
minas
minca
mincha
minchatant
minchataunt
minchu
mineral
minerala
mineralas
minerals
minerva
minh
minho
mini
miniera
minieras
miniers
minima
minimal
minimala
minimalas
minimalmain
minimals
minimar
minimum
minister
ministeri
ministerial
ministeris
ministers
minkowski
minnesota
minoica
minor
minoren
minorens
minoritad
minoritads
minoritara
minoritaras
minorities
minotaurus
minsk
mint
mintg
mintga
mintgadi
mintgamai
mintgatant
mintgaton
mintgin
mintgina
mintun
minura
minus
minusio
minuta
minutas
minuziusamain
minz
mio
miocen
mir
mira
miracul
miraculs
miraculus
miraculusa
mirage
mirar
mirau
mirbeau
mircea
mirjam
miro
miroslav
mirs
mirveglias
mirvegliusa
mis
misarogn
misarogns
misch
mische
mischen
misches
mischna
mise
misenum
miseria
misericordia
mises
miss
missa
missella
missile
missiles
missing
mission
mississippi
missiun
missiunar
missiunara
missiunaris
missiunars
missiuns
missouri
mistail
mister
misteri
misteris
misterius
mistgel
mistgels
mistic
mistica
misticissem
mistral
mit
mita
mitchell
mite
mited
mites
mitgel
mitic
mitica
miticas
mitics
mitigia
mitigiadas
mitigiar
mitochondrial
mitologia
mitologica
mitologics
mitraglia
mitraglias
mitscha
mitschada
mitschads
mitschar
mitte
mitteilungen
mittelalter
mittelalters
mitteleuropa
mitteleuropas
mittelmeer
mittelmeers
mittermeier
mitus
miu
ml
mladic
mlwerke
mm
mmers
mmerung
mneder
mo
mobein
mobiglias
mobil
mobila
mobilas
mobile
mobilisa
mobilisar
mobilisaziun
mobilitad
mobils
mobutu
moc
moda
modas
model
models
modena
modera
moderada
moderadas
moderads
moderatur
modern
moderna
modernas
moderne
modernen
modernisa
modernisada
modernisar
modernisaziun
modernisierung
moderns
modest
modesta
modestas
modests
modifitga
modifitgada
modus
moench
moesa
moghegno
moguls
moha
mohammed
mohr
moi
moires
mol
mola
molar
molars
moldau
moldav
moldava
moldavia
moldova
mole
molecular
moleculara
moleculs
molella
moll
mollens
molluscs
molly
moluccas
mommsen
mon
mona
monaco
monarc
monarchia
monarchias
monarchic
monarchica
monarchicas
monarchics
monarchie
monarchische
monarchists
monarcs
monastica
monasticas
monastics
monatsblatt
monatsschrift
mond
monde
mondfahrt
mondi
moneta
monetar
monetara
monetaras
mongia
mongol
mongolia
mongolic
mongolics
mongols
moni
monica
monika
monis
monitoring
monn
monochasana
monoculturas
monografia
monografias
monographien
monolinguas
monologs
monopol
monopols
monoteissem
monoteistica
monoteisticas
mons
monsanto
monsieur
monsters
mont
monta
montada
montagna
montagnards
montagne
montagnes
montagny
montan
montana
monte
montenegrin
montenegro
montesquieu
montessori
montevideo
montgomery
monthey
monthly
monti
montinari
montjui
montreal
montreux
montserrat
montsoreau
monumaints
monument
monumental
monumentala
monumentalas
monumentals
monuments
monza
moon
moore
mora
moral
morala
moralas
moralitad
moralmain
morals
moran
morat
morav
morava
moravia
moravs
morbio
morcote
mord
morder
more
morena
morenas
morfologia
morfologicas
morgan
morgarten
morgen
morgenro
morges
moriarty
moritz
morley
morning
morphologie
morrens
morris
morsa
morsas
morse
mort
morta
mortal
mortala
mortalas
mortalitad
mortalmain
mortals
mortas
morte
mortoris
morts
morus
mosaic
mosaics
mosaik
mosambic
moscau
moschea
moscheas
moscow
mose
mosel
moser
moses
moskau
most
mostar
motion
motiv
motiva
motivada
motivar
motivaziun
motive
motivs
moto
motor
motorica
motorisa
motors
motos
motta
motte
motterasch
motto
moudon
mount
mountain
mountains
moura
mova
movan
movement
mover
movibel
movibels
movibla
moviblas
movie
movimaint
moviment
moviments
mozart
mozarteum
mozarts
mp
mpfe
mpfli
mr
mrd
ms
mt
mtliche
mu
muaglia
muawija
much
mucosa
muggio
muglier
mugo
muhammad
mulegns
mulesta
mulhouse
mulin
mulins
multi
multifar
multifara
multifaras
multifariadad
multifars
multimediala
multinaziunal
multiplicaziun
multiplitgar
multiplitgescha
mumaint
mument
muments
mumia
mumma
munaida
munaidas
munch
mund
mundaun
mundi
mundial
mundiala
mundialas
mundials
mundiel
mundiela
munds
mungias
muni
munich
municipal
municipala
municipals
munida
munidas
munids
munir
muniziun
munt
munta
muntada
muntadas
muntagna
muntagnard
muntagnarda
muntagnardas
muntagnards
muntagnas
muntan
muntanera
muntar
muntava
muntavan
muntg
muntgs
muntia
muntogna
muntognas
muond
muort
muossa
muossan
muota
muoth
mur
mura
muralas
muralto
murdoch
murdraretsch
murdraretschs
murezzan
muri
muria
murir
murk
murmarera
murray
murten
musa
musca
muschna
musculatura
musculs
musculus
muse
museo
museu
museum
museums
music
musica
musical
musicala
musicalas
musicalmain
musicals
musicist
musicists
musik
musique
muslim
muslima
muslimas
muslime
muslims
muss
mussa
mussada
mussadas
mussads
mussament
mussaments
mussan
mussar
mussau
mussava
mussavan
mussia
mussian
musso
mussolini
mustafa
mustailids
muste
mustela
mustelidae
muster
musters
mustgas
mustgat
mut
mutagl
mutaziuns
muts
mutter
muvel
muventa
muventads
muventan
muventar
muzzano
mv
mw
my
myanmar
myriapoda
myspace
mystery
myth
mythen
mythologie
mythos
myths
n
na
nach
nachf
nachleben
nachricht
nachrichten
nacht
nacional
nada
nadal
nadel
nadelba
nagasaki
nagel
nagin
nagina
naginas
nagins
nagliur
nagut
nagy
nair
naira
nairas
nairs
naismith
naiv
nam
nama
name
namen
namibia
nancy
nanette
nanin
nanina
nanins
nantes
napalm
napole
napoleon
napoleonic
napoleonica
napoleonicas
napoleun
napoli
nar
narcis
narcissa
narcissas
narcissus
narr
narradad
narrativ
narrativa
narrativas
narrative
narratur
nas
nasa
nascha
naschan
nasche
naschentscha
nascher
naschi
naschid
naschida
naschidas
naschids
naschientscha
naschientschas
naschieu
naschius
nassau
nat
nata
natal
natala
natel
naters
natha
nathan
natiers
nation
national
nationale
nationalen
nationalism
nationalismus
nationalo
nationalsozialismus
nationalsozialistische
nationalsozialistischen
nationalstaat
nationen
nations
natira
natiral
natirala
natiralas
natiralias
natiralisaziun
natiralissem
natiralmain
natirals
natiras
native
nato
natu
natur
natura
naturae
natural
naturalis
nature
naturfu
naturgeschichte
naturschutz
naturwissenschaften
naufragi
naumburg
naunza
nauru
nausch
nauscha
nauschadad
nauschas
nauschs
nauticas
nav
naval
navala
navalas
navarra
navegna
naven
navettas
naviga
navigabel
navigabla
navigablas
navigads
navigar
navigatur
navigaturs
navigaziun
navs
navy
nay
nazaret
nazi
nazionale
nazis
naziun
naziunal
naziunala
naziunalas
naziunalissem
naziunalissems
naziunalistic
naziunalistica
naziunalisticas
naziunalistics
naziunalists
naziunalitad
naziunalitads
naziunals
naziunalsocialissem
naziunalsocialistic
naziunalsocialistica
naziunalsocialisticas
naziunalsocialistics
naziunalsocialists
naziunela
naziunelas
naziuns
nazzaro
nba
nberg
nc
nca
nch
nchen
nchener
nchhausen
nchner
ncia
ncipe
nd
nde
ndel
nden
nder
nderbericht
ndern
ndert
nderung
nderungen
ndez
ndische
ndischen
ndler
ndlichen
ndner
ndnerisches
ndnerromanische
ndnerromanischen
ndnis
ndor
ndung
ne
neandertal
near
nebla
nebst
necessari
necessaria
necessariamain
necessarias
necessaris
necessita
necessitad
necessitada
necessitads
nectar
nederlands
need
neefe
neerlandais
neerlandaisa
negativ
negativa
negativas
negativs
negaziun
negin
negina
neginas
negins
negla
neglas
negligi
negligida
negozi
negozia
negoziar
negoziaziuns
negozis
negra
negri
neida
neil
neill
neir
neira
neisse
neiv
nel
nela
nella
nelly
nelson
nemann
nempe
nen
neo
neoclassic
neolatinas
neoliberalissem
neolitic
neolitica
neoliticum
neologissems
nepal
neptun
ner
nera
neretva
nero
ners
nerva
nervus
nes
nescha
nestle
net
netta
nettegiada
nettegiar
netto
network
netz
neu
neucha
neue
neuen
neuer
neuere
neueren
neues
neuesten
neuhaus
neum
neumann
neuordnung
neuschatel
neutier
neutral
neutrala
neutralisar
neutralita
neutralitad
neutrals
neuveville
neuzeit
nev
nevada
nevis
nevs
new
newald
newcastle
news
newton
ney
nez
nezza
nf
nfeld
nfelder
ng
nge
ngen
ngenbu
nger
ngere
ngeren
ngo
ngu
nguotta
nguye
nguyen
nh
nha
nhat
nhk
ni
nia
nianzas
nica
nicaragua
niccolo
nice
nicea
nicholas
nicht
nichts
nick
nicla
nicola
nicolas
nicolaus
nicole
nicolo
nicosia
niculo
niedergang
niederlande
niels
nielsen
niemeyer
nien
nies
niessegner
nietzsche
nietzsches
niev
nig
nige
nigel
niger
nigeria
night
nigra
nigs
nigsberg
nigshausen
nigstein
nihilo
nik
nikephoros
nikita
niklas
nikol
nikola
nikolai
nikolaus
niks
nil
nils
nimfas
nin
nina
ning
ningen
ningh
nintendo
nio
niod
nipperdey
nirvana
nis
nischa
nischas
nita
nitero
nitra
nitrogen
nitscholer
niv
niva
nivale
nivalis
nivel
nivels
nivs
nixon
niz
nizza
nizzaivel
nizzaivels
nizzaivla
nizzegia
nj
nkisch
nkische
nkischen
nl
nlanda
nlf
nm
nn
nne
nnen
nner
nnies
no
nobel
nobels
nobla
noblas
noblezza
noch
nocturna
noda
nodan
nodas
noe
nogger
nohlen
nokia
nola
nolte
nom
nomada
nomaden
nomads
nomen
nomenologie
nomens
nomina
nominads
nominal
nominala
nominalmain
nominar
nominaziun
nominescha
nomos
noms
non
nona
nonaunta
nor
nora
norbert
norbulingka
nord
nordamerican
nordamericana
norden
norderstedt
nordic
nordica
nordicas
nordics
nordost
nordrhein
nordvest
nore
norfolk
norge
noricum
norma
normal
normala
normalas
normalmain
normals
norman
normana
normandia
normans
normas
normativa
normativas
norske
north
northern
northumbria
norton
norvegia
norvegiais
norvegiaisa
norwegen
nos
noske
noss
nossa
nossadunna
nossadunnaun
nossaduonna
nossas
not
nota
notar
notas
note
notes
notg
notgs
notizen
notizia
notizias
notker
notre
nous
nouv
nouva
nouvas
nouveau
nouvelle
nov
nova
novaggio
novalis
novara
novarrivads
novas
novavel
novaziun
novaziuns
novel
novella
novellas
novelletta
november
novemberrevolution
novi
noville
novitad
novitads
novnaschi
novnaschids
novo
novs
novum
now
nowaja
nowak
nowgorod
noziun
noziuns
nozza
nozzas
nr
nrs
ns
nsdap
nste
nster
nstler
nt
nter
ntgen
nther
ntis
nts
ntsch
nu
nua
nubia
nuclear
nucleara
nuclearas
nuclears
nuco
nuda
nudadas
nudads
nudar
nuegl
nuf
nufenen
nufs
nulla
num
numa
number
nume
numer
numeri
numericamain
numers
numerus
numerusas
numma
numn
numna
numnada
numnadamain
numnadamein
numnadas
numnads
numnan
numnar
numnau
numnaus
numnava
numnavan
numno
numnond
nums
nun
nunabitada
nunagressiun
nuncartents
nuncontrollada
nuncritica
nundir
nundirigida
nunditg
nundumbraivels
nundumbraivlas
nunenconuschent
nunenconuschenta
nunenconuschentas
nunenconuschents
nunfini
nunfinida
nunguvernamentalas
nuninterrutta
nunintervenziun
nunmidabla
nunmidablas
nunproductiv
nunproductiva
nunpussaivel
nunpussaivla
nunspetgada
nunspetgadamain
nunsuccess
nuntutgabels
nunusita
nunusitada
nunviolenta
nuot
nuota
nuova
nur
nursa
nursas
nurser
nus
nusch
nuschaivel
nuschaivels
nuschaivla
nuschaivlas
nuschegl
nuschegls
nuschs
nutrescha
nutreschan
nutri
nutriment
nutrir
nutritiv
nutritivas
nutzen
nutzung
nva
nvta
ny
nyi
nyingma
nymphenburg
nyon
nz
nzz
o
oara
oasa
oasis
ob
obama
obedience
obedientscha
obedir
obelisc
ober
oberdorfer
oberengadin
obergesteln
oberhasli
oberland
obero
oberscheunen
obersimmental
oberst
oberwald
object
objectiv
objectiva
objectivitad
objectivs
objects
oblast
obliga
obligada
obligadas
obligads
obligar
obligatoric
obligatorica
obligatoricas
obligatorics
obligaziun
obligaziuns
obliquus
obres
obrist
observa
observada
observadas
observads
observan
observar
observations
observatori
observatur
observaturs
observava
observaziun
observaziuns
obsoleta
obstachels
obtegnair
obtegni
oc
occasiun
occident
occidental
occidentala
occidentalas
occidentals
occitan
occitans
occupa
occupada
occupadas
occupads
occupan
occupants
occupar
occupava
occupavan
occupaziun
occupaziuns
occupescha
occurrenza
occurrenzas
ocean
oceania
oceanic
oceanica
oceanicas
oceanics
oceans
och
ocher
ochs
ocrida
octava
octave
octavian
october
octupla
odd
oded
oder
odessa
odi
odia
odiern
odierna
odiernas
odierns
odissea
odoaker
odontophorus
odra
odur
odurat
odurs
odurusas
oecd
oeuvre
oeuvres
of
off
offensiv
offensiva
offensivas
offert
offerta
offertas
office
official
officinale
offra
offrescha
offrir
og
ogn
ogna
ognas
ogns
ogoz
oh
ohio
ohne
ohrid
oil
ois
oise
okarma
oklahoma
oktober
ola
olaf
olbia
old
oldenbourg
oldenburg
ole
olfactoric
olfactorica
olfactoricas
olga
oligarchia
olimpiada
olimpic
olimpica
olimpicas
olimpics
oliver
olivier
olivone
ollanda
ollandais
ollandaisa
ollandaisas
ollon
olma
olmas
olms
olocen
ologie
ologische
olten
olympia
olympic
olympics
olympische
olzog
om
omaduas
omadus
omaijads
oman
omarska
omc
ominids
ominins
omisdus
omogen
omogena
omonim
omosexualitad
omosexuals
on
onda
one
online
only
onn
onna
onns
ono
ons
onsernone
ontario
ontologia
onu
onur
onura
onurads
onuraivla
onuraziun
op
opec
opekta
open
opera
operar
operas
operated
operation
operativ
operativa
operativs
operava
operaziun
operaziuns
operescha
opfer
opiniun
opiniuns
opium
opladen
oppida
oppidum
opponan
opponents
opponer
opponi
opponida
opponids
opponiva
opponivan
opposition
opposiziun
opposta
oppostas
opposts
ops
optica
opticas
optimal
optimala
optimalas
optimar
optimats
optimissem
optimistica
opus
opziun
opziuns
or
ora
orac
orachel
oral
orala
oralas
oralitad
oramai
orange
oranje
oransch
oranschas
orasum
oratori
oratoris
oratur
oravant
oravontut
oraziun
orbe
orbis
orbit
orcans
orchester
orchesters
orchestra
orchideas
ord
ordaifer
ordavant
order
ordina
ordinada
ordinadas
ordinads
ordinar
ordinari
ordinaria
ordinaris
ordinatio
ordinaziun
ordinaziuns
ordino
ordlonder
ordnung
ordra
ordvart
oregon
orell
orelli
orf
orfens
org
organ
organic
organica
organicas
organisa
organisada
organisadas
organisads
organisar
organisation
organisatoric
organisatorica
organisatur
organisaturs
organisaziun
organisaziuns
organisescha
organissem
organissems
organization
organs
orgla
orglas
ori
orient
orienta
orientada
orientadas
orientads
oriental
orientala
orientalas
orientalis
orientals
orientar
orientava
orientavan
orientaziun
orientela
orientescha
orienteschan
origen
origin
original
originala
originalas
originalitad
originals
originar
originara
originaras
originars
origine
origins
oriund
oriunda
oriundamain
oriundamaing
oriundas
oriunds
orizi
orizont
orizontal
orizontala
orizontalas
orlando
orle
orleans
ormons
ormont
orna
ornada
ornads
ornaments
oro
oron
orrur
orrurs
orselina
orsie
orson
ort
orte
orticultura
ortodox
ortodoxa
ortodoxas
ortodoxia
ortodoxs
ortografia
orwell
os
osama
oscar
oscars
osce
osijek
oskar
osl
oslo
osmanic
osmanica
osmanicas
osmans
osnabru
ospital
ospitals
ospitant
ospitanta
ospitants
ospizi
oss
ossa
ossichels
ost
ostagis
osten
osterhammel
osteuropa
osteuropas
ostfildern
ostil
ostila
ostilas
ostilitad
ostilitads
ostrofrancon
ostrogots
oswald
ot
ota
oter
oters
otezza
otfried
otg
otganta
otgavel
other
otra
otras
ott
ottawa
otto
ottokar
ottons
ou
ouates
ouchy
oud
ouest
our
oura
out
outlook
output
ouvra
ouvras
ov
ova
ovala
ovals
ovari
ovas
over
overbeck
ovest
ovid
ovra
ovras
ovs
owen
oxford
oxidaziun
oxigen
oz
ozendi
ozildi
ozon
p
pa
pablo
pabst
pac
pachet
pachets
pacific
pacifica
pacificaziun
pacifistica
pacifitgar
pact
pader
paderborn
paders
padrin
padua
paesagis
paese
pag
paga
pagar
page
pagig
pagina
paginas
pagliola
pai
pail
pails
pailus
pailusa
paina
painas
paine
paintg
pairs
pais
paisa
paisan
paiver
paja
pajada
pajadas
pajads
pajais
pajament
pajaments
pajan
pajar
pajas
pajaun
pajauna
pajauns
pajavan
pakistan
pal
pala
palace
palaestra
palagnedra
palaiologos
palais
palantschieu
palantschieus
palat
palatin
palatina
palatinat
palau
palaz
palazi
palazs
palazzo
palc
pale
palentada
paleolitic
paleoliticum
palermo
palestina
palestinais
paletscha
paletta
paley
palfrader
palgrave
pali
palids
palidus
paliet
palissadas
pall
pallioppi
palm
palma
palmas
palos
palp
palpar
palpiri
palpiris
pals
paltoga
palu
pamflet
pan
panaduz
panaglia
panama
panchen
panda
pandakovic
pandemia
panegyricus
panel
pangea
panica
pannonia
pannonic
pannonica
panorama
panoramas
panoramica
panthera
pany
paola
paolo
papa
papal
papala
papalas
papals
papas
papat
papen
paper
papers
papias
papier
papillas
papirus
papla
paplas
papua
papyrossa
par
para
parablas
paracelsus
parada
paradas
parade
paradigma
paradis
paradiso
paradox
paragraf
paraguai
paraguay
paraid
paraids
parair
parairi
parairis
paralisa
parallel
parallela
parallelamain
parallelas
parallels
parameters
paran
parana
parar
parasits
paraula
paraulas
parc
parcellas
parchet
parco
parcs
pardus
paregl
pareglian
paregliar
paregliaziun
parent
parenta
parentada
parentadas
parentads
parentella
parents
pareva
parevan
parevlas
parey
pari
parinacota
paris
parisianas
parita
paritad
park
parker
parlament
parlamentar
parlamentara
parlamentaras
parlamentaris
parlamentarissem
parlamentars
parlaments
parler
parliament
parma
parmi
parochiala
parola
parolas
parpan
parro
pars
parsonz
parsura
parsuras
part
parta
partan
partei
partement
partements
partenadi
partenari
partenaria
partenaris
partenkirchen
partenz
partenza
parter
parti
partia
participa
participada
participadas
participads
participant
participantas
participants
participar
participaziun
participescha
participeschan
particlas
particular
particulara
particularas
particularitad
particularitads
particularmain
particulars
partida
partidas
partido
partids
partind
partir
partisans
partito
partivan
partiziun
partiziuns
parts
parturescha
partureschan
parturi
parturir
party
parvis
parzial
parziala
parzialas
parzialmain
parzials
pas
pasar
pasca
pascal
pasch
pascha
paschaivel
paschaivels
paschaivla
paschaivlas
paschiun
pascular
pasculaziun
pasculeschan
pasqua
pasqual
pass
passa
passada
passadas
passadi
passadis
passads
passager
passagi
passagiers
passan
passar
passascha
passaschas
passatemp
passau
passava
passavan
passenta
passentan
passentar
passentau
passepartout
passida
passidas
passiun
passiuna
passiunada
passiuns
passiv
passiva
passlung
passo
past
pasta
paster
pasters
pastg
pastget
pastgets
pastgira
pastgiras
pastizier
pastorala
pastoraziun
pastur
pasturs
pat
pate
patent
patenta
patentar
patentas
patents
pater
paterna
patertgar
patescha
pateschan
patg
patgs
pathways
pati
patinadi
patir
pativa
pativan
patmos
patnasa
patois
patoisans
patoisants
patos
patratg
patratga
patratgar
patratgs
patria
patriarc
patricia
patrick
patrimoine
patrimoni
patriot
patriotic
patriotica
patrioticas
patriotics
patriots
patrizians
patriziat
patruglia
patrun
patruna
patrunadi
patrunar
patruns
patterns
patua
pau
pauc
pauca
paucas
paucs
paul
paule
pauli
paulo
paulus
pauly
paun
pauper
paupers
paupra
paupradad
pauropoda
paus
pausa
pausas
pauschala
pavel
pavia
pavlar
pax
payerne
pays
paz
pazients
pazienza
pcd
pce
pcus
pdf
pe
peace
pearl
pearson
pectacon
peda
pedagog
pedagogia
pedagogica
pedal
pedals
peder
pederin
pedro
peduns
peer
pegiura
pegiurada
pegiuradas
pegiurar
pegiurativa
peglia
pegn
pei
peiden
peider
peilz
peirce
peis
peisa
peking
pel
pelegrin
pelegrinadi
pelegrinadis
pelegrins
pelizaeus
pella
pellas
pelle
pellitschas
peloponnaisa
peloponnes
pelpu
pels
pelvaira
penal
penala
penalas
penals
penalti
penda
pendan
pendant
pendenta
pendenza
pendiculara
pendo
pendula
pendus
penetienza
penetra
penetrada
penetradas
penetrads
penetrar
penetrescha
penetreschan
penguin
penh
peninsla
peninslas
peninsula
penis
penna
penninicum
pennsylvania
penny
penrose
pens
pensa
pensader
pensaders
pensan
pensar
pensava
penser
pensiun
pensiuna
pensiunads
pensiuns
pensum
pensums
pentagon
pentatlon
pentatonica
penultim
people
pepper
per
percepescha
percepeschan
percepi
percepida
percepidas
percepids
percepir
perceptibel
perceptibla
perception
percepziun
percepziuns
perche
percorscher
percunter
percurra
percurran
percurrer
percurri
percurrida
percurridas
percurs
perda
perdan
perdavant
perdavants
perdents
perder
perdet
perdeva
perdia
perdita
perditas
perditga
perditgas
perdu
perduna
perdunar
perduns
perdura
perdurar
pere
perencunter
perenna
perennial
perennis
perestroika
perfecziun
perfecziuna
perfetg
perfetga
perfin
performance
pergamon
pergiamina
periclita
periclitada
periclitadas
periclitads
periclitar
periclitaziun
periferas
periferia
perifericas
perina
perioda
periodas
periodica
periodicamain
periodicas
periodisaziun
perm
permanent
permanenta
permanentamain
permanentas
permanents
permess
permetta
permettan
permiss
permissiun
pernath
pernottaziuns
pero
perpeten
perpetna
perpetnadad
perpetnisa
perquai
perque
perquei
perrault
perrier
pers
persa
persas
perschun
perscripziuns
perscruta
perscrutada
perscrutader
perscrutaders
perscrutar
perscrutaziun
perscrutaziuns
perscrutescha
persecuziun
persecuziuns
persequita
persequitadas
persequitads
persequitar
persequitavan
persequitescha
persequiteschan
persia
persian
persiana
persianas
persians
persic
persistent
persistenta
persistenza
person
personal
persons
perspectiva
perspectivas
perspective
perspectives
perspektive
perspektiven
perstgisa
persuenter
persul
persula
persuls
persuna
persunal
persunala
persunalas
persunalitad
persunalitads
persunalmain
persunals
persunas
persunificaziun
persvader
persvadi
persvas
persvasiun
persvasiuns
pertgas
pertge
pertgei
pertgirar
perth
perthes
pertschaiver
pertschient
pertutga
pertutgada
pertutgadas
pertutgads
pertutgan
pertutgant
pertutgava
peru
peruan
perugia
pervi
pervia
pes
pesch
peschs
pest
pesta
pestalozzi
pestga
pestgaders
pesticids
pestilenza
petals
petar
pete
peter
peterchens
peters
petersberg
petersburg
peterson
petg
petga
petit
petiziun
peto
petra
petraea
petrarca
petrograd
petroli
petrus
petta
pez
pfa
pfalz
pfe
pfeffer
pfeil
pferd
pfingsten
pfister
pflanzen
pflanzensoziologische
pfung
pfyffer
pg
pgi
ph
pha
phane
phantastische
phantom
phasianidae
phil
philadelphia
philip
philipp
philippe
philipps
philologie
philomela
philosoph
philosophen
philosopher
philosophes
philosophical
philosophie
philosophische
philosophischen
philosophy
phnom
pho
phobos
phoenix
phokas
phone
php
phu
phylogenetic
phylogenetics
phylogeny
physical
physics
physik
physiker
physiologie
phytophthora
pi
pia
piacenza
piani
pianino
pianinos
pianist
piano
piarda
piars
piazza
piazzogna
pica
picasso
piccadilly
picea
pichel
pichler
pick
pico
pictur
pictura
picturas
picture
picturs
pieder
piemont
piemunt
pier
piero
pierre
piet
pietad
pieter
pietissem
pietro
pietus
pietusa
pietusadad
pievel
pievels
pigl
piglia
pigliaiva
pigliar
piglier
pigliet
piglio
pigment
pigmentaziun
pigments
pign
pignia
pigniu
pigns
pil
pilac
pilaster
pilasters
pileschs
pilot
pilots
pinaceae
pinacoteca
pink
pinta
pintga
pinus
piombino
pionier
pioniers
piper
pippin
pir
piramida
piramidas
pirat
pirataria
pirats
pireneas
pirir
piroclastic
pisa
pista
pistas
pistola
pitasch
pitg
pitga
pitgalain
pitgar
pitgas
pitschen
pitschens
pitschna
pitschnas
pittoresca
pittu
piu
piunier
piuniers
pius
piutschas
piv
piz
pizarro
pizs
pizza
pizzo
pl
pla
plac
placat
placats
place
placenta
placi
placidus
plai
plaid
plaids
plain
plaina
plaine
plains
plaiv
plaivs
plajas
plan
planck
planet
planets
planifitgada
planira
planiras
planisa
planisada
planisadas
planisads
planisar
planisava
planisaziun
planiv
planiva
planivas
plans
plant
planta
plantada
plantae
plantagenet
plantar
plantarum
plantas
plantascha
plantaschas
plantaziuns
plantinas
plants
planu
plascha
plaschair
plascher
plastic
plastica
plasticas
plat
plata
plateau
platin
platon
plats
platta
plattafurma
plattafurmas
plattamorta
plattas
plattner
platyphyllos
platz
plaun
plauna
plauncas
plaunet
plauns
plaunsieu
plaunsiu
plaunterren
plausibla
play
plaz
plazs
plazza
plazzada
plazzadas
plazzads
plazzals
plazzar
plazzas
pld
ple
please
plebeians
pled
pleda
pledader
pledaders
pledari
pledarigrond
pledavan
pledenta
pledescha
pleds
plein
pleistocen
pleistocene
pleiv
pleivs
plema
plenipotenza
plessur
pleticha
plevon
plevons
pli
plievgia
plima
plimas
plinavant
plinavon
pliniana
plinius
pliny
pliocen
plipart
pliras
plirs
plis
plitard
plitgunsch
plitost
plivalur
plo
plouda
plova
plovdiv
plu
plugls
plum
plural
pluralissem
pluralistica
pluralitad
plurilings
plurilingua
plurilinguas
plurilinguitad
plus
plymouth
pmid
pnas
pnb
pneus
po
poch
pocket
podestat
podgorica
poe
poemas
poesia
poesias
poet
poeta
poetessa
poetic
poetica
poeticas
poetics
poets
pogroms
pohl
pohle
poi
poincare
point
poitiers
pol
polac
polacs
poland
polans
polar
polara
polaras
poleis
polemica
polen
poli
poliakov
police
policist
policists
policy
polifonia
polinesia
polis
politecnica
politeisticas
politic
politica
political
politicamain
politicas
politicher
politichers
politics
politik
politikwissenschaft
politique
politisch
politische
politischen
politischer
politolog
politologia
polity
polizia
polizias
pollen
polluziun
polo
pologna
polonais
polonaisa
polonaisas
pols
polska
polybios
pom
pomarania
pomici
pompei
pompeian
pompeii
pompeius
pompeji
pompejus
pompidou
pompusa
pompusas
pon
pondera
ponderar
ponderaziun
ponderaziuns
ponis
pont
ponte
pontifical
pontificalis
pool
poor
pop
pope
poppa
popper
pops
popula
populada
populadas
populads
popular
populara
popularas
popularisa
popularitad
populars
population
populations
populaziun
populaziuns
populazuin
populera
populescha
populus
poque
por
poras
porcellana
porrentruy
pors
porscha
porschan
porsche
porscher
porschia
port
porta
portaflurs
portafritgs
portal
portals
portan
portas
portaviuns
portavusch
portg
portgets
portgs
portia
portian
portic
porto
portra
portrait
ports
portugais
portugaisa
portugaisas
portugal
pos
posa
poschiavino
poschiavo
posen
positiv
positiva
positivas
positivissem
positivs
posiziun
posiziuna
posiziunada
posiziunar
posiziuns
poss
posseda
possedan
posseder
possedeva
possedevan
possedi
possess
possessiuns
possessur
possessura
possessurs
possia
possian
post
posta
postal
postala
postalas
postals
postar
posteriur
posteriura
posteriuramain
posteriuras
posteriuritad
posteriurs
postfinance
postmoderna
posts
postula
postulada
postulat
postulats
postulescha
postum
postumum
potala
potential
potenzial
potenziala
potenzialmain
potenzials
potoc
potsdam
poum
pour
pouvoir
pover
povers
povra
povradad
povras
power
poznan
pp
pps
pr
pra
practice
prada
pradas
pradesh
prados
prads
praeger
prag
pragmatica
prague
praisa
praktische
praktischen
praschun
praschunia
praschunier
praschuniers
praschuns
pratic
pratica
praticamain
praticas
pratics
pratitga
pratitgada
pratitgadas
pratitgar
pratitgava
pratitgavan
pratitgeschan
prau
praus
pravenda
pravendas
praxis
pre
prealpina
prealps
preambel
precara
precautamain
precauziun
preceda
precedent
precedenta
precedentas
precedents
precedenza
precedu
precipitadamain
precipitaziun
precipitaziuns
precis
precisa
precisamain
precisas
precisiun
preclassica
precristian
precursur
precursura
precursuras
precursurs
preda
predation
predaturs
predecessurs
predegia
predgia
predicat
predicatur
predilecziun
predir
predis
preditg
preditgant
predominanta
predominanza
predomineschan
prefaziun
prefect
prefectura
prefecturas
preferenza
preferenzas
preferescha
prefereschan
preferi
preferida
preferidas
preferids
preferientscha
pregia
pregias
pregiudizis
pregnanta
pregny
prehistoric
preir
preis
preistorgia
preistoric
preistorica
preistoricas
preistorics
preits
prelats
prelecziun
prelecziuns
prelegi
preliminar
preliminara
prelitorala
prematura
premess
premi
premia
premias
premier
premiera
premio
premis
premissa
premissas
premodern
premoderna
premolar
premolars
premura
pren
prenda
prendan
prendend
prender
prendeva
prendevan
prendi
prendia
prendida
prendidas
prendids
prenum
prenums
prepara
preparada
preparadas
preparads
preparar
preparativas
preparatoricas
preparats
preparaziun
preparaziuns
prer
preroman
preromana
pres
prescha
preschaint
preschainta
preschent
preschenta
preschentada
preschentadas
preschentads
preschentan
preschentar
preschentas
preschentava
preschentavan
preschentaziun
preschentaziuns
preschents
preschentscha
preschientscha
prescripziuns
prescrit
preselecziun
present
presenta
presentiment
presenzcha
preservada
preservar
preservaziun
president
presidenta
presidents
presidenza
presidi
presidia
presidial
presidiala
prespa
press
pressa
pressburg
presse
presses
pressiun
pressler
prest
presta
prestada
prestan
prestar
prestaziun
prestaziuns
prestel
prestige
preston
presumtiva
presumziun
pretais
pretaisa
pretaisas
pretenda
pretendan
pretender
pretendeva
pretendevan
pretendi
pretendia
pretendida
pretendidas
pretensiun
pretensiuns
pretensius
pretensiusa
pretext
pretoria
pretsch
pretschs
preussen
preussische
prevala
prevalan
prevaleva
prevalevan
prevediva
prevegna
prevegnir
preventiv
preventiva
prevenziun
prevesa
prevesair
preveseva
prevesevan
previs
previsa
previsas
prezius
preziusa
preziusas
pri
price
priedi
priel
prilly
prim
prima
primar
primara
primaras
primarmain
primars
primas
primat
primats
primaudiziun
primavaira
primavera
primitiv
primitiva
primitivas
primminister
primo
primus
prince
princeps
princessa
princeton
princip
principadi
principadis
principal
principala
principalas
principalmain
principals
principat
principe
principel
principela
principes
principi
principles
princips
prins
prinsengracht
prinz
prinzi
prinzis
priori
prioritad
pris
prisca
priu
priva
privada
privads
privar
privat
privata
privatas
private
privatisaziun
privats
privaziun
privel
privels
privilegi
privilegia
privilegiada
privilegiads
privilegis
privlus
privlusa
privlusas
prix
prize
pro
probabel
probabilitad
probabla
probablamain
proband
probands
problem
problematic
problematica
problematicas
probleme
problems
probst
proceder
procedura
proceduras
proceedings
procent
procents
procentuala
process
processiun
processiuns
proclama
proclamada
proclamar
proclamaziun
proclamescha
procura
procuran
procurar
procuratur
procuravan
produ
producent
producents
producescha
produceschan
produci
producida
producidas
producids
producir
produciva
producivan
product
productiv
productiva
productivas
productivitad
products
producziun
producziuns
prof
profan
profanas
profans
professer
professers
professiun
professiunal
professiunala
professiunalas
professiunals
professiuns
professor
professur
professura
profet
profets
profezia
profi
profil
profila
profile
profis
profit
profita
profitan
profitar
profitescha
profiteschan
profund
profunda
profundamain
profundas
profunditad
profunditads
profunds
proget
progets
prognosas
prognostitga
program
programmatica
programms
programs
progredenta
progredir
progress
progressiv
progressiva
progressivas
project
projecta
projectadas
projects
projecziun
projecziuns
projekt
proletaria
proletariat
proletaris
prolog
prolunga
prolungada
prolungar
prolungaziun
prometheus
prominent
prominenta
prominents
promotur
promoturs
promova
promovan
promover
promovi
promovida
promovidas
promovids
promoziun
pronom
pronoms
pront
pronta
prontadad
prontas
prontezza
pronts
pronunzia
pronunziads
propaga
propagada
propaganda
propagandistics
propagava
prophet
propi
propona
proponer
proponi
proporz
proporziuns
proposta
propostas
proprietad
proprietari
proprietaris
propris
propugnatur
propyla
prorumper
prorut
proruts
prorutta
proruttas
prosa
prospects
prosperitad
prostituziun
proswenschtschenije
protagonist
protagonists
protected
protection
protectiva
protectorat
protectur
protectura
protecturat
protecturs
protecziun
protecziunistica
proteger
protegi
protegia
protegian
protegida
protegidas
protegids
proteins
protest
protesta
protestant
protestanta
protestantas
protestantissem
protestants
protestar
protestas
protests
proto
protocol
protocols
protoistorgia
protorassissem
proudhon
prova
provas
proveda
proveder
provedi
provedids
provediment
provegnientscha
provence
proverbis
proviant
provinces
provincia
provinz
provinza
provinzas
provinzia
provinzialas
provinzials
provisiun
provisiuns
provisoric
provisorica
provisoricamain
provoca
provocar
provocaziun
proxim
proxima
proximas
proxims
prozess
prozesse
pru
prubabel
prudent
pruir
prussia
prussian
prussiana
prussianas
prut
pruva
ps
psalm
psalms
pseudonim
pseudonims
psica
psichiatrics
psichic
psichics
psicologia
psicologic
psicologica
psicologicas
psicologics
psr
pss
psychologie
psychology
ptolemeus
ptolomeus
ptt
pu
publ
public
publica
publicamain
publicas
publications
publicaziun
publicaziuns
publicheda
publichet
publicho
publicist
publicistica
publicitad
publics
publique
publishers
publishing
publitga
publitgada
publitgadas
publitgads
publitgar
publitgescha
publius
pudain
pudair
pudaiva
puder
pudess
pudessan
pudessi
pudev
pudeva
pudevan
pudi
puerto
pufendorf
pugaus
pugn
puidoux
pula
pulenta
pully
pulmuns
pulp
pulpa
pulsatilla
pulschains
pult
pulvra
puma
pumera
pumicultura
pumpa
pumpas
pumpiers
pumpusa
punct
puncts
punctua
puni
punica
punids
punir
puniziun
puniziuns
punt
punta
puntcrap
puntera
puntg
puntgs
puntina
puntraschigna
punts
puorger
puppen
pur
pura
puramain
puras
purezza
purgatorio
purgiatieri
purificaziun
purificaziuns
purifitgar
puril
purila
purilas
purils
puritans
purpura
purs
purscheva
purschevan
purschi
purschida
purschidas
purschids
purta
purtada
purtadas
purtader
purtaders
purtadra
purtads
purtanta
purtanza
purtar
purtau
purtava
purtavan
purtret
purtreta
purtrets
purusha
puscha
puschas
puschels
puschina
puschla
puschlav
puschlev
puspe
puspei
pussaivel
pussaivels
pussaivla
pussaivladad
pussaivladads
pussaivlas
pussant
pussanta
pussantas
pussants
pussanza
pussanzas
pussaunza
pusseivel
pusseivladad
pussibel
pussibilita
pussibilitar
pussibilitava
pussibilitescha
pussibiliteschan
pustet
pustu
puter
putga
putgads
putgants
putnam
putsch
putschists
puławy
pyre
q
qa
qaida
qinghai
qu
qua
quacra
quacras
quadrat
quadrats
quadrels
quadret
quadrets
quai
qual
quala
qualas
qualche
qualificaziun
qualificaziuns
qualifitgada
qualifitgadas
qualifitgads
qualifitgar
qualitad
qualitads
quals
quant
quantas
quantitad
quantitads
quants
quantum
quantums
quaranta
quart
quarta
quartal
quartet
quartets
quartfinal
quartier
quartiers
quarts
quasi
quater
quaternary
quatre
quatter
que
quechua
queen
queensland
quei
queipo
quel
quela
quell
quella
quellas
quelle
quellen
quels
quercus
quest
questa
questas
question
questione
quests
qui
quia
quichua
quies
quiet
quieta
quietezza
quina
quindesch
quint
quinta
quintan
quintar
quintas
quintava
quinto
quints
quist
quista
quistas
quists
quita
quitads
quitau
quitaus
qullaw
quo
quota
quotas
quotidian
quotidiana
quotidianas
qusqu
r
ra
raab
rabins
race
races
racheta
rachetas
rachettas
racism
racolta
racoltar
racoltas
rada
radar
radek
radi
radiala
radiaziun
radical
radicala
radicalas
radicalisaziun
radicalissem
radicals
radio
radioactiv
radioactivitad
radiofonic
radiofonica
radios
radiotelevisione
radiotelevisiun
radis
radislav
radium
radius
radix
raduna
radunada
radunads
radunanza
radunanzas
radunar
radunava
radund
radunda
radundas
radunds
raeteis
raeti
raetia
raetica
raeumliche
rafael
raffael
raffinarias
raffiniert
ragaz
ragisch
ragischs
ragiundschet
ragn
rahman
rai
raig
railway
railways
raimund
rain
rainbow
rainer
rainier
raisonne
rait
raits
raivan
raiver
ral
rale
ralf
ralph
ram
rama
ramadan
ramanuja
ramassa
rameau
ramosch
rampa
rampign
ramurs
ran
rande
rang
rangaziun
rangifer
ranke
ranking
rankings
rant
raoul
rap
rapallo
raphael
rapida
rapidamain
rapids
rapiment
rapina
rapinaders
rapinads
rapperswil
rapport
rapporta
rapportan
rapportar
rapports
rapreschantant
raps
raquens
raquent
raquenta
raquentan
raquents
raquint
raquinta
raquintada
raquintadas
raquintader
raquintaders
raquintan
raquintar
raquintau
raquintaziun
raquintaziuns
raquints
rar
rara
raras
rard
raritad
raron
rars
ras
rasa
rasada
rasant
rasanta
rascha
rasche
raschun
raschunaivel
raschunaivla
raschuns
raspeda
raspedas
rassa
rassas
rassenwahn
rassismus
rassissem
rassist
rassistic
rassistica
rassisticas
rassistics
rastatt
rasulaunas
rata
ratas
ratgeber
rathenau
ratificaziun
ratifitga
ration
ratuns
rau
rauba
raubas
rauch
raul
raum
raunas
raunt
raupen
raurica
ravarenda
ravarendas
ravas
ravenna
ravgia
ravugl
rawls
ray
raymond
raze
raziunal
raziunala
raziunalas
raziunalissem
raziunalitad
raziunals
razza
razzas
rchen
rcher
rd
rdalsjo
rde
rderung
rdoba
rdt
re
reabilitaziun
reacquista
reacquistar
reactur
reacturs
reacziun
reacziunara
reacziunars
reacziuns
read
reader
reading
reagan
reagescha
reageschan
reagi
reagir
real
reala
realas
realenzyklopa
realexistent
realisa
realisablas
realisada
realisadas
realisads
realisar
realisau
realisaziun
realisescha
realiseschan
realissem
realistic
realistica
realisticas
realita
realitad
realitads
reality
reallexikon
reals
realsocialissem
realsocialistics
rearmament
reavert
rebatter
rebatti
rebattida
rebekka
rebella
rebelliun
rebels
rec
recensiun
recensiuns
recent
recenta
recentas
recents
recepescha
recepi
recepida
recepidas
recepids
recepir
receptur
recepturs
recepziun
recess
recessiun
rechatta
recht
rechts
rechtsphilosophie
recipient
recipients
reciproca
reclam
reclama
reclams
recolonisa
recolonisaziun
reconciliar
reconciliaziun
reconquista
reconquistada
reconquistar
reconstrucziun
reconstrucziuns
reconstrui
reconstruida
reconstruir
record
records
recreaziun
recruta
recrutar
recrutaziun
recruts
rectangulara
rectur
rectus
recumanda
recumandaziun
recumandaziuns
recumpensa
recuperar
recurra
recurrer
recurri
recurs
red
redactur
redacturs
redacziun
rede
reden
rediger
redigi
reding
reducescha
reduceschan
reduceschia
reduci
reducida
reducidas
reducids
reducir
reducziun
reducziuns
redux
reed
reeder
reediziun
reediziuns
reelecziun
reelegi
ref
refatg
referat
referats
reference
referendum
referendums
referenza
referescha
refereschan
refereschia
referi
referida
referids
referiment
referiments
referind
referir
referiva
referivan
reflecta
reflectada
reflectar
reflectescha
reflecteschan
reflections
reflex
reflexionen
reflexiun
reflexiuns
refluss
reform
reforma
reformada
reformation
reformatur
reformaziun
reformierten
refracziun
refrain
refu
refugi
refugis
refuorma
refuormada
refurma
refurmada
refurmadas
refurmads
refurmar
refurmas
refurmatoric
refurmatur
refurmaturs
refurmaziun
refurmeda
refurmedas
refurmo
refurmos
refurniment
refusa
refusada
refusaders
refusads
refusan
refusar
refusava
refusavan
refusaziun
refutar
regal
regala
regals
regel
regenerabla
regenerablas
regeneraziun
regensburg
regent
regenta
regentas
regents
regenza
regenzas
reger
reggenti
reggio
regi
regia
regian
regida
regidas
regids
regierung
regime
regiment
regiments
regina
reginam
reginavel
reginavels
regio
region
regional
regionalismus
regionen
regions
register
registers
registra
registrada
registradas
registrads
registrar
registraziun
registraziuns
registreschan
regiun
regiunal
regiunala
regiunalas
regiunalisaziun
regiunalissem
regiunals
regiuns
regiuvinar
regiuvinaziun
regiva
regivan
regl
regla
reglada
regladas
reglads
reglament
reglamentaziun
reglamentaziuns
reglaments
reglar
reglas
regna
regni
regnum
regorda
regordan
regress
regressiun
reguard
reguarda
reguards
regula
regulada
regular
regulara
regularas
regularitad
regularmain
regulars
regulaziun
regulaziuns
regurda
regurdanzas
regurdar
regurdientscha
regurdientschas
rehder
reich
reichenau
reiches
reichsgeschichte
reichstag
reichswehr
reihe
reimer
reims
rein
reinbek
reincarnaziun
reineke
reinen
reiner
reinhard
reinhardt
reinhart
reinhold
reinterpretaziun
reintroduci
reintroducziun
reise
reisen
reiter
relasch
relascha
relaschada
relaschadas
relaschads
relaschar
relaschs
relata
relatan
relation
relations
relativ
relativa
relativamain
relativescha
relativita
relativitad
relativity
relaziun
relaziuns
release
relegaziun
relevant
relevanta
relevantas
relevants
relevanza
relict
relicts
reliev
relievs
religio
religion
religionen
religions
religionswissenschaft
religiosita
religious
religiun
religiuns
religius
religiusa
religiusadad
religiusas
reliquias
remagliaders
remagliar
remartga
remartgabel
remartgabla
remartgablas
remartgas
remessa
remi
reminent
reminiscenzas
remis
remisas
remischun
rempar
rempars
remplazza
remplazzada
remplazzadas
remplazzads
remplazzan
remplazzar
remplazzond
remus
ren
renaissance
renan
renania
renascher
renaschientscha
renata
renate
renault
renconuscha
renconuschan
renconuscher
renconuschi
renconuschian
renconuschida
renconuschidas
renconuschids
renconuschientscha
renda
rendan
render
rendevan
rendi
rendida
rendidas
rendids
rendita
rene
renens
rengger
rennert
renova
renovada
renovar
renovaziun
renreiter
rens
renta
rentabilitad
rentabla
rentas
rentschs
renum
renuma
renumada
renumadas
renumads
renumna
renumnada
renumneda
renumnedas
renumno
renunzia
renunziar
renvia
renviaments
renviar
renviescha
renvieschan
renzo
reorganisa
reorganisaziun
reorientaziun
reparaziun
reparaziuns
reparta
repartan
reparter
reparti
repartida
repartidas
repartids
repartiziun
repassada
repercussiuns
repertori
repeta
repetan
repeter
repeti
repetidamain
repetiziun
replica
report
reportaschas
reporter
reporters
reprenda
reprender
reprendi
represchenta
represchentada
represchentadas
represchentads
represchentan
represchentant
represchentanta
represchentants
represchentanza
represchentanzas
represchentar
represchentativ
represchentativa
represchentativas
represchentativs
represchentava
represchentavan
represchentaziun
represchentaziuns
represchentia
representa
repressalias
repressiun
repressiuns
repressivas
reprint
reproduci
reproducir
reproducziun
reproscha
reproschas
reptils
repu
repubblica
republic
republica
republican
republicana
republicanas
republicans
republicas
republik
republika
reputaziun
rer
rerum
res
resalva
resalvas
resalvond
reschen
reschia
reschim
reschims
reschissur
reschissurs
rescuvert
rescuverta
research
resenta
resenti
resentida
resentidas
resentiments
reserva
reservada
reservadas
reservads
reservas
reservat
reservats
reservuar
resgia
resguard
resguarda
resguardada
resguardadas
resguardads
resguardan
resguardar
resguardava
resguardavan
resguardia
resguardond
residenta
residents
residenza
residenzas
residenziala
residiava
residiavan
resista
resistance
resistent
resistenta
resistenza
resistenzas
resister
resolution
resoluziun
resoluziuns
resonanza
resorta
resortan
resorti
resortida
resortidas
resortids
resortir
resource
resources
resp
respect
respecta
respectabel
respectabels
respectabla
respectar
respectiv
respectiva
respectivamain
respectivas
respectivmaing
respectivs
respira
respiraziun
resplenda
responsabel
responsabels
responsabla
responsabladad
responsablas
response
resposta
respostas
respunda
respundan
respunder
respundi
rest
resta
restabili
restabilida
restabiliment
restabilir
restada
restadas
restads
restampa
restan
restant
restanta
restantas
restants
restanza
restanzas
restar
restaura
restaurada
restaurant
restaurants
restaurar
restauration
restaurativas
restauraziun
resti
restia
restian
restitui
restituir
restituziun
restle
restrenscha
restrenschan
restrenscher
restrenscheva
restrenschi
restrenschida
restrenschidas
restrenschids
restrictiva
restricziun
restricziuns
restructuraziun
rests
resu
resulta
resultada
resultadas
resultads
resultan
resultar
resultat
resultats
resultava
resultavan
resultia
resultian
results
resuma
resumar
resumaziun
resumescha
resumond
resun
resuna
resunan
resurrecziun
resursa
resursas
resvegl
retard
retarda
retardada
retardament
rete
retegna
retegnair
retegnan
retegni
retegnida
retegnids
retegnientschas
retg
retgav
retgs
retic
retica
reticas
retina
retira
retirada
retiran
retirava
retiria
retirian
reto
retorica
retoromanas
retorsiun
retorumantsch
retorumantscha
retorumantschas
retrair
retratg
retratga
retratgas
retratgs
retroacziun
retrospectiva
retroterra
rets
retscha
retschaiva
retschaivan
retschaiver
retschas
retschavi
retschavida
retschaviders
retschercha
retschertga
retschertgas
retschet
retschiert
retuorn
return
returna
returnada
returnadas
returnads
returnan
returnar
returnond
reumatissem
reuni
reunida
reunidas
reunids
reunir
reuniun
reuniuns
reuss
reussescha
reusseschi
reusseschia
reussi
reussida
reussidas
reussids
reussir
reuter
reuters
rev
revalitaziun
reveder
revedi
revedida
revegni
revegnida
revegnir
revelaziun
reverenda
reverendas
revier
reviers
review
reviews
revision
revisited
revisiun
revisiunissem
revisiuns
revista
revistas
revival
reviver
revoca
revocada
revocar
revolta
revoltants
revoltas
revolution
revolutiona
revolutionen
revoluziun
revoluziuna
revoluziunar
revoluziunara
revoluziunaras
revoluziunaris
revoluziunars
revoluziuns
revolver
rex
rey
reykjavi
rez
rezeption
rezia
rfa
rfli
rg
rga
rgen
rger
rgerkrieg
rgerliche
rgerlichen
rgerwelt
rgy
rha
rhein
rheinfelden
rheinische
rheinland
rhiel
rhino
rhinoceros
rhinos
rho
rhodes
rhododendron
rhodos
ri
ria
rian
riatsch
ric
rica
ricarda
ricardo
rich
richard
richards
richardson
riche
richelieu
richet
richmond
richter
richthofen
rick
ricla
rico
rida
ridischoras
rie
ried
riedel
rieger
riehen
riehl
riein
riemann
riemer
rien
ries
rietberg
rievens
riga
rigaisa
rights
rigida
rigurus
rigurusa
rigurusas
rigveda
rijeka
rila
rima
rimas
rime
rimini
rimna
rimnada
rimnadas
rimnaders
rimnads
rimnan
rimnar
rimnavan
rin
rinfatscha
rinfatschas
rinforz
rinforza
rinforzada
rinforzadas
rinforzads
rinforzament
rinforzar
rinforzia
ring
ringen
ringo
rinoceros
rintg
rintgs
rio
riom
rippert
rir
ris
risch
rischlas
rise
risico
risk
risorgimento
rispunda
ristg
ristga
ristgar
ristgas
ristgs
rita
ritg
ritga
ritgamain
ritgas
ritgezza
ritgezzas
ritgs
ritmica
ritmus
ritschl
ritter
rittmann
ritual
rituala
rituals
ritus
riva
rival
rivalisants
rivalitad
rivalitads
rivals
rivas
rivaun
rivaz
river
rivera
rivet
riviera
rk
rke
rkei
rko
rm
rme
rmer
rn
rnberg
rndu
rner
rno
rnu
ro
road
robert
roberto
roberts
robespierre
robin
robinson
robur
robusta
roc
roche
rock
rocky
rocla
rococo
roda
rodaglias
rodan
rodas
rodopas
rodrigo
rodund
rogeno
roger
rogers
rohan
rohde
rohe
rohwer
roial
roiala
roialas
roialitad
roials
roland
role
rolf
roll
rolla
rollas
rolle
rolling
rollo
roloff
rom
roma
romagna
roman
romana
romanas
romance
romand
romanda
romande
romands
romanel
romani
romania
romanic
romanica
romanisada
romanisaziun
romanisch
romanische
romanischen
romanist
romanistica
romano
romans
romantic
romantica
romanticas
romantichers
romantics
romantik
romantische
romanum
romanza
romauna
romauns
rombach
rome
romeo
romins
rommel
romont
romontsch
romontscha
romontschas
romontschs
roms
romulus
ron
rona
ronald
ronco
rond
rondo
roni
roosevelt
root
rororo
ros
rosa
rosamond
rosario
rosas
roschada
rose
rosen
rosenberg
rosenheim
rosenman
rosetta
rosettas
roskilde
ross
rossa
rossberg
rossi
rossini
rostock
rot
rotaziun
rotbuch
rote
roten
rotfuchs
roth
rotpunktverlag
rotscha
rotschas
rotterdam
roubaix
rouge
rousseau
rousseaus
routing
routledge
rovana
roveredo
rowohlt
roy
royal
rpa
rper
rr
rrenmatt
rs
rsch
rsi
rsten
rstentum
rt
rten
rter
rterbuch
rth
rtige
rtl
rtner
rtr
rts
rttemberg
ru
ruanda
ruassaivel
ruassaivla
ruassar
ruaus
ruaussa
ruaussan
rub
rubadurs
rubens
rubin
rude
rudella
rudent
rudi
rudimentar
rudimentara
rudlar
rudolf
rudolfensis
rudolph
rue
rueras
rueun
ruf
rufus
rugby
rugna
ruhr
ruiders
ruier
ruina
ruinas
ruinaulta
ruissas
ruiz
rum
ruma
rumantsch
rumantscha
rumantschas
rumantschgrischun
rumantschia
rumantschs
rumauntsch
rumauntschs
rumen
rumena
rumenas
rumenia
rumens
rument
ruments
rumi
rumida
rumir
rummel
rumpa
rumpan
rumper
runals
runas
runcada
runcadas
runda
rundas
rundfunk
rundschau
rung
runtgaglia
ruosna
ruprecht
ruptura
rupturas
rural
rurala
ruralas
rurals
rus
ruschein
rusna
russ
russa
russas
russe
russel
russell
russia
russian
russificaziun
russin
russische
russischen
russland
rustg
rustgs
rut
ruta
rutas
ruth
ruts
rutta
ruttadira
ruttadiras
ruttas
ruver
ruvers
rvi
ry
ryan
rz
rzburg
rður
s
sa
saale
saanen
saar
saarbru
saarland
saas
saba
sabel
sabi
sabientscha
sabine
sabis
sablun
sablunus
sabotascha
sac
sacerdot
sacerdots
sachalin
sachsen
sacral
sacrala
sacrals
sacramaints
sacrament
sacraments
sacrifizi
sacro
sacrum
sad
safari
safety
safran
saga
sagas
sage
sagen
sagogn
sahara
sai
said
saida
saigon
saimaa
sain
saint
sainte
sainza
saira
sairas
saiv
saivs
saja
sajan
sajet
sajets
sajetta
sajettada
sajettadas
sajettads
sajettar
sajettavan
sakya
sal
sala
salamander
salamanders
salari
salas
salazar
sale
salesch
saleschs
salid
salieri
saliers
salinas
salis
salit
salix
salmun
salome
salomon
salon
salouf
sals
salt
saltar
saltunza
salu
salun
saluns
salv
salva
salvada
salvader
salvador
salvamaint
salvament
salvar
salvatore
salzborn
salzburg
sam
samaranch
sambia
samedan
sami
samignun
sammlung
samnaun
samnits
samo
samoa
sams
samsara
samsung
samuel
samuelson
san
sana
sanadad
sanaziun
sanctuari
sanctuaris
sancziuns
sandra
sandro
sandstein
sandwich
sanester
sanestra
sanestras
sanestrers
sang
sanggye
sanguinus
sanguinusa
sanguinusamain
sanguinusas
sanitad
sankt
sanne
sanscrit
sansculottes
sant
santa
santana
santeri
santeris
santiago
santificaziun
santo
santos
sants
sanzeno
sao
sapere
saphorin
sapiens
sapientiva
sapientivamain
sappi
sappia
sar
sara
saracens
saragossa
sarah
sarajevo
sarament
sard
sardegna
sargans
sarina
sarine
sarn
sarno
saro
sartre
sas
sasez
sasezs
sasezza
sasezzas
sassanids
sasso
sat
satan
satellit
satellits
satg
satget
satgets
satgs
satigl
satiglia
satiglias
satigls
satira
satiricas
satisfacziun
satisfar
saturn
sauar
sauaziun
saudita
sauer
saul
sauma
saun
sauna
saung
sauns
saurs
saut
sauta
sautar
sauts
sautunza
sava
savain
savair
savanna
savannas
save
savend
savens
saver
savess
savessi
saveva
savevan
savi
savida
savigny
saviu
savognin
savoia
savonarola
savur
savura
savuran
savurar
savurs
sax
saxon
saxona
saxonia
saxons
say
saz
sbagl
sbagliada
sbagliadas
sbagls
sbartga
sbartgada
sbartgar
sbassa
sbassada
sbassadas
sbassan
sbassar
sbatter
sbitta
sblundregia
sblundregiada
sblundregiadas
sboz
sbozs
sbratgs
sbucca
sbuccada
sbuccan
sbursar
sc
scadin
scala
scale
scalin
scalina
scandal
scandals
scandinav
scandinava
scandinavas
scandinavia
scandinavissem
scandinavs
scania
scantschala
scanvetg
scappa
scappar
scarlet
scartira
scartiras
scazi
scena
scenari
scenaris
scenas
sceptica
sch
scha
schaan
schabain
schabegia
schabegiau
schabetg
schabetgs
schach
schaffhausen
schaffusa
schah
schai
schandarmaria
schanegia
schanegiar
schaner
schanugl
schanuglias
schanza
schanzas
schapur
schar
scharia
schatten
schau
schauspielhaus
sche
schebain
sched
schef
schefcumandant
scheffa
schefs
schegea
schegie
scheidemann
scheitern
schela
schelada
schelentar
schelira
schellenberg
schelling
schelta
schema
schemas
schember
schembers
schen
schend
schender
schendra
schenen
schengen
scheni
schenk
schenkel
scherm
schermigliar
schermigliaziun
scherms
scherz
scheunen
scheva
schevan
schi
schia
schibetta
schibettas
schicksale
schieffer
schientscha
schiff
schiglioc
schiits
schiller
schilling
schimgias
schimun
schindler
schisma
schizun
schizunt
schlagher
schlans
schlantsch
schlargia
schlargiada
schlargiadas
schlargiament
schlargian
schlargiar
schlarigna
schlatta
schlattaina
schlattainas
schlattas
schlatteina
schlegel
schleicher
schleiermacher
schlemihl
schlemihls
schlesia
schleswig
schlia
schliada
schliadas
schliads
schlian
schliar
schliaziun
schliaziuns
schlieffen
schliemann
schliet
schlo
schloss
schlu
schlucca
schluccada
schluccar
schluein
schlumpf
schmetterlinge
schmetterlingsfu
schmid
schmidt
schmitt
schmitz
schmorell
schnaus
schnee
schneid
schneider
schneiders
schneidmu
schner
schnestra
scho
schoc
scholl
scholz
schon
schons
school
schopenhauer
schormann
schorta
schott
schovinissem
schrift
schriften
schriftenreihe
schriftsteller
schro
schroeder
schu
schubert
schubra
schuchardt
schuck
schulda
schuldada
schuldads
schuldas
schuldau
schule
schulin
schultze
schulz
schulze
schumacher
schumann
schumber
schumbers
schumellinas
schumellins
schuppa
schurmetg
schurnal
schurnaliers
schurnalist
schurnalists
schuster
schutz
schwa
schwab
schwabe
schwabing
schwartz
schwarz
schwarze
schwarzen
schwarzerle
schweden
schweiz
schweizer
schweizerische
schweizerischen
schweizerisches
sci
science
sciences
scientific
scientifica
scientificamain
scientificas
scientifics
scientist
scientists
scienza
scienzads
scienzas
scienzia
scienziads
scits
sclauder
sclaus
sclav
sclavaria
sclavitid
sclavs
scleri
sclerida
sclerids
scleriment
sclerir
sco
scol
scola
scolada
scolads
scolar
scolaras
scolars
scolas
scolast
scolasta
scolastic
scolastica
scolasts
scolaziun
scoletta
scolinas
sconfitta
sconfittas
scoperta
scorbut
scorsa
scorsas
scossa
scossas
scot
scots
scott
scoula
scoulas
scozia
scret
screts
scretta
scribent
script
scriptur
scriptura
scripturas
scripturs
scripziun
scrit
scrits
scritta
scrittas
scrittira
scrittiras
scrittu
scriva
scrivan
scrivant
scrivent
scriver
scriveva
scrivevan
scrofa
scrupels
scu
scufla
scuidanza
scuidus
sculptur
sculptura
sculpturas
sculpturs
scumanda
scumandada
scumandadas
scumandads
scumandar
scumandau
scumbigl
scumbigls
scumond
scumonds
scuntra
scuntrada
scuntradas
scuntrads
scuntran
scuntrar
scuntravan
scuol
scursani
scursanida
scursanidas
scursanir
scut
scutari
scuvert
scuverta
scuvertas
scuverts
scuvra
scuvri
scuvrider
scuvrir
sd
sdrima
sdrimas
sds
se
sea
sean
search
searchphrase
seasonal
seato
sebasa
sebastian
sebeok
secatta
secession
secessiun
second
secre
secret
secreta
secretari
secretaria
secretariat
secretaris
secretas
secrets
secreziun
secta
sectas
sector
sectur
secturs
secular
seculara
secularas
secularisa
secularisaziun
seculars
secund
secunda
secundar
secundara
secundaras
secundars
secundas
secundus
security
secziun
secziuns
sed
sedecida
sedentara
sederscha
sedesch
sedia
sedias
sediment
sedimentaziun
sediments
sedrun
see
seeland
seele
seelisberg
seemacht
seewis
sefardim
segal
segantini
segen
segi
segir
segira
segirada
segiramain
segirar
segiras
segirescha
segirezza
segirs
segirtad
segiurn
segiurns
segl
seglia
seglias
segls
segment
segments
segn
segna
segnada
segnadas
segnads
segnar
segnas
segner
segns
segregaziun
segua
seguaints
seguit
segund
segunda
segundas
seguond
seguonda
sehnsucht
sehr
sei
seifert
seigi
seigien
sein
seine
seinem
seinen
seiner
seines
seis
seismica
seismicas
seit
seite
seiten
seiv
sel
selai
selbst
selbstzeugnissen
seldschucs
selected
selection
selecziun
selecziunar
seleuchids
self
selina
selitz
sella
selma
selva
selvadi
selvadia
selvadias
selvadis
selvaschina
selvicultura
sem
semadeni
semantica
semeglia
semess
semester
semesters
semestril
semetta
semi
semideserts
seminari
semitica
semiticas
semlja
sempach
sempel
sempels
semperverda
semperverdas
semplamein
sems
semuossa
sen
senat
senatur
senaturs
sench
sencha
senda
sendai
sendas
senegal
senescenza
seniastra
senn
senna
senns
sensaziun
sensaziuns
sense
sensibel
sensibels
sensibilitad
sensibla
sensibladad
sensiblas
sensitiv
sensitiva
sensitivas
sensitivs
sensorica
sensual
sensuala
sensualas
sensualitad
sensuals
sensurs
sent
senta
sentan
sentenza
sentenzas
sentenzia
sentenziadas
sentenziads
sentenziar
sentenzias
senti
sentida
sentiment
sentimentala
sentimentalitad
sentiments
sentir
sentiva
sentivan
sentupada
senumna
senz
senza
seoul
separa
separada
separadamain
separadas
separads
separar
separatissem
separatista
separatisticas
separats
separaziun
september
septuaginta
sepulcrala
sepuli
sepulida
sepulidas
sepulids
sepulir
sepultura
sepulturas
sequent
sequenta
sequenza
sequenzas
ser
sera
seraplana
serb
serba
serbas
serbia
serbien
serbocroat
serbs
seregorda
serena
serenade
serenar
serenaziun
serenera
sereneras
serengeti
sergei
sergio
seria
serias
serie
series
serius
seriusa
seriusamain
seriusas
serp
serps
serra
serrada
serradas
serrads
serran
serrar
serras
serravalle
serva
servan
server
servers
servetsch
servetschs
servezzan
servi
servia
servian
service
services
servida
servids
servient
servients
serviladad
servind
servir
servitid
serviva
servivan
servs
ses
sesa
sesan
sesanfla
sesanflan
sesemann
sesent
sesenta
sesentas
sesents
seser
seseva
sesevan
sesez
sesezza
sesida
sesidas
sesiun
sesprova
sessa
session
sestri
set
setga
setgentada
setgentads
setgira
seth
setracta
sets
settavel
settavla
settember
settentriunal
settentriunala
settentriunalas
settentriunals
seu
seuil
sever
severa
several
severamain
severas
severin
severs
severus
sevgein
sevilla
sex
sexual
sexuala
sexualas
sexualitad
sexualmain
sexuals
seychellas
sez
sezs
sezza
sezzas
sf
sfalsifitgads
sfera
sferas
sfessa
sfessas
sfida
sfidas
sforz
sforza
sforzs
sfradament
sfradenta
sfradentada
sfradentar
sfrana
sfranada
sfratga
sfroos
sfruttament
sfruttar
sfuigna
sfundra
sfundrada
sfundrar
sfunsar
sfurza
sfurzada
sfurzadamain
sfurzadas
sfurzads
sfurzar
sg
sgarschur
sgol
sgola
sgolan
sgols
sgrattatschiels
sgrifliezs
sgt
sgu
sguard
sgula
sgulada
sgulads
sgulant
sgulants
sgular
sh
shadow
shaftesbury
shakespeare
shakti
shaktissem
shanghai
shaqiri
shaw
she
sheen
sheffield
shell
sherlock
shire
shiva
shivaissem
shkodra
shoah
short
show
shqipe
shrewsbury
shri
si
sia
siadora
siand
siara
sias
siat
sibelius
sibiria
sibiric
sica
sich
sicht
sichuan
sicilia
sid
sidafrican
sidafricana
sidafricanas
sidafricans
sidamerican
sidamericanas
siddhartha
sident
siders
siderurgia
sidost
sidretg
sidvest
sidvietnamais
sie
siebeck
sieben
siedler
sieg
siegbert
siegen
siegfried
siemann
siemens
siemi
siemia
siemis
sien
sierra
sierre
sieu
sieus
sifilis
sigil
sigilla
sigillada
sigils
sigir
sigisbert
sigismund
sigl
siglia
siglienta
siglir
sigls
sigmaringen
sigmund
sign
signal
signalament
signals
significanta
significativ
significaziun
significha
significhescha
signifitga
signifitganta
signifitgar
signifitgava
signifitgescha
signun
signur
signura
signuradi
signuradis
signuria
signurila
signurs
sigurd
sikhissem
sikkim
sil
silba
silbas
silberbauer
silberberg
silbermann
silberweide
silena
silene
silenzi
silesia
silesian
silex
silicat
sill
silla
sils
silsuenter
siluetta
silva
silvania
silvaplana
silvaplauna
silver
silvester
silvio
simbabwe
simbiosa
simbol
simbolic
simbolica
simbolicamain
simbolicas
simbolisescha
simboliseschan
simbolissem
simbols
simeon
simmetria
simmetrica
simon
simone
simpatia
simpatic
simpatisants
simpatisava
simpel
simpels
simpla
simplamain
simplas
simple
simplifitga
simplifitgada
simplifitgar
simplon
simpson
simson
simulaziun
sin
sinagoga
sinagogas
sinai
sinapsids
sinaquai
sinaquei
since
sincera
sincronisaziun
sind
sindicala
sindicat
sindicats
sindrom
sine
sinestra
sinfonia
sinfonias
sinfonica
sinfonie
sing
singapur
singen
singer
single
singles
singul
singula
singular
singulara
singulas
singuls
sinn
sinne
sinoda
sinodas
sinonim
sinonima
sinonims
sinoptichers
sinoptics
sint
sintaxa
sintesa
sintetic
sintetica
sinteticas
sinti
sintoms
sio
sion
sir
siria
sirian
siriana
sis
sisavel
sisavla
sische
sischen
sistance
sistem
sistema
sistematic
sistematica
sistematicamain
sistematicas
sistematics
sistematisar
sistems
sisti
sisum
sitar
site
sitg
sitga
sitgas
sitgira
sitgs
sittar
sitten
situa
situada
situadas
situads
situar
situation
situaziun
situaziuns
siu
siva
six
sixtina
sjw
sjælland
sk
ska
skelet
skelets
ski
skis
skiunz
skizza
skizzas
skopje
skowola
sky
slam
slav
slava
slavas
slavery
slavonia
slavs
sliwa
slm
slovac
slovaca
slovacas
slovachia
slovacs
slovakia
sloven
slovena
slovenas
slovenia
slovens
slovensko
slowakei
slowenien
slums
sm
small
smanatscha
smanatschada
smanatschadas
smanatschads
smanatschan
smanatschant
smanatschanta
smanatschar
smanatschas
smanatschava
smanatschavan
smanatschond
smarschim
smartphone
smartphones
smarty
smatga
smatgar
smess
sminar
sminuescha
sminui
sminuida
sminuidas
sminuir
sminuziun
smith
smithsonian
sms
snega
snegan
snegar
snorri
so
soares
sobibor
soboul
soccer
social
sociala
socialas
socialdemocrat
socialdemocrata
socialdemocratic
socialdemocratica
socialdemocraticas
socialdemocrats
sociale
socialisaziun
socialism
socialissem
socialist
socialista
socialistas
socialistic
socialistica
socialisticas
socialistics
socialists
socialmain
socialrevoluziunars
socials
socie
societa
societad
societads
societed
societeds
societies
society
socio
sociolog
sociologia
sociologica
sociologics
sociology
sociopolitica
sociopoliticas
socrates
sofia
sofists
software
soglio
sogn
sohn
sokrates
sol
sola
solanki
solar
solara
solars
solas
solche
soldanella
soldanellas
soldat
soldaten
soldiers
sole
soleil
solid
solida
solidaritad
solidarnos
solidbody
solists
solit
solitari
solitaria
solitariadad
solitaris
soll
solo
solomon
solothurn
soloturn
solstizi
soluziun
soluziuns
som
somalia
sombras
some
someo
somma
somme
sommer
son
sonata
sonatas
sonate
soncha
sonda
sondagi
sondas
sondrio
sonets
song
songs
sonne
sonor
sonoras
sonorisaziun
sonors
sons
sontg
sontga
sontgaclau
sontgas
sontgilcrest
sontgs
sontheimer
sonvico
sony
sophia
sophie
sopra
sopraceneri
sora
soras
sorb
sorber
sorbers
sorbs
sorbus
sorex
sort
sorta
sortan
sortas
sortescha
sorti
sortia
sortida
sortidas
sortids
sortir
sorts
sos
sottoceneri
soul
sound
sounds
soundtrack
sources
sous
south
southeast
southern
souvenirs
souvera
soviet
sovietic
sovietica
sovieticas
sovietics
soviets
sowards
sowie
sowjetische
sowjetunion
soz
sozial
sozialdemokratie
sozialdemokratische
soziale
sozialen
sozialgeschichte
sozialismus
sozialisten
sozialistische
sozialwissenschaften
soziologie
sp
spa
space
spada
spadas
spagna
spagnol
spagnola
spagnolas
spagnols
spain
spaisa
spaisas
spanien
spanische
spanischen
spanish
spannungsfeld
spargn
spargnar
spari
sparida
sparidas
sparids
spariziun
sparpaglia
sparpagliada
sparpagliadas
sparpagliads
sparpagliaziun
sparrman
sparta
spartachists
spartacus
spartan
spartas
sparter
sparti
spartida
spartidas
spartids
spartiziun
spartiziuns
spass
spassegiada
spatla
spatlas
spazi
spaziala
spazialas
spazis
spazitemp
spd
spe
special
speciala
specialist
specializada
specialmaing
speciel
species
specific
specifica
specificamain
specificas
specifics
spectacul
spectacular
spectaculara
spectacularas
spectaculars
spectrum
specula
specular
speculaziun
speculaziuns
spedidas
spedir
speditur
spediziun
spediziuns
spegnas
spektrum
spel
spelaea
spelm
spelms
spencer
spendra
spendrament
spendrar
sper
spera
speranza
speranzas
sperar
sperasvi
sperava
speravan
sperdita
sperditas
sperma
sperond
speronza
spert
sperta
spertadad
spertadads
spertamain
spertas
sperts
spescha
spess
spessa
spessamain
spessas
spessezza
spetga
spetgan
spetgar
spetgava
spetgavan
speyer
spezaria
spezarias
spezia
spezial
speziala
spezialas
spezialisa
spezialisada
spezialisadas
spezialisads
spezialisaziun
spezialist
spezialists
spezialitad
spezialitads
spezialmain
spezials
spezias
spezielle
spida
spiegel
spieghel
spiel
spielberg
spiele
spier
spiert
spiertal
spiertala
spiertalas
spiertals
spierts
spievel
spievels
spigias
spina
spinas
spindler
spindrar
spinne
spinoza
spir
spira
spirala
spirit
spiritual
spirituala
spiritualas
spiritualitad
spirituals
spirituelas
spital
spitg
spitgar
spitzbergen
spitzer
spiunadi
spiunar
spiunascha
splagias
splega
splegada
splegan
spleia
splerins
split
spo
spol
sponsurs
spontana
spontanamain
sporadicamain
sport
sporting
sportist
sportists
sportiva
sportivas
sports
sportverlag
sposta
spostan
spot
sprach
sprache
sprachen
sprachwissenschaft
spread
sprecher
spretsch
spring
springer
springfield
sprint
spruva
spunda
spundas
spungia
spuonda
spur
spuren
spus
spusa
spussa
spussada
spusta
spustada
spustadas
spustads
spustament
spustaments
spustar
sputnik
spyri
squadra
squadras
squadriglia
squadriglias
squagls
squama
squamads
squamas
square
squedra
squitsch
sr
srebrenica
srf
srg
sri
srpska
srr
srt
ss
ssas
sse
ssel
sseldorf
ssen
sser
ssisches
ssli
ssr
ssy
st
sta
staat
staaten
staatenbund
staates
staatliche
staats
staatsgewalt
staatslehre
staatsrecht
stab
stabel
stabels
stabiae
stabiana
stabil
stabila
stabilas
stabilescha
stabili
stabilida
stabilidas
stabilids
stabiliment
stabiliments
stabilir
stabilisa
stabilisada
stabilisadas
stabilisar
stabilisaziun
stabilitad
stabils
stabio
stabla
stabs
stad
stada
stadas
stadi
stadion
stadions
stadis
stadium
stadler
stads
stadt
stadtfu
staff
staffeln
staffetta
stage
stagiun
stagiunala
stagiuns
stagnada
stagnaziun
stai
staila
stailalva
stailas
stair
staiva
stalin
stalingrad
stalinissem
stalla
stallun
stalluns
stamins
stampa
stampada
stampadas
stampads
stampadur
stampar
stamparia
stampats
stan
stancladad
stand
standard
standards
stanford
stanisław
stanley
stans
stanza
stanzas
star
stara
stark
starker
starr
stars
start
stat
statal
statala
statalas
statalisaziun
statalitad
statals
statalter
statalters
state
staten
states
static
statica
station
statistic
statistica
statistical
statisticamain
statisticas
statistics
statistik
statistique
statistisches
stato
statt
stattan
statua
statuas
statuescha
statui
statura
status
statut
statuts
stau
staufer
staufers
stauffenberg
stauffer
staufica
staun
staunchels
staus
stausch
stauscha
stauschan
stauschbena
stavel
staziun
staziuna
staziunada
staziunadas
staziunads
staziunament
staziunar
staziuns
ste
sted
steda
stedi
stediamain
stedis
stefan
stefano
steffan
steffani
steffen
stehmann
steiermark
steiger
steilas
stein
steinbach
steinberg
steiner
steininger
steinzeit
steivan
stella
stellung
stempra
stemprads
sten
stenda
stender
stendi
stendida
stendidas
stenta
stentada
stentadas
stentads
stentan
stentar
stentas
stentava
stentavan
stentus
stentusa
stephan
stephanie
stephen
stephenson
steppa
steppas
ster
sterben
stern
sternim
sterreich
sterreichische
sterreichischen
sterreichs
stettia
stettin
steva
stevan
steve
steven
stevens
stevenson
stewart
stgaffa
stgaffescha
stgaffeschan
stgaffi
stgaffida
stgaffidas
stgaffids
stgaffind
stgaffir
stgaffiziun
stgaglias
stgala
stgalas
stgalim
stgalims
stgamiada
stgamiads
stgamiar
stgandel
stgandler
stgarpar
stgarpitsch
stgars
stgarsa
stgarsas
stgarsezza
stgatscha
stgatschada
stgatschadas
stgatschads
stgatschan
stgatschar
stgauda
stgaudada
stgaudads
stgaudament
stgaudan
stgaudar
stgazi
stgazis
stgilats
stgir
stgira
stgiradetgna
stgiras
stgirenta
stgirentada
stgirezza
stgirs
stgisa
stgomi
sthetik
stiarlas
stica
stichting
stiegemann
stierva
stietencron
stificaziun
stiftung
stigma
stigmas
stigmatisa
stil
stilet
stilettada
stilisa
stilistic
stilistica
stilisticamain
stilisticas
stilistics
stille
stils
stim
stima
stimada
stimads
stiman
stimar
stimaziun
stimaziuns
stimm
stimmen
stimul
stimula
stimular
stimulaziun
stimulaziuns
stimuls
stina
stinada
stinadamain
stinglwagner
stippa
stippas
stipula
stiria
stirner
stirpa
stirpas
stiva
stivals
stiz
stizza
stizzar
stlichen
sto
stocker
stockholm
stoffe
stolleis
ston
stone
stones
stop
stoppi
stoppia
stoppian
storia
storico
stories
storm
storni
storschan
storscher
stort
storta
stortas
storting
story
stos
stoss
stra
strabon
strada
stradal
stradun
straduns
strair
strait
strand
strasbourg
strassburg
strasse
strasser
strategia
strategias
strategic
strategica
strategicas
strategics
strategie
strategy
stratocaster
stratosfera
straubing
straucharten
strauss
street
streichquartett
streit
stremblir
stresa
stresas
stress
stretg
stretga
stretgamain
stretgas
stretgs
stria
strias
stricta
strictamain
striegn
string
stritga
stritgadas
stritgar
striuns
strivla
strivlas
stro
strofa
strofas
strom
structura
structurada
structuradas
structurads
structural
structurala
structuralas
structuralmain
structurals
structurar
structuras
structuraziun
structure
struggle
struktur
strukturen
strusch
struve
stu
stuain
stuair
stuart
stubbe
stuben
studegia
studegiar
studegiau
student
studentica
students
studi
studia
studie
studien
studies
studio
studios
studis
studium
study
stuess
stuessan
stueva
stuevan
stui
stuiu
stupan
sturluson
sturm
sturnadad
sturschida
sturschids
stuscha
stuschada
stuschads
stuschar
stussavgia
stuttgart
su
suaditsch
suanda
suandada
suandadas
suandads
suandant
suandanta
suandantamain
suandantas
suandants
suandar
suandava
suandavan
suandond
suatientscha
subconscient
subcontinent
subdit
subditas
subdits
subducida
subducziun
subi
subject
subjectiv
subjectiva
subjectivs
subjects
sublim
submarine
submissiun
subordina
subordinada
subordinadas
subordinads
subordinaziun
subscriber
subsidiaritad
subsistenza
subsp
substantiv
substanza
substanzas
substanziala
substitui
substituida
substituir
substitut
substituts
substituziun
substrat
subsumma
subsummadas
subsummads
subsummar
subtila
subtropas
subtropic
subtropica
subvenziuns
suc
succeda
succedan
succeder
succedi
succedia
succedida
succedidas
succedids
succediva
success
successiun
successiv
successiva
successivamain
successur
successura
successuras
successurs
succumber
suche
sucht
sud
sudan
sudetas
sudos
suen
suenter
suenterguerra
suentermezdi
sueton
suez
sufers
suffix
suffixs
suffizient
suffizienta
suffizientamain
suffizientas
suffrientscha
suffrir
sufissem
sufla
suga
sugas
sugerescha
sughet
suhrkamp
sui
suicidi
suisse
suisses
suita
sul
sulada
sulagl
sulegl
suleglivas
suleglivs
sulet
sulets
suletta
sulettamain
sulettamaing
sulettamein
sulettas
sulfuric
sulla
sullevaziun
sullevaziuns
sullivan
sulom
sultan
sultanat
sultans
sumbriva
sumbrivas
sumbrivaunas
sumbrivauns
sumeglia
sumeglian
sumegliant
sumeglianta
sumegliantamain
sumegliantas
sumegliants
sumegliavan
sumeglientscha
sumeglientschas
sumfil
summa
summas
summer
sumvitg
sun
suna
sunada
sunan
sunar
sunaric
sunasoncha
sunava
sunavan
sunday
sunder
sung
sunnits
sunquist
suns
suomen
suomenlinna
suonda
suondan
suot
super
supera
superar
supercontinent
superior
superiur
superiura
superiuradad
superiuras
superiuritad
superiurs
superpussanzas
superstiziun
supersunt
suppl
supplement
supplementar
supplementara
supplementaras
supplementarmain
supplementars
supplitga
supplitgescha
suppon
suppona
supponan
supponer
supponi
supponida
supponidas
supponids
supponiva
supporta
supportan
supportar
supposiziun
supposiziuns
suppressiun
supprimer
supprimi
supprimida
supprimids
supranaziunalas
suprastanza
suprem
suprema
supremazia
sur
sura
suramaun
suraua
surava
surbajegia
surbajegiada
surcasti
surchargia
surchombras
surcuolm
surda
surdada
surdadad
surdadas
surdads
surdar
surdat
surdattan
surdumanda
suren
surengiu
surexplotaziun
surface
surfatscha
surfatschas
surinam
surlascha
surlaschar
surlav
surlavura
surlavurada
surm
surmanar
surmar
surmeir
surmenziunadas
surmenziunads
surmiran
surmirana
surmirans
surmunta
surmuntada
surmuntan
surmuntar
surnatiral
surnatiralas
surnatirals
surnom
surnum
surordina
surordinada
surpassa
surpassada
surpassament
surpassaments
surpassan
surpassar
surpassava
surpassia
surpiglia
surpigliada
surpigliadas
surpigliads
surpiglian
surpigliar
surpli
surpopulaziun
surprais
surpraisa
surprendent
surprendenta
surprendentamain
surprender
surprendi
surpriu
surproducziun
surproporziunala
surproporziunalmain
surpussanza
surrealissem
surrealists
surregiunal
surregiunala
surregiunalas
surrein
surs
sursaissa
surselva
surses
sursiglir
sursilvan
sursilvana
sursilvania
sursta
surstar
surstructura
surtratg
surtratga
surtratgs
surtut
suruman
sururden
survart
surveglia
survegliadas
survegliads
surveglianza
survegliar
survegn
survegnan
survegni
survegnir
survegniu
survegniva
survegnivan
surventscher
surventschi
survesair
survesi
survetsch
survey
survista
survistas
survival
survivan
survivent
survivents
survivenza
surviver
survivi
sus
susa
susan
susanne
susch
suspect
suspecta
suspectadas
suspectads
suspendi
suspensiun
suspensiv
sussex
sustegn
sustegna
sustegnair
sustegnan
sustegneva
sustegnevan
sustegni
sustegnia
sustegnida
sustegnidas
sustegnids
sustegns
sut
sutclassa
sutclassas
sutcliffe
sutdivida
sutdivider
sutdividi
sutdividida
sutdivididas
sutdividids
sutdivisiun
sutdivisiuns
suten
sutensi
suter
sutermeister
sutfamiglia
sutga
sutgas
sutgener
sutgera
sutgruppa
sutgruppas
sutmarin
sutmarinas
sutmarins
sutmina
sutminar
sutmissiun
sutrepublica
sutrepublicas
sutselva
sutsilvan
sutsilvana
sutsilvania
sutspezia
sutspezias
sutsviluppa
sutsviluppada
sutsviluppads
suttamess
suttamessa
suttamessas
suttametta
suttametter
suttascripziun
suttascripziuns
suttascrit
suttascritta
suttascriver
suttastat
suttastattan
suttasteva
suttastevan
suttastritga
suttastritgar
sutterran
sutterrana
sutterranas
sutterrans
suttetg
suttitel
sutuffiziers
suturden
sutvart
suvenz
suveran
suverana
suveranas
suveranitad
suverans
suworow
svabais
svabaisa
svalbard
svalita
svalitaziun
svanescha
svaneschan
svani
svanida
svanidas
svanids
svaniment
svanir
svanius
svapuraziun
svapurs
svatopluk
svedais
svedaisa
svedaisas
sveglia
svegliada
svegliar
svelt
svelta
sveltas
sveltezza
sveltezzas
svelts
sven
sveriges
svess
svessa
svevia
svezia
sviament
svida
svidar
svieuta
svilup
sviluppa
sviluppada
sviluppadas
sviluppads
sviluppan
sviluppar
sviluppava
sviluppescha
sviluppia
sviluppo
svilups
sviz
svizer
svizra
svizras
svizzer
svizzera
svizzero
svizzers
swan
swasiland
swaziland
sweden
swift
swiss
swisscom
swissinfo
switzerland
sy
sydney
sylvatica
sylvia
symphony
symphyla
symposium
syncerus
syste
system
systematische
systeme
systems
sz
szczecin
sze
szeged
szila
szlo
søren
t
ta
tabella
tabellas
tabu
tabus
taciti
tacitus
tacla
tact
tactica
tacticas
tactics
tactila
tacts
tadeusz
tadlar
tadschikistan
taft
tag
tagblatt
tage
tageblatt
tagebu
tagebuch
tagen
tages
tagesschau
tagl
taglia
tagliada
tagliadas
tagliads
taglian
tagliar
taglias
tagls
tai
taila
tailanda
tailas
taimp
tain
tais
taisch
taischs
taiwan
take
tal
tala
talas
talbot
tale
talent
talenta
talents
tales
talian
taliana
talianas
talians
taliaun
taliauna
taliban
talleyrand
tallinn
talmain
talmud
talpa
talpas
tals
tamangur
tan
tanach
tancar
tandem
tanga
tanghescha
tangheschan
tango
tanner
tannins
tansania
tanscha
tanschan
tanscher
tanscheva
tanschevan
tanschi
tant
tantas
tanter
tantike
tantra
tantricas
tants
taoissem
tar
tarandus
tarapaca
tarasp
taraxaci
taraxacum
tard
tardiv
tardiva
tardivas
tardivs
targnol
targnols
tariffa
tariffas
tarnovo
tarragona
tarscholas
tartarugas
tartu
tartuffels
taschair
taschenbuch
taschenbuchverlag
taschenlexikon
taschenta
taschi
task
tasmania
tasna
tassilo
tasta
tastas
tastatura
tastga
tat
tatars
tate
tatgar
tatona
tatra
tats
tatta
tauber
tauern
tauna
taunas
taunt
taunus
taur
taurs
taurus
taus
tavanasa
tavau
tavauns
taverne
tavla
tavlas
tavo
taxa
taxas
taxescha
taxis
taxon
taxonomia
taxonomic
taxus
taylor
taz
tb
tcp
te
team
teams
teater
teaters
teatro
teau
teba
teborg
tec
technik
technology
tecnic
tecnica
tecnicamain
tecnicas
tecnics
tecnologia
tecnologias
tecnologic
tecnologicamain
tecnologicas
tecnologics
tectonica
tectonicas
tectum
ted
tegia
tegn
tegna
tegnair
tegnairchasa
tegnairchasas
tegnan
tegnend
tegneva
tegnevan
tegni
tegnia
tegnian
tegnida
tegnidas
tegnids
teheran
tei
teias
teidla
teil
tel
telecommunicaziun
telefon
telefona
telefonar
telefonia
telefonin
telefonins
telefons
telegraf
telegrafia
telegrafica
telegram
telegraph
telepolis
telesguard
television
televisiun
televisiva
telgia
tell
tello
telnet
telpi
telpis
tema
temair
teman
temas
tematic
tematica
tematicas
tematics
tematisa
tematisada
tematisads
tematisar
tematisescha
tematiseschan
temerari
temeva
temevan
temi
temida
temp
tempel
tempels
temperament
[...]
